{
  "metadata": {
    "vocab_size": 26614,
    "algorithm": "BPE",
    "created_at": "2026-08-11 03:41:23",
    "special_tokens": [
      "<PAD>",
      "<SOS>",
      "<EOS>",
      "<UNK>",
      "<MASK>"
    ]
  },
  "vocab": {
    "orton": 11754,
    "Ġunsupp": 22016,
    "Ġconsequ": 6254,
    "Ġperpetual": 12301,
    "reposed": 24492,
    "Ġhark": 8427,
    "Ġdismantled": 20215,
    "formality": 22217,
    "'s": 2468,
    "atives": 2232,
    "Ġorphan": 12381,
    "Ġprehensile": 26534,
    "ĠâĢľâĢĺ": 8503,
    "fiery": 13580,
    "Ġtum": 5692,
    "isbury": 21375,
    "Ġtext": 2265,
    "indirectly": 18437,
    "ounted": 5030,
    "Ġimmortal": 8017,
    "Ġheavy": 3745,
    "postp": 24634,
    "take": 4575,
    "ouses": 5163,
    "Ġunkindness": 22037,
    "haired": 14765,
    "q": 85,
    "foot": 9046,
    "unhappy": 10237,
    "apparent": 11041,
    "lifeless": 24312,
    "Ġforgery": 25977,
    "ĠĠĠĠĠĠĠĠĠĠĠĠĠĠĠĠĠĠĠĠĠĠĠĠĠĠĠĠĠĠĠĠĠĠĠĠĠĠĠĠĠĠĠĠĠĠĠĠĠĠĠ": 20037,
    "Ġrecoil": 18687,
    "Ġtwinkled": 14311,
    "itory": 12564,
    "windlass": 16721,
    "Ġerad": 25028,
    "joined": 13274,
    "fulness": 4309,
    "Ġunconnected": 18242,
    "humorously": 24017,
    "Ġcyp": 21343,
    "Ġsect": 17751,
    "Ġaffrighted": 13571,
    "Ġensuing": 12307,
    "Ġeighty": 19474,
    "Ġbrig": 11047,
    "Ġcoincidences": 26363,
    "Ġvivid": 8057,
    "Ġsquat": 14367,
    "Ġsubsets": 2341,
    "goes": 10426,
    "ally": 527,
    "ckles": 22086,
    "Ġrephr": 21676,
    "Ġwicked": 5960,
    "pol": 5892,
    "Ġfavourably": 16360,
    "Ġdusty": 14924,
    "wreck": 21135,
    "Ġgrating": 14354,
    "adequate": 15202,
    "Ġhempen": 13549,
    "Ġlashings": 25097,
    "Ġcheery": 16366,
    "clergy": 18933,
    "riptions": 14793,
    "Ġascent": 19617,
    "Ġcathedral": 17412,
    "Ġmountainous": 16599,
    "orough": 5700,
    "Ġlaborers": 19057,
    "Ġhelmsman": 10504,
    "Ġuncomp": 15839,
    "î": 175,
    "Ġafresh": 18628,
    "vard": 21109,
    "Ġheiress": 20696,
    "meantime": 9091,
    "Ġimparts": 18446,
    "Ġexploit": 19161,
    "your": 1984,
    "Ġdeceit": 13480,
    "Ġfashionable": 19543,
    "top": 4483,
    "Ġadjacent": 20710,
    "track": 24314,
    "Ġdepartments": 24242,
    "Ġmarshy": 20217,
    "separately": 25227,
    "oss": 10115,
    "jug": 17580,
    "Ġcannib": 6035,
    "icuous": 10835,
    "bbed": 6911,
    "nature": 5359,
    "Ġcollect": 7237,
    "Ġsar": 21212,
    "Ġunlim": 18253,
    "Ġeat": 4643,
    "Ġcontempl": 6701,
    "Ġunsounded": 15847,
    "Ġperilously": 24507,
    "Ġtable": 2501,
    "Ġslugg": 15267,
    "Ġbenches": 18781,
    "Ġpreside": 18365,
    "Ġaccost": 12843,
    "Ġgardens": 16452,
    "Ġspent": 3965,
    "rises": 17655,
    "quarters": 24946,
    "Ġinclosed": 19537,
    "Ġunprotected": 22062,
    "Ġfrontispiece": 23911,
    "Ġlive": 2737,
    "Ġtimorous": 24225,
    "shall": 4548,
    "Ġcalmness": 12090,
    "Ġblades": 11893,
    "Ġsolace": 16197,
    "ine": 404,
    "Ġconsisted": 10419,
    "Ġmaled": 21313,
    "ief": 2047,
    "Ġundone": 24117,
    "dem": 10691,
    "cely": 3575,
    "Ġnoticed": 5548,
    "iary": 15369,
    "city": 15326,
    "Ġanecdote": 26354,
    "Ġmors": 17801,
    "Ġpeterson": 9482,
    "Ġcapsizing": 20087,
    "Ġannesley": 19576,
    "Ġbildad": 3782,
    "Ġmanipulated": 25178,
    "Ġcoil": 11816,
    "Ġfrosts": 19801,
    "relative": 24010,
    "Ġrange": 9711,
    "Ġdisturb": 7107,
    "Ġlucases": 9009,
    "wick": 5362,
    "Ġ1950": 11359,
    "bbing": 6323,
    "anthrop": 17381,
    "asions": 12648,
    "Ġstrict": 7222,
    "treated": 21093,
    "remem": 13064,
    "itatingly": 25277,
    "beheld": 11800,
    "rec": 6003,
    "ex": 622,
    "breathing": 25335,
    "terdam": 18129,
    "tum": 11531,
    "Ġsparsity": 4208,
    "information": 12391,
    "summoned": 26591,
    "formed": 2556,
    "Ġstroll": 13351,
    "redit": 3877,
    "judged": 14830,
    "inct": 3294,
    "Ġrand": 1582,
    "Ġblackest": 19098,
    "Ġaccumulation": 2693,
    "Ġpredomin": 16039,
    "concluded": 11243,
    "Ġthro": 5817,
    "eland": 11619,
    "Ġflies": 13022,
    "Ġinsurgents": 26600,
    "warrior": 24798,
    "ows": 1918,
    "arity": 1303,
    "insulting": 26055,
    "actor": 11836,
    "Ġground": 2847,
    "Ġstudying": 9848,
    "Ġbradstreet": 9576,
    "Ġhappiest": 11880,
    "ru": 479,
    "Ġcompliments": 8632,
    "Ġlucifers": 16588,
    "anc": 6379,
    "Ġthunders": 15635,
    "subject": 6631,
    "Ġsuccour": 20433,
    "Ġwidows": 24236,
    "Ġchaise": 9076,
    "histor": 13490,
    "Ġglancing": 5399,
    "Ġsought": 5010,
    "Ġrepresenting": 4063,
    "Ġrefuse": 5739,
    "Ġbowled": 23767,
    "Ġromans": 16759,
    "Ġprotectors": 9070,
    "spass": 18688,
    "Ġcruel": 5121,
    "Ġwoodcock": 19162,
    "Ġrenounce": 19466,
    "anim": 6522,
    "Ġpitiable": 9913,
    "brushing": 20787,
    "bug": 17492,
    "Ġpalp": 11251,
    "Ġclair": 6269,
    "shuff": 18484,
    "reng": 4006,
    "ners": 3273,
    "Ġinhospit": 25452,
    "Ġforster": 5230,
    "discoloured": 23496,
    "Ġdiscovers": 4426,
    "rise": 6226,
    "Ġtimid": 6345,
    "Ġmechanical": 7937,
    "Ġswallow": 8950,
    "âĢĶâĢľ": 2970,
    "Ġemble": 13970,
    "Ġnatures": 16505,
    "Ġsurpassing": 20466,
    "Ġessays": 19743,
    "Ġfamil": 4319,
    "Ġletter": 2194,
    "Ġanalog": 12609,
    "sive": 4145,
    "Ġloops": 8852,
    "ferences": 10326,
    "Ġattics": 22619,
    "ording": 9763,
    "Ġegot": 18007,
    "Ġbalmoral": 16206,
    "Ġliveliness": 13642,
    "american": 11400,
    "frightened": 17195,
    "trem": 17681,
    "heric": 15909,
    "Ġbankrupt": 16796,
    "raved": 18012,
    "corn": 13698,
    "Ġepsom": 19981,
    "lik": 3916,
    "Ġplow": 21456,
    "Ġmyself": 1456,
    "Ġslate": 11936,
    "broken": 8020,
    "Ġmirth": 15542,
    "Ġengrossed": 12994,
    "Ġdownward": 10331,
    "Ġturbulence": 26597,
    "pulling": 25146,
    "Ġstain": 18067,
    "Ġeating": 8135,
    "Ġmaiden": 13385,
    "Ġperseverance": 13596,
    "uble": 21101,
    "Ġthoughtfulness": 18773,
    "Ġrich": 2993,
    "sailed": 17666,
    "wrote": 11546,
    "Ġast": 2961,
    "concealed": 25115,
    "Ġsuperhuman": 23452,
    "Ġstash": 18070,
    "Ġknight": 9726,
    "Ġgirth": 13135,
    "Ġdestined": 7974,
    "cano": 18839,
    "Ġbreathes": 13246,
    "Ġdownst": 3558,
    "irious": 15783,
    "Ġexpon": 968,
    "Ġinto": 649,
    "paradise": 20635,
    "connection": 18868,
    "Ġemptied": 24347,
    "Ġchocks": 13344,
    "Ġjest": 18404,
    "Ġconcer": 23320,
    "Ġsubsequent": 7658,
    "erably": 7573,
    "Ġunhe": 22005,
    "Ġunpleasing": 22050,
    "Ġslight": 3118,
    "Ġfold": 5531,
    "wish": 8099,
    "Ġcetace": 14987,
    "Ġwreck": 7314,
    "Ġreturn": 1712,
    "raham": 18013,
    "Ġroots": 11185,
    "ogra": 4572,
    "wonderful": 16960,
    "Ġsaint": 15506,
    "hun": 5210,
    "Ġsociety": 3981,
    "promised": 12249,
    "despicable": 24636,
    "mind": 4626,
    "Ġsplit": 7992,
    "Ġignor": 4015,
    "Ġunscrew": 22035,
    "Ġdangerously": 23934,
    "Ġdisgusting": 19893,
    "aken": 1870,
    "unities": 15768,
    "Ġzealand": 12348,
    "Ġjoosy": 23630,
    "Ġrel": 1094,
    "morn": 20975,
    "Ġyounge": 16286,
    "Ġdecorated": 22456,
    "Ġemigrant": 25859,
    "dil": 11478,
    "bulkington": 19924,
    "iscuits": 24666,
    "Ġdelay": 5748,
    "odhead": 18120,
    "Ġdreamed": 16629,
    "Ġfancies": 10424,
    "Ġlatitudes": 9495,
    "Ġmagnificent": 9841,
    "ells": 5303,
    "Ġscalding": 16329,
    "Ġdealing": 14044,
    "Ġinjured": 9039,
    "fins": 13718,
    "Ġpenn": 11111,
    "veral": 2350,
    "Ġtoil": 6531,
    "Ġallow": 1126,
    "Ġcollectively": 19966,
    "irms": 18168,
    ",--âĢľ": 19197,
    "Ġner": 1645,
    "Ġstrainings": 24627,
    "enemy": 15525,
    "Ġmiracle": 15092,
    "harbor": 13563,
    "thr": 12757,
    "dering": 5305,
    "Ġdisturbed": 8671,
    "Ġascertained": 25296,
    "unless": 9234,
    "order": 1960,
    "suit": 18631,
    "Ġlucerne": 23862,
    "Ġrepulsive": 14530,
    "Ġwise": 6811,
    "Ġtruce": 24115,
    "Ġshe": 466,
    "wondered": 17029,
    "Ġexisted": 15752,
    "braces": 24658,
    "Ġability": 2764,
    "Ġowned": 11874,
    "Ġscientific": 6857,
    "Ġdive": 10172,
    "Ġmenaced": 16291,
    "Ġweedy": 15790,
    "Ġclustered": 25233,
    "Ġ135": 24785,
    "Ġoccur": 1082,
    "Ġlance": 4879,
    "Ġinflu": 4909,
    "Ġpicturesque": 14893,
    "Ġappro": 659,
    "50": 6784,
    "lynes": 15701,
    "apparatus": 26563,
    "Ġadvisable": 11442,
    "Ġcandelabra": 26602,
    "playing": 19656,
    "articulate": 17397,
    "Ġxlix": 25860,
    "Ġtendency": 11329,
    "Ġclues": 18422,
    "Ġdaboll": 25950,
    "Ġliked": 5264,
    "mblies": 24608,
    "Ġ116": 24440,
    "Ġrepe": 3282,
    "Ġinvestig": 10549,
    "pour": 17630,
    "stretching": 20497,
    "tail": 8761,
    "Ġdummy": 25449,
    "Ġindic": 2887,
    "falsehood": 25901,
    "Ġillustrative": 25066,
    "astrous": 15884,
    "beth": 13687,
    "Ġexh": 5232,
    "Ġsusp": 2664,
    "Ġstratag": 26028,
    "Ġimposs": 16616,
    "midnight": 14901,
    "Ġstifle": 18076,
    "Ġoat": 21321,
    "Ġliterature": 17148,
    "Ġring": 4450,
    "Ġrespective": 16343,
    "Ġdestroyed": 5271,
    "Ġdays": 2079,
    "'(": 2978,
    "ik": 17571,
    "cheeks": 23806,
    "need": 10983,
    "Ġsank": 5076,
    "Ġinattention": 17931,
    "Ġmothers": 14540,
    "ham": 1704,
    "grees": 20885,
    "Ġnarrowly": 16820,
    "Ġpupp": 10820,
    "Ġresentment": 7530,
    "Ġspecialized": 3921,
    "protection": 19919,
    "Ġcalcul": 3639,
    "Ġbell": 4635,
    "Ġfooted": 23795,
    "month": 6463,
    "Ġstock": 7455,
    "Ġspitzbergen": 15286,
    "otic": 15742,
    "mighty": 9466,
    "Ġwinds": 5746,
    "Ġplucked": 15112,
    "Ġclaps": 22346,
    "Ġungrateful": 14120,
    "Ġbarbara": 24818,
    "fts": 18694,
    "witness": 10034,
    "Ġannounce": 13337,
    "Ġindifferent": 6174,
    "hit": 20888,
    "Ġcarelessly": 11120,
    "Ġbowels": 9429,
    "Ġglow": 7170,
    "Ġappear": 2487,
    "Ġdimensions": 16571,
    "touching": 15090,
    "Ġsnap": 11201,
    "erval": 4023,
    "Ġstamping": 20029,
    "Ġdra": 1588,
    "departed": 24794,
    "Ġknob": 24407,
    "achusetts": 20709,
    "Ġflank": 8228,
    "Ġrumours": 24598,
    "Ġtechnical": 17191,
    "Ġfight": 5366,
    "atha": 6572,
    "Ġambiguous": 20163,
    "Ġsigning": 22707,
    "solving": 3098,
    "ailing": 7021,
    "Ġbanquet": 15239,
    "Ġboston": 22635,
    "bres": 11471,
    "Ġexplanation": 6692,
    "Ġfuriously": 9801,
    "Ġrepose": 6741,
    "Ġbrooks": 25700,
    "ufactured": 15180,
    "gl": 3292,
    "Ġplay": 2626,
    "Ġalleghan": 25795,
    "Ġassistants": 9451,
    "Ġturnkeys": 23027,
    "Ġglu": 15665,
    "sheltered": 25585,
    "Ġwrought": 11942,
    "Ġcy": 13873,
    "ight": 403,
    "Ġtermination": 16460,
    "Ġwhoever": 10975,
    "iteous": 14261,
    "Ġidler": 16403,
    "Ġunwilling": 7885,
    "Ġhos": 4942,
    "Ġlandscape": 12415,
    "Ġsighing": 18678,
    "surgeon": 24214,
    "Ġapartments": 19613,
    "Ġfalsely": 20580,
    "Ġgiants": 25960,
    "Ġrepressed": 21665,
    "Ġspeedily": 7711,
    "Ġdarted": 4757,
    "Ġabounding": 12342,
    "crucible": 24842,
    "Ġreads": 23109,
    "Ġsloping": 11937,
    "confid": 14866,
    "Ġavocation": 23950,
    "rified": 15418,
    "Ġlowly": 11121,
    "Ġaxe": 15061,
    "Ġrattling": 11395,
    "Ġsag": 6514,
    "handkerchief": 14617,
    "Ġinsular": 19267,
    "Ġalter": 6542,
    "Ġeleg": 6192,
    "Ġfaint": 5811,
    "Ġcretan": 22721,
    "Ġlining": 13950,
    "idav": 18092,
    "she": 1399,
    "apering": 8040,
    "ii": 4018,
    "Ġconspicuous": 13602,
    "Ġdrinks": 24279,
    "Ġembed": 1448,
    "oniously": 21256,
    "Ġhag": 12622,
    "Ġcaucus": 17379,
    "Ġdismissed": 12889,
    "Ġinferred": 14503,
    "Ġfame": 21404,
    "Ġtransported": 11279,
    "lakeman": 13750,
    "Ġparties": 7038,
    "opportunity": 12272,
    "Ġstains": 21741,
    "Ġrival": 10485,
    "aws": 8236,
    "itiousness": 21332,
    "Ġcarve": 23089,
    "Ġtour": 9147,
    "odox": 21813,
    "oping": 5559,
    "Ġenhancement": 23774,
    "emberley": 4172,
    "erve": 12546,
    "uttering": 12659,
    "Ġturkey": 19219,
    "must": 3578,
    "Ġconversed": 13187,
    "non": 9611,
    "Ġenormousness": 24515,
    "giv": 13721,
    "Ġbeech": 18082,
    "mme": 22498,
    "accompanied": 12420,
    "bon": 13683,
    "Ġtelesc": 12992,
    "mass": 12487,
    "fancy": 7337,
    "Ġprudential": 17917,
    "Ġgouge": 26188,
    "Ġbeth": 9657,
    "Ġlooking": 2474,
    "Ġrod": 9279,
    "cap": 8372,
    "bitterly": 20336,
    "ober": 15405,
    "umbled": 8492,
    "Ġcompliment": 5673,
    "Ġintricate": 15136,
    "Ġsoothed": 10028,
    "holder": 13281,
    "entrance": 12654,
    "where": 2094,
    "exper": 8878,
    "Ġunfrequently": 20738,
    "uits": 21103,
    "Ġveritable": 19379,
    "hval": 20897,
    "cru": 7126,
    "Ġmenacing": 23104,
    "Ġpunctual": 17137,
    "jud": 4479,
    "Ġtails": 9901,
    "tting": 17680,
    "Ġalley": 15733,
    "Ġsentences": 2682,
    "harbors": 20147,
    "caught": 8726,
    "Ġcrime": 4615,
    "Ġsuspicions": 9478,
    "Ġacqu": 1417,
    "author": 9859,
    "Ġunrelieved": 20544,
    "Ġtruest": 16703,
    "Ġ65": 24368,
    "Ġgrammars": 11402,
    "many": 5249,
    "heum": 17747,
    "ralian": 19599,
    "J": 46,
    "Ġguineas": 16267,
    "Ġfeminine": 15262,
    "Ġgain": 4826,
    "Ġalert": 18101,
    "Ġconcert": 11965,
    "Ġxxi": 24476,
    "Ġbrilliant": 11414,
    "Ġcleat": 18946,
    "imet": 21703,
    "weary": 22683,
    "Ġunidirectional": 3425,
    "Ġcaptiv": 16255,
    "helped": 18923,
    "up": 1283,
    "Ġhatherley": 7848,
    "Ġoccurs": 1859,
    "Ġhorrors": 10479,
    "Ġstoner": 7178,
    "Ġtou": 15465,
    "Ġpow": 4637,
    "ouching": 13176,
    "Ġwork": 1372,
    "proportions": 22831,
    "Ġgrate": 12961,
    "lid": 20944,
    "speak": 5504,
    "Ġunfitted": 24108,
    "Ġnets": 21521,
    "accompan": 11452,
    "Ġxii": 11989,
    "Ġdetestable": 15097,
    "gments": 12467,
    "Ġhal": 1360,
    "Ġreturns": 11924,
    "abases": 3005,
    "four": 6113,
    "Ġmarched": 18871,
    "Ġserpentine": 11360,
    "Ġ95": 19772,
    "kov": 17586,
    "Ġhindrance": 25220,
    "moran": 24152,
    "Ġsupply": 6066,
    "violent": 14579,
    "Ġservant": 5764,
    "multiple": 15106,
    "strang": 11183,
    "Ġdowncast": 18652,
    "Ġrubbing": 9320,
    "Ġmicrosc": 20675,
    "behaviour": 11301,
    "Ġwakes": 11571,
    "Ġwee": 21916,
    "Ġproblems": 2849,
    "partner": 19221,
    "measured": 19988,
    "Ġmerry": 5868,
    "Ġthenceforth": 25182,
    "Ġlid": 6983,
    "pistol": 17642,
    "Ġoccasion": 3247,
    "sides": 12505,
    "Ġbuck": 7157,
    "Ġvapors": 19907,
    "Ġproposition": 23247,
    "Ġsangu": 15503,
    "Ġhuman": 1318,
    "Ġperturbed": 20438,
    "dreams": 12335,
    "nikin": 23246,
    "Ġtimidly": 11338,
    "Ġdoubting": 13099,
    "ure": 356,
    "Ġscared": 14189,
    "ost": 5360,
    "iability": 20919,
    "Ġpian": 13916,
    "cable": 20796,
    "Ġsigma": 1542,
    "eon": 8729,
    "Ġintegrated": 13530,
    "1775": 26378,
    "Ġpreviously": 3920,
    "Ġtelegra": 11890,
    "pres": 16026,
    "Ġplausible": 26553,
    "Ġsimilarity": 3166,
    "bpp": 20771,
    "Ġcareless": 11119,
    "Ġgenerator": 3381,
    ";--": 8068,
    "uerus": 26406,
    "shooting": 16965,
    "Ġbetween": 791,
    "Ġsail": 1673,
    "Ġtahiti": 13618,
    "murderer": 13392,
    "Ġcrazy": 8592,
    "Ġprogen": 14038,
    "Ġfant": 9173,
    "Ġdenominated": 15227,
    "Ġhiss": 15785,
    "affect": 13211,
    "Ġinsincere": 26599,
    "Ġfalling": 6915,
    "wealth": 22685,
    "final": 19675,
    "Ġcarving": 14442,
    "Ġblackness": 9392,
    "Ġtottenham": 24141,
    "Ġopera": 23424,
    "Ġsubtlety": 24780,
    "Ġsubdued": 11030,
    "Ġungenerous": 18266,
    "Ġgrant": 11871,
    "Ġdivide": 12108,
    "Ġsuccessive": 10500,
    "ieved": 3231,
    "itz": 6005,
    "obviously": 25242,
    "help": 1480,
    "wickham": 5883,
    "Ġdecent": 10982,
    "Ġincivility": 18572,
    "mare": 17599,
    "confess": 12173,
    "Ġplainly": 4379,
    "Ġsavage": 4014,
    "Ġticking": 25033,
    "Ġniece": 5712,
    "Ġnursery": 19749,
    "Ġbunger": 9995,
    "Ġwhereupon": 14295,
    "isted": 3300,
    "Ġsatisfaction": 5667,
    "denial": 18714,
    "pat": 10116,
    "Ġdivergence": 2729,
    "razor": 21634,
    "Ġfeeble": 12282,
    "application": 12361,
    "ribe": 1223,
    "Ġbor": 5804,
    "horrors": 20540,
    "Ġincommod": 25307,
    "Ġmice": 13858,
    "Ġvaluable": 5608,
    "Ġunexpl": 22034,
    "Ġedinburgh": 16435,
    "convers": 6567,
    "Ġpersu": 3563,
    "Ġoverhanging": 22358,
    "Ġmagnanimous": 17410,
    "Đ": 209,
    "Ġserious": 4321,
    "Ġsides": 4578,
    "conception": 22471,
    "Ġmankind": 6698,
    "Ġtranquo": 14842,
    "Ġenvied": 19283,
    "Ġnever": 1020,
    "maid": 8552,
    "g": 75,
    "Ġsetbacks": 11063,
    "Ġbloodthirsty": 26601,
    "Ġadventure": 5980,
    "Ġshifting": 12765,
    "Ġstate": 1811,
    "Ġ91": 24589,
    "Ġdetective": 14404,
    "Ġunqualified": 22056,
    "voc": 8393,
    "Ġcascade": 20579,
    "Ġcomp": 723,
    "Ġscud": 14190,
    "Ġdictionary": 15111,
    "Ġstart": 3260,
    "manners": 16182,
    "Ġcatch": 4439,
    "Ġcomo": 21844,
    "bast": 10076,
    "Ġexchanged": 10878,
    "det": 5207,
    "omed": 13974,
    "vo": 11539,
    "pemberley": 9620,
    "Ġrue": 11865,
    "Ġgently": 7171,
    "iod": 3840,
    "Ġunavailing": 26215,
    "Ġslime": 23158,
    "Ġmurdering": 14810,
    "Ġaccumulating": 2723,
    "loud": 11500,
    "Ġerr": 1321,
    "Ġowest": 25091,
    "fedallah": 25522,
    "Ġevermore": 18810,
    "Ġamend": 16034,
    "Ġheadlands": 22895,
    "Ġmungo": 25631,
    "ational": 5716,
    "Ġattendance": 12179,
    "Ġthrice": 10575,
    "stories": 18023,
    "slowly": 9088,
    "Ġgravely": 7882,
    "Ġpre": 507,
    "Ġfitting": 21406,
    "Ġfolding": 19726,
    "Ġpattering": 18648,
    "Ġoun": 13862,
    "Ġtand": 21159,
    "purse": 20023,
    "Ġpetrified": 19595,
    "Ġoff": 901,
    "desp": 6075,
    "chased": 18041,
    "Ġorphans": 20203,
    "\"": 6,
    "waves": 10742,
    "Ġbarely": 16936,
    "Ġshape": 5639,
    "Ġactivity": 7919,
    "borough": 20784,
    "Ġstil": 15718,
    "Ġwanting": 6721,
    "Ġstrolled": 16770,
    "Ġsadly": 7302,
    "ians": 2355,
    "Ġvia": 2378,
    "Ġgrandfather": 19420,
    "Ġnic": 7376,
    "Ġoftentimes": 20154,
    "Ġgreat": 896,
    "Ġchecking": 23285,
    "Ġannot": 15599,
    "alty": 17938,
    "Ġupheld": 22149,
    "Ġmonosy": 18844,
    "Ġsnake": 12059,
    "Ġrazors": 22645,
    "Ġcompan": 2172,
    "blood": 7779,
    "Ġal": 342,
    "irited": 15784,
    "Ġvitality": 15171,
    "Ġcastors": 23973,
    "Ġbug": 11588,
    "Ġbuilding": 8062,
    "Ġethiopian": 26613,
    "Ġranged": 10257,
    "appeared": 4281,
    "Ġsatirical": 26279,
    "!": 5,
    "Ġgrowth": 14629,
    "Ġlimb": 9401,
    "tenderly": 20529,
    "prim": 23808,
    "Ġsky": 3971,
    "twill": 21073,
    "unable": 14058,
    "Ġreality": 7057,
    "Ġtumultuous": 10615,
    "Ġpartners": 11854,
    "backpropagation": 11984,
    "Ġfrosted": 19802,
    "Ġauthority": 7748,
    "Ġwhisker": 23932,
    "Ġknotted": 17019,
    "Ġvigorous": 10566,
    "Ġterror": 5124,
    "foolish": 12345,
    "outside": 12801,
    "Ġpianoforte": 15272,
    "Ġmaintaining": 1509,
    "Ġconfirm": 9855,
    "Ġlangs": 13953,
    "melted": 25206,
    "Ġperpendicular": 7209,
    "Ġmistress": 8611,
    "Ġgentle": 1891,
    "lost": 8887,
    "Ġaccustomed": 6861,
    "speptic": 23943,
    "Ġbigness": 19759,
    "Ġpurring": 23474,
    "smiled": 16614,
    "Ġacknowledgment": 16957,
    "value": 18809,
    "Ġapproach": 854,
    "arctic": 12607,
    "Ġsurvivors": 25732,
    "latter": 15381,
    "Ġyelling": 18096,
    "Ġtusked": 25426,
    "Ġinfinitely": 8963,
    "Ġpetty": 19594,
    "entric": 11618,
    "Ġproposed": 7460,
    "Ġpledge": 11599,
    "Ġjoists": 19232,
    "Ġfav": 1755,
    "larking": 17594,
    "Ġdegree": 3704,
    "Ġpaths": 2570,
    "Ġmuttering": 10499,
    "Ġevenly": 4131,
    "Ġunparalleled": 15851,
    "ott": 1873,
    "eminence": 20097,
    "Ġrepent": 9862,
    "Ġstacked": 21743,
    "Ġconcluded": 5658,
    "capt": 3837,
    "Ġwarnings": 16881,
    "shad": 10980,
    "supplemental": 25874,
    "Ġlub": 15646,
    "ribute": 7226,
    "Ġsilver": 7463,
    "Ġwer": 12549,
    "Ġneglected": 10377,
    "Ġserviceable": 24718,
    "Ġgrimes": 11034,
    "Ġlearnable": 3999,
    "opy": 4456,
    "Ġminority": 18752,
    "suspect": 9539,
    "rudence": 7092,
    "Ġcoiling": 12902,
    "Ġbengal": 18783,
    "sey": 5543,
    "Ġboats": 2637,
    "Ġtiresome": 26156,
    "cules": 12389,
    "Ġoceans": 7995,
    "Ġunimportant": 22025,
    "Ġted": 13811,
    "Ġcherish": 10589,
    "australian": 20560,
    "shape": 10981,
    "mpt": 6653,
    "Ġendeavoured": 4918,
    "Ġsuffers": 2973,
    "Ġflattened": 26047,
    "Ġdare": 3544,
    "inations": 7567,
    "Ġcalculate": 13263,
    "expedition": 26078,
    "involved": 25626,
    "currents": 23842,
    "Ġubiqu": 18046,
    "luyt": 18454,
    "acters": 9308,
    "Ġprick": 14476,
    "sharpening": 22451,
    "Ġstating": 15722,
    ",âĢĶâĢľ": 10069,
    "Ġser": 1671,
    "Ġstaircase": 20094,
    "Ġconsented": 11295,
    "qualified": 17098,
    "Ġoakshott": 12227,
    "Ġluxury": 20130,
    "=": 33,
    "revolver": 25627,
    "happy": 4423,
    "colonel": 8284,
    "Ġstiffly": 15005,
    "Ġbranches": 6776,
    "Ġtarpaulin": 26157,
    "Ġdeceiving": 21834,
    "subsided": 25830,
    "agne": 21902,
    "oding": 1464,
    "ß": 160,
    "handled": 19260,
    "Ġpresc": 15923,
    "finished": 10554,
    "heard": 5009,
    "min": 4570,
    "Ġmoney": 3418,
    "uss": 8763,
    "unned": 21875,
    "Ġridic": 7508,
    "Ġdank": 21426,
    "Ġfattened": 25949,
    "Ġairth": 23318,
    "orous": 5292,
    "Ġhandsomest": 20333,
    "taffrail": 15441,
    "arp": 2029,
    "Ġproper": 1378,
    "Ġfatal": 5871,
    "Ġslabs": 13058,
    "Ġfluctu": 5267,
    "Ġnormalizes": 1864,
    "gen": 6503,
    "Ġusage": 9728,
    "Ġcosmetic": 23470,
    "Ü": 157,
    "Ġcharcoal": 19011,
    ":âĢĶâĢĺ": 24193,
    "Ġwit": 3842,
    "Ġstuck": 9222,
    "Ġdelineate": 26057,
    "Ġtranquill": 6630,
    "reasonable": 7751,
    "months": 9071,
    "Ġscraping": 13415,
    "Ġfrigid": 17352,
    "ios": 2313,
    "Ġmisgiv": 14342,
    "Ġkent": 6691,
    "Ġredu": 1353,
    "Ġkrempe": 10669,
    "Ġopt": 775,
    "Ġnonsensical": 21526,
    "signs": 16538,
    "Ġstreet": 2958,
    "Ġsolitudes": 22881,
    "expense": 22426,
    "Ġworkflow": 2655,
    "ĠĠĠĠĠĠĠĠĠĠĠĠĠĠĠĠĠĠĠĠĠĠĠĠĠĠĠĠĠĠĠĠĠĠĠ": 19257,
    "Ġdetails": 6565,
    "Ġpupella": 20420,
    "Ġbulky": 13228,
    "Ġneural": 624,
    "ficial": 17548,
    "Ġclubb": 22348,
    "concent": 19478,
    "lantern": 17427,
    "grief": 13730,
    "aders": 21755,
    "rive": 9706,
    "ĕ": 214,
    "etieth": 21581,
    "Ġsupported": 9817,
    "Ġcedar": 15187,
    "Ġcoverage": 4287,
    "Ġtong": 4870,
    "benefit": 24642,
    "factories": 19842,
    "Ġactively": 18654,
    "Ġannual": 14831,
    "Ġremot": 8543,
    "Ġbut": 424,
    "Ġbarbaric": 10013,
    "vate": 21108,
    "isis": 12576,
    "honour": 13466,
    "Ġing": 5283,
    "Ġgardiners": 11157,
    "Ġacknowled": 6350,
    "inch": 10755,
    "passion": 11260,
    "bent": 15310,
    "Ġlug": 15649,
    "Ġtraverse": 18891,
    "Ġnavy": 14915,
    "distinct": 13334,
    "Ġrely": 8820,
    "mant": 20964,
    "Ġlieutenant": 15260,
    "Ġchain": 1847,
    "Ġpiteous": 17915,
    "Ġdependen": 1829,
    "Ġdriving": 3619,
    "Ġrats": 21973,
    "Ġpersist": 16281,
    "Ġunsub": 22018,
    "Ġsnatching": 10472,
    "inuating": 16201,
    "ī": 236,
    "Ġmet": 1945,
    "determine": 19942,
    "Ġrelationship": 2310,
    "Ġdutch": 6327,
    "shrouded": 26361,
    "ping": 9615,
    "Ġadds": 1807,
    "Ġital": 10866,
    "Ġunobstructed": 18264,
    "ensive": 6279,
    "vial": 17697,
    "Ġork": 18284,
    "anse": 12572,
    "Ġdip": 13906,
    "Ġrejo": 5915,
    "attachment": 13049,
    "Ġdanced": 7842,
    "Ġtre": 2539,
    "weather": 7229,
    "Ġrigid": 16716,
    "co": 2431,
    "Ġreneg": 21672,
    "mas": 5212,
    "Ġtant": 12522,
    "Ġproducts": 5198,
    "Ġterrier": 23397,
    "Ġupdating": 2691,
    "Ġclearer": 16310,
    "Ġglad": 3326,
    "Ġmalady": 24392,
    "Ġhanded": 8217,
    "omics": 21640,
    "Ġstubbornness": 25380,
    "Ġdomin": 10462,
    "accomplished": 17211,
    "Ġplenty": 6708,
    "Ġaway": 1245,
    "ful": 657,
    "hound": 20894,
    "Ġexperiences": 13027,
    "Ġyawn": 7609,
    "Ġpassengers": 13674,
    "Ġclothes": 4997,
    "ilib": 4119,
    "Ġwade": 17784,
    "philips": 20033,
    "miraculous": 26396,
    "Ġhereafter": 9329,
    "relapse": 24013,
    "inj": 9151,
    "hip": 8740,
    "swallowed": 14852,
    "Ġdelic": 4136,
    "Ġenrapt": 21937,
    "Ġvector": 1972,
    "ourage": 2450,
    "Ġunmo": 12770,
    "Ġsounds": 5190,
    "bunger": 20400,
    "impulse": 20644,
    "Ġwrench": 12554,
    "Ġdevoted": 6573,
    "respect": 6374,
    "Ġserene": 8166,
    "Ġadopted": 15177,
    "Ġknowing": 4455,
    "Ġdisown": 22521,
    "Ġthw": 21512,
    "gladness": 25194,
    "Ġ30": 10511,
    "Ġflann": 23009,
    "gging": 7696,
    "service": 15036,
    "acute": 22595,
    "unctuous": 21879,
    "consider": 6348,
    "Ġacid": 22679,
    "andish": 18153,
    "Ġthing": 1637,
    "Ġscaling": 3633,
    "Ġcomrade": 12281,
    "to": 715,
    "Ġqu": 606,
    "Ġtricks": 13483,
    "Ġpurporting": 19181,
    "Ġwert": 12553,
    "Ġsatisfying": 23696,
    "verize": 21725,
    "Ġstruggle": 3676,
    "Ġdazed": 15593,
    "Ġdomineer": 23660,
    "Ġwisdom": 11234,
    "threadbare": 25989,
    "Ġindiscreet": 22953,
    "throt": 25659,
    "Ġthird": 4187,
    "ason": 1257,
    "zen": 5140,
    "Ġwool": 19431,
    "Ġforeshadowing": 26592,
    "scheme": 15253,
    "Ġconsult": 6056,
    "Ġcover": 3557,
    "answering": 26004,
    "trampled": 26333,
    "Ġunbelief": 22044,
    "rice": 13776,
    "indul": 22367,
    "Ġverdant": 15002,
    "owners": 16085,
    "tipt": 25083,
    "abated": 14019,
    "declare": 25173,
    "Ġhails": 21947,
    "Ġwindings": 18909,
    "tons": 7559,
    "Ġleap": 5823,
    "Ġincreasingly": 9369,
    "ting": 1333,
    "Ġchalk": 15931,
    "Ġrocks": 6863,
    "Ġinterven": 10997,
    "Ġpush": 9183,
    "Ġfield": 1230,
    "_,âĢĻ": 12431,
    "whether": 5319,
    "cloud": 11105,
    "Ġmilitia": 13316,
    "afric": 19178,
    "Ġlunging": 24989,
    "Ġprinces": 23217,
    "Ġpassers": 18757,
    "camp": 15329,
    "Ġgrey": 4510,
    "Ġtwitching": 25683,
    "Ġslip": 8954,
    "madly": 24420,
    "nihil": 9851,
    "Ġcollege": 11424,
    "Ġjelly": 22297,
    "Ġmouthful": 16574,
    "Ġacts": 2291,
    "Ġtinkling": 25212,
    "thorough": 21982,
    "Ġnormal": 1204,
    "utely": 8131,
    "ert": 2632,
    "Ġgladstone": 23867,
    "Ġmassive": 9931,
    "run": 10721,
    "Ġaccosted": 13671,
    "murder": 10564,
    "Ġplaguy": 22604,
    "Ġflush": 14423,
    "Ġcumul": 4179,
    "Ġexhaust": 6399,
    "Ġoldest": 12970,
    "Ġdivined": 19441,
    "Ġident": 2236,
    "fes": 20850,
    "ď": 208,
    "folding": 24927,
    "Ġidleness": 11143,
    "Ġrelics": 16193,
    "Ġnoting": 18221,
    "positive": 20566,
    "Ġcemeteries": 26375,
    "Ġwasting": 12727,
    "Ġfaded": 10809,
    "Ġreplete": 15695,
    "gate": 12464,
    "sych": 9890,
    "Ġdisembow": 22534,
    "strong": 6322,
    "Ġtheatre": 21277,
    "i": 77,
    "Ġbrightest": 13223,
    "Ġperiodical": 14771,
    "Ġmouldings": 24737,
    "collins": 6916,
    "done": 6500,
    "Ġvirtue": 4922,
    "Ġembeddings": 2243,
    "Ġfashion": 4297,
    "lies": 15380,
    "valuable": 8247,
    "Ġmil": 4254,
    "Ġmate": 3709,
    "white": 4601,
    "sh": 641,
    "bacc": 7794,
    "Ġinstability": 3813,
    "Ġsad": 3869,
    "Ġkid": 9724,
    "Ġleisurely": 24746,
    "blot": 20782,
    "Ġjune": 10288,
    "Ġcataract": 23426,
    "Ġdazzling": 15210,
    "Ġfind": 1460,
    "Ġepisode": 26346,
    "cl": 1495,
    "Ġfountain": 7365,
    "Ġirrespective": 23373,
    "keys": 15856,
    "moored": 22705,
    "lad": 5991,
    "animation": 16979,
    "Ġframe": 1796,
    "Ġapproved": 16031,
    "learned": 8601,
    "Ġbaltic": 18794,
    "Ġcoolness": 16886,
    "Ġintegrity": 12311,
    "Ġimprovements": 14513,
    "grateful": 10428,
    "Ġwan": 15526,
    "nervous": 16274,
    "eskye": 21481,
    "Ġvernal": 23886,
    "Ġhammer": 6093,
    "expose": 23664,
    "set": 3867,
    "nical": 20990,
    "faced": 8079,
    "onom": 9158,
    "resembling": 25932,
    "Ġhysterical": 26092,
    "idled": 21765,
    "Ġsplinter": 23745,
    "Ġreadability": 2725,
    "Ġab": 528,
    "Ġclaws": 15967,
    "Ġmoderately": 22219,
    "lorious": 17592,
    "Ġmushroom": 13235,
    "Ġdepress": 14045,
    "Ġseparately": 13301,
    "Ġtrade": 2549,
    "itect": 985,
    "awe": 20764,
    "bred": 11469,
    "gu": 3957,
    "Ġfumes": 21416,
    "depart": 12263,
    "attent": 9358,
    "urp": 1474,
    "increas": 10454,
    "expl": 9282,
    "Ġices": 21153,
    "Ġmac": 15536,
    "Ġscare": 18396,
    "mere": 11851,
    "Ġraises": 11840,
    "Ġagency": 11804,
    "thither": 21980,
    "Ġswash": 23050,
    "Ġstranded": 9774,
    "Ġdimly": 9487,
    "afer": 17481,
    "Ġsunlight": 13084,
    "Ġmere": 2714,
    "Ġpersonal": 7479,
    "Ġdiabolical": 20341,
    "Ġalphabetical": 17201,
    "Ġdaw": 21427,
    "ackled": 22417,
    "Ġsaith": 14154,
    "Ġendeavour": 4677,
    "10": 17472,
    "hamlet": 23261,
    "Ġheadland": 22894,
    "consum": 12867,
    "utch": 21583,
    "Ġbidding": 9536,
    "Ġrefinement": 18705,
    "Ġquest": 2000,
    "duty": 20238,
    "egypt": 15348,
    "Ġdense": 8122,
    "Ġmorris": 18843,
    "omitted": 18016,
    "Ġriv": 10746,
    "ieties": 19026,
    "merry": 16536,
    "magnitude": 17248,
    "itten": 3440,
    "70": 17475,
    "ogene": 18671,
    "Ġsends": 14788,
    "Ġagain": 813,
    "even": 3838,
    "Ġdripping": 13146,
    "steam": 23957,
    "shaken": 16019,
    "Ġsporty": 19889,
    "hatchway": 25904,
    "relieved": 13275,
    "Ġpropontis": 17465,
    "Ġrouted": 24907,
    "garity": 17554,
    "ilburn": 18059,
    "Ġinseparable": 20687,
    "Ġunless": 4093,
    "rear": 21231,
    "Ġassistance": 6333,
    "aking": 973,
    "Ġmans": 15534,
    "Ġmeasureless": 14709,
    "Ġacceptance": 14826,
    "Ġop": 2603,
    "Ġrustic": 14964,
    "vint": 21113,
    "Ġsuddenly": 2646,
    "Ġwitty": 21291,
    "another": 5439,
    "Ġenveloped": 12206,
    "Ġcivil": 4678,
    "hogs": 20080,
    "imprisonment": 23760,
    "Ġemboldened": 22990,
    "Ġniag": 21527,
    "restored": 18977,
    "Ġtort": 5901,
    "Ġsink": 4339,
    "mother": 5480,
    "mean": 6438,
    "Ġparmacetti": 20603,
    "anging": 3551,
    "brÃ¦": 11175,
    "Ġatrocious": 21940,
    "Ġhospitable": 17059,
    "Ġevents": 4470,
    "warmest": 25027,
    "Ġcruc": 16534,
    "Ġhuff": 21487,
    "Ġfall": 2986,
    "Ġodorous": 19565,
    "arest": 4008,
    "Ġproced": 2580,
    "Ġfat": 3460,
    "Ġincalcul": 16061,
    "Ġenjoys": 19448,
    "Ġextremely": 2669,
    "Ġthoroughfares": 26095,
    "occupations": 24964,
    "sy": 2812,
    "Ġscorch": 20065,
    "Ġgeneration": 2258,
    "Ġunwonted": 14124,
    "Ġyard": 5920,
    "cig": 17503,
    "Ġmostly": 7663,
    "Ġtrop": 7565,
    "owards": 4593,
    "Ġget": 1619,
    "Ġsalvation": 14756,
    "sought": 15426,
    "Ġsits": 10768,
    "purpose": 10043,
    "Ġindividual": 5744,
    "parlour": 16383,
    "Ġsolve": 4197,
    "pher": 11511,
    "Ġneeds": 6605,
    "Ġaccelerating": 1614,
    "Ġrealities": 18980,
    "complexion": 14360,
    "probability": 17022,
    "Ġattic": 16093,
    "Ġquitted": 5311,
    "university": 25983,
    "Ġcellars": 24665,
    "Ġnetherfield": 3931,
    "nevertheless": 8285,
    "Ġdirectly": 2106,
    "Ġbattery": 21392,
    "Ġharvest": 13414,
    "acting": 22628,
    "hew": 5364,
    "destro": 13308,
    "couldn": 23716,
    "manned": 18763,
    "Ġcollected": 2611,
    "arius": 14248,
    "Ġfragments": 19006,
    "rich": 11517,
    "Ġinco": 14259,
    "Ġprompt": 3188,
    "Ġarab": 7823,
    "Ġreception": 9838,
    "Ġbillow": 14777,
    "Ġpermanently": 25473,
    "Ġcow": 13875,
    "Ġswan": 23046,
    "Ġemb": 1263,
    "inted": 2649,
    "Ġloomed": 12299,
    "urg": 8141,
    "Ġratt": 7880,
    "?_âĢĿ": 12314,
    "Ġtener": 21162,
    "omy": 6248,
    "Ġdiscoveries": 13357,
    "chants": 21689,
    "ceed": 1074,
    "Ġspecks": 14307,
    "hunted": 16832,
    "Ġdeacon": 18140,
    "Ġbegan": 2024,
    "imprudent": 14651,
    "Ġdifferent": 1429,
    "fly": 13713,
    "increase": 20267,
    "maintained": 25020,
    "Ġforgiven": 24024,
    "Ġpartaking": 22698,
    "yielded": 25756,
    "Ġblacksmiths": 19872,
    "Ġcups": 16882,
    "Ġabundantly": 17156,
    "benevolently": 25600,
    "Ġindulging": 16904,
    "Ġenglishmen": 19428,
    "Ġlogical": 14486,
    "guarded": 13293,
    "asked": 8911,
    "inguish": 9396,
    "Ġfrederick": 15584,
    "dington": 11899,
    "Ġarmchair": 8270,
    "Ġdisregarded": 22527,
    "teeth": 10354,
    "Ġadvised": 16204,
    "Ġshrimp": 24157,
    "Ġprank": 23213,
    "Ġunfelt": 24110,
    "Ġjanuary": 13652,
    "Ġhey": 11640,
    "Ġdispel": 16596,
    "relate": 24008,
    "amused": 21843,
    "Ġcarried": 3694,
    "mistake": 24529,
    "Ġinconveniences": 24939,
    "ollion": 19714,
    "Ġzoology": 22816,
    "hopeless": 16917,
    "bastian": 10673,
    "Ġporus": 24398,
    "Ġstyle": 6946,
    "Ġwouldn": 6045,
    "Ġbridge": 8348,
    "Ġagreeably": 24952,
    "Ġhere": 1087,
    "regret": 16450,
    "Ġlot": 6678,
    "direction": 17524,
    "Ġpresuming": 16793,
    "arman": 11594,
    "Ġber": 5698,
    "invite": 25088,
    "Ġpubl": 3941,
    "Ġsatir": 18793,
    "Ġshrubbery": 18232,
    "Ġcondensed": 24050,
    "grieved": 17316,
    "sperm": 5203,
    "Ġsuperglue": 23456,
    "Ġrubber": 22784,
    "rior": 12738,
    "Ġabsolut": 3911,
    "igations": 18043,
    "Ġeffectually": 16165,
    "ilet": 12826,
    "active": 16101,
    "Ġcabman": 14605,
    "iour": 4040,
    "Ġribbons": 24329,
    "otently": 21797,
    "Ġswinging": 7449,
    "oa": 9612,
    "riend": 1184,
    "Ġhookah": 16970,
    "Ġabominate": 20063,
    "Ġobscure": 9553,
    "Ġdante": 21436,
    "Ġquantization": 19853,
    "Ġseats": 14088,
    "Ġtok": 1246,
    "uccas": 21105,
    "Ġexclaim": 11221,
    "lives": 12483,
    "Ġweigh": 10894,
    "rove": 21530,
    "ĠâĢĶâĢĶ": 25757,
    "bering": 18680,
    "Ġclassify": 1554,
    "Ġextracted": 16327,
    "Ġintervening": 17267,
    "fabulous": 20472,
    "fort": 1749,
    "Ġdaughters": 4419,
    "lucifer": 25301,
    "Ġchoicest": 24220,
    "Ġrobert": 10970,
    "okers": 18441,
    "trap": 24313,
    "Ġcommit": 18655,
    "Ġdisgracing": 26255,
    "Ġbol": 6241,
    "Ġsustenance": 19932,
    "Ġpalsied": 25779,
    "rod": 10831,
    "hoist": 23712,
    "Ġneurons": 975,
    "strom": 15681,
    "Ġpairs": 4182,
    "Ġcoast": 4655,
    "larger": 24202,
    "Ġardour": 8042,
    "soc": 5175,
    "Ġprint": 18968,
    "Ġcheshire": 13089,
    "Ġswears": 16463,
    "bald": 16446,
    "ber": 884,
    "Ġsustain": 10016,
    "vishnoo": 21118,
    "Ġdeline": 16330,
    "Ġgree": 7594,
    "obey": 11509,
    "Ġhoary": 23352,
    "med": 1908,
    "Ġslipped": 6492,
    "Ġsingular": 4422,
    "pockets": 16209,
    "Ġpittance": 15614,
    "dearest": 11733,
    "pushed": 21022,
    "Ġconveniences": 19811,
    "planks": 21951,
    "Ġpatiently": 19917,
    "Ġcoincidence": 25483,
    "eluded": 21572,
    "cream": 15330,
    "Ġwood": 2288,
    "Ġchanc": 18384,
    "Ġaccountability": 10438,
    "Ġwhales": 1828,
    "Ġlip": 6532,
    "humour": 7498,
    "onely": 6516,
    "Ġarray": 12809,
    "Ġretiring": 16278,
    "Ġirresistible": 13111,
    "throwing": 11701,
    "Ġpledged": 20686,
    "understand": 1140,
    "Ġdeductions": 19732,
    "Ġpaste": 23417,
    "dangerous": 20239,
    "Ġsubtile": 20378,
    "jolly": 20930,
    "castles": 14636,
    "Ġmetropol": 11145,
    "Ġtrials": 16789,
    "Ġdirector": 18920,
    "het": 5435,
    "sax": 21055,
    "Ġpint": 17907,
    "Ġcaptain": 1599,
    "Ġfingers": 5672,
    "solemn": 19816,
    "Ġblasphemy": 26115,
    "Ġincorporate": 20453,
    "ceive": 3060,
    "gigantic": 15358,
    "Ġneglecting": 25007,
    "engine": 18926,
    "Ġassert": 7120,
    "Ġmoran": 9340,
    "Ġregulations": 18591,
    "officer": 17054,
    "Ġconveniently": 20077,
    "shire": 3019,
    "Ġdeclared": 5595,
    "Ġbank": 4877,
    "Ġaverted": 16251,
    "Ġlingering": 11379,
    "Ġfilters": 3928,
    "Ġ9": 5900,
    "Ġmagnus": 18956,
    "Ġusing": 700,
    "Ġtreat": 3174,
    "Ġbene": 2034,
    "Ġtouch": 3395,
    "ipotent": 10960,
    "Ġsaluted": 14757,
    "Ġconference": 15744,
    "ograph": 4796,
    "Ġ131": 24782,
    "sentimental": 25681,
    "comfortably": 16875,
    "Ġpond": 13915,
    "jected": 22711,
    ",*": 17471,
    "jointed": 24007,
    "Ġsatin": 12987,
    "Ġearned": 19403,
    "Ġkey": 2103,
    "Ġsembl": 19059,
    "antly": 1988,
    "Ġcrow": 3805,
    "ensity": 11811,
    "Ġlandlessness": 23378,
    "Ġe": 311,
    "nowadays": 22335,
    "interrupted": 11417,
    "Ġlanyard": 26461,
    "Ġexclusion": 19394,
    "complained": 25838,
    "Ġinvited": 6903,
    "Ġpassions": 7929,
    "Ġblank": 5950,
    "Ġvirginia": 13499,
    "Ġcampaign": 20660,
    "able": 452,
    "Ġcontempt": 6275,
    "Ġanomalous": 25637,
    "elze": 21570,
    "Ġgritted": 22802,
    "Ġcondescension": 10618,
    "Ġyourselves": 9028,
    "Ġbuildings": 24720,
    "Ġjew": 9467,
    "Ġpondicherry": 20489,
    "pin": 13766,
    "Ġsorrowful": 10536,
    "Ġthoughtfully": 12977,
    "Ġtravelled": 7771,
    "Ġmetaphys": 16410,
    "unguarded": 23669,
    "Ġdesponding": 25868,
    "athy": 14322,
    "Ġsimilar": 4917,
    "Ġthough": 991,
    "Ġdocumentation": 20553,
    "ilations": 21719,
    "Ġties": 12524,
    "Ġpaint": 7707,
    "Ġannouncement": 14832,
    "Ġpoll": 12028,
    "Ġequal": 4137,
    "Ġprefer": 6416,
    "Ġnooks": 26011,
    "Ġspec": 1262,
    "tro": 15432,
    "Ġsteady": 4847,
    "sir": 5001,
    "Ġcompelled": 14265,
    "dashed": 12453,
    "azine": 19130,
    "Ġisrael": 21800,
    "Ġexempt": 21826,
    "Ġsoftened": 11102,
    "Ġclosed": 4604,
    "rifle": 21045,
    "derness": 11735,
    "Ġsecretary": 19440,
    "Ġglaciers": 20172,
    "Ġumb": 11645,
    "Ġriggers": 24156,
    "Ġcreases": 22720,
    "Ġfeast": 10277,
    "oner": 6124,
    "purposes": 25021,
    "chard": 21684,
    "Ġtawn": 13822,
    "iantly": 13738,
    "Ġnasty": 17442,
    "species": 13256,
    "Ġarchly": 22777,
    "Ġthreading": 23400,
    "Ġcau": 13880,
    "tables": 19756,
    "progress": 11986,
    "Ġrevealed": 6751,
    "vanished": 15060,
    "Ġintegral": 25008,
    "inhabited": 13619,
    "Ġquarter": 3979,
    "quadrille": 20593,
    "hatred": 24821,
    "Ġreference": 2567,
    "Ġguidance": 9416,
    "ern": 772,
    "Ġbandaged": 16842,
    "Ġcountess": 11962,
    "kine": 15374,
    "begged": 18520,
    "goldsmith": 20146,
    "Ġbigot": 24565,
    "Ġcleaning": 23177,
    "Ġwallet": 21297,
    "Ġexclaimed": 4682,
    "Ġlouder": 13467,
    "Ġpatterns": 1215,
    "ineas": 15819,
    "Ġseamen": 5063,
    "Ġirrevocably": 15296,
    "stately": 18021,
    "Ġhurry": 4913,
    "mens": 20968,
    "Ġreciproc": 20620,
    "evil": 11485,
    "Ġpleasantly": 14520,
    "Ġacquisition": 18899,
    "em": 391,
    "Ġcrisp": 12001,
    "Ġfastened": 7065,
    "Ġprofoundly": 16859,
    "Ġwhipping": 21713,
    "Ġfloundering": 16248,
    "Ġstabbed": 25456,
    "Ġreceptive": 1563,
    "Ġideal": 13119,
    "Ġtriumphantly": 11287,
    "Ġmaintain": 858,
    "ney": 2495,
    "striking": 13439,
    "Ġgenerous": 6271,
    "Ġcondu": 18109,
    "received": 9638,
    "Ġgraces": 18225,
    "Ġbanker": 8666,
    "Ġprone": 18967,
    "Ġheadsmen": 14731,
    "inde": 17731,
    "ims": 7176,
    "Ġactive": 7914,
    "Ġsent": 1776,
    "isa": 17845,
    "function": 4076,
    "Ġafterwards": 3530,
    "Ġquivers": 22410,
    "Ġdeb": 4763,
    "Ġsublime": 8065,
    "Ġmidway": 14604,
    "Ġmechan": 1203,
    "Ġturn": 1299,
    "hap": 17559,
    "aloes": 21499,
    "Ġsta": 18065,
    "Ġnear": 1720,
    "Ġcommitting": 22670,
    "Ġlxi": 21558,
    "agonies": 21906,
    "uncont": 15771,
    "Ġbeatrix": 24204,
    "Ġquadruped": 17458,
    "Ġchast": 18380,
    "Ġuneasy": 8661,
    "Ġcongenial": 12409,
    "useless": 14594,
    "Ġsant": 21213,
    "binary": 20783,
    "Ġconvenient": 8345,
    "Ġsuburban": 17345,
    "Ġpostmark": 16725,
    "Ġincreased": 2207,
    "Ġtechni": 1748,
    "Ġjetted": 24431,
    "allowance": 16824,
    "Ġsynd": 22206,
    "wrinkles": 16554,
    "Ġworaciousness": 22926,
    "Ġsignals": 10585,
    "suitableness": 26260,
    "Ġideas": 5494,
    "Ġinterpre": 1586,
    "Ġchorus": 10946,
    "shold": 2774,
    "Ġecc": 11627,
    "itud": 2932,
    ";âĢĿ": 7790,
    "Ġyields": 19655,
    "Ġhoofs": 14527,
    "Ġfilthy": 13248,
    "eties": 10837,
    "Ġbrilliantly": 25120,
    "Ġurgent": 16869,
    "Ġgurglings": 26465,
    "Ġsleeve": 20139,
    "Ġunjustly": 17126,
    "Ġpromoting": 3160,
    "Ġpolitic": 23617,
    "stooped": 23819,
    "sm": 3435,
    "innacle": 7519,
    "Ġregarded": 5762,
    "Ġfavourable": 7958,
    "Ġfee": 7198,
    "inkle": 22609,
    "Ġrealising": 18981,
    "provided": 13636,
    "lust": 15378,
    "Ġconfirming": 25321,
    "Ġgomorrah": 21612,
    "gunpowder": 25339,
    "Ġtet": 21156,
    "Ġsnodhead": 19301,
    "Ġtit": 8398,
    "Ġengagement": 5397,
    "Ġequatorial": 13508,
    "Ġgeological": 14533,
    "salis": 25147,
    "kill": 13743,
    "englishman": 23676,
    "ignor": 8961,
    "Ġmouldy": 14973,
    "Ġunmingled": 18263,
    "Ġsain": 17750,
    "henomena": 20271,
    "Ġstrokes": 16769,
    "Ġnervous": 2401,
    "guard": 12126,
    "Ġgrows": 4985,
    "human": 7088,
    "Ġpyth": 21458,
    "!_âĢĶ": 19971,
    "Ġceremony": 8360,
    "Ġpractical": 3163,
    "Ġcabs": 23639,
    "Ġlastly": 16203,
    "Ġbulwarks": 5592,
    "Ġasked": 2274,
    "Ġstream": 5186,
    "Ġplaning": 22601,
    "Ġconcl": 5095,
    "Ġmanxman": 9565,
    "Ġinquiries": 5678,
    "loaded": 22509,
    "ienced": 5685,
    "phantoms": 24679,
    "enthusiastic": 20691,
    "Ġhence": 4989,
    "Ġvocation": 10525,
    "Ġcomra": 7183,
    "irting": 11684,
    "ggling": 19096,
    "Ġarrayed": 25664,
    "Ġa": 263,
    "Ġelizabeth": 1128,
    "fron": 24281,
    "supplement": 14795,
    "Ġbetter": 1173,
    "Ġdeliber": 7268,
    "Ġspurred": 22135,
    "Ġsoutherly": 23332,
    "fishing": 20858,
    "rel": 3756,
    "Ġyea": 8915,
    "olets": 21007,
    "Ġspout": 3284,
    "Ġscand": 7203,
    "engaged": 7452,
    "Ġbarricade": 14660,
    "fired": 20859,
    "Ġhedgehog": 10644,
    "Ġbarrow": 12067,
    "ient": 392,
    "Ġindirect": 18835,
    "Ġpolic": 13160,
    "Ġpublicly": 13321,
    "Ġrepaid": 19080,
    "Ġgossip": 18470,
    "reach": 17757,
    "gryphon": 15357,
    "Ġconvict": 23743,
    "Ġunfortunate": 5376,
    "Ġgild": 15666,
    "Ġtunnel": 14929,
    "Ġringed": 16750,
    "Ġpolished": 11182,
    "Ġexplain": 546,
    "Ġbear": 3659,
    "Ġsuperiors": 23454,
    "Ġperfections": 23607,
    "Ġtrembling": 7481,
    "Ġlibraries": 20613,
    "Ġthews": 21276,
    "rol": 5713,
    "Ġcommunicated": 9061,
    "Ġbarbed": 14834,
    "ogrand": 26261,
    "iminished": 19025,
    "sufficiently": 14980,
    "Ġ57": 24325,
    "Ġrefine": 3214,
    "Ġactually": 5389,
    ".âĢĻâĢĿ": 6739,
    "Ġrusty": 14963,
    "Ġcontentment": 14869,
    "Ġvainly": 9923,
    "Ġreasoner": 14437,
    "rowed": 22853,
    "Ġluc": 3311,
    "hued": 20910,
    "miserably": 24210,
    "Ġnaught": 8127,
    "Ġshrinking": 14804,
    "Ġstandard": 14497,
    "bouton": 17501,
    "Ġswift": 3670,
    "Ġthickening": 24021,
    "Ġspectacle": 10496,
    "Ġ43": 14768,
    "Ġvictory": 16653,
    "Ġgabriel": 7595,
    "Ġpanic": 11286,
    "Ġahead": 6662,
    "twelvemonth": 25862,
    "riminately": 16482,
    "Ġdependent": 14288,
    "Ġmalignity": 10556,
    "Ġfake": 5810,
    "brain": 13686,
    "hind": 20893,
    "Ġwinding": 8235,
    "pherd": 13643,
    "Ġsult": 10767,
    "Ö": 151,
    "avings": 12021,
    "Ġexc": 1833,
    "eh": 13709,
    "Ġmaze": 23828,
    "pencil": 18827,
    "Ġtube": 15003,
    "Ġ1825": 25719,
    "ourably": 14376,
    "Ġsympathies": 14860,
    "Ġincalculable": 17460,
    "Ġlimited": 23543,
    "vent": 683,
    "Ġwides": 17788,
    "dimly": 15345,
    "onical": 21252,
    "Ġmomentum": 1598,
    "Ġkindness": 4099,
    "Ġsheeted": 19830,
    "Ġdesired": 4664,
    "Ġesteem": 7531,
    "lier": 20948,
    "imagination": 13479,
    "unwho": 21874,
    "transp": 24512,
    "Ġbishop": 13901,
    "Ġlory": 12649,
    "ify": 1350,
    "Ġincarn": 11812,
    "ens": 702,
    "strip": 19829,
    "eration": 10772,
    "Ġoblige": 10488,
    "apers": 3481,
    "crowd": 25254,
    "Ġcin": 13874,
    "Ġmon": 1251,
    "objects": 13469,
    "Ġhigher": 1821,
    "hammock": 16352,
    "Ġtarquin": 23609,
    "address": 14880,
    "Ġdisturbance": 15012,
    "Ġsomewhat": 4897,
    "Ġsaintsbury": 26372,
    "darted": 20831,
    "Ġcomputer": 1185,
    "Ġcopied": 20006,
    "ribut": 814,
    "heaven": 8052,
    "Ġost": 9649,
    "Ġnewly": 9337,
    "Ġinsufficient": 9672,
    "ocean": 12399,
    "teness": 23201,
    "ortunity": 4401,
    "Ġthrone": 12211,
    "Ġdefici": 22940,
    "Ġfinish": 7948,
    "ichron": 22160,
    "Ġobviously": 16810,
    "Ġpremises": 10487,
    "ors": 855,
    "Ġheroic": 14907,
    "Ġwane": 21287,
    "Ġsymbolize": 24960,
    "Ġcorrectly": 9403,
    "Ġimprudently": 22386,
    "dient": 440,
    "Ġsyrian": 18354,
    "Ġfift": 6382,
    "explain": 1483,
    "accident": 11181,
    "both": 5785,
    "xology": 21140,
    "merc": 19279,
    "Ġheroine": 24543,
    "Ġcovering": 13255,
    "lady": 4431,
    "Ġrepugnance": 19084,
    "verbally": 25360,
    "Ġperceiving": 8875,
    "satisf": 5781,
    "Ġlords": 14641,
    "Ġsigned": 11177,
    "Ġajar": 21201,
    "giving": 8738,
    "Ġsignifies": 19204,
    "agreeable": 5829,
    "Ġyours": 4126,
    "Ġbulk": 5591,
    "Ġworked": 6583,
    "noo": 9786,
    "Ġinflex": 20633,
    "and": 372,
    "everybody": 8610,
    "Ġgot": 2276,
    "apped": 5395,
    "Ġsy": 490,
    "Ġcobb": 14271,
    "Ġensures": 3052,
    "Ġprejudices": 13468,
    "mansion": 20982,
    "truck": 15440,
    "schoolmaster": 15160,
    "Ġcoals": 16073,
    "Ġblurred": 22928,
    "Ġmaterially": 12189,
    "Ġgarn": 13962,
    "Ġsubsisted": 19117,
    "Ġhollow": 5648,
    "Ġsuck": 15859,
    "Ġenthusiastic": 19964,
    "block": 11470,
    "Ġadmitting": 19183,
    "Ġjavelin": 26104,
    "Ġearn": 3546,
    "Ġlaud": 17967,
    "Ġwhalers": 8047,
    "union": 15767,
    "arm": 1355,
    "Ġtot": 4186,
    "iature": 8741,
    "Ġhorizont": 6937,
    "painter": 24896,
    "crowning": 25748,
    "Ġgorge": 13565,
    "Ġcoburg": 18599,
    "Ġpointing": 5661,
    "Ġalleys": 25978,
    "miserable": 8656,
    "Ġmaker": 15540,
    "Ġexpectations": 13142,
    "atered": 22069,
    "rised": 10123,
    "Ġtravell": 5576,
    "Ġpencil": 11941,
    "Ġagitated": 7647,
    "Ġdistingu": 2516,
    "Ġinhaled": 25451,
    "ker": 5792,
    "Ġelated": 18641,
    "Ġloathed": 15873,
    "Ġsuggests": 12198,
    "Ġgleamed": 17077,
    "hospit": 25903,
    "Ġconfine": 14512,
    "Ġthreatened": 8329,
    "Ġcatholic": 20680,
    "Ġeyed": 12664,
    "Ġmorals": 22967,
    "intercourse": 14638,
    "Ġmister": 22751,
    "Ġbingley": 1677,
    "Ġrobes": 16253,
    "vous": 2248,
    "Ġbrothers": 13174,
    "ust": 497,
    "heavenly": 20043,
    "Ġhart": 17921,
    "Ġlouisa": 13545,
    "plain": 1356,
    "Ġquiver": 16001,
    "gallery": 24693,
    "sery": 17661,
    "count": 4213,
    "bright": 8989,
    "ici": 8439,
    "Ġjourney": 3881,
    "Ġsuddenness": 23380,
    "Ġattacks": 12202,
    "Ġcolossal": 11459,
    "Ġweariness": 19793,
    "Ġcircus": 19091,
    "Ġsoundings": 13132,
    "Ġcondition": 6764,
    "extinguished": 16147,
    "Ġreproach": 9556,
    "Ġearthquake": 14628,
    "Ġkings": 7196,
    "iting": 2157,
    "Ġextraordinary": 5414,
    "Ġloath": 7890,
    "Ġirr": 10421,
    "etics": 21578,
    "breadth": 20275,
    "rarely": 21631,
    "agation": 1241,
    "farm": 15350,
    "caroline": 24149,
    "Ġpriority": 19761,
    "axing": 18547,
    "Ġprognostics": 20557,
    "Ġuniformity": 23482,
    "Ġtuck": 10140,
    "Ġamericans": 14742,
    "Ġsallied": 12534,
    "roused": 16652,
    "derer": 4599,
    "Ġleft": 1761,
    "Ġassailants": 20447,
    "anche": 10788,
    "z": 94,
    "Ġmealy": 18118,
    "Ġhappily": 9330,
    "parad": 16381,
    "philosophers": 25252,
    "ĠâĢĶ": 13810,
    "Ġattacked": 10567,
    "Ġturbid": 23610,
    "Ġestimates": 3749,
    "Ġneskyeuna": 26459,
    "Ġrough": 7187,
    "fall": 5135,
    "Ġpreserve": 7529,
    "carrying": 16712,
    "Ġor": 437,
    "Ġstraps": 19309,
    "Ġcandles": 9907,
    "Ġshore": 4833,
    "rable": 11631,
    "ories": 4752,
    "Ġoptimize": 1512,
    "overing": 6306,
    "boone": 23251,
    "clad": 14458,
    "friendly": 13283,
    "once": 5903,
    "etus": 21575,
    "Ġopening": 5045,
    "teen": 6370,
    "ĠâĢľ": 516,
    "Ġnuptials": 20492,
    "Ġmacy": 19353,
    "Ġwretch": 6378,
    "propriety": 14366,
    "turn": 4291,
    "Ġbeaks": 21752,
    "onet": 12542,
    "oting": 2746,
    "Ġcarries": 7673,
    "Ġcanst": 8857,
    "Ġple": 1471,
    "stave": 21646,
    "ĠâĢľ_": 6696,
    "Ġexpressions": 7705,
    "ifies": 6686,
    "Ġgrie": 3584,
    "Ġsupport": 6728,
    "Ġgriff": 22803,
    "unimportant": 18159,
    "obst": 11930,
    "Ġlines": 4532,
    "Ġeluc": 16110,
    "Ġhospit": 7514,
    "forecastle": 10990,
    "Ġkirwin": 8496,
    "horner": 23613,
    "Ġbrown": 6298,
    "Ġdirect": 1473,
    "Ġfocuses": 8649,
    "erc": 5904,
    "¼": 125,
    "Ġaffords": 16734,
    "belled": 24033,
    "Ġconversation": 3330,
    "Ġmournfully": 20115,
    "Ġgladness": 16591,
    "emper": 18185,
    "aker": 3664,
    "Ġsaid": 576,
    "Ġrivers": 9441,
    "Ġhideous": 5982,
    "Ġmince": 22827,
    "Ġsequentially": 4914,
    "uttermost": 24940,
    "Ġresolving": 9418,
    "wed": 5003,
    "Ġobstin": 14952,
    "Ġidea": 2489,
    "Ġgentleman": 3037,
    "fur": 6355,
    "Ġcompre": 4447,
    "Ġbegat": 18862,
    "gracious": 11829,
    "itably": 10782,
    "stones": 11635,
    "Ġderbyshire": 6586,
    "Ġreaders": 18914,
    "Ġviolet": 19090,
    "Ġpot": 2989,
    "Ġundoing": 22030,
    "Ġ109": 24416,
    "harrow": 20907,
    "farewell": 12304,
    "Ġcolours": 12971,
    "Ġhatch": 7847,
    "spl": 9139,
    "Ġoutfits": 22319,
    "ella": 12749,
    "Ġgrooves": 16741,
    "sicilian": 21062,
    "Ġcommunic": 5751,
    "stead": 10846,
    "Ġimpelled": 11780,
    "Ġminimum": 23037,
    "Ġbabies": 19691,
    "Ġphr": 2681,
    "ceiving": 3903,
    "contents": 12056,
    "concerted": 16671,
    "Ġmoses": 21314,
    "Ġsuch": 792,
    "rious": 11687,
    "bowl": 14890,
    "Ġscent": 10284,
    "ud": 925,
    "evade": 24820,
    "Ġoverladen": 22359,
    "Ġmapp": 2083,
    "Ġgeneralize": 3099,
    "interval": 7990,
    "Ġquestioned": 14619,
    "streets": 13394,
    "Ġpiercing": 13493,
    "ger": 1107,
    "Ġrods": 9753,
    "Ġguinea": 8947,
    "thesize": 24906,
    "occupied": 12302,
    "Ġdistinctions": 18535,
    "jam": 15370,
    "Ġwhatever": 3473,
    "Ġislanders": 19500,
    "cer": 6642,
    "Ġmermaid": 17813,
    "izabeth": 906,
    "Ġformal": 2943,
    "Ġpieces": 7369,
    "walked": 10570,
    "Ġsharing": 3476,
    "Ġcust": 11581,
    "Ġadvantages": 9807,
    "Ġeucl": 24709,
    "Ġcomposure": 7217,
    "wow": 21120,
    "Ġarrowy": 25469,
    "quimaux": 21856,
    "Ġidiot": 11970,
    "Ġnoiselessly": 22854,
    "Ġours": 4611,
    "Ġjacobians": 2893,
    "uts": 8815,
    "Ġflight": 6580,
    "Ġsweet": 3464,
    "Ġfort": 2579,
    "achel": 7032,
    "Ġsuppression": 22997,
    "Ġsidel": 9635,
    "Ġshrugged": 12766,
    "terror": 18128,
    "awake": 14451,
    "older": 15750,
    "Ġnotes": 7189,
    "Ġinflict": 15001,
    "cr": 4078,
    "cal": 1118,
    "ges": 2874,
    "luck": 5733,
    "Ġaltering": 18102,
    "Ġsequential": 2132,
    "Ġintegr": 7968,
    "chat": 21683,
    "Ġbite": 10797,
    "Ġspend": 5304,
    "Ġcertain": 1558,
    "richard": 17286,
    "Ġresemblance": 7972,
    "Ġvile": 8472,
    "Ġpurch": 6599,
    "Ġlightning": 5750,
    "Ġby": 383,
    "undoubtedly": 13310,
    "overcome": 19052,
    "vess": 7354,
    "apology": 22331,
    "Ġmouthfuls": 20645,
    "Ġmute": 19414,
    "ary": 986,
    "chest": 11208,
    "Ġcontrast": 2119,
    "Ġunseason": 22047,
    "Ġdec": 643,
    "Ġinit": 820,
    "Ġcogent": 14272,
    "Ġcommunicating": 16889,
    "tick": 17678,
    "ister": 1296,
    "nurse": 15207,
    "Ġlevel": 5020,
    "bench": 16803,
    "Ġhospitality": 13512,
    "Ġhistory": 4011,
    "Ġagonising": 25373,
    "Ġcal": 1326,
    "abond": 15738,
    "Ġdented": 17891,
    "Ġiter": 2953,
    "stranger": 9882,
    "slept": 17169,
    "Ġplun": 6281,
    "Ġimpartial": 15218,
    "adr": 6994,
    "Ġdwelt": 12602,
    "ghan": 19453,
    "Ġstalked": 20427,
    "vered": 4828,
    "vi": 2370,
    "Ġket": 18344,
    "Ġcig": 6520,
    "Ġhorsham": 10406,
    "pshire": 21023,
    "poled": 22903,
    "paus": 13772,
    "rival": 12739,
    "Ġstared": 8454,
    "Ġconsulted": 13429,
    "unts": 12728,
    "als": 2043,
    "networks": 2402,
    "infidel": 24663,
    "limping": 26393,
    "barrel": 17060,
    "Ġceases": 19312,
    "Ġconsidered": 4610,
    "orph": 21397,
    "mock": 5174,
    "Ġmah": 15538,
    "Ġsummar": 3524,
    "body": 2303,
    "Ġstreets": 5863,
    "Ġsuccess": 3611,
    "Ġsprawling": 22136,
    "didst": 19347,
    "rably": 21630,
    "Ġamply": 22480,
    "nable": 13761,
    "winter": 10740,
    "Ġsung": 23271,
    "Ġgasfitters": 25038,
    "Ġsubmission": 22787,
    "Ġde": 364,
    "Ġsalisbury": 24062,
    "Ġlectures": 17178,
    "Ġcolonial": 22851,
    "Ġthus": 2038,
    "beef": 18523,
    "Ġig": 3500,
    "Ġjustine": 4970,
    "Ġreview": 18030,
    "Ġchry": 22243,
    "Ń": 260,
    "securing": 19812,
    "umps": 6317,
    "Ġkeeping": 7283,
    "Ġpalmy": 19497,
    "ipotence": 22361,
    "Ġascending": 14853,
    "Ġyesterday": 5332,
    "Ġcheating": 16365,
    "Ġgardiner": 3240,
    "wouldn": 23534,
    "Ġdivulged": 16648,
    "Ġpale": 4530,
    "Ġlydia": 2369,
    "Ġhish": 21910,
    "Ġcassock": 20485,
    "necess": 4896,
    "Ġfarmhouse": 24984,
    "Ġpatch": 4181,
    "?": 35,
    "securer": 25602,
    "Ġapprehensiveness": 16877,
    "Ġbreathless": 12167,
    "oh": 1576,
    "Ġboasting": 19934,
    "arken": 18667,
    "rut": 8091,
    "Ġsymptoms": 8704,
    "Ġhid": 1319,
    "Ġspring": 4123,
    "Ġlighting": 13082,
    "Ġimplac": 24874,
    "Ġtilted": 20411,
    "Ġgilt": 21603,
    "ention": 856,
    "arn": 357,
    "Ġquiescent": 26242,
    "Ġdiminishing": 4209,
    "dig": 4929,
    "Ġsheepfold": 25466,
    "Ġshoving": 23487,
    "Ġplant": 8899,
    "Ġpenet": 6888,
    "fixedly": 24929,
    "rugged": 6849,
    "races": 21627,
    "Ġshipped": 9714,
    "ogany": 18672,
    "Ġmartha": 16259,
    "Ġbeneficial": 23929,
    "ty": 999,
    "----âĢĻ": 24096,
    "ied": 942,
    "Ġabusive": 22270,
    "Ġbulkhead": 24511,
    "Ġchinese": 14183,
    "reject": 21235,
    "Ġrudder": 25107,
    "Ġspan": 11726,
    "Ġexceedingly": 4613,
    "abominable": 20592,
    "Ġscreen": 17205,
    "Ġsteamer": 17188,
    "Ġcoefficient": 2884,
    "superstitious": 17280,
    "times": 8098,
    "Ġkink": 22186,
    "Ġinvolving": 18761,
    "never": 3151,
    "Ġlanguid": 14213,
    "distrustful": 26330,
    "Ġ92": 24590,
    "flag": 14710,
    "Ġlean": 7602,
    "cest": 12442,
    "onings": 21251,
    "omnipotent": 25964,
    "Ġscratches": 22283,
    "Ġdavy": 25951,
    "dear": 6555,
    "Ġ111": 24436,
    "Ġsuite": 18279,
    "commend": 19991,
    "Ġinformation": 1047,
    "Ġremembrance": 8317,
    "Ġintelligent": 1392,
    "Ġscimet": 22285,
    "misrepresented": 24211,
    "Ġrepining": 23358,
    "Ġmole": 11789,
    "Ġconfusion": 7273,
    "year": 11095,
    "Ġunjustifiable": 25109,
    "Ġlaunched": 14925,
    "ckinridge": 11717,
    "ivering": 7697,
    "Ġtexture": 19159,
    "Ġpresent": 1639,
    "shortly": 12256,
    "Ġstress": 18069,
    "Ġhonour": 3923,
    "vels": 5432,
    "inexplicable": 25808,
    "Ĕ": 213,
    "Ġporpoise": 7106,
    "Ġcough": 11580,
    "Ġchaplain": 19911,
    "attend": 11101,
    "Ġord": 3737,
    "paddington": 20476,
    "Ġconfeder": 25708,
    "Ġepidemic": 20694,
    "Ġprecious": 5760,
    "Ġremembering": 14610,
    "Ġspite": 4157,
    "Ġprofane": 13151,
    "Ġproflig": 23565,
    "Ġinevitable": 15166,
    "Ġnick": 21520,
    "Ġsinners": 18949,
    "Ġdeliverance": 15156,
    "Ġfundamentals": 14635,
    "Ġclaimed": 14202,
    "Ġlucky": 7758,
    "immediate": 20092,
    "Ġproduced": 2451,
    "Ġcure": 21338,
    "Ġoffer": 4842,
    "fuller": 22473,
    "ilies": 18056,
    "didn": 9006,
    "Ġsingled": 23770,
    "Ġoil": 3372,
    "Ġcastles": 16639,
    "Ġconcealment": 16914,
    "Ġdiversion": 17197,
    "ley": 1817,
    "Ġadvancement": 24475,
    "Ġscorched": 17101,
    "rary": 4574,
    "upset": 23014,
    "Ġprecautions": 23725,
    "Ġgifts": 21609,
    "Ġentra": 18693,
    "sensible": 20050,
    "reds": 12745,
    "Ġbehaved": 13253,
    "sized": 15427,
    "Ġtype": 2022,
    "Ġhappened": 3714,
    "Ġgaily": 16748,
    "Ġsubl": 7235,
    "amples": 1823,
    "Ġformality": 22825,
    "Ġbrides": 22858,
    "Ġtelegraph": 25583,
    "calmed": 16202,
    "sales": 17667,
    "loath": 22506,
    "ribed": 7692,
    "Ġacc": 571,
    "Ġeffectual": 18732,
    "Ġimpenet": 14220,
    "Ġsaratoga": 26423,
    "Ġenchantment": 24869,
    "medi": 2628,
    "Ġruffled": 25835,
    "ambition": 13410,
    "Ġdifficult": 3572,
    "Ġreposing": 23359,
    "got": 6955,
    "kes": 3679,
    "Ġrequires": 1040,
    "Ġpicked": 6341,
    "aned": 5147,
    "ivers": 1983,
    "Ġpoky": 21476,
    "lu": 595,
    "izard": 10883,
    "Ġcost": 2507,
    "Ġearthy": 23711,
    "Ġpossessing": 16575,
    "Ġven": 4647,
    "cushion": 20820,
    "true": 2586,
    "sho": 6425,
    "âĢľâĢĺ": 1486,
    "Ġcapting": 23019,
    "Ġsigns": 2440,
    "emporary": 15795,
    "Ġdeceitfulness": 25734,
    "icherry": 15134,
    "Ġsuspended": 5665,
    "Ġimmedi": 2905,
    "Ġintroduction": 8970,
    "Ġshrouds": 11344,
    "Ġfumbled": 17881,
    "exceed": 7910,
    "Ġinstructive": 19285,
    "Ġencomp": 12959,
    "Ġblocks": 6321,
    "nowled": 5470,
    "Ġamerica": 6763,
    "Ġterms": 2564,
    "descried": 11927,
    "athom": 12937,
    "icted": 5936,
    "Ġclout": 22343,
    "caus": 11476,
    "Ġmatlock": 18799,
    "af": 2372,
    "exhibited": 18477,
    "Ġrequ": 816,
    "Ġdisobey": 18559,
    "Ġcharts": 12824,
    "por": 2151,
    "tur": 5688,
    "ricity": 23060,
    "plans": 21949,
    "Ġinsertion": 26343,
    "Ġundersampling": 19517,
    "acet": 5476,
    "urities": 18049,
    "Ġtechniques": 2868,
    "metals": 24766,
    "Ġplumber": 16083,
    "Ġdecidedly": 9508,
    "Ġwhir": 6393,
    "Ġfreshly": 23984,
    "Ġautumnal": 19020,
    "pse": 21008,
    "Ġharry": 24571,
    "Ġboys": 5194,
    "Ġinstinctively": 13458,
    "consideration": 14954,
    "Ġsimil": 2533,
    "Ġsympathise": 16794,
    "eryton": 4096,
    "Ġbeen": 626,
    "Ġrum": 5923,
    "Ġaveraging": 2415,
    "Ġwarmth": 6905,
    "Ġaperture": 26160,
    "Ġdusk": 12325,
    "Ġvast": 3298,
    "Ġpours": 17909,
    "Ġpaddle": 20057,
    "Ġprejudice": 9075,
    "Ġvanity": 7045,
    "Ġavowal": 19413,
    "Ġcupidity": 24535,
    "ifting": 6545,
    "confirmation": 26089,
    "Ġcouple": 5423,
    "Ġforests": 13591,
    "inclined": 10639,
    "Ġabove": 2937,
    "fere": 10989,
    "Ġfigured": 16643,
    "Ġread": 1449,
    "foundered": 20866,
    "Ġexpand": 9306,
    "Ġnineveh": 13388,
    "Ġdiscernment": 15067,
    "Ġjudging": 16595,
    "msprop": 2625,
    "Ġembod": 14417,
    "Ġcompunction": 18585,
    "Ġclothed": 19605,
    "Ġpersecut": 16952,
    "expectant": 24275,
    "theast": 21745,
    "Ġsh": 419,
    "Ġlicence": 25096,
    "zy": 2670,
    "Ġenglish": 3616,
    "nostr": 22713,
    "Ġever": 1178,
    "evidence": 25521,
    "cavity": 26126,
    "Ġsleepless": 14581,
    "Ġmultimodal": 18747,
    "Ġcakes": 13883,
    "Ġwas": 371,
    "Ġtreacher": 8604,
    "Ġsuffocated": 20727,
    "footsteps": 25199,
    "Ġprofusion": 23566,
    "Ġpainfully": 13141,
    "Ġsmiling": 5474,
    "Ġcharmed": 16762,
    "comra": 16172,
    "beholding": 16038,
    "Ġcomply": 8890,
    "Ġargemone": 24274,
    "remed": 18952,
    "Ġslender": 11938,
    "Ġarticle": 9501,
    "Ġlearned": 2026,
    "encountered": 20391,
    "ution": 4348,
    "Ġfeed": 2128,
    "critical": 19502,
    "Ġtop": 2470,
    "mortar": 25408,
    "Ġrecovering": 11860,
    "ence": 395,
    "gers": 8375,
    "Ġnapoleon": 20556,
    "Ġchat": 6560,
    "fitters": 24761,
    "Ġhurtling": 24957,
    "Ġcap": 2358,
    "girls": 12317,
    "orers": 14102,
    "Ġden": 3106,
    "embraces": 25805,
    "Ġassure": 4416,
    "Ġpenal": 1774,
    "ĉ": 202,
    "sartain": 25622,
    "conjectured": 25181,
    "homely": 25617,
    "Ġsideboard": 10385,
    "Ġhowl": 12851,
    "Ġinsulted": 14991,
    "Ġhunger": 8566,
    "Ġmaty": 22907,
    "Ġunhappy": 5640,
    "Ġvaliant": 9799,
    "Ġthack": 21514,
    "Ġtwin": 12925,
    "unw": 14056,
    "Ġfeelingly": 22987,
    "Ġdissip": 10992,
    "Ġethere": 23948,
    "avery": 13682,
    "Ġswarm": 23049,
    "reen": 21230,
    "Ġvelvets": 25393,
    "Ġcheerless": 16694,
    "Ġfaculties": 14957,
    "hom": 12471,
    "Ġsanctioned": 26349,
    "ury": 3312,
    "Ġintrospect": 15827,
    "precious": 12070,
    "Ġencourage": 10380,
    "Ġperverseness": 13653,
    "Ġprovidence": 18745,
    "Ġtrace": 6180,
    "Ġmonsieur": 12419,
    "Ġdiminish": 14744,
    "Ġpile": 8423,
    "frankenstein": 11391,
    "cooee": 12416,
    "Ġdisengaged": 12886,
    "Ġclasses": 4057,
    "Ġreducing": 1958,
    "Ġportable": 19368,
    "Ġposs": 1612,
    "Ġdeduce": 8336,
    "icit": 3377,
    "Ġshed": 8180,
    "Ġdodging": 19886,
    "Ġmining": 22826,
    "intense": 22933,
    "Ġspeak": 2225,
    "rights": 23674,
    "Ġilluminated": 20174,
    "Ġlakeman": 6986,
    "constit": 24604,
    "Ġwrung": 14469,
    "Ġpalpit": 16691,
    "apt": 724,
    "Ġunprovided": 18260,
    "erting": 17777,
    "Ġoxford": 11371,
    "Ġbeat": 4489,
    "Ġpaus": 4298,
    "frequently": 9978,
    "alleging": 23022,
    "Ġapologized": 25198,
    "Ġprofessional": 7299,
    "Ġsumat": 14130,
    "Ġsly": 9632,
    "Ġken": 22184,
    "Ġpadd": 9669,
    "Ġpill": 7845,
    "aks": 8506,
    "Ġanyone": 4457,
    "Ġ98": 24593,
    "Ġchill": 11750,
    "pans": 13769,
    "Ġdevoured": 16135,
    "Ġtrooped": 24899,
    "ped": 6365,
    "tr": 3580,
    "Ġbristles": 25843,
    "Ġrestrain": 8964,
    "Ġbenchmarks": 15021,
    "Ġjavelins": 26105,
    "Ġmount": 7362,
    "Ġshoot": 11161,
    "incible": 16497,
    "Ġball": 3625,
    "Ġcommod": 10333,
    "acit": 16079,
    "Ġfollies": 16252,
    "Ġsepul": 14089,
    "lyph": 10852,
    "Ġnevertheless": 5040,
    "Ġmurderers": 16811,
    "welcomed": 24644,
    "Ġcontinental": 19704,
    "Ġattached": 5392,
    "Ġmemorable": 16426,
    "Ġblood": 3167,
    "Ġclam": 7416,
    "fanc": 20863,
    "Ġdat": 496,
    "Ġdetestation": 17127,
    "Ġwrithed": 17106,
    "Ġbeliever": 25845,
    "Ġindies": 22948,
    "Ġeduc": 4784,
    "Ġtwine": 14310,
    "Ġleisure": 6539,
    "ò": 179,
    "adv": 4535,
    "pred": 2802,
    "Ġflannel": 26577,
    "fortunate": 4791,
    "Ġelect": 10842,
    "ĠĠĠĠĠĠĠĠĠĠĠĠĠ": 22559,
    "Ġbasics": 13447,
    "faint": 17545,
    "Ġpeering": 8534,
    "Ġdeclined": 9920,
    "Ġremarks": 7474,
    "marrying": 19546,
    "Ġforgo": 21770,
    "designated": 26295,
    "kerchief": 7525,
    "rat": 8755,
    "Ġpaltry": 16692,
    "Ġdark": 2113,
    "hecy": 21205,
    "Ġgodson": 23356,
    "zeal": 16269,
    "Ġcontinu": 1164,
    "Ġglasses": 9474,
    "bey": 10313,
    "Ġfires": 16471,
    "Ġwhosoever": 21716,
    "Ġwithdraw": 16964,
    "ifer": 11683,
    "Ġsixpence": 19316,
    "Ġoverlooking": 22354,
    "Ġhoist": 11975,
    "par": 1806,
    "Ġprophecy": 25706,
    "Ġhole": 6079,
    "wanderer": 25423,
    "Ġcircling": 19092,
    "Ġguise": 14431,
    "Ġundertone": 23235,
    "oce": 10714,
    "hundred": 8330,
    "Ġbalm": 22900,
    "Ġtell": 1470,
    "gates": 20871,
    "Ġitalian": 12408,
    "doms": 20834,
    "Ġdialogue": 12402,
    "ductive": 23933,
    "murmured": 24455,
    "Ġimproving": 1212,
    "Ġsidelong": 11438,
    "husband": 8041,
    "ely": 621,
    "Ġjoke": 8868,
    "Ġascertain": 9705,
    "Ġbecalmed": 18086,
    "mund": 13757,
    "Ġvocabulary": 4995,
    "Ġblend": 14397,
    "Ġyou": 366,
    "carried": 16711,
    "Ġshoals": 13133,
    "encounter": 20390,
    "Ġseethe": 21960,
    "Ġdisregard": 22525,
    "Ġexposed": 8522,
    "ums": 10272,
    "smith": 5669,
    "iter": 4389,
    "Ġbadge": 16683,
    "uary": 11537,
    ",âĢĶâĢĺ": 23801,
    "Ġcrooked": 11281,
    "appears": 12058,
    "Ġscowl": 22282,
    "Ġslow": 2375,
    "Ġtemple": 7653,
    "Ġhandsome": 4906,
    "Ġloaded": 8490,
    "Ġdisappointed": 7097,
    "if": 376,
    "thes": 7391,
    "Ġrelu": 1046,
    "Ġjan": 11760,
    "ureau": 10226,
    "Ġdisputes": 25825,
    "Ġlabrador": 23329,
    "Ġmaintenance": 17461,
    "Ġdashing": 8795,
    "umnal": 18300,
    "Ġreaching": 7303,
    "Ġloss": 825,
    "Ġgarnery": 17386,
    "Ġsubsisting": 23433,
    "anoke": 21359,
    "Ġwidest": 24234,
    "Ġdexterously": 25295,
    "which": 1710,
    "Ġintru": 15826,
    "Ġpremium": 23902,
    "Ġcomplained": 16998,
    "iom": 20914,
    "magnifying": 25392,
    "Ġviolence": 5962,
    "brought": 7285,
    "Ġlesson": 7276,
    "Ġfulfilled": 11362,
    "Ġrates": 1405,
    "tit": 11527,
    "attest": 23118,
    "Ġtwelvemonth": 12175,
    "Ġausten": 5880,
    "Ġdistracted": 11802,
    "Ġfals": 15578,
    "perils": 22180,
    "Ġexpenses": 11833,
    "Ġmortifying": 13245,
    "Ġbase": 5013,
    "cket": 3688,
    "slipping": 25528,
    "Ġcontemporary": 16010,
    "Ġmes": 17796,
    "Ġillum": 9399,
    "attacks": 23121,
    "inal": 15479,
    "Ġcreate": 2093,
    "obedience": 17409,
    "Ġwhat": 598,
    "hement": 13831,
    "Ġarchbishop": 18717,
    "Ġimplore": 24872,
    "Ġvacantly": 16815,
    "Ġgeneric": 18448,
    "maged": 15392,
    "wearing": 22684,
    "ri": 389,
    "promising": 24726,
    "ilt": 2968,
    "sect": 8152,
    "attention": 2111,
    "Ġlumber": 13951,
    "withstanding": 8945,
    "allow": 5104,
    "beries": 22715,
    "Ġninety": 13600,
    "Ġgather": 6534,
    "Ġcountries": 13095,
    "Ġpromethe": 14467,
    "Ġacquaintance": 4135,
    "Ġshared": 10263,
    "dwelt": 23869,
    "Ġpalms": 8643,
    "unted": 6998,
    "Ġbrisk": 9802,
    "Ġimputable": 22170,
    "Ġyork": 11664,
    "flask": 12097,
    "swept": 19785,
    "vand": 21107,
    "Ġtack": 5621,
    "waiting": 12218,
    "Ġswept": 7977,
    "Ġsulkily": 25882,
    "Ġrotterdam": 25475,
    "Ġparcel": 15198,
    "Ġbuild": 6474,
    "Ġrobberies": 23018,
    "cowardly": 25749,
    "Ġunreasoning": 15843,
    "achable": 14129,
    "instead": 14812,
    "Ġparsonage": 7123,
    "Ġeffects": 7236,
    "Ġinconceivable": 17937,
    "geor": 15976,
    "su": 799,
    "Ġsurm": 7476,
    "Ġsplice": 19308,
    "nyder": 16686,
    "Ġreeds": 15693,
    "Ġfolds": 12204,
    "Ġmilan": 19534,
    "Ġledgers": 23935,
    "vember": 10855,
    "Ġabundance": 17155,
    "Ġlimped": 19180,
    "Ġpallidness": 25604,
    "famous": 16916,
    "Ġleatherhead": 20012,
    "Ġfoes": 11949,
    "Ġemper": 9860,
    "Ġlounging": 10021,
    "Ġpronounced": 8350,
    "Ġvillage": 5774,
    "Ġtwice": 4661,
    "Ġbefall": 8828,
    "yn": 7819,
    "Ġperiods": 13302,
    "otion": 4946,
    "Ġseek": 4506,
    "Ġgrotesque": 26329,
    "athed": 7828,
    "Ġpleased": 4066,
    "vast": 10736,
    "Ġdesol": 6881,
    "Ġdecanting": 22454,
    "Ġhar": 5814,
    "zwilliam": 5074,
    "Ġrotation": 25474,
    "Ġbawling": 25945,
    "ends": 6038,
    "Ġorganize": 8991,
    "Ġmyth": 18220,
    "Ġpenetrating": 17011,
    "Ġamongst": 8959,
    "disgust": 23494,
    "Ġhollowly": 24526,
    "Ġcomplying": 18584,
    "Ġdivert": 23592,
    "Ġsiberia": 26161,
    "Ġequator": 7461,
    "Ġinvoluntarily": 8547,
    "Ġcrisis": 13126,
    "Ġauthorized": 16735,
    "Ġtis": 15464,
    "meas": 7432,
    "Ġneat": 6999,
    "Ġtear": 6723,
    "Ġdeliberation": 19967,
    "aye": 3661,
    "extremely": 26263,
    "fastened": 19324,
    "Ġdiligent": 25075,
    "liv": 9607,
    "Ġshoulders": 5566,
    "Ġinstantaneously": 23656,
    "inn": 5363,
    "Ġsoldiers": 8686,
    "Ġabiding": 22267,
    "Ġleather": 7603,
    "mel": 9127,
    "Ġtwenty": 3950,
    "Ġsabbee": 17255,
    "Ġwoman": 2382,
    "Ġexcavating": 23313,
    "Ġwedding": 4858,
    "Ġunaware": 22054,
    "Ġantarctic": 19551,
    "wretched": 10741,
    "Ġceler": 15548,
    "Ġfuture": 1063,
    "Ġcigarette": 20655,
    "Ġmalays": 19676,
    "²": 115,
    "Ġmajority": 13291,
    "eastward": 15128,
    "icha": 11736,
    "Ġvult": 12747,
    "voy": 7143,
    "pretending": 17041,
    "Ġeas": 2348,
    "Ġtiller": 8965,
    "Ġsaturation": 2064,
    "¤": 102,
    "Ġcitizens": 25439,
    "rush": 7010,
    "Ġjoppa": 12035,
    "dwell": 15340,
    "omet": 3074,
    "Ġrashness": 25460,
    "Ġconvergence": 972,
    "ake": 749,
    "Ġcreature": 2379,
    "Ġconsidering": 4614,
    "Ġspouter": 12795,
    "assisted": 22304,
    "Ġanne": 1531,
    "hoisted": 19281,
    "Ġphase": 14470,
    "wherein": 19107,
    "Ġanxiously": 8289,
    "peare": 18911,
    "Ġroyalty": 19735,
    "Ġmagnanim": 14471,
    "Ġexceptionable": 25503,
    "Ġbit": 2964,
    "drugg": 20837,
    "Ġhypothesis": 14780,
    "Ġchronicled": 25328,
    "Ġdiscuss": 9473,
    "Ġaffording": 14820,
    "Ġunbecoming": 22059,
    "Ġproject": 5546,
    "Ġweighty": 16029,
    "aff": 3101,
    "giana": 7800,
    "mming": 1169,
    "Ġupdate": 2462,
    "Ġduplicity": 25331,
    "ineffectual": 26504,
    "Ġnocturn": 18375,
    "Ġcelebrate": 26357,
    "ipped": 5790,
    "awned": 19458,
    "Ġtrousers": 12413,
    "Ġhandkerchief": 8913,
    "Ġinstrum": 6054,
    "Ġsheets": 9721,
    "Ġmons": 10156,
    "Ġbone": 4694,
    "newsp": 23132,
    "Ġtrunks": 15962,
    "eyes": 5684,
    "Ġashen": 21896,
    "Ġlysander": 13138,
    "Ġcarr": 23087,
    "ital": 4816,
    "Ġfanatic": 23390,
    "Ġmuchness": 18706,
    "did": 3195,
    "cul": 1900,
    "covery": 11171,
    "Ġburning": 5976,
    "Ġamounts": 6704,
    "Ġchap": 5933,
    "Ġconflagration": 26364,
    "Ġenergetic": 15196,
    "Ġworldly": 16326,
    "Ġinhuman": 13928,
    "accepting": 20134,
    "rief": 6202,
    "Ġreplenished": 13635,
    "Ġutter": 3977,
    "fier": 9593,
    "Ġcoming": 2618,
    "Ġsuits": 22080,
    "iloquent": 21722,
    "Ġjerk": 16950,
    "kick": 20935,
    "zening": 21147,
    "Ġic": 9625,
    "mble": 1407,
    "Ġefforts": 11799,
    "let": 2734,
    "lot": 3208,
    "Ġcome": 1240,
    "send": 15422,
    "tural": 21065,
    "Ġfrequencies": 4788,
    "Ġuntutored": 19165,
    "Ġroving": 22400,
    "Ġdeserve": 8308,
    "Ġpacked": 9979,
    "Ġsixty": 7722,
    "Ġexert": 5722,
    "Ġstabilizing": 3658,
    "Ġdeliver": 9845,
    "scy": 21054,
    "Ġcapt": 1293,
    "Ġpartially": 13121,
    "Ġhumor": 11051,
    "Ġtradesmen": 17105,
    "Ġproducing": 11897,
    "Ġoutstanding": 22314,
    "Ġsugg": 4497,
    "Ġend": 1487,
    "Ġpartiality": 9397,
    "below": 12119,
    "Ġinquirers": 24962,
    "society": 9971,
    "Ġsqualid": 14368,
    "days": 7687,
    "eze": 20846,
    "Ġindignity": 18833,
    "Ġclear": 1949,
    "Ġduty": 4073,
    "Ġbeautiful": 3673,
    "Ġpublisher": 24064,
    "Ġplatonian": 25118,
    "Ġporthole": 24399,
    "Ġfeatureless": 22607,
    "Ġneared": 14072,
    "waste": 21133,
    "Ġmelancholy": 5606,
    "Ġbolt": 11334,
    "Ġstables": 23653,
    "ents": 1897,
    "stat": 21641,
    "conceive": 16027,
    "Ġtwilight": 16119,
    "disappointed": 25191,
    "Ġtarshish": 12027,
    "Ġforehead": 5261,
    "utility": 21584,
    "Ġhind": 9188,
    "Ġchapters": 10473,
    "Ġresented": 22540,
    "Ġloun": 7166,
    "unsupervised": 10889,
    "seated": 11671,
    "Ġjail": 22291,
    "Ġtiny": 11552,
    "Ġintended": 5549,
    "am": 367,
    "istical": 8489,
    "Ġrecur": 1617,
    "what": 644,
    "Ġlowest": 11122,
    "Ġunfathomably": 25873,
    "Ġdisenc": 22523,
    "Ġroyal": 5602,
    "Ġchanged": 5242,
    "remain": 9837,
    "Ġnour": 10830,
    "socket": 22726,
    "Ġmajesty": 5201,
    "riv": 3108,
    "Ġmule": 13861,
    "danced": 20827,
    "interested": 9505,
    "Ġcavity": 20486,
    "Ġundertaken": 18985,
    "bered": 4502,
    "Ġimmediately": 3365,
    "eag": 20841,
    "Ġfavoring": 2340,
    "Ġfurnace": 19438,
    "frisco": 16787,
    "restoration": 23232,
    "encouragement": 17422,
    "Ġsquire": 16180,
    "ipp": 10102,
    "Ġreceipt": 20354,
    "Ġvibrated": 25045,
    "poky": 17644,
    "Ġformula": 2866,
    "Ġvilla": 14746,
    "Ġst": 333,
    "Ġlogits": 3449,
    "closing": 23153,
    "Ġsearch": 2590,
    "Ġcamberwell": 25350,
    "retirement": 23136,
    "Ġventil": 8019,
    "nel": 11504,
    "ails": 6160,
    "Ġencamped": 22798,
    "Ġheld": 3586,
    "punctual": 26355,
    "Ġfidget": 15188,
    "ws": 7355,
    "carries": 19526,
    "Ġfirmness": 11238,
    "1": 21,
    "Ġadm": 2399,
    "cannibals": 25584,
    "ude": 7562,
    "employed": 17261,
    "acific": 4960,
    "Ġhairs": 13230,
    "opius": 18508,
    "Ġaccumulated": 11929,
    "Ġchag": 15929,
    "Ġgroom": 13965,
    "vii": 13147,
    "perth": 22178,
    "gh": 3801,
    "Ġpam": 21451,
    "Ġhidden": 1375,
    "Ġfoundations": 11073,
    "Ġversion": 10629,
    "Ġstraw": 9428,
    "Ġcontrasting": 11154,
    "Ġmoot": 22427,
    "Ġtrifles": 16951,
    "Ġspray": 7893,
    "chery": 24551,
    "Ġbudge": 15163,
    "Ġstern": 4223,
    "Ġjoining": 13163,
    "Ġoverwhelming": 17102,
    "Ġintently": 8168,
    "Ġsets": 8773,
    "Ġdrifting": 19278,
    "Ġloving": 8175,
    "Ġwilson": 6629,
    "Ġvariance": 1165,
    "Ġriddles": 16732,
    "ounds": 4158,
    "Ġdistant": 5387,
    "Ġfiendish": 13326,
    "Ġcripp": 9653,
    "squ": 7809,
    "Ġarrival": 4730,
    "Ġextreme": 2517,
    "droppers": 24759,
    "Ġjo": 2609,
    "Ġdrinking": 12166,
    "darkened": 24517,
    "Ġpropont": 16348,
    "Ġinduce": 7762,
    "Ġreduces": 2338,
    "masterly": 24530,
    "impressed": 12688,
    "ę": 218,
    "Ġpost": 4272,
    "underneath": 23787,
    "Ġamerican": 5061,
    "stubb": 6017,
    "Ġsamples": 2962,
    "flex": 24843,
    "teous": 16169,
    "Ġspanish": 2828,
    "Ġmid": 2616,
    "Ġwith": 349,
    "Ġriver": 5411,
    "Ġimpetus": 25569,
    "Ġfoliage": 18866,
    "Ġemblazonings": 26045,
    "knot": 13744,
    "Ġthought": 1092,
    "Ġting": 8397,
    "gue": 12465,
    "Ġstrongest": 11135,
    "Ġflogged": 23623,
    "Ġastonishing": 10501,
    "Ġcandidate": 16701,
    "Ġquakers": 22413,
    "arent": 4249,
    "ä": 165,
    "Ġdifficulties": 11225,
    "azed": 9398,
    "Ġembraces": 19871,
    "Ġmountains": 4425,
    "Ġsplitting": 4381,
    "happened": 9432,
    "Ġincorrect": 2730,
    "dry": 13702,
    "Ġender": 11689,
    "tinted": 17683,
    "impart": 21706,
    "Ġdivers": 9665,
    ",âĢĻ": 2323,
    "ribbed": 16411,
    "sick": 13783,
    "Ġaudacity": 19881,
    "Ġbitt": 10796,
    "Ġdistraction": 22503,
    "ispens": 8335,
    "vius": 23540,
    "Ġdenny": 9001,
    "Ġsave": 4054,
    "Ġplainpal": 19276,
    "Ġgul": 7859,
    "ork": 416,
    "ĠĠĠĠĠĠĠĠĠĠĠĠĠĠĠĠĠĠĠĠĠĠĠĠĠĠĠĠĠĠĠĠĠĠĠĠĠĠĠĠĠĠ": 24209,
    "Ġpersisted": 13037,
    "ientiously": 21929,
    "Ġbir": 17853,
    "Ġfeedforward": 2322,
    "anesc": 21358,
    "Ġfacial": 10605,
    "Ġpoet": 8207,
    "itar": 15544,
    "powers": 25410,
    "Ġcad": 12565,
    "metallic": 19879,
    "Ġhall": 4184,
    "oning": 7572,
    "Ġvan": 1086,
    "knows": 19171,
    "needles": 20313,
    "Ġthread": 14539,
    "Ġpatched": 16379,
    "strangely": 17276,
    "Ġneighbour": 3808,
    "Ġtooth": 9192,
    "Ġmagnet": 10389,
    "chors": 11643,
    "Ġaberdeen": 26541,
    "Ġ1820": 25718,
    "perceived": 8858,
    "Ġbehaves": 23299,
    "mercenary": 26315,
    "Ġeastward": 13389,
    "gn": 8081,
    "Ġinfamy": 14504,
    "toller": 20671,
    "courage": 17509,
    "Ġpork": 21454,
    "Ġmill": 6666,
    "gradually": 12912,
    "continued": 8675,
    "iled": 1766,
    "Ġtornado": 24621,
    "Ġanswer": 2599,
    "Ġcharged": 9853,
    "Ġunfaltering": 24112,
    "Ġenric": 21932,
    "earthly": 24724,
    "Ġhoisting": 9861,
    "Ġmaster": 3682,
    "regard": 7973,
    "Ġhig": 753,
    "ift": 1603,
    "Ġg": 310,
    "Ġtepid": 26412,
    "Ġbasis": 16961,
    "raction": 8137,
    "Ġprocedure": 2810,
    "Ġcrucial": 9892,
    "bec": 4055,
    "Ġsucceeding": 16761,
    "Ġplunging": 14951,
    "dial": 20824,
    "Ġskilfully": 20522,
    "ingham": 21299,
    "Ġfactory": 23275,
    "Ġrobots": 11082,
    "Ġtheme": 16017,
    "Ġstalls": 25647,
    "Ġbeats": 21749,
    "Ġverge": 23885,
    "Ŀ": 256,
    "Ġminds": 6303,
    "Ġchristians": 13307,
    "ang": 444,
    "Ġconcentric": 20073,
    "force": 12960,
    "aiian": 23591,
    "Ġoscill": 2857,
    "Ġevolved": 9891,
    "Ġprodigious": 8056,
    "Ġfulfilment": 20186,
    "pires": 13774,
    "Ġboun": 21378,
    "Ġconven": 6151,
    "Ġprophetic": 20018,
    "oped": 6046,
    "dening": 22773,
    "vices": 21115,
    "ick": 838,
    "held": 3841,
    "Ġfid": 10803,
    "Ġcomparative": 10542,
    "Ġpods": 17912,
    "Ġwhaler": 7520,
    "cabinet": 25077,
    "Ġawake": 8271,
    "same": 5361,
    "Ġunlabeled": 3800,
    "revealed": 20414,
    "awn": 3835,
    "thing": 1482,
    "Ġjumped": 7096,
    "Ġstem": 15719,
    "Ġsubur": 12953,
    "Ġfrank": 4417,
    "independent": 26021,
    "Ġanonym": 17897,
    "Ġga": 4444,
    "ssed": 3736,
    "disappo": 8984,
    "bro": 4037,
    "Ġself": 1779,
    "Ġmantle": 25274,
    "Ġcharming": 6628,
    "taller": 26150,
    "Ġthree": 1370,
    "Ġroughly": 17040,
    "Ġpanther": 16819,
    "mped": 16647,
    "Ġpupils": 20419,
    "Ġsayest": 22771,
    "ort": 523,
    "ersampling": 18216,
    "Ġreminiscences": 26269,
    "Ġavoid": 5199,
    "ought": 830,
    "adamite": 20591,
    "owe": 15705,
    "instrument": 15237,
    "Ġpictured": 16622,
    "dart": 20825,
    "Ġ124": 24469,
    "Ġtame": 17722,
    "Ġchestnuts": 24381,
    "Ġinno": 1366,
    "Ġbreat": 3459,
    "ism": 4874,
    "Ġfoster": 18991,
    "Ġgrieve": 14706,
    "Ġtartar": 17321,
    "Ġslashing": 23167,
    "Ġoffspring": 16143,
    "etical": 13957,
    "Ġlat": 5087,
    "Ġpossible": 2585,
    "Ġcommerce": 11015,
    "Ġadroop": 26001,
    "Ġmask": 1867,
    "Ġseedy": 21959,
    "Ġsepar": 4003,
    "Ġcoffin": 4427,
    "Ġdoors": 6418,
    "Ġtrod": 15026,
    "overfitting": 13100,
    "beat": 10986,
    "approb": 11042,
    "Ġdz": 4755,
    "Ġpitches": 23899,
    "Ġchaldee": 26234,
    "unknown": 10890,
    "Ġporter": 15608,
    "Ġrepugn": 23361,
    "there": 1425,
    "Ġdiameter": 19866,
    "Ġplata": 25117,
    "Ġsurest": 19056,
    "Ġ41": 24079,
    "anous": 21357,
    "Ġmodern": 3229,
    "Ġsympathised": 14861,
    "Ġplaying": 6909,
    "Ġgrasshopper": 24380,
    "Ġturns": 4981,
    "Ġvideos": 13605,
    "Ġexpressing": 12007,
    "Ġunaccountable": 7886,
    "urry": 13993,
    "Ġcheever": 23283,
    "her": 488,
    "stump": 21650,
    "Ġencourages": 2063,
    "Ġreservo": 16831,
    "Ġsurmis": 23462,
    "cord": 8723,
    "aced": 2404,
    "Ġwalled": 15533,
    "Ġpolice": 4674,
    "Ġcoach": 6867,
    "Ġwrit": 8241,
    "usage": 12830,
    "gay": 11488,
    "stocks": 23818,
    "Ġdreaded": 8288,
    "Ġgidd": 25783,
    "strade": 5065,
    "polar": 24583,
    "discrimin": 19607,
    "land": 1532,
    "Ġopenly": 8572,
    "Ġloveliest": 20260,
    "Ġinsurance": 23681,
    "Ġbehave": 23298,
    "Ġwidower": 24235,
    "boys": 13358,
    "rom": 420,
    "tin": 6116,
    "Ġintersect": 22572,
    "Ġscript": 18398,
    "Ġwharf": 9559,
    "Ġnom": 21516,
    "isition": 11585,
    "Ġshown": 5159,
    "hau": 17562,
    "Ġwraps": 19775,
    "Ġuncivil": 11155,
    "Ġwashing": 9704,
    "Ġejaculation": 20253,
    "Ġslid": 7951,
    "Ħ": 231,
    "Ġthreshold": 2809,
    "Ġprov": 4398,
    "Ġoxen": 19949,
    "Ġpuzzle": 11305,
    "Ġirksome": 13110,
    "Ġrang": 9244,
    "Ġresulting": 24198,
    "\"],": 26120,
    "Ġlegible": 23532,
    "Ġtwisting": 18658,
    "Ġboldness": 24428,
    "Ġbiological": 1932,
    "Ġelaborate": 18644,
    "speckled": 23942,
    "Ġterrors": 6918,
    "teringly": 21820,
    "Ġexter": 7397,
    "otam": 21795,
    "Ġembraced": 10005,
    "Ġmercy": 8998,
    "Ġorigin": 4122,
    "Ġfetched": 24567,
    "Ġex": 362,
    "Ġdiffident": 23782,
    "occup": 7752,
    "Ġreced": 15689,
    "Ġseaman": 8638,
    "definition": 23115,
    "again": 3398,
    "Ġstarting": 7728,
    "Ġstab": 10862,
    "Ġtelescope": 17347,
    "Ġidentity": 2526,
    "oldened": 22636,
    "Ġinex": 6528,
    "cats": 17512,
    "hope": 5989,
    "Ġslain": 8953,
    "Ġstrenuously": 17447,
    "oring": 1862,
    "Ġsam": 7569,
    "Ġgayer": 24501,
    "Ġhomeless": 23385,
    "irements": 22210,
    "Ġadmiring": 16479,
    "Ġvery": 636,
    "Ġspaniard": 20361,
    "screw": 9345,
    "Ġpan": 5082,
    "Ġcarter": 18900,
    "unforeseen": 21885,
    "ascended": 24706,
    "Ġsighed": 10337,
    "Ġaccounted": 10294,
    "Ġmus": 3396,
    "eding": 7165,
    "sust": 15421,
    "Ġhearse": 10420,
    "Ġsilent": 3411,
    "Ġbedford": 7473,
    "Ġpoliteness": 8273,
    "Ġstre": 2109,
    "discovering": 24251,
    "Û": 156,
    "Ġharriet": 24572,
    "wich": 11543,
    "flutterings": 26606,
    "Ġforgot": 4683,
    "Ġreverend": 15258,
    "Ġplanks": 5564,
    "activation": 3232,
    "showed": 16021,
    "Ġresource": 10993,
    "commun": 15033,
    "Ġgrapple": 25811,
    "Ġpushing": 10819,
    "Ġvexed": 9993,
    "Ġnewcomer": 26040,
    "Ġpersons": 6181,
    "Ġsoo": 15860,
    "neg": 12862,
    "given": 8376,
    "Ġsevered": 18205,
    "Ġaccompan": 5513,
    "level": 2653,
    "altogether": 12636,
    "Ġmembrane": 20502,
    "Ġoverwrites": 5033,
    "Ġsne": 6372,
    "Ġscroll": 14191,
    "Ġdenote": 19332,
    "vable": 10132,
    "enet": 10152,
    "Ġunclasp": 26511,
    "gins": 12466,
    "Ġheadache": 22896,
    "Ġovercome": 6043,
    ";": 31,
    "Ġdevelopments": 23243,
    "Ġpostpone": 17306,
    "Ġoppose": 16518,
    "combination": 25486,
    "uated": 10131,
    "local": 22507,
    "Ġoverhear": 15973,
    "Ġwhichever": 13999,
    "Ġcourtship": 24135,
    "Ġresult": 4458,
    "Ġconstrained": 19239,
    "Ġprepared": 5876,
    "Ġmississippi": 20724,
    "Ġwatchman": 23668,
    "Ġscoresby": 10461,
    "cords": 25136,
    "Ġenumer": 12742,
    "amp": 2606,
    "Ġencamp": 22797,
    "Ġunbending": 25464,
    "Ġwhitish": 24866,
    "Ġah": 5075,
    "Ġcritically": 23444,
    "Ġsuspic": 4468,
    "Ġtomahawk": 7539,
    "Ġcannon": 14155,
    "Ġpeas": 8533,
    "Ġjustice": 5111,
    "Ġgrinning": 9053,
    "Ġsteer": 10386,
    "asible": 21539,
    "Ġenslaved": 26314,
    "Ġderanged": 23171,
    "Ġconject": 6026,
    "ece": 17531,
    "intellect": 18821,
    "befall": 22493,
    "Ġmodified": 14168,
    "Ġfring": 11127,
    "Ġinjunction": 19616,
    "reading": 12077,
    "Ġmary": 3844,
    "Ġsituations": 10491,
    "Ġhyper": 19738,
    "ead": 2600,
    "Ġheighten": 19528,
    "longer": 8612,
    "ns": 750,
    "Ġdesp": 3216,
    "Ġherd": 7887,
    "Ġanticipated": 13510,
    "Ġhardest": 18912,
    "Ġplates": 11007,
    "Ġmassac": 14735,
    "Ġlengthened": 25958,
    "Ġapproached": 5843,
    "Ġglassy": 19559,
    "ery": 1269,
    "indef": 17735,
    "Ġsax": 10927,
    "Ġmien": 17808,
    "adam": 15727,
    "Ġwhimsical": 20426,
    "ended": 1837,
    "Ġadjust": 2155,
    "Ġenvelope": 7319,
    "itaries": 21334,
    "fred": 20854,
    "Ġcigars": 12250,
    "attended": 8952,
    "Ġprocured": 8676,
    "Ġfr": 1697,
    "Ġsandwic": 24664,
    "light": 3015,
    "hand": 2758,
    "0": 20,
    "apparat": 22843,
    "Ġdefault": 3035,
    "phology": 3007,
    "Ġattach": 14290,
    "Ġspasmod": 12412,
    "Ġoutward": 7903,
    "Ġshield": 21996,
    "į": 240,
    "Ġtreatment": 12069,
    "Ġseclusion": 18208,
    "Ġeducation": 5128,
    "Ġbespeaking": 26310,
    "Ġnap": 8808,
    "Ġtransplanted": 22438,
    "term": 3760,
    "desper": 13067,
    "uber": 15444,
    "Ġjudges": 14685,
    "produ": 10720,
    "Ġplowdon": 26447,
    "plifted": 9709,
    "Ġbra": 3256,
    "Ġtempest": 8213,
    "Ġcalamities": 25699,
    "atory": 6125,
    "Ġdr": 2825,
    "vulgar": 25918,
    "Ġdeportment": 22593,
    "handedness": 24920,
    "Ġparted": 5928,
    "fortunately": 9450,
    "Ġsleepy": 8267,
    "occurrences": 26331,
    "vers": 1327,
    "idered": 4551,
    "Ġseverest": 14090,
    "Ġsarat": 21226,
    "personal": 24963,
    "Ġsuperlative": 26074,
    "Ġenthusiasm": 8064,
    "mud": 20970,
    "Ġdespite": 19351,
    "Ġnaut": 13940,
    "gree": 10701,
    "mists": 17605,
    "Ġdrugg": 17119,
    "Ġvalley": 5850,
    "loss": 22505,
    "ue": 1177,
    "Ġgrateful": 7659,
    "Ġawe": 7147,
    "urpr": 2284,
    "utted": 15658,
    "opatra": 22475,
    "aract": 17894,
    "Ġbrimstone": 25686,
    "soft": 12507,
    "des": 1566,
    "Ġpy": 21448,
    "Ġrenders": 13282,
    "Ġpanegyric": 26449,
    "Ġwollstonecraft": 26425,
    "rously": 17654,
    "Ġcyl": 15554,
    "itious": 8779,
    "Ġdesist": 16234,
    "Ġintroduces": 3271,
    "Ġdomestic": 6910,
    "Ġconscious": 7743,
    "Ġboasted": 16104,
    "Ġthickness": 13276,
    "Ġimbued": 17454,
    "Ġsweetest": 13247,
    "ĵ": 246,
    "Ġresembled": 18033,
    "linked": 17593,
    "osis": 18389,
    "Ġaggreg": 12881,
    "outward": 22157,
    "Ġgrease": 26189,
    "Ġpersevering": 20232,
    "Ġevery": 927,
    "Ġinfiltrated": 23282,
    "Ġexpost": 18626,
    "steaks": 23958,
    "Ġdirection": 1792,
    "Ġdictionaries": 12338,
    "battering": 20785,
    "Ġpervers": 11781,
    "Ċ": 203,
    "Ġentertained": 9997,
    "Ġbapt": 13895,
    "Ġmeat": 8151,
    "Ġbeer": 10219,
    "Ġbrixton": 13662,
    "Ġscuff": 15939,
    "Ġattract": 11830,
    "Ġwhy": 1760,
    "Ġbewit": 15725,
    "Ġjudgment": 5765,
    "observed": 7674,
    "kish": 20933,
    "lingering": 18601,
    "Ġcongrat": 5827,
    "cous": 8721,
    "Ġoccupied": 5272,
    "Ġloftiest": 16874,
    "Ġoarsmen": 7737,
    "Ġdeclaration": 16636,
    "Ġintelligence": 570,
    "Ġfellow": 2777,
    "Ġtechnically": 12364,
    "tic": 8390,
    "Ġstrives": 23694,
    "Ġburgled": 23652,
    "dÃ¦mon": 17527,
    "contrad": 19291,
    "educ": 10828,
    "highest": 20406,
    "Ġbattering": 13900,
    "orters": 21399,
    "Ġencl": 16163,
    "Ġattention": 1172,
    "pond": 21012,
    "Ġ179": 19753,
    "subst": 12162,
    "reflections": 24735,
    "fright": 9595,
    "iries": 18169,
    "Ġforcibly": 10060,
    "Ġdishes": 16047,
    "someone": 14563,
    "mmed": 7913,
    "Ġsell": 7825,
    "Ġcenturies": 8622,
    "Ġdistinguishing": 16496,
    "Ġdiffusion": 23781,
    "gs": 7338,
    "Ġmorbidness": 20627,
    "Ġplanisp": 24055,
    "Ġsucked": 14131,
    "astern": 8581,
    "Ġasyl": 12731,
    "aisance": 15073,
    "be": 669,
    "Ġpuffs": 14975,
    "abhorred": 17335,
    "romised": 14111,
    "--âĢľ": 12969,
    "Ġtraffic": 23080,
    "hanging": 10100,
    "ression": 3405,
    "Ġhorizontal": 7782,
    "Ġmagazine": 23096,
    "gratification": 24348,
    "Ġther": 17778,
    "toed": 18578,
    "Ġcharlotte": 3891,
    "Ġcircumn": 11982,
    "Ġpress": 5931,
    "Ġhyperborean": 26339,
    "Ġstaggering": 20272,
    "Ġfrigate": 13081,
    "Ġdeadly": 5405,
    "Ġscratch": 25564,
    "Ġcalms": 23038,
    "queness": 18147,
    "Ġentic": 16144,
    "Ġnantucket": 2839,
    "ulity": 10886,
    "Ġenjoying": 11235,
    "Ġincorporated": 25711,
    "pursue": 24973,
    "Ġadmired": 7981,
    "Ġ77": 24263,
    "Ġannotations": 25954,
    "Ġabode": 7899,
    "Ġbonnet": 10655,
    "injury": 25213,
    "Ġassertion": 13488,
    "Ġexpanse": 14292,
    "intend": 16223,
    "Ġimmersed": 19483,
    "poise": 6171,
    "Ġliable": 14228,
    "Ġsequ": 980,
    "harpoons": 24285,
    "Ġdig": 6135,
    "Ġsanta": 26420,
    "Ġextremity": 8988,
    "Ġsystemat": 18442,
    "atever": 3077,
    "Ġwarbling": 26168,
    "Ġsurvey": 13592,
    "Ġfamiliar": 5511,
    "rusion": 11323,
    "iliating": 12692,
    "erman": 5108,
    "Ġcurvature": 3574,
    "helpless": 16790,
    "kingly": 20938,
    "Ġcredited": 25153,
    "Ġteasing": 11889,
    "iracle": 11244,
    "Ġspikes": 22133,
    "Ġelias": 18642,
    "Ġswayed": 15047,
    "Ġsalut": 10509,
    "Ġloves": 10915,
    "Ġwhiff": 21715,
    "Ġindefinite": 17176,
    "clerval": 7950,
    "born": 7543,
    "Ġpaws": 13920,
    "sort": 6798,
    "Ġlacepede": 20493,
    "Ġabrupt": 9735,
    "treasures": 26152,
    "assured": 10952,
    "crack": 19839,
    "ban": 9584,
    "Ġmerchantmen": 19859,
    "sius": 13787,
    "antucket": 2643,
    "Ġobjections": 8564,
    "Ġpowerful": 1441,
    "icate": 9201,
    "mental": 16058,
    "Ġeight": 3902,
    "spade": 10339,
    "Ġdown": 831,
    "capitals": 25080,
    "Ġcased": 21344,
    "Ġpants": 21462,
    "Ġlakes": 8130,
    "?âĢĻ": 2640,
    "Ġchemical": 10412,
    "introdu": 8937,
    "Ġsob": 12785,
    "follows": 24528,
    "Ġsleek": 23382,
    "Ġ235": 25713,
    "io": 3802,
    "Ġstings": 21734,
    "steak": 14707,
    "oused": 6556,
    "Ġ67": 19659,
    "organ": 15571,
    "eler": 1571,
    "âĢĻ": 378,
    "Ġregularization": 1170,
    "per": 481,
    "Ġguards": 16265,
    "Ġadvertisement": 6941,
    "Ġmemo": 18117,
    "iffe": 21899,
    "Ġphotograph": 6302,
    "bbs": 23691,
    "Ġbubblingly": 25632,
    "Ġjabez": 11764,
    "Ġpratt": 23214,
    "Ġeth": 17716,
    "consuming": 25674,
    "Ġwildest": 16509,
    "Ġshouldn": 14324,
    "Ġbehooves": 20732,
    "Ġcanal": 8181,
    "Ġmunro": 25630,
    "Ġerected": 12231,
    "preserving": 25304,
    "Ġduodecimo": 16767,
    "Ġineffable": 17331,
    "izens": 18143,
    "Ġ200": 19295,
    "Ġblu": 2687,
    "Ġmotive": 6091,
    "Ġclasp": 9743,
    "Ġretention": 23068,
    "tw": 2813,
    "ridden": 24362,
    "Ġproving": 15749,
    "ĝ": 222,
    "Ġdir": 21419,
    "Ġlitter": 19828,
    "Ġeconomy": 17200,
    "neat": 22459,
    "Ġpeev": 22690,
    "Ġcreativity": 3065,
    "Ġjealousy": 13575,
    "Ġdesolate": 10012,
    "Ġrelentless": 26277,
    "Ġtown": 2454,
    "Ġstormy": 16728,
    "Ġarrest": 7410,
    "Ġturkish": 12259,
    "Ġ105": 24413,
    "iogn": 20920,
    "Ġinfall": 7959,
    "ercial": 21273,
    "Ġpersian": 11092,
    "Ġtongs": 9960,
    "Ġapplications": 4782,
    "niece": 20994,
    "Ġheadstrong": 14387,
    "e": 73,
    "Ġspermaceti": 8967,
    "chorus": 19810,
    "transition": 24513,
    "Ġlifts": 25358,
    "Ġsorrow": 4628,
    "eliest": 14745,
    "gain": 8736,
    "Ġleviathan": 3290,
    "epilogue": 22100,
    "plutarch": 21954,
    "Ġchurned": 18385,
    "Ġincome": 7916,
    "genteel": 19947,
    "Ġheroines": 19750,
    "Ġsurplus": 26303,
    "Ġsofa": 10270,
    "Ġcongratulations": 10580,
    "somebody": 14564,
    "rail": 10204,
    "Ġberyls": 25775,
    "Ġallowing": 2173,
    "Ġdimension": 3242,
    "Ġdrank": 16535,
    "Í": 142,
    "trowsers": 17691,
    "discover": 10539,
    "whence": 23210,
    "Ġinstincts": 16986,
    "Ġencoun": 4509,
    "Ġcracks": 12018,
    "gown": 9596,
    "Ġtuples": 13476,
    "insisted": 23064,
    "Ġrecurrent": 1804,
    "Ġfrenchman": 11283,
    "Ġatonement": 21939,
    "matter": 5136,
    "Ġfaithfulness": 24446,
    "Ġunharmed": 15138,
    "Ġrear": 6535,
    "Ġstupid": 7606,
    "buck": 17490,
    "pitch": 13297,
    "artificial": 1035,
    "Ġjunior": 15098,
    "Ġsoaked": 15861,
    "ters": 1572,
    "Ġspear": 9313,
    "Ġchr": 3689,
    "Ġsailor": 3535,
    "Ġaback": 22263,
    "Ġcathed": 14548,
    "Ġdivinest": 25722,
    "traces": 24315,
    "Ġsecuring": 11990,
    "Ġperils": 6273,
    "lection": 3654,
    "bones": 8371,
    "into": 3681,
    "whispering": 26103,
    "Ġbordeaux": 24564,
    "Ġfrench": 4939,
    "Ġazure": 12372,
    "Ġfemale": 8344,
    "Ġaustrian": 24300,
    "Ġfarm": 7840,
    "Ġpistols": 17328,
    "Ġmingled": 12375,
    "Ġjewell": 19519,
    "lic": 17587,
    "Ġ4": 3989,
    "Ġrouse": 15820,
    "Ġtunnels": 24620,
    "ular": 714,
    "Ġboy": 3020,
    "embraced": 25806,
    "Ġlabel": 14517,
    "ostent": 16846,
    "Ġgenial": 12192,
    "touch": 8391,
    "Ġdischarged": 15219,
    "ollen": 11298,
    "roman": 22001,
    "Ġscore": 9737,
    "Ġalmost": 1656,
    "Ġbrilliancy": 20105,
    "obvious": 9356,
    "afraid": 10441,
    "Ġnapole": 15114,
    "mai": 22909,
    "Ġcasked": 24497,
    "Ġforbade": 15213,
    "Ġmatch": 4527,
    "Ġunfl": 22015,
    "Ġislets": 21798,
    "Ġmonstr": 7666,
    "rin": 10121,
    "igen": 4829,
    "Ġburden": 8607,
    "Ġtraveller": 8048,
    "Ġdescended": 7428,
    "indignation": 18438,
    "Ġrecommendation": 17025,
    "Ġincline": 18569,
    "Ġris": 4886,
    "Ġblasp": 14399,
    "Ġcontextual": 3744,
    "circumstance": 7763,
    "Ġri": 3394,
    "Ġwretched": 4084,
    "Þ": 159,
    "pequod": 7052,
    "Ġdestroy": 5772,
    "xi": 17710,
    "member": 20974,
    "wis": 12516,
    "Ġwealthy": 18178,
    "ending": 1989,
    "Ġkeys": 11995,
    "guinea": 16672,
    "Ġnight": 1467,
    "Ġbiting": 17861,
    "successful": 11358,
    "Ġunlab": 3789,
    "contin": 16541,
    "archangel": 18780,
    "Ġinflicted": 11365,
    "Ġsle": 2014,
    "Ġfibres": 12948,
    "protest": 24815,
    "Ġlibr": 15999,
    "Ġexamination": 8004,
    "Ġsurprising": 14597,
    "Ġdeep": 796,
    "Ġtraitors": 23075,
    "Ġbuttoning": 17235,
    "autumn": 23341,
    "dressing": 11481,
    "Ġlater": 6016,
    "Ġreplace": 14475,
    "pump": 21016,
    "gpt": 5355,
    "Ġmartin": 25436,
    "itives": 17819,
    "Ġfloor": 4376,
    "Ġshort": 2221,
    "ures": 840,
    "unpardonable": 21887,
    "abst": 21785,
    "Ġcompar": 4770,
    "worm": 15452,
    "Ġhut": 15616,
    "Ġwriting": 4667,
    "Ġcocks": 18597,
    "Ġbind": 12579,
    "Ġrevel": 9214,
    "Ġsleeping": 6319,
    "Ġsurmises": 17055,
    "Ġcaul": 10787,
    "Ġcommons": 22669,
    "ody": 1481,
    "Ġtangle": 25760,
    "derstand": 654,
    "Ġcosmopol": 16454,
    "Ġconfidential": 9087,
    "Ġagonies": 14251,
    "Ġcolds": 23756,
    "Ġthinking": 4034,
    "Ġavast": 9919,
    "Ġgreeting": 18962,
    "Ġimpregnable": 26023,
    "Ġver": 3393,
    "æ": 167,
    "jets": 20927,
    "Ġrap": 14301,
    "Ġfashions": 17885,
    "Ġshun": 11707,
    "Ġwiser": 14729,
    "Ġingrat": 16840,
    "penetrating": 25490,
    "Ġdrive": 5055,
    "Ġobsc": 7039,
    "Ġgrop": 12661,
    "Ġadhering": 14139,
    "liked": 10508,
    "onstrate": 17768,
    "Ġobliged": 4285,
    "Ġdon": 1609,
    "ostentatious": 20651,
    "pleasant": 5874,
    "Ġfoundering": 21417,
    "stre": 5451,
    "dipped": 20836,
    "honest": 17003,
    "erxes": 21274,
    "Ġunsatisfied": 22039,
    "Ġdamps": 23473,
    "Ġtim": 4577,
    "lled": 10107,
    "leagued": 26435,
    "sent": 760,
    "hack": 20895,
    "Ġiroqu": 21621,
    "Ġenlivened": 26207,
    "Ġhastily": 5763,
    "algorithm": 4016,
    "Ġrevenue": 26194,
    "Ġsnugness": 20075,
    "journey": 8744,
    "Ġwear": 6030,
    "Ġrapid": 1413,
    "Ġnumerical": 4245,
    "Ġtash": 13819,
    "Ġhighness": 22769,
    "waist": 13417,
    "Ġstride": 22613,
    "Ġbri": 21376,
    "Ġsaleve": 17390,
    "Ġwhich": 504,
    "conve": 14243,
    "improve": 15709,
    "Ġhawk": 15172,
    "ats": 4253,
    "Ġpole": 6433,
    "Ġinvestment": 24336,
    "atiable": 17774,
    "Ġcorrect": 2429,
    "Ġshaded": 14104,
    "boat": 3361,
    "Ġfiss": 21410,
    "Ġelapsed": 7652,
    "Ġoutright": 18413,
    "Ġbreathing": 9445,
    "Ġoriginally": 7304,
    "onious": 15517,
    "official": 24914,
    "Ġheal": 21678,
    "Ġpaying": 9937,
    ";âĢĿâĢĶ": 20759,
    "ashtego": 4104,
    "accompl": 9879,
    "Ġempire": 11144,
    "Ġallurements": 22004,
    "els": 1765,
    "Ġpuffed": 14976,
    "Ġconver": 805,
    "Ġgraves": 11706,
    "Ġearly": 2080,
    "Ġbaw": 15566,
    "Ġjolly": 6858,
    "Ġimputed": 12805,
    "Ġamelia": 26251,
    "Ġdiving": 12598,
    "gled": 10699,
    "Ġhaunted": 10253,
    "Ġcusack": 26433,
    "Ġreckon": 19869,
    "Ġplum": 11820,
    "object": 6884,
    "andering": 21864,
    "Ġhilarity": 20296,
    "Ġwatson": 3597,
    "being": 3914,
    "Ġhurried": 4035,
    "Ġwithin": 2163,
    "gely": 10700,
    "class": 4098,
    "Ġexpect": 2301,
    "Ġwalrus": 14972,
    "Ġrender": 8304,
    "stamp": 21651,
    "Ġeager": 3571,
    "sweep": 24617,
    "99": 1896,
    "Ġtreacherously": 25129,
    "Ġvishnoo": 12748,
    "Ġjenny": 20161,
    "Ġvirtual": 11240,
    "pleas": 3852,
    "avers": 17480,
    "Ġescort": 23505,
    "Ġcrumpled": 16441,
    "Ġfeared": 5930,
    "spirit": 11313,
    "ougher": 18275,
    "Ġplayed": 9415,
    "Ġpoets": 11819,
    "mouthful": 25208,
    "Ġunique": 12775,
    "Ġcollar": 11877,
    "Ġcoarse": 14273,
    "ĠĠĠĠĠĠĠĠĠĠĠĠĠĠĠĠĠĠĠĠĠĠĠĠĠĠĠĠĠĠĠĠĠĠĠĠĠĠĠĠĠĠĠĠĠĠĠ": 16755,
    "Ġkrem": 9725,
    "Ġunintelligible": 26514,
    "Ġtransformed": 22606,
    "Ġmorality": 22968,
    "Ġbert": 4581,
    "Ġerrand": 11085,
    "complain": 14357,
    "blow": 9103,
    "Ġbox": 5109,
    "azz": 8261,
    "Ġguessed": 11282,
    "garden": 15025,
    "Ġ16": 7926,
    "Ġamsterdam": 22482,
    "Ġglut": 18846,
    "iciency": 9574,
    "startled": 24941,
    "Ġthief": 11609,
    "Ġaccord": 4029,
    "fields": 14653,
    "Ġgranted": 22804,
    "Ġliberality": 24377,
    "holmes": 4429,
    "Ġpeels": 22688,
    "Ġharris": 13926,
    "ucumber": 19058,
    "Ġgranting": 18736,
    "or": 282,
    "fed": 11487,
    "Ġshallow": 14393,
    "Ġmoss": 9283,
    "Ġconsecrated": 26488,
    "stripped": 16945,
    "Ġentered": 2846,
    "Ġvariety": 8530,
    "Ġdated": 10938,
    "Ġselling": 21223,
    "Ġwished": 3731,
    "rit": 21034,
    "mont": 19168,
    "ashion": 3859,
    "Ġrec": 891,
    "Ġfairness": 9893,
    "Ġshouts": 19536,
    "ailed": 3248,
    "lay": 5890,
    "toes": 22561,
    "Ġheaven": 3364,
    "best": 6111,
    "icilian": 20690,
    "sneezes": 11446,
    "Ġancestors": 25642,
    "Ġrecurring": 23224,
    "Ġfrightens": 24027,
    "Ġshops": 21998,
    "Ġbul": 3295,
    "Ġimpact": 10296,
    "Ġall": 421,
    "chel": 11207,
    "Ġinhabitant": 19754,
    "troubled": 17112,
    "rics": 13034,
    "nar": 12491,
    "promise": 12248,
    "Ġimpregn": 26022,
    "Ġastr": 15493,
    "iture": 5696,
    "Ġenem": 4707,
    "ler": 3490,
    "Ġtraces": 7945,
    "Ġxxxi": 24966,
    "Ġfireplace": 13144,
    "Ġcontin": 5382,
    "def": 1454,
    "parable": 16382,
    "Ġtrifled": 24674,
    "mun": 20961,
    "Ġheaviest": 23324,
    "irst": 878,
    "Ġcherished": 10590,
    "Ġconsistent": 14528,
    "Ġfoot": 3161,
    "Ġowl": 20082,
    "Ġce": 3028,
    "Ġbelieved": 4366,
    "Ġfortunes": 12176,
    "Ġburying": 19251,
    "Ġbount": 15565,
    "Ġmonogram": 26574,
    "Ġnobly": 22238,
    "writes": 4988,
    "sat": 4809,
    "Ġhumans": 8929,
    "science": 11906,
    "Ġradiating": 24335,
    "aded": 3548,
    "Ġgreyish": 24208,
    "Ġpleasant": 4171,
    "Ġdesires": 9456,
    "balanced": 14555,
    "Ġexpensive": 12915,
    "greatest": 10493,
    "armon": 23054,
    "rapidly": 15242,
    "Ġplainpalais": 20736,
    "Ġprospects": 9958,
    "acid": 11006,
    "destruction": 11256,
    "Ġprotect": 6337,
    "Ġvillainous": 25131,
    "inaw": 21182,
    "Ġbelshazzar": 16224,
    "garn": 20869,
    "glo": 8737,
    "lean": 21363,
    "Ġdistrusting": 25053,
    "Ġhenry": 5197,
    "Ġphysiognomy": 25610,
    "ellent": 3764,
    "¨": 106,
    "Ġreserves": 19669,
    "Ġimpaling": 22383,
    "/(": 2981,
    "erringly": 16210,
    "Ġprivate": 5345,
    "Ġgem": 21591,
    "Ġrefres": 14343,
    "cleanliness": 25871,
    "Ġmoral": 6578,
    "Ġcontinent": 14887,
    "Ġboarding": 12084,
    "rack": 18010,
    "Ġangelic": 19626,
    "Ġsnuffed": 15071,
    "Ġliar": 22405,
    "Ġobstacle": 16955,
    "smart": 23904,
    "Ġvest": 8162,
    "anel": 21355,
    "ullen": 8234,
    "approve": 19935,
    "Ġfought": 12590,
    "Ġpacing": 8425,
    "Ġhood": 10823,
    "intellig": 5320,
    "ifference": 5632,
    "introduced": 15123,
    "Ġshad": 3850,
    "Ġexpedite": 24953,
    "ever": 1076,
    "Ġconveyed": 8334,
    "Ġsubstit": 19539,
    "burn": 8370,
    "Ġdreamt": 23936,
    "room": 2177,
    "Ġseals": 11695,
    "Ġsultan": 15183,
    "makers": 20981,
    "Ġsleeps": 10446,
    "brow": 15314,
    "Ġknocking": 10559,
    "Ġlapl": 19776,
    "Ġtropics": 17066,
    "discharging": 26305,
    "fortnight": 13086,
    "Ġtops": 14586,
    "Ġlighter": 12650,
    "elf": 564,
    "Ġextinguished": 10343,
    "renadier": 18419,
    "Ġpreserved": 9261,
    "Ġrese": 2145,
    "Ġmercenary": 17193,
    "Ġhumaneval": 25582,
    "gement": 13727,
    "Ġdecently": 22453,
    "Ġserm": 9633,
    "Ġcol": 1058,
    "Ġpropri": 6738,
    "Ġhousings": 21490,
    "curiosity": 8623,
    "Ġpyramids": 15113,
    "Ġdispersed": 16597,
    "Ġside": 1387,
    "ized": 1529,
    "Ġdisastrous": 16057,
    "Ġnice": 6676,
    "Ġalteration": 9545,
    "Ġtiara": 26415,
    "assemblies": 25956,
    "Ġassumed": 9465,
    "road": 6677,
    "Ġpenetrated": 13471,
    "Ġvanquished": 22873,
    "Ġasking": 5651,
    "fresh": 13391,
    "assin": 22302,
    "apprec": 22841,
    "servants": 15037,
    "Ġmutinous": 23955,
    "Ġsavann": 14684,
    "pict": 8385,
    "Ġ110": 24435,
    "H": 44,
    "fury": 17547,
    "conquerable": 17398,
    "Ġnumerous": 6920,
    "Ġlabours": 8582,
    "flitted": 23966,
    "abomin": 15739,
    "Ġloos": 15869,
    "Ġflat": 8227,
    "Ġsaxe": 13626,
    "Ġcrawl": 11375,
    "Ġ12": 5483,
    "Ġvanish": 8927,
    "speps": 14333,
    "tical": 10128,
    "stem": 573,
    "Ġbeggars": 20628,
    "acter": 2508,
    "calculation": 25688,
    "Ġhilarious": 20297,
    "otherwise": 7670,
    "Ġsunk": 5752,
    "corrob": 24485,
    "Ġgods": 6454,
    "col": 3102,
    "disagreeable": 11163,
    "Ġlessons": 7691,
    "Ġbaked": 21384,
    "Ġsig": 869,
    "pe": 1438,
    "Ġdecaying": 2242,
    "ached": 2317,
    "billiard": 25334,
    "abash": 18107,
    "race": 11630,
    "Ġportcull": 23861,
    "Ġinscrut": 10033,
    "Ġimpressive": 14999,
    "Ġimpertinent": 9077,
    "Ġpredef": 18528,
    "omited": 21638,
    "Ġpeculiarity": 12930,
    "Ġwrite": 3821,
    "Ġcashier": 20197,
    "Ġtry": 3133,
    "pumps": 21026,
    "hump": 12475,
    "Ġrolled": 4428,
    "mariners": 19547,
    "Ġencaps": 12958,
    "Ġsells": 21222,
    "Ġravine": 18639,
    "Ġsooner": 5573,
    "Ġhealthful": 24056,
    "Ġcaught": 3732,
    "reflected": 24733,
    "studied": 17149,
    "Ġparacels": 13666,
    "Ġwere": 557,
    "âĢĶâĢĿ": 3301,
    "Ġjudged": 12081,
    "Ġthieves": 15633,
    "Ġmicroscopic": 26373,
    "yder": 10138,
    "ĠĠĠĠĠĠĠĠĠĠĠĠĠĠĠĠĠĠĠĠĠĠĠĠ": 5321,
    "fatality": 25019,
    "vely": 3868,
    "Ġbreaching": 23345,
    "Ġgestures": 13535,
    "edy": 2859,
    "Ġunhappiness": 14117,
    "ledyard": 22379,
    "Ġsort": 1507,
    "Ġunrestrained": 25554,
    "Ġclink": 22345,
    "Ġcentral": 7727,
    "inition": 11556,
    "Ġfrighted": 24026,
    "Ġpalace": 16690,
    "Ġglass": 4367,
    "addressing": 24401,
    "island": 10794,
    "Ġmatrices": 4969,
    "inside": 23062,
    "Ġunivers": 2126,
    "Ġamb": 9291,
    "Ġpunct": 8660,
    "Ġarchitecture": 1133,
    "Ġrays": 10329,
    "Ġsovere": 9255,
    "Ġassumpt": 5415,
    "Ġ108": 19683,
    "Ġblemish": 19678,
    "Ġpurchase": 12257,
    "Ġspect": 3552,
    "Ġtrag": 13036,
    "Ġdiscours": 18718,
    "Ġfoundling": 22965,
    "semic": 21818,
    "omely": 21636,
    "Ġswaying": 15046,
    "Ġsupposition": 9816,
    "bath": 13688,
    "Ġwaste": 9233,
    "Ġinconsiderable": 21492,
    "affrail": 11205,
    "Ġoverwhel": 8196,
    "Ġseventh": 18206,
    "ippi": 20243,
    "lorn": 12485,
    "Ġopinion": 3142,
    "Ġful": 4296,
    "Ġkn": 4544,
    "Ġquantity": 6948,
    "Ġwasted": 9703,
    "Ġdawned": 14993,
    "Ġmost": 1021,
    "foam": 24418,
    "Ġdiscipline": 26561,
    "manif": 14372,
    "Ġcalculates": 13264,
    "bitter": 11241,
    "apan": 6860,
    "inridge": 11560,
    "Ġhostile": 19938,
    "added": 11658,
    "Ġreflection": 6440,
    "scene": 14416,
    "ource": 5243,
    "Ġninetieth": 25357,
    "Ġwhel": 15864,
    "Ġprofessed": 14723,
    "Ġmrs": 1469,
    "phr": 18715,
    "Ġankers": 21443,
    "Ġfolios": 23015,
    "bles": 7017,
    "Ġlurking": 11289,
    "Ġlabels": 3289,
    "Ġupbraid": 18318,
    "Ġcomment": 9232,
    "rud": 4190,
    "Ġcring": 15549,
    "Ġborder": 10169,
    "Ġtidings": 11397,
    "Ġvertu": 23888,
    "Ġquicker": 16507,
    "Ġbackwater": 18651,
    "Ġdefilements": 26284,
    "Ġrepaired": 13106,
    "Ġvener": 8163,
    "Ġhint": 5016,
    "Ġpers": 1385,
    "Ġ20": 8613,
    "Ġendeavouring": 8034,
    "execut": 13654,
    "Ġlin": 10833,
    "Ġprogra": 1143,
    "Ġ183": 13238,
    "Ġcaution": 11346,
    "supplied": 10519,
    "Ġnervously": 19184,
    "Ġbackgammon": 22659,
    "Ġsanct": 15062,
    "Ġreconciliation": 25292,
    "Ġundu": 15835,
    "Ġunce": 11709,
    "Ġlanding": 11983,
    "Ġvessels": 6755,
    "ipping": 2203,
    "pun": 9617,
    "Ġattendant": 11285,
    "Ġadjusted": 23457,
    "Ġanom": 12608,
    "Ġbery": 13897,
    "Ġprophe": 13077,
    "Ġthrowing": 6335,
    "Ġcustoms": 19651,
    "Ġpallet": 21478,
    "Ġaccommodate": 20515,
    "Ġpatients": 24813,
    "unch": 14057,
    "Ġransacked": 26505,
    "skirted": 24489,
    "wail": 21124,
    "Ġscarlet": 13221,
    "ispensable": 9095,
    "Ġobstinacy": 17420,
    "Ġ93": 24591,
    "oforte": 14285,
    "Ġjoyous": 14663,
    "wife": 8100,
    "decoder": 3646,
    "Ġacquiring": 2768,
    "Ġdifference": 1491,
    "Ġcentre": 5123,
    "Ġpitiless": 19386,
    "ufact": 10733,
    "shock": 19854,
    "Ġbizarre": 17871,
    "Ġimprudent": 12845,
    "Ġaffirmative": 15221,
    "Ġnobler": 14175,
    "Ġmiddle": 4140,
    "Ġpaddles": 15146,
    "Ġappetite": 12382,
    "urre": 10856,
    "simon": 16973,
    "Ġenglishman": 11229,
    "Ġlux": 8813,
    "Ġbodies": 8031,
    "Ġringleader": 26212,
    "Ġaforethought": 25428,
    "Ġfixedly": 19247,
    "Ġdistinguish": 2728,
    "Ġdire": 867,
    "Ġmoby": 3666,
    "Ġcoopers": 20520,
    "Ġimpious": 15985,
    "eting": 7169,
    "Ġdoubts": 8579,
    "Ġconductor": 24004,
    "Ġthine": 7374,
    "Ġenlist": 21934,
    "entirely": 7781,
    "Ġduly": 13349,
    "Ġunwell": 22012,
    "Ġcrony": 23439,
    "Ġgang": 9207,
    "ivot": 11716,
    "wished": 13804,
    "Ġmin": 1026,
    "liking": 22921,
    "Ġchannel": 26012,
    "Ġcourtesy": 9944,
    "Ġpresto": 22227,
    "ner": 1371,
    "Ġjealous": 9468,
    "okingly": 22378,
    "Ġfurniture": 6476,
    "Ġstunsail": 25543,
    "Ġhospitals": 24923,
    "Ġwrenched": 12555,
    "Ġdeficiencies": 26570,
    "esley": 17919,
    "Ġshelf": 12265,
    "Ġclinch": 18425,
    "Ġbrighton": 6470,
    "Ġcasualty": 20340,
    "Ġboone": 11838,
    "Ġblended": 16217,
    "Ġemployer": 19430,
    "possess": 5983,
    "kitty": 10105,
    "Ġfamous": 5255,
    "Ġreserved": 7515,
    "Ġhumorous": 10360,
    "Ġflattering": 13026,
    "manifested": 20524,
    "Ġraiment": 22640,
    "Ġresembling": 4100,
    "reader": 23844,
    "contain": 18502,
    "dared": 13701,
    "Ġcontributed": 16007,
    "actually": 14296,
    "wrinkled": 16553,
    "Ġfootman": 8287,
    "meryton": 10111,
    "Ġdisguise": 10045,
    "Ġleagues": 9221,
    "Ġreveal": 11200,
    "Ġwelded": 9571,
    "itioned": 22466,
    "reached": 13840,
    "Ġdrenched": 12600,
    "ocr": 10468,
    "Ġwad": 13850,
    "Ġbehavior": 8001,
    "Ġassociations": 14962,
    "Ġfright": 3797,
    "Ġvictoria": 14872,
    "Ġsubdivisions": 26037,
    "Ġpull": 5152,
    "conscientious": 19625,
    "Ġtopsails": 19194,
    "Ġburst": 4378,
    "kl": 4865,
    "seemed": 4303,
    "sorts": 21059,
    "Ġ61": 24364,
    "Ġcoachman": 15000,
    "Ġconstructed": 9385,
    "erated": 21270,
    "esu": 17918,
    "Ġswe": 2286,
    "Ġsmote": 18575,
    "Ġnantucketers": 9894,
    "<UNK>": 3,
    "Ġambition": 11432,
    "Ġcreditable": 19621,
    "become": 14246,
    "icant": 21559,
    "Ġtrees": 4203,
    "Ġappre": 5165,
    "Ġlightness": 23259,
    "Ġspringing": 10518,
    "inity": 5693,
    "Ġgener": 586,
    "Ġschool": 5512,
    "Ġposition": 1954,
    "Ġinterlude": 16068,
    "merit": 19280,
    "Ġtal": 7564,
    "objection": 19914,
    "forgotten": 12414,
    "Ġdrags": 16941,
    "Ġmasks": 23326,
    "Ġsuccessful": 9922,
    "ocris": 23707,
    "Ġropes": 10748,
    "repe": 8775,
    "Ġlikeness": 11179,
    "Ġregent": 18589,
    "Ġrecorded": 11293,
    "Ġinstructions": 11195,
    "Ġtragic": 15254,
    "Ġrickety": 26506,
    "ordered": 8789,
    "...": 24549,
    "Ġhasty": 10477,
    "ire": 493,
    "Ġjuicy": 25370,
    "Ġdecreed": 18492,
    "Ġconcise": 23322,
    "Ġpitied": 14691,
    "pious": 17633,
    "Ġarrogance": 26233,
    "Ġdeath": 2044,
    "Ġunseen": 3523,
    "Ġpreparation": 13528,
    "Ġflowed": 10371,
    "Ġhospital": 15039,
    "Ġstop": 2503,
    "Ġpau": 17906,
    "Ġadmirer": 16838,
    "stream": 15684,
    "air": 1001,
    "Ġarrested": 9560,
    "Ġrecklessly": 16983,
    "oder": 2458,
    "Ġnameless": 7699,
    "dismay": 19152,
    "Ġgrove": 12144,
    "single": 10126,
    "nour": 20987,
    "ortment": 22255,
    "Ġgrieved": 8296,
    "Ġreminding": 19796,
    "Ġbowls": 23768,
    "idual": 1560,
    "Ġchrist": 4075,
    "opol": 12868,
    "Ġrags": 18637,
    "thomas": 18219,
    "united": 14059,
    "Ġsitt": 21216,
    "Ġturban": 23612,
    "Ġstoutest": 24628,
    "Ġconnections": 971,
    "Ġartic": 5314,
    "Ġsafer": 22162,
    "water": 4868,
    "ologist": 22855,
    "Ġsaucer": 20604,
    "Ġexponentially": 1445,
    "Ġquestion": 2778,
    "Ġdestitute": 14565,
    "angled": 6844,
    "expound": 23663,
    "seldom": 13786,
    "pped": 1997,
    "condesc": 18505,
    "following": 10572,
    "Ġxavier": 2855,
    "Ġwel": 4525,
    "ot": 346,
    "Ġretained": 7173,
    "enses": 10994,
    "Ġreco": 9788,
    "Ġmerit": 9426,
    "Ġglist": 9343,
    "Ġag": 684,
    "gings": 7549,
    "dug": 18462,
    "Ġ(âĢľ": 15993,
    "Ġharrow": 17925,
    "Ġflo": 2588,
    "Ġcrimes": 8588,
    "Ġdissect": 16050,
    "Ġdesert": 6726,
    "woof": 21138,
    "Ġlangsdorff": 15275,
    "woe": 21134,
    "Ġepid": 18004,
    "anx": 8783,
    "Ġtranslates": 12049,
    "Ġdiver": 2532,
    "patter": 4519,
    "Ġprojected": 16871,
    "described": 18895,
    "Ġmark": 2326,
    "Ġbedside": 19121,
    "elled": 3996,
    "Ġpaul": 12060,
    "Ġincantation": 26257,
    "Ġbankers": 24302,
    "farmer": 25899,
    "Ġblandly": 20322,
    "Ġestablish": 9542,
    "barbs": 20236,
    "Ġglimpse": 6944,
    "ace": 716,
    "Ġsharpened": 17364,
    "walk": 5523,
    "cle": 3956,
    "Ġsnarled": 25716,
    "Ġslee": 8974,
    "Ġoverlook": 10959,
    "Ġindolence": 16227,
    "inspector": 13645,
    "isher": 2878,
    "smo": 10125,
    "ishments": 9272,
    "allest": 5485,
    "Ġbirds": 5873,
    "goodness": 19288,
    "Ġmighty": 4230,
    "Ġcables": 15555,
    "Ġadequately": 15197,
    "Ġregarding": 13209,
    "atisf": 21262,
    "urs": 6989,
    "Ġstairs": 5541,
    "_),": 7125,
    "ouring": 6420,
    "rium": 3132,
    "Ġscale": 1549,
    "Ġache": 18663,
    "Ġconvey": 9980,
    "Ġsneer": 13446,
    "Ġ1000": 3116,
    "uncommon": 11680,
    "Ġattend": 5036,
    "Ġcamel": 25349,
    "Ġbordering": 17228,
    "Ġlieuten": 13325,
    "iteness": 4390,
    "himself": 3974,
    "women": 15455,
    "Ġturtle": 4204,
    "Ġsplinters": 15101,
    "Ġvineyarder": 25606,
    "Ġspectator": 19404,
    "Ġinnocently": 24025,
    "Ġnowadays": 18546,
    "ibility": 2385,
    "favour": 9548,
    "Ġvers": 7563,
    "Ġpresentiment": 18988,
    "cou": 13694,
    "Ġcrusad": 23705,
    "Ġdisappointing": 19578,
    "Ġexpression": 4513,
    "Ġsteam": 9352,
    "Ġvane": 22871,
    "Ġmorbid": 16232,
    "material": 13129,
    "Ġcape": 5146,
    "jewel": 20345,
    "lesc": 11039,
    "Ġcoin": 9770,
    "Ġhundredth": 16517,
    "Ġflaw": 23007,
    "iply": 22360,
    "tains": 10962,
    "fit": 6645,
    "keepers": 16659,
    "pl": 401,
    "Ġtheir": 645,
    "quit": 15759,
    "Ġarmies": 16492,
    "~": 98,
    "twenty": 6607,
    "Ġentertainment": 12220,
    "Ġexceed": 1344,
    "Ġ23": 13191,
    "Ġcustomary": 8669,
    "Ġwatery": 6296,
    "Ġsnug": 8279,
    "\\": 64,
    "Ġheroes": 10576,
    "unfort": 21873,
    "ermaid": 14297,
    "Ġinstruct": 2865,
    "Ġtemptations": 24508,
    "Ġn": 300,
    "ique": 8742,
    "Ġhearty": 9844,
    "Ġfertile": 20581,
    "Ġwil": 4579,
    "holes": 12052,
    "Ġdan": 8792,
    "Ġcomputational": 1622,
    "Ġkin": 15900,
    "Ġuncounted": 19116,
    "everlasting": 18771,
    "recollect": 17223,
    "Ġmemb": 14028,
    "oblivious": 26582,
    "Ġcombat": 16186,
    "Ġimputation": 22169,
    "Ġfellows": 8256,
    "Ġstand": 1736,
    "odecimo": 11444,
    "joining": 19444,
    "Ġthoughtlessness": 16191,
    "Ġshuttle": 12124,
    "presume": 25670,
    "Ġintimately": 24804,
    "Ġunembarrassed": 22064,
    "Ġbald": 16205,
    "Ġtoken": 2040,
    "build": 12185,
    "archbishop": 22888,
    "Ġdemanding": 16805,
    "Ġconnexion": 11454,
    "conceivable": 17130,
    "Ġfarther": 5954,
    "Ġgrievous": 13260,
    "blister": 24127,
    "Ġcruelty": 9968,
    "shows": 22443,
    "Ġdons": 17888,
    "Ġforge": 8456,
    "Ġinclinations": 19538,
    "Ġnaked": 8126,
    "Ġbeckoning": 20500,
    "Ġcharmingly": 24221,
    "Ġsenior": 17171,
    "Ġgemini": 26469,
    "Ġadmires": 19684,
    "Ġ_": 842,
    "Ġlichen": 20090,
    "mortals": 25409,
    "atiate": 12545,
    "slide": 24556,
    "Ġbambooz": 26119,
    "ated": 732,
    "Ġreports": 19082,
    "Ġbows": 4086,
    "asets": 2305,
    "Ġmatter": 1734,
    "Ġdevices": 2942,
    "Ġloveliness": 13607,
    "amped": 12032,
    "Ġhypothe": 4077,
    "Ġreassure": 21669,
    "Ġslighter": 18939,
    "Ġsegmentation": 17339,
    "izing": 1067,
    "Ġrudimental": 25108,
    "Ġconsoling": 19455,
    "Ġplanned": 14751,
    "Ġgretna": 26468,
    "Ġsmilingly": 22557,
    "aton": 21257,
    "Ġoverthrow": 18431,
    "pall": 17628,
    "Ġclams": 19987,
    "Ġfrancis": 26063,
    "ught": 2752,
    "Ġproceed": 3244,
    "Ġtist": 21161,
    "Ġowner": 8921,
    "Ġhimmale": 18329,
    "Ġbedroom": 7277,
    "Ġplaid": 22600,
    "Ġresid": 22535,
    "Ġuncivilized": 25498,
    "tell": 1380,
    "apter": 1195,
    "beaut": 8512,
    "Ġoakum": 16934,
    "cav": 17507,
    "Ġloses": 15871,
    "arness": 11670,
    "Ġoblivious": 26032,
    "Ġstudies": 7955,
    "Ġhorses": 6385,
    "Ġfollows": 7672,
    "adding": 21756,
    "Ġan": 286,
    "speed": 19407,
    "Ġmaritime": 23035,
    "Ġblan": 18816,
    "Ġdelivered": 11115,
    "Ġhollows": 19740,
    "Ġsill": 10765,
    "Ġshortness": 23480,
    "Ġtearless": 24786,
    "icult": 3341,
    "Ġmiz": 10777,
    "infall": 21187,
    "Ġnarratives": 24353,
    "ase": 1156,
    "w": 91,
    "compliments": 24810,
    "Ġmislead": 22753,
    "Ĳ": 243,
    "alous": 7372,
    "Ġchristendom": 16695,
    "german": 11491,
    "Ġspilling": 22134,
    "Ġstomach": 11652,
    "ascribed": 24708,
    "Ġmiraculous": 13546,
    "assure": 9269,
    "blo": 6353,
    "Ġmat": 1146,
    "Ġsignal": 5944,
    "Ġgunw": 6212,
    "âĢĿ--": 21810,
    "Ġflutter": 16245,
    "ol": 361,
    "Ġcorrupt": 11921,
    "Ġgrec": 18960,
    "Ġblasted": 7936,
    "peculiarities": 13470,
    "dom": 6222,
    "Ġsouthern": 7688,
    "clusion": 16303,
    "Ġhumility": 12982,
    ">": 34,
    "Ġbolted": 12242,
    "Ġhellaswag": 24343,
    "Ġworthy": 7241,
    "Ġmarvellous": 7538,
    "Ġsuperb": 16444,
    "yset": 21144,
    "Ġmiguel": 25766,
    "sence": 3307,
    "Ġachieved": 13165,
    "Ġgreenness": 23765,
    "magnificent": 20273,
    "Ġrabbit": 4288,
    "delirium": 14783,
    "Ġpangs": 15612,
    "practical": 17221,
    "Ġaromatic": 25925,
    "develop": 13517,
    "nesday": 8702,
    "ix": 1801,
    "define": 1527,
    "Ġdenying": 14658,
    "Ġfolded": 7767,
    "Ġwretchedly": 19505,
    "problem": 25244,
    "Ġretrieval": 10674,
    "Ġdigest": 24647,
    "ques": 2842,
    "Ġmild": 4148,
    "ni": 1675,
    "Ġcaring": 23088,
    "weep": 22681,
    "Ġdiscoverers": 26036,
    "telling": 14439,
    "Ġphrenologists": 25608,
    "special": 14704,
    "prove": 11147,
    "across": 10324,
    "ois": 9134,
    "Ġcrav": 19172,
    "ving": 592,
    "Ġfoiled": 23241,
    "Ġdisorder": 16048,
    "Ġwhiting": 10859,
    "revival": 26162,
    "Ġstrewed": 23420,
    "Ġcomprises": 22569,
    "rally": 17651,
    "Ġadvantage": 4315,
    "Ġmadly": 16484,
    "Ġrights": 10396,
    "ulating": 10887,
    "Ġpersonages": 23539,
    "Ġwarrant": 17794,
    "Ġslily": 23161,
    "Ġjam": 10951,
    "club": 26380,
    "aintance": 3570,
    "Ġrepeated": 3831,
    "esteem": 26008,
    "violently": 23541,
    "Ġtrumpet": 9573,
    "dle": 3249,
    "Ġwantonly": 22892,
    "Ġclim": 8195,
    "usages": 22287,
    "attentions": 13573,
    "written": 7994,
    "Ġswallowed": 7943,
    "seems": 10875,
    "Ġcautiousness": 19865,
    "oney": 3046,
    "Ġactuated": 18545,
    "itancy": 21331,
    "cked": 2763,
    "Ġchasing": 11752,
    "Ġfamily": 1966,
    "Ġrecom": 4553,
    ".âĢĿ": 464,
    "Ġpleated": 16295,
    "legra": 10789,
    "garet": 9597,
    "Ġdeal": 3609,
    "thickness": 25367,
    "din": 8373,
    "Ġpasseng": 12968,
    "Ġauthorities": 11264,
    "Ġsecret": 3722,
    "Ġcoquet": 22581,
    "ruction": 4356,
    "esting": 7412,
    "Ġhanging": 5447,
    "Ġcomputations": 15997,
    "Ġstoper": 14461,
    "Ġchart": 10945,
    "Ġdrama": 16325,
    "Ġbreakfast": 3978,
    "Ġinstantly": 3592,
    "Ġwards": 17789,
    "Ġaboard": 6697,
    "Ġ118": 19697,
    "Ġlordly": 23742,
    "ifferent": 4262,
    "Ġbeckoned": 25793,
    "ization": 486,
    "Ġsongs": 13419,
    "aloft": 8806,
    "pid": 1358,
    "Ġveneration": 25044,
    "Ġsire": 15500,
    "Ġanalytical": 22910,
    "Ġflinging": 13584,
    "Ġprominence": 18953,
    "Ġsomething": 1794,
    "Ġlimber": 16478,
    "Ġweaken": 21919,
    "argue": 21442,
    "catherine": 7127,
    "Ġundulations": 19514,
    "content": 11198,
    "Ġchoking": 15932,
    "indirect": 22369,
    "Ġsensitivity": 3068,
    "Ġchallenges": 13629,
    "evenings": 19461,
    "ate": 423,
    "Ġnoise": 1069,
    "Ġveins": 8932,
    "Ġtypes": 8936,
    "Ġobed": 8535,
    "Ġprediction": 2283,
    "Ġoverfitting": 1543,
    "Ġengraved": 17081,
    "Ġhandsomer": 20332,
    "Ġunconscious": 9546,
    "concerns": 24066,
    "Ġtantalizing": 20412,
    "Ġsaville": 15887,
    "Ġcomput": 602,
    "Ġhiding": 9822,
    "Ġrefuge": 8541,
    "Ġkicks": 19767,
    "Ġdisdained": 15009,
    "Ġeliminating": 20618,
    "Ġtarpaul": 17730,
    "learning": 2684,
    "Ġrounds": 18885,
    "Ġthrusts": 24350,
    "Ġeludes": 26554,
    "cottage": 9569,
    "Ġadro": 15865,
    "Ġcents": 17828,
    "Ġvariations": 22663,
    "Ġmarried": 3408,
    "Ġhorrid": 7998,
    "Ġdeplored": 20503,
    "Ġrect": 18025,
    "Ġcabinet": 23859,
    "Ġpreluding": 18368,
    "Ġduplicates": 17216,
    "islands": 21374,
    "Ġdoubly": 16387,
    "Ġcable": 11579,
    "ologies": 18767,
    "milk": 20475,
    "Ġnerve": 16338,
    "Ġmould": 6519,
    "Ġpirates": 9073,
    "enderby": 25215,
    "[": 63,
    "Ġsealed": 15816,
    "pen": 1205,
    "Ġtantamount": 25625,
    "Ġingen": 9049,
    "Ġconcoct": 19047,
    "bare": 12439,
    "Ġwidespread": 20674,
    "Ġspile": 22124,
    "Ġcop": 7579,
    "ckled": 9256,
    "ressing": 8918,
    "Ġdoctrine": 24197,
    "Ġperfectly": 3701,
    "ta": 13788,
    "Ġfloundered": 18861,
    "companies": 24894,
    "slee": 17168,
    "Ġsadder": 24049,
    "Ġfleetness": 20178,
    "Ġpouring": 12621,
    "Ġbearded": 15724,
    "cock": 12024,
    "Ġhold": 2239,
    "Ġexclusiveness": 23924,
    "Ġpulley": 2975,
    "cherish": 24552,
    "Ġshroud": 6483,
    "Ġstarvation": 19790,
    "Ġstep": 751,
    "Ġbottled": 23794,
    "andromeda": 21865,
    "Ġfigures": 8629,
    "Ġwerter": 15238,
    "Ġbottomless": 12104,
    "Ġunfold": 8022,
    "pre": 650,
    "banish": 20781,
    "Ġowners": 7662,
    "change": 6392,
    "machine": 931,
    "Ġmonoton": 3638,
    "Ġklux": 22188,
    "commer": 22819,
    "Ġsafely": 9025,
    "Ġprodigies": 19792,
    "Ġtwo": 1043,
    "Ġunabated": 15850,
    "Ġchamois": 16800,
    "Ġencoura": 1367,
    "wander": 17709,
    "Ġinvestigations": 17246,
    "Ġfin": 1462,
    "Ġpsalmody": 20583,
    "Ġinquis": 19303,
    "aling": 1033,
    "equally": 19898,
    "Ġlim": 2376,
    "Ġunseasonable": 26520,
    "Ġrevenge": 5452,
    "Ġfitly": 23996,
    "luent": 15994,
    "ower": 994,
    "search": 8464,
    "Ġelevating": 19728,
    "Ġspecies": 5112,
    "arrang": 14652,
    "Ġiv": 4047,
    "Ġaddress": 2268,
    "constable": 24605,
    "Ġfreemason": 23207,
    "Ġhim": 475,
    "Ġguid": 2638,
    "Ġadie": 8488,
    "Ġcrib": 21346,
    "police": 10583,
    "ivates": 18277,
    "hedge": 22497,
    "Ġdying": 2136,
    "Ġdone": 1818,
    "Ġnormalization": 1242,
    "precisely": 6917,
    "arboard": 7266,
    "Ġdesperado": 19818,
    "Ġbodings": 21389,
    "abling": 1078,
    "puzz": 17640,
    "ĠâĢĶ_": 3457,
    "Ġspoon": 22131,
    "Ġangrily": 9406,
    "Ġrise": 5637,
    "A": 37,
    "Ġmisanthropic": 26560,
    "Ġhorn": 6185,
    "affectionate": 24921,
    "Ġblight": 18817,
    "Ġcovari": 2333,
    "Ġnature": 2541,
    "whatsoever": 18495,
    "Ġattentive": 9033,
    "would": 2347,
    "yet": 3755,
    "insufferable": 21191,
    "Ġvect": 1224,
    "Ġ99": 10745,
    "Ġleg": 2330,
    "rifice": 12501,
    "Ġelderly": 13496,
    "Ġmaxim": 3083,
    "Ġpainting": 13140,
    "Ġhalloa": 13315,
    "Ġpray": 3900,
    "Ġdick": 3496,
    "Ġsurrey": 14558,
    "Ġinhale": 20299,
    "Ġsor": 4147,
    "Ġ128": 24473,
    "nson": 16086,
    "Ġfond": 4754,
    "Ġoccas": 2703,
    "Ġinqu": 2965,
    "Ġworld": 1592,
    "Ġsincer": 13063,
    "Ġgills": 17992,
    "Ġuse": 839,
    "Ġloud": 4700,
    "divided": 25018,
    "izer": 2032,
    "Ġfurn": 3711,
    "Ġmilk": 6485,
    "Ġdistinctly": 7311,
    "Ġpassionately": 16764,
    "Ġempty": 5353,
    "Ġcylinders": 25943,
    "Ġdrily": 23538,
    "Ġbordered": 24563,
    "Ġenabled": 9295,
    "Ġpoised": 22587,
    "Ġinquired": 7485,
    "Ġpurple": 10433,
    "ald": 15622,
    "Ġyards": 5371,
    "iality": 8843,
    "Ġjunk": 15951,
    "coast": 10449,
    "before": 3113,
    "Ġrector": 21673,
    "Ġexcept": 3313,
    "owner": 18611,
    "Ġexplicit": 3589,
    "Ġdisplaying": 16966,
    "Ġstig": 14002,
    "um": 454,
    "Ġcruis": 14624,
    "Ġproble": 1111,
    "Ġdragged": 6889,
    "Ġattorney": 18623,
    "Ġcapacity": 10440,
    "Ġbidden": 24646,
    "grace": 5846,
    "control": 16542,
    "Ġscope": 15940,
    "Ġrepresentations": 1876,
    "Ġlevers": 18064,
    "strength": 13979,
    "Ġclergy": 7642,
    "Ġincom": 9768,
    "lower": 8880,
    "gammon": 20242,
    "Ġleaky": 2342,
    "nes": 6961,
    "Ġdestro": 3724,
    "Ġaccompl": 5167,
    "Ġgleams": 17309,
    "Ġmorsel": 20676,
    "Ġmaelstrom": 19354,
    "Ġconsc": 4274,
    "Ġjacket": 6489,
    "Ġuncle": 3191,
    "indisc": 22370,
    "Ġreligious": 25121,
    "rative": 17652,
    "Ġdrowning": 19903,
    "Ġglimmered": 20170,
    "Ġqueer": 4476,
    "amy": 8467,
    "hs": 8377,
    "maul": 11888,
    "Ġbohemian": 17133,
    "Ġarabian": 9089,
    "Ġfriendly": 9819,
    "Ġmurmured": 7480,
    "useness": 22289,
    "heav": 5694,
    "Ġceremonious": 24837,
    "south": 8758,
    "ount": 1113,
    "Ġcharing": 14180,
    "¸": 121,
    "Ġdoublo": 6078,
    "quarrel": 20013,
    "Ġlothario": 26184,
    "his": 1412,
    "ificent": 8183,
    "Ġbash": 12583,
    "Ġfug": 12592,
    "verity": 14000,
    "Ġinarticulate": 21497,
    "ocations": 23706,
    "tle": 2406,
    "Ġcandle": 8291,
    "Ġbumpkin": 20199,
    "omorrah": 18017,
    "Ġbrute": 8926,
    "Ġpeninsula": 23193,
    "generations": 23784,
    "Ġdiscre": 2413,
    "Ġlancaster": 26340,
    "Ġrem": 955,
    "Ġspo": 6846,
    "Ġun": 422,
    "Ġmaintainable": 12933,
    "Ġacquaintances": 17349,
    "Ġproves": 14037,
    "Ġrejoicing": 13420,
    "however": 4371,
    "alled": 5910,
    "Ġtransportation": 13641,
    "Ġreceiving": 4882,
    "Ġcake": 12567,
    "gentlemen": 9503,
    "Ġfearful": 6197,
    "Ġfiends": 14827,
    "?âĢĿâĢĶ": 12892,
    "idually": 21766,
    "romeda": 17262,
    "Ġmantel": 11439,
    "Ġimmovable": 15890,
    "Ġ66": 24369,
    "Ġbead": 21747,
    "Ġcompanion": 3645,
    "piteous": 21032,
    "Ġquestioning": 10464,
    "Ġphrenologist": 25607,
    "Ġsque": 18756,
    "Ġheightened": 8648,
    "Ġfossiliferous": 25609,
    "Ġadequ": 10913,
    "Ġquery": 2482,
    "Ġshar": 9249,
    "Ġinterlacing": 22573,
    "Ġrecogn": 2596,
    "Ġstair": 8455,
    "thoroughly": 26508,
    "secured": 16938,
    "Ġfainting": 16897,
    "Ġint": 412,
    "anguish": 15978,
    "Ġplanet": 14749,
    "Ġtumbled": 13405,
    "Ġpreser": 6040,
    "Ġassembly": 10642,
    "atious": 10151,
    "Ġworking": 5575,
    "Ġhur": 2101,
    "Ġscar": 3212,
    "irons": 10238,
    "anke": 15558,
    "Ġparade": 18301,
    "falgar": 26130,
    "Ġblotted": 20216,
    "od": 355,
    "Ġstuff": 5717,
    "ctions": 952,
    "mody": 16198,
    "whalemen": 10431,
    "Ġbridges": 24682,
    "Ġsublim": 19965,
    "Ġgunwales": 12238,
    "Ġhypocritical": 20737,
    "Ġperforming": 7927,
    "ties": 2759,
    "Ġoccurring": 2792,
    "prevent": 11793,
    "cont": 2922,
    "Ġforeheads": 23447,
    "Ġpip": 1624,
    "Ġcomposedly": 25183,
    "Ġsacrificial": 24871,
    "Ġviolates": 3164,
    "Ġdrove": 4984,
    "Ġunhappily": 18262,
    "_,": 2799,
    "ations": 711,
    "nor": 2743,
    "Ġrelig": 8550,
    "Ġnocturnal": 20714,
    "Ġalliance": 18235,
    "Ġsolemn": 4102,
    "Ġadoration": 18290,
    "ccess": 3182,
    "onday": 6063,
    "Ġprovoked": 13324,
    "Ġunquestionable": 26221,
    "Ġfacilitate": 26098,
    "Ġagitates": 22514,
    "jee": 17579,
    "Ġcrowded": 8011,
    "animal": 16978,
    "Ġlads": 8596,
    "Ġprofess": 3699,
    "fore": 687,
    "boy": 4737,
    "Ġfacet": 15582,
    "ura": 1062,
    "Ġentreating": 24207,
    "arpening": 21441,
    "Ġabusing": 18393,
    "Ġpredicted": 2046,
    "Ġphilistines": 26082,
    "Ġmurky": 19202,
    "hairs": 20903,
    "disappearing": 23500,
    "lingly": 9772,
    "Ġslipper": 24265,
    "comple": 7441,
    "alive": 10827,
    "sorting": 17004,
    "Ġcous": 3436,
    "Ġprojecting": 9984,
    "wood": 5897,
    "hello": 13362,
    "begone": 12875,
    "Ġnightgown": 23130,
    "Ġvarious": 3509,
    "nuee": 17429,
    "Ġchal": 18378,
    "Ġangel": 4852,
    "taught": 17684,
    "Ġconstantinople": 19836,
    "urious": 21700,
    "thodox": 21985,
    "ce": 313,
    "goin": 23401,
    "Ġmed": 3990,
    "Ġblue": 3453,
    "Ġparading": 23709,
    "Ġphys": 5653,
    "Ġconstrain": 2629,
    "Ġprayer": 16666,
    "prodig": 16425,
    "Ġscotland": 6639,
    "Ġdisobedience": 22532,
    "/": 19,
    "Ġresearches": 13123,
    "Ġagonizing": 17238,
    "perch": 18339,
    "discovered": 8324,
    "Ġduke": 7755,
    "roof": 17953,
    "Ġchurches": 12825,
    "Ġcloser": 8659,
    "Ġcurve": 22991,
    "Ġkettle": 26231,
    "Ġimprecations": 25820,
    "Ġmiseries": 10344,
    "Ġante": 17896,
    "Ġrover": 18456,
    "shud": 18483,
    "Ġprofundity": 20451,
    "tom": 15434,
    "Ġvillas": 24051,
    "Ġofficers": 4424,
    "rough": 590,
    "Ġcor": 1322,
    "exam": 10976,
    "nez": 22458,
    "Ġresponded": 13637,
    "Ġharness": 17927,
    "bowed": 10683,
    "Ġwreaths": 25937,
    "usual": 5841,
    "grave": 16092,
    "succeeded": 15174,
    "called": 6292,
    "oard": 4808,
    "neville": 22462,
    "Ġpenny": 16311,
    "Ġlumps": 21553,
    "Ġsettling": 11062,
    "bid": 5611,
    "paused": 17373,
    "meanwhile": 10609,
    "grasping": 20638,
    "Ġwhisky": 23931,
    "Ġquies": 18464,
    "enari": 21280,
    "Ġleghorn": 13145,
    "duck": 22409,
    "scra": 13015,
    "Ġphyset": 23197,
    "knowing": 10437,
    "house": 4080,
    "Ġhailing": 11691,
    "Ġ26": 10470,
    "Ġhed": 7387,
    "Ġimprovement": 7964,
    "rus": 5929,
    "lucases": 20209,
    "Ġringbolts": 24196,
    "thick": 10260,
    "Ġwhiteness": 5918,
    "Ġreasoned": 23055,
    "Ġspurn": 18309,
    "Ġpursue": 6314,
    "had": 1950,
    "Ġschedu": 1824,
    "Ġwords": 1325,
    "Ġbale": 7838,
    "featured": 24147,
    "thrusting": 20258,
    "boats": 6204,
    "outon": 12800,
    "Ġlosing": 10916,
    "returned": 7765,
    "ented": 4347,
    "ulged": 12726,
    "Ġbeak": 18079,
    "Ġbenjamin": 26567,
    "Ġaper": 17743,
    "Ġsincerity": 13677,
    "Ġfact": 1729,
    "Ġresol": 2666,
    "Ġsyllables": 25298,
    "kington": 11203,
    "recurrent": 4994,
    "Ġand": 295,
    "Ġkne": 4266,
    ".)": 6783,
    "Ġgrasped": 8033,
    "Ġglue": 15671,
    "Ġretrogress": 23070,
    "drove": 16993,
    "Ġthoughtless": 16190,
    "idity": 8830,
    "Ġhatchway": 13524,
    "temper": 10003,
    "prov": 16421,
    "Ġthrobbing": 16898,
    "humanity": 24839,
    "Ġpage": 6978,
    "aried": 10987,
    "Ġrevive": 13478,
    "Ġlifelessly": 23045,
    "Ġrele": 2918,
    "tremble": 17141,
    "Ġboards": 14299,
    "elihood": 4621,
    "ordingly": 18518,
    "Ġminers": 22828,
    "hing": 978,
    "Ġmode": 8499,
    "awful": 23111,
    "along": 6012,
    "Ġsays": 3561,
    "lied": 6507,
    "Ġphilipp": 23882,
    "Ġwre": 5077,
    "Ġgrown": 5628,
    "minute": 11274,
    "Ġmental": 21318,
    "possessed": 9527,
    "Ġhappens": 2186,
    "dare": 12451,
    "weakness": 16122,
    "Ġstreng": 18073,
    "nial": 20983,
    "Ġinvitation": 5189,
    "usually": 10285,
    "Ġventured": 7501,
    "heed": 15497,
    "Ġcam": 10161,
    "Ġpeculiarly": 8286,
    "stood": 4118,
    "oran": 8788,
    "Ġtradesman": 20071,
    "Ġform": 1024,
    "Ġremnants": 22790,
    "Ġrecl": 16136,
    "snap": 24848,
    "Ġlabyrinth": 13678,
    "Ġsignificance": 13279,
    "Ġalders": 21781,
    "Ġalle": 11665,
    "Ġdoings": 18376,
    "Ġcoherent": 3264,
    "Ġvulgar": 13603,
    "Ġeulogy": 26470,
    "Ġneighbourhood": 5126,
    "Ġscenarios": 26542,
    "Ġintuitions": 17340,
    "Ġrheum": 18214,
    "Ġitem": 12698,
    "clim": 18929,
    "Ġclubs": 25179,
    "amplified": 26494,
    "Ġashamed": 6403,
    "Ġmanly": 22322,
    "Ġspecimens": 18851,
    "Ġdoctor": 5067,
    "Ġbehalf": 14509,
    "Ġexcessively": 9439,
    "fth": 20855,
    "stra": 4048,
    "Ġshouted": 5347,
    "ain": 343,
    "ahead": 12432,
    "Ġsqueaking": 26274,
    "ille": 9219,
    "elizabeth": 1986,
    "fishery": 10031,
    "Ġstopping": 2751,
    "Ġgips": 10841,
    "Ġsacrilege": 26228,
    "Ġgallows": 12143,
    "usiveness": 22290,
    "Ġflatter": 9347,
    "aan": 20763,
    "Ġlungs": 8361,
    "noble": 7921,
    "shone": 22440,
    "Ġpeep": 6870,
    "Ġcheered": 16367,
    "invol": 12527,
    "Ġplants": 22598,
    "Ġdefinition": 14402,
    "Ġmemories": 14541,
    "Ġcaprice": 14576,
    "you": 1003,
    "Ġgrimesby": 11457,
    "aggra": 21903,
    "Ġdit": 21418,
    "Ġmaternal": 11059,
    "anchor": 13888,
    "ist": 450,
    "Ġbel": 1217,
    "Ġcash": 9652,
    "Ġsubterranean": 13610,
    "Ġsteelkilt": 5675,
    "Ġjenkinson": 11431,
    "rael": 21626,
    "innocent": 20285,
    "Ġbarnacled": 25536,
    "cannibal": 15223,
    "¥": 103,
    "Ġadduced": 26524,
    "Ġwherefore": 8524,
    "ved": 870,
    "Ġtech": 1703,
    "Ġbleeds": 24397,
    "Ġintelligences": 12829,
    "Ġconv": 2969,
    "pure": 17626,
    "r": 86,
    "taken": 7560,
    "abiding": 21790,
    "Ġjav": 7901,
    "Ġsay": 934,
    "Ġfreshness": 23985,
    "gress": 2209,
    "Ġblooming": 17212,
    "fow": 20852,
    "Ġglued": 20587,
    "Ġch": 512,
    "Ġinvective": 26181,
    "Ġclimb": 15078,
    "Ġexpanding": 25238,
    "Ġconnectivity": 3668,
    "Ġmultitude": 9324,
    "Ġcarpenters": 16752,
    "gloom": 17139,
    "irement": 18357,
    "Ġleyden": 21729,
    "malice": 17604,
    "mosphere": 10042,
    "Ġtyphoons": 20233,
    "Ġlavenza": 17970,
    "ided": 2785,
    "Ġfasc": 12595,
    "Ġgovernments": 20266,
    "Ġexhaled": 19681,
    "gi": 17551,
    "ss": 396,
    "Ġrogue": 22402,
    "leaped": 17843,
    "ut": 308,
    "ro": 301,
    "Ġtaking": 3251,
    "delay": 16698,
    "reckoning": 25270,
    "Ġincluded": 8930,
    "Ġautoregressive": 3431,
    "cousins": 20116,
    "Ġfriday": 14489,
    "Ġalow": 18099,
    "Ġestates": 16459,
    "persuaded": 15072,
    "Ġlexicon": 25973,
    "ise": 709,
    "Ġordained": 19443,
    "che": 3170,
    "Ġhoky": 17926,
    "moid": 2449,
    "Ġoppressed": 11189,
    "Ġploughed": 22605,
    "bethinking": 25745,
    "pling": 8474,
    "Ġput": 1799,
    "stein": 5505,
    "rote": 4591,
    "barb": 10080,
    "Ġstartled": 7082,
    "attain": 21260,
    "tracks": 19637,
    "Ġsweeter": 23915,
    "Ġgreater": 3034,
    "Ġnecess": 3475,
    "Ġfruits": 17118,
    "Ġones": 3018,
    "Ġback": 819,
    "Ġlod": 4045,
    "ibly": 2995,
    "gans": 11489,
    "Ġcurb": 16242,
    "Ġexasperate": 20096,
    "âĢĶ.": 11753,
    "Ġunob": 22010,
    "Ġfarthing": 14453,
    "iced": 3901,
    "Ġharpoone": 2911,
    "Ġwarmest": 16483,
    "Ġthrusting": 10552,
    "Ġgaieties": 24195,
    "go": 2065,
    "akers": 9739,
    "Ġshrew": 21997,
    "evid": 11484,
    "Ġagrippa": 11805,
    "Ġgallop": 19554,
    "Ġthreat": 5154,
    "Ġinfallible": 15069,
    "ground": 4671,
    "ying": 1451,
    "ohog": 9842,
    "idol": 21763,
    "fire": 6357,
    "ich": 469,
    "pless": 6260,
    "Ġportent": 12079,
    "shaw": 6864,
    "Ġslam": 13055,
    "Ġneighbor": 25803,
    "supp": 4163,
    "wanted": 10743,
    "heedful": 20572,
    "Ġsubstantial": 14809,
    "Ġplot": 14280,
    "Ġlaughter": 9027,
    "Ġladen": 19176,
    "Ġalluded": 7884,
    "cnns": 3623,
    "Ġexp": 782,
    "Ġseren": 7401,
    "somewhere": 12011,
    "Ġmoose": 22428,
    "Ġmoist": 9284,
    "load": 12877,
    "Ġklan": 23662,
    "Ġrecurred": 18976,
    "recogn": 13424,
    "jub": 20928,
    "Ġeyel": 17096,
    "consp": 18504,
    "Ġemph": 14525,
    "Ġdemi": 25548,
    "Ġbruited": 25773,
    "aneous": 7240,
    "Ġramble": 9312,
    "Ġcontr": 1914,
    "sincere": 16907,
    "Ġstruggling": 12072,
    "Ġseap": 15815,
    "Ġshapes": 14108,
    "Ġunimag": 12772,
    "Ġbohem": 8526,
    "aging": 2234,
    "avenza": 17104,
    "prow": 15410,
    "Ġtinker": 15130,
    "endeavour": 17031,
    "Ġwired": 17786,
    "ivance": 22073,
    "sul": 15420,
    "Ġbag": 5699,
    "leaning": 10790,
    "Ġproof": 6153,
    "devil": 7894,
    "Ġrepast": 16409,
    "Ġric": 18209,
    "practised": 20246,
    "achus": 18276,
    "fic": 20851,
    "Ġunusually": 15844,
    "ene": 2168,
    "party": 8992,
    "Ġseizing": 7878,
    "hunsford": 24386,
    "doesn": 19819,
    "uneasy": 23685,
    "anything": 5518,
    "Ġscheming": 23269,
    "Ġdarting": 7756,
    "forward": 2185,
    "Ġcornelius": 13572,
    "handsome": 13175,
    "sworn": 24256,
    "Ġleaves": 5021,
    "Ġaft": 5737,
    "Ġrespected": 11950,
    "roar": 17952,
    "Ġpickle": 16722,
    "M": 49,
    "Ġenjoyed": 8007,
    "Ġmainly": 22652,
    "involuntarily": 20413,
    "Ġsubmit": 11868,
    "Ġrenegades": 26476,
    "Ġnovels": 15927,
    "Ġvines": 12746,
    "Ġfowler": 16937,
    "Ġaccusation": 22377,
    "Ġreasonable": 7252,
    "Ġtwain": 16117,
    "Ġjane": 1758,
    "haw": 6361,
    "Ġmediterranean": 12313,
    "Ġrespectful": 16344,
    "Ġ[": 6967,
    "Ġthackeray": 26455,
    "Ġproposals": 10613,
    "Ġconting": 18472,
    "Ġwaistcoat": 12268,
    "Ġunstructured": 3003,
    "elfth": 22366,
    "Ġbarmaid": 19334,
    "rant": 11516,
    "Ġexposes": 22621,
    "Ġcolouring": 16751,
    "Ġuppermost": 15277,
    "Ġgerman": 6141,
    "ª": 108,
    "Ġdoom": 6417,
    "Ġhaste": 9003,
    "Ġprocession": 11773,
    "flukes": 25205,
    "aulets": 18621,
    "Ġawed": 23584,
    "counterpart": 26359,
    "bee": 16035,
    "Ġcoral": 11920,
    "Ġmethodic": 23116,
    "Ġindian": 4133,
    "ĠĠĠĠĠĠĠ": 7631,
    "Ġunchanging": 22040,
    "Ġsensit": 2947,
    "pips": 21019,
    "Ġsquatted": 25841,
    "eling": 6681,
    "Ġsubterraneous": 20264,
    "traced": 19636,
    "Ġirreproachable": 24917,
    "certain": 3677,
    "Ġacknowledge": 13401,
    "Ġpositively": 13028,
    "likeness": 19476,
    "Ġplaus": 22599,
    "iony": 9191,
    "imate": 4221,
    "carpet": 25202,
    "Ġembarrassment": 10626,
    "Ġcruelly": 13374,
    "Ġascertaining": 17203,
    "Ġexploration": 2331,
    "situation": 11437,
    "Ġcontext": 1718,
    "Ġpatted": 16378,
    "national": 20997,
    "osition": 1374,
    "Ġhoney": 12629,
    "incredible": 16498,
    "Ġblushed": 12999,
    "slight": 10727,
    "Ġlively": 5449,
    "ys": 3960,
    "nobody": 16133,
    "Ġaddressed": 5262,
    "inously": 21185,
    "Ġepaulets": 24905,
    "Ġrestore": 9379,
    "Ġdespaired": 14668,
    "Ġvessel": 3799,
    "writhed": 26080,
    "Ġsea": 1209,
    "illum": 15867,
    "eteenth": 20156,
    "Ġlaudanum": 20689,
    "chapter": 1404,
    "Ġportcullis": 26603,
    "Ġexerc": 6834,
    "Ġduties": 6609,
    "fallen": 19658,
    "Ġproud": 5654,
    "Ġunsupplied": 22038,
    "Ġbomb": 17867,
    "stains": 11636,
    "Ġentreat": 4507,
    "quered": 11058,
    "Ġjoyously": 19345,
    "riety": 12740,
    "dorff": 15236,
    "Ġinfernal": 11959,
    "Ġrelinqu": 12980,
    "Ġantichron": 24181,
    "Ġabilities": 8866,
    "Ġremoval": 12115,
    "Ġstalk": 12695,
    "Ġsoar": 18283,
    "Ġintensified": 17018,
    "Ġdiscredit": 22780,
    "Ġtimes": 2298,
    "Ġsupple": 22996,
    "Ġunpardonable": 22057,
    "à": 161,
    "Ġsquires": 16181,
    "Ġblessings": 24176,
    "ms": 533,
    "Ġevil": 3806,
    "chains": 9684,
    "kinson": 10025,
    "Ġwelcome": 5604,
    "Ġyoungest": 7953,
    "inate": 6233,
    "Ġmountain": 3371,
    "kept": 11715,
    "Ġplayful": 19236,
    "Ġpotent": 12062,
    "ě": 220,
    "waistcoat": 17360,
    "Ġharm": 5017,
    "page": 13770,
    "est": 502,
    "Ġdepending": 14287,
    "intending": 22932,
    "mechanically": 17299,
    "Ġwriters": 13542,
    "iscre": 17850,
    "Ġrecollecting": 17113,
    "pro": 2051,
    "Ġalgorith": 552,
    "copyright": 5277,
    "Ġbuckle": 17033,
    "branch": 23576,
    "Ġsaved": 6690,
    "Ġsanctified": 25883,
    "tery": 14036,
    "Ġfac": 6381,
    "Ġmillar": 13860,
    "bod": 12435,
    "unteered": 26495,
    "walls": 25345,
    "swe": 5995,
    "....": 11316,
    "favourable": 12261,
    "ario": 14247,
    "Ġapprised": 18360,
    "voyages": 24855,
    "Ġlulled": 17968,
    "Ġsoc": 3525,
    "Ġshipwreck": 20444,
    "Ġ89": 19711,
    "Ġquebec": 24132,
    "unhesitatingly": 26496,
    "Ġsquid": 11876,
    "alogue": 25159,
    "descend": 23082,
    "Ġpublished": 11242,
    "gage": 13722,
    "aving": 2403,
    "Ġgeorge": 3750,
    "ploy": 2061,
    "Ġoverflowing": 17237,
    "Ġroughs": 19955,
    "Ġcordon": 24394,
    "Ġintroduced": 7690,
    "Ġapartment": 6633,
    "lifted": 15385,
    "Ġknitting": 24218,
    "Ġthoughts": 3137,
    "fing": 13712,
    "Ġnavigation": 9992,
    "Ġgales": 12662,
    "much": 3707,
    "Ġscheduling": 2345,
    "ublic": 11227,
    "organic": 25946,
    "agues": 8160,
    "Ġveget": 11884,
    "prudently": 21033,
    "lott": 6650,
    "Ġteeth": 4168,
    "Ġspecific": 2001,
    "Ġtrample": 20326,
    "morning": 4859,
    "Ġmeddling": 24082,
    "nights": 16448,
    "boards": 23252,
    "Ġirregularity": 25324,
    "Ġscener": 10949,
    "Ġwaterproof": 19088,
    "Ġdecrease": 4201,
    "Ġharpooneers": 4731,
    "Ġdetection": 3718,
    "accustomed": 13156,
    "Ġguardsmen": 20629,
    "Ġwhoa": 22419,
    "Ġgenerates": 3665,
    "fre": 5425,
    "Ġunnear": 22023,
    "staff": 21653,
    "Ġtransport": 11278,
    "ython": 1029,
    "Ġadapts": 3817,
    "cried": 8724,
    "Ġhieroglyphics": 17302,
    "orrowed": 19289,
    "Ġsideways": 6182,
    "Ġtheoretically": 3566,
    "iration": 4538,
    "Ġfavourite": 5270,
    "du": 605,
    "Ġmcc": 21305,
    "Ġprize": 11946,
    "Ġoffensive": 18692,
    "Ġriverside": 25247,
    "Ġmessages": 24981,
    "appl": 9325,
    "custom": 15332,
    "Ġcultivated": 17363,
    "Ġproportion": 7281,
    "Ġwinchester": 10065,
    "apothe": 22332,
    "Ġtables": 9877,
    "Ġstockings": 19995,
    "discredit": 24250,
    "philosophy": 13579,
    "Ġbecomes": 6396,
    "Ġlowers": 23238,
    "Ġivory": 4474,
    "Ġrecourse": 22730,
    "ult": 722,
    "erson": 7002,
    "Ġutil": 4672,
    "merchant": 10467,
    "Ġsupports": 3047,
    "ram": 13971,
    "boilers": 26297,
    "Ġpur": 2212,
    "Ġoperated": 14547,
    "animate": 12574,
    "Ġflashing": 13025,
    "Ġweig": 7618,
    "Ġencounter": 6627,
    "Ġcombination": 22865,
    "Ġhooked": 19077,
    "Ġreluct": 14371,
    "Ġchivalry": 25819,
    "Ġ28": 19294,
    "Ġquickly": 4241,
    "Ġphilosophers": 10551,
    "Ġcoll": 8220,
    "Ġubiquitous": 26195,
    "Ġuninhabited": 22046,
    "Ġluxuriant": 20393,
    "duchess": 18463,
    "Ġdubious": 17382,
    "Ġlivid": 14988,
    "acknowledged": 15201,
    "Ġmourning": 13477,
    "Ġweight": 656,
    "alike": 17942,
    "Ġfreighted": 16320,
    "aration": 12604,
    "hel": 4813,
    "Ġhire": 21482,
    "pents": 11512,
    "perfectly": 9085,
    "Ġgesture": 11399,
    "rowsers": 8694,
    "mysteries": 26050,
    "rent": 1168,
    "flood": 19805,
    "derest": 18315,
    "Ġdespondency": 16577,
    "Ġinherent": 4590,
    "Ġsequence": 1976,
    "Ġfrequently": 4679,
    "Ġhandsomely": 25497,
    "shop": 14236,
    "daughters": 13465,
    "Ġnook": 15926,
    "acceptance": 25185,
    "oled": 17619,
    "cheered": 23804,
    "Ġstruct": 2784,
    "Ġbusks": 23337,
    "Ġmaintains": 2146,
    "Ĝ": 221,
    "Ġventure": 7739,
    "racted": 4775,
    "ission": 6457,
    "Ġcustody": 13646,
    "Ġnosegay": 24192,
    "Ġinsult": 6747,
    "Ġputting": 5326,
    "draw": 23896,
    "ĠĠĠĠĠĠĠĠĠĠĠĠĠĠĠĠĠĠĠĠĠĠĠĠĠĠĠĠĠĠĠĠ": 2740,
    "merely": 16128,
    "torn": 17682,
    "americans": 25042,
    "iv": 432,
    "Ġresembles": 25969,
    "warning": 25531,
    "shake": 22442,
    "Ġhis": 380,
    "Ġpreyed": 18366,
    "Ġincreas": 1695,
    "ullied": 23101,
    "asters": 8433,
    "Ġplus": 3884,
    "Ġstammered": 26199,
    "silence": 8044,
    "guessed": 25872,
    "Ġslept": 8258,
    "atherine": 2595,
    "rolled": 9059,
    "Ġcounty": 9030,
    "Ġflourishing": 25187,
    "Ġrevisit": 21667,
    "Ġmustering": 18662,
    "mingled": 14712,
    "tawny": 26404,
    "rasing": 21044,
    "qu": 369,
    "âĢĺ": 941,
    "Ġiron": 3237,
    "Ġguest": 7249,
    "annica": 24561,
    "professional": 20274,
    "Ġoffence": 12941,
    "Ġestim": 3348,
    "mor": 4215,
    "felix": 10653,
    "Ġinterested": 6458,
    "Ġtransition": 14233,
    "Ġzig": 18742,
    "Ġbegrimed": 26578,
    "kshire": 13745,
    "scor": 13013,
    "Ġvaulted": 25167,
    "Ġ37": 24077,
    "Ġroods": 22401,
    "Ġruin": 6055,
    "ceased": 21623,
    "Ġmoritz": 11903,
    "barbar": 20237,
    "bingley": 4927,
    "Ġmum": 13857,
    "Ġloggerhead": 13656,
    "ou": 287,
    "drowned": 17368,
    "cousin": 10652,
    "Ġplumage": 17297,
    "Ġhighway": 14345,
    "Ġrussian": 14349,
    "Ġinconvenient": 20008,
    "Ġunsolved": 22028,
    "Ġrefusal": 10345,
    "ran": 11515,
    "Ġharem": 9708,
    "ľ": 255,
    "Ġfriends": 2654,
    "Ġpromptly": 23815,
    "Ġrambles": 17184,
    "Ġchall": 10944,
    "Ġmomentous": 16167,
    "pha": 22774,
    "Ġcord": 5222,
    "Ġnavel": 24576,
    "Ġnois": 4267,
    "Ġach": 2621,
    "intosh": 22937,
    "Ġemploying": 23975,
    "Ġhappiness": 2946,
    "displeasure": 23493,
    "Ġpriv": 4183,
    "Ġcore": 13877,
    "Ġdelirium": 10405,
    "vicinity": 20478,
    "Ġcrags": 23527,
    "Ġgratefully": 20443,
    "credit": 12446,
    "Ġ31": 12128,
    "Ġwithheld": 18114,
    "ming": 3601,
    "Ġspread": 5161,
    "Ġtheorem": 2321,
    "ver": 331,
    "restraint": 18978,
    "Ġkeenest": 12159,
    "wishes": 13806,
    "Ġlunacy": 20026,
    "amaz": 21841,
    "ists": 4004,
    "Ġwhims": 12689,
    "Ġelephants": 9863,
    "Ġtrans": 634,
    "ohn": 4560,
    "Ġforged": 12701,
    "satisfactory": 16893,
    "prodigious": 17466,
    "Ġconvalescence": 23744,
    "Ġstead": 5650,
    "ursday": 12274,
    "Ġcomfortable": 6094,
    "Ġdolphins": 20394,
    "Ġsalesman": 13667,
    "Ġtendinous": 16931,
    "onde": 21250,
    "Ġxxiv": 24477,
    "Ġfris": 23254,
    "Ġburied": 7718,
    "over": 1849,
    "Ġmerited": 23729,
    "Ġredoubled": 23751,
    "does": 6194,
    "Ġfragment": 14487,
    "Ġfootsteps": 16572,
    "Ġworth": 4414,
    "Ġhas": 826,
    "tomahawk": 25915,
    "Ġinst": 910,
    "tal": 17670,
    "Ġplanisphere": 26607,
    "oft": 3591,
    "Ġgrizz": 10351,
    "X": 60,
    "susp": 10596,
    "Ġrevelation": 25222,
    "illings": 14142,
    "Ġgnawed": 25164,
    "asse": 15642,
    "Ġviolent": 5117,
    "Ġeclipsed": 26376,
    "Ġzeros": 3325,
    "work": 1643,
    "broke": 14775,
    "Ġsurface": 5119,
    "daggoo": 13706,
    "Ġnet": 3628,
    "Ġinvolved": 8922,
    "Ġluck": 4880,
    "Ġconcerned": 5331,
    "Ġillinois": 19136,
    "Ġcobweb": 22583,
    "Ġstaving": 21737,
    "Ġburgl": 13172,
    "twelve": 14622,
    "Ġswords": 19896,
    "Ġphaet": 16315,
    "Ġtatters": 21176,
    "ress": 932,
    "Ġflaming": 8563,
    "Ġknocked": 9499,
    "Ġcreep": 22719,
    "Ġcompress": 21846,
    "Ġpity": 4941,
    "Ġunrest": 11712,
    "Ġpluck": 15611,
    "Ġvoid": 14085,
    "Ġcompares": 20165,
    "Ġirretrie": 23372,
    "eat": 11482,
    "uniform": 18157,
    "Ġvibrating": 13537,
    "alse": 4185,
    "Ġadmire": 5263,
    "arying": 9800,
    "Ġweb": 9239,
    "Ġlarge": 1065,
    "Ġmonosyllable": 20725,
    "Ġnarrower": 24354,
    "Ġnecessitates": 23926,
    "Ġsufficiently": 8973,
    "Ġscan": 22276,
    "Ġblast": 7445,
    "Ġcherry": 16935,
    "rist": 10122,
    "Ġfoe": 7679,
    "ignominious": 26587,
    "ips": 2592,
    "heavens": 19744,
    "Ġdistended": 16042,
    "iceland": 21563,
    "Ġdiffered": 22710,
    "Ġmainmast": 9778,
    "Ġtwentieth": 18659,
    "justice": 7957,
    "Ġkindled": 19030,
    "erest": 10697,
    "Ġtransferred": 16456,
    "Ġshaved": 21999,
    "Ġlane": 5627,
    "Ġjupiter": 17455,
    "sion": 8093,
    "Ġattractive": 25575,
    "Ġolder": 9326,
    "Ġcorpus": 13029,
    "Ġrecede": 25968,
    "turbable": 24531,
    "Ġnonsense": 6982,
    "Ġviciss": 11292,
    "Ġnow": 691,
    "chess": 16573,
    "es": 289,
    "named": 9886,
    "Ġdismally": 20213,
    "twas": 15436,
    "Ġpatent": 11961,
    "Ġtrusty": 24104,
    "Ġpaved": 17910,
    "Ġeagle": 13201,
    "rim": 7137,
    "reshold": 21238,
    "Ġfade": 21405,
    "Ġyankees": 26201,
    "Ġdiary": 24739,
    "thirst": 15823,
    "Ġambergris": 8705,
    "Ġsatisfy": 6912,
    "rubbery": 17341,
    "overhearing": 19054,
    "Ġstout": 6024,
    "Ġclassical": 22624,
    "estone": 18364,
    "Ġshudder": 9050,
    "Ġuniform": 2222,
    "ü": 189,
    "Ġhabitual": 24790,
    "Ġscenes": 5730,
    "ribly": 8254,
    "Ġobstacles": 19834,
    "Ġarticulated": 24433,
    "a": 69,
    "uvian": 12240,
    "ñ": 178,
    "Ġenvironmental": 24059,
    "offing": 23331,
    "Ġ=": 1073,
    "cheerful": 13574,
    "ignation": 11128,
    "----": 4060,
    "clouds": 25496,
    "Ġeditions": 19120,
    "Ġdispleasure": 16049,
    "Ġcaged": 21350,
    "Ġgrind": 18734,
    "Ġinferiority": 17115,
    "Ġdesignated": 19520,
    "concerning": 9067,
    "Ġoccasioned": 13226,
    "Ġadmirable": 8268,
    "varieties": 23183,
    "greatly": 16623,
    "bone": 5612,
    "whaling": 7898,
    "ication": 960,
    "Ġmixed": 6974,
    "mael": 6722,
    "apart": 15959,
    "Ġessence": 13404,
    "Ġphaeton": 17464,
    "Ġportra": 9008,
    "Ġcontest": 18473,
    "Ġmolasses": 25628,
    "Ġembellished": 25850,
    "Ġhessian": 3547,
    "âĢĿâĢĶ": 5721,
    "Ġrascal": 11699,
    "Ġfaintly": 14914,
    "Ġlingo": 24903,
    "Ġloo": 22107,
    "Ġsmiles": 6706,
    "ook": 21003,
    "Ġpolitical": 19223,
    "harmony": 25750,
    "hint": 12473,
    "Ġmoonlight": 9957,
    "Ġbespe": 19241,
    "welcome": 10000,
    "Ġpicturesqueness": 24480,
    "desc": 1396,
    "Ġwhereby": 11835,
    "exc": 5169,
    "Ġdisse": 18548,
    "Ġmarch": 4085,
    "heartily": 24215,
    "brimming": 23575,
    "ile": 521,
    "Ġpractically": 13098,
    "v": 90,
    "Ġdiggings": 24649,
    "Ġaccused": 8507,
    "Ġuntidy": 23522,
    "naturalist": 23502,
    "increasing": 20268,
    "Ġtemples": 18645,
    "excepting": 19705,
    "attering": 7418,
    "Ġanat": 8123,
    "wheeler": 16185,
    "Ġperf": 12847,
    "Ġrocky": 13386,
    "conqu": 14244,
    "Ġcumulative": 4211,
    "Ġvagabond": 20202,
    "lotte": 3331,
    "irted": 14071,
    "fish": 3515,
    "Ġcasts": 19424,
    "Ġjoist": 19231,
    "Ġtweed": 22674,
    "Ġquestionable": 19265,
    "left": 6975,
    "halfway": 24311,
    "Ġthemselves": 3253,
    "apothecary": 26545,
    "Ġvelocity": 10620,
    "leaned": 21367,
    "rudent": 6482,
    "Ġwild": 2602,
    "wheeling": 22863,
    "ë": 172,
    "iet": 1775,
    "Ġconvent": 11667,
    "Ġslide": 10393,
    "Ġplaymate": 23636,
    "Ġsurging": 19133,
    "Ġbuoy": 8003,
    "Ġundiscernible": 22063,
    "common": 4130,
    "Ġhappier": 10359,
    "float": 19804,
    "Ġimbib": 22172,
    "Ġ54": 24322,
    ".âĢĶ": 4248,
    "rapt": 13972,
    "ny": 4019,
    "gered": 9275,
    "ulates": 14054,
    "Ġtire": 17720,
    "Ġdispatched": 23879,
    "Ġguarded": 9825,
    "Ġpig": 5705,
    "hav": 20896,
    "Ġstung": 21738,
    "iliation": 10860,
    "Ġev": 4827,
    "eld": 961,
    "Ġheel": 9683,
    "Ġcordage": 19677,
    "Ġadhes": 22099,
    "igger": 21698,
    "Ġhabits": 6926,
    "Ġwhirl": 13448,
    "Ġafternoon": 6052,
    "glancing": 11214,
    "natural": 2247,
    "Ġdepressed": 10882,
    "tri": 11529,
    "Ġstark": 7390,
    "Ġundertake": 14478,
    "inc": 2522,
    "Ġunceasingly": 20357,
    "Ġwrap": 24594,
    "Ġfretfully": 25447,
    "acious": 5563,
    "Ġglittering": 10052,
    "Ġfluttered": 16246,
    "Ġ53": 19639,
    "stars": 18019,
    "apes": 9740,
    "Ġknown": 1640,
    "Ġ117": 19696,
    "Ġmediocr": 24083,
    "holland": 24038,
    "reeling": 21243,
    "intervals": 10637,
    "date": 17517,
    "Ġwithdrew": 9695,
    "Ġdegenerating": 25799,
    "Ġbowditch": 19322,
    "Ġtreasures": 17047,
    "note": 14336,
    "Ġspeeches": 22660,
    "Ġvinc": 14084,
    "Ġfettered": 24568,
    "Ġpronouncing": 16969,
    "Ġeffected": 14353,
    "Ġdarcy": 1342,
    "Ġreynolds": 10209,
    "Ġhoarsely": 26302,
    "Ġcom": 368,
    "works": 6587,
    "shown": 22441,
    "Ġoblong": 14320,
    "puff": 21021,
    "Ġalman": 21778,
    "Ġpoisonous": 24887,
    "Ġhook": 6453,
    "kn": 5791,
    "skill": 24487,
    "Ġprospect": 4705,
    "Ġpredicting": 2412,
    "pile": 17629,
    "igms": 3042,
    "at": 268,
    "excited": 13379,
    "Ġcoop": 14269,
    "as": 302,
    "ĠĠĠĠĠĠĠĠĠĠĠĠĠĠĠĠĠĠĠĠĠĠĠ": 18832,
    "sequ": 2398,
    "Ġconfronted": 23306,
    "Ġshunned": 17292,
    "Ġdumbly": 24985,
    "dled": 9110,
    "Ġfortunate": 6214,
    "Ġsnapped": 9896,
    "levi": 7047,
    "Ġnephews": 24714,
    "Ġknows": 4161,
    "/*": 10070,
    "england": 18928,
    "Ġcoopman": 25827,
    "Ġimpertin": 6933,
    "Ġleader": 14701,
    "enterprise": 24992,
    "Ġcrotch": 9962,
    "Ġleakage": 23458,
    "entle": 1739,
    "Ġderivatives": 2366,
    "Ġdiabolically": 25513,
    "Ġballarat": 14718,
    "apolog": 22330,
    "back": 2019,
    "augmented": 26286,
    "Ġabused": 22266,
    "enty": 2917,
    "castle": 3349,
    "ĠĠĠĠĠĠĠĠĠĠĠĠĠĠĠĠĠĠĠĠĠĠĠĠĠĠĠ": 14885,
    "Ġcurled": 8226,
    "trans": 5594,
    "Ġinsight": 16530,
    "Ġtiger": 11554,
    "Ġevenness": 22830,
    "Ġconceivable": 16613,
    "eli": 3875,
    "Ġincumbent": 16060,
    "Ġson": 2982,
    "Ġafloat": 9307,
    "Ġmoth": 17802,
    "Ġtur": 2566,
    "Ġintrig": 21987,
    "Ġday": 957,
    "Ġantiqu": 12142,
    "Ġmultitudinous": 26273,
    "Ġflooded": 24959,
    "tanh": 5204,
    "Ġencouraged": 9354,
    "deep": 1036,
    "Ġpursuers": 13225,
    "Ġbiography": 22758,
    "Ġvoc": 4449,
    "Ġpensive": 21472,
    "ope": 4127,
    "Ġ34": 16677,
    "oro": 21393,
    "madness": 14881,
    "Ġmustard": 12927,
    "Ġenclosure": 20622,
    "swim": 16779,
    "ĠĠĠĠ": 459,
    "Ġardent": 9969,
    "Ġclassifies": 11834,
    "Ġfootfalls": 25866,
    "Ġshaken": 10264,
    "Ġcannot": 1665,
    "Ġlingu": 11613,
    "Ġflu": 3279,
    "profess": 10634,
    "Ġobtruded": 20721,
    "ule": 6800,
    "Ġapp": 494,
    "Ġrattle": 10899,
    "quest": 4536,
    "cst": 10084,
    "Ġpalmed": 24089,
    "Ġcleansed": 26293,
    "rob": 5534,
    "Ġsoup": 7067,
    "Ġcool": 5734,
    "table": 5795,
    "Ġembarked": 17134,
    "Ġgoal": 10301,
    "Ġforgetting": 3434,
    "windibank": 24161,
    "akin": 11766,
    "Ġfund": 2844,
    "proportion": 16178,
    "Ġbloodless": 19338,
    "Ġpallid": 12297,
    "Ġth": 299,
    "Ġindulgence": 11319,
    "Ġmuslin": 19381,
    "Ġsafie": 6617,
    "perpetually": 20510,
    "cab": 7333,
    "chers": 11317,
    "Ġattempting": 14696,
    "aution": 9386,
    "houn": 20892,
    "Ġarmy": 11742,
    "arth": 4441,
    "Ġstrengthen": 20699,
    "Ġeag": 2967,
    "croquet": 25747,
    "Ġdang": 9174,
    "affa": 23775,
    "pet": 4867,
    "Ġreck": 6537,
    "Ġdescend": 7427,
    "Ġthousands": 6748,
    "Ġ86": 24461,
    "Ġaghast": 16045,
    "oubtedly": 6943,
    "blasted": 20188,
    "Ġunsuccessful": 18257,
    "ryphon": 4165,
    "Ġstarbuck": 2191,
    "Ġkiss": 8182,
    "important": 7112,
    "Ġ500": 24328,
    "Ġbre": 1913,
    "wondering": 19844,
    "Ġreefed": 20301,
    "Ġidle": 8252,
    "tub": 9143,
    "ahawk": 23314,
    "eternal": 17982,
    "iew": 2446,
    "Ġstri": 2803,
    "rison": 13778,
    "Ġwide": 4110,
    "legs": 13181,
    "Ġcarbuncle": 14444,
    "Ġdedicated": 19190,
    ",âĢĶ": 3169,
    "Ġunthinkingly": 26220,
    "Ġarbit": 4651,
    "Ġmasses": 10503,
    "farintosh": 24553,
    "Ġvultures": 25653,
    "Ġvine": 8471,
    "ail": 565,
    "Ġoctober": 17226,
    "tre": 8760,
    "Ġpia": 21461,
    "ifications": 9729,
    "Ĩ": 233,
    "orrah": 17875,
    "ref": 6515,
    "ox": 9133,
    "âĢľâĢĻ": 10221,
    "Ġfare": 5809,
    "Ġcrystal": 17214,
    "Ġmaterials": 11288,
    "Ġemig": 14524,
    "urmount": 13995,
    "Ġissue": 2306,
    "Ġastonished": 7087,
    "Ġoffic": 3186,
    "Ġpurchas": 19873,
    "Ġsurmise": 12293,
    "Ġbon": 8785,
    "Ġgathers": 24743,
    "Ġink": 8802,
    "88": 20757,
    "Ġquee": 1980,
    "Ġgravity": 9247,
    "Ġgoose": 5937,
    "Ġimpulses": 19960,
    "thyself": 19297,
    "Ġdamned": 13131,
    "Ġemail": 19072,
    "Ġexpanded": 14291,
    "painful": 13501,
    "Ġmerest": 14029,
    "Ġunnatural": 7190,
    "Ġnaturally": 2465,
    "Ġanyhow": 14254,
    "malicious": 19901,
    "flow": 2442,
    "listener": 24930,
    "Ġdisrespect": 18553,
    "Ġaccurately": 3833,
    "lish": 1951,
    "requirements": 24857,
    "Ġadrift": 11720,
    "Ġknives": 14836,
    "throw": 14097,
    "arthly": 8029,
    "lanter": 15386,
    "Ġhenceforth": 19646,
    "nect": 663,
    "Ġeel": 18001,
    "Ġremarkably": 7702,
    "Ġanyways": 22517,
    "places": 7876,
    "Ġsettle": 6293,
    "Ġsale": 14153,
    "bub": 15315,
    "Ġscor": 8189,
    "Ġcoronation": 13332,
    "Ġrejoined": 14926,
    "enchant": 21282,
    "_--": 20761,
    "aret": 7417,
    "lilies": 20960,
    "Ġbats": 13899,
    "Ġpar": 456,
    "Ġspaulding": 11729,
    "Ġmis": 915,
    "ises": 3655,
    "gee": 15975,
    "Ġvoices": 7875,
    "ted": 790,
    "Ġabsurdities": 24878,
    "Ġenvironment": 3932,
    "Ġordered": 5832,
    "Ġrattled": 15065,
    "Ġstarts": 16582,
    "Ġmantelpiece": 15206,
    "elop": 1521,
    "enough": 6809,
    "Ġsolic": 7932,
    "dirty": 20833,
    "uine": 13798,
    "Ġsensational": 16390,
    "augment": 18829,
    "Ġcluster": 13570,
    "Ġtrifling": 10602,
    "elling": 5830,
    "Ġecho": 12663,
    "Ġanywhere": 8516,
    "Ġarmada": 23579,
    "ced": 694,
    "Ġparamount": 15876,
    "commander": 16987,
    "Ġpen": 1533,
    "post": 6061,
    "worshipping": 16610,
    "field": 3070,
    "orously": 8418,
    "Ġdoorway": 14498,
    "Ġfore": 2153,
    "Ġpipes": 9847,
    "million": 25751,
    "corners": 17367,
    "Ġderives": 16306,
    "folly": 20861,
    "Ġcarpets": 18902,
    "Ġmitt": 21306,
    "sch": 21049,
    "description": 11094,
    "abilities": 3238,
    "pleasantness": 19769,
    "Ġstood": 2553,
    "shorn": 22444,
    "Ġ0": 1903,
    "Ġcourage": 4633,
    "Ġadvers": 4887,
    "Ġcongratulate": 9063,
    "variance": 2656,
    "circumst": 5348,
    "supplementary": 20548,
    "aved": 5475,
    "copy": 5133,
    "Ġinsc": 7585,
    "bearing": 9764,
    "ices": 2137,
    "gypt": 8260,
    "Ġexperience": 1379,
    "Ġwaist": 6892,
    "Ġcoat": 4552,
    "Ġsi": 21211,
    "band": 3055,
    "Ġescape": 2647,
    "interesting": 12199,
    "clifford": 23154,
    "Ġpursuits": 12074,
    "onse": 21248,
    "Ġaunt": 3176,
    "mur": 5428,
    "Ġappo": 8497,
    "gener": 3125,
    "Ġ221": 25068,
    "Ġunwearied": 20601,
    "Ġrestrictions": 20634,
    "Ġwarn": 5695,
    "perhaps": 4124,
    "ones": 2744,
    "plac": 15814,
    "Ġezekiel": 26192,
    "Ġsorting": 3235,
    "conditional": 9078,
    "gir": 8082,
    "Ġmicha": 17811,
    "Ġcontriv": 9281,
    "Ġverses": 17063,
    "Ġannouncing": 16754,
    "solution": 14686,
    "sou": 12503,
    "resolved": 9639,
    "fashion": 8080,
    "pane": 10120,
    "Ġlocations": 12411,
    "Ġuninjured": 22051,
    "ucket": 2486,
    "Ġtyph": 10007,
    "aneously": 4062,
    "noon": 5037,
    "div": 8075,
    "Ġtraced": 10383,
    "Ġscrupled": 25049,
    "wig": 17704,
    "Ġcham": 4892,
    "Ġkeep": 2352,
    "Ġpregnant": 26535,
    "Ġmechanism": 2510,
    "ils": 3181,
    "Ġgothic": 17999,
    "ator": 1923,
    "Ġhissing": 15787,
    "console": 22470,
    "Ġcustom": 5078,
    "Ġthrew": 3976,
    "ge": 560,
    "knowledge": 7478,
    "Ġimpediments": 26240,
    "Ġjudiciously": 23876,
    "permitted": 18343,
    "hair": 9122,
    "xim": 1091,
    "Ġethics": 15461,
    "ulations": 6028,
    "behold": 12874,
    "followed": 8338,
    "Ġrelinquish": 17346,
    "Ġware": 12551,
    "conda": 18993,
    "ered": 1685,
    "Ġpott": 21465,
    "Ġcontextually": 11957,
    "grown": 10099,
    "Ġs": 265,
    "Ġconfessor": 24016,
    "lays": 14921,
    "sk": 5521,
    "Ġemerging": 24612,
    "Ġfired": 16149,
    "ethe": 9676,
    "fo": 5278,
    "ixed": 4851,
    "empt": 2619,
    "Ġspoiled": 11363,
    "nment": 20989,
    "Ġretired": 6070,
    "Ġenterprise": 8641,
    "Ġsemantics": 2894,
    "kempt": 20940,
    "----âĢĿ": 13305,
    "vine": 10734,
    "\"]": 17470,
    "cheerfulness": 20179,
    "Ġchildhood": 13137,
    "Ġvisible": 4776,
    "ompl": 4534,
    "should": 3263,
    "Ġbas": 6380,
    "hear": 10146,
    "fingers": 17369,
    "Ġinland": 11607,
    "Ġoct": 10158,
    "Ġconversing": 14633,
    "without": 4846,
    "female": 20665,
    "willingness": 24755,
    "Ġplacing": 8900,
    "Ġarid": 22195,
    "Ġflashed": 11911,
    "Ġunicorn": 22052,
    "arr": 3041,
    "Ġpolynes": 16077,
    "palms": 25262,
    "Ġbashaw": 25633,
    "Ġparsee": 6413,
    "Ġendowed": 18924,
    "ancholy": 5070,
    "Ġimprinted": 22389,
    "Ġsenate": 25214,
    "Ġattacking": 24465,
    "Ġpulpit": 7470,
    "Ġcoding": 8115,
    "india": 22368,
    "Ġscandinavian": 26344,
    "Ġcheering": 11133,
    "prevented": 20372,
    "Ġscaffold": 18400,
    "Ġcold": 3029,
    "Ġmeal": 9696,
    "some": 2231,
    "urable": 8924,
    "Ġfar": 1452,
    "Ġune": 4597,
    "Ġcommand": 3322,
    "Ġcultivation": 17145,
    "Ġshakespeare": 20306,
    "Ġpreacher": 18369,
    "Ġspokes": 18313,
    "Ġskip": 1848,
    "Ġuncork": 23428,
    "beryls": 25309,
    "Ġcomprising": 16066,
    "gressive": 2755,
    "Ġgeography": 23370,
    "Ġwhe": 438,
    "Ġmatted": 22908,
    "Ġchilian": 25563,
    "Ġkissed": 10044,
    "Ġmending": 17804,
    "smoking": 23908,
    "Ġfishermen": 5970,
    "under": 3131,
    "Ġperfidious": 25666,
    "Ġresidual": 1680,
    "gling": 10097,
    "dden": 1805,
    "bordered": 17498,
    "Ġneighbours": 8302,
    "Ġenveloping": 19733,
    "Ġlad": 2360,
    "frantic": 24283,
    "conced": 22467,
    "Ġdus": 8422,
    "Ġjesty": 18406,
    "Ġcalves": 13032,
    "redible": 15802,
    "repaid": 24491,
    "ess": 409,
    "Ĉ": 201,
    "Ġconclude": 8580,
    "Ġlanguor": 12844,
    "executed": 25739,
    "Ġblush": 14400,
    "scruple": 26043,
    "presented": 12989,
    "Ġidly": 16402,
    "Ġwed": 3961,
    "Ġargument": 7098,
    "revenge": 13841,
    "Ġskewer": 19619,
    "Ġlists": 11166,
    "Ġneedn": 19228,
    "_âĢĶâĢĿ": 20762,
    "Ġresisted": 22538,
    "Ġinserted": 8355,
    "Ġmanners": 3791,
    "Ġusurpation": 18356,
    "Ġconverse": 11845,
    "Ġconcealed": 7495,
    "Ġ1846": 26084,
    "Ġcrows": 24028,
    "Ġdrawn": 4275,
    "hosmer": 25902,
    "mes": 1198,
    "comparison": 25840,
    "Ġforging": 18093,
    "Ġdevoid": 18684,
    "Ġwine": 6810,
    "liable": 3818,
    "iscient": 17851,
    "aet": 15306,
    "Ġknees": 6928,
    "hailed": 17565,
    "Ġprettier": 23763,
    "Ġsund": 8248,
    "fowl": 17549,
    "Ġdisinclined": 22526,
    "deacon": 22145,
    "fainting": 20471,
    "Ġcorrespondence": 10594,
    "Ġponies": 21473,
    "anity": 9654,
    "anch": 15557,
    "man": 1052,
    "Ġfisher": 3223,
    "Ġcolder": 22847,
    "Ġseeks": 14304,
    "persons": 24174,
    "ental": 7168,
    "Ġindispens": 22951,
    "Ġcocaine": 20720,
    "Ġaslant": 21898,
    "Ġmerciless": 25246,
    "Ġcounterpart": 24721,
    "Ġuncomfortable": 8485,
    "Ġheaths": 25972,
    "laying": 19771,
    "Ġthrill": 24541,
    "ilogue": 21721,
    "Ġgurgling": 17445,
    "Ġeul": 21615,
    "irene": 15914,
    "Ġchiswick": 25560,
    "spir": 5738,
    "namely": 23657,
    "terrors": 25041,
    "inea": 7622,
    "Ġcorroborated": 26053,
    "Ġrust": 6408,
    "Ġheaps": 11641,
    "Ġtree": 5284,
    "blades": 24130,
    "umbling": 6758,
    "Ġbet": 1134,
    "Ġfelix": 4848,
    "upt": 13797,
    "Ġcaulking": 20292,
    "Ġlessen": 14532,
    "Ġreverse": 16982,
    "Ġbuckler": 24859,
    "Ġguided": 10460,
    "pron": 9005,
    "Ġgrin": 5482,
    "acc": 2536,
    "cart": 10688,
    "Ġjungfrau": 15247,
    "residence": 19262,
    "mers": 9610,
    "Ġgay": 5535,
    "Ġinterpreter": 23209,
    "ceptibly": 22363,
    "Ġirresolution": 24915,
    "alloyed": 22194,
    "heart": 4524,
    "Ġapril": 13661,
    "Ġslope": 14459,
    "Ġdeception": 18139,
    "Ġsoldier": 16920,
    "Ġfil": 3471,
    "elves": 2158,
    "Ġscaled": 2107,
    "scand": 18848,
    "Ġwhereon": 16099,
    "tee": 16168,
    "Ġgam": 11623,
    "Ġspr": 4028,
    "Ġhereford": 22874,
    "Ġsnow": 3708,
    "Ġattribute": 16095,
    "Ġcircumspection": 25884,
    "Ġbeneath": 3239,
    "congenial": 25399,
    "Ġappointment": 10646,
    "Ġimpudence": 26241,
    "Ġ180": 16606,
    "Ġjobs": 24832,
    "Ġticklish": 25034,
    "ituted": 13872,
    "raise": 18011,
    "Ġparting": 9784,
    "teak": 22812,
    "Ġpatches": 4237,
    "punishment": 15144,
    "circumspect": 26086,
    "Ġjoined": 4563,
    "Ġatom": 18192,
    "Ġcorrespond": 6209,
    "Ġinvention": 19951,
    "Ġbethink": 12377,
    "unwholesome": 26497,
    "Ġcounter": 6481,
    "lue": 8508,
    "Ġforesaw": 19127,
    "sar": 12502,
    "Ġinvented": 17037,
    "eastern": 17533,
    "Ġjumping": 13340,
    "wise": 2575,
    "Ġdeceived": 6544,
    "Ġtwee": 22672,
    "Ġpatter": 809,
    "Ġding": 12596,
    "Ġavowed": 16633,
    "Ġmonuments": 22974,
    "====": 1484,
    "atched": 6375,
    "Ġconfounded": 16385,
    "alid": 13934,
    "Ġmanagement": 8192,
    "Ġsignature": 16493,
    "Ġmorrow": 9341,
    "infl": 15486,
    "forster": 16164,
    "Ġicicles": 25264,
    "remaining": 20219,
    "Ġherein": 16188,
    "nephew": 26397,
    "ingly": 2135,
    "Ġimperson": 14219,
    "Ġhartshorn": 26180,
    "Ġspaces": 3110,
    "Ġbaling": 17859,
    "enborough": 21284,
    "Ġmeditate": 16682,
    "Ġinherited": 25353,
    "Ġdet": 509,
    "Ġbass": 17855,
    "permission": 15899,
    "Ġunst": 18238,
    "Ġsoil": 9254,
    "Ġwooing": 19432,
    "Ġlined": 15647,
    "Ġstubbs": 23294,
    "Ġchanges": 2282,
    "sav": 8096,
    "Ġredden": 15691,
    "Ġthese": 822,
    "Ġbrawn": 10481,
    "match": 15389,
    "attery": 18490,
    "iard": 9601,
    "Ġpolite": 9881,
    "Ġbeach": 6541,
    "comput": 2009,
    "Ġprogram": 12990,
    "served": 5043,
    "Ġintact": 21986,
    "neck": 14241,
    "athan": 2957,
    "Ġsaturday": 6452,
    "hastily": 19701,
    "Ġdiab": 10611,
    "Ġhatter": 4114,
    "Ġboneless": 19604,
    "Ġsponge": 26003,
    "fun": 3706,
    "Ġaloud": 6252,
    "Ġdis": 693,
    "Ġgin": 13960,
    "mology": 12489,
    "Ġsucking": 12783,
    "shroud": 20309,
    "Ġcopse": 17067,
    "hurry": 24763,
    "antic": 1600,
    "Ė": 215,
    "antages": 7192,
    "Ġdelights": 14596,
    "settle": 16661,
    "Ġown": 1004,
    "mannered": 22846,
    "skull": 24488,
    "bing": 7791,
    "Ġfrowning": 13622,
    "Ġdigging": 14937,
    ")": 13,
    "respective": 19845,
    "Ġacceler": 1605,
    "tier": 12512,
    "iem": 20916,
    "sword": 10726,
    "Ô": 149,
    "Ġlust": 9197,
    "Ġsmite": 22554,
    "Ġmexico": 15279,
    "Ġpitch": 5767,
    "Ġpause": 5707,
    "Ġrandomly": 1921,
    "Ġshow": 3401,
    "inois": 17738,
    "Ġamazement": 7764,
    "whilst": 18371,
    "Ġhopeful": 19032,
    "Ġunfrequ": 19507,
    "Ġsweeping": 8985,
    "Ġunexpectedly": 19908,
    "Ġattaining": 15801,
    "Ġtemptation": 8677,
    "Ġrepairs": 19081,
    "chastic": 2329,
    "cred": 9107,
    "Ġplanting": 16084,
    "orus": 10801,
    "bo": 1691,
    "Ġforswe": 21771,
    "hyme": 19608,
    "Ġwrong": 4723,
    "Ġgoblets": 20517,
    "ates": 519,
    "Ġinexpress": 12632,
    "Ġexpans": 18624,
    "spouter": 22735,
    "Ġlinked": 15076,
    "Ġsmaller": 1884,
    "Ġscratching": 20367,
    "Ġrapidity": 11096,
    "Ġfascinating": 17327,
    "Ġinclu": 1099,
    "Ġrede": 13983,
    "Ġfad": 17876,
    "Ġthimble": 15634,
    "Ġunaccountably": 26515,
    "lacings": 26134,
    "beheaded": 22491,
    "aths": 22700,
    "Ġfeasible": 22205,
    "former": 11746,
    "Ġisolation": 17150,
    "Ġaltitude": 26202,
    ".}": 20744,
    "Ġstrands": 25574,
    "commence": 19990,
    "Ġweave": 21918,
    "fifty": 12350,
    "Ġpanel": 13371,
    "Ġdefection": 22939,
    "Ġstro": 4594,
    "Ġfragrant": 13079,
    "scru": 16238,
    "Ġdining": 6977,
    "Ġexists": 14041,
    "Ġcountrymen": 23594,
    "Ġwat": 1286,
    "inese": 12880,
    "Ġhung": 4559,
    "Ġbare": 6132,
    "baden": 25615,
    "Ġresting": 7961,
    "Ġinhabited": 12183,
    "Ġberry": 19745,
    "Ġlover": 7193,
    "Ġundulates": 24118,
    "Ġpat": 1798,
    "ography": 13361,
    "Ġtags": 20570,
    "disappointment": 11425,
    "Ġconquered": 14025,
    "mystery": 15154,
    "oysius": 14364,
    "Ġcheerful": 6621,
    "Ġdish": 6136,
    "Ġdistorted": 14249,
    "Ġloved": 4598,
    "Ġbrill": 8548,
    "Ġexordium": 26492,
    "Ġadvice": 4901,
    "Ġmortals": 9915,
    "anely": 17836,
    "Ġunravel": 26214,
    "conversations": 24749,
    "84": 15300,
    "Ġfile": 13902,
    "betrayed": 24640,
    "column": 19328,
    "here": 2551,
    "Ġminutest": 14559,
    "ardy": 22153,
    "Ġwho": 612,
    "deserts": 25379,
    "Ġbrandy": 11049,
    "slouched": 24557,
    "Ġfurnishes": 19439,
    "Ġprejudiced": 24809,
    "Ġprofound": 5497,
    "Ġpart": 862,
    "Ġwoof": 14720,
    "Ġmann": 18416,
    "Ġschol": 17376,
    "ried": 926,
    "Ġsneeze": 24699,
    "Ġbeautifully": 13266,
    "Ġcompassion": 6487,
    "elter": 21568,
    "Ġnecks": 18183,
    "Ġapolog": 9043,
    "quake": 11679,
    "Ġgermans": 25784,
    "Ġswashing": 23051,
    "Ġdiagon": 24740,
    "Ġamused": 11797,
    "err": 1139,
    "Ġbeing": 1162,
    "Ġindians": 14409,
    "gaff": 20881,
    "Ġowe": 8114,
    "Ġwind": 1434,
    "Ġpup": 12616,
    "ientific": 6547,
    "laden": 14928,
    "msgate": 18402,
    "Ġdeigned": 18138,
    "Ġavail": 11226,
    "Ġenchanting": 17039,
    "Ġentreaties": 9035,
    "Ġpopularly": 12239,
    "contracting": 19293,
    "dataset": 23257,
    "Ġcompensated": 17400,
    "Ġasph": 21895,
    "Ġstructural": 2798,
    "Ġalas": 5921,
    "Ġbaron": 19333,
    "nav": 17612,
    "Ġears": 4488,
    "Ġdined": 9176,
    "Ġruthless": 15284,
    "Ġaisle": 21200,
    "Ġwives": 12552,
    "hat": 6956,
    "Ġmagnific": 16316,
    "olstadt": 7788,
    "degra": 22139,
    "repeat": 25151,
    "Ġexecuted": 9471,
    "umblings": 23927,
    "ieving": 7031,
    "rates": 21037,
    "Ġunra": 18237,
    "Ġxlvi": 25590,
    "exasper": 22424,
    "Ġtu": 6968,
    "Ġreversed": 15694,
    "expression": 10547,
    "Ġinspect": 5963,
    "hills": 13735,
    "Ġdoubtfully": 23476,
    "Ġparamore": 22119,
    "Ġandromeda": 21505,
    "Ġthey": 575,
    "related": 24009,
    "entieth": 17978,
    "Ġgripping": 26186,
    "Ġunwillingness": 20030,
    "Ġdiscomp": 11864,
    "Ġglistening": 12363,
    "Ġlan": 5820,
    "ictions": 14226,
    "Ġchord": 22242,
    "Ġam": 661,
    "Ġevangelists": 20338,
    "Ġmales": 17805,
    "Ġmanage": 7640,
    "Ġraging": 14303,
    "ensed": 10995,
    "Ġafraid": 3529,
    "Ġpersuas": 23944,
    "hero": 21203,
    "ative": 734,
    "Ġsincere": 11136,
    "perai": 10275,
    "Ġsled": 21217,
    "Ġretreats": 16928,
    "etite": 21576,
    "Ġprogressive": 5024,
    "mitted": 5213,
    "resemblance": 25933,
    "Ġimbu": 15889,
    "howling": 18989,
    "covenant": 23560,
    "Ġdignity": 5704,
    "Ġav": 3582,
    "regulated": 23466,
    "Ġappar": 7411,
    "hours": 9124,
    "Ġinsomuch": 23682,
    "Ġhell": 5019,
    "Ġglo": 1716,
    "icy": 6140,
    "Ġ58": 24326,
    "Ġtriumphant": 12187,
    "Ġdetected": 18828,
    "Ġflorid": 17135,
    "Ġrecovery": 11441,
    "Ġthinkings": 22807,
    "Ġepic": 15029,
    "ciousness": 20816,
    "Ġado": 7626,
    "Ġjacob": 1899,
    "Ġcity": 4528,
    "Ġintrusion": 12762,
    "ek": 1907,
    "Ġshall": 1141,
    "unched": 10235,
    "Ġheire": 18036,
    "aus": 1501,
    "Ġtex": 15471,
    "Ġhopes": 4234,
    "Ġtranslation": 3085,
    "Ġmerrily": 23730,
    "dece": 11732,
    "alth": 3257,
    "calcul": 12984,
    "Ġjumbled": 22294,
    "Ġmaj": 3927,
    "Ġbravest": 23838,
    "Ġfatality": 12092,
    "Ġannum": 24203,
    "Ġu": 324,
    "Ġreflect": 6575,
    "Ġsires": 21225,
    "Ġstudded": 18986,
    "``": 15305,
    "Ġapproximates": 2414,
    "blubber": 15235,
    "Ġlestrade": 5824,
    "Ġgould": 17989,
    "Ġtrampled": 20327,
    "Ġperturbation": 20439,
    "gorith": 547,
    "longing": 23724,
    "moving": 11018,
    "deav": 2674,
    "Ġlinen": 12405,
    "Ġexerted": 15754,
    "furthermore": 20002,
    "nets": 9132,
    "tarpaulins": 26405,
    "Ġopenness": 18955,
    "sharp": 10306,
    "Ġhide": 4588,
    "Ġinhabitants": 7524,
    "heidelburgh": 21210,
    "Ġthrows": 14736,
    "Ġcaravan": 26290,
    "bildad": 9586,
    "Ġaccomplish": 14875,
    "old": 797,
    "77": 15299,
    "olera": 21823,
    "scorched": 25697,
    "Ġagainst": 1700,
    "Ġfits": 8790,
    "Ġdecreases": 3409,
    "Ġsuperl": 16445,
    "carbuncle": 26382,
    "Ġinfatuation": 25857,
    "fetch": 12462,
    "Ġbulkington": 14677,
    "Ġdress": 4024,
    "Ġpalpable": 15205,
    "Ġprovoke": 14825,
    "Ġheh": 21677,
    "whale": 2140,
    "place": 4155,
    "bantering": 25253,
    "Ġdelighted": 5499,
    "ued": 7561,
    "Ġrud": 8477,
    "Ġtexel": 25923,
    "Ġvineyards": 25106,
    "Ġrag": 18633,
    "Ġnailed": 10189,
    "Ġeyeing": 6460,
    "Ġfountains": 13502,
    "orable": 8119,
    "Ġfear": 2273,
    "porary": 14552,
    "Ġargosy": 24273,
    "iday": 8829,
    "Ġindications": 14632,
    "cour": 4477,
    "Ġunpitying": 25660,
    "anation": 5803,
    "Ġrandom": 1585,
    "etition": 7382,
    "une": 2786,
    "Ġgrassy": 24379,
    "Ġunsettled": 14122,
    "Ġreached": 4026,
    "car": 4212,
    "vest": 6230,
    "Ġ29": 23728,
    "ellow": 3879,
    "Ġcit": 10783,
    "bit": 3933,
    "Ġmines": 21307,
    "Ġdwelling": 7322,
    "eenth": 12458,
    "appalled": 18760,
    "Ġsmacking": 20164,
    "Ġomitted": 12561,
    "conspicuous": 26247,
    "Ġvor": 15804,
    "hors": 9598,
    "Ġselfishness": 12287,
    "Ġneglig": 18877,
    "Ġsharp": 2411,
    "photograph": 16152,
    "Ġfervently": 25877,
    "Ġdrawer": 13265,
    "Ġtingling": 15091,
    "want": 8765,
    "Ġpaddock": 25037,
    "wil": 8395,
    "Ġrespectability": 14484,
    "authority": 13590,
    "covered": 11477,
    "zers": 21145,
    "lee": 11584,
    "ornamented": 26595,
    "Ġspitz": 14148,
    "Ġchecked": 9375,
    "Ġfuss": 13904,
    "Ġsuff": 1304,
    "arrange": 23764,
    "Ġemir": 23348,
    ",)": 9100,
    "âĢĻ-": 18166,
    "opolising": 25676,
    "Ġmedit": 8018,
    "Ġimmediate": 6089,
    "Ġpitching": 16611,
    "fork": 20856,
    "dock": 16417,
    "feared": 11801,
    "probably": 10019,
    "buff": 15317,
    "examination": 25478,
    "rift": 11519,
    "Ġmills": 21310,
    "Ġequival": 4783,
    "swed": 24253,
    "Ġmanifested": 17157,
    "istrate": 7406,
    "Ġbeau": 9224,
    "Ġmachines": 1777,
    "mering": 12488,
    "falling": 24361,
    "avoiding": 25236,
    "Ġhear": 1965,
    "continually": 11302,
    "Ġfoundation": 4232,
    "Ġgrappling": 25812,
    "mic": 12486,
    "Ġq": 1084,
    "Ġdetest": 8500,
    "Ġmappings": 2149,
    "ynolds": 10035,
    "Ġingenious": 12346,
    "Ġcentury": 8290,
    "Ġceleb": 20224,
    "Ġchildish": 13136,
    "Ġlips": 3995,
    "iriously": 18171,
    "Ġold": 1054,
    "willingly": 11981,
    "Ġensu": 7874,
    "Ġemblematical": 25788,
    "Ġhaggerston": 26452,
    "Ġsheer": 14150,
    "appointment": 24057,
    "ropri": 2178,
    "otent": 8831,
    "Ġ7": 4744,
    "Ġinstances": 5568,
    "cheon": 23802,
    "ose": 718,
    "Ġluxurious": 17310,
    "Ġscholar": 26111,
    "Ġcommunications": 16353,
    "goodbye": 12054,
    "chemical": 23807,
    "Ġobliterated": 17404,
    "Ġmention": 2985,
    "Ġprovid": 1005,
    "Ġcloak": 9533,
    "Ġwillow": 18531,
    "Ġspas": 10922,
    "Ġ71": 24259,
    "sn": 7138,
    "reve": 12536,
    "osity": 14185,
    "Ġcovered": 5171,
    "Ġenjoined": 18191,
    "ada": 14010,
    "convenient": 12235,
    "ĠâĢĶâĢľ_": 17718,
    "Ġwails": 21295,
    "Ġresidence": 8206,
    "Ġleaning": 5228,
    "Ġhelmeted": 19687,
    "Ġunrem": 18244,
    "Ġrunning": 3952,
    "Ġaverage": 3138,
    "Ġorders": 5340,
    "Ġdiligently": 11405,
    "bearers": 18524,
    "Ġequ": 1735,
    "Ġfitted": 6243,
    "Ġirons": 7695,
    "Ġcongratulated": 19765,
    "Ġdiff": 3114,
    "Ġlab": 1872,
    "Ġwouldst": 18501,
    "singular": 12186,
    "Ġjacobian": 2892,
    "ferent": 4195,
    "Ġspoils": 24808,
    "Ġexercise": 8358,
    "plentiful": 21953,
    "onsense": 6431,
    "Ġaffidavit": 20723,
    "brimmed": 14588,
    "Ġwitness": 4620,
    "deliver": 19503,
    "helm": 12169,
    "Ġhoarse": 14526,
    "Ġwar": 5526,
    "Ġalien": 14017,
    "Ġgeometric": 3219,
    "Ġoccupation": 9930,
    "afflicted": 23777,
    "threatened": 25462,
    "Ġwhistled": 24623,
    "volous": 18593,
    "rench": 3968,
    "suited": 22637,
    "Ġhave": 446,
    "Ġlithe": 24668,
    "Ġmingling": 20196,
    "Ġbalanced": 12988,
    "Ġvalu": 5039,
    "Ġherself": 1567,
    "aciously": 12904,
    "Ġarranged": 9876,
    "Ġwidth": 16772,
    "indifference": 15981,
    "won": 7144,
    "Ġconvinced": 4206,
    "hastening": 24448,
    ".]": 15297,
    "Ġup": 463,
    "Ġillness": 8589,
    "Ġcheeks": 5957,
    "Ġsimultaneous": 22585,
    "buoy": 7760,
    "Ġpince": 21468,
    "Ġterrify": 19359,
    "Ġnegatived": 23043,
    "Ġclipping": 2438,
    "esy": 9185,
    "Ġdoubling": 23319,
    "Ġcoal": 18595,
    "Ġconfession": 11236,
    "hangs": 15367,
    "angels": 22103,
    "Ġscrut": 15942,
    "Ġlicense": 20089,
    "Ġemployed": 5200,
    "Ġjura": 14192,
    "Ġarsacides": 17293,
    "finger": 10093,
    "ory": 1081,
    "Ġunusual": 6553,
    "Ġconsists": 11976,
    "Ġchamp": 18381,
    "protested": 13473,
    "nd": 11503,
    "Ġshares": 23242,
    "Ġpleasurable": 23338,
    "tide": 11532,
    "Ġpressing": 9260,
    "resides": 23671,
    "Ġdonkey": 23221,
    "Ġexploding": 2110,
    "Ġnod": 1889,
    "ĠĠĠĠĠĠĠĠĠĠĠĠĠĠĠĠĠ": 22946,
    "Ġtoast": 21509,
    "levelled": 23642,
    "enged": 23144,
    "Ġfaire": 13363,
    "Ġrick": 21970,
    "possession": 12219,
    "fate": 17539,
    "Ġjuggl": 20436,
    "Ġglobules": 26588,
    "Ġjoints": 12034,
    "contempt": 13189,
    "Ġports": 10818,
    "Ġshivering": 10265,
    "gives": 15356,
    "leep": 4634,
    "Ġinj": 4759,
    "Ġpatagonia": 25858,
    "Ġpreference": 9732,
    "Ġbubbling": 17325,
    "Ġcorresponding": 13437,
    "Ġmany": 1106,
    "condem": 16342,
    "Ġconfed": 13096,
    "Ġ1778": 25730,
    "Ġembodiment": 20527,
    "amount": 10884,
    "shirt": 22445,
    "Ġcapture": 3383,
    "Ġkrus": 18346,
    "Ġcomplaints": 12262,
    "Ġplush": 18610,
    "Ġsoliloqu": 11883,
    "endured": 22222,
    "arab": 21439,
    "indeed": 4485,
    "sugg": 11839,
    "tailed": 17685,
    "breaths": 25336,
    "Ġconsoled": 18112,
    "Ġstudied": 11117,
    "ustration": 2256,
    "depend": 9112,
    "ospel": 17010,
    "Ġdespairing": 14772,
    "abulary": 4799,
    "Ġknowest": 12860,
    "danish": 20832,
    "đ": 210,
    "grant": 10427,
    "Ġanim": 2114,
    "Ġinteractions": 12900,
    "Ġmerc": 9425,
    "Ġabstained": 25231,
    "direct": 12454,
    "Ġconstitution": 20107,
    "teenth": 11872,
    "Ġother": 758,
    "Ġfanc": 6743,
    "olic": 14040,
    "Ġslu": 13835,
    "Ġbeef": 6830,
    "article": 22398,
    "Ġsculpt": 15943,
    "onsible": 22558,
    "Ġattempts": 10490,
    "Ġlatter": 3993,
    "alyards": 18792,
    "acon": 10681,
    "Ġsn": 2950,
    "Ġpol": 2577,
    "Ġloc": 10914,
    "Ġyaw": 18094,
    "Ġcubic": 20086,
    "Ġgift": 10840,
    "Ġflamingo": 15099,
    "complaisance": 24811,
    "Ġstructured": 2972,
    "grie": 12468,
    "Ġreiterating": 26474,
    "Ġflip": 11910,
    "amuse": 14051,
    "Ġcarpenter": 4684,
    "Ġamiable": 4269,
    "Ġunspeak": 8850,
    "Ġapex": 24342,
    "ince": 4338,
    "Ġfrom": 435,
    "Ġcertainty": 6734,
    "furniture": 20241,
    "butt": 15992,
    "Ġsoot": 14132,
    "arily": 4128,
    "wedged": 24338,
    "Ġadvanced": 1479,
    "leaving": 10791,
    "wel": 6117,
    "Ġconducting": 16649,
    "humored": 19451,
    "ainty": 21784,
    "Ġjabbering": 22300,
    "Ġfishery": 4176,
    "Ġdesperate": 7776,
    "Ġas": 374,
    "far": 5787,
    "Ġcheck": 7271,
    "Ġsust": 7006,
    "Ġcontinues": 18808,
    "ription": 5676,
    "declaration": 25175,
    "lift": 15383,
    "Ġembark": 8560,
    "Ġour": 1008,
    "ference": 1883,
    "Ġspin": 7629,
    "Ġpoor": 1711,
    "Ġeconomically": 25288,
    "Ġcompacted": 23508,
    "sembled": 7263,
    "Ġwayward": 22869,
    "isles": 15561,
    "Ġpod": 15601,
    "vellers": 16673,
    "alk": 1150,
    "Ġ27": 8614,
    "waving": 21130,
    "Ġpugnacious": 26451,
    "inder": 9152,
    "Ġremains": 4910,
    "Ġthirty": 4944,
    "Ġblown": 12083,
    "Ġ115": 24439,
    "Ġconsent": 5372,
    "iline": 21718,
    "Ġfront": 3450,
    "Ġeuropean": 20044,
    "sun": 7139,
    "drop": 15336,
    "derick": 22159,
    "shri": 14234,
    "latitude": 25259,
    "Ġoblivion": 26031,
    "alongside": 19788,
    "Ġkrusen": 20713,
    "vital": 17700,
    "Ġbrightened": 23826,
    "Ġraising": 8908,
    "riet": 18179,
    "Ġperches": 18449,
    "are": 638,
    "Ġsteal": 16282,
    "Ġoblique": 20168,
    "Ġsundering": 23273,
    "mark": 5281,
    "Ġsumatra": 15285,
    "Ġgamesome": 17289,
    "pie": 21010,
    "Ġluggage": 25957,
    "Ġgurg": 15670,
    "Ġvac": 5025,
    "inglass": 21301,
    "Ġstatistical": 11104,
    "Ġadler": 8173,
    "bear": 10314,
    "Ġimper": 4499,
    "Ġbalance": 2023,
    "Ġcounsel": 13614,
    "Ġbeaufort": 13567,
    "Ġshut": 3943,
    "itute": 9651,
    "Ġbackwards": 12922,
    "cond": 1666,
    "wretch": 17708,
    "cher": 5786,
    "behaved": 24463,
    "Ġsulphur": 24933,
    "ivided": 22076,
    "captains": 12125,
    "Ġhither": 4758,
    "Ġarri": 2555,
    "Ġcapering": 21352,
    "Ġtattered": 21170,
    "him": 1938,
    "Ġregain": 22576,
    "Ġbequest": 21750,
    "oons": 12496,
    "Ġforbearing": 25098,
    "51": 12429,
    "Ġexhilar": 19682,
    "Ġcrucifix": 26079,
    "historian": 25735,
    "Ġbackward": 7654,
    "evening": 7089,
    "hroom": 12474,
    "told": 7811,
    "Ġdecorum": 16023,
    "Ġspiced": 22130,
    "Ġrevellers": 21675,
    "sing": 5138,
    "Ġlowerings": 23645,
    "Ġpresumed": 10544,
    "ites": 3899,
    "tis": 4107,
    "Ġwal": 6517,
    "Ġpagan": 7117,
    "Ġrash": 10898,
    "Ġsettee": 22917,
    "Ġcarpet": 9355,
    "Ġthankful": 14737,
    "hereafter": 19216,
    "irr": 12734,
    "Ġdexterity": 25294,
    "Ġperceptible": 18452,
    "Ġrow": 5309,
    "Ġblowing": 10484,
    "was": 1422,
    "alescence": 15922,
    "horse": 8605,
    "Ġdents": 13910,
    "solitary": 14507,
    "Ġoverseeing": 22357,
    "Ġgoest": 22420,
    "jeroboam": 25619,
    "fully": 2199,
    "corner": 13396,
    "stern": 8444,
    "ga": 17550,
    "Ġprairies": 20019,
    "stealthily": 23959,
    "Ġnoah": 10942,
    "rivial": 9433,
    "scept": 21052,
    "button": 10966,
    "herent": 2531,
    "impregnable": 26481,
    "Ġreal": 1632,
    "illation": 14141,
    "Ġgratitude": 5599,
    "antarctic": 22096,
    "Ġportrait": 10661,
    "arians": 18526,
    "atmospheric": 17776,
    "emason": 18186,
    "Ġartist": 12911,
    "onstr": 12543,
    "ichever": 13956,
    "Ġmounted": 7832,
    "tempted": 26403,
    "54": 15298,
    "Ġoccasions": 7987,
    "apparently": 15203,
    "Ġard": 5164,
    "aviour": 11005,
    "idge": 14013,
    "Ġsettlement": 19835,
    "Ġinclination": 6623,
    "venge": 4658,
    "attending": 18916,
    "sockets": 22727,
    "fortun": 3538,
    "Ġsiam": 13837,
    "Ġconsecrate": 26489,
    "Ġlandsman": 11350,
    "quis": 7869,
    "Ġremoved": 5274,
    "Ġconfide": 13097,
    "Ġreduced": 11922,
    "Ġrobustness": 18884,
    "Ġtesting": 23226,
    "Ġpet": 4585,
    "Ġacceptable": 16744,
    "ser": 1427,
    "idate": 21764,
    "dham": 20829,
    "Ġfam": 1583,
    "Ġpaling": 21459,
    "Ġundeviating": 15216,
    "icking": 8910,
    "glow": 20873,
    "Ġhoneymoon": 25645,
    "cific": 10085,
    "Ġscolded": 25472,
    "touched": 15438,
    "apple": 22839,
    "hetically": 21207,
    "Ġsurpr": 2552,
    "(": 12,
    "Ġclients": 19731,
    "ape": 1905,
    "Ġburg": 23650,
    "Ġrmsprop": 3354,
    "Ġsodden": 25535,
    "bowsprit": 16853,
    "treacle": 25148,
    "accomp": 10455,
    "owers": 12681,
    "appearing": 14637,
    "Ġmichael": 20678,
    "ą": 198,
    "Ġprecipices": 12275,
    "Ġplanning": 14750,
    "odings": 4397,
    "Ġconcussion": 26300,
    "Ġdimin": 3873,
    "Ġcomprehensiveness": 25072,
    "Ġcheetah": 14505,
    "Ġunwaning": 25170,
    "wheel": 22862,
    "Ġassuring": 13061,
    "Ġgle": 7858,
    "Ġburn": 3684,
    "act": 787,
    "Ġapproving": 18509,
    "Ġmeant": 3549,
    "arrant": 10474,
    "Ġscreams": 24603,
    "Ġlurks": 11290,
    "Ġindefatigable": 17177,
    "Ġnovel": 6695,
    "ï": 176,
    "uncomfortable": 18160,
    "Ġaccomplice": 24376,
    "Ġhumph": 22878,
    "Ġirreduc": 5491,
    "Ġbeast": 7179,
    "Ġages": 7027,
    "Ġling": 7377,
    "ages": 829,
    "Ġsleepers": 13148,
    "Ġconditions": 8306,
    "Ġminus": 18749,
    "inions": 8401,
    "beer": 22486,
    "Ġexpress": 2192,
    "testing": 12514,
    "Ġproclaim": 18130,
    "Ġaggregated": 25678,
    "Ġparagraph": 17453,
    "vessels": 10625,
    "Ġspir": 2426,
    "Ġlays": 15983,
    "Ġottoman": 17377,
    "inforcement": 3206,
    "n": 82,
    "Ġpiping": 23230,
    "Ġexe": 3998,
    "russian": 22176,
    "Ġhailed": 6407,
    "Ġ80": 24456,
    "Ġchairs": 12823,
    "bourgh": 19103,
    "Ġforeseeing": 23449,
    "byshire": 6172,
    "Ġparticulars": 5754,
    "Ġshudderings": 25200,
    "atters": 18489,
    "Ġuniformly": 19147,
    "Ġstren": 15720,
    "Ġstripping": 23695,
    "Ġgrammatical": 13538,
    "Ġundivided": 24120,
    "_?âĢĿ": 15304,
    "gathered": 13731,
    "public": 17646,
    "mbles": 23085,
    "Ġlevi": 3031,
    "Ġsir": 1569,
    "Ġparchment": 13651,
    "created": 12448,
    "Ġslung": 23165,
    "ield": 2405,
    "Ġastir": 14640,
    "Ġthroughout": 8876,
    "Ġleeward": 6210,
    "estim": 14169,
    "Ġhereditary": 10664,
    "Ġimplicate": 24876,
    "Ġeffective": 1248,
    "met": 6652,
    "blows": 17165,
    "ĠĠĠĠĠĠĠĠĠĠĠĠĠĠĠĠĠĠĠĠĠĠĠĠĠĠĠĠĠĠĠĠĠĠĠĠ": 23666,
    "alization": 733,
    "Ġallen": 5160,
    "Ġassociate": 13449,
    "Ġabund": 8864,
    "Ġdesper": 6176,
    "Ġinclined": 6622,
    "iosity": 2396,
    "Ġ56": 24324,
    "Ġcompanies": 14557,
    "Ġlabourers": 23330,
    "Ġreigns": 21668,
    "Ġcheers": 16364,
    "headsman": 16700,
    "ĠâĢľâĢĺ_": 25111,
    "Ġconfided": 19037,
    "Ġshoreless": 24295,
    "altern": 17941,
    "Ġancest": 12611,
    "Ġimitation": 22168,
    "hammer": 14490,
    "Ġrequisite": 18649,
    "Ġadversarial": 5607,
    "Ġwreat": 15529,
    "Ġegg": 8818,
    "zag": 17713,
    "Ġpel": 17902,
    "rock": 15638,
    "Ġnlp": 3058,
    "stall": 21643,
    "itiously": 13870,
    "iction": 4268,
    "Ġskylarking": 19485,
    "spouting": 25000,
    "lance": 12479,
    "scattered": 22985,
    "ounts": 4650,
    "Ġcontrivance": 17183,
    "growing": 13732,
    "Ġinside": 5448,
    "Ġmarching": 16699,
    "claps": 23150,
    "Ġfresher": 23206,
    "Ġdey": 11674,
    "Ġdaggoo": 5441,
    "Ġfighting": 12195,
    "Ġchiselled": 25559,
    "Ġpillows": 24986,
    "Ġroanoke": 22404,
    "Ġdependency": 3487,
    "Ġdrives": 14577,
    "Ġrequested": 14306,
    "Ġfurnished": 6475,
    "talk": 6656,
    "Ġbeggar": 9348,
    "www": 17251,
    "gration": 9121,
    "extra": 8218,
    "Ġfordham": 21773,
    "lemag": 21370,
    "batt": 20777,
    "eer": 15346,
    "centred": 25017,
    "Ġprincip": 5600,
    "sterns": 23366,
    "Ġsolitude": 6876,
    "Ġmove": 5107,
    "Ġantilles": 24179,
    "Ġattractions": 12914,
    "Ġhereditarily": 25224,
    "Ġbreed": 19071,
    "Ġaint": 17744,
    "Ġamaze": 22481,
    "Ġboot": 11837,
    "Ġcleared": 6074,
    "Ġmoulded": 16975,
    "Ġportions": 19367,
    "spout": 7922,
    "Ġwindow": 2997,
    "Ġseasoned": 24405,
    "Ġ50": 24319,
    "birth": 15321,
    "Ġscruple": 25048,
    "ilar": 10215,
    "ortions": 10948,
    "industrious": 26239,
    "remes": 21236,
    "Ġshame": 6410,
    "Ġrowing": 10300,
    "ung": 2747,
    "Ġpervading": 20612,
    "Ġprinted": 11947,
    "Ġsorts": 6887,
    "Ġliberty": 7761,
    "Ġdispirited": 23880,
    "Ġsister": 1475,
    "Ġheartfelt": 18966,
    "Ġspouting": 9438,
    "Ġbehaviour": 4382,
    "onic": 7827,
    "kily": 20936,
    "Ġdissatisfied": 14256,
    "Ġscriptures": 26235,
    "Ġdearly": 10401,
    "prejudiced": 17296,
    "Ġmood": 6276,
    "Ġstretch": 6993,
    "Ġfamiliarity": 16729,
    "Ġfowls": 8690,
    "majesty": 26280,
    "Ġdance": 4440,
    "Ġscoundrel": 13669,
    "Ġsharkish": 24506,
    "Ġmercifully": 20177,
    "Ġunav": 18240,
    "Ġdeeper": 2086,
    "Ġviewed": 10463,
    "Ġton": 15463,
    "<EOS>": 2,
    "Ġlimping": 23544,
    "dz": 4738,
    "washed": 13043,
    "Ġrecognised": 8994,
    "alley": 23021,
    "Ġinterference": 8893,
    "Ġimposing": 11779,
    "action": 3728,
    "Ġmatrimony": 13634,
    "cils": 20813,
    "irresist": 21909,
    "Ġfolly": 7940,
    "ravelled": 18014,
    "Ġrecital": 16138,
    "greek": 25404,
    "interview": 19298,
    "angular": 11721,
    "Ġparagra": 15877,
    "augh": 1783,
    "pan": 10716,
    "Ġinner": 9670,
    "kicked": 20942,
    "Ġenvironments": 24045,
    "Ġaspect": 3095,
    "«": 109,
    "Ġugliness": 20425,
    "darcy": 5208,
    "idence": 4301,
    "endeav": 7150,
    "Ġtusks": 17253,
    "Ġrelation": 2141,
    "Ġrheumatic": 20704,
    "Ġcrossing": 7253,
    "cstasy": 11445,
    "Ġscru": 8190,
    "zar": 11547,
    "terbury": 21821,
    "Ġschedules": 3385,
    "Ġtart": 12525,
    "xes": 21139,
    "Ġtwit": 12926,
    "Ġunluck": 8484,
    "Ġbes": 2661,
    "Ġscrewing": 20207,
    "Ġjoyful": 13219,
    "Ġemerged": 8684,
    "find": 6954,
    "Ġdoesn": 7438,
    "fortune": 4975,
    "Ġoutputs": 2886,
    "offer": 19060,
    "effectually": 25128,
    "read": 3277,
    "Ġseemed": 1278,
    "Ġfritters": 23255,
    "Ġbu": 3683,
    "etime": 12656,
    "jol": 20924,
    "Ġcirculation": 16415,
    "represent": 9637,
    "Ġmerged": 19296,
    "revol": 12537,
    "Ġmanaged": 7905,
    "Ġkills": 15902,
    "se": 358,
    "Ġshrill": 12139,
    "Ġconvincing": 19307,
    "Ġveiled": 16199,
    "Ġalive": 4396,
    "Ġmelbourne": 24289,
    "image": 9685,
    "Ġchased": 8861,
    "promote": 24727,
    "mency": 18925,
    "accursed": 20539,
    "Ġconstables": 19070,
    "ers": 406,
    "Ġxxxiv": 24967,
    "Ġterrible": 5327,
    "Ġbanners": 24858,
    "Ġamid": 4959,
    "ive": 426,
    "iece": 3230,
    "representativeness": 25272,
    "Ã": 132,
    "benefact": 24641,
    "Ġdoxology": 22241,
    "Ġlimbs": 5965,
    "Ġabsurdly": 19958,
    "Ġdiamond": 15596,
    "Ġvig": 5460,
    "Ġarticles": 7108,
    "kind": 3865,
    "Ġinclude": 1875,
    "Ġbacking": 16115,
    "noted": 22746,
    "Ġwarp": 8112,
    "Ġdecided": 5471,
    "Ġsupernatural": 9872,
    "Ġvigilance": 12369,
    "Ġmetaphysical": 26070,
    "Ġrejoinder": 24597,
    "Ġbodiless": 24226,
    "Ġtinted": 13821,
    "Ġmarvelled": 18873,
    "tart": 21066,
    "foundation": 16714,
    "childhood": 16868,
    "xt": 2082,
    "Ġcrowds": 14738,
    "Ġdiet": 13909,
    "Ġcultured": 25154,
    "Ġasleep": 6836,
    "withdrawn": 23025,
    "Ġmannish": 26237,
    "Ġrude": 7234,
    "Ġutensils": 23514,
    "Ġgr": 976,
    "neighbourhood": 10024,
    "Ġindec": 13927,
    "spect": 3233,
    "Ġenjoy": 3762,
    "Ġblueprints": 13170,
    "Ġdisdain": 8359,
    "Ġrefused": 6715,
    "example": 16011,
    "ribes": 23364,
    "devilish": 17082,
    "promontory": 24728,
    "wra": 11541,
    "mond": 20972,
    "iguous": 18044,
    "disguise": 26306,
    "jaw": 13742,
    "residual": 19261,
    "Ġcode": 1723,
    "Ġincor": 2610,
    "Ġlies": 5295,
    "Ġfan": 2037,
    "Ġshrieks": 12197,
    "robe": 15639,
    "vigorous": 25917,
    "itely": 5365,
    "ĠâĢĺ": 1629,
    "Ġforger": 15730,
    "ringle": 21039,
    "Ġsullenly": 17172,
    "Ġblessing": 11263,
    "Ġimped": 18443,
    "ashions": 16416,
    "ĠlinnÃ¦us": 15274,
    "._)": 10480,
    "Ġlit": 6246,
    "Ġarrangement": 2658,
    "octavo": 11385,
    "Ġconcern": 2657,
    "three": 5238,
    "Ġhorizon": 6632,
    "wandering": 20283,
    "header": 11931,
    "Ć": 199,
    "Ġpersuasions": 16631,
    "bul": 6951,
    "Ġke": 1153,
    "Ġsur": 2181,
    "Ġinvader": 23477,
    "Ġquartered": 20371,
    "Ġsinned": 18950,
    "Ġfaithfully": 14886,
    "Ġstability": 1362,
    "Ġassiduous": 26292,
    "Ġmornings": 16233,
    "Ġhoping": 11103,
    "Ġdarkness": 4277,
    "Ġcasual": 11409,
    "bet": 6109,
    "Ġsnuff": 7991,
    "Ġspl": 2983,
    "Ġwheel": 9717,
    "Ġviol": 2073,
    "Ġunsupervised": 2481,
    "Ġbreak": 2869,
    "Ġpretension": 23762,
    "deserving": 17241,
    "Ġboister": 12916,
    "Ġbree": 5012,
    "Ġplentiful": 12908,
    "Ġunlikely": 10908,
    "Ġ182": 13237,
    "ion": 296,
    "Ġdrawback": 23987,
    "rev": 17756,
    "ning": 950,
    "Ġrequest": 6050,
    "Ġdews": 21835,
    "Ġgoney": 14545,
    "Ġpythag": 26448,
    "uously": 7353,
    "Ġwight": 12550,
    "Ġpractice": 2726,
    "Ġbeck": 14008,
    "Ġtrucks": 19511,
    "Ġmagistrate": 8233,
    "men": 1488,
    "inev": 21962,
    "gences": 20876,
    "Ġtep": 21160,
    "proposal": 18754,
    "Ġruss": 18719,
    "Ġreligions": 20106,
    "deduction": 23555,
    "Ġexile": 12714,
    "Ġes": 8768,
    "Ġbreaths": 14856,
    "reporting": 24494,
    "Ġtierce": 15477,
    "ively": 1323,
    "Ġinvite": 14562,
    "Ġbloody": 9888,
    "Ġmak": 10778,
    "Ġvess": 3297,
    "orne": 17872,
    "speechless": 25395,
    "Ġlevels": 12693,
    "us": 532,
    "Ġshirr": 18231,
    "lab": 3455,
    "can": 1232,
    "close": 9985,
    "Ġbury": 12040,
    "power": 7136,
    "Ġaug": 6234,
    "Ġspire": 18306,
    "hullo": 17570,
    "bore": 13685,
    "Ġquill": 12854,
    "mira": 20978,
    "Ġvint": 18194,
    "cottagers": 20046,
    "Ġinspirited": 23419,
    "tling": 9142,
    "iless": 10281,
    "opp": 6963,
    "Ġhardware": 4904,
    "Ġimpo": 3441,
    "gent": 7129,
    "ained": 3061,
    "approaching": 15011,
    "windows": 19533,
    "Ġclaim": 5106,
    "Ġasser": 6257,
    "ite": 713,
    "sig": 2875,
    "ð": 177,
    "Ġtraditions": 11443,
    "Ġseeming": 8539,
    "Ġshiver": 12764,
    "oms": 4592,
    "Ġwant": 1117,
    "model": 4845,
    "Ġbro": 1431,
    "Ġnatur": 17333,
    "Ġspoken": 4835,
    "Ġthee": 2623,
    "Ġhardihood": 23108,
    "?âĢĶ": 3467,
    "Ġdeformed": 14046,
    "Ġspind": 18307,
    "Ġdrown": 6815,
    "Ġadmin": 23551,
    "Ġahoy": 12182,
    "Ġthereupon": 18434,
    "irection": 2383,
    "roots": 15640,
    "Ġbattle": 5907,
    "Ġflask": 3036,
    "Ġim": 477,
    "Ġmetal": 9388,
    "Ġcoward": 7155,
    "Ġantiquity": 15229,
    "tish": 17677,
    "Ġconverts": 2805,
    "Ġconfid": 7686,
    "Ġfrightful": 7735,
    "Ġrol": 3555,
    "watson": 12241,
    "Ġfugitives": 25634,
    "Ġreign": 13984,
    "disgu": 19153,
    "communication": 25881,
    "ree": 874,
    "dozen": 23376,
    "Ġcalmly": 7733,
    "Ġrobbery": 11917,
    "Ġlawless": 19433,
    "Ġsettled": 3743,
    "embra": 14075,
    "scure": 22978,
    "Ġtouched": 6000,
    "Ġintroducing": 11974,
    "iny": 4293,
    "ug": 1768,
    "Ġsaves": 18323,
    "Ġremind": 6057,
    "Ġsuppress": 13021,
    "Ġcomplain": 6685,
    "charitable": 23930,
    "Ġsimpl": 1578,
    "Ġrad": 4962,
    "tashtego": 9622,
    "grow": 10098,
    "allows": 15903,
    "extending": 22762,
    "Ġsevent": 18202,
    "ieth": 10704,
    "Ġ(_": 3738,
    "Ġhackney": 20431,
    "specific": 10497,
    "Ġseaward": 22944,
    "Ġsensibility": 14515,
    "Ġspine": 7407,
    "ris": 9137,
    "Ġcommotion": 9779,
    "Ġwants": 5742,
    "Ġtoma": 7373,
    "Ġpious": 11597,
    "Ġbroiled": 18908,
    "Ġalabama": 14018,
    "dispositions": 25011,
    "Ġstarboard": 7607,
    "Ġmomentarily": 22808,
    "Ġdiffers": 23780,
    "Ġmamma": 10047,
    "Ġ42": 16678,
    "against": 5870,
    "Ġflint": 23006,
    "Ġperch": 10298,
    "Ġloudly": 7312,
    "Ġclergyman": 8711,
    "delivered": 24100,
    "disapprobation": 19155,
    "Ġdrows": 21433,
    "Ġpunctually": 17138,
    "Ġsow": 17749,
    "Ġdomains": 6611,
    "ishing": 1142,
    "Ġawait": 17073,
    "ings": 637,
    "haz": 17564,
    "forbid": 14352,
    "Ġcanaller": 25468,
    "Ġmaximizing": 3168,
    "iness": 1281,
    "will": 1968,
    "Ġcasting": 12098,
    "Ġshows": 8482,
    "contemplated": 20457,
    "Ġelusive": 22650,
    "Ġdeficient": 18824,
    "Ġvehemently": 26039,
    "Ġstru": 2169,
    "Ġencouragement": 13040,
    "etwork": 442,
    "Ġfullest": 14813,
    "Ġcountryside": 23595,
    "jar": 17577,
    "friend": 3864,
    "bony": 15318,
    "Ġimages": 1596,
    "Ġrecumbent": 22731,
    "Ġresided": 11809,
    "Ġamends": 14245,
    "Ġdrawled": 23986,
    "Ġoppressively": 25712,
    "Ġpract": 1836,
    "Ġanswerable": 23469,
    "Ġdebts": 8035,
    "Ġlightened": 23260,
    "Ġchooses": 13345,
    "Ġaz": 9629,
    "69": 17474,
    "Ġbast": 21377,
    "Ġaltogether": 4830,
    "high": 6649,
    "Ġclap": 10957,
    "Ġdelusion": 18973,
    "Ġgar": 10838,
    "Ġendangered": 16302,
    "resum": 17761,
    "Ġconquer": 14026,
    "Ġdegrees": 7294,
    "oe": 7552,
    "countenance": 6925,
    "meal": 22694,
    "Ġbeards": 21748,
    "ç": 168,
    "uzzle": 19582,
    "yl": 7818,
    "Ġcircumstance": 4987,
    "Ġeggs": 12340,
    "Ġlocket": 22110,
    "Ġlivery": 15998,
    "Ġdoctors": 12149,
    "Ġaccumulates": 2890,
    "Ġhelps": 9366,
    "Ġutterance": 14762,
    "Ġberg": 24536,
    "Ġrhine": 12354,
    "calmly": 20138,
    "Ġglit": 8558,
    "Ġgarb": 21600,
    "Ġoft": 9194,
    "Ġfinest": 10392,
    "strained": 21655,
    "Ġfilm": 23922,
    "bow": 5424,
    "Ġmultipl": 2791,
    "olently": 15751,
    "Ġhandsom": 11124,
    "ility": 623,
    "itchen": 7787,
    "Ġindividuality": 14908,
    "Ġbarrowful": 25595,
    "somerset": 26322,
    "Ġdissuade": 26256,
    "Ġfob": 21407,
    "Ġwonders": 7500,
    "Ġscandalous": 24879,
    "peace": 13046,
    "Ġdisconcerted": 18562,
    "james": 15371,
    "Ġcircular": 13109,
    "Ġcontro": 1688,
    "Ġancles": 21444,
    "process": 11148,
    "Ġamazing": 9976,
    "prophet": 16177,
    "te": 993,
    "âĢĻ!âĢĿ": 18167,
    "Ġtoiling": 15632,
    "necessary": 5881,
    "Ġfantastic": 10058,
    "Ġpeculiar": 3152,
    "Ġbrutality": 26276,
    "gon": 17552,
    "Ġlatitude": 8328,
    "orand": 21395,
    "raged": 9211,
    "Ġtorments": 13393,
    "Ġforced": 4351,
    "Ġdecide": 9286,
    "Ġconsideration": 5191,
    "Ġswamp": 14435,
    "pate": 21009,
    "Ġarithmetic": 18352,
    "Ġorange": 8486,
    "conviction": 19963,
    "Ġradney": 6775,
    "affections": 17356,
    "Ġmock": 3692,
    "Ġwomen": 4749,
    "Ġmor": 1249,
    "Ġplank": 7033,
    "Ġdem": 11673,
    "Ġnurse": 9516,
    "adier": 18089,
    "leap": 21365,
    "Ġreconciled": 13586,
    "Ġsails": 5256,
    "Ġabroad": 8865,
    "Ġshave": 21993,
    "Ġfasten": 11132,
    "Ġlabeled": 3720,
    "Ġfork": 15729,
    "python": 4691,
    "barbaric": 26358,
    "bular": 15312,
    "shoulder": 16583,
    "Ġrecess": 10847,
    "Ġdignified": 15595,
    "8": 28,
    "Ġformerly": 7493,
    "equal": 14992,
    "Ġstigma": 25791,
    "Ġhurrying": 11993,
    "alas": 8803,
    "Ġenough": 1762,
    "access": 11180,
    "clopÃ¦dia": 15255,
    "Ġinclement": 22550,
    "Ĥ": 229,
    "Ġcomfort": 3438,
    "asional": 17959,
    "liberal": 26281,
    "sleeve": 26108,
    "Ġbillows": 7502,
    "leton": 5148,
    "Ġgazed": 6478,
    "Ġsat": 1130,
    "Ġbarbar": 6935,
    "finds": 19926,
    "Ġsauce": 15888,
    "Ġstony": 21739,
    "Ġexhibiting": 19837,
    "itters": 10781,
    "Ġexcitement": 9380,
    "determ": 7105,
    "Ġasia": 11681,
    "Ġhissed": 15786,
    "Ġgovernesses": 25127,
    "Ġnarr": 5085,
    "fiend": 13660,
    "Ġcompressed": 21847,
    "Ġunworthy": 11713,
    "Ġdyspepsia": 20642,
    "Ġglen": 18845,
    "turkish": 24533,
    "Ġtoll": 7851,
    "Ġdrow": 21424,
    "Ġcoleman": 22584,
    "fatigue": 20657,
    "Ġwarped": 25035,
    "pointed": 9809,
    "Ġverbal": 19377,
    "Ġcommis": 22668,
    "Ġoperate": 19115,
    "Ġineff": 12631,
    "Ġcargo": 16288,
    "number": 10114,
    "Ġgowns": 25359,
    "capital": 15087,
    "treatment": 20410,
    "Ġejac": 10203,
    "Ġinh": 10824,
    "Ġlassitude": 20585,
    "Ġ/*": 10139,
    "Ġoars": 3898,
    "Ġdisd": 7030,
    "hotel": 20048,
    "separ": 9230,
    "ersed": 10259,
    "whiteness": 18370,
    "world": 5058,
    "ogr": 18670,
    "Ġhang": 9187,
    "rosings": 15641,
    "mons": 17600,
    "cure": 11474,
    "Ġdiscerned": 25003,
    "itals": 17820,
    "valued": 2853,
    "Ġjump": 4501,
    "Ġflee": 7079,
    "matic": 4617,
    "Ġlikes": 9407,
    "Ġshriek": 6637,
    "gunw": 17220,
    "loose": 11803,
    "Ġbureau": 11589,
    "gentlemanlike": 20000,
    "Ġgrazed": 15831,
    "Ġbeams": 14631,
    "gard": 7339,
    "Ġtakings": 20571,
    "Ġregard": 3063,
    "Ġadmon": 15866,
    "Ġsquaw": 22836,
    "ishmael": 18420,
    "Ġdangerous": 6613,
    "Ġmud": 11572,
    "Ġindiam": 22950,
    "Ġlabyrin": 13103,
    "Ġholy": 6591,
    "oftentimes": 19419,
    "Ġsentin": 16370,
    "simple": 13451,
    "biscuit": 17500,
    "catch": 17506,
    "Ġbronze": 22860,
    "Ġmachine": 800,
    "Ġlobster": 11389,
    "examine": 25477,
    "Ġcorridor": 10671,
    "Ġmasoned": 20250,
    "Ġphil": 3384,
    "different": 6501,
    "point": 6062,
    "Ġcomprehend": 6494,
    "requiem": 24856,
    "paint": 21017,
    "tips": 13795,
    "Ġmaking": 1780,
    "Ġprotection": 9461,
    "Ġgait": 13329,
    "Ġmortar": 19391,
    "Ġflames": 7939,
    "Ġ112": 24437,
    "Ġcaroline": 7254,
    "Ġcurious": 3360,
    "Ġcuvier": 9165,
    "Ġgreen": 3049,
    "Ġharsh": 9520,
    "Ġdissu": 18550,
    "Ġupper": 5090,
    "penetrate": 20323,
    "Ġben": 1110,
    "threshold": 21984,
    "Ġphotography": 24683,
    "Ġfunny": 7637,
    "Ġglance": 4233,
    "yramid": 8367,
    "Ġperil": 5557,
    "Ġwearily": 18177,
    "mistaken": 12208,
    "Ġbowlines": 19321,
    "Ġbestir": 13108,
    "uling": 2254,
    "Ġwe": 388,
    "istry": 22106,
    "Ġanointing": 25539,
    "Ġphenomenon": 17914,
    "Ġforecastle": 5495,
    "bennet": 5352,
    "Ġawful": 6199,
    "pervading": 18972,
    "Ġshag": 9250,
    "Ġobjecting": 18896,
    "Ġcot": 13876,
    "Ġhaw": 10251,
    "springs": 24911,
    "Ġjeopardized": 20229,
    "Ġency": 21931,
    "balance": 12005,
    "Ġwast": 21861,
    "Ġfeathers": 15118,
    "Ġwishing": 7830,
    "ubb": 1649,
    "Ġaux": 21198,
    "Ġpoltroon": 26598,
    "Ġstruck": 3388,
    "osure": 5306,
    "Ġmichaelmas": 26374,
    "side": 2297,
    "bree": 15313,
    "Ġlou": 6822,
    "rimsh": 17027,
    "Ġcircumnav": 12424,
    "things": 6032,
    "Ġfolio": 11915,
    "pest": 6964,
    "remember": 7262,
    "Ġaid": 6122,
    "Ġmal": 5221,
    "Ġsatire": 22897,
    "Ġdischar": 11806,
    "Ġhorror": 3774,
    "ady": 995,
    "Ġpurest": 14938,
    "fthand": 26386,
    "Ġalacrity": 15734,
    "ection": 4948,
    "Ġcostly": 23583,
    "Ġhistorical": 3647,
    "extreme": 11029,
    "Ġinsurmountable": 16531,
    "Ġeasiest": 23536,
    "Ġsentimental": 24754,
    "offers": 16392,
    "Ġanybody": 5313,
    "disaster": 23491,
    "hering": 12811,
    "inger": 6812,
    "bolt": 25135,
    "eric": 3469,
    "Ġmortally": 23914,
    "Ġcannibals": 10587,
    "Ġmassacre": 20546,
    "Ġcreditors": 20128,
    "Ġimaginary": 11186,
    "Ġserve": 9367,
    "Ġgrecian": 26296,
    "ishment": 3505,
[...]
