{
  "metadata": {
    "vocab_size": 26616,
    "algorithm": "BPE",
    "created_at": "2026-06-08 06:42:01",
    "special_tokens": [
      "<PAD>",
      "<SOS>",
      "<EOS>",
      "<UNK>",
      "<MASK>"
    ]
  },
  "vocab": {
    "pie": 21013,
    "igated": 15711,
    "Ġdirectors": 18923,
    "vation": 4745,
    "Ġsemicircular": 26069,
    "Ġhoping": 11104,
    "Ġbrahma": 26321,
    "olet": 13769,
    "Ġhist": 2445,
    "woof": 21142,
    "Ġdep": 749,
    "Ġfeatures": 1432,
    "Ġcoat": 4555,
    "Ġrudimental": 25111,
    "devil": 7895,
    "Ġunfathom": 14791,
    "owal": 13996,
    "Ġoverlapping": 26240,
    "Ġhams": 16614,
    "ackled": 22424,
    "ining": 3219,
    "Ġhellaswag": 24343,
    "Ġinstances": 5568,
    "Ġincorrect": 2730,
    "Ġragged": 11850,
    "Ġbased": 3336,
    "Ġhalts": 3159,
    "Ġwindows": 4971,
    "smiles": 14695,
    "beg": 22491,
    "Ġfocused": 16344,
    "Ġaffidav": 18791,
    "Ġdanced": 7842,
    "Ġassailants": 20452,
    "lemag": 21375,
    "Ġdocile": 19962,
    "Ġult": 9077,
    "dial": 20827,
    "spout": 7923,
    "Ġfedallah": 6110,
    "brow": 15319,
    "Ġcontemplation": 11359,
    "Ġacute": 16127,
    "Ġviolates": 3165,
    "principle": 10653,
    "Ġplanned": 14755,
    "Ġwond": 3940,
    "Ġpel": 17906,
    "Ġgraph": 10904,
    "ificant": 22206,
    "linked": 17595,
    "Ġveiled": 16204,
    ",_": 11464,
    "sequence": 2855,
    "urch": 3996,
    "Ġconsidered": 4612,
    "ø": 185,
    "Ġresolving": 9422,
    "Ġyours": 4125,
    "Ġconfluent": 19041,
    "Ġcourse": 2130,
    "oak": 21005,
    "Ġnumerous": 6920,
    "Ġinland": 11611,
    "ab": 345,
    "istol": 6261,
    "Ġreinforcement": 3419,
    "Ġinvention": 19956,
    "Ġspotted": 12143,
    "Ġhonors": 23603,
    "Ġpalaces": 24095,
    "Ġenables": 725,
    "Ġhundreds": 4328,
    "Ġshortness": 23485,
    "Ġmanager": 11773,
    "Ġexceed": 1346,
    "Ġattribute": 16107,
    "Ġlengthened": 25959,
    "Ġshipwreck": 20449,
    "activation": 3229,
    "Ġproceeds": 12082,
    "Ġcalm": 3445,
    "dict": 15341,
    "Ġunc": 2124,
    "Ġperches": 18448,
    "Ġpunctures": 25136,
    "comed": 8547,
    "Ġtortoise": 16910,
    "Ġapoplexy": 25266,
    "shazz": 14243,
    "swallowed": 14856,
    "Ġcrept": 11023,
    "Ġwriters": 13545,
    "ow": 325,
    "Ġscarce": 8625,
    "Ġimpropriety": 17399,
    "Ġabruptness": 25300,
    "Ġconfronted": 23310,
    "Ġforehead": 5262,
    "anous": 21362,
    "neath": 12872,
    "gradu": 18617,
    "Ġreturn": 1709,
    "cheap": 23806,
    "lest": 5290,
    "ohog": 9846,
    "Ġjetted": 24431,
    "ven": 781,
    "chie": 21693,
    "larking": 17596,
    "Ġexceptions": 13233,
    "Ġinterview": 9773,
    "_": 67,
    "Ġconcernment": 23646,
    "Ġgalvan": 21620,
    "aciousness": 18607,
    "sl": 5794,
    "actor": 11840,
    "Ġsurrey": 14560,
    "Ġwag": 10777,
    "board": 3566,
    "Ġmathematics": 12078,
    "Ġpleated": 16300,
    "byter": 16217,
    "ruit": 22191,
    "?_âĢĿ": 12320,
    "resembling": 25933,
    "Ġfe": 490,
    "sole": 6170,
    "Ġanticipating": 17059,
    "Ġlakes": 8131,
    "Ġaudible": 19883,
    "Ġsubterraneous": 20268,
    "Ġhappen": 5571,
    "Ġloosened": 26003,
    "religion": 20578,
    "Ġfainted": 8796,
    "event": 8077,
    "Ġcompiled": 22574,
    "Ġassistance": 6335,
    "Ġtumble": 16881,
    "Ġmiserably": 12953,
    "Ġrelig": 8553,
    "ermaid": 14299,
    "Ġconjugal": 25104,
    "Ġabominably": 20069,
    "Ġcreases": 22724,
    "bad": 12440,
    "telescope": 26564,
    "Ġquarter": 3979,
    "eaten": 20347,
    "Ġargosy": 24276,
    "Ġabandonment": 25604,
    "justified": 19005,
    "Ġdepressed": 10885,
    "Ġrewards": 10850,
    "Ġexception": 11218,
    "Ġrelaps": 18777,
    "ignantly": 23268,
    "Ġbleeding": 14883,
    "Ġwaving": 8579,
    "Ġassigned": 16314,
    "ley": 1814,
    "etymology": 14704,
    "Ġdoubtful": 19143,
    "Ġpirate": 14998,
    "Ġenemy": 5605,
    "ivance": 22087,
    "Ġaimed": 20253,
    "Ġ235": 25712,
    "stoke": 18025,
    "Ġbeams": 14633,
    "geons": 15983,
    "erick": 13851,
    "oned": 4632,
    "Ġeffemin": 18526,
    "Ġblan": 18818,
    "occup": 7753,
    "Ġconverted": 16115,
    "Ġcub": 8415,
    "Ġdism": 9770,
    "otion": 4946,
    "Ġdominant": 12400,
    "Ġaloud": 6254,
    "Ġlined": 15654,
    "arn": 357,
    "Ġjoist": 19234,
    "Ġputting": 5327,
    "Ġenjoying": 11236,
    "Ġforbe": 8459,
    "ipotence": 22368,
    "Ġempt": 5051,
    "Ġstow": 21734,
    "gl": 3286,
    "Ġpromethe": 14471,
    "Ġmisunderstood": 18706,
    "ugn": 9381,
    "lemagne": 26438,
    "Ġrevol": 5537,
    "favouring": 24761,
    "Ġinstinctively": 13462,
    "geon": 6272,
    "Ġlucy": 17972,
    "capt": 3836,
    "eagerly": 17319,
    "olic": 14044,
    "Ġcausing": 16364,
    "lies": 15385,
    "verdict": 21733,
    "Ġpreside": 18366,
    "Ġcoil": 11822,
    "Ġaccidents": 10298,
    "Ġspool": 24803,
    "Ġgurglings": 26467,
    "Ġ4": 3989,
    "Ġimprobable": 9798,
    "Ġsurvey": 13596,
    "abst": 21792,
    "ik": 17573,
    "Ġdinn": 23984,
    "Ġcleanse": 24527,
    "Ġmental": 21322,
    "Ġforbearance": 12332,
    "icit": 3374,
    "iliation": 10862,
    "Ġcondem": 6340,
    "hurriedly": 25511,
    "Ġoverladen": 22366,
    "log": 18535,
    "Ġorchard": 22098,
    "Ġcruis": 14625,
    "Ġslop": 23165,
    "Ġacross": 1330,
    "avating": 18606,
    "Ġpleasing": 6192,
    "Ġcomprehensiveness": 25075,
    "Ġic": 9628,
    "hum": 3777,
    "Ġinhaled": 25452,
    "Ġwitnesses": 9489,
    "unpardonable": 21894,
    "operations": 19978,
    "viating": 14581,
    "Ġrecomm": 4996,
    "xes": 21143,
    "ois": 9137,
    "Ġrounds": 18886,
    "Ġprinted": 11953,
    "Ġsavag": 19377,
    "Ġwings": 9166,
    "ised": 1070,
    "Ġreward": 6146,
    "Ġsuccour": 20438,
    "Ġperempt": 13677,
    "Ġit": 339,
    "Ġobvious": 4964,
    "aware": 16298,
    "ilst": 8144,
    "Ġstreaked": 19115,
    "ifications": 9731,
    "locked": 7678,
    "accessible": 13642,
    "Ġsuburban": 17349,
    "2": 22,
    "Ġgipsies": 12412,
    "Ġindulging": 16906,
    "Ġinsects": 25647,
    "Ġsket": 18729,
    "circumstances": 8047,
    "rimshander": 20659,
    "á": 162,
    "Ġfruit": 12330,
    "listen": 13516,
    "sn": 7140,
    "capital": 15092,
    "surd": 6934,
    "tra": 5002,
    "Ġagonies": 14254,
    "whel": 7665,
    "Ġpitiful": 13242,
    "Ġ39": 19493,
    "Ġrecoil": 18691,
    "Ġsorely": 17259,
    "archbishop": 22892,
    "Ġexcess": 3339,
    "presume": 25671,
    "hamed": 6307,
    "Ġsoothed": 10032,
    "Ġmanip": 8875,
    "Ġsav": 3353,
    "Ġdetest": 8503,
    "¾": 127,
    "bottle": 20148,
    "Ġemployment": 8632,
    "Ġpremises": 10490,
    "Ġcentrally": 23834,
    "Ġportion": 7492,
    "Ġtheir": 645,
    "rece": 21237,
    "ahawk": 23319,
    "Ġgo": 614,
    "Ġwarb": 17789,
    "secut": 7867,
    "Ġsnodhead": 19304,
    "Ġreject": 7386,
    "prevent": 11799,
    "Ġboil": 16108,
    "olstadt": 7789,
    "Ġtrucks": 19515,
    "Ġreplen": 11116,
    "Ġloading": 15878,
    "surgeon": 24217,
    "biting": 20783,
    "Ġmethodically": 23110,
    "black": 6769,
    "Ġscept": 15506,
    "Ġpursuits": 12081,
    "Ġextinct": 14333,
    "urs": 6990,
    ",*": 17474,
    "usions": 6161,
    "Ġwent": 1538,
    "Ġtrout": 22347,
    "Ġbrilliant": 11416,
    "paddington": 20481,
    "Ġties": 12533,
    "Ġrekindled": 21680,
    "Ġcalcul": 3639,
    "Ġassociate": 13453,
    "andam": 10890,
    "Ġbasic": 24700,
    "Ġdreamy": 14706,
    "ated": 724,
    "Ġinfamy": 14504,
    "Ġantip": 24179,
    "Ġdirected": 5579,
    "Ġplu": 8803,
    "Ġke": 1155,
    "Ġchag": 15935,
    "Ġcurds": 22973,
    "Ġuncomp": 15845,
    "Ġrue": 11871,
    "Ġspan": 11732,
    "Ġinvests": 14871,
    "Ġtweed": 22680,
    "bil": 20773,
    "Ġrude": 7234,
    "Ġstil": 15722,
    "ridden": 24362,
    "edding": 4366,
    "ivable": 10913,
    "Ġkindling": 19031,
    "Ġpunctil": 20117,
    "fill": 15354,
    "satisfactory": 16895,
    "Ġpaw": 12626,
    "frankly": 20025,
    "Ġvirtue": 4923,
    "Ġfree": 3371,
    "bey": 10316,
    "Ġcloser": 8663,
    "Ġstrives": 23698,
    "Ġpaste": 23421,
    "net": 1194,
    "secur": 18129,
    "iliar": 15718,
    "admirably": 24947,
    "Ġhieroglyphic": 25588,
    "breat": 10081,
    "Ġwisdom": 11235,
    "Ġgroom": 13969,
    "homely": 25618,
    "Ġglided": 7447,
    "oe": 7552,
    "Ġnortheast": 23208,
    "Ġslapped": 23174,
    "trivial": 21095,
    "ials": 11708,
    "Ġboon": 22643,
    "Ġcivilly": 19606,
    "Ġproceeded": 5336,
    "off": 1886,
    "Ġscotch": 12214,
    "mun": 20964,
    "¨": 106,
    "Ġlist": 2365,
    "ract": 993,
    "Ġforemast": 12010,
    "poverty": 22910,
    "Ġwer": 12557,
    "Ġpoised": 22593,
    "Ġfewer": 16228,
    "Ġspr": 4027,
    "Ġstowing": 18074,
    "steelkilt": 10050,
    "Ġawkwardness": 13490,
    "incredible": 16501,
    "Ġlack": 17966,
    "Ġconnected": 5393,
    "Ġwandered": 6930,
    "Ġfourteen": 12014,
    "Ġspikes": 22140,
    "Ġprying": 15613,
    "udding": 11869,
    "Ġsurround": 4618,
    "Ġepidemic": 20698,
    "Ġpeas": 8536,
    "Ġdog": 4193,
    "uesday": 8590,
    "letter": 6203,
    "Ġloudly": 7312,
    "Ġtasselled": 25922,
    "seen": 2880,
    "Ġsquatted": 25843,
    "Ġhypocr": 19475,
    "Ġfarthest": 23121,
    "Ġdeck": 2139,
    "Ġlabors": 23332,
    "Ġsandwich": 19831,
    "Ġphilosophy": 7105,
    "ifting": 6547,
    "Ġstem": 15723,
    "diss": 17525,
    "older": 15757,
    "Ġanalyzing": 18797,
    "Ġencouraged": 9358,
    "Ġextraction": 11254,
    "Ġcannibals": 10590,
    "promontory": 24727,
    "Ġlun": 7856,
    "Ġgeneric": 18453,
    "farewell": 12310,
    "Ġelements": 2668,
    "sence": 3303,
    "war": 6803,
    "Ġaggreg": 12890,
    "Ġlodgings": 8312,
    "D": 40,
    "told": 7811,
    "Ġreiter": 21669,
    "Ġfa": 4821,
    "Ġwhelmed": 26000,
    "mou": 10710,
    "Ġriverside": 25248,
    "Ġmask": 1865,
    "Ġbacking": 16118,
    "missed": 11211,
    "Ġfastening": 16363,
    "Ġmortally": 23920,
    "ed": 293,
    "osp": 6854,
    "Ġcontrols": 1731,
    "Ġcalmer": 23047,
    "bushes": 24447,
    "Ġexploit": 19164,
    "Ġtows": 19565,
    "Ġavoid": 5199,
    "impatiently": 20474,
    "Ġsermons": 20197,
    "eers": 20845,
    "ished": 1426,
    "station": 10846,
    "Ġvoy": 2619,
    "aco": 12912,
    "Ġcleansed": 26295,
    "laug": 10709,
    "Ġval": 972,
    "urpr": 2288,
    "uss": 8767,
    "Ġconcealed": 7495,
    "Ġvillanous": 24058,
    "uns": 21874,
    "moored": 22709,
    "sion": 8094,
    "Ġherd": 7888,
    "yond": 2330,
    "Ġsubtile": 20383,
    "Ġinterment": 22578,
    "Ġris": 4887,
    "prev": 12873,
    "Ġinternal": 2248,
    "Ġhur": 2100,
    "Ġvanished": 6874,
    "Ġriots": 23895,
    "empl": 5724,
    "Ġshrouds": 11346,
    "nant": 17611,
    "Ġrnns": 2395,
    "Ġcombinations": 22855,
    "quohog": 21862,
    "Ġaperture": 26161,
    "Ġreplacing": 3447,
    "ï": 176,
    "Ġboat": 1278,
    "Ġlimp": 19182,
    "Ġvoices": 7876,
    "Ġjewels": 12373,
    "Ġrested": 9382,
    "pots": 11516,
    "Ġbusy": 6191,
    "mysteries": 26051,
    "Ġperusal": 14227,
    "Ġcalls": 6746,
    "Ġvariations": 22669,
    "ions": 449,
    "Ġsubur": 12961,
    "heavily": 24534,
    "tum": 11534,
    "erative": 21275,
    "Ġpleaded": 16302,
    "ques": 2840,
    "Ġapparition": 8067,
    "angered": 16182,
    "embraced": 25807,
    "Ġdevelopments": 23248,
    "smith": 5669,
    "ill": 447,
    "Ġq": 1086,
    "Ġplaguy": 22608,
    "Ġnapoleons": 25886,
    "Ġkettle": 26234,
    "pit": 3986,
    "Ġforlorn": 14018,
    "Ġbambooz": 26120,
    "Ġmend": 8407,
    "ij": 7802,
    "erie": 21274,
    "able": 452,
    "ressing": 8922,
    "Ġbelt": 13007,
    "Ġwo": 3652,
    "Ġcommit": 18656,
    "Ġbressed": 21390,
    "Ġscarcity": 23829,
    "ì": 173,
    "ersman": 11703,
    "Ġget": 1622,
    "igators": 18047,
    "Ġwrenched": 12563,
    "Ġplunder": 22606,
    "Ġafloat": 9311,
    "Ġban": 7157,
    "steep": 19422,
    "deed": 1518,
    "Ġlids": 12280,
    "ev": 6952,
    "Ġspear": 9315,
    "iction": 4268,
    "Ġwhosoever": 21722,
    "Ġlearns": 2642,
    "beh": 5472,
    "Ġrevisit": 21673,
    "cott": 8074,
    "Ġports": 10820,
    "Ġintercept": 14272,
    "Ġpreliminaries": 25177,
    "Ġjoky": 18407,
    "Ġblaming": 22933,
    "carpenter": 11429,
    "pitch": 13302,
    "Ġle": 333,
    "ounced": 4954,
    "asily": 13949,
    "Ġcheese": 9380,
    "Ġword": 1052,
    "ancholy": 5070,
    "Ġaccorded": 24093,
    "Ġ1991": 3018,
    "Ġmachinations": 25768,
    "gradually": 12921,
    "mockery": 24378,
    "Ġcultivated": 17367,
    "Ġcharacteristically": 23694,
    "Ġdisobey": 18560,
    "Ġblasphemer": 26117,
    "Ġnovelty": 13466,
    "Ġconsume": 12963,
    "Ġdedication": 2978,
    "byshire": 6174,
    "Ġtwice": 4663,
    "piteous": 21036,
    "Ġenderby": 13654,
    "algorithm": 3981,
    "odox": 21815,
    "Ġselfishness": 12293,
    "cer": 6645,
    "gyric": 19111,
    "Ġhumbly": 16201,
    "thumb": 18219,
    "Ġpertin": 18449,
    "Ġprincipal": 6497,
    "Ġmeans": 699,
    "Ġaction": 5797,
    "Ġalabama": 14022,
    "motion": 17608,
    "reject": 21239,
    "ports": 13777,
    "Ġhurrah": 9872,
    "Ġnailing": 21530,
    "counter": 20281,
    "Ġbulkhead": 24511,
    "Ġberths": 20118,
    "Ġwra": 5907,
    "Ġcho": 4548,
    "perse": 15899,
    "grave": 16098,
    "lucky": 24545,
    "_.âĢĿ": 5887,
    "confirmed": 19643,
    "Ġintending": 11709,
    "Ġsim": 734,
    "indispensable": 14212,
    "Ġobjecting": 18897,
    "lux": 14228,
    "/*": 10074,
    "Ġveget": 11890,
    "Ġrespects": 7269,
    "Ġwaits": 23282,
    "fat": 8079,
    "recklessly": 25270,
    "Ġmagistrate": 8234,
    "Ġcredit": 4820,
    "Ġfireside": 23534,
    "Ġanswerable": 23474,
    "Ġlabrador": 23334,
    "Ġquadruped": 20618,
    "nowhere": 18419,
    "Ġwherever": 8526,
    "seized": 14038,
    "Ġreports": 19086,
    "Ġunfulfilled": 26511,
    "Ġproject": 5546,
    "Ġishmael": 7395,
    "Ġpurses": 23480,
    "Ġlounging": 10025,
    "Ġsurvivors": 25732,
    "Ġexhaustion": 14964,
    "ĠĠĠĠĠĠĠĠĠĠĠĠĠĠĠĠĠĠĠĠĠĠĠĠĠĠĠĠĠĠĠ": 19703,
    "Ġsilvery": 13097,
    "Ġlinguistic": 12429,
    "Ġi": 312,
    "orative": 21401,
    "Ġexpenses": 11837,
    "Ġnature": 2540,
    "chester": 23808,
    "Ġprofit": 14587,
    "Ġglimmer": 15145,
    "Ġpatron": 7461,
    "sor": 7352,
    "Ġclutches": 20021,
    "Ġu": 324,
    "alt": 12644,
    "Ġfears": 5729,
    "tch": 9144,
    "gy": 2097,
    "Ġshreds": 12776,
    "Ġbaboon": 19696,
    "whales": 5187,
    "Ġtraining": 528,
    "://": 11467,
    "peare": 18913,
    "despatched": 19804,
    "ored": 3897,
    "alarms": 21508,
    "Ġchoose": 5983,
    "ibule": 13015,
    "Ġ45": 14773,
    "Ġarticulate": 24432,
    "Ġroots": 11187,
    "Ġcalifornia": 20533,
    "Ġsalt": 8017,
    "Ġuneasiness": 9487,
    "Ġnaval": 16901,
    "bohem": 19002,
    "ance": 478,
    "Ġdestructive": 23490,
    "Ġincompetent": 25680,
    "Ġimprecate": 20521,
    "Ġcam": 10164,
    "arabian": 26448,
    "ery": 1268,
    "apprehension": 26115,
    "Ġsoaked": 15865,
    "ution": 4349,
    "Ġmechanis": 1220,
    "Ġvigil": 9510,
    "Ġforge": 8458,
    "Ġmarshal": 20222,
    "Ġpremium": 23908,
    "twilight": 23705,
    "Ġmes": 17798,
    "Ġsalutation": 12401,
    "uplifted": 17697,
    "Ġwhirled": 14963,
    "oted": 4598,
    "Ġge": 1980,
    "object": 6884,
    "Ġschedu": 1822,
    "Ġmadden": 10449,
    "Ġremot": 8546,
    "Ġdead": 2172,
    "ě": 220,
    "ption": 7398,
    "Ġposter": 14278,
    "urring": 21708,
    "Ġsigma": 1543,
    "Ġhousemaid": 14467,
    "Ġdaft": 19666,
    "Ġpressure": 13425,
    "invite": 25091,
    "ceptive": 15980,
    "Ġabounding": 12348,
    "Ġrespectively": 23250,
    "Ġcollection": 8222,
    "Ġcaptains": 7457,
    "Ġbirds": 5875,
    "Ġcroquet": 9965,
    "Ġswap": 23055,
    "clusion": 16308,
    "Ġcough": 11584,
    "spee": 9320,
    "Ġtug": 11553,
    "Ġsubdued": 11032,
    "Ġmarched": 18872,
    "Ġbeg": 1282,
    "Ġembarrassment": 10629,
    "idy": 21768,
    "Ġopine": 19230,
    "Ġsol": 1103,
    "Ġimpersonal": 17400,
    "Ġaccordance": 19501,
    "magistrate": 19865,
    "Ġdisappears": 18561,
    "ecess": 17534,
    "arse": 7161,
    "Ġdoll": 10815,
    "Ġlegal": 10441,
    "æ": 167,
    "inj": 9154,
    "Ġmountain": 3368,
    "Ġraging": 14312,
    "Ġviciously": 24404,
    "aggo": 5097,
    "Ġhove": 17925,
    "dr": 6223,
    "Ġwedged": 24936,
    "profess": 10637,
    "antial": 8490,
    "compan": 7301,
    "trem": 17683,
    "Ġpeddler": 26181,
    "?âĢĶ": 3466,
    "girls": 12323,
    "Ġtemperate": 16166,
    "ivities": 22089,
    "Ġoverjoy": 15975,
    "supplied": 10522,
    "Ġactual": 3737,
    "Ġoccupation": 9934,
    "cu": 10086,
    "brÃ¦": 11177,
    "upon": 2723,
    "Ġwonders": 7500,
    "Ġchildish": 13140,
    "Ġcanals": 22166,
    "Ġrestoration": 19028,
    "Ġungodly": 26515,
    "Ġtucked": 12396,
    "beaut": 8515,
    "4": 24,
    "Ġgiant": 13971,
    "Ġ106": 24414,
    "whispering": 26104,
    "thomas": 18220,
    "Ġencamp": 22804,
    "Ġgaining": 9495,
    "Ġirrad": 19095,
    "Ġmusky": 19385,
    "estone": 18364,
    "arity": 1300,
    "reproof": 25433,
    "Ġprodigious": 8057,
    "Ġdivide": 12115,
    "must": 3578,
    "Ġvalleys": 14922,
    "believing": 19465,
    "Ġpulled": 5660,
    "Ġflowed": 10374,
    "noon": 5037,
    "contact": 23730,
    "invisible": 17742,
    "ru": 481,
    "Ġsteep": 2889,
    "Ġwhe": 438,
    "Ġbrigs": 20325,
    "Ġshabby": 14114,
    "Ġrearing": 12683,
    "Ġhogarth": 25781,
    "Ġwhites": 21720,
    "Ġspies": 22132,
    "inois": 17740,
    "Ġ41": 24083,
    "Ġlurking": 11291,
    "Ġpersecutor": 26097,
    "Ġbount": 15572,
    "Ġsaluted": 14761,
    "Ġprodigies": 19796,
    "feeders": 25236,
    "Ġesc": 2254,
    "unct": 18157,
    "ils": 3182,
    "Ġsnugly": 17112,
    "Ġmischie": 22763,
    "Ġter": 2052,
    "O": 51,
    "Ġreplaced": 13075,
    "Ġmagnifying": 16325,
    "Ġmoodily": 19837,
    "Ġvexation": 10589,
    "Ġprodu": 1206,
    "Ġstilly": 25974,
    "Ġorigin": 4121,
    "fourth": 11330,
    "mat": 2199,
    "Ġric": 18212,
    "Ġenchant": 7185,
    "Ġsubfield": 11873,
    "Ġteneriffe": 26416,
    "Ġsuit": 5725,
    "Ġdelicious": 14795,
    "ante": 11725,
    "Ġw": 272,
    "inferences": 17741,
    "Ġearthy": 23715,
    "Ġentry": 11029,
    "ikes": 8087,
    "native": 17614,
    "lightened": 12069,
    "Ġspecially": 12002,
    "cano": 18842,
    "Ġravines": 25833,
    "Ġsparing": 22133,
    "could": 2871,
    "Ġatmosphere": 10899,
    "uracy": 1057,
    "Ġpreaching": 15930,
    "Ġ15": 9327,
    "Ġblasp": 14404,
    "Ġsymphony": 26534,
    "Ġattendance": 12186,
    "handsome": 13179,
    "Ġcalam": 13038,
    "Ġfragrant": 13100,
    "enstein": 5800,
    "Ġefficiently": 3856,
    "gs": 7338,
    "voy": 7145,
    "Ġmusical": 23896,
    "Ġbehave": 23301,
    "Ġbethinking": 25280,
    "Ġinspector": 6499,
    "Ġdiscount": 22783,
    "Ġamusements": 16915,
    "Ġbuff": 9175,
    "Ġwhipcord": 20098,
    "inks": 6869,
    "Ġimaginary": 11188,
    "hurried": 11355,
    "Ġprestige": 22240,
    "Ġmincer": 14369,
    "Ġconceit": 7295,
    "Ġsquare": 2397,
    "Ġrope": 4338,
    "Ġrescue": 13346,
    "ffic": 22155,
    "Ġcandour": 14675,
    "Ġburglar": 17357,
    "local": 22514,
    "Ġprotesting": 14744,
    "Ġplumber": 16088,
    "Ġther": 17780,
    "Ġwires": 21298,
    "Ġrepented": 23365,
    "nour": 20990,
    "whaler": 20312,
    "Ġtremble": 6906,
    "Ġconnections": 971,
    "vag": 8768,
    "_).": 5888,
    "Ġjoker": 22302,
    "Ġun": 423,
    "pierced": 26142,
    "bon": 13688,
    "Ġshag": 9254,
    "blue": 13697,
    "Ġstained": 11655,
    "igns": 8449,
    "meas": 7434,
    "angling": 14143,
    "Ġappend": 18358,
    "Ġguardians": 14946,
    "Ġnewcom": 16225,
    "Ġinvol": 1050,
    "Ġclimax": 25054,
    "leep": 4636,
    "ting": 1334,
    "dan": 17517,
    "Ġgouldings": 26189,
    "Ġacquaintance": 4134,
    "Ġpromises": 10403,
    "feature": 4408,
    "Ġarguments": 8037,
    "Ġprodigy": 19795,
    "Ġdent": 13909,
    "Ġneedle": 8275,
    "well": 1692,
    "Ġaffidavit": 20726,
    "Ġstriking": 6089,
    "Ġthyself": 6604,
    "divided": 25021,
    "Ġvacuous": 24344,
    "skinned": 25388,
    "Ġspy": 22127,
    "Ġinferior": 8366,
    "Ġfuss": 13908,
    "Ġwriggling": 15261,
    "Ġterminating": 23514,
    "Ġduly": 13354,
    "measureless": 20238,
    "Ġjiff": 22300,
    "Ġnut": 12652,
    "Ġpresuming": 16795,
    "eding": 7166,
    "Ġprivileges": 25135,
    "wrath": 23758,
    "Ġburst": 4380,
    "lections": 4753,
    "const": 5940,
    "Ġmounttop": 19981,
    "Ġboston": 22644,
    "Ġappetite": 12388,
    "Ġchuckled": 10650,
    "Ġpassive": 22844,
    "Ġneglected": 10380,
    "ively": 1273,
    "Ġsullen": 9160,
    "opard": 9294,
    "Ġdusk": 12331,
    "Ġcheek": 8581,
    "Ġvirginia": 13502,
    "Ġwarriors": 19726,
    "Ġsystematic": 5245,
    "Ġglu": 15672,
    "Ġimproved": 7657,
    "Ġthe": 270,
    "Ġrifts": 21979,
    "Ġe": 311,
    "Ġmaintained": 12940,
    "ciousness": 20819,
    "Ġbehind": 2807,
    "Ġequality": 16365,
    "Ġcuts": 14609,
    "Ġgoes": 3852,
    "Ġcirculating": 23376,
    "Ġushered": 18361,
    "Ġblocks": 6323,
    "Ġemployer": 19435,
    "isters": 11922,
    "Ġbrist": 14381,
    "Ġinevitable": 15171,
    "Ġ23": 13195,
    "Ġperilous": 7769,
    "Ġnourishment": 15196,
    "Ġdesolate": 10016,
    "Ġterribly": 10427,
    "ira": 3961,
    "Ġscruples": 15082,
    "Ġgrievances": 20650,
    "Ġdrugged": 12608,
    "Ġdiscuss": 9477,
    "Ġdin": 3627,
    "Ġhilarity": 20300,
    "Ġfrocks": 23926,
    "Ġdelightfully": 13161,
    "Ġgardiner": 3237,
    "Ġprows": 19891,
    "inously": 21189,
    "Ġcanaller": 25468,
    "Ġdisgrace": 7215,
    "Ġsetbacks": 11065,
    "meth": 11505,
    "problem": 25245,
    "Ġdignified": 15602,
    "Ġnay": 5711,
    "Ġsubsequent": 7659,
    "asy": 5296,
    "spin": 22731,
    "Ġconvention": 25547,
    "Ġmarshalled": 25316,
    "Ġshudder": 9053,
    "Ġminim": 1323,
    "Ġforswe": 21778,
    "Ġnoble": 3438,
    "Ġdevouring": 11862,
    "Ġshocked": 9404,
    "buoy": 7761,
    "uc": 1876,
    "Ġreven": 18031,
    ".*": 7331,
    "Ġtattooing": 15030,
    "Ġdominic": 25381,
    "Ġaccumulates": 2890,
    "Ġlinked": 15081,
    "Ġnonsensical": 21532,
    "projecting": 26074,
    "Ġconse": 21808,
    "Ġembraces": 19874,
    "metic": 14987,
    "Å": 134,
    "amb": 5723,
    "icates": 11620,
    "everlasting": 18774,
    "Ġsilently": 6895,
    "Ġtapers": 11554,
    "Ġsurmisings": 26595,
    "Ġscratching": 20372,
    "ĠâĢľ": 516,
    "Ġcamberwell": 25351,
    "Ġminutest": 14563,
    "Ġsuch": 796,
    "Ġstrugg": 3215,
    "grass": 23415,
    "inence": 15484,
    "reckoning": 25271,
    "Ġoar": 6238,
    "Ġfogs": 25283,
    "Ġbart": 17859,
    "ictions": 14229,
    "Ġocean": 3300,
    "direction": 17526,
    "Ġsurf": 19133,
    "Ġcopy": 10166,
    "Ġrambled": 20171,
    "Ġswart": 14437,
    "generosity": 23788,
    "ally": 530,
    "Ġdisguise": 10049,
    "Ġmeets": 7396,
    "lifted": 15390,
    "iracle": 11246,
    "Ġtradeoff": 2659,
    "operation": 13503,
    "playful": 24357,
    "per": 480,
    "Ġdishon": 12235,
    "Ġep": 7384,
    "ructive": 18545,
    "Ġtopmost": 14589,
    "Ġquies": 18465,
    "Ġfl": 1280,
    "smo": 10128,
    "transform": 8050,
    "sartain": 25623,
    "Ġpostponed": 20393,
    "Ġtracing": 18891,
    "Ġarm": 2494,
    "Ġspeedily": 7712,
    "Ġeliza": 6438,
    "Ġunceasingly": 20362,
    "Ġprey": 6416,
    "Ġori": 8410,
    "hement": 13835,
    "Ġmethodic": 23109,
    "Ġinstrum": 6056,
    "Ġdigging": 14941,
    "Ġsage": 17754,
    "dred": 2528,
    "anely": 17838,
    "Ġross": 2765,
    "reve": 12544,
    "mis": 4522,
    "Ġaust": 4872,
    "people": 7677,
    "Ġted": 13815,
    "stir": 12679,
    "blown": 25202,
    "pag": 11513,
    "tranquillity": 20549,
    "determination": 19948,
    "ah": 1832,
    "onse": 21252,
    "Ġfelicity": 7260,
    "Ġorph": 9720,
    "Ġencouraging": 2265,
    "beings": 12882,
    "Ġvillains": 14752,
    "Ġparsee": 6414,
    "Ġflorid": 17138,
    "bro": 4036,
    "imod": 15714,
    "Ġgr": 976,
    "englishman": 23680,
    "Ġhandles": 22700,
    "Ġtribes": 20484,
    "Ġsmut": 22560,
    "ressed": 3025,
    "Ġseasoned": 24405,
    "Ġinfant": 11965,
    "Ġheadlands": 22900,
    "rusted": 16509,
    "Ġapparently": 6779,
    "build": 12192,
    "Ġgrows": 4985,
    "ĠĠĠĠĠĠĠ": 7633,
    "Ġentra": 18698,
    "Ġfavours": 23284,
    "inguished": 6600,
    "Ġfonder": 17882,
    "middle": 11312,
    "Ġcall": 2076,
    "Ġchristendom": 16696,
    "ys": 3963,
    "oning": 7572,
    "Ġeating": 8136,
    "Ġtalker": 23374,
    "ows": 1917,
    "Ġviolently": 6457,
    "violence": 16480,
    "Ġa": 263,
    "Ġghostly": 24651,
    "cannib": 11907,
    "Ġapril": 13665,
    "Ġinspire": 12000,
    "ordinate": 12881,
    "Ġowning": 18746,
    "Ġinsatiate": 19272,
    "Ġenormity": 19698,
    "armon": 23062,
    "Ġyet": 1029,
    "Ġdesert": 6729,
    "Ġgroups": 3719,
    "start": 7599,
    "bale": 20776,
    "transition": 24513,
    "Ġannealing": 1556,
    "Ġboom": 9313,
    "Ġcannib": 6037,
    "ched": 1548,
    "tiest": 21084,
    "Ě": 219,
    "les": 1018,
    "ot": 346,
    "Ġmus": 3393,
    "Ġyounge": 16291,
    "following": 10575,
    "jointed": 24013,
    "Ġrecommend": 7104,
    "Ġsimultaneous": 22591,
    "occurred": 13341,
    "Ġsymbol": 7717,
    "Ġappellation": 22221,
    "Ġplot": 14283,
    "Ġruefully": 17304,
    "Ġaskance": 23153,
    "Ġresol": 2667,
    "ortunities": 15944,
    "Ġchair": 3663,
    "Ġalways": 1697,
    "ike": 5000,
    "Ġresume": 18566,
    "thoroughly": 26510,
    "Ġrounded": 14441,
    "Ġcoast": 4657,
    "willingly": 11987,
    "Ġbarrowful": 25596,
    "Ġsituated": 9451,
    "isl": 21378,
    "Ġmembrane": 20507,
    "asht": 4086,
    "Ġvocation": 10528,
    "Ġdisquis": 22531,
    "Ġclassify": 1648,
    "Ġunexplored": 26520,
    "sit": 13783,
    "Ġfault": 5702,
    "ĠâĢĺ": 1631,
    "Ġreal": 1634,
    "ahead": 12438,
    "Ġdiversity": 25285,
    "turner": 19544,
    "description": 11096,
    "oper": 7347,
    "Ġexploring": 4304,
    "Ġdeferred": 18827,
    "Ġchinese": 14186,
    "woods": 13422,
    "Ġhawaiian": 25367,
    "remes": 21240,
    "Ġjeroboam": 10603,
    "Ġascend": 9963,
    "Ġlivelong": 25512,
    "Ġvulgarity": 25364,
    "Ġvillages": 14751,
    "Ġlustre": 15138,
    "continue": 16863,
    "Ġsupplied": 8946,
    "Ġcommunity": 19011,
    "Ġattorney": 18628,
    "Ġcoloured": 11047,
    "Ġtram": 11093,
    "reflection": 13458,
    "Ġobsolete": 26560,
    "Ġtens": 17725,
    "Ġexhib": 6351,
    "Ġsentiments": 7961,
    "non": 9614,
    "Ġchamp": 18382,
    "acle": 4717,
    "Ġimpartial": 15223,
    "Ġramad": 8531,
    "Ġsub": 949,
    "Ġcopper": 7425,
    "Ġparched": 11731,
    "innocent": 20289,
    "Ġdropped": 4472,
    "Ġblacksmiths": 19875,
    "heaved": 21213,
    "Ġ----": 7146,
    "Ġhatchways": 24990,
    "Ġdevilish": 11230,
    "Ġdive": 10175,
    "Ġsuffocated": 20730,
    "boats": 6206,
    "Ġtreatment": 12076,
    "Ġpositional": 2598,
    "Ġasiatics": 20434,
    "Ġpitch": 5767,
    "cock": 12030,
    "Ġafforded": 8029,
    "Ġlxi": 21564,
    "doubtless": 17004,
    "insult": 16283,
    "Ġhanging": 5447,
    "Ġaugmented": 15109,
    "Ġbegins": 7244,
    "best": 6113,
    "Ġlonging": 14304,
    "Ġdiscre": 2417,
    "savage": 15079,
    "Ġautonom": 10417,
    "Ġvessel": 3797,
    "acked": 10975,
    "Ġdank": 21431,
    "Ġgrasped": 8034,
    "lue": 8511,
    "atible": 17774,
    "ooped": 17625,
    "Ġcontract": 18476,
    "inable": 11558,
    "Ġsinews": 20290,
    "noted": 22752,
    "Ġnearer": 5303,
    "Ġasc": 4766,
    "Ġmur": 2491,
    "somewhere": 12017,
    "Ġuntil": 2669,
    "Ġanswered": 2851,
    "exhibited": 18478,
    "Ġdecay": 1015,
    "Ġendeared": 26500,
    "Ġvulgar": 13607,
    "dles": 11483,
    "shriek": 20523,
    "pans": 13773,
    "Ġcentral": 7728,
    "proper": 7471,
    "Ġbaptized": 25775,
    "ifferent": 4262,
    "Ġdecomposition": 5343,
    "Ġdepression": 21845,
    "Ġincumbent": 16066,
    "ve": 323,
    "acetty": 24464,
    "Ġdepends": 1111,
    "astic": 1868,
    "obli": 23098,
    "Ġho": 1932,
    "Ġunlikely": 10910,
    "thrasher": 25659,
    "Ġanger": 5442,
    "ase": 1159,
    "Ġsoda": 25535,
    "feelings": 5674,
    "strange": 6087,
    "Ġbubbles": 11400,
    "Ġsleet": 8978,
    "enter": 7858,
    "Ġtraces": 7946,
    "Ġconfounded": 16387,
    "imony": 12696,
    "ord": 665,
    "Ġire": 12675,
    "tru": 10731,
    "Ġunde": 11716,
    "Ġpraises": 16732,
    "embedding": 20360,
    "Ġhook": 6454,
    "retreat": 23142,
    "ountain": 2918,
    "Ġmargaret": 10379,
    "Ġshri": 5375,
    "shunned": 22464,
    "Ġleaders": 16630,
    "Ġrestless": 10415,
    "added": 11662,
    "Ġdeduction": 14904,
    "door": 6195,
    "Ġcopying": 17069,
    "charitable": 23936,
    "Ġrider": 24187,
    "ping": 9618,
    "Ġintegration": 9871,
    "Ġpace": 9186,
    "quest": 4539,
    "Ġaccost": 12851,
    "Ġpronounced": 8351,
    "Ġinco": 14262,
    "Ġclients": 19735,
    "Ġdiverted": 14594,
    "Ġsincere": 11138,
    "recogn": 13428,
    "Ġbor": 5805,
    "Ġhedges": 19988,
    "shape": 10984,
    "Ġfearlessness": 19163,
    "few": 8205,
    "indignation": 18439,
    "Ġpurchas": 19876,
    "Ġmoluccas": 25630,
    "ement": 1499,
    "tenham": 16326,
    "umbered": 22121,
    "Ġconvers": 2907,
    "Ġsummers": 23875,
    "Ġowes": 20088,
    "lingering": 18602,
    "footman": 17165,
    "Ġfunctional": 3050,
    "necessities": 24308,
    "Ġcomfort": 3437,
    "aws": 8237,
    "Ġstates": 1852,
    "Ġoccupant": 16654,
    "Ġbelie": 14411,
    "eled": 2358,
    "Ġbristol": 14383,
    "loom": 18536,
    "Ġmode": 8502,
    "Ġtre": 2538,
    "athed": 7828,
    "warp": 17708,
    "Ġarbitrary": 4737,
    "menced": 23149,
    "ight": 403,
    "usages": 22294,
    "gunwale": 20665,
    "cong": 10691,
    "Ġsmart": 11819,
    "Ġundoubtedly": 8313,
    "Ġpopulation": 16829,
    "Ġambiguous": 20167,
    "leading": 15566,
    "Ġdart": 4586,
    "Ġthence": 8885,
    "Ġvortex": 26210,
    "finger": 10096,
    "Ġnervously": 19186,
    "university": 25984,
    "mist": 5686,
    "Ġcomputing": 2219,
    "Ġprank": 23220,
    "Ġmutineer": 19421,
    "Ġin": 291,
    "pop": 17633,
    "unbounded": 21889,
    "flinging": 20870,
    "Ġdecanting": 22447,
    "urn": 777,
    "Ġgrampus": 21997,
    "otes": 15748,
    "Ġabundance": 17158,
    "thyself": 19300,
    "Ġcapting": 23022,
    "Ġspell": 8859,
    "thread": 15830,
    "Ġfatal": 5873,
    "Ġtobacc": 7853,
    "Ġamend": 16039,
    "corn": 13703,
    "Ġclock": 9536,
    "Ġstrict": 7222,
    "Ġgnashed": 20136,
    "Ġjonah": 3479,
    "Ġhorror": 3771,
    "Ġcolleg": 22861,
    "Ġbread": 5404,
    "Ġimpul": 7208,
    "Ġscowl": 22289,
    "Ġbenchmarks": 15024,
    "Ġramble": 9317,
    "Ġcoarse": 14277,
    "Ġcalf": 16271,
    "Ġchemistry": 11462,
    "wickham": 5885,
    "Ġghastly": 10063,
    "Ġdiv": 3731,
    "Ġroarings": 25303,
    "Ġamusement": 8056,
    "Ġrelinqu": 12987,
    "Ġpatagon": 14493,
    "Ġamidst": 9497,
    "Ġdost": 7637,
    "Ġske": 4816,
    "Ġtore": 6532,
    "Ġconscious": 7744,
    "rael": 21632,
    "buried": 14852,
    "Ġreserve": 9974,
    "Ġburke": 19253,
    "Ġunreasonable": 12783,
    "Ġadditionally": 1174,
    "success": 6712,
    "this": 1439,
    "Ġrush": 5926,
    "interval": 7991,
    "box": 5749,
    "Ġlethargy": 26485,
    "_;": 6643,
    "culiar": 2820,
    "headed": 4318,
    "way": 766,
    "ato": 17771,
    "Ġhundred": 2695,
    "Ġklux": 22199,
    "presently": 9810,
    "love": 9297,
    "Ġresponsible": 9890,
    "Ġremoving": 12121,
    "surface": 10533,
    "Ġfuel": 13907,
    "Ġflo": 2589,
    "covery": 11173,
    "Ġmeat": 8152,
    "ounted": 5030,
    "Ġphilosophers": 10554,
    "rudence": 7094,
    "Ġquieted": 23845,
    "Ġobli": 9319,
    "Ġinspecting": 24614,
    "Ġetext": 23953,
    "Ġalbertus": 25649,
    "clothes": 9060,
    "insurance": 18889,
    "bott": 9109,
    "Ġtur": 2566,
    "Ġbroke": 5323,
    "itated": 4441,
    "Ġdecomposes": 5506,
    "Ġchaldee": 26236,
    "bb": 2800,
    "conf": 4957,
    "ition": 652,
    "Ġsam": 7569,
    "grad": 2569,
    "regarding": 15075,
    "they": 1879,
    "sure": 5522,
    "humiliation": 24024,
    "unfort": 21880,
    "Ġnasty": 17446,
    "reluct": 26164,
    "susceptible": 24662,
    "Ġresulting": 24201,
    "Ġepicures": 25880,
    "¤": 102,
    "?_": 8070,
    "Ġascended": 8669,
    "stealthily": 23965,
    "Ġsolomon": 11054,
    "geese": 22371,
    "uge": 4019,
    "rity": 13779,
    "Ġdisconcerted": 18563,
    "Ġrigged": 16719,
    "Ġsimpler": 2049,
    "Ġinsult": 6749,
    "Ġrepairs": 19085,
    "Ġsegment": 12763,
    "lar": 4484,
    "slack": 16896,
    "Ġopium": 8997,
    "octial": 20008,
    "shortly": 12263,
    "bucket": 17496,
    "Ġevalu": 2932,
    "ambition": 13414,
    "Ġtinged": 20086,
    "asse": 15649,
    "Ġdeformity": 11679,
    "rer": 3624,
    "contempl": 13194,
    "Ġenveloped": 12213,
    "Ġedd": 8398,
    "Ġrepeating": 11215,
    "Ġcompany": 3721,
    "Ġentailed": 11030,
    "Ġwounded": 8661,
    "Ġunexpectedly": 19911,
    "Ġhas": 825,
    "Ġlabor": 10420,
    "pet": 4868,
    "Ġconspicuous": 13606,
    "Ġunfrequent": 24111,
    "Ġpuffed": 14980,
    "Ġyoun": 1407,
    "Ġdepos": 11010,
    "Ġoffensive": 18697,
    "igations": 18045,
    "Ġseriously": 7063,
    "i": 77,
    "Þ": 159,
    "Ġholland": 10368,
    "ontory": 10461,
    "Ġinhabit": 5782,
    "Ġemail": 19074,
    "gods": 13370,
    "shipmates": 11932,
    "intelligent": 16846,
    "Ġfreedom": 9085,
    "Ġbudge": 15168,
    "Ġblasted": 7938,
    "izure": 21838,
    "Ġlighting": 13086,
    "Ġezek": 18012,
    "Ġunfrequently": 20741,
    "Ġcharges": 23271,
    "Ġmimic": 3144,
    "Ġcompos": 22573,
    "Ġthings": 1964,
    "bre": 3982,
    "hammered": 19006,
    "Ġentreated": 9954,
    "Ġfetched": 24568,
    "Ġfritters": 23259,
    "Ġglaring": 11912,
    "Ġphilosop": 5057,
    "tashtego": 9625,
    "Ġperv": 15994,
    "Ġquebec": 24134,
    "cain": 15329,
    "vengeance": 13360,
    "sander": 11529,
    "Ġfood": 5080,
    "Ġleviathan": 3285,
    "Ġdumbly": 24988,
    "Ġblurred": 22934,
    "satisf": 5781,
    "Ġterminated": 23513,
    "Ġalphabetical": 17204,
    "Ġwheel": 9721,
    "puted": 8850,
    "eliest": 14749,
    "Ġcompanions": 5867,
    "ĭ": 238,
    "spirit": 11315,
    "re": 266,
    "Ġmemorand": 23461,
    "annica": 24562,
    "exercise": 17462,
    "Ġdeference": 10884,
    "enjoyment": 17260,
    "vest": 6232,
    "Ġlaz": 7378,
    "Ġraise": 6168,
    "mentioning": 24886,
    "distance": 12157,
    "Ġpawnbroker": 13661,
    "Ġexquis": 9703,
    "Ġomitted": 12569,
    "ourable": 4967,
    "Ġplanisp": 24061,
    "Ġserved": 8246,
    "tender": 14477,
    "imprudence": 16560,
    "Ġbegin": 3099,
    "ignorance": 17164,
    "since": 5896,
    "Ġhackney": 20436,
    "Ġincul": 22553,
    "Ġringle": 18213,
    "Ġalb": 14019,
    "Ġlascar": 9202,
    "Ġrid": 4354,
    "Ġtropics": 17067,
    "Ġsummons": 13235,
    "ada": 14014,
    "Ġaquiline": 26160,
    "murder": 10567,
    "Ġpillows": 24989,
    "ć": 200,
    "Ġtangles": 25762,
    "engagements": 25855,
    "Ġsculpture": 26017,
    "icated": 7591,
    "Ġsidelong": 11440,
    "Ġbrighton": 6471,
    "windward": 24162,
    "Ġinadequate": 17939,
    "Ġoftener": 13568,
    "unreasonable": 18165,
    "Ġleading": 7297,
    "tick": 17680,
    "augh": 1784,
    "teous": 16177,
    "os": 524,
    "Ġsor": 4147,
    "ancho": 4938,
    "worth": 8630,
    "Ġseals": 11701,
    "Ġgable": 15671,
    "Ġoverpowering": 15253,
    "Ġcracking": 14576,
    "Ġcontinents": 16851,
    "Ġfanned": 19101,
    "Ġhumor": 11053,
    "manif": 14376,
    "scythes": 26404,
    "orrah": 17877,
    "Ġmarchant": 14788,
    "Ġpractises": 23331,
    "customary": 25896,
    "circ": 4388,
    "resemblance": 25934,
    "flesh": 13493,
    "Ġowen": 15098,
    "Ġwarming": 23559,
    "Ġagreeing": 20022,
    "Ġregarded": 5762,
    "regularization": 3515,
    "Ġpaddock": 25040,
    "Ġharbor": 10030,
    "jam": 15375,
    "Ġrokovoko": 22409,
    "Ġamazement": 7765,
    "twelvemonth": 25863,
    "Ġspecial": 2103,
    "Ġcetacea": 20556,
    "faith": 15027,
    "pp": 384,
    "Ġnameless": 7700,
    "Ġahoy": 12189,
    "contents": 12062,
    "Ġperhaps": 1909,
    "anting": 6413,
    "remediable": 26296,
    "Ġrigging": 5601,
    "Ġhap": 18196,
    "Ġfielding": 16234,
    "Ġacquaint": 13049,
    "page": 13775,
    "Ġwealth": 7621,
    "Ġprevents": 2558,
    "urp": 1471,
    "Ġfootfalls": 25867,
    "Ġmule": 13865,
    "Ġloss": 823,
    "Ġclaimed": 14205,
    "der": 469,
    "Ġate": 8844,
    "oriented": 2948,
    "pilot": 25909,
    "Ġtongue": 6349,
    "Ġsprinkled": 19500,
    "Ã¦us": 14819,
    "grey": 14915,
    "Ġlovely": 4711,
    "Ġadaptive": 1370,
    "pitchpoling": 25725,
    "Ġra": 824,
    "Ġhog": 13927,
    "calcul": 12991,
    "Ġbubblingly": 25633,
    "Ġdistressing": 12223,
    "ascertain": 21546,
    "Ġgentlemanly": 19318,
    "Ġreturned": 2891,
    "ime": 626,
    "Ġneighbor": 25804,
    "Ġunf": 4091,
    "rug": 18345,
    "Ġdemanding": 16807,
    ")âĢĶâĢľ": 20745,
    "ard": 465,
    "Ġthread": 14541,
    "Ġdespondence": 25870,
    "Ġdesired": 4666,
    "Ġtiar": 21170,
    "._)": 10483,
    "tering": 3805,
    "hundred": 8331,
    "creature": 5347,
    "Ġsole": 3294,
    "idelburgh": 10564,
    "Ġunseen": 3524,
    "iciously": 17976,
    "Ġborne": 6353,
    "arent": 4249,
    "Ġalluded": 7885,
    "Ġgreat": 896,
    "Ġsuav": 22080,
    "Ġfluctuations": 5516,
    "anthrop": 17385,
    "Ġenv": 2841,
    "Ġhieroglyphics": 17306,
    "lim": 9609,
    "Ġfired": 16157,
    "Ġcod": 8413,
    "Ġuncork": 23432,
    "commun": 15036,
    "Ġearning": 23944,
    "Ġcutting": 4983,
    "Ġproprietors": 20189,
    "dwelt": 23873,
    "mens": 20971,
    "Ġfiery": 6871,
    "Ġwavering": 23283,
    "ards": 2506,
    "Ġsumatra": 15290,
    "rapidly": 15247,
    "ifference": 5632,
    "Ġproxim": 3199,
    "Ġhermit": 15861,
    "Ġthousand": 2781,
    "Ġvancouver": 26567,
    "Ġmillar": 13864,
    "Ġedges": 3824,
    "Ġaudio": 24771,
    "Ġdeceased": 15008,
    "Ġdistur": 5313,
    "Ġspilled": 10926,
    "Ġturbulence": 26599,
    "embarr": 17295,
    "onsense": 6432,
    "Ġunmanner": 22033,
    "dress": 17522,
    "ourably": 14378,
    "Ġobjective": 3764,
    "Ġvilest": 20104,
    "ail": 566,
    "narrow": 11510,
    "gered": 9279,
    "Ġburial": 16525,
    "Ġhastily": 5763,
    "news": 23137,
    "Ġhissing": 15794,
    "Ġmillions": 11356,
    "Ġstuff": 5717,
    "jack": 7344,
    "Ġemac": 16410,
    "Ġwhilst": 9221,
    "Ġforms": 6398,
    "Ġahead": 6665,
    "Ġsands": 14951,
    "enge": 21283,
    "deadly": 17101,
    "Ġdiscriminative": 4327,
    "Ġescape": 2646,
    "popular": 26141,
    "nals": 16402,
    "bib": 17494,
    "Ġhobbling": 25645,
    "zy": 2671,
    "....": 11318,
    "pense": 10371,
    "Ġknitting": 24221,
    "Ġmilky": 9950,
    "Ġcircum": 8258,
    "jephro": 26394,
    "knows": 19174,
    "Ġdeliverance": 15161,
    "Ġpresto": 22234,
    "Ġreflections": 5948,
    "rig": 7556,
    "elephant": 12355,
    "eck": 20846,
    "Ġvegetables": 15225,
    "hind": 20896,
    "Ġerudite": 26353,
    "Ġmuttered": 7088,
    "Ġforbear": 17124,
    "Ġpassionately": 16766,
    "ahit": 9385,
    "uncle": 8159,
    "Ġexplicit": 3590,
    "Ġdisconsol": 18558,
    "buttoned": 13635,
    "relieved": 13280,
    "Ġgallery": 10527,
    "Ġimputation": 22176,
    "Ġanalogical": 25641,
    "Ġwill": 676,
    "returning": 12210,
    "browed": 25895,
    "dismay": 19156,
    "í": 174,
    "Ġmyster": 5927,
    "deav": 2675,
    "Ġloc": 10916,
    "15": 12434,
    "Ġretiring": 16284,
    "getic": 12971,
    "Ġevening": 2653,
    "Ġquestion": 2777,
    "Ġprodigiously": 14935,
    "iour": 4039,
    "Ġhighlands": 22779,
    "Ġmuse": 13863,
    "atiously": 15525,
    "Ġruggedness": 26270,
    "ker": 5792,
    "Ġhis": 380,
    "Ġexpansion": 22627,
    "Ġmiguel": 25767,
    "Ġsenior": 17174,
    "Ġsupre": 10271,
    "atigable": 15274,
    "Ġbed": 2151,
    "breckinridge": 24078,
    "apers": 3480,
    "prof": 7699,
    "Ġtransparent": 9492,
    "Ġhumming": 12990,
    "Ġjacket": 6490,
    "Ġdecent": 10980,
    "Ġhoney": 12638,
    "Ġmiles": 3802,
    "Ġtouch": 3392,
    "Ġheavier": 13105,
    "Ġdecently": 22446,
    "Ġincredulous": 9990,
    "Ġrejoinder": 24598,
    "Ġdimly": 9491,
    "Ġequals": 4728,
    "Ġrainbows": 19651,
    "Ġtawny": 20485,
    "jud": 4482,
    "Ġkiller": 19571,
    "Ġformidable": 8220,
    "charge": 9452,
    "f": 74,
    "Ġoffend": 16148,
    "Ġwelded": 9574,
    "Ġ[\"": 19933,
    "fulfil": 16040,
    "bos": 17486,
    "set": 3866,
    "enary": 12556,
    "Ġunpleasant": 7191,
    "rear": 21235,
    "Ġbelow": 4063,
    "Ġtesting": 23200,
    "Ġdepressions": 25799,
    "sweeping": 24619,
    "Ġmadam": 5663,
    "Ġimprove": 1910,
    "Ġill": 2193,
    "Ġnavies": 16902,
    "Ġfitly": 24002,
    "watery": 19829,
    "Ġarve": 15897,
    "Ġassur": 6075,
    "Ġrap": 14310,
    "Ġconsecrate": 26491,
    "Ġlounged": 19957,
    "Ġmun": 12567,
    "Ġentertaining": 16928,
    "Ġheadsman": 13278,
    "Ġhears": 8139,
    "Ġovercome": 6045,
    "Ġidentical": 10436,
    "Ġobliv": 16137,
    "Ġrome": 12160,
    "Ġthreshold": 2808,
    "beds": 16624,
    "Ġmanly": 22328,
    "Ġeternal": 5977,
    "Ġcompar": 4772,
    "Ġraft": 16121,
    "except": 5383,
    "Ġinhabitants": 7524,
    "âĢľ_": 5720,
    "Ġpronouncing": 16971,
    "Ġletters": 3791,
    "Ġaccording": 5508,
    "Ġdesolated": 24809,
    "Ġskull": 6290,
    "Ġque": 4160,
    "groom": 8743,
    "Ġsensible": 4976,
    "Ġfar": 1448,
    "Ġbelted": 22953,
    "Ġunconscious": 9550,
    "take": 4577,
    "Ġpersuaded": 5769,
    "Ġsouthern": 7689,
    "Ġwicked": 5962,
    "Ġmacey": 12568,
    "ractions": 11636,
    "Ġold": 1059,
    "Ġclimb": 15083,
    "Ġspark": 6691,
    "condesc": 18506,
    "ages": 827,
    "berries": 22750,
    "Ġnewspapers": 17189,
    "Ġintervened": 25482,
    "Ġcarry": 4780,
    "Ġforgiven": 24030,
    "Ġexpedite": 24956,
    "ĠĠĠĠĠĠĠĠĠĠĠĠĠĠĠĠĠĠĠĠĠĠĠĠĠĠĠĠĠĠĠĠĠĠĠĠĠĠĠĠĠĠ": 24212,
    "what": 643,
    "Ġalt": 18101,
    "lives": 12490,
    "Ġago": 3136,
    "Ġfervently": 25878,
    "rally": 17653,
    "Ġfixing": 13159,
    "Ġsane": 21224,
    "Ġstudies": 7956,
    "unctions": 18158,
    "Ġsy": 492,
    "icest": 21567,
    "prim": 23813,
    "enges": 13058,
    "Ġcountess": 11968,
    "Ġstatistical": 11106,
    "weather": 7229,
    "Ġpunctually": 17141,
    "Ġclubbed": 26549,
    "Ġequin": 14498,
    "Ġpolitical": 19226,
    "Ġpleasures": 11144,
    "Ġequally": 5258,
    "Ġpam": 21457,
    "oqu": 7555,
    "Ġbreeds": 23351,
    "Ġspe": 821,
    "Ġfool": 4235,
    "Ġfable": 15581,
    "fal": 17538,
    "Ġvict": 3761,
    "Ġfemin": 13439,
    "Ġinanimate": 13936,
    "Ġ1846": 26085,
    "striving": 24670,
    "Ġslammed": 20451,
    "Ġannoyed": 17202,
    "antucket": 2643,
    "Ġmasoned": 20254,
    "furniture": 20245,
    "Ġsomeone": 6705,
    "xology": 21144,
    "Ġyoked": 15739,
    "Ġhospitals": 24924,
    "Ġanywhere": 8519,
    "Ġtig": 13816,
    "Ġungrateful": 14124,
    "Ġabated": 18391,
    "oso": 12836,
    "Ġbored": 16109,
    "Ġtrap": 7672,
    "clair": 18935,
    "roll": 9199,
    "Ġend": 1473,
    "Ġunmo": 12779,
    "Ġopposite": 5120,
    "Ġbishop": 13905,
    "Ġcreeping": 18683,
    "Ġvanity": 7047,
    "Ġhasty": 10479,
    "Ġpenalty": 1840,
    "cherish": 24552,
    "Ġ126": 24471,
    "companions": 15026,
    "Ġpressing": 9264,
    "pr": 3175,
    "Ġlimped": 19183,
    "okingly": 22385,
    "Ġclothed": 19609,
    "ca": 20795,
    "ipelagoes": 13675,
    "otently": 21804,
    "Ġjunk": 15957,
    "Ġbeside": 5192,
    "Ġclin": 14204,
    "andering": 21871,
    "Ġlavenza": 17973,
    "orph": 21402,
    "mass": 12494,
    "Ġimmens": 9942,
    "Ġpossible": 2586,
    "emper": 18188,
    "Ġbes": 2662,
    "treas": 17681,
    "elopement": 23187,
    "ter": 359,
    "Ġspoke": 2748,
    "hall": 8085,
    "Ġcoronet": 6346,
    "Ġcondensed": 24056,
    "Ġaforethought": 25429,
    "Ġgamesome": 17292,
    "Ġlip": 6534,
    "Ġmusket": 12300,
    "Ġprosperity": 20260,
    "possessed": 9531,
    "Ġfamine": 16332,
    "male": 15392,
    "Ġtimorous": 24228,
    "Ġnightgown": 23136,
    "ributed": 8215,
    "Ġjoyous": 14666,
    "ost": 5361,
    "Ġperiodically": 19497,
    "representing": 25272,
    "avings": 12027,
    "vel": 2386,
    "abern": 21794,
    "globe": 25145,
    "Ġ51": 24316,
    "Ġbuoyant": 13534,
    "sing": 5138,
    "Ġdisse": 18549,
    "obed": 14449,
    "Ġfolk": 10378,
    "sa": 8760,
    "Ġfactory": 23280,
    "Ġdolphins": 20399,
    "Ġdespite": 19356,
    "pudding": 17649,
    "Ġfurnish": 9022,
    "Ġentering": 6287,
    "Ġdotted": 16794,
    "Ġshutters": 9940,
    "Ġflatt": 16249,
    "Ġcolonies": 14379,
    "ear": 8734,
    "Ã": 132,
    "Ġrecognised": 8998,
    "âĢĻ-": 18169,
    "venor": 16101,
    "Ġsires": 21229,
    "Ġbubbling": 17329,
    "Ġregularly": 7658,
    "daugh": 6789,
    "Ġ115": 24439,
    "Ġbrisk": 9806,
    "barrels": 15044,
    "scap": 22993,
    "lever": 2931,
    "ench": 21282,
    "Ġshuddering": 9054,
    "Ġwherefore": 8527,
    "Ġceases": 19315,
    "Ġstreaming": 19676,
    "hic": 3246,
    "Ġdir": 21424,
    "oled": 17621,
    "Ġcompre": 4450,
    "Ġcommons": 22675,
    "aths": 22704,
    "Ġsenor": 20153,
    "Ġaerial": 21201,
    "Ġvexatious": 19784,
    "weekly": 25685,
    "Ġjaws": 5593,
    "Ġobstinacy": 17424,
    "Ġsang": 12540,
    "ootiful": 17376,
    "Ġswitching": 23060,
    "ke": 429,
    "Ġentrances": 25836,
    "cabin": 8363,
    "Ġstabilizing": 3658,
    "Ġsympathies": 14864,
    "angry": 18295,
    "Ġelsewhere": 7713,
    "Ġhereditarily": 25225,
    "unimportant": 18162,
    "firm": 10700,
    "Ġassume": 10518,
    "Ġsable": 15503,
    "agues": 8161,
    "sculptured": 26047,
    "inions": 8403,
    "nur": 11508,
    "straight": 9943,
    "Ġvehicle": 20141,
    "Ġbagging": 24539,
    "morland": 24155,
    "many": 5251,
    "Ġgrammars": 11404,
    "Ġwildly": 9417,
    "trimmed": 23952,
    "impressions": 20701,
    "programming": 10066,
    "Ġorder": 1685,
    "Ġindispensable": 11906,
    "thanking": 24326,
    "royal": 11395,
    "Ġcler": 11774,
    "animation": 16981,
    "Ġharvard": 24574,
    "Ġpan": 5082,
    "Ġimagine": 3925,
    "Ġadmitting": 19185,
    "tart": 21070,
    "Ġtried": 3649,
    "Ġresounded": 22548,
    "Ġwint": 15536,
    "Ġwanting": 6723,
    "Ġcharacter": 2794,
    "Ġpeeled": 14321,
    "Ġknocked": 9503,
    "trifling": 19417,
    "frightened": 17198,
    "Ġwhitting": 18058,
    "Ġgilt": 21609,
    "itar": 15551,
    "sulphur": 25910,
    "Ġfil": 3471,
    "snapping": 24850,
    "ullo": 12735,
    "Ġdug": 21433,
    "Ġkinds": 14506,
    "Ġmine": 3179,
    "experience": 17161,
    "volous": 18590,
    "blow": 9107,
    "Ġapproved": 16036,
    "Ġenc": 967,
    "icating": 15659,
    "Ġseam": 3910,
    "Ġtoilings": 24741,
    "she": 1397,
    "Ġorgans": 15869,
    "stripped": 16947,
    "Ġcocksure": 26260,
    "ts": 958,
    "Ġsteals": 23087,
    "anything": 5518,
    "Ġpunct": 8664,
    "Ġobscure": 9557,
    "Ġhumans": 8933,
    "Ġgodfre": 14531,
    "Ġde": 365,
    "Ġnurtured": 19752,
    "Ġborn": 5224,
    "Ġdedicated": 19204,
    "claps": 23156,
    "Ġ62": 24365,
    "ouement": 21451,
    "pursuit": 20343,
    "bald": 16446,
    "Ġporpoise": 7108,
    "Ġconqueror": 25797,
    "Ġconc": 1842,
    "Ġcircumnavigating": 25615,
    "asion": 5714,
    "ĠĊ": 12528,
    "Ġdwelling": 7322,
    "lights": 13208,
    "Ġnormalizing": 1820,
    "Ġassizes": 11110,
    "owl": 12689,
    "Ġordering": 18997,
    "upt": 13801,
    "Ġincomp": 12903,
    "Ġprotectors": 9073,
    "Ġabrupt": 9739,
    "Ġusher": 22226,
    "details": 19678,
    "Ġpositively": 13034,
    "Ġsharper": 17182,
    "sun": 7141,
    "Ġannoyance": 20664,
    "msman": 9273,
    "ermost": 7430,
    "Ġstrive": 23696,
    "Ġfancying": 12117,
    "Ġinference": 9674,
    "Ġcolouring": 16753,
    "Ġdu": 4585,
    "autumn": 23345,
    "Ġquestioned": 14621,
    "amiable": 14056,
    "Ġwillingness": 24911,
    "Ġsilence": 3265,
    "awing": 18917,
    "Ġgent": 7383,
    "Ġseventh": 18207,
    "Ġinquired": 7485,
    "bulwarks": 12277,
    "Ġdireful": 11020,
    "ercely": 12555,
    "olence": 10232,
    "allers": 22201,
    "Ġscrew": 8871,
    "Ġconcil": 23324,
    "Ġtoe": 13939,
    "men": 1484,
    "Ġshipmate": 8932,
    "Ġshifted": 14110,
    "tent": 21067,
    "Ġdint": 15595,
    "Ġconsequence": 5542,
    "Ġmultiplicity": 19277,
    "Ġsepul": 14093,
    "shipping": 10310,
    "Ġpreparing": 8651,
    "Ġnorthwards": 19549,
    "tawny": 26406,
    "Ġdived": 9180,
    "field": 3073,
    "akeman": 6269,
    "Ġbun": 6008,
    "Ġbiting": 17863,
    "mort": 10712,
    "Ġmari": 6814,
    "unable": 14062,
    "names": 16518,
    "Ġconfl": 11139,
    "Ġtrait": 23077,
    "tri": 11532,
    "Ġcont": 621,
    "yed": 3269,
    "Ġimpenetrable": 17401,
    "omited": 21644,
    "Ġbeaver": 18088,
    "Ġshades": 9466,
    "Ġflaming": 8567,
    "Ġencamped": 22805,
    "Ġwhistles": 24625,
    "Ġfamous": 5256,
    "Ġrejoice": 10211,
    "custom": 15336,
    "running": 6798,
    "Ġmute": 19419,
    "Ġsmiled": 5942,
    "Ġnarratives": 24353,
    "scra": 13026,
    "Ġmoonlight": 9961,
    "lucifer": 25302,
    "andes": 18154,
    "chat": 21689,
    "Ġlaugh": 4114,
    "Ġrug": 16161,
    "eneva": 5118,
    "Ġhing": 11607,
    "Ġpictures": 5503,
    "slee": 17171,
    "Ġrepulsive": 14532,
    "writhed": 26081,
    "ath": 861,
    "Ġdistributing": 22682,
    "Ġsurprised": 3828,
    "Ġtoilette": 20496,
    "Ġrevolut": 3255,
    "Ġmovement": 9971,
    "Ġbumping": 25281,
    "shaped": 10311,
    "Ġdegradation": 2630,
    "right": 2769,
    "Ġdislike": 6049,
    "Ġmagg": 18907,
    "Ġunpardonable": 22066,
    "Ġbeaten": 10531,
    "particip": 23618,
    "Ì": 141,
    "Ġexploded": 15913,
    "Ġgar": 10840,
    "Ġdeclines": 23966,
    "Ġintelligently": 4306,
    "ocris": 23711,
    "aby": 18109,
    "lit": 9608,
    "Ġnewly": 9341,
    "bureau": 20791,
    "Ġlengthwise": 10454,
    "Ġscores": 2716,
    "Ġpequod": 2323,
    "welcome": 10004,
    "pagan": 17288,
    "Ġsan": 7824,
    "Ġthereby": 7644,
    "Ġbreckinridge": 14525,
    "Ġcomparative": 10545,
    "Ġapplied": 6188,
    "ole": 9616,
    "Ġmuffled": 10643,
    "iod": 3839,
    "Ġruffled": 25837,
    "time": 3147,
    "ind": 567,
    "og": 854,
    "Ġfrock": 10492,
    "Ġanimal": 2500,
    "Ġglowing": 12287,
    "Ġrabbit": 4288,
    "temper": 10007,
    "fainting": 20476,
    "Ġpatiently": 19920,
    "Ġarcher": 22183,
    "Ġdeserved": 7737,
    "Ġtreacherous": 13557,
    "ency": 3869,
    "Ġbasis": 16963,
    "Ġsupplying": 19801,
    "shell": 16290,
    "cross": 3576,
    "stranded": 19228,
    "Ġcautiously": 16979,
    "ric": 1376,
    "Ġoaken": 13868,
    "Ġuprising": 12808,
    "Ġwebster": 20164,
    "humored": 19456,
    "reposed": 24492,
    "ook": 21006,
    "windows": 19537,
    "Ġinclosed": 19541,
    "Ġferoc": 14900,
    "Ġaddition": 1144,
    "Ġrapture": 13498,
    "accomplishment": 20226,
    "Ġrudder": 25110,
    "moving": 11019,
    "Ġrevolutionized": 3363,
    "Ġtrod": 15029,
    "Ġpronounce": 16970,
    "mme": 22505,
    "aken": 1869,
    "Ġinvis": 6902,
    "Ġbeings": 2492,
    "Ġabusing": 18394,
    "Ġcolleague": 17162,
    "ental": 7169,
    "Ġassistants": 9455,
    "arb": 1565,
    "Ġhalyards": 21497,
    "ading": 5091,
    "Ġsec": 2077,
    "Ġhypotheses": 4386,
    "Ġfootpath": 19340,
    "Ġambition": 11434,
    "Ġpallidness": 25605,
    "rised": 10126,
    "Ġpropont": 16353,
    "lection": 3654,
    "Ġentr": 14343,
    "whiteness": 18371,
    "gish": 20875,
    "Ġwinc": 9645,
    "lish": 1953,
    "Ġpers": 1352,
    "Ġwatchman": 23671,
    "missing": 13223,
    "Ġeduc": 4786,
    "Ġmate": 3708,
    "coward": 13704,
    "Ġdecreases": 3406,
    "Ġceler": 15555,
    "Ġbold": 5293,
    "superior": 9528,
    "Ġallurements": 22013,
    "Ġbrutality": 26278,
    "Ġprivilege": 11421,
    "]]": 5205,
    "ander": 6402,
    "Ġrecollections": 10515,
    "Ġpython": 1071,
    "Ġcaut": 6522,
    "Ġobjections": 8568,
    "advance": 12161,
    "Ġproprietor": 12377,
    "Ġacquiesce": 20332,
    "Ġpaul": 12066,
    "sory": 17661,
    "we": 849,
    "Ġknives": 14840,
    "arken": 18668,
    "Ġwhitish": 24867,
    "elizabeth": 1988,
    "Ġcl": 553,
    "Ġcontrol": 13083,
    "Ġleadenhall": 16631,
    "Ġmetal": 9391,
    "bruary": 15239,
    "itan": 10162,
    "Ġvehemence": 26568,
    "wonders": 17146,
    "Ġmil": 4254,
    "although": 8810,
    "orm": 425,
    "Ġdaring": 8121,
    "enses": 10996,
    "party": 8995,
    "uring": 819,
    "ius": 5789,
    "Ġliving": 3065,
    "Ġbearded": 15731,
    "Ġalong": 1981,
    "Ġsensit": 2947,
    "Ġexpectantly": 23528,
    "vius": 23544,
    "Ġcrash": 12006,
    "Ġrover": 18457,
    "angs": 5835,
    "Ġcle": 1509,
    "Ġsolitudes": 22889,
    "revival": 26163,
    "Ġpolluted": 25594,
    "Ġmeditating": 20046,
    "tur": 5688,
    "Ġdolph": 12384,
    "etian": 13962,
    "unch": 14061,
    "chess": 16576,
    "complet": 11385,
    "itional": 22472,
    "Ġcalculated": 4476,
    "surprising": 16921,
    "Ġdrag": 6186,
    "Ġbob": 22642,
    "Ġste": 1389,
    "encountered": 20396,
    "Ġorganisation": 23585,
    "Ġfighting": 12202,
    "Ġfatt": 15583,
    "modesty": 22872,
    "itives": 17821,
    "Ġbritain": 16958,
    "dy": 4076,
    "Ġmarred": 23034,
    "Ġterm": 2269,
    "Ġdazed": 15600,
    "Ġemper": 9864,
    "talk": 6659,
    "Ġcomforters": 25801,
    "Ġrus": 14095,
    "Ġlooking": 2475,
    "Ġwheelbarrow": 17207,
    "Ġspoutings": 14678,
    "ä": 165,
    "hed": 671,
    "sticking": 21663,
    "vessel": 11379,
    "Ġour": 1011,
    "acles": 8522,
    "Ġskills": 1838,
    "Ġinnoc": 3793,
    "uvian": 12247,
    "Ġglit": 8563,
    "Ġclerks": 17298,
    "hil": 8379,
    "tor": 15435,
    "Ġapothe": 12379,
    "Ġmasts": 6466,
    "Ġcau": 13884,
    "Ġcheshire": 13093,
    "Ġpathways": 11155,
    "Â·": 21152,
    "Ġlevi": 3036,
    "Ġembarked": 17137,
    "Ġscheme": 7066,
    "Ġargument": 7100,
    "adagrad": 9694,
    "wondrous": 12342,
    "Ġmarvelled": 18874,
    "Ġdismissed": 12898,
    "under": 3132,
    "coast": 10451,
    "Ġdistinguished": 8273,
    "withdrawn": 23028,
    "Ġsecondly": 14519,
    "Ġseparately": 13306,
    "Ġfoster": 18991,
    "enterprise": 24995,
    "Ġsheaves": 22162,
    "_âĢĶâĢĿ": 20765,
    "Ġscrews": 25178,
    "Ġmagn": 1557,
    "Ġfemale": 8345,
    "atively": 2697,
    "Ġsold": 6004,
    "raised": 15683,
    "Ġcrews": 8993,
    "aders": 21762,
    "Ġafghan": 22630,
    "isis": 12585,
    "oping": 5559,
    "Ġbanquet": 15244,
    "hib": 15371,
    "oura": 1061,
    "body": 2307,
    "Ġlandowner": 23384,
    "Ġsustain": 10020,
    "Ġsher": 3762,
    "cred": 9111,
    "Ġcastors": 23979,
    "Ġspices": 22134,
    "Ġ1828": 25720,
    "perform": 15900,
    "sat": 4811,
    "Ġchronicler": 20232,
    "hetically": 21211,
    "Ġ500": 24324,
    "Ġwoollen": 12108,
    "Ġundisturbed": 19522,
    "justice": 7958,
    "uch": 877,
    "dinah": 20084,
    "'s": 2471,
    "Ġmor": 1250,
    "Ġploughed": 22609,
    "delirious": 19508,
    "whiskers": 12315,
    "lic": 17589,
    "asing": 5913,
    "seamen": 13629,
    "rd": 17651,
    "Ġwretch": 6379,
    "lengthwise": 19953,
    "Ġclumsy": 9582,
    "eric": 3469,
    "Ġancient": 5443,
    "Ġprogressive": 5024,
    "Ġemotion": 7690,
    "Ġmeditative": 25017,
    "method": 17287,
    "Ġflowing": 14417,
    "augment": 18830,
    "Ġproceed": 3241,
    "Ġrampart": 20321,
    "fierce": 25256,
    "Ġhunt": 6185,
    "Ġassembled": 9239,
    "Ġcham": 4893,
    "alarmed": 21506,
    "confess": 12180,
    "Ġshar": 9253,
    "Ġreceipt": 20358,
    "Ġaux": 21202,
    "Ġpicking": 11261,
    "Ġdistrustful": 25057,
    "Ġthrees": 23404,
    "Ġunass": 14117,
    "rapt": 13976,
    "Ġducks": 25161,
    "Ġfug": 12601,
    "cim": 8723,
    "metal": 24764,
    "Ġlances": 6985,
    "atha": 6574,
    "Ġcaptiv": 16258,
    "Ġashes": 7617,
    "wam": 10138,
    "reast": 17760,
    "Ġtahit": 10756,
    "semic": 21825,
    "Ġallowing": 2175,
    "says": 13303,
    "Ġlass": 15652,
    "Ġunsolved": 22037,
    "Ġstay": 3095,
    "Ġbought": 8417,
    "inclination": 20061,
    "Ġlingo": 24904,
    "Ġdecrease": 4201,
    "intended": 11068,
    "Ġlazy": 17051,
    "Ġnephews": 24712,
    "Ġfading": 15588,
    "Ġamuse": 5941,
    "owder": 8450,
    "Ġ/*": 10142,
    "critters": 14778,
    "Æ": 135,
    "Ġquitted": 5312,
    "Ġar": 479,
    "Ġconfirmation": 17213,
    "Ġsmacking": 20168,
    "Ġneville": 7399,
    "Ġaverse": 11082,
    "Ġresented": 22547,
    "Ġfret": 10808,
    "philosophy": 13583,
    "Ġlakeman": 6987,
    "Ġdarling": 12610,
    "become": 14249,
    "Ġhospitality": 13515,
    "unwittingly": 25802,
    "Ġsooty": 25816,
    "gradient": 2276,
    "treatment": 20415,
    "Ġsyn": 15918,
    "final": 19679,
    "rit": 21038,
    "Ġmaterially": 12196,
    "ancient": 9658,
    "opportunity": 12279,
    "kind": 3864,
    "Ġglut": 18855,
    "Ġquiver": 16007,
    "Ġii": 7385,
    "Ġcrack": 7710,
    "Ġcongratulated": 19769,
    "Ġburg": 23657,
    "Ġjane": 1756,
    "Ġmod": 494,
    "ssing": 3807,
    "Ġcheerfulness": 10519,
    "Ġclapped": 9748,
    "Ġslate": 11942,
    "Ġmaking": 1781,
    "Ġmaintain": 856,
    "considerably": 13448,
    "cut": 3124,
    "prosper": 19102,
    "bweb": 20793,
    "Ġneeded": 7718,
    "Ġdesisted": 22983,
    "Ġhill": 5626,
    "Ġdecomp": 3809,
    "meat": 18679,
    "cleanliness": 25872,
    "Ġupheld": 22156,
    "Ġinteraction": 7424,
    "Ġactive": 7915,
    "Ġbabes": 24425,
    "son": 2329,
    "Ġcontroverted": 23253,
    "astrous": 15890,
    "icha": 11742,
    "revol": 12545,
    "Ġsteered": 11094,
    "Ġlament": 7857,
    "Ġpunctual": 17140,
    "Ġsits": 10770,
    "clergy": 18936,
    "Ġscrupled": 25052,
    "Ġapproximation": 2341,
    "Ġascendency": 20235,
    "remarks": 23192,
    "Ġwitnessed": 14847,
    "leeward": 15214,
    "Ġlow": 1646,
    "Ġagree": 7647,
    "Ġblotches": 25315,
    "trained": 4239,
    "Ġincognit": 22558,
    "Ġthrilling": 19751,
    "Ġenquired": 21944,
    "rudently": 16712,
    "ceiling": 21630,
    "Ġadequate": 20311,
    "Ġwink": 11572,
    "Ġexordium": 26494,
    "Ġbraved": 23840,
    "Ġwakeful": 24269,
    "Ġhunsford": 6303,
    "Ġamerica": 6764,
    "Ġstanding": 3000,
    "Ġgrego": 18963,
    "Ġsingular": 4424,
    "wit": 7817,
    "Ġbook": 2704,
    "Ġbalm": 22905,
    "Ġprof": 2461,
    "acknowledge": 18469,
    "ographical": 16788,
    "Ġhistorically": 19381,
    "Ġbroods": 23106,
    "Ġconjured": 25102,
    "Ġtow": 4395,
    "Ġimmense": 4952,
    "Ġconcl": 5095,
    "Ġugliness": 20430,
    "Ġmentioned": 4329,
    "irited": 15791,
    "Ġcoach": 6867,
    "Ġderbyshire": 6588,
    "Ġhe": 318,
    "ites": 3900,
    "Ġxi": 16432,
    "cushion": 20823,
    "Ġeliminating": 20623,
    "ampl": 21846,
    "ument": 5240,
    "Ġdeal": 3609,
    "._": 3218,
    "rose": 6015,
    "concern": 6101,
    "orts": 2556,
    "silver": 19693,
    "iform": 2201,
    "whips": 22242,
    "Ġdeficiency": 14406,
    "opol": 12878,
    "Ġcasually": 25096,
    "view": 5897,
    "eryton": 4095,
    "Ġcrumpled": 16440,
    "Ġrepe": 3277,
    "Ġfelony": 18954,
    "Ġmiser": 18704,
    "concerted": 16674,
    "Ġmail": 17802,
    "oney": 3051,
    "assistance": 20374,
    "Ġjug": 12841,
    "Ġconnectivity": 3668,
    "Ġcakes": 13887,
    "Ġwrapped": 8342,
    "Ġalluding": 18237,
    "yder": 10141,
    "squee": 15433,
    "soever": 11863,
    "mar": 4335,
    "Ġimpelled": 11786,
    "Ġcongrat": 5828,
    "Ġtom": 15637,
    "often": 6167,
    "Ġanon": 9669,
    "Ġstores": 18071,
    "Ġindependent": 9019,
    "hatred": 24818,
    "Ġref": 899,
    "footed": 19692,
    "persu": 8028,
    "Ġtranquill": 6633,
    "shri": 14237,
    "Ġfeminine": 15267,
    "Ġobeyed": 12221,
    "involved": 25627,
    "Ġhoarse": 14528,
    "Ġtrophy": 20010,
    "atical": 10773,
    "Ġprotecting": 24687,
    "Ġadmiral": 17308,
    "Ġcapricious": 20541,
    "ont": 2621,
    "Ġblank": 5952,
    "Ġport": 3306,
    "Ġhappy": 2467,
    "izings": 14047,
    "Ġ129": 24474,
    "Ġreminisc": 18726,
    "clings": 23155,
    "rev": 17758,
    "Ġeven": 1027,
    "Ġtoler": 7589,
    "Ġbadge": 16682,
    "Ġnind": 17952,
    "Ġsailing": 5324,
    "Ġphilipses": 24452,
    "Ġred": 3007,
    "cat": 15327,
    "Ġtranslates": 12055,
    "Ġlazarus": 15031,
    "Ġshirt": 8853,
    "dripping": 16907,
    "Ġbloodless": 19341,
    "Ġoverflowing": 17240,
    "securer": 25603,
    "Ġtorment": 8677,
    "detective": 24383,
    "Ġreappearance": 21670,
    "Ġinsurance": 23685,
    "rely": 6125,
    "Ġhungry": 10535,
    "Ġprejudice": 9078,
    "agre": 18167,
    "Ġtheirs": 7026,
    "Ġmechanism": 2368,
    "mem": 10711,
    "ga": 17552,
    "Ġreliance": 14388,
    "Ġfrowning": 13626,
    "Ġexclaimed": 4684,
    "Ġsqueezing": 25009,
    "Ġimpute": 18334,
    "alike": 17945,
    "Ġevian": 24294,
    "law": 6117,
    "Ġbanish": 15574,
    "wretched": 10743,
    "Ġbrightness": 16579,
    "ectual": 21919,
    "Ġagonized": 25373,
    "Ġbending": 12591,
    "poling": 12224,
    "Ġgayer": 24501,
    "Ġstruggling": 12079,
    "Ġign": 8294,
    "Ġbloom": 9891,
    "Ġbequeathed": 20704,
    "ĠarchÃ¦": 22788,
    "mast": 3603,
    "myster": 16265,
    "Ġbeards": 21755,
    "egyptians": 25899,
    "dense": 18716,
    "Ġunspeak": 8854,
    "opolising": 25677,
    "conceal": 25117,
    "Ġape": 21199,
    "Ġ50": 24315,
    "Ġthickness": 13281,
    "Ġimprinted": 22397,
    "Ġinequal": 21500,
    "Ġseize": 8166,
    "reement": 15514,
    "Ġbrag": 23836,
    "Ġcrimes": 8591,
    "Ġdisregard": 22532,
    "icted": 5938,
    "gh": 3799,
    "io": 3800,
    "Ġlongest": 18633,
    "Ġcombining": 22854,
    "Ġanswering": 7477,
    "ateur": 22010,
    "Ġcashier": 20201,
    "Ġinaccessible": 13937,
    "enty": 2916,
    "Ġtackles": 8051,
    "copper": 19190,
    "lucases": 20213,
    "Ġsa": 474,
    "gr": 2087,
    "Ġessentials": 20006,
    "meditated": 19072,
    "Ġcharnel": 22256,
    "great": 3517,
    "relatively": 24017,
    "Ġhookah": 16972,
    "Ġrevealed": 6753,
    "intments": 18822,
    "Ġern": 8397,
    "rifice": 12508,
    "violets": 23546,
    "¥": 103,
    "Ġnailed": 10192,
    "Ġmournfully": 20120,
    "Ġbeen": 627,
    "strang": 11185,
    "etition": 7382,
    "Ġbattered": 17864,
    "Ġlimited": 23547,
    "Ġrapidly": 3463,
    "avenue": 25060,
    "contains": 16034,
    "Ġharder": 14452,
    "Ġfull": 2178,
    "Ġlater": 6018,
    "repe": 8780,
    "Ġrespectability": 14487,
    "berwell": 22749,
    "Ġmumbled": 17809,
    "Ġindications": 14634,
    "tling": 9145,
    "Ġunfelt": 24112,
    "Ġtong": 4871,
    "discoveries": 25386,
    "Ġindication": 22957,
    "Ġmoth": 17804,
    "Ġbig": 5806,
    "osc": 18388,
    "seventy": 10878,
    "Ġ166": 25007,
    "osoever": 17346,
    "bene": 6114,
    "Ġsi": 21215,
    "Ġdirectly": 2105,
    "Ġquar": 3114,
    "Ġhousekeeper": 7456,
    "reshold": 21242,
    "Ġ28": 19297,
    "Ġcalhoun": 23048,
    "Ġgoat": 16010,
    "niece": 20997,
    "Ġdance": 4443,
    "Ġduchess": 4800,
    "Ġplata": 25120,
    "wished": 13808,
    "africa": 26309,
    "Ġgravely": 7883,
    "agger": 7872,
    "produced": 25415,
    "Ġheaviest": 23327,
    "Ġeffectively": 2533,
    "Ġcent": 3251,
    "wis": 12523,
    "Ġcomplete": 4382,
    "Ġlawyers": 25249,
    "Ġpil": 5014,
    "Ġoverl": 18428,
    "Ġinfle": 16369,
    "reas": 987,
    "Ġoutward": 7904,
    "Ġobsequ": 14323,
    "Ġdaniel": 15115,
    "Ġloose": 4650,
    "Ú": 155,
    "Ġunctuous": 10269,
    "Ġtrouble": 3691,
    "Ġover": 554,
    "allied": 7410,
    "greg": 6650,
    "Ġmagnus": 18960,
    "past": 8090,
    "Ġ64": 24367,
    "Ġcounter": 6482,
    "Ġsettle": 6295,
    "Ġscotland": 6642,
    "agers": 5633,
    "prov": 16426,
    "Ġsour": 21219,
    "maintained": 25023,
    "Ġwhenever": 5166,
    "driven": 19774,
    "compassion": 12372,
    "Ġset": 1175,
    "Ġprincipally": 11311,
    "Ġintentions": 10610,
    "preser": 9763,
    "Ġass": 1501,
    "Ġwits": 15535,
    "assumed": 22312,
    "derbyshire": 18323,
    "Ġvint": 18195,
    "Ġzigzag": 26274,
    "Ġeastern": 11632,
    "Ġensemble": 1609,
    "sub": 4661,
    "Ġel": 801,
    "Ġawhile": 13833,
    "Ġsaturn": 22903,
    "Ġinvisibly": 24814,
    "Ġparade": 18302,
    "gings": 7549,
    "Ġchemical": 10412,
    "pooh": 18801,
    "ribed": 7693,
    "Ġbenevol": 5963,
    "Ġblack": 2033,
    "Ġte": 1166,
    "iah": 14420,
    "relu": 17761,
    "Ġvertical": 16606,
    "lucas": 15155,
    "Ġsympt": 7014,
    "sust": 15425,
    "sprit": 11384,
    "Ġunassuming": 20512,
    "Ġworshipped": 25692,
    "Ġaggregate": 25678,
    "es": 288,
    "impropriety": 21716,
    "tenderly": 20534,
    "ases": 1522,
    "ashions": 16421,
    "iastic": 12484,
    "atically": 2631,
    "Ġaxe": 15064,
    "Ġlegit": 16475,
    "Ġpoem": 22592,
    "pered": 4198,
    "Ġawa": 7714,
    "Ġinnocently": 24031,
    "wra": 11544,
    "Ġpoignant": 22596,
    "appro": 7046,
    "Ġsquaw": 22842,
    "Ġdeeps": 16117,
    "hur": 6651,
    "Ġcaroline": 7254,
    "give": 4690,
    "ulance": 15771,
    "follow": 5680,
    "Ġglowed": 24865,
    "independ": 15985,
    "caterpillar": 26385,
    "given": 8377,
    "balanced": 14556,
    "Ġprogramming": 1183,
    "Ġtrem": 6662,
    "Ġtis": 15468,
    "ollion": 19718,
    "akness": 14197,
    "alvan": 21507,
    "particulars": 11317,
    "Ġsimulation": 2752,
    "Ġdough": 8422,
    "Ġtruth": 3317,
    "pick": 17636,
    "Ġnaked": 8127,
    "puzz": 17642,
    "Ġoysters": 20582,
    "opinion": 10987,
    "Ġupdates": 1297,
    "Ġexterm": 21834,
    "Ġpra": 4346,
    "Ġrevive": 13482,
    "Ġfaulty": 14910,
    "Ġirregularly": 25324,
    "pipe": 8700,
    "fow": 20855,
    "Ġcringing": 25942,
    "seldom": 13790,
    "Ġaudience": 24768,
    "Ġobser": 2071,
    "Ġfrench": 4939,
    "Ġhed": 7387,
    "Ġpartiality": 9401,
    "Ġsubtlety": 24779,
    "Ġconcealing": 23906,
    "Ġuses": 1210,
    "hos": 15367,
    "induce": 22378,
    "Ġexperiment": 11925,
    "Ġremains": 4911,
    "sadly": 25527,
    "lilies": 20963,
    "mmed": 7914,
    "ferences": 10329,
    "Ġvindictive": 20473,
    "Ġaw": 2511,
    "preced": 10312,
    "Ġlamp": 4115,
    "Ġpron": 6452,
    "Ġfloat": 12036,
    "ise": 708,
    "Ġnon": 1626,
    "Ġdrawling": 19440,
    "Ġtickets": 17095,
    "Ġproviding": 1360,
    "Ġbus": 1903,
    "visitors": 13352,
    "Ġmorocco": 26575,
    "instances": 13323,
    "netherfield": 9816,
    "supp": 4163,
    "cheerfulness": 20183,
    "Ġprognostics": 20561,
    "Ġlat": 5087,
    "Ġplainpalais": 20739,
    "Ġeggs": 12346,
    "Ġsublime": 8066,
    "Ġstorms": 11264,
    "Ġadvertisement": 6941,
    "wards": 1277,
    "Ġloitering": 22120,
    "Ġpasses": 2680,
    "axed": 8892,
    "Ġbud": 10171,
    "Ġsatisf": 2806,
    "Ġreconsidered": 21676,
    "suitable": 18632,
    "revenge": 13845,
    "Ġoutline": 15958,
    "Ġethiopian": 26615,
    "olera": 21830,
    "Ġcour": 1767,
    "fixed": 7548,
    "Ġdexterity": 25295,
    "cor": 5520,
    "inian": 21185,
    "Ġpalace": 16691,
    "Ġano": 11599,
    "Ġprobability": 1126,
    "ppings": 18179,
    "Ġprojects": 9514,
    "sixteen": 24854,
    "F": 42,
    "Ġinv": 2224,
    "tray": 21080,
    "Ġexpressing": 12013,
    "Ġjost": 23632,
    "Ġmechanical": 7937,
    "Ġallude": 12777,
    "Ġunless": 4092,
    "Ġhoars": 19079,
    "Ġdoran": 9182,
    "Ġlunch": 13528,
    "Ġstiffly": 15007,
    "Ġcampaign": 20663,
    "Ġfrayed": 23305,
    "Ġparacels": 13671,
    "Ġrescales": 5068,
    "Ġwheeling": 18287,
    "attoo": 6808,
    "Ġcasualties": 25513,
    "Ġcompose": 12908,
    "Ġsuspended": 5665,
    "Ġconscientious": 16729,
    "grant": 10429,
    "Ġstudded": 18974,
    "Ġwoodlands": 23524,
    "chers": 11319,
    "gling": 10100,
    "Ġlodger": 24096,
    "gracechurch": 24582,
    "Ġundressed": 19516,
    "Ġabsence": 4895,
    "Ġadds": 1805,
    "hus": 5072,
    "Ġretire": 10384,
    "Ġprow": 6686,
    "Ġleaped": 8830,
    "fleece": 19951,
    "Ġwails": 21299,
    "Ġbarmaid": 19337,
    "Ġobscured": 15013,
    "ighted": 8479,
    "buffalo": 20566,
    "Ġpretend": 7722,
    "unexpected": 15782,
    "Ġproduct": 3534,
    "ą": 198,
    "folly": 20864,
    "Ġfact": 1727,
    "animated": 14978,
    "azing": 7705,
    "Ġcoloss": 11048,
    "breathing": 25336,
    "Ġclinched": 17397,
    "Ġextreme": 2516,
    "prehensible": 12364,
    "sort": 6799,
    "Ġprotested": 9937,
    "liked": 10511,
    "Ġdesertion": 24786,
    "Ġes": 8773,
    "Ġresentful": 24632,
    "apology": 22338,
    "manned": 18765,
    "Ġactively": 18655,
    "Ġsympathised": 14865,
    "ificial": 603,
    "whaling": 7899,
    "Ġaromatic": 25926,
    "Ġrefres": 14340,
    "Ġsolutions": 1949,
    "form": 495,
    "pious": 17635,
    "Ġdiffusion": 23784,
    "Ġimplore": 24873,
    "Ġstartled": 7084,
    "phenomenon": 17650,
    "Ġfaded": 10811,
    "Ġprognost": 15285,
    "Ġblindly": 12114,
    "Ġsuitable": 18280,
    "Ġhighly": 4846,
    "ĠĠĠĠĠĠĠĠĠĠĠĠĠĠĠĠĠĠĠĠĠĠĠĠĠ": 24442,
    "Ġsque": 18758,
    "Ġbristling": 20530,
    "Ġalcoves": 26488,
    "Ġanybody": 5314,
    "osal": 11763,
    "Ġaccursed": 9450,
    "Ġlawn": 7379,
    "alescing": 23868,
    "Ġmitigates": 3053,
    "ack": 612,
    "traced": 19648,
    "Ġsteel": 3890,
    "Ġtask": 1308,
    "Ġeasy": 3450,
    "crowning": 25749,
    "Ġsupposing": 6731,
    "carry": 19529,
    "Ġgard": 2190,
    "Ġdecapitated": 20619,
    "Ġstarlight": 24627,
    "âĢĶâĢĺ": 7015,
    "iably": 13741,
    "Ġdemoniacal": 20559,
    "Ġsnoo": 21231,
    "Ġroast": 18458,
    "baked": 20781,
    "Ġreefed": 20305,
    "\"": 6,
    "Ġveritable": 19384,
    "Ġfobbing": 26443,
    "priv": 9622,
    "Ġsubterranean": 13614,
    "vii": 13151,
    "Ġproportional": 2526,
    "Ġsanction": 20029,
    "overing": 6308,
    "Ġcatherine": 2812,
    "Ġswimming": 5507,
    "Ġdefilements": 26286,
    "Ġtied": 7357,
    "recognised": 15266,
    "Ġsolemnisation": 24115,
    "heartily": 24218,
    "Ġunrivalled": 26521,
    "Ġcharles": 11961,
    "Ġjamming": 17267,
    "Ġbeginning": 4243,
    "Ġnewcastle": 16226,
    "Ġrepl": 1595,
    "zwilliam": 5074,
    "Ġimages": 1601,
    "Ġwire": 13855,
    "Ġregrets": 18601,
    "ering": 1266,
    "mutually": 26137,
    "prosperity": 20737,
    "harbor": 13567,
    "feel": 3810,
    "Ġremember": 2679,
    "commodore": 20628,
    "Ġaffecting": 2324,
    "Ġfields": 2143,
    "useful": 16505,
    "erval": 4022,
    "Ġanonym": 17899,
    "Ġunthink": 18248,
    "Ġregimentals": 19860,
    "gun": 10099,
    "Ġanvil": 11600,
    "entials": 22667,
    "screen": 22999,
    "surprised": 9534,
    "Ġcha": 6853,
    "Ġmerchants": 23735,
    "gigantic": 15363,
    "noble": 7924,
    "Ġbuck": 7158,
    "hast": 5358,
    "Ġinsincere": 26601,
    "Ġexercise": 8359,
    "Ġreflecting": 24750,
    "Ġattempts": 10493,
    "ĠĠĠĠĠ": 3527,
    "Ġpatched": 16360,
    "gorith": 551,
    "fright": 9598,
    "Ġaffected": 5577,
    "Ġadding": 2403,
    "Ġprospect": 4707,
    "repent": 15516,
    "Ġloops": 8856,
    "anned": 17841,
    "Ġgraces": 18226,
    "cause": 7796,
    "Ġfaire": 13368,
    "Ġflowers": 8943,
    "Ġrow": 5246,
    "Ġhose": 12633,
    "art": 581,
    "Ġtrains": 10946,
    "Ġrecl": 16144,
    "Ġcontributes": 15254,
    "christian": 17235,
    "quakes": 21860,
    "Ġsevent": 18203,
    "Ġri": 3391,
    "Ġglassy": 19563,
    "Ġconstitutional": 25128,
    "au": 778,
    "Ġduodecimo": 16769,
    "Ġexpressly": 16454,
    "unction": 10237,
    "Ġdeuteronomy": 15764,
    "ided": 2784,
    "Ġexchange": 15760,
    "Ġeighteenth": 14757,
    "Ġfinal": 5400,
    "gration": 9124,
    "Ġsoutherly": 23338,
    "pour": 17632,
    "´": 117,
    "Ġconvergence": 973,
    "Ġbi": 919,
    "Ġwindibank": 7256,
    "allest": 5485,
    "Ġproudly": 19745,
    "asses": 7018,
    "Ġxviii": 23412,
    "Ġdecisive": 18486,
    "spect": 3230,
    "Ġgallied": 19559,
    "Ġmcc": 21308,
    "Ġtired": 9152,
    "Ġmoran": 9345,
    "division": 20052,
    "Ġarabic": 24981,
    "Ĺ": 250,
    "pursued": 17284,
    "irious": 15790,
    "Ġawkward": 7075,
    "Ġhousehold": 8571,
    "Ġextras": 22730,
    "adventure": 17236,
    "Ġreverend": 15263,
    "Ġmalay": 24391,
    "Ġglimp": 6067,
    "lod": 15382,
    "Ġ36": 14770,
    "Ġslept": 8259,
    "vard": 21113,
    "Ġimm": 3968,
    "Ġhemis": 21687,
    "Ġcontinuous": 1563,
    "Ġdescried": 7919,
    "chose": 18043,
    "Ġthrone": 12218,
    "supposed": 13319,
    "Ġaffairs": 6877,
    "Ġstudent": 14481,
    "eked": 16405,
    "needle": 20316,
    "Ġfringe": 17274,
    "Ġcrocodile": 20742,
    "Ġarmed": 9263,
    "towards": 5003,
    "Ġfather": 1449,
    "Ġterrify": 19364,
    "Ġcondescend": 19958,
    "Ġpike": 12629,
    "fthand": 26388,
    "Ġgleam": 12312,
    "Ġcolds": 23760,
    "Ġdilig": 8350,
    "Ġnotable": 18223,
    "entreat": 17978,
    "Ġbackbone": 22654,
    "Ġassaulted": 25321,
    "Ġadie": 8491,
    "Ġtriumphantly": 11289,
    "Ġfur": 991,
    "ought": 829,
    "Ġdiffered": 22714,
    "isition": 11589,
    "Ġstrenuously": 17451,
    "Ġdeparted": 5564,
    "wester": 21141,
    "Ġdefy": 11902,
    "Ġsupplement": 23005,
    "Ġdorm": 4823,
    "xible": 13811,
    "compose": 24035,
    "sal": 8761,
    "Ġheld": 3587,
    "Ġmutters": 23959,
    "Ġmasses": 10506,
    "Ġgrunted": 16172,
    "new": 1464,
    "uit": 8393,
    "Ġbushy": 16404,
    "Ġliberality": 24377,
    "Ġinfinite": 8580,
    "Ġdrowned": 9555,
    "coffin": 10665,
    "occur": 19578,
    "grampus": 18618,
    "Ġsigns": 2442,
    "card": 11477,
    "Ġrejecting": 17052,
    "conside": 9293,
    "horizon": 23617,
    "Ġsmitten": 12905,
    "Ġnic": 7376,
    "daring": 20831,
    "Ġoriental": 9100,
    "ld": 385,
    "Ġfrankenstein": 7097,
    "Ġsatirical": 26281,
    "Ġreverence": 12063,
    "Ġplaited": 14286,
    "frame": 17117,
    "Ġincreases": 3794,
    "complied": 19915,
    "Ġsickbed": 24249,
    "Ġafar": 14294,
    "ohn": 4562,
    "Ġdictator": 20156,
    "Ġnuts": 17954,
    "Ġdisgust": 6707,
    "reserve": 17767,
    "esc": 618,
    "Ġavoided": 13262,
    "Ġfour": 2214,
    "leads": 21373,
    "Ġparading": 23713,
    "opic": 22480,
    "everything": 6326,
    "Ġbreakers": 12059,
    "Ġsteed": 13045,
    "Ġmum": 13861,
    "Ġagitation": 6865,
    "Ġtrying": 4840,
    "Ġgloomy": 7504,
    "dle": 3302,
    "Ġapartment": 6636,
    "Ġhonest": 7287,
    "Ġopposed": 11190,
    "Ġcoincid": 20320,
    "rad": 2153,
    "inlaid": 21193,
    "worm": 15456,
    "Ġtakings": 20575,
    "Ġtantamount": 25626,
    "Ġdesperately": 24657,
    "Ġuniversally": 12004,
    "Ġarmchair": 8271,
    "Ġannihilated": 20255,
    "Ġjustice": 5111,
    "Ġancho": 15607,
    "vapor": 25756,
    "of": 769,
    "behaviour": 11303,
    "Ġtypewritten": 16425,
    "Ġglimmered": 20174,
    "Ġcreation": 6440,
    "Ġcrew": 2498,
    "alcul": 15632,
    "Ġencourages": 2063,
    "Ġnavigation": 9996,
    "eling": 6683,
    "Ġexpressed": 4468,
    "Ġsheet": 6264,
    "Ġrecognise": 12044,
    "Ġconceals": 23907,
    "dled": 9114,
    "nx": 17609,
    "Ġdropout": 1560,
    "Ġmoon": 4609,
    "serv": 7451,
    "Ġforests": 13595,
    "Ġminutes": 3002,
    "Ġaft": 5737,
    "Ġangle": 8606,
    "Ġsoup": 7069,
    "Ġdeaf": 12727,
    "answer": 11736,
    "Ġuninter": 18247,
    "Ġsect": 17753,
    "moment": 3579,
    "gal": 15359,
    "wretchedness": 17255,
    "oo": 7553,
    "Ġbatch": 888,
    "Ġlicence": 25099,
    "enth": 6682,
    "Ġtropical": 17066,
    "Ġrichness": 19313,
    "solution": 14688,
    "marry": 13327,
    "Ġwishing": 7830,
    "naturally": 14562,
    "itarian": 21340,
    "Ġignorantly": 19498,
    "Ġ120": 16860,
    "resist": 8276,
    "Ġcons": 953,
    "Ġsignification": 19206,
    "tackle": 17324,
    "Ġexertion": 8054,
    "possession": 12226,
    "Ġpods": 17917,
    "Ġmile": 7152,
    "Ġtides": 13824,
    "thorough": 21989,
    "Ġdispute": 16060,
    "meal": 22716,
    "Ġaustrian": 24302,
    "Ġtradesman": 20076,
    "Ġdetested": 14177,
    "Ġgathers": 24742,
    "iluvian": 18063,
    "Ġerred": 21159,
    "Ġoptimizers": 18620,
    "Ġgossip": 18471,
    "Ġamput": 16038,
    "Ġinclined": 6625,
    "Ġspirits": 3698,
    "uteronomy": 15668,
    "inquire": 16934,
    "esteem": 26009,
    "instead": 14815,
    "path": 10121,
    "Ġpregn": 22236,
    "action": 3726,
    "Ġgurgling": 17449,
    "Ġexhilar": 19686,
    "Ġconsol": 3813,
    "Ġcheerful": 6624,
    "Ġrailway": 15023,
    "Ġhopelessly": 16382,
    "av": 738,
    "hyme": 19612,
    "Ġxlvi": 25591,
    "rebellum": 26166,
    "Ġlodge": 5779,
    "Ġcurvature": 3574,
    "Ġinvent": 7165,
    "Ġbuckler": 24860,
    "Ġharem": 9712,
    "surv": 24216,
    "Ġrecklessly": 16985,
    "Ġsavory": 23878,
    "Ġscrutiny": 26016,
    "Ġwoke": 21292,
    "Ġdomain": 3410,
    "Ġbricks": 13565,
    "sailor": 14718,
    "Ġegress": 21624,
    "Ġsettee": 22924,
    "Ġstretching": 10018,
    "Ġvineyarder": 25607,
    "Ġcombat": 16187,
    "Ġfulfilled": 11364,
    "Ġsting": 10863,
    "Ġadvantageously": 19548,
    "Ġguernsey": 9354,
    "tips": 13799,
    "Ġplaus": 22603,
    "Ġexterior": 19991,
    "Ġbounds": 9921,
    "Ġotherwise": 4659,
    "Ġunreasonably": 17454,
    "ich": 471,
    "Ġplat": 8523,
    "Ġeyelashes": 26107,
    "Ġsprout": 24092,
    "main": 8088,
    "Ġanalog": 12618,
    "portuguese": 25414,
    "Ġnorthumbria": 24173,
    "Ġsabbee": 17258,
    "Ġsaleve": 17394,
    "ration": 2005,
    "spade": 10343,
    "Ġresuming": 12899,
    "cription": 20820,
    "Ġbluff": 16520,
    "Ġworried": 22929,
    ";": 31,
    "hauled": 20671,
    "Ġbrittle": 22868,
    "Ġincivility": 18573,
    "soup": 21061,
    "rue": 1128,
    "Ġmonomania": 17086,
    "Ġgoodge": 22826,
    "Ġjail": 22298,
    "flight": 15356,
    "Ġeleventh": 23372,
    "Ġinnocence": 6478,
    "ourney": 3554,
    "Ġflesh": 5970,
    "elfare": 11781,
    "analy": 17840,
    "Ġimpregnable": 26024,
    "Ġsubl": 7235,
    "tons": 7559,
    "Ġlarge": 1064,
    "Ġshelves": 15000,
    "Ġvolcano": 24149,
    "Ġboasted": 16110,
    "Ġlogic": 13081,
    "furthest": 19844,
    "equal": 14996,
    "ource": 5244,
    "Ġcompassion": 6488,
    "Ġwelcomed": 9485,
    "ignity": 4374,
    "aries": 6246,
    "Ġinclination": 6626,
    "isturbed": 18298,
    "Ġcondescension": 10621,
    "kl": 4866,
    "onet": 12550,
    "Ġfleetness": 20182,
    "erness": 6435,
    "Ġpreserve": 7529,
    "inex": 14099,
    "memory": 13620,
    "Ġod": 4440,
    "Ġseren": 7401,
    "calmly": 20142,
    "piling": 15418,
    "tree": 11536,
    "glances": 23855,
    "Ġpoetry": 15084,
    "sooner": 14780,
    "Ġnam": 17951,
    "agitation": 14071,
    "boom": 18999,
    "orange": 21403,
    "ricted": 15423,
    "Ġmisconduct": 22761,
    "absolute": 17125,
    "Ġno": 511,
    "soul": 9143,
    "Ġrally": 21972,
    "Ġmarriage": 3188,
    "fitting": 1508,
    "Ġconfession": 11237,
    "achines": 1722,
    "Ġpitied": 14694,
    "Ġinno": 1427,
    "Ġdears": 18142,
    "loat": 8890,
    "Ġpermanent": 13634,
    "bolt": 25138,
    "osures": 22264,
    "encies": 4082,
    "Ġdiscomposure": 20382,
    "Ġoverlooking": 22361,
    "Ġtransom": 22442,
    "grie": 12475,
    "relig": 15515,
    "Ġplentiful": 12917,
    "Ġtick": 8109,
    "Ġveter": 15815,
    "fiercely": 25257,
    "Ġembodiment": 20531,
    "Ġoutstanding": 22320,
    "Ġunconditional": 15848,
    "Ġconfess": 3765,
    "ause": 1311,
    "Ġbullion": 24986,
    "sleepy": 24728,
    "Ġro": 599,
    "Ġpit": 3417,
    "Ġinvincible": 23483,
    "Ġmutiny": 13263,
    "Ġremain": 1873,
    "tables": 19760,
    "phology": 3010,
    "Ġreported": 11984,
    "Ġloads": 22118,
    "Ġdistress": 5845,
    "Ġadded": 2718,
    "Ġathe": 17743,
    "Ġbridal": 14957,
    "proposal": 18756,
    "tempted": 26405,
    "Ġpursue": 6316,
    "Ġcrater": 16438,
    "kington": 11205,
    "evinced": 19928,
    "ners": 3268,
    "Ġflourish": 17163,
    "opÃ¦": 12879,
    "lement": 10169,
    "Ġscandinavian": 26347,
    "Ġsoliloqu": 11889,
    "Ġhil": 10823,
    "Ġbuckskin": 19955,
    "Ġxiii": 25592,
    "ington": 21304,
    "Ġmottled": 20681,
    "Ġvisual": 5741,
    "Ġschol": 17380,
    "Ġpowdered": 24240,
    "dam": 7798,
    "Ġislets": 21805,
    "Ġleave": 2458,
    "soon": 4030,
    "Ġfift": 6383,
    "office": 16399,
    "Ĭ": 237,
    "Ġslighted": 16570,
    "Ġwapping": 21297,
    "Ġinexperience": 26100,
    "Ġfulfilment": 20190,
    "Ġrising": 4355,
    "ighter": 7968,
    "Ġhistory": 4010,
    "Ġwaistcoat": 12275,
    "rus": 5931,
    "Ġshoals": 13137,
    "Ġjura": 14195,
    "Ġloses": 15877,
    "Ġprize": 11952,
    "ocratic": 17247,
    "Ġfair": 2836,
    "Ġboy": 3024,
    "Ġdeigned": 18144,
    "begins": 18523,
    "Ġtormented": 8678,
    "Ġcalmness": 12098,
    "Ġtraits": 23078,
    "Ġinsolence": 20256,
    "Ġsoot": 14134,
    "ampled": 18885,
    "Ġpretensions": 16561,
    "Ġshiver": 12773,
    "Ġevangel": 11282,
    "Ġgaff": 17996,
    "Ġashen": 21903,
    "Ġspoken": 4838,
    "Ġch": 514,
    "Ġhon": 2539,
    "Ġrestored": 7068,
    "Ġpenetration": 19919,
    "Ġstop": 2503,
    "Ġdiscipline": 26563,
    "Ġentertained": 10001,
    "Ġverse": 16604,
    "Ġsignificant": 8637,
    "Ġfierceness": 26267,
    "Ġwallet": 21301,
    "arat": 9183,
    "acceptance": 25186,
    "Ġimparted": 15993,
    "Ġauthorities": 11266,
    "cadence": 26126,
    "Ġenclosure": 20627,
    "Ġlivelihood": 24773,
    "Ġloathsome": 13530,
    "heric": 15915,
    "Ġsweetness": 9449,
    "resides": 23675,
    "daughters": 13469,
    "Ġmonarch": 14419,
    "hee": 10762,
    "Ġloungers": 24863,
    "Ġresiding": 16065,
    "ham": 1701,
    "rowsers": 8698,
    "arris": 13212,
    "Ġoccupies": 24011,
    "ĠĠĠĠĠĠ": 6415,
    "Ġsurve": 9877,
    "Ġshift": 2283,
    "Ġdownright": 16122,
    "Ġappearing": 9844,
    "dep": 6787,
    "rent": 1170,
    "Ġescorted": 23510,
    "Ġpeleg": 3738,
    "Ġchristianity": 19863,
    "ispens": 8336,
    "Ġapproximates": 2418,
    "ĠĠĠĠĠĠĠĠĠĠĠĠĠĠĠĠĠĠĠĠĠĠĠĠĠĠĠĠĠĠĠĠ": 2739,
    "apsed": 6297,
    "Ġberkshire": 16886,
    "Ġmustering": 18663,
    "gallantry": 15061,
    "ory": 1083,
    "Ġconvent": 11671,
    "conclusions": 25673,
    "Ġpeering": 8537,
    "Ġrogue": 22408,
    "yourself": 6744,
    "occurrences": 26333,
    "Ġweaver": 11691,
    "illating": 22111,
    "Ġmccauley": 26428,
    "despair": 8344,
    "Ġblandly": 20326,
    "Ġstretch": 6994,
    "Ġanat": 8124,
    "Ġholding": 4979,
    "Ġpadded": 25039,
    "Ġinsipid": 26314,
    "inery": 17735,
    "vul": 15451,
    "Ġaghast": 16051,
    "Ġrepul": 16413,
    "Ġcongen": 10875,
    "Ġengland": 3857,
    "Ġdeficient": 18826,
    "circumstantial": 24444,
    "Ġrepairing": 25590,
    "Ġforbade": 15218,
    "amusement": 15286,
    "Ġbruited": 25774,
    "Ġcoldly": 14652,
    "streets": 13398,
    "vocabulary": 25088,
    "izes": 884,
    "embarrassed": 20667,
    "Ġunfailing": 24113,
    "Ġprogeny": 17391,
    "Ġshoving": 23493,
    "Ġupset": 22157,
    "Ġdeclined": 9924,
    "Ġconnexion": 11456,
    "Ġwooden": 4731,
    "Ġcorpora": 26582,
    "Ġchal": 18379,
    "Ġplans": 7918,
    "Ġconv": 2971,
    "Ġcompleted": 9000,
    "sounding": 24795,
    "Ġsides": 4580,
    "untarily": 6314,
    "Ġundue": 25994,
    "Ġabsent": 7016,
    "Ġintense": 6159,
    "Ġenthusiastic": 19969,
    "Ġsurely": 6309,
    "Ġhonor": 5664,
    "Ġankers": 21448,
    "strikes": 24671,
    "conditional": 9081,
    "painful": 13504,
    "Ġassociations": 14966,
    "Ġaccident": 5380,
    "cused": 15335,
    "Ġsmilingly": 22564,
    "Ġdisadvantage": 12896,
    "Ġundertone": 23240,
    "Ġemphasis": 20539,
    "Ġcross": 1373,
    "Ġfortune": 4240,
    "blocks": 25518,
    "oses": 3947,
    "Ġach": 2620,
    "Ġwretchedly": 19509,
    "ores": 2414,
    "indebted": 26159,
    "Ġloomed": 12305,
    "Ġtravels": 11931,
    "Ġlean": 7606,
    "mariners": 19551,
    "Ġdew": 14048,
    "eye": 6226,
    "opposition": 24820,
    "towing": 17691,
    "\"]": 17473,
    "Ġtempest": 8213,
    "Ġheels": 10852,
    "Ġpenet": 6888,
    "zening": 21151,
    "Ġshut": 3943,
    "Ġquohog": 10974,
    "Ġviciss": 11294,
    "Ġarising": 10935,
    "Ġmetallic": 19076,
    "Ġarbit": 4652,
    "_.)": 7278,
    "Ġfrequent": 3283,
    "Ġinferred": 14503,
    "Ġbasics": 13451,
    "Ġ134": 24783,
    "Ġintellig": 525,
    "usive": 8192,
    "Ġminiature": 11041,
    "Ġvigorous": 10569,
    "Ġslid": 7952,
    "osity": 14188,
    "Ġeventually": 8620,
    "collect": 16566,
    "Ġhedge": 8364,
    "solving": 3100,
    "Ġobjects": 5578,
    "Ġjobs": 24833,
    "Ġdebated": 9043,
    "bath": 13693,
    "Ġrecognition": 3003,
    "Ġunseason": 22056,
    "Ġsummar": 3525,
    "Ġintruder": 25992,
    "Ġbast": 21382,
    "Ġvirtues": 9939,
    "Ġgroping": 13669,
    "to": 714,
    "Ġbridge": 8349,
    "Ġplump": 14285,
    "Ġdesirable": 8944,
    "Ġbegg": 16255,
    "Ġexulting": 20261,
    "Ġperched": 10302,
    "Ġbaw": 15573,
    "uther": 8821,
    "danced": 20830,
    "Ġblameless": 19861,
    "guinea": 16675,
    "Ġcubic": 20091,
    "low": 655,
    "jour": 20929,
    "Ġarchly": 22787,
    "icked": 10335,
    "Ġrecommended": 8671,
    "ĠĠĠĠĠĠĠĠĠĠĠĠĠĠĠĠĠĠĠĠĠĠĠĠĠĠĠĠĠĠĠĠĠĠĠĠĠ": 14616,
    "Ġabruptly": 15154,
    "Ġcomplex": 739,
    "Ġvault": 8845,
    "affa": 23778,
    "touch": 8392,
    "Ġinferences": 17937,
    "circumamb": 26088,
    "norm": 20987,
    "comparison": 25842,
    "undant": 14794,
    "Ġcumulative": 4211,
    "pine": 13772,
    "Ġcompunction": 18586,
    "ogn": 2463,
    "Ġbench": 7238,
    "Ġapothecary": 13662,
    "Ġ16": 7927,
    "education": 20304,
    "Ġmuster": 16126,
    "promising": 24725,
    "Ġbountiful": 25945,
    "nns": 1893,
    "tedious": 22636,
    "Ġhave": 444,
    "blooded": 20026,
    "rosc": 17957,
    "Ġstranger": 3485,
    "Ġinsepar": 17936,
    "brushing": 20790,
    "upper": 11541,
    "umberland": 16839,
    "Ġinfat": 14502,
    "Ġrejection": 19987,
    "stone": 5089,
    "companies": 24895,
    "limping": 26395,
    "Ġmouldings": 24736,
    "Ġmutter": 23957,
    "Ġhousings": 21496,
    "ethe": 9679,
    "Ġscuttle": 7414,
    "tornadoes": 26154,
    "Ġonset": 12716,
    "af": 2378,
    "Ġ128": 24473,
    "Ġmix": 7577,
    "Ġguitar": 16274,
    "abular": 4763,
    "Ġchis": 11754,
    "Ġindign": 6175,
    "Ġsplin": 8622,
    "ojo": 7349,
    "sounded": 12271,
    "desponding": 26343,
    "Ġunidirectional": 3423,
    "Ġrang": 9248,
    "rat": 8759,
    "itions": 4149,
    "phys": 18710,
    "corpse": 24486,
    "quin": 21857,
    "Ġpalpit": 16692,
    "torture": 26152,
    "Ġbound": 3519,
    "roman": 22008,
    "flames": 14715,
    "Ġpray": 3901,
    "Ġcorner": 4370,
    "Ġane": 9184,
    "Ġtexture": 19162,
    "Ġdaboll": 25951,
    "Ġsaw": 1351,
    "seam": 10876,
    "Ġdus": 8424,
    "Ġtickled": 20060,
    "play": 5099,
    "falgar": 26131,
    "Ġcos": 2208,
    "sensibility": 25026,
    "itous": 13870,
    "liest": 6296,
    "Ġprice": 10405,
    "husband": 8042,
    "Ġeaglet": 19307,
    "Ġeffusions": 18525,
    "Ġvacancy": 9047,
    "Ġinstincts": 16988,
    "Ġthoughtless": 16196,
    "trans": 5594,
    "Ġsouth": 4912,
    "Ġmonoman": 7939,
    "Ġmaggie": 26293,
    "fortun": 3540,
    "outon": 12809,
    "Ġinterlacing": 22580,
    "Ġwrest": 11574,
    "hopes": 15373,
    "ellig": 522,
    "oftentimes": 19424,
    "Ġrussia": 26269,
    "Ġenigmatical": 20600,
    "Ġcapacious": 19178,
    "Ġalgorithms": 868,
    "osing": 3690,
    "isles": 15568,
    "Ġretained": 7174,
    "bted": 7794,
    "Ġseparation": 11249,
    "Ġjer": 6268,
    "Ġmanaging": 22329,
    "nne": 20991,
    "Ġsto": 1497,
    "Ġhish": 21917,
    "Ġdel": 1615,
    "jure": 20926,
    "nt": 921,
    "Ġapple": 14169,
    "Ġdishes": 16054,
    "umbers": 10920,
    "Ġbringing": 5871,
    "Ġbristles": 25845,
    "unworthy": 18164,
    "Ġfinger": 5274,
    "================": 3723,
    "Ġproducing": 11904,
    "gage": 13727,
    "Ġreminding": 19800,
    "sorrows": 17323,
    "farm": 15355,
    "Ġstatistics": 1681,
    "venison": 22629,
    "Ġskill": 6872,
    "tallied": 21092,
    "assed": 6422,
    "Ġswashing": 23059,
    "tese": 21086,
    "nowled": 5470,
    "oment": 920,
    "Ġuns": 15840,
    "hampshire": 23267,
    "infl": 15490,
    "pents": 11515,
    "Ġsignificantly": 4520,
    "Ġconversing": 14635,
    "Ġwidespread": 20678,
    "ucket": 2486,
    "pointed": 9811,
    "Ġcanvas": 7784,
    "Ġfuneral": 10286,
    "Ġdisgraceful": 15022,
    "unavoidable": 17393,
    "supers": 22639,
    "learned": 8604,
    "hued": 20913,
    "Ġcollect": 7237,
    "aternity": 21268,
    "Ġimport": 1056,
    "persons": 24176,
    "Ġpreposterous": 13673,
    "apart": 15965,
    "Ġpuzz": 5533,
    "oc": 2833,
    "ust": 496,
    "Ġstalk": 12703,
    "Ġstupendous": 20504,
    "Ġcategories": 4478,
    "pire": 9138,
    "Ġharshly": 25250,
    "ognit": 19195,
    "Ġabating": 22271,
    "Ġplate": 8902,
    "Ġsafe": 5103,
    "Ġengaging": 9339,
    "Ġmarbles": 18873,
    "Ġroman": 8323,
    "Ġjoints": 12039,
    "absurd": 21799,
    "Ġunprincipled": 20710,
    "Ġchased": 8865,
    "Ġdiving": 12607,
    "Ġwheels": 10914,
    "Ġreasonably": 11095,
    "distressed": 24202,
    "Ġintricate": 15141,
    "Ġleak": 2160,
    "Ġaffair": 4464,
    "ierce": 14394,
    "Ġseparating": 16684,
    "pect": 1255,
    "Ġwedding": 4817,
    "wreat": 21130,
    "Ġfleece": 10617,
    "Ġimportant": 1117,
    "derer": 4601,
    "Ġpaved": 17915,
    "Ġinqu": 2967,
    "Ġvalued": 12187,
    "Ġgreeting": 18964,
    "Ġpetersburgh": 24231,
    "Ġrestrain": 8967,
    "Ġdams": 16456,
    "Ġdeposited": 25485,
    "origin": 7582,
    "Ġash": 4834,
    "Ġgrow": 2859,
    "isation": 13896,
    "Ġstir": 5824,
    "ique": 8746,
    "âĢĻ,": 14073,
    "Ġgovernments": 20270,
    "Ġlivid": 14992,
    "iscre": 17852,
    "ildad": 3532,
    "Ġhovering": 10181,
    "Ġnice": 6678,
    "Ġmoby": 3666,
    "Ġsmooth": 2778,
    "Ġtoiling": 15639,
    "Ġtraverse": 18893,
    "entimes": 12662,
    "Ġgoblet": 25824,
    "Ġwall": 3842,
    "Ġrefresh": 10346,
    "ativeness": 15524,
    "Ġscraped": 16905,
    "Ġimpudence": 26243,
    "Ġnovel": 6697,
    "Ġbenefit": 8293,
    "Ġdigress": 24649,
    "Ġmont": 8562,
    "Ġaudacious": 13463,
    "vult": 21116,
    "Ġtalked": 4421,
    "Ġwarbling": 26169,
    "Ġsatir": 18795,
    "gerine": 22893,
    "punctual": 26357,
    "Ġexpands": 25238,
    "Ġpanted": 21475,
    "Ġitaly": 10869,
    "Ġhailed": 6408,
    "bench": 16805,
    "Ġvelocity": 10623,
    "Ġwherein": 14295,
    "original": 9088,
    "Ġoily": 13867,
    "phil": 7925,
    "Ġhoofs": 14529,
    "ener": 562,
    "Ġsufferer": 16260,
    "ulties": 12907,
    "descending": 16288,
    "Ġinterruptions": 24188,
    "ousand": 2430,
    "Ġthus": 2036,
    "moral": 14804,
    "Ġsweetheart": 19398,
    "Ġbunch": 11328,
    "Ġbowled": 23771,
    "anke": 15565,
    "Ġprofess": 3699,
    "Ġmal": 5221,
    "Ġnib": 13943,
    "Ġgarb": 21606,
    "Ġsincerely": 7963,
    "Ġunsettled": 14126,
    "Ġcarved": 7947,
    "Ġinvolves": 1100,
    "Ġlulled": 17971,
    "igh": 2029,
    "Ġcash": 9655,
    "Ġshelter": 17010,
    "maybe": 23994,
    "robber": 21540,
    "Ġgiven": 1628,
    "Ġobst": 6286,
    "Ġburgled": 23659,
    "Ġsequences": 1750,
    "Ġtrailing": 23082,
    "Ġmaritime": 23040,
    "Ġornamented": 20365,
    "Ġshowed": 4497,
    "Ġoccurs": 1857,
    "Ġcivilities": 14851,
    "fool": 9050,
    "dismal": 23501,
    "!âĢĻ": 3329,
    "Ġbasement": 24701,
    "Ġjinglers": 26019,
    "Ġturkey": 19222,
    "Ġpain": 2303,
    "invincible": 25092,
    "Ġoutrage": 15962,
    "Ġfra": 1815,
    "neural": 3068,
    "Ġvigour": 24462,
    "Ġglades": 19375,
    "ommod": 13980,
    "_.âĢĻâĢĿ": 17482,
    "Ġfake": 5811,
    "Ġaddressed": 5263,
    "commence": 19995,
    "spite": 16141,
    "organ": 15578,
    "mother": 5480,
    "Ġswiftly": 5670,
    "(": 12,
    "Ġviolet": 19092,
    "Ġencomp": 12968,
    "broken": 8020,
    "Ġrejected": 12298,
    "Ġflows": 13018,
    "follows": 24528,
    "Ġon": 351,
    "Ġnineveh": 13392,
    "stating": 21650,
    "Ġpantry": 20298,
    "remembrance": 25703,
    "Ġshovel": 23495,
    "Ġshort": 2225,
    "Ġfond": 4756,
    "ern": 763,
    "live": 7550,
    "Ġadopt": 10634,
    "Ġodd": 6627,
    "Ġbridges": 24683,
    "hollow": 24044,
    "icirc": 15660,
    "Ġinjurious": 24273,
    "soled": 14332,
    "Ġtrivial": 10145,
    "Ġgreenland": 5761,
    "henry": 16628,
    "heavy": 10577,
    "Ġdiana": 21439,
    "Ġestates": 16462,
    "Ġsplendidly": 25328,
    "ais": 8071,
    "rers": 14721,
    "Ġhull": 5446,
    "Ġgravesend": 15220,
    "plainly": 11092,
    "onies": 6807,
    "Ġfollowing": 4064,
    "Ġportrait": 10664,
    "Ġexecution": 6927,
    "elev": 12463,
    "Ġadored": 18292,
    "Ġinvitation": 5188,
    "Ġmature": 17801,
    "od": 350,
    "ssible": 2994,
    "Ġhow": 597,
    "mine": 5618,
    "firmly": 20283,
    "Ġbarrier": 16572,
    "luxur": 25823,
    "Ġasp": 15785,
    "splinter": 25211,
    "Ġbohemian": 17136,
    "Ġamusing": 11804,
    "Ġstress": 18069,
    "phr": 18709,
    "arming": 8954,
    "lung": 17593,
    "Ġhunter": 5401,
    "Ġblotting": 25314,
    "Ġfordham": 21780,
    "guest": 19485,
    "berish": 22747,
    "Ġfill": 5701,
    "Ġjav": 7902,
    "Ġaxis": 12311,
    "rating": 7808,
    "ĠĠĠĠĠĠĠĠĠĠĠĠĠĠĠĠĠĠĠĠĠĠĠĠĠĠĠ": 14889,
    "Ġtum": 5692,
    "Ġminiatures": 20324,
    "ssip": 14082,
    "tained": 4405,
    "Ġnoteworthy": 24164,
    "state": 13982,
    "Ġfrog": 23925,
    "butter": 11789,
    "Ġdescribed": 6608,
    "Ġhermits": 22078,
    "Ġgnawed": 25168,
    "Ġmorass": 22979,
    "Ġclattering": 22358,
    "50": 6785,
    "Ġcumbrous": 26434,
    "Ġturing": 7566,
    "lonely": 20959,
    "Ġbloodthirst": 23803,
    "Ġsimilar": 4918,
    "maul": 11894,
    "Ġai": 3128,
    "advanced": 19591,
    "Ġweb": 9243,
    "Ġnothing": 1359,
    "Ġhide": 4590,
    "Ġ68": 24370,
    "aneous": 7240,
    "Ġinsatiable": 19274,
    "Ġshield": 22003,
    "Ġmermaid": 17815,
    "Ġmerciless": 25247,
    "Ġalley": 15740,
    "Ġmove": 5107,
    "Ġrespectful": 16349,
    "help": 1477,
    "Ġrats": 21977,
    "impregnable": 26483,
    "Ġscrut": 15949,
    "Ġrifle": 18215,
    "Ġseams": 12129,
    "Ġcornelius": 13576,
    "Ġrand": 1585,
    "Ġmannish": 26239,
    "Ġbent": 5149,
    "Ġswallow": 8953,
    "Ġoccurring": 2792,
    "Ġartfully": 22612,
    "Ġadmirer": 16840,
    "Ġcruisers": 25864,
    "Ġconvenience": 11333,
    "invested": 17120,
    "screaming": 20328,
    "Ġencountering": 11271,
    "will": 1970,
    "Ġattendant": 11287,
    "Ġvariants": 1792,
    "lances": 15387,
    "ever": 1079,
    "Ġwedge": 24935,
    "imagine": 19934,
    "Ġvilla": 14750,
    "Ġchannels": 26014,
    "entreaties": 26187,
    "Ġstout": 6026,
    "virtue": 20572,
    "rential": 22922,
    "Ġfoam": 6891,
    "Ġawful": 6201,
    "fatigue": 20660,
    "Ġzone": 14365,
    "Ġblended": 16222,
    "Ġawaiting": 11392,
    "Ġhellish": 10553,
    "dman": 10091,
    "Ġmadame": 13153,
    "sudden": 5316,
    "Ġvesu": 21953,
    "Ġdining": 6978,
    "Ġcrane": 23439,
    "Ġcards": 7581,
    "Ġpip": 1644,
    "Ġpen": 1532,
    "ared": 772,
    "shorn": 22456,
    "Ġsanguine": 25929,
    "Ġimplement": 2958,
    "extremely": 26266,
    "provoke": 26072,
    "ales": 3314,
    "Ġvoluntary": 14801,
    "Ġunfrequ": 19511,
    "Ġfort": 2580,
    "Ġteacup": 16218,
    "Ġspeeding": 23566,
    "Ġhistorical": 3647,
    "ives": 1409,
    "Ġspanish": 2827,
    "away": 4627,
    "Ġsynd": 22215,
    "rine": 21040,
    "Ġfervour": 19729,
    "Ã¦": 4337,
    "Ġcoronation": 13337,
    "Ġsnugness": 20080,
    "Ï": 144,
    "Ġrefusal": 10345,
    "Ġperpet": 7645,
    "ige": 12685,
    "Ġimpressions": 9556,
    "Ġsort": 1505,
    "tles": 10732,
    "ification": 989,
    "scoured": 22996,
    "Ġdistorted": 14252,
    "disciple": 16780,
    "Ġstupidity": 15052,
    "fit": 6648,
    "prehend": 14245,
    "Ġconjunction": 25103,
    "Ġsprawling": 22143,
    "Ġspouting": 9442,
    "Ġslipped": 6493,
    "mill": 13757,
    "iously": 2678,
    "riv": 3110,
    "Ġrocked": 12861,
    "gaze": 17559,
    "Ġgeneral": 1861,
    "Ġhorizontal": 7783,
    "never": 3152,
    "Ġgree": 7595,
    "Ġmuhammad": 26170,
    "Ġboys": 5194,
    "acit": 16084,
    "nue": 15400,
    "Ġheadsmen": 14735,
    "iogn": 20923,
    "Ġferry": 24498,
    "Ġassertions": 19950,
    "Ġbeware": 8832,
    "Ġfield": 1232,
    "reward": 15512,
    "bourne": 19104,
    "Ġstage": 7389,
    "Ġmann": 18417,
    "Ġmurderous": 8316,
    "Ġheathen": 10568,
    "Ġinserted": 8356,
    "Ġpens": 21463,
    "Ġtyro": 16996,
    "Ġmultimodal": 18749,
    "Ġpigeon": 9519,
    "base": 20779,
    "Ġdenote": 19335,
    "databases": 3026,
    "âĢĶâĢĻ": 8188,
    "lleg": 20953,
    "Ġvect": 1226,
    "Ġdisgusted": 14993,
    "Ġanything": 2186,
    "unciation": 25983,
    "deception": 22149,
    "admon": 21764,
    "www": 17254,
    "ic": 304,
    "ouched": 4638,
    "Åĵuvre": 25888,
    "Ġtimid": 6347,
    "Ġdeclared": 5595,
    "pier": 17637,
    "Ġsung": 23276,
    "Ġanimation": 11154,
    "Ġcreep": 22723,
    "preference": 22471,
    "Ġdistension": 22507,
    "nailed": 20998,
    "gravel": 22623,
    "Ġsentinel": 26066,
    "Ġlieu": 19567,
    "Ġtenderly": 11316,
    "among": 6258,
    "Ġtoday": 12649,
    "Ġsmelling": 16070,
    "allowing": 24358,
    "Ġautom": 3616,
    "latter": 15386,
    "Ġweeds": 21928,
    "instance": 24170,
    "attended": 8955,
    "Ġspot": 4156,
    "Ġhung": 4561,
    "owners": 16090,
    "la": 10707,
    "Ġrack": 9316,
    "arned": 21821,
    "inquiry": 15146,
    "Ġcleans": 18950,
    "gi": 17553,
    "Ġhooded": 12410,
    "uation": 17696,
    "elijah": 19476,
    "Ġlouder": 13471,
    "Ġmeasureless": 14713,
    "Ġpleasantest": 24139,
    "Ġskilful": 25838,
    "ĠlinnÃ¦us": 15279,
    "Ġgovernesses": 25130,
    "Ġinsol": 10183,
    "ux": 7813,
    "Ġneighbourhood": 5126,
    "Ġsemicirc": 16396,
    "deformity": 22150,
    "Ġcordage": 19681,
    "fifty": 12356,
    "Ġcaves": 15558,
    "Ġconference": 15751,
    "plex": 705,
    "soo": 18684,
    "Ġdelighted": 5499,
    "Ġrocky": 13390,
    "Ġvouch": 15813,
    "ll": 1139,
    "Ġvines": 12757,
    "archangel": 18783,
    "Ġhardly": 2433,
    "Ġapprehended": 26091,
    "Ġform": 1024,
    "ñ": 178,
    "Ġreckon": 19872,
    "oko": 18441,
    "city": 15330,
    "Ġpostpone": 17310,
    "Ġcourt": 4170,
    "Ġequilib": 4137,
    "Ġhonour": 3924,
    "Ġchasing": 11758,
    "Ġhonoured": 9884,
    "Ġbeth": 9660,
    "antically": 22100,
    "shoals": 24716,
    "Ġwraps": 19779,
    "roused": 16655,
    "seemingly": 25363,
    "half": 4932,
    "Ġbedrooms": 19973,
    "Ġpreservative": 24630,
    "Ġdreading": 23800,
    "Ġscattered": 6856,
    "shipped": 18492,
    "Ġexhausted": 8697,
    "azz": 8262,
    "curious": 10485,
    "Ġdestitute": 14569,
    "Ġpassed": 2011,
    "enemy": 15530,
    "Ġselect": 4001,
    "Ġflush": 14427,
    "Ġmethod": 1433,
    "Ġdaylight": 10353,
    "Ġrejoicing": 13424,
    "theirs": 23604,
    "txt": 12520,
    "Ġultimately": 17167,
    "Ġgroves": 16742,
    "Ġmotions": 8281,
    "illes": 12700,
    "Ġlively": 5449,
    "Ġsolved": 8934,
    "chastic": 2334,
    "Ġfer": 5529,
    "material": 13133,
    "Ġunrel": 14698,
    "Ġspeaks": 11161,
    "ernation": 8212,
    "ullen": 8235,
    "Ġhurled": 10431,
    "ilogue": 21728,
    "Ġskylight": 24076,
    "attentive": 17192,
    "princip": 17139,
    "Ġundaunted": 24121,
    "soc": 5175,
    "Ġkno": 5242,
    "Ġaffectionately": 13171,
    "Ġunacquainted": 12782,
    "Ġreference": 2567,
    "protest": 24812,
    "Ġproficiency": 19194,
    "Ġmaid": 5287,
    "Ġcrozetts": 19632,
    "-": 17,
    "Ġhue": 8430,
    "Ġempty": 5354,
    "churning": 21700,
    "Ġdevotion": 22721,
    "Ġtrampled": 20331,
    "gratitude": 16818,
    "Ġbesee": 19245,
    "Ġhysterics": 26094,
    "safety": 20352,
    "prom": 6510,
    "cle": 3958,
    "Ġpaintings": 15058,
    "place": 4155,
    "Ġmoccas": 22440,
    "Ġpuffing": 12259,
    "Ġlistless": 16478,
    "Ġthoughtfully": 12984,
    "whenever": 11885,
    "Ġdisobedience": 22539,
    "approb": 11044,
    "Ġunfathomably": 25874,
    "supernatural": 19782,
    "into": 3681,
    "Ġwash": 9706,
    "Ġlandlessness": 23383,
    "Ġobeisance": 19761,
    "whims": 22243,
    "Ġwarrior": 24496,
    "Ġcass": 13882,
    "umer": 9261,
    "Ġdismember": 20218,
    "latin": 25259,
    "Ġslip": 8957,
    "allow": 5104,
    "Ġabide": 14190,
    "Ġthroughout": 8880,
    "Ġtearless": 24785,
    "Ġweapon": 7776,
    "ľ": 255,
    "Ġwedded": 15539,
    "Ġbowing": 10477,
    "geneva": 13733,
    "utter": 7594,
    "friendship": 24052,
    "Ġcomfor": 14057,
    "Ġcaution": 11348,
    "Ġworrying": 22930,
    "Ġdeception": 18145,
    "Ġmaddened": 17246,
    "Ġembraced": 10009,
    "Ġard": 5164,
    "rum": 3468,
    "Ġbravery": 23839,
    "cles": 8729,
    "Ġbelf": 21384,
    "Ġtemptation": 8681,
    "Ġauthent": 14512,
    "Ġexhilarating": 26339,
    "Ġexposure": 16100,
    "Ġdearer": 14054,
    "bly": 6112,
    "assuming": 22314,
    "Ġmeals": 12717,
    "Ġendeav": 2955,
    "Ġvineyards": 25109,
    "Ġxxxvi": 24972,
    "Ġrepugn": 23366,
    "Ġrachel": 11851,
    "frock": 20124,
    "Ġb": 281,
    "startled": 24944,
    "Ġslew": 23386,
    "idled": 21772,
    "õ": 182,
    "Ġsnap": 11203,
    "arranted": 19322,
    "Ġprofound": 5497,
    "Ġtut": 8774,
    "ush": 3634,
    "Ġray": 18645,
    "gments": 12474,
    "Ġoverflowed": 20265,
    "Ġpilgrimage": 17311,
    "Ġprovide": 7750,
    "Ġinclud": 1510,
    "Ġreflect": 6576,
    "Ġscream": 5936,
    "Ġbawling": 25946,
    "ells": 5305,
    "ix": 1800,
    "pursu": 11394,
    "for": 964,
    "iality": 8848,
    "Ġleft": 1759,
    "mid": 5617,
    "Ġadapted": 11042,
    "cstasy": 11447,
    "Ġdialogue": 12408,
    "emic": 18187,
    "gging": 7697,
    "ryder": 18640,
    "choice": 21694,
    "Ġdarting": 7757,
    "arter": 17895,
    "Ġfrontispiece": 23917,
    "irth": 5634,
    "Ġnominally": 17234,
    "Ġchancing": 22252,
    "elt": 4116,
    "Ġcovers": 18593,
    "Ġattained": 14081,
    "Ġwre": 5077,
    "Ġamiss": 18513,
    "Ġprep": 4192,
    "Ġshad": 3849,
    "Ġalice": 1482,
    "wes": 17705,
    "Ġasks": 5115,
    "Ġquarters": 8623,
    "Ġanalyze": 1604,
    "Ġkrem": 9729,
    "Ġgodfrey": 15297,
    "Ġholy": 6593,
    "Ġwilled": 21294,
    "Ġtyphoons": 20237,
    "Ġdisordered": 16059,
    "Ġfire": 2333,
    "viv": 17700,
    "asions": 12657,
    "wid": 10137,
    "Ġpur": 2216,
    "destiny": 16701,
    "Ġview": 2762,
    "Ġper": 586,
    "overfitting": 13104,
    "bourn": 3298,
    "Ġruins": 16162,
    "joined": 13279,
    "Ġordered": 5833,
    "blacksmith": 17003,
    "uck": 1234,
    "Ġcrescent": 16140,
    "Ġventure": 7740,
    "Ġindies": 22956,
    "Ġthw": 21518,
    "Ġmortar": 19396,
    "Ġwarmer": 19187,
    "enet": 10155,
    "Ġrain": 5005,
    "Ġcontinually": 5041,
    "expression": 10550,
    "Ġob": 860,
    "Ġacquire": 2725,
    "iates": 13740,
    "Ġan": 286,
    "Ġhang": 9190,
    "Ġclean": 5652,
    "Ġthine": 7374,
    "Ġglancing": 5399,
    "Ġillustrative": 25069,
    "Ġbegging": 11081,
    "Ġbonnet": 10658,
    "Ġoh": 2176,
    "Ġhome": 2028,
    "Ġacre": 22684,
    "exc": 5169,
    "Ġbillow": 14783,
    "queness": 18150,
    "Ġsends": 14792,
    "Ġadvice": 4902,
    "mr": 1900,
    "Ġwait": 4908,
    "Ġgiver": 21608,
    "Ġresolution": 5500,
    "ravity": 21638,
    "Ġsublimity": 26348,
    "Ġemploying": 23981,
    "Ġ81": 24457,
    "axing": 18548,
    "corrupt": 14898,
    "Ġinfinity": 23285,
    "Ġsnapping": 19303,
    "apes": 9744,
    "Ġreputation": 11643,
    "remote": 23193,
    "means": 9789,
    "Ġdrags": 16943,
    "certain": 3677,
    "Ġpastures": 23422,
    "Ġmanaged": 7906,
    "Ġmonstrous": 7790,
    "Ġsphynx": 20714,
    "Ġconcise": 23325,
    "Ġresearches": 13127,
    "Ġsuspicions": 9482,
    "Ġvine": 8474,
    "Ġhailing": 11697,
    "Ġsubterr": 10351,
    "Ġjerking": 12250,
    "seriously": 18906,
    "Ġlaughs": 24118,
    "burning": 25081,
    "itically": 21333,
    "chemical": 23810,
    "Ġinto": 648,
    "Ġunjust": 8486,
    "Ġdamp": 8264,
    "Ġunwarrantable": 26346,
    "Ġpeaked": 2296,
    "Ġarrested": 9563,
    "Ġboiling": 8528,
    "sec": 6154,
    "Ġrecom": 4556,
    "uarded": 21108,
    "Ġbell": 4637,
    "Ġhereabouts": 12982,
    "Ġdepress": 14051,
    "Ġwillow": 18529,
    "Ġholmes": 1306,
    "Ġsensation": 6896,
    "water": 4869,
    "Ġunjustly": 17129,
    "solut": 3360,
    "sham": 9760,
    "Ġmonths": 3453,
    "Ġarray": 12815,
    "horror": 13162,
    "Ġdeployment": 11192,
    "distinctive": 25726,
    "plifted": 9713,
    "sheep": 23090,
    "stooped": 23824,
    "Ġpreservation": 24631,
    "Ġpredecessor": 26255,
    "Ġposted": 16726,
    "Ġflourished": 15129,
    "Ġbuildings": 24719,
    "Ġexponentiating": 3444,
    "Ġterr": 3270,
    "Ġpondering": 17007,
    "Ġeuropean": 20049,
    "robust": 19731,
    "Ġsplinters": 15106,
    "Ġdiminish": 14748,
    "Ġgaieties": 24198,
    "Ġsledge": 8111,
    "vo": 11542,
    "ape": 1904,
    "Ġhair": 3311,
    "Ġann": 4490,
    "ĸ": 249,
    "Ġcomplained": 17000,
    "Ġtrough": 15967,
    "Ġpyramids": 15118,
    "troubled": 17113,
    "eyed": 11489,
    "Ġherbage": 25997,
    "Ġevenness": 22837,
    "eer": 15351,
    "Ġg": 310,
    "Ġmoul": 15548,
    "Ġquadrille": 13543,
    "itigated": 23050,
    "Ġnooks": 26012,
    "Ġintegrated": 13533,
    "Ġanchors": 12619,
    "ositories": 22267,
    "Ġoutlandish": 12844,
    "estate": 12827,
    "ancial": 21365,
    "cried": 8728,
    "within": 6732,
    "Ġsprung": 11250,
    "Ġcontinental": 19708,
    "Ġfluttered": 16251,
    "Ġindignant": 12244,
    "Ġdignity": 5704,
    "eties": 10839,
    "Ġgenerating": 12857,
    "daggoo": 13710,
    "Ġnot": 413,
    "Ġliked": 5265,
    "ney": 2495,
    "frau": 15093,
    "Ġfasten": 11134,
    "Ġlub": 15653,
    "distraction": 24203,
    "cous": 8725,
    "Ġ14": 9326,
    "Ġstepped": 7053,
    "fac": 17543,
    "display": 19158,
    "Ġlabelled": 23333,
    "Ġlanguages": 1569,
    "Ġwhaler": 7520,
    "vishnoo": 21122,
    "Ġmaelstrom": 19359,
    "endured": 22231,
    "Ġjets": 10290,
    "Ġmerited": 23733,
    "Ġhertfordshire": 5377,
    "Ġfailing": 12142,
    "hro": 20893,
    "Ġlifting": 10199,
    "Ġobserver": 11993,
    "forth": 9325,
    "Ġmetropol": 11147,
    "strangely": 17279,
    "sum": 2088,
    "Ġmaker": 15547,
    "Ġcheever": 23287,
    "terrible": 8468,
    "Ġtypewriter": 19099,
    "ford": 2822,
    "Ġactor": 16053,
    "iters": 21332,
    "Ġtalks": 23373,
    "entric": 11622,
    "Ġslow": 2381,
    "Ġwarmest": 16486,
    "vast": 10738,
    "Ġcarelessness": 13079,
    "Ġgaping": 13972,
    "Ġvices": 14086,
    "Ġembal": 11905,
    "Ġencoura": 1366,
    "^{": 15308,
    "Ġelephants": 9867,
    "aled": 3945,
    "Ġfashionable": 19547,
    "baned": 17498,
    "hon": 6794,
    "Ġperplexity": 2755,
    "Ġbrink": 18773,
    "Ġvort": 18194,
    "Ġselection": 18205,
    "Ġinconstant": 21499,
    "I": 45,
    "Ġkne": 4266,
    "Ġicy": 10749,
    "Ġcircular": 13114,
    "soldiers": 25912,
    "uccas": 21109,
    "Ġdecl": 3591,
    "saved": 15434,
    "etts": 12666,
    "bask": 20778,
    "z": 94,
    "Ġstrasburgh": 18615,
    "dorff": 15241,
    "ders": 8075,
    "Ġsimplest": 16337,
    "Ġtopsails": 19196,
    "Ġinvari": 6530,
    "Ġelizabeth": 1129,
    "angible": 22109,
    "Ġgrounded": 23714,
    "Ġbite": 10799,
    "Ġconfid": 7687,
    "Ġslice": 23163,
    "ctuous": 9208,
    "Ġimmeas": 18333,
    "j": 78,
    "lur": 13750,
    "Ġwelfare": 12564,
    "treat": 12518,
    "lines": 6959,
    "Ġannals": 17900,
    "Ġsurgeons": 23466,
    "Ġmoral": 6581,
    "Ġwearied": 15798,
    "Ġpostp": 12148,
    "pencil": 18829,
    "Ġlength": 2502,
    "Ġdrama": 16333,
    "Ġointment": 21329,
    "Ġstriding": 16095,
    "imental": 16536,
    "Ġtempt": 5565,
    "Ġpoliceman": 15262,
    "Ġdeliberation": 19972,
    "Ġrespective": 16348,
    "assured": 10954,
    "oughed": 22079,
    "Ġwade": 17786,
    "Ġdodo": 9075,
    "ostent": 16848,
    "fanning": 20868,
    "destroyed": 15264,
    "Ġoblige": 10491,
    "Ġincludes": 2012,
    "Ġplanning": 14754,
    "Ġgoodness": 6060,
    "veral": 2353,
    "Ġinterrupted": 6345,
    "turns": 14909,
    "Ġbutcher": 18272,
    "Ġdeem": 18139,
    "macy": 18804,
    "rest": 1632,
    "Ġcame": 1298,
    "aim": 2756,
    "estim": 14172,
    "Ġincant": 18569,
    "bus": 5355,
    "Ġrecip": 16145,
    "X": 60,
    "Ġodorous": 19569,
    "Ġwhitewashed": 14473,
    "Ġgeor": 3383,
    "idea": 9304,
    "strained": 21661,
    "Ġnodding": 23339,
    "germ": 15360,
    "Ġapproach": 837,
    "swear": 16920,
    "Ġdetected": 18834,
    "attendants": 25496,
    "ite": 712,
    "Ġembod": 14409,
    "Ġroughly": 17041,
    "Ġflora": 11418,
    "Ġoutdone": 22322,
    "Ġrustic": 14968,
    "Ġornam": 15868,
    "Ġrobes": 16261,
    "Ġfisher": 3220,
    "Ġnovelties": 24777,
    "Ġclimbing": 20073,
    "stump": 21656,
    "cork": 20798,
    "Ġcordiality": 24395,
    "Ġwitt": 17785,
    "âĢľ": 344,
    "Ġlabels": 3284,
    "Ġcatch": 4442,
    "Ġcaved": 21356,
    "Ġdilated": 24703,
    "Ġmon": 1253,
    "Ġinnumerable": 13355,
    "nothing": 3154,
    "Ġdow": 17888,
    "Ġlionel": 25287,
    "Ġoffence": 12951,
    "Ġ53": 19638,
    "Ġportentous": 15233,
    "hullo": 17572,
    "Ġscraping": 13419,
    "Ġarisen": 11747,
    "Ġunembarrassed": 22075,
    "mansion": 20985,
    "shut": 10982,
    "accountable": 7111,
    "Ġmons": 10159,
    "Ġwin": 9644,
    "`": 68,
    "Ġtechnique": 2518,
    "Ġobservations": 13556,
    "Ġspars": 3808,
    "!": 5,
    "Ġinterrupt": 4359,
    "Ġjewelled": 20186,
    "aphs": 22340,
    "Ġhampshire": 15246,
    "Ġpilgrim": 25600,
    "unks": 15779,
    "Ġportions": 19372,
    "Ġunder": 1635,
    "drifting": 19827,
    "Ġaberde": 22281,
    "Ġord": 3735,
    "Ġbrixton": 13667,
    "Ġparch": 11730,
    "Ġmentioning": 9902,
    "Ġrenowned": 26195,
    "tem": 6370,
    "solic": 16383,
    "Ġalchemists": 26489,
    "Ġprominence": 18956,
    "Ġinteractions": 12909,
    "eds": 6531,
    "Ġwat": 1286,
    "manifested": 20529,
    "Ġcircumference": 13547,
    "Ġunimportant": 22034,
    "Ġkindness": 4098,
    "hue": 20901,
    "cou": 13699,
    "Ġwakes": 11575,
    "Ġ200": 19298,
    "ivers": 1985,
    "<": 32,
    "Ġvertically": 19383,
    "sicilian": 21066,
    "larger": 24205,
    "Ġpurple": 10435,
    "Ġrevolution": 3301,
    "Ġcapacity": 10442,
    "Ġdestiny": 8986,
    "Ġaudibly": 24770,
    "Ġsurrounds": 24234,
    "Ġvenerable": 9097,
    "iscient": 17853,
    "send": 15426,
    "Ġsalmon": 24066,
    "Ġseal": 10259,
    "Ġinject": 2713,
    "jected": 22715,
    "Ġmended": 21316,
    "imson": 12695,
    "Ġballasted": 23983,
    "orne": 17874,
    "posted": 24636,
    "Ġadviser": 25313,
    "Ġadventures": 7748,
    "solemn": 19820,
    "Ġparticulars": 5754,
    "Ġreser": 5170,
    "Ġanchor": 7368,
    "Ġfiver": 22775,
    "Ġpearl": 20380,
    "Ġspile": 22131,
    "andromeda": 21872,
    "Ġjourney": 3880,
    "Ġfanny": 23394,
    "Ġliking": 23593,
    "resolved": 9642,
    "Ġgrosvenor": 17421,
    "erately": 21276,
    "Ġreclining": 26034,
    "Ġbefall": 8833,
    "Ġ66": 24369,
    "pray": 5429,
    "gged": 3776,
    "consp": 18505,
    "Ġvial": 10251,
    "Ġwhether": 2001,
    "comparatively": 25841,
    "arling": 10816,
    "Ġvel": 7186,
    "ink": 758,
    "Ġcarriage": 3952,
    "exped": 16528,
    "Ġappeals": 16320,
    "Ġor": 437,
    "upset": 23020,
    "Ġsou": 1887,
    "Ġfaintest": 24570,
    "ifling": 15787,
    "Ġpostscript": 14810,
    "Ġinsights": 13182,
    "Ġjavan": 25000,
    "Ġstandard": 14499,
    "Ġtreasure": 9561,
    "Ġunhappily": 18263,
    "suddenly": 6494,
    "Ġnone": 3221,
    "pper": 3208,
    "Ġcard": 7363,
    "bearers": 18522,
    "scr": 16245,
    "Ġbidden": 24647,
    "acters": 9312,
    "Ġchast": 18381,
    "Ġcommonplace": 11098,
    "100": 11466,
    "soles": 18685,
    "Ġsolve": 4197,
    "hit": 20891,
    "income": 15489,
    "ria": 15800,
    "Ġpursuit": 4734,
    "«": 109,
    "iffs": 9025,
    "Ġmiss": 1231,
    "ouncement": 11749,
    "Ġcrate": 19121,
    "Ġexcited": 5580,
    "Ġeu": 6391,
    "Ġsuspects": 16892,
    "Ġbowditch": 19325,
    "aps": 1230,
    "gold": 9123,
    "Ġnecessitated": 23932,
    "valued": 2852,
    "rolled": 9062,
    "Ġbead": 21754,
    "Ġimmemorial": 10513,
    "how": 1642,
    "lessness": 5318,
    "Ġreplenished": 13639,
    "Ġanim": 2113,
    "Ġrights": 10399,
    "Ġwarehouses": 20421,
    "į": 240,
    "Ġrescued": 24209,
    "ww": 10739,
    "look": 2262,
    "Ġbizarre": 17873,
    "relations": 14736,
    "Ġadmiration": 5329,
    "glim": 19368,
    "Ġfondly": 19619,
    "vine": 10736,
    "ribbed": 16416,
    "Ġbolivia": 24668,
    "removing": 17766,
    "Ġone": 568,
    "Ġgrasping": 12170,
    "Ġkid": 9728,
    "Ġcontrast": 2118,
    "Ġincorporate": 20457,
    "Ġorders": 5341,
    "Ġeveryday": 22776,
    "ment": 690,
    "Ġabatement": 22280,
    "rief": 6204,
    "Ġsuperior": 2753,
    "interest": 5421,
    "Ġblasphemy": 26116,
    "Ġsoftmax": 1689,
    "Ġsoftware": 18920,
    "Ġoak": 6130,
    "yea": 23091,
    "puff": 21024,
    "Ġcherry": 16937,
    "beloved": 19464,
    "Ġturbid": 23613,
    "ell": 397,
    "paint": 21020,
    "Ġgorge": 13569,
    "Ġwidth": 16774,
    "Ġhosmer": 6775,
    "Ġplaintiffs": 13612,
    "Ġcrisp": 12007,
    "Ġwindpipe": 23111,
    "esting": 7412,
    "Ġhieroglyph": 11975,
    "easy": 9595,
    "Ġbowels": 9433,
    "nikin": 23257,
    "Ġspiritual": 9933,
    "Ġlogger": 11958,
    "Ġordinarily": 20651,
    "Ġheiress": 20700,
    "tery": 14040,
    "è": 169,
    "Ġglobu": 23275,
    "Ġlurked": 11293,
    "ortunity": 4403,
    "Ġmultiple": 1186,
    "Ġcrushed": 9426,
    "swell": 17665,
    "bedded": 12447,
    "Ġconverts": 2805,
    "istical": 8492,
    "Ġhosts": 19942,
    "Ġsleep": 2400,
    "Ġgathered": 8444,
    "natural": 2200,
    "flung": 16641,
    "bu": 5132,
    "Ġbask": 8117,
    "Ġintelligences": 12837,
    "ured": 1653,
    "ck": 436,
    "value": 18806,
    "Ġliterary": 25166,
    "Ġancestry": 25642,
    "Ġdischarge": 18557,
    "uced": 13803,
    "Ġside": 1387,
    "90": 12436,
    "Ġweep": 7620,
    "stri": 6251,
    "Ġ550": 19639,
    "igantic": 5539,
    "adel": 15733,
    "directed": 20408,
    "Ġscaffold": 18401,
    "a": 69,
    "displeasure": 23499,
    "Ġscenarios": 26544,
    "speechless": 25396,
    "dignity": 15349,
    "====": 1481,
    "stained": 21658,
    "Ġtrad": 9831,
    "Ġtie": 10752,
    "vis": 4578,
    "onic": 7827,
    "Ġhovel": 8254,
    "Ġcontemplate": 19894,
    "Ġnervousness": 23558,
    "Ġsh": 419,
    "Ġissued": 10602,
    "richard": 17289,
    "Ġscale": 1551,
    "Ġpat": 1711,
    "clearly": 25196,
    "shrouded": 26363,
    "ability": 715,
    "Ġremonstr": 16165,
    "Ġpredestinated": 18540,
    "Ġamiable": 4269,
    "Ġspake": 18309,
    "Ġvoc": 4452,
    "sofa": 26147,
    "Ġslopes": 18943,
    "Ġvanish": 8931,
    "Ġtendinous": 16933,
    "intercourse": 14640,
    "nostr": 22737,
    "R": 54,
    "Ġgash": 15675,
    "Ġrise": 5637,
    "bits": 17491,
    "ta": 13792,
    "Ġlondon": 2838,
    "itute": 9654,
    "enough": 6810,
    "Ġimproves": 22757,
    "Ġmerid": 13198,
    "Ġknown": 1641,
    "pol": 5894,
    "Ġsocial": 7009,
    "benevolent": 15237,
    "Ġperem": 12938,
    "Ġeffort": 8202,
    "nui": 21002,
    "Ġearls": 18905,
    "Ġfrost": 6097,
    "ars": 907,
    "Ġdescrying": 18619,
    "usually": 10288,
    "Ġsigning": 22711,
    "contracting": 19296,
    "ologically": 22858,
    "Ġactiv": 833,
    "Ġ58": 24322,
    "Ġenough": 1760,
    "Ġquench": 22423,
    "leo": 21367,
    "susp": 10599,
    "Ġpleasantly": 14521,
    "Ġvisited": 5949,
    "Ġtarshish": 12033,
    "Ġxliv": 23411,
    "Ġrepel": 23362,
    "Ġneared": 14076,
    "Ġhushed": 13928,
    "airing": 16180,
    "Ġ1894": 5196,
    "Ġinclement": 22557,
    "appalled": 18762,
    "haust": 5777,
    "Ġfolding": 19730,
    "wal": 10136,
    "Ġflooded": 24962,
    "Ġalien": 14021,
    "urry": 13997,
    "Ġeight": 3903,
    "Ġnarrative": 6217,
    "Ġsatan": 14393,
    "Ġsink": 4340,
    "Ġcoincidence": 25484,
    "Ġtepid": 26414,
    "?âĢĻ": 2640,
    "Ġstartling": 14673,
    "related": 24015,
    "Ġadvise": 7936,
    "ad": 337,
    "Ġcharacteristic": 12052,
    "Ġcobbling": 20526,
    "Ġbusied": 19066,
    "iv": 433,
    "chanced": 18812,
    "hob": 20902,
    "intosh": 22943,
    "dataset": 23246,
    "Ġimagined": 8610,
    "Ġproportions": 16470,
    "Ġopenly": 8576,
    "batch": 1984,
    "Ġfolds": 12211,
    "Ġleaps": 14011,
    "Ġcharging": 23270,
    "ö": 183,
    "Ġseeking": 7037,
    "Ġbrazier": 26322,
    "Ġbas": 6381,
    "Ġsauc": 15892,
    "rugged": 6849,
    "Ġlastly": 16208,
    "Ġsnorting": 23743,
    "Ġswift": 3670,
    "ë": 172,
    "Ġcomrades": 9236,
    "Ġchall": 10947,
    "regulated": 23469,
    "Ġswung": 6450,
    "penny": 22948,
    "Ġn": 300,
    "haven": 20914,
    "Ġadvantage": 4316,
    "ientious": 11695,
    "eight": 9594,
    "Ġaffectation": 14443,
    "Ġarmada": 23582,
    "Ġforging": 18096,
    "stranger": 9886,
    "aking": 974,
    "hs": 8378,
    "odiac": 14031,
    "Ġlover": 7193,
    "phew": 6369,
    "surf": 24215,
    "fellow": 6793,
    "point": 6064,
    "Ġdampening": 2895,
    "Ġ60": 14878,
    "lounged": 26134,
    "Ġescaping": 13138,
    "antled": 18288,
    "Ġpicked": 6343,
    "head": 1436,
    "erting": 17779,
    "Ġjest": 18404,
    "mouthed": 12404,
    "Ġsouthwards": 19636,
    "Ġmissing": 6177,
    "speptic": 23949,
    "walton": 20252,
    "Ġsurmount": 20004,
    "wolf": 26411,
    "Ġvariation": 22668,
    "autions": 20769,
    "Ġalongside": 6313,
    "een": 726,
    "Ġacc": 569,
    "perseus": 26006,
    "ips": 2593,
    "ches": 2148,
    "Ġbreak": 2867,
    "Ġdivinest": 25722,
    "Ġfilled": 4394,
    "Ġgreenwich": 19323,
    "Ġexpose": 10330,
    "itud": 2930,
    "Ġperpendicularly": 11376,
    "Ġ99": 10747,
    "unk": 4540,
    "Ġrelationship": 2315,
    "Ġscr": 11764,
    "Ġpaper": 4282,
    "Ġearly": 2080,
    "Ġdents": 13914,
    "Ġdependent": 14302,
    "aded": 3550,
    "Ġwidest": 24237,
    "metallic": 19882,
    "Ġcoils": 9306,
    "Ġstag": 6150,
    "dreaded": 25141,
    "Ġstratag": 26029,
    "Ġsignals": 10588,
    "Ġaltern": 7394,
    "Ġrelative": 11887,
    "Ġvivacity": 14944,
    "Ġcreat": 1472,
    "Ġacceler": 1611,
    "Ġimperfect": 13343,
    "Ġmessage": 13525,
    "anchor": 13892,
    "Ġoft": 9197,
    "ertain": 1208,
    "georgiana": 26021,
    "Ġwhole": 1662,
    "attain": 21264,
    "Ġfortunes": 12183,
    "rist": 10125,
    "Ġnovember": 11753,
    "Ġoarsman": 8641,
    "mediterranean": 16408,
    "measure": 10034,
    "aited": 12439,
    "Ġbarnacled": 25537,
    "Ġforeseeing": 23451,
    "ulates": 14058,
    "Ġimagination": 5759,
    "Ġdisliked": 12897,
    "odecimoes": 25319,
    "Ġglass": 4369,
    "intentions": 22942,
    "Ġaunt": 3177,
    "Ġwane": 21291,
    "Ġstabbed": 25457,
    "holloa": 19467,
    "brave": 19826,
    "aution": 9390,
    "Ġwinds": 5746,
    "Ġrepenting": 25323,
    "visits": 24226,
    "Ġ103": 24411,
    "Ġbrilliancy": 20110,
    "speed": 19412,
    "Ġr": 405,
    "Ġarched": 10934,
    "adventurous": 25362,
    "Ġarranged": 9880,
    "Ġdeclaration": 16639,
    "Ġcrushing": 20179,
    "Ġcotton": 17382,
    "moonlight": 25376,
    "bears": 22494,
    "opatra": 22481,
    "mews": 22717,
    "Ġwaterproof": 19090,
    "Ġrides": 21975,
    "Ġsuspecting": 14913,
    "restrained": 16339,
    "Ġpainted": 7979,
    "continual": 20646,
    "Ġconsciousness": 9951,
    "Ġquakers": 22420,
    "thrust": 10264,
    "deep": 1013,
    "une": 2785,
    "Ġcondescended": 19959,
    "Ġunex": 11717,
    "stout": 21648,
    "Ġsympathetic": 17362,
    "Ġoverspread": 14209,
    "Ġstability": 1362,
    "Ġbison": 21391,
    "apparently": 15208,
    "speaks": 19722,
    "recur": 4438,
    "Ġwatch": 2744,
    "Ġswells": 9830,
    "Ġswash": 23058,
    "shame": 16026,
    "Ġcracks": 12024,
    "Ġnathan": 21529,
    "Ġtempered": 12929,
    "Ġmorals": 22980,
    "Ġdefinite": 11071,
    "aste": 4602,
    "Ġstat": 1488,
    "bethink": 25745,
    "paying": 25412,
    "bern": 20777,
    "Ġcure": 21343,
    "tort": 17677,
    "Ġwolves": 25935,
    "pow": 10719,
    "Ġath": 15805,
    "clear": 9027,
    "Ġheroes": 10579,
    "Ġdivision": 19447,
    "Ġrash": 10900,
    "castle": 3346,
    "¶": 119,
    "Ġsamuel": 10036,
    "shabbily": 26248,
    "Ġshadowed": 24049,
    "Ġdistinct": 4610,
    "Ġoffended": 7042,
    "onement": 21259,
    "ĠĠĠĠĠĠĠĠĠĠĠĠĠĠĠĠĠĠĠĠĠĠĠĠĠĠ": 13391,
    "Ġlie": 4406,
    "Ġbarricade": 14662,
    "Ġmajestic": 8643,
    "Ġdistances": 22506,
    "Ġtons": 11552,
    "Ġofficio": 23818,
    "Ġlowers": 23242,
    "hig": 12479,
    "Ġevidence": 5270,
    "Ġtraveller": 8049,
    "Ġcowardice": 17033,
    "Ġwaking": 11573,
    "Ġbowlines": 19324,
    "Ġdepended": 9780,
    "plans": 21956,
    "distant": 13338,
    "imprudent": 14653,
    "benefact": 24642,
    "Ġalleg": 14020,
    "Ġthrill": 24541,
    "surrounded": 26089,
    "Ġcook": 3712,
    "Ġbackbones": 22655,
    "Ĥ": 229,
    "Ġovertake": 15976,
    "Ġinn": 4591,
    "Ġtransparency": 10679,
    "reeling": 21247,
    "heartedness": 24825,
    "sych": 9898,
    "omit": 13977,
    "Ġneural": 620,
    "Ġlanyard": 26463,
    "Ġpreferred": 14969,
    "anced": 1335,
    "ishop": 9745,
    "racing": 21634,
    "Ġsust": 7008,
    "Ġerud": 20058,
    "Ġperse": 6273,
    "eddling": 11901,
    "Ġmortal": 4683,
    "Ġpilot": 5986,
    "Ġpugnacious": 26453,
    "Ġdipped": 15599,
    "Ġissue": 2310,
    "ĠĠĠĠĠĠĠĠĠĠĠĠĠĠĠĠĠĠĠĠĠĠĠĠĠĠĠĠĠĠ": 24443,
    "Ġcollege": 11426,
    "Ġhitherto": 5881,
    "Ġbuilt": 8301,
    "mend": 20968,
    "Ġunderstand": 834,
    "angu": 571,
    "dozen": 23381,
    "Ġdisapprobation": 16062,
    "cordiality": 25140,
    "Ġimpulsive": 19966,
    "unguarded": 23672,
    "stocks": 23823,
    "strongly": 24685,
    "oblivious": 26584,
    "arrival": 15604,
    "Ġspatial": 2731,
    "Ġblinded": 13274,
    "pence": 15412,
    "Ġejaculation": 20257,
    "accompl": 9883,
    "Ġlur": 5226,
    "Ġgrec": 18962,
    "gangway": 20670,
    "rust": 2582,
    "remarkable": 13500,
    "Ġjib": 14196,
    "Ġbright": 3212,
    "Ġtag": 15471,
    "Ġguide": 3214,
    "az": 2182,
    "Ġinquiry": 6485,
    "Ġcommission": 6714,
    "politeness": 16908,
    "Ġtunnel": 14933,
    "idually": 21773,
    "Ġwholly": 4448,
    "rannical": 26403,
    "stairs": 5155,
    "Ġquant": 6425,
    "Ġsoil": 9258,
    "×": 152,
    "years": 6883,
    "Ġdaggoo": 5441,
    "trust": 21081,
    "Ġcomposedly": 25184,
    "Ġdepart": 4658,
    "Ġvalidation": 2357,
    "Ġfidgeted": 25890,
    "Ġcaps": 8416,
    "Ġnod": 1888,
    "Ġextraordinary": 5414,
    "Ġhappening": 14386,
    "Ġsaith": 14158,
    "tall": 17675,
    "feeling": 6619,
    "Ġfulf": 6773,
    "Ġstrained": 10221,
    "volume": 18591,
    "Ġdripping": 13150,
    "Ġsquad": 22840,
    "Ġstaple": 26200,
    "christmas": 20258,
    "Ġloadstone": 25817,
    "Ġredress": 23754,
    "Ġpath": 2114,
    "erably": 7573,
    "Ġresembling": 4099,
    "Ġshot": 4545,
    "Ġlydia": 2375,
    "Ġconn": 9232,
    "emy": 14078,
    "Ġsepulch": 15288,
    "Ġreadiness": 13054,
    "Ġincrust": 22554,
    "Ġdegree": 3704,
    "Ġissu": 6255,
    "ascribed": 24707,
    "Ġshooting": 11164,
    "Ġsetting": 7048,
    "Ġtypewriting": 16424,
    "Ġglimmering": 25241,
    "Ġfive": 2835,
    "Ġzero": 1203,
    "Ġscraggy": 24580,
    "Ġout": 542,
    "olog": 1055,
    "Ġmastiff": 23727,
    "wanderer": 25424,
    "studied": 17152,
    "insufferable": 21195,
    "appearing": 14639,
    "uncomfortable": 18163,
    "Ġdifficulties": 11227,
    "Ġplatonian": 25121,
    "trees": 10733,
    "misrepresented": 24214,
    "Ġskirt": 18730,
    "Ġsecondary": 23336,
    "gentlemanlike": 20005,
    "Ġmistaken": 4986,
    "promise": 12255,
    "ren": 549,
    "Ġepo": 21622,
    "Ġwrapt": 24596,
    "shr": 10981,
    "Ġasser": 6259,
    "perceived": 8862,
    "anc": 6380,
    "Ġfolded": 7768,
    "Ġassures": 14468,
    "Ġexult": 10233,
    "Ġfooted": 23798,
    "Ġerect": 6145,
    "Ġphilips": 5410,
    "Ġconven": 6153,
    "foremost": 14255,
    "Ġ270": 25133,
    "irm": 3109,
    "Ġcurves": 18845,
    "Ġmaledictions": 26430,
    "Ġspoils": 24805,
    "aits": 20768,
    "Ġelder": 7224,
    "singing": 24363,
    "Ġprecious": 5760,
    "Ġclanging": 18424,
    "mency": 18928,
    "endure": 22229,
    "previous": 9764,
    "Ġcomm": 839,
    "desired": 9008,
    "Ġevaporate": 26334,
    "Ġhesitating": 16949,
    "Ġvesture": 20065,
    "succeeded": 15179,
    "angle": 22108,
    "Ġlaure": 16911,
    "surpr": 5998,
    "andy": 8158,
    "Ġdup": 21430,
    "Ġadversarial": 5607,
    "culine": 19065,
    "Ġcaught": 3730,
    "Ġbear": 3659,
    "horse": 8609,
    "caus": 11478,
    "Ġdespise": 14668,
    "Ġdestroy": 5772,
    "Ġunholy": 26220,
    "Ġbequest": 21757,
    "seventh": 12720,
    "Ġharsh": 9524,
    "Ġ124": 24469,
    "do": 1996,
    "Ġplacid": 11830,
    "bit": 3933,
    "beware": 16043,
    "hastening": 24448,
    "Ġhugh": 15006,
    "Ġplain": 2816,
    "odious": 21814,
    "Ġmedical": 9473,
    "Ġyawn": 7610,
    "Ġears": 4491,
    "inder": 9155,
    "Ġxli": 14543,
    "Ġconstruction": 9388,
    "stee": 21654,
    "philosop": 9570,
    "Ġpaws": 13924,
    "Ġregular": 936,
    "Ġfearfully": 23515,
    "Ġembedding": 2104,
    "Ġcome": 1244,
    "Ġcomprised": 14270,
    "br": 2480,
    "Ġtraversed": 18894,
    "ries": 3350,
    "aker": 3664,
    "cooper": 19191,
    "Ġsaintsbury": 26374,
    "hills": 13739,
    "Ġrheumatic": 20707,
    "Ġsoothing": 8173,
    "Ġlick": 21553,
    "Ġabundantly": 17159,
    "taining": 7206,
    "aved": 5475,
    "Ġjumping": 13345,
    "imaux": 21715,
    "Ġtanning": 17731,
    "Ġsp": 457,
    "Ġinvolved": 8927,
    "Ġsuper": 2154,
    "abroad": 18111,
    "âĢĻâĢĶ": 12742,
    "Ġfigures": 8633,
    "Ġspurn": 18310,
    "Ġdiscoveries": 13362,
    "Ġdun": 6676,
    "decided": 13218,
    "Ġoctober": 17229,
    "nails": 17616,
    "Ġgroaned": 11268,
    "vid": 914,
    "yet": 3752,
    "avern": 24791,
    "Ġnupt": 13946,
    "verity": 14004,
    "Ġimpotent": 18447,
    "Ġbarque": 23792,
    "Ġsuppression": 23003,
    "rived": 5373,
    "Ġsolution": 9808,
    "lightning": 16555,
    "probability": 17024,
    "load": 12887,
    "Ġfright": 3795,
    "then": 2054,
    "Ġkindled": 19030,
    "Ġmixing": 24937,
    "Ġmishap": 20579,
    "fooled": 24419,
    "Ġlays": 15989,
    "Ġinstructing": 3123,
    "Ġdivert": 23595,
    "Ġbru": 13898,
    "yden": 21146,
    "Ġengraving": 17081,
    "Ġhopes": 4234,
    "Ġpreserving": 19799,
    "Ġembark": 8559,
    "Ġarchangel": 8545,
    "Ġazores": 20196,
    "interred": 23739,
    "ividually": 22092,
    "ocations": 23710,
    "ginger": 13166,
    "Ġtailed": 21171,
    "Ġexpatiate": 18625,
    "Ġanalogy": 25640,
    "Ġdenying": 14660,
    "welt": 12525,
    "distrustful": 26332,
    "ron": 5216,
    "repugnance": 16866,
    "Ġpeels": 22694,
    "Ġpresc": 15929,
    "Ġethiop": 26156,
    "Ġstreamed": 14547,
    "olets": 21010,
    "Ġloveliness": 13611,
    "Ġmaw": 15544,
    "Ġdiscretion": 10350,
    "dron": 17527,
    "Ġstash": 18070,
    "Ġhemp": 9218,
    "teenth": 11878,
    "Ġnobleman": 19395,
    "elect": 20848,
    "trade": 19647,
    "reasoning": 9479,
    "ruck": 6848,
    "Ġmelt": 21320,
    "Ġmarket": 7709,
    "roof": 17956,
    "Ġmabel": 17327,
    "write": 14649,
    "Ġpitching": 16613,
    "move": 11858,
    "Ġintrusted": 21996,
    "Ġcongratulations": 10583,
    "prit": 19345,
    "Ġblinding": 14731,
    "Ġrun": 2354,
    "Ġchaise": 9079,
    "Ġsociable": 19407,
    "Ġiii": 7861,
    "Ġcogn": 11004,
    "Ġconsistent": 14530,
    "Ġringleader": 26214,
    "Ġblast": 7445,
    "together": 3557,
    "smallest": 23915,
    "Ġlongitudes": 22640,
    "Ġjen": 9270,
    "Ġtells": 9364,
    "derment": 22170,
    "cial": 2648,
    "Ġkent": 6693,
    "shall": 4551,
    "granting": 23416,
    "Ġregularizer": 2339,
    "Ġsaturation": 2064,
    "Ġnest": 10191,
    "labour": 23918,
    "Ġscimet": 22292,
    "Ġflights": 24752,
    "Ġpoul": 15617,
    "ishes": 6524,
    "wn": 719,
    "ucy": 15447,
    "Ġarchitect": 995,
    "{": 95,
    "Ġdubious": 17386,
    "Ġwell": 903,
    "Ġcorpus": 13036,
    "requirements": 24858,
    "token": 21085,
    "Ġsix": 3046,
    "verted": 10220,
    "Ġgay": 5535,
    "Ġsquee": 7929,
    "bedstead": 23935,
    "bacc": 7795,
    "Ġsmoke": 4716,
    "Ġcoldness": 23761,
    "ucumber": 19060,
    "expectant": 24278,
    "Ġwoman": 2388,
    "Ġgpus": 3732,
    "Ġclad": 12846,
    "Ġhorribly": 16346,
    "Ġgrate": 12969,
    "Ġdeposed": 16091,
    "hatches": 19930,
    "Ġcous": 3435,
    "benevolently": 25601,
    "ization": 484,
    "Ġbravely": 23841,
    "monograph": 23529,
    "Ġelapsed": 7653,
    "mercenary": 26316,
    "stains": 11640,
    "Ġsave": 4053,
    "Ġalleghan": 25796,
    "atching": 8203,
    "dread": 8732,
    "gans": 11492,
    "sleeping": 13457,
    "itzerland": 9998,
    "unvarying": 21891,
    "Ġlaborious": 13107,
    "û": 188,
    "Ġmilitia": 13321,
    "Ġhigher": 1819,
    "paralleled": 14515,
    "Ġcomply": 8894,
    "Ġadvocate": 13680,
    "Ġantagonist": 26330,
    "Ġweapons": 10596,
    "Ġsneering": 24696,
    "ality": 2513,
    "Ġshocks": 16460,
    "informed": 17738,
    "Ġconverse": 11848,
    "dances": 17523,
    "Ġafric": 8907,
    "Ġassisted": 11112,
    "Ġcontain": 1555,
    "irons": 10241,
    "Ġdexterous": 15152,
    "uneasy": 23689,
    "vous": 2253,
    "Ġstraightway": 9020,
    "irous": 8843,
    "Ġschooner": 16749,
    "Ġharness": 17930,
    "Ġtorments": 13397,
    "asted": 4651,
    "rich": 11520,
    "Ġhyena": 24519,
    "forster": 16170,
    "Ġfeels": 6882,
    "Ġdimension": 3239,
    "Ġdesigns": 13020,
    "Ġcholera": 22257,
    "sle": 9141,
    "itement": 7835,
    "Ġrecursive": 4783,
    "Ġevident": 6615,
    "ppery": 10894,
    "Ġparmacetti": 20607,
    "Ġrever": 6538,
    "composure": 24037,
    "ĠâĢľâĢĺ_": 25114,
    "effort": 19217,
    "Ġsalvation": 14760,
    "ped": 6964,
    "Ġwith": 348,
    "Ġoutfits": 22325,
    "beef": 18521,
    "Ġprevention": 16097,
    "ox": 9136,
    "Ġpistol": 7847,
    "affections": 17359,
    "shoe": 14970,
    "Ġclaw": 22354,
    "Ġentitled": 8542,
    "Ġcurrents": 13014,
    "Ġplaything": 19240,
    "Ġwarmth": 6905,
    "blog": 19842,
    "Ġseventeen": 26212,
    "Ġaccusation": 22382,
    "ptic": 21922,
    "Ġfitness": 24003,
    "initions": 21190,
    "Ġgushed": 21610,
    "Ġdomes": 23653,
    "Ġreign": 13988,
    "Ġcred": 8785,
    "Ġinaudible": 21502,
    "Ġrose": 3441,
    "discernible": 20553,
    "Ġtune": 17727,
    "strike": 14952,
    "Ġdivulged": 16651,
    "Ġtouched": 6002,
    "famous": 16918,
    "Ġafrica": 12349,
    "Ġsubstances": 24167,
    "Ġcontention": 22430,
    "Ġwindlass": 7255,
    "Ġsoftened": 11103,
    "creatures": 7517,
    "splash": 25210,
    "mered": 8218,
    "Ġirish": 14536,
    "uated": 10134,
    "Ġincommun": 25309,
    "Ġknot": 7013,
    "Ġsebastian": 11702,
    "Ġtorpor": 25034,
    "theast": 21752,
    "Ġadvance": 5484,
    "Ġsoo": 15864,
    "bitts": 26123,
    "Ġarc": 14161,
    "Ó": 148,
    "Ġwalrus": 14976,
    "lect": 1224,
    "examination": 25479,
    "Ġtranque": 14203,
    "Ġquarrelling": 13501,
    "oise": 15407,
    "Ġwhistle": 9068,
    "rob": 5534,
    "musical": 25341,
    "Ġtwig": 11854,
    "obedience": 17413,
    "Ġslouched": 13063,
    "Ġsuperst": 7704,
    "Ġwithdrew": 9699,
    "Ġsword": 6734,
    "ĺ": 251,
    "win": 6802,
    "conquerable": 17402,
    "Ġharb": 7370,
    "Ġribs": 7103,
    "uble": 21105,
    "Ġsupple": 23002,
    "Ġperfect": 2557,
    "Ġcollins": 2181,
    "vacancies": 25920,
    "Ġchimer": 24603,
    "Ġhomage": 12359,
    "Ġmills": 21314,
    "ippi": 20247,
    "etency": 21585,
    "Ġpenetrated": 13475,
    "inclined": 10642,
    "elop": 1513,
    "Ġdau": 21428,
    "ably": 1847,
    "Ġensuring": 11194,
    "Ġeth": 17718,
    "Ġsatur": 1930,
    "covenant": 23563,
    "Ġcom": 368,
    "inte": 5144,
    "diver": 20833,
    "Ġday": 956,
    "ivia": 22088,
    "oing": 15404,
    "Ġconfidently": 24958,
    "Ġextending": 11025,
    "crowd": 25255,
    "Ġaccomplished": 7106,
    "boys": 13363,
    "afforded": 25866,
    "snow": 10726,
    "peace": 13053,
    "Ġpaus": 4298,
    "Ġmister": 22758,
    "uer": 21103,
    "upp": 10133,
    "Ġsuperl": 16445,
    "Ġcommodore": 12399,
    "ension": 6571,
    "Ġincomplete": 17211,
    "Ġroared": 7025,
    "obscure": 23101,
    "jaws": 20934,
    "shaken": 16027,
    "Ġtragedies": 25242,
    "Ġaffections": 10387,
    "Ġcheerily": 13311,
    "Ġtract": 21168,
    "Ġcrav": 19175,
    "fancy": 7337,
    "iety": 2817,
    "Ġby": 383,
    "Ġcheapside": 23291,
    "aster": 1867,
    "prairies": 20569,
    "Ġmat": 1145,
    "blunder": 24131,
    "Ġinquirer": 24964,
    "Ġfullest": 14816,
    "Ġfleshy": 24615,
    "bows": 10084,
    "Ġbashee": 19851,
    "Ġdescend": 7427,
    "sho": 6426,
    "Ġgasps": 24866,
    "des": 3172,
    "Ġinterval": 4055,
    "turbaned": 24532,
    "par": 1841,
    "bran": 23576,
    "Ĩ": 233,
    "Ġbitterness": 8024,
    "Ġunited": 6840,
    "Ġgrind": 18735,
    "Ġpredomin": 16050,
    "abounding": 25980,
    "ersburgh": 18210,
    "uting": 15664,
    "Ġposterity": 17405,
    "Ġpulse": 13118,
    "Ġven": 4649,
    "gates": 20874,
    "accepting": 20138,
    "Ġboxed": 24360,
    "Ġmarried": 3405,
    "Ġfut": 15579,
    "avoiding": 25237,
    "Ġparameter": 872,
    "idol": 21770,
    "beating": 22493,
    "Ġassaults": 15160,
    "whom": 8185,
    "reeable": 3613,
    "esy": 9185,
    "ste": 3586,
    "owders": 18050,
    "Ġ9": 5902,
    "Ġdefici": 22946,
    "Ġromish": 19587,
    "Ġscrewing": 20211,
    "Ġadequ": 10915,
    "accomplished": 17214,
    "Ġterrible": 5328,
    "Ġestablishment": 13582,
    "Ġintrospect": 15832,
    "runs": 25416,
    "thus": 5158,
    "Ġsketch": 16169,
    "Ġappearances": 10453,
    "Ġhid": 1319,
    "Ġshun": 11713,
    "Ġrefrain": 12950,
    "Ġsank": 5076,
    "adders": 24400,
    "Ġpursued": 6330,
    "Ġgermany": 25786,
    "Ġsubmitted": 11875,
    "mped": 16650,
    "hau": 17564,
    "arab": 21444,
    "better": 7121,
    "Ġurgent": 16871,
    "Ġpurposes": 11170,
    "Ġblocked": 19225,
    "ineas": 15826,
    "Ġ31": 12135,
    "Ġbranches": 6777,
    "Ġensigns": 23692,
    "deaux": 22152,
    "Ġchocks": 13349,
    "lays": 14925,
    "coff": 9112,
    "Ġuse": 831,
    "Ġclergyman": 8715,
    "Ġirr": 10423,
    "Ġscoundrel": 13674,
    "Ġbefitting": 15730,
    "slipping": 25529,
    "Ġpiled": 8426,
    "Ġcascade": 20584,
    "Ġinvited": 6903,
    "ulence": 15770,
    "Ġhousekeeping": 18946,
    "Ġstrat": 16094,
    "sculpt": 16248,
    "Ġdischarged": 15224,
    "message": 17375,
    "Ġdood": 22246,
    "Ġperpetual": 12307,
    "Ġbabel": 24426,
    "Ġvote": 21951,
    "Ġgratefully": 20448,
    "Ġ}": 21156,
    "Ġul": 6828,
    "Ġdedu": 5583,
    "Ġcream": 22722,
    "Ġilliter": 23470,
    "Ġdisabled": 18562,
    "Ġwaggish": 25435,
    "Ġferguson": 17472,
    "windlass": 16723,
    "Ġlye": 21554,
    "Ġsaville": 15893,
    "ax": 693,
    "awned": 19463,
    "Ġtigris": 25760,
    "Ġsine": 10765,
    "Ġmounting": 19980,
    "Ġremnants": 22796,
    "Ġcut": 2641,
    "Ġcoinc": 11003,
    "storm": 9685,
    "deck": 4501,
    "remain": 9841,
    "Ġdare": 3546,
    "Ġgrand": 3594,
    "iter": 4391,
    "frozen": 25142,
    "ouch": 2779,
    "Ġhammer": 6095,
    "holes": 12058,
    "Ġhorn": 6187,
    "Ġproposed": 7460,
    "rudential": 16711,
    "ville": 6088,
    "Ġknees": 6928,
    "Ġfork": 15736,
    "Ġhours": 2818,
    "ipped": 5790,
    "resc": 21241,
    "Ġvillas": 24057,
    "Ġab": 529,
    "cloud": 11107,
    "merit": 19283,
    "ily": 1031,
    "Ġcontraction": 16012,
    "cary": 10693,
    "Ġhorse": 4726,
    "Ġsoft": 1456,
    "Ġforcing": 3222,
    "holmes": 4431,
    "hair": 9125,
    "Ġaged": 10324,
    "olerable": 7183,
    "Ġembatt": 18831,
    "Ġrepublic": 14533,
    "Ġboth": 1655,
    "everywhere": 23701,
    "placidity": 25989,
    "nowadays": 22342,
    "ohnson": 16330,
    "furn": 10094,
    "Ġdays": 2079,
    "illation": 14144,
    "Ġdemoniac": 15068,
    "Ġoffers": 12952,
    "Ġemploy": 3617,
    "Ġsuffoc": 18871,
    "Ġsponge": 26004,
    "ĠĠĠ": 2115,
    "request": 21244,
    "elag": 12664,
    "Ġwharf": 9562,
    "'": 11,
    "),": 1348,
    "Ġgilder": 21616,
    "county": 25397,
    "Ġ54": 24318,
    "Ġnotion": 7882,
    "Ġjon": 15952,
    "Ġid": 1907,
    "bringing": 17169,
    "Ġchief": 3377,
    "Ġexalted": 12416,
    "Ġrecommending": 24333,
    "prison": 14665,
    "Ġneeds": 6607,
    "Ġhurling": 19112,
    "rah": 8137,
    "Ġrenewed": 9541,
    "laugh": 10111,
    "Ġsurm": 7476,
    "blo": 6355,
    "Ġregret": 5561,
    "Ġeager": 3571,
    "took": 6166,
    "Ġfang": 21406,
    "½": 126,
    "erated": 21273,
    "Ġlate": 3373,
    "Ġdividing": 12116,
    "Ġparson": 6689,
    "Ġswelling": 11929,
    "Ġsphy": 18312,
    "hump": 12482,
    "agatha": 21912,
    "Ġtragedy": 10670,
    "patient": 25343,
    "vings": 9754,
    "?âĢĿ": 700,
    "Ġoblong": 14324,
    "bingleys": 19637,
    "Ġboldness": 24428,
    "Ġtransl": 2829,
    "aff": 3102,
    "pton": 15796,
    "impression": 15715,
    "ails": 6162,
    "Ġmakest": 25436,
    "Ġeurope": 8062,
    "Ġmysticetus": 24923,
    "fugitive": 26132,
    "northern": 23670,
    "Ġwatery": 6298,
    "drew": 7334,
    "quitted": 21861,
    "Ġlimbs": 5967,
    "Ġceleb": 20228,
    "ants": 1390,
    "immediate": 20097,
    "Ġgot": 2281,
    "Ġbremen": 23348,
    "alously": 15633,
    "Ġsoldier": 16922,
    "Ġindustry": 18840,
    "Ġmantle": 25275,
    "Ġwretched": 4083,
    "Ġcommenced": 8534,
    "Ġmax": 2007,
    "Ġellenborough": 26155,
    "Ġscholar": 26112,
    "Ġrelent": 18776,
    "brandy": 19203,
    "ushing": 5731,
    "Ġdestroying": 14732,
    "itary": 4752,
    "crippled": 26386,
    "Ġnaught": 8128,
    "ulty": 22571,
    "idence": 4301,
    "Ġflushed": 13031,
    "Ġut": 2280,
    "ves": 695,
    "Ġviolent": 5117,
    "billows": 20239,
    "Ġaccompan": 5513,
    "desc": 1394,
    "Ġconf": 1818,
    "Ġleagues": 9226,
    "consciousness": 13369,
    "Ġbelshazzar": 16230,
    "Ġbitten": 21393,
    "Ġstock": 7455,
    "Ġdecide": 9289,
    "mountains": 15184,
    "Ģ": 227,
    "beginning": 13564,
    "unquiet": 21885,
    "instinctively": 26329,
    "objects": 13473,
    "wide": 10140,
    "Ġoptimization": 1364,
    "Ġus": 497,
    "Ġnotorious": 18224,
    "settled": 10509,
    "Ġfailed": 6674,
    "ethics": 8881,
    "Ġbeat": 4492,
    "Ġfinding": 3262,
    "Ġaids": 12233,
    "Ġmiriam": 25274,
    "Ġlingering": 11381,
    "Ġten": 2387,
    "ribe": 1225,
    "warning": 25532,
    "leaning": 10792,
    "Ġpapered": 20134,
    "Ġarchbishop": 18719,
    "Ġexcl": 3473,
    "Ġhaunted": 10256,
    "Ġsayest": 22780,
    "Ġsteadily": 8052,
    "Ġbough": 13897,
    "Ġincident": 6282,
    "possesses": 24617,
    "Ġchannel": 26013,
    "commendation": 26351,
    "Ġgateway": 24799,
    "Ġwoll": 21296,
    "Ġdiscu": 4363,
    "rushed": 10587,
    "Ġpossessions": 23827,
    "aloud": 17943,
    "impregn": 21717,
    "Ġdundee": 16999,
    "Ġjabbering": 22307,
    "Ġexaggerate": 25650,
    "Ġduplicate": 17218,
    "resum": 17763,
    "Ġcorn": 9353,
    "calculating": 25690,
    "Ġgenus": 24429,
    "Ġencoun": 4512,
    "Ġintrude": 25991,
    "Ġaversion": 18867,
    "Ġropes": 10750,
    "Ġthre": 2061,
    "Ġtroub": 22348,
    "Ġclosest": 16765,
    "Ġreveries": 11349,
    "odings": 4399,
    "Ġbeseeching": 26312,
    "Ġinattention": 17934,
    "verest": 13994,
    "Ġsacrific": 15020,
    "Ġinterpreted": 1710,
    "ĠcÃ¦sar": 20583,
    "Ġlombardy": 26465,
    "Ġnorris": 23207,
    "Ġinglorious": 24424,
    "Ġplanisphere": 26609,
    "Ġdoorway": 14500,
    "daughter": 8354,
    "vices": 21119,
    "oth": 1184,
    "Ġindians": 14415,
    "Ġobeying": 13417,
    "Ġscandal": 9084,
    "vi": 2376,
    "Ġcandles": 9911,
    "opp": 6963,
    "Ġkeeled": 18807,
    "Ġdecreas": 1647,
    "Ġthrice": 10578,
    "drovand": 24759,
    "movable": 14327,
    "Ġresponsiveness": 2897,
    "Ġoper": 2120,
    "Ġdisappearing": 22537,
    "Ġunimaginable": 15250,
    "Ġfamily": 1968,
    "Ġcorpore": 13404,
    "atters": 18500,
    "Ġreluctant": 20528,
    "zers": 21149,
    "Ġah": 5075,
    "Ġunearthly": 9039,
    "Ġyarman": 12711,
    ";âĢĿ": 7791,
    "Ġhatred": 8612,
    "Ġinstructions": 11198,
    "Ġoutsk": 15960,
    "Ġrascal": 11705,
    "Ġstrip": 9424,
    "Ġmorocc": 22982,
    "brown": 15321,
    "Ġreception": 9842,
    "Ġjoining": 13167,
    "Ġcompromising": 22577,
    "mpus": 13760,
    "accidents": 19215,
    "Ġeats": 15681,
    "Ġhush": 13214,
    "windibank": 24163,
    "18": 20753,
    "Ġuser": 15921,
    "Ġhorrors": 10482,
    "Ġhackluyt": 25656,
    "Ġheadache": 22901,
    "Ġ78": 19616,
    "Ġlig": 21551,
    "bul": 6951,
    "Ġhideousness": 16917,
    "Ġ1836": 25721,
    "pronouncing": 25194,
    "Ġindomit": 22960,
    "trad": 21078,
    "Ġvaults": 17156,
    "Ġsavoury": 23879,
    "Ġunfinished": 19512,
    "embra": 14079,
    "tackles": 25625,
    "Ġwandering": 8657,
    "Ġshook": 4469,
    "Ġartic": 5315,
    "Ġadvertised": 17250,
    "Ġplow": 21462,
    "buck": 17493,
    "Ġdisquiet": 18553,
    "strugg": 21665,
    "Ġmeditate": 16709,
    "Ġstark": 7390,
    "Ġback": 816,
    "Ġblessed": 6931,
    "Ġdefend": 9343,
    "Ġscuffle": 20611,
    "trembling": 17145,
    "Ġcas": 8412,
    "Ġperch": 10301,
    "Ġacquired": 13048,
    "ach": 435,
    "Ġinspired": 2520,
    "dreadful": 11423,
    "fluttering": 23976,
    "Ġderiv": 1735,
    "Ġrepresentations": 1875,
    "Ġdramat": 23219,
    "lin": 9606,
    "Ġcases": 3964,
    "Ġwhales": 1827,
    "Ġcoaxing": 18597,
    "calm": 8937,
    "nels": 12500,
    "Ġgrassy": 24379,
    "Ġconvulsive": 19309,
    "Ġverses": 17064,
    "Ġstup": 14008,
    "Ġav": 3582,
    "Ġprem": 3424,
    "87": 20759,
    "ouring": 6421,
    "Ġexist": 9234,
    "consequential": 26251,
    "light": 3019,
    "inform": 10146,
    "Ġdens": 21427,
    "Ġscorn": 7901,
    "honest": 17005,
    "Ġoccasionally": 5590,
    "Ġallowance": 14392,
    "Ġcapable": 5054,
    "Ġcrow": 3803,
    "similar": 13456,
    "Ġrenew": 6147,
    "Ġdanger": 3520,
    "Ġenvironment": 3895,
    "accuracy": 9882,
    "roy": 7854,
    "may": 3680,
    "minded": 9040,
    "Ġimmemorially": 25384,
    "Ġly": 2271,
    "Ġhomeless": 23390,
    "Ġcertainty": 6736,
    "ashtego": 4103,
    "tales": 17688,
    "Ġunluckily": 20105,
    "ident": 3375,
    "Ġincarn": 11818,
    "Ġoriginate": 24123,
    "glings": 23853,
    "Ġorbs": 22096,
    "modern": 1179,
    "Ġlandlady": 10424,
    "Ġrequisite": 18629,
    "Ġthese": 820,
    "pict": 8386,
    "Ġcemet": 20683,
    "Ġsuffered": 5649,
    "icult": 3338,
    "Ġloves": 10917,
    "Ġhazard": 20435,
    "consist": 14818,
    "chop": 21691,
    "quietly": 10595,
    "Ġardour": 8043,
    "Ġvalidate": 3233,
    "inisc": 15491,
    "ipagos": 22369,
    "inforcement": 3143,
    "gu": 3960,
    "Ġcoars": 14274,
    "pendicular": 6500,
    "Ġheight": 4220,
    "front": 12175,
    "ansion": 10927,
    "Ġarticles": 7110,
    "Ġearnestness": 12130,
    "madam": 24421,
    "Ġclut": 7642,
    "Ġheightens": 24156,
    "Ġflashes": 11919,
    "ensed": 10997,
    "Ġ72": 19614,
    "Ġ6": 5141,
    "Ġcountries": 13099,
    "irations": 18173,
    "Ġflower": 16238,
    "Ġmore": 675,
    "Ġsupposed": 4559,
    "Ġinfidel": 13091,
    "Ġinside": 5448,
    "Ġain": 6970,
    "Ġhimself": 1353,
    "Ġbonds": 17871,
    "Ġcharger": 19007,
    "Ġsternly": 16717,
    "Ġstack": 21737,
    "Ġmexico": 15284,
    "Ġimpo": 3440,
    "ify": 1502,
    "dead": 8180,
    "Ġpresently": 5116,
    "ropri": 2180,
    "Ġintroduced": 7691,
    "minute": 11276,
    "behaved": 24463,
    "acled": 16085,
    "ely": 619,
    "etah": 12667,
    "Ġsatisfying": 23700,
    "precedented": 15178,
    "Ġunite": 9257,
    "iasm": 8061,
    "lop": 20950,
    "Ġcrescentic": 20624,
    "Ġaccommod": 14215,
    "icient": 780,
    "Ġdrew": 3538,
    "Ġpainfully": 13145,
    "Ġtaffrail": 15479,
    "Ġtheories": 13852,
    "Ġkneeling": 12147,
    "destruction": 11257,
    "Ġbliss": 13005,
    "skill": 24487,
    "atum": 21262,
    "heedful": 20576,
    "Ġredness": 19314,
    "Ġqu": 606,
    "Ġannesley": 19580,
    "Ġprompt": 3189,
    "Ġwides": 17790,
    "Ġbond": 21387,
    "Ġerrand": 11087,
    "causes": 20346,
    "vener": 21114,
    "Ġguardian": 14945,
    "val": 1154,
    "Ġcond": 3875,
    "iant": 5427,
    "Ġyelling": 18099,
    "ipelag": 12850,
    "Ġrot": 10969,
    "Ġbounce": 21396,
    "Ġvestibule": 13539,
    "Ġfeasible": 22213,
    "Ġunh": 9256,
    "Ġspo": 6846,
    "iance": 5280,
    "baby": 25516,
    "luck": 5733,
    "downstairs": 23923,
    "Ġpersons": 6182,
    "Ġscorch": 20070,
    "Ġwhich": 501,
    "Ġrecommendation": 17027,
    "Ġcheating": 16373,
    "Ġsly": 9635,
    "Ġhurried": 4034,
    "note": 14345,
    "oline": 6833,
    "Ġwinding": 8236,
    "Ġstructured": 2974,
    "cod": 12448,
    "Ġeleg": 6194,
    "Ġimped": 18443,
    "iet": 1773,
    "Ġgreyish": 24211,
    "waiter": 24587,
    "vanished": 15063,
    "screw": 9350,
    "Ġconfinement": 19040,
    "Ġchronic": 9932,
    "Ġtreats": 19347,
    "Ġverdict": 13478,
    "Ġanomaly": 25637,
    "next": 5893,
    "Ġposture": 24166,
    "Ġspout": 3279,
    "Ġcur": 1235,
    "antediluvian": 24346,
    "Ġ107": 24415,
    "Ġrazor": 22664,
    "Ġlast": 1124,
    "Ġprosecut": 9701,
    "Ġsuicide": 12792,
    "Ġgenial": 12199,
    "Ġlarboard": 11011,
    "goes": 10428,
    "Ġmir": 9649,
    "Ġsof": 18281,
    "orified": 21405,
    "Ġpainful": 6463,
    "Ġcanaan": 22168,
    "revealed": 20419,
    "Ġroods": 22407,
    "Ġimmort": 19487,
    "crimin": 17511,
    "featured": 24195,
    "Ġshown": 5159,
    "neurons": 3135,
    "broker": 13308,
    "Ġpract": 1866,
    "Ġevenings": 18755,
    "Ġhostile": 19943,
    "manners": 16188,
    "Ġbills": 17862,
    "Ġinterposed": 20622,
    "Ġquivering": 12864,
    "Ġpeninsula": 23199,
    "Ġoutbreak": 22321,
    "Ġcrawl": 11377,
    "trying": 15441,
    "Ġunostentatious": 22073,
    "Ġchowder": 10283,
    "ilder": 15717,
    "Ġpushing": 10821,
    "find": 6954,
    "Ġgener": 587,
    "Ġnightfall": 23135,
    "Ġadventurous": 16735,
    "Ġtorrid": 25035,
    "unknown": 10892,
    "Ġthee": 2622,
    "joy": 3332,
    "Ġasleep": 6836,
    "Ġdropping": 7483,
    "appetite": 22850,
    "Ġdeed": 7868,
    "Ġaccompaniments": 24482,
    "Ġluxury": 20135,
    "inhabited": 13623,
    "Ġrapidity": 11105,
    "ging": 2601,
    "bub": 15320,
    "etent": 10202,
    "Ġpitchpoling": 14914,
    "wind": 4252,
    "Ġconvey": 9984,
    "ificent": 8184,
    "Ġparasol": 22125,
    "Ġendure": 5957,
    "Ġresemble": 15697,
    "Ġbir": 17855,
    "regular": 3044,
    "Ġsnowy": 9021,
    "Ġflourishing": 25188,
    "Ġfails": 13317,
    "Ġweighty": 16037,
    "Ġreminiscences": 26271,
    "Ġthanking": 18603,
    "Ġlo": 453,
    "spanish": 14336,
    "Ġresid": 22542,
    "ious": 771,
    "Ġfor": 340,
    "Ġsat": 1131,
    "Ġbroiled": 18910,
    "Ġnotions": 14102,
    "ignorant": 13566,
    "Ġdaresay": 14707,
    "Ġdeb": 4765,
    "rices": 4560,
    "Ġelixir": 26557,
    "Ġink": 8807,
    "Ġrenegades": 26478,
    "Ġthreatens": 24375,
    "thoughtfully": 24048,
    "Ġparallelization": 3428,
    "ici": 8441,
    "Ġexactness": 23606,
    "ose": 717,
    "Ġbiography": 22765,
    "Ġtenants": 23549,
    "Ġsagaciously": 24730,
    "Ġcircumstances": 3927,
    "Ġwhim": 14002,
    "Ġstanzas": 21748,
    "acies": 14280,
    "serve": 13051,
    "Ġbounty": 26439,
    "Ġshoe": 14570,
    "ropes": 7903,
    "behold": 12883,
    "Ġnewfound": 22935,
    "su": 794,
    "Ġsystem": 590,
    "Ġembattled": 26289,
    "Ġwing": 6668,
    "Ġlomb": 21562,
    "sleepers": 24729,
    "Ġtravellers": 11310,
    "umber": 5241,
    "flag": 14714,
    "Ġpeculiarity": 12939,
    "Ġrepining": 23363,
    "Ġhaving": 1880,
    "sius": 13791,
    "lovel": 22515,
    "Ġrecur": 1621,
    "alf": 4640,
    "ateness": 15523,
    "Ġhooped": 23358,
    "Ġtable": 2501,
    "Ġfixedly": 19250,
    "cement": 2933,
    "Ġpillow": 10041,
    "Ġinjury": 10543,
    "Ġproposals": 10616,
    "situation": 11439,
    "Ġhinted": 6013,
    "garious": 17560,
    "Ġenchantment": 24870,
    "fortunate": 4793,
    "Ġhav": 12760,
    "Ġthought": 1093,
    "Ġgeological": 14535,
    "laborers": 23919,
    "beries": 22748,
    "Ġprogen": 14042,
    "Ġvol": 4190,
    "Ġtallest": 15477,
    "ari": 672,
    "Ġpurely": 12236,
    "Ġexecuted": 9475,
    "sockets": 22728,
    "Ġexamples": 2605,
    "Ġsuff": 1301,
    "ellect": 7381,
    "child": 5538,
    "Ġannihil": 10177,
    "Ġtahitian": 25428,
    "commod": 16173,
    "Ġshares": 23247,
    "Ġcompasses": 11269,
    "Ġpost": 4272,
    "icles": 17975,
    "Ġsolic": 7933,
    "bour": 2074,
    "Ġstill": 1157,
    "Ġintellect": 8170,
    "commend": 19996,
    "Ġrobbery": 11923,
    "Ġquietude": 19363,
    "Ġcertain": 1559,
    "Ġpredicted": 2045,
    "Ġslender": 11944,
    "Ġstalked": 20432,
    "completed": 19997,
    "Ġdamps": 23478,
    "Ġaffinity": 18789,
    "Ġpin": 7162,
    "Ġpaced": 7584,
    "ivorous": 22091,
    "etics": 21584,
    "boat": 3358,
    "Ġindolent": 13009,
    "crossed": 16635,
    "Ġaright": 11744,
    "spikes": 10344,
    "ial": 409,
    "rs": 7807,
    "Ġdisinclined": 22533,
    "gryphon": 15362,
    "¬": 110,
    "Ġtim": 4579,
    "Ġ111": 24436,
    "ression": 3402,
    "Ġcheerfully": 12139,
    "Ġ113": 19699,
    "pling": 8477,
    "ock": 15405,
    "Ġgrandfather": 19425,
    "Ġlashings": 25100,
    "rets": 12546,
    "Ġpia": 21467,
    "Ġwarmly": 8990,
    "Ġcordial": 16837,
    "ingly": 2136,
    "Ġconception": 10321,
    "hog": 8380,
    "Ġtrump": 8195,
    "Ġresembles": 25970,
    "alliance": 22204,
    "ograph": 4798,
    "Ġsuffusing": 23031,
    "Ġwanderings": 20146,
    "aves": 3600,
    "Ġpacifics": 24373,
    "Ġmariners": 6069,
    "Ġboarded": 13237,
    "insulting": 26056,
    "rants": 13781,
    "capting": 24043,
    "Ġmeanness": 22600,
    "Ġperennial": 22697,
    "Ġsteepest": 3089,
    "Ġuseful": 3560,
    "Ġkidn": 20208,
    "Ġplayfulness": 23638,
    "Ġpag": 6012,
    "Ġplains": 14624,
    "Ġyield": 5093,
    "Ġfren": 10807,
    "vinegar": 25421,
    "rically": 15420,
    "Ġenvirons": 13187,
    "Ġsound": 2243,
    "Ġquadrant": 11406,
    "Ġsafer": 22174,
    "Ġbuoy": 8004,
    "Ġascribe": 16784,
    "Ġjoll": 11769,
    "pursue": 24976,
    "ends": 6040,
    "Ġsubsisted": 19119,
    "Ġaffront": 18790,
    "Ġhunks": 18938,
    "Ġ55": 24319,
    "Ġtrinity": 22349,
    "Ġgrap": 11711,
    "Ġvic": 5237,
    "walks": 19724,
    "Ġcistern": 17384,
    "Ġ73": 24263,
    "disappearing": 23506,
    "Ġbeautiful": 3673,
    "Ġprobabilities": 4966,
    "Ġcaptive": 14430,
    "Ġperth": 7024,
    "Ġfurniture": 6477,
    "Ġrefusing": 11027,
    "Ġfronted": 23260,
    "Ġremonstrance": 20626,
    "Ġislands": 6767,
    "Ġwilds": 16511,
    "ureau": 10229,
    "luent": 16000,
    "inted": 2649,
    "Ġdivided": 8635,
    "âĢĿ--": 21820,
    "Ġmelbourne": 24291,
    "Ġsurmised": 24920,
    "Ġvector": 1973,
    "proves": 23397,
    "burg": 16775,
    "itt": 570,
    "Ġstand": 1734,
    "Ġrelates": 12985,
    "Ġsigh": 10339,
    "Ġmusk": 7494,
    "parameter": 2959,
    "po": 1138,
    "Ġledger": 19405,
    "ue": 1177,
    "Ġrest": 1783,
    "ok": 572,
    "Ġoutlast": 22317,
    "care": 4929,
    "Ġsakes": 18327,
    "Ġhouses": 6140,
    "itories": 15553,
    "Ġticklish": 25037,
    "Ġexternal": 8365,
    "Ġpurchases": 24755,
    "Ġsporty": 19892,
    "Ġcompat": 2939,
    "Ġlens": 8439,
    "alterable": 13627,
    "Ġinvest": 4978,
    "Ġcorrespondent": 19825,
    "Ġbells": 19604,
    "rimin": 2423,
    "castles": 14638,
    "Ġthrows": 14740,
    "archical": 1926,
    "certainly": 5340,
    "Ġoakshott": 12234,
    "Ġplutarch": 22607,
    "ientific": 6549,
    "rigible": 24932,
    "aned": 5147,
    "Ġvaliantly": 22806,
    "ged": 1511,
    "bourine": 9399,
    "Ġvenetian": 14850,
    "Ġtranquillize": 24756,
    "Ġveteran": 17453,
    "Ġbegun": 7243,
    "Ġparaphrasing": 26528,
    "Ġsorrowful": 10539,
    "Ġcupboard": 16885,
    "cheered": 23807,
    "ldog": 21921,
    "Ġwithout": 1122,
    "Ġpoor": 1708,
    "Ġsavages": 9915,
    "earnest": 12403,
    "Ġmanipulated": 25179,
    "quent": 2095,
    "than": 4090,
    "Ġcelerity": 17439,
    "strate": 12680,
    "Ġsqueezed": 20039,
    "acet": 5476,
    "Ġket": 18348,
    "outre": 18321,
    "Ġinfatuation": 25858,
    "obst": 11936,
    "Ġdiabolism": 25515,
    "bishop": 13698,
    "alog": 8809,
    "oun": 483,
    "forest": 22522,
    "somerset": 26324,
    "ient": 394,
    "Ġsaddest": 16665,
    "executed": 25740,
    "recl": 15513,
    "Ġatt": 786,
    "Ġdrifted": 14626,
    "Ġshivered": 14111,
    "Ġguard": 6180,
    "Ġshipping": 14107,
    "Ġsauce": 15894,
    "Ġfascinated": 25636,
    "Ġoverpower": 12848,
    "Ġpromised": 5181,
    "Ġopt": 774,
    "blows": 17168,
    "Ġpint": 17911,
    "garity": 17556,
    "tern": 4224,
    "Ġfaith": 5351,
    "ena": 11571,
    "Ġpaternal": 16361,
    "forecastle": 10992,
    "stretched": 10210,
    "Ġtropic": 17065,
    "sharp": 10309,
    "tied": 21073,
    "convers": 6569,
    "Ġune": 4599,
    "Ġunremitting": 26219,
    "Ġshaved": 22006,
    "emporary": 15802,
    "undertaking": 23789,
    "whip": 22241,
    "waist": 13421,
    "Ġaid": 6124,
    "freely": 16856,
    "repressed": 21246,
    "emb": 11693,
    "Ġcollinses": 19131,
    "asional": 17962,
    "iday": 8834,
    "Ġunlab": 3787,
    "Ġessentially": 24925,
    "Ġlouisiana": 25079,
    "Ġest": 2268,
    "inquir": 9539,
    "Ġdecreasing": 2443,
    "Ġwindigate": 18912,
    "true": 2587,
    "Ġforgive": 8010,
    "rative": 17654,
    "Ġcomponents": 8896,
    "Ġduncan": 13464,
    "Ġdiff": 3116,
    "mming": 1171,
    "frequented": 25901,
    "Ġchagrin": 20610,
    "functions": 11245,
    "ame": 646,
    "savor": 25027,
    "Ġcorporeally": 25729,
    "Ġunceasing": 20361,
    "Ġrepeat": 8000,
    "Ġsouthampton": 24309,
    "Ġshameful": 19854,
    "ooping": 21009,
    "Ġbat": 10797,
    "Ġspec": 1263,
    "gul": 12470,
    "ubines": 22964,
    "onent": 21251,
    "romised": 14115,
    "Ġgazing": 5877,
    "Ġbarber": 23791,
    "Ġpaths": 2571,
    "Ġnin": 10190,
    "Ġdip": 13910,
    "Ġmouth": 3180,
    "solute": 16600,
    "Ġdreams": 7496,
    "Ġlit": 6248,
    "ahab": 4289,
    "Ġrage": 5110,
    "Ġnervous": 2404,
    "less": 929,
    "retired": 11940,
    "calling": 12454,
    "scores": 22995,
    "Ġwoes": 23989,
    "Ġmember": 8465,
    "Ġsure": 1864,
    "increas": 10456,
    "Ġhouse": 1500,
    "Ġay": 15494,
    "endous": 6850,
    "Ġopera": 23428,
    "Ġconsider": 2570,
    "Ġhalf": 1669,
    "Ġredoubled": 23755,
    "Ġdiscernible": 15073,
    "Ġbulls": 23860,
    "niest": 19003,
    "Ġactivity": 7920,
    "Ġheath": 15706,
    "et": 307,
    "jolly": 20933,
    "Ġarches": 14163,
    "Ġparties": 7040,
    "Ġindel": 13008,
    "Ġfagged": 17884,
    ")âĢĶ": 20744,
    "eth": 617,
    "Ġwilson": 6632,
    "sam": 21054,
    "Ġstone": 4647,
    "Ġvastly": 23862,
    "speckled": 23948,
    "porary": 14552,
    "clad": 14462,
    "Ġforgiveness": 16659,
    "Ġmadness": 6603,
    "Ġresults": 7308,
    "Ġsnatching": 10474,
    "Ġcover": 3558,
    "above": 8148,
    "Ġrosings": 4608,
    "Ġprint": 18970,
    "vulgar": 25919,
    "Ġforesee": 19126,
    "advice": 12162,
    "Ġderive": 10397,
    "leness": 4692,
    "Ġdarted": 4759,
    "Ġbracing": 16583,
    "icular": 2023,
    "Ġneurons": 975,
    "Ġcontemplative": 19895,
    "teness": 23210,
    "Ġorphan": 12387,
    "Ġsal": 3939,
    "Ġaddressing": 11166,
    "up": 1283,
    "arboard": 7266,
    "Ġmarlingspike": 26581,
    "fitters": 24760,
    "Ġfly": 3870,
    "bots": 10085,
    "Ġmagician": 25061,
    "Ġpaused": 5416,
    "aisance": 15078,
    "Ġunwearied": 20605,
    "Ġpassenger": 14373,
    "pid": 1413,
    "```": 25894,
    "Ġbewitched": 25976,
    ":âĢĶâĢĺ": 24196,
    "nnight": 20995,
    "Ġspurred": 22142,
    "inished": 17736,
    "Ġdisturbed": 8675,
    "Ġincom": 9772,
    "Ġmortification": 12099,
    "Ġportraits": 20145,
    "Ġrout": 7402,
    "Ġastern": 6091,
    "Ġtakes": 5007,
    "Ġmainly": 22652,
    "Ġflattered": 10377,
    "ishing": 1142,
    "Ġconductor": 24010,
    "shining": 18491,
    "Ġresides": 22544,
    "Ġsensational": 16395,
    "Ġspite": 4157,
    "Ġsab": 10764,
    "flies": 19427,
    "Ġluckless": 16799,
    "hospit": 25904,
    "Ġgiddy": 20500,
    "omen": 4088,
    "Ġcravat": 26308,
    "Ġrows": 10563,
    "Ġclapping": 14206,
    "aviour": 11006,
    "Ġmeryton": 4439,
    "Ġlocations": 12417,
    "conveyed": 20524,
    "mmar": 952,
    "Ġhotels": 19539,
    "Ġgallows": 12150,
    "abouts": 9456,
    "Ġsurmise": 12299,
    "Ġinvisible": 7327,
    "Ġsimilarly": 24310,
    "astes": 11743,
    "government": 25407,
    "Ġflannel": 26579,
    "itche": 7579,
    "Ġgladness": 16593,
    "ict": 600,
    "adventures": 20259,
    "fitted": 17546,
    "Ġfads": 21419,
    "Ġplied": 22601,
    "rights": 23678,
    "/`": 12433,
    "Ġsequential": 2133,
    "Ġemir": 23353,
    "Ġcarve": 23096,
    "utterly": 20015,
    "Ġspreading": 13381,
    "Ġben": 1109,
    "Ġtimidity": 24688,
    "Ġdependence": 18630,
    "Ġmarshy": 20221,
    "Ġ110": 24435,
    "Ġwhy": 1758,
    "Ġdiscourse": 9801,
    "service": 15039,
    "Ġale": 9157,
    "Ġcounters": 24142,
    "Ġtw": 841,
    "illity": 18297,
    "brothers": 17026,
    "Ġstoried": 18075,
    "Ġpredict": 685,
    "com": 980,
    "Ġvictim": 6099,
    "stretch": 13984,
    "avish": 22597,
    "Ġdines": 21426,
    "thinks": 16644,
    "Ġim": 477,
    "begged": 18518,
    "Ġspectacle": 10499,
    "discovery": 12021,
    "Ġbehooves": 20735,
    "gladness": 25195,
    "Ġwrought": 11948,
    "Ġmilan": 19538,
    "Ġdisagree": 22536,
    "Ġweighted": 2091,
    "Ġconsult": 6058,
    "Ġfitting": 21411,
    "unw": 14060,
    "weigh": 18666,
    "porpoise": 16437,
    "Ġdelicacy": 6342,
    "based": 2962,
    "Ġindignity": 18836,
    "Ġdistinction": 8889,
    "anning": 10167,
    "wherever": 13122,
    "Ġbrows": 13304,
    "port": 10721,
    "Ġdoct": 4456,
    "expl": 9286,
    "Ġpriests": 15043,
    "orse": 5807,
    "Ġspears": 12932,
    "Ġwaif": 9378,
    "Ġprecaution": 11199,
    "Ġsalad": 19482,
    "Ġpleasant": 4171,
    "Ġdefines": 1740,
    "Ġsteadfastly": 10654,
    "Ġtrust": 4081,
    "Ġsurplus": 26304,
    "Ġindicate": 23725,
    "Ġallow": 1127,
    "Ġvivid": 8058,
    "hens": 3938,
    "Ġestimate": 19376,
    "Ġsweating": 16465,
    "Ġouthouse": 22318,
    "hours": 9127,
    "Ġverdure": 10615,
    "okened": 15988,
    "Ġpropose": 9855,
    "Ġrabb": 4165,
    "Ġargu": 10936,
    "tr": 3580,
    "Ġisolated": 13562,
    "Ġexceedingly": 4615,
    "!_âĢĶ": 19976,
    "solely": 19819,
    "anger": 2173,
    "Ġproport": 2298,
    "hurry": 24762,
    "Ġrace": 5848,
    "Ġsupport": 6730,
    "Ġneighbour": 3806,
    "hopper": 23717,
    "Ġautonomous": 10678,
    "Ġ96": 24593,
    "Ġgrammar": 1062,
    "ilburn": 18062,
    "countenance": 6925,
    "Ġadvised": 16215,
    "Ġseethings": 26505,
    "Ġsocially": 22085,
    "Ġsharkish": 24506,
    "rog": 15644,
    "Q": 53,
    "Ġwomanly": 23553,
    "Ġplunging": 14955,
    "Ġinnocent": 4922,
    "brous": 19201,
    "with": 1295,
    "gpt": 5356,
    "oubted": 5861,
    "Ġdiscove": 16159,
    "glancing": 11216,
    "Ġyea": 8920,
    "range": 3495,
    "Ġthinnest": 24185,
    "Ġchamois": 16802,
    "Ġgrin": 5482,
    "adem": 21761,
    "³": 116,
    "Ġabundant": 17157,
    "Ġpardon": 5727,
    "Ġgros": 14825,
    "Ġperplexed": 23664,
    "Ġvindict": 13608,
    "Ġtwinkled": 14315,
    "Ġmut": 3583,
    "ribs": 23368,
    "Ġvast": 3292,
    "Ġsignific": 3826,
    "Ġcountrymen": 23597,
    "Ġgoverned": 23573,
    "plun": 15819,
    "three": 5239,
    "regarded": 12012,
    "Ġcondition": 6765,
    "Ġfowl": 11332,
    "Ġfight": 5366,
    "speech": 10669,
    "setting": 13289,
    "Ġunfold": 8022,
    "adler": 21766,
    "scheme": 15258,
    "fixedly": 24930,
    "Ġlonger": 3356,
    "Ġhopeful": 19032,
    "Ġcontro": 1687,
    "Ġroar": 9756,
    "Ġsegmentation": 17343,
    "Ġtennessee": 26598,
    "Ġcigars": 12257,
    "Ġelastic": 4361,
    "Ġheav": 1851,
    "uding": 16152,
    "Ġtumult": 7116,
    "Ġender": 11694,
    "Ġstake": 14006,
    "size": 15427,
    "Ġsupports": 3052,
    "Ġrouse": 15825,
    "Ċ": 203,
    "Ġregardless": 19326,
    "Ġitself": 2523,
    "Ġundergone": 18986,
    "Ġcaresses": 26060,
    "Ġtongues": 14866,
    "gam": 10098,
    "Ġwearing": 12745,
    "twice": 14622,
    "®": 111,
    "Ġthereupon": 18435,
    "izing": 1069,
    "utmost": 21591,
    "ios": 2168,
    "Ġinfall": 7960,
    "Ġprick": 14480,
    "Ġgreenhorn": 23770,
    "Ġservox": 23872,
    "aunted": 20772,
    "Ġmitigating": 1617,
    "Ġwhaleboats": 18480,
    "Ġcongregational": 25105,
    "Ġsubaltern": 22794,
    "ivot": 11722,
    "fate": 17541,
    "Ġyanke": 18100,
    "atig": 13848,
    "Ġbowl": 11206,
    "Ġfactor": 19016,
    "Ġinve": 17931,
    "Ġresignation": 18567,
    "conclusive": 25674,
    "james": 15376,
    "investigations": 25534,
    "Ġbeget": 9228,
    "Ġhorsham": 10408,
    "zag": 17715,
    "Ġweigh": 10896,
    "muring": 17603,
    "Ġwhere": 784,
    "Ġillustrate": 25068,
    "Ġanecd": 20157,
    "hour": 7340,
    "Ġforgotten": 5679,
    "Ġveracity": 23892,
    "isbury": 21380,
    "ilities": 6992,
    "raltar": 24236,
    "Ġenig": 15803,
    "Ġhandsomely": 25498,
    "Ġnat": 12651,
    "physiogn": 26265,
    "Ġlink": 8130,
    "Ġsatisfied": 4173,
    "Ġsavagely": 26325,
    "Ġburnt": 9931,
    "Ġsociety": 3980,
    "Ġplayers": 12042,
    "Ġsleeper": 8603,
    "Ġredeemed": 25790,
    "inridge": 11563,
    "Ġbehavior": 8002,
    "Ġhollowly": 24526,
    "Ġmotion": 4567,
    "warrant": 21140,
    "Ġinsurmountable": 16534,
    "Ġparametric": 2396,
    "Ġdidn": 4362,
    "Ġedition": 16458,
    "pt": 387,
    "pull": 6797,
    "str": 2579,
    "aver": 6786,
    "Ġisn": 7866,
    "Ġremoved": 5275,
    "Ġuplifted": 11650,
    "Ġoutstretched": 14198,
    "resolution": 17768,
    "Ġweltering": 19588,
    "animate": 12583,
    "Ġgracious": 8851,
    "Ġeasily": 3892,
    "Ġsecret": 3720,
    "Ġstaggering": 20276,
    "Ġmerry": 5870,
    "Ġafraid": 3530,
    "Ġany": 687,
    "Ġgrant": 11877,
    "Ġnotice": 4544,
    "Ġounce": 15276,
    "iteous": 14264,
    "estion": 18363,
    "Ġbitterest": 12406,
    "didn": 9010,
    "commer": 22812,
    "Ġadm": 2402,
    "critical": 19499,
    "hand": 2758,
    "countryman": 24640,
    "Ġamid": 4959,
    "Ġmonoton": 3638,
    "Ġextent": 7656,
    "rift": 11522,
    "Ġdispatched": 23883,
    "Ġgirl": 3087,
    "Ġaffirm": 11891,
    "Ġremarked": 3696,
    "uses": 11765,
    "holland": 24045,
    "Ġpurring": 23479,
    "lord": 3865,
    "Ġchosen": 7201,
    "knives": 14916,
    "Ġcommentators": 25230,
    "urmount": 13999,
    "======================================================================": 10071,
    "Ġbernard": 20687,
    "Ġgrappling": 25813,
    "Ġendued": 14080,
    "Ġlanc": 19767,
    "include": 23591,
    "Ġextant": 18686,
    "helpless": 16792,
    "terms": 15755,
    "Ġcoll": 8221,
    "Ġconjectured": 10000,
    "Ġandes": 12647,
    "Ġclamorous": 24910,
    "official": 24915,
    "Ġxl": 11994,
    "Ġsin": 1512,
    "Ġattent": 4360,
    "Ġcompliment": 5673,
    "Ġresolute": 19247,
    "Ġwow": 15532,
    "Ġcommended": 18657,
    "Ġroasted": 18461,
    "Ġgourmand": 26468,
    "Ġerrone": 14433,
    "ccas": 15889,
    "osa": 22263,
    "sympathy": 20545,
    "Ġtroubling": 26548,
    "ried": 926,
    "Ġmouse": 4695,
    "increased": 20273,
    "Ġ156": 20173,
    "Ġbehaviors": 13258,
    "Ġlaurel": 20656,
    "Ġoptimize": 1587,
    "Ġgag": 21596,
    "entropy": 1438,
    "Ġbattle": 5909,
    "mistress": 14908,
    "Ġblades": 11899,
    "Ġmarines": 16263,
    "Ġbreast": 8971,
    "force": 12966,
    "clifford": 23160,
    "paradise": 20639,
    "Ġplunge": 13446,
    "ken": 2801,
    "Ġconfident": 11140,
    "Ġnar": 7375,
    "Ġlooked": 1802,
    "Ġsulphur": 24934,
    "Ġproflig": 23569,
    "Ġsciences": 15948,
    "kilt": 4867,
    "Ġfarewell": 9523,
    "irements": 22214,
    "Ġpartaking": 22702,
    "drowned": 17372,
    "bare": 12445,
    "Ġprovoked": 13329,
    "Ġexpanded": 14292,
    "heart": 4527,
    "rel": 3753,
    "Ġensued": 11396,
    "Ġthoughtful": 16195,
    "Ġpurposed": 23554,
    "Ġmeditations": 25016,
    "/`)": 13663,
    "rigging": 20009,
    "Ġstumble": 26484,
    "Ġmanufact": 22332,
    "abbering": 21800,
    "Ġfrosted": 19806,
    "keenest": 25662,
    "Ġhim": 475,
    "Ġfurnace": 19443,
    "erce": 6128,
    "Ġpreparations": 12314,
    "canonical": 22968,
    "Ġhelper": 24029,
    "Ġcontemplated": 13467,
    "Ġjury": 5378,
    "Ġarticle": 9505,
    "wed": 5796,
    "god": 4864,
    "dinner": 11408,
    "smug": 23911,
    "Ġcomput": 602,
    "Ġcontinuing": 14399,
    "Ġmonitors": 3157,
    "Ġterrific": 6756,
    "aintance": 3570,
    "Ġher": 426,
    "Ġpropag": 16351,
    "Ġphenomena": 21487,
    "Ġfavourites": 16647,
    "Ġstraits": 7994,
    "Ġcrawling": 17046,
    "Ġtelesc": 13001,
    "Ġperceptibly": 25822,
    "anqu": 4111,
    "icy": 6142,
    "Ġminor": 12973,
    "Ġcowards": 12579,
    "till": 6966,
    "Ġunav": 18241,
    "themselves": 6542,
    "Ġundergo": 23238,
    "ispiece": 19728,
    "Ġasking": 5651,
    "sp": 894,
    "Ġzer": 1094,
    "het": 5435,
    "Ġdiffers": 23783,
    "Ġdrives": 14580,
    "Ġparacelsus": 15270,
    "Ġinhabitant": 19758,
    "Ġtrifling": 10605,
    "Ġunequal": 14845,
    "Ġvap": 6837,
    "Ġfidel": 12602,
    "Ġhoot": 19078,
    "Ġprocopius": 19734,
    "Ġpave": 8804,
    "deliberated": 26119,
    "Ġaffect": 1386,
    "barrow": 15324,
    "alous": 7372,
    "widely": 25344,
    "Ġinterrupting": 19560,
    "Ġmarks": 6748,
    "Ġecl": 18008,
    "greater": 13255,
    "Ġblush": 14405,
    "Ġshirr": 18232,
    "Ġsinks": 19552,
    "Ġjoppa": 12040,
    "Ġfishers": 19357,
    "Ġvest": 8163,
    "Ġgurg": 15677,
    "Ġuncommonly": 7760,
    "Ġupright": 8496,
    "stalk": 21653,
    "Ġcultured": 25158,
    "Ġcele": 9903,
    "Ġdiligent": 25078,
    "Ġvehemently": 26040,
    "Ġsale": 14157,
    "Ġsafie": 6620,
    "oud": 1943,
    "finally": 9502,
    "verb": 10219,
    "Ġappropriated": 23488,
    "Ġminimize": 7052,
    "Ġfed": 5530,
    "Ġsumat": 14132,
    "Ġeber": 18006,
    "Ġrightly": 13069,
    "actory": 8909,
    "mot": 17598,
    "Ġheadway": 18794,
    "exclaimed": 11794,
    "Ġscratches": 22290,
    "evenings": 19466,
    "Ġnet": 3628,
    "Ġ0": 1902,
    "alizing": 17942,
    "oup": 2015,
    "depth": 12806,
    "Ġweap": 6157,
    "Ġinvolving": 18763,
    "Ġsky": 3972,
    "Ġhamper": 19392,
    "opius": 18510,
    "Ġforming": 7044,
    "Ġcursed": 6728,
    "Ġpuffs": 14979,
    "Ġdinah": 9457,
    "Ġsemantic": 1961,
    "poke": 18800,
    "Ġdistance": 3483,
    "Ġ40": 14771,
    "Ġbal": 1132,
    "food": 12468,
    "travellers": 24339,
    "borough": 20787,
    "Ġplun": 6283,
    "effect": 8607,
    "Ġcrest": 12946,
    "Ġpossesses": 19355,
    "Ġrobins": 16262,
    "otted": 14027,
    "pleasant": 5876,
    "olidity": 18134,
    "riety": 12750,
    "exception": 9979,
    "datasets": 11956,
    "Ġrep": 1938,
    "usage": 12839,
    "Ġcomplet": 4423,
    "Ġrealism": 18984,
    "bones": 8372,
    "Ġmoved": 4841,
    "obtain": 23097,
    "oking": 4607,
    "Ġmaybe": 12954,
    "Ġinforming": 18744,
    "objections": 19918,
    "ratches": 20128,
    "Ġsavannah": 17419,
    "izard": 10881,
    "Ġgemin": 21613,
    "~": 98,
    "antarctic": 22103,
    "Ġdarcy": 1344,
    "Ġgoing": 2068,
    "Ġpul": 2041,
    "beth": 13692,
    "safie": 20351,
    "ridge": 9500,
    "Ġfrank": 4420,
    "Ġamaze": 22487,
    "Ġheavy": 3743,
    "uncont": 15778,
    "Ġawaken": 23588,
    "Ġgravel": 14105,
    "Ġring": 4453,
    "there": 1423,
    "Ġbands": 14887,
    "wag": 21126,
    "Ġharbors": 24902,
    "Ġrely": 8825,
    "nobody": 16143,
    "Ġremorseless": 13454,
    "formal": 14171,
    "Ġclimate": 9278,
    "Ġwaves": 3920,
    "Ġmicrosc": 20679,
    "wrote": 11549,
    "tailed": 17687,
    "iled": 1763,
    "Ġviews": 7290,
    "Ġafford": 4365,
    "ann": 5803,
    "Ġmodern": 3226,
    "Ġrattled": 15070,
    "Ġshrimp": 24159,
    "propriety": 14370,
    "infidel": 24664,
    "Ġpromotion": 23197,
    "placed": 7878,
    "ivided": 22090,
    "Ġsulky": 13517,
    "Ġfamil": 4320,
    "Ġcurios": 18847,
    "gether": 1597,
    "zen": 5140,
    "Ġyelled": 9697,
    "Ġoverwrites": 5033,
    "Ġgets": 10841,
    "Ġfurled": 22817,
    "advancing": 14839,
    "Ġneg": 1332,
    "ipl": 20920,
    "Ġducking": 17149,
    "cellar": 20280,
    "Ġcommentaries": 20163,
    "Ġdaugh": 2293,
    "Ġfrederick": 15591,
    "Ġslippery": 12171,
    "Ġder": 1496,
    "Ġdoubts": 8583,
    "Ġcage": 17827,
    "Ġendangered": 16306,
    "Ġflies": 13029,
    "Ġinestimable": 17445,
    "Ġaccounted": 10297,
    "Ġspecimen": 13027,
    "orus": 10803,
    "Ġcompass": 4409,
    "whatever": 6696,
    "afford": 14656,
    "Ġimposed": 14219,
    "iforn": 14067,
    "clump": 23158,
    "Ġhydraul": 9517,
    "worthy": 7733,
    "entle": 1737,
    "scor": 13024,
    "Ġ131": 24781,
    "penetrating": 25491,
    "Ġcamp": 9167,
    "dogs": 25403,
    "Ġbodings": 21394,
    "whosoever": 22244,
    "paid": 15417,
    "Ġquestionable": 19268,
    "Ġexposing": 11836,
    "Ġpettic": 14844,
    "Ġfervent": 14899,
    "Ġantelope": 24182,
    "naturalists": 23473,
    "Ġwant": 1120,
    "Ġdrawback": 23993,
    "Ġjur": 12840,
    "Ġscheduling": 2349,
    "Ġspinning": 15055,
    "Ġexclaim": 11223,
    "Ġframework": 2059,
    "Ġwigwam": 11430,
    "Ġ116": 24440,
    "ugal": 19022,
    "Ġsupper": 4667,
    "Ġexceeded": 14436,
    "crow": 9593,
    "sneezes": 11448,
    "Ġretreats": 16930,
    "proportion": 16184,
    "Ġsublim": 19970,
    "pth": 2383,
    "computer": 1946,
    "Ġtell": 1467,
    "Ġcomprise": 18584,
    "Ġsheep": 10928,
    "higher": 20410,
    "ctic": 8443,
    "Ġserpentine": 11362,
    "Ġglen": 18854,
    "Ġthickest": 16657,
    "Ġtumb": 21172,
    "Ġpockets": 8899,
    "Ġbites": 23745,
    "suff": 4961,
    "Ġsize": 1218,
    "application": 12367,
    "preserve": 25304,
    "Ġawe": 7148,
    "last": 3801,
    "Ġpiteous": 17920,
    "Ġkiss": 8183,
    "response": 25763,
    "beaten": 20318,
    "sincerely": 24585,
    "Ġfaithful": 9506,
    "Ġdisciple": 22785,
    "Ġbureau": 11593,
    "Ġslipper": 24268,
    "Ġwhist": 6023,
    "Ġpreyed": 18367,
    "Ġlatest": 16824,
    "appear": 13201,
    "Ġowns": 22827,
    "Ġcircle": 4977,
    "Ġfashions": 17887,
    "courageous": 26128,
    "Ġvisitor": 5331,
    "Ġdangling": 17177,
    "Ġdisent": 22527,
    "ribes": 23369,
    "isc": 6241,
    "Ġpupella": 20425,
    "Ġfo": 1651,
    "h": 76,
    "Ġclever": 7056,
    "conclusion": 25672,
    "Ġpainter": 19170,
    "Ġcruelty": 9972,
    "Ġblushed": 13006,
    "Ġeddystone": 25736,
    "got": 6955,
    "Ġlowerings": 23649,
    "Ġramadans": 25122,
    "Ġsecrecy": 7316,
    "Ġbirch": 26175,
    "morrow": 4573,
    "happened": 9436,
    "Ġignorance": 6621,
    "belonged": 25598,
    "Ġbehav": 3541,
    "Ġmanor": 14199,
    "Ġhints": 8431,
    "Ġcripple": 11442,
    "Ġhor": 1661,
    "ined": 1261,
    "Ġeloquence": 11846,
    "Ġteaching": 10367,
    "departed": 24793,
    "Ġconclusions": 10556,
    "ounders": 22389,
    "tw": 2811,
    "Ġthreatening": 16830,
    "Ġ3": 3988,
    "Ġshrill": 12146,
    "Ġlanterns": 24578,
    "emin": 8473,
    "Ġstrata": 26028,
    "ude": 7562,
    "Ġostr": 21328,
    "Ġvowed": 14087,
    "Ġneighbors": 25805,
    "Ġoy": 15550,
    "summit": 23419,
    "addressed": 13388,
    "Ġlonged": 6437,
    "express": 4896,
    "Ġvide": 10253,
    "Ġgames": 11629,
    "Ġuttered": 7280,
    "Ġannouncement": 14836,
    "Ġalms": 21784,
    "Ġornaments": 17455,
    "51": 12435,
    "Ġcommod": 10336,
    "eel": 11486,
    "Ġamerican": 5061,
    "da": 17516,
    "Ġclink": 22352,
    "week": 12937,
    "Ġcomp": 723,
    "Ġslips": 23169,
    "Ġbuzz": 24000,
    "hel": 4815,
    "Ġstript": 23697,
    "Ġsatire": 22902,
    "suggested": 17302,
    "Ġtherein": 11780,
    "Ġhelter": 24028,
    "Ġtass": 15472,
    "orable": 8120,
    "cursed": 23846,
    "Ġhardest": 18914,
    "Ġcedars": 20295,
    "ynolds": 10039,
    "kerchief": 7525,
    "Ġcomplain": 6687,
    "guard": 12133,
    "Ġtierce": 15481,
    "Ġsobbing": 14138,
    "biqu": 17500,
    "painted": 17641,
    "amuse": 14055,
    "Ġdavy": 25952,
    "Ġepis": 19985,
    "ideas": 18582,
    "round": 3364,
    "Ġtrowsers": 9630,
    "thing": 1479,
    "Ġcop": 7580,
    "Ġaccosted": 13676,
    "circled": 24189,
    "ivial": 15866,
    "Ġcarefully": 6306,
    "Ġattitude": 8910,
    "Ġdifferences": 18715,
    "Ġappropri": 2227,
    "gover": 10704,
    "Ġdoubled": 19640,
    "dragged": 16610,
    "Ġencode": 4364,
    "Ġlistened": 4470,
    "Ġrisen": 9496,
    "acca": 23599,
    "endeav": 7151,
    "Ġprosecution": 12385,
    "Ġbedroom": 7277,
    "drown": 13708,
    "Ġwhose": 2009,
    "yonder": 21147,
    "Ġovercame": 9749,
    "Ġnearly": 3359,
    "Ġpossibility": 7458,
    "tap": 17678,
    "ences": 1264,
    "Ġdisasters": 16058,
    "pieces": 8758,
    "Ġchained": 16394,
    "Ġcollectively": 19971,
    "Ġjub": 22299,
    "ĉ": 202,
    "Ġdissembling": 26256,
    "expedition": 26079,
    "Ġtest": 1537,
    "damp": 15347,
    "Ġpaint": 7708,
    "bun": 12442,
    "Ġapex": 24342,
    "hip": 8744,
    "rench": 3970,
    "oury": 22308,
    "Ġpruning": 18971,
    "Ġpounds": 5368,
    "iew": 2447,
    "Ġpent": 17905,
    "kicked": 20945,
    "Ġmaj": 3928,
    "umphed": 23520,
    "Ġfowler": 16939,
    "Ġwhereby": 11839,
    "mushroom": 26397,
    "Ġbloodshot": 23801,
    "present": 1137,
    "Ġoccupations": 9461,
    "Ġowing": 6006,
    "Ġadroop": 26002,
    "Ġnumer": 3640,
    "Ġsenses": 8252,
    "wreck": 21139,
    "--âĢĺ": 22851,
    "ccess": 3183,
    "Ġgradients": 611,
    "Ġexclaiming": 13644,
    "spirited": 19756,
    "Ġhumbug": 18781,
    "ā": 194,
    "Ġquite": 1739,
    "Ġjuggling": 20442,
    "rom": 420,
    "Ġintercourse": 11000,
    "Ġprofessor": 11232,
    "Ġinsupportable": 13935,
    "Ġclutched": 13521,
    "Ġgoney": 14546,
    "Ġbehaves": 23302,
    "argue": 21447,
    "Ġconjectures": 16927,
    "Ġeighteen": 11240,
    "Ġexcavating": 23318,
    "Ġsentiment": 6591,
    "Ġgrop": 12670,
    "Ġkin": 15908,
    "Ġoffered": 5817,
    "Ġdiggings": 24650,
    "Ġits": 707,
    "loss": 22512,
    "Ġwalking": 4324,
    "helping": 23146,
    "Ġsteps": 2862,
    "Ġbehold": 5049,
    "Ġunprejudiced": 18270,
    "leagues": 21376,
    "judged": 14834,
    "anyone": 16595,
    "Ġunfav": 14790,
    "Ġhurriedly": 11251,
    "opening": 10315,
    "bab": 11470,
    "Ġwards": 17791,
    "Ġresolutely": 14611,
    "interrupted": 11419,
    "Ġscreamed": 9527,
    "Ġgulf": 10638,
    "oar": 12502,
    "iated": 5891,
    "Ġtear": 6725,
    "Ġsupernatural": 9876,
    "Ġfinancier": 26585,
    "Ġagitates": 22521,
    "nep": 20988,
    "Ġqueen": 3211,
    "Ġtrance": 12845,
    "Ġembell": 14410,
    "Ġat": 395,
    "Ġtraps": 23083,
    "oat": 13767,
    "oped": 6048,
    "audible": 17135,
    "ougher": 18276,
    "pile": 17631,
    "ved": 869,
    "agings": 18168,
    "Ġseeks": 14306,
    "Ġallures": 22012,
    "Ġwater": 1950,
    "Ġintervening": 17270,
    "Ġsurpr": 2551,
    "ė": 216,
    "Ġfluctu": 5268,
    "astonished": 15035,
    "Ġextra": 4057,
    "Ġcripp": 9656,
    "directly": 13712,
    "Ġgrazed": 15837,
    "own": 746,
    "Ġple": 1468,
    "Ġencodings": 4776,
    "Ġcontrivances": 12361,
    "igin": 3657,
    "strade": 5065,
    "indifference": 15986,
    "matical": 13132,
    "Ġsolicitude": 10043,
    "Ġmonday": 6129,
    "ce": 313,
    "Ġneighbouring": 12123,
    "Ġfeelings": 2453,
    "grandfather": 25012,
    "rix": 1574,
    "Ġprivileged": 20116,
    "ternatural": 12721,
    "Ġremembrance": 8318,
    "ravelled": 18017,
    "itching": 21338,
    "opposing": 24822,
    "constellation": 24608,
    "Ġmorris": 18852,
    "club": 26382,
    "atherley": 7220,
    "Ġlobster": 11391,
    "jets": 20930,
    "saddest": 25528,
    "Ġisle": 8837,
    "Ġwatching": 4856,
    "Ġconsuming": 22795,
    "Ġlived": 3993,
    "remark": 7261,
    "pain": 7350,
    "Ġdegraded": 19229,
    "Ġrect": 18028,
    "miles": 10714,
    "Ġopposition": 16524,
    "ustom": 3788,
    "Ġbeauty": 3768,
    "gems": 20886,
    "Ġmagazine": 23103,
    "cele": 21628,
    "rederick": 14083,
    "tinted": 17685,
    "considerable": 10551,
    "Ġwearer": 21927,
    "inations": 7567,
    "Ġbrave": 6331,
    "Ġbowed": 6244,
    "Ġdem": 11677,
    "isco": 12587,
    "Ġtarget": 2821,
    "introduction": 15127,
    "Ġenjoys": 19453,
    "Ġscraps": 16904,
    "aways": 15314,
    "shel": 11934,
    "Ġparticle": 18675,
    "Ġenlightened": 12752,
    "Ġportents": 14681,
    "Ġsensations": 5260,
    "cavity": 26127,
    "tps": 11537,
    "Ġinclu": 1098,
    "perfect": 7635,
    "Ġvacant": 9498,
    "accompan": 11454,
    "Ġhumour": 7932,
    "Ġsomebody": 7912,
    "Ġran": 3340,
    "Ġjem": 18403,
    "Ġdimens": 3150,
    "Ġpanthe": 19656,
    "tranqu": 14709,
    "Ġexchanging": 18135,
    "alescence": 15928,
    "Ġsunlight": 13088,
    "hack": 20898,
    "Ġtolerable": 6949,
    "ses": 3029,
    "dissatisf": 26130,
    "slightest": 25417,
    "looking": 4035,
    "Ġeasiest": 23540,
    "sheltered": 25586,
    "isticated": 1581,
    "rison": 13782,
    "scotch": 25852,
    "Ġpanther": 16821,
    "ô": 181,
    "Ġfring": 11129,
    "Ġrains": 24340,
    "Ġyesterday": 5333,
    "Ġbucket": 8792,
    "Ġinterior": 8898,
    "Ġweighed": 8714,
    "dropout": 3196,
    "counterpart": 26361,
    "Ġrequirements": 9791,
    "accident": 11183,
    "inal": 15483,
    "Ġsidel": 9638,
    "arers": 12134,
    "Ġrare": 7038,
    "distinguish": 19575,
    "solid": 16384,
    "Ġpraised": 19556,
    "Ġencountered": 8322,
    "slouched": 24557,
    "Ġlamb": 8817,
    "Ġtossing": 8126,
    "Ġham": 3418,
    "oved": 5215,
    "Ġconveying": 19717,
    "ela": 21572,
    "pump": 21019,
    "Ġstrike": 4857,
    "Ġspare": 5102,
    "Ġfog": 9664,
    "damn": 20027,
    "Ġreciproc": 20625,
    "vit": 13804,
    "Ġgangway": 20161,
    "Ġbarbed": 14838,
    "Ġcore": 13881,
    "Ġwallow": 19469,
    "Ġdisplayed": 10611,
    "Ġcompression": 18148,
    "Ġsaloon": 24067,
    "ii": 4017,
    "Û": 156,
    "Ġdischar": 11812,
    "run": 10723,
    "onstrate": 17770,
    "Ġinquire": 7720,
    "promised": 12256,
    "each": 7335,
    "Ġsupplication": 25492,
    "slanting": 24558,
    "arily": 4127,
    "aborate": 14025,
    "putable": 10903,
    "Ġsixty": 7723,
    "Ġamongst": 8962,
    "Ġindiam": 22958,
    "ascertaining": 26462,
    "pped": 1999,
    "erer": 8735,
    "Ġthorough": 6247,
    "Ġsquares": 11171,
    "|": 96,
    "Ġmorphology": 3012,
    "Ġju": 10289,
    "Ġsleeves": 10663,
    "Ġalternative": 19990,
    "----âĢĿ": 13310,
    "Ë": 140,
    "Ġmultitudinous": 26275,
    "yra": 8103,
    "Ġk": 485,
    "haz": 17566,
    "hilar": 25084,
    "Ġfigure": 4207,
    "omed": 13978,
    "comprehens": 16174,
    "Ġintelligible": 15945,
    "prick": 19346,
    "Ġrecogn": 2651,
    "uts": 8820,
    "Ġpitiless": 19391,
    "Ġantiquities": 25599,
    "Ġjoyously": 19350,
    "izzy": 3096,
    "Ġspouted": 14677,
    "Ġdri": 2363,
    "glanced": 19369,
    "abilizing": 2924,
    "Ġclanking": 20614,
    "Ġhos": 4942,
    "¸": 121,
    "ice": 589,
    "Ġpun": 4588,
    "Ġhurt": 7701,
    "Ġtough": 13818,
    "Ġslo": 15509,
    "mn": 3577,
    "agra": 14069,
    "Ġsavage": 4013,
    "ount": 1114,
    "coll": 23781,
    "Ġdeportment": 22615,
    "Ġbattering": 13904,
    "Ġz": 1001,
    "Ġunmolested": 15249,
    "extinguished": 16156,
    "Ġmarvellous": 7538,
    "Ġcontradictory": 20400,
    "Ġpompous": 20426,
    "dire": 15339,
    "Ġimpatience": 7509,
    "iana": 7050,
    "Ġfreshness": 23991,
    "Ġvague": 6407,
    "Ġdig": 6137,
    "Ġpalmy": 19502,
    "[": 63,
    "length": 7136,
    "ribly": 8255,
    "Ġbehaviour": 4384,
    "Ġaccidental": 16850,
    "Ġloved": 4600,
    "Ġshrunk": 16720,
    "anded": 5924,
    "Ġmystical": 12137,
    "Ġweal": 21924,
    "innocence": 15187,
    "Ġgrimes": 11036,
    "Ġcarving": 14446,
    "pumps": 21029,
    "Ġxavier": 2854,
    "client": 18934,
    "Ġinestim": 15628,
    "Ġsquat": 14371,
    "Ġunden": 22017,
    "sim": 6511,
    "Ġthom": 21519,
    "nevertheless": 8286,
    "Ġdisconnected": 22529,
    "Ġput": 1798,
    "months": 9074,
    "resent": 10771,
    "Ġlif": 10198,
    "fish": 3516,
    "yourselves": 24959,
    "ody": 1478,
    "ras": 21039,
    "Ġwaterward": 23370,
    "Ġaunts": 21203,
    "ullied": 23108,
    "Ġprojecting": 9988,
    "confidential": 25877,
    "necessity": 13371,
    "mary": 8752,
    "Ġglorious": 11077,
    "Ġapologies": 25197,
    "wives": 15458,
    "sig": 2874,
    "Ġfrequ": 3325,
    "Ġdormouse": 4926,
    "ember": 1959,
    "Ġsoc": 3526,
    "Ġhenceforth": 19645,
    "Ġhospit": 7514,
    "Ġloom": 7629,
    "Ġblunder": 18820,
    "Ġbloodthirsty": 26603,
    "Ġteach": 8556,
    "Ġunlimited": 26224,
    "outward": 22164,
    "anations": 12582,
    "icilian": 20694,
    "Ġvile": 8475,
    "Ġhath": 12634,
    "Ġgibe": 25960,
    "barbar": 20241,
    "weakness": 16128,
    "Ġsplashed": 23750,
    "active": 16104,
    "Ġexper": 1317,
    "Ġgrated": 22807,
    "Ġnoise": 1072,
    "Ġnantucketers": 9897,
    "Ġquart": 11791,
    "Ġtales": 10144,
    "Ġstature": 10865,
    "Ġbreaths": 14860,
    "Ġnorthward": 13325,
    "Ġexceptionable": 25504,
    "Ġtints": 17729,
    "Ġbreaching": 23350,
    "ilege": 22260,
    "Ġchaps": 14182,
    "permitted": 18344,
    "Ġincredible": 9518,
    "Ġniag": 21533,
    "Ġlanguid": 14217,
    "Ġupbraiding": 26228,
    "Ġbet": 1135,
    "âĢĶâĢĻâĢĿ": 20067,
    "Ġwildness": 14605,
    "oration": 2209,
    "circumst": 5349,
    "visited": 13351,
    "Ġtargets": 4205,
    "Ġgest": 8134,
    "Ġintended": 5548,
    "Ġoppress": 13175,
    "Ġarticulated": 24433,
    "wore": 21127,
    "mes": 1197,
    "emed": 3376,
    "Ġembalmed": 13659,
    "ol": 361,
    "Ġadmits": 23556,
    "Ġbon": 8790,
    "designated": 26320,
    "Ġelephant": 8256,
    "Ġ114": 24438,
    "Ġhers": 7889,
    "nurs": 21001,
    "Ġdante": 21441,
    "Ġostentatious": 25737,
    "class": 4097,
    "Ġcumberland": 21358,
    "use": 2537,
    "Ġspectators": 19410,
    "Ġneglect": 7942,
    "kinder": 24846,
    "Ġcompanies": 14559,
    "alone": 10186,
    "Ġcapsized": 20093,
    "Ġashamed": 6404,
    "ĠĠĠĠĠĠĠĠĠĠĠĠĠĠĠĠĠĠĠĠĠĠĠĠĠĠĠĠĠĠĠĠĠĠĠĠĠĠĠĠĠĠĠĠĠĠĠĠĠĠĠ": 20042,
    "Ġsinusoidal": 4802,
    "Ġtexas": 25923,
    "Ġgoblets": 20522,
    "utely": 8132,
    "ies": 582,
    "invariably": 26418,
    "Ġli": 601,
    "Ġcanvassed": 19938,
    "Ġhan": 15622,
    "Ġappals": 22219,
    "Ġexquisite": 12386,
    "Ġsaratoga": 26425,
    "inent": 9631,
    "Ġthistle": 21920,
    "known": 3569,
    "record": 16923,
    "cul": 1899,
    "Ġstrides": 22618,
    "ager": 6548,
    "Ġreturns": 11930,
    "Ġscold": 10952,
    "bergen": 14344,
    "Ġcomplied": 14737,
    "Ġblubber": 5666,
    "liable": 3816,
    "exceeded": 25002,
    "Ġransacked": 26506,
    "pip": 6657,
    "Ġnerve": 16343,
    "Ġheroism": 24544,
    "Ġmischief": 8544,
    "Ġappro": 657,
    "Ġconvince": 14644,
    "approached": 13488,
    "Ġtrusted": 10520,
    "Ġchange": 1995,
    "now": 548,
    "Ġoffer": 4845,
    "married": 9952,
    "clam": 13059,
    "Ġdecline": 9290,
    "derness": 11741,
    "dare": 12458,
    "led": 580,
    "knell": 24555,
    "walking": 9985,
    "Ġobscurely": 20191,
    "braid": 17497,
    "Ġhealthful": 24063,
    "benefit": 24643,
    "enger": 10775,
    "belled": 24040,
    "Ġfasc": 12604,
    "ode": 1451,
    "Ġhelm": 5276,
    "twinkle": 23706,
    "Ġrudeness": 17127,
    "harpoon": 9494,
    "Ġfriendly": 9823,
    "Ġdeact": 18141,
    "Ę": 217,
    "Ġmeanwhile": 5736,
    "omuch": 21643,
    "ech": 4389,
    "Ġever": 1180,
    "pless": 6262,
    "Ġfacing": 10174,
    "Ġprofundity": 20455,
    "Ġow": 8409,
    "unhesitatingly": 26498,
    "itself": 7834,
    "Ġplantation": 11425,
    "Ġvolcanoes": 24148,
    "Ġsemicircle": 26068,
    "Ġprofusion": 23570,
    "Ġpatagonian": 20535,
    "Ġrests": 13096,
    "smeer": 26148,
    "illa": 12799,
    "Ġcontemptuous": 24677,
    "Ġdoctors": 12156,
    "collins": 6916,
    "Ġexperienced": 6585,
    "Ġamericans": 14746,
    "Ġintervals": 5598,
    "Ġweary": 5635,
    "Ġfin": 1457,
    "Ġcheerless": 16695,
    "ince": 4339,
    "oboam": 9361,
    "aul": 6354,
    "Ġbrut": 18771,
    "Ġartificial": 787,
    "ential": 826,
    "mell": 20966,
    "answers": 22144,
    "Ġimpressed": 8199,
    "Ġgracefully": 13394,
    "Ġfamilies": 8027,
    "Ġexplain": 545,
    "Ġtugged": 17291,
    "acceler": 23600,
    "forgetting": 25486,
    "Ġdeterm": 1269,
    "'re": 12432,
    "cy": 638,
    "Ġmaintains": 2144,
    "wing": 2521,
    "queg": 1769,
    "entire": 6824,
    "Ġgodly": 19082,
    "Ġunseasonable": 26522,
    "crimson": 24090,
    "Ġforster": 5230,
    "Ġmonosy": 18853,
    "mechanically": 17303,
    "according": 12032,
    "Ġnoted": 15834,
    "oars": 9617,
    "Ġmuscle": 14691,
    "oul": 4700,
    "sitting": 8387,
    "Ġcirculation": 16420,
    "appe": 2945,
    "asper": 7855,
    "tumultuous": 20402,
    "Ġsavi": 18326,
    "haut": 20904,
    "Ġnevertheless": 5040,
    "Ġcetus": 19887,
    "weight": 2941,
    "Ġstoop": 16313,
    "Ġaverage": 3139,
    "Ġwert": 12561,
    "level": 2654,
    "oward": 6022,
    "Ġprofessional": 7299,
    "Ġrouted": 24908,
    "nourished": 26400,
    "Ġprofundities": 20456,
    "Ġdispirited": 23884,
    "thine": 15828,
    "chors": 11647,
    "Ġliveliness": 13646,
    "ural": 504,
    "ction": 502,
    "tasted": 17689,
    "iamond": 14592,
    "profound": 16429,
    "birth": 15325,
    "Ġtreasures": 17048,
    "Ġmamm": 25093,
    "Ġshark": 5550,
    "exertion": 16020,
    "Ġdistributes": 4196,
    "fare": 7799,
    "Ġlead": 3523,
    "Ġcontr": 1914,
    "Ġwhoever": 10977,
    "renadier": 18420,
    "Ġnought": 21525,
    "mistakable": 20655,
    "Ġeclipsed": 26378,
    "bold": 17490,
    "gan": 2198,
    "comfortableness": 24525,
    "Ġincoherent": 17403,
    "spirits": 8055,
    "nial": 20986,
    "blubber": 15240,
    "Ġbeach": 6543,
    "Ġjeopardy": 13599,
    "Ġdistraction": 22508,
    "Ġsolar": 22888,
    "Ġhurts": 19113,
    "Ġnarr": 5085,
    "brought": 7285,
    "conject": 8883,
    "sombre": 23856,
    "Ġfleet": 9435,
    "Ġmeasured": 9807,
    "Ġamphitheat": 26254,
    "Ġsisters": 3642,
    "ified": 3224,
    "Ġverify": 12092,
    "Ġproving": 15756,
    "Ġdocumentation": 20557,
    "Ġcondense": 21812,
    "conced": 22474,
    "Ġmorning": 1745,
    "coal": 12029,
    "representativeness": 25273,
    "visual": 24225,
    "Ġremained": 3141,
    "Ġspiced": 22137,
    "Ġcoal": 18592,
    "Ġpractised": 23330,
    "Ġcraggy": 23532,
    "obvious": 9360,
    "Ġgentleman": 3042,
    "acity": 5735,
    "whispered": 20037,
    "consc": 4842,
    "nineteenth": 26139,
    "Ġdistinctions": 18531,
    "Ġdeafened": 25652,
    "impatience": 25501,
    "illings": 14145,
    "Ġtimidly": 11340,
    "Ġutilize": 4799,
    "cannot": 5745,
    "Ġunforgiving": 25996,
    "Ġbeautifully": 13271,
    "Ġcarcase": 14447,
    "parts": 14603,
    "remembered": 17354,
    "Ġunimpeachable": 26524,
    "venge": 4660,
    "levelled": 23645,
    "Ġfastidious": 14495,
    "Ġexposed": 8525,
    "Ġirreduc": 5491,
    "Ġcomstock": 21855,
    "Ġsixteen": 8283,
    "Ġelevating": 19732,
    "Ġlargest": 6284,
    "Ġmetropolis": 17277,
    "oil": 7805,
    "Ġchoke": 22253,
    "gratification": 24348,
    "Ġindifference": 6727,
    "Ġunful": 22015,
    "angel": 5726,
    "inion": 2875,
    "arian": 10318,
    "Ġpoultry": 17444,
    "Ġsmoky": 22562,
    "Ġbarbarously": 24816,
    "ived": 1533,
    "mason": 17604,
    "trop": 15439,
    "Ġfriends": 2655,
    "knowing": 10439,
    "bohemia": 20733,
    "Ġfet": 5808,
    "allet": 11084,
    "Ġgruff": 21617,
    "ornamented": 26597,
    "Ġdemanded": 8327,
    "Ġmag": 1429,
    "wedding": 12526,
    "Ġpreserved": 9265,
    "Ġtoy": 15638,
    "Ġdiminishing": 4209,
    "Ġadhes": 22107,
    "Ġflood": 7716,
    "Ġlouisa": 13548,
    "Ġfatality": 12100,
    "Ġsneer": 13450,
    "repairing": 24495,
    "Ġcats": 8982,
    "ske": 13785,
    "Ġsunrise": 9376,
    "unity": 4153,
    "Ġmisery": 3812,
    "otent": 8836,
    "despond": 19803,
    "iny": 4293,
    "Ġauxiliary": 26420,
    "Ġsund": 8249,
    "grate": 23414,
    "Ġprec": 2919,
    "Ġstrateg": 1333,
    "ĠâĢľâĢĻ": 22258,
    "Ġoriginated": 24124,
    "Ġanx": 3181,
    "condite": 23249,
    "Ġpass": 1039,
    "Ġbrilliantly": 25123,
    "Ġobjection": 6587,
    "Ġmoose": 22437,
    "Ġcable": 11583,
    "Ġignorant": 5344,
    "Ġdistingu": 2515,
    "console": 22477,
    "Ġdepresses": 25798,
    "propagation": 1243,
    "ieves": 4008,
    "Ġscrape": 14921,
    "Ġgeneration": 2247,
    "felix": 10656,
    "tting": 17682,
    "Ġpolynesian": 26027,
    "Ġgreeted": 23215,
    "fav": 6649,
    "uberance": 25917,
    "Ġvess": 3291,
    "ps": 4575,
    "Ġesq": 15112,
    "blu": 12444,
    "Ġpeter": 10538,
    "listened": 15046,
    "poor": 6062,
    "Ġvillagers": 19477,
    "heed": 15501,
    "lantern": 17431,
    "Ġherb": 15860,
    "pract": 10122,
    "Ġdispel": 16598,
    "Ġtransplanted": 22445,
    "Ġillust": 8263,
    "Ġcongealed": 25982,
    "Ġlawless": 19438,
    "Ġharry": 24572,
    "Ġdenominated": 15232,
    "Ġextract": 1507,
    "Ġwolfish": 25936,
    "commission": 22813,
    "Ġgle": 7859,
    "intellig": 5321,
    "Ġrecess": 10849,
    "Ġwelcome": 5604,
    "Ġproduces": 2094,
    "Ġtyph": 10011,
    "Ġexpressive": 8985,
    "future": 13720,
    "theories": 18081,
    "orient": 2878,
    "Ġbrick": 8929,
    "Ġrealities": 18982,
    "Ġprivile": 8649,
    "Ġfoaming": 18992,
    "column": 19331,
    "Ġbeaches": 18087,
    "Ġrevelation": 25223,
    "mon": 2308,
    "Ġtasted": 12534,
    "reed": 6374,
    "Ġsprained": 15887,
    "gain": 8740,
    "Ġmitig": 1338,
    "Ġdilatory": 24704,
    "looks": 12022,
    "Ġflint": 23012,
    "ool": 17620,
    "Ġdiscredit": 22784,
    "coloured": 7291,
    "erxes": 21278,
    "Ġsuperhuman": 23454,
    "Ġvinc": 14088,
    "Ġunsatisfied": 22048,
    "Ġrelied": 16198,
    "Ġcaval": 25770,
    "Ġrussian": 14353,
    "falling": 24361,
    "Ġspind": 18308,
    "asher": 15650,
    "ralian": 19603,
    "Ġrefine": 2789,
    "Ġscra": 5841,
    "Ġseeming": 8543,
    "Ġresentment": 7530,
    "algorithms": 8297,
    "istle": 15874,
    "far": 5787,
    "Ġtant": 12530,
    "jammed": 25907,
    "Ġunsavory": 20709,
    "Ġconsummation": 17428,
    "Ġepistle": 24905,
    "oting": 2745,
    "Ġhandful": 9786,
    "Ġsolely": 9913,
    "Ġabound": 8867,
    "determ": 7107,
    "rmsprop": 4523,
    "Ġsolace": 16203,
    "Ġpresent": 1640,
    "Ġworkman": 16266,
    "Ġpetrified": 19599,
    "Ġoffences": 18696,
    "olent": 8155,
    "Ġwaylaid": 22878,
    "stud": 8824,
    "Ġimpious": 15991,
    "Ġsermon": 12380,
    "Ġbradstreet": 9579,
    "whatsoever": 18488,
    "taffrail": 15445,
    "miseries": 16759,
    "endeavour": 17032,
    "Ġspong": 15885,
    "Ġbruised": 25773,
    "Ġbale": 7838,
    "fiend": 13664,
    "oke": 1859,
    "shott": 11798,
    "Ġmystic": 7503,
    "Ġunbending": 25465,
    "Ġpartake": 18674,
    "Ġpublic": 4332,
    "Ġdemand": 4947,
    "Ġformations": 18750,
    "gn": 8082,
    "Ġcasked": 24497,
    "Ġcolonel": 3404,
    "Ġsocietal": 11438,
    "sy": 2873,
    "announcement": 24563,
    "Ġir": 1994,
    "._]]": 5335,
    "deprived": 19900,
    "favourable": 12268,
    "Ġup": 463,
    "poss": 4779,
    "Ġclerval": 4655,
    "Ġinfernal": 11966,
    "digger": 24312,
    "Ġcommun": 1705,
    "Ġhyper": 19742,
    "Ġstair": 8457,
    "Ġastronomy": 25927,
    "achel": 7034,
    "clergyman": 20731,
    "Ġending": 18924,
    "Ġhurricane": 16434,
    "Ġoccurrences": 11052,
    "Ġendeavors": 16549,
    "vate": 21112,
    "Ġgarden": 3823,
    "Ġfew": 1202,
    "Ġseizing": 7879,
    "prudently": 21037,
    "Ġtar": 2565,
    "Ġendwise": 23140,
    "warnings": 20354,
    "onah": 3334,
    "Ġcredited": 25157,
    "Ġglared": 13022,
    "importance": 9992,
    "draughts": 20391,
    "Ġshrugged": 12775,
    "Ġlavater": 20499,
    "became": 10517,
    "Ġmastery": 23996,
    "Ġstraw": 9432,
    "Ġindependence": 12109,
    "Ġbarely": 16938,
    "Ġstrewed": 23424,
    "Ġtrading": 23081,
    "arded": 5029,
    "tormented": 13648,
    "Ġstripping": 23699,
    "Ġprim": 8244,
    "Ġdarkened": 16435,
    "Ġinexhaustible": 16983,
    "Ġmanner": 2196,
    "Ġresnet": 5473,
    "Ġcountenances": 11969,
    "Ġodor": 12154,
    "Ġdebar": 24274,
    "Ġcuba": 25098,
    "Ġrestrained": 16379,
    "Ġkingdom": 12023,
    "Ġprevious": 2090,
    "Ġhorrible": 4906,
    "cuniary": 26381,
    "Ġreason": 1393,
    "name": 6796,
    "detained": 24382,
    "Ġtrample": 20330,
    "reporting": 24494,
    "Ġslipping": 13364,
    "Ġgrinned": 16859,
    "Ġcomputational": 1627,
    "ounded": 9751,
    "Ġentirely": 3432,
    "Ġacqu": 1417,
    "Ġdeactivates": 20706,
    "would": 2351,
    "Ġtyros": 26102,
    "othic": 16219,
    "Ġcompl": 3758,
    "Ġscreams": 24604,
    "quit": 15766,
    "Ġdab": 15592,
    "Ġbegrim": 23018,
    "Ġsuffer": 4723,
    "Ġbehavioral": 11398,
    "Ġbathed": 17867,
    "ipper": 13743,
    "Ġprot": 3847,
    "iless": 10284,
    "darted": 20834,
    "affectionate": 24922,
    "matic": 4619,
    "Ġsubstitute": 16728,
    "Ġslit": 13061,
    "``": 15310,
    "kindness": 10508,
    "Ġdefence": 11069,
    "Ġinter": 727,
    "surround": 16760,
    "Ġfoot": 3162,
    "Ġopulent": 23630,
    "offered": 14520,
    "Ġsaints": 20677,
    "Ġglimpse": 6944,
    "Ġeat": 4645,
    "Ġhandling": 8916,
    "Ġsuperficial": 23457,
    "Ġdress": 4023,
    "Ġdecoding": 3083,
    "taken": 7560,
    "ast": 473,
    "blasted": 20192,
    "papers": 12506,
    "unsuitable": 21897,
    "oice": 1384,
    "Ġfold": 5531,
    "Ġhelplessness": 25074,
    "atus": 21263,
    "Ü": 157,
    "Ī": 235,
    "Ġdefray": 22944,
    "Ġholds": 7976,
    "Ġvarious": 3510,
    "Ġnick": 21526,
    "Ġexhaust": 6400,
    "Ġfeeble": 12288,
    "Ġmanif": 8874,
    "Ġfling": 9663,
    "Ġlinen": 12411,
    "Ġdetailed": 12830,
    "Ġaround": 3612,
    "carefully": 13372,
    "fairly": 17222,
    "terbury": 21828,
    "harbors": 20151,
    "article": 22387,
    "Ġupon": 718,
    "simon": 16975,
    "Ġjot": 11767,
    "ifled": 14066,
    "Ġjelly": 22304,
    "Ġemotions": 8972,
    "classification": 4387,
    "Ġhaggard": 17333,
    "conversation": 7124,
    "Ġbridle": 24682,
    "Ġspokes": 18314,
    "road": 6679,
    "Ġthing": 1638,
    "leton": 5148,
    "Ġserpents": 13080,
    "Ġtroops": 24899,
    "spending": 18690,
    "bouton": 17504,
    "utility": 21590,
    "Ġsqualid": 14372,
    "Ġemptied": 24347,
    "]": 65,
    "Ġeternities": 19946,
    "ripp": 6406,
    "Ġfluke": 14676,
    "icting": 12862,
    "Ġaustralia": 15236,
    "Ġclo": 6044,
    "Ġknows": 4161,
    "Ġtrial": 6637,
    "Ġrem": 954,
    "utch": 21589,
    "untering": 15780,
    "Ġfingers": 5672,
    "Ġeligible": 10673,
    "Ġencouragement": 13047,
    "market": 16841,
    "reputable": 15520,
    "Ġflying": 5413,
    "Ġretention": 23074,
    "Ġforesight": 13131,
    "Ġadmission": 23557,
    "Ġreproof": 24891,
    "Ġunscrew": 22044,
    "fearfully": 25119,
    "infliction": 25925,
    "Ġshade": 6552,
    "elve": 4643,
    "alk": 1151,
    "stad": 7598,
    "Ġplaced": 3442,
    "attached": 11939,
    "limin": 8384,
    "77": 15304,
    "Ġhalting": 16278,
    "Ġgrimesby": 11459,
    "Ġsweeter": 23921,
    "Ġpreach": 14175,
    "housekeeper": 24103,
    "suppose": 8648,
    "prevailed": 17348,
    "Ġworst": 7444,
    "Ġamazing": 9980,
    "Ġglanced": 5953,
    "Ġrejo": 5917,
    "Ġx": 2075,
    "Ġsucceeding": 16763,
    "Ġravings": 18649,
    "Ġtheory": 5799,
    "gee": 15981,
    "Ġsevere": 6033,
    "mad": 5281,
    "Ġstealing": 18895,
    "ighb": 10425,
    "Ġirregularity": 25325,
    "Ġband": 5292,
    "Ġbalanced": 12993,
    "ounce": 6559,
    "ivery": 17574,
    "Ġbrotherly": 16531,
    "cost": 19188,
    "Ġsuccessfully": 19432,
    "Ġ_": 840,
    "Ġstays": 16564,
    "Ġcryst": 9920,
    "Ġreview": 18033,
    "ĠâĢĺ_": 11119,
    "Ġpalpable": 15209,
    "idious": 11665,
    "Ġbreaking": 6312,
    "Ġrefinement": 18695,
    "Ġcomfortably": 16617,
    "Ġestab": 6317,
    "quered": 11062,
    "Ġlingered": 13507,
    "Ġshaster": 22002,
    "Ġnuptials": 20497,
    "mong": 15393,
    "Ġdro": 2771,
    "machine": 998,
    "Ġfavourably": 16368,
    "Ġblight": 18819,
    "frisco": 16789,
    "Ġvisibly": 22865,
    "Ġmich": 21309,
    "Ġ83": 24459,
    "Ġcrevice": 22726,
    "Ġthy": 2514,
    "Ġtransitory": 16022,
    "Ġoutrages": 18415,
    "Ġbeneath": 3236,
    "Ġmoves": 14234,
    "theless": 4260,
    "Ġsteadfast": 8682,
    "Ġviewed": 10465,
    "lessly": 4557,
    "ellow": 3876,
    "Ġtalent": 12301,
    "Ġpoltroon": 26600,
    "Ġencircling": 26273,
    "zealand": 26053,
    "Ġalph": 9698,
    "gentlemen": 9507,
    "Ġbracelets": 25503,
    "Ġintentionally": 24523,
    "Ġconnect": 799,
    "asons": 6016,
    "Ġsubstance": 5510,
    "bestowed": 12230,
    "Ġassuming": 16694,
    "Ġburly": 19252,
    "cus": 3983,
    "âĢĶ": 517,
    "dun": 17518,
    "ollen": 11300,
    "Ġperceptible": 18451,
    "sou": 12510,
    "Ġpage": 6979,
    "thither": 21987,
    "Ġforc": 9230,
    "ara": 12612,
    "Ġbreakfast": 3978,
    "Ġestimated": 16596,
    "vy": 21110,
    "Ġunderground": 18985,
    "Ġpatch": 4182,
    "Ġsk": 961,
    "Ġsuccess": 3611,
    "east": 9118,
    "Ġlamented": 24994,
    "ama": 11680,
    "Ġattaining": 15807,
    "Ġloo": 22114,
    "Ġinsular": 19270,
    "charm": 13993,
    "Ġpence": 17907,
    "rinted": 21046,
    "cad": 17507,
    "Ġapproximate": 2342,
    "Ġpenetrating": 17013,
    "scrape": 25699,
    "!âĢĶâĢĻ": 23567,
    "ivened": 22975,
    "Ġpoky": 21482,
    "Ġreceives": 20357,
    "Ġunwaning": 24830,
    "\\": 64,
    "Ġmildness": 9947,
    "Ġdeeper": 2085,
    "Ġbeadle": 26486,
    "ulity": 10888,
    "important": 7114,
    "Ġsag": 6515,
    "Ġstave": 11654,
    "Ġsupercil": 23455,
    "disinterested": 23505,
    "Ġladen": 19179,
    "Ġcollapsed": 15085,
    "ferent": 4195,
    "Ġincred": 5646,
    "aside": 10194,
    "Ġcurric": 22972,
    "Ġattachment": 6051,
    "Ġabomination": 22282,
    "marching": 25753,
    "Ġhanover": 20589,
    "Ġemaciated": 20641,
    "Ġassist": 3565,
    "Ġcannibal": 7774,
    "equally": 19901,
    "Ġleaf": 15727,
    "Ġdearest": 5457,
    "kn": 5791,
    "Ġtrans": 637,
    "Ġlandscape": 12421,
    "occasion": 7754,
    "Ġalert": 18104,
    "Ġperdition": 15996,
    "correct": 24483,
    "Ġcrosses": 23065,
    "Ġprejudiced": 24806,
    "Ġpublisher": 24070,
    "hanging": 10103,
    "wedged": 24559,
    "Ġpaints": 23527,
    "prepare": 20215,
    "making": 2574,
    "Ġvinegar": 20103,
    "Ġrelevance": 5184,
    "Ġrepresented": 8941,
    "Ġdouble": 4940,
    "Ġblo": 2735,
    "Ġslowly": 3620,
    "Ġtrim": 15966,
    "Ġchemist": 11136,
    "Ġleap": 5825,
    "Ġlarger": 1401,
    "Ġbapt": 13899,
    "connected": 1307,
    "Ġcrystal": 17217,
    "mont": 19171,
    "Ġremark": 2145,
    "striking": 13443,
    "itious": 8784,
    "ician": 21568,
    "Ġreap": 18029,
    "Ġga": 4447,
    "Ġimperial": 9484,
    "Ġnaturally": 2468,
    "appl": 9329,
    "Ġworld": 1598,
    "Ġwednesday": 9087,
    "Ġheeds": 24520,
    "Ġoverseeing": 22364,
    "schoolmaster": 15165,
    "Ġfaithfulness": 24446,
    "und": 4119,
    "Ġdictionaries": 12344,
    "sell": 13784,
    "Ġloft": 5642,
    "aren": 10077,
    "causing": 25519,
    "thanked": 24327,
    "reat": 622,
    "nights": 16449,
    "repid": 11567,
    "Ġattain": 12753,
    "ri": 390,
    "Ġimpertinence": 11368,
    "discern": 14854,
    "ements": 11109,
    "Ġyale": 21783,
    "pul": 8757,
    "fug": 17545,
    "Ġechoed": 20427,
    "Ġgloomily": 14803,
    "irty": 4051,
    "Ġpikes": 21481,
    "none": 6962,
    "Ġassail": 13067,
    "asting": 12812,
    "Ġferocity": 16868,
    "pra": 15410,
    "Ġterms": 2564,
    "Ġunprinciple": 18255,
    "rated": 6229,
    "Ġthinker": 22814,
    "whaleman": 23438,
    "Ġconsec": 21809,
    "idirectional": 2421,
    "Ġbasket": 9575,
    "Ġpages": 15612,
    "Ġphenomenon": 17919,
    "Ġbids": 24646,
    "Ġfr": 1696,
    "Ġcounted": 12144,
    "Ġairs": 14513,
    "Ġpad": 8125,
    "Ġpsych": 10179,
    "sacrifice": 13495,
    "Ġremembr": 24172,
    "Ġalthough": 4152,
    "comfort": 5647,
    "tha": 15827,
    "mccarthy": 15398,
    "deacon": 22151,
    "Ġbowsprit": 16563,
    "books": 8667,
    "Ġuniversal": 2235,
    "Ġdevoutly": 25834,
    "intellect": 18823,
    "Ġ(_": 3736,
    "dislike": 23498,
    "Ġpaddled": 20204,
    "arrived": 12615,
    "Ġchestnuts": 24381,
    "Ġdegenerating": 25800,
    "Ġ8": 5433,
    "Ġattractive": 25577,
    "Ġcreations": 18682,
    "Ġconsequ": 6256,
    "Ġunprotected": 22071,
    "afraid": 10443,
    "Ġdoctor": 5067,
    "Ġoctavo": 15167,
    "Ġclergy": 7643,
    "young": 7321,
    "childhood": 16870,
    "extensive": 18712,
    "tremendous": 20676,
[...]
