{
  "metadata": {
    "vocab_size": 26610,
    "algorithm": "BPE",
    "created_at": "2026-05-30 05:47:12",
    "special_tokens": [
      "<PAD>",
      "<SOS>",
      "<EOS>",
      "<UNK>",
      "<MASK>"
    ]
  },
  "vocab": {
    "Ġcompl": 3760,
    "diss": 17525,
    "Ġgodson": 23352,
    "Ġnoise": 1069,
    "Ġview": 2761,
    "Ġensures": 3049,
    "Ġfastidious": 14497,
    "Ġconversing": 14636,
    "zza": 24161,
    "Ġvinegar": 20101,
    "Ġjabez": 11771,
    "kles": 17584,
    "Ġsunny": 13093,
    "Ġdolph": 12384,
    "Ġjanuary": 13661,
    "Ġserve": 9366,
    "Ġcarter": 18904,
    "Ġcover": 3560,
    "iard": 9599,
    "networks": 2404,
    "Ġcoolness": 16885,
    "gence": 874,
    "takes": 21074,
    "Ġsubsequently": 16163,
    "ener": 562,
    "whiskers": 12315,
    "Ġpolice": 4673,
    "opius": 18515,
    "ĠĠĠĠĠĠĠĠĠĠĠĠĠĠĠĠĠĠĠĠĠĠĠĠĠĠĠĠĠĠĠĠĠĠĠĠĠĠĠ": 19257,
    "Ġunfailing": 24105,
    "wondrous": 12342,
    "Ġhunts": 23155,
    "Ġsharing": 3479,
    "Ġwont": 9849,
    "Ġcane": 10921,
    "Ġaged": 10317,
    "Ġ14": 9320,
    "Ġloc": 10908,
    "Ġbled": 17857,
    "Ġmaster": 3684,
    "mary": 8749,
    "Ġgree": 7598,
    "Ġscuff": 15943,
    "ional": 1083,
    "laug": 10702,
    "clever": 20814,
    "izzy": 3088,
    "Ġexe": 3993,
    "Ġbrix": 12591,
    "Ġmaiden": 13393,
    "Ġnumber": 1983,
    "Ġmyself": 1454,
    "Ġpunish": 12165,
    "Ġnupt": 13949,
    "Ġnich": 21517,
    "caves": 20813,
    "lev": 1239,
    "lab": 3459,
    "Ġwrapping": 19778,
    "Ġaverted": 16258,
    "Ġfleecy": 17024,
    "Ġcommercial": 22674,
    "Ġlaugh": 4114,
    "venth": 9292,
    "Ġsands": 14952,
    "passenger": 24160,
    "Ġswept": 7978,
    "Ġindeed": 1675,
    "needles": 20310,
    "Ġanimals": 8976,
    "Ġ119": 24432,
    "wrath": 23746,
    "mpus": 13764,
    "Ġorbs": 22093,
    "tout": 21063,
    "Ġnavel": 24566,
    "Ġnoiseless": 10353,
    "Ġscreening": 25298,
    "Ġembattled": 26286,
    "Ġdrew": 3540,
    "rably": 21631,
    "adieu": 26198,
    "Ġsus": 18277,
    "innacle": 7521,
    "wedged": 24548,
    "lane": 10701,
    "Ġfish": 2709,
    "ache": 8520,
    "Ġlivelong": 25507,
    "haz": 17564,
    "Ġrobustness": 18886,
    "Ġrepresented": 8936,
    "etency": 21580,
    "Ġwolves": 25930,
    "westward": 25421,
    "holloa": 19468,
    "Ġnecessitates": 23924,
    "Ġchiselled": 25555,
    "irth": 5635,
    "Ġplantation": 11418,
    "Ġhaving": 1877,
    "begging": 22498,
    "granting": 23409,
    "damp": 15347,
    "rugg": 15903,
    "clair": 18937,
    "Ġqueen": 3215,
    "Ġprejudices": 13477,
    "exceeded": 25004,
    "istic": 1024,
    "Ġactionable": 24549,
    "Ġdesignated": 19527,
    "evid": 11481,
    "danish": 20832,
    "Ġadroit": 25996,
    "Ġrome": 12161,
    "atered": 22073,
    "Ġsetting": 7050,
    "Ġfaced": 10803,
    "Ġpostpone": 17310,
    "Ġrecesses": 17263,
    "osa": 22260,
    "hes": 1398,
    "Ġscolded": 25468,
    "urity": 8145,
    "fall": 5134,
    "Ġneglig": 18881,
    "onic": 7829,
    "Ġclinch": 18432,
    "meantime": 9091,
    "Ġbefallen": 12347,
    "Ġmorris": 18854,
    "Ġpots": 9426,
    "Ġalfred": 21787,
    "chairs": 21693,
    "anywhere": 14686,
    "faith": 15029,
    "flies": 19428,
    "Ġalgorithm": 762,
    "arians": 18527,
    "Ġimperson": 14221,
    "Ġchaos": 17011,
    "Ġbrimming": 22867,
    "Ġdashing": 8796,
    "Ġmuch": 921,
    "asant": 17957,
    "binary": 20785,
    "Ġfill": 5704,
    "oir": 20999,
    "Ġglared": 13026,
    "Ġplague": 11829,
    "Ġrh": 9241,
    "-------": 20390,
    "âĢĶâĢĻâĢĿ": 20067,
    "swallow": 24251,
    "neg": 12872,
    "Ġworkflow": 2288,
    "Ġencourag": 1392,
    "sensations": 20054,
    "Ġbra": 3256,
    "Ġdictated": 25218,
    "Ġladder": 8599,
    "Ġruskin": 25805,
    "7": 27,
    "soc": 5173,
    "entirely": 7784,
    "devilish": 17082,
    "Ġcorrupt": 11928,
    "Ġsongs": 13428,
    "walks": 19726,
    "pha": 22785,
    "Ġseven": 4542,
    "character": 6333,
    "Ġcleaving": 23178,
    "treacle": 25150,
    "block": 11465,
    "Ġrecurred": 18980,
    "Ġundertaking": 8575,
    "vent": 682,
    "once": 5907,
    "Ġmasonry": 13607,
    "Ġhav": 12761,
    "ladder": 19787,
    "Ġkill": 4455,
    "ortion": 11762,
    "Ġmosses": 20164,
    "Ġself": 1780,
    "pulous": 15416,
    "coarse": 16489,
    "order": 1958,
    "Ġcaus": 1724,
    "Ġpantry": 20294,
    "Ġwrong": 4722,
    "apped": 5393,
    "Ġinsure": 13186,
    "Ġazure": 12378,
    "Ġcustomary": 8670,
    "Ġdread": 3161,
    "Ġlingering": 11374,
    "Ġfortune": 4239,
    "Ġlogic": 13084,
    "inev": 21966,
    "Ġdismissed": 12899,
    "worthy": 7735,
    "Ġrash": 10892,
    "Ġparalle": 1411,
    "cturn": 17987,
    "Ġprecipice": 19944,
    "inea": 7625,
    "Ġmu": 17796,
    "Ġplayed": 9413,
    "Ġrevenue": 26192,
    "Ġult": 9072,
    "process": 11143,
    "storied": 18022,
    "simple": 13460,
    "furnished": 20241,
    "been": 3346,
    "Ġperse": 6273,
    "ibule": 13015,
    "freighted": 14898,
    "Ġerr": 1324,
    "Ġpitied": 14696,
    "ill": 447,
    "utmost": 21586,
    "Ġhollowly": 24518,
    "Ġones": 3014,
    "murderer": 13400,
    "bly": 6113,
    "stem": 567,
    "Ġgodly": 19081,
    "supplementary": 20549,
    "Ġpauper": 26176,
    "illuminated": 17455,
    "Ġidle": 8255,
    "Ġtapped": 11551,
    "Ġdocument": 15023,
    "Ġunspeakably": 25172,
    "Ġraptures": 13504,
    "Ġterribly": 10420,
    "iza": 6257,
    "wants": 21128,
    "Ġconjectures": 16924,
    "Ġethiop": 26152,
    "Ġkicks": 19771,
    "Ġflowing": 14419,
    "Ġrang": 9242,
    "Ġconsequently": 8060,
    "Ġportion": 7494,
    "iarity": 8744,
    "Ġinsurance": 23673,
    "angular": 11728,
    "owers": 12692,
    "Ġenvelopes": 24499,
    "orers": 14107,
    "Ġconsists": 11981,
    "Ġwore": 6376,
    "Ġbackwoods": 22653,
    "Ġbreathless": 12192,
    "Ġdarling": 12612,
    "Ġuttered": 7282,
    "holding": 7741,
    "Ġemployed": 5197,
    "doubt": 6784,
    "âĢĶâĢĺ": 7017,
    "Ġmoist": 9282,
    "Ġobviously": 16811,
    "alo": 7591,
    "Ġadvent": 4357,
    "Ġsweeter": 23912,
    "Ġcoco": 10993,
    "Ġthem": 638,
    "Ġprosecution": 12385,
    "Ġseals": 11702,
    "Ġromish": 19590,
    "Ġpropagating": 20633,
    "Ġfree": 3377,
    "Ġtarget": 2819,
    "###": 3830,
    "unquiet": 21882,
    "beef": 18524,
    "deepest": 22848,
    "Ġweld": 8114,
    "Ġheavy": 3745,
    "totally": 25414,
    "Ġdeliverance": 15162,
    "breadth": 20276,
    "harbors": 20149,
    "U": 57,
    "Ġmuzzle": 21319,
    "fra": 8375,
    "Ġsyllables": 25296,
    "Ġhed": 7389,
    "tracks": 19652,
    "inav": 15483,
    "Ġheartfelt": 18970,
    "Ġwrists": 11107,
    "ĠĠĠĠĠĠĠĠĠĠĠĠĠĠĠĠĠĠĠĠĠĠĠĠĠĠĠĠĠĠĠĠĠĠĠ": 19256,
    "Ġcirculating": 23367,
    "Ġbi": 918,
    "Ġsignifies": 19145,
    "decided": 13222,
    "mit": 4934,
    "Ġmuscle": 14693,
    "ica": 10195,
    "Ġcrush": 9420,
    "Ġsheets": 9719,
    "Ġquick": 2583,
    "stochastic": 3774,
    "Ġbuttons": 12788,
    "Ġmorass": 22976,
    "Ġlearned": 2026,
    "Ġinexplicable": 12261,
    "Ġhurriedly": 11243,
    "hullo": 17570,
    "Ġimitated": 18330,
    "rief": 6204,
    "cannot": 5748,
    "dug": 18463,
    "Ġapothecary": 13667,
    "articulate": 17402,
    "Ġlittle": 865,
    "kward": 6961,
    "ta": 13796,
    "Ġhatherley": 7849,
    "true": 2588,
    "Ġgiants": 25957,
    "blister": 24124,
    "%": 9,
    "[": 63,
    "anyone": 16593,
    "Ġassume": 10512,
    "Ġcategories": 4479,
    "Ġharbor": 10024,
    "cery": 20808,
    "Ġvineyarder": 25601,
    "Ġdisplay": 6427,
    "Ġaffording": 14831,
    "Ġankers": 21442,
    "Ġundue": 25989,
    "let": 2732,
    "Ġdol": 9660,
    "Ġmichigan": 26422,
    "illes": 12702,
    "Ġhousings": 21490,
    "Ġsubset": 9867,
    "Ġsgd": 3127,
    "Ġwhereof": 16105,
    "Ġstruggle": 3678,
    "soever": 11864,
    "Ġwhiteness": 5923,
    "Ġloadstone": 25812,
    "period": 15896,
    "Ġyoun": 1409,
    "Ġapproximate": 2342,
    "Ġscare": 18397,
    "Ġmap": 2388,
    "Ġdisappears": 18561,
    "dependence": 17169,
    "Ġhol": 1182,
    "Ġcalling": 5664,
    "remental": 21245,
    "Ġferguson": 17471,
    "py": 17624,
    "izarre": 17393,
    "Ġwad": 13858,
    "Ġswing": 13043,
    "Ġindicated": 10465,
    "Ġpup": 12627,
    "Ġdeserving": 14761,
    "Ġtraditions": 11438,
    "Ġarchbishop": 18712,
    "iluvian": 18061,
    "proceeded": 25190,
    "Ġmining": 22829,
    "belief": 13289,
    "Ġsatir": 18799,
    "Ġcurve": 22970,
    "ĠâĢľâĢĺ": 8505,
    "Ġgroups": 3720,
    "fork": 20856,
    "ermaid": 14301,
    "magnifying": 25389,
    "Ġremains": 4906,
    "Ġparmacetti": 20604,
    "Ġpromising": 10395,
    "Ġup": 463,
    "Ġinclu": 1100,
    "ardy": 22157,
    "hil": 8378,
    "Ġcrawled": 17044,
    "Ġpreserving": 19799,
    "fat": 8079,
    "Ġcontrad": 9752,
    "Ġuntoward": 19170,
    "remained": 8571,
    "Ġspect": 3555,
    "Ġabode": 7900,
    "slipped": 25525,
    "Ġspinal": 12306,
    "orily": 15573,
    "Ġhist": 2442,
    "Ġwalton": 14976,
    "Ġrenewal": 12239,
    "Ġtheoretic": 23307,
    "aside": 10188,
    "Ġmonstrous": 7792,
    "rawling": 21634,
    "Ġw": 272,
    "approb": 11038,
    "done": 6500,
    "¿": 128,
    "Ġunsophisticated": 25988,
    "Ġcant": 17825,
    "Ġsur": 2184,
    "lestrade": 9653,
    "Ġdoubtfully": 23471,
    "consider": 6350,
    "chard": 21687,
    "Ġpresence": 5031,
    "Ġrapture": 13503,
    "mountains": 15185,
    "Ġbulkhead": 24500,
    "searching": 25107,
    "ither": 1546,
    "correspond": 13405,
    "dun": 17518,
    "offer": 19061,
    "abhorred": 17339,
    "loose": 11811,
    "Ġheavily": 6743,
    "Ġnovel": 6698,
    "instinctively": 26325,
    "Ġfeigned": 22210,
    "eternal": 17983,
    "Ġcurrents": 13022,
    "Ġunintelligible": 26510,
    "Ġeddy": 13553,
    "Ġmeasures": 1207,
    "aries": 6246,
    "nar": 12499,
    "nowadays": 22338,
    "Ġkidn": 20205,
    "Ġdisregard": 22529,
    "Ġassail": 13070,
    "encouragement": 17427,
    "Ġsignificantly": 4519,
    "icism": 13961,
    "Ġbaboon": 19698,
    "urred": 8449,
    "Ġchoke": 22249,
    "Ġmillion": 14991,
    "shake": 22455,
    "Ġmeditative": 25017,
    "irregular": 21912,
    "akened": 7417,
    "Ġox": 7155,
    "hered": 5623,
    "Ġcalculates": 13273,
    "necess": 4894,
    "laws": 19808,
    "Ġcorps": 13040,
    "Ġshun": 11714,
    "clergyman": 20730,
    "attacks": 23120,
    "Ġimmut": 13305,
    "Ġhereby": 10354,
    "Ġkeel": 6443,
    "unhappy": 10233,
    "ercely": 12557,
    "Ġescorted": 23500,
    "Ġinvoluntarily": 8550,
    "Ġauxiliary": 26414,
    "mend": 20964,
    "Ġclassical": 22642,
    "Ġplank": 7037,
    "Ġantarctic": 19559,
    "Ġhearty": 9842,
    "Ġcourt": 4169,
    "Ġconflagration": 26361,
    "georgiana": 26016,
    "Ġundergo": 23234,
    "summer": 11997,
    "Ġgraphs": 25459,
    "Ġdr": 2822,
    "Ġcrazy": 8594,
    "rodden": 21532,
    "Ġjovial": 19235,
    "Ġcontrol": 13086,
    "bildad": 9584,
    "Ġadmit": 7713,
    "Ġcoarsely": 25824,
    "crimson": 24081,
    "Ġpersuasion": 10495,
    "Ġbolts": 16942,
    "Ġrepine": 16408,
    "Ġunmindful": 22063,
    "free": 8736,
    "mechan": 11863,
    "Ġsegmentation": 17343,
    "Ġenemy": 5606,
    "Ġescaping": 13142,
    "atiously": 15522,
    "Ġumbrell": 13658,
    "Ġimparts": 18447,
    "haul": 14773,
    "grie": 12476,
    "Ġchallenge": 25467,
    "bitts": 26119,
    "Ġconveniences": 19813,
    "Ġreliable": 18782,
    "maj": 18808,
    "highest": 20409,
    "Ġemaciated": 20638,
    "illating": 22108,
    "Ġeffectual": 18735,
    "Ġknew": 2055,
    "consp": 18506,
    "ously": 2493,
    "Ġstretched": 5924,
    "ger": 1107,
    "Ġaright": 11745,
    "besides": 8696,
    "Ġeverywhere": 9793,
    "Ġrumors": 11317,
    "Ġdy": 2577,
    "Ġplacid": 11831,
    "Ġfearful": 6199,
    "Ġpun": 4587,
    "Ġemail": 19075,
    "Ġopium": 8992,
    "Ġwandered": 6933,
    "Ġpersonages": 23533,
    "trivial": 21090,
    "Ġcuff": 17830,
    "theless": 4259,
    "Ġshutter": 16672,
    "Ġain": 6973,
    "Ġguid": 2639,
    "Ġunembarrassed": 22068,
    "Ġserving": 14491,
    "agonies": 21910,
    "Ġoffic": 3186,
    "Ġexclamation": 8699,
    "Ġsquatted": 25839,
    "<PAD>": 0,
    "Ġperman": 10958,
    "Ġclair": 6271,
    "forming": 15919,
    "Ġassizes": 11102,
    "Ġgases": 21600,
    "ternal": 2139,
    "inated": 6807,
    "Ġperpetual": 12307,
    "Ġarbit": 4649,
    "Ġexhausting": 24700,
    "herself": 4888,
    "Ġconsumed": 10345,
    "heartedness": 24825,
    "comed": 8545,
    "vanished": 15067,
    "igning": 12689,
    "knife": 6945,
    "Ġtornado": 24612,
    "Ġindic": 2884,
    "forth": 9319,
    "rug": 18346,
    "Ġinterruption": 9471,
    "Ġresponsiveness": 2894,
    "nam": 2855,
    "Ġdistillation": 16049,
    "Ġmisanthrop": 22758,
    "Ġberries": 13415,
    "Ġindependently": 4245,
    "foundation": 16716,
    "Ġanimated": 7704,
    "Ġended": 7950,
    "remote": 23186,
    "Ġpenetrated": 13480,
    "®": 111,
    "Ġrevered": 23725,
    "Ġquadruped": 20615,
    "Ġcousin": 3706,
    "ĺ": 251,
    "Ġsurpasses": 25266,
    "Ġfiver": 22776,
    "Ġtemper": 956,
    "Ġsubl": 7236,
    "Ġcurios": 18851,
    "Ġport": 3312,
    "itz": 6010,
    "Ġtranquill": 6632,
    "(_": 7542,
    "Ġdespatched": 23824,
    "Ġfitly": 23993,
    "Ġnarrow": 5085,
    "Ġmadman": 13159,
    "verbally": 25357,
    "work": 1723,
    "strangers": 20336,
    "Ġjail": 22294,
    "Ġintercourse": 11003,
    "Ġmercy": 8996,
    "pires": 13782,
    "Ġwicked": 5964,
    "times": 8099,
    "whence": 23211,
    "Ġmalignity": 10553,
    "Ġpalsy": 25774,
    "bred": 11464,
    "regularization": 3516,
    "Ġexposed": 8523,
    "Ġpersonally": 8600,
    "Ġsurm": 7478,
    "Ġmisty": 16540,
    "Ġporthole": 24390,
    "Ġexistence": 4705,
    "plunging": 25983,
    "oubled": 23636,
    "ror": 7353,
    "pass": 4290,
    "Ġoxen": 19954,
    "wol": 21120,
    "chorus": 19812,
    "Ġparacels": 13675,
    "Ġsubterraneous": 20265,
    "Ġnoisy": 13327,
    "ouder": 17899,
    "Ġscornful": 25001,
    "Ġembell": 14418,
    "Ġsolve": 4197,
    "hatchway": 25900,
    "Ġtallow": 14787,
    "Ġtopsails": 19198,
    "gate": 12472,
    "door": 6195,
    "Ġfrivolous": 26173,
    "seaman": 25453,
    "Ġsmiled": 5945,
    "headers": 23107,
    "leful": 17843,
    "icle": 10829,
    "Ć": 199,
    "bore": 13695,
    "hen": 3520,
    "ohog": 9840,
    "âĢĻâĢĶ": 12743,
    "Ġrent": 11642,
    "onted": 11565,
    "Ġprescribed": 26006,
    "frantic": 24275,
    "Ġyelled": 9690,
    "Ġpeas": 8534,
    "mock": 5171,
    "Ġii": 7387,
    "Ġcircum": 8260,
    "Ġdamned": 13139,
    "vius": 23534,
    "Ġstifle": 18077,
    "Ġcommons": 22672,
    "Ġreference": 2565,
    "Ġdiving": 12609,
    "Ġdevilish": 11222,
    "mistak": 16877,
    "Ġpious": 11600,
    "Ġabsorbing": 17131,
    "verize": 21729,
    "Ġevenness": 22833,
    "angle": 22105,
    "Ġcanaller": 25463,
    "Ġeag": 2961,
    "?âĢĶ": 3470,
    "istically": 14147,
    "Ġ]": 15459,
    "tremble": 17143,
    "ignified": 14495,
    "Ġglimmered": 20172,
    "Ġsangu": 15504,
    "Ġrounding": 16278,
    "reas": 991,
    "Ġfrost": 6099,
    "Ġtam": 7823,
    "hetic": 12210,
    "ff": 462,
    "riage": 2121,
    "enhall": 13857,
    "Ġembalmed": 13664,
    "Ġreminded": 9996,
    "zz": 4291,
    "Ġdiet": 13916,
    "trial": 20352,
    "Ġdistant": 5385,
    "vellers": 16675,
    "oise": 15403,
    "Ġoccur": 1082,
    "Ġgur": 21590,
    "zeal": 16262,
    "Ġadvertised": 17248,
    "Ġtant": 12531,
    "eping": 5836,
    "goodbye": 12060,
    "Ġderives": 16310,
    "vag": 8765,
    "og": 863,
    "ermost": 7432,
    "ready": 2359,
    "violently": 23535,
    "Ġsepulch": 15289,
    "Ġthinnest": 24178,
    "Ġdirection": 1793,
    "ridden": 24353,
    "grateful": 10423,
    "lead": 10163,
    "ultaneously": 4194,
    "Ġnaturalists": 10358,
    "Ġhear": 1966,
    "Ġbounce": 21390,
    "Ġane": 9178,
    "âĢĺ": 939,
    "pt": 387,
    "Ġalarming": 14789,
    "Ġteeth": 4167,
    "Ġmaxim": 3078,
    "Ġwhitting": 18056,
    "Ġdesigns": 13024,
    "stove": 21644,
    "hob": 20899,
    "Ġnail": 9192,
    "recked": 17760,
    "ry": 807,
    "Ġword": 1053,
    "conve": 14248,
    "eldest": 22801,
    "Ġperadventure": 22398,
    "upwards": 18868,
    "Ġimpunity": 14219,
    "oves": 15404,
    "Ġperpetually": 17071,
    "Ġtout": 17717,
    "Ġsermons": 20195,
    "Ġbohemia": 10645,
    "counterpart": 26356,
    "Ġcalculate": 13272,
    "Ġsnarled": 25710,
    "voice": 7818,
    "Ġcentaurs": 23827,
    "ĠdÃ¦mon": 7844,
    "Ġdispute": 16060,
    "Ġbou": 17853,
    "Ġcharity": 8862,
    "coburg": 13606,
    "absolut": 8458,
    "Ġimpetuous": 25566,
    "Ġconnect": 799,
    "Ġburning": 5980,
    "values": 4975,
    "Ġalongside": 6313,
    "espe": 3501,
    "Ġsense": 3252,
    "omp": 2470,
    "particulars": 11311,
    "Ġshoals": 13141,
    "Ġcourses": 10406,
    "Ġsubstituting": 26324,
    "Ġtransformer": 2637,
    "Ġattends": 19656,
    "perils": 22179,
    "ety": 3523,
    "culiar": 2818,
    "mist": 5689,
    "Ġfeelings": 2450,
    "worn": 13813,
    "Ġeng": 1162,
    "Ġbloss": 19254,
    "Ġpay": 3964,
    "romang": 22006,
    "Ġabund": 8864,
    "Ġmercenary": 17195,
    "convalescence": 24885,
    "Ġblended": 16222,
    "Ġvisitors": 7985,
    "Ġpolished": 11176,
    "elopement": 23202,
    "Ġfinish": 7949,
    "Ġsturgeon": 20592,
    "scy": 21053,
    "Ġtightly": 13540,
    "ieving": 7035,
    "Ġprognostics": 20558,
    "Ġworsted": 19998,
    "Ġspouts": 7732,
    "iem": 20916,
    "Ġdiscontented": 16063,
    "Ġhelmet": 19692,
    "Ġproverb": 12723,
    "Ġaway": 1248,
    "Ġdisputing": 25821,
    "Ġduck": 8794,
    "Ġbuoyancy": 20044,
    "Ġinvestigated": 25383,
    "Ġsh": 419,
    "Ġacquies": 11091,
    "Ġpurch": 6600,
    "Ġabsence": 4892,
    "Ġvague": 6404,
    "Ġscandinav": 19964,
    "Ġturing": 7568,
    "Ġbaw": 15569,
    "Ġtendons": 19809,
    "Ġswerve": 14443,
    "Ġblast": 7447,
    "Ġholmes": 1311,
    "merry": 16536,
    "0": 20,
    "Ġgreedy": 3047,
    "Ġaccomplished": 7108,
    "hing": 968,
    "Ġfarthest": 23114,
    "swinging": 25908,
    "proposal": 18758,
    "Ġpremature": 3726,
    "Ġheal": 21679,
    "pow": 10713,
    "ick": 837,
    "1775": 26374,
    "Ġvalidate": 3247,
    "indirect": 22372,
    "Ġcompanion": 3647,
    "scattered": 22995,
    "Ġ34": 16678,
    "ur": 326,
    "Ġindign": 6175,
    "Ġsmell": 7217,
    "ational": 5719,
    "ouch": 2778,
    "Ġwoodlands": 23516,
    "Ġelbow": 12928,
    "ĠâĢĺ": 1627,
    "Ġwavering": 23400,
    "acc": 2532,
    "Ġdeficiency": 14410,
    "Ġpo": 736,
    "Ġknown": 1638,
    "Ġscope": 15944,
    "Ġmerchants": 23724,
    "Ġexhibition": 14961,
    "Ġclutch": 15058,
    "Ġmidday": 23624,
    "Ġfoundering": 21416,
    "'": 11,
    "ophisticated": 22485,
    "Ġtall": 4038,
    "Ġinconvenient": 20013,
    "Ġshrew": 22001,
    "umbria": 23889,
    "Ġanguish": 5585,
    "thanked": 24317,
    "ault": 2307,
    "Ġjacob": 1895,
    "Ġmenaces": 23105,
    "clouds": 25492,
    "Ġsling": 21218,
    "acceptable": 25184,
    "Ġescapes": 23501,
    "Ġdragging": 14481,
    "Ġmbpp": 21320,
    "Ġleather": 7607,
    "Ġaffords": 16736,
    "lled": 10104,
    "Ġreads": 23111,
    "Ġinfamy": 14505,
    "Ġprolonged": 8360,
    "Ġindistinctly": 26114,
    "Ġinvention": 19956,
    "Ġcounterbalance": 24714,
    "Ġsubtle": 6719,
    "Ġbubbling": 17329,
    "Ġproduce": 4367,
    "Ġunhing": 18239,
    "Ġdece": 7000,
    "Ġwedded": 15535,
    "home": 7343,
    "Ġresource": 10987,
    "Ġdundee": 16996,
    "Ġmiriam": 25271,
    "amaz": 21852,
    "Ġcaptain": 1601,
    "Ġthirst": 7593,
    "usoid": 4766,
    "dream": 8728,
    "Ġlobsters": 13524,
    "tol": 17670,
    "custom": 15336,
    "acit": 16081,
    "Ġroot": 2650,
    "Ġtwee": 22675,
    "¡": 99,
    "Ġkeen": 4613,
    "part": 2573,
    "Ġacquaint": 13052,
    "Ġebony": 18009,
    "rics": 13044,
    "Ġbandages": 24418,
    "Ġplight": 14284,
    "Ġalteration": 9544,
    "Ġmonkey": 8230,
    "Ġtresses": 21174,
    "billiard": 25332,
    "ashed": 3785,
    "Ġcountries": 13104,
    "owder": 8448,
    "Ġvelvets": 25390,
    "bald": 16443,
    "foundered": 20866,
    "Ġcautiously": 16976,
    "Ù": 154,
    "Ġinwards": 15621,
    "Ġbest": 1976,
    "Ġwelded": 9569,
    "Ġexposes": 22621,
    "Ġpassages": 12978,
    "duodecimo": 16003,
    "Ġhack": 12763,
    "intend": 16227,
    "dia": 2132,
    "Ġimaginative": 19248,
    "gust": 6362,
    "Ġlads": 8598,
    "dark": 5615,
    "their": 2540,
    "Ġclaims": 13381,
    "Ġfoss": 9848,
    "hoped": 20909,
    "zetts": 17712,
    "homage": 25612,
    "Ġrafters": 22661,
    "perch": 18337,
    "Ġbiggest": 24556,
    "mean": 6437,
    "disc": 4727,
    "Ġaims": 15496,
    "va": 4742,
    "Ġsupernatural": 9870,
    "unct": 18157,
    "inition": 11554,
    "Ġpickle": 16723,
    "Ġbid": 6133,
    "Ġcharacters": 9369,
    "ula": 2823,
    "Ġunfaltering": 24106,
    "acy": 3956,
    "Ġsuperiority": 14621,
    "Ġpott": 21464,
    "pleasantness": 19773,
    "Ġhundred": 2694,
    "Ġunremitting": 26215,
    "masts": 19429,
    "Ġcaulk": 25437,
    "nav": 17610,
    "Ġaffecting": 2324,
    "Ġwoodcock": 19168,
    "Ġmargin": 11926,
    "minutely": 19599,
    "arctic": 12618,
    "devoted": 20019,
    "Ġfortunes": 12183,
    "Ġsaviour": 20713,
    "Ġillness": 8591,
    "gloom": 17141,
    "Ġinvulnerable": 19151,
    "moby": 8537,
    "Ġgrievances": 20647,
    "Ġshoots": 14573,
    "Ġsafe": 5101,
    "Ġhaze": 18197,
    "noo": 9792,
    "Ġclicked": 22363,
    "cible": 20806,
    "Ġorganization": 7984,
    "pent": 3495,
    "als": 1962,
    "ums": 10268,
    "Ġrepulses": 26066,
    "Ġbankers": 24294,
    "Ġtruthful": 23865,
    "Ġ94": 17715,
    "_âĢĿ": 20762,
    "sinking": 17666,
    "Ġforfeit": 21776,
    "archangel": 18796,
    "ope": 4125,
    "aphs": 22335,
    "Ġfry": 17879,
    "Ġbordeaux": 24554,
    "Ġcripp": 9650,
    "Ġsultan": 15189,
    "Ġrooms": 5177,
    "Ġbreezes": 14876,
    "Ġbreathe": 9010,
    "Ġfin": 1459,
    "Ġshoving": 23483,
    "does": 6196,
    "Ġpor": 5222,
    "Ġastern": 6094,
    "aunt": 8371,
    "Ġly": 2268,
    "Ġtremor": 24761,
    "Ġmutter": 23948,
    "sculpt": 16248,
    "agatha": 21909,
    "Ġclasp": 9742,
    "Ġelement": 6900,
    "peleg": 16297,
    "Ġx": 2073,
    "emper": 18183,
    "flag": 14717,
    "sign": 8387,
    "roman": 22005,
    "Ī": 235,
    "rugged": 6852,
    "ceed": 1074,
    "Ġmerged": 19298,
    "Ġcentre": 5120,
    "Ġpresentation": 14486,
    "entions": 17975,
    "winds": 10518,
    "Ġtimid": 6347,
    "ĵ": 246,
    "pyramid": 21027,
    "Ġsubdivisions": 26033,
    "Ġbrief": 6980,
    "Ġdines": 21420,
    "perpendicular": 14163,
    "Ġmass": 3781,
    "Ġhoney": 12640,
    "Ġpovels": 22590,
    "Ġboil": 16107,
    "thes": 7393,
    "Ġbuckets": 17034,
    "Ġcler": 11777,
    "Ġkneeling": 12148,
    "Ġmischief": 8542,
    "cod": 12449,
    "Ġroast": 18457,
    "Ġempires": 19076,
    "Ġoverjoyed": 17460,
    "tie": 21066,
    "Ġworthless": 19572,
    "Ġepicures": 25875,
    "oregressive": 3427,
    "Ġrecede": 25965,
    "Ġomens": 21326,
    "Ġconjectured": 9994,
    "aurus": 20560,
    "Ġendured": 6076,
    "Ġdoorway": 14502,
    "covenant": 23554,
    "Ġdevils": 7232,
    "yset": 21143,
    "Ġphysi": 9985,
    "Ġcompared": 2229,
    "mbling": 3347,
    "islanders": 25439,
    "Ġwitt": 17784,
    "rupt": 3212,
    "crooked": 25742,
    "caut": 20812,
    "Ġcrossing": 7254,
    "bab": 11463,
    "naturalists": 23556,
    "Ġsinks": 19554,
    "iciously": 17974,
    "Ġdecomp": 3812,
    "iana": 7053,
    "entle": 1738,
    "Ġfiftieth": 24693,
    "Ġslung": 23166,
    "Ġobtruded": 20722,
    "Ġspiteful": 19528,
    "couldn": 23709,
    "france": 24274,
    "Ġdissuade": 26254,
    "Ġcrowded": 8013,
    "Ġstretch": 6997,
    "Ġpervers": 11788,
    "Ġscotland": 6641,
    "G": 43,
    "icating": 15657,
    "Ġscales": 4849,
    "Ġinst": 911,
    "Ġspiritual": 9927,
    "oth": 1186,
    "recol": 10146,
    "animal": 16977,
    "Ġlothario": 26182,
    "Ġwarrior": 24488,
    "Ġascendency": 20232,
    "ak": 538,
    "subtle": 24237,
    "Ġseat": 4949,
    "Ġeating": 8138,
    "Ġgeorge": 3750,
    "broker": 13312,
    "inging": 5910,
    "Ġsettle": 6295,
    "Ġenlar": 15801,
    "Ġstripping": 23687,
    "eked": 16397,
    "succeed": 10324,
    "Ġdiffused": 12073,
    "Ġatmosphere": 10891,
    "Ġstripped": 10461,
    "herent": 2528,
    "Ġhesitate": 16945,
    "Ġburgled": 23660,
    "parable": 16402,
    "Ġsuperiors": 23449,
    "spell": 22724,
    "Ġdelay": 5751,
    "uture": 1102,
    "connected": 1312,
    "Ġheel": 9680,
    "Ġdrowning": 19907,
    "acquaintance": 6941,
    "renew": 24442,
    "Ġfleets": 23764,
    "fer": 1938,
    "Ġwines": 21285,
    "Ġsabbee": 17257,
    "Ġenigmatical": 20597,
    "Ġyouthful": 16724,
    "ifting": 6547,
    "collecting": 26078,
    "Ġbrigs": 20321,
    "Ġfretfully": 25443,
    "determine": 19947,
    "pression": 10402,
    "vere": 4881,
    "elect": 20845,
    "Ġwhitt": 18055,
    "aution": 9383,
    "Ġbestirred": 20452,
    "furthest": 19841,
    "tw": 2810,
    "Ġextinction": 14338,
    "Ġmusk": 7496,
    "ince": 4339,
    "Ġmanxman": 9563,
    "Ġautonom": 10408,
    "Ġcarr": 23089,
    "Ġsoothed": 10026,
    "Ġnobly": 22241,
    "Ġconcentrate": 25069,
    "Ġfrightful": 7738,
    "rem": 1519,
    "despairing": 25081,
    "rit": 21033,
    "illustration": 2284,
    "twas": 15437,
    "Ġinfallible": 15075,
    "Ġsuit": 5728,
    "dress": 17522,
    "ceptive": 15963,
    "Ġfaults": 12217,
    "Ġpatted": 16029,
    "Ġissued": 10595,
    "olently": 15758,
    "Ġchili": 25557,
    "raint": 18316,
    "bound": 6222,
    "Ġwisdom": 11227,
    "exhibited": 18478,
    "Ġdescrying": 18617,
    "Ġtwentieth": 18660,
    "blow": 9102,
    "Ġgather": 6536,
    "smug": 23902,
    "Ġgroping": 13673,
    "nails": 17614,
    "Ġloth": 17965,
    "Ġegyptian": 13593,
    "Ġmungo": 25627,
    "lorn": 12493,
    "throt": 25655,
    "icilian": 20692,
    "Ġsuppressing": 23001,
    "Ġwayward": 22872,
    "Ġintermission": 18626,
    "vult": 21111,
    "Ġinserted": 8358,
    "Ġdeclines": 23958,
    "Ġprocured": 8677,
    "Ġmediocr": 24133,
    "Ġspeaker": 19153,
    "Ġmaintained": 12941,
    "Ġencaps": 12969,
    "Ġstates": 1850,
    "quick": 6398,
    "decan": 22142,
    "infl": 15487,
    "prit": 19347,
    "oors": 17620,
    "prison": 14667,
    "Ġformless": 22827,
    "Ġinconveniences": 24942,
    "Ġhauling": 14091,
    "Ġterra": 13126,
    "Ġsovereign": 10059,
    "Ġaghast": 16051,
    "welcome": 9998,
    "Ġtoll": 7852,
    "monograph": 23521,
    "holland": 24036,
    "Ġmagical": 23097,
    "ufactured": 15186,
    "Ġsleeves": 10656,
    "Ġdeliciousness": 24120,
    "Ġaided": 17743,
    "Ġprompt": 3190,
    "Ġbusily": 9380,
    "Ġvolat": 24137,
    "words": 7983,
    "spout": 7923,
    "carpet": 25202,
    "Ġmallet": 17811,
    "Ġflatter": 9509,
    "Ġindolent": 13013,
    "Ġearl": 7679,
    "ques": 2837,
    "remembered": 17355,
    "ould": 428,
    "rimshander": 20656,
    "Ġplumage": 17301,
    "Ġdisconcerted": 18563,
    "Ġkeepers": 23531,
    "japan": 15378,
    "Ġuseful": 3561,
    "Ġlapse": 17123,
    "Ġelasticity": 19565,
    "aur": 15313,
    "Ġinspired": 2518,
    "Ġener": 10890,
    "Ġtranspired": 16785,
    "Ġnarrating": 24341,
    "misrepresented": 24205,
    "Ġlongbourn": 3510,
    "Ġoat": 21321,
    "Ġsy": 490,
    "Ġpout": 17903,
    "lotts": 23820,
    "accur": 14598,
    "âĢĻ": 378,
    "Ġswitzerland": 10375,
    "Ġdefiance": 11062,
    "icates": 11620,
    "avating": 18570,
    "Ġrounds": 18888,
    "Ġshared": 10259,
    "sutherland": 21060,
    "Ġbodily": 6109,
    "Ġheighten": 19535,
    "Ġought": 3422,
    "Ġsharpen": 13576,
    "Ġbroken": 3451,
    "Ġdiscourage": 3113,
    "Ġverte": 9439,
    "deed": 1516,
    "Ġcomplying": 18588,
    "Ġabsor": 8506,
    "Ġdirecting": 16303,
    "aust": 15314,
    "Ġsquares": 11164,
    "aking": 977,
    "Ġboiling": 8526,
    "sher": 5214,
    "Ġpredecess": 18518,
    "laden": 14934,
    "Ġchaplain": 19916,
    "Ġmet": 1910,
    "Ġiceland": 15151,
    "Ġminers": 22831,
    "aren": 10071,
    "Ġfinancier": 26579,
    "mild": 15392,
    "etent": 10196,
    "Ġ1778": 25725,
    "Ġunderneath": 16340,
    "ationally": 15706,
    "Ġduc": 4695,
    "Ġprospects": 9956,
    "Ġdiscrete": 2476,
    "non": 9608,
    "Ġrode": 15999,
    "ark": 848,
    "gn": 8082,
    "Ġhorrify": 23813,
    "Ġwhaling": 2781,
    "fire": 6359,
    "Ġvaults": 17155,
    "Ġgasps": 24866,
    "Ġtint": 13824,
    "Ġkid": 9722,
    "Ġarg": 4765,
    "Ġbiographical": 22762,
    "Ġforgetfulness": 14611,
    "Ġcoat": 4554,
    "visible": 10530,
    "Ġfav": 1751,
    "Ġsimply": 7219,
    "performed": 18340,
    "Ġwisely": 13279,
    "raise": 18012,
    "Ġcult": 8782,
    "Ġvalid": 1756,
    "continually": 11298,
    "omn": 15692,
    "Ġlucerne": 23858,
    "Ġattended": 5389,
    "Ġsecret": 3721,
    "Ġfierc": 18715,
    "Ġhams": 16612,
    "Ġbenefits": 4285,
    "Ġunlikely": 10901,
    "ography": 13371,
    "Ġevangel": 11276,
    "upset": 23018,
    "Ġburst": 4381,
    "Ġramsgate": 18652,
    "Ġinoffensive": 21495,
    "Ġdecreasing": 2441,
    "Ġadvance": 5483,
    "Ġhappiness": 2941,
    "Ġrascally": 26503,
    "Ġphys": 5654,
    "afford": 14657,
    "nel": 11501,
    "tures": 21067,
    "Ġoutright": 18414,
    "enes": 5215,
    "Ġfig": 3628,
    "Ġhaul": 11697,
    "Ġfestoon": 17261,
    "Ġbride": 6293,
    "ts": 959,
    "Ġcanada": 22166,
    "Ġsynd": 22207,
    "ave": 980,
    "Ġrav": 14311,
    "Ġexc": 1832,
    "Ġintens": 7006,
    "Ġle": 332,
    "Ġboundary": 11216,
    "gave": 7802,
    "americans": 25047,
    "hew": 5283,
    "Ġwrithing": 11950,
    "Ġretained": 7175,
    "Ġnor": 1550,
    "anous": 21357,
    "Ġcandidate": 16699,
    "Ġjack": 4651,
    "Ġreaped": 18030,
    "Ġrustic": 14969,
    "Ġprolong": 6834,
    "orified": 21398,
    "Ġvengeful": 14896,
    "Ġfoolishly": 19785,
    "Ġcharacter": 2792,
    "awe": 20766,
    "remes": 21235,
    "Ġconcepts": 4551,
    "Ġparticulars": 5757,
    "Ġthomson": 26450,
    "Ġportents": 14683,
    "Ġconstitutional": 25127,
    "entary": 21565,
    "Ġgladstone": 23862,
    "ô": 181,
    "incl": 8110,
    "Ġwretchedly": 19511,
    "some": 2235,
    "Ġclose": 3031,
    "ress": 929,
    "pen": 1205,
    "Ġpreservative": 24620,
    "task": 13800,
    "Ġspring": 4121,
    "Ġbringing": 5872,
    "delighted": 10559,
    "shone": 22453,
    "breat": 10075,
    "xology": 21139,
    "Ġpartner": 6717,
    "belais": 24033,
    "Ġplatform": 17105,
    "Ġcontinuing": 14403,
    "Ġcompasses": 11262,
    "gen": 6503,
    "Ġsnake": 12065,
    "uctive": 17694,
    "shabb": 18496,
    "Ġmere": 2713,
    "Ġpaste": 23414,
    "Ġtops": 14591,
    "idirectional": 2419,
    "Ġintellig": 525,
    "Ġpronouncing": 16968,
    "Ġcorp": 5575,
    "Ġjapan": 7642,
    "Ġinflamed": 13481,
    "Ġreminisc": 18728,
    "teeth": 10351,
    "Ġgaunt": 11263,
    "wet": 15452,
    "Ġworldly": 16333,
    "oken": 4305,
    "expose": 23649,
    "appears": 12064,
    "======": 9830,
    "modesty": 22849,
    "Ġsheltered": 19915,
    "onents": 8778,
    "Ġring": 4453,
    "Ġtrepidation": 19219,
    "Ġyouth": 4260,
    "Ġregion": 2272,
    "vice": 15449,
    "Ġland": 1998,
    "inside": 23064,
    "Ġfixedly": 19249,
    "Ġcommonplaces": 16292,
    "Ġtougher": 21175,
    "Ġsettles": 22917,
    "retrie": 18928,
    "Ġamateur": 22482,
    "considered": 9578,
    "gradually": 12922,
    "Ġshipwrecked": 25683,
    "Ġprior": 11314,
    "barrow": 15326,
    "Ġemblematical": 25784,
    "voy": 7146,
    "Ġautonomous": 10671,
    "ves": 742,
    "Ġheaths": 21684,
    "Ġcomposedly": 25183,
    "Ġfishes": 11593,
    "Ġmeditate": 16708,
    "Ġunaccount": 22024,
    "Ġtainted": 21169,
    "Ġpermitting": 22399,
    "unc": 15770,
    "fanc": 20863,
    "Ġafghan": 22629,
    "appearance": 5332,
    "Ġgracious": 8847,
    "Ġhercules": 14131,
    "Ġtattoo": 7361,
    "amples": 1822,
    "Ġbackstays": 22654,
    "Ġlatitudes": 9417,
    "Ġconverse": 11850,
    "iments": 4945,
    "preced": 10305,
    "Ġwanted": 4970,
    "Ġstyled": 24663,
    "Ġtranquilly": 12294,
    "Ġacceded": 22379,
    "Ġretarded": 23071,
    "ty": 1001,
    "prises": 23808,
    "ĠĠĠĠĠĠĠĠĠĠĠĠĠĠĠĠĠĠĠĠĠĠĠĠĠĠĠĠĠ": 19704,
    "Ġhandkerchief": 8912,
    "Ġspires": 11735,
    "Ġsheep": 10920,
    "Ġgritted": 22804,
    "consequ": 18508,
    "elsewhere": 19869,
    "poverty": 22909,
    "Ġstarve": 24616,
    "Ġmasterless": 23990,
    "fere": 10981,
    "oat": 13771,
    "Ġmetal": 9384,
    "Ġwhistles": 24615,
    "Ġcream": 22716,
    "Ġchagrin": 20607,
    "Ġspans": 18304,
    "ability": 717,
    "Ġparamore": 22123,
    "baden": 25610,
    "Ġbrightly": 13232,
    "Ġalter": 6544,
    "owders": 18048,
    "Ġinspection": 14547,
    "Ġcompute": 2903,
    "avo": 8519,
    "ģ": 228,
    "Ġpersisted": 13047,
    "Ġcorrid": 9821,
    "Ġundeserving": 18266,
    "iteous": 14266,
    "ernsey": 8898,
    ".âĢĻ": 1718,
    "Ġmathematics": 12078,
    "Ġgloried": 22987,
    "Ġneighbouring": 12123,
    "_.)": 7279,
    "sm": 3438,
    "Ġbulk": 5592,
    "Ġproducts": 5195,
    "Ġdestabilizing": 5052,
    "Ġmaking": 1781,
    "orse": 5810,
    "Ġ125": 24462,
    "vill": 10731,
    "Ġmess": 7831,
    "rebell": 17761,
    "Ġsain": 17748,
    "scotland": 20530,
    "sh": 647,
    "itering": 17819,
    "Ġcompare": 9300,
    "Ġtem": 805,
    "mble": 1408,
    "Ġprofession": 6209,
    "assertion": 22311,
    "ino": 15479,
    "Ġexertion": 8054,
    "âĢĶ(": 15939,
    "Ġits": 707,
    "Ġdestroy": 5775,
    "uvier": 9066,
    "pret": 7213,
    "Ġgrammars": 11397,
    "Ġliked": 5262,
    "expl": 9280,
    "full": 7422,
    "Ġbarely": 16935,
    "Ġlaughed": 5058,
    "cousins": 20119,
    "Ġsensation": 6898,
    "Ġinterlude": 16102,
    "history": 15019,
    "dropping": 14986,
    "alt": 12646,
    "Ġportra": 9007,
    "Ġadmiring": 16482,
    "Ġbracelets": 25498,
    "Ġrefreshed": 15295,
    "Ġdorm": 4821,
    "Ġprophets": 20451,
    "call": 8723,
    "Ġsavannah": 17420,
    "bowed": 10680,
    "Ġimport": 1033,
    "Ġvapor": 8700,
    "Ġdenied": 8998,
    "Ġcircumspect": 15088,
    "Ġevian": 24284,
    "Ġviolence": 5966,
    "met": 6654,
    "Ģ": 227,
    "Ġmatrimony": 13642,
    "Ġbernard": 20685,
    "grand": 7970,
    "Ġresnet": 5472,
    "Ġscoresby": 10457,
    "Ġperem": 12939,
    "Ġsavor": 23869,
    "Ġburton": 23659,
    "Ġimmortality": 26323,
    "Ġtongs": 9958,
    "Ġimaginations": 16516,
    "gment": 4391,
    "Ġvary": 15808,
    "Ġvelv": 10615,
    "Ġfob": 21406,
    "Ġgrotesque": 26327,
    "disputed": 23494,
    "Ġcrozetts": 19635,
    "Ġassistants": 9449,
    "duing": 22411,
    "Ġprofile": 16490,
    "shine": 9285,
    "Ġunceasingly": 20361,
    "Ġfrank": 4420,
    "Ġcompression": 18150,
    "Ġoccupation": 9928,
    "Ġeducated": 16786,
    "shell": 16290,
    "walton": 20249,
    "ab": 345,
    "ront": 15418,
    "Ġordained": 19449,
    "want": 8767,
    "Ġsales": 12814,
    "Ġbeds": 14556,
    "hors": 9596,
    "Ġforefinger": 16440,
    "fect": 2301,
    "abated": 14025,
    "complexion": 14364,
    "Ġcommentators": 25229,
    "Ġour": 1010,
    "Ġfrequently": 4678,
    "insulting": 26051,
    "Ġexec": 19497,
    "Ġgeor": 3391,
    "Ġbellies": 13364,
    "following": 10569,
    "Ġsufficiently": 8971,
    "Ġemotion": 7693,
    "Ġushered": 18357,
    "Ġwallowing": 24038,
    "Ġbashful": 20421,
    "hip": 8741,
    "Ġsalvation": 14765,
    "Ġremonstr": 16164,
    "ineas": 15822,
    "Ġendeavor": 16545,
    "Ġinstructing": 3119,
    "Ġhiss": 15789,
    "Ġfortunate": 6216,
    "Ġbrave": 6331,
    "Ġechoed": 20425,
    "Ġolfactories": 26168,
    "wonderful": 16959,
    "Ġbreathed": 11214,
    "Ġdischar": 11814,
    "Ġgames": 11630,
    "Ġoppressed": 11183,
    "Ġeaster": 15677,
    "spirits": 8055,
    "Ġhunters": 6302,
    "suggest": 20378,
    "Ġvoyage": 3048,
    "presents": 18802,
    "ications": 4446,
    "Ġking": 2305,
    "Ġargu": 10928,
    "Ġtearing": 14402,
    "Ġgrecian": 26293,
    "sin": 21046,
    "Ġrighteous": 18950,
    "Ġreiterating": 26470,
    "Ġensu": 7876,
    "Ġfift": 6380,
    "bos": 17485,
    "corrob": 24477,
    "Ġargued": 13636,
    "Ġaston": 3703,
    "Ġjumping": 13350,
    "âĢĻ-": 18169,
    "Ġtenderest": 23542,
    "umpled": 15877,
    "Ġwhelmed": 25995,
    "taken": 7562,
    "Ġhart": 17921,
    "Ġdiscomp": 11872,
    "Ġquivered": 18468,
    "Ġimproving": 1211,
    "Ġabatement": 22276,
    "Ġreversed": 15699,
    "swelled": 19616,
    "scr": 16245,
    "ayed": 12720,
    "flatter": 23967,
    "Ġimpreg": 15988,
    "ifications": 9725,
    "Ġsandwic": 24656,
    "Ġwitnessed": 14852,
    "Ġfears": 5732,
    "Ġcus": 21341,
    "Ġresult": 4462,
    "Ġtyros": 26098,
    "musket": 25339,
    "haust": 5780,
    "Ġprosecuted": 25291,
    "ropy": 1103,
    "beries": 22746,
    "Ġthanked": 9456,
    "Ġslightest": 6096,
    "rich": 11515,
    "Ġstarbuck": 2195,
    "allied": 7412,
    "Ġvehic": 8931,
    "locked": 7681,
    "Ġhorrors": 10476,
    "Ġbowditch": 19324,
    "Ġado": 7629,
    "Ġaskance": 23147,
    "commodore": 20625,
    "Ġpoisoned": 24887,
    "prof": 7472,
    "Ġbehaviors": 13262,
    "Ġsl": 1496,
    "Ġhideousness": 16914,
    "Ġscrape": 14923,
    "cellar": 20277,
    "Ġsteals": 23083,
    "Ġalps": 10864,
    "urp": 1471,
    "Ġbrows": 13308,
    "Ġnoteworthy": 24156,
    "hatches": 19863,
    "fac": 17541,
    "hug": 17563,
    "mush": 20975,
    "oing": 15401,
    "Ġchocks": 13354,
    "myster": 16268,
    "Ġunrolled": 22035,
    "mark": 5279,
    "forks": 26382,
    "Ġpent": 17900,
    "Ġpassengers": 13684,
    "Ġsuccour": 20436,
    "Ġfundamental": 3009,
    "Ġlooks": 4166,
    "Ġfrightens": 24025,
    "twice": 14624,
    "Ġ235": 25707,
    "Ġcaved": 21351,
    "Ġdepicting": 22604,
    "Ġappellation": 22224,
    "Ġevent": 2945,
    "ifer": 11688,
    "unting": 21875,
    "Ġunch": 18237,
    "Ġspas": 10916,
    "professional": 20275,
    "Ġmicroscopic": 26370,
    "Ġrehearsed": 25968,
    "Ġempt": 5050,
    "Ġwhirling": 12253,
    "Ġtribes": 20482,
    "impulse": 20644,
    "ictions": 14229,
    "Ġagonising": 25370,
    "Ġjamming": 17267,
    "Ġhoist": 11980,
    "<UNK>": 3,
    "Ġarched": 10926,
    "Ġsemi": 11972,
    "accepted": 20137,
    "Ġratio": 5065,
    "author": 9857,
    "eler": 1573,
    "useful": 16502,
    "pilot": 25904,
    "Ġhatchways": 24992,
    "Ġbullion": 24988,
    "Ġtrip": 16789,
    "transform": 8050,
    "Ġchilled": 18383,
    "binnacle": 20787,
    "fine": 10087,
    "un": 373,
    "õ": 182,
    "Ġjet": 5306,
    "include": 23583,
    "rain": 461,
    "resum": 17759,
    "Ġsummons": 13240,
    "Ġfavourable": 7959,
    "Ġcontention": 22426,
    "Ġschedules": 3389,
    "Ġblasphemer": 26113,
    "Ġcurt": 18847,
    "Ġenticing": 22743,
    "ming": 3604,
    "Ġcorporeal": 17364,
    "prosperity": 20736,
    "uns": 21871,
    "pursue": 24978,
    "Ġende": 21933,
    "delight": 5343,
    "more": 1035,
    "Ġnoses": 18374,
    "Ġoverthrown": 18426,
    "Ġspared": 7893,
    "Ġlocations": 12416,
    "above": 8150,
    "lie": 12488,
    "imper": 14002,
    "Ġclapham": 17268,
    "Ġtut": 8771,
    "Ġcounty": 9028,
    "Ġgales": 12673,
    "tinted": 17681,
    "Ġloses": 15874,
    "Ġdi": 6526,
    "omy": 6251,
    "ilingly": 21724,
    "hence": 16625,
    "similar": 13461,
    "Ġpecks": 18670,
    "noon": 12957,
    "Ġtreacherously": 25131,
    "Ġisles": 8459,
    "Ġunchanged": 22028,
    "dressing": 11477,
    "atherley": 7221,
    "Ġapply": 1778,
    "Ġsold": 6007,
    "Ġimpart": 11785,
    "Ġdisquiet": 18553,
    "inkling": 16090,
    "Ġcin": 13882,
    "igh": 2042,
    "Ġinevitably": 17231,
    "ispens": 8338,
    "speaking": 12103,
    "aried": 10980,
    "thest": 11657,
    "iciency": 9572,
    "Ġawait": 17073,
    "Ġgibraltar": 25783,
    "Ġpat": 648,
    "Ġamber": 7029,
    "allest": 5484,
    "Ġcruelly": 13383,
    "hateful": 20908,
    "Ġpioneer": 17916,
    "Ġyard": 5925,
    "against": 5873,
    "Ġannihilation": 15170,
    "Ġshifting": 12775,
    "Ġpays": 13304,
    "consult": 24163,
    "Ġproportionate": 17043,
    "evade": 24819,
    "Ġgirl": 3079,
    "Ġstores": 18072,
    "iance": 5277,
    "Ġestim": 3352,
    "sterdam": 19091,
    "Ġuntouched": 16468,
    "ease": 12463,
    "Ġwriggling": 15262,
    "Ġtormented": 8675,
    "Ġbalances": 2340,
    "Ġspasmodically": 17317,
    ":âĢĶâĢĺ": 24188,
    "Ġcam": 10158,
    "Ġswan": 23049,
    "Ġpossibly": 4514,
    "Ġdefined": 11904,
    "Ġmaritime": 23038,
    "izer": 2031,
    "Ġunfathomably": 25869,
    "Ġce": 3025,
    "Ġdignified": 15598,
    "fortnight": 13094,
    "Ġparliament": 18302,
    "Ġreconc": 9679,
    "estion": 18360,
    "condem": 16345,
    "Ġmig": 13863,
    "istics": 1624,
    "Ġcheeks": 5961,
    "Ġreappeared": 21663,
    "Ġexactness": 23598,
    "Ġinexperience": 26096,
    "unknown": 10885,
    "Ġsquared": 1382,
    "Ġpunctilious": 26350,
    "Ġshrivelled": 19708,
    "ods": 8835,
    "Ġalexander": 17428,
    "Ġexist": 9228,
    "Ġgrasshopper": 24371,
    "í": 174,
    "Ġday": 957,
    "Ġnegatived": 23046,
    "Ġwindow": 2990,
    "Ġcontentment": 14877,
    "Ġadventurous": 16735,
    "cooper": 19194,
    "Ġtexture": 19165,
    "Ġmixture": 9560,
    "Ġbadly": 12137,
    "gul": 12471,
    "Ġbrain": 2087,
    "Ġcourtship": 24129,
    "ulled": 14060,
    "exceed": 7911,
    "Ġjourneying": 25561,
    "Ġf": 283,
    "ulating": 10882,
    "five": 6358,
    "Ġaffability": 14394,
    "Ġashes": 7620,
    "apple": 22841,
    "Ġpeeling": 22692,
    "Ġentire": 2560,
    "abern": 21790,
    "Ġagricultural": 26546,
    "shudder": 26243,
    "Ġconnected": 5391,
    "Ġlarge": 1065,
    "Ġreturn": 1679,
    "Ġsister": 1712,
    "tical": 10124,
    "Ġwords": 1327,
    "commanding": 24745,
    "Ġgradient": 449,
    "Ġdisposition": 5407,
    "Ġforegoing": 23443,
    "Ġlucas": 3834,
    "Ġungovernable": 20709,
    "iftings": 23222,
    "Ġobstinacy": 17425,
    "sli": 11520,
    "Ġpages": 15608,
    "Ġcoin": 9767,
    "spouting": 25005,
    "Ġspoke": 2746,
    "foremost": 14257,
    "Ġclasping": 20209,
    "Ġplanted": 9770,
    "Ġboarders": 16600,
    "Ġnodding": 23330,
    "Ġbel": 1217,
    "Ġcollectively": 19971,
    "Ġdoted": 21430,
    "Ġlists": 11161,
    "Ġleaves": 5021,
    "Ġflushed": 13035,
    "uiperai": 10659,
    "Ġrickety": 26502,
    "Ċ": 203,
    "absolute": 17125,
    "ascertain": 21541,
    "prev": 12874,
    "Ġirreduc": 5489,
    "Ġnarrowly": 16821,
    "Ġvineyards": 25110,
    "oqu": 7557,
    "Ġdistrusting": 25057,
    "ulia": 18151,
    "isome": 17849,
    "Ġbatt": 13906,
    "Ġshrieking": 24751,
    "Ġforgo": 21774,
    "Ġrefined": 18703,
    "Ġsurprised": 3832,
    "Ġseveral": 2673,
    "pike": 11513,
    "Ġest": 2265,
    "Ġrazor": 22660,
    "erland": 9637,
    "Ġmutinous": 23952,
    "Ġpreference": 9730,
    "desp": 6469,
    "vast": 10732,
    "Ġabed": 22265,
    "Ġnatives": 17949,
    "Ġremotest": 10049,
    "elling": 5833,
    "Ġthou": 1809,
    "Ġsedentary": 25427,
    "chester": 23800,
    "urean": 18123,
    "gr": 2085,
    "naturedly": 24841,
    "Ġearned": 19409,
    "faint": 17545,
    "Ġgleamed": 17077,
    "stra": 4045,
    "Ġfronts": 19005,
    "ignific": 11960,
    "Ġgermany": 25781,
    "Ġearthy": 23703,
    "iquette": 26129,
    "Ġepsom": 19986,
    "Ġponderous": 8357,
    "Ġwarbling": 26165,
    "Ġunquestion": 18246,
    "Ġfruit": 12330,
    "transformer": 25018,
    "Ġtutored": 20129,
    "Ġsatisfaction": 5669,
    "sink": 11519,
    "Ġtet": 21156,
    "unalterable": 21887,
    "Ġwip": 13860,
    "Ġdownstairs": 11218,
    "Ġgiddy": 20498,
    "Ġconfl": 11132,
    "Ġmix": 7580,
    "social": 11018,
    "Ġunheard": 22022,
    "Ġpavement": 9575,
    "purse": 20027,
    "Ġpreposterous": 13678,
    "oked": 4306,
    "Ġinvoking": 19150,
    "Ġtraveller": 8049,
    "Ġconnections": 974,
    "Ġexam": 3712,
    "Ġundressed": 19519,
    "Ġsystemat": 18443,
    "Ġinduce": 7765,
    "Ġpaws": 13927,
    "Ġtremendous": 8355,
    "Ġequator": 7463,
    "calculation": 25684,
    "Ġunrecorded": 17469,
    "til": 17669,
    "Ġsexes": 25171,
    "Ġturban": 23779,
    "iling": 3086,
    "Ġcombined": 8548,
    "visual": 24216,
    "Ġdays": 2077,
    "Ġcreeping": 18683,
    "ingu": 2117,
    "Ġspouter": 12805,
    "Ġhatch": 7848,
    "Ġaust": 4869,
    "oriented": 2943,
    "Ġcrescent": 16138,
    "vil": 2731,
    "crop": 20798,
    "Ġcorner": 4371,
    "Ġdiscern": 7660,
    "Ġcare": 1633,
    "Ġtrial": 6636,
    "redible": 15805,
    "Ġenthusiasm": 8065,
    "/`": 12433,
    "Ġdearest": 5455,
    "Ġeasy": 3455,
    "situation": 11432,
    "banish": 20783,
    "Ġasi": 12739,
    "Ġunheeded": 18259,
    "Ġcosy": 13137,
    "bil": 20772,
    "Ġtone": 4039,
    "says": 13307,
    "Ġblown": 12090,
    "Ġlikelihood": 16500,
    "ume": 4835,
    "owl": 12691,
    "Ġdataset": 12827,
    "Ġnathan": 21523,
    "Ġinsanity": 12051,
    "awed": 10386,
    "Ġburied": 7721,
    "Ġdumb": 7843,
    "mass": 12495,
    "Ġunho": 18243,
    "rets": 12547,
    "Ġsoldier": 16919,
    "hatch": 15368,
    "ties": 2757,
    "Ġable": 3074,
    "cooks": 25073,
    "Ġporpoises": 13389,
    "Ġdreading": 23791,
    "Ġdoubts": 8580,
    "Ġstanzas": 21748,
    "Ġcomparable": 24272,
    "Ġindistinct": 17412,
    "phantoms": 24671,
    "Ġduplicate": 17216,
    "Ġcircumference": 13551,
    "Ġimproved": 7659,
    "right": 2768,
    "Ġonset": 12718,
    "'(": 2973,
    "Ġmuchness": 18708,
    "Ġhazard": 20433,
    "real": 10145,
    "Ġprim": 8246,
    "chariot": 26475,
    "Ġrequires": 1004,
    "kept": 11722,
    "ign": 1701,
    "future": 13724,
    "Ġprettier": 23755,
    "older": 15757,
    "Ġinstinct": 6574,
    "Ġislets": 21802,
    "ego": 4034,
    "Ġcontr": 1912,
    "umerable": 11730,
    "Ġknowing": 4458,
    "Â": 131,
    "delirious": 19510,
    "Ġincompetent": 25675,
    "Ġcrow": 3806,
    "Ġbunch": 11322,
    "Ġaromatic": 25921,
    "Ġlacepede": 20497,
    "Ġrow": 5243,
    "Ġrumpled": 24591,
    "Ġwept": 7185,
    "Ġpolar": 9408,
    "come": 2375,
    "Ġboasted": 16109,
    "Ġfurnish": 9017,
    "Ġwreak": 16818,
    "gorge": 22332,
    "Ġbranch": 8334,
    "Ġne": 390,
    "Ġblushed": 13010,
    "mental": 16052,
    "Ġrepresents": 4900,
    "Ġdespise": 14670,
    "unfortunate": 15778,
    "x": 92,
    "Ġfires": 16474,
    "Ġrattling": 11390,
    "clifford": 23154,
    "turns": 14798,
    "Ġservants": 6611,
    "dimly": 15350,
    "Ġwalrus": 14977,
    "Ġtuileries": 24824,
    "âĢĶ_": 3202,
    "Ġenquired": 21941,
    "Ġoutrid": 22315,
    "Ġgraph": 10896,
    "Ġalternative": 19990,
    "engines": 18932,
    "Ġsuspecting": 14915,
    "uned": 21872,
    "Þ": 159,
    "Ġodds": 13339,
    "lish": 1951,
    "Ġfogs": 25280,
    "screen": 22996,
    "Ġfries": 21412,
    "idy": 21765,
    "Ġmuscles": 12093,
    "Ġrides": 21975,
    "Ġno": 511,
    "onial": 11564,
    "Ġemac": 16405,
    "Ġinvective": 26179,
    "Ġdiana": 21433,
    "valuable": 8250,
    "Ġprince": 18974,
    "Ú": 155,
    "rained": 5159,
    "enesis": 24379,
    "Ġdare": 3548,
    "placed": 7879,
    "Ġobeisance": 19763,
    "Ġintrepid": 11710,
    "Ġeconomically": 25286,
    "Ġdotted": 16793,
    "Ġlodger": 24088,
    "mediate": 16514,
    "Ġhessian": 3551,
    "Ġimplicate": 24877,
    "Ġcaptive": 14433,
    "Ġsupposition": 9814,
    "Ġdiscompose": 25576,
    "Ġmoved": 4839,
    "azine": 19133,
    "Ġchoose": 5985,
    "Ġblades": 11901,
    "act": 783,
    "Ġentangled": 10339,
    "Ġgriev": 16636,
    "Ġnewspapers": 17188,
    "smote": 23904,
    "dled": 9109,
    "entimes": 12664,
    "birds": 15149,
    "Ġgaze": 6935,
    "Ġemper": 9858,
    "Ğ": 223,
    "Ġunfathomable": 20548,
    "Ġdefer": 18827,
    "Ġunimpeachable": 26518,
    "Ġbegone": 11923,
    "Ġunbounded": 18257,
    "prick": 19348,
    "Ġannotations": 25950,
    "Ġdilated": 24694,
    "ames": 2948,
    "brothers": 17025,
    "Ġchopping": 24213,
    "Ġhowever": 1308,
    "idays": 21771,
    "gall": 6361,
    "Ġfee": 7200,
    "orton": 11761,
    "Ġintroduction": 8968,
    "Ġanticip": 7509,
    "Ġwh": 328,
    "Ġproperties": 3115,
    "Ġwink": 11568,
    "Ġpremium": 23899,
    "glory": 23846,
    "Ġcordon": 24385,
    "Ġced": 10780,
    "oters": 21800,
    "Ġreasoner": 14444,
    "Ġarist": 14165,
    "Ġtransaction": 22444,
    "deceiving": 22145,
    "Ġboot": 11845,
    "mitting": 20971,
    "Ġreliability": 22881,
    "Ġwithstand": 10221,
    "tumbled": 21088,
    "Ġhampshire": 15247,
    "Ġstarting": 7731,
    "sat": 4809,
    "lies": 15384,
    "aring": 1475,
    "certainly": 5338,
    "Ġunforeseen": 22050,
    "Ġtangled": 13834,
    "loom": 18540,
    "ascribed": 24698,
    "ternoon": 5471,
    "pents": 11511,
    "deserts": 25378,
    "Ġmule": 13869,
    "Ġreward": 6146,
    "Ġbasis": 16960,
    "Ń": 260,
    "Ġcapacious": 19181,
    "Ġliberally": 16829,
    "Ġinvestig": 10546,
    "Ġhy": 5626,
    "Ġdyspeps": 16506,
    "jaw": 13750,
    "Ġupdates": 1301,
    "Ġunbending": 25460,
    "longbourn": 9893,
    "imens": 1745,
    "i": 77,
    "Ġinstrument": 7121,
    "Ġfiend": 4412,
    "ĠĠĠĠĠĠĠĠĠĠĠĠĠĠĠĠĠĠĠĠĠĠĠĠĠĠĠĠ": 9972,
    "uerus": 26401,
    "ishing": 1146,
    "Ġprovide": 7752,
    "Ġconfed": 13106,
    "Ġaye": 3356,
    "Ġnote": 4262,
    "Ġsubjects": 7076,
    "ohn": 4561,
    "Ġgrimes": 11030,
    "Ġfootmen": 23790,
    "Ġinvincible": 23473,
    "treated": 21092,
    "Ġexpeditions": 24957,
    "Ġaffair": 4465,
    "Æ": 135,
    "Ġcham": 4890,
    "rians": 21931,
    "Ġindec": 13934,
    "Ġsordid": 26418,
    "Ġingenuity": 17165,
    "Ġinterpretation": 19721,
    "Ġware": 12561,
    "Ġfounded": 8559,
    "bey": 10310,
    "Ġloomed": 12305,
    "swim": 16780,
    "Ġlees": 18063,
    "Ġhealthcare": 8017,
    "emberley": 4171,
    "Ġprinted": 11953,
    "edmund": 17944,
    "Ġwaggish": 25431,
    "Ġinconven": 7590,
    "ron": 5213,
    "Ġfaithfulness": 24438,
    "Ġachieves": 4380,
    "Ġimplement": 2889,
    "Ġhopes": 4234,
    "stad": 7601,
    "jerked": 25614,
    "Ġopenshaw": 7955,
    "curiosity": 8624,
    "Ġglim": 9342,
    "Ġsperm": 1842,
    "Ġafore": 10754,
    "ogne": 12946,
    "Ġqualities": 7535,
    "Ġbraced": 16580,
    "Ġfelix": 4848,
    "Ġarrangements": 16515,
    "Ġancles": 21443,
    "bare": 12445,
    "Ġcats": 8977,
    "Ġfortitude": 9883,
    "brimming": 23571,
    "Ġaft": 5740,
    "Ġ183": 13246,
    "Ġmeditations": 25016,
    "Ġbrightened": 23823,
    "Ġauto": 23287,
    "Ġtarred": 23603,
    "Ġenh": 3090,
    "bearded": 18523,
    "Ġeffected": 14359,
    "Ġbitt": 10791,
    "Ġgay": 5533,
    "Ġcigars": 12257,
    "ospit": 22263,
    "ins": 1378,
    "Ġearthquake": 14631,
    "Ġlory": 12660,
    "Ġattraction": 18618,
    "Ġrepay": 19082,
    "Ġbrooding": 18911,
    "Ġmainten": 16115,
    "Ġheav": 1849,
    "ps": 4574,
    "ĠâĢĶ": 13818,
    "Ġlowerings": 23637,
    "Ġdarting": 7759,
    "humorously": 24015,
    "Ġrejoined": 14932,
    "Ġfashioned": 13329,
    "Ġwerter": 15244,
    "Ġomen": 11575,
    "Ġuprising": 12809,
    "Ġblessed": 6934,
    "Ġresistance": 13536,
    "Ġ135": 24781,
    "Ġcondescending": 24869,
    "Ġcarpenter": 4683,
    "alter": 11611,
    "gaining": 20125,
    "Ġspeckled": 14314,
    "Ġalpha": 13595,
    "Ġshifted": 14111,
    "oil": 7807,
    "geon": 6272,
    "Ġunche": 23424,
    "Ġingen": 9047,
    "father": 3777,
    "uy": 21097,
    "insult": 16282,
    "Ġbarrowful": 25590,
    "nowledge": 10285,
    "lour": 15383,
    "Ġhorseman": 19613,
    "Ġcondu": 18110,
    "Ġabundant": 17156,
    "Ġnecessity": 7298,
    "aper": 4999,
    "included": 19212,
    "Ġbosoms": 16796,
    "atha": 6578,
    "harpoone": 6110,
    "Ġlodgings": 8315,
    "Ġpon": 10173,
    "goes": 10421,
    "riving": 21932,
    "ofs": 11835,
    "Ġenlivened": 26205,
    "Ġyoung": 1504,
    "inguish": 9394,
    "Ë": 140,
    "blood": 7782,
    "Ġamazing": 9974,
    "Ġoverpowered": 15293,
    "Ġcorporeally": 25724,
    "gallantry": 15065,
    "Ġviciously": 24395,
    "Ġmort": 3462,
    "Ġdampening": 2893,
    "Ġunmolested": 15250,
    "Ġcontemplation": 11352,
    "orrah": 17875,
    "Ġreigning": 15703,
    "Ġgent": 7385,
    "wondering": 19844,
    "ism": 4872,
    "Ġthickening": 24019,
    "ipping": 2207,
    "rise": 6228,
    "tch": 9139,
    "plex": 716,
    "erated": 21269,
    "Ġdiscover": 4716,
    "Ġdelighted": 5497,
    "Ġcoloured": 11040,
    "Ġdamp": 8266,
    "mbly": 9784,
    "Ġliver": 14231,
    "Ġominous": 12427,
    "Ġdiscovering": 13366,
    "Ġtwenty": 3950,
    "opening": 10308,
    "Ġfilm": 23920,
    "Ġwooing": 19438,
    "Ġto": 297,
    "ĠĊ": 12529,
    "rising": 7559,
    "oid": 3123,
    "Ġuses": 1210,
    "Ġdistances": 22504,
    "Ġpur": 2217,
    "arrangement": 17419,
    "Ġprecise": 7079,
    "seized": 14040,
    "Ġinterpre": 1588,
    "variety": 23182,
    "alizing": 17939,
    "french": 9117,
    "giana": 7803,
    "hamed": 6307,
    "inking": 6712,
    "Ġbelf": 21378,
    "Ġradiance": 13379,
    "Ġstarts": 16583,
    "Ġeyelashes": 26103,
    "pleased": 8853,
    "Ġrap": 14310,
    "Ġdiffusion": 23772,
    "unnatural": 15774,
    "extric": 22765,
    "crucible": 24843,
    "stating": 21639,
    "Ġfault": 5705,
    "Ġcooking": 16648,
    "Ġcurtains": 22974,
    "Ġmant": 9644,
    "eprints": 12799,
    "Ġferocious": 17423,
    "Ġfranc": 16353,
    "Ġlocket": 22114,
    "Ġfeasts": 25366,
    "Ġheightened": 8649,
    "torm": 11528,
    "inglass": 21300,
    "zealand": 26046,
    "altering": 12647,
    "Ġglance": 4233,
    "Ġprints": 16334,
    "Ġcared": 8783,
    "rest": 1628,
    "quake": 11681,
    "Ġmetaphys": 16404,
    "Ġslopes": 18945,
    "Ġfolding": 19731,
    "Ġcompressed": 21858,
    "Ġunited": 6843,
    "Ġboundless": 10492,
    "Ġsuff": 1305,
    "acknowledging": 25472,
    "Ġpilgr": 12185,
    "Ġgrapes": 15220,
    "ips": 2611,
    "missionary": 24606,
    "Ġimpossibility": 20646,
    "Ġaudience": 24762,
    "Ġabilities": 8866,
    "illings": 14146,
    "qu": 367,
    "Ġawaiting": 11385,
    "safe": 10051,
    "Ġforgive": 8011,
    "turbaned": 24652,
    "Ġsnaky": 23729,
    "attend": 11095,
    "anxiety": 25158,
    "asol": 21537,
    "vand": 21106,
    "iting": 2156,
    "Ġvoluntarily": 12146,
    "Ġbequeathed": 20702,
    "Ġleyden": 21733,
    "Ġmagnus": 18962,
    "Ġtwos": 18658,
    "reel": 21231,
    "advent": 10216,
    "Ġconstitution": 20110,
    "Ġemergency": 25726,
    "Ġt": 261,
    "thern": 4953,
    "Ġsympt": 7016,
    "Ġsubsided": 14553,
    "Ġreceiving": 4880,
    "gam": 10092,
    "carte": 25397,
    "fo": 5276,
    "Ġtemptation": 8678,
    "Ġtidings": 11392,
    "lynes": 15705,
    "proachable": 23392,
    "ineering": 21968,
    "Ġsunset": 8960,
    "Ġhollows": 19746,
    "Ġbrighton": 6470,
    "ption": 7399,
    "Ġmounts": 17807,
    "row": 1066,
    "sullen": 17667,
    "Ġoutline": 15955,
    "Ġindication": 22950,
    "Ġsequ": 984,
    "eye": 6226,
    "Ġscreamed": 9522,
    "sen": 21047,
    "Ġinvesting": 19647,
    "Ġadjacent": 20711,
    "Ġabominable": 12326,
    "ulties": 12908,
    "Ġ68": 24361,
    "Ġglare": 13025,
    "Ġoccupant": 16653,
    "Ġdeductions": 19737,
    "Ġsuggest": 5415,
    "Ġpersecutor": 26093,
    "Ġgrating": 14360,
    "Ġgladly": 14685,
    "heric": 15912,
    "behaviour": 11297,
    "Ġderbyshire": 6587,
    "Ġtremulous": 14990,
    "Ġspilled": 10918,
    "Ġtand": 21159,
    "Ġbeget": 9222,
    "ording": 9761,
    "sol": 1791,
    "dreadful": 11416,
    "Ġtexel": 25919,
    "spersed": 22727,
    "Ġalmost": 1653,
    "Ġinconsist": 17935,
    "Ġacquiesced": 25489,
    "less": 927,
    "Ġquaker": 10965,
    "Ġconnivance": 25225,
    "adow": 18088,
    "ferent": 4195,
    "Ġfanned": 19101,
    "Ġminor": 12976,
    "Ġtechni": 1699,
    "Ġsuccession": 12106,
    "Ġdivulged": 16650,
    "Ġcoffins": 13258,
    "dict": 15341,
    "Ġnecess": 3478,
    ".)": 6785,
    "Ġsecrets": 9052,
    "Ġmonoman": 7939,
    "buttons": 22402,
    "Ġmel": 4816,
    "Ġplowdon": 26443,
    "zas": 17710,
    "Ġdownstream": 3775,
    "Ġswearing": 16467,
    "ifice": 7199,
    "Ġmornings": 16240,
    "ë": 172,
    "isk": 9164,
    "amusement": 15287,
    "going": 6315,
    "ikes": 8087,
    "rers": 14724,
    "Ġcakes": 13890,
    "Ġlibr": 16001,
    "Ġpremises": 10484,
    "Ġmoby": 3668,
    "Ġmuff": 8116,
    "ted": 791,
    ",_": 11457,
    "Ġsky": 3970,
    "Ġthe": 270,
    "Ġfinally": 4665,
    "Ġ62": 24356,
    "Ġsadder": 24046,
    "Ġinsert": 19908,
    "Ġpunct": 8661,
    "shapes": 22462,
    "Ġmagician": 25064,
    "Ġserene": 8169,
    "Ġashore": 5350,
    "dis": 2250,
    "Ġmovable": 22435,
    "Ġterrific": 6757,
    "Ġstrewed": 23417,
    "Ġdisembow": 22538,
    "born": 7545,
    "Ġcasement": 25096,
    "Ġscorching": 20071,
    "Ġcom": 369,
    "Ġawakened": 10449,
    "aint": 2541,
    "itation": 1782,
    "Ġfabulous": 25944,
    "Ġliberties": 19672,
    "Ġprocedure": 2808,
    "Ġleave": 2455,
    "Ġdominic": 25377,
    "Ġrim": 21969,
    "Ġ&": 6514,
    "Ġcrawling": 17045,
    "Ġpropose": 9850,
    "Ġwaters": 3600,
    "possesses": 24607,
    "eluded": 21573,
    "Ġinvisibly": 24814,
    "gallery": 24685,
    "capable": 13709,
    "peace": 13056,
    "Ġwarnings": 16880,
    "Ġfondly": 19622,
    "Ġpepper": 9778,
    "Ġbarricade": 14664,
    "Ġstalls": 25643,
    "somerset": 26320,
    "Ġincidentally": 16953,
    "Ġreposing": 23355,
    "Ġswore": 10374,
    "Ġinduced": 8671,
    "Ġcontract": 18476,
    "Ġnumbers": 2885,
    "/(": 2976,
    "tottenham": 25415,
    "Ġcheerful": 6623,
    "eds": 6531,
    "Ġventil": 8020,
    "swimming": 24252,
    "syntax": 5869,
    "Ġplunged": 8693,
    "Ġworker": 23029,
    "obli": 23093,
    "letons": 14617,
    "Ġunequal": 14850,
    "Ġfluctuations": 5514,
    "Ġabounding": 12348,
    "Ġretrieval": 10670,
    "commod": 16172,
    "Ġnewcomers": 26037,
    "Ġdimension": 3242,
    "letters": 13181,
    "Ġdancing": 5706,
    "desk": 23803,
    "Ġyon": 9689,
    "Ġcontinuous": 1562,
    "Ġspeeches": 22663,
    "Ġremoval": 12122,
    "allowance": 16823,
    "Ġ6": 5138,
    "achine": 601,
    "serpent": 16295,
    "Ġdetestable": 15102,
    "Ġhospital": 15044,
    "oding": 1461,
    "Ġnapkins": 25164,
    "Ġarduous": 26527,
    "Ġfeet": 2257,
    "Ġsensibly": 14516,
    "Ġspanish": 2825,
    "irms": 18171,
    "trembling": 17144,
    "Ġcorresponds": 19822,
    "umbled": 8494,
    "Ġexpecting": 10432,
    "Ġchaff": 18384,
    "Ġseldom": 4629,
    "Ġmaterials": 11284,
    "sand": 21050,
    "Ġhyster": 16872,
    "Ġharmless": 9962,
    "Ġcrab": 13151,
    "Ġinsp": 2099,
    "Ġbill": 4040,
    "Ġhish": 21915,
    "nephew": 26392,
    "Ġordinarily": 20648,
    "Ġnightmare": 18923,
    "Ġidolator": 20001,
    "Ġcollat": 18768,
    ",)": 9099,
    "Ġcomposition": 1685,
    "acled": 16082,
    "idirection": 2410,
    "Ġbrew": 23338,
    "Ġcolon": 18766,
    "Ġexposing": 11839,
    "truck": 15441,
    "Ġcobb": 14276,
    "Ġmcc": 21304,
    "Ġcircumspection": 25880,
    "Ġdistinguishing": 16496,
    "Ġcistern": 13893,
    "Ġhateful": 19718,
    "itoring": 21330,
    "Ġexclamations": 11356,
    "Ġfertile": 20583,
    "Ġbasics": 13456,
    "grate": 23407,
    "Ġcrystall": 20226,
    "okingly": 22378,
    "Ġsigns": 2440,
    "pidation": 18900,
    "Ġhill": 5627,
    "Ġjustly": 11910,
    "Ġhandspikes": 12945,
    "causes": 20343,
    "Ġneural": 619,
    "ugn": 9374,
    "Ġhawaiian": 25363,
    "Ġtraversed": 18895,
    "Ġstand": 1735,
    "superstitiousness": 25504,
    "Ġevince": 24285,
    "aited": 12439,
    "Ġwor": 1190,
    "Ġrider": 24180,
    "Ġindulging": 16903,
    "Ġexacted": 23597,
    "Ġphiladel": 23879,
    "Ġaccumulation": 2693,
    "hic": 3250,
    "fedallah": 25518,
    "Ġardent": 9967,
    "Ġspeech": 4610,
    "Ġfac": 6379,
    "Ġamel": 18509,
    "Ġtimidity": 24679,
    "Ġbesides": 3515,
    "Ġintellectual": 11396,
    "Ġwhalebone": 10971,
    "elius": 13295,
    "bon": 13693,
    "morland": 24147,
    "Ġconciliating": 19050,
    "Ġmartha": 16267,
    "skeleton": 17380,
    "oran": 8789,
    "imely": 14003,
    "Ġnight": 1464,
    "Ġdance": 4443,
    "Ġfleshy": 24605,
    "Ġprev": 6266,
    "nne": 20987,
    "Ġwert": 12563,
    "vineyard": 25418,
    "Ġclipping": 2438,
    "Ġexhibited": 9542,
    "Ġwilderness": 14848,
    "iastic": 12485,
    "nowled": 5468,
    "perpet": 14162,
    "Ġexhilarating": 26335,
    "Ġextending": 11020,
    "vac": 15450,
    "Ġdel": 1610,
    "dat": 1625,
    "Ġsat": 1134,
    "triumph": 15440,
    "octavo": 11380,
    "Ġbully": 23850,
    "Ġaback": 22266,
    "Ġlounging": 10019,
    "Ġreprehensible": 15701,
    "usable": 22289,
    "Ġcaptioning": 23023,
    "tomorrow": 25910,
    "Ġascribed": 14863,
    "Ġhilarious": 20297,
    "Ġdeliberate": 15027,
    "jug": 17580,
    "hush": 20905,
    "doctor": 19097,
    "Ġpiercing": 13501,
    "Ġeagerness": 6608,
    "Ġheaviest": 23320,
    "eks": 4726,
    "century": 20050,
    "swiftly": 20551,
    "?âĢĿ": 700,
    "Ġtrooped": 24900,
    "Ġsagaciously": 24725,
    "Ġhorns": 11117,
    "Ġpetulance": 24221,
    "Ġdart": 4585,
    "Ġwhar": 7390,
    "Ġgidd": 25779,
    "mere": 11861,
    "Ġcontains": 2791,
    "Ġincarnation": 25570,
    "sank": 17660,
    "Ġdrink": 4786,
    "oa": 9609,
    "<": 32,
    "Ġprotection": 9460,
    "ĠĠĠĠĠĠĠĠĠĠĠĠĠĠĠĠĠĠĠĠĠĠĠĠĠĠĠĠĠĠĠ": 19705,
    "Ġreverber": 19870,
    "Ġcold": 3026,
    "Ġroaring": 10962,
    "Ġaz": 9626,
    "Ġunconsciously": 10002,
    "Ġtide": 6660,
    "vered": 4829,
    "Ġcannon": 14157,
    "Ġchurchyard": 16777,
    "Ġpad": 8127,
    "Ġwee": 21920,
    "Ġmultiplication": 2868,
    "Ġconstraints": 2739,
    "plun": 15816,
    "Ġspam": 7633,
    "brink": 23570,
    "hauled": 20669,
    "Ġduplicity": 25329,
    "Ġplanets": 24051,
    "Ġjunior": 15103,
    "umul": 1292,
    "surely": 10566,
    "Ġconductor": 24001,
    "Ġheavenly": 12089,
    "alice": 3210,
    "Ġfetching": 16895,
    "Ġremorseless": 13459,
    "farmer": 25895,
    "Ġensigns": 23680,
    "Ġjem": 18403,
    "lets": 7836,
    "Ġcrutch": 23439,
    "Ġstrolled": 16771,
    "Ġrange": 9708,
    "Ġmerits": 13203,
    "Ġimprinted": 22389,
    "Ġopinions": 9412,
    "177": 20753,
    "ickering": 22670,
    "Ġheap": 12686,
    "Ġxavier": 2851,
    "Ġstaircase": 20097,
    "okes": 9274,
    "games": 20879,
    "Ġflapp": 23008,
    "Ġcomplained": 16997,
    "Ġpotent": 12066,
    "Ġdecanter": 22439,
    "summoned": 26587,
    "Ġponies": 21472,
    "oppressed": 24821,
    "verdict": 21730,
    "pire": 9133,
    "Ġdummy": 25445,
    "Ġquestionable": 19267,
    "Ġcomo": 21855,
    "attain": 21259,
    "Ġcogn": 10995,
    "Ġbarmaid": 19338,
    "Ġclothed": 19612,
    "ideas": 18585,
    "Ġplayers": 12043,
    "Ġcostume": 16495,
    "ŀ": 257,
    "Ġoffing": 16145,
    "Ġhunch": 18939,
    "ug": 1767,
    "structure": 2391,
    "========": 2313,
    "silly": 24413,
    "Ġdreamy": 14709,
    "Ġdescried": 7920,
    "Ġguns": 16776,
    "Ġhoard": 23346,
    "ure": 356,
    "liv": 9604,
    "Ġharm": 5017,
    "Ġtwitched": 20445,
    "ignity": 4375,
    "Ġmarch": 4082,
    "example": 16014,
    "touch": 8391,
    "Ġobserved": 3544,
    "solic": 16379,
    "Ġpoker": 13928,
    "Ġcharnel": 22252,
    "raid": 3280,
    "Ġgroaned": 11261,
    "trop": 15436,
    "Ġbenjamin": 26563,
    "Ġshrine": 19537,
    "onym": 14652,
    "Ġmade": 1050,
    "chemical": 23802,
    "Ġdeliverer": 11954,
    "display": 19161,
    "Ġobserving": 6083,
    "ter": 359,
    "Ġwoods": 5404,
    "Ġfatal": 5874,
    "russian": 22189,
    "report": 13406,
    "Ġliable": 14232,
    "Ġlizzie": 26458,
    "Ġpet": 4586,
    "Ġbethinking": 25277,
    "Ġinserting": 19909,
    "Ġtogether": 1875,
    "Ġadversary": 12178,
    "equally": 19902,
    "Ġsleeps": 10442,
    "gover": 10697,
    "leman": 21366,
    "fail": 17540,
    "Ġjoists": 19234,
    ":--": 5787,
    "atched": 7575,
    "ippi": 20244,
    "Ġweighted": 2089,
    "Ġatt": 775,
    "itted": 2439,
    "word": 2490,
    "Ġghost": 6144,
    "Ġintersect": 22627,
    "ribution": 14309,
    "Ġprovided": 6577,
    "airing": 16179,
    "Ġcircling": 19094,
    "lives": 12491,
    "Ġgossiping": 26241,
    "Ġstepping": 9351,
    "unconquerable": 21892,
    "ifully": 13192,
    "Ġplease": 4721,
    "Ġadhes": 22103,
    "Ġperilous": 7771,
    "Ġmysterious": 7529,
    "variance": 2656,
    "proud": 9901,
    "Ġkeener": 22913,
    "Ġsermon": 12380,
    "Ġ4": 3986,
    "Ġdevoted": 6573,
    "Ġlifeless": 8946,
    "treatment": 20413,
    "Ġoper": 2118,
    "crimin": 17511,
    "arial": 5530,
    "Ġmaps": 2957,
    "Ġsuperlatively": 26072,
    "Ġinexpress": 12643,
    "makes": 10707,
    "canallers": 22966,
    "Ġunparalleled": 15854,
    "Ġstung": 21743,
    "Ġrheumatic": 20705,
    "uncontrollable": 20596,
    "Ġhalts": 3156,
    "Ġpos": 1011,
    "Ġhump": 5856,
    "Ġbelike": 18834,
    "rifle": 21044,
    "Ġswitching": 23056,
    "Ġsensationalism": 26062,
    "Ġdedication": 2970,
    "Ġanvil": 11599,
    "Ġlace": 13955,
    "Ġcomplet": 4423,
    "Ġsupers": 18279,
    "Ġphysiognomical": 25606,
    "Ġencodings": 4774,
    "miraculous": 26391,
    "Ġpurposely": 10440,
    "Ġmaze": 23825,
    "hy": 4739,
    "Ġcasting": 12105,
    "Ġfirmament": 19476,
    "Ġdiscomposure": 20381,
    "Ġrifle": 18213,
    "island": 10790,
    "Ġfrighten": 13285,
    "ening": 3100,
    "embarrassed": 20664,
    "clergy": 18938,
    "Ġcour": 1768,
    "comfortable": 7322,
    "Ġquantity": 6951,
    "Ġhorizontal": 7785,
    "Ġgasped": 11367,
    "Ġfathers": 16299,
    "Ġbinding": 20420,
    "Ġlo": 452,
    "Ġtracks": 18893,
    "Ġtopic": 9403,
    "Ġdangers": 12358,
    "Ġleaking": 21731,
    "Ġwoll": 21291,
    "inex": 14096,
    "Ġimpious": 15987,
    "Ġopens": 23618,
    "sent": 760,
    "Ġfilthy": 13256,
    "Ġskilfully": 20525,
    "Ġpooh": 18602,
    "eter": 11624,
    "Ġimpetuously": 20374,
    "justine": 7686,
    "Ġeffectively": 2651,
    "Ġundulating": 19523,
    "inforcement": 3096,
    "librarian": 26564,
    "Ġclutched": 13526,
    "Ġincidents": 9297,
    "Ġemerging": 24603,
    "shriek": 20520,
    "anim": 6523,
    "pictures": 15094,
    "Ġconver": 806,
    "servant": 15040,
    "tra": 5002,
    "Ġeconomy": 17201,
    "halloa": 17090,
    "gaffman": 26385,
    "Ġstable": 2698,
    "Ġneutral": 12748,
    "Ġfleet": 9430,
    "Ġslope": 14466,
    "Ġconclude": 8581,
    "ulgent": 18152,
    "Ġbeauties": 10441,
    "Ġcrosses": 23061,
    "Ġunpleasant": 7192,
    "Ġconstable": 19067,
    "Ġsomewhat": 4895,
    "Ġsong": 5906,
    "Ġcomput": 603,
    "Ġuncommonly": 7762,
    "Ġbrood": 23099,
    "Ġharb": 7372,
    "Ġinvests": 14875,
    "Ġunwonted": 15012,
    "Ġwedged": 24936,
    "Ġpray": 3902,
    "Ġsteps": 2860,
    "Ġlanguor": 12855,
    "Ġvineyard": 12334,
    "garious": 17558,
    "Ġeastern": 12022,
    "interrupt": 8619,
    "Ġrestricted": 19032,
    "anel": 21355,
    "Ġdeal": 3611,
    "reception": 15514,
    "69": 17476,
    "Ġdesign": 4132,
    "ą": 198,
    "Ġpersonal": 7481,
    "fly": 13721,
    "Ġdesperado": 19820,
    "Ġloves": 10909,
    "Ġoffers": 12952,
    "Ġhover": 15620,
    "cabin": 8365,
    "Ġsickened": 16775,
    "Ġbrittle": 22865,
    "uth": 3027,
    "Ġthorough": 6247,
    "ruck": 6851,
    "Ġstiff": 6996,
    "Ġpriest": 7528,
    "Ġassailed": 23174,
    "alogies": 25161,
    "Ġalleys": 25974,
    "Ġslightly": 7295,
    "Ġbilliard": 16689,
    "amous": 15765,
    "took": 6166,
    "goldsmith": 20148,
    "trans": 5595,
    "paused": 17378,
    "Ġrepul": 16407,
    "Ġshovel": 23485,
    "hearing": 8403,
    "Ġformation": 2939,
    "Ġdisappointment": 6628,
    "Ġrasc": 21978,
    "cart": 10685,
    "Ġwalking": 4322,
    "oration": 2209,
    "Ġsleet": 8973,
    "Ġbucket": 8788,
    "Ġfound": 1251,
    "revival": 26159,
    "aux": 14292,
    "Ġinferior": 8367,
    "isson": 23456,
    "Ġincommun": 25306,
    "[_": 5130,
    "Ġactually": 5387,
    "Ġcondesc": 7183,
    "meaning": 2905,
    "deck": 4501,
    "patched": 13313,
    "Ġstation": 5296,
    "courage": 17512,
    "Ġsafely": 9023,
    "Ġrays": 10326,
    "uish": 5429,
    "Ġarticulate": 24423,
    "Ġpictured": 16623,
    "rudent": 6482,
    "ravity": 21633,
    "Ġturk": 6610,
    "Ġexasperate": 20099,
    "Ġmeantime": 6208,
    "distinction": 19578,
    "Ġcanallers": 13634,
    "separation": 25226,
    "Ġerrors": 2597,
    "harpooned": 24278,
    "scru": 16246,
    "Ġviolet": 19090,
    "Ġrolled": 4430,
    "teries": 21823,
    "Ġexpectation": 6907,
    "Ã¦st": 24169,
    "Ġtouch": 3399,
    "sequ": 2400,
    "fourths": 25505,
    "¢": 100,
    "Ġdespond": 14672,
    "Ġnumerical": 4244,
    "anded": 5927,
    "Ġsprout": 24083,
    "ingale": 21297,
    "Ġflower": 16235,
    "Ġrefrain": 12953,
    "Ġcommunion": 19011,
    "Ġschooner": 16749,
    "ative": 743,
    "Ġvertebra": 20182,
    "disappeared": 14575,
    "Ġfamiliarly": 11299,
    "Ġpass": 1040,
    "Ġannounced": 9031,
    "Ġcruise": 12053,
    "tom": 15435,
    "Ġstage": 7391,
    "owards": 4594,
    "Ġprairie": 8713,
    "Ġfurthest": 22815,
    "tural": 21064,
    "susp": 10592,
    "Ġfrighted": 24024,
    "Ġost": 9646,
    "Ġbent": 5146,
    "hauteur": 26386,
    "Ġshave": 21997,
    "Ġdraw": 3674,
    "))": 1513,
    "Ġsepulchre": 20559,
    "Ġstreamed": 14549,
    "Ġdissect": 16057,
    "moment": 3582,
    "Ġrocking": 10963,
    "afer": 17483,
    "Ġreiter": 21664,
    "Ġusual": 3944,
    "Ġcracking": 14578,
    "hroom": 12482,
    "postp": 24625,
    "Ġbrink": 18773,
    "Ġcompatibility": 2953,
    "Ġexplain": 546,
    "gris": 8262,
    "ertion": 12044,
    "cl": 1491,
    "Ġall": 422,
    "straight": 9937,
    "Ġperhaps": 1905,
    "ĠlinnÃ¦us": 15280,
    "based": 2954,
    "trouble": 8299,
    "inferior": 12398,
    "Ġpatagonian": 20521,
    "Ġcucumber": 21354,
    "Ġknocked": 9497,
    "Ġwiser": 14736,
    "figure": 13562,
    "dinah": 20082,
    "Ġjaws": 5594,
    "Ġdeck": 2136,
    "Ġrobinson": 17465,
    "Ġhelped": 7461,
    "en": 271,
    "perfect": 7637,
    "ishmael": 18421,
    "Ġdiscoloured": 15257,
    "Ġsix": 3038,
    "repe": 8777,
    "Ġtrailing": 23078,
    "itu": 1227,
    "itying": 21995,
    "Ġassuming": 16693,
    "fore": 685,
    "ressed": 3017,
    "Ġpoured": 8801,
    "Ġsour": 21214,
    "ersman": 11707,
    "Ġhurled": 10424,
    "ackled": 22420,
    "Ġaim": 10141,
    "Ġcretan": 22719,
    "iated": 5893,
    "ilent": 21720,
    "Ġafraid": 3533,
    "Ġstud": 1602,
    "Ġtearless": 24782,
    "impetuous": 23753,
    "<SOS>": 1,
    "Ġdesires": 9454,
    "Ġintent": 6407,
    "Ġsite": 17751,
    "Ġnoting": 18222,
    "tale": 10123,
    "Ġcoach": 6871,
    "Ġcountryside": 23590,
    "atived": 21260,
    "terms": 15752,
    "Ġblasphe": 17411,
    "Ġmagn": 1556,
    "Ġremembered": 5274,
    "Ġhoe": 23345,
    "Ġmoccas": 22436,
    "Ġcrawford": 24894,
    "wand": 10734,
    "considerably": 13453,
    "mic": 12494,
    "Ġworth": 4417,
    "Ġbiscuit": 12597,
    "Ġintu": 12770,
    "osop": 4405,
    "Ġrecalled": 8538,
    "Ġgroom": 13971,
    "stranded": 19227,
    "Ġcargo": 16293,
    "Ġincorpor": 13173,
    "pag": 11509,
    "useness": 22292,
    "Ġalice": 1482,
    "Ġinnermost": 12166,
    "Ġscoundrel": 13679,
    "Ġsuddenly": 2646,
    "eous": 13719,
    "queen": 12731,
    "Ġelementary": 24811,
    "Ġbennet": 1575,
    "resses": 16154,
    "Ġsurf": 19134,
    "get": 1022,
    "varied": 23181,
    "Ġsteward": 6585,
    "Ġutilize": 4797,
    "Ġouter": 6862,
    "Ġtricks": 13492,
    "Ġcrazed": 19180,
    "attendants": 25491,
    "undertaking": 23780,
    "wreat": 21125,
    "remark": 7262,
    "rigible": 24932,
    "Ġbitterly": 8329,
    "analysis": 26170,
    "Ġcowards": 12580,
    "Ġgrind": 18738,
    "ĩ": 234,
    "al": 292,
    "Ġtube": 15007,
    "Ġpoetry": 15085,
    "Ġveteran": 17452,
    "food": 12469,
    "Ġequally": 5255,
    "Ġmultipl": 2789,
    "Ġblood": 3166,
    "Ġdissolved": 18555,
    "Ġfriendless": 23026,
    "lemag": 21370,
    "ben": 4927,
    "Ġbravery": 23831,
    "shut": 10975,
    "Ġjokes": 18409,
    "Ġmodesty": 12824,
    "Ġspeedily": 7714,
    "Ġsmoothe": 23643,
    "Ġreg": 731,
    "Ġhan": 15618,
    "complain": 14361,
    "ĠĠ": 352,
    "Ġinclined": 6624,
    "Ġsentence": 6189,
    "bons": 17488,
    "Ġdifficulty": 5773,
    "stately": 18019,
    "Ġalgorith": 558,
    "Ġdominion": 16529,
    "Ġscenarios": 26538,
    "wives": 15455,
    "Ġflu": 3278,
    "match": 15391,
    "beholding": 16044,
    "jewell": 25519,
    "Ġsound": 2242,
    "Ġhissed": 15790,
    "Ġjour": 11769,
    "Ġobtaining": 16135,
    "Ġchambers": 16800,
    "sailor": 14721,
    "towns": 24855,
    "Ġelucidated": 26025,
    "Ġpromises": 10396,
    "Ġperusal": 14228,
    "Ġsher": 3764,
    "zar": 11545,
    "Ġstupid": 7610,
    "Ġcomprises": 22574,
    "Ġphaeton": 17466,
    "mers": 9607,
    "Ġsubmitted": 11877,
    "Ġconfirm": 9853,
    "Ġsundry": 20076,
    "Ġmarsh": 9818,
    "mariners": 19553,
    "Ġworn": 6444,
    "Ġunderstood": 5656,
    "never": 3149,
    "combined": 20319,
    "atious": 10148,
    "Ġassisted": 11104,
    "Ġspo": 6849,
    "Ġpulpit": 7471,
    "valley": 16217,
    "oder": 2457,
    "Ġbedford": 7477,
    "imen": 12694,
    "record": 16920,
    "Ġliquid": 22409,
    "iety": 2816,
    "Ġthree": 1372,
    "Ġbrill": 8549,
    "Ġexcitement": 9377,
    "consist": 14824,
    "convolutional": 4958,
    "Ġtalents": 15049,
    "Ġsqueezed": 20038,
    "Ġcoverage": 4286,
    "Ġnamed": 6141,
    "complete": 15039,
    "felicity": 25142,
    "Ġappear": 2487,
    "Ġ8": 5431,
    "equal": 14998,
    "Ġspending": 10917,
    "Ġdivided": 8632,
    "fainting": 20474,
    "Ġcape": 5143,
    "burning": 25019,
    "Ġproof": 6155,
    "rue": 1131,
    "Ġwilled": 21289,
    "ural": 504,
    "Ġduly": 13359,
    "ivory": 10265,
    "Ġsocieties": 20183,
    "Ġpeeping": 16130,
    "queness": 18148,
    "Ġaggregate": 25673,
    "Ġfavourite": 5268,
    "wins": 21127,
    "Ġyore": 21779,
    "Ġdissimilar": 22532,
    "Ġexceeded": 14439,
    "bride": 19205,
    "Ġintending": 11709,
    "Ġdrugg": 17122,
    "Ġsinister": 8570,
    "tim": 13798,
    "Ġlandau": 16418,
    "Ġwhence": 5841,
    "Ġconjure": 17126,
    "Ġbiography": 22761,
    "Ġdisregarded": 22531,
    "collinses": 19927,
    "Ġlounged": 19957,
    "stonecraft": 24346,
    "oam": 8752,
    "indispensable": 14213,
    "Ġinstances": 5567,
    "Ġhedge": 8366,
    "Ġsatire": 22902,
    "Ġfra": 1777,
    "Ġmurdering": 14819,
    "Ġhappy": 2463,
    "rough": 589,
    "Ġere": 3687,
    "cy": 642,
    "frequent": 15357,
    "Ġdiscriminator": 3395,
    "Ġwhilst": 9215,
    "Ġvalleys": 14924,
    "Ġleak": 2159,
    "pacing": 21018,
    "ipher": 18428,
    "Ġsought": 5010,
    "Ġbeque": 18081,
    "av": 701,
    "Ġhandfuls": 17210,
    "Ġbroker": 23100,
    "nearly": 8681,
    "Ġreligions": 20109,
    "Ġmoul": 15544,
    "Ġsine": 10759,
    "Ġsituated": 9445,
    "Ġgoodly": 22821,
    "Ġtreas": 7360,
    "Ġmystic": 7505,
    "Ġmoody": 8203,
    "Ġdaniel": 15115,
    "oted": 4597,
    "eliest": 14754,
    "Ġsund": 8251,
    "lord": 3865,
    "promote": 24721,
    "sor": 7354,
    "Ġfeatures": 1432,
    "vig": 15446,
    "writing": 7723,
    "Ġgradients": 612,
    "Ġhysterical": 26089,
    "ruit": 22187,
    "fortunes": 6334,
    "Ġthickness": 13284,
    "Ġpiece": 5365,
    "Ġhood": 10818,
    "eted": 7595,
    "befriend": 22493,
    "Ġpatronage": 17052,
    "batch": 1984,
    "little": 3355,
    "Ġ18": 3410,
    "Ġ22": 8282,
    "Ġgunw": 6214,
    "momentum": 4991,
    "±": 114,
    "allowed": 5731,
    "penetrate": 20323,
    "Ġsolomon": 11048,
    "Ġ52": 24307,
    "Ġremorse": 6440,
    "Ġtore": 6532,
    "Ġtort": 5905,
    "Ġdid": 836,
    "Ġkne": 4265,
    "Ġfigured": 16645,
    "ibles": 18790,
    "nosed": 20990,
    "Ġfeed": 2125,
    "Ġvainly": 9922,
    "Ġinterrupt": 4361,
    "Ġlearnable": 3994,
    "Ġimprovements": 14512,
    "Ġnervous": 2403,
    "continue": 16860,
    "smooth": 20248,
    "Ġdeveloped": 16357,
    "Ġobtru": 18673,
    "coach": 23552,
    "ĝ": 222,
    "Ġfamiliarity": 16730,
    "Ġstiffest": 24827,
    "vint": 21112,
    "Ġquoin": 22418,
    "leading": 15562,
    "ens": 702,
    "ker": 5795,
    "barrels": 15046,
    "rises": 17653,
    "empl": 5727,
    "Ġvibrated": 25049,
    "shipmates": 11932,
    "Ġyellowish": 24421,
    "dead": 8182,
    "Ġyards": 5369,
    "conside": 9287,
    "companion": 9555,
    "Ġprofoundly": 16858,
    "should": 3263,
    "distraction": 24195,
    "Ġglens": 18858,
    "Ġadvertising": 25386,
    "slee": 17170,
    "Ġcomprehended": 11290,
    "Ġaccord": 4025,
    "scot": 14424,
    "Ġcove": 22578,
    "Ġboots": 5948,
    "Ġreturned": 2888,
    "smeer": 26144,
    "Ġbenefited": 19402,
    "Ġshalt": 18231,
    "Ġobjectionable": 16990,
    "Ġoriginated": 24116,
    "Ġentrances": 25832,
    "gra": 768,
    "Ġinsignificant": 20457,
    "Ġpoignant": 22591,
    "Ġstoner": 7180,
    "Ġmanipulated": 25178,
    "venty": 6426,
    "Ġrefusal": 10340,
    "Ġquote": 18467,
    "Ġadvised": 16210,
    "dashing": 20835,
    "Ġbatch": 887,
    "Ġdevoting": 22736,
    "Ġdrunken": 12054,
    "Ġalche": 21784,
    "Ġhoars": 19078,
    "Ġsyn": 15913,
    "Ġscruple": 25052,
    "Ġbroke": 5320,
    "li": 1189,
    "ien": 10098,
    "Ġsilvery": 13102,
    "Ġthrown": 4638,
    "Ġwheels": 10906,
    "aston": 7410,
    "Ġbehaved": 13261,
    "rib": 1946,
    "Ġshooting": 11157,
    "Ġripples": 25501,
    "Ġpropont": 16351,
    "Ġagents": 9763,
    "Ġhorn": 6187,
    "Ġshakes": 10898,
    "Ġsports": 18310,
    "globe": 25144,
    "Ġunthinkingly": 26218,
    "wit": 7819,
    "Ġreef": 10843,
    "Ġdestruction": 6601,
    "Ġtangle": 25756,
    "saturday": 14865,
    "yrin": 12528,
    "heading": 5486,
    "Ġextraction": 11246,
    "enthus": 17978,
    "Ġrecklessness": 24739,
    "Ġshops": 22002,
    "produ": 10716,
    "Ġcredited": 25156,
    "Ġdiffers": 23771,
    "Ġangelic": 19633,
    "study": 15121,
    "Ġstruggles": 16579,
    "Ġdragon": 14949,
    "wandered": 20285,
    "Ġhelplessness": 25077,
    "leness": 4688,
    "Ġquoted": 22415,
    "Ġresol": 2665,
    "prodig": 16425,
    "Ġmag": 1428,
    "itic": 11577,
    "athing": 12554,
    "Ġexample": 5094,
    "Ġkin": 15905,
    "ppa": 10235,
    "Ġverse": 16602,
    "Ġjo": 2610,
    "Ġcumberland": 21353,
    "Ġconsecrate": 26485,
    "Ġventilator": 8714,
    "Ġinfluences": 14872,
    "Ġmaterial": 5172,
    "Ġhunted": 7455,
    "Ġclouded": 13298,
    "Ġevil": 3807,
    "Ġmin": 1028,
    "inating": 9151,
    "umbers": 10912,
    "proper": 7473,
    "Ġnodded": 11973,
    "Ġpresented": 5180,
    "fre": 5423,
    "waste": 21132,
    "Ġchim": 5937,
    "Ġdragged": 6893,
    "ivot": 11723,
    "adequate": 15208,
    "bowing": 24446,
    "beside": 19878,
    "glings": 23845,
    "Ġcampa": 17175,
    "luent": 15997,
    "Ġdecember": 15011,
    "Ġroyals": 19538,
    "Ġbroom": 18910,
    "arrested": 15601,
    "Ġcompliments": 8633,
    "Ġlend": 17962,
    "aught": 2680,
    "ull": 1431,
    "powerful": 24848,
    "Ġmilan": 19541,
    "seventy": 10870,
    "Ġperu": 14226,
    "pshaw": 21025,
    "Ġpresently": 5114,
    "Ġfancying": 12117,
    "ailed": 3249,
    "plifted": 9706,
    "Ġserenely": 13514,
    "Ġvort": 18194,
    "earnest": 12403,
    "Ġvital": 9240,
    "ard": 465,
    "Ġo": 275,
    "hold": 3982,
    "ause": 1316,
    "Ġunacquainted": 12782,
    "whaling": 7899,
    "Ġslanting": 23169,
    "Ġexert": 5725,
    "Ġimmutable": 17362,
    "princ": 8621,
    "ich": 470,
    "ble": 542,
    "Ġnib": 13946,
    "ority": 8418,
    "Ġgreek": 10627,
    "itor": 12573,
    "Ġwilfully": 16767,
    "inde": 17729,
    "Ġvariants": 1792,
    "alliance": 22200,
    "buncle": 13700,
    "quently": 9698,
    "Ġlieuten": 13336,
    "Ġlancaster": 25954,
    "Ġcurses": 13021,
    "Ġhighness": 22773,
    "Ġele": 1964,
    "Ġdrinking": 12174,
    "Ġdescribing": 19252,
    "03": 20749,
    "oman": 2020,
    "erring": 11053,
    "albatross": 15631,
    "Ġdeep": 813,
    "Ġsupposed": 4558,
    "Ġprendergast": 26533,
    "eastward": 15133,
    "rary": 4575,
    "gazed": 15365,
    "Ġquebec": 24126,
    "Ġsundering": 23271,
    "Ġimmensely": 13603,
    "laborers": 23910,
    "Ġobsequious": 17408,
    "rippling": 24704,
    "Ġcapt": 1294,
    "Ġpity": 4941,
    "Ġunluck": 8486,
    "andish": 18156,
    "Ġpermitted": 9275,
    "Ġ199": 3004,
    "Ġdespair": 4009,
    "bit": 3933,
    "Ġcircles": 7967,
    "Ġtink": 9146,
    "Ġeffaced": 18535,
    "Ġprophesy": 26057,
    "oned": 4691,
    "Ġincorruption": 26306,
    "Ġpom": 21448,
    "unhes": 21876,
    "Ġardour": 8043,
    "turbable": 24651,
    "Ġintroduces": 3270,
    "Ġlirra": 21558,
    "Ġforty": 5722,
    "smiled": 16614,
    "Ġstraits": 7994,
    "fish": 3518,
    "Ġvices": 14087,
    "Ġsubstit": 19546,
    "Ġencouraged": 9352,
    "Ġannum": 24171,
    "intellect": 18826,
    "poured": 17637,
    "impress": 18052,
    "exclaimed": 11795,
    "Ġaccomp": 4711,
    "Ġinfatuation": 25853,
    "frank": 7760,
    "shows": 22456,
    "ĠĠĠĠĠĠĠĠĠĠĠĠĠĠĠĠĠĠĠĠĠĠĠĠĠĠĠĠĠĠĠĠĠĠĠĠĠĠĠĠĠĠĠĠĠĠ": 9950,
    "Ġcous": 3439,
    "Ġvile": 8474,
    "imprudence": 16557,
    "Ġpitching": 16611,
    "Ġsurveying": 25323,
    "Ġhung": 4560,
    "Ġmagistrate": 8236,
    "Ġmanual": 14201,
    "throwing": 11708,
    "aggoo": 5129,
    "Ġscarce": 8622,
    "Ġhandle": 3134,
    "Ġpitiless": 19392,
    "Ġscript": 18398,
    "setting": 13293,
    "Ġchapter": 2950,
    "Ġnewcastle": 16226,
    "wrinkled": 16554,
    "Ġvolcano": 24140,
    "particularly": 8342,
    "acquired": 24288,
    "eration": 10768,
    "powder": 17644,
    "Ġprairies": 20023,
    "Ġscotch": 12215,
    "Ġcle": 1508,
    "Ġfasc": 12606,
    "Ġfingers": 5674,
    "Ġcheck": 7272,
    "bb": 2798,
    "grin": 19107,
    "Ġmaintainable": 12942,
    "Ġmarvel": 23035,
    "Ġraging": 14312,
    "ructure": 770,
    "Ġconnection": 5478,
    "Ġmid": 2617,
    "Ġfare": 5813,
    "Ġtoma": 7375,
    "bedstead": 23926,
    "idity": 8831,
    "adventure": 17234,
    "Ġdrought": 19279,
    "Ġweal": 21921,
    "support": 9467,
    "Ġapproaching": 6286,
    "listen": 13521,
    "fingers": 17374,
    "Ġencountered": 8324,
    "tarpaulins": 26400,
    "Ġcellars": 24657,
    "Ġencounters": 19586,
    "trowsers": 17689,
    "Ġinfirmity": 26295,
    "Ġheedfulness": 24514,
    "Ġclergy": 7645,
    "aug": 1214,
    "Ġphilips": 5408,
    "dar": 20823,
    "Ġply": 21449,
    "Ġprevail": 13450,
    "Ġpovelson": 26548,
    "imodal": 17449,
    "ivered": 7009,
    "Ġinco": 14265,
    "Ġunintermitted": 26217,
    "Ġdeserve": 8312,
    "Ġmagnetic": 17241,
    "oriously": 17874,
    "Ġglimmer": 15146,
    "Ġke": 1155,
    "âĢĿ--": 21817,
    "Ġcraw": 7284,
    "el": 306,
    "pleasant": 5877,
    "Ġrefuge": 8541,
    "Ġexpedite": 24956,
    "/`)": 13668,
    "prevented": 20376,
    "Ġrear": 6537,
    "Ø": 153,
    "Ġexclusion": 19400,
    "Ġross": 2764,
    "Ġfood": 5079,
    "Ġcopse": 17068,
    "musical": 25338,
    "Ġstrangeness": 16705,
    "Ġventured": 7503,
    "Ġtrinity": 22346,
    "Ġdrugged": 12610,
    "invested": 17120,
    "Ġpack": 5442,
    "Ġunex": 11718,
    "Ġapoplexy": 25263,
    "inching": 21187,
    "Ġ60": 14881,
    "elag": 12666,
    "milk": 20478,
    "ilted": 21723,
    "uv": 6232,
    "dw": 3334,
    "princip": 17138,
    "Ġruffled": 25833,
    "indifference": 15983,
    "Ġlasted": 11049,
    "Ġslabs": 13068,
    "lingering": 18600,
    "Ġcandelab": 23843,
    "permitted": 18341,
    "Ġtheore": 1830,
    "shott": 11799,
    "ivers": 1985,
    "Ġsaw": 1350,
    "Ġlaud": 17967,
    "Ġmeals": 12719,
    "wicked": 24441,
    "Ġmay": 922,
    "Ġphilosoph": 19657,
    "Ġjagged": 18408,
    "faces": 13727,
    "Ġseats": 14093,
    "stand": 625,
    "affairs": 14659,
    "Ġdesol": 6885,
    "Ġimpenitent": 26544,
    "Ġcheating": 16369,
    "Ġcomrades": 9230,
    "Ġthroughout": 8876,
    "igated": 15708,
    "Ġrelu": 1047,
    "Ġfact": 1728,
    "Ġ59": 24313,
    "Ġdisclose": 16157,
    "Ġrhone": 25230,
    "ultaneous": 18586,
    "sme": 17656,
    "Ġicebergs": 23970,
    "mph": 20970,
    "Ġjollies": 20372,
    "Ġprudence": 13926,
    "Ġmechanically": 14409,
    "Ġhole": 6082,
    "Ġretirement": 25375,
    "bol": 8718,
    "Ġnumberless": 16414,
    "Ġgrampus": 21994,
    "Ġfloated": 7290,
    "Ġcreated": 2706,
    "consolatory": 25304,
    "Ġquarrels": 16567,
    "ustration": 2258,
    "Ġinclement": 22555,
    "otle": 21798,
    "ket": 17582,
    "dest": 4103,
    "pron": 9004,
    "Ġrector": 21674,
    "Ġabstracted": 17184,
    "Ġliter": 8812,
    "Ġcha": 6856,
    "Ġ130": 24777,
    "serv": 7453,
    "Ġtawny": 20483,
    "----âĢĻ": 24093,
    "Ġsolved": 8929,
    "icious": 7382,
    "Ġpausing": 8653,
    "Ġcolonel": 3411,
    "Ġxxx": 7769,
    "nailed": 20994,
    "Ġbanquet": 15245,
    "inn": 5362,
    "and": 372,
    "Ġstood": 2552,
    "alarm": 15628,
    "Ġchimney": 6497,
    "Ġfrayed": 23286,
    "id": 338,
    "Ġpens": 21456,
    "Ġcarrying": 6075,
    "Ġhugh": 15008,
    "Ġthigh": 10824,
    "Ġheroic": 14913,
    "Ġfollows": 7676,
    "effectually": 25130,
    "Ġ182": 13245,
    "Ġhereditarily": 25224,
    "Ġrichest": 26209,
    "abomin": 15743,
    "Ġthence": 8881,
    "Ġparc": 10914,
    "Ġkindred": 16377,
    "Ġhigher": 1820,
    "Ġbidirectional": 3756,
    "Ġcircumnavigation": 20401,
    "Ġbecalmed": 18087,
    "irious": 15787,
    "Ġcruises": 23696,
    "twenty": 6607,
    "Ġaverred": 18869,
    "myself": 5111,
    "honour": 13475,
    "rer": 3626,
    "ractions": 11636,
    "Ġade": 22101,
    "Ġeluc": 16111,
    "Ġinvade": 19147,
    "Ġmemorable": 16445,
    "ised": 1070,
    "sure": 5520,
    "Ġcascade": 20581,
    "Ġamounted": 18512,
    "windibank": 24155,
    "ton": 1727,
    "Ġpursu": 3241,
    "Ġhastening": 19339,
    "Ġconcisely": 19047,
    "carpenter": 11422,
    "Ġdrenched": 12611,
    "Ġform": 1026,
    "upid": 6583,
    "jour": 20926,
    "mountain": 10709,
    "ira": 3959,
    "Ġwent": 1534,
    "Ġrecall": 3857,
    "Ġdowncast": 18653,
    "precipitance": 25863,
    "Ġbarred": 9000,
    "science": 11915,
    "ogue": 9782,
    "Ġdelic": 4135,
    "Ġkith": 22192,
    "Ġethere": 23945,
    "opatra": 22484,
    "opic": 22483,
    "pra": 15407,
    "leagued": 26431,
    "Ġexord": 21828,
    "largely": 19581,
    "Ġpurposes": 11163,
    "Ġfiddle": 25440,
    "ation": 320,
    "hospit": 25899,
    "Ġusefulness": 19412,
    "Ġinterment": 22626,
    "Ġquicker": 16508,
    "arch": 1122,
    "rot": 21529,
    "Ġquietly": 4567,
    "Ġundiscovered": 18250,
    "Ġstairs": 5539,
    "icked": 10328,
    "Ġintelligences": 12837,
    "Ġimbec": 14160,
    "Ġdone": 1816,
    "Ġhull": 5444,
    "mightily": 24097,
    "Ġissuing": 16947,
    "Ġoarsmen": 7740,
    "Ġclinched": 17398,
    "Ġsullenly": 17174,
    "Ġspiral": 14588,
    "penet": 11064,
    "poles": 16212,
    "Ġdisrespect": 18554,
    "Ġpertaining": 18451,
    "Ġties": 12534,
    "Ġsed": 10757,
    "Ġforms": 6395,
    "ĠmanÅĵuv": 18418,
    "Ġ>": 21149,
    "Č": 205,
    "Ġmapple": 11145,
    "Ġdiscreet": 16484,
    "Ġjurymen": 16846,
    "Ġwight": 12560,
    "Ġlines": 4534,
    "Ġclout": 22356,
    "woof": 21137,
    "Ġhim": 476,
    "Ġ43": 14777,
    "Ġdiscovery": 5410,
    "Ġassemblage": 26349,
    "Ġslipper": 24259,
    "Ġfaith": 5349,
    "Ġadmitting": 19188,
    "Ġimpotent": 18448,
    "Ġbattalions": 25772,
    "oning": 7574,
    "Ġexamined": 6336,
    "extinguish": 22767,
    "Ġunwaning": 24830,
    "Ġsufferer": 16265,
    "Ġstartled": 7086,
    "endous": 6853,
    "histicated": 20900,
    "Ġsweep": 8268,
    "Ġstowed": 21740,
    "Ġfell": 1979,
    "Ġworkman": 16263,
    "pend": 6367,
    "Ġgush": 10199,
    "Ġreliably": 22880,
    "gain": 8737,
    "Ġsavory": 23870,
    "opened": 7913,
    "Ġtendency": 11325,
    "Ġcongregational": 25106,
    "yder": 10134,
    "Ġacknowledged": 7536,
    "Ġhighest": 3532,
    "erce": 6128,
    "teness": 23204,
    "Ġissu": 6255,
    "surprise": 9528,
    "Ġcottages": 14733,
    "Ġfoot": 3160,
    "clings": 23149,
    "iracle": 11238,
    "ppers": 7621,
    "nez": 22447,
    "Ġkindled": 19033,
    "Ġattendance": 12186,
    "stars": 18017,
    "Ġtoe": 13942,
    "Ġcomprise": 18587,
    "threadbare": 25985,
    "Ġphenomena": 21480,
    "fatality": 25023,
    "Ġomnipotent": 13555,
    "planks": 21955,
    "·": 120,
    "Ġlibrary": 6422,
    "Ġmiserable": 3638,
    "Ġoversight": 22348,
    "aciousness": 18605,
    "wherever": 13128,
    "det": 5204,
    "Ġemm": 18003,
    "introdu": 8935,
    "data": 2182,
    "icity": 2539,
    "tempt": 21077,
    "ashes": 6020,
    "Ġ106": 24405,
    "agation": 1233,
    "Ġchilian": 25559,
    "Ġactivation": 917,
    "Ġwidower": 24229,
    "shri": 14239,
    "pse": 21006,
    "Ġay": 15491,
    "verb": 10212,
    "uries": 6149,
    "solution": 14690,
    "fatigue": 20657,
    "Ġcomple": 2838,
    "ò": 179,
    "Ġsurpr": 2551,
    "bowl": 14897,
    "84": 15306,
    "Ġcovers": 18591,
    "Ġinterview": 9773,
    "vy": 21105,
    "Ġheated": 21680,
    "Ġhere": 1089,
    "Ġvenge": 5418,
    "wic": 21118,
    "approached": 13493,
    "iac": 6227,
    "sorting": 17005,
    "Ġpemberley": 4588,
    "Ġplainpal": 19278,
    "Ġcountess": 11968,
    "woes": 21131,
    "estinated": 15922,
    "heard": 5009,
    "kings": 17583,
    "hind": 20893,
    "Ġindies": 22949,
    "udding": 11871,
    "Ġcensure": 15099,
    "Ġdestiny": 8981,
    "Ġscenery": 11451,
    "ifiable": 18166,
    "Ġappeased": 23193,
    "Ġdra": 1590,
    "blu": 12444,
    "Ġstare": 10858,
    "Ġulster": 15001,
    "Ġbee": 21750,
    "Ġices": 21152,
    "Ġilliterate": 26590,
    "Ġcommanding": 16590,
    "Ġdecisive": 18484,
    "Ġanx": 3180,
    "Ġdiffer": 18678,
    "inate": 6235,
    "Ġhowling": 8511,
    "msman": 9266,
    "ring": 1750,
    "Ġsixpence": 19318,
    "afric": 19184,
    "Ġtreated": 7084,
    "ives": 1410,
    "Ġwickham": 2206,
    "Ġgossip": 18471,
    "ineffectual": 26500,
    "Ġerudite": 26348,
    "shining": 18493,
    "scornful": 26571,
    "weave": 22685,
    "ilities": 6995,
    "speaks": 19724,
    "Ġframe": 1894,
    "Ġsaintsbury": 26369,
    "Ġdescend": 7428,
    "sails": 7499,
    "earliest": 20121,
    "ithing": 11652,
    "Ġfatig": 6759,
    "christmas": 20255,
    "Ġantique": 19558,
    "Ġbasket": 9570,
    "ificent": 8186,
    "Ġpred": 663,
    "Ġinducements": 24970,
    "Ġcoleman": 22583,
    "sub": 4658,
    "aud": 8522,
    "Ġadversarial": 5608,
    "Ġcriminals": 19926,
    "difference": 13715,
    "uttermost": 24943,
    "enit": 17778,
    "Ġofficer": 6756,
    "Ġfisherman": 12080,
    "chess": 16574,
    "Ġinjury": 10537,
    "ik": 17571,
    "scarcely": 12390,
    "byter": 16216,
    "Ġsensitive": 13206,
    "Ġdifficult": 3575,
    "Ġdegenerated": 20506,
    "Ġexpose": 10323,
    "Ġprobed": 18737,
    "cleanliness": 25867,
    "Ġaccur": 3811,
    "Ġdiff": 3112,
    "Ġillustrative": 25072,
    "idated": 11664,
    "Ġoffending": 22740,
    "ected": 7874,
    "making": 2572,
    "ence": 392,
    "Ġtable": 2500,
    "Ġweighty": 16036,
    "Ġdeemed": 7618,
    "Ġglist": 9343,
    "Ġmurderers": 16812,
    "iverse": 13125,
    "Ġentitled": 8539,
    "sch": 21048,
    "ellect": 7383,
    "Ġaquiline": 26156,
    "Ġho": 1929,
    "Ġdepths": 4325,
    "vii": 13155,
    "Ġwings": 9161,
    "Ġinfl": 6896,
    "Ġbust": 10165,
    "floor": 14941,
    "Ġtaurus": 21176,
    "Ġhig": 753,
    "Ġtransparent": 9487,
    "Ġdecreases": 3413,
    "Ġdeferred": 18830,
    "Ġjiff": 22296,
    "rocious": 21536,
    "beryls": 25307,
    "equ": 6792,
    "apology": 22334,
    "ven": 778,
    "Ġevaluation": 16566,
    "fishery": 10029,
    "Ġattempts": 10487,
    "birth": 15327,
    "Ġalarm": 4047,
    "ilburn": 18060,
    "meet": 11862,
    "Ġtol": 6677,
    "Ġnobody": 6160,
    "biqu": 17499,
    "Ġhighway": 14353,
    "Ġcontinental": 19710,
    "natural": 2432,
    "Ġteased": 18806,
    "Ġhooks": 14972,
    "Ġsingers": 23761,
    "list": 7553,
    "com": 982,
    "_": 67,
    "Ġcripple": 11435,
    "mindful": 19605,
    "Ġcontracting": 16012,
    "Ġglo": 1713,
    "Ġhamp": 12638,
    "Ġhardest": 18916,
    "fil": 12468,
    "urpr": 2289,
    "Ġmemories": 14560,
    "ravelled": 18015,
    "Ġapparition": 8067,
    "Ġmou": 13862,
    "aim": 2754,
    "ulent": 21863,
    "Ġaccelerate": 23223,
    "hotel": 20053,
    "Ġstagger": 10587,
    "Ġlord": 2960,
    "Ġworks": 5860,
    "vis": 4577,
    "boots": 11120,
    "Ġhooked": 19080,
    "Ġcontemptuously": 19833,
    "epend": 3317,
    "rip": 9238,
    "eel": 11480,
    "Ġswayed": 15052,
    "independent": 26017,
    "Ġdisobedience": 22536,
    "cupboards": 25398,
    "Ġir": 1994,
    "Ġslily": 23161,
    "fted": 9116,
    "Ġcollapsed": 15144,
    "pondicherry": 26395,
    "cob": 10083,
    "Ġhom": 9183,
    "arks": 2841,
    "Ġcasually": 25097,
    "Ġsoc": 3529,
    "conviction": 19968,
    "pper": 3211,
    "symp": 14607,
    "meryton": 10108,
    "Ġrippling": 17280,
    "iquet": 17575,
    "which": 1706,
    "Ġepo": 21617,
    "Ġsurrounding": 12168,
    "weigh": 18666,
    "Ġexpon": 966,
    "rew": 3652,
    "marrying": 19552,
    "Ġfacilitate": 26095,
    "iction": 4267,
    "insufferable": 21190,
    "Ġvilla": 14755,
    "neglected": 25665,
    "Ġrules": 1916,
    "Ġextremest": 19200,
    "column": 19330,
    "baned": 17497,
    "Ġminister": 18755,
    "agra": 14070,
    "Ġaloof": 21786,
    "Ġbidding": 9535,
    "nuee": 17432,
    "Ġadmires": 19690,
    "Ġunceasing": 20360,
    "adagrad": 9687,
    "Ġamounts": 6707,
    "Ġsituation": 4072,
    "judged": 14841,
    "Ġabundance": 17157,
    "Ġsumatra": 15291,
    "Ġposterity": 17406,
    "Ġgodlike": 23351,
    "white": 4602,
    "Ġenforced": 21939,
    "original": 9084,
    "unbidden": 21895,
    "suspicions": 25388,
    "Ġpigs": 19752,
    "Ġplanisp": 24052,
    "topp": 22567,
    "Ġappertaining": 26529,
    "Ġunconquerable": 22060,
    "saw": 5897,
    "Ġunholy": 26216,
    "eli": 3875,
    "heaven": 8053,
    "Ġcuts": 14612,
    "Ġreleased": 2972,
    "kilt": 4865,
    "Ġpassionate": 11269,
    "Ġ11": 5316,
    "Ġadapted": 11034,
    "Ġjun": 8507,
    "movement": 25574,
    "dist": 4482,
    "Ġ67": 19665,
    "Ġcrest": 12947,
    "gging": 7700,
    "Ġhatred": 8590,
    "Ġtones": 8400,
    "Ġnoble": 3443,
    "Ġnois": 4266,
    "Ġbarrels": 9434,
    "Ġsil": 1797,
    "pul": 8754,
    "disappearing": 23496,
    "visitor": 15064,
    "caus": 11471,
    "Ġinspiring": 19114,
    "Ġsc": 531,
    "worse": 14695,
    "Ġbedside": 19126,
    "dered": 2471,
    "Ġimpo": 3445,
    "Ġagreeably": 24955,
    "Ġhamper": 19393,
    "Ġdevelop": 1708,
    "Ġdefinitions": 22942,
    "Ġeighteenth": 14762,
    "Ġpossibilities": 18979,
    "Ġmetallic": 19072,
    "Ġdetermined": 2223,
    "Ġsocietal": 11431,
    "Ġbehoo": 19037,
    "Ġperform": 1037,
    "Ġeligible": 10666,
    "ortations": 22258,
    "aton": 21256,
    "Ġparticularly": 5055,
    "Ġbitter": 4917,
    "became": 10511,
    "Ġassoc": 6400,
    "taking": 5691,
    "Ġ128": 24465,
    "sy": 2574,
    "Ġclust": 9271,
    "Ġundersampling": 19524,
    "asserted": 22309,
    "Ġtension": 13831,
    "Ġimitation": 22172,
    "Ġrich": 2986,
    "Ġgulp": 20031,
    "duct": 3508,
    "Ġcorre": 3889,
    "Ġcabs": 23632,
    "Ġwaved": 9641,
    "contrivance": 26313,
    "accidents": 19216,
    "Ġharpo": 1942,
    "jumping": 20245,
    "cture": 15667,
    "Ġopp": 2697,
    "Ġalabama": 14024,
    "Ġinsurgents": 26595,
    "Ġyours": 4124,
    "below": 12126,
    "Ġshed": 8183,
    "estations": 22219,
    "lashed": 20952,
    "cock": 12030,
    "mies": 20966,
    "Ġhinting": 19655,
    "handled": 19259,
    "Ġextravag": 11247,
    "irectly": 6943,
    "close": 9983,
    "Ġextracted": 16315,
    "oftener": 23960,
    "ornamented": 26591,
    "Ġwaste": 9231,
    "unwittingly": 25797,
    "Ġsledge": 8111,
    "Ġlevi": 3029,
    "rospect": 11615,
    "Ġframework": 1978,
    "ĠĠĠĠĠĠĠĠ": 712,
    "Ġdisconsol": 18558,
    "orough": 5703,
    "minute": 11270,
    "usually": 10281,
    "Ġperplex": 2715,
    "swed": 24247,
    "Ġprofits": 16491,
    "uch": 875,
    "endeavoured": 12285,
    "Ġsticking": 13435,
    "nervous": 16280,
    "Ġdull": 6382,
    "Ġshop": 9249,
    "Ġportraits": 20143,
    "Ġembellished": 25846,
    "lying": 7176,
    "Ġlandless": 23373,
    "Ġdreams": 7498,
    "Ġchorus": 10940,
    "Ġmain": 809,
    "Ġsteadily": 8052,
    "Ġsubsisted": 19119,
    "Ġsherry": 19455,
    "dy": 4075,
    "Ġthink": 987,
    "Ġfind": 1457,
    "Ġportable": 19375,
    "recover": 24613,
    "Ġsteering": 10383,
    "emone": 21926,
    "zwilliam": 5073,
    "Ġlurch": 21553,
    "vul": 15448,
    "Ġfail": 4149,
    "Ġnotions": 14103,
    "Ġbert": 4582,
    "manifested": 20527,
    "Ġcath": 17827,
    "lean": 21363,
    "Ġthoroughly": 8349,
    "feeders": 25235,
    "wed": 5799,
    "Ġadmir": 12026,
    "condemned": 26056,
    "ulum": 21864,
    "Ġtiara": 26411,
    "multiple": 15111,
    "Ġfingertips": 24012,
    "Ġmanly": 22324,
    "Ġdarted": 4757,
    "verd": 21728,
    "what": 643,
    "pred": 2800,
    "secre": 18128,
    "tete": 10728,
    "Ġeach": 891,
    "Ġmove": 5105,
    "Ġarisen": 11748,
    "strongly": 24676,
    "Ġbillows": 7504,
    "Ġsmote": 18578,
    "miles": 10708,
    "Ġunt": 2295,
    "Ġannouncement": 14827,
    "Ġelix": 22645,
    "mens": 20967,
    "Ġexhib": 6351,
    "igan": 21699,
    "lers": 10103,
    "Ġbuttoning": 17236,
    "Ġmaterially": 12197,
    "Ġ30": 10508,
    "surround": 16759,
    "arman": 11597,
    "rooms": 10427,
    "Ġdistinguished": 8275,
    "Ġdoes": 942,
    ",--âĢľ": 19202,
    "tumultuously": 25608,
    "Ġstam": 18069,
    "Ġgrowing": 6753,
    "Ġfishing": 9658,
    "Ġsmokes": 22561,
    "Ġassuring": 13071,
    "Ġstun": 11653,
    "hecy": 21204,
    "Ġdistricts": 20263,
    "Ġelud": 22644,
    "intellig": 5318,
    "rushing": 10015,
    "Ġswift": 3672,
    "Ġphenomenon": 17914,
    "longing": 23717,
    "Ġinquiry": 6484,
    "Ġhealth": 3906,
    "wedding": 12527,
    "according": 12032,
    "Ġevery": 926,
    "Ġepistle": 24905,
    "riety": 12751,
    "Ġbearded": 15728,
    "?_âĢĿ": 12320,
    "Ġknife": 7311,
    "Ġdesolate": 10010,
    "Ġcaves": 15554,
    "snowy": 20283,
    "Ġenjoy": 3761,
    "loud": 11497,
    "handle": 11184,
    "Ġwearer": 21924,
    "Ġswallowed": 7944,
    "Ġforgotten": 5681,
    "explanations": 25234,
    "Ġmelancholy": 5607,
    "Ġsixteen": 8286,
    "Ġmanip": 8871,
    "enge": 21278,
    "Ġunfortunate": 5374,
    "Ġ1950": 11354,
    "Ġreveries": 11343,
    "¹": 122,
    "Ġtenement": 23540,
    "Ġpals": 13924,
    "Ġcasked": 24489,
    "Ġoverwhel": 8198,
    "Ġflowers": 8938,
    "Ġmanufact": 22328,
    "advise": 24211,
    "Ġlinn": 13958,
    "sacred": 17029,
    "pardon": 10062,
    "akness": 14198,
    "Ġheld": 3590,
    "Ġfrankly": 16747,
    "explain": 1479,
    "Ġprejudiced": 24806,
    "Ġtraged": 9349,
    "overspreading": 26136,
    "Ġprotecting": 24678,
    "accents": 19215,
    "inferences": 17737,
    "Ġovertaken": 18425,
    "beware": 16043,
    "whether": 5317,
    "Ġoaths": 13531,
    "eline": 2453,
    "Ġpasseng": 12979,
    "Ġpositively": 13038,
    "Ġtwelfth": 22678,
    "Ġcontext": 1726,
    "Ġalgorithms": 835,
    "Ġmich": 21303,
    "Ġdusting": 24587,
    "Ġmeditating": 20045,
    "Ġshabby": 14115,
    "Ġwritten": 4168,
    "Ġclaws": 15976,
    "Ġgateway": 24799,
    "Ġ0": 1898,
    "Ġlady": 1585,
    "Ġclimes": 12851,
    "Ġstrange": 2273,
    "Ġboat": 1280,
    "Ġendurance": 23134,
    "anxiously": 15114,
    "Ġascent": 19624,
    "Ġbits": 11590,
    "Ġdoleful": 18378,
    "suffer": 24319,
    "Ġoutward": 7904,
    "Ġbriony": 9327,
    "Ġscreen": 17206,
    "Ġsporty": 19893,
    "Ġacqu": 1417,
    "Ġliving": 3056,
    "towards": 5003,
    "ane": 1177,
    "Ġprinciples": 10008,
    "Ġderivative": 2992,
    "flagged": 23966,
    "Ġrheum": 18215,
    "present": 1139,
    "acetty": 24456,
    "Ġgrop": 12672,
    "Ġpython": 1068,
    "Ġrestrain": 8962,
    "iar": 2376,
    "Ġtrad": 9825,
    "Ġhatty": 19137,
    "Ġblinds": 8008,
    "che": 3170,
    "Ġstature": 10857,
    "Ġmarlings": 23036,
    "instinct": 19548,
    "supers": 22633,
    "Ġstay": 3087,
    "office": 16392,
    "Ġpaltry": 16692,
    "Ġspread": 5158,
    "Ġhauled": 11699,
    "Ġdiscriminative": 4326,
    "Ġfine": 1319,
    "Ġshud": 5459,
    "Ġenthr": 22744,
    "ugal": 19023,
    "Ġforecastle": 5493,
    "umberland": 16836,
    "Ġfright": 3797,
    "Ġharness": 17927,
    "insanity": 23067,
    "Ġphotograph": 6304,
    "Ġtin": 15463,
    "Ġdome": 15589,
    "Ġdisasters": 16058,
    "Ġdeformity": 11679,
    "Ġdard": 21419,
    "Ġconception": 10309,
    "bout": 20774,
    "Ġstarlight": 24617,
    "heavily": 24523,
    "Ġlooking": 2473,
    "obed": 14452,
    "Ġgemin": 21608,
    "animation": 16978,
    "Ġpromethe": 14473,
    "vard": 21108,
    "Ġfrog": 23916,
    "Ġber": 5701,
    "Ġprovincial": 20649,
    "Ġinterposed": 20619,
    "Ġswells": 9824,
    "Ġdisgra": 18550,
    "bears": 22491,
    "Ġcub": 8414,
    "Ġcurvature": 3577,
    "engaged": 7454,
    "talk": 6658,
    "ostentatious": 20651,
    "Ġmentioned": 4328,
    "Ġbar": 3145,
    "ena": 11567,
    "Ġenig": 15800,
    "Ġmodern": 3213,
    "baron": 24926,
    "closed": 23151,
    "rayed": 23557,
    "Ġoutput": 928,
    "Ġscound": 12839,
    "Ġdraught": 9841,
    "herfield": 3634,
    "Ġboth": 1652,
    "Ġinjunction": 19623,
    "Ġcocaine": 20721,
    "resting": 23232,
    "Ġawkward": 7077,
    "system": 3798,
    "Ġraise": 6168,
    "contact": 23719,
    "sies": 21052,
    "Ġcoolly": 9768,
    "Ġbespeaking": 26307,
    "Ġ37": 24072,
    "ails": 6162,
    "joke": 20929,
    "Ġdivert": 23587,
    "Ġwithdrawn": 10602,
    "Ġbrewed": 23340,
    "hit": 20888,
    "Ġvariation": 22665,
    "Ġriots": 23886,
    "fowl": 17549,
    "Ġboa": 22637,
    "Ġmagnanim": 14479,
    "Ġcott": 3710,
    "Ġgrinned": 16856,
    "Ġcommanded": 6332,
    "bucket": 17495,
    "poster": 11052,
    "res": 2758,
    "Ġinsult": 6750,
    "geor": 15979,
    "Ġlandsmen": 11346,
    "Ġimpotently": 22390,
    "Ġinestim": 15624,
    "Ġvertu": 23884,
    "Ġzones": 22818,
    "Ġenvirons": 13194,
    "sculptured": 26042,
    "Ġling": 7379,
    "cure": 11469,
    "phys": 18723,
    "Ġtranslates": 12055,
    "Ġcounting": 13103,
    ";âĢĻ": 15307,
    "Ġarguments": 8037,
    "whalebone": 19120,
    "opes": 10306,
    "Ġaffl": 14393,
    "isely": 4490,
    "Ġunreasoning": 15846,
    "Ġmightier": 18733,
    "Ġcinque": 20487,
    "Ġundet": 16702,
    "surv": 24207,
    "contempl": 13198,
    "Ġexpand": 9304,
    "Ġcontinues": 18812,
    "resist": 8279,
    "pedest": 24823,
    "frame": 17117,
    "Ġcliffs": 15977,
    "esting": 7413,
    "Ġprodig": 6031,
    "Ġelig": 9775,
    "Ġparr": 22120,
    "carriage": 9943,
    "empty": 23626,
    "Ġflattened": 26043,
    "Ġstag": 6150,
    "Ġfierce": 7438,
    "gus": 13732,
    "Ġmrs": 1466,
    "Ġwaiting": 4323,
    "Ġpacket": 14899,
    "dock": 16417,
    "Ġpencils": 23191,
    "biscuit": 17502,
    "merc": 19281,
    "Ġwretchedness": 9024,
    "Ġ108": 19689,
    "Ġdecency": 18482,
    "Ġnonsense": 6986,
    "Ġinexorable": 12260,
    "Ġpressed": 6045,
    "Ġinquire": 7722,
    "Ġbrougham": 17870,
    "Ġcelestial": 10064,
    "Ġcreation": 6438,
    "learnt": 23544,
    "Ġfe": 491,
    "affect": 13219,
    "painting": 17046,
    "Ġelev": 5534,
    "Ġinsulated": 23671,
    "Ġ26": 10466,
    "Ġdismast": 12895,
    "cim": 8720,
    "Ġwing": 6667,
    "combe": 7664,
    "Ġmusket": 12300,
    "Ġcorners": 18878,
    "declare": 25173,
    "astrous": 15887,
    "Ġsalmon": 24057,
    "Ġhurtling": 24962,
    "pressed": 6589,
    "Ġtrains": 10941,
    "married": 9946,
    "entreat": 17976,
    "Ġstaves": 21742,
    "Ġmorrow": 9341,
    "Ġtrifles": 16950,
    "Ġhold": 2244,
    "Ġhey": 11644,
    "Ġfinery": 23123,
    "oded": 11672,
    "Ġxxxii": 24975,
    "Ġmiser": 18705,
    "Ġfidget": 15194,
    "elt": 4116,
    "iform": 2201,
    "Ġopposition": 16520,
    "prejud": 11802,
    "Ġmentioning": 9896,
    "ativeness": 15521,
    "Ġgale": 5825,
    "cour": 4481,
    "Ġlexic": 15719,
    "fates": 20857,
    "Ġcologne": 12983,
    "sacrifice": 13500,
    "ĠĠĠĠĠĠĠĠĠĠĠĠĠĠĠĠĠĠĠĠĠĠĠĠĠĠĠĠĠĠĠĠĠĠ": 14618,
    "Ġuncouth": 14552,
    "Ġargemone": 24268,
    "Ġglorious": 11069,
    "cheap": 23798,
    "Ġjunks": 25117,
    "Ġmocking": 23997,
    "Ġtend": 6122,
    "Ġrecur": 1617,
    "Ġcet": 6671,
    "Ġtener": 21162,
    "Ġreced": 15694,
    "Ġmanhandle": 22329,
    "bale": 20775,
    "Ġscrewed": 15124,
    "assure": 9267,
    "Ġtransf": 22442,
    "ott": 1869,
    "Ġinvited": 6906,
    "Ġtype": 2022,
    "Ġhazarded": 25650,
    "Ġshouted": 5346,
    "Ġaudacious": 13468,
    "ifference": 5633,
    "Ġperfectly": 3702,
    "Ġdenomin": 12072,
    "Ġarmies": 16494,
    "tish": 17675,
    "Ġauthent": 14508,
    "Ġvigilance": 12375,
    "Ġgraces": 18226,
    "Ġadroop": 25997,
    "Ġtoken": 2039,
    "Ġrese": 2210,
    "Ġpeleg": 3740,
    "Ġparagraph": 17456,
    "Ġspermaceti": 8965,
    "Ġanimal": 2499,
    "Ġchased": 8861,
    "Ġsweetness": 9444,
    "Ġnile": 21518,
    "Ġloaf": 15873,
    "orters": 21397,
    "Ġcrippled": 25276,
    "walk": 5521,
    "Ġresign": 18566,
    "substance": 15236,
    "gang": 17553,
    "ara": 12614,
    "mir": 20961,
    "Ġatlantic": 7003,
    "Ġglaring": 11914,
    "Ġaggregated": 25674,
    "Ġburnished": 23954,
    "Ġbutts": 15856,
    "Ġcomplaisance": 19453,
    "Ġintolerably": 15830,
    "direct": 12462,
    "Ġdoublo": 6081,
    "Ġgryphon": 4298,
    "Ġmasks": 23322,
    "Ġgenerously": 22401,
    "Ġ181": 23890,
    "sive": 4144,
    "plete": 10913,
    "Ġweighed": 8711,
    "Ġeddystone": 25731,
    "Ġlieu": 19571,
    "volume": 18604,
    "Ġtokens": 1772,
    "Ġsentinel": 26061,
    "Ġintricacies": 15142,
    "Ġyounge": 16291,
    "lung": 17591,
    "Ġshortened": 23476,
    "Ġcomforts": 14698,
    "Ġgained": 4535,
    "Ġparsee": 6411,
    "dearest": 11740,
    "claimed": 9833,
    "Ġserpents": 13083,
    "Ġenlist": 21937,
    "Ġfors": 21772,
    "Ġsmoky": 22560,
    "Ġ1839": 20461,
    "Ġbutler": 18271,
    "Ġranks": 21976,
    "confined": 24318,
    "dept": 12807,
    "Ġtravelling": 11303,
    "Ġchat": 6417,
    "Ġringed": 16752,
    "Ġconfronted": 23304,
    "Ġtuples": 13485,
    "Ġspringing": 10515,
    "Ġai": 3125,
    "Ġeel": 18002,
    "Ġabandonment": 25598,
    "otent": 8832,
    "fif": 9114,
    "Ġlombardy": 26459,
    "irwin": 8470,
    "precision": 4330,
    "gins": 12474,
    "Ġinsip": 19268,
    "Ġuncivilized": 25494,
    "Ġdedu": 5584,
    "englishman": 23665,
    "Ġbit": 2958,
    "Ġcomplicated": 14742,
    "olds": 9308,
    "Ġvicissitudes": 12422,
    "anoke": 21359,
    "Ġgenteel": 19984,
    "Ġencourage": 10376,
    "Ġtreasures": 17047,
    "consternation": 16911,
    "cloudless": 20331,
    "Ġguessed": 11278,
    "Ġspears": 12933,
    "Ġcobweb": 22582,
    "Ġcrests": 25681,
    "Ġbund": 17864,
    "Ġsiam": 13845,
    "coun": 10683,
    "acity": 5738,
    "Ġformidable": 8224,
    "mency": 18930,
    "misery": 13352,
    "Ġpreach": 14176,
    "beaut": 8514,
    "asp": 3341,
    "moonlight": 25372,
    "Ġdeactivates": 20704,
    "Ġillustrate": 25071,
    "Ġspoutings": 14680,
    "Ġoblique": 20170,
    "Ġobsc": 7043,
    "single": 10122,
    "Ġfurnished": 6475,
    "Ġmamma": 10045,
    "Ġflogged": 23616,
    "Ġimparted": 15989,
    "Ġpredicted": 2045,
    "blot": 20784,
    "Ġindestructible": 26568,
    "Ġwest": 5216,
    "initions": 21185,
    "buoy": 7763,
    "erity": 21265,
    "Ġcorrespondence": 10590,
    "fleece": 19951,
    "Ġcouch": 12578,
    "trad": 21073,
    "Ġgeorgiana": 8626,
    "finally": 9496,
    "Ġdropped": 4473,
    "destined": 24108,
    "Ġpot": 2983,
    "Ġconfirmed": 11134,
    "heavy": 10571,
    "Ġ1991": 3011,
    "Ġnowhere": 12893,
    "favouring": 24755,
    "Ġcome": 1245,
    "Ġpatagonia": 25820,
    "yours": 7698,
    "sincere": 16906,
    "ource": 5241,
    "ingolstadt": 21301,
    "Ġincredible": 9513,
    "Ġdetection": 3188,
    "Ġrevived": 11363,
    "Ġmethodology": 2466,
    "Ġtechniques": 2864,
    "luc": 9749,
    "Ġugly": 8716,
    "attered": 4018,
    "youth": 11881,
    "bright": 8987,
    "gia": 20875,
    "Ġrele": 2914,
    "exp": 2736,
    "asible": 21540,
    "Ġhearken": 21685,
    "Ġpreced": 6043,
    "Ġcursory": 18852,
    "Ġends": 8240,
    "itect": 967,
    "perhaps": 4122,
    "Ġfluke": 14678,
    "imprisonment": 23752,
    "tone": 8763,
    "Ġdisinterested": 16061,
    "where": 2091,
    "mn": 3580,
    "ones": 2741,
    "Ġliber": 5165,
    "Ġsprain": 18305,
    "constellation": 24598,
    "Ġalt": 18099,
    "Ġmantle": 25272,
    "iqu": 7805,
    "Ġcheers": 16368,
    "ren": 550,
    "Ġnative": 4639,
    "Ġbackpropagation": 1250,
    "Ġdirectors": 18925,
    "Ġrelics": 16198,
    "Ġdivineness": 25719,
    "Ġattacked": 10564,
    "chat": 21686,
    "Ġtorment": 8674,
    "Ġdrab": 13077,
    "Ġspaniard": 20365,
    "Ġfalsely": 20582,
    "Ġblu": 2687,
    "Ġliterary": 25165,
    "attering": 17772,
    "Ġpractised": 23298,
    "Ġvicious": 24394,
    "attempts": 17192,
    "years": 6887,
    "Ġneighbor": 25801,
    "ld": 384,
    "Ġlately": 6385,
    "Ġfordham": 21777,
    "Ġmurder": 4279,
    "Ġhushed": 13931,
    "Ġdri": 2362,
    "Ġattested": 22619,
    "Ġslight": 3116,
    "Ġjumped": 7100,
    "Ġavoid": 5196,
    "Ġgallon": 24179,
    "Ġobsole": 22698,
    "Ġassisting": 13265,
    "Ġgraves": 11713,
    "Ġhaw": 10247,
    "Ġ}": 21151,
    "Ġangle": 8604,
    "ignomin": 23262,
    "Ġdiction": 8795,
    "bidden": 19741,
    "hoisted": 19283,
    "Ġtransparency": 10672,
    "solitary": 14510,
    "Ġlife": 1352,
    "Ġsatisfied": 4173,
    "ceased": 21624,
    "Ġalco": 21783,
    "Ġjoyous": 14668,
    "awing": 18919,
    "Ġsuffoc": 18874,
    "telling": 14446,
    "Ġfriends": 2655,
    "Ġreception": 9836,
    "Ġscand": 7204,
    "lue": 8510,
    "establishment": 26110,
    "Ġforgiveness": 16658,
    "Ġcolleague": 17161,
    "Ġembarrassed": 11379,
    "received": 9635,
    "Ġclimbing": 20073,
    "kinder": 24846,
    "mortar": 25405,
    "Ġwarehouse": 20418,
    "Ġbeaut": 2392,
    "antages": 7193,
    "Ġspl": 2978,
    "qualities": 25046,
    "ggling": 19098,
    "Ġdecided": 5469,
    "Ġinit": 819,
    "brows": 17498,
    "Ġdz": 4755,
    "een": 727,
    "yes": 986,
    "draw": 23894,
    "Ġinvaders": 23474,
    "ella": 12755,
    "Ġconsideration": 5188,
    "Ġdeploy": 2803,
    "Ġfidel": 12604,
    "Ġperturbation": 20442,
    "Ġepit": 18007,
    "nns": 1889,
    "Ġprivileged": 20114,
    "Ġnotwithstanding": 9710,
    "Ġbarbs": 10528,
    "floated": 24632,
    "itch": 10157,
    "Ġillustration": 19139,
    "Ġwhites": 21717,
    "Ġson": 2977,
    "Ġbottles": 16571,
    "Ġunidirectional": 3428,
    "Ġreluctant": 20526,
    "Ġcousins": 9912,
    "derest": 18314,
    "Ġstrugg": 3219,
    "Ġresolving": 9416,
    "Ġstages": 14010,
    "Ġabsolute": 6767,
    "Ġmusky": 19386,
    "easy": 9590,
    "Ġstandard": 14501,
    "Ġcharing": 14184,
    "Ġcorruption": 15230,
    "oard": 4808,
    "Ġcatching": 9476,
    "Ġsphere": 15883,
    "Ġtug": 11548,
    "Ġreplace": 14482,
    "ernity": 18612,
    "Ġgreen": 3046,
    "Ġmak": 10774,
    "Ġdot": 4820,
    "Ġindividually": 22955,
    "Ġsnow": 3708,
    "Ġhonourable": 10452,
    "Ġabating": 22267,
    "houn": 20892,
    "mm": 676,
    "Ġhostile": 19943,
    "gale": 13731,
    "Ġqueerest": 16413,
    "pp": 385,
    "inqu": 6123,
    "Ġwolfish": 25931,
    "maybe": 23986,
    "Ġpower": 1231,
    "Ġplot": 14283,
    "emed": 3383,
    "Ġsunday": 7271,
    "wam": 10131,
    "Ġhinges": 15217,
    "Ġmiscell": 16151,
    "Ġnantucket": 2835,
    "Ġevolve": 2995,
    "Ġ42": 16679,
    "Ġutility": 23509,
    "Ġsuspended": 5667,
    "Ġshame": 6408,
    "Ġworlds": 11951,
    "muring": 17601,
    "Ġmidst": 7986,
    "limbs": 20192,
    "Ġperturbed": 20441,
    "Ġhotel": 8651,
    "Ġyarns": 15200,
    "Ġmuslin": 19387,
    "Ġflood": 7718,
    "Ġassented": 17341,
    "Ġunsuccessful": 18255,
    "Ġincreases": 3796,
    "Ġexcuse": 5864,
    "obser": 11093,
    "Ġjealous": 9466,
    "wont": 21130,
    "iamond": 14595,
    "loved": 14255,
    "Ġsemicirc": 16389,
    "dining": 13713,
    "Ġcoopman": 25823,
    "sustained": 20568,
    "brilliancy": 26074,
    "Ġflint": 23009,
    "ogr": 18674,
    "Ġdarkened": 16431,
    "Ġembark": 8558,
    "leag": 21364,
    "s": 87,
    "Ġobject": 1395,
    "Ġchivalrous": 20515,
    "accepting": 20136,
    "ric": 1377,
    "pon": 17625,
    "ressing": 8917,
    "Ġsickle": 24239,
    "building": 17312,
    "Ġinconsistency": 26180,
    "Ġpunctually": 17140,
    "Ġannounce": 13333,
    "Ġuninhabited": 22048,
    "Ġapproximation": 2341,
    "Ġwhims": 12700,
    "Ġhar": 5818,
    "erer": 8732,
    "Ġtars": 21163,
    "Ġindicates": 3196,
    "odecimoes": 25316,
    "Ġlistening": 6320,
    "lop": 20947,
    "neglect": 25664,
    "Ġsentry": 19027,
    "chiefly": 14854,
    "Ġadmirers": 19691,
    "Ġlamented": 24996,
    "relate": 24006,
    "Ġspite": 4156,
    "Ġhaven": 8475,
    "Ġbawling": 25941,
    "ssed": 3735,
    "Ġdisputes": 25822,
    "Ġsun": 1719,
    "further": 7537,
    "Ġunrestrained": 25550,
    "Ġpassions": 7930,
    "lo": 681,
    "destroyed": 15265,
    "fters": 20859,
    "stepfather": 19195,
    "ondon": 2705,
    "Ġezekiel": 26190,
    "Ġlift": 8811,
    "emph": 21927,
    "ouncement": 11750,
    "iel": 11490,
    "Ġdusky": 13556,
    "Ġbeasts": 10613,
    "actions": 8905,
    "Ġimpat": 4457,
    "Ġwounding": 19592,
    "Ġpounds": 5366,
    "sided": 17662,
    "hess": 4746,
    "Ġhertfordshire": 5375,
    "Ġperception": 9747,
    "boats": 6206,
    "Ġcritics": 23437,
    "Ġmincer": 14373,
    "Ġvanquished": 22876,
    "anity": 9651,
    "etian": 13964,
    "Ġcetacean": 25874,
    "fulfil": 16039,
    "Ġunreliable": 3930,
    "Ġreality": 7061,
    "Ġtowers": 16740,
    "soon": 4027,
    "harpoons": 24277,
    "Ġwhisky": 23928,
    "bies": 15317,
    "Ġign": 8298,
    "inquiries": 13584,
    "Ġmisfortunes": 7045,
    "Ġtransparen": 10538,
    "irement": 18356,
    "retired": 11940,
    "Ġasiatics": 20432,
    "jammed": 25902,
    "Ġaddressed": 5260,
    "Ġmundane": 26425,
    "pres": 16032,
    "Ġdescent": 981,
    "Ġdemon": 7870,
    "male": 15389,
    "Ġagain": 815,
    "prejudice": 25568,
    "convinced": 10618,
    "uger": 21101,
    "Ġincome": 7918,
    "Ġcustom": 5077,
    "ĠĠĠĠĠĠĠĠĠĠĠĠĠĠĠĠĠĠĠĠĠĠĠĠĠĠĠĠĠĠĠĠĠĠĠĠĠĠĠĠĠĠĠĠĠĠĠĠĠĠĠĠĠ": 20042,
    "trunk": 23942,
    "Ġsqualls": 17021,
    "Ġcounter": 6481,
    "Ġsoftened": 11096,
    "carb": 20810,
    "Ġwouldn": 6049,
    "regular": 3036,
    "Ġknowledge": 1445,
    "thine": 15825,
    "Ġarithmetic": 18344,
    "vocabulary": 25089,
    "Ġstreams": 12198,
    "Ġsallies": 21227,
    "rid": 5135,
    "Ġgreenhorn": 23758,
    "Ġsentiment": 6590,
    "Ġadjusted": 23452,
    "ieve": 1655,
    "Ġsom": 1278,
    "Ġreasonably": 11084,
    "Ġliar": 22408,
    "Ġsolemnly": 8024,
    "Ġturning": 3327,
    "Ġrad": 4962,
    "Ġes": 8770,
    "amongst": 24664,
    "Ġcandles": 9905,
    "dening": 22777,
    "length": 7137,
    "Ġwhales": 1827,
    "Ġbelfry": 26434,
    "Ġflo": 2590,
    "decease": 25553,
    "hom": 12479,
    "Ġoverspread": 14206,
    "Ġpalpable": 15210,
    "Ġundo": 15841,
    "Ġcharge": 5324,
    "Ġcro": 4871,
    "weep": 22684,
    "Ġic": 9622,
    "Ġdelicious": 14801,
    "Ġfeared": 5935,
    "Ġensued": 11389,
    "Ġdeceitful": 25728,
    "horn": 8086,
    "Ġaisle": 21199,
    "chapter": 1405,
    "iour": 4036,
    "Ġprecipitate": 19945,
    "Ġinside": 5446,
    "itous": 13874,
    "Ġmicrosc": 20677,
    "Ġschoolmaster": 16861,
    "Ġrevolve": 19734,
    "Ġcorrectly": 9401,
    "osing": 3691,
    "bitious": 16671,
    "as": 302,
    "Ġinglorious": 24415,
    "Ġovers": 14205,
    "heart": 4526,
    "Ġhil": 10816,
    "Ġindelible": 25690,
    "Ġimposing": 11786,
    "lucases": 20210,
    "fe": 673,
    "Ġdistrict": 10314,
    "europe": 20666,
    "Ġregretted": 13407,
    "fortunate": 4790,
    "odecimo": 11439,
    "Ġefforts": 11810,
    "Ġuncl": 22013,
    "Ġterrors": 6921,
    "Ġfancy": 3747,
    "table": 5798,
    "Ġdeceit": 13489,
    "cherish": 24541,
    "Ġwondered": 11119,
    "Ġstake": 14009,
    "doublo": 24649,
    "burgh": 6775,
    "wherefore": 19110,
    "uc": 1873,
    "enial": 17779,
    "gressive": 2752,
    "Ġunrecord": 16621,
    "sax": 21054,
    "secure": 12240,
    "inkled": 5476,
    "rine": 21035,
    "Ġproblem": 1274,
    "determination": 19948,
    "Ġfirmness": 11232,
    "Ġscrolled": 22284,
    "Ġunworth": 22033,
    "Ġinvariable": 13464,
    "Ġtoil": 6533,
    "isticated": 1674,
    "hatred": 24718,
    "Ġlust": 9194,
    "Ġche": 1762,
    "humoured": 11230,
    "suspect": 9538,
    "iam": 2509,
    "Ġorganizations": 12318,
    "Ġanywhere": 8518,
    "F": 42,
    "Ġcalm": 3450,
    "Ġbonds": 17869,
    "neither": 9754,
    "squeezing": 25909,
    "Ġpoles": 10996,
    "Ġincurable": 22554,
    "Ġinjurious": 24264,
    "Ġforwards": 12711,
    "Ġmabel": 17327,
    "followed": 8341,
    "Ġgazing": 5879,
    "iforn": 14068,
    "Ġadapts": 3818,
    "Ġmeridians": 17359,
    "Ġdrank": 16535,
    "Ġmustard": 12937,
    "Ġfeat": 10931,
    "Ġwafted": 14543,
    "msgate": 18412,
    "Ġassures": 14471,
    "ryder": 18641,
    "concerted": 16673,
    "Ġdisquis": 22528,
    "tackles": 25620,
    "Ġannealing": 1553,
    "inent": 9625,
    "Ġancestors": 25638,
    "Ġhorizontally": 17014,
    "Ġappropri": 2228,
    "superior": 9523,
    "Ġprobability": 1128,
    "Ġrequiring": 2918,
    "Ġbuff": 9169,
    "Ġregent": 18596,
    "mblings": 19783,
    "Ġtea": 5040,
    "Ġrelevance": 5181,
    "Ġimmortal": 8019,
    "Ġequival": 4782,
    "blue": 13701,
    "Ġagitated": 7650,
    "Ġmeditation": 16706,
    "Ł": 258,
    "Ġgrow": 2857,
    "Ġsacrific": 15022,
    "Ġserves": 4667,
    "questions": 16761,
    "Ġexig": 21827,
    "Ġmatch": 4529,
    "stun": 18016,
    "keel": 14132,
    "uff": 2730,
    "inkers": 22613,
    "Ġmac": 15538,
    "Ġadv": 1137,
    "ulpt": 10880,
    "Ġconsistence": 23350,
    "indust": 18436,
    "operations": 19978,
    "rusted": 16507,
    "ontory": 10455,
    "ipelagoes": 13680,
    "ispensable": 9094,
    "net": 1196,
    "Ġoutputs": 2883,
    "oker": 10957,
    "entitled": 21566,
    "ituted": 13880,
    "Ġdents": 13917,
    "aph": 10948,
    "Ġnoises": 18375,
    "Ġkeenly": 9483,
    "neys": 23576,
    "Ġtissu": 25916,
    "Ġmowers": 17813,
    "airs": 2222,
    "flames": 14718,
    "Ġprincess": 23219,
    "between": 5070,
    "encountered": 20394,
    "Ġsweet": 3468,
    "Ġicy": 10743,
    "Ġchin": 4889,
    "Ġsprinkled": 19502,
    "Ġfris": 23251,
    "Ġconvince": 14644,
    "Ġprevious": 2088,
    "Ġsurmis": 23458,
    "Ġmons": 10153,
    "Ġinsupportable": 13938,
    "Ġiroqu": 21622,
    "Ġinstantly": 3596,
    "Ġthoughtless": 16195,
    "Ġbrit": 6291,
    "Ġapproach": 870,
    "Ġvarying": 15811,
    "Ġmetrics": 19073,
    "Ġdeified": 18143,
    "Ġbestowing": 16970,
    "ieth": 10699,
    "Ġlament": 7857,
    "franch": 24276,
    "Ġbohem": 8527,
    "Ġtread": 9406,
    "Ġsingular": 4424,
    "Ġwand": 4341,
    "ension": 6570,
    "Ġfathom": 17048,
    "susceptible": 24650,
    "Ġobservant": 20111,
    "mira": 20977,
    "Ġbaker": 4694,
    "Ġsubdued": 11026,
    "Ġreasons": 6023,
    "Ġrel": 1096,
    "during": 6789,
    "Ġlighted": 7066,
    "approaching": 15016,
    "Ġpopularly": 12246,
    "respect": 6374,
    "Ġmemory": 2275,
    "Ġstabbed": 25452,
    "Ġimpute": 18332,
    "Ġcra": 2332,
    "Ġparlour": 12325,
    "Ġmedicine": 15211,
    "onde": 21249,
    "Ġlime": 13953,
    "erick": 13855,
    "Ġafford": 4366,
    "hau": 17562,
    "Ġferrule": 24509,
    "frozen": 25141,
    "ellent": 3762,
    "Ġbred": 9166,
    "Ġupdating": 2691,
    "shel": 11934,
    "Ġmoon": 4608,
    "Ġgash": 15673,
    "Ġreck": 6539,
    "Ġsuperstitions": 17072,
    "sue": 2076,
    "Ġjackal": 24233,
    "Ġletters": 3793,
    "Ġgave": 2218,
    "tem": 6369,
    "Ġrevenge": 5450,
    "Ġviewed": 10458,
    "Ġplanning": 14759,
    "Ġtiar": 21166,
    "nour": 20986,
    "too": 4508,
    "Ġbachel": 7160,
    "Ġexpense": 7654,
    "iot": 9598,
    "Ġveritable": 19385,
    "published": 26139,
    "olly": 3227,
    "manners": 16187,
    "reason": 4415,
    "Ġencl": 16169,
    "Ġow": 8408,
    "allies": 14169,
    "Ġcondescend": 19958,
    "Ġliking": 23585,
    "bl": 4142,
    "Ġcatches": 23422,
    "Ġgrapp": 14105,
    "oke": 1857,
    "ahead": 12438,
    "Ġbingley": 1670,
    "wrote": 11544,
    "Ġjungfrau": 15253,
    "antage": 3880,
    "impressions": 20699,
    "Ġlike": 668,
    "pond": 21010,
    "anxious": 15113,
    "Ġvigorously": 11295,
    "Ġfather": 1451,
    "Ġperils": 6274,
    "osity": 14189,
    "Ġthack": 21514,
    "Ġcovering": 13263,
    "Ġarve": 15898,
    "Ġanyways": 22520,
    "egypt": 15353,
    "ateg": 1354,
    "upon": 2721,
    "Ġseparate": 5781,
    "ided": 2783,
    "aut": 1907,
    "Ġshout": 4263,
    "discern": 14858,
    "reply": 19727,
    "Ġsweating": 16465,
    "Ġfellow": 2774,
    "Ġencapsulate": 13683,
    "nameless": 19906,
    "Ġdiscoursing": 26263,
    "Ġbursting": 8656,
    "Ġbomb": 17867,
    "Ġsacr": 7195,
    "Ġiron": 3236,
    "umps": 6319,
    "Ġturtle": 4206,
    "jumped": 20246,
    "Ġnosegay": 24187,
    "sofa": 26143,
    "Ġjinglers": 26014,
    "acetti": 13403,
    "Ġstow": 21734,
    "magnet": 14974,
    "Ġtistig": 26409,
    "lace": 13755,
    "Ġ92": 24581,
    "ively": 1321,
    "Ġafrican": 20138,
    "Ġparlor": 13546,
    "Ġsoapstone": 20511,
    "Ġcharmingly": 24215,
    "Ġappals": 22222,
    "Ġlysander": 13146,
    "Ġmultiplied": 23681,
    "makers": 20980,
    "Ġvale": 14086,
    "Ġstanding": 2991,
    "Ġmann": 18417,
    "draul": 9441,
    "Ġspine": 7409,
    "perai": 10271,
    "Ì": 141,
    "Ġseren": 7403,
    "ately": 1733,
    "Ġindomitableness": 26567,
    "lowering": 16033,
    "Ġahoy": 12189,
    "acet": 5475,
    "Ġjoy": 3183,
    "Ġasph": 21899,
    "Ġjealousy": 13583,
    "Ġmarched": 18875,
    "Ġrenewing": 19811,
    "likeness": 19483,
    "Ġweak": 5096,
    "Ġnaval": 16898,
    "Ġdams": 16454,
    "Ġoriginally": 7307,
    "ocratic": 17245,
    "ĠĠĠĠĠĠĠĠĠĠĠĠĠĠĠĠĠĠĠĠĠĠĠĠĠĠĠĠĠĠĠĠĠĠĠĠ": 23651,
    "orrowed": 19291,
    "Ġfootpaths": 26315,
    "Ġunion": 6842,
    "cially": 3491,
    "shoulder": 16584,
    "ounce": 6559,
    "Ġoverseeing": 22350,
    "Ġchase": 3946,
    "Ġannals": 19555,
    "Ġlargest": 6284,
    "Ġboast": 7038,
    "Ġrepairs": 19084,
    "Ġgomorrah": 21613,
    "Ġdonkey": 23224,
    "Ġemperor": 15163,
    "Ġtenderly": 11310,
    "mblance": 7325,
    "Ġindist": 14415,
    "ev": 6956,
    "Ġremained": 3138,
    "Ġupdate": 2461,
    "Ġsneeze": 24689,
    "Ġsto": 1498,
    "conjectured": 25181,
    "Ġcharley": 19009,
    "remarks": 23185,
    "Ġattics": 22618,
    "commission": 22809,
    "Ġmeanings": 18606,
    "Ġgrandfather": 19426,
    "Ġmish": 15537,
    "reflection": 13463,
    "wond": 8769,
    "Ġexcluded": 16384,
    "Ġunable": 4951,
    "apsed": 6297,
    "Ġstepfather": 7222,
    "thinness": 25806,
    "Ġaudibly": 24764,
    "Ġprivileges": 25134,
    "¤": 102,
    "Ġvulture": 17342,
    "ainty": 21788,
    "Ġmuster": 16125,
    "omon": 10204,
    "hastening": 24440,
    "Ġdetected": 18815,
    "Ġsell": 7827,
    "Ġleghorn": 13153,
    "oll": 5454,
    "compliment": 11359,
    "chose": 18041,
    "vel": 2382,
    "Ġbore": 5078,
    "Ġwhelm": 25994,
    "Ġhorses": 6383,
    "ories": 4752,
    "Ġmonomaniac": 9566,
    "pounds": 21022,
    "children": 9053,
    "Ġinstigated": 18700,
    "Ġrecess": 10841,
    "Ġunsocial": 18254,
    "Ġalluding": 18270,
    "Ġstress": 18070,
    "Ġoptimizers": 18629,
    "Ġceasing": 23747,
    "Ġfacility": 19849,
    "Ġdiscuss": 9472,
    "astonishment": 10027,
    "Ġgerm": 13969,
    "Ġgamesome": 17292,
    "witness": 10032,
    "Ġconfess": 3767,
    "clerval": 7951,
    "Ġconc": 1841,
    "strils": 10454,
    "force": 12967,
    "Ġheadlong": 11894,
    "Ġoverflow": 10287,
    "deceptive": 22150,
    "Ġedd": 8397,
    "Ġbags": 24526,
    "months": 9069,
    "Ġpetersburgh": 24222,
    "beards": 22492,
    "Ġtreats": 19349,
    "Ġtwilight": 16124,
    "Ġ112": 24428,
    "Ġreceive": 4702,
    "spending": 18688,
    "utional": 17984,
    "Ġcompar": 4770,
    "Ġminutes": 2993,
    "Ġseventy": 7881,
    "subst": 12170,
    "q": 85,
    "Ġmythologies": 26211,
    "think": 3612,
    "Ġpositional": 2598,
    "Ġminimum": 23040,
    "Ġadagrad": 2901,
    "Ġpromise": 4199,
    "those": 4496,
    "Ġpairs": 4181,
    "Ġvelocity": 10616,
    "Ġlays": 15990,
    "ange": 1018,
    "ale": 506,
    "boiling": 19003,
    "arrival": 15600,
    "Ġadequate": 20307,
    "try": 7814,
    "sailed": 17664,
    "irra": 15786,
    "Ġambitious": 18513,
    "Ġunctuousness": 17235,
    "Ġinland": 11610,
    "/*": 10068,
    "Ġpurring": 23469,
    "Ġopposite": 5118,
    "conduct": 11803,
    "Ġpork": 21453,
    "Ġlot": 6680,
    "Ġestimates": 3749,
    "Ġq": 1084,
    "inion": 2872,
    "Ġartistic": 18611,
    "Ġpocket": 4896,
    "offic": 7467,
    "wharf": 20606,
    "Ġdishonoured": 20392,
    "Ġturbulence": 26596,
    "Ġpers": 1388,
    "parted": 21013,
    "sheets": 14448,
    "whatsoever": 18488,
    "Ġallude": 12787,
    "hoist": 23704,
    "Ġsooty": 25811,
    "lude": 6163,
    "arab": 21438,
    "browed": 25890,
    "Ġsignificant": 8634,
    "Ġcasket": 19729,
    "Ġ221": 25074,
    "Ġfebruary": 15914,
    "Ġinexpressible": 17336,
    "apothecary": 26541,
    "Ġindisp": 18838,
    "oar": 12503,
    "Ġartificial": 795,
    "spl": 9137,
    "Ġarab": 7825,
    "Ġsecondary": 23327,
    "increas": 10450,
    "subsided": 25828,
    "crews": 15047,
    "inable": 11553,
    "Ġgait": 13340,
    "Ġowest": 25095,
    "iture": 5698,
    "Ġconceive": 8461,
    "ifers": 15783,
    "Ġset": 1176,
    "Ġwithheld": 18115,
    "consid": 4925,
    "Ġbrad": 8787,
    "Ġthine": 7376,
    "Ġpeaks": 16131,
    "Ġinvestigations": 17247,
    "earnestly": 17316,
    "Ġcanoe": 9720,
    "ings": 631,
    "ator": 1921,
    "erable": 1914,
    "Ġevalu": 3103,
    "madness": 14888,
    "Ġmild": 4147,
    "Ġsleeve": 20141,
    "Ġsane": 21219,
    "Ġbashee": 19848,
    "Ġattack": 5477,
    "Ġnarration": 13511,
    "Ġexclam": 6760,
    "annica": 24551,
    "Ġdeb": 4763,
    "Ġsubfield": 11875,
    "Ġimperilled": 19584,
    "Ġspake": 18308,
    "comfort": 5648,
    "isturbed": 18298,
    "Ġgleam": 12312,
    "haired": 14774,
    "Ġcommotion": 9777,
    "bath": 15320,
    "Ġgi": 15668,
    "licted": 20954,
    "Ġph": 1547,
    "magnificent": 20274,
    "Ġunmethodically": 22067,
    "orient": 2875,
    "Ġcertainly": 2498,
    "Ġvisit": 2585,
    "Ġthre": 2059,
    "tic": 8390,
    "Ġfollowed": 1794,
    "favour": 9547,
    "Ġscru": 8193,
    "Ġinch": 7850,
    "Ġmyth": 18221,
    "Ġpuzz": 5531,
    "iscre": 17851,
    "Ġassuredly": 14832,
    "Ġceleb": 20225,
    "poss": 4777,
    "irresist": 21913,
    "Ġcarelessness": 13082,
    "ĠĠĠĠĠĠĠĠĠĠĠĠĠĠĠĠĠ": 22947,
    "Ġlens": 8438,
    "rove": 21530,
    "oury": 22304,
    "constantinople": 25503,
    "lever": 2928,
    "Ġdegener": 14054,
    "Ġbir": 17854,
    "Ġperpendicular": 7210,
    "mopol": 15396,
    "Ġsquaring": 22839,
    "Ġpermission": 9276,
    "Ġaccounting": 14577,
    "400": 20756,
    "Ġpeaceful": 9453,
    "rab": 7600,
    "Ġridiculous": 10625,
    "Ġveget": 11892,
    "Ġweig": 7400,
    "Ġclasses": 4055,
    "entire": 6826,
    "Ġretiring": 16283,
    "stein": 5503,
    "Ġbadge": 16681,
    "Ġhitherto": 5883,
    "Ġlining": 13956,
    "Ġunfinished": 19514,
    "Ġpledged": 20688,
    "Ġbarriers": 23787,
    "Ġlands": 6595,
    "û": 188,
    "Ġsash": 17752,
    "Ġconvict": 23732,
    "accomplishments": 25324,
    "Ġvolition": 14806,
    "Ġtrouble": 3692,
    "Ġconfeder": 25703,
    "leisure": 21369,
    "dilig": 17285,
    "hurst": 19880,
    "Ġquarrelling": 13506,
    "wind": 4251,
    "floating": 12232,
    "Ġunperceived": 22034,
    "Ġ129": 24466,
    "Ġenjoying": 11228,
    "adequ": 11016,
    "Ġcoffin": 4429,
    "Ġstands": 5256,
    "ingly": 2133,
    "onely": 6517,
    "derness": 11742,
    "Ġexalted": 12415,
    "Ġwed": 7578,
    "Ġsummoned": 9908,
    "Ġdu": 4584,
    "Ġdiabolism": 25510,
    "Ġpossessed": 5192,
    "Ġfer": 5624,
    "Ġindecision": 25777,
    "Ġviolation": 23401,
    "Ġrefill": 18702,
    "unted": 7002,
    "Ġtreat": 3175,
    "ulations": 6032,
    "Ġparticle": 18672,
    "Ġdriver": 16476,
    "Ġadded": 2716,
    "seas": 14038,
    "Ġtradesman": 20075,
    "Ġwhitney": 11368,
    "Ġseverity": 15821,
    "Ġrosings": 4607,
    "Ġconvincing": 19308,
    "ulation": 5456,
    "algorith": 3294,
    "Ġverily": 16603,
    "osc": 18388,
    "Ġsheeted": 19831,
    "count": 4213,
    "Ġglimpses": 13440,
    "Ġrecip": 16142,
    "iss": 2177,
    "Ġtrappings": 23081,
    "Ę": 217,
    "Ġrole": 15998,
    "Ġthan": 735,
    "Ġrighted": 23175,
    "sisters": 13091,
    "Ġconfession": 11229,
    "Ġleagues": 9218,
    "Ġhag": 12633,
    "valu": 1715,
    "Ġpost": 4271,
    "freely": 16853,
    "Ġarsac": 11747,
    "Ġpathetic": 18499,
    "miniature": 16766,
    "Ġradiating": 24321,
    "Ġdisconsolate": 20719,
    "Ġclimate": 9272,
    "known": 3571,
    "Ġpipe": 4320,
    "Ġsituations": 10488,
    "isting": 5549,
    "luckily": 19757,
    "e": 73,
    "Ġincessantly": 11406,
    "Ġhealthy": 10845,
    "umns": 14152,
    "Ġroads": 13296,
    "Ġconquest": 15749,
    "Ġproduces": 2092,
    "Ġpredomin": 16040,
    "Ġoak": 6130,
    "Ġhon": 2537,
    "le": 279,
    "capting": 24034,
    "Ġ184": 16607,
    "else": 6535,
    "Ġceremonious": 24838,
    "Ġstrangers": 8318,
    "Ġmaintains": 2142,
    "Ġdaresay": 14710,
    "dragged": 16608,
    "links": 20956,
    "robust": 19732,
    "Ġdesperately": 24645,
    "viii": 12025,
    "Ġrover": 18456,
    "ream": 2708,
    "Ġcoquet": 22580,
    "Ġacknowledge": 13410,
    "athan": 2951,
    "Ġprotruded": 19474,
    "Ġcoincidence": 25477,
    "rubbery": 17346,
    "Ġenslaved": 26311,
    "Ġsavann": 14688,
    "Ġchewing": 23279,
    "outon": 12810,
    "Ġgoney": 14548,
    "Ġreappearance": 21665,
    "hated": 17561,
    "when": 1589,
    "Ġinsipid": 26310,
    "distressed": 24194,
    "Ġosc": 2832,
    "henomenon": 13622,
    "Ġfidelity": 15246,
    "Ġdiab": 10607,
    "Ġnow": 691,
    "Ġfrantically": 23254,
    "church": 8142,
    "possessed": 9526,
    "Ġhands": 1660,
    "naturalist": 23555,
    "screaming": 20324,
    "Ġprotesting": 14748,
    "Ġlaughter": 9025,
    "Ġfolk": 10371,
    "Ġsequence": 1977,
    "Ġrect": 18026,
    "Ġjourneys": 19480,
    "urches": 12693,
    "Ġdimens": 3147,
    "Ġenter": 4029,
    "Ġdeer": 12727,
    "Ġnorthwards": 19551,
    "unched": 10231,
    "Ġadding": 2402,
    "asons": 6019,
    "jar": 17577,
    "Ġeffects": 7237,
    "Ġtouched": 6005,
    "nantucketer": 24977,
    "Ġsalut": 10506,
    "frightened": 17197,
    "Ġmethodic": 23141,
    "Ġfootfalls": 25862,
    "Ġdown": 831,
    "Ġsalesman": 13676,
    "congratulations": 20279,
    "Ġdesk": 11913,
    "tis": 4106,
    "idge": 14019,
    "Ġmountains": 4427,
    "Ġoverpowering": 15254,
    "kindred": 24044,
    "ience": 789,
    "Ġcowardice": 17032,
    "accomp": 10451,
    "Ġkings": 7198,
    "Ġfest": 10799,
    "whenever": 11887,
    "Ġledge": 19405,
    "Ġwires": 21293,
    "Ġeffectually": 16170,
    "Ġturnpike": 22961,
    "Ġsoon": 1228,
    "Ġunjust": 8485,
    "Ġaband": 6562,
    "Ġbash": 12594,
    "way": 764,
    "Ġtuning": 3065,
    "offended": 16393,
    "Ġlunch": 13533,
    "Ġrepresentation": 14412,
    "alone": 10181,
    "Ġheh": 21678,
    "might": 4078,
    "Ġpalms": 8644,
    "oura": 1061,
    "killer": 20477,
    "Ġflexible": 23765,
    "Ġpluck": 15614,
    "Ġunfavourable": 17421,
    "Ġimplies": 24874,
    "Ġvia": 2379,
    "Ġsinew": 25428,
    "Ġeverything": 3152,
    "Ď": 207,
    "Ġdescription": 7430,
    "Ġvoid": 14090,
    "pair": 21009,
    "ouble": 2661,
    "Ġsprings": 16687,
    "deliberated": 26115,
    "18": 20752,
    "nurs": 20996,
    "ics": 3258,
    "una": 21870,
    "ableness": 8151,
    "Ġremarks": 7475,
    "Ġsegment": 12764,
    "mistake": 24521,
    "Ġsmite": 22559,
    "Ġscant": 22280,
    "Ġenraged": 10240,
    "crier": 20819,
    "Ġhousemaid": 14470,
    "Ġprouder": 18975,
    "Ġcrowned": 16840,
    "Ġsimulates": 2738,
    "ued": 7563,
    "poke": 18803,
    "attributed": 23118,
    "Ġbreckinridge": 14525,
    "Ġunfolding": 17086,
    "Ġquarto": 17299,
    "Ġmother": 2068,
    "ivial": 15861,
    "Ġsteadfast": 8679,
    "Ġacknowledges": 24680,
    "Ġchronic": 9926,
    "Ġpompous": 20424,
    "ernation": 8215,
    "Ġcunning": 6240,
    "Ġvacant": 9493,
    "pleasure": 5981,
    "metallic": 19881,
    "speptic": 23940,
    "inities": 21183,
    "Ġagonized": 25369,
    "infallibly": 26413,
    "Ġintervals": 5599,
    "place": 4154,
    "Ġraiment": 22657,
    "Ġflirting": 16252,
    "Ġinseparable": 20689,
    "Ġbuoyed": 20043,
    "Ġtar": 2564,
    "danced": 20827,
    "Ġparties": 7042,
    "ingle": 1039,
    "ceptibly": 22343,
    "Ġjulia": 22302,
    "Ġ120": 16857,
    "kerchief": 7527,
    "Ġcarbuncle": 14451,
    "stave": 21641,
    "Ġnoah": 10936,
    "Ġexerc": 6835,
    "kes": 3681,
    "can": 1236,
    "Ġanonymous": 26175,
    "Ġpalsied": 25775,
    "Ġchina": 8040,
    "proved": 11990,
    "express": 4893,
    "possess": 5987,
    "gems": 20883,
    "Ġrogue": 22405,
    "Ġrol": 3558,
    "vib": 21113,
    "Ġmonth": 2845,
    "fancy": 7339,
    "Ġmizzen": 20289,
    "dman": 10085,
    "vision": 5620,
    "stiff": 12682,
    "Ġmultiple": 1188,
    "Ġchemical": 10405,
    "Ġlar": 765,
    "Ġfeatureless": 22606,
    "Ġfathoms": 9082,
    "air": 1003,
    "Ġpreferred": 14970,
    "Ġswim": 3822,
    "ouraged": 22861,
    "Ġposter": 14279,
    "Ġannihilated": 20252,
    "Ġmiserably": 12954,
    "Ġmus": 3400,
    "inquir": 9534,
    "Ġtil": 12530,
    "jeroboam": 25615,
    "Ġapproximates": 2416,
    "Ġpouring": 12632,
    "Ġp": 288,
    "Ġaltar": 9225,
    "admiration": 11382,
    "Ġsincerely": 7963,
    "Ġdormouse": 4926,
    "aste": 4601,
    "Ġcomely": 21856,
    "Ġintegration": 9865,
    "Ġcustoms": 19658,
    "Ġoperation": 12002,
    "Ġdifficulties": 11219,
    "Ġcontro": 1684,
    "Ġproves": 14042,
    "Ġopulent": 23620,
    "Ġweakness": 9964,
    "Ġunappe": 22015,
    "commander": 16986,
    "Ġfielding": 16243,
    "Ġfiles": 21410,
    "Ġdefinite": 11063,
    "Ġcanals": 22165,
    "Ġoverhear": 15971,
    "anced": 1306,
    "touching": 15095,
    "Ġinferiority": 17116,
    "Ġspire": 18306,
    "short": 6567,
    "batim": 24817,
    "Ġimpetus": 25565,
    "diff": 9111,
    "etah": 12669,
    "observed": 7678,
    "precaution": 23817,
    "Ġperdition": 15993,
    "Ġkind": 1786,
    "Ġproceed": 3244,
    "Ġhired": 10175,
    "ely": 624,
    "cheerfulness": 20181,
    "Ġpand": 21451,
    "elder": 21570,
    "Ġsends": 14799,
    "venant": 22624,
    "Ġsensibility": 14515,
    "Ġvent": 3996,
    "Ġfad": 17876,
    "Ġhitting": 21484,
    "Ġcoffee": 6762,
    "Ġspecks": 14313,
    "Ġ\"": 6121,
    "swear": 16917,
    "suddenly": 6493,
    "bber": 4568,
    "Ġimprudence": 10293,
    "Ġthirteen": 15279,
    "Ġsimplest": 16336,
    "Ġsized": 11560,
    "Ġband": 5289,
    "ating": 664,
    "Ġcass": 13886,
    "Ġaccusations": 22380,
    "injured": 15136,
    "Ġrelent": 18780,
    "ensed": 10990,
    "local": 22510,
    "Ġdistur": 5310,
    "Ġcommended": 18657,
    "answer": 11737,
    "Ġstrides": 22615,
    "hemat": 3126,
    "Ġmicha": 17812,
    "Ġskip": 1844,
    "Ġtelegra": 11897,
    "Ġamends": 14250,
    "Ġspecial": 2101,
    "wondered": 17118,
    "Ġnormalizes": 1861,
    "Ġdear": 1536,
    "Ġinterchange": 16103,
    "friend": 3863,
    "breckinridge": 24069,
    "Ġbrut": 18771,
    "Ġliberality": 24368,
    "Ġhovering": 10176,
    "Ġunstructure": 2987,
    "Ġarcher": 22185,
    "Ġafresh": 18628,
    "Ġ118": 19703,
    "knowing": 10433,
    "Ġdeposited": 25478,
    "withstand": 23027,
    "accursed": 20540,
    "Ġhealthful": 24054,
    "Ġscrew": 8867,
    "Ġbrigandish": 25484,
    "Ġwhale": 628,
    "Ġmanufactured": 22330,
    "illity": 18297,
    "cele": 21623,
    "Ġvote": 21948,
    "Ġspir": 2426,
    "placidity": 25984,
    "wra": 11539,
    "Ġattributed": 11838,
    "Ġplu": 8799,
    "Ġreeds": 15698,
    "Ġgentlemanlike": 12071,
    "Ġsolely": 9907,
    "fred": 20854,
    "Ġglimpse": 6947,
    "ï": 176,
    "Ġphase": 14477,
    "Ġdenominated": 15233,
    "ollion": 19720,
    "Ġlent": 21545,
    "ingley": 1544,
    "Ġungodly": 26509,
    "Ġpreface": 18368,
    "Ġabominate": 20068,
    "Ġdab": 15588,
    "alcul": 15629,
    "trees": 10727,
    "cious": 6645,
    "Ġappe": 1538,
    "Ġvacancy": 9042,
    "Ġwhat": 600,
    "teen": 6370,
    "Ġsem": 1874,
    "Ġwrithed": 17107,
    "Ġslit": 13064,
    "Ġimpenet": 14222,
    "Ġbeeches": 9223,
    "Ġ[\"": 19934,
    "Ġdry": 5625,
    "Ġbeaks": 21756,
    "Ñ": 146,
    "Ġstrenuously": 17450,
    "enborough": 21283,
    "Ġroofs": 16984,
    "Ġindisc": 16231,
    "Ġwebster": 20162,
    "Ġsatiated": 22904,
    "Ġsecured": 6748,
    "Ġappropriate": 2249,
    "vishnoo": 21117,
    "Ġgrim": 7440,
    "Ġproportionably": 19974,
    "Ġextent": 7658,
    "Ġjewelled": 20184,
    "Ġexempl": 21831,
    "Ġamusing": 11806,
    "Ġerrone": 14436,
    "Ġaccurately": 4431,
    "Ġtransport": 11274,
    "Ġrival": 10482,
    "Ġtass": 15470,
    "Ġmagnificent": 9839,
    "Ġextended": 7924,
    "Ġdecl": 3594,
    "rious": 11694,
    "opard": 9289,
    "sig": 2871,
    "fiend": 13669,
    "evil": 11482,
    "Ġterrible": 5326,
    "Ġtunes": 24610,
    "Ġoverpow": 14207,
    "ady": 997,
    "Ġrestoration": 19031,
    "officers": 10623,
    "Ġforgetting": 3437,
    "Ġidiotic": 25584,
    "Ġdiscernment": 15059,
    "pede": 19933,
    "Ġairy": 23313,
    "lifeless": 24304,
    "prise": 7729,
    "gi": 17551,
    "tashtego": 9619,
    "bitt": 17487,
    "Ġinstability": 3814,
    "ht": 375,
    "Ġsallow": 12542,
    "Ġbehavior": 8003,
    "ance": 478,
    "Ġtrunks": 15966,
    "Ġorders": 5339,
    "Ġrueful": 25578,
    "Ġjackson": 24234,
    "Ġrifts": 21979,
    "Ġflit": 23006,
    "comes": 5392,
    "heidelburgh": 21209,
    "moran": 24146,
    "Ġdistinctions": 18534,
    "Ġlength": 2501,
    "herds": 22203,
    "meetings": 20380,
    "brit": 19203,
    "claim": 9832,
    "squ": 7811,
    "Ġmalays": 19682,
    "formed": 2555,
    "Ġmam": 8405,
    "Ġhorribly": 16344,
    "uge": 4016,
    "vers": 1329,
    "Ġbecame": 2692,
    "Ġnav": 5822,
    "Ġconclusion": 5989,
    "Ġirrad": 19095,
    "Ġslippery": 12172,
    "receiving": 12549,
    "pan": 11508,
    "ared": 771,
    "Ġaccuse": 14215,
    "lover": 18541,
    "Ġsaying": 3245,
    "shutters": 20312,
    "Ġcling": 11778,
    "Ġcand": 3277,
    "Ġ_": 840,
    "mushroom": 26390,
    "Ġtell": 1467,
    "Ġmusical": 23887,
    "Ġyoungster": 23176,
    "Ġturns": 4971,
    "Ġask": 1490,
    "ladies": 9527,
    "Ġstingy": 25451,
    "recl": 15510,
    "burn": 8072,
    "Ġsul": 7572,
    "Ġassaulted": 25318,
    "iminished": 19025,
    "Ġscarcity": 23821,
    "Ġobsequ": 14325,
    "Ġuse": 828,
    "antled": 18287,
    "Ġworshipped": 25687,
    "gon": 17552,
    "striving": 24661,
    "Ġmeagre": 21814,
    "Ġinhabitants": 7526,
    "Ġmajesty": 5198,
    "conceivable": 17133,
    "Ġtravelled": 7774,
    "Ġlye": 21549,
    "savor": 25026,
    "Ġkra": 18349,
    "instances": 13328,
    "Ġleviathans": 8285,
    "Ġcovariate": 2351,
    "proportion": 16182,
    "Ġconceited": 12096,
    "mature": 20965,
    "fiery": 13588,
    "Ġknock": 9970,
    "eronomy": 15525,
    "Ġmasking": 2418,
    "Ġterr": 3274,
    "Ġcoarse": 14278,
    "Ġhardships": 14457,
    "ctu": 5086,
    "asable": 21538,
    "6": 26,
    "closing": 23153,
    "iber": 6507,
    "Ġsob": 12795,
    "Ġsnuffing": 25015,
    "Ġridicule": 13519,
    "abled": 12801,
    "Ġbreaches": 14523,
    "Ġthee": 2624,
    "Ġunnecessary": 8851,
    "ceiving": 3905,
    "bulkington": 19929,
    "idled": 21769,
    "Ġpaddle": 20062,
    "Ġregularization": 1185,
    "Ġscaffold": 18401,
    "ized": 1525,
    "secret": 12241,
    "ner": 1373,
    "Ġvehicle": 20139,
    "Ġcardboard": 19982,
    "fatig": 17089,
    "Ġwharves": 13513,
    "invariably": 26412,
    "Ġshapes": 14113,
    "Ġwidth": 16773,
    "Ġlap": 8437,
    "Ġperishing": 22397,
    "field": 3064,
    "ail": 565,
    "Ġroll": 5379,
    "Ġca": 21337,
    "Ġunfl": 22017,
    "Ġsums": 2900,
    "Ġnest": 10185,
    "put": 414,
    "Ġtru": 4108,
    "progression": 20384,
    "Ġhuff": 21487,
    "terrible": 8466,
    "Ġscorn": 7901,
    "Ġvirtuous": 14763,
    "Ġfolio": 11925,
    "hamlet": 23258,
    "ocation": 14629,
    "ckinridge": 11724,
    "Ġnomin": 10187,
    "Ġlanding": 11988,
    "Ġintimidated": 24802,
    "warrior": 24797,
    "Ġpond": 13922,
    "Ġlogits": 3453,
    "Ġunhappily": 18260,
    "gle": 20868,
    "Ġardu": 22184,
    "Ġjewell": 19526,
    "Ġfactory": 23273,
    "jah": 17581,
    "sea": 4762,
    "Ġprevented": 5946,
    "complacency": 19919,
    "Ġkindliness": 23290,
    "uber": 15445,
    "Ġrepenting": 25320,
    "benefact": 24630,
    "Ġcharmed": 16763,
    "crat": 24079,
    "Ġsymbol": 7719,
    "Ġscar": 3214,
    "lun": 20945,
    "soldiers": 25907,
    "Ġsuppose": 2863,
    "Ġcontinual": 6779,
    "Ġheels": 10844,
    "giv": 13729,
    "Ġimage": 3407,
    "verse": 9684,
    "advice": 12163,
    "fered": 5559,
    "causing": 25514,
    "Ġhelps": 9364,
    "dden": 1804,
    "Ġgazette": 19506,
    "weakness": 16127,
    "Ġcorroded": 18879,
    "Ġgazes": 24090,
    "thus": 5155,
    "unfort": 21877,
    "hens": 3938,
    "aspect": 10190,
    "Ġhearses": 20063,
    "hard": 4687,
    "Ġbarque": 23783,
    "goin": 23397,
    "Ġdrowsiness": 26441,
    "Ġporus": 24389,
    "absence": 12716,
    "Ġgrapnels": 25547,
    "Ġchamounix": 14871,
    "Ġkindness": 4097,
    "Ġslime": 23158,
    "grained": 20882,
    "Ġsquee": 7929,
    "Ġacquaintance": 4134,
    "Ġabased": 22268,
    "'s": 2468,
    "Ġtheatre": 21276,
    "Ġpier": 7164,
    "merit": 19282,
    "Ġglobe": 6079,
    "european": 26368,
    "Ġjug": 12842,
    "Ġlee": 4222,
    "Ġdisagreeable": 9295,
    "entering": 17977,
    "tray": 21075,
    "Ġundertaken": 18990,
    "mists": 17604,
    "uous": 4145,
    "iless": 10277,
    "Ġnursing": 12219,
    "spoken": 11865,
    "Ķ": 247,
    "Ġfidgeted": 25885,
    "Ġbruised": 25768,
    "Ġfootpath": 19341,
    "resembled": 21244,
    "Ġbran": 5249,
    "desired": 9003,
    "Ġsquare": 2395,
    "Ġpangs": 15615,
    "humored": 19457,
    "Ġdrove": 4984,
    "harrow": 20907,
    "dare": 12459,
    "Ġstochastic": 3267,
    "Ġmostly": 7667,
    "Ġstri": 2801,
    "thro": 12768,
    "bable": 8719,
    "Ġumb": 11649,
    "score": 18860,
    "idelburgh": 10558,
    "Ġgirdle": 19163,
    "Ġdavy": 25947,
    "Ġasking": 5652,
    "apan": 6863,
    "hastily": 19707,
    "Ġaddresses": 3769,
    "doubted": 17528,
    "Ġfifteen": 6950,
    "Ġunav": 18238,
    ";--": 8069,
    "Ġmachinery": 20486,
    "Ġk": 484,
    "Ġpainfully": 13149,
    "Ġamput": 16037,
    "arity": 1304,
    "Ġrucastle": 5174,
    "Ġcurbstone": 26039,
    "Ġexpanse": 14294,
    "Ġxiii": 25587,
    "shoe": 14971,
    "Ġaltered": 7396,
    "supp": 4162,
    "Ġinteractions": 12925,
    "Ġsplendid": 17214,
    "Ġimbu": 15892,
    "Ġpaul": 12067,
    "Ġoperations": 2300,
    "onstr": 12552,
    "Ġdood": 22242,
    "comprehend": 14363,
    "Ġendeav": 2949,
    "Ġladies": 3195,
    "_âĢĶâĢĻâĢĿ": 25737,
    "twain": 23691,
    "Ġoblivious": 26028,
    "Ġengage": 9333,
    "accustomed": 13165,
    "opy": 4460,
    "Ġformal": 2938,
    "rior": 12749,
    "Ġadieu": 10048,
    "Ġdiverted": 14597,
    "Ġlimping": 23538,
    "refuge": 24728,
    "Ġceiling": 7998,
    "Ġenveloped": 12214,
    "Ġattitudes": 16096,
    "ouement": 21445,
    "Ġaspired": 25980,
    "shrugged": 22460,
    "ained": 3058,
    "Ġunfeeling": 14122,
    "descending": 16288,
    "Ġaberdeen": 26537,
    "Ġcrisp": 12005,
    "Ġselfishness": 12293,
    "Ġquitted": 5309,
    "Ġengine": 1918,
    "Ġfewer": 16228,
    "Ġpractices": 19038,
    "Ġthousandth": 23675,
    "aan": 20765,
    "Ġtrifle": 10597,
    "Ġtus": 10745,
    "Ġcomparing": 14270,
    "Ġquickly": 4240,
    "Ġfall": 2981,
    "Ġexcell": 10412,
    "Ġpallor": 13523,
    "Ġpeople": 2545,
    "Ġdere": 21836,
    "Ġdiscre": 2415,
    "owal": 13998,
    "dri": 5891,
    "gunw": 17221,
    "Ġstaving": 21741,
    "esc": 616,
    "Ġtumbled": 13414,
    "hearted": 6974,
    "Ġtropic": 17065,
    "Ġnavies": 16899,
    "Ġbarrel": 23784,
    "desponding": 26338,
    "Ġcomfortable": 6098,
    "Ġadvantageously": 19550,
    "Ġstep": 750,
    "def": 1452,
    "Ġkate": 15906,
    "sebastian": 21821,
    "quered": 11051,
    "Ġhoisted": 5963,
    "Ġnewfoundland": 26565,
    "Ġnon": 1619,
    "Ġdisse": 18549,
    "Ġsutherland": 10144,
    "sof": 17655,
    "Ġslee": 8972,
    "Ġgranite": 22807,
    "Ġtobacco": 8368,
    "occupations": 24969,
    "eman": 5637,
    "Ġgruff": 21612,
    "write": 14650,
    "Ġevenings": 18757,
    "Ġwrap": 24585,
    "Ġdisco": 3431,
    "Ġcondemn": 13452,
    "ser": 1425,
    "Ġguardianship": 17424,
    "ogrand": 26259,
    "Ġabandon": 12262,
    "Ġunmanufactured": 20435,
    "Ġexact": 2542,
    "Ġsimil": 2530,
    "Ġplying": 17911,
    "Ġpenn": 11106,
    "Ġfur": 993,
    "Ġelect": 10836,
    "handkerchief": 14622,
    "diver": 20830,
    "Ġdeprec": 15759,
    "desol": 13225,
    "ivened": 22967,
    "hend": 13260,
    "bers": 2570,
    "Ġweapon": 7778,
    "Ġantilles": 24174,
    "Ġfuture": 1111,
    "pur": 7808,
    "Ġdesmarest": 22981,
    "Ġfreedom": 9081,
    "withstanding": 8943,
    "Ġagency": 11812,
    "ware": 3936,
    "Ġstructured": 2966,
    "rule": 15901,
    "Ġprovoke": 14836,
    "Ġla": 5917,
    "destiny": 16700,
    "Ġdevoid": 18692,
    "impul": 16556,
    "supervised": 1860,
    "Ġthrew": 3974,
    "mp": 3728,
    "Ġspectre": 16631,
    "Ġmoves": 14235,
    "Ġlabeled": 3719,
    "Ġvaluable": 5609,
    "linen": 25257,
    "ootiful": 17377,
    "Ġbree": 5012,
    "sion": 8094,
    "thrasher": 25654,
    "Ġpreceded": 13436,
    "Ġsuppress": 13032,
    "iors": 9123,
    "disinterested": 23495,
    "Ġaspect": 3089,
    "ieves": 4004,
    "Ġdomestic": 6913,
    "practised": 20247,
    "Ġpalpit": 16691,
    "Ġwind": 1433,
    "Ġlunatic": 24995,
    "uments": 5551,
    "Ġgurglings": 26461,
    "Ġconcealed": 7497,
    "shud": 18491,
    "upp": 10126,
    ";": 31,
    "superstitious": 17283,
    "Ġvoracity": 25982,
    "Ġshe": 466,
    "Ġconfused": 7965,
    "unhesitatingly": 26492,
    "Ġprogress": 5023,
    "Ġbequest": 21754,
    ")âĢĶ": 20743,
    "rederick": 14083,
    "Ġentering": 6287,
    "Ġpequod": 2323,
    "Ġforcing": 3226,
    "Ġsculpt": 15947,
    "understood": 13223,
    "Ġgro": 4397,
    "win": 6804,
    "Ġcrowder": 19460,
    "rates": 21036,
    "lascar": 20958,
    "ishness": 22342,
    "Ġwoof": 14727,
    "Ġpleased": 4064,
    "Ġwaterloo": 11984,
    "ö": 183,
    "Ġloafer": 18300,
    "Ġsimon": 5169,
    "Ġconvalescence": 23733,
    "shold": 2771,
    "thousands": 16869,
    "Ġmarshalled": 25313,
    "Ġgould": 17990,
    "Ġstorms": 11257,
    "has": 4013,
    "Ġmajestic": 8640,
    "relieved": 13283,
    "Ġmoot": 22432,
    "seem": 10223,
    "Ġmoonlight": 9955,
    "Ġluck": 4878,
    "presented": 13000,
    "Ġsinful": 18953,
    "Ġspeakest": 23479,
    "Ġwave": 7579,
    "aware": 16298,
    "arthy": 4822,
    "Ġlamb": 8813,
    "uttering": 12670,
    "Ġhearers": 15704,
    "lat": 6796,
    "Ġlate": 3379,
    "rapt": 13978,
    "Ġentranced": 25831,
    "counters": 25394,
    "Ġfigure": 4207,
    "Ġadmire": 5261,
    "Ġexploit": 19167,
    "Ġhearsed": 25043,
    "algorithms": 8296,
    "infidel": 24655,
    "Ġconcl": 5093,
    "Ġtamer": 24981,
    "drown": 13712,
    "Ġdisown": 22525,
    "hued": 20910,
    "Ġsick": 4690,
    "Ġmillions": 11349,
    "uncomfortable": 18163,
    "Ġfanc": 6746,
    "luding": 6703,
    "Ġexceptions": 13237,
    "intercourse": 14648,
    "Ġmoth": 17803,
    "Ġconcealing": 23897,
    "ow": 325,
    "Ġsporting": 16998,
    "spades": 14335,
    "miserable": 8657,
    "Ġsons": 10762,
    "Ġgener": 591,
    "transformers": 8715,
    "heedful": 20573,
    "philosophy": 13587,
    "moments": 19416,
    "pping": 1424,
    "scorched": 25693,
    "Ġjoined": 4564,
    "Ġelated": 18636,
    "Ġpaddington": 17095,
    "fooled": 24410,
    "berwell": 22747,
    "Ġimmeasurable": 26227,
    "Ġunobserved": 18247,
    "Ġsoftness": 18921,
    "his": 1413,
    "expressed": 9039,
    "Ġpeg": 22689,
    "tit": 11525,
    "Ġdeparture": 6490,
    "eagerly": 17319,
    "Ġperilously": 24496,
    "Ġintrepidity": 25546,
    "Ġtransmit": 10300,
    "ibilities": 13016,
    "rennial": 22341,
    "Ġsundial": 15086,
    "Ġwig": 9159,
    "Ġblundering": 26281,
    "Ġmurdered": 6463,
    "fing": 13720,
    "Ġwhaleman": 4653,
    "corner": 13404,
    "roof": 17952,
    "Ġbony": 12595,
    "Ġindirect": 18839,
    "Ġblazing": 11902,
    "lier": 20948,
    "Ġpencil": 11947,
    "Ġastonishing": 10498,
    "Ġinter": 779,
    "Ġsammy": 24933,
    "Ġbr": 1071,
    "ulged": 12737,
    "Ġdisput": 14260,
    "Ġmistake": 6205,
    "gained": 20880,
    "Ġconsulting": 13437,
    "Ġtipped": 17726,
    "Ġreligious": 25123,
    "apter": 1195,
    "Ġimpending": 22384,
    "Ġeighteen": 11233,
    "Ġoutrages": 18416,
    "Ġprofound": 5495,
    "calling": 12455,
    "scho": 8760,
    "ows": 1915,
    "Ġshilling": 18229,
    "Ġobligations": 12098,
    "Ġfinished": 5043,
    "lungs": 26132,
    "//": 11458,
    "warks": 5004,
    "30": 20755,
    "rically": 15417,
    "bedded": 12447,
    "cific": 10082,
    "interchange": 23740,
    "Ġcruellest": 19663,
    "Ġinquirer": 24966,
    "search": 8465,
    "Ġrivals": 20271,
    "Ġripp": 11213,
    "Ġterrified": 14676,
    "Ġbegat": 18867,
    "etwork": 445,
    "shooting": 16964,
    "ram": 13977,
    "Ġrocky": 13394,
    "Ġminiatures": 20320,
    "Ġsenseless": 12083,
    "Ġpills": 21462,
    "oyed": 14368,
    "Ġarchy": 14351,
    "yd": 21140,
    "establish": 17397,
    "Ġalan": 10863,
    "Ġpit": 3423,
    "Ġtreatment": 12076,
    "Ġdelightfully": 13166,
    "tend": 17672,
    "matic": 4616,
    "results": 20388,
    "Ġvancou": 22875,
    "Ġcommonplace": 11090,
    "vative": 1626,
    "Ġer": 8105,
    "Ġtorn": 6004,
    "Ġbosom": 6942,
    "Ġeleven": 9386,
    "insufficient": 15489,
    "Ġhempen": 13557,
    "Ġfif": 4217,
    "rey": 12544,
    "Ġcork": 12576,
    "restraint": 18983,
    "Ġrock": 5308,
    "Ġfurnishing": 16647,
    "Ġedges": 3829,
    "hollow": 24035,
    "Ġcur": 1246,
    "Ġfrigate": 13088,
    "Ġstandards": 19019,
    "Ġneedle": 8277,
    "english": 2772,
    "Ġsignificance": 13288,
    "arding": 22158,
    "Ġovertook": 18424,
    "Ġcircle": 4978,
    "ases": 1520,
    "Ġluxuriant": 20396,
    "adoes": 11663,
    "Ġhedgehog": 10640,
    "Ġhairy": 23859,
    "Ġconsiderations": 9407,
    "permission": 15897,
    "Ġfishery": 4175,
    "Ġpedest": 15071,
    "nostr": 22763,
    "Ġcart": 11582,
    "play": 5097,
    "ise": 708,
    "Ġapplied": 6188,
    "Ġinternal": 2245,
    "Ġoffend": 16146,
    "ı": 242,
    "Ġ75": 19618,
    "deav": 2674,
    "Ġrevolut": 3259,
    "Ġpadd": 9665,
    "Ġlik": 2522,
    "Ġlegis": 23528,
    "Ġsuperb": 16441,
    "Ġchival": 14186,
    "infall": 21186,
    "desolation": 20460,
    "shad": 10976,
    "built": 16824,
    "Ġconcil": 23317,
    "Ġold": 1058,
    "Ġwil": 4580,
    "warmth": 20056,
    "Ġpondicherry": 20492,
    "Ġoffered": 5820,
    ",âĢĶâĢľ": 10067,
    "Ġimagination": 5762,
    "pie": 21008,
    "Ġreneg": 21673,
    "exactly": 10632,
    "Ġexulting": 20258,
    "Ġdire": 864,
    "Ġprovoking": 16745,
    "darkened": 24506,
    "hack": 20895,
    "Ġrises": 9709,
    "circumspect": 26083,
    "Ġten": 2383,
    "Ġdelicate": 6480,
    "Ġghosts": 12237,
    "Ġdistributed": 18662,
    "Ġapple": 14174,
    "Ġupwards": 7636,
    "Ġmiz": 10773,
    "Ġernest": 8717,
    "Ġsuburban": 17350,
    "Ġprocedural": 12035,
    "ghost": 20886,
    "Ġdismasted": 15256,
    "wonders": 17145,
    "Ġinfatuated": 20534,
    "recursion": 13338,
    "new": 1465,
    "Ġselection": 18205,
    "Ġdeduced": 12213,
    "Ġdistraction": 22506,
    "anned": 17840,
    "wide": 10133,
    "Ġelephant": 8258,
    "Ġinequalities": 26449,
    "itated": 4441,
    "trying": 15438,
    "Ġtyrant": 24760,
    "Ġlodge": 5782,
    "Ġtub": 7148,
    "Ġpollard": 20387,
    "ufact": 10729,
    "cd": 15328,
    "Ġsouthwards": 19639,
    "Ġvibrating": 13544,
    "Ġclaw": 22359,
    "Ġreynolds": 10206,
    "mael": 6726,
    "Ġcircumvent": 25070,
    "fits": 13725,
    "Ġthat": 334,
    "persu": 8028,
    "Ġwhis": 3506,
    "Ġtranquillize": 24750,
    "Ġgag": 21591,
    "Ġinsist": 9887,
    "Ġmortals": 9913,
    "Ġnearly": 3366,
    "Ġadmirals": 20386,
    "apparent": 11037,
    "Ġtransported": 11275,
    "ppo": 18178,
    "Ġworried": 22924,
    "ilt": 2962,
    "Ġdoubt": 2224,
    "hand": 2756,
    "Ġglasses": 9473,
    "Ġbecher": 18882,
    "Ġket": 18348,
    "boo": 16352,
    "Ġtuesday": 9623,
    "Ġslaves": 23163,
    "Ġsw": 1355,
    "figures": 20123,
    "Ġconveniently": 20081,
    "plied": 10250,
    "Ġwears": 10236,
    "ersed": 10255,
    "Ġclosed": 4605,
    "Ġsaxon": 25464,
    "Ġdollars": 11450,
    "Ġvanity": 7049,
    "Ġreadiness": 13057,
    "combination": 25483,
    "Ġsoften": 23121,
    "restoration": 23233,
    "Ġsucc": 12790,
    "test": 13799,
    "Ġdescribed": 6606,
    "Ġdashed": 6014,
    "Ġstuffed": 13417,
    "Ġenl": 18190,
    "Ġtwinkle": 12327,
    "Ġcuriosities": 26287,
    "battering": 24818,
    "Ġvalue": 2084,
    "Ġfive": 2833,
    "Ġirregular": 9862,
    "Ġhob": 12637,
    "flow": 2129,
    "Ġbland": 11058,
    "discovering": 24245,
    "Ġtired": 9147,
    "hunters": 16832,
    "Ġcontrolled": 23246,
    "Ġiroquois": 26468,
    "Ġjudges": 14689,
    "Ġoffspring": 16147,
    "Ġfullest": 14822,
    "Ġ(": 595,
    "Ġgilt": 21604,
    "Ġeastward": 13397,
    "orial": 8417,
    "Ġrests": 13101,
    "sideways": 14576,
    "Ġrevel": 9211,
    "consolation": 15157,
    "ancy": 4394,
    "Ġcup": 5699,
    "Ġentered": 2842,
    "Ġgrease": 26187,
    "Ġsobbing": 14139,
    "made": 4807,
    "Ġcloudy": 19482,
    "Ġbeak": 18080,
    "Ġlearnt": 7615,
    "Ġman": 544,
    "nose": 17611,
    "Ġactivations": 2719,
    "Ġdevelopment": 7068,
    "Ġleaving": 3907,
    "mo": 861,
    "principle": 10646,
    "confirm": 16808,
    "Ġthreshold": 2807,
    "olen": 9696,
    "young": 7323,
    "Ġeels": 21618,
    "Ġshares": 23242,
    "Ġdifference": 1487,
    "tooth": 18582,
    "Ġcrushed": 9421,
    "skirted": 24481,
    "Ġgretna": 26464,
    "Ġnought": 21519,
    "intolerable": 22936,
    "Ġvillanous": 24049,
    "cry": 12451,
    "Ġclung": 10955,
    "Ġregal": 16077,
    "Ġserenity": 10025,
    "Ġabusive": 22273,
    "stubb": 6021,
    "Ġconsisted": 10414,
    "mortal": 10109,
    "exceedingly": 9564,
    "eers": 20842,
    "Ġdoor": 1739,
    "hever": 13838,
    "ial": 410,
    "court": 7513,
    "<EOS>": 2,
    "Ġtingling": 15096,
    "Ġcurves": 18849,
    "driver": 14926,
    "Ġobstinate": 11331,
    "slave": 16894,
    "Ġidentifies": 12018,
    "adjust": 21760,
    "Ġmounting": 19980,
    "Ġbetake": 22907,
    "Ġagencies": 18543,
    "Ġautomation": 13239,
    "Ġdied": 4113,
    "Ġgrowl": 16538,
    "Ġprone": 18971,
    "warn": 11540,
    "mund": 13765,
    "Ġcareless": 11113,
    "utch": 21584,
    "Ġahead": 6664,
    "Ġlets": 18064,
    "Ġglades": 19377,
    "Ġwhalers": 8048,
    "Ġcolder": 22856,
    "bastian": 10669,
    "Ġoppress": 13180,
    "Ġzeros": 3326,
    "communication": 25876,
    "Ġdamn": 11152,
    "ues": 2079,
    "gans": 11486,
    "teringly": 21824,
    "Ġvol": 4189,
    "uding": 16150,
    "hastened": 16844,
    "chery": 24540,
    "Ġhorizont": 6940,
    "Ġgust": 21595,
    "Ġcranes": 19122,
    "lessly": 4556,
    "Ġneville": 7401,
    "Ġslippers": 19621,
    "waistcoat": 17365,
    "Ġsenor": 20151,
    "Ġbright": 3216,
    "Ġhabitu": 19534,
    "Ġseating": 18202,
    "Ġunravel": 26212,
    "reclining": 20574,
    "Ġbounding": 19404,
    "really": 6975,
    "Ġchallenges": 13637,
    "Ġoctavo": 15168,
    "Ġcol": 1060,
    "med": 1908,
    "bringing": 17168,
    "á": 162,
    "exped": 16524,
    "Ġdevouring": 11868,
    "Ġeconomical": 25285,
    "forever": 22519,
    "Ġsailor": 3539,
    "nantucket": 7806,
    "Ġaud": 6663,
    "Ġch": 513,
    "Ġmasterly": 23989,
    "sing": 5136,
    "Ġdears": 18142,
    "Ġmisconduct": 22757,
    "Ġcrawl": 11370,
    "Ġspades": 12803,
    "construction": 19781,
    "shells": 26052,
    "Ġhuge": 4698,
    "terogene": 21826,
    "ibid": 18845,
    "accident": 11175,
    "Ġsleepers": 13157,
    "uled": 11534,
    "Ġimmensity": 25327,
    "riers": 18188,
    "Ġreasoned": 23058,
    "Ġblessing": 11258,
    "Ġconfinement": 19042,
    "Ġcobbling": 20524,
    "Ġadie": 8490,
    "ezing": 10570,
    "Ġsacred": 10924,
    "Ġshelter": 17010,
    "Ġxx": 5490,
    "lected": 1632,
    "Ġgreat": 894,
    "dum": 17520,
    "slowly": 9088,
    "whips": 22238,
    "Ġpreparations": 12314,
    "Ġrebellion": 26471,
    "Ġhad": 442,
    "inese": 12887,
    "Ġimpropri": 14218,
    "sery": 17659,
    "Ġpreaching": 15927,
    "Ġswash": 23053,
    "Ġvortex": 26206,
    "Ġcommenting": 25228,
    "icherry": 15139,
    "button": 10960,
    "Ġquartered": 20375,
    "ival": 4225,
    "Ġunassuming": 20509,
    "Ġmaledictions": 26424,
    "ense": 2052,
    "Ġcandidates": 4333,
    "Ġcubs": 20088,
    "circumamb": 26084,
    "Ġbay": 9165,
    "Ġoccurring": 2790,
    "Ġconstraint": 16513,
    "Ġsenior": 17173,
    "Ġaddress": 2270,
    "Ġbump": 9655,
    "Ġwoke": 21287,
    "Ġswell": 8947,
    "Ġmouldings": 24731,
    "prior": 21030,
    "abashed": 21793,
    "chers": 11313,
    "Ġphrases": 2795,
    "Ġfibres": 12958,
    "Ġbronze": 22868,
    "Ġharbors": 24902,
    "Ġnotable": 18223,
    "Ġluckless": 16798,
    "ignation": 11122,
    "Ġpoints": 5246,
    "Ġtrustworthy": 24100,
    "Ġopal": 23617,
    "Ġchick": 22247,
    "Ġinqu": 2959,
    "chronicle": 26476,
    "Ġgrand": 3597,
    "everlasting": 18774,
    "Ġerroneous": 17413,
    "phenomenon": 17647,
    "Ġenorm": 5301,
    "oms": 4593,
    "Ġheads": 3742,
    "passion": 11255,
    "Ġcoral": 11927,
    "rown": 2193,
    "foreseen": 14258,
    "Ġresolved": 3799,
    "Ġestab": 6317,
    "Ġwreaths": 25933,
    "whew": 22869,
    "ichever": 13962,
    "beginning": 13568,
    "Ġcents": 17829,
    "Ġbended": 21382,
    "Ġjura": 14196,
    "Ġsof": 18282,
    "Ġcommonest": 23088,
    "Ġphrenologists": 25603,
    "sal": 8758,
    "savagery": 25027,
    "Ġfairness": 9890,
    "Ġgeneralization": 985,
    "aguy": 21911,
    "Ġaxe": 15068,
    "nuts": 15398,
    "papers": 12506,
    "cur": 3271,
    "Ġappet": 9728,
    "considering": 12179,
    "Ġdoesn": 7439,
    "Ġpure": 6139,
    "Ġslips": 23164,
    "Ġexplanatory": 22202,
    ").âĢĿ": 20742,
    "lant": 20946,
    "Ġverses": 17064,
    "Ġsloop": 25926,
    "phants": 9318,
    "suitableness": 26258,
    "Ġdeceived": 6546,
    "residual": 19260,
    "Ġnomine": 26452,
    "contin": 16542,
    "Ġpalpitated": 26082,
    "Ġpsalmody": 20585,
    "Ġflows": 13018,
    "Ġincor": 2612,
    "chest": 11202,
    "Ġmamm": 25094,
    "create": 24153,
    "harbor": 13571,
    "Ġe": 311,
    "excitement": 19674,
    "Ġsavoury": 23871,
    "Ġprodigy": 19795,
    "Ġannual": 14826,
    "alization": 730,
    "landish": 11946,
    "Ġtobacc": 7853,
    "Ġtears": 4231,
    "highly": 24757,
    "wearing": 22687,
    "choice": 21691,
    "whims": 22239,
    "acies": 14280,
    "Ġsavages": 9909,
    "Ġrotterdam": 25471,
    "Ġnaked": 8129,
    "Ġjump": 4504,
    "Ġcentrally": 23826,
    "hent": 12540,
    "abash": 18108,
    "namely": 23708,
    "Ġentries": 22742,
    "Ġbabies": 19697,
    "conjecture": 15126,
    "Ġassert": 7123,
    "expense": 22429,
    "whel": 7668,
    "Ġsympathy": 6348,
    "denial": 18717,
    "ception": 6563,
    "Ġclerks": 17298,
    "Ġintroduced": 7694,
    "Ġeverlasting": 9335,
    "Ġwarb": 17788,
    "Ġcopies": 24938,
    "Ġesc": 2252,
    "Ġapologized": 25198,
    "islands": 21373,
    "oc": 2831,
    "Ġunusually": 15847,
    "Ġupon": 720,
    "keys": 15859,
    "Ġ150": 22825,
    "itching": 21333,
    "Ġundeniable": 26506,
    "Ġhalloa": 13325,
    "Ġrevolt": 24493,
    "Ġphaet": 16321,
    "Ġcallest": 17833,
    "Ġrouted": 24908,
    "arson": 22749,
    "Ġexpressing": 12012,
    "along": 6017,
    "Ġsoap": 14136,
    "Ġprepare": 8647,
    "disreputable": 23497,
    "Ġpursued": 6330,
    "Ġdons": 17888,
    "dimensional": 2349,
    "angible": 22106,
    "isa": 17846,
    "Ġoxford": 11366,
    "vitiated": 25750,
    "Ġentirely": 3436,
    "succeeded": 15180,
    "night": 2175,
    "willingly": 11986,
    "Ġneatly": 17007,
    "orum": 12598,
    "Ġdevious": 22735,
    "Ġhinted": 6016,
    "Ġmists": 14633,
    "Ġcelebrated": 13602,
    "Ġmourn": 8704,
    "officer": 17054,
    "Ġwrote": 5011,
    "Ġdisappoint": 24199,
    "complied": 19918,
    "Ġnursery": 19755,
    "mouse": 15393,
    "Ġshone": 7406,
    "anish": 2618,
    "Ġmortal": 4680,
    "Ġgathered": 8443,
    "irements": 22212,
    "Ġpeculiarity": 12940,
    "Ġbegin": 3092,
    "Ġmagnanimous": 17415,
    "Ġbeware": 8828,
    "whatever": 6697,
    "Ġstunsail": 25539,
    "cre": 4249,
    "Ġuncomfortable": 8487,
    "ivility": 12794,
    "Ġcylinders": 25939,
    "Ġunprofitable": 18265,
    "courageous": 26124,
    "okers": 18442,
    "virt": 15451,
    "Ġallen": 5157,
    "reat": 618,
    "course": 6107,
    "iate": 6506,
    "andam": 10883,
    "itively": 21329,
    "Ġbound": 3521,
    "atives": 2236,
    "stall": 21638,
    "delights": 19706,
    "pumps": 21024,
    "Ġlurk": 13390,
    "Ġtu": 6972,
    "Ġwreat": 15530,
    "intu": 22931,
    "Ġpupp": 10815,
    "eed": 20840,
    "Ġgleaming": 24998,
    "Ġrag": 18645,
    "Ġsoundings": 13140,
    "Ġhurling": 19112,
    "falgar": 26127,
    "pretending": 17041,
    "oboam": 9355,
    "Ġclues": 18429,
    "Ġflag": 7243,
    "Ġunlab": 3789,
    "Ġomin": 11576,
    "Ġbur": 2759,
    "cred": 9106,
    "gu": 3958,
    "Ġ1820": 25713,
    "Ġlashing": 11619,
    "sleep": 6512,
    "Ġmighty": 4229,
    "Ġreliance": 14392,
    "Ġmorcar": 13023,
    "thin": 14101,
    "Ġchap": 5938,
    "Ġfrosts": 19803,
    "chari": 21689,
    "Ġcharles": 11961,
    "Ġparchment": 13660,
    "Ġhel": 3787,
    "embarr": 17295,
    "super": 5947,
    "Ġstraightway": 9015,
    "Ġspeeding": 23558,
    "Ġlightly": 13090,
    "picture": 11402,
    "Ġelixir": 26551,
    "ripp": 6403,
    "Ġforg": 3788,
    "inked": 12919,
    "Ġcocoa": 25476,
    "Ġsurtout": 23460,
    "Ġdilig": 8351,
    "rally": 17650,
    "sweeping": 24609,
    "Ġduring": 871,
    "prehend": 14247,
    "Ġinscrutable": 10668,
    "Ġadaptively": 4313,
    "Ġhesitating": 16946,
    "scale": 3538,
    "Ġquality": 3531,
    "Ġmeeting": 5190,
    "Ġtasselled": 25917,
    "Ġsells": 21221,
    "Ġhun": 1494,
    "Ġdames": 23467,
    "Ġbond": 21381,
    "Ġheedless": 14909,
    "Ġseizure": 21965,
    "surgeon": 24208,
    "Ġoppressively": 25706,
    "examine": 25473,
    "Ġantiqu": 12150,
    "bacc": 7797,
    "rade": 9675,
    "myst": 9819,
    "¬": 110,
    "sloop": 26142,
    "jolly": 20930,
    "Ġtransition": 14237,
    "Ġbeginning": 4242,
    "Ġchron": 19442,
    "Ġtriumph": 5140,
    "Ġever": 1179,
    "Ġincisive": 18574,
    "Ġtrifled": 24666,
    "Ġevangelists": 20339,
    "happening": 16564,
    "Ġdestructive": 23480,
    "Ġremorselessly": 16966,
    "Ġvain": 3633,
    "repid": 11562,
    "Ġ1000": 3114,
    "Ġscandal": 9080,
    "Ġcring": 15552,
    "itime": 15548,
    "Ġministers": 22832,
    "rant": 11514,
    "Ġbison": 21385,
    "watches": 14752,
    "Ġminimax": 5861,
    "Ġdust": 5913,
    "Ġcommonly": 3265,
    "Ġassigned": 16313,
    "!âĢĿâĢĶ": 8533,
    "Ġhonoured": 9878,
    "Ġhumane": 11890,
    "flinging": 20867,
    "Ġblasphemy": 26112,
    "Ġforeshad": 23446,
    "path": 10115,
    "execution": 20473,
    "lands": 8243,
    "Ġactively": 18655,
    "althily": 19364,
    "Ġwilson": 6631,
    "flitted": 23963,
    "rock": 15642,
    "Ġbanks": 6817,
    "ġ": 226,
    "Ġcould": 704,
    "Ġcomfor": 14058,
    "ē": 212,
    "back": 2019,
    "Ġhunter": 5399,
    "Ġfavourably": 16364,
    "Ġintended": 5546,
    "Ġgone": 2106,
    "sun": 7142,
    "Ġaccordance": 19503,
    "Ġsultry": 20288,
    "agers": 5634,
    "admit": 18091,
    "Ġdownward": 10327,
    "security": 26204,
    "rimsh": 17028,
    "Ġnam": 17947,
    "avering": 24789,
    "coat": 5405,
    "nants": 17613,
    "Ġheaven": 3368,
    "umbered": 22118,
    "utored": 15665,
    "Ġclapped": 9743,
    "Ġcetace": 14992,
    "ion": 296,
    "Ġexecutioner": 12276,
    "Ġhug": 6983,
    "Ġbulb": 23849,
    "Ġweep": 7622,
    "Ġhardened": 14456,
    "ittleness": 22376,
    "Ġbade": 9168,
    "Ġwarning": 9056,
    "ribed": 7696,
    "Ġjago": 22299,
    "Ġphilosophy": 7107,
    "Ġlodging": 24089,
    "otted": 14029,
    "Ġundu": 15838,
    "Ġark": 10272,
    "Ġremnants": 22792,
    "inioned": 19287,
    "Ġinjection": 3469,
    "Ġfumbled": 17881,
    "Ġbusier": 23332,
    "ķ": 248,
    "waters": 11231,
    "Ġexercising": 19910,
    "Ġmuhammad": 26166,
    "Ġcard": 7365,
    "Ġpacing": 8426,
    "Ġexasperated": 11407,
    "ampled": 18887,
    "precedented": 15179,
    "Ġtraining": 529,
    "Ġdoubloon": 6948,
    "d": 72,
    "Ġcompat": 2934,
    "Ġstrategies": 1839,
    "Ġpallet": 21477,
    "handedness": 24921,
    "Ġmah": 15541,
    "Ġmorocc": 22979,
    "bold": 17489,
    "Ġdecreas": 1644,
    "Ġtold": 2187,
    "deploy": 22143,
    "moderate": 22850,
    "Ġseek": 4509,
    "Ġaccomplish": 14882,
    "Ġteneriffe": 26410,
    "scuttle": 11916,
    "Ġmemoirs": 26203,
    "Ġovercame": 9740,
    "Ġminimizing": 3467,
    "take": 4576,
    "Ġact": 690,
    "naught": 20992,
    "Ġthreatened": 8332,
    "Ġunwell": 22014,
    "specul": 23937,
    "iability": 20919,
    "uction": 15443,
    "Ġlomb": 21557,
    "Ġhurrying": 11998,
    "Ġostentatiously": 20470,
    "Ġglowing": 12287,
    "banked": 25335,
    "fishing": 20858,
    "itage": 17817,
    "Ġletter": 2198,
    "Ġscreaming": 13431,
    "abri": 6685,
    "supposing": 24128,
    "sis": 1710,
    "tempest": 16958,
    "informed": 17734,
    "imate": 4221,
    "nnight": 20991,
    "Ġstructural": 2796,
    "Ġmechan": 1200,
    "kin": 7134,
    "Ġinterior": 8903,
    "andromeda": 21869,
    "h": 76,
    "ĥ": 230,
    "Ġgently": 7173,
    "minded": 9035,
    "Ġcomply": 8890,
    "cord": 8724,
    "Ġdiabol": 11448,
    "Ġbarbed": 14843,
    "Ġhieroglyph": 11974,
    "Ġdeserved": 7739,
    "Ġholiest": 18817,
    "Ġcapst": 8597,
    "Ġcased": 21344,
    "Ġintercepted": 25827,
    "ellow": 3877,
    "Ġfaintly": 14920,
    "intosh": 22938,
    "Ġsolution": 9802,
    "Ġbrown": 6300,
    "Ġenvironmental": 24063,
    "roar": 17951,
    "inte": 5141,
    "vous": 2251,
    "Ġsnuff": 7991,
    "Ġtens": 17721,
    "Ġdeceased": 15010,
    "Ġslack": 8953,
    "Ġsharper": 17181,
    "Ġill": 2194,
    "Ġloitering": 22117,
    "Ġtail": 3082,
    "!âĢĶâĢĻ": 23559,
    "er": 269,
    "Ġloop": 14150,
    "Ġretreats": 16927,
    "peculiarities": 13479,
    "mbles": 23087,
    "tically": 3396,
    "Ġbask": 8119,
    "Ġnap": 8809,
    "Ġphysiognomy": 25605,
    "madly": 24411,
    "Ġsunshine": 14499,
    "Ġgodfre": 14531,
    "good": 2896,
    "mut": 17595,
    "drink": 10591,
    "Ġcredit": 4818,
    "Ġfreshly": 23982,
    "bear": 10311,
    "Ġshaved": 22003,
    "Ġstudies": 7956,
    "Ġthreaten": 24365,
    "axen": 22522,
    "Ġiceberg": 14722,
    "orange": 21396,
    "Ġthy": 2513,
    "Ġdeclared": 5596,
    "Ġfreer": 23206,
    "Ġhangs": 11608,
    "Ġmischie": 22759,
    "Ġfabric": 25943,
    "gan": 2199,
    "aswag": 21544,
    "solely": 19817,
    "Ġservox": 23863,
    "Ġlocks": 11729,
    "Ġunsur": 22019,
    "fic": 20851,
    "idel": 5298,
    "Ġdecayed": 22824,
    "İ": 241,
    "Ġshri": 5373,
    "Ġencoun": 4512,
    "Ġmelted": 19627,
    "lantern": 10703,
    "Ġpapers": 4021,
    "Ġchaldee": 26232,
    "ensities": 22548,
    "bree": 15319,
    "Ġsatisfactory": 11187,
    "lips": 13757,
    "condesc": 18507,
    "august": 11065,
    "riot": 18187,
    "guinea": 16674,
    "higher": 20408,
    "É": 138,
    "igger": 21701,
    "Ġcapsized": 20091,
    "Ġconjured": 25103,
    "Ġoutbreak": 22317,
    "Ġconsumm": 15159,
    "contrasted": 17309,
    "90": 12436,
    "Ġvivacity": 14946,
    "Ġfergus": 16871,
    "Ġcyn": 13892,
    "Ġhearth": 11985,
    "leton": 5145,
    "ide": 723,
    "jac": 8381,
    "{": 95,
    "Ġfreed": 7268,
    "Ġmidships": 23625,
    "Ġforesaw": 19128,
    "yourselves": 24961,
    "Ġpulse": 13124,
    "ivities": 22081,
    "Ġsqueezing": 25009,
    "Ġobliged": 4284,
    "embraces": 25799,
    "Ġfortifications": 23611,
    "Ġinstruction": 14346,
    "angered": 16180,
    "ads": 5721,
    "ledge": 1331,
    "Ġmingled": 12381,
    "Ġseconds": 16390,
    "Ġhammers": 13249,
    "make": 5796,
    "ellest": 21572,
    "Ġattempt": 3488,
    "Ġdecap": 16020,
    "Ġbaffled": 12407,
    "Ġcreat": 1429,
    "Ġcracks": 12024,
    "Ġgenerate": 1517,
    "Ġkidnapping": 26353,
    "cept": 552,
    "unnecessary": 21881,
    "ency": 3870,
    "Ġnieces": 8433,
    "Ġontario": 26202,
    "string": 15687,
    "Ġdifferen": 934,
    "Ġsplashing": 16550,
    "ameter": 3109,
    "Ġharvest": 13423,
    "Ġwhe": 439,
    "thickness": 25364,
    "Ġworked": 6584,
    "istern": 12588,
    "Ġgesture": 11394,
    "contained": 22473,
    "iocr": 20922,
    "Ġenric": 21935,
    "Ġopened": 3514,
    "Ġacid": 22682,
    "Ġdaw": 21426,
    "Ġelimin": 16110,
    "Ġviews": 7292,
    "greatly": 16624,
    "Ġsuggests": 12207,
    "henomen": 10491,
    "colnett": 19331,
    "Ġdanced": 7842,
    "Ġopenness": 18961,
    "Ġmills": 21309,
    "Ġlarboard": 11001,
    "Ġdistracted": 11809,
    "Ġlamps": 14800,
    "Ġembracing": 14984,
    "Ġchild": 2259,
    "Ġclaps": 22358,
    "Ġconstrained": 19241,
    "Ġrecompense": 14846,
    "elastic": 17981,
    "Ġactor": 16053,
    "nay": 7138,
    "Ġportcull": 23857,
    "Ġinterpret": 5488,
    "pled": 7892,
    "Ġwalk": 1825,
    "sad": 11518,
    "ustom": 3790,
    "salesman": 20672,
    "Ġshining": 8174,
    "Ġextracts": 9362,
    "name": 6798,
    "exerc": 16016,
    "Ġscratches": 22286,
    "Ġgloomily": 14809,
    "Ġyork": 11668,
    "Ġcash": 9649,
    "uneasiness": 23678,
    "Ġcoer": 22577,
    "Ġwars": 17786,
    "Ġwides": 17789,
    "Ġgalvan": 21615,
    "Ġtongues": 14870,
    "while": 2931,
    "Ġreplay": 5046,
    "Ġgrope": 17995,
    "Ġbored": 16108,
    "Ġcore": 13885,
    "irted": 14076,
    "countryman": 24628,
    "Ġcomfits": 21860,
    "terbury": 21825,
    "occur": 19582,
    "isbury": 21374,
    "Ġplump": 14285,
    "ahawk": 23312,
    "Ġalmanac": 26481,
    "Ġrehears": 15702,
    "Ġcatherine": 2811,
    "balls": 12309,
    "µ": 118,
    "Ġimprec": 14220,
    "Ġpe": 851,
    "Ġrack": 9309,
    "infant": 19827,
    "Ġinquiries": 5680,
    "iom": 20914,
    "Ġpleated": 16300,
    "Ġhorner": 8956,
    "ishment": 3507,
    "Ġbuilded": 24711,
    "harpoon": 9489,
    "Ġas": 374,
    "pump": 21014,
    "john": 11494,
    "Ġobligation": 13252,
    "erringly": 16214,
    "Ġactive": 7915,
    "Ġcheered": 16371,
    "ĠĠĠĠĠĠĠĠĠĠĠĠĠ": 22564,
    "nib": 5211,
    "Ġexhibit": 14960,
    "Ġdressing": 7094,
    "Ġprevailed": 7780,
    "Ġdesperate": 7779,
    "Ġadvanced": 1495,
    "ref": 6516,
    "desc": 1393,
    "loving": 18542,
    "Ġstays": 16561,
    "4": 24,
    "Ġsheaves": 22159,
    "Ġirrespective": 23369,
    "certain": 3679,
    "Ġupbra": 22155,
    "news": 23130,
    "luyt": 18455,
    "writhed": 26077,
    "Ġminima": 3466,
    "Ġpracticable": 19039,
    "Ġusing": 709,
    "Ġplainpalais": 20738,
    "joice": 9600,
    "simultaneously": 19865,
    "ears": 20844,
    "Ġst": 333,
    "everybody": 8611,
    "tri": 11527,
    "Ġtep": 21160,
    "Ġcheese": 9373,
    "------": 12139,
    "commanders": 16988,
    "Ġfrock": 10486,
    "Ġhanded": 8221,
    "Ġtied": 7359,
    "convenient": 12242,
    "Ġsulkily": 25877,
    "Ġmagnitudes": 3824,
    "resistible": 10639,
    "Ġcruisers": 25859,
    "Ġtruck": 19517,
    "lid": 20944,
    "Ġlaws": 8004,
    "Ġconsoling": 19461,
    "ĠâĢĻ": 3037,
    "Ġtrump": 8197,
    "changed": 7177,
    "Ġhomely": 25219,
    "Ġvulgarity": 25360,
    "cursed": 23838,
    "Ġwin": 9638,
    "ably": 1846,
    "iv": 432,
    "remind": 23184,
    "exe": 11794,
    "humoredly": 26322,
    "Ġuntidy": 23518,
    "quarried": 24948,
    "Ġexactly": 2767,
    "crimes": 16685,
    "ils": 3181,
    "things": 6036,
    "Ġvirtual": 11234,
    "Ġdeg": 3282,
    "Ġpope": 11603,
    "Ġdecidedly": 9506,
    "amplified": 26490,
    "within": 6733,
    "Ġblunt": 11900,
    "Ġsuav": 22077,
    "Ġink": 8803,
    "beaten": 20314,
    "Ġ46": 19496,
    "bert": 4661,
    "judging": 24196,
    "Ġlives": 4826,
    "guilty": 19488,
    "Ġaffections": 10380,
    "ss": 398,
    "Ġcutting": 4983,
    "ript": 4153,
    "rosings": 15645,
    "Ġdearly": 10397,
    "Ġsle": 2015,
    "Ġcompensated": 17405,
    "creatures": 7519,
    "seals": 21819,
    "Ă": 195,
    "ast": 473,
    "Ġjoking": 12844,
    "Ġmoments": 4845,
    "osp": 6857,
    "por": 2147,
    "ctuous": 9202,
    "Ġuncle": 3194,
    "cannibals": 25581,
    "ied": 940,
    "els": 1763,
    "Ġrepresent": 1212,
    "inf": 6234,
    "precisely": 6920,
    "Ġwhirled": 14964,
    "Ġascribe": 16783,
    "vigorous": 25913,
    "Ġcompany": 3722,
    "hampshire": 23260,
    "augment": 18833,
    "alions": 21498,
    "Ġintegr": 7969,
    "Ġlazarus": 15033,
    "Ġdemonstrate": 24999,
    "Ġsoftware": 18922,
    "tired": 21070,
    "Ġslyness": 25264,
    "idered": 4553,
    "Ġtho": 21511,
    "Ġwherein": 14298,
    "Ġraved": 22656,
    "increase": 20268,
    "Ġparl": 8180,
    "Ġshiver": 12774,
    "Ġconcernment": 23613,
    "Ġfing": 3758,
    "Ġshort": 2226,
    "cake": 20804,
    "ade": 879,
    "oses": 3947,
    "Ġselect": 3997,
    "cceed": 4143,
    "hearth": 15499,
    "Ġchip": 12832,
    "Ġgenealogies": 25958,
    "Ġirre": 7469,
    "swell": 17661,
    "Ġocean": 3306,
    "Ġwarn": 5697,
    "wealth": 22688,
    "thinks": 16643,
    "Ġcongreg": 8462,
    "dataset": 23231,
    "rocket": 13950,
    "Ġequin": 14500,
    "Ġquart": 11792,
    "Ġchart": 10939,
    "yield": 13816,
    "Ġhoof": 23347,
    "Ġrelationships": 2922,
    "accompan": 11447,
    "Ġont": 18119,
    "Ġconvivial": 16548,
    "idean": 14268,
    "bar": 7543,
    "chief": 4643,
    "Ġcrucifix": 26076,
    "Ġusher": 22215,
    "tailed": 17683,
    "Ġserm": 9630,
    "ground": 4670,
    "Ġgaily": 16750,
    "Ġgathers": 24737,
    "Ġunique": 12784,
    "Ġug": 8143,
    "hel": 4813,
    "ool": 17618,
    "turtle": 12247,
    "Ġha": 400,
    "Ġradiant": 16810,
    "Ġimpropriety": 17399,
    "uttered": 8441,
    "Ġnorthward": 13330,
    "Ġengrossed": 13005,
    "Ġensuing": 12313,
    "Ġstrive": 23684,
    "Ġmilliner": 19885,
    "Ġdisappo": 4506,
    "Ġgoug": 17991,
    "apers": 3483,
    "Ġtransactions": 18487,
    "ustomed": 6102,
    "Ġsurface": 5117,
    "Ġtarpaulin": 26154,
    "eridge": 15526,
    "senses": 25028,
    "Ġoperate": 19117,
    "af": 2374,
    "Ġassumptions": 5515,
    "Ġforts": 21773,
    "Ġhardly": 2430,
    "dangerous": 20240,
    "Ġregimentals": 19857,
    "Ġjewel": 9939,
    "Ġinvoked": 19149,
    "Ġcluster": 13578,
    "Ġrails": 22658,
    "Ġlanguages": 1570,
    "inv": 8401,
    "Ġvapors": 19912,
    "plumed": 21956,
    "Ġowl": 20085,
    "william": 4562,
    "Ġstrongly": 5659,
    "Ġtradeoff": 2658,
    "Ġforger": 15734,
    "Ġperiod": 4002,
    "Ġfashionable": 19549,
    "Ġpapa": 10652,
    "Ġstrain": 6027,
    "Ġenvelop": 5588,
    "Ġpuzzled": 7319,
    "Ġsteeply": 23715,
    "narrow": 11504,
    "Ġtempor": 2365,
    "Ġdistantly": 18533,
    "assemblies": 25952,
    "Ġrecre": 22729,
    "Ġrubber": 22784,
    "Ġtubs": 11365,
    "Ġfrancis": 26059,
    "anges": 1669,
    "Ġstreat": 15725,
    "geons": 15980,
    "Ġtrained": 8504,
    "ek": 1902,
    "sell": 13788,
    "Ġcupidity": 24524,
    "garity": 17554,
    "Ġclad": 12850,
    "Ġproduct": 3537,
    "Ġsect": 17749,
    "Ġhindoo": 17177,
    "aviour": 10988,
    "Ġtraits": 23074,
    "ft": 910,
    "Ġjogged": 26234,
    "grees": 20885,
    "Ġkentuck": 19894,
    "osures": 22261,
    "Ġclosely": 6488,
    "Ġcorpus": 13039,
    "shunned": 22465,
    "solemn": 19818,
    "Ġplanisphere": 26603,
    "Ġdocks": 14181,
    "Ġphilosophers": 10548,
    "Ġcross": 1374,
    "degree": 12808,
    "Ġmeal": 9693,
    "follows": 24520,
    "Ġhoneymoon": 25641,
    "Ġinfidel": 13095,
    "ustry": 18359,
    "Ġrespectability": 14490,
    "Ġtypically": 1533,
    "ouses": 5160,
    "plans": 21953,
    "Ġquieted": 23837,
    "Ġoccurrence": 14389,
    "Ġreddening": 25967,
    "Ġramble": 9310,
    "Ġlif": 10192,
    "Ġappal": 18362,
    "hurt": 19879,
    "Ġsympathised": 14869,
    "Ġkick": 5839,
    "Ġwer": 12559,
    "tea": 18745,
    "Ġincline": 18573,
    "Ġfringe": 17274,
    "Ġsingularly": 12154,
    "Ġlivid": 14994,
    "Ġrelinquish": 17351,
    "cousin": 10648,
    "Ġtraitors": 23076,
    "Ġshamefully": 24706,
    "Ġamours": 22478,
    "repeating": 20130,
    "claims": 25317,
    "oft": 3595,
    "kill": 13751,
    "Ġtrick": 7022,
    "rants": 13785,
    "Ġwhereupon": 14299,
    "yingly": 23059,
    "Í": 142,
    "Ġfluttered": 16251,
    "Ġcreations": 18682,
    "Ġwhiff": 21718,
    "Ġruefully": 17304,
    "Ġcred": 8781,
    "derstand": 639,
    "Ġclank": 15974,
    "Ġglaciers": 20174,
    "Ġcandid": 4099,
    "Ġthrone": 12218,
    "Ġdictionary": 15116,
    "repent": 15513,
    "Ġcrushing": 20177,
    "datasets": 11955,
    "Ġbeards": 21752,
    "mai": 22912,
    "Ġgasp": 7174,
    "wards": 1279,
    "Ġcalendar": 18880,
    "argue": 21441,
    "Ġ$": 21148,
    "requiem": 24857,
    "expectant": 24269,
    "======================================================================": 10065,
    "tut": 15434,
    "Ġtester": 21171,
    "Ġchar": 1702,
    "anche": 10784,
    "Ġgot": 2281,
    "Ġxxxix": 24973,
    "entered": 8815,
    "Ġruins": 16159,
    "success": 6713,
    "cul": 1896,
    "stretch": 13981,
    "Ġinfluenced": 19638,
    "interests": 19713,
    "Ġdeclares": 16991,
    "ineer": 11704,
    "Ġpawn": 12068,
    "agon": 7872,
    "oton": 3610,
    "seamen": 13633,
    "Ġboun": 21377,
    "lantic": 6365,
    "Ġtried": 3651,
    "Ġecho": 12674,
    "Ġholidays": 22920,
    "Ġpours": 17909,
    "service": 15041,
    "Ġtrapped": 23075,
    "Ġpersistence": 3157,
    "Ġineff": 12642,
    "hilar": 25085,
    "Ġpoorly": 9852,
    "Ġreel": 9210,
    "Ġgurg": 15675,
    "woods": 13427,
    "sperm": 5200,
    "fourth": 11324,
    "Ġforbe": 8457,
    "Ġwaylaid": 22873,
    "Ġvis": 1063,
    "compassion": 12372,
    "folding": 24928,
    "Ġappeals": 16318,
    "spent": 12948,
    "Ġscientific": 6860,
    "subs": 14304,
    "seemed": 4302,
    "machine": 941,
    "perseus": 26001,
    "supplied": 10516,
    "Ġimprove": 1808,
    "dishon": 20405,
    "family": 7326,
    "igin": 3659,
    "Ġquery": 2481,
    "Ġloading": 15875,
    "Ġnormalizing": 1821,
    "Ġproport": 2299,
    "Ġexploded": 15910,
    "riminately": 16485,
    "Ġcomplied": 14741,
    "anse": 12582,
    "Ġguiltless": 16939,
    "formal": 14171,
    "Ġdeacon": 18146,
    "Ġbaleen": 10034,
    "Ġhandwriting": 14324,
    "Ġthrilling": 19753,
    "Ġcauldron": 25438,
    "Ġroods": 22404,
    "Ġhowl": 12861,
    "atever": 3072,
    "Ġmurmuring": 23573,
    "Ġevils": 9018,
    "Ġfading": 15584,
    "Ġriv": 10742,
    "imin": 1769,
    "Ġgate": 6827,
    "Ġbal": 1135,
    "surf": 24206,
    "esley": 17919,
    "reflections": 24729,
    "Ġclouds": 5778,
    "Ġunallied": 22029,
    "Ġbefriend": 18082,
    "Ġmil": 4253,
    "Ġreconciled": 13594,
    "men": 1484,
    "co": 2431,
    "Ġchanged": 5240,
    "Ġsophisticated": 1687,
    "Ġsuppression": 23000,
    "Ġeight": 3904,
    "shoals": 24708,
    "Ġorthodox": 22096,
    "noise": 14350,
    "Ġpods": 17912,
    "suspected": 12376,
    "Ġtending": 17722,
    "Ġdivinest": 25717,
    "Ġgrip": 11631,
    "Ġabrid": 22272,
    "Ġmost": 1021,
    "Ġassistance": 6335,
    "ynolds": 10033,
    "Ġcolumb": 22858,
    "Ġfootman": 8291,
    "Ġintrodu": 1923,
    "Ġanat": 8126,
    "Ġunexpected": 6844,
    "Ġtatters": 26406,
    "Ġfat": 3440,
    "Ľ": 254,
    "somewhere": 12016,
    "abilizing": 2921,
    "Ġsherlock": 3895,
    "Ġchose": 7415,
    "W": 59,
    "Ġfaces": 6013,
    "domestic": 19826,
    "Ġpetticoat": 15300,
    "Ġsubord": 22788,
    "Ġrazors": 22662,
    "rapid": 12678,
    "rily": 7624,
    "christian": 17233,
    "Ġplow": 21455,
    "Ġprayers": 12129,
    "nt": 920,
    "Ġpipes": 9847,
    "stretching": 20500,
    "iron": 3526,
    "kee": 18274,
    "Ġimbalance": 22175,
    "admirably": 24947,
    "invincible": 25093,
    "driven": 19774,
    "Ġn": 300,
    "hat": 6505,
    "divers": 15346,
    "eth": 620,
    "Ġnocturn": 18376,
    "changing": 10848,
    "Ġbrothers": 13182,
    "suppose": 8645,
    "Ġregions": 10319,
    "Ġinherit": 25349,
    "aiian": 23586,
    "H": 44,
    "aire": 10676,
    "bres": 11466,
    "Ġimagenet": 19247,
    "Ġapprehensions": 13412,
    "Ġbrimstone": 25682,
    "Ġmexico": 15285,
    "attracted": 13058,
    "Ġsyllable": 9726,
    "Ġlanguage": 651,
    "aping": 8196,
    "Ġunfrequently": 20740,
    "Ġomniscient": 20087,
    "Ġtackles": 8051,
    "lu": 597,
    "Ġcollinses": 19132,
    "Ġprogeny": 17392,
    "Ġexertions": 13418,
    "wn": 722,
    "Ġexisted": 15754,
    "Ġnames": 4533,
    "Ġ85": 24452,
    "Ġstudent": 14484,
    "Ġwitness": 4621,
    "Ġwant": 1121,
    "Ġgrudge": 20694,
    "Ġdeduction": 14905,
    "Ġmutually": 23951,
    "asting": 12813,
    "Ġencircling": 26269,
    "Ġproced": 2581,
    "treasures": 26149,
    "Ġconclusions": 10550,
    "Ġseem": 912,
    "Ġsagacious": 14975,
    "Ġsulky": 13522,
    "knight": 20939,
    "Ġinstrum": 6058,
    "rolled": 9057,
    "Ġner": 1642,
    "Ġperempt": 13682,
    "Ġendeared": 26494,
    "Ġcoefficient": 2881,
    "rows": 6441,
    "Ġcheek": 8578,
    "Ġpreternatural": 13677,
    "Ġmediocrity": 26604,
    "Ġmagazine": 23098,
    "Ġraving": 16118,
    "Ġunpleasing": 22052,
    "Ġcreep": 22717,
    "Ġ33": 16677,
    "Ġdecomposes": 5504,
    "painful": 13509,
    "roads": 17956,
    "arthur": 14840,
    "impl": 21707,
    "Ġlamentations": 17076,
    "cles": 8726,
    "exercise": 17461,
    "pig": 8753,
    "spiracle": 22728,
    "Ġ50": 24305,
    "evenings": 19467,
    "Ġconfining": 23302,
    "Ġresolution": 5498,
    "contrad": 19293,
    "Ġremot": 8544,
    "rudently": 16712,
    "Ġavowal": 19419,
    "Ġwre": 5076,
    "twill": 21072,
    "fixed": 7550,
    "Ġhairs": 13238,
    "Ġplata": 25062,
    "ness": 857,
    "Ġmotion": 4566,
    "Ġirresolution": 24916,
    "anque": 13895,
    "Ġmannish": 26235,
    "#": 7,
    "mysteries": 26047,
    "slept": 17171,
    "gs": 7340,
    "Ġtooth": 9189,
    "Ġleg": 2335,
    "Ġpersisting": 18896,
    "Ġbraces": 14674,
    "mangled": 20979,
    "Ġawed": 23579,
    "Ġconceits": 19394,
    "reproof": 25429,
    "Ġinfinite": 8577,
    "istical": 8491,
    "unders": 13318,
    "Ġblandly": 20322,
    "chastic": 2334,
    "Ġsevered": 18206,
    "azz": 8264,
    "w": 91,
    "droppers": 24752,
    "circled": 24182,
    "Ġdie": 3963,
    "Ġproclaim": 18132,
    "disappointment": 11420,
    "Ġvivid": 8058,
    "Ġitalian": 12413,
    "thoroughly": 26504,
    "Ġsearching": 13170,
    "ignor": 8959,
    "Ġrecital": 16143,
    "Ġbennett": 16328,
    "Ġscraps": 16901,
    "Ġsimilarly": 24300,
    "osis": 18390,
    "iop": 20918,
    "Ġchildhood": 13145,
    "posture": 16926,
    "rossed": 11006,
    "Ġbudge": 15169,
    "Ġcalifornia": 20531,
    "Ġvexations": 24600,
    "Ġscraping": 13424,
    "constit": 24595,
    "address": 14887,
    "sim": 6511,
    "ird": 2425,
    "Ġcapable": 5053,
    "Ġicicles": 25262,
    "Ġhorizon": 6634,
    "Ġassembl": 20064,
    "Ġpatient": 6868,
    "Ġcoopers": 20523,
    "Ġhats": 14564,
    "seat": 18126,
    "Ġdazzling": 15216,
    "Ġstraighten": 23998,
    "Ġeither": 2605,
    "Ġvehement": 16204,
    "Ġadvert": 10568,
    "Ġnorris": 23200,
    "Ġprom": 1524,
    "Ġvaliant": 9797,
    "Ġ81": 24449,
    "Ġunwarrant": 19936,
    "Ġtechnical": 17193,
    "Ġcorrespond": 6211,
    "Ġfirmly": 8015,
    "Ġpiratical": 24798,
    "Ġsevere": 6035,
    "Ĳ": 243,
    "sufficiently": 14985,
    "anzas": 17841,
    "ni": 1622,
    "command": 6576,
    "fair": 10089,
    "mingled": 14719,
    "Ġcomponents": 8892,
    "Ġspoil": 17009,
    "snap": 24849,
    "igations": 18044,
    "Ġsandwiched": 26606,
    "Ġlavater": 20496,
    "chant": 4257,
    "standing": 5557,
    "Ġfinal": 5398,
    "Ġdiligent": 25080,
    "Ġsalad": 19484,
    "Ġappare": 12828,
    "governed": 25402,
    "X": 60,
    "overs": 17621,
    "Ġamend": 16038,
    "Ġaverse": 11075,
    "Ġpian": 13923,
    "Ġcannib": 6039,
    "carefully": 13377,
    "Ġpassionately": 16765,
    "Ġimmersed": 19490,
    "Ġremainder": 9855,
    "Ġexpost": 18623,
    "Ġdissembling": 26252,
    "Ġbake": 21379,
    "often": 6167,
    "ssip": 14084,
    "Ġcontrary": 5258,
    "Ġwillingly": 8884,
    "Ġtour": 9145,
    "ctor": 13965,
    "egyptians": 25894,
    "Ġnorm": 763,
    "Ġimm": 3966,
    "league": 17845,
    "Ġhot": 4256,
    "Ġcases": 3962,
    "liter": 11498,
    "Ġsoot": 14135,
    "Ġroasted": 18460,
    "Ġfulfilment": 20188,
    "urned": 9303,
    "Ġsmoking": 6428,
    "Ġ1836": 25716,
    "Ġpassive": 22840,
    "Ġhistor": 3394,
    "rie": 2785,
    "Ġmistress": 8612,
    "atum": 21257,
    "Ġconsisting": 8969,
    "Ġmumbling": 11573,
    "Ġanteced": 26174,
    "Ġflaw": 23010,
    "yonder": 21142,
    "repeated": 12343,
    "isles": 15564,
    "Ġparched": 11732,
    "frau": 15093,
    "vering": 15717,
    "Ġvillains": 14757,
    "Ġcities": 17828,
    "disappointed": 25191,
    "ari": 672,
    "Ġwelfare": 12566,
    "dislike": 23487,
    "Ġsighing": 18677,
    "Ġingolstadt": 8335,
    "Ġprecautions": 23718,
    "Ġsuch": 796,
    "collect": 16563,
    "Ġproper": 1379,
    "ceive": 3057,
    "Ġshipped": 9711,
    "professor": 17250,
    "enjoyment": 17259,
    "icial": 12663,
    "agree": 14071,
    "ashion": 3860,
    "Ġjib": 14197,
    "ĉ": 202,
    "represented": 20196,
    "Ġbricks": 13569,
    "icha": 11743,
    "ascar": 8435,
    "Ġslappin": 18947,
    "Ġclamped": 18433,
    "Ġconsec": 21806,
    "Ġlover": 7194,
    "fort": 1747,
    "lose": 12889,
    "judges": 19580,
    "Ġcad": 12575,
    "Ġpinched": 17035,
    "Ġcashier": 20199,
    "Ġmarvell": 7249,
    "hounds": 20906,
    "yarn": 15457,
    "Ġgrat": 4057,
    "Ġzodiac": 16177,
    "Ġwhirlp": 16962,
    "Ġcoal": 18590,
    "ior": 2040,
    "Ġhues": 21486,
    "Ġteacher": 22911,
    "å": 166,
    "Ġvul": 10243,
    "Ġhint": 5016,
    "Ġtipt": 21172,
    "astic": 1865,
    "Ġembraces": 19873,
    "ado": 11661,
    "Ġgeese": 7697,
    "hyp": 15370,
    "Ġhearse": 10415,
    "Ġuniformity": 23477,
    "Ġjackets": 19608,
    "oot": 13772,
    "Ġendeavoured": 4916,
    "Ġdogs": 7744,
    "Ġadapt": 1002,
    "Ġtwopence": 18661,
    "ribly": 8257,
    "Ġinj": 4759,
    "Ġdrawing": 3920,
    "jol": 20924,
    "Ġpurchasing": 19876,
    "Ġwaking": 11569,
    "ispiece": 19730,
    "discharging": 26302,
    "Ġprevents": 2558,
    "Ġhal": 1363,
    "Ġdecaying": 2247,
    "Ġshowed": 4497,
    "Ġbloodthirsty": 26597,
    "Ġrelated": 3716,
    "Ġdrawling": 19441,
    "Ġensue": 18191,
    "Ġsacrilege": 26226,
    "Ġentities": 11869,
    "itzerland": 9992,
    "Ġsouth": 4907,
    "Ġswashing": 23054,
    "Ġhaunts": 18199,
    "intelligence": 5886,
    "Ġlethargy": 26478,
    "Ġpillows": 24991,
    "Ġhose": 12635,
    "Ġrepugnant": 26586,
    "Ġprediction": 2154,
    "Ġspare": 5100,
    "begged": 18521,
    "Ġprincely": 24142,
    "Ġwhichever": 14005,
    "llable": 6883,
    "Ġfriesland": 26438,
    "dreams": 12341,
    "Ġsu": 431,
    "Ġinheritance": 25352,
    "singular": 12194,
    "tail": 8762,
    "Ġhimself": 1351,
    "Ġsuperl": 16442,
    "Ġconqueror": 25792,
    "Ġswelled": 11081,
    "offered": 14519,
    "Ġportions": 19374,
    "Ġoldest": 12981,
    "Ġagrees": 22516,
    "range": 3496,
    "Ġgown": 10198,
    "Ġneck": 4883,
    "Ġjuncture": 17132,
    "colour": 9900,
    "Ġpen": 1529,
    "bearers": 18525,
    "Ġtill": 1824,
    "Ġindex": 17049,
    "oysius": 14369,
    "Ġcongeal": 25976,
    "fle": 7131,
    "cru": 7129,
    "rael": 21627,
    "lesome": 12972,
    "Ġbalanced": 12997,
    "Ġreservoir": 20650,
    "silver": 19695,
    "Ġful": 4295,
    "Ġbro": 1430,
    "Ġfulf": 6774,
    "Ġpistol": 7847,
    "fanning": 20865,
    "Ġvaulted": 25170,
    "underneath": 23781,
    "Ġpitched": 9442,
    "Ġcompliance": 12119,
    "Ġlikeness": 11173,
    "Ġsealed": 15819,
    "aling": 1036,
    "deserving": 17246,
    "Ġsou": 1884,
    "racted": 4775,
    "Ġsocket": 12796,
    "Ġasiatic": 20431,
    "Ġrecovered": 5480,
    "Ġattending": 3285,
    "Ġblackstone": 23383,
    "Ġsplin": 8618,
    "precise": 19356,
    "00": 1608,
    "enjoy": 10770,
    "inence": 15481,
    "Ġtwit": 12936,
    "Ġwapping": 21292,
    "Ġsave": 4051,
    "peculiarity": 23108,
    "Ġepaulets": 24906,
    "Ġengineer": 11978,
    "ĠâĢľ_": 6699,
    "Ġstopping": 2748,
    "Ġnay": 5714,
    "dan": 17517,
    "Ġglass": 4370,
    "teenth": 11880,
    "necessarily": 19637,
    "Ġxxv": 19722,
    "cannibal": 15229,
    "Ġcompares": 20167,
    "reserve": 17763,
    "Ġwrenching": 17326,
    "Ġtok": 1249,
    "Ġequality": 16362,
    "cheer": 9435,
    "Ġfervour": 19743,
    "Ġjon": 15949,
    "Ġfainting": 16896,
    "oo": 7555,
    "Ġconcern": 2587,
    "Ġaccountability": 10434,
    "described": 18898,
    "intimate": 22935,
    "Ġcondescended": 19959,
    "Ġcontraction": 16009,
    "ryphon": 4163,
    "Ġoath": 7833,
    "Ġsnatched": 10467,
    "Ġparagra": 15880,
    "Ġbildad": 3782,
    "tiger": 13804,
    "Ġpinioned": 21479,
    "Ġthank": 3792,
    "Ġinputs": 843,
    "Ġserious": 4321,
    "partly": 14606,
    "Ġunivers": 2123,
    "agos": 21905,
    "steps": 9402,
    "roylott": 20029,
    "beam": 16042,
    "Ġmax": 2007,
    "stre": 5449,
    "Ġfelicity": 7261,
    "Ġnewcomer": 26036,
    "Ġuntamed": 19169,
    "Ġpropri": 6741,
    "Ġmatrim": 11015,
    "wouldn": 23530,
    "mortals": 25406,
    "aculate": 16083,
    "Ġremoved": 5272,
    "Ġweapons": 10589,
    "Ġlassitude": 20587,
    "fro": 8733,
    "endeavouring": 15020,
    "Ġlesson": 7277,
    "Ġfortun": 4982,
    "ssian": 3403,
    "Ġvess": 3297,
    "devils": 20035,
    "fears": 18529,
    "relatively": 24009,
    "Ġindiscreet": 22954,
    "wanderer": 25420,
    "Ġpretence": 13214,
    "ppings": 18179,
    "Ġpartake": 18671,
    "Ġmorose": 18853,
    "positive": 20567,
    "Ġstillness": 13003,
    "Ġhandled": 12944,
    "alle": 1297,
    "Ġdesert": 6730,
    "opolising": 25672,
    "acceler": 23592,
    "Ġbacking": 16116,
    "peasant": 23109,
    "Ġmingling": 20198,
    "oop": 10712,
    "Ġface": 1721,
    "Ġveneration": 25048,
    "Ġlob": 7630,
    "Ġbubblingly": 25628,
    "Ġentailed": 11023,
    "Ġoarsman": 8638,
    "Ġaccommodate": 20517,
    "Ġscriptures": 26233,
    "Ġprestige": 22236,
    "writes": 4988,
    "Ġcontrari": 23343,
    "shroud": 20311,
    "Ġ180": 16606,
    "Ġhour": 1811,
    "answered": 10269,
    "ities": 1826,
    "Ġpanther": 16820,
    "================================================================": 9987,
    "Ġwherever": 8524,
    "Ġgoin": 18470,
    "Ġshaping": 22004,
    "Ġstomach": 11656,
    "Ġsleepless": 14586,
    "neville": 22451,
    "Ġpolynes": 16080,
    "Ġinstruct": 2861,
    "Ġpulley": 2969,
    "Ġishmael": 7397,
    "Ġpromoting": 3159,
    "isition": 11586,
    "kered": 18275,
    "Ġlibraries": 20614,
    "bows": 10078,
    "publ": 17638,
    "anthrop": 17385,
    "Ġsmelling": 16070,
    "Ġinvolved": 8925,
    "Ġcorrespondent": 19823,
    "Ġcommon": 1414,
    "Ġbracing": 16581,
    "pleasures": 24041,
    "whalers": 17266,
    "Ġlove": 2054,
    "Ġlurid": 19686,
    "Ġsympat": 13349,
    "Ġinsincere": 26594,
    "ringle": 21038,
    "Ġscimet": 22288,
    "ir": 379,
    "Ġ(âĢľ": 15996,
    "infliction": 25920,
    "could": 2869,
    "Ġsaved": 6693,
    "Ġcrows": 24026,
    "Ġdownwards": 8530,
    "Ġregular": 944,
    "Ġmassachusetts": 24017,
    "swiss": 24249,
    "Ġlimp": 19185,
    "Ġwantest": 18795,
    "Ġscholar": 26108,
    "unwillingness": 25798,
    "Ġtenth": 13833,
    "Ġconvolutions": 21808,
    "Ġheartily": 6894,
    "Ġobliterated": 17409,
    "jure": 20923,
    "someone": 14569,
    "jewel": 20348,
    "Ġumbrella": 15270,
    "Ġpatience": 2543,
    "Ġconventional": 25543,
    "Ġblurred": 22929,
    "Ġlanded": 7470,
    "Ġsymbolize": 24965,
    "andy": 8160,
    "mming": 1172,
    "summon": 23411,
    "Ġunavailing": 26213,
    "Ġarmitage": 23575,
    "Ġhogshead": 26364,
    "Ġcongratulatory": 19770,
    "Ġinjure": 16782,
    "ants": 1390,
    "Å": 134,
    "Ġpatchwork": 24141,
    "Ġtransformations": 3486,
    "zening": 21146,
    "Ġfaintest": 24559,
    "Ġirresolute": 24917,
    "Ġegotistical": 26189,
    "icit": 3380,
    "sugg": 11844,
    "Ġhoot": 19077,
    "erc": 5908,
    "bell": 7334,
    "ğ": 224,
    "soles": 18685,
    "Ġdrunkard": 20178,
    "alarmed": 21500,
    "Ġnominally": 17232,
    "Ġlongest": 18634,
    "Ġliveliness": 13650,
    "Ġsorts": 6891,
    "Ġencoding": 4773,
    "Ġchoicest": 24214,
    "erative": 21270,
    "Ġadjac": 18293,
    "Ġexceptional": 19376,
    "rossing": 18642,
    "Ġreflect": 6575,
    "Ġbravest": 23835,
    "alled": 5915,
    "accordingly": 19217,
    "ree": 872,
    "Ġalternate": 19989,
    "Ġchristian": 6479,
    "Ġbehav": 3543,
    "Ġlouder": 13476,
    "ographical": 16787,
    "Ġinfants": 16366,
    "Ġbenef": 3490,
    "Ġouthouse": 22314,
    "cely": 3578,
    "Ġhall": 4183,
    "acency": 12914,
    "orate": 10795,
    "Ġbrightest": 13233,
    "iet": 1774,
    "Ġsub": 951,
    "Ġdestro": 3723,
    "Ġseparating": 16683,
    "Ġat": 395,
    "Ġresuming": 12900,
    "Ġmontan": 22983,
    "Ġsplashed": 23735,
    "bre": 3979,
    "Ġstrip": 9419,
    "Ġweeds": 21925,
    "dom": 6224,
    "shipped": 18494,
    "Ġincant": 18572,
    "Ġreasoning": 2012,
    "mand": 3896,
    "Ġprecious": 5763,
    "Ġcomplimented": 14910,
    "Ġsoutherly": 23329,
    "Ġoccupy": 14738,
    "laying": 19775,
    "Ġdeaths": 14540,
    "rack": 18011,
    "Ġqualifications": 24667,
    "Ġcul": 17823,
    "Ġoil": 3375,
    "orn": 2243,
    "jonah": 11493,
    "inexplicable": 25804,
    "Ġfurlong": 18744,
    "grieved": 17320,
    "diligence": 26107,
    "moored": 22702,
    "L": 48,
    "crated": 16684,
    "B": 38,
    "Ġmovement": 9965,
    "Ġdipping": 15592,
    "Ġunderwent": 23235,
    "Ġexhilar": 19688,
    "doesn": 19821,
    "rabbit": 20591,
    "Ġstaggered": 9537,
    "Ġbanqu": 12596,
    "Ġrendering": 16659,
    "Ġrefers": 1567,
    "Ġviciss": 11288,
    "happiness": 6468,
    "Ġforster": 5227,
    "Ġeffemin": 18537,
    "quickness": 19850,
    "dispositions": 25014,
    "Ġturkey": 19335,
    "Ġcontrivance": 17185,
    "Ġscalding": 16326,
    "reach": 17755,
    "henomena": 20272,
    "either": 6793,
    "Ġ51": 24306,
    "94": 4802,
    "hailed": 17565,
    "Ġdisinclination": 22537,
    "eager": 12465,
    "phren": 22786,
    "itals": 17821,
    "Ġaccounted": 10290,
    "Ġconcer": 23316,
    "Ġneurons": 978,
    "isms": 12587,
    "Ġstatue": 23146,
    "clay": 18935,
    "Ġreveren": 13204,
    "Ġinsinuating": 19272,
    "Ġbite": 10792,
    "Ġnineveh": 13396,
    "Ġpr": 1597,
    "irons": 10234,
    "Ġfoiled": 23241,
    "serious": 14454,
    "Ġliterature": 17150,
    "elements": 25203,
    "Ġtwin": 12935,
    "ply": 6366,
    "Ġparch": 11731,
    "athered": 6976,
    "Ġmust": 844,
    "Ġretain": 7864,
    "ascertaining": 26456,
    "forgotten": 12419,
    "Ġire": 12677,
    "Ġdispelling": 23874,
    "hester": 9628,
    "Ġunde": 11717,
    "Ġnursed": 16884,
    "untarily": 6314,
    "deliber": 17430,
    "am": 368,
    "Ġencomp": 12970,
    "irect": 5552,
    "Ġdive": 10170,
    "passed": 8026,
    "batt": 20779,
    "Ġdreamed": 16630,
    "Ġscaramouch": 23822,
    "Ġnevertheless": 5039,
    "Ġboasting": 19939,
    "orphans": 26436,
    "Ġdaughter": 2866,
    "Ġlodges": 19505,
    "persecutor": 26525,
    "Ġdoran": 9176,
    "ssible": 2985,
    "dishonourable": 26362,
    "ict": 590,
    "Ġgratify": 19508,
    "elihood": 4622,
    "Ġdirected": 5579,
    "Ġbanish": 15570,
    "Ġvoice": 2192,
    "Ġlac": 17964,
    "Ġdis": 694,
    "Ġflap": 14428,
    "Ġdisabled": 18562,
    "Ġinsomuch": 23674,
    "Ġinward": 11609,
    "ball": 7795,
    "Ġpace": 9179,
    "addressing": 24392,
    "kins": 7347,
    "conscientious": 19632,
    "Ġwhal": 5452,
    "Ġbruited": 25769,
    "Ġjung": 12843,
    "Ġdisappearing": 22534,
    "afflicted": 23768,
    "fashioned": 9568,
    "Ġsympathies": 14868,
    "independ": 15982,
    "Ġnetworks": 596,
    "Ġprophecy": 25701,
    "proble": 9390,
    "shaven": 18495,
    "Ġdarker": 13129,
    "open": 7030,
    "Ġprovince": 24184,
    "gather": 20874,
    "Ġbeale": 12707,
    "Ġeyford": 10637,
    "Ġslipped": 6492,
    "Ġdistress": 5846,
    "Ġblocked": 19224,
    "Ġspotted": 12144,
    "Ġivory": 4478,
    "bet": 6112,
    "Ġreverie": 13465,
    "special": 14711,
    "Ġare": 527,
    "Ġsaf": 4000,
    "ot": 346,
    "erxes": 21273,
    "Ġeloped": 22646,
    "Ġacknowled": 6352,
    "husband": 8042,
    "immed": 9214,
    "Ġslides": 18943,
    "spread": 8388,
    "Ġclum": 8872,
    "Ġsupport": 6731,
    "Ġhollow": 5649,
    "Ġsmoked": 10318,
    "mid": 5618,
    "Ġconceivable": 16613,
    "quod": 2164,
    "Ġobli": 9313,
    "Ġnear": 1717,
    "Ġunstructured": 2997,
    "Ġeast": 5368,
    "become": 14251,
    "Ġol": 17815,
    "Ġfifty": 4623,
    "Ġfairer": 20463,
    "Ġindul": 5859,
    "aning": 2253,
    "Ġdelineate": 26053,
    "ditch": 17530,
    "shame": 16025,
    "cook": 8272,
    "Ġchest": 5182,
    "Ġvisitor": 5329,
    "Ġimposs": 16616,
    "henry": 16626,
    "Ġconfine": 14513,
    "¦": 104,
    "jump": 10100,
    "Ġrelief": 6063,
    "dirty": 20833,
    "centre": 17087,
    "chor": 6148,
    "Ġslaught": 23165,
    "Ġnewspaper": 12368,
    "tort": 17673,
    "Ġbreeze": 5683,
    "Ġwet": 6519,
    "gered": 9273,
    "ock": 15402,
    "leagues": 21371,
    "sledge": 21055,
    "Ġblocks": 6323,
    "Ġnour": 10825,
    "ellation": 12756,
    "Ġreturning": 5323,
    "arnel": 18125,
    "Ġpoem": 22587,
    "pat": 4037,
    "Ġsquall": 7047,
    "Ġsnodhead": 19302,
    "Ġrucastles": 18721,
    "Ġkicked": 10578,
    "Ġsquaw": 22838,
    "Ġmilitary": 11252,
    "**": 4684,
    "ital": 4817,
    "Ġpraises": 16732,
    "Ġgrap": 11712,
    "Ġproceeded": 5334,
    "Ġgore": 17989,
    "habit": 16192,
    "Ġsubtile": 20382,
    "Ġwoody": 23514,
    "tanh": 5201,
    "enance": 3373,
    "Ġsimilitude": 19214,
    "Ġwhole": 1658,
    "ires": 6041,
    "aggo": 5095,
    "boom": 19001,
    "Ġlastly": 16207,
    "Ġrobbery": 11924,
    "comm": 7441,
    "Ġbang": 17855,
    "Ġpeered": 18669,
    "Ġanswering": 7479,
    "Ġkuiperai": 10929,
    "Ġjoky": 18407,
    "collins": 6919,
    "avier": 2828,
    "Ġtashtego": 4488,
    "Ġpraised": 19560,
    "Ġgrain": 15832,
    "Ġtarpaul": 17728,
    "Ġslow": 2377,
    "Ġtherein": 11780,
    "ĠâĢĶ_": 3461,
    "Ġscot": 5644,
    "ainted": 3662,
    "Ġdark": 2111,
    "Ġillustrious": 17110,
    "Ġdre": 1743,
    "Ġfascinating": 17331,
    "Ġflames": 7940,
    "strength": 13980,
    "Ġassault": 9834,
    "Ġeucl": 24699,
    "Ġthrowing": 6337,
    "Ġ156": 20171,
    "itance": 13875,
    "burst": 10536,
    "asional": 17959,
    "Ġhonor": 5666,
    "resides": 23657,
    "Ġparading": 23701,
    "iation": 7345,
    "god": 4862,
    "Ġbugs": 13655,
    "mon": 2309,
    "Ġarrested": 9558,
    "himself": 3972,
    "Ġrussia": 26264,
    "Ġmathematical": 3354,
    "Ġqueens": 16704,
    "ropes": 7903,
    "Ġduke": 7758,
    "Ġclothing": 18431,
    "Ġharsh": 9519,
    "ß": 160,
    "Ġfiss": 21409,
    "Ġheadsman": 13281,
    "Ġprinciple": 6772,
    "prejudiced": 17300,
    "fuller": 22487,
    "asted": 4648,
    "Ġtowards": 1729,
    "Ġprofited": 19196,
    "Ġinterest": 2248,
    "contains": 16035,
    "Ġapothe": 12379,
    "iful": 2878,
    "coast": 10445,
    "Ġcomprehension": 15090,
    "bbings": 19277,
    "rated": 6229,
    ":âĢĶ": 4433,
    "Ġcontradict": 12389,
    "otently": 21801,
    "Ġlargely": 14288,
    "Ġstarry": 16922,
    "Ġtouches": 20570,
    "Ġsolitary": 5857,
    "Ġobliquely": 12366,
    "mockery": 24369,
    "Ġwelcomed": 9480,
    "Ġdistributes": 4196,
    "Ġfly": 3871,
    "fresh": 13399,
    "Ġdetermine": 3246,
    "tier": 12520,
    "endure": 22225,
    "Ġvanishing": 1346,
    "sister": 5658,
    "Ġproperty": 6449,
    "Ġarch": 930,
    "Ġwheelbarrow": 17205,
    "hedge": 22500,
    "wake": 11543,
    "Ġbuzz": 23992,
    "icient": 781,
    "Ġsomeone": 6706,
    "Ġcarpets": 18906,
    "Ġkn": 4546,
    "reporting": 24486,
    "mmet": 10983,
    "assuming": 22310,
    "Ġclean": 5653,
    "clusion": 16307,
    "Ġarabian": 9089,
    "Ġreservo": 16830,
    "Ġexecutors": 19539,
    "5": 25,
    "deformity": 22147,
    "Ġsuppressed": 11917,
    "Ġerecting": 24641,
    "dried": 20826,
    "som": 3291,
    "iters": 21327,
    "Ġpretension": 23754,
[...]
