{
  "metadata": {
    "vocab_size": 26616,
    "algorithm": "BPE",
    "created_at": "2026-08-23 02:59:42",
    "special_tokens": [
      "<PAD>",
      "<SOS>",
      "<EOS>",
      "<UNK>",
      "<MASK>"
    ]
  },
  "vocab": {
    "Ġmonths": 3453,
    "lives": 12490,
    "Ġsoar": 18278,
    "contr": 12061,
    "abri": 6684,
    "Ġsuavely": 26525,
    "intimate": 22940,
    "nment": 20992,
    "Ġimportant": 1067,
    "ellect": 7381,
    "Ġunce": 11715,
    "Ġresistance": 13533,
    "Ġtorrid": 25035,
    "Ġcastor": 19430,
    "Ġimmaculate": 19489,
    "iffs": 9025,
    "careful": 14869,
    "Ġpresents": 8245,
    "four": 6115,
    "ending": 1990,
    "inclined": 10642,
    "Ġ2026": 12339,
    "Ġaperture": 26161,
    "Ġmig": 13859,
    "Ġdepend": 785,
    "Ġcrockery": 24303,
    "gazed": 15365,
    "Ã": 132,
    "Ġtormented": 8678,
    "sixteen": 24854,
    "Ġjackal": 24242,
    "Ġcommunications": 16358,
    "ior": 2039,
    "R": 54,
    ";âĢĿâĢĶ": 20762,
    "culine": 19065,
    "ces": 579,
    "Ġender": 11694,
    "Ġflame": 7448,
    "endless": 22230,
    "speaking": 12103,
    "su": 801,
    "Ġers": 15463,
    "pret": 7212,
    "urned": 9309,
    "oder": 2458,
    "Ġdru": 8423,
    "Ġdoesn": 7438,
    "Ġcunning": 6240,
    "Ġautonom": 10417,
    "mystery": 15159,
    "Ġarrangement": 2658,
    "Ġartful": 22609,
    "Ġdavy": 25952,
    "Ġconqueror": 25797,
    "vand": 21111,
    "stranger": 9886,
    "imate": 4223,
    "Ġscratch": 25565,
    "Ġportly": 14680,
    "fen": 20852,
    "ij": 7802,
    "enced": 4299,
    "Ġbehavioral": 11398,
    "Ġobstacles": 19838,
    "accidents": 19214,
    "Ġancestors": 25643,
    "nez": 22451,
    "Ġdiscovers": 4431,
    "Ġwarb": 17789,
    "Ġoun": 13866,
    "E": 41,
    "Ġtrem": 6662,
    "Ġsuspect": 5758,
    "Ġross": 2764,
    "Ġantique": 19554,
    "vine": 10736,
    "Ġobjecting": 18897,
    "presum": 12873,
    "Ġcounsel": 13619,
    "Ġaslant": 21905,
    "Ġcrowned": 16843,
    "consum": 12878,
    "Ġrepeatedly": 9024,
    "hearse": 17750,
    "icide": 11621,
    "Ġexception": 11218,
    "orte": 14187,
    "Ġstile": 21736,
    "opinion": 10987,
    "Ġswings": 11089,
    "moral": 14805,
    "Ġheaped": 18040,
    "hereditary": 26421,
    "Ġest": 2264,
    "quet": 6835,
    "Ġblueprints": 13175,
    "anted": 5027,
    "Ġstairs": 5541,
    "Ġphren": 8575,
    "Ġsquint": 22839,
    "Ġextravagant": 17281,
    "Ġtossing": 8126,
    "Ġintervene": 25481,
    "plainly": 11092,
    "range": 3493,
    "Ġmess": 7831,
    "Ġmultiple": 1187,
    "Ġyankees": 26203,
    "father": 3779,
    "Ġbarrens": 25502,
    "oko": 18441,
    "Ġdut": 2989,
    "Ġmotioned": 19595,
    "Ġlists": 11168,
    "oce": 10716,
    "Ġhemisphere": 26480,
    "Ġbelike": 18831,
    "Ġgobern": 22427,
    "unctuous": 21886,
    "collar": 19330,
    "Ġbacking": 16121,
    "Ġbranches": 6777,
    "iations": 11497,
    "chapter": 1403,
    "Ġthreads": 13122,
    "Ġexponential": 1059,
    "Ġ1820": 25718,
    "Ġspiced": 22137,
    "brated": 12031,
    "Ġintellectual": 11403,
    "Ġobservant": 20113,
    "Ġident": 2239,
    "Ġslopes": 18943,
    "Ġprompted": 23820,
    "crimes": 16686,
    "Ġirretrie": 23377,
    "Ġcommencement": 12243,
    "adel": 15733,
    "Ġfluctuating": 24417,
    "mund": 13761,
    "!_âĢĶ": 19976,
    "Ġfinancial": 23132,
    "ward": 705,
    "Ġtaste": 5524,
    "swelled": 19613,
    "Ġsod": 11564,
    "Ġstraps": 19312,
    "Ġspectators": 19410,
    "Ġmarvels": 11086,
    "Ġpivot": 13926,
    "wives": 15458,
    "Ġmccauley": 26429,
    "ises": 3655,
    "Ġcounterpart": 24720,
    "probably": 10023,
    "enet": 10155,
    "Ġforbade": 15218,
    "keenest": 25662,
    "storm": 9684,
    "Ġdreaming": 11225,
    "nostr": 22722,
    "Ġjackson": 24243,
    "Ġadhering": 14142,
    "Ġhammer": 6095,
    "hoist": 23716,
    "Ġdidn": 4366,
    "Ġfurlong": 18742,
    "nament": 11509,
    "unwillingness": 25803,
    "Ġglu": 15672,
    "Ġfiner": 13058,
    "feel": 3814,
    "itate": 6670,
    "cried": 8728,
    "Ġmurder": 4284,
    "Ġfur": 990,
    "cannibal": 15228,
    "Ġdarcy": 1342,
    "Ġfacilitate": 26099,
    "natural": 2310,
    "Ġirreproachable": 24918,
    "uine": 13802,
    "Ġrazors": 22660,
    "Ġvibrating": 13541,
    "ortment": 22261,
    "Ġliberties": 19670,
    "sand": 21055,
    "ov": 15403,
    "pul": 8757,
    "Ġeffemin": 18530,
    "Ġbrace": 11213,
    "Ġoarsmen": 7738,
    "Ġacquiesced": 25494,
    "Ġwishing": 7830,
    "convul": 24884,
    "Ġcooked": 13274,
    "teeth": 10358,
    "harb": 9126,
    "Ġelephant": 8256,
    "Ġclimbing": 20073,
    "Ġblown": 12090,
    "intending": 22938,
    "Ġhints": 8431,
    "Ġenormity": 19698,
    "Ġparalle": 1410,
    "acet": 5476,
    "umerable": 11729,
    "quohog": 21856,
    "Ġ90": 24589,
    "Ġnavy": 14919,
    "bone": 5612,
    "Ġgoethe": 22426,
    "ort": 522,
    "studies": 25170,
    "Ġcoat": 4556,
    "Ġvenetian": 14850,
    "Ġpersevering": 20236,
    "advanced": 19591,
    "Ġcleaving": 23185,
    "owers": 12690,
    "milk": 20480,
    "secondly": 16986,
    "arding": 22161,
    "Ġnarrated": 14874,
    "g": 75,
    "Ġnocturn": 18376,
    "ful": 677,
    "accompan": 11454,
    "Q": 53,
    "rain": 461,
    "impenet": 18056,
    "Ġbelonging": 8308,
    "feather": 16045,
    "Ġcattle": 12577,
    "Ġrapid": 1446,
    "Ġchancery": 20718,
    "Ġproposal": 10022,
    "Ġtatters": 21180,
    "Ġimport": 1024,
    "Ġdreadful": 4921,
    "ander": 6402,
    "raved": 18015,
    "shaw": 6864,
    "Ġland": 1997,
    "Ġuncommon": 5026,
    "Ġshrunk": 16720,
    "Ġsignificant": 8637,
    "Ġturban": 23615,
    "Ġperils": 6274,
    "Ġfortnight": 6202,
    "wild": 8771,
    "feeders": 25236,
    "rank": 21044,
    "ĠĊ": 12528,
    "Ġpantheistic": 26337,
    "Ġacquaintances": 17353,
    "Ġarched": 10934,
    "invite": 25091,
    "Ġthrowing": 6337,
    "impat": 11204,
    "Ġreiterating": 26476,
    "cen": 17505,
    "[_": 5131,
    "itiously": 13874,
    "urons": 3131,
    "ituted": 13876,
    "stones": 11638,
    "nowled": 5470,
    "Ġninetieth": 25358,
    "Ġmapple": 11152,
    "Ġellenborough": 26155,
    "Ġwoe": 4794,
    "Ġskylarking": 19490,
    "Ġremonstrate": 22798,
    "Ġapparition": 8067,
    "Ġzer": 1096,
    "gia": 20878,
    "glory": 23855,
    "Ġconnection": 5479,
    "sculptured": 26048,
    "Ġcolonial": 22859,
    ",âĢĿ": 580,
    "ourage": 2450,
    "Ã¦st": 24178,
    "Ġprophesied": 26063,
    "Ġmargin": 11925,
    "Ã¦": 4341,
    "Ġinput": 608,
    "copyright": 5278,
    "Ġrecogn": 2690,
    "excitement": 19672,
    "ission": 6458,
    "Ġstrove": 9960,
    "Ġlick": 21553,
    "Ġporch": 19683,
    "Ġdisappointing": 19582,
    "Ġquivering": 12863,
    "Ġdrowned": 9555,
    "ready": 2361,
    "Ġpupp": 10822,
    "ded": 2756,
    "grounds": 11153,
    "Ġdiscomp": 11870,
    "drifting": 19827,
    "Ġartist": 12917,
    "ilations": 21725,
    "Ġretreated": 13437,
    "Â·": 21152,
    "Ġupdating": 2691,
    "Ġpieces": 7369,
    "Ġpoint": 2055,
    "Ġamsterdam": 22488,
    "Ġmurmuring": 23581,
    "arat": 9183,
    "Ġbefallen": 12347,
    "Ġseventeen": 26212,
    "Ġimproving": 1210,
    "Ġirresistible": 13117,
    "set": 3867,
    "Ġlightness": 23263,
    "indulged": 22379,
    "Ġnapoleons": 25886,
    "Ġassemblage": 26354,
    "Ġthreats": 13381,
    "Ġjacobian": 2894,
    "Ġretreat": 6071,
    "pig": 8756,
    "Ġmidnight": 5266,
    "Ġstructures": 2721,
    "Ġremote": 8923,
    "Ġparent": 14647,
    "Ġdepends": 1100,
    "Ġnominally": 17234,
    "whales": 5187,
    "inking": 6711,
    "quick": 6401,
    "contact": 23730,
    "Ġmund": 21321,
    "subject": 6634,
    "Ġperusal": 14226,
    "itted": 2440,
    "Ġbeginning": 4246,
    "Ġstre": 2107,
    "Ġuntoward": 19167,
    "Ġsunny": 13090,
    "Ġconfidently": 24958,
    "Ġjoosy": 23633,
    "Ġelbow": 12926,
    "Ġsunday": 7270,
    "Ġteacher": 22914,
    "Ġirreduc": 5491,
    "Ġremoved": 5275,
    "Æ": 135,
    "Ġpalms": 8647,
    ".âĢĶ": 4252,
    "irons": 10241,
    "Ġbough": 13897,
    "eches": 8078,
    "Ġepid": 18007,
    "Ġspikes": 22140,
    "abeth": 907,
    "bag": 7542,
    "Ġtoil": 6533,
    "Ġpassing": 4318,
    "superst": 11327,
    "geor": 15982,
    "Ġfolds": 12211,
    "Ġmarine": 23038,
    "unicorn": 21893,
    "Ġpleasanter": 19067,
    "Ġappo": 8500,
    "Ġrides": 21975,
    "Ġpossession": 5589,
    "Ġpreposterous": 13673,
    "Ġverse": 16604,
    "Ġhigher": 1822,
    "palms": 25263,
    "gunwale": 20665,
    "Ġsince": 1797,
    "Ġsketch": 16169,
    "vable": 10135,
    "Ġalleg": 14020,
    "pet": 4868,
    "Ġefficiently": 3510,
    "Ġmournful": 12340,
    "Ġjourneys": 19478,
    "bouton": 17504,
    "acceptable": 25185,
    "Ġgord": 21603,
    "Ġquit": 5247,
    "sprit": 11384,
    "cripp": 20821,
    "sound": 6800,
    "mounting": 25208,
    "ificent": 8184,
    "understood": 13220,
    "Ġshut": 3945,
    "slipping": 25529,
    "Ġupward": 9724,
    "edged": 15635,
    "business": 5610,
    "bearings": 25372,
    "Ġreduces": 2344,
    "already": 6981,
    "Ġgaieties": 24198,
    "Ĳ": 243,
    "Ġuneasily": 24233,
    "Ġriver": 5411,
    "struck": 7862,
    "Ġrespond": 11178,
    "Ġcupboard": 16885,
    "Ġstatements": 7516,
    "contrast": 25595,
    "Ġsway": 7571,
    "Ġprimitive": 25064,
    "unctions": 18158,
    "Ġcamberwell": 25351,
    "Ġendowed": 18925,
    "Ġdeeply": 4718,
    "Ġchurning": 15941,
    "practised": 20250,
    "Ġimposs": 16618,
    "idious": 11665,
    "prit": 19345,
    "stay": 9683,
    "Ġexult": 10232,
    "ender": 9163,
    "inks": 6869,
    "Ġferry": 24498,
    "ributed": 8215,
    "hus": 5072,
    "Ġclearness": 23187,
    "missing": 13224,
    "Ġsecuring": 11996,
    "ifies": 6688,
    "Ġsilk": 11967,
    "daughters": 13470,
    "account": 5330,
    "spirits": 8055,
    "Ġdepartments": 24245,
    "Ġnur": 5710,
    "never": 3153,
    "nurs": 21001,
    "Ġpounds": 5368,
    "Ġwrig": 13073,
    "Ġentertaining": 16928,
    "Ġclung": 10961,
    "Ġheedfulness": 24522,
    "unders": 13315,
    "Ġmelt": 21320,
    "Ġearthly": 7990,
    "benefit": 24643,
    "Ġdaughters": 4425,
    "Ġhorner": 8961,
    "Ġarchly": 22782,
    "Ġlashings": 25100,
    "compassion": 12372,
    "being": 3915,
    "scand": 18857,
    "Ġheavy": 3744,
    "Ġconveniently": 20082,
    "Ġeveryone": 8921,
    "Ġshoes": 7073,
    "manif": 14376,
    "Ġpore": 21461,
    "proportions": 22850,
    "hood": 2660,
    "achusetts": 20712,
    "Ġassisted": 11113,
    "Ġpursuing": 9441,
    "Ġacquire": 2724,
    "Ġcoleridge": 18769,
    "Ġalbino": 20506,
    "super": 5945,
    "Ġgenus": 24429,
    "Ġillum": 9403,
    "Ġsurmise": 12299,
    "Ġimproper": 22755,
    "Ġstru": 2170,
    "Ġrep": 1936,
    "Ġunden": 22015,
    "Ġexploded": 15913,
    "Ġincapable": 7423,
    "not": 909,
    "rown": 2192,
    "Ġdissu": 18551,
    "Ġriv": 10748,
    "ough": 471,
    "Ġsure": 1866,
    "Ġ40": 14772,
    "fing": 13716,
    "Ġsaying": 3245,
    "properly": 24919,
    "Ġtiles": 17728,
    "Ġpersonal": 7479,
    "farm": 15355,
    "Ġ79": 24267,
    "Ġoccupies": 24011,
    "Ġformula": 2865,
    "flame": 16640,
    "Ġinstrument": 7120,
    "Ġbuoyant": 13535,
    "Ġhurricane": 16434,
    "Ġagitated": 7648,
    "aulding": 11341,
    "Ġcows": 15557,
    "Ġwandered": 6930,
    "Ġvows": 15812,
    "Ġpoison": 7219,
    "Ģ": 227,
    "Ġrecommended": 8671,
    "educated": 17262,
    "Ġlanguid": 14216,
    "Ġclum": 8876,
    "plunging": 25988,
    "surprised": 9534,
    "Ġsplintered": 11420,
    "Ġdominant": 12400,
    "Ġfears": 5729,
    "dashed": 12460,
    "Ġkeener": 22919,
    "chemical": 23811,
    "Ġcowards": 12578,
    "conclusions": 25674,
    "endering": 21287,
    "apparently": 15208,
    "tps": 11537,
    "corrid": 24484,
    "Ġunless": 4091,
    "pict": 8386,
    "Ġconspicuous": 13607,
    "Ġconscience": 6929,
    "Ġmirth": 15549,
    "angible": 22109,
    "Ġminimize": 7052,
    "chari": 21692,
    "Ġprobability": 1126,
    "puzzling": 26144,
    "Ġcommotion": 9783,
    "antled": 18287,
    "w": 91,
    "Ġplug": 17150,
    "Ġquant": 6425,
    "Ġyaw": 18097,
    "Ġsixteen": 8283,
    "Ġchecking": 23289,
    "gall": 6361,
    ",--": 2475,
    "Ġarticulated": 24433,
    "breat": 10081,
    "Ġconse": 21808,
    "are": 637,
    "dances": 17523,
    "Ġfurled": 22817,
    "âĢĶ(": 15942,
    "clifford": 23159,
    "Ġdead": 2171,
    "fury": 17549,
    "Ġdaring": 8121,
    "standing": 5558,
    "Ġfixing": 13160,
    "ilent": 21723,
    "strom": 15687,
    "Ġdiffer": 18675,
    "Ġpleasurable": 23343,
    "damp": 15347,
    "Ġwinc": 9645,
    "Ġclutched": 13522,
    "overed": 2854,
    "Ġknowest": 12868,
    "tea": 18743,
    "Ġgene": 15676,
    "billiard": 25335,
    "tips": 13799,
    "Ġruins": 16162,
    "Ġcall": 2073,
    "Ġsphy": 18312,
    "Ġsurplus": 26304,
    "Ġprestige": 22240,
    "Ġcomrades": 9236,
    "Ġloathsome": 13531,
    "mn": 3578,
    "guessed": 25873,
    "uccas": 21109,
    "itioned": 22473,
    "Ġimaginations": 16518,
    "fre": 5425,
    "interesting": 12206,
    "Ġdetained": 18373,
    "Ġblankness": 24611,
    "Ġcommander": 8628,
    "Ġchiefly": 5766,
    "Ġrecording": 24434,
    "erc": 5906,
    "Ġvibrated": 25048,
    "Ġpyramid": 8806,
    "Ġhuddled": 20302,
    "âĢĶ": 518,
    "vex": 21701,
    "lig": 3174,
    "blind": 16704,
    "Ġman": 544,
    "Ġalb": 14019,
    "Ġdevoted": 6575,
    "Ġburg": 23653,
    "Ġcabaco": 13171,
    "bergs": 18696,
    "Ġbreaking": 6312,
    "alled": 5912,
    "dangerous": 20243,
    "Ġgamb": 18000,
    "Ġcistern": 17384,
    "Ġtroops": 24899,
    "lucifer": 25302,
    "oundered": 14165,
    "Ġthinkings": 22813,
    "Ġbeh": 1804,
    "Ġsets": 8778,
    "Ġoper": 2121,
    "aspect": 10196,
    "Ġdisrespect": 18554,
    "fly": 13717,
    "bern": 20777,
    "Ġtropics": 17067,
    "unte": 21877,
    "Ġbel": 1216,
    "Ġimprinted": 22393,
    "Ġhaze": 18197,
    "proper": 7471,
    "rary": 4577,
    "mitted": 5213,
    "beat": 10988,
    "admon": 21764,
    "Ġfaithful": 9506,
    "redible": 15808,
    "thomas": 18220,
    "Ġrenow": 18030,
    "Ġtub": 7147,
    "irst": 879,
    "Ġcab": 2634,
    "ement": 1502,
    "girls": 12323,
    "sea": 4764,
    "Ġheedfully": 24521,
    "Ġgentlemanlike": 12071,
    "Ġlionel": 25287,
    "igators": 18048,
    "Ġcalms": 23046,
    "han": 12477,
    "iquette": 26133,
    "Ġappellation": 22221,
    "offensive": 16398,
    "Ġshoulder": 5849,
    "istical": 8492,
    "Ġxliv": 23411,
    "uns": 21874,
    "Ġguise": 14435,
    "Ġeconomy": 17203,
    "Ġbracing": 16583,
    "atherine": 2596,
    "Ġvictim": 6099,
    "Ġtrials": 16791,
    "Ġcarpent": 4468,
    "prick": 19346,
    "Ġplump": 14285,
    "Ġminutely": 14563,
    "glow": 20876,
    "ouraged": 22860,
    "Ġbond": 21387,
    "Ġdiver": 2529,
    "Ġseam": 3909,
    "urring": 21708,
    "Ġswaying": 15049,
    "Ġburnwell": 13272,
    "Ġperplexed": 23660,
    "Ġerad": 25031,
    "Ġeffeminacy": 20719,
    "Ġdemonstrate": 24997,
    "Ġinch": 7850,
    "Ġstrangely": 5677,
    "Ġtrust": 4080,
    "Ġchink": 15936,
    "under": 3132,
    "Ġenabled": 9299,
    "Ġchanged": 5243,
    "bore": 13690,
    "Ġnast": 15643,
    "ede": 21509,
    "shabbily": 26248,
    "itu": 1227,
    "83": 13684,
    "abound": 15744,
    "Ġscornful": 24999,
    "Ġacquaint": 13050,
    "sust": 15425,
    "Ġsums": 2905,
    "Ġmira": 8408,
    "ĠâĢĶâĢĶ": 25758,
    "ulity": 10888,
    "rised": 10126,
    "Ġawaiting": 11392,
    "Ġplunder": 22605,
    "prophet": 16185,
    "prosperity": 20737,
    "ougher": 18276,
    "Ġmacro": 25940,
    "ois": 9137,
    "Ġshaped": 15838,
    "Ġspokes": 18314,
    "Ġcritical": 7474,
    "soldiers": 25912,
    "Ġtuples": 13481,
    "display": 19158,
    "Ġfilters": 3931,
    "Ġmanufactured": 22334,
    "Ġscent": 10287,
    "Ġelephants": 9867,
    "Ġcensured": 25097,
    "Ġname": 2083,
    "ried": 924,
    "Ġlancaster": 26342,
    "Ġdiadem": 24740,
    "Ġceased": 6469,
    "sphere": 22734,
    "Ġglass": 4373,
    "Ġcolourless": 19572,
    "Ġtusks": 17256,
    "Ġgodly": 19082,
    "Ġbet": 1138,
    "Ġfry": 17881,
    "Ġrevelations": 25224,
    "Ġplacing": 8904,
    "protruding": 24813,
    "Ġrugged": 18721,
    "Ġsides": 4581,
    "shrugged": 22464,
    "zor": 15461,
    "abhor": 12712,
    "Ġbald": 16209,
    "Ġcircumvent": 25067,
    "Ġsneezing": 12252,
    "wr": 3029,
    "Ġpunct": 8664,
    "Ġroylott": 7305,
    "showing": 22465,
    "forgetting": 25486,
    "distraction": 24203,
    "quid": 18148,
    "Ġspouted": 14677,
    "Ġbeliever": 25847,
    "Ġdecayed": 22828,
    "Ġasked": 2275,
    "represented": 20198,
    "Ġsurgeon": 8984,
    "Ġhedge": 8364,
    "Ġundertone": 23243,
    "Ġsubjects": 7074,
    "Ġgnarled": 25169,
    "Ġprevail": 13446,
    "constantinople": 25508,
    "commun": 15036,
    "Ġsixth": 16562,
    "Ġdepart": 4658,
    "ified": 3228,
    "Ġsom": 1274,
    "Ġdismissed": 12897,
    "thro": 12766,
    "Ġbold": 5293,
    "prot": 6899,
    "Ġjabez": 11770,
    "mouse": 15396,
    "Ġminers": 22835,
    "Ġdisposing": 19378,
    "Ġstrainings": 24628,
    "Ġwool": 19436,
    "mighty": 9469,
    "Ġquoin": 22422,
    "sentence": 2941,
    "penn": 18828,
    "Ġyarns": 15199,
    "vity": 7815,
    "binnacle": 20789,
    "affect": 13216,
    "Ġcongealed": 25982,
    "Ġprep": 4193,
    "Ġundec": 22021,
    "Ġmole": 11795,
    "Ġwhereby": 11840,
    "little": 3351,
    "Ġbrandy": 11051,
    "iter": 4395,
    "weary": 22689,
    "Ġbigness": 19763,
    "capt": 3838,
    "Ġheightened": 8652,
    "Ġfixed": 2685,
    "Ġgraceful": 11298,
    "Ġforced": 4356,
    "Ġevidence": 5270,
    "appear": 13202,
    "ilted": 21726,
    "further": 7535,
    "Ġrestoration": 19027,
    "Ġresounded": 22548,
    "Ġconvalescence": 23748,
    "Ġluckless": 16799,
    "Ġbathed": 17867,
    "igating": 21703,
    "Ġinquis": 19306,
    "wn": 720,
    "Ġ6": 5141,
    "Ġsuspicions": 9482,
    "decoder": 3646,
    "Ġcorrespond": 6211,
    "nihil": 9853,
    "Ġimpet": 11783,
    "Ġzeal": 9101,
    "Ġperempt": 13677,
    "Ġearnestness": 12130,
    "Ġseren": 7401,
    "Ġpedest": 15067,
    "Ġtumbled": 13410,
    "Ġcocoa": 25483,
    "Ġtheirs": 7026,
    "fal": 17538,
    "Ġvenerable": 9097,
    "Ġnorthumbria": 24174,
    "exerc": 16019,
    "'(": 2980,
    "Ġstabbing": 20306,
    "multiple": 15111,
    "Ġdropout": 1556,
    "Ġrendered": 5773,
    "Ġintense": 6159,
    "brimming": 23579,
    "overing": 6308,
    "mill": 13757,
    "Ġbags": 24537,
    "Ġseverity": 15824,
    "Ġforemost": 12009,
    "Ġcra": 2333,
    "Ġcoupled": 16853,
    "Ġgliding": 8564,
    "feren": 766,
    "Ġtall": 4040,
    "trunk": 23951,
    "invari": 21187,
    "Ġweeps": 24950,
    "scent": 13026,
    "Ġamelia": 26253,
    "Ġblush": 14405,
    "co": 2432,
    "goodness": 19290,
    "shipping": 10310,
    "Ġdevoting": 22719,
    "Ġevaporate": 26334,
    "supper": 12925,
    "Ġamply": 22486,
    "Ġlabelled": 23333,
    "leeward": 15214,
    "Ġthis": 382,
    "ifferent": 4266,
    "Ġwedded": 15539,
    "Ġbunch": 11328,
    "Ġthigh": 10189,
    "Ġhipp": 21495,
    "Ġclaws": 15971,
    "Ġspray": 7894,
    "Y": 61,
    "_,âĢĿ": 6220,
    "Ġterr": 3273,
    "Ġthee": 2623,
    "Ġtreatment": 12076,
    "Ġovers": 14208,
    "Ġinvective": 26183,
    "Ġplough": 18609,
    "Ġperpet": 7645,
    "Ġtackle": 9516,
    "omeness": 18025,
    "Ġlegal": 10441,
    "pr": 3176,
    "Ġaffect": 1384,
    "enborough": 21288,
    "rified": 15422,
    "happened": 9436,
    "arrant": 10476,
    "Ġtotally": 9474,
    "alid": 13938,
    "Ġsaluted": 14762,
    "Ġdemo": 10881,
    "Ġneatly": 17018,
    "Ġconsume": 12964,
    "satisfactory": 16895,
    "Ġunconsciously": 10008,
    "umberland": 16839,
    "Ġdistingu": 2514,
    "Ġoutputs": 2888,
    "Ġransacked": 26506,
    "Ġengage": 9338,
    "Ġpistols": 17332,
    "Ġchin": 4892,
    "Ġflank": 8229,
    "absent": 21793,
    "Ġmeditate": 16709,
    "Ġconvent": 11671,
    "sloop": 26146,
    "Ġrevelation": 25223,
    "oney": 3050,
    "ashed": 3787,
    "Ġthreading": 23405,
    "Ġcrozetts": 19632,
    "copy": 5133,
    "ascertaining": 26462,
    "Ġseating": 18202,
    "Ġsubdued": 11035,
    "Ġendure": 5957,
    "Ġriotous": 20547,
    "Ġimpulse": 10027,
    "Ġtang": 13817,
    "holland": 24045,
    "Ġsherlock": 3894,
    "acy": 3957,
    "Ġdrops": 9035,
    "nels": 12500,
    "hidden": 17374,
    "Ġtops": 14588,
    "inal": 15483,
    "ound": 586,
    "Ġcruel": 5121,
    "Ġvigorously": 11301,
    "apse": 14201,
    "holloa": 19467,
    "Ġcrests": 25686,
    "Ġpott": 21471,
    "epilogue": 22107,
    "Ġpos": 1008,
    "ĠdÃ¦mon": 7844,
    "walls": 25346,
    "Ġprot": 3849,
    "Ġfoolishly": 19785,
    "Ġimpossibility": 20649,
    "instrument": 15242,
    "Ġplenty": 6710,
    "Ġexamination": 8005,
    "Ġunostentatious": 22071,
    "gravel": 22623,
    "Ġpassion": 4559,
    "Ġeigen": 4882,
    "collected": 13217,
    "Ġvindication": 25365,
    "Ġseriously": 7063,
    "Ġcourtiers": 24139,
    "Ġwails": 21299,
    "Ġrear": 6537,
    "Ġrisen": 9496,
    "omn": 15694,
    "Ġruffled": 25837,
    "Ġmorose": 18845,
    "expanded": 23664,
    "nowledge": 10292,
    "Ġmanly": 22328,
    "Ġspires": 11734,
    "Ġinterrupt": 4363,
    "Ġmeta": 3463,
    "happening": 16567,
    "Ġconverted": 16115,
    "Ġoutskirts": 17460,
    "Ġsponge": 26004,
    "Ġbackgammon": 22667,
    "Ġscrutin": 26015,
    "new": 1465,
    "england": 18931,
    "irted": 14075,
    "rom": 420,
    "Ġrevol": 5537,
    "Ġcracks": 12024,
    "Ġdemi": 25549,
    "Ġexecut": 4251,
    "lim": 9609,
    "Ġwall": 3844,
    "Ġlashing": 11619,
    "unks": 15779,
    "Ġticking": 25036,
    "liable": 3820,
    "albatross": 15634,
    "Ġhelplessness": 25074,
    "Ġaccountability": 10440,
    "allic": 12818,
    "Ġtallest": 15477,
    "iamond": 14592,
    "nets": 9135,
    "ribution": 14310,
    "osque": 22266,
    "Ġinestimable": 17445,
    "ely": 625,
    "zek": 16238,
    "related": 24015,
    "silent": 9977,
    "Ġcot": 13880,
    "Ġmartial": 20294,
    "Ġadvertising": 25390,
    "Ġwoll": 21296,
    "Ġlooks": 4167,
    "Ġunreasonably": 17454,
    "Ġsingular": 4427,
    "Ġresearch": 3389,
    "Ġwonder": 2118,
    "Ġfreemason": 23211,
    "Ġcousin": 3705,
    ",--âĢľ": 19198,
    "Ġovercame": 9749,
    "Ġmalady": 24392,
    "Ġgiver": 21608,
    "Ġdegree": 3704,
    "Ġstr": 759,
    "ser": 1425,
    "Ġarticles": 7110,
    "Ġcaval": 25770,
    "keel": 14131,
    "Ġproject": 5546,
    "Ġgold": 3278,
    "Ġbread": 5404,
    "remaining": 20223,
    "Ġfolios": 23023,
    "earthly": 24723,
    "Ġsins": 13840,
    "settled": 10509,
    "Ġadaptation": 3157,
    "Ġweighing": 20019,
    "convenient": 12242,
    "Ġworking": 5574,
    "Ġoverboard": 6046,
    "Ġegg": 8823,
    "Ġnuptials": 20497,
    "lighter": 20961,
    "Ġintermix": 25827,
    "cut": 3124,
    "fun": 3778,
    "doing": 8588,
    "Ġequilibrium": 4142,
    "Ġpitch": 5767,
    "Ġwatchman": 23667,
    "Ġangry": 5498,
    "flask": 12104,
    "Ġinexpress": 12640,
    "Ġes": 8773,
    "Ġtraces": 7946,
    "fishermen": 17062,
    "Ġentit": 22743,
    "harpoone": 6109,
    "that": 850,
    "Ġoffend": 16148,
    "sey": 5543,
    "Ġperceive": 6701,
    "Ġjealous": 9471,
    "branch": 23580,
    "act": 784,
    "deception": 22149,
    "execut": 13659,
    "Ġexploration": 2337,
    "Ġnoises": 18375,
    "igations": 18046,
    "Ġsnug": 8280,
    "Ġslily": 23166,
    "actually": 14298,
    "ft": 912,
    "horner": 23616,
    "Ġwigwam": 11430,
    "Ġsubterraneous": 20268,
    "og": 870,
    "Ġreaching": 7303,
    "Ġdoub": 1837,
    "whalemen": 10433,
    "Ġdestro": 3723,
    "Ġblinding": 14731,
    "Ġmethods": 3161,
    "Ġsituations": 10494,
    "Ġbustle": 17230,
    "apers": 3480,
    "Ġlongbourn": 3507,
    "Ġregained": 18599,
    "outs": 7010,
    "keepers": 16662,
    "cadence": 26126,
    "Ġuttermost": 19491,
    "Ġpatterns": 1214,
    "Ġblurred": 22934,
    "gloom": 17142,
    "Ġgradu": 15836,
    "deficient": 23120,
    "Ġdiffused": 12073,
    "for": 949,
    "Ġpatron": 7461,
    "downward": 16621,
    "Ġner": 1648,
    "Ġservox": 23873,
    "ver": 331,
    "revolver": 25628,
    "manner": 6172,
    "Ġpanic": 11288,
    "Ġinequal": 21500,
    "anatory": 21366,
    "reasoning": 9479,
    "Ġlizard": 12659,
    "Ġgrated": 22807,
    "Ġclattering": 22359,
    "ouncement": 11749,
    "Ġconfound": 23308,
    "Ġedition": 16457,
    "cott": 8074,
    "Ġtwain": 16123,
    "Ġrecept": 1524,
    "Ġwhosoever": 21722,
    "Ġhorns": 11125,
    "appearance": 5334,
    "Ġstaircase": 20099,
    "ously": 2489,
    "acific": 4960,
    "Ġkentuckian": 26344,
    "Ġcous": 3435,
    "sometimes": 5973,
    "Ġth": 299,
    "Ġfacility": 19852,
    "Ġlands": 6596,
    "Ġbene": 2032,
    "Ġrevered": 23736,
    "mic": 12493,
    "Ġtimber": 13354,
    "thoughtfully": 24048,
    "onah": 3337,
    "hanging": 10103,
    "Ġty": 6660,
    "Ġreckoning": 14982,
    "Ġsparing": 22133,
    "Ġobliv": 16137,
    "crooked": 25747,
    "abular": 4763,
    "melted": 25207,
    "div": 8076,
    ";âĢĶ": 3751,
    "Ġenlist": 21940,
    "Ġcowardice": 17033,
    "Ġhasn": 12930,
    "Ġbalancing": 2429,
    "Ġbore": 5079,
    "Ġ128": 24473,
    "shown": 22458,
    "zz": 4296,
    "adier": 18092,
    "across": 10327,
    "estone": 18364,
    "hate": 20894,
    "arn": 358,
    "Ġdiction": 8799,
    "Ġnoblest": 13246,
    "Ġcens": 8414,
    "Ġcaptain": 1600,
    "Ġballs": 9018,
    "regular": 3042,
    "history": 15017,
    "Ġswears": 16466,
    "pride": 11212,
    "Ġdistance": 3482,
    "bweb": 20793,
    "Ġoutline": 15958,
    "Ġfem": 6136,
    "sof": 17659,
    "Ġdrifted": 14627,
    "cring": 20813,
    "portuguese": 25414,
    "]]": 5205,
    "Ġroaring": 10970,
    "Ġprison": 5403,
    "Ġblasts": 19999,
    "Ġbarbary": 24219,
    "Ġdevotion": 22720,
    "Ġbubb": 12589,
    "Ġemperors": 15163,
    "Ġgave": 2218,
    "Ġcomputer": 1205,
    "Ġsupplying": 19801,
    "Ġharmless": 9968,
    "somewhere": 12017,
    "Ġbeliefs": 24583,
    "Ġleading": 7297,
    "miserable": 8660,
    "Ġoverdone": 22367,
    "atural": 932,
    "Ġduchess": 4800,
    "Ġsustaining": 25334,
    "Ġunderstood": 5655,
    "Ġ112": 24437,
    "Ġballasted": 23983,
    "uneven": 23685,
    "hint": 12480,
    "Ġsnapped": 9900,
    "Ġreturn": 1710,
    "leviathan": 7785,
    "Ġdevoured": 16139,
    "Ġcasualties": 25513,
    "Ġrejoiced": 8687,
    "Ġchamois": 16802,
    "Ġcomfor": 14057,
    "Ġpondicherry": 20494,
    "Ġcontinue": 5398,
    "Ġannouncement": 14836,
    "Ġsuspicious": 9483,
    "ggling": 19098,
    "Ġhate": 5445,
    "Ġkindling": 19030,
    "Ġwebster": 20164,
    "Ġafter": 868,
    "Ġeel": 18004,
    "Ġreservoir": 20653,
    "Ġstandard": 14499,
    "Ġpathways": 11155,
    "Ġpinioned": 21486,
    "Ġbleeds": 24397,
    "Ġtasselled": 25922,
    "assment": 9743,
    "Ġbut": 424,
    "grim": 19108,
    "Ġherbage": 25997,
    "flakes": 23971,
    "Ġelastic": 4365,
    "angle": 22108,
    "Ġflat": 8228,
    "operations": 19978,
    "Ġnearer": 5303,
    "way": 764,
    "Ġocc": 887,
    "Ġowners": 7663,
    "spent": 12948,
    "Ġvertu": 23893,
    "staring": 18020,
    "Ġpoor": 1709,
    "nyder": 16687,
    "getting": 12972,
    "Ġflit": 23009,
    "Ġtremble": 6906,
    "conclusion": 25673,
    "impetuous": 23765,
    "Ġprocuring": 16872,
    "Ġowest": 25094,
    "unerative": 21900,
    "Ġoccurrence": 14385,
    "Ġcalculated": 4478,
    "Ġcallest": 17834,
    "Ġskewer": 19623,
    "bers": 2570,
    "Ġrevenue": 26196,
    "Ġbarn": 11590,
    "itering": 17820,
    "Ġmarshalled": 25316,
    "Ġwield": 21293,
    "Ġhospitals": 24924,
    "Ġguide": 3217,
    "cheered": 23808,
    "Ġrepute": 18037,
    "motion": 17608,
    "victim": 25531,
    "Ġprovide": 7750,
    "neck": 14237,
    "object": 6884,
    "place": 4155,
    "ladies": 9532,
    "Ġdevelopment": 7059,
    "Ġsallied": 12542,
    "Ġthem": 639,
    "Ġscal": 1562,
    "Ġdepose": 22611,
    "Ġfewer": 16229,
    "Ġupbraiding": 26228,
    "Ġloftiest": 16876,
    "Ġconting": 18473,
    "Ġlighted": 7065,
    "Ġsends": 14793,
    "resemblance": 25934,
    "Ġobliterated": 17408,
    "iously": 2677,
    "Ġkindly": 6078,
    "Ġreconcile": 25292,
    "Ġboiling": 8528,
    "Ġbone": 4696,
    "reposed": 24492,
    "Ġconcentrated": 15087,
    "Ġbadly": 12136,
    "Ġsteal": 16287,
    "Ġprecipice": 19944,
    "thrown": 8483,
    "ailed": 3248,
    "peddling": 21034,
    "Ġenormous": 5609,
    "aurs": 20771,
    "qualities": 25046,
    "Ġreturning": 5326,
    "Ġcrouching": 23443,
    "Ġoutrageous": 20613,
    "Ġbarred": 9005,
    "amuse": 14055,
    "Ġspell": 8859,
    "Ġabsurdly": 19963,
    "amount": 10886,
    "oat": 13767,
    "Ġfoaming": 18993,
    "roads": 17960,
    "iscient": 17853,
    "ag": 377,
    "Ġsparsity": 4210,
    "spass": 18688,
    "Ġtal": 7564,
    "irably": 13300,
    "Ġhumbled": 16200,
    "inconsiderable": 21194,
    "Ġreasoning": 2077,
    "Ġby": 383,
    "swear": 16920,
    "Ġcrouched": 23441,
    "Ġbodies": 8032,
    "Ġislands": 6767,
    "fro": 8736,
    "Ġhovered": 12636,
    "Ġstrait": 23752,
    "aff": 3103,
    "Ġovercome": 6045,
    "Ġembrace": 16992,
    "Ġmy": 412,
    "Ġinsular": 19270,
    "bed": 3489,
    "Ġcouple": 5423,
    "bo": 1691,
    "Ġcloudy": 19480,
    "Ġrucastle": 5176,
    "indisc": 22377,
    "Ġpuffed": 14980,
    "Ġdiscovered": 4416,
    "Ġangrily": 9410,
    "Ġelect": 10844,
    "kinson": 10029,
    "python": 4693,
    "Ġstow": 21734,
    "Ġscenari": 22291,
    "kne": 20937,
    "Ġcrew": 2495,
    "Ġcorn": 9353,
    "forty": 9377,
    "Ġambergris": 8709,
    "Ġpeninsula": 23199,
    "lanter": 15391,
    "yourself": 6744,
    "Ġpovelson": 26554,
    "Ġwalking": 4328,
    "Ġinfluence": 5515,
    "wishes": 13810,
    "Ġfeedback": 23435,
    "Ġscream": 5936,
    "baggage": 24927,
    "ist": 448,
    "Ġtype": 2019,
    "Ġangular": 19209,
    "Ġdreadfully": 7726,
    "deck": 4503,
    "Ġunfathomably": 25874,
    "Ġhatchet": 16531,
    "Ġirregular": 9868,
    "Ġwrapt": 24596,
    "embedding": 20360,
    "Ġmeditative": 25017,
    "Ġdeliberate": 15025,
    "Ġsingle": 1693,
    "plain": 1358,
    "binary": 20786,
    "teness": 23207,
    "Ġstriving": 8999,
    "Ġdere": 21838,
    "soles": 18687,
    "Ġmarble": 7669,
    "Ġresentment": 7530,
    "Ġhatchway": 13528,
    "Ġpear": 11856,
    "strongly": 24685,
    "estim": 14172,
    "lead": 10168,
    "Ġchoicest": 24223,
    "Ġconvolutional": 2162,
    "Ġlumber": 13955,
    "Ġperman": 10966,
    "Ŀ": 256,
    "Ġirons": 7696,
    "Ġwhirled": 14963,
    "tout": 21068,
    "Ġfruitless": 25606,
    "acquainted": 7313,
    "Ġpotential": 3620,
    "doub": 6225,
    "Ġforb": 11666,
    "gener": 3126,
    "spouting": 25003,
    "Ġess": 5691,
    "Ġmorbidness": 20631,
    "irra": 15789,
    "Ġfalsehood": 10526,
    "gainst": 25144,
    "vib": 21118,
    "desp": 6094,
    "greeting": 24554,
    "john": 11500,
    "Ġambiguous": 20167,
    "Ġlightened": 23264,
    "Ġplaning": 22604,
    "Ġunav": 18241,
    "quietly": 10595,
    "hat": 6956,
    "coun": 10690,
    "Ġfeel": 1261,
    "angels": 22110,
    "Ġdough": 8422,
    "Ġswing": 13042,
    "Ġbash": 12591,
    "Ġfel": 1519,
    "Ġintegrity": 12317,
    "Ġarrow": 10933,
    "Ġhandwriting": 14322,
    "Ġalms": 21784,
    "Ġincorporated": 25710,
    "Ġoccupy": 14734,
    "Ġwickedness": 9529,
    "Ġdint": 15595,
    "Ġthroes": 24575,
    "mark": 5282,
    "yed": 3272,
    "Ġconquest": 15752,
    "Ġspence": 22130,
    "Ġlandlady": 10424,
    "Ġslaughter": 20732,
    "schoolmaster": 15165,
    "sword": 10728,
    "Ġanonym": 17899,
    "Ġheartily": 6890,
    "Ġdestroyed": 5272,
    "Ġgaz": 4045,
    "Ġfeasts": 25370,
    "Ġvariations": 22669,
    "Ġperfect": 2554,
    "Ġticklish": 25037,
    "Ġformations": 18752,
    "Ġapparent": 5466,
    "Ġmasts": 6466,
    "Ġintegration": 9871,
    "slee": 17171,
    "postp": 24635,
    "orse": 5807,
    "harm": 13738,
    "love": 9297,
    "Ġfrolic": 23928,
    "Ġsurrounding": 12167,
    "Ġmatrim": 11062,
    "anybody": 12087,
    "owing": 7602,
    "Ġminds": 6305,
    "Ġcapting": 23024,
    "Ġxli": 14543,
    "Ġ/*": 10142,
    "Ġessential": 7523,
    "ositions": 10286,
    "Ġex": 361,
    "Ġdeliberation": 19972,
    "Ġfurnishes": 19444,
    "Ġexpans": 18621,
    "Ġliking": 23593,
    "Ġunimportant": 22032,
    "atious": 10154,
    "Ġhealthful": 24062,
    "Ġglow": 7171,
    "Ġlink": 8130,
    "Ġinterfere": 11821,
    "Ġbrid": 6292,
    "Ġurgent": 16871,
    "fugitive": 26132,
    "activity": 22634,
    "Ġnorris": 23204,
    "keeper": 5597,
    "Ġstories": 10867,
    "ittered": 18440,
    "bingley": 4928,
    "ĠâĢĶâĢľ_": 17720,
    "ton": 1726,
    "Ġsupposing": 6731,
    "Ġcurious": 3360,
    "Ġincor": 2610,
    "Ġclaims": 13377,
    "arity": 1303,
    "Ġstrides": 22620,
    "c": 71,
    "henomena": 20275,
    "Ġworms": 25217,
    "erness": 6435,
    "benevolently": 25601,
    "Ġfreely": 7058,
    "Ġspoken": 4838,
    "Ġgracious": 8851,
    "strip": 19833,
    "vigorous": 25918,
    "Ġbegan": 2021,
    "Ġterribly": 10427,
    "pips": 21022,
    "Ġdiabolism": 25515,
    "Ġplans": 7918,
    "professional": 20278,
    "Ġlargely": 14288,
    "Ġhopkins": 23133,
    "subs": 14305,
    "Ġvagabond": 20206,
    "Ġcatch": 4444,
    "Ġpremises": 10490,
    "riages": 10246,
    "Ġintervening": 17270,
    "Ġmun": 12567,
    "ocation": 14628,
    "Ġrevers": 21667,
    "Ġsticking": 13431,
    "Ġsomething": 1796,
    "igated": 15711,
    "Ġstrateg": 1371,
    "Ġextraction": 11254,
    "Ġoriginate": 24124,
    "Ġdiff": 3116,
    "nails": 17616,
    "aken": 1870,
    "Ġdefe": 21839,
    "Ġrattled": 15070,
    "Ġmaps": 2965,
    "<SOS>": 1,
    "Ġacquitted": 18900,
    "Ġincess": 8432,
    "Ġvirtuous": 14759,
    "Ġdecreed": 18483,
    "though": 2116,
    "Ġjup": 15956,
    "Ġnoisier": 4626,
    "alive": 10829,
    "Ġnonsensical": 21532,
    "Ġwarnings": 16883,
    "Ġresc": 4509,
    "unusual": 21883,
    "Ġhomage": 12359,
    "Ġinmost": 17933,
    "Ġate": 8844,
    "uplifted": 17697,
    "tribute": 21091,
    "distance": 12157,
    "ĠĠĠĠĠĠĠĠĠĠĠĠĠĠĠĠĠĠĠĠĠĠĠĠĠĠĠĠĠĠĠĠĠĠĠĠĠĠĠ": 19261,
    "gallery": 24694,
    "Ġgaily": 16750,
    "Ġsoftware": 18920,
    "Ġcriminals": 19924,
    "truth": 9922,
    "dro": 6647,
    "remarked": 12292,
    "upright": 23021,
    "Ġbumpkin": 20203,
    "cords": 25139,
    "Ġamazed": 14892,
    "drink": 10598,
    "bos": 17486,
    "Ġcease": 7078,
    "Ġshud": 5461,
    "Ġtacit": 21177,
    "Ġsutherland": 10151,
    "Ġcompleted": 9000,
    "Ġcompos": 22573,
    "Ġstam": 18068,
    "Ġprecision": 13193,
    "Ġcivility": 4789,
    "Ġcreeping": 18685,
    "Ġeternities": 19946,
    "avenue": 25060,
    "Ġcomplicated": 14738,
    "old": 800,
    "Ġtwitching": 25684,
    "Ġderive": 10397,
    "Ġcaptiv": 16262,
    "Ġstates": 1854,
    "Ġsinging": 7724,
    "ased": 1266,
    "Ġnervously": 19186,
    "ositories": 22268,
    "Ġthoroughfares": 26096,
    "wins": 21132,
    "Ġskylight": 24076,
    "Ġabhor": 5467,
    "Ġtawn": 13826,
    "Ġdiscompose": 25580,
    "spin": 22732,
    "utch": 21589,
    "Ġesquimaux": 25154,
    "Ġdescrying": 18619,
    "Ġfuneral": 10285,
    "Ġsufficient": 2003,
    "Ġbrack": 23839,
    "Ġclue": 7021,
    "coal": 12029,
    "Ġlany": 21557,
    "dissemble": 23494,
    "bestowed": 12230,
    "Ġopenshaw": 7955,
    "begin": 8887,
    "Ġchaise": 9079,
    "glad": 9011,
    "Ġcourse": 2131,
    "oth": 1185,
    "Ġdisgusting": 19896,
    "Ġrallied": 14098,
    "Ġsurround": 4619,
    "Ġshelter": 17010,
    "Ġliberty": 7762,
    "Ġexpecting": 10438,
    "lace": 13751,
    "sebastian": 21823,
    "Ġmed": 4179,
    "Ġparting": 9786,
    "Ġopulent": 23630,
    "Ġtexas": 25923,
    "Ġevening": 2653,
    "iature": 8745,
    "imely": 14001,
    "ultaneously": 4195,
    "Ġleviathans": 8282,
    "block": 11472,
    "Ġanimating": 23426,
    "private": 13586,
    "m": 81,
    "owed": 2268,
    "gn": 8082,
    "Ġlikelihood": 16503,
    "conf": 4957,
    "improve": 15716,
    "Ġfut": 15579,
    "strong": 6324,
    "ps": 4576,
    "Ġtrailing": 23082,
    "Ġangelic": 19630,
    "sank": 17664,
    "Ġorbs": 22096,
    "Ġelement": 6898,
    "bulwarks": 12277,
    "seem": 10230,
    "pierced": 26142,
    "Ġdoes": 942,
    "Ġchasing": 11758,
    "ercial": 21277,
    "icted": 5938,
    "Ġsemicirc": 16393,
    "Ġchose": 7413,
    "bishop": 13698,
    "Ġpsal": 15620,
    "Ġtrusting": 24108,
    "Ġpiled": 8426,
    "hill": 15366,
    "circumspect": 26087,
    "Ġresented": 22547,
    "onden": 13847,
    "Ġtilted": 20416,
    "Ġmoss": 9287,
    "bohem": 19002,
    "Ġpersuading": 19413,
    "astonished": 15035,
    "Ġexercised": 24800,
    "Ġdrinking": 12173,
    "apothe": 22338,
    "Ġacquiring": 2767,
    "ounder": 11748,
    "claims": 25320,
    "Ġfading": 15588,
    "Ġrelev": 1715,
    "Ġlurks": 11292,
    "Ġsheer": 14153,
    "Ġseasoned": 24405,
    "whatever": 6696,
    "alarmed": 21506,
    "Ġdr": 2824,
    "Ġmonoton": 3637,
    "Ġaccess": 9750,
    "Ġcongreg": 8464,
    "rese": 15511,
    "Ġenabling": 1081,
    "past": 8090,
    "ibule": 13012,
    "Ġdrink": 4788,
    "concent": 19483,
    "weakness": 16128,
    "Ġpri": 5814,
    "Ġ55": 24319,
    "Ġquaff": 22418,
    "Ġparagra": 15883,
    "fem": 17539,
    "Ġasp": 15785,
    "Ġcomprehension": 15090,
    "Ġhimmale": 18335,
    "Ġbulk": 5591,
    "Ġthroat": 7771,
    "Ġtoilet": 13940,
    "gathered": 13735,
    "Ġeats": 15681,
    "Ġhessian": 3549,
    "ods": 8840,
    "alo": 7588,
    "Ë": 140,
    "Ġbolivia": 24668,
    "Ġpraying": 19557,
    "Ġcrimin": 6901,
    "owner": 18611,
    "lux": 14228,
    "fallen": 19662,
    "Ġdeaf": 12726,
    "Ġfig": 3625,
    "Ġresolutely": 14612,
    "Ġstout": 6026,
    "Ġmouth": 3181,
    "steaks": 23964,
    "Ġcalifornia": 20533,
    "Ġinquisitive": 26318,
    "Ġpleasantest": 24140,
    "naturedly": 24841,
    "Ġagreement": 18543,
    "Ġbowl": 11206,
    "Ġdisconsolate": 20721,
    "Ġdecorum": 16024,
    "erringly": 16215,
    "cooee": 12422,
    "Ġarabic": 24981,
    "Ġbankrupt": 16798,
    "steak": 14711,
    "Ġtro": 7356,
    "igh": 2029,
    "Ġwretchedly": 19509,
    "Ġpal": 4043,
    "ram": 13975,
    "Ġretains": 20033,
    "Ġcommence": 6169,
    "thick": 10263,
    "Ġbritain": 16958,
    "vious": 1784,
    "trial": 20353,
    "Ġlowest": 11124,
    "Ġunfl": 22022,
    "Ġpushed": 5911,
    "butt": 15998,
    "Ġovertaken": 18431,
    "doors": 19096,
    "Ġsupremacy": 20263,
    "iguous": 18047,
    "Ġcheers": 16372,
    "Ġexec": 19495,
    "clump": 23157,
    "acetty": 24464,
    "Ġedward": 19153,
    "from": 1991,
    "piling": 15418,
    "Ġforty": 5719,
    "grew": 17557,
    "Ġpainter": 19170,
    "entle": 1739,
    "alogies": 25162,
    "Ġdecrease": 4203,
    "Ġfitted": 6245,
    "Ġbas": 6381,
    "Ġrewarded": 14943,
    "functions": 11238,
    "Ġrecommend": 7104,
    "Ġopportunity": 4787,
    "Ġmaterial": 5178,
    "Ġundoubted": 19517,
    "u": 89,
    "Ġinto": 649,
    "Ġquitting": 7646,
    "Ġstoutest": 24629,
    "anchor": 13892,
    "Ġdissect": 16057,
    "Ġmoved": 4841,
    "inferences": 17741,
    "Ġpreviously": 3921,
    "sitting": 8387,
    "sided": 17666,
    "Ġvain": 3630,
    "Ġcolumns": 14379,
    "Ġpresent": 1644,
    "Ġsy": 489,
    "Ġpaintings": 15058,
    "Ġdefines": 1742,
    "companies": 24895,
    "comp": 3818,
    "grie": 12475,
    "neglect": 25669,
    "Ġmet": 1926,
    "Ġwrung": 14473,
    "enderby": 25216,
    "ptember": 10896,
    "Ġfals": 15585,
    "Ġexclaim": 11223,
    "mosphere": 10046,
    "Ġvac": 5025,
    "oboam": 9361,
    "Ġforgotten": 5679,
    "Ġduodecimo": 16769,
    "name": 6796,
    "inev": 21983,
    "Ġlandowner": 23384,
    "ws": 7355,
    "Ġbreaks": 13187,
    "Ġprofusion": 23570,
    "bold": 17490,
    "Ġbattalions": 25777,
    "Ġmak": 10780,
    "Ġplease": 4724,
    "Ġexercise": 8359,
    "worthy": 7733,
    "three": 5239,
    "Ġfa": 4821,
    "levelled": 23645,
    "Ġblan": 18818,
    "ulsive": 10236,
    "algorithm": 3863,
    "Ġsle": 2013,
    "Ġcouch": 12576,
    "Ġshirr": 18232,
    "onely": 6517,
    "gaffman": 26392,
    "desper": 13223,
    "Ġsupple": 23002,
    "Ġlandsmen": 11353,
    "iloqu": 11651,
    "conspicuous": 26250,
    "Ġneurons": 974,
    "pipe": 8700,
    "Ġhours": 2819,
    "mightily": 24106,
    "Ġpassers": 18760,
    "Ġlike": 667,
    "Ġsecret": 3721,
    "obliged": 20634,
    "ht": 375,
    "Ġsermons": 20197,
    "Ġwhiting": 10861,
    "pherd": 13648,
    "Ġexecutors": 19536,
    "ceived": 1965,
    "appropri": 22844,
    "Ġtapering": 8775,
    "Ġsupported": 9821,
    "Ġinner": 9673,
    "Ġpeered": 18669,
    "public": 17648,
    "Ġfabulous": 25949,
    "uvier": 9071,
    "mature": 20969,
    "Ġsimultaneous": 22591,
    "Ġless": 1937,
    "Ġspices": 22134,
    "Ġgiddy": 20500,
    "Ġecon": 9680,
    "ville": 6088,
    "tashtego": 9625,
    "figures": 20125,
    "answering": 26005,
    "ow": 326,
    "Ġsublimity": 26348,
    "Ġdisappears": 18561,
    "Ġfringed": 17275,
    "Ġnewly": 9341,
    "Ġlazy": 17051,
    "Ġme": 350,
    "Ġinstructions": 11198,
    "Ġinvulnerable": 19148,
    "Ġ150": 22830,
    "Ġdesired": 4666,
    "Ġextravagance": 17282,
    "Ġflogged": 23626,
    "pro": 2049,
    "Ġcategorization": 12141,
    "Ġblameless": 19861,
    "Ġworsh": 13005,
    "Ġthw": 21518,
    "Ġslightest": 6093,
    "jointed": 24013,
    "Ġveneration": 25047,
    "Ġlengths": 19208,
    "Ġacquit": 18899,
    "forgotten": 12420,
    "Ġactionable": 24560,
    "Ġpolice": 4676,
    "Ġdisconnected": 22529,
    "Ġ113": 19699,
    "Ġunexpectedly": 19911,
    "Ġinsurgents": 26602,
    "Ġcircus": 19093,
    "Ġbeech": 18085,
    "tfordshire": 4812,
    "Ġtedious": 15271,
    "Ġfra": 1842,
    "Ġfitly": 24002,
    "dissatisfied": 26614,
    "romeda": 17265,
    "glass": 9912,
    "bies": 15316,
    "Ġbu": 3683,
    "inuating": 16206,
    "rig": 7556,
    "decided": 13219,
    "Ġincessantly": 11413,
    "Ġdomes": 23707,
    "Ġsee": 804,
    "Ġsaviour": 20715,
    "Ġpassive": 22842,
    "Ġnoon": 6561,
    "Ġdisgrace": 7215,
    "Ġunlock": 18244,
    "accepting": 20138,
    "Ġbatch": 890,
    "whip": 22241,
    "Ġfingers": 5672,
    "Ġimposing": 11785,
    "didst": 19352,
    "Ġfondly": 19619,
    "Ġreverie": 13461,
    "Ġdiligent": 25078,
    "Ġusages": 15922,
    "Ġunwritten": 22036,
    "deepest": 22829,
    "ipher": 18422,
    "looked": 6084,
    "Ġripple": 25505,
    "once": 5905,
    "Ġrequesting": 24633,
    "queequeg": 4338,
    "exceedingly": 9569,
    "impatient": 13644,
    "Ġtid": 8107,
    "tomahawk": 25916,
    "frozen": 25142,
    "Ġdelirium": 10407,
    "buckets": 26124,
    "Ġburtons": 19255,
    "tenham": 16324,
    "Ġd": 284,
    "Ġunhallowed": 17183,
    "Ġzone": 14365,
    "Ġlxi": 21564,
    "stad": 7598,
    "Ġforging": 18096,
    "Ġhunsford": 6303,
    "Ġinquirer": 24964,
    "Ġtort": 5903,
    "blending": 24131,
    "Ġamounts": 6706,
    "Ġdecomposes": 5506,
    "Ġproclaim": 18133,
    "sm": 3434,
    "which": 1708,
    "stranded": 19227,
    "Ġhunch": 18937,
    "Ġducks": 25161,
    "Ġastonishment": 4795,
    "pinn": 21028,
    "sweep": 24618,
    "Ġparties": 7040,
    "hospit": 25904,
    "addressed": 13389,
    "Ġgifted": 17999,
    "rers": 14721,
    "waist": 13422,
    "Ġirreparable": 20002,
    "Ġliv": 6681,
    "Ġlazily": 11382,
    "Ġhandsom": 11126,
    "independent": 26022,
    "Ġtransportation": 13646,
    "justified": 19004,
    "ogrand": 26263,
    "unhes": 21879,
    "Ġdeceive": 12727,
    "Ġassumptions": 5517,
    "Ġevinced": 7102,
    "Ġembalmed": 13660,
    "Ġaugment": 8695,
    "Ġmystery": 5509,
    "than": 4089,
    "Ġinstance": 2543,
    "ese": 4447,
    "peare": 18913,
    "Ġgale": 5823,
    "Ġcul": 17824,
    "pled": 7892,
    "estation": 15924,
    "Ġhoisting": 9865,
    "Ġcushion": 17835,
    "recover": 24623,
    "Ġsociet": 9452,
    "Ġaloft": 4306,
    "Ġinspired": 2518,
    "Ġ58": 24322,
    "Ġeffaced": 18528,
    "Ġinnumerable": 13356,
    "Ġwatery": 6298,
    "uendoes": 26409,
    "dataset": 23247,
    "Ġrat": 4357,
    "Ġmetropolis": 17277,
    "Ġmagnitude": 1943,
    "Ġpedestrian": 25884,
    "ague": 3907,
    "ory": 1083,
    "neighbourhood": 10028,
    "chamber": 13629,
    "ript": 4154,
    "Ġtantamount": 25626,
    "omp": 2470,
    "author": 9863,
    "Ġwade": 17786,
    "Ġhardihood": 23115,
    "falling": 24361,
    "Ġspeckled": 14312,
    "historian": 25735,
    "Ġvestibule": 13540,
    "Ġappeal": 16318,
    "Ġprovid": 1005,
    "grave": 16098,
    "Ġdiscussing": 5202,
    "Ġmonarch": 14418,
    "Ġhadn": 9722,
    "Ġwork": 1311,
    "Ġperv": 15994,
    "Ġrock": 5311,
    "Ġthreatening": 16830,
    "Ġund": 4121,
    "Ġnoisy": 13323,
    "Ġdup": 21430,
    "Ġtastes": 15480,
    "free": 8739,
    "Ġrats": 21977,
    "Ġwound": 4530,
    "Ġforever": 14554,
    "opius": 18505,
    "emone": 21929,
    "Ġhairs": 13235,
    "Ġgilded": 17448,
    "create": 24162,
    "Ġsalary": 13298,
    "Ġapplications": 4784,
    "Ġnourishment": 15196,
    "tossing": 18581,
    "steep": 19422,
    "iot": 9603,
    "Ġinevitably": 17233,
    "Ġsoap": 14133,
    "grinder": 23417,
    "Ġben": 1111,
    "Ġdeductions": 19736,
    "Ġmamma": 10051,
    "gris": 8260,
    "Ġaltered": 7393,
    "ittarius": 22381,
    "introduced": 15128,
    "otted": 14027,
    "pract": 10122,
    "morn": 20978,
    "Ġcotton": 17382,
    "Ġunjust": 8486,
    "Ġshaved": 22006,
    "Ġsting": 10863,
    "Ġcommons": 22675,
    "descending": 16288,
    "Ġimbued": 17458,
    "dden": 1807,
    "dry": 13707,
    "Ġpreface": 18368,
    "iple": 4807,
    "Ġbeloved": 5572,
    "Ġrefusing": 11030,
    "andes": 18154,
    "ubb": 1651,
    "Ġslay": 16310,
    "Ġcommis": 22674,
    "Ġmeal": 9700,
    "Ġwidower": 24238,
    "Ġmember": 8465,
    "Ġlegitimate": 20644,
    "Ġpositions": 2056,
    "Ġenrolled": 21941,
    "Ġcomparative": 10545,
    "lac": 17591,
    "Ġgothic": 18002,
    "reject": 21239,
    "Ġwont": 9855,
    "Ġpastures": 23422,
    "Ġrap": 14307,
    "Ġannual": 14835,
    "shining": 18493,
    "craft": 12251,
    "Ġmagnified": 23206,
    "oforte": 14289,
    "Ġtransformers": 1130,
    "million": 25752,
    "hauteur": 26393,
    "Ġmethod": 1507,
    "entials": 22662,
    "unearthly": 19275,
    "Ġearn": 3548,
    "originally": 24940,
    "Ġrome": 12160,
    "dis": 2250,
    "Ġfloundered": 18863,
    "Ġdoublo": 6079,
    "Ġmermaid": 17815,
    "Ġbul": 3292,
    "Ġmarshal": 20222,
    "somewhat": 11162,
    "Ġtiny": 11555,
    "Ġcarpenters": 16754,
    "Ġcrooked": 11283,
    "Ġhearers": 15707,
    "Ġvanished": 6874,
    "Ġsubmission": 22794,
    "Ġlooking": 2472,
    "isis": 12584,
    "Ġtold": 2185,
    "Ġlegible": 23536,
    "Ġappetites": 20209,
    "Ġautonomous": 10678,
    "Ġpert": 22398,
    "Ġemerged": 8688,
    "exagger": 22434,
    "uming": 8494,
    "nervous": 16281,
    "Ġprevention": 16095,
    "Ġberries": 13411,
    "Ġformation": 2945,
    "Ġconfided": 19038,
    "hur": 6651,
    "Ġkidnapping": 26358,
    "Ġtreading": 16507,
    "Ġexposure": 16100,
    "Ġbronze": 22871,
    "Ġfairy": 14629,
    "Ġsepar": 4001,
    "Ġcogent": 14276,
    "nourished": 26400,
    "dart": 20828,
    "Ġeddies": 25089,
    "odhead": 18123,
    "Ġwat": 1287,
    "Ġchalk": 15937,
    "Ġbuttons": 12786,
    "byter": 16218,
    "stationed": 25454,
    "Ġunwillingness": 20035,
    "hour": 7340,
    "ving": 594,
    "Ġphilips": 5410,
    "thirds": 25049,
    "nx": 17609,
    "arrang": 14654,
    "ssible": 2993,
    "Ġencircling": 26273,
    "Ġdish": 6138,
    "Ġinjunctions": 24272,
    "Ġbleached": 24396,
    "afford": 14656,
    "emper": 18183,
    "Ġcrowd": 6338,
    "Ġcomplain": 6687,
    "Ġgovernor": 16492,
    "an": 278,
    "Ġbeau": 9227,
    "Ġexcited": 5580,
    "awed": 10393,
    "Ġcontrols": 1733,
    "Ġisland": 4050,
    "Ġdecidedly": 9512,
    "Ġbetrayed": 9564,
    "Ġhellaswag": 24343,
    "soled": 14336,
    "Ġmal": 5221,
    "Ġderbyshire": 6588,
    "Ġoccurrences": 11052,
    "liament": 16221,
    "Ġswayed": 15050,
    "ately": 1716,
    "Ġrector": 21679,
    "Ġrus": 14095,
    "somers": 19371,
    "Ġdestiny": 8986,
    "Ġtreating": 4287,
    "orial": 8418,
    "Ġhereabouts": 12983,
    "shook": 19858,
    "Ġresumed": 11816,
    "Ġhardware": 4905,
    "effort": 19216,
    "Ġdispute": 16060,
    "overfitting": 13106,
    "ents": 1896,
    "Ġdiligence": 17115,
    "Ġutterly": 6102,
    "terns": 21826,
    "arded": 5029,
    "patter": 4039,
    "piece": 6658,
    "Ġepistle": 24905,
    "Ġcumbrous": 26434,
    "Ġallies": 18235,
    "raise": 18014,
    "Ġshillings": 15839,
    "Ġmien": 17810,
    "Ġrevolving": 9986,
    "Ġceler": 15555,
    "corners": 17371,
    "Ġoldest": 12978,
    "tempered": 13450,
    "Ġendurance": 23140,
    "university": 25984,
    "clam": 13060,
    "occasion": 7754,
    "Ġtempt": 5565,
    "Ġsprings": 16688,
    "Ġmanagement": 8193,
    "Ġscared": 14192,
    "heedful": 20576,
    "jaws": 20934,
    "rebell": 17765,
    "Ġpartaking": 22700,
    "interested": 9509,
    "Ġstingy": 25456,
    "opes": 10313,
    "Ġhimself": 1351,
    "gged": 3780,
    "mency": 18928,
    "august": 11073,
    "Ġseats": 14092,
    "peaceful": 20450,
    "Ġexc": 1833,
    "Ġfragments": 19047,
    "calmly": 20142,
    "Ġtease": 18802,
    "Ġrmsprop": 3354,
    "Ġlatest": 16824,
    "ī": 236,
    "owl": 12689,
    "Ġwhipcord": 20098,
    "trowsers": 17693,
    "chel": 11209,
    "Ġfrosty": 14938,
    "Ġshirt": 8853,
    "sive": 4145,
    "Ġmaxim": 3087,
    "ins": 1377,
    "Ġducking": 17149,
    "ish": 550,
    "Ġbouquet": 20686,
    "itig": 1332,
    "Ġrespectability": 14487,
    "awful": 23118,
    "larking": 17596,
    "tisement": 6768,
    "Ġinsolent": 13604,
    "Ġnoticing": 18225,
    "Ġsalted": 14760,
    "scor": 13025,
    "Ġindex": 17050,
    "Ġkno": 5242,
    "mat": 2200,
    "Ġsignific": 3830,
    "Ġproperties": 3119,
    "....": 11318,
    "Ġabominably": 20069,
    "Ġregiment": 6433,
    "Ġscuff": 15946,
    "waste": 21137,
    "Ġbeneficial": 23934,
    "Ġcauses": 2559,
    "Ġhomeward": 9395,
    "ippi": 20247,
    "Ġparad": 2843,
    "Ġeagle": 13206,
    "Ġrank": 6260,
    "terrible": 8468,
    "important": 7114,
    "bbings": 19278,
    "ignor": 8964,
    "Ġenlar": 15804,
    "lest": 5290,
    "trees": 10733,
    "Ġdevious": 22718,
    "Ġpredecess": 18533,
    "Ġsafie": 6620,
    "seat": 18127,
    "twelvemonth": 25863,
    "commod": 16173,
    "Ġdoctor": 5067,
    "Ġwilds": 16511,
    "Ġstat": 1491,
    "Ġshepherd": 14155,
    "Ġinform": 997,
    "torture": 26152,
    "Ġrescales": 5068,
    "fare": 7799,
    "Ġvoyage": 3055,
    "Ġperth": 7024,
    "fed": 11490,
    "Ġquality": 3528,
    "í": 174,
    "kee": 18274,
    "Ġconfl": 11139,
    "face": 3678,
    "Ġpresenting": 18989,
    "Ġwollstonecraft": 26427,
    "meadow": 18680,
    "Ġsells": 21226,
    "Ġunseason": 22054,
    "Ġparmacetti": 20607,
    "Ġcatches": 23429,
    "Ġhousekeeper": 7456,
    "hot": 8084,
    "Ġdistant": 5387,
    "Ġunivers": 2126,
    "resp": 13842,
    "Ġcontrived": 10306,
    "confl": 22479,
    "Ġlovers": 9723,
    "Ġflirting": 16254,
    "Ġlain": 17964,
    "Ġfads": 21419,
    "Ġgathered": 8444,
    "akness": 14197,
    "Ġshaping": 22007,
    "Ġte": 1144,
    "ortion": 11761,
    "Ġentrapped": 26264,
    "note": 14343,
    "Ġwaldman": 11347,
    "Ġquietly": 4569,
    "Ġindispens": 22957,
    "Ġstack": 21737,
    "allowed": 5728,
    "?--": 15307,
    "Ġunanswerable": 26523,
    "Ġcoolly": 9775,
    "Ġbalances": 2341,
    "chancing": 22915,
    "Ġcommanding": 16592,
    "Ġbeget": 9228,
    "ma": 1152,
    "Ġlot": 6680,
    "ching": 5156,
    "Ġpaltry": 16693,
    "Ġenderby": 13655,
    "contented": 14636,
    "Ġsignificantly": 4521,
    "Ġpress": 5933,
    "Ġrecommence": 16814,
    "Ġtingling": 15096,
    "Ġasia": 11686,
    "Ġconstruction": 9388,
    "fo": 5279,
    "Ġdanes": 25160,
    "Ġbutt": 14128,
    "Ġlifetime": 13606,
    "sticks": 25965,
    "inian": 21185,
    "vil": 2732,
    "croquet": 25748,
    "Ġoccup": 3740,
    "Ġsuperhuman": 23454,
    "kings": 17585,
    "Ġpersecutor": 26097,
    "Ġslices": 23167,
    "Ġprotecting": 24687,
    "Ġco": 731,
    "iony": 9194,
    "ibid": 18843,
    "Ġlestrade": 5826,
    "reeable": 3613,
    "Ġincreasing": 8248,
    "covenant": 23563,
    "Ġardent": 9973,
    "Ġcrow": 3807,
    "writhed": 26081,
    "Ġrecollections": 10515,
    "lost": 8891,
    "ological": 1885,
    "Ġsqueezing": 25009,
    "Ġdiscriminative": 4331,
    "fierce": 25256,
    "Ġconstantly": 11977,
    "dan": 17517,
    "Ġgur": 21595,
    "Ġinsulted": 14995,
    "Ġthin": 4351,
    "Ġprotruded": 19473,
    "Ġrecl": 16144,
    "Ġcongregated": 20100,
    "Ġconsiderable": 4008,
    "Ġavowal": 19418,
    "Ġexcellent": 4241,
    "sorrows": 17323,
    "Ġenter": 4031,
    "Ġknows": 4161,
    "Ġtranquo": 14846,
    "Ġliterally": 15120,
    "Ġcleaning": 23184,
    "wled": 15457,
    "shott": 11798,
    "Ġconvenient": 8346,
    "ĥ": 230,
    "Ġbuying": 23999,
    "Ġextend": 18683,
    "Ġparted": 5930,
    "Ġcomparatively": 9493,
    "archical": 1924,
    "att": 1455,
    "ignantly": 23268,
    "Ġrefrain": 12952,
    "loom": 18539,
    "Ġfirmest": 16667,
    "Ġdeterminate": 23007,
    "hush": 20908,
    "le": 279,
    "Ġcolour": 4464,
    "Ġargu": 10936,
    "Ġcou": 5288,
    "ichron": 22172,
    "reflect": 19867,
    "Ġweighed": 8714,
    "third": 8168,
    "Ġsimil": 2530,
    "Ġineffable": 17335,
    "Ġwestmorland": 24390,
    "Ġseeing": 2887,
    "Ġsteepest": 3090,
    "Ġideal": 13125,
    "ikes": 8087,
    "Ġbashful": 20423,
    "Ġpattered": 19011,
    "opposition": 24820,
    "Ġcruisings": 25865,
    "swinging": 25913,
    "flutterings": 26608,
    "Ġbenef": 3487,
    "invested": 17120,
    "Ġride": 12763,
    "necessities": 24308,
    "Ġpervers": 11787,
    "<EOS>": 2,
    "Ġgradually": 3400,
    "iracle": 11246,
    "Ġconcern": 2657,
    "elastic": 17983,
    "Ġeffective": 1247,
    "Ġschemes": 11133,
    "Ġresemble": 15697,
    "Ġemaciated": 20641,
    "oses": 3949,
    "Ġharvard": 24574,
    "hopper": 23717,
    "Ġdelighted": 5499,
    "Ġconsisting": 8974,
    "shunned": 22469,
    "Ġapproaching": 6285,
    "Ġpay": 3965,
    "antic": 1601,
    "Ġpark": 5465,
    "Ġinconstant": 21499,
    "Ġfeatures": 1431,
    "posterity": 25489,
    "Ġannoyance": 20664,
    "increase": 20271,
    "solitary": 14507,
    "Ġslight": 3120,
    "Ġpatagonia": 25856,
    "Ġbeats": 21756,
    "cry": 12450,
    "Ġscroll": 14194,
    "Ġtypically": 1534,
    "Ġodd": 6627,
    "Ġproximity": 3221,
    "hom": 12478,
    "Ġisolation": 17153,
    "Ġquarto": 17299,
    "mown": 20972,
    "Ġclust": 9277,
    "bud": 10686,
    "Ġpersisted": 13041,
    "Ġgeneration": 2117,
    "ricted": 15423,
    "uerus": 26408,
    "proportion": 16186,
    "perfect": 7635,
    "ule": 6801,
    "felicity": 25143,
    "Ġaverage": 3139,
    "Ġsmo": 2701,
    "rons": 21042,
    "Ġpiqu": 21480,
    "rador": 19129,
    "Ġcompunction": 18588,
    "Ġjun": 8508,
    "Ġdines": 21426,
    "Ġhab": 4220,
    "Ġcombing": 22864,
    "Ġcrushed": 9426,
    "privilege": 25264,
    "Ġinsight": 16532,
    "Ġarm": 2490,
    "Ġconsum": 9802,
    "Ġproverb": 12721,
    "Ġunwaning": 24830,
    "Ġlids": 12280,
    "chambers": 25455,
    "Ġshivered": 14111,
    "Ġmechanisms": 1572,
    "hastily": 19705,
    "esteem": 26009,
    "Ġsun": 1720,
    "Ġdriving": 3618,
    "unguarded": 23668,
    "Ġinfall": 7960,
    "Ġhidden": 1375,
    "Ġcalves": 13040,
    "ighted": 8479,
    "Ġleak": 2160,
    "Ġmostly": 7664,
    "Ġsuggestions": 24453,
    "Ġaround": 3612,
    "Ġmermaids": 26171,
    "ubl": 3596,
    "Ġjoyfully": 19349,
    "immedi": 8452,
    "Ġnodded": 11974,
    "aph": 10956,
    "Ġindolence": 16232,
    "miserably": 24213,
    "Ġgloomily": 14804,
    "Ġdistributed": 18662,
    "arter": 17895,
    "Ġhasten": 10480,
    "ressed": 3024,
    "Ġtell": 1467,
    "Ġadmit": 7711,
    "agings": 18168,
    "acup": 14281,
    "Ġceremonies": 24837,
    "Ġmeanwhile": 5736,
    "aration": 12612,
    "Ġwit": 3843,
    "Ġpriv": 4185,
    "Ġmassac": 14740,
    "Ġlessen": 14534,
    "Ġrover": 18456,
    "uzz": 4526,
    "Ġdep": 746,
    "oar": 12502,
    "Ġlightly": 13088,
    "Ġsavoury": 23880,
    "Ġcreating": 2998,
    "Ġprincipal": 6497,
    "Ġcock": 11001,
    "Ġfest": 10806,
    "bell": 7332,
    "Ġcomplexion": 8211,
    "endurable": 22232,
    "lays": 14925,
    "bare": 12445,
    "Ġadventure": 5982,
    "Ġado": 7627,
    "sounding": 24795,
    "Ġcontributed": 16013,
    "ly": 319,
    "himself": 3973,
    "harpoon": 9494,
    "Ġneglecting": 25010,
    "Ġrecords": 12200,
    "Í": 142,
    "Ġcurds": 22989,
    "Ġfrequ": 3328,
    "Ġraised": 4662,
    "obvious": 9360,
    "cement": 2712,
    "ep": 442,
    "Ġconflagration": 26366,
    "Ġprehens": 22235,
    "rich": 11520,
    "Ġinquirers": 24965,
    "Ġsurpasses": 25269,
    "islands": 21379,
    "Ġservices": 11219,
    "Ġreplied": 2263,
    "trick": 19416,
    "lour": 15384,
    "garious": 17560,
    "aciously": 12912,
    "icity": 2538,
    "Ġrival": 10488,
    "yes": 981,
    "Ġprecipices": 12282,
    "Ġodorous": 19569,
    "Ġgenerations": 10967,
    "repe": 8780,
    "roman": 22008,
    "Ġannum": 24206,
    "feelings": 5674,
    "tr": 3581,
    "Ġcurbstone": 26045,
    "joy": 3335,
    "cock": 12030,
    "Ġmorbid": 16240,
    "irting": 11689,
    "crimson": 24091,
    "Ġrejection": 19987,
    "Ġhorn": 6187,
    "Ġempty": 5354,
    "resembling": 25933,
    "Ġwast": 21864,
    "Ġhart": 17924,
    "Ġdiminished": 16668,
    "Ġinforming": 18744,
    "believing": 19465,
    "Ġevil": 3808,
    "Ġquieted": 23846,
    "Ġhen": 3501,
    "Ġquarrels": 16569,
    "Ġwar": 5526,
    "start": 7599,
    "Ġsleet": 8978,
    "Ġrevolt": 24504,
    "Ġregain": 22589,
    "Ġrepeating": 11215,
    "ories": 4754,
    "Ġtin": 15466,
    "kshire": 13749,
    "blasted": 20192,
    "Ġdif": 869,
    "Ġsuffers": 2975,
    "Ġfellows": 8257,
    "ieged": 22581,
    "Ġreceptacle": 23195,
    "Ġrobustness": 18882,
    "lorious": 17594,
    "mention": 7214,
    "iancy": 13014,
    "Ġsleeve": 20143,
    "Ġhorse": 4726,
    "mod": 1055,
    "Ġstaring": 8829,
    "Ġspanish": 2829,
    "Ġfearing": 12820,
    "Ġpersuade": 5874,
    "Ġacquired": 13049,
    "articulate": 17401,
    "wonders": 17146,
    "Ġpomp": 12627,
    "Ġfurther": 1057,
    "wit": 7817,
    "nical": 20993,
    "Ġopposite": 5120,
    "Ġmincing": 18754,
    "mrs": 3745,
    "Ġtum": 5692,
    "Ġplayfulness": 23638,
    "Ġsurvey": 13597,
    "Ġimminent": 11247,
    "icts": 22406,
    "appalled": 18764,
    "Ġdoubly": 16389,
    "countenance": 6925,
    "entary": 21570,
    "altern": 17944,
    "Ġphiladelphia": 26606,
    "there": 1423,
    "amaz": 21848,
    "Ġparaphrasing": 26528,
    "Ġstraightway": 9020,
    "wishing": 21131,
    "aze": 10078,
    "shire": 3022,
    "Ġxxi": 24476,
    "Ġrecognised": 8998,
    "highly": 24763,
    "Ġbands": 14887,
    "Ġplutarch": 22606,
    "reshold": 21242,
    "Ġlab": 1872,
    "Ġpapa": 10659,
    "Ġenjoyment": 7300,
    "Ġspecialized": 3922,
    "Ġgrimes": 11036,
    "Ġtalker": 23374,
    "Ġscene": 3099,
    "Ġrob": 1280,
    "stopping": 19353,
    "Ġsubstant": 14812,
    "atiate": 12553,
    "anxiously": 15114,
    "Ġhourly": 23306,
    "Ġdivine": 6921,
    "Ġmatters": 4974,
    "Ġslappin": 18945,
    "astrop": 3314,
    "Ġdeference": 10883,
    "itself": 7834,
    "Ġgoblets": 20522,
    "Ġnaught": 8128,
    "Ġsympathise": 16796,
    "whal": 10942,
    "ring": 1753,
    "Ġunceasing": 20361,
    "Ġsperm": 1844,
    "Ġdeclares": 16994,
    "Ġpave": 8804,
    "Ġlegisl": 23537,
    "Ġconvenience": 11333,
    "Ġexperience": 1391,
    "Ġmast": 2902,
    "hatherley": 17570,
    "Ġwelfare": 12564,
    "Ġhands": 1666,
    "Ġshrine": 19534,
    "sinking": 17670,
    "dia": 2134,
    "oir": 21004,
    "Ġcord": 5222,
    "isters": 11923,
    "succeed": 10331,
    "Ġresp": 2492,
    "Ġpetulance": 24230,
    "Ġdried": 7367,
    "Ġmonitors": 3158,
    "Ġdepl": 14047,
    "Ġsentiment": 6590,
    "Ġsable": 15503,
    "Ġtragic": 15259,
    "Ġflashed": 11917,
    "Ġarcher": 22183,
    "gradually": 12920,
    "Ġpink": 12623,
    "Ġscreen": 17208,
    "Ġepit": 18009,
    "cottagers": 20051,
    "odings": 4403,
    "Ġchildish": 13140,
    "Ġplaited": 14286,
    "Ġrobinson": 17466,
    "ing": 273,
    "Ġimaginary": 11188,
    "hued": 20913,
    "Ġthousandth": 23684,
    "oam": 8755,
    "Ġunthink": 18248,
    "evenings": 19466,
    "Ġsebastian": 11702,
    "Ġdeceitfulness": 25734,
    "application": 12367,
    "Ġapproving": 18501,
    "rise": 6228,
    "stalk": 21647,
    "Ġretarded": 23075,
    "Ġgreedily": 18965,
    "atever": 3080,
    "repeat": 25155,
    "Ġdomineer": 23708,
    "thrust": 10264,
    "Ġagreeing": 20022,
    "etime": 12664,
    "Ġpreacher": 18370,
    "Ġwards": 17791,
    "Ġtranced": 18428,
    "Ġwow": 15532,
    "Ġrender": 8305,
    "ette": 15663,
    "Ġconquer": 14030,
    "urried": 21707,
    "Ġbacks": 8531,
    "Ġdyspeps": 16498,
    "Ġcompletion": 12152,
    "Ġacre": 22684,
    "Ġenric": 21938,
    "Ġridicule": 13515,
    "Ġcolony": 18768,
    "remes": 21240,
    "Ġtide": 6661,
    "Ġcoins": 11823,
    "Ġschool": 5512,
    "perquis": 22194,
    "Ġadmired": 7982,
    "Ġcatherine": 2812,
    "Ħ": 231,
    "vest": 6232,
    "Ġintroduce": 3206,
    "Ġgoal": 10304,
    "Ġrainbows": 19651,
    "Ġepidemic": 20698,
    "ged": 1513,
    "Ġpulley": 2977,
    "Ġbeside": 5192,
    "Ġcentaurs": 23836,
    "âĢĿ;": 11673,
    "Ġbarber": 23792,
    "ree": 873,
    "Ġspirit": 3725,
    "Ġimmort": 19487,
    "ateur": 22075,
    "Ġmedical": 9473,
    "Ġcircling": 19094,
    "Ġshakes": 10906,
    "Ġdrunk": 9427,
    "Ġdescended": 7428,
    "Ġsubl": 7235,
    "better": 7121,
    "Ġvacantly": 16817,
    "Ġsimilarly": 24310,
    "Ġneskye": 21534,
    "Ġstationary": 19697,
    "Ġden": 3108,
    "spermaceti": 12198,
    "Ġsurpl": 19134,
    "sincerely": 24585,
    "presented": 12997,
    "Ġfeeding": 7972,
    "Ġsweetness": 9449,
    "Ġhoofs": 14529,
    "Ġindian": 4133,
    "Ġvoids": 25808,
    "Ġreminding": 19800,
    "germans": 20568,
    "arian": 10319,
    "Ġhindoo": 17178,
    "Ġflower": 16235,
    "Ġconge": 15750,
    "ipelag": 12844,
    "general": 7489,
    "Ġgnashed": 20136,
    "Ġpresented": 5183,
    "Ġwe": 386,
    "lemag": 21375,
    "Ġchilled": 18383,
    "Ġgallons": 14821,
    "Ġaright": 11744,
    "Ġpart": 859,
    "placidity": 25989,
    "Ġplayed": 9419,
    "Ġestimation": 11220,
    "oars": 9617,
    "Ġaberde": 22281,
    "preading": 18498,
    "Ġgentleman": 3041,
    "Ġmonday": 6129,
    "Ġcheerfully": 12139,
    "Ġscientific": 6857,
    "pow": 10719,
    "frankenstein": 11393,
    "Ġbefall": 8833,
    "takes": 21079,
    "gems": 20886,
    "valuable": 8246,
    "Ġlimit": 10445,
    "Ġmemo": 18119,
    "shooting": 16967,
    "Ġcautiously": 16979,
    "Ġdocks": 14180,
    "Ġfolding": 19730,
    "iction": 4272,
    "tled": 3455,
    "Ġuncompromised": 20606,
    "Ġbred": 9172,
    "Ġtelescopes": 25691,
    "supplemental": 25875,
    "etus": 21581,
    "covery": 11173,
    "cerem": 15682,
    "Ġtimor": 24227,
    "Ġlamp": 4116,
    "Ġsembl": 19061,
    "leman": 21371,
    "ys": 3962,
    "Ġmisanthrop": 22761,
    "ieved": 3232,
    "Ġforehead": 5262,
    "scorched": 25698,
    "Ġindu": 5295,
    "Ġassaulted": 25321,
    "adjust": 21763,
    "Ġshad": 3851,
    "Ġsuccessfully": 19432,
    "Ġvocation": 10528,
    "Ġcustom": 5078,
    "attle": 4469,
    "Ġdetest": 8503,
    "Ġnumerous": 6920,
    "Ġchamp": 18382,
    "Ġstanders": 19018,
    "olic": 14045,
    "Ġdefects": 12337,
    "opy": 4461,
    "run": 10723,
    "Ġfaults": 12217,
    "Ġpersian": 11088,
    "danger": 10092,
    "streamed": 25966,
    "furthest": 19844,
    "gird": 20881,
    "Ġdays": 2076,
    "slowly": 9092,
    "thanked": 24327,
    "Ġcharms": 11132,
    "Ġobli": 9319,
    "Ġrag": 18642,
    "Ġindicates": 3196,
    "Ġthundering": 24293,
    "Ġinsupportable": 13935,
    "Ġrighted": 23180,
    "Ġuninter": 18247,
    "isen": 10794,
    "Ġax": 7822,
    "Ġdollars": 11457,
    "ameter": 3083,
    "Ġexpose": 10330,
    "Ġilleg": 21626,
    "/(": 2983,
    "ld": 385,
    "Ġpolite": 9885,
    "Ġcounting": 13100,
    "Ġbenevolent": 7773,
    "Ġbridegroom": 10607,
    "solution": 14688,
    "Ġtram": 11093,
    "canonical": 22968,
    "Ġgrasp": 4665,
    "Ġmartyr": 26362,
    "Ġjaws": 5593,
    "touching": 15095,
    "gul": 12470,
    "Ġser": 1674,
    "Ġartic": 5315,
    "Ġerskine": 17435,
    "decor": 23783,
    "Ġantarctic": 19555,
    "Ġwip": 13856,
    "Ġtransfer": 2245,
    "Ġforbear": 17124,
    "Ġwrenched": 12563,
    "ansion": 10927,
    "overs": 17623,
    "Ġhasty": 10479,
    "Ġmort": 3457,
    "counters": 25398,
    "petulance": 24301,
    "clouds": 25497,
    "Ġmusky": 19385,
    "Ġimmortality": 26327,
    "sn": 7140,
    "Ġinvaluable": 10185,
    "Ġpredictions": 1454,
    "osp": 6854,
    "Ġfetched": 24568,
    "Ġinstructing": 3123,
    "Ġparlor": 13543,
    "Ġinviting": 19145,
    "Ġpalpitated": 26086,
    "Ġregression": 4413,
    "Ġhurried": 4033,
    "consumed": 25677,
    "Ġyield": 5093,
    "âĢľ": 344,
    "Ġhappier": 10362,
    "Ġbro": 1429,
    "pless": 6262,
    "Ġbarbs": 10534,
    "Ġstructured": 2974,
    "Ġluxury": 20135,
    "Ġwhirl": 13453,
    "Ġcrystall": 20229,
    "Ġembracing": 14983,
    "Ġhot": 4261,
    "sy": 2632,
    "Ġrooted": 13173,
    "Ġsickly": 16776,
    "elly": 17982,
    "Ġl": 303,
    "Ġru": 947,
    "master": 5687,
    "women": 15459,
    "Ġbeaches": 18087,
    "Ġcheek": 8581,
    "Ġprofund": 13157,
    "Ġroyal": 5602,
    "Ġ116": 24440,
    "certainly": 5340,
    "Ġleghorn": 13150,
    "Ġinserting": 19908,
    "nib": 5214,
    "Ġblew": 9048,
    "elius": 13292,
    "andy": 8158,
    "arance": 4699,
    "acetti": 13400,
    "centred": 25020,
    "Ġraven": 16119,
    "sh": 648,
    "disc": 4730,
    "miss": 3175,
    "Ġtags": 20574,
    "extent": 22767,
    "amous": 15765,
    "ainted": 3660,
    "Ġlascar": 9202,
    "exposure": 19259,
    "Ġregimentals": 19860,
    "Ġadvances": 12995,
    "become": 14249,
    "rie": 2787,
    "Ġanoints": 25539,
    "Ġdespite": 19356,
    "\",": 10681,
    "Ġpostmark": 16727,
    "Ġwindibank": 7257,
    "Ġwarriors": 19726,
    "Ġmechanically": 14400,
    "odious": 21816,
    "alongside": 19792,
    "rem": 1522,
    "Ġgazette": 19504,
    "atered": 22076,
    "ball": 7793,
    "Ġgangs": 21612,
    "vicious": 21121,
    "Ġunprinciple": 18255,
    "Ġimplicate": 24877,
    "electricity": 26387,
    "solely": 19819,
    "Ġbuilding": 8063,
    "Ġnap": 8813,
    "tables": 19760,
    "cible": 20808,
    "Ġeul": 21621,
    "Ġintended": 5548,
    "Ġcontributes": 15254,
    "Ġdormouse": 4926,
    "vac": 15453,
    "Ġprinces": 23222,
    "Ġtore": 6532,
    "Ġconfederate": 17356,
    "Ġfloats": 9416,
    "Ġattained": 14081,
    "pires": 13778,
    "roots": 15647,
    "rosc": 17957,
    "Ġepicures": 25880,
    "ackled": 22428,
    "Ġdescribed": 6608,
    "solid": 16384,
    "justine": 7683,
    "valued": 2853,
    "joining": 19449,
    "Ġgeneva": 5450,
    "Ġalmighty": 18107,
    "Ġinsatiable": 19274,
    "Ġcred": 8785,
    "Ġalert": 18104,
    "Ġheel": 9687,
    "nikin": 23238,
    "Ġenl": 18190,
    "otle": 21801,
    "Ġguilt": 6181,
    "tacit": 21101,
    "extric": 22768,
    "Ġantilles": 24182,
    "Ġwakes": 11575,
    "Ġmiseries": 10349,
    "Ġheartfelt": 18967,
    "Ġacceler": 1607,
    "causes": 20346,
    "Ġdismember": 20218,
    "Ġnortheast": 23205,
    "ent": 305,
    "Ġwing": 6668,
    "adventure": 17236,
    "ached": 2322,
    "eral": 9162,
    "damn": 20027,
    "Ġvales": 21950,
    "Ġaccumul": 1411,
    "commer": 22814,
    "Ġsne": 6373,
    "aisance": 15078,
    "Ġintercept": 14272,
    "Ġfortifications": 23622,
    "water": 4869,
    "Ġcabman": 14608,
    "unned": 21882,
    "Ġtransformed": 22615,
    "Ġimpossible": 3544,
    "Ġvict": 3763,
    "augmented": 26288,
    "Ġvault": 8845,
    "Ġmeasured": 9807,
    "Ġnational": 13945,
    "Ġrocks": 6863,
    "Ġxxxix": 24971,
    "Ġvener": 8164,
    "á": 162,
    "Ġundergone": 18987,
    "explained": 23147,
    "Ġerecting": 24653,
    "xic": 9148,
    "Ġunderwent": 23242,
    "ance": 478,
    "Ġdragg": 23215,
    "Ġpretension": 23766,
    "vult": 21116,
    "Ġspiritual": 9933,
    "Ġdragon": 14947,
    "allest": 5485,
    "Ġclinched": 17397,
    "Ġshuddering": 9054,
    "Ġwaterward": 23370,
    "ece": 17533,
    "Ġmultiplied": 23690,
    "Ġexceptional": 19374,
    "Ġextremest": 19196,
    "prisoner": 20546,
    "Ġscores": 2715,
    "Ġredu": 1354,
    "Ġscotland": 6642,
    "Ġdirectors": 18923,
    "companions": 15026,
    "gest": 5426,
    "Ġboomer": 20170,
    "ulls": 8842,
    "war": 6803,
    "Ġimmense": 4952,
    "cely": 3576,
    "Ġhastening": 19338,
    "Ġtravell": 5576,
    "bur": 4688,
    "Ġapprove": 12874,
    "),": 1346,
    "uttered": 8442,
    "Ġarve": 15897,
    "Ġcurvature": 3575,
    "Ġvort": 18194,
    "Ġslate": 11942,
    "rous": 3753,
    "Ġmonogram": 26576,
    "contrary": 23731,
    "sl": 5794,
    "Ġwill": 678,
    "Ġundulates": 24121,
    "Ġstrives": 23695,
    "gale": 13727,
    "lines": 6959,
    "brÃ¦": 11177,
    "Ġfish": 2710,
    "ung": 2745,
    "Ġ67": 19663,
    "Ġrose": 3441,
    "revealed": 20419,
    "nes": 6961,
    "disappo": 8987,
    "Ġcomplet": 4426,
    "Ġrecovery": 11443,
    "moonlight": 25376,
    "orted": 4605,
    "Ġshadow": 5596,
    "Ġdisput": 14258,
    "Ġhysterical": 26093,
    "Ġhulls": 13929,
    "Ġsatisfying": 23697,
    "Ġspangled": 22139,
    "Ġpendulous": 25956,
    "Ġinputs": 843,
    "vig": 15449,
    "Ġcapric": 14578,
    "idered": 4555,
    "Ġdeadliest": 14558,
    "Ġpale": 4534,
    "ingu": 2120,
    "Ġblundering": 26285,
    "Ġbol": 6243,
    "Ġyounge": 16291,
    "Ġparameters": 994,
    "Ġstiff": 6993,
    "perils": 22191,
    "Ġvulture": 17342,
    "Ġloaded": 8493,
    "fering": 17544,
    "Ġade": 22104,
    "names": 16530,
    "anelles": 26436,
    "Ġalleviated": 26205,
    "Ġaccompany": 9490,
    "Ġhanover": 20589,
    "Ġflooded": 24962,
    "fect": 2299,
    "Ġwra": 5907,
    "enched": 10157,
    "oglyph": 11020,
    "fer": 1930,
    "Ġgrievances": 20650,
    "Ġripe": 13239,
    "Ġtech": 1656,
    "regularization": 3514,
    "Ġtricks": 13488,
    "Ġflag": 7242,
    "chanced": 18805,
    "approbation": 11460,
    "Ġcook": 3713,
    ".âĢĻ": 1719,
    "Ġgib": 13968,
    "secured": 16940,
    "ari": 670,
    "Ġreader": 11938,
    "Ġannouncing": 16756,
    "fortun": 3539,
    "Ġrare": 7038,
    "asy": 5296,
    "Ġjura": 14195,
    "Ġcant": 17826,
    "Ġpall": 7583,
    "Ġghostliness": 24652,
    "Ġhenry": 5197,
    "Ġascribe": 16784,
    "Ġastir": 14642,
    "ignomin": 23269,
    "Ġwines": 21290,
    "Ġanatomical": 15080,
    "vate": 21112,
    "Ġcongregation": 12333,
    "Ġoffended": 7042,
    "Ġwalker": 23314,
    "Ġpen": 1531,
    "repro": 10772,
    "Ġbucket": 8792,
    "Ġearliest": 9833,
    "Ġep": 7384,
    "Ġgreenland": 5761,
    "Ġwoof": 14724,
    "sake": 13786,
    "Ġfelicity": 7260,
    "Ġking": 2304,
    "Ġsurging": 19135,
    "customary": 25896,
    "ete": 9206,
    "Ġexpon": 966,
    "Ġ72": 19614,
    "imes": 1301,
    "Ġfirmament": 19474,
    "screwed": 17190,
    "ountain": 2921,
    "ruined": 18342,
    "Ġploughing": 26261,
    "allingly": 22203,
    "Ġhoney": 12637,
    "Ġaccept": 4414,
    "Ġtroubling": 26549,
    "ruction": 4361,
    "Ġthro": 5818,
    "Ġinflamed": 13477,
    "events": 12321,
    "Ġrachel": 11851,
    "Ġunfitted": 24111,
    "Ġrocking": 10971,
    "listened": 15046,
    "perpendicular": 14167,
    "âĢĶâĢĺ_": 24832,
    "Ġladies": 3194,
    "killed": 15380,
    "Ġimpregnable": 26024,
    "Ġnormalization": 1241,
    "richard": 17289,
    "innacle": 7519,
    "mental": 16052,
    "Ġnovels": 15933,
    "Ġbachelor": 7787,
    "Ġarrangements": 16517,
    "Ġfing": 3758,
    "stuff": 15691,
    "Ġaffectionate": 5585,
    "Ġundu": 15841,
    "parable": 16401,
    "Ġunrelieved": 20548,
    "xter": 9149,
    "Ġperpetual": 12307,
    "row": 1068,
    "Ġunful": 22013,
    "Ġdifferent": 1427,
    "Ġorgies": 18286,
    "ñ": 178,
    "Ġsoot": 14132,
    "Ġsurface": 5119,
    "Ġphant": 7057,
    "Ġoriental": 9100,
    "Ġrobe": 18458,
    "introduction": 15127,
    "Ġpanting": 11606,
    "Ġseeks": 14306,
    "Ġreceived": 2953,
    "Ġslave": 7454,
    "Ġsickness": 10541,
    "ishly": 14202,
    "Ġgust": 21600,
    "cl": 1494,
    "Ġunit": 1850,
    "home": 7341,
    "willing": 6594,
    "Ġlion": 9678,
    "Ġtam": 7821,
    "Ġashore": 5352,
    "Ġencompassed": 15257,
    "Ġcommodores": 25375,
    "Ġgloves": 8578,
    "Ġstranger": 3484,
    "am": 367,
    "Ġparm": 15881,
    "Ġesteemed": 10591,
    "complain": 14361,
    "Ġcoals": 16077,
    "Ġcommonplaces": 16292,
    "Ġrejoice": 10211,
    "Ġjoll": 11769,
    "Ġhazarded": 25655,
    "Ġsounded": 8594,
    "Ġsacri": 18329,
    "Ġgrammar": 1064,
    "Ġcompany": 3722,
    "Ġverd": 6919,
    "Ġaforethought": 25429,
    "joke": 20932,
    "Ġensl": 19276,
    "maltese": 24794,
    "restrained": 16340,
    "Ġparacelsus": 15270,
    "ri": 391,
    "merchant": 10469,
    "soo": 18686,
    "Ġfidel": 12601,
    "Ġunassuming": 20512,
    "Ġexecution": 6927,
    "Ġpricking": 23221,
    "Ġvindictiveness": 25739,
    "perform": 15905,
    "quiet": 6156,
    "Ġwhalemen": 3914,
    "Ġcraggy": 23532,
    "Ġcabinets": 23865,
    "ten": 1554,
    "repid": 11567,
    "Ġconsists": 11982,
    "confirm": 16809,
    "Ġcelebrated": 13598,
    "Ġgrace": 5374,
    "Ġmiguel": 25767,
    "cont": 2923,
    "mortar": 25409,
    "bitts": 26123,
    "your": 1985,
    "Ġ88": 19714,
    "Ġvillage": 5774,
    "ellation": 12755,
    "cr": 4014,
    "Ġruthless": 15289,
    "Ġbrit": 6291,
    "Ġconstraint": 16515,
    "small": 6473,
    "Ġimpressed": 8199,
    "Ġtypewritten": 16425,
    "Ġproport": 2297,
    "Ġsnodhead": 19304,
    "dz": 4740,
    "oubted": 5861,
    "Ġbar": 3148,
    "Ġachieve": 3674,
    "Ġhastened": 9007,
    "arranging": 19320,
    "rative": 17654,
    "Ġflows": 13015,
    "Ġaddressed": 5263,
    "Ġjig": 15955,
    "brance": 7284,
    "Ġopenness": 18958,
    "5": 25,
    "Ġcomplying": 18587,
    "Ġlate": 3376,
    "Ġlimping": 23548,
    "Ġgoes": 3854,
    "Ġdec": 641,
    "Ġneg": 1333,
    "Ġcorpore": 13405,
    "§": 105,
    "Ġvisual": 5741,
    "Ġbabies": 19695,
    "Ġmouthfuls": 20648,
    "Ġbuff": 9175,
    "Ġedged": 23489,
    ",": 16,
    "anged": 3589,
    "Ġowen": 15098,
    "ittingly": 18810,
    "Ġsympathising": 24299,
    "Ġtools": 11612,
    "Ġreception": 9842,
    "Ġrabbit": 4292,
    "Ġcause": 2410,
    "osition": 1374,
    "Ġobscure": 9557,
    "Ġcollection": 8222,
    "Ġturnkeys": 23032,
    "Ġimperson": 14221,
    "Ġconsent": 5372,
    "Ġpledged": 20690,
    "rabb": 15684,
    "sink": 11524,
    "Ġforbearance": 12332,
    "Ġmisery": 3816,
    "Ġdiscrimin": 2544,
    "ampton": 18147,
    "Ġ8": 5433,
    "Ġreciprocating": 26371,
    "Ġmajest": 24065,
    "igate": 8827,
    "Ġgpus": 3733,
    "Ġware": 12559,
    "Ġbehavior": 8002,
    "winter": 10742,
    "condite": 23250,
    "aston": 7408,
    "Ġmeasure": 3595,
    "unexpected": 15782,
    "Ġequinoctial": 20536,
    "pos": 15413,
    "Ġhaws": 21955,
    "gra": 769,
    "dinah": 20084,
    "splice": 17173,
    "Ġwhoa": 22424,
    "Ġcontrol": 13084,
    "masterly": 24530,
    "fedallah": 25523,
    "sharks": 14242,
    "Ġaside": 5234,
    "Ġentreated": 9954,
    "?âĢĻâĢĿ": 23644,
    "Ġdames": 23475,
    "Ġforeheads": 23449,
    "Ġchemical": 10412,
    "Ġstark": 7390,
    "dorff": 15241,
    "Ġmuslin": 19386,
    "Ġtackles": 8051,
    "Ġcomply": 8894,
    "withstanding": 8948,
    "jep": 20928,
    "presents": 18799,
    "liness": 8750,
    "Ġslo": 15509,
    "Ġunthinkingly": 26222,
    "isely": 4491,
    "Ġsoutherly": 23338,
    "heartedness": 24825,
    "li": 1188,
    "projecting": 26074,
    "turkish": 24533,
    "lashed": 20956,
    "Ġrashly": 20308,
    "Ġseek": 4511,
    "Ġflow": 1238,
    "Ġhinge": 25542,
    "kindred": 24053,
    "Ġprivacy": 19527,
    "Ġmotionless": 8324,
    "Ġenquired": 21944,
    "prise": 7727,
    "Ġpreparations": 12314,
    "Ġdefault": 3039,
    "ppery": 10894,
    "luc": 9755,
    "Ġcircle": 4977,
    "Ġprocedural": 12035,
    "Ġcalling": 5662,
    "Ġquee": 1981,
    "Ġshr": 4228,
    "Ġhotels": 19539,
    "squee": 15433,
    "Ġknob": 24407,
    "Ġadorned": 15251,
    "drawn": 9916,
    "Ġtension": 13827,
    "clear": 9027,
    "aloud": 17943,
    "personal": 24966,
    "Ġskip": 1847,
    "Ġsunda": 13547,
    "Ġpharaoh": 26587,
    "Ġkitchen": 8498,
    "tired": 21075,
    "D": 40,
    "ĠĠĠĠĠĠĠĠĠĠĠĠĠĠĠĠĠĠĠĠĠĠ": 16230,
    "Ġinstances": 5568,
    "Ġoriginally": 7304,
    "vap": 13806,
    "ourse": 8873,
    "wood": 5899,
    "ney": 2491,
    "Ġthan": 736,
    "Ġdangerously": 23940,
    "Ġdistrustful": 25057,
    "Ġbeholding": 8672,
    "division": 20052,
    "farintosh": 24553,
    "vanity": 24977,
    "Ġresting": 7962,
    "Ġcontinental": 19708,
    "Ġmichaelmas": 26376,
    "Ġsleeper": 8603,
    "Ġnetworks": 592,
    "Ġarrival": 4732,
    "cence": 9591,
    "Ġfare": 5810,
    "Ġgrounded": 23714,
    "Ġrent": 11642,
    "Ġrain": 5005,
    "Ġcaptains": 7457,
    "Ġunforeseen": 22055,
    "Ġmildness": 9947,
    "Ġsovere": 9259,
    "Ġunexpl": 22041,
    "Ġscrawled": 24581,
    "Ġevalu": 2881,
    "Ġbanqu": 12593,
    "stupid": 12680,
    "Ġaffright": 9335,
    "girdling": 26391,
    "mysteries": 26052,
    "Ġphr": 2681,
    "Ġresponses": 23650,
    "Ġancles": 21449,
    "neighbour": 7211,
    "Ġsubject": 2463,
    "hast": 5358,
    "Ġscreamed": 9527,
    "estruct": 22227,
    "Ġarisen": 11747,
    "naturalists": 23529,
    "discovery": 12021,
    "mense": 4781,
    "Ġendeav": 2956,
    "Ġconfirms": 23313,
    "ret": 1475,
    "wand": 10740,
    "Ġindignantly": 16941,
    "Ġgap": 21602,
    "close": 9989,
    "tahit": 17694,
    "marks": 7346,
    "Ġinconvenience": 9566,
    "Ġheeds": 24520,
    "Ġhunting": 7259,
    "breathing": 25336,
    "iance": 5280,
    "Ġscrews": 25178,
    "Ġsolve": 4199,
    "deav": 2674,
    "revival": 26163,
    "Ġmoby": 3666,
    "Ġscandinavian": 26347,
    "Ġcleansed": 26295,
    "idled": 21772,
    "Ġmonth": 2849,
    "Ġmarry": 4421,
    "carrying": 16714,
    "ur": 325,
    "Ġworaciousness": 22932,
    "Ġhem": 8447,
    "Ġgreeted": 23212,
    "wil": 8769,
    "Ġrested": 9382,
    "leads": 21373,
    "treas": 17681,
    "blood": 7780,
    "Ġunbroken": 18251,
    "sp": 895,
    "Ġpatronage": 17054,
    "expectant": 24278,
    "Ġrubbing": 9324,
    "Ġhorsham": 10408,
    "ox": 9136,
    "Ġfrightful": 7736,
    "living": 7135,
    "Ġcontrast": 2119,
    "va": 4744,
    "Ġsuperlative": 26075,
    "Ġprincess": 23223,
    "Ġburgl": 13177,
    "Ġcheering": 11135,
    "Ġtheoretic": 23315,
    "Ġwer": 12557,
    "smiled": 16616,
    "Ġgoug": 17993,
    "Ġcandle": 8292,
    "Ġdisputing": 25825,
    "Ġezekiel": 26194,
    "Ġam": 660,
    "Ġbrows": 13305,
    "errand": 22913,
    "Ġrighteous": 18948,
    "Ġspending": 10925,
    "Ġvirtues": 9939,
    "icle": 10836,
    "'t": 3145,
    "anite": 17839,
    "restoration": 23240,
    "Ġinexperienced": 26101,
    "uttural": 21592,
    "stun": 18018,
    "hours": 9127,
    "Ġcompose": 12907,
    "Ġbashee": 19851,
    "Ġseizing": 7879,
    "prom": 6510,
    "Ġserenely": 13510,
    "concern": 6101,
    "Ġyielding": 12191,
    "spoke": 11026,
    "Ġinsurg": 23681,
    "Ġyounger": 5253,
    "Ġfris": 23258,
    "Ġankers": 21448,
    "Ġinformation": 1049,
    "Ġpropos": 7064,
    "Ġjoin": 4855,
    "Ġcampaign": 20663,
    "Ġbathe": 25444,
    "Ġsteps": 2863,
    "Ġheld": 3587,
    "Ġwhale": 628,
    "Ġearlier": 9090,
    "Ġattracted": 8908,
    "Ġinfidel": 13092,
    "writ": 16556,
    "lestrade": 9659,
    "Ġfills": 12599,
    "Ġstare": 10866,
    "ears": 20847,
    "Ġembarkation": 25125,
    "ģ": 228,
    "Ġbrothers": 13179,
    "Ġinser": 6820,
    "Ġinsignific": 13184,
    "Ġje": 4125,
    "Ġadvice": 4902,
    "ai": 2525,
    "sought": 15430,
    "Ġfert": 15586,
    "Ġfootman": 8288,
    "Ġtrampling": 25493,
    "Ġapplies": 11963,
    "Ġetern": 7087,
    "Ġph": 1547,
    "Ġbreath": 4792,
    "Ġblame": 6447,
    "likeness": 19481,
    "learn": 2433,
    "Ġillust": 8263,
    "Ġopera": 23428,
    "Ġmarlings": 23041,
    "rows": 6443,
    "Ġspiracle": 14152,
    "telescope": 26564,
    "Ġties": 12532,
    "Ġsaturday": 6453,
    "Ġcrabs": 19176,
    "Ġarray": 12814,
    "ex": 624,
    "Ġfiercely": 12957,
    "Ġtechnical": 17194,
    "ascending": 24706,
    "Ġg": 310,
    "unwholesome": 26499,
    "Ġproc": 5545,
    "Ġmasonry": 13603,
    "Ġunp": 12777,
    "tone": 8766,
    "bour": 2071,
    "Ġenorm": 5304,
    "Ġunw": 7005,
    "executed": 25740,
    "Ġsymp": 4505,
    "Ġunmanufactured": 20437,
    "ĠĠĠĠĠĠĠĠĠĠĠĠĠĠĠĠĠĠĠĠĠĠĠĠĠĠĠĠĠĠĠĠĠĠĠĠĠĠĠĠ": 4519,
    "Ġirrespective": 23378,
    "Ġcooking": 16649,
    "anth": 13890,
    "Ġhovering": 10181,
    "ined": 1260,
    "floated": 24644,
    "Ġreplenished": 13640,
    "delight": 5345,
    "Ġanom": 12616,
    "falsehood": 25902,
    "Ġwilling": 7421,
    "Ġshipw": 12984,
    "Ġju": 10289,
    "Ġrabb": 4165,
    ".)": 6784,
    "Ġwidow": 8666,
    "Ġsavage": 4012,
    "Ġaxe": 15064,
    "ket": 17584,
    "Ġunabated": 15856,
    "flutter": 23974,
    "Ġquery": 2477,
    "Ġincarnation": 25574,
    "Ġroute": 11383,
    "murderers": 25728,
    "Ġbaleen": 10040,
    "networks": 2405,
    "summer": 11998,
    "obser": 11101,
    "Ġarchipelagoes": 14351,
    "Ġpapered": 20134,
    "Ġretiring": 16284,
    "cavity": 26127,
    "Ġcobbler": 25831,
    "gh": 3803,
    "Ġcolumn": 9331,
    "Ġleaky": 2347,
    "Ġrouted": 24908,
    "sis": 1799,
    "Ġpleasures": 11144,
    "Ġ61": 24364,
    "Ġproflig": 23569,
    "iquet": 17577,
    "turns": 14909,
    "Ġfiery": 6871,
    "uteness": 17988,
    "Ġsalad": 19482,
    "elopement": 23126,
    "Ġdescried": 7919,
    "Ġpangs": 15619,
    "Ġpoisoned": 24887,
    "Ġstepfather": 7221,
    "Ġtrooped": 24900,
    "ushes": 22295,
    "Ġerudite": 26353,
    "chooses": 23673,
    "illustration": 2282,
    "ant": 438,
    "Ġnam": 17951,
    "Ġtapers": 11554,
    "Ġstreat": 15725,
    "Ġvexed": 9997,
    "Ġwidespread": 20678,
    "Ġactivations": 2720,
    "Ġhom": 9189,
    "gence": 875,
    "nurse": 15212,
    "yield": 13812,
    "Ġseethe": 21967,
    "Ġwandering": 8657,
    "break": 6103,
    "Ġowed": 10782,
    "Ġtattooed": 11380,
    "Ġadm": 2402,
    "Ġawkward": 7075,
    "Ġassid": 18947,
    "particulars": 11317,
    "Ġexaggerated": 25651,
    "Ġrepented": 23365,
    "_),": 7127,
    "Ġbern": 17860,
    "Ġfoam": 6891,
    "Ġdisc": 943,
    "isher": 2879,
    "Ġpropri": 6740,
    "inisc": 15491,
    "Ġpretext": 22233,
    "Ġbells": 19604,
    "Ġequilib": 4138,
    "Ġunguarded": 15854,
    "Ġwager": 17794,
    "Ġgloss": 11962,
    "Ġdiscomposed": 25581,
    "ermost": 7430,
    "learnt": 23564,
    "Ġut": 2277,
    "thrusting": 20262,
    "Ġbrimstone": 25687,
    "Ġpeculiarly": 8287,
    "Ġbush": 23340,
    "Ġerect": 6145,
    "nose": 17612,
    "Ġdusting": 24597,
    "thread": 15830,
    "Ġself": 1779,
    "etition": 7382,
    "Ġfade": 21410,
    "Ġarsacides": 17297,
    "growing": 13736,
    "Ġtokens": 1772,
    "Ġarid": 22180,
    "swam": 24257,
    "omination": 21665,
    "Ġunfathomable": 20551,
    "Ġhearses": 20063,
    "Ġfunny": 7638,
    "gd": 3125,
    "Ġfired": 16158,
    "Ġvengeance": 5886,
    "biscuit": 17503,
    "Ġtrap": 7672,
    "Ġclimb": 15083,
    "Ġcolleague": 17162,
    "disaster": 23495,
    "Ġfriday": 14490,
    "Ġintu": 12768,
    "lan": 15381,
    "Ġstrung": 22621,
    "fluttering": 23976,
    "Ġcigar": 9548,
    "Ġpensive": 21478,
    "linging": 16082,
    "apparat": 22847,
    "Ġmuskets": 17057,
    "endar": 18365,
    "Ġdecay": 1011,
    "Ġdais": 24372,
    "etah": 12666,
    "Ġugl": 12687,
    "Ġhabitual": 24789,
    "Ġarrived": 3747,
    "Ġstrang": 4162,
    "igen": 4832,
    "Ġwaif": 9378,
    "Ġdifficulties": 11227,
    "Ġproprietor": 12377,
    "Ġstrange": 2271,
    "ask": 856,
    "Ġalcoves": 26488,
    "narrative": 17322,
    "Ġcemet": 20683,
    "Ġinterp": 16073,
    "Ġwoodcock": 19165,
    "ason": 1278,
    "clothed": 19741,
    "Ġsimul": 1809,
    "¼": 125,
    "leaves": 12583,
    "hig": 12479,
    "expose": 23663,
    "yp": 1046,
    "ravity": 21638,
    "Ġfoolscap": 24161,
    "Ġcau": 13884,
    "Ġperfidious": 25667,
    "Ġswash": 23058,
    "Ġintegral": 25011,
    "rance": 5995,
    "wow": 21124,
    "Ġsubterranean": 13615,
    "Ġperturbed": 20443,
    "Ġannals": 17900,
    "viating": 14581,
    "Ġpublished": 11244,
    "hampshire": 23267,
    "scythes": 26404,
    "?âĢĿâĢĶ": 12900,
    "Ġscho": 4439,
    "Ġneighbour": 3810,
    "bury": 9110,
    "bow": 5424,
    "asted": 4651,
    "Ġcalmer": 23047,
    "ribly": 8255,
    "Ġshoreless": 24297,
    "Ġgreatly": 5851,
    "P": 52,
    "nearly": 8684,
    "Ġfestival": 25446,
    "barrel": 17061,
    "onic": 7827,
    "bber": 4570,
    "Ġcase": 1940,
    "Ġdespise": 14668,
    "Ġproudly": 19745,
    "Ġindoors": 18837,
    "arranged": 19321,
    "ode": 1452,
    "Ġmoulton": 17438,
    "\"": 6,
    "lung": 17593,
    "Ġ133": 24782,
    "Ġdefect": 8557,
    "ulance": 15771,
    "Ġspaniards": 25556,
    "Ġstandards": 19019,
    "Ġconveys": 16857,
    "addition": 13388,
    "Ġdost": 7637,
    "lier": 20951,
    "Ġflail": 23010,
    "speaks": 19722,
    "Ė": 215,
    "Ġunreasoning": 15849,
    "trying": 15441,
    "ureau": 10229,
    "Ġluggage": 25958,
    "Ġintensity": 10019,
    "Ġchain": 1845,
    "andromeda": 21872,
    "Ġcolt": 11046,
    "Ġrush": 5926,
    "Ġwhether": 2000,
    "Ġvaults": 17156,
    "Ġgovernment": 15180,
    "Ġceasing": 23759,
    "key": 5462,
    "prejudiced": 17300,
    "Ġunsuccessful": 18258,
    "Ġlat": 5087,
    "Ġoverthrown": 18432,
    "Ġschools": 9480,
    "Ġhiding": 9826,
    "sleepers": 24729,
    "Ġpers": 1347,
    "attempts": 17193,
    "susceptible": 24662,
    "Ġmarchant": 14789,
    "Ġcave": 10787,
    "passed": 8026,
    "thinking": 9017,
    "lections": 4753,
    "mansion": 20985,
    "Ġepisode": 26349,
    "magnifying": 25393,
    "Ġsoliloqu": 11889,
    "Ġrecognise": 12044,
    "ulled": 14059,
    "Ġbrine": 18772,
    "Ġsanguinary": 25930,
    "Ġhum": 1099,
    "loss": 22512,
    "Ġlowerings": 23648,
    "roll": 9199,
    "Ġappl": 1730,
    "deceiving": 22148,
    "Ġshow": 3401,
    "Ġsatisfied": 4173,
    "Ġloosed": 22116,
    "Ġexpert": 18870,
    "ez": 5683,
    "esy": 9185,
    "Ġwed": 7575,
    "street": 6496,
    "Ġburst": 4384,
    "Ġensuing": 12313,
    "Ġprodig": 6029,
    "ustry": 18360,
    "Ġimitated": 18330,
    "Ġnomin": 10193,
    "Ġconsider": 2568,
    "Ġpredestinated": 18532,
    "Ġintimate": 6551,
    "Ġbefell": 14013,
    "neville": 22455,
    "Ġbrooding": 18909,
    "grees": 20888,
    "Ġoutcast": 18414,
    "Ġthrust": 5084,
    "Ġauxiliary": 26420,
    "Ġpolar": 9414,
    "ail": 566,
    "Ġgid": 13965,
    "Ġexpectantly": 23526,
    "Ġconceit": 7295,
    "jol": 20927,
    "spirited": 19756,
    "Ġtooks": 23330,
    "Ġthoughtfully": 12985,
    "gin": 4931,
    "narrow": 11510,
    "vice": 15452,
    "Ġlowering": 7987,
    "inv": 8402,
    "Ġdashed": 6011,
    "Ġarrang": 2467,
    "abama": 12714,
    "rity": 13779,
    "Ġprinciples": 10014,
    "Ġeffectively": 2766,
    "v": 90,
    "Ġhardship": 18915,
    "Ġdisreputable": 22538,
    "Ġgenteel": 19984,
    "Ġruns": 8598,
    "Ġball": 3624,
    "keys": 15862,
    "Ġpeculiar": 3154,
    "Ġthirdly": 24146,
    "Ġaversion": 18867,
    "Ġgrappling": 25813,
    "Ġmish": 15541,
    "hing": 977,
    "ï": 176,
    "Ġirrevoc": 15041,
    "Ġsheets": 9725,
    "header": 11937,
    "circum": 16739,
    "penetrating": 25491,
    "Ġlashed": 9201,
    "rog": 15644,
    "ciousness": 20819,
    "Ġbalmy": 22909,
    "Ġalan": 10871,
    "Ġagonizing": 17241,
    "Ġtreble": 16506,
    "Ġbumping": 25281,
    "Ġomen": 11579,
    "Ġroads": 13293,
    "Ġthoughtless": 16196,
    "stern": 8446,
    "Ġsnugness": 20080,
    "eagerly": 17319,
    "Ġanytime": 12890,
    "Ġaudacious": 13464,
    "jur": 17580,
    "smiles": 14695,
    "Ġfe": 491,
    "Ġclaimed": 14204,
    "Ġforg": 3790,
    "Ġmentioning": 9902,
    "Ġadversity": 24305,
    "ume": 4837,
    "Ġoverwhel": 8197,
    "Ġdecks": 6900,
    "belated": 24041,
    "ice": 585,
    "Ġdangling": 17177,
    "Ġbower": 15571,
    "Ġinfirmity": 26299,
    "Ġdrawled": 23992,
    "ures": 838,
    "bpp": 20774,
    "acceptance": 25186,
    "Ġfaintly": 14918,
    "Ġgeometric": 3220,
    "cuniary": 26381,
    "Ġunprovided": 18261,
    "Ġlost": 2636,
    "Ġjune": 10291,
    "Ġpeculiarities": 12075,
    "Ġagency": 11810,
    "Ġsensations": 5260,
    "Ġingenious": 12352,
    "composed": 14744,
    "Ġmarching": 16698,
    "athed": 7828,
    "Ġknowing": 4460,
    "male": 15392,
    "Ġmitigates": 3052,
    "Ġmerryweather": 9525,
    ",âĢĿâĢĶ": 14223,
    "urp": 1471,
    "shattered": 22463,
    "fiend": 13665,
    "che": 3172,
    "sort": 6799,
    "Ġsymphony": 26534,
    "Ġhandful": 9785,
    "Ġshoved": 23492,
    "plentiful": 21960,
    "Ġbloodless": 19341,
    "Ġridiculous": 10631,
    "parsee": 14520,
    "sales": 17669,
    "Ġmer": 2932,
    "Ġsales": 12812,
    "Ġunch": 18240,
    "Ġboom": 9313,
    "Ġmany": 1107,
    "eminently": 25108,
    "Ġextra": 4057,
    "staking": 21645,
    "cellar": 20280,
    "Ġcamel": 25350,
    "Ġbefitting": 15730,
    "Ġinnermost": 12165,
    "morland": 24156,
    "Ġtroubles": 19442,
    "Ġprobably": 4317,
    "taste": 10132,
    "Ġfagged": 17884,
    "Ġhappiest": 11886,
    "erie": 21273,
    "variety": 23189,
    "Ġener": 10898,
    "Ġunwearied": 20605,
    "speak": 5504,
    "ils": 3183,
    "Ġyears": 1892,
    "Ġchance": 3316,
    "Ġdiffered": 22712,
    "one": 615,
    "prov": 16426,
    "Ġlook": 880,
    "Ġbuckle": 17034,
    "Ġungenerous": 18267,
    "Ġpredomin": 16046,
    "e": 73,
    "Ġmantle": 25275,
    "Ġhag": 12630,
    "Ġprosecution": 12385,
    "Ġsilver": 7464,
    "Ġlap": 8438,
    "Ġreach": 4048,
    "requent": 3651,
    "Ġchecked": 9379,
    "acles": 8522,
    "Ġtwelve": 4963,
    "ensed": 10997,
    "Ġsympathetic": 17362,
    "boxes": 16890,
    "laz": 15389,
    "Ġencouragement": 13048,
    "ented": 4352,
    "Ġcasket": 19727,
    "ĠĠĠ": 2115,
    "Ġreserve": 9974,
    "Ġgrotesque": 26331,
    "Ġcelestial": 10070,
    "Ġminiature": 11043,
    "itancy": 21336,
    "Ġlothario": 26186,
    "sisters": 13380,
    "mouth": 9133,
    "Ġcoal": 18592,
    "butter": 11789,
    "Ġorganisation": 23585,
    "evade": 24817,
    "Ġmayhap": 18708,
    "Ġdrug": 11412,
    "bear": 10318,
    "Ġcasual": 11411,
    "Ġga": 4449,
    "Ġheed": 5630,
    "Ġclaret": 22358,
    "Ò": 147,
    "eternal": 17985,
    "Ġfrozen": 9016,
    "arians": 18524,
    "Ġviciously": 24404,
    "Ġmorning": 1749,
    "Ġharp": 17926,
    "Ġ122": 24467,
    "Ġcovered": 5171,
    "widows": 25345,
    "Ġstilly": 25974,
    "topp": 22569,
    "Ġfinds": 6301,
    "Ġcondu": 18112,
    "abled": 12799,
    "person": 7746,
    "Ġwhipping": 21719,
    "Ġdur": 11595,
    "yn": 7819,
    "Ġspeaks": 11161,
    "Ġburning": 5978,
    "Ġthanking": 18603,
    "sham": 9761,
    "iliar": 15718,
    "antages": 7192,
    "swell": 17665,
    "icacy": 15662,
    "batim": 25019,
    "uction": 15446,
    "Ġconversation": 3330,
    "immortal": 21713,
    "Ġattentions": 5879,
    "Ġwits": 15535,
    "Ġguardians": 14946,
    "shavings": 22467,
    "reading": 12084,
    "Ġdivulged": 16651,
    "Ġloose": 4650,
    "Ġlife": 1353,
    "distinctive": 25726,
    "sing": 5138,
    "Ġbowed": 6244,
    "Ġstain": 18067,
    "Ġfring": 11129,
    "Ġfanny": 23394,
    "reward": 15512,
    "Ġmurderous": 8316,
    "W": 59,
    "estab": 14173,
    "ersburgh": 18216,
    "Ġloading": 15878,
    "Ġunexplored": 26520,
    "Ġsacred": 10932,
    "Ġencourag": 1392,
    "Ġabundantly": 17159,
    "Ġundet": 16703,
    "Ġgallery": 10527,
    "nuee": 17433,
    "Ġcauldron": 25442,
    "Ġcontrivance": 17186,
    "hastened": 16847,
    "Ġlurked": 11293,
    "Ġin": 291,
    "wail": 21128,
    "Ġdeeds": 15763,
    "Ġskulls": 12965,
    "Ġdil": 6384,
    "Ġsmacking": 20168,
    "Ġpilgrim": 25600,
    "elter": 21574,
    "Ġcut": 2643,
    "Ġlowered": 6737,
    "Ġbreaths": 14860,
    "Ġstings": 21738,
    "Ġmechanis": 1184,
    "Ġmortal": 4683,
    "agation": 1254,
    "Ġfuller": 11158,
    "Ġblankets": 24612,
    "Ġfirm": 3872,
    "Ġfumbling": 21420,
    "soul": 9143,
    "Ġbarrowful": 25596,
    "Ġthy": 2513,
    "Ġ118": 19701,
    "Ġdissatisfied": 14259,
    "Ġgnawed": 25168,
    "eag": 20844,
    "ancy": 4397,
    "lengths": 24847,
    "Ġcivilities": 14851,
    "ushion": 14723,
    "Ġbetake": 22910,
    "simultaneously": 19866,
    "Ġofficially": 24839,
    "Ġmcc": 21309,
    "judge": 13341,
    "doubt": 6783,
    "Ġdegenerated": 20509,
    "Ġpostp": 12148,
    "Ġstamped": 13530,
    "Ġpaper": 4286,
    "Ġcapacious": 19178,
    "fig": 8738,
    "stays": 15692,
    "ict": 598,
    "Ġgriefs": 16773,
    "Ġcomplaint": 24775,
    "nine": 13764,
    "Ġpasseng": 12976,
    "angles": 18296,
    "Ġclenched": 14206,
    "Ġabased": 22272,
    "Ġaudits": 24769,
    "Ġdeclare": 6616,
    "Ġhind": 9191,
    "returns": 23142,
    "Ġcompress": 21860,
    "uber": 15448,
    "Ġtou": 15469,
    "Ġsanction": 20029,
    "warn": 11545,
    "sailor": 14718,
    "Ġcomputations": 16008,
    "Ġnothing": 1359,
    "Ġstrangers": 8314,
    "worship": 19390,
    "ierce": 14394,
    "Ġmurky": 19203,
    "axed": 8892,
    "Ġcaterpillar": 5866,
    "government": 25407,
    "Ġfreshet": 25704,
    "aver": 6786,
    "Ġintersect": 22579,
    "Ġinfat": 14502,
    "ush": 3633,
    "Ġblackest": 19100,
    "conditional": 9081,
    "Ġgraze": 18227,
    "Ġsevent": 18203,
    "eaten": 20347,
    "Ġdisinclined": 22533,
    "Ġyoung": 1506,
    "Ġyarman": 12710,
    "Ġaccount": 2321,
    "makes": 10713,
    "Ġfle": 3093,
    "arts": 6565,
    "als": 2041,
    "Ġroad": 3882,
    "Ġexciting": 23316,
    "Ġsub": 951,
    "scho": 8763,
    "Ġliter": 8816,
    "Ġsword": 6734,
    "ze": 1246,
    "Ġdamning": 19141,
    "blast": 9590,
    "Ġpreference": 9736,
    "Ġpractice": 2585,
    "Ġsmothe": 18574,
    "scotland": 20532,
    "Ġreads": 23116,
    "Ġbars": 13900,
    "leviathans": 19941,
    "Ġbleeding": 14883,
    "Ġinexperience": 26100,
    "Ġsakes": 18327,
    "Ġtablet": 19207,
    "Ġsunshine": 14497,
    "visitors": 13353,
    "Ġunmingled": 18264,
    "Ġpipes": 9850,
    "Ġhides": 16269,
    "rah": 8137,
    "Ġblessing": 11265,
    "Ġhamper": 19392,
    "Ġnois": 4271,
    "each": 7335,
    "Ġskipper": 22801,
    "Ġ$": 21153,
    "fellows": 12278,
    "Ġvolumes": 14803,
    "iosity": 2376,
    "Ġmassachusetts": 24026,
    "hence": 16627,
    "Ġar": 479,
    "Ġpromote": 23196,
    "Ġdivide": 12115,
    "Ġnights": 7258,
    "Ġjunks": 25116,
    "Ġcoming": 2618,
    "stump": 21650,
    "Ġadagrad": 2906,
    "unting": 21878,
    "rim": 7139,
    "Ġaccidental": 16850,
    "oundering": 11750,
    "appro": 7046,
    "Ġtrappings": 23085,
    "Ġtower": 8319,
    "Ġglens": 18850,
    "fanc": 20866,
    "abond": 15745,
    "Ġtransform": 750,
    "Ġadopt": 10634,
    "discredit": 24253,
    "Ġcountry": 2531,
    "Ġassu": 21901,
    "!âĢĻâĢĿ": 16594,
    "etent": 10202,
    "hib": 15371,
    "Ġhuge": 4701,
    "Ġwitnessed": 14847,
    "Ġrepulsive": 14532,
    "Ġharpooneer": 3773,
    "Ġrecorded": 11295,
    "Ġeyeing": 6461,
    "Ġmeditations": 25016,
    "Ġezek": 18012,
    "company": 9464,
    "whose": 6852,
    "Ġsick": 4694,
    "Ġobserving": 6081,
    "Ġseaward": 22950,
    "Ġproblem": 1270,
    "Ġmarking": 16471,
    "Ġpow": 4639,
    "Ġripples": 25506,
    "Ġstretched": 5921,
    "pulling": 25149,
    "Ġcareless": 11121,
    "Ġsubsequent": 7659,
    "Ġblocks": 6323,
    "folio": 10549,
    "Ġuplifted": 11650,
    "Ġjournal": 15222,
    "oused": 6558,
    "times": 8099,
    "Ġnigh": 4879,
    "certain": 3677,
    "rible": 3229,
    "problems": 11436,
    "crippled": 26386,
    "Ġbask": 8117,
    "Ġstep": 752,
    "Ġturnpike": 23031,
    "Ġuttered": 7280,
    "Ġgaol": 19570,
    "Ġaccompaniments": 24482,
    "Ġmarriage": 3189,
    "Ġclassical": 22635,
    "antically": 22100,
    "arr": 3046,
    "Ġrussian": 14353,
    "Ġbil": 15569,
    "ledge": 1330,
    "Ġmusket": 12300,
    "Ġberyl": 20493,
    "beef": 18521,
    "ull": 1430,
    "Ġunnear": 22030,
    "Ġlun": 7856,
    "Ġdeduce": 8337,
    "Ġconfirmed": 11141,
    "Ġ57": 24321,
    "Ġweak": 5098,
    "Ġnever": 1020,
    "Ġviii": 16417,
    "involved": 25627,
    "walks": 19724,
    "therefore": 5955,
    "Ġhieroglyph": 11975,
    "Ġcollins": 2181,
    "Ġlulled": 17971,
    "russian": 22187,
    "inst": 4298,
    "Ġconciliating": 19051,
    "Ġbraw": 23838,
    "bones": 8372,
    "etween": 774,
    "Ġpebbles": 16133,
    "Ġunceasingly": 20362,
    "Ġvanishing": 1345,
    "Ġindication": 22955,
    "÷": 184,
    "Ġdiscount": 22784,
    "Ġstruct": 2784,
    "hereabouts": 23608,
    "Ġsched": 2338,
    "Ġcrystal": 17217,
    "Ġgang": 9210,
    "Ġalluded": 7885,
    "Ġenticements": 26035,
    "Ġdives": 17892,
    "command": 6578,
    "Ġprair": 7747,
    "Ġpopulation": 16829,
    "Ġdownright": 16122,
    "iving": 1725,
    "Ġmaelstrom": 19359,
    "leagued": 26437,
    "nin": 17610,
    "ection": 4948,
    "âĢľ_": 5720,
    "goodbye": 12060,
    "Ġcirc": 1986,
    "Ġshield": 22003,
    "Ġabrid": 22276,
    "Ġpiercing": 13497,
    "Ġhemp": 9218,
    "Ġfar": 1449,
    "playful": 24357,
    "bringing": 17169,
    "Ġcharacteristically": 23691,
    "prof": 7699,
    "sander": 11529,
    "Ļ": 252,
    "Ġabhorrent": 16858,
    "Ġtickled": 20060,
    "Ġgentle": 1891,
    "Ġminutes": 3002,
    "Ġlandless": 23382,
    "wor": 3415,
    "Ġillustrations": 17109,
    "Ġfriendship": 7246,
    "Ġunmannerly": 26519,
    "Ġshadows": 8013,
    "Ġcharacteristics": 8613,
    "Ġtoast": 21515,
    "Ġunspeak": 8854,
    "Ġverdict": 13479,
    "tuning": 1577,
    "Ġlivid": 14992,
    "Ġcontrive": 16014,
    "Ġbl": 1190,
    "passion": 11262,
    "Ġvibration": 17100,
    "refusal": 24735,
    "Ġconceivable": 16615,
    "Ġlaughter": 9030,
    "cook": 8270,
    "Ġcele": 9903,
    "Ġbias": 1191,
    "heed": 15501,
    "barb": 10083,
    "Ġharb": 7370,
    "aster": 1868,
    "ivers": 1984,
    "Ġdiversion": 17200,
    "Ġhoot": 19078,
    "Ġdivin": 13278,
    "a": 69,
    "Ġcow": 13879,
    "enari": 21284,
    "Ġavast": 9923,
    "hearty": 14837,
    "blunder": 24132,
    "door": 6195,
    "prep": 9762,
    "talk": 6659,
    "Ġcombining": 22866,
    "strange": 6087,
    "Ġsig": 866,
    "darker": 24516,
    "ashions": 16421,
    "Ġafterwards": 3531,
    "posted": 24636,
    "Ġconfession": 11237,
    "waves": 10744,
    "Ġwalked": 3140,
    "Ġcalamity": 17352,
    "Ġstumble": 26484,
    "Ġbrand": 16190,
    "Ġinflu": 4910,
    "Ġforgiveness": 16659,
    "Ġcream": 22725,
    "idelburgh": 10564,
    "Ġparallelization": 3429,
    "ample": 1363,
    "irium": 8162,
    "occurrences": 26333,
    "Ġblotches": 25315,
    "omy": 6251,
    "Ġem": 1922,
    "Ġuninterrupted": 22048,
    "Ġpromoting": 3162,
    "overlooked": 23328,
    "Ġsickened": 16777,
    "cele": 21628,
    "Ġatrocious": 21947,
    "Ġdexterous": 15152,
    "Ġprehensile": 26536,
    "Ġvessel": 3801,
    "ickering": 22673,
    "lyph": 10854,
    "Ġcrush": 9425,
    "Ġlongitudes": 22637,
    "front": 12175,
    "Ġbag": 5699,
    "Ġcheery": 16374,
    "foundered": 20869,
    "Ġvegetables": 15225,
    "Ġelias": 18636,
    "Ġyea": 8919,
    "Ġelimin": 16111,
    "Ġbernard": 20687,
    "Ġscoresby": 10463,
    "Ġbury": 12046,
    "Ġfull": 2178,
    "Ġacknowledged": 7534,
    "Ġox": 7154,
    "Ġsanctified": 25883,
    "Ġplunge": 13447,
    "Ġdesc": 772,
    "Ġsnoring": 23742,
    "Ġcur": 1256,
    "Ġshook": 4471,
    "î": 175,
    "Ġoath": 7833,
    "Ġunreliable": 3932,
    "ropout": 1320,
    "royal": 11395,
    "themselves": 6542,
    "cu": 10086,
    "Ġpassionate": 11275,
    "Ġadmires": 19688,
    "bu": 5132,
    "Ġcontraction": 16012,
    "Ġuncertain": 4069,
    "Ġstream": 5186,
    "Ġcoolness": 16888,
    "Ġano": 11599,
    "introduce": 25187,
    "Ġsple": 21218,
    "chery": 24551,
    "Ġfavourite": 5271,
    "Ġmercy": 9001,
    "fearfully": 25119,
    "Ġwitnesses": 9489,
    "odecim": 9835,
    "Ġtelegram": 15227,
    "Ġfortitude": 9888,
    "planks": 21958,
    "Ġjobs": 24833,
    "ights": 8478,
    "Ġcran": 12005,
    "classes": 12140,
    "Ġbulwarks": 5592,
    "Ġcrowded": 8012,
    "Ġdraws": 19439,
    "Ġadventures": 7748,
    "Ġqueen": 3214,
    "bald": 16446,
    "chain": 18042,
    "iber": 6507,
    "Ġsparkling": 11358,
    "Ġsplice": 19311,
    "Ġsangu": 15507,
    "obliv": 23100,
    "Ġenvironments": 24064,
    "Ġpassions": 7930,
    "peril": 18344,
    "joined": 13280,
    "returned": 7766,
    "Ġheels": 10852,
    "prec": 3203,
    "soever": 11863,
    "Ġdocumentation": 20557,
    "Ġmatrix": 1603,
    "agement": 4190,
    "lands": 8241,
    "Ġgu": 1329,
    "Ġstirs": 14920,
    "Ġinteresting": 4329,
    "troubled": 17113,
    "Ġxx": 5492,
    "Ġcrucifix": 26080,
    "athered": 6973,
    "dwelling": 20567,
    "Ġobliquely": 12366,
    "Ġjudges": 14687,
    "Ġlapse": 17123,
    "Ġsunwards": 19014,
    "ooped": 17625,
    "Ġcheat": 19021,
    "shr": 10982,
    "Ġrefreshed": 15294,
    "Ġensued": 11396,
    "itudes": 3015,
    "Ġlead": 3522,
    "Ġsallow": 12541,
    "Ġbowsman": 11256,
    "Ġsuits": 22086,
    "Ġge": 1979,
    "Ġapiece": 16815,
    "Ġassuming": 16694,
    "indust": 18436,
    "Ġperilously": 24507,
    "Ġflaming": 8567,
    "Ġenumerating": 15248,
    "Ġgranting": 18737,
    "Ġpropagating": 20636,
    "Ġdeceiving": 21841,
    "Ġcrystals": 20230,
    "Ġlunatic": 24993,
    "barrels": 15044,
    "Ġcondemned": 7779,
    "agrad": 2746,
    "suddenly": 6494,
    "S": 55,
    "Ġlikewise": 5386,
    "Ġcrusad": 23706,
    "Ġinterrupted": 6345,
    "Ġmach": 13860,
    "Ġomn": 8411,
    "Ġspong": 15885,
    "lizzy": 6654,
    "Ġfighting": 12202,
    "venor": 16101,
    "þ": 191,
    "Ġframework": 2079,
    "moran": 24155,
    "Ġdinnertime": 16721,
    "ements": 11110,
    "Ġsighs": 22710,
    "Ġsilken": 16385,
    "Ġpublicly": 13327,
    "Ġwest": 5219,
    "Ġdeduced": 12212,
    "Ġlining": 13954,
    "peter": 24300,
    "Ġexplicit": 3590,
    "alle": 1293,
    "Ġcoquet": 22585,
    "nav": 17614,
    "lying": 7175,
    "Ġboy": 3023,
    "asant": 17961,
    "Ġlondon": 2840,
    "Ġuseless": 7039,
    "Ġlayer": 1010,
    "Ġskill": 6872,
    "usage": 12838,
    "Ġsister": 1474,
    "rane": 17655,
    "pendicular": 6500,
    "Ġappropriated": 23486,
    "hammered": 19005,
    "freighted": 14895,
    "Ġhackluyt": 25656,
    "Ġbrougham": 17872,
    "Ġinterests": 14571,
    "algorithms": 8293,
    "Ġnorthern": 7265,
    "Ġmemory": 2273,
    "Ġpressure": 13426,
    "Ġwheel": 9721,
    "Ġearly": 2078,
    "Ġseamen": 5063,
    "Ġdated": 10940,
    "onious": 15521,
    "Ġbelf": 21384,
    "Ġchord": 22249,
    "Ġunsolved": 22035,
    "ember": 1957,
    "Ġtwentieth": 18660,
    "especially": 3574,
    "Ġborne": 6353,
    "Ġpursu": 3241,
    "Ġskirt": 18730,
    "Ġlearnedly": 23389,
    "Ġsigned": 11179,
    "Ġo": 275,
    "horrors": 20544,
    "braces": 24659,
    "Ġphotograph": 6304,
    "Ġabiding": 22274,
    "piteous": 21036,
    "Ġblotting": 25314,
    "Ġprelimin": 8864,
    "Ġbarbarously": 24816,
    "Ġoccasion": 3247,
    "verd": 21731,
    "Ġthickets": 24027,
    "Ġshrieks": 12204,
    "Ġshared": 10266,
    "take": 4578,
    "Ġchallenge": 25472,
    "Ġindulging": 16906,
    "sails": 7497,
    "Ġstrict": 7222,
    "trained": 4242,
    "Ġnatives": 17953,
    "Ġexhibited": 9547,
    "Ġwidows": 24239,
    "dread": 8732,
    "pursued": 17284,
    "gal": 15359,
    "Ġveracity": 23892,
    "Ġray": 18643,
    "Ġ71": 24262,
    "Ġslaugh": 18940,
    "disgu": 19157,
    "Ġfresh": 3671,
    "Ġdestined": 7974,
    "Ġworship": 10369,
    "Ġtw": 841,
    "necess": 4897,
    "Ġdetested": 14177,
    "Ġiceberg": 14719,
    "Ġgratefully": 20448,
    "ca": 20795,
    "plate": 18200,
    "Ġpra": 4350,
    "Ġtrepidation": 19217,
    "Ġinternal": 2246,
    "Ġpossesses": 19355,
    "upon": 2722,
    "Ġdifficulty": 5770,
    "hundred": 8331,
    "Ġlocal": 1199,
    "Ġdiscussion": 17197,
    "Ġtrouble": 3691,
    "Ġacc": 572,
    "doubted": 17528,
    "orns": 12597,
    "philosop": 9570,
    "Ġprojects": 9514,
    "symp": 14607,
    "!)": 10072,
    "Ġsurvivor": 17366,
    "Ġalgorithms": 871,
    "achment": 5464,
    "Ġlighting": 13087,
    "Ġremoving": 12121,
    "Ġbreeze": 5681,
    "Ġhusband": 3621,
    "Ġsafe": 5103,
    "last": 3805,
    "Ġhoops": 9392,
    "Ġwax": 10778,
    "abling": 1080,
    "Ġlocations": 12417,
    "backs": 9394,
    "Ġunmethodically": 22072,
    "fin": 5209,
    "Ġreturns": 11930,
    "Ġproducts": 5198,
    "ulous": 4453,
    "Ġdespatched": 23833,
    "mediate": 16516,
    "Ġsplinter": 23749,
    "Ġhollow": 5648,
    "Ġprofounder": 23571,
    "gue": 12472,
    "omb": 10209,
    "Ġthree": 1370,
    "Ġmaids": 19694,
    "cannibals": 25585,
    "Ġsalutations": 25383,
    "Ġpure": 6139,
    "unsupervised": 10891,
    "Ġloaf": 15876,
    "cru": 7128,
    "Ġvolley": 24148,
    "char": 3502,
    "nursery": 26401,
    "particularly": 8340,
    "Ġungrateful": 14124,
    "Ġhotel": 8654,
    "Ġbottom": 3675,
    "Ġsomnam": 23008,
    "Ġasleep": 6836,
    "Ġmodeling": 2095,
    "rew": 3650,
    "Ġtradesman": 20076,
    "gazing": 12476,
    "Ġbasic": 24700,
    "ivorous": 22091,
    "izure": 21845,
    "Ġuncommonly": 7760,
    "Ġsurmised": 24920,
    "Ġrigging": 5601,
    "distinct": 13340,
    "oding": 1461,
    "Ġsizes": 1521,
    "wander": 17711,
    "Ġfeigned": 22214,
    "Ġestab": 6317,
    ";âĢĻ": 15306,
    "enc": 7574,
    "Ġtalk": 1970,
    "Ġpag": 6012,
    "Ġdent": 13909,
    "Ġyard": 5922,
    "uten": 11625,
    "Ġmitigating": 1619,
    "mend": 20968,
    "Ġknowingly": 18481,
    "repaid": 24491,
    "Ġjud": 3357,
    "Ġnewsp": 9342,
    "Ġwheeling": 18289,
    "ess": 409,
    "ian": 1237,
    "raid": 3279,
    "Ġintrepidity": 25551,
    "Ġflutter": 16252,
    "Ġslabs": 13066,
    "numerous": 17434,
    "Ġpresume": 8038,
    "Ġbuckskin": 19955,
    "Ġalien": 14021,
    "Ġeffusion": 22506,
    "judgment": 16755,
    "Ġominous": 12428,
    "Ġbear": 3659,
    "transferred": 24514,
    "Ġquadr": 8200,
    "Ġdistur": 5313,
    "Ġevident": 6614,
    "Ġmediocrity": 26610,
    "Ġproxim": 3201,
    "Ġdeject": 10882,
    "Ġobjectionable": 16993,
    "serve": 13052,
    "Ġisrael": 21807,
    "Ġinher": 10182,
    "Ġnonce": 23237,
    "Ġdrifting": 19281,
    "Ġcurls": 22987,
    "Ġxl": 11994,
    "Ġtarred": 23611,
    "Ġportraits": 20145,
    "nett": 16224,
    "Ġchewing": 23288,
    "Ġdull": 6385,
    "Ġlegs": 4917,
    "Ġstores": 18071,
    "sugg": 11845,
    "Ġcake": 12575,
    "skill": 24487,
    "situ": 9624,
    "Ġj": 533,
    "Ġcredit": 4820,
    "Ġconsistence": 23359,
    "_.âĢĻâĢĿ": 17482,
    "alas": 8808,
    "earnestly": 17316,
    "approb": 11045,
    "Ġmaster": 3682,
    "tically": 3392,
    "Ġabhorred": 9511,
    "Ġpushing": 10821,
    "Ġtrousers": 12419,
    "rison": 13782,
    "Ġfunere": 22263,
    "Ġrefers": 1563,
    "://": 11467,
    "ê": 171,
    "af": 2378,
    "Ġhunter": 5401,
    "gammon": 20246,
    "Ġvinegar": 20103,
    "Ġpositive": 2296,
    "Ġwan": 15531,
    "Ġgeorgiana": 8629,
    "Ġmaintains": 2143,
    "Ġgo": 612,
    "ricity": 23066,
    "Ġcongratulated": 19769,
    "Ġcuba": 25098,
    "Ġcheetah": 14505,
    "Ġknown": 1645,
    "coward": 13704,
    "Ġcovers": 18593,
    "Ġdocile": 19962,
    "spade": 10343,
    "Ġcoin": 9774,
    "ceiving": 3903,
    "Ġposs": 1617,
    "throwing": 11707,
    "Ā": 193,
    "Ġho": 1931,
    "join": 12118,
    "ands": 21870,
    "ream": 2709,
    "live": 7550,
    "calcul": 12992,
    "Ġvalidate": 3218,
    "terrific": 25043,
    "athy": 14326,
    "impulse": 20647,
    "omical": 9685,
    "Ġmemorand": 23461,
    "Ġcombinations": 22867,
    "Ġbrighter": 16191,
    "position": 15416,
    "gree": 10703,
    "script": 11079,
    "ok": 573,
    "Ġpillar": 21476,
    "Ġnot": 413,
    "Ġmeasures": 1206,
    "Ġtig": 13816,
    "apparent": 11044,
    "Ġvol": 4191,
    "pass": 4294,
    "ĠÂ£": 5006,
    "constable": 24606,
    "Ġapothecary": 13663,
    "Ġswearing": 16467,
    "Ġdismally": 20217,
    "Ġcheapside": 23291,
    "Ġvelvet": 12402,
    "arranted": 19322,
    "got": 6955,
    "Ġhumanity": 6733,
    "Ġapproximate": 2343,
    "Ġtwelvemonth": 12182,
    "Ġrage": 5110,
    "jets": 20930,
    "reg": 2184,
    "apside": 22965,
    "Ġeverybody": 4513,
    "Ġaffair": 4466,
    "Ġdinah": 9456,
    "Ġintolerably": 15833,
    "Ġfedallah": 6110,
    "Ġalco": 21786,
    "impatiently": 20474,
    "Ġcircumference": 13548,
    "Ġthreatens": 24375,
    "Ġsevered": 18206,
    "member": 20977,
    "assured": 10954,
    "onds": 13001,
    "half": 4932,
    "Ġopt": 796,
    "dropped": 12267,
    "view": 5897,
    "Ġalpine": 18108,
    "Ġspare": 5102,
    "Ġmaimed": 21319,
    "gers": 8376,
    "Ġparcel": 15203,
    "Ġascertain": 9709,
    "mean": 6439,
    "occ": 4487,
    "curious": 10485,
    "Ġjerk": 16952,
    "rushed": 10587,
    "itche": 7579,
    "Ġflatter": 9351,
    "ancholy": 5070,
    "Ġyelling": 18099,
    "drovand": 24759,
    "rifle": 21049,
    "cob": 10089,
    "Ġduplicity": 25332,
    "irty": 4051,
    "Ġneedn": 19230,
    "dra": 3413,
    "Ġbrightly": 13229,
    "Ġanother": 1738,
    "Ġtoma": 7373,
    "Ĵ": 245,
    "Ġheire": 18039,
    "bond": 17492,
    "Ġcocain": 18595,
    "Ġbloss": 19258,
    "Ġpanelled": 19657,
    "Ġweave": 21924,
    "ÿ": 192,
    "tumult": 12427,
    "Ġstaying": 8284,
    "Ġfumbled": 17883,
    "ies": 583,
    "Ġmythologies": 26215,
    "interests": 19711,
    "Ġaudible": 19883,
    "Ġeverlasting": 9340,
    "ieth": 10706,
    "putable": 10903,
    "Ġinhab": 5083,
    "function": 4177,
    "Ġash": 4834,
    "Ġperem": 12937,
    "Ġconfines": 23309,
    "ezes": 9994,
    "Ġcuriosities": 26291,
    "Ġexcused": 23317,
    "harmony": 25751,
    "grad": 2565,
    "Ġimpl": 7195,
    "Ġspan": 11732,
    "antial": 8490,
    "mell": 20966,
    "č": 206,
    "interest": 5421,
    "Ġfast": 1717,
    "Ġuncounted": 19118,
    "Ġlocking": 18299,
    "quitted": 21855,
    "sweetly": 25137,
    "Ġcomposition": 1689,
    "Ġadam": 2127,
    "ĉ": 202,
    "commence": 19995,
    "infernal": 24663,
    "enance": 3370,
    "Ġcleared": 6076,
    "meet": 11860,
    "Ġadvertisement": 6941,
    "Ġproblems": 2848,
    "Ġwheels": 10914,
    "Ġstrokes": 16771,
    "Ġdisposition": 5409,
    "Ġreus": 8826,
    ",*": 17474,
    "Ġargue": 16785,
    "Ġsemi": 11973,
    "Ġdeprived": 8210,
    "acit": 16084,
    "aneously": 4061,
    "Ġfoe": 7680,
    "Ġsleepless": 14584,
    "Ġoverseeing": 22368,
    "Ġmasterly": 23997,
    "cious": 6646,
    "Ġchisel": 20371,
    "lowering": 16034,
    "Ġdong": 17889,
    "Ġworshippers": 25694,
    "Ġcontained": 7679,
    "Ġtransmit": 10307,
    "scap": 22993,
    "insulting": 26056,
    "iteous": 14264,
    "ra": 314,
    "ousings": 18336,
    "Ġsuffer": 4723,
    "insult": 16283,
    "Ġinjuring": 24271,
    "Ġunicorn": 22059,
    "Ġloosened": 26003,
    "Ġamazing": 9980,
    "Ġceremony": 8361,
    "shock": 19857,
    "Ġpoles": 11005,
    "Ġinasmuch": 10827,
    "shore": 10308,
    "Ġpap": 8802,
    "Ġpainted": 7979,
    "beings": 12881,
    "arious": 10320,
    "Ġdeveloped": 16333,
    "mir": 20965,
    "Ġsultanism": 25889,
    "Ġventil": 8019,
    "Ġ63": 24366,
    "Ġconceal": 5975,
    "Ġor": 437,
    "assist": 11772,
    "early": 20122,
    "backward": 2683,
    "nantucketer": 24975,
    "meanwhile": 10612,
    "floor": 14939,
    "Ġluc": 3309,
    "Ġdistribution": 2018,
    "Ġwharf": 9562,
    "Ġpracticable": 19032,
    "masculine": 24387,
    "Ġstole": 7953,
    "Ġfan": 2035,
    "Ġactions": 6280,
    "Ġresult": 4463,
    "Ġthrilling": 19751,
    "Ġsentimental": 24753,
    "Ġresigned": 9771,
    "Ġengaged": 3428,
    "Ġ182": 13241,
    "Ġolive": 12570,
    "Ġansw": 2205,
    "attery": 18503,
    "Ġgrind": 18735,
    "Ġtriumphal": 24371,
    "ale": 506,
    "Ġscatter": 18398,
    "Ġfastidious": 14495,
    "disciple": 16780,
    "dissatisf": 26130,
    "bearer": 18519,
    "gard": 7339,
    "vert": 15719,
    "Ġchimney": 6498,
    "Ġnomine": 26458,
    "Ġcurses": 13022,
    "odecimoes": 25319,
    "Ġpacked": 9983,
    "Ġcheck": 7271,
    "Ġwere": 557,
    "Ġclipping": 2439,
    "casks": 20406,
    "Ġreligious": 25124,
    "phur": 16156,
    "george": 26020,
    "ocity": 8278,
    "geneva": 13733,
    "Ġsincerity": 13682,
    "impl": 21710,
    "Ġapparently": 6779,
    "oldened": 22643,
    "Ġhandled": 12942,
    "ency": 3870,
    "ha": 3983,
    "Ġhonor": 5664,
    "Ġcollateral": 20075,
    "Ġdipping": 15596,
    "os": 525,
    "Ġprof": 2459,
    "Ġtailed": 21171,
    "Ġlim": 2382,
    "Ġstreaming": 19676,
    "Ġmortally": 23920,
    "scornful": 26577,
    "committed": 18738,
    "ompl": 4538,
    "Ġaccordingly": 6622,
    "rigging": 20009,
    "Ġhieroglyphic": 25588,
    "Ġaugmented": 15109,
    "grand": 7970,
    "Ġtrip": 16790,
    "Ġadieus": 25113,
    "Ġ56": 24320,
    "Ġembedd": 1390,
    "Ġcollectively": 19971,
    "aks": 8509,
    "Ġhelen": 16658,
    "Ġattend": 5035,
    "search": 8467,
    "securer": 25603,
    "Ġpassages": 12975,
    "Ġproprietors": 20189,
    "izon": 18144,
    "inguished": 6600,
    "Ġglassy": 19563,
    "bles": 7019,
    "Ġinsensibly": 20079,
    "forecastle": 10992,
    "police": 10586,
    "Ġuseful": 3560,
    "Ġrig": 4227,
    "Ġreconsidered": 21676,
    "Ġfrayed": 23324,
    "honorable": 19903,
    "Ġn": 300,
    "Ġnautical": 17389,
    "Ġpacket": 14896,
    "Ġscrew": 8871,
    "racting": 10354,
    "hammock": 16357,
    "Ġencoura": 1365,
    "Ġconscientious": 16729,
    "lion": 20946,
    "Ġchambermaid": 24306,
    "itect": 983,
    "yonder": 21147,
    "Ġrelics": 16199,
    "Ġmetropol": 11147,
    "avail": 18605,
    "icions": 21566,
    "knell": 24555,
    "content": 11200,
    "Ġlinear": 3431,
    "mind": 4628,
    "considerable": 10551,
    "Ġargosy": 24276,
    "Ġpleas": 1906,
    "Ġwreck": 7314,
    "Ġprivately": 19526,
    "Ġbra": 3255,
    "Ġliberated": 19669,
    "Ġdeeper": 2084,
    "Ġleap": 5825,
    "iv": 433,
    "Ġarrest": 7409,
    "skylight": 25624,
    "Ġalighted": 18106,
    "Ġlibraries": 20617,
    "Ġhe": 318,
    "enthusiastic": 20695,
    "Ġexagger": 12724,
    "Ġtr": 555,
    "resolved": 9642,
    "eu": 17532,
    "Ġidol": 7467,
    "Ġhemis": 21687,
    "Ġmeetings": 16534,
    "Ġsnail": 19302,
    "Ġhave": 445,
    "foolish": 12351,
    "Ġdevilish": 11230,
    "pleasantness": 19773,
    "Ġterti": 14540,
    "decan": 22145,
    "Ġsant": 21217,
    "mes": 1197,
    "quarrel": 20018,
    "Ġsecretary": 19445,
    "Ġexcessively": 9443,
    "Ġregal": 16080,
    "lesome": 12970,
    "Ġantagonist": 26330,
    "Ġdes": 1249,
    "Ġmyth": 18221,
    "Ġdescending": 8906,
    "Ġget": 1625,
    "Ġextracting": 11108,
    "paying": 25412,
    "wooden": 24588,
    "exped": 16526,
    "fab": 13719,
    "Ġwretchedness": 9029,
    "Ġinexplicable": 12261,
    "acknowledged": 15206,
    "Ġweapons": 10596,
    "unalterable": 21890,
    "Ġpedd": 17912,
    "Ġcharley": 19007,
    "Ġmartha": 16267,
    "christian": 17235,
    "unquiet": 21885,
    "Ġattentive": 9036,
    "calmed": 16207,
    "Ġtool": 21514,
    "Ġhover": 15624,
    "Ġmout": 17800,
    "Ġruined": 12959,
    "Ġmenacing": 23111,
    "Ġlayers": 817,
    "coach": 23561,
    "Ġincred": 5646,
    "Ġvaried": 11852,
    "write": 14649,
    "Ġannot": 15606,
    "Ġmarks": 6748,
    "itary": 4752,
    "Ġhowled": 12859,
    "Ġclutch": 15056,
    "ind": 568,
    "wouldn": 23538,
    "snatched": 24851,
    "Ġdeliciousness": 24129,
    "Ġanticipating": 17059,
    "ivility": 12794,
    "Ġbeams": 14633,
    "Ġraise": 6168,
    "Ġwished": 3730,
    "Ġflour": 8947,
    "umbent": 12094,
    "onged": 18411,
    "cient": 4571,
    "penny": 22948,
    "iffe": 21906,
    "Ġrealism": 18985,
    "Ġswims": 12124,
    "Ġtopic": 9409,
    "O": 51,
    "Ġpersonally": 8602,
    "wig": 17706,
    "follow": 5680,
    "inquiries": 13581,
    "Ġtim": 4580,
    "hecy": 21209,
    "acknowledging": 25477,
    "me": 877,
    "Ġfully": 6344,
    "penet": 11072,
    "Ġstim": 18066,
    "itying": 21998,
    "murmured": 24455,
    "onical": 21256,
    "unching": 18161,
    "rimshander": 20659,
    "naught": 20996,
    "emporary": 15800,
    "sory": 17661,
    "sets": 17662,
    "Ġjiff": 22300,
    "Ġdoubting": 13104,
    "Ġcyn": 13889,
    "completed": 19997,
    "Ġgoney": 14546,
    "opening": 10315,
    "deprived": 19900,
    "inaw": 21186,
    "zeal": 16239,
    "Ġevolved": 9895,
    "Ġaccidents": 10298,
    "Ġmysteries": 11324,
    "Ġeverywhere": 9799,
    "Ġfurrow": 22818,
    "sec": 6154,
    "Ġconsequence": 5542,
    "Ġinnocent": 4922,
    "iem": 20919,
    "ole": 9616,
    "Ġhaul": 11696,
    "pretty": 10624,
    "anation": 5804,
    "Ç": 136,
    "å": 166,
    "Ġqueer": 4481,
    "Ġparents": 6754,
    "marry": 13328,
    "Ġtit": 8400,
    "Ġwanderings": 20146,
    "Ġtoo": 1166,
    "Ġfoundling": 22973,
    "lovel": 22515,
    "Ġconcealment": 16916,
    "meal": 22716,
    "continually": 11304,
    "Ġearnestly": 5980,
    "Ġaqu": 17744,
    "ceased": 21629,
    "horn": 8086,
    "Ġrequested": 14303,
    "Ġhearty": 9848,
    "feed": 9296,
    "Ġcaresses": 26060,
    "Ġuniversally": 12004,
    "reinforcement": 7826,
    "Ġlightnings": 16356,
    "pening": 2833,
    "Ġhatchways": 24990,
    "Ġheartless": 13077,
    "cles": 8729,
    "Ġouter": 6859,
    "pect": 1252,
    "importance": 9992,
    "Ġtyp": 1132,
    "Ġinfatuation": 25858,
    "Ġround": 1368,
    "Ġheart": 1588,
    "Ġtheir": 644,
    "ples": 6845,
    "Ġconflict": 17276,
    "Ġpreceding": 7528,
    "bent": 15315,
    "Ġincorporate": 20457,
    "Ġclassifies": 11842,
    "Ġgreatness": 12949,
    "Ġpalaces": 24096,
    "igger": 21704,
    "concealed": 25118,
    "earn": 10698,
    "lilies": 20963,
    "Ġunrivalled": 26521,
    "Ġgrammatical": 13542,
    "Ġundesired": 12784,
    "possible": 5743,
    "Ġraging": 14309,
    "Ġdimens": 3150,
    "Ġpit": 3419,
    "Ġseptember": 18208,
    "Ġdimin": 3873,
    "Ġpersist": 16276,
    "lights": 13209,
    "Ġflattening": 26050,
    "Ġyawned": 15054,
    "Ġconductor": 24010,
    "Ġro": 599,
    "encouragement": 17426,
    "Ġscru": 8191,
    "Ġantip": 24180,
    "inated": 6805,
    "Ġjerked": 19835,
    "umber": 5241,
    "ā": 194,
    "Ġchag": 15935,
    "irresist": 21916,
    "Ġ{": 21155,
    "Ġimprovements": 14514,
    "bench": 16805,
    "Ġinjustice": 9193,
    "bots": 10085,
    "occur": 19578,
    "Ġune": 4600,
    "Ġslyness": 25267,
    "Ġstreamed": 14547,
    "Ġserpentine": 11362,
    "Ġintervened": 25482,
    "Ġparade": 18302,
    "method": 17287,
    "Ġneared": 14078,
    "Ġbitten": 21393,
    "Ġstrings": 11833,
    "Ġresolution": 5500,
    "Ġscowl": 22289,
    "Ġott": 13869,
    "murderer": 13397,
    "usable": 22293,
    "Ġhumped": 19772,
    "usations": 15951,
    "Ġbeneath": 3239,
    "Ġearls": 18905,
    "Ġoptimal": 1858,
    "ipl": 20920,
    "readers": 23851,
    "Ġfrequently": 4681,
    "local": 22514,
    "Ġoblige": 10491,
    "Ġemergencies": 17365,
    "pequod": 7054,
    "orated": 12596,
    "Ġdire": 864,
    "outre": 18321,
    "_:": 17481,
    "Ġreclining": 26034,
    "oregressive": 3423,
    "complied": 19915,
    "raltar": 24236,
    "irregular": 21915,
    "Ġfathers": 16299,
    "holmes": 4434,
    "abroad": 18111,
    "ught": 2750,
    "sat": 4811,
    "abriel": 6950,
    "evil": 11488,
    "Ġvoluntary": 14802,
    "Ġpregn": 22236,
    "Ġsinew": 25432,
    "order": 1961,
    "Ġoaths": 13527,
    "boy": 4739,
    "Ġsensation": 6896,
    "Ġbraved": 23841,
    "Ń": 260,
    "fight": 17540,
    "Ġ132": 19898,
    "Ġsnar": 13204,
    "Ġrudeness": 17127,
    "Ġcard": 7363,
    "Ġcl": 554,
    "iltrated": 19308,
    "Ġcents": 17830,
    "kilt": 4867,
    "Ġjoes": 19232,
    "Ġent": 904,
    "civilities": 24974,
    "Ġbeware": 8832,
    "Ġbreakers": 12059,
    "varieties": 23190,
    "Ġportions": 19372,
    "Ġproceeded": 5336,
    "possesses": 24617,
    "Ġadmirably": 16483,
    "ferent": 4196,
    "Ġsn": 2951,
    "Ġperturbation": 20444,
    "Ġattentively": 9953,
    "iably": 13741,
    "Ġapologies": 25197,
    "Ġliterature": 17151,
    "Ġstigma": 25792,
    "Ġlecture": 13571,
    "zors": 21150,
    "Ġsay": 931,
    "hon": 6794,
    "Ġdusty": 14928,
    "steel": 8299,
    "Ġbounded": 16629,
    "Ġprouder": 18972,
    "Ġexcurs": 23318,
    "Ġnat": 12650,
    "thinness": 25811,
    "Ġprospect": 4707,
    "lonely": 20959,
    "Ġdiary": 24738,
    "Ġplanet": 14754,
    "Ġcultiv": 13560,
    "Ġoverlapping": 26240,
    "Ġresuming": 12898,
    "up": 1283,
    "Ġtorch": 25033,
    "relation": 19450,
    "Ġreb": 15695,
    "Ġsearched": 15823,
    "ampl": 21846,
    "Ġhill": 5626,
    "izard": 10885,
    "Ġinitials": 11016,
    "purp": 8091,
    "Ġcopied": 20011,
    "Ġwil": 4582,
    "icip": 6390,
    "discharging": 26306,
    "case": 5206,
    "Ġcruis": 14626,
    "sorting": 17006,
    "Ġrestrain": 8967,
    "uncomfortable": 18163,
    "Ġtreats": 19347,
    "Ġinches": 5846,
    "Ġreconc": 9686,
    "Ġleeward": 6212,
    "Ġunfolded": 10641,
    "Ġswim": 3822,
    "Ġintruding": 21995,
    "buttons": 22405,
    "Ġavenue": 13625,
    "coiled": 16488,
    "Ġrevived": 11370,
    "Ġspectre": 16633,
    "Ġpossessor": 23827,
    "Ġmean": 742,
    "Ġstratag": 26029,
    "savagery": 25028,
    "humoredly": 26326,
    "adequ": 11022,
    "conv": 7213,
    "wrong": 13210,
    "udg": 22766,
    "equal": 14996,
    "conceivable": 17133,
    "elev": 12463,
    "Ġcharming": 6631,
    "darted": 20834,
    "Ġslackened": 15130,
    "inea": 7624,
    "Ġrudder": 25110,
    "Ġswelling": 11929,
    "Ġnursing": 12219,
    "Ġnotes": 7189,
    "ulged": 12735,
    "Ġdomin": 10468,
    "Ġfusion": 21417,
    "context": 3404,
    "initions": 21190,
    "Ġobsolete": 26560,
    "previously": 17210,
    "olerable": 7183,
    "Ġbound": 3518,
    "Ġabstra": 22275,
    "Ġburned": 8634,
    "Ġjabbering": 22307,
    "Ġseap": 15821,
    "magnet": 14973,
    "Ġbattle": 5909,
    "Ġlie": 4410,
    "isive": 10795,
    "Ġperseverance": 13601,
    "Ġafghan": 22632,
    "ĠcÃ¦": 15559,
    "iciency": 9577,
    "Ġey": 8135,
    "Ġbuildings": 24719,
    "Ġsof": 18277,
    "Ġreply": 4517,
    "Ġfant": 9176,
    "Ġnom": 21522,
    "ivates": 18283,
    "Ġconcealing": 23906,
    "Ġscriptures": 26237,
    "consequence": 9766,
    "Î": 143,
    "Ġimpudence": 26243,
    "Ġsquire": 16183,
    "otions": 7181,
    "loath": 22513,
    "breeze": 20565,
    "asp": 3340,
    "semicirc": 26493,
    "agony": 14072,
    "tend": 17676,
    "Ġmariner": 7247,
    "Ġsurprising": 14599,
    "wol": 21125,
    "Ġpeddling": 21485,
    "remember": 7262,
    "Ġcrags": 23531,
    "urrection": 12413,
    "incing": 15488,
    "Ġglimp": 6067,
    "situation": 11439,
    "Ġlonger": 3359,
    "Ġinscribed": 24941,
    "irited": 15791,
    "Ġsand": 6237,
    "Ġinstability": 3815,
    "Ġconveyed": 8335,
    "gement": 13731,
    "idually": 21773,
    "Ġequival": 4785,
    "quarried": 24948,
    "Ġharris": 13930,
    "el": 306,
    "Ġrotation": 25475,
    "yond": 2331,
    "Ġprogramming": 1183,
    "Ġtamer": 24979,
    "Ġbarely": 16938,
    "clearly": 25196,
    "Ġbrides": 22869,
    "Ġeldest": 6573,
    "Ġprairies": 20024,
    "Ġblanc": 11067,
    "tort": 17677,
    "Ġgamming": 25543,
    "Ġdenominated": 15232,
    "Ġjot": 11767,
    "Ġfood": 5080,
    "Ġpoky": 21482,
    "Ġpattering": 18653,
    "future": 13720,
    "Ġdistressing": 12223,
    "orate": 10802,
    "usual": 5842,
    "ourers": 21452,
    "Ġutterance": 14767,
    "Ġcan": 469,
    "Ġsentences": 2682,
    "Ġpockets": 8899,
    "ractions": 11636,
    "fired": 20862,
    "Ġstowing": 18074,
    "Ġwhe": 439,
    "Ġunnecessary": 8855,
    "poise": 6173,
    "message": 17375,
    "Ġfounded": 8561,
    "Ġplentiful": 12916,
    "ead": 2600,
    "Ġi": 312,
    "Ġdegrad": 2590,
    "zy": 2670,
    "mured": 6960,
    "Ġneutral": 12746,
    "irect": 5553,
    "Ġencourages": 2060,
    "duodecimo": 16005,
    "Ġsources": 10150,
    "Ġstacked": 21747,
    "Ġshall": 1145,
    "Ġimmut": 13302,
    "osing": 3690,
    "_.âĢĶ": 23474,
    "Ġsettlement": 19839,
    "atiable": 17776,
    "utely": 8132,
    "alogue": 25163,
    "Ġmuseum": 15275,
    "biting": 20783,
    "asses": 7018,
    "astes": 11743,
    "Ġseas": 3079,
    "Ġgambler": 26192,
    "alice": 3210,
    "vari": 1518,
    "Ġnecessary": 4476,
    "Ġgrating": 14359,
    "Ġilliter": 23470,
    "Ġclothes": 4997,
    "liberal": 26283,
    "Ġthomson": 26456,
    "Ġreluctant": 20528,
    "disappearing": 23504,
    "Ġbaboon": 19696,
    "Ġrole": 16001,
    "Ġcasually": 25096,
    "Ġravine": 18648,
    "throne": 25658,
    "squ": 7809,
    "rimsh": 17029,
    "deceit": 25557,
    "leisure": 21374,
    "Ġoy": 15550,
    "Ġredeemed": 25790,
    "Ġdisappeared": 5645,
    "t": 88,
    "eth": 621,
    "Ġbowing": 10477,
    "flames": 14715,
    "Ġverses": 17064,
    "Ġguest": 7249,
    "Ġbrief": 6977,
    "Ġeloquent": 16114,
    "Ġrans": 21970,
    "desol": 13222,
    "st": 315,
    "Ġsharp": 2414,
    "Ġtheore": 1831,
    "Ġjaw": 3317,
    "Ġprime": 10406,
    "Ġgait": 13335,
    "Ġpetty": 19598,
    "Ġsandwich": 19831,
    "Ġreckon": 19872,
    "trimmed": 23952,
    "ilty": 6395,
    "Ġtant": 12530,
    "cus": 3982,
    "Ġkeys": 12001,
    "Ġcranial": 25593,
    "Ġnamed": 6141,
    "Ġwarmly": 8990,
    "Ġkelson": 18351,
    "dreaded": 25141,
    "Ġpersisting": 18880,
    "Ġtrue": 1339,
    "Ġmiser": 18704,
    "lungs": 26136,
    "iriously": 18174,
    "Ġreappearance": 21670,
    "Ġdamned": 13135,
    "Ġwid": 4634,
    "whole": 6086,
    "Ġschoolmasters": 19723,
    "Ġflew": 5588,
    "Ġgleams": 17313,
    "Ġlace": 13952,
    "cowardly": 25750,
    "Ġresulting": 24201,
    "Ġbelfry": 26440,
    "Ġsummoning": 23877,
    "securing": 19816,
    "bat": 8072,
    "Ġentrances": 25836,
    "Ġloft": 5642,
    "remark": 7261,
    "Ġrounds": 18887,
    "Ġentangled": 10346,
    "dress": 17522,
    "Ġblunt": 11898,
    "Ġcomely": 21859,
    "rifled": 21050,
    "silence": 8045,
    "wilful": 25152,
    "brushing": 20790,
    "Ġtranqu": 4607,
    "vell": 3961,
    "somehow": 12016,
    "Ġimperfect": 13344,
    "Ġlean": 7606,
    "Ġmethodology": 2566,
    "Ġoptimizer": 5036,
    "Ġconsulted": 13434,
    "Ġjudging": 16597,
    "slanting": 24558,
    "Ġbroadened": 23988,
    "Ġslighted": 16570,
    "Ġgesture": 11401,
    "Ġwickham": 2206,
    "foundation": 16716,
    "headed": 4321,
    "Ġ103": 24411,
    "ame": 645,
    "Ġoutrid": 22319,
    "Ġwages": 13857,
    "Ġaud": 6664,
    "Ġmerciless": 25247,
    "Ġjustified": 11909,
    "dling": 15343,
    "Ġmanual": 14200,
    "Ġdiving": 12606,
    "intention": 10370,
    "pure": 17628,
    "unbe": 21876,
    "Ġ120": 16860,
    "compliments": 24807,
    "Ġsystemat": 18443,
    "Ġpresentiment": 18990,
    "Ġvis": 1082,
    "Ġmuteness": 19420,
    "Ġappalled": 22220,
    "Ġremem": 4316,
    "inders": 15984,
    "Ġthunder": 4825,
    "support": 9472,
    "Ġdella": 21442,
    "Ġmansfield": 25939,
    "Ġheaviest": 23329,
    "frequent": 15357,
    "Ġaffords": 16736,
    "clock": 3936,
    "destiny": 16701,
    "Ġskeleton": 5514,
    "Ġhumaneval": 25583,
    "ante": 11725,
    "Ġnin": 10190,
    "Ġceaseless": 13492,
    "agree": 14070,
    "Ġswarming": 16277,
    "Ġtravels": 11931,
    "Ġsenseless": 12083,
    "Ġwraps": 19779,
    "browed": 25895,
    "Ġbacked": 12931,
    "Ġplaned": 24059,
    "positive": 20570,
    "sympathy": 20545,
    "Ġboxes": 13378,
    "Ġtranquillize": 24756,
    "Ġtones": 8401,
    "Ġexpressing": 12013,
    "Ġcopse": 17068,
    "nothing": 3155,
    "lodged": 25908,
    "Ġpsalmody": 20588,
    "sticking": 21657,
    "distressed": 24202,
    "Ġfif": 4219,
    "Ġincomp": 12902,
    "urre": 10858,
    "itable": 5437,
    "vision": 5620,
    "abilities": 3238,
    "Ġsmitten": 12904,
    "Ġcluster": 13575,
    "Ġsneeze": 24698,
    "ww": 10739,
    "Ġmarling": 23039,
    "Ġmallet": 17812,
    "Ġindisp": 18835,
    "Ġundressed": 19516,
    "Ġtiara": 26417,
    "yea": 23091,
    "Ġaristocratic": 20515,
    "Ġtire": 17722,
    "Ġpir": 6818,
    "remembered": 17354,
    "Ġentr": 14341,
    "ĠĠĠĠĠĠĠĠĠĠĠĠĠĠĠĠĠĠĠĠĠĠĠĠĠĠĠĠĠĠĠĠĠĠĠĠĠĠĠĠĠ": 19585,
    "amed": 4451,
    "Ġsuccessive": 10503,
    "Ġwounding": 19589,
    "Ġquestioned": 14622,
    "Ġigniting": 25073,
    "aract": 17896,
    "Ġdat": 494,
    "Ġinconveniences": 24942,
    "lengthwise": 19953,
    "Ġallures": 22010,
    "ieve": 1661,
    "precise": 19354,
    "Ġabout": 633,
    "Ġbeast": 7180,
    "imod": 15714,
    "Ġtemporary": 7981,
    "forgive": 18723,
    "Ġspile": 22131,
    "Ġaverted": 16260,
    "labour": 23918,
    "Ġpains": 5966,
    "Ġunfulfilled": 26511,
    "Ġperiods": 13308,
    "Ġhartshorn": 26182,
    "Ġstaff": 14009,
    "uring": 819,
    "urer": 18124,
    "ograph": 4798,
    "Ġtraitors": 23080,
    "Ġundulated": 19519,
    "20": 20755,
    "Ġministers": 22836,
    "Ġfreshe": 13074,
    "Ġapply": 1777,
    "arpaul": 14538,
    "Ġlifeless": 8951,
    "Ġremained": 3141,
    "maid": 8556,
    "Ġtalks": 23373,
    "gunpowder": 25340,
    "Ġlatitudes": 9499,
    "Ġutilize": 4799,
    "Ġperplexity": 2754,
    "Ġpipeline": 2306,
    "ĠĠĠĠĠĠĠĠĠĠĠĠĠĠĠĠĠĠĠĠĠĠĠĠĠĠĠĠĠĠĠĠĠĠĠĠĠĠĠĠĠĠĠĠĠĠĠ": 16757,
    "ta": 13792,
    "Ġlabor": 10420,
    "reached": 13844,
    "Ġthomas": 17950,
    "Ì": 141,
    "Ġspades": 12801,
    "use": 2534,
    "pleasures": 24050,
    "paper": 9139,
    "finish": 24384,
    "eluded": 21578,
    "oso": 12835,
    "Ġcorrection": 5062,
    "Ġcass": 13882,
    "iries": 18172,
    "Ġthoughtfulness": 18776,
    "soundest": 24796,
    "Ġsharks": 4500,
    "Ġrestrictions": 20638,
    "acters": 9312,
    "Ġexasperated": 11414,
    "ssed": 3735,
    "Ġnoting": 18222,
    "adv": 4539,
    "Ġ50": 24315,
    "orders": 12879,
    "Ġvor": 15810,
    "Ġtheoretically": 3568,
    "Ġenough": 1762,
    "Ġhelper": 24030,
    "Ġstifle": 18076,
    "Ġhell": 5019,
    "Ġvortex": 26210,
    "Ġsuffoc": 18872,
    "ensation": 22549,
    "hailed": 17567,
    "Ġidolator": 20001,
    "Ġmerchant": 6468,
    "Ġimprudently": 22390,
    "violent": 14582,
    "Ġsob": 12788,
    "Ġbulls": 23861,
    "imming": 9690,
    "Ġsteadfast": 8682,
    "Ġagrees": 22520,
    "Ġmeridian": 25713,
    "destined": 24117,
    "av": 739,
    "q": 85,
    "byshire": 6174,
    "collecting": 26082,
    "Ġ121": 24466,
    "maker": 12497,
    "Ġminimax": 5860,
    "Ġincarnate": 20378,
    "kward": 6958,
    "arthur": 14833,
    "mantel": 26396,
    "phr": 18712,
    "eyeing": 14949,
    "Ġbetokened": 18798,
    "cheerfulness": 20183,
    "extremely": 26265,
    "Ġprediction": 2155,
    ")âĢĶâĢľ": 20745,
    "tiger": 13800,
    "knew": 9129,
    "Ġell": 17717,
    "ulated": 6031,
    "ome": 535,
    "ilingly": 21727,
    "hoisting": 23719,
    "Ġholes": 16412,
    "Ġsluggish": 25891,
    "``": 15310,
    "term": 3759,
    "crimin": 17511,
    "Ġdisappointment": 6629,
    "Ġmasks": 23331,
    "forget": 11033,
    "lacing": 17592,
    "30": 20756,
    "nostril": 26561,
    "Ġdragged": 6889,
    "Ġfever": 6560,
    "Ġdistributions": 1051,
    "Ġhollows": 19744,
    "Ġdaughter": 2870,
    "Ġlogical": 14489,
    "itan": 10162,
    "Ġoct": 10161,
    "Ġaffected": 5577,
    "Ġsporting": 17001,
    "blo": 6355,
    "Ġfocused": 16345,
    "Ġintelligences": 12836,
    "Ġheading": 8938,
    "Ġbiting": 17863,
    "Ġah": 5075,
    "Ġinfiltrated": 23286,
    "according": 12032,
    "client": 18934,
    "Ġengine": 1918,
    "firmly": 20283,
    "enge": 21283,
    "rum": 3468,
    "Ġthrusts": 24350,
    "Ġbegg": 16259,
    "Ġtrack": 7450,
    "Ġaut": 1811,
    "Ġdissembling": 26256,
    "Ġhypothesis": 14787,
    "Ġmass": 3783,
    "hello": 13368,
    "Ġmod": 495,
    "ife": 1026,
    "Ġsands": 14951,
    "Ġapparel": 20439,
    "Ġdizzy": 21435,
    "loveliness": 26551,
    "Ġfavourable": 7959,
    "ribed": 7693,
    "Ġderanged": 23176,
    "ino": 15482,
    "several": 5544,
    "Ġcanes": 22167,
    "±": 114,
    "Ġfurnace": 19443,
    "Ġcommands": 16591,
    "etency": 21585,
    "Ġnaked": 8127,
    "Ġchinese": 14186,
    "Ġtraffic": 23086,
    "Ġlieutenant": 15265,
    "Ġperiod": 4005,
    "ording": 9767,
    "tumultuously": 25614,
    "Ġsatisfactory": 11194,
    "Ġderivative": 3001,
    "Ġconnect": 799,
    "Ġalpha": 13592,
    "gam": 10098,
    "ustom": 3792,
    "lounged": 26134,
    "ib": 1234,
    "Ġcapst": 8599,
    "Ġyellowish": 24430,
    "Ġaff": 1119,
    "oled": 17621,
    "Ġpell": 21459,
    ",âĢĶâĢĺ": 23805,
    "iet": 1774,
    "terms": 15755,
    "rees": 5436,
    "Ġcharts": 12832,
    "Ġclings": 15968,
    "Ġitem": 12706,
    "Ġwhip": 8453,
    "bloom": 24690,
    "nearer": 22454,
    "riors": 18189,
    "Ġembod": 14413,
    "Ġpresumed": 10547,
    "Ġposture": 24167,
    "Ġdeclaring": 19423,
    "Ġstript": 23694,
    "cries": 17513,
    "pointed": 9813,
    "dles": 11483,
    "Ġespecially": 3939,
    "Ġjuncture": 17132,
    "Ġrotterdam": 25476,
    "Ġhateful": 19716,
    "Ġemb": 1222,
    "Ġleaning": 5228,
    "Ġdynamic": 5122,
    "Ġflinging": 13589,
    "jaw": 13746,
    "Ġours": 4614,
    "iliary": 21730,
    "Ġgifts": 21615,
    "Ġcoopers": 20525,
    "ones": 2742,
    "Ġstepmother": 16093,
    "ouch": 2780,
    "Ġorchard": 22098,
    "Ġache": 18664,
    "treatment": 20415,
    "striking": 13444,
    "adow": 18090,
    "Ġvigour": 24462,
    "Ġarbitrary": 4737,
    "Ġdarting": 7757,
    "reme": 2423,
    "supposed": 13320,
    "alescence": 15928,
    "Ġcoldness": 23761,
    "Ġsmoked": 10325,
    "Ġrambling": 18645,
    "allies": 14168,
    "²": 115,
    "giving": 8742,
    "Ġarea": 14189,
    "skelter": 24490,
    "cheon": 23806,
    "itheat": 21341,
    "Ġexpired": 18622,
    "Ġunwell": 22019,
    "Ġrashness": 25461,
    "Ġcoloss": 11048,
    "Ġalarmed": 6923,
    "promised": 12256,
    "nour": 20990,
    "watching": 16932,
    "jet": 13745,
    "Ġassistance": 6335,
    "Ġasser": 6259,
    "ained": 3065,
    "Ġdash": 8122,
    "Ġredoubled": 23755,
    "Ġinoffensive": 21501,
    "Ġanybody": 5314,
    "Ġattractive": 25576,
    "verdict": 21733,
    "Ġspeakest": 23487,
    "mediterranean": 16408,
    "ive": 426,
    "Ġweakness": 9970,
    "ivial": 15866,
    "Ġconve": 5455,
    "----": 4059,
    "Ġproof": 6155,
    "Ġshrouded": 14972,
    "Ġused": 2059,
    "Ġmerits": 13200,
    "Ġrumbling": 18212,
    "ounce": 6559,
    "Ġheap": 12683,
    "quely": 10234,
    "attempt": 9363,
    "outer": 9671,
    "liked": 10511,
    "ine": 406,
    "ihood": 20924,
    "aper": 4999,
    "Ġfin": 1459,
    "Ġindestructible": 26574,
    "oring": 1862,
    "gments": 12474,
    "Ġfix": 2507,
    "Ġmortar": 19396,
    "Ġmagnificent": 9845,
    "Ġ*": 1272,
    "Ġhoisted": 5961,
    "Ġlongitude": 11013,
    "Ġsoftmax": 1690,
    "Ġadmiring": 16482,
    "cell": 10689,
    "Ġunprecedented": 15858,
    "Ġmoney": 3417,
    "persu": 8028,
    "Ġthence": 8885,
    "Ġkings": 7197,
    "melancholy": 12357,
    "Ġstubb": 1787,
    "Ġsailed": 4890,
    "delighted": 10565,
    "Ġcrack": 7710,
    "Ġcenturies": 8626,
    "Ġregretted": 13404,
    "Ġsmile": 4275,
    "Ġbringing": 5871,
    "Ġcurtains": 22990,
    "son": 2330,
    "Ġtemperature": 1002,
    "strate": 12678,
    "Ġattaining": 15807,
    "ulence": 15770,
    "pudding": 17649,
    "enjoyment": 17260,
    ";": 31,
    "Ġquestionable": 19268,
    "Ġfilled": 4398,
    "Ġmining": 22833,
    "Ġmiller": 19885,
    "Ġfifth": 11259,
    "Ġwhalebone": 10979,
    "Ġislets": 21805,
    "Ġfoliage": 18868,
    "Ġsitt": 21220,
    "Ġwrest": 11574,
    "Ġtie": 10752,
    "Ġfuriously": 9805,
    "Ġherb": 15860,
    "Ġgardener": 19136,
    "permitted": 18347,
    "Ġeliza": 6438,
    "Ġdictator": 20156,
    "Ġfisheries": 17441,
    "Ġwrites": 23201,
    "Ġspeed": 2447,
    "Ġproceed": 3244,
    "Ġhearse": 10422,
    "Ġbarbaric": 10017,
    "reed": 6374,
    "Ġinjure": 16783,
    "Ġmanager": 11773,
    "Ġopium": 8997,
    "mere": 11859,
    "astrous": 15890,
    "hement": 13835,
    "Ġconfining": 23310,
    "disposed": 25013,
    "Ġrept": 13986,
    "Ġlurch": 21558,
    "pressing": 19017,
    "Ġguessed": 11284,
    "Ġwaist": 6893,
    "fortunes": 6334,
    "Ġheinous": 18041,
    "Ġquestioning": 10465,
    "tal": 17672,
    "Ġsounding": 8265,
    "Ġaccumulates": 2892,
    "disappointment": 11427,
    "Ġmule": 13865,
    "Ġpiling": 17913,
    "Ġblindly": 12114,
    "Ġtime": 690,
    "allow": 5104,
    "Ġchristianity": 19863,
    "Ġsober": 10912,
    "ivered": 7007,
    "Ġalleys": 25979,
    "Ġinteraction": 7424,
    "Ġtoss": 10187,
    "Ġessentials": 20006,
    "Ġapr": 12537,
    "Ġinteractions": 12908,
    "Ġvillainous": 25134,
    "Ġfordham": 21780,
    "Ġwait": 4908,
    "coarse": 16489,
    "iour": 4038,
    "then": 2052,
    "ources": 2789,
    "delirium": 14788,
    "Ġdisregard": 22532,
    "Ġbeque": 18083,
    "Ġinferior": 8366,
    "ouri": 21450,
    "Ġbun": 6008,
    "sheet": 16289,
    "Ġplat": 8523,
    "Ġeaten": 14848,
    "Ġcreamy": 14335,
    "Ġteacup": 16216,
    "iring": 1707,
    "ood": 961,
    "pton": 15798,
    "fac": 17543,
    "gings": 7549,
    "Ġrav": 14308,
    "Ġpupella": 20425,
    "Ġstepped": 7053,
    "Ġpractised": 23298,
    "worm": 15456,
    "Ġincom": 9772,
    "downstairs": 23923,
    "ives": 1409,
    "hies": 17562,
    "asters": 8435,
    "aves": 3600,
    "ĠvertebrÃ¦": 11437,
    "Ġcoleman": 22588,
    "Ġmaintainable": 12940,
    "column": 19331,
    "Ġspectator": 19409,
    "Ġsir": 1566,
    "Ġsundry": 20077,
    "turner": 19544,
    "Ġ9": 5902,
    "Ġengraving": 17081,
    "vember": 10857,
    "Ġhooked": 19081,
    "fabulous": 20477,
    "Ġcastles": 16642,
    "eps": 12796,
    "suited": 22644,
    "onze": 21258,
    "rically": 15420,
    "illuminated": 17456,
    "Ġcorporeal": 17363,
    "emin": 8472,
    "Ġapology": 8328,
    "Ġjoining": 13168,
    "ious": 770,
    "presence": 18497,
    "Ġcare": 1641,
    "Ġrelaxed": 12989,
    "Ġpioneer": 17921,
    "æ": 167,
    "Ġkrus": 18350,
    "Ġtahit": 10756,
    "Ġchained": 16391,
    "Ġsidel": 9638,
    "Ġcashier": 20201,
    "Ġfootfall": 14663,
    "Ġweigh": 10895,
    "Ġsoothe": 7405,
    "broken": 8020,
    "Ġstartling": 14673,
    "Ġ77": 24266,
    "Ġbanker": 8670,
    "epend": 3313,
    "res": 2759,
    "Ġascertained": 25297,
    "Ġchann": 15939,
    "Ġtarts": 10755,
    "Ġstuffed": 13413,
    "Ġpersuas": 23950,
    "ļ": 253,
    "bery": 9797,
    "Ġamph": 18512,
    "Ġfreer": 23209,
    "Ġdefilements": 26286,
    "ion": 296,
    "phant": 6289,
    "Ġclaps": 22354,
    "Ġglide": 22984,
    "Ġspatial": 2730,
    "classification": 4391,
    "Ġgossip": 18470,
    "silenced": 24423,
    "Ġval": 970,
    "Ġfil": 3471,
    "Ġevenly": 4131,
    "Ġcomes": 3422,
    "Ġfiles": 21416,
    "flex": 24844,
    "olet": 13769,
    "Ġdanish": 21434,
    "Ġcheever": 23287,
    "Ġprayer": 16669,
    "Ġconfusion": 7273,
    "erm": 786,
    "opol": 12875,
    "Ġanne": 1529,
    "Ġcent": 3254,
    "rudential": 16711,
    "wond": 8772,
    "Ġ181": 23899,
    "Ġreigned": 13990,
    "nur": 11508,
    "Ġlisten": 4675,
    "Ġapologizing": 25198,
    "englishman": 23677,
    "Ġassociated": 12254,
    "Ġphilosopher": 12188,
    "Ġmand": 21307,
    "frame": 17117,
    "Ġactivity": 7920,
    "Ġwarmup": 3923,
    "acey": 7650,
    "razor": 21640,
    "Ġunreason": 15846,
    "Ġkissed": 10048,
    "Ġblend": 14402,
    "Ġproperly": 7945,
    "Ġpunchbowl": 20234,
    "ascar": 8436,
    "goes": 10428,
    "Ġstalls": 25648,
    "uy": 21102,
    "Ġexpress": 2195,
    "see": 3048,
    "Ġspin": 7630,
    "Ġenvied": 19291,
    "system": 3925,
    "Ġmisfortunes": 7043,
    "Ġunctuousness": 17237,
    "Ġposit": 1306,
    "Ġ70": 11278,
    "urious": 21706,
    "Ġbrilliancy": 20110,
    "Ġcentury": 8291,
    "Ġloadstone": 25817,
    "Ġescape": 2648,
    "amusement": 15286,
    "innocence": 15187,
    "Ġaristotle": 25818,
    "Ġdedicated": 19237,
    "Ġanointing": 25540,
    "Ġsincer": 13071,
    "Ġhawaiian": 25367,
    "acceler": 23600,
    "rusion": 11325,
    "recollected": 25348,
    "Ġfortunes": 12183,
    "Ġlac": 17967,
    "unnecessary": 21884,
    "precisely": 6917,
    "cannon": 22967,
    "Ġextracted": 16309,
    "Ġsea": 1208,
    "lingering": 18602,
    "Ġhost": 7070,
    "oul": 4700,
    "Ġmechanical": 7937,
    "uzzle": 19586,
    "Ġgar": 10840,
    "Ġmovement": 9971,
    "clerval": 7951,
    "Ġdense": 8123,
    "jee": 17581,
    "ott": 1873,
    "Ġfossiliferous": 25610,
    "Ġscant": 22284,
    "flukes": 25206,
    "<MASK>": 4,
    "Ġoperated": 14548,
    "sam": 21054,
    "Ġkidn": 20208,
    "ó": 180,
    "Ġreflected": 2911,
    "english": 2775,
    "icil": 17974,
    "Ġpalsied": 25780,
    "Ġreeling": 18035,
    "Ġ1000": 3118,
    "watson": 12248,
    "lover": 18540,
    "Ġchart": 10947,
    "Ġmediocr": 24142,
    "Ġperchance": 15995,
    "Ġrevel": 9217,
    "Ġboisterously": 25683,
    "adr": 6995,
    "rossed": 11014,
    "Ġskilfully": 20527,
    "forbid": 14354,
    "Ġdeceit": 13485,
    "suggest": 20379,
    "Ġhudson": 15195,
    "Ġsaint": 15510,
    "existence": 16018,
    "iation": 7343,
    "Ġquivered": 18468,
    "Ġdatasets": 2390,
    "Ġsalutation": 12401,
    "scru": 16248,
    "iar": 2380,
    "rubbed": 22188,
    "Ġrepressed": 21671,
    "Ġexcess": 3342,
    "Ġbehalf": 14508,
    "softened": 20413,
    "Ġadequate": 20311,
    "Ġgardens": 16453,
    "Ġtarquin": 23612,
    "Ġarsac": 11746,
    "inspect": 11561,
    "Ġsurest": 19058,
    "Ġapex": 24342,
    "conjectured": 25182,
    "execution": 20475,
    "Ġboscombe": 8326,
    "ĠĠĠĠĠĠĠĠĠĠĠĠĠĠĠĠĠĠĠĠĠĠĠĠĠĠĠĠĠĠĠĠĠĠĠĠĠĠĠĠĠĠĠĠĠĠĠĠĠĠĠ": 20042,
    "eleg": 20851,
    "coronet": 16865,
    "Ġdispleased": 18556,
    "Ġgulp": 20032,
    "Ġupbra": 22158,
    "Ġscare": 18397,
    "accounted": 16504,
    "'m": 9585,
    "Ġalways": 1697,
    "Ġscotch": 12214,
    "Ġcalmness": 12098,
    "next": 5893,
    "information": 12397,
    "Ġbloodthirsty": 26603,
    "Ġsmothered": 20722,
    "Ġbye": 12743,
    "Ġplaintiffs": 13613,
    "Ġdividing": 12116,
    "Ġcountries": 13101,
    "ividually": 22092,
    "orrah": 17877,
    "Ġspread": 5161,
    "Ġsharpen": 13573,
    "Ġextending": 11023,
    "ensibility": 22551,
    "Ġstructural": 2798,
    "Ġhelmsman": 10507,
    "Ġwaifing": 25244,
    "bless": 22316,
    "Ġdeparture": 6491,
    "Ġstick": 6027,
    "shaven": 18495,
    "Ġdesolation": 12273,
    "Ġlavater": 20499,
    "dance": 17521,
    "Ġassembly": 10645,
    "Ġdiscre": 2416,
    "Ġthing": 1642,
    "Õ": 150,
    "influ": 9544,
    "Ġfonder": 17882,
    "Ġoverbearing": 12849,
    "fe": 671,
    "Ġtho": 21517,
    "Ġplucked": 15117,
    "wonderful": 16962,
    "Ġoccurs": 1859,
    "Ġdrowsiness": 26447,
    "Ġthrew": 3975,
    "inted": 2650,
    "Ġthousand": 2782,
    ",_": 11464,
    "Ġ1807": 26084,
    "guilty": 19486,
    "Ġlasting": 18793,
    "ety": 3520,
    "fish": 3515,
    "Ġmushroom": 13240,
    "Ġmaker": 15547,
    "sheets": 14445,
    "Ġexcel": 3569,
    "Ġwantonly": 22897,
    "forced": 11032,
    "Ġsocieties": 20185,
    "Ġexhaled": 19685,
    "Ġstorms": 11264,
    "Ġturk": 6605,
    "ativeness": 15524,
    "goose": 19103,
    "Ġcrawling": 17046,
    "Ġpianoforte": 15277,
    "Ġlucifers": 16590,
    "Ġunpardonable": 22064,
    "utes": 5915,
    "ains": 5094,
    "Ġprocedures": 9415,
    "Ġchanging": 11757,
    "Ġhauled": 11698,
    "otherwise": 7671,
    "jack": 7344,
    "Ġmajority": 13297,
    "Ġmoisture": 12363,
    "Ġpeep": 6870,
    "Ġflip": 11916,
    "bre": 3981,
    "Ġdevelopments": 23217,
    "Ġdecided": 5471,
    "Ġfree": 3374,
    "Ġphys": 5653,
    "journey": 8748,
    "Ġrecol": 4030,
    "Ġstatement": 5255,
    "sit": 13783,
    "wra": 11544,
    "Ġburied": 7719,
    "Ġbuoyancy": 20045,
    "Ġbursting": 8659,
    "misfortunes": 16758,
    "Ġeffort": 8204,
    "thickness": 25368,
    "Ġke": 1157,
    "Ġsubord": 22792,
    "vo": 11542,
    "lane": 10708,
    "Ġjealousy": 13580,
    "Ġpublic": 4336,
    "Ġtelegra": 11895,
    "Ġcoinc": 11003,
    "althy": 8433,
    "Ġgrammars": 11404,
    "Ġpassenger": 14372,
    "bl": 4143,
    "Ġfail": 4150,
    "squeezing": 25914,
    "Ġhighest": 3529,
    "rannical": 26403,
    "Ġgra": 415,
    "Ġhumans": 8933,
    "Ġgl": 1253,
    "oning": 7572,
    "Ġtogether": 1879,
    "Ġexcepting": 14682,
    "Ġproper": 1378,
    "avoid": 9308,
    "ggy": 13118,
    "Ġsudden": 1999,
    "Ġdesignated": 19524,
    "ousand": 2428,
    "Ġrefinement": 18700,
    "too": 4510,
    "Ġboon": 22641,
    "Ġcarving": 14446,
    "Ġvesu": 21953,
    "Ġexpected": 3697,
    "Ġdaw": 21432,
    "spl": 9142,
    "Ġ127": 24472,
    "rages": 15685,
    "Ġoutwardly": 25001,
    "neying": 22453,
    "Ġ119": 24441,
    "Ġnotice": 4545,
    "perceived": 8862,
    "Ġtranquilly": 12294,
    "uger": 21106,
    "Ġawa": 7714,
    "Ġconsequent": 18113,
    "Ġaccumulating": 2723,
    "Ġsemantic": 1959,
    "Ġtemples": 18639,
    "oblig": 16294,
    "Ġprinted": 11953,
    "Ġing": 5284,
    "Ġbreat": 3458,
    "Ġmead": 8839,
    "Ġconcernment": 23646,
    "condesc": 18509,
    "Ġarrowy": 25470,
    "Ġobscured": 15013,
    "Ġexh": 5232,
    "Ġimpact": 10299,
    "Ġ110": 24435,
    "Ġintercepted": 25828,
    "Ġprophecy": 25706,
    "Ġhansom": 13668,
    "Ġfreshness": 23991,
    "lot": 3209,
    "Ġtough": 13818,
    "Ġinterpreted": 1711,
    "Ġguernsey": 9354,
    "Ġgrop": 12669,
    "Ġstately": 9837,
    "itt": 571,
    "Ġsaintly": 25932,
    "urday": 13997,
    "Ġoblig": 3443,
    "Ġutensils": 23516,
    "gracious": 11835,
    "Ġequalled": 13317,
    "Ġunpleasant": 7191,
    "Ġconjoined": 21810,
    "Ġhills": 6528,
    "concl": 12877,
    "shold": 2774,
    "Ġpiteous": 17920,
    "Ġimbecile": 17395,
    "rasing": 21048,
    "Ġdescribes": 3122,
    "encoun": 12302,
    "european": 26373,
    "Ġsodden": 25536,
    "Ġupright": 8496,
    "others": 7670,
    "etting": 21583,
    "Ġburns": 16524,
    "isite": 15567,
    "Ġinitialized": 3951,
    "Ġgrimly": 17053,
    "insufficient": 15492,
    "Ġreveal": 11202,
    "pil": 15411,
    "bro": 4035,
    "Ġconcise": 23327,
    "Ġascending": 14857,
    "anxious": 15113,
    "ts": 959,
    "expressing": 16803,
    "Ġunerringly": 18266,
    "Ġmol": 12566,
    "Ġsteep": 2891,
    "endeavoured": 12285,
    "tro": 15436,
    "Ġkn": 4548,
    "Ġbite": 10799,
    "although": 8810,
    "tes": 11531,
    "Ġcocoanuts": 26364,
    "Ġbrawny": 13617,
    "Ġfact": 1727,
    "Ġbackbone": 22663,
    "Ġmedic": 11258,
    "Ġrecalled": 8540,
    "Ġprognost": 15285,
    "Ġpencil": 11947,
    "interval": 7991,
    "Ġsinks": 19552,
    "Ġmicrosc": 20679,
    "perai": 10279,
    "Ġrelent": 18777,
    "Ġjurors": 17347,
    "ribute": 7227,
    "Ġchief": 3380,
    "wickham": 5885,
    "Ġwalks": 8969,
    "moved": 9787,
    "Ġmotives": 7486,
    "Ġapplication": 2110,
    "Ġunseen": 3523,
    "mechan": 11861,
    "Ġcondition": 6765,
    "mming": 1172,
    "Ġmarlingspike": 26581,
    "Ġunobserved": 18250,
    "Ġcolonnades": 26277,
    "Ġgarb": 21606,
    "Û": 156,
    "Ġiteratively": 3058,
    "pilot": 25909,
    "illar": 5101,
    "Ġsupers": 18281,
    "ters": 1569,
    "Ġcrimson": 16439,
    "Ġgrasping": 12170,
    "concerted": 16674,
    "loose": 11809,
    "Ġcups": 16884,
    "confidence": 16810,
    "Ġitalian": 12414,
    "ied": 940,
    "changing": 10856,
    "Ġsuite": 18280,
    "Ġmixed": 6975,
    "ortal": 6267,
    "Ġlydia": 2375,
    "recursion": 13333,
    "Ġdevout": 14329,
    "Ġnonsense": 6983,
    "seen": 2883,
    "happiest": 19334,
    "Ġhaunts": 18199,
    "Ġignorance": 6621,
    "orious": 6009,
    "Ġsouthern": 7689,
    "organ": 15578,
    "seldom": 13790,
    "Ġclearer": 16316,
    "Ġexplained": 5937,
    "Ġtipt": 21176,
    "considerably": 13449,
    "stir": 12677,
    "ishments": 9276,
    "Ġlarger": 1402,
    "landish": 11946,
    "Ġsquaw": 22840,
    "Ġoutstanding": 22320,
    "Ġboast": 7036,
    "pole": 9336,
    "Ġexertion": 8054,
    "Ġcountess": 11968,
    "ham": 1702,
    "Ġperpetually": 17071,
    "ju": 13744,
    "Ġpanted": 21475,
    "Ġfortune": 4243,
    "Ġpicturesque": 14897,
    "Ġleathern": 15053,
    "Ġrepent": 9866,
    "Ġbegins": 7244,
    "cery": 20810,
    "eding": 7166,
    "Ġembattled": 26290,
    "Ġerr": 1321,
    "first": 3937,
    "Ġtriangular": 14862,
    "Ġrud": 8480,
    "Ġtresses": 21178,
    "Ġunclad": 22056,
    "Ġmay": 923,
    "Ġdark": 2112,
    "Ġkind": 1785,
    "Ġswift": 3670,
    "Ġhesitation": 13445,
    "Ġsouth": 4912,
    "Ġ166": 25007,
    "Ġsurv": 6082,
    "Ġserved": 8247,
    "Ġspeaker": 19150,
    "wet": 15455,
    "aggra": 21910,
    "ential": 825,
    "Ġadvance": 5484,
    "Ġkeels": 11063,
    "accuracy": 9882,
    "Ġgovernments": 20270,
    "Ġsuperlatively": 26076,
    "waving": 21134,
    "rical": 11521,
    "Ġpon": 10178,
    "Ġwo": 3652,
    "Ġpitching": 16613,
    "Ġdawn": 6817,
    "Ġillustrative": 25069,
    "Ġobserved": 3542,
    "ĠâĢľâĢĺ_": 25114,
    "Ġabused": 22273,
    "Ġcalculate": 13268,
    "rested": 13079,
    "opposing": 24822,
    "ensils": 22552,
    "ectual": 21919,
    "Ġenv": 2904,
    "Ġsprinkled": 19500,
    "Ġhelm": 5276,
    "Ġfiss": 21415,
    "Ġamends": 14248,
    "Ġreside": 22543,
    "Ġcoll": 8221,
    "Ġfollowing": 4064,
    "âĢĿ)": 21818,
    "Ġimmensity": 25330,
    "houn": 20895,
    "ix": 1803,
    "imly": 12692,
    "pshire": 21026,
    "Ġshabby": 14114,
    "Ġspl": 2985,
    "Ġprofound": 5497,
    "Ġgasping": 17039,
    "Ġresponded": 13642,
    "raised": 15683,
    "sample": 12511,
    "Ġobst": 6286,
    "Ġpatriot": 23274,
    "ĠĠĠĠĠĠĠĠĠĠĠĠĠĠĠĠĠĠĠĠĠĠĠĠĠĠĠĠĠĠĠ": 19703,
    "Ġrelatives": 12987,
    "revol": 12545,
    "Ġebony": 18011,
    "ý": 190,
    "Ġhues": 21492,
    "Ġdependent": 14300,
    "bearers": 18522,
    "nameless": 19905,
    "ogany": 18678,
    "Ġdoing": 3662,
    "Ġabruptness": 25300,
    "Ġgemini": 26471,
    "Ġunf": 4090,
    "Ġceases": 19315,
    "stave": 21646,
    "unworthy": 18164,
    "mped": 16650,
    "yet": 3754,
    "Ġknights": 15153,
    "Ġwand": 4345,
    "Ġbert": 4584,
    "surprising": 16921,
    "rosings": 15648,
    "rut": 8092,
    "Ġmetrics": 19077,
    "Ġminister": 18755,
    "Ġurging": 24505,
    "mechanical": 25579,
    "Ġunaccountably": 26517,
    "slave": 16897,
    "rying": 3187,
    "Ġbounce": 21396,
    "Ġcontracting": 16015,
    "Ġshipping": 14107,
    "Ġrefresh": 10348,
    "Ġinfant": 11965,
    "sens": 8096,
    "Ġpower": 1285,
    "Ġminim": 1324,
    "marest": 20982,
    "Ġvehicles": 10662,
    "Ġmissionary": 25697,
    "Ġsummons": 13236,
    "threw": 21988,
    "Ġexplanation": 6694,
    "Ġfalls": 14646,
    "Ġdeploy": 2826,
    "ials": 11708,
    "Ġjogged": 26238,
    "Ġtechni": 1699,
    "Ġvehem": 22893,
    "ourselves": 9014,
    "Ġexhilarating": 26339,
    "Ġerected": 12238,
    "Ġscale": 1548,
    "remembrance": 25703,
    "Ġpeasants": 12336,
    "Ġcommit": 18656,
    "aunted": 20772,
    "ility": 622,
    "Ġheavier": 13107,
    "Ġputs": 19035,
    "captains": 12132,
    "Ġcreated": 2707,
    "Ġshark": 5550,
    "Ġcondemn": 13448,
    "Ġhardest": 18914,
    "Ġheighten": 19532,
    "Ġflurry": 18862,
    "metals": 24765,
    "Ġber": 5698,
    "Ġencourage": 10383,
    "Ġappointed": 20106,
    "ersman": 11705,
    "Ġneighbourhood": 5126,
    "Ġcircumspect": 15088,
    "Ġspectacle": 10499,
    "impe": 21711,
    "Ġinadequate": 17939,
    "imson": 12694,
    "Ġemboldened": 22963,
    "Ġworks": 5859,
    "itious": 8784,
    "Ġreluct": 14374,
    "Ġlunch": 13529,
    "Ġtears": 4234,
    "sprang": 19994,
    "granting": 23416,
    "ography": 13367,
    "sullenly": 26150,
    "Ġexplaining": 15964,
    "ide": 721,
    "Ġcoiled": 11824,
    "Ġwoods": 5406,
    "Ġarches": 14163,
    "Ġrestlessness": 23295,
    "Ġsweetly": 23922,
    "Ġearth": 2850,
    "open": 7027,
    "Ġsauc": 15892,
    "Ġeternally": 11371,
    "tied": 21073,
    "Ġcosmopol": 16455,
    "knows": 19174,
    "inferiors": 25347,
    "Ġzones": 22822,
    "Ġimagenet": 19248,
    "Ġunappe": 22020,
    "woof": 21142,
    "Ġfits": 8795,
    "Ġfishing": 9665,
    "Ġcaged": 21355,
    "Ġliar": 22412,
    "Ġpound": 12621,
    "breaking": 14768,
    "Ġaltern": 7394,
    "Ġgruff": 21617,
    "fortune": 4975,
    "deformity": 22150,
    "Ġinc": 702,
    "--âĢľ": 12977,
    "langu": 4808,
    "Ġafrican": 20140,
    "Ġsnatch": 14641,
    "Ġmag": 1428,
    "Ġferguson": 17472,
    "took": 6166,
    "Ġladyship": 5046,
    "âĢĿâĢĶ": 5721,
    "Ġadapts": 3819,
    "perse": 15904,
    "Ġvap": 6837,
    "Ġnought": 21525,
    "Ġimmensities": 25331,
    "Ġadvers": 4888,
    "Ġtwins": 16124,
    "occupation": 15059,
    "scoured": 22996,
    "Ġhercules": 14130,
    "ellent": 3762,
    "Ġguido": 2978,
    "Ġsingers": 23774,
    "encies": 4081,
    "Ġglades": 19375,
    "Ġhypocr": 19475,
    "jewell": 25524,
    "ynolds": 10039,
    "canallers": 22969,
    "Ġferrule": 24500,
    "Ġspite": 4157,
    "Ġeasiness": 23539,
    "Ġaccurate": 13273,
    "cherish": 24552,
    "Ġmasses": 10506,
    "reduc": 5459,
    "Ġturbid": 23613,
    "lad": 5993,
    "Ġcontradictory": 20400,
    "ective": 18177,
    "moment": 3580,
    "haustible": 16893,
    "owners": 16090,
    "Ġbeen": 627,
    "Ġbrute": 8930,
    "Ġsufferings": 7513,
    "Ġmincer": 14369,
    "reflection": 13459,
    "Ġroses": 11790,
    "reeling": 21247,
    "ots": 3293,
    "imodal": 17450,
    "Ġour": 1007,
    "storied": 18024,
    "rest": 1635,
    "icirc": 15660,
    "Ġblank": 5952,
    "Ġseclusion": 18209,
    "clearer": 24073,
    "Ġcheered": 16375,
    "Ġlungless": 24864,
    "Ġtempor": 2368,
    "Ġfasten": 11134,
    "Ġjacobians": 2895,
    "Ġpet": 4588,
    "bec": 4054,
    "Ġrelevance": 5184,
    "Ġprobabilities": 4966,
    "Ġloafer": 18300,
    "Ġrenewed": 9541,
    "jeroboam": 25620,
    "uting": 15664,
    "Ġsensitive": 13203,
    "atively": 2696,
    "Ġventured": 7501,
    "Ġwhen": 514,
    "Ġpallidness": 25605,
    "Ġherds": 9719,
    "ability": 716,
    "Ġproving": 15756,
    "Ġexped": 7651,
    "Ġtypewriting": 16424,
    "Ġcir": 21344,
    "Ġproceeding": 9909,
    "impul": 16559,
    "Ġraw": 3319,
    "Ġintact": 21993,
    "Ġhistorical": 3647,
    "Ġmorcar": 13016,
    "haps": 1673,
    "Ġbandaged": 16844,
    "acious": 5562,
    "conda": 18994,
    "Ġlaws": 8003,
    "Ġdimmed": 24270,
    "throt": 25660,
    "iac": 6227,
    "Ġplanned": 14756,
    "Ġredness": 19314,
    "Ġpur": 2217,
    "Ġgases": 21605,
    "Ġdem": 11677,
    "ploy": 2024,
    "Ġvesture": 20065,
    "money": 8753,
    "produced": 25415,
    "Ġhooks": 14971,
    "conve": 14246,
    "Ġverify": 12092,
    "oped": 6048,
    "Ġrash": 10900,
    "igned": 5656,
    "Ġthrusting": 10555,
    "Ġpurch": 6601,
    "Ġit": 339,
    "Ġexamine": 7735,
    "Ġlizzy": 3547,
    "Ġassured": 4376,
    "alions": 21504,
    "xim": 1094,
    "wards": 1275,
    "Ġbackstays": 22666,
    "Ġsmiting": 12903,
    "Ġrun": 2355,
    "origin": 7582,
    "Ġundertaken": 18988,
    "Ġeasier": 11167,
    "swept": 19789,
    "Ġforswe": 21778,
    "Ġoutright": 18413,
    "sip": 10727,
    "Ġwiping": 25766,
    "Ġcontour": 18475,
    "Ġflann": 23015,
    "Ġdrunkard": 20180,
    "Ġsatire": 22905,
    "escape": 16011,
    "Ġxvi": 19106,
    "Ġdeft": 21840,
    "emptied": 23637,
    "Ġscraped": 16905,
    "Ġimprobable": 9798,
    "Ġpea": 14320,
    "Ġthieves": 15640,
    "ched": 1545,
    "astron": 22173,
    "possessed": 9531,
    "athans": 7433,
    "Ġprognostics": 20561,
    "Ġglobal": 2371,
    "sprinkling": 24913,
    "Ġclams": 19992,
    "leaving": 10793,
    "forward": 2187,
    "Ġautomatically": 3750,
    "contempl": 13195,
    "holding": 7739,
    "Ġblazing": 11900,
    "Ġprosecuted": 25294,
    "Ġbay": 9171,
    "Ġthews": 21280,
    "Ġsinusoid": 4782,
    "Ġnooks": 26012,
    "Ġpronouncing": 16971,
    "Ġspears": 12929,
    "Ġsagacious": 14974,
    "Ġnewcastle": 16226,
    "Ġattempting": 14699,
    "Ġlodger": 24097,
    "Ġportion": 7492,
    "Ġheidelburgh": 11646,
    "Ġdau": 21428,
    "Ġglimmered": 20174,
    "Ġjoys": 13225,
    "Ġaverages": 2399,
    "Ġjago": 22303,
    "Ġsized": 11565,
    "informed": 17738,
    "Ġstrategies": 1840,
    "ours": 3426,
    "Ġstays": 16564,
    "Ġprofessors": 14728,
    "Ġunattended": 15847,
    "Ġunduly": 25995,
    "smile": 23909,
    "Ġtoward": 17949,
    "Ġacquiescence": 20333,
    "Ġdyspepsia": 20645,
    "Ġboneless": 19608,
    "please": 8177,
    "Ġgir": 2255,
    "umst": 2503,
    "extinguished": 16154,
    "rus": 5931,
    "Ġdefined": 11902,
    "Ġperforms": 11881,
    "Ġpregnant": 26537,
    "Ġexile": 12722,
    "Ġanyone": 4462,
    "Ġapproxim": 1218,
    "dying": 15344,
    "Ġgets": 10841,
    "zed": 8104,
    "Ġwink": 11572,
    "Ġobvious": 4964,
    "Ġmah": 15545,
    "Ġcoarsely": 25830,
    "Ġfished": 21413,
    "Ġberth": 8683,
    "Ġsequentially": 4915,
    "Ġrushing": 7403,
    "Ġhandsomely": 25498,
    "Ġmightiest": 12966,
    "Ġliberal": 12195,
    "unken": 10239,
    "ificial": 607,
    "Ġracket": 22657,
    "Ġnostrils": 10945,
    "insist": 23067,
    "closing": 23158,
    "drown": 13708,
    "Ġquadrille": 13544,
    "suspicions": 25392,
    "displayed": 20738,
    "Ġ1869": 19387,
    "Ġsell": 7825,
    "strike": 14952,
    "tempted": 26405,
    "Ġdivision": 19447,
    "marvell": 24175,
    "boilers": 26298,
    "Ġfield": 1245,
    "Ġregularizer": 2340,
    "Ġshrieking": 24757,
    "anous": 21362,
    "iscreet": 20685,
    "riptions": 14798,
    "locks": 14460,
    "attention": 2109,
    "Ġeclips": 20699,
    "magnificent": 20277,
    "uish": 5431,
    "Ġdistracted": 11808,
    "ither": 1546,
    "Ġhappily": 9334,
    "oura": 1061,
    "Ġnow": 692,
    "Ġsobbing": 14136,
    "Ġtrunks": 15975,
    "inav": 15487,
    "Ġvincent": 15287,
    "Ġunquestionable": 26223,
    "Ġscr": 11764,
    "elves": 2158,
    "Ġquote": 18467,
    "unw": 14060,
    "-------": 20392,
    "iard": 9604,
    "africa": 26309,
    "Ġcascade": 20584,
    "paid": 15417,
    "happily": 14659,
    "Ġmusical": 23896,
    "Ġemail": 19074,
    "Ġriverside": 25248,
    "elijah": 19476,
    "Ġ16": 7927,
    "Ġpor": 5225,
    "Ġcontent": 5034,
    "Ġceiling": 7997,
    "Ġbounty": 26439,
    "Ġappear": 2482,
    "Ġserm": 9636,
    "Ġnieces": 8434,
    "Ġsome": 658,
    "Ġrambles": 17187,
    "cost": 19188,
    "istrate": 7406,
    "Ġbarb": 4533,
    "Ġbodily": 6108,
    "phew": 6369,
    "Ġsolar": 22887,
    "Ġslam": 13063,
    "Ġenvelop": 5587,
    "Ġpauses": 14818,
    "descried": 11933,
    "Ġtemporal": 2613,
    "Ġprynne": 25541,
    "Ġsneering": 24696,
    "Ġwh": 328,
    "Ġpadded": 25039,
    "Ġunfathom": 14792,
    "Ġheightens": 24157,
    "Ġbasics": 13452,
    "wharf": 20609,
    "Ġnobody": 6160,
    "Ġbenefit": 8294,
    "ethe": 9679,
    "hos": 15367,
    "Ġreeled": 13989,
    "Ġtransparency": 10679,
    "Ġsen": 9159,
    "Ġmixing": 24937,
    "Ġemotion": 7690,
    "Ġpeaking": 22693,
    "Ġtransport": 11280,
    "Ġnarrower": 24354,
    "Ġgranted": 22810,
    "gates": 20874,
    "leton": 5148,
    "ĠlinnÃ¦us": 15279,
    "Ġdeny": 7488,
    "Ġbackbones": 22664,
    "engagement": 14462,
    "Ġadvis": 9810,
    "Ġillness": 8593,
    "luck": 5733,
    "Ġinsensible": 12329,
    "Ġsuddenly": 2647,
    "Ġpours": 17914,
    "Ġaverred": 18866,
    "Ġequator": 7462,
    "Ġconfeder": 25708,
    ";--": 8069,
    "metallic": 19882,
    "photograph": 16157,
    "Ġbart": 17859,
    "Ġforbearing": 25101,
    "Ġupstairs": 5837,
    "Ġcovariate": 2351,
    "render": 10293,
    "Ġway": 1087,
    "Ġwalton": 14975,
    "ctions": 952,
    "re": 266,
    "Ġglaring": 11912,
    "Ġcorrected": 10450,
    "Ġthre": 2058,
    "Ġstudying": 9852,
    "mises": 20980,
    "Ġcured": 21350,
    "Ġanimals": 8981,
    "bene": 6114,
    "appalling": 22846,
    "end": 503,
    "isure": 6242,
    "Ġsnatches": 16547,
    "Ġmultitud": 18750,
    "Ġpupils": 20424,
    "Ġill": 2193,
    "Ġbass": 17857,
    "Ġcrowding": 13284,
    "omach": 11640,
    "(": 12,
    "Ġstreets": 5865,
    "Ġwept": 7184,
    "Ġbaff": 10801,
    "Ġhaven": 8476,
    "Ġdin": 3626,
    "gage": 13726,
    "tot": 10730,
    "Ġledger": 19405,
    "avast": 8900,
    "Ġunflinching": 26514,
    "transformer": 25018,
    "ognit": 19206,
    "Ġjour": 11768,
    "Ġprosperity": 20260,
    "Ġkra": 18349,
    "beholding": 16043,
    "Ġcosmetic": 23473,
    "lucas": 15155,
    "Ġdependen": 1830,
    "Ġtambourine": 9567,
    "fit": 6648,
    "Ġfate": 4755,
    "Ġbelong": 3887,
    "Ġexpansion": 22627,
    "Ġrelig": 8553,
    "Ġsons": 10768,
    "Ġconception": 10316,
    "limin": 8384,
    "Ġtestified": 16336,
    "rels": 6667,
    "Ġlucky": 7759,
    "Ġamel": 18511,
    "Ġ30": 10514,
    "Ġnicely": 8712,
    "riving": 21935,
    "vocabulary": 25088,
    "Ġbreathed": 11222,
    "Ġpreservation": 24631,
    "Â£": 4813,
    "gratulation": 24349,
    "eteenth": 20160,
    "devoted": 20020,
    "ss": 396,
    "Ġaux": 21202,
    "Ġirritated": 17244,
    "Ġoverladen": 22370,
    "protection": 19922,
    "Ġstoop": 16314,
    "abil": 2007,
    "Ġescort": 23507,
    "Ġindul": 5858,
    "Ġcountenances": 11969,
    "Ġlapl": 19780,
    "Ġbravest": 23844,
    "Ġoffic": 3188,
    "asing": 5913,
    "fine": 10093,
    "Ġgravely": 7883,
    "Ġexhale": 24402,
    "Ġpowers": 5419,
    "animated": 14978,
    "ige": 12685,
    "scissors": 20729,
    "Ġsprawling": 22143,
    "handkerchief": 14620,
    "Ġaroused": 15898,
    "Ġplacid": 11830,
    "ribut": 816,
    "franch": 24286,
    "Ġfounder": 17885,
    "Ġprophets": 20453,
    "swallowed": 14856,
    "Ġrepublic": 14533,
    "Ġmem": 2164,
    "Ġrobbed": 23018,
    "Ġseries": 7062,
    "Ġflavor": 16256,
    "Ġzeros": 3323,
    "Ġtimbers": 14842,
    "Ġdisplaying": 16968,
    "stumps": 21656,
    "Ġequality": 16365,
    "achines": 1723,
    "Ġvolition": 14801,
    "Ġdelicately": 24128,
    "notches": 22753,
    "ager": 6548,
    "Ġdetail": 635,
    "afterwards": 7484,
    "Ġhopeless": 7463,
    "attacked": 23124,
    "Ġcubs": 20090,
    "Ġclimax": 25054,
    "Ġplaced": 3442,
    "Ġoverflowing": 17240,
    "onial": 11569,
    "Ġgrotes": 19566,
    "Ġsammy": 24933,
    "endured": 22231,
    "room": 2179,
    "Ġsequential": 2132,
    "Ġrods": 9757,
    "Ġfreezing": 23886,
    "Ġextract": 1497,
    "gloomy": 25147,
    "Ġ177": 13416,
    "puff": 21024,
    "cig": 17506,
    "caught": 8730,
    "actory": 8911,
    "affair": 14657,
    "Ġ131": 24781,
    "Ġmultitudinous": 26275,
    "Ġattack": 5478,
    "Ġtelling": 5747,
    "Ġrope": 4342,
    "Ġshift": 2281,
    "wag": 21126,
    "huzza": 20915,
    "Ġspacious": 18313,
    "avings": 12027,
    "Ġeuroclydon": 15300,
    "limp": 20954,
    "Ġwhiteness": 5920,
    "Ġpitied": 14694,
    "Ġstacks": 18077,
    "Ġrepose": 6743,
    "icable": 6389,
    "seaman": 25458,
    "Ġbland": 11066,
    "Ġindisc": 16231,
    "Ġgabriel": 7596,
    "uit": 8393,
    "derstand": 638,
    "left": 6976,
    "bon": 13688,
    "Ġjewelled": 20186,
    "awake": 14455,
    "whims": 22243,
    "ntax": 934,
    "doom": 23380,
    "Ġknock": 9976,
    "Ġinterrupting": 19560,
    "Ġrings": 11703,
    "Ġintent": 6410,
    "Ġsympathised": 14865,
    "Ġfishy": 16525,
    "Ġarchitects": 18740,
    "scratch": 26046,
    "Ġnick": 21526,
    "Ġhim": 476,
    "Ġhappen": 5571,
    "conquerable": 17402,
    "elson": 16377,
    "Ġtrous": 10962,
    "Ġpreferred": 14969,
    "Ġtremendous": 8353,
    "rec": 6005,
    "vedale": 22711,
    "Ġfairer": 20465,
    "Ę": 217,
    "Ġcloser": 8663,
    "borrowed": 20794,
    "..": 5783,
    "separation": 25227,
    "expressive": 24307,
    "ornamented": 26597,
    "seeking": 17155,
    "strikes": 24671,
    "Ġsing": 3075,
    "geon": 6272,
    "evidence": 25522,
    "Ġca": 21342,
    "ineer": 11706,
    "Ġindispensable": 11905,
    "Ġexploitation": 2348,
    "Ġst": 332,
    "web": 18665,
    "Ġbreast": 8971,
    "Ġrescued": 24209,
    "Ġack": 5622,
    "Ġstrongly": 5657,
    "Ġmilliner": 19886,
    "Ġnose": 4406,
    "Ġphrase": 11189,
    "extrem": 18709,
    "Ġindepend": 3669,
    "Ġincalculable": 17463,
    "Ġimperial": 9484,
    "Ġengagements": 9981,
    "Ġa": 263,
    "Ġbounding": 19403,
    "Ġturtle": 4206,
    "dri": 5889,
    "ought": 830,
    "Ġfacil": 16964,
    "Ġdirt": 15598,
    "tumbled": 21093,
    "Ġboldly": 9504,
    "Ġboston": 22642,
    "Ġwrinkles": 8574,
    "Ġunresting": 25554,
    "Ġfascinated": 25636,
    "Ġlinguistic": 12429,
    "Ġgrand": 3594,
    "Ġparticle": 18672,
    "Ġscalable": 1592,
    "Ġcrying": 10788,
    "Ġimpenit": 22392,
    "objections": 19918,
    "admit": 18093,
    "hurriedly": 25511,
    "charming": 15710,
    "guinea": 16675,
    "Ġengland": 3858,
    "Ġtrading": 23081,
    "Ġstirring": 10582,
    "accusations": 23601,
    "sighted": 19788,
    "Ġconfessed": 8009,
    "Ġwis": 3729,
    "Ġlovel": 10274,
    "rabbit": 20594,
    "ament": 2438,
    "Ġsickle": 24248,
    "xt": 2081,
    "Ġharriet": 24573,
    "Ġseconds": 16394,
    "Ġsofa": 10271,
    "Ġquickly": 4244,
    "Ġfamine": 16331,
    "qual": 8157,
    "/": 19,
    "Ġadler": 8174,
    "Ġpeaks": 16132,
    "Ġforth": 3460,
    "Ġsax": 10931,
    "Ġalleghan": 25796,
    "Ġsafely": 9028,
    "app": 1042,
    "morning": 4860,
    "approaching": 15014,
    "âĢĶâĢĿ": 3298,
    "Ġtaken": 2527,
    "Ġfleshy": 24615,
    "Ġeccentric": 13653,
    "ortations": 22262,
    "Ġcr": 2149,
    "doublo": 24661,
    "Ġwhir": 6394,
    "ild": 1156,
    "vint": 21117,
    "Ġwreat": 15534,
    "Ġagree": 7647,
    "Ġgaining": 9495,
    "Ġflattering": 13034,
    "shone": 22457,
    "Ġtwos": 18658,
    "Ġtar": 2561,
    "vius": 23544,
    "upp": 10133,
    "tremendous": 20676,
    "regard": 7973,
    "cept": 551,
    "Ġunfelt": 24113,
    "Ġstarboard": 7605,
    "Ġhappiness": 2947,
    "replied": 11568,
    "risonment": 17378,
    "ersed": 10262,
    "aint": 2540,
    "/`)": 13664,
    "Ġconviction": 6328,
    "Ġfri": 17880,
    "catch": 17509,
    "Ġintrusted": 21996,
    "Ġbillow": 14784,
    "rapid": 12675,
    "vial": 17699,
    "buff": 15322,
    "iners": 4937,
    "Ġsashes": 21228,
    "devil": 7895,
    "medical": 23346,
    "Ġconfide": 13103,
    "assure": 9272,
    "Ġis": 347,
    "gaze": 17559,
    "Ġrenewing": 19813,
    "Ġonto": 14034,
    "Ġevid": 3499,
    "ashion": 3860,
    "Ġwives": 12560,
    "Ġcorresponds": 19824,
    "apsed": 6297,
    "Ġremains": 4911,
    "propriety": 14375,
    "Ġconditions": 8307,
    "Ġsiam": 13841,
    "Ġpaternal": 16361,
    "ferences": 10329,
    "Ġfluctuations": 5516,
    "Ġdiscourse": 9801,
    "toss": 22570,
    "favouring": 24761,
    "mur": 5428,
    "Ġtarshish": 12033,
    "Ġimprovement": 7966,
    "Ġheads": 3741,
    "Ġdiab": 10614,
    "Ġintim": 6838,
    "Ġmeanly": 12914,
    "Ġadvertised": 17250,
    "simp": 17667,
    "Ġbreakfast": 3977,
    "Ġdeep": 812,
    "Ġnursed": 16887,
    "Ġaddition": 1149,
    "iger": 8448,
    "wondrous": 12342,
    "Ġterrified": 14674,
    "Ġconsec": 21809,
    "Ġvex": 5950,
    "Ġdepresses": 25798,
    "corn": 13703,
    "Ġadmirer": 16840,
    "Ġret": 1380,
    "pets": 17638,
    "Ġsab": 10764,
    "Ġdistorted": 14252,
    "Ġjust": 1239,
    "Ġshudderings": 25201,
    "beth": 13692,
    "Ġunctuous": 10269,
    "dle": 3304,
    "Ġjacket": 6490,
    "iftings": 23225,
    "Ġmist": 2878,
    "Ġreneg": 21678,
    "promising": 24725,
    "Ġfunction": 582,
    "Ġbent": 5149,
    "Ġgibberish": 25787,
    "Ġbolts": 16945,
    "scrape": 25699,
    "Ġproves": 14041,
    "Ġdependency": 3486,
    "linen": 25258,
    "belongs": 25597,
    "Ġoppressively": 25711,
    "Ġimpatient": 5603,
    "Ġfound": 1244,
    "Ġshares": 23249,
    "dishon": 20407,
    "Ġagain": 814,
    "Ġgrows": 4985,
    "favour": 9552,
    "Ġintending": 11709,
    "tor": 15435,
    "max": 1686,
    "likely": 9026,
    "Ġmeryton": 4441,
    "Ġvariants": 1792,
    "Ġsport": 6690,
    "warrior": 24797,
    "Ġnash": 5820,
    "Ġcomput": 605,
    "Ġbildad": 3784,
    "cription": 20820,
    "Ġhelmeted": 19691,
    "Ġimportance": 4901,
    "Ġdebt": 12172,
    "Ġintensified": 17020,
    "Ġslaves": 23171,
    "Ġhire": 21488,
    "Ġrealities": 18983,
    "Ġrecklessness": 24744,
    "ization": 488,
    "belong": 12127,
    "Ġvapor": 8703,
    "Ġod": 4442,
    "Ġclattered": 22357,
    "G": 43,
    "Ġwrench": 12562,
    "Ġhey": 11644,
    "Ġhistor": 3390,
    "Ġmeanings": 18608,
    "designated": 26320,
    "Ġhig": 754,
    "54": 15303,
    "Ġugliness": 20430,
    "Ġdiffidence": 14661,
    "Ġincurable": 22556,
    "enchant": 21286,
    "Ġgener": 588,
    "Ġprivileges": 25135,
    "Ġvulgarity": 25364,
    "eks": 4729,
    "achel": 7034,
    "poor": 6062,
    "departure": 15238,
    "Ġenchanting": 17040,
    "rugged": 6849,
    "Ġhired": 10180,
    "rocket": 13947,
    "uous": 4146,
    "reclining": 20577,
    "deploy": 22146,
    "Ġlouis": 8357,
    "claimed": 9839,
    "Ġraiment": 22655,
    "tasted": 17689,
    "itive": 6671,
    "sleet": 20152,
    "Ġgeological": 14535,
    "Ġreversed": 15701,
    "Ġactively": 18655,
    "gy": 2096,
    "Ġtract": 21168,
    "Ġw": 272,
    "salesman": 20674,
    "Ġpages": 15612,
    "Ġrelating": 2705,
    "Ġbrist": 14381,
    "Ġphantom": 8710,
    "form": 498,
    "Ġ----": 7146,
    "after": 2898,
    "Ġofficial": 7083,
    "Ġresol": 2666,
    "Ġattics": 22630,
    "Ġlime": 13951,
    "represent": 9640,
    "phia": 22779,
    "Ġwoman": 2388,
    "Ġwitness": 4623,
    "enances": 10156,
    "s": 87,
    "accessible": 13643,
    "cur": 3270,
    "Ġemperor": 15162,
    "Ġrheum": 18215,
    "Ġathirst": 20601,
    "Ġoozy": 21330,
    "oline": 6834,
    "Ġblinds": 8007,
    "Ġbutts": 15859,
    "pull": 6797,
    "Ġgodson": 23361,
    "!âĢĿâĢĶ": 8535,
    "Ġimpunity": 14219,
    "Ġpoising": 22594,
    "Ġmood": 6278,
    "Ġnorms": 3667,
    "Ġchange": 1994,
    "Ġstrenuously": 17451,
    "urpr": 2286,
    "ators": 7829,
    "Ġtrying": 4840,
    "Ġforeseeing": 23451,
    "Ġadorn": 12795,
    "umes": 10919,
    "disposition": 10045,
    "Ġswam": 6449,
    "Ġblaze": 16223,
    "Ġmuff": 8114,
    "Ġpike": 12628,
    "Ġbitt": 10798,
    "bottle": 20148,
    "Ġnorm": 763,
    "Ġbriskly": 25312,
    "te": 995,
    "Ġcivilised": 24247,
    "Ġsurpassing": 20471,
    "tom": 15438,
    "Ġrevolutionized": 3366,
    "pond": 21015,
    "appe": 2946,
    "bing": 7792,
    "Ġrelated": 3716,
    "plex": 708,
    "mer": 2834,
    "Ġfather": 1450,
    "inkling": 16094,
    "Ġincreasingly": 9374,
    "Ġteased": 18803,
    "nelson": 25621,
    "befall": 22498,
    "Ġscarcity": 23830,
    "Ġpresuming": 16795,
    "prejudice": 25572,
    "Ġgrenadier": 21619,
    "Ġsuspending": 19246,
    "Ġstil": 15722,
    "Ġengraved": 17082,
    "Ġsheet": 6264,
    "sequence": 2856,
    "caps": 20809,
    "Ġgenerously": 22403,
    "osure": 5308,
    "Ġbrill": 8552,
    "Ġundertaking": 8577,
    "nt": 921,
    "skirted": 24489,
    "Ġjavel": 17085,
    "arb": 1561,
    "Ġmorass": 22974,
    "Ġmanx": 7905,
    "Ġcasks": 7521,
    "Ġmethinks": 10395,
    "Ġinvol": 1019,
    "iate": 6506,
    "Ġawful": 6201,
    "chairs": 21696,
    "Ġwr": 1542,
    "until": 6598,
    "Ġuntamed": 19166,
    "Ġhellish": 10553,
    "Ġseverest": 14094,
    "Ġburgled": 23655,
    "Ġmonarchs": 25851,
    "Ġbrushed": 15575,
    "Ġtobacc": 7853,
    "aned": 5147,
    "iny": 4297,
    "etch": 9207,
    "Ġworst": 7444,
    "Ġheard": 1400,
    "Ġlimited": 23547,
    "urity": 8143,
    "kish": 20936,
    "Ġalle": 11669,
    "Ġcrushing": 20179,
    "Ġamiss": 18513,
    "Ġfurnaces": 24008,
    "doms": 20837,
    "Ġhandsomer": 20336,
    "Ġfed": 5530,
    "iciously": 17976,
    "races": 21633,
    "Ġforgetting": 3433,
    "Ġclosing": 11776,
    "emic": 18182,
    "Ġbrought": 2516,
    "Ġfob": 21412,
    "Ġrefuge": 8542,
    "ceremony": 20593,
    "cab": 7333,
    "Ġbos": 4876,
    "Ġquaint": 18466,
    "over": 1848,
    "Ġemploy": 3616,
    "preserver": 20216,
    "west": 10741,
    "tailed": 17687,
    "were": 2556,
    "Ġpolitic": 23620,
    "Ġcomplacency": 19451,
    "Ġassumpt": 5415,
    "inserted": 18889,
    "izarre": 17392,
    "lit": 9608,
    "Ġvigorous": 10569,
    "Ġpraise": 6487,
    "Ġstrictly": 12289,
    "Ġmurderer": 4980,
    "Ġbuffalo": 11431,
    "appeared": 4285,
    "Ġtasks": 1789,
    "ille": 9222,
    "Ġbier": 22763,
    "Ġfrog": 23925,
    "yard": 5901,
    "Ġ29": 23732,
    "ers": 405,
    "Ġbathing": 20202,
    "ease": 12462,
    "Ġexamined": 6336,
    "solving": 3101,
    "Ġprograms": 7239,
    "Ġdelightful": 6322,
    "Ġsealed": 15822,
    "Ġparamore": 22126,
    "touched": 15442,
    "Ġswap": 23055,
    "Ġcav": 13883,
    "Ġphyseter": 26588,
    "lu": 596,
    "outside": 12809,
    "inions": 8403,
    "Ġhospitable": 17060,
    "slo": 17658,
    "Ġterror": 5124,
    "stories": 18023,
    "told": 7811,
    "reported": 24493,
    "Ġkindred": 16381,
    "ker": 5792,
    "Ġtuck": 10143,
    "Ġvisits": 8223,
    "Ġinfamous": 16371,
    "ades": 5631,
    "90": 12436,
    "Ġcaut": 6522,
    "balls": 12309,
    "Ġplate": 8902,
    "Ġconsist": 1933,
    "Ġstaves": 21744,
    "Ġpooh": 18604,
    "Ġtruce": 24118,
    "Ġsooty": 25816,
    "Ġnursery": 19753,
    "Ġpuffing": 12259,
    "Ġbreak": 2869,
    "Ġdiscoveries": 13363,
    "ocris": 23711,
    "Ġmr": 661,
    "Ġtrembled": 8705,
    "Ġtru": 4108,
    "Ġunluck": 8487,
    "Ġdishonor": 25602,
    "Ġble": 5223,
    "Ġboth": 1658,
    "Ġactor": 16053,
    "Ġdegenerating": 25800,
    "Ġvillages": 14752,
    "ry": 807,
    "eat": 11485,
    "Ġdair": 17891,
    "94": 4804,
    "Ġreciproc": 20625,
    "Ġsucc": 12790,
    "Ġpyth": 21464,
    "Ġperfume": 25666,
    "unted": 6999,
    "Ġnormalizing": 1823,
    "Ġdist": 679,
    "Ġfit": 3685,
    "Ġcrane": 23439,
    "ab": 345,
    "footed": 19692,
    "Ġtimidly": 11340,
    "Ġdivert": 23595,
    "ional": 1085,
    "Ġslippery": 12171,
    "reproach": 15190,
    "sings": 4255,
    "Ġpresumption": 10548,
    "Ġfitting": 21411,
    "terbury": 21828,
    "Ġheadstrong": 14391,
    "Ġranges": 2885,
    "ists": 4002,
    "Ġif": 698,
    "Ġleg": 2336,
    "inquiry": 15146,
    "cloth": 11941,
    "Ġvisiting": 10360,
    "Ġwal": 6518,
    "comparatively": 25841,
    "rever": 21238,
    "nowadays": 22342,
    "Ġcommod": 10336,
    "Ġforms": 6398,
    "Ġspoke": 2747,
    "Ġunderstand": 829,
    "ronted": 14880,
    "Ġtongs": 9964,
    "parameter": 3142,
    "Ġtheories": 13852,
    "Ġarrive": 6907,
    "gown": 9599,
    "Ġdictating": 20155,
    "Ġcounties": 23307,
    "isles": 15568,
    "Ġbrig": 11049,
    "Ġla": 5914,
    "ascribed": 24707,
    "winding": 16722,
    "Ġbarbed": 14838,
    "hurt": 19880,
    "entrance": 12662,
    "Ġcivilized": 8668,
    "Ġequal": 4137,
    "Ġsuperstitious": 13523,
    "Ġalone": 2564,
    "scenes": 16249,
    "Ġdifficult": 3573,
    "dense": 18716,
    "stock": 13227,
    "Ġdri": 2364,
    "Ġsystematic": 5245,
    "Ġswell": 8952,
    "sign": 8388,
    "Ġ31": 12135,
    "Ġparis": 8179,
    "Ġ73": 24263,
    "Ġsquared": 1381,
    "fulness": 4313,
    "touch": 8392,
    "consp": 18508,
    "Ġlive": 2735,
    "Ġspool": 24803,
    "Ġprized": 23220,
    "Ġfielding": 16237,
    "will": 1969,
    "dom": 6224,
    "idence": 4305,
    "Ġfrench": 4939,
    "Ġconfirm": 9859,
    "pocket": 9814,
    "talking": 10010,
    "pronounced": 12350,
    "Ġcannibals": 10590,
    "Ġhavoc": 15817,
    "sigma": 3004,
    "Ġmounts": 17808,
    "gus": 13728,
    "Ġeggs": 12346,
    "Ġshe": 466,
    "Ġsundial": 15086,
    "Ġvery": 636,
    "confirmation": 26090,
    "Ġ1836": 25721,
    "pointing": 12229,
    "Ġplaster": 16087,
    "peasant": 23114,
    "ithing": 11652,
    "Ġhyp": 3874,
    "Ġabsurd": 7202,
    "Ġarri": 2551,
    "Ġbows": 4084,
    "Ġobservation": 6599,
    "Ġtrusted": 10520,
    "irious": 15790,
    "Ġexceeding": 1576,
    "Ġ1950": 11361,
    "Ġhurry": 4914,
    "Ġharpooning": 23982,
    "Ġconcoct": 19049,
    "Ġphysical": 7522,
    "Ġshipmates": 6722,
    "illes": 12699,
    "oin": 17619,
    "urg": 8142,
    "arrange": 23768,
    "Ġcontemplation": 11359,
    "ales": 3315,
    "Ġwearisome": 19798,
    "ishe": 13894,
    "Ġtahiti": 13623,
    "Ġinmates": 15627,
    "Ġfret": 10808,
    "apolog": 22336,
    "Ġmuse": 13863,
    "Ġrum": 5925,
    "Ġwantest": 18792,
    "ounted": 5030,
    "Ġcetology": 10012,
    "atically": 2587,
    "Ġreverber": 19871,
    "discovering": 24254,
    "omely": 21662,
    "Ġtidy": 17094,
    "Ġimmeas": 18331,
    "Ġwholly": 4450,
    "oqu": 7555,
    "Ġdrag": 6186,
    "Ġgrie": 3585,
    "Ġgermans": 25785,
    "Ġquar": 3114,
    "Ġcrutch": 23446,
    "Ġviol": 2070,
    "Ġplainer": 23704,
    "exper": 8882,
    "Ġpointing": 5661,
    "ere": 6790,
    "Ġscruple": 25051,
    "Ġjub": 22299,
    "Ġstomach": 11656,
    "Ġsuns": 23277,
    "Ġmoments": 4847,
    "baby": 25516,
    "Ġremarked": 3696,
    "caroline": 24152,
    "icken": 6713,
    "dogs": 25403,
    "Ġimputable": 22177,
    "Ġcalf": 16271,
    "strained": 21655,
    "```": 25894,
    "ambition": 13415,
    "lived": 12491,
    "Ġrecounted": 22739,
    "Ġrational": 8482,
    "uced": 13803,
    "Ġsplit": 7993,
    "Ġrefreshing": 20267,
    "Ġinsinuating": 19273,
    "]": 65,
    "Ġscolding": 15204,
    "fork": 20859,
    "Ġabstracted": 17185,
    "assemblies": 25957,
    "Ġsimpleton": 16339,
    "Ġsim": 734,
    "Ġwail": 21289,
    "._": 3222,
    "comes": 5394,
    "Ġstudies": 7956,
    "weeks": 14319,
    "anim": 6523,
    "Ġhailing": 11697,
    "Ġparamet": 610,
    "Ġunconquerable": 22065,
    "Ġcomparison": 7101,
    "Ġdrove": 4984,
    "Ġexe": 3996,
    "Ġgift": 10842,
    "bowsprit": 16855,
    "Ġexerting": 21836,
    "Ġunlocked": 14123,
    "Ġimpelled": 11786,
    "Ġhammers": 13245,
    "Ġresolve": 13174,
    "gaff": 20884,
    "Ġskil": 14355,
    "Ġblue": 3452,
    "Ġvastly": 23863,
    "Ġgloried": 22985,
    "Ġfrocks": 23926,
    "usually": 10288,
    "creator": 26383,
    "Ġcritically": 23445,
    "enemy": 15530,
    "Ġshipwrecked": 25688,
    "Ġoccas": 2703,
    "Ġhampshire": 15246,
    "Ġadequately": 15202,
    "Ġrally": 21972,
    "Ġbehav": 3540,
    "Ġwretched": 4082,
    "jub": 20931,
    "Ġnewspaper": 12368,
    "suffer": 24329,
    "second": 6545,
    "Ġdexter": 9704,
    "Ġfre": 1567,
    "agery": 21911,
    "opÃ¦": 12876,
    "Ġpeculiarity": 12938,
    "ina": 21182,
    "rades": 8592,
    "Ġdread": 3164,
    "hro": 20893,
    "fairly": 17222,
    "shel": 11934,
    "Ġvalu": 5039,
    "Ġpo": 737,
    ":âĢĶ": 4435,
    "aring": 1476,
    "Ġlounged": 19957,
    "Ġmaking": 1780,
    "loaded": 22516,
    "Ġconjured": 25102,
    "ury": 3310,
    "Ġseventh": 18207,
    "barbar": 20241,
    "Ġ97": 19777,
    "trucks": 25420,
    "Ġbloodshot": 23802,
    "Ġseat": 4949,
    "stirring": 20429,
    "tart": 21070,
    "Ġhates": 21489,
    "conduct": 11801,
    "Ġmaddened": 17246,
    "Ġpreferment": 19855,
    "Ġbruited": 25774,
    "Ġkrusenstern": 26379,
    "Ġdiagon": 24739,
    "ves": 689,
    "Ġconver": 806,
    "interrupted": 11419,
    "Ġdisgu": 8206,
    "Ġatonement": 21946,
    "_.,": 14564,
    "Ġengravings": 15069,
    "pression": 10409,
    "Ġcorpora": 26582,
    "Ġprotracted": 19472,
    "Ġsust": 7009,
    "Ġcontents": 7210,
    "Ġgently": 7172,
    "Ġnut": 12651,
    "Ġespe": 21158,
    "Ġmourn": 8707,
    "icates": 11620,
    "commend": 19996,
    "Ġsurmisings": 26595,
    "Ġfame": 21409,
    "reply": 19725,
    "bled": 5469,
    "rab": 7597,
    "Ġundoubtedly": 8313,
    "Ġstro": 4597,
    "ux": 7813,
    "Ġrelief": 6061,
    "Ġfrightens": 24034,
    "Ġestimable": 23875,
    "whenever": 11885,
    "Ġring": 4455,
    "Ġthirteen": 15278,
    "Ġhelplessly": 20081,
    "boiling": 19001,
    "Ġardu": 22182,
    "Ġmutters": 23959,
    "preserve": 25304,
    "Ġsocietal": 11438,
    "Ġperform": 1037,
    "Ġer": 8105,
    "Ġnewcomer": 26041,
    "Ġweap": 6157,
    "tical": 10131,
    "Ġsur": 2183,
    "Ġdemoniac": 15068,
    "Ġernest": 8720,
    "orum": 12595,
    "sen": 21052,
    "pus": 3414,
    "itatingly": 25278,
    "claim": 9838,
    "eyed": 11489,
    "Ġfive": 2837,
    "progra": 9398,
    "Ġformer": 3321,
    "Ġathe": 17743,
    "Ġenticing": 22745,
    "Ġcough": 11584,
    "late": 11501,
    "kl": 4866,
    "Ġinvoking": 19147,
    "Ġsymbol": 7717,
    "Ġfettered": 24569,
    "Ġsavory": 23879,
    "osal": 11763,
    "Ġgreek": 10633,
    "Ġsorting": 3236,
    "mast": 3603,
    "attentions": 13578,
    "ĠĠĠĠĠĠ": 6415,
    "Ġbrook": 13053,
    "ivery": 17574,
    "converse": 22483,
    "Ġwhirling": 12253,
    "Ġfine": 1317,
    "ruff": 15901,
    "Ġretrogress": 23076,
    "Ġcoachman": 15002,
    "Ġoffices": 14340,
    "Ġsamples": 2964,
    "Ġscheming": 23273,
    "allowance": 16826,
    "Ġdotted": 16794,
    "Ġsemicircular": 26069,
    "Ġcalled": 1973,
    "Ġwrite": 3823,
    "Ġtrapped": 23079,
    "thr": 12765,
    "Ġpoul": 15617,
    "enter": 7858,
    "spouter": 22735,
    "Ġsm": 704,
    "Ġwad": 13854,
    "Ġuppermost": 15282,
    "@": 36,
    "Ġabsent": 7016,
    "lested": 14886,
    "Ġsublime": 8066,
    "during": 6788,
    "Ġcreator": 7255,
    "Ġsanity": 24982,
    "Ġstun": 11653,
    "Ġpulled": 5660,
    "oes": 4437,
    "humour": 7498,
    "Ġcottagers": 6762,
    "Ġgaunt": 11270,
    "Ġexhibit": 14959,
    "Ġple": 1468,
    "Ġthough": 991,
    "Ġbawling": 25946,
    "Ġmanaging": 22329,
    "Ġalternately": 15034,
    "prints": 23816,
    "iters": 21332,
    "roofed": 26185,
    "Ġrenowned": 26195,
    "Ġtug": 11553,
    "whilst": 18372,
    "Ġobsequ": 14323,
    "ishing": 1146,
    "Ġdiabolically": 25514,
    "Ġprecipitous": 24836,
    "ohn": 4563,
    "Ġintens": 7004,
    "ourney": 3555,
    "unless": 9238,
    "Ġincompatible": 25681,
    "threadbare": 25990,
    "Ġindebted": 8711,
    "ays": 6685,
    "Ġdromedary": 17442,
    "Ġvexations": 24610,
    "Ġprotection": 9465,
    "Ġalterations": 19873,
    "Ġwise": 6812,
    "Ġindeed": 1681,
    "Ġhissed": 15793,
    "âĢĶâĢĻâĢĿ": 20067,
    "Ĝ": 221,
    "mering": 12495,
    "Ġtoes": 10831,
    "beside": 19879,
    "Ġidea": 2484,
    "Ġmute": 19419,
    "Ġnameless": 7700,
    "Ġsobs": 14135,
    "Ġconc": 1843,
    "Ġran": 3343,
    "Ġexecuted": 9475,
    "Ġseasonable": 24406,
    "Ġwasting": 12733,
    "Ġberyls": 25776,
    "Ġhalls": 19528,
    "Ġwhalers": 8048,
    "roy": 7854,
    "belonged": 25598,
    "Ġrelates": 12986,
    "Ġlength": 2500,
    "Ġgreenhorn": 23770,
    "daring": 20831,
    "Ġenvelope": 7319,
    "Ġslop": 23164,
    "hunting": 24385,
    "Ġpersistence": 2867,
    "Ġjenny": 20165,
    "retrie": 18926,
    "Ġcompar": 4772,
    "enthus": 17980,
    "pursue": 24976,
    "iability": 20922,
    "ckets": 6843,
    "Ġforecastle": 5495,
    "daugh": 6789,
    "Ġirksome": 13116,
    "Ġcoron": 4467,
    "gracechurch": 24582,
    "Ġeurope": 8062,
    "cating": 20804,
    "Ġimpropri": 14218,
    "Ġreposing": 23364,
    "Ġhilariously": 25451,
    "Ġconsolation": 6210,
    "Ġcrossed": 6070,
    "Ġexempt": 21832,
    "Ġvigilance": 12375,
    "hap": 17561,
    "Ġaudacity": 19884,
    "Ġbenevol": 5963,
    "lasting": 8011,
    "Ġprank": 23218,
    "stand": 623,
    "hercules": 22208,
    "Ġotherwise": 4659,
    "Ġoutsk": 15960,
    "concerns": 24072,
    "Ġprim": 8244,
    "quarters": 24949,
    "Ġbab": 5291,
    "Ġsaxe": 13632,
    "Ġreadability": 2725,
    "concluded": 11245,
    "devouring": 24953,
    "Ġnlp": 3062,
    "Ġpled": 17909,
    "Ġshoot": 11163,
    "sacred": 17030,
    "Ġmarshy": 20221,
    "Ġruin": 6057,
    "lifeless": 24314,
    "eliest": 14750,
    "renadier": 18420,
    "attering": 7419,
    "Ġsenor": 20153,
    "weaving": 18667,
    "alously": 15633,
    "Ġcreases": 22727,
    "?âĢĻ": 2642,
    "top": 4488,
    "edding": 4371,
    "ĠĠĠĠĠĠĠĠĠĠĠĠĠĠĠĠĠ": 22952,
    "bular": 15317,
    "Åĵ": 10746,
    "Ġmalice": 7153,
    "dwelt": 23874,
    "smo": 10128,
    "Ġ64": 24367,
    "Ġfundamentals": 14637,
    "Ġindependently": 4249,
    "Ġwires": 21298,
    "Ġlevi": 3035,
    "distrustful": 26332,
    "Ġtelescope": 17351,
    "Ġoutbreak": 22321,
    "consist": 14819,
    "gences": 20879,
    "Ġblood": 3169,
    "Ġgaze": 6932,
    "batt": 20780,
    "Ġstains": 21745,
    "Ġsu": 432,
    "Ġstretching": 10018,
    "oided": 11511,
    "Ġcontemptuous": 24677,
    "recol": 10153,
    "urpation": 16304,
    "Ġclut": 7642,
    "Ġjonah": 3479,
    "Ġcanopy": 18323,
    "Ġallusions": 10908,
    "Ġtemptation": 8681,
    "Ġagon": 10323,
    "don": 3545,
    "Ġsurvive": 9069,
    "ibly": 2997,
    "bony": 15323,
    "Ġstory": 2903,
    "Ġchoice": 2166,
    "Ġprevents": 2555,
    "ineering": 21985,
    "pen": 1203,
    "univers": 15776,
    "Ġchoosing": 19593,
    "Ġdecaying": 2247,
    "Å": 134,
    "arest": 4006,
    "Ġharshly": 25250,
    "Ġassure": 4422,
    "Ġrelieve": 8224,
    "Ġtested": 23228,
    "insupportable": 21196,
    "Ġaccusation": 22384,
    "Ġsympt": 7014,
    "tier": 12519,
    "Ġbedrooms": 19973,
    "Ġenvironment": 3980,
    "hurst": 19881,
    "Ġdesign": 4134,
    "Ü": 157,
    "anning": 10167,
    "speeches": 25240,
    "Ġnav": 5819,
    "verity": 14004,
    "¶": 119,
    "windlass": 16723,
    "sav": 8097,
    "Ġbrix": 12588,
    "Ġbreadth": 10566,
    "anks": 3918,
    "ology": 1618,
    "procure": 23400,
    "Ġincensed": 18572,
    "laws": 19810,
    "scar": 9819,
    "stud": 8824,
    "ony": 3030,
    "Ġfelt": 1746,
    "ence": 392,
    "Ġfind": 1456,
    "Ġrequisite": 18630,
    "Ġlucy": 17972,
    "Ġpreprocess": 22237,
    "Ġstar": 6024,
    "ip": 553,
    "september": 14039,
    "shri": 14238,
    "Ġtowards": 1728,
    "Ġundiscovered": 18253,
    "Ġidler": 16407,
    "Ġinsip": 19269,
    "Ġhesitated": 10005,
    "!": 5,
    "yielded": 25757,
    "Ġvisitor": 5331,
    "Ġabed": 22269,
    "urements": 18126,
    "specimen": 26607,
    "uge": 4018,
    "¯": 112,
    "waited": 24586,
    "Ġancient": 5443,
    "turn": 4295,
    "Ġjumbled": 22301,
    "pon": 17627,
    "thy": 2936,
    "Ġpractices": 19031,
    "Ġcharacters": 9375,
    "Ġmagnet": 10392,
    "Ġcastors": 23979,
    "Ġloud": 4702,
    "adieu": 26202,
    "those": 4498,
    "Ġhval": 21490,
    "Ġshores": 8852,
    "Ġink": 8807,
    "Ġarms": 3968,
    "pause": 12505,
    "Ġindignity": 18834,
    "boone": 23256,
    "Ġmizen": 17261,
    "henomen": 10497,
    "Ġcring": 15556,
    "Ġtomahawk": 7539,
    "Ġstarted": 4151,
    "Ġspo": 6846,
    "obed": 14449,
    "Ġattended": 5391,
    "Ġregion": 2270,
    "Ġbristol": 14383,
    "Ġlima": 10444,
    "telesc": 22821,
    "Ġbarrier": 16572,
    "rant": 11519,
    "safe": 10057,
    "Ġbeadle": 26486,
    "Ġwarn": 5695,
    "Ġsem": 1878,
    "Ġplague": 11828,
    "Ġsuperiors": 23456,
    "myself": 5113,
    "Ġwaves": 3920,
    "Ġsqualid": 14371,
    "Ġlik": 2522,
    "Ġnew": 1196,
    "Ġmuffled": 10643,
    "Ġcramped": 23533,
    "Ġpool": 5173,
    "Ġarab": 7823,
    "~": 98,
    "Ġcus": 21346,
    "rift": 11522,
    "Ġconvul": 13207,
    "Ġshri": 5375,
    "Ġhorsey": 24252,
    "Ġpair": 5706,
    "heaven": 8053,
    "Ġtormenting": 15108,
    "abashed": 21796,
    "15": 12434,
    "ultural": 22572,
    "Ġembra": 6580,
    "Ġroof": 6566,
    "Ġpredecessor": 26255,
    "patient": 25343,
    "Ġstoper": 14466,
    "Ġsow": 17751,
    "Ġjelly": 22304,
    "Ġstung": 21742,
    "Ġhanded": 8217,
    "Ġbrazier": 26322,
    "Ġsupper": 4667,
    "resist": 8276,
    "Ġair": 1836,
    "iled": 1765,
    "eastern": 17535,
    "stretch": 13979,
    "obtained": 23099,
    "Ġastronomy": 25927,
    "Ġpromises": 10403,
    "jump": 10106,
    "Ġbites": 23745,
    "Ġplays": 12041,
    "ult": 722,
    "embarr": 17295,
    "Ġcanoes": 12810,
    "Ġpist": 12620,
    "loat": 8890,
    "hullo": 17572,
    "Ġcalcul": 3638,
    "sembled": 7263,
    "buffalo": 20566,
    "Ġtrivial": 10145,
    "sudden": 5316,
    "Ġexclude": 19042,
    "argue": 21447,
    "youth": 11879,
    "Ġyoke": 18098,
    "Ġsavag": 19377,
    "cun": 20797,
    "Ġcalmed": 16272,
    "Ġchuckled": 10650,
    "Ġconcent": 8250,
    "backed": 9869,
    "Ġheadland": 22899,
    "·": 120,
    "Ġuns": 15840,
    "presumption": 20445,
    "Ġ100": 14368,
    "Ġaval": 15496,
    "Ġcaulk": 25441,
    "she": 1398,
    "aside": 10194,
    "Ġtended": 21169,
    "Ġunrestrained": 25555,
    "Ġmutable": 23958,
    "dl": 20825,
    "Ġobe": 5801,
    "everlasting": 18774,
    "Ġhogarth": 25781,
    "Ġlewis": 15729,
    "Ġobviously": 16812,
    "Ġcousins": 9918,
    ":âĢĶâĢĺ": 24196,
    "Ġrepro": 7275,
    "Ġslacked": 25189,
    "Ġsensibility": 14515,
    "thodox": 21992,
    "Ġcharmingly": 24224,
    "ividual": 5463,
    "Ġwhatsoever": 18461,
    "stepfather": 19192,
    "Ġmundane": 26431,
    "spell": 22733,
    "Ġanx": 3182,
    "Ġramad": 8530,
    "consuming": 25676,
    "Ġgeography": 23375,
    "Ġsisterly": 16307,
    "urmount": 13998,
    "Ġpalsy": 25779,
    "Ġsevere": 6033,
    "Ġlav": 13953,
    "Ġlawless": 19438,
    "Ġcobbling": 20526,
    "Ġsubmitted": 11875,
    "Ġfloating": 6606,
    "ernation": 8212,
    "Ġobstetrics": 24679,
    "Ġimbalance": 22178,
    "Ġchapel": 9526,
    "exhibited": 18479,
    "directed": 20408,
    "Ġencoun": 4514,
    "Ġcaroline": 7254,
    "Ġopposed": 11190,
    "pers": 4340,
    "Ġclaw": 22355,
    "Ġfeet": 2257,
    "awe": 20767,
    "Ġpile": 8425,
    "venty": 6428,
    "Ġrevolved": 9987,
    "Ġforces": 12707,
    "Ġoftener": 13569,
    "Ġcomplaints": 12269,
    "broker": 13309,
    "Ġhollowly": 24526,
    "Ġ1890": 23900,
    "fastened": 19327,
    "Ġpathetic": 19012,
    "Ġsustain": 10020,
    "Ġsorely": 17259,
    "Ġlimb": 9405,
    "Ġyon": 9696,
    "wrinkles": 16558,
    "Ġairth": 23322,
    "Ġlomb": 21562,
    "Ġlingu": 11617,
    "Ġsomewhat": 4898,
    "Ġastonished": 7089,
    "gentlemanlike": 20005,
    "ception": 6564,
    "grained": 20885,
    "Ġshoulders": 5566,
    "Ġgre": 1578,
    "Ġwrenching": 17326,
    "ouble": 2662,
    "Ġrestore": 9383,
    "Ġabstract": 17184,
    "Ġunappalled": 22067,
    "Ġemployed": 5200,
    "Ġachieves": 4383,
    "Ġobservable": 25129,
    "Ġplunged": 8696,
    "Ġwife": 2588,
    "Ġfierce": 7437,
    "nal": 1901,
    "conversations": 24748,
    "Ġten": 2387,
    "wester": 21141,
    "Ġwarming": 23559,
    "mber": 5850,
    "Ġcombination": 22865,
    "opportunity": 12279,
    "Ġchooses": 13351,
    "Ġalso": 1343,
    "Ġapo": 9633,
    "Ġcarriages": 11100,
    "Ġmystic": 7503,
    "Ġmab": 12565,
    "Ġjolly": 6858,
    "Ġunfit": 14790,
    "treacle": 25151,
    "Ġregularly": 7658,
    "property": 20003,
    "Ġflapp": 23011,
    "Ġhermit": 15861,
    "ways": 1440,
    "Ġinsens": 8277,
    "Ġcobweb": 22587,
    "Ġunprotected": 22069,
    "Ġpreceded": 13432,
    "inative": 15486,
    "sche": 13024,
    "Ġtroublesome": 24005,
    "Ġhymn": 24518,
    "Ġunusual": 6555,
    "Ġothers": 2582,
    "Ġimpress": 6862,
    "Ġcoward": 7156,
    "capitals": 25083,
    "Ġgratifying": 13310,
    "ĠĠĠĠĠĠĠĠĠĠĠĠĠĠĠĠĠĠĠ": 22953,
    "Ġphilosophy": 7105,
    "Ġwhims": 12697,
    "Ġblight": 18819,
    "riumph": 4920,
    "Ġsyrian": 18354,
    "Ġinvisibly": 24814,
    "Ġsisters": 3641,
    "Ġ95": 19776,
    "pha": 22777,
    "Ġsupreme": 13611,
    "Ġbeckoning": 20505,
    "licted": 20958,
    "Ġequals": 4728,
    "suspect": 9543,
    "advancing": 14839,
    "Ġmannish": 26239,
    "Ġspinning": 15055,
    "elstrom": 17984,
    ",âĢĻ": 2329,
    "Ġpreserved": 9265,
    "akers": 9742,
    "Ġsine": 10765,
    "Ġarmitage": 23583,
    "Ġfo": 1654,
    "dr": 6223,
    "Ġwhistles": 24625,
    "Ġmagical": 23102,
    "mastod": 23977,
    "rage": 10845,
    "alth": 3256,
    "loud": 11503,
    "rium": 3133,
    "indifferent": 14211,
    "Ġconstantinople": 19840,
    "Ġreport": 6193,
    "Ġcitadel": 25439,
    "Ġbehave": 23303,
    "Ġgrow": 2860,
    "Ġ44": 16681,
    "Ġwhist": 6023,
    "mus": 10113,
    "rob": 5534,
    "Ġline": 1852,
    "twig": 23699,
    "Ġlookest": 22721,
    "Ġdisturbing": 19949,
    "ician": 21568,
    "Ġtweed": 22680,
    "urously": 18052,
    "porpoise": 16437,
    "Ġexceptions": 13234,
    "Ġleaders": 16630,
    "Ġrealised": 18982,
    "Ġinjurious": 24273,
    "aan": 20766,
    "mph": 20974,
    "Ġsurmises": 17056,
    "Ġsphere": 15886,
    "Ġbiography": 22764,
    "singing": 24363,
    "Ġcaress": 16343,
    "hemat": 3129,
    "Ġreced": 15696,
    "esu": 17903,
    "Ġunsc": 22016,
    "consternation": 16914,
    "Ġroarings": 25303,
    "Ġwarp": 8113,
    "Ġ33": 16678,
    "Ġconverse": 11848,
    "Ġstrugg": 3219,
    "ared": 771,
    "istence": 2303,
    "Ġmissed": 8560,
    "Ġbutterfly": 19912,
    "ac": 741,
    "ĠĠĠĠĠĠĠĠĠĠĠĠĠĠĠĠĠĠĠĠĠĠĠĠĠĠĠ": 14889,
    "chastic": 2335,
    "Ġtossed": 5816,
    "Ġsuperflu": 14555,
    "Ġapartments": 19617,
    "lakeman": 13754,
    "Ġeyelids": 26108,
    "Ġze": 8548,
    "urbed": 15712,
    "Ġsche": 1705,
    "Ġtrifled": 24675,
    "Ġwidely": 8033,
    "Ġlinks": 13958,
    "acies": 14280,
    "Ġhorrify": 23822,
    "diss": 17525,
    "Ġaglow": 22518,
    "Ġopen": 1549,
    "Ġstag": 6150,
    "Ġpang": 15609,
    "grasp": 16433,
    "Ġsong": 5904,
    "Ġcausal": 3410,
    "Ġtight": 8108,
    "Ġnewcom": 16225,
    "moored": 22707,
    "ifted": 4497,
    "acter": 2506,
    "Ġape": 21199,
    "Ġdaily": 5988,
    "Ġunfair": 19510,
    "Ġpoetic": 17104,
    "Ġste": 1387,
    "ainty": 21791,
    "verted": 10220,
    "Ġloathing": 15071,
    "Ġlament": 7857,
    "persecut": 22193,
    "Ġonset": 12716,
    "Ġthirst": 7590,
    "woods": 13423,
    "stained": 21652,
    "Ġinterment": 22578,
    "Ġwounds": 17792,
    "Ġsummary": 19407,
    "Ġparaph": 22124,
    "Ġproposed": 7460,
    "herald": 22209,
    "Ġhelter": 24029,
    "namely": 23674,
    "Ġwherefore": 8527,
    "bourn": 3300,
    "Ġconsisted": 10421,
    "Ġcondescending": 24869,
    "Ġsmelling": 16070,
    "Ġinherited": 25354,
    "Ġclang": 15967,
    "became": 10517,
    "laborers": 23919,
    "Ġeternal": 5977,
    "Ġthen": 665,
    "Ġcolossal": 11461,
    "Ġlad": 2365,
    "Ġstud": 1626,
    "Ġmisunderstand": 18705,
    "Ġapprehending": 26092,
    "moil": 22706,
    "Ġessays": 19747,
    "Ġix": 12673,
    "Ġinaccessible": 13937,
    "iated": 5891,
    "otently": 21804,
    "Ġdismantled": 20219,
    "Ġdominic": 25381,
    "Ġprofit": 14587,
    "Ġdinner": 4247,
    "Ġslaughtered": 26586,
    "Ġscaramouch": 23831,
    "Ġoutside": 5554,
    "Ġvirgin": 7328,
    "Ġmaledictions": 26430,
    "Ġsymmetrical": 20370,
    "without": 4848,
    "Ġofficio": 23819,
    "clings": 23154,
    "Ġsnarl": 25714,
    "Ġabsorbing": 17131,
    "Ġcomfits": 21863,
    "Ġholiest": 18814,
    "impropriety": 21716,
    "Ġattitude": 8907,
    "doubtful": 24790,
    "Ġrailway": 15023,
    "rep": 5525,
    "Ġtipped": 17730,
    "Ġmalacca": 24393,
    "comprehensive": 20629,
    "Ġgrosvenor": 17421,
    "erably": 7573,
    "whispered": 20037,
    "bottom": 11428,
    "port": 10721,
    "custom": 15336,
    "Ġeddy": 13550,
    "Ġfair": 2838,
    "conven": 6164,
    "Ġcarpenter": 4686,
    "Ġsweating": 16465,
    "<": 32,
    "Ġactuated": 18545,
    "Ġplanisphere": 26609,
    "middle": 11312,
    "Ġdespair": 4011,
    "Ġdetailed": 12829,
    "Ġdisliked": 12896,
    "inary": 3274,
    "Ġpreposter": 12827,
    "Ġjanuary": 13657,
    "iod": 3841,
    "Ġgritted": 22808,
    "mild": 15395,
    "esty": 4309,
    "Ġlegit": 16475,
    "low": 655,
    "Ġmysticetus": 24923,
    "Ġpreserve": 7529,
    "iscre": 17852,
    "reluct": 26164,
    "alarm": 15631,
    "Ġsings": 15508,
    "Ġliterary": 25166,
    "Ġsort": 1508,
    "Ġoverhung": 15979,
    "Ġtalking": 3859,
    "Ġhonors": 23603,
    "Ġrandomly": 1919,
    "Ġsaddest": 16665,
    "enesis": 24388,
    "Ġcompl": 3760,
    "Ġlevels": 12703,
    "Ġincome": 7917,
    "connected": 1309,
    "Ġdisquis": 22531,
    "Ġluckily": 16800,
    "needle": 20313,
    "Ġelegant": 7532,
    "iences": 6957,
    "Ġhoary": 23357,
    "Ġexpenses": 11837,
    "useless": 14596,
    "Ġmagnificence": 20635,
    "Ġdoor": 1740,
    "Ġapart": 4747,
    "Ġgibraltar": 25788,
    "jacket": 12296,
    "Ġclasp": 9747,
    "disguise": 26307,
    "Ġjinglers": 26019,
    "Ġwithstand": 10228,
    "Ġwiser": 14733,
    "rodden": 21538,
    "Ġregent": 18598,
    "obviously": 25243,
    "Ġgoverness": 8605,
    "õ": 182,
    "Ġfamily": 1967,
    "Ġintimidated": 24802,
    "Ġtransparen": 10544,
    "Ġ81": 24457,
    "Ġclap": 10960,
    "gay": 11491,
    "recur": 4440,
    "Ġupper": 5090,
    "childhood": 16870,
    "Ġtables": 9881,
    "haut": 20904,
    "Ġmishap": 20579,
    "vens": 21115,
    "Ġphiladel": 23888,
    "shud": 18491,
    "inquir": 9539,
    "Ġput": 1801,
    "cils": 20816,
    "Ġcleat": 18949,
    "Ġ106": 24414,
    "Ġthings": 1963,
    "Ġfi": 936,
    "Ġaltar": 9231,
    "alot": 15630,
    "Ġkeen": 4615,
    "Ġdeliriously": 23231,
    "Ġred": 3006,
    "Ġnails": 12653,
    "Ġmajesty": 5201,
    "Ġpromptly": 23821,
    "Åĵuv": 15186,
    "Ġdesolate": 10016,
    "Ġjewell": 19523,
    "coloured": 7291,
    "Ġstoven": 23177,
    "Ġsciences": 15948,
    "Ġquestion": 2778,
    "Ġdorm": 4823,
    "Ġgleam": 12312,
    "hr": 20890,
    "%": 9,
    "point": 6064,
    "blame": 14797,
    "cord": 8727,
    "answ": 15888,
    "stem": 567,
    "Ġprovided": 6579,
    "Ġm": 274,
    "Ġshin": 18228,
    "companion": 9560,
    "Ġdoze": 14179,
    "Ġpromontory": 11945,
    "Ġhuman": 1318,
    "ellig": 524,
    "Ġbeamed": 23724,
    "lessly": 4558,
    "Ġinjured": 9042,
    "Ġstraggling": 23753,
    "food": 12468,
    "bask": 20778,
    "Ġessence": 13409,
    "Ġgrown": 5628,
    "illating": 22111,
    "Ġwarsaw": 26168,
    "Ġoakshott": 12234,
    "screaming": 20328,
    "scale": 3535,
    "Ġfootmen": 23800,
    "Ġpe": 851,
    "Ġcomforters": 25801,
    "Ġaccompanied": 6781,
    "Ġincredible": 9518,
    "77": 15304,
    "stricken": 9887,
    "Ġdra": 1586,
    "Ġfooting": 14485,
    "Ġsubfield": 11873,
    "exam": 10978,
    "Ġphysiognomy": 25611,
    "Ġringing": 13336,
    "Ġcrept": 11024,
    "Ġflies": 13030,
    "Ġbrazen": 23843,
    "Ġwelcomed": 9485,
    "Ġmes": 17798,
    "bethinking": 25746,
    "Ġwrists": 11115,
    "Ġtriumphantly": 11289,
    "sufferable": 12181,
    "Ġsecured": 6747,
    "prim": 23814,
    "Ġopposing": 12045,
    "Ġchinks": 22255,
    "Ġhav": 12759,
    "however": 4377,
    "ternatural": 12720,
    "Ġtravelled": 7772,
    "rove": 21536,
    "Ġweapon": 7776,
    "Ġafrica": 12349,
    "greater": 13255,
    "Ġslow": 2381,
    "dish": 12457,
    "Ġjove": 9271,
    "Ġabounding": 12348,
    "Ġsacrifice": 9558,
    "Ġmatrices": 4969,
    "plings": 11699,
    "Ġharness": 17930,
    "jumping": 20248,
    "Ġlavenza": 17973,
    "Ġclatter": 22352,
    "Ġhypotheses": 4390,
    "Ġconcerns": 11972,
    "Ġmoluccas": 25630,
    "Ġfamed": 16330,
    "Ġconsecutive": 20705,
    "Ġhog": 13927,
    "Ć": 199,
    "ĠĠĠĠĠĠĠĠĠĠĠĠĠĠĠĠĠĠĠĠĠĠĠĠĠĠĠĠĠĠĠĠĠĠĠĠĠĠĠĠĠĠĠĠĠ": 9955,
    "aples": 20770,
    "asserted": 22313,
    "vess": 7354,
    "Ġpreprocessing": 26538,
    "Ġluff": 15657,
    "sleeve": 26109,
    "Ġdepressions": 25799,
    "Ġeag": 2969,
    "Ġselling": 21227,
    "Ġcontemptuously": 19836,
    "neighboring": 20620,
    "Ġtuning": 3074,
    "osis": 18390,
    "Ġsubmit": 11874,
    "usoid": 4768,
    "quent": 2094,
    "ineas": 15826,
    "fears": 18526,
    "Ġherd": 7888,
    "Ġencouraged": 9358,
    "Ġhairy": 23868,
    "Ġpluck": 15618,
    "Ġbecher": 18881,
    "created": 12455,
    "Ġattempts": 10493,
    "Ġhandles": 22698,
    "Ġcomprehended": 11296,
    "Ġprejudiced": 24806,
    "Ġol": 17816,
    "bran": 23576,
    "Ġungod": 22026,
    "Ġclapped": 9748,
    "Ġdust": 5910,
    "Ġsensit": 2948,
    "unfortunate": 15781,
    "ate": 423,
    "Ġclassify": 1609,
    "horses": 17569,
    "them": 3019,
    "Ġbroadway": 23987,
    "Ġdespised": 14669,
    "Ġtruth": 3318,
    "Ġpersonified": 19180,
    "Ġdom": 2825,
    "Ġeluded": 12927,
    "satisfied": 10581,
    "Ġunallied": 22034,
    "slightest": 25417,
    "Ġhorrid": 7999,
    "Ġconceited": 12096,
    "icating": 15659,
    "Ġsensible": 4976,
    "Ġ75": 19615,
    "cou": 13699,
    "Ġexord": 21831,
    "Ġprofane": 13156,
    "everything": 6326,
    "Ġrendering": 16660,
    "ioneer": 15636,
    "aust": 15313,
    "Ġdiscoursing": 26268,
    "Ġponder": 6819,
    "Ġwronged": 24250,
    "Ġconstru": 19069,
    "99": 1895,
    "inging": 5908,
    "Ġdesirous": 8945,
    "Ġbelieves": 14410,
    "Ġmarked": 4621,
    "Ġtolerably": 8068,
    "ently": 1616,
    "pe": 1435,
    "garet": 9600,
    "Ġcopy": 10166,
    "Ġdict": 9178,
    "ments": 1401,
    "Ġmeas": 1098,
    "octavo": 11387,
    "maybe": 23994,
    "into": 3681,
    "ee": 1662,
    "Ġoutlines": 15961,
    "Ġtill": 1826,
    "Ġexotic": 21835,
    "Ġjurymen": 16849,
    "ę": 218,
    "Ġcharge": 5325,
    "ulating": 10889,
    "Ġsk": 960,
    "getic": 12971,
    "iel": 11496,
    "Ġcomprehensiveness": 25075,
    "Ġwashed": 15769,
    "Ġungovernable": 20711,
    "Ġvehement": 16205,
    "Ġrolling": 5976,
    "Ġpreventing": 883,
    "pread": 7418,
    "Ġbrightest": 13230,
    "Ġsexes": 25172,
    "tling": 9145,
    "almost": 4943,
    "Ġgoin": 18469,
    "Ġgpt": 4354,
    "Ġbended": 21388,
    "anned": 17841,
    "Ġcorp": 5575,
    "Ġreproachfully": 25252,
    "bingleys": 19637,
    "Ġtent": 15470,
    "Ġdraughts": 20224,
    "Ġassum": 4066,
    "Ġgrizzled": 11452,
    "Ġdiverged": 23596,
    "ating": 664,
    "accomplished": 17214,
    "presbyterian": 26370,
[...]
