{
  "metadata": {
    "vocab_size": 26614,
    "algorithm": "BPE",
    "created_at": "2026-06-09 06:08:13",
    "special_tokens": [
      "<PAD>",
      "<SOS>",
      "<EOS>",
      "<UNK>",
      "<MASK>"
    ]
  },
  "vocab": {
    "Ġabund": 8864,
    "Ġchim": 5932,
    "ubl": 3595,
    "Ġdeep": 810,
    "Ġpaternal": 16360,
    "adamite": 20591,
    "Ġfavourites": 16644,
    "steep": 19417,
    "sighted": 19782,
    "Ġpainfully": 13141,
    "Ġindications": 14633,
    "toller": 20671,
    "Ġburst": 4380,
    "Ġdelineate": 26057,
    "comm": 7439,
    "american": 11401,
    "ccas": 15888,
    "Ġscrewing": 20206,
    "Ġbrink": 18770,
    "iating": 3203,
    "Ġfrowning": 13622,
    "ada": 14010,
    "Ġcomputation": 963,
    "Ġgums": 21608,
    "Ġgibraltar": 25787,
    "Ġshake": 6032,
    "Ġboundless": 10495,
    "Ġendwise": 23141,
    "Ġindign": 6173,
    "Ġoffice": 4964,
    "log": 18537,
    "Ġreeled": 13985,
    "Ġwhal": 5454,
    "ges": 2872,
    "Ġwedged": 24071,
    "visual": 24223,
    "Ġtheatre": 21277,
    "zz": 4293,
    "Ġcompre": 4449,
    "Ġtumbling": 13825,
    "hideous": 25407,
    "Ġasser": 6257,
    "gabriel": 15359,
    "evening": 7088,
    "Ġanyways": 22517,
    "dition": 15339,
    "seated": 11672,
    "Ġpuff": 6525,
    "bast": 10076,
    "racted": 4775,
    "Ġrock": 5310,
    ".]": 15297,
    "know": 2318,
    "Ġexquisite": 12380,
    "Ġtroub": 22352,
    "ootiful": 17372,
    "Ġheedfully": 24522,
    "Ġinclination": 6623,
    "fee": 12877,
    "Ġprofounder": 23569,
    "Ġundoubtedly": 8311,
    "tasted": 17687,
    "exceeded": 24999,
    "ctu": 5087,
    "Ġunthink": 18248,
    "Ġstopped": 5955,
    "broker": 13303,
    "Ġarchitecture": 1106,
    "Ġse": 402,
    "egyptians": 25898,
    "emorial": 10243,
    "truck": 15440,
    "Ġrid": 4355,
    "Ġignorance": 6618,
    "Ġwatchman": 23665,
    "Ġbreathe": 9011,
    "Ġdisposal": 19374,
    "Ġexpression": 4515,
    "Ġutmost": 5496,
    "Ġbass": 17856,
    "Ġowes": 20082,
    "Ġmasks": 23326,
    "Ġjaws": 5593,
    "Ġpersisting": 18896,
    "Ġgrat": 4057,
    "iocr": 20922,
    "Ġfallen": 5966,
    "Ġaccomplishments": 13378,
    "held": 3840,
    "Ġcompare": 9301,
    "spiracle": 22734,
    "ppery": 10892,
    "Ġfingertips": 24016,
    "robotics": 11307,
    "Ġlunatic": 24990,
    "Ġrefused": 6715,
    "ments": 1400,
    "bulkington": 19923,
    "Ġneutral": 12738,
    "fury": 17547,
    "Ġfinanc": 23126,
    "beating": 22485,
    "Ġfragments": 19018,
    "Ġtools": 11609,
    "mansion": 20982,
    "00": 1613,
    "Ġfrancis": 26063,
    "Ġluxuries": 25163,
    "Ġwindward": 6885,
    "Ġprize": 11946,
    "Ġinspire": 11994,
    "sun": 7138,
    "¡": 99,
    "oned": 4630,
    "Ġintric": 9245,
    "'m": 9582,
    "Ġmemorable": 16426,
    "wic": 21119,
    "Ġunimag": 12772,
    "Ġmoccas": 22431,
    "Ġforget": 2634,
    "Ġxvi": 19104,
    "Ġvengeful": 14890,
    "Ġroughs": 19954,
    "Ġidentity": 2523,
    "look": 2265,
    "skinned": 25387,
    "Ġnegative": 1464,
    "Ġreappearance": 21664,
    "Ġunimportant": 22027,
    "Ġwail": 21285,
    "skeleton": 17375,
    "Ġphilist": 16601,
    "Ġbenjamin": 26567,
    "umb": 3478,
    "Ġproportion": 7280,
    "duct": 3505,
    "Ġcontrasting": 11154,
    "Ġembarrassed": 11385,
    "stood": 4117,
    "harbor": 13563,
    "Ġcentrally": 23830,
    "rows": 6441,
    "ham": 1698,
    "Ġbehav": 3538,
    "Ġfairer": 20459,
    "Ġinaudible": 21496,
    "Ġheire": 18037,
    "Ġapology": 8326,
    "adr": 6994,
    "prop": 1028,
    "Ġmute": 19414,
    "Ġconsulted": 13429,
    "Ġefforts": 11801,
    "Ġsuccess": 3611,
    "dead": 8178,
    "Ġfaintly": 14915,
    "Ġcircumspection": 25884,
    "Ġchron": 19436,
    "Ġdetained": 18372,
    "Ġmaketh": 15187,
    "Ġmoment": 988,
    "Ġaccumulates": 2888,
    "Ġslam": 13055,
    "Ġher": 427,
    "Ġaccidental": 16848,
    "Ġsprawling": 22136,
    "Ġinvulnerable": 19146,
    "irably": 13294,
    "Ġvalues": 2653,
    "cruet": 17026,
    "Ġpave": 8799,
    "Ġconquer": 14026,
    "Ġshaking": 6550,
    "propagation": 1231,
    "Ġreward": 6144,
    "Ġrese": 2221,
    "Ġmingling": 20195,
    "Ġovers": 14206,
    "Ġmau": 21309,
    "Ġezekiel": 26192,
    "Ġproud": 5654,
    "cutting": 23783,
    "Ġindistinctly": 26117,
    "bergen": 14326,
    "accompanied": 12420,
    "Ġcascade": 20579,
    "opic": 22473,
    "late": 11499,
    "Ġ180": 16606,
    "Ġchose": 7412,
    "Ġpropagating": 20632,
    "oak": 21002,
    "looking": 4032,
    "Ġmarvel": 23035,
    "Ġindepend": 3669,
    "Ġanat": 8122,
    "Ġhob": 12626,
    "admire": 24943,
    "Ġdancing": 5703,
    "Ġterrier": 23398,
    "Ġstart": 3259,
    "fier": 9593,
    "uncommonly": 25549,
    "gallant": 7779,
    "Ġsandwic": 24665,
    "Ġstud": 1598,
    "Ġmassa": 19452,
    "Ġcling": 11770,
    "Ġmig": 13855,
    "Ġ235": 25713,
    "ink": 755,
    "bbing": 6322,
    "tarpaul": 21096,
    "Ġindisp": 18839,
    "saving": 21058,
    "Ġelab": 22640,
    "actory": 8907,
    "leading": 15559,
    "sheep": 23083,
    "Ġscruple": 25048,
    "Ġblindly": 12107,
    "Ġmagician": 25058,
    "un": 373,
    "Ġparac": 12792,
    "asting": 12802,
    "Ġrepublic": 14532,
    "without": 4845,
    "ulgences": 21862,
    "Ġheaths": 25972,
    "ility": 624,
    "Ġloggerhead": 13656,
    "Ġcastors": 23974,
    "Ġscrews": 25177,
    "Ġtoiling": 15632,
    "ientious": 11690,
    "etent": 10199,
    "miseries": 16757,
    "Ġun": 423,
    "Ġimpression": 5732,
    "Ġaerial": 21197,
    "sk": 5521,
    "Ġwer": 12549,
    "gazing": 12469,
    "Ġemergencies": 17361,
    "Ġevident": 6611,
    "vessel": 11378,
    "Ġenigmatical": 20596,
    "Ġadjust": 2157,
    "articulate": 17397,
    "Ġimmeas": 18331,
    "Ġprovided": 6577,
    "Ġsoutherly": 23334,
    "vinegar": 25420,
    "conclusions": 25672,
    "Ġconsisting": 8971,
    "transp": 24513,
    "Ġlining": 13950,
    "Ġbeacon": 21753,
    "collins": 6916,
    "Ġcupboard": 16883,
    "decan": 22140,
    "Ġfowl": 11331,
    "Ġglow": 7169,
    "Ġdiffer": 18676,
    "prec": 3198,
    "Ġhistor": 3392,
    "quent": 2094,
    "Ġartificial": 788,
    "Ġfashions": 17886,
    "Ġdecide": 9286,
    "Ġerad": 25028,
    "susceptible": 24662,
    "Ġbec": 1350,
    "Ġstole": 7951,
    "Ġshetland": 22156,
    "Ġrafters": 22650,
    "Ġsweeping": 8985,
    "ğ": 224,
    "ilege": 22253,
    "Ġseasons": 9429,
    "official": 24914,
    "december": 25558,
    "Ġfasting": 16354,
    "Ġcollected": 2610,
    "Ġwall": 3842,
    "user": 5104,
    "Ġsized": 11563,
    "Ġpore": 21456,
    "Ġislanders": 19500,
    "Ġimagine": 3923,
    "particulars": 11316,
    "Ġpalms": 8643,
    "idirection": 2411,
    "Ġcommun": 1703,
    "Ġchart": 10945,
    "violent": 14581,
    "Ġlent": 21544,
    "Ġfrankenstein": 7094,
    "Ġexp": 781,
    "Ġjew": 9466,
    "bs": 3751,
    "onness": 21253,
    "disgu": 19153,
    "surround": 16758,
    "Ġbutterfly": 19908,
    "Ġbeer": 10219,
    "Ġdimly": 9486,
    "Ġunde": 11711,
    ":--": 5784,
    "valu": 1685,
    "Ġbottle": 7489,
    "Ġsog": 22081,
    "Ġforms": 6396,
    "Ġdetection": 3211,
    "Ġcalifornian": 25851,
    "Ġacquiesce": 20327,
    "Ġrecent": 7435,
    "Ġemotions": 8969,
    "aire": 10680,
    "Ġvag": 9707,
    "Ġslily": 23163,
    "agues": 8159,
    "Ġderanged": 23173,
    "Ġautoregressive": 3433,
    "Ġomitted": 12561,
    "Ġtexel": 25923,
    "libra": 22923,
    "Ġfict": 21403,
    "forgive": 18733,
    "Ġpeace": 3693,
    "ileries": 18059,
    "sicilian": 21062,
    "establish": 17392,
    "Ġweaving": 12737,
    "Ġuncomp": 15839,
    "Ġpaying": 9937,
    "Ġsixth": 16559,
    "Ġprovid": 1005,
    "Ġlob": 7626,
    "subst": 12162,
    "context": 3405,
    "Ġbroiled": 18908,
    "Ġfidel": 12593,
    "Ġfif": 4217,
    "twenty": 6607,
    "Ġliber": 5167,
    "Ġwink": 11569,
    "Ġmutable": 23953,
    "commer": 22809,
    "Ġabsorbed": 12329,
    "otently": 21797,
    "Ġmerrily": 23731,
    "Ġsmiting": 12895,
    "Ġsystems": 828,
    "Ġbruited": 25773,
    "goldsmith": 20145,
    "Ġrevolver": 14900,
    "Ġcoiling": 12902,
    "Ġdemands": 19641,
    "Ġdisdain": 8358,
    "Ġsharks": 4497,
    "terns": 21819,
    "speckled": 23943,
    "Ġconquered": 14025,
    "ience": 802,
    "Ġprognost": 15280,
    "Ġunsavory": 20706,
    "pe": 1437,
    "bern": 20774,
    "studied": 17149,
    "Ġmarvell": 7247,
    "Ġclassical": 22620,
    "uvier": 9068,
    "mystic": 25316,
    "Ġattractions": 12913,
    "Ġwrecks": 16818,
    "dra": 3414,
    "Ġwoes": 23984,
    "marching": 25752,
    "sufficient": 6635,
    "state": 13978,
    "Ġhill": 5626,
    "Ġsage": 17753,
    "upset": 23016,
    "Ġfore": 2155,
    "belais": 24038,
    "mil": 13751,
    "Ġfiled": 15577,
    "pride": 11211,
    "Ġagonizing": 17238,
    "atural": 936,
    "earn": 10696,
    "Ġimmaculate": 19484,
    "Ġheads": 3740,
    "arthly": 8028,
    "Ġtart": 12525,
    "worm": 15452,
    "Ġpartially": 13121,
    "Ġinvest": 4977,
    "oded": 11670,
    "carte": 25400,
    "gave": 7798,
    "Ġdrives": 14579,
    "Ġrasc": 21975,
    "Ġshowed": 4496,
    "Ġidiot": 11970,
    "Ġig": 3500,
    "Ġadv": 1111,
    "Ġcondesc": 7180,
    "Ġspecially": 11996,
    "Ġbreckinridge": 14523,
    "Ġselects": 4385,
    "Ġremedy": 18722,
    "Ġreciprocating": 26369,
    "wreat": 21126,
    "Ġalms": 21777,
    "comfortableness": 24526,
    "Ġfaster": 3194,
    "protested": 13473,
    "Ġdrama": 16328,
    ".âĢĶâĢľ": 20746,
    "impulse": 20644,
    "Ġset": 1176,
    "Ġspence": 22123,
    "main": 8086,
    "necessities": 24307,
    "pled": 7890,
    "Ġdepend": 783,
    "ignific": 11954,
    "summer": 11992,
    "Ġwhist": 6020,
    "Ġdownst": 3557,
    "Ġforbid": 7863,
    "Ġjackets": 19600,
    "Ġdrooping": 9418,
    "Ġindefinite": 17176,
    "Ġneed": 2607,
    "Ġhorizontally": 17012,
    "introduced": 15124,
    "ports": 13773,
    "Ġfitting": 21406,
    "carry": 19525,
    "¢": 100,
    "Ġassociations": 14962,
    "Ġexploding": 2109,
    "Ġnortheast": 23204,
    "Ġimpotent": 18447,
    "Ġomens": 21326,
    "Ġrevolut": 3258,
    "Ġcontrari": 23348,
    "Ġpenn": 11111,
    "augment": 18828,
    "terbury": 21821,
    "noon": 5036,
    "Ġshe": 466,
    "Ġnuptials": 20491,
    "Ġhump": 5853,
    "ellect": 7380,
    "Ġunsounded": 15847,
    "Ġrevellers": 21675,
    "Ġpul": 2041,
    "beside": 19875,
    "Ġpoured": 8800,
    "Ġcarpenter": 4684,
    "Ġadhering": 14140,
    "Ġhesitated": 10001,
    "Ġrhyme": 21979,
    "law": 6115,
    "fred": 20854,
    "Ġgrounds": 6749,
    "stationed": 25453,
    "Ġminuteness": 19138,
    "Ġpest": 13912,
    "Ġenlightened": 12743,
    "Ġde": 363,
    "O": 51,
    "Ġhabits": 6926,
    "saf": 11525,
    "Ġamerican": 5060,
    "Ġencountering": 11270,
    "Ġraising": 8909,
    "Ġforthwith": 16618,
    "ancient": 9655,
    "Ġjost": 23630,
    "clifford": 23154,
    "Ġunsav": 18252,
    "Ġmuzzle": 21319,
    "Ġalready": 2714,
    "forced": 11031,
    "Ġdelicacy": 6339,
    "Ġtried": 3649,
    "Ġinstance": 2545,
    "Ġviolet": 19090,
    "p": 84,
    "decl": 8856,
    "conclusion": 25671,
    "Ġkeeps": 8265,
    "Ġchiefly": 5766,
    "Ġdab": 15585,
    "ifer": 11683,
    "Ġemploys": 19429,
    "Ġforce": 5091,
    "}": 97,
    "mechanically": 17299,
    "australian": 20560,
    "Ġaffirm": 11886,
    "conspicuous": 26247,
    "rested": 13073,
    "Ġcards": 7579,
    "Ġregarding": 13209,
    "ez": 5683,
    "Ġconverted": 16109,
    "cles": 8725,
    "Ġbarbarians": 19585,
    "Ġheedful": 19738,
    "Ġlory": 12649,
    "Ġstandard": 14497,
    "Ġdescried": 7917,
    "Ġalliance": 18236,
    "Ġbordering": 17228,
    "Ġforeshadowing": 26592,
    "Ġweigh": 10893,
    "Ġalexander": 17423,
    "xim": 1089,
    "reast": 17759,
    "Ġabhor": 5467,
    "Ġgr": 977,
    "brown": 15316,
    "Ġblotches": 25314,
    "Ġnecessity": 7295,
    "Ġglancing": 5399,
    "Ġgeological": 14534,
    "Ġhyper": 19737,
    "Ġcoron": 4464,
    "Ġafterwards": 3529,
    "Ġkelson": 18350,
    "Ġwearily": 18178,
    "Ġfrivolous": 26176,
    "Ġjail": 22291,
    "africa": 26308,
    "Ġwhosoever": 21716,
    "Ġmustard": 12927,
    "Ġcrad": 21348,
    "xter": 9146,
    "Ġur": 5540,
    "arent": 4250,
    "lynes": 15701,
    "ped": 6364,
    "Ġfront": 3452,
    "Ġboa": 22632,
    "gerine": 22886,
    "pped": 2000,
    "cap": 8371,
    "Ġspars": 3810,
    "conven": 6162,
    "Ġwhite": 1536,
    "Ġmal": 5220,
    "Ġarcher": 22176,
    "Ġauthoritative": 19558,
    "Ġstudy": 1758,
    "grieved": 17316,
    "Ġexchanging": 18132,
    "Ġrequesting": 24633,
    "Ġpreserved": 9261,
    "##": 2316,
    "fights": 20864,
    "Ġkeels": 11061,
    "ieved": 3228,
    "Ġ177": 13411,
    "Ġmill": 6666,
    "ignorantly": 25189,
    "id": 338,
    "Ġserious": 4321,
    "aning": 2257,
    "Ġembraces": 19870,
    "terrific": 25040,
    "Ġvernal": 23887,
    "Ġmundane": 26429,
    "Ġscalable": 1516,
    "Ġcats": 8979,
    "Ġdrinks": 24280,
    "fulness": 4310,
    "Ġpurposes": 11168,
    "Ġangles": 23588,
    "Ġeloped": 22643,
    "Ġsimplest": 16332,
    "Ġcigar": 9543,
    "Ġmines": 21307,
    "Ġforeseeing": 23450,
    "Ġunderstanding": 1893,
    "Ġcompan": 2175,
    "Ġgamb": 17998,
    "nuts": 15397,
    "Ġlearns": 2643,
    "osures": 22258,
    "Ġdampening": 2893,
    "wholly": 10941,
    "contriv": 19292,
    "Ġprincess": 23225,
    "Ġbravely": 23837,
    "Ġoverlooked": 15971,
    "Ġlestrade": 5825,
    "violence": 16476,
    "Ġriggers": 24157,
    "Ġinfernal": 11959,
    "Ġaccelerating": 1620,
    "Ģ": 227,
    "reproof": 25432,
    "Ġadapted": 11038,
    "Ġconscience": 6929,
    "Ġvortex": 26208,
    "flight": 15351,
    "Ġlone": 11613,
    "Ġcont": 619,
    "oton": 3608,
    "Ġjudging": 16595,
    "Ġmomentary": 11036,
    "Ġunerring": 15845,
    "urously": 18050,
    "Ġonto": 14027,
    "Ġforbade": 15214,
    "visited": 13346,
    "Ġlingered": 13504,
    "Ġmorality": 22974,
    "Ġobjectionable": 16991,
    "Ġricher": 12756,
    "varying": 13803,
    "connections": 14428,
    "upt": 13797,
    "darcy": 5207,
    "Ġecl": 18006,
    "Ġregain": 22571,
    "Ġfeed": 2130,
    "oar": 12495,
    "Ġfearless": 9874,
    "Ġtutored": 20125,
    "Ġsweetest": 13246,
    "Ġphilipses": 24453,
    "possesses": 24613,
    "acles": 8518,
    "Ġhorrible": 4904,
    "utter": 7592,
    "Ġreefed": 20300,
    "Ġmainten": 16114,
    "ulgent": 18150,
    "mouth": 9130,
    "cra": 6353,
    "Ġbenevol": 5960,
    "Ġalone": 2567,
    "minded": 9037,
    "Ġcraggy": 23530,
    "dish": 12450,
    "Ġmil": 4255,
    "orrowed": 19289,
    "Ġdeadliest": 14558,
    "Ġforgetting": 3436,
    "inridge": 11561,
    "jol": 20924,
    "keys": 15857,
    "Ġwithdrawing": 11340,
    "Ġpersonal": 7478,
    "onze": 21254,
    "fab": 13715,
    "Ġcarries": 7672,
    "zek": 16269,
    "grees": 20885,
    "y": 93,
    "Ġwaning": 15532,
    "shine": 9285,
    "agings": 18166,
    "Ġabrupt": 9735,
    "organic": 25946,
    "Ġhumiliating": 22878,
    "Ġsensations": 5258,
    "Ġcav": 13879,
    "Ġboister": 12916,
    "type": 16174,
    "Ġlogical": 14487,
    "Ġinclemency": 22552,
    "ollen": 11299,
    "Ġtasted": 12526,
    "Ġwarden": 17224,
    "sometimes": 5970,
    "Ġred": 3002,
    "[": 63,
    "brows": 17496,
    "Ġsutherland": 10148,
    "Ġremarks": 7473,
    "Ġquartered": 20370,
    "ures": 771,
    "bed": 3290,
    "Ġscene": 3093,
    "Ġbounce": 21391,
    "Ġcordon": 24395,
    "Ġwide": 4109,
    "Ġdoubloon": 6945,
    "Ġsells": 21222,
    "Ġthreading": 23401,
    "âĢĺ": 941,
    "ual": 946,
    "Ġarter": 22174,
    "rab": 7595,
    "Ġwin": 9641,
    "orously": 8417,
    "velope": 17701,
    "Ġurgent": 16869,
    "Ġgeography": 23371,
    "Ġswash": 23053,
    "semble": 1525,
    "Ġdepths": 4326,
    "wondered": 17029,
    "choice": 21688,
    "Ġsuspicions": 9477,
    "Ġplanning": 14751,
    "Ġtaste": 5524,
    "begged": 18520,
    "dimens": 2317,
    "Ġprudential": 17920,
    "salis": 25147,
    "tle": 2409,
    "Ġappointed": 20100,
    "Ġswore": 10378,
    "Ġclifford": 22350,
    ").âĢĿ": 20740,
    "Ġuninter": 18247,
    "Ġpallid": 12297,
    "Ġchips": 14182,
    "Ġhelplessness": 25071,
    "wolf": 26409,
    "Ġimpl": 7194,
    "Ġrosy": 18459,
    "Ġoutcast": 18414,
    "Ġhelplessly": 20075,
    "determ": 7104,
    "Ġinvis": 6902,
    "Ġsalesman": 13667,
    "itten": 3442,
    "Ġsphere": 15880,
    "Ġdrawn": 4276,
    "Ġsprout": 24088,
    "Ġventing": 19492,
    "Ġbudge": 15164,
    "greater": 13250,
    "ckets": 6843,
    "Ġwidely": 8031,
    "Ġpropriety": 10009,
    "Ġuniformly": 19147,
    "Ġcakes": 13883,
    "rose": 6012,
    "Ġhuzza": 12630,
    "Ġintim": 6838,
    "depth": 12797,
    "Ġlift": 8810,
    "Ġbulb": 23854,
    "Ġseries": 7059,
    "Ġdiscoverers": 26036,
    "themselves": 6539,
    "Ġconfederate": 17353,
    "digger": 24311,
    "Ġ6": 5140,
    "Ġsuffering": 8946,
    "Ġpervers": 11782,
    ")âĢĶ": 20741,
    "Ġconvulsively": 25717,
    "cheerfulness": 20178,
    "Ġsurrender": 16449,
    "Ġscheduling": 2349,
    "Ġgryphon": 4299,
    "Ġimbec": 14157,
    "cen": 17502,
    "descending": 16282,
    "Ġantiquity": 15229,
    "Ġreckoned": 24743,
    "reed": 6372,
    "representation": 20194,
    "ĠĠĠĠĠĠĠĠĠĠĠĠĠĠĠĠĠĠĠĠĠĠĠĠĠĠĠĠĠĠĠĠĠĠĠĠĠĠĠ": 19258,
    "Ġsincerity": 13677,
    "ĠâĢľ_": 6696,
    "itering": 17819,
    "Ġemboldened": 22995,
    "rarely": 21631,
    "lish": 1952,
    "Ġplaguy": 22601,
    "snap": 24848,
    "Ġhonour": 3922,
    "swallowed": 14853,
    "Ġnovels": 15927,
    "iverse": 13114,
    "Ġsupremacy": 20258,
    "emporary": 15795,
    "monograph": 23527,
    "throwing": 11702,
    "ppers": 7616,
    "Ġthom": 21513,
    "Ġassaulted": 25320,
    "Ġsigma": 1539,
    "rely": 6123,
    "Ġrecollecting": 17113,
    "er": 269,
    "Ġassailed": 23176,
    "Ġtuples": 13476,
    "exc": 5168,
    "Ġhidden": 1376,
    "Ġhissing": 15787,
    "acit": 16078,
    "Ġmaker": 15540,
    "Ġcheers": 16367,
    "smo": 10125,
    "Ġharpooneers": 4731,
    "Ġbloodthirst": 23800,
    "ribe": 1223,
    "Ġhiss": 15785,
    "achus": 18273,
    "Ġwarmest": 16483,
    "ult": 722,
    "kitty": 10105,
    "shape": 10981,
    "Ġliberated": 19664,
    "Ġpoison": 7218,
    "erial": 4631,
    "Ġdescended": 7427,
    "Ġindignantly": 16939,
    "Ġrenders": 13282,
    "Ġgoest": 22420,
    "Ġstaves": 21737,
    "Ġspoon": 22131,
    "irresistible": 18172,
    "Ġcomfortless": 23911,
    "Ġprehensile": 26534,
    "estim": 14170,
    "eff": 2533,
    "natured": 7109,
    "traces": 24316,
    "Ġwhine": 21712,
    "Ġtobacco": 8365,
    "Ġstyled": 24672,
    "Ġweeks": 4564,
    "Ġtarquin": 23610,
    "jewell": 25523,
    "Ġallegro": 25794,
    "sought": 15426,
    "Ġvoc": 4451,
    "Ġringed": 16750,
    "mers": 9610,
    "excellent": 8042,
    "makes": 10711,
    "urches": 12680,
    "claims": 25319,
    "rug": 18345,
    "windibank": 24162,
    "Ġluxur": 12339,
    "Ġelijah": 9099,
    "Ġpresently": 5115,
    "Ġcared": 8782,
    "Ġtig": 13812,
    "lydia": 6826,
    "Ġbadly": 12129,
    "misfortunes": 16756,
    "Ġoverpower": 12839,
    "Ġexamples": 2604,
    "ishly": 14200,
    "according": 12026,
    "Ġhorses": 6384,
    "Ġconnectivity": 3668,
    "iant": 5427,
    ">": 34,
    "Ġvener": 8162,
    "Ġ96": 24593,
    "Ġaffair": 4463,
    "Ġenglish": 3615,
    "Ġbrazen": 23838,
    "barr": 15319,
    "Ù": 154,
    "Ġswish": 23051,
    "Ġmanaging": 22322,
    "Ġpaused": 5416,
    "Ġexclaimed": 4682,
    "multiple": 15107,
    "nur": 11506,
    "Ġswarm": 23052,
    "tor": 15431,
    "gay": 11489,
    "ica": 10198,
    "Ġguineas": 16268,
    "Ġambergris": 8705,
    "opinion": 10984,
    "canonical": 22966,
    "âĢĶ": 518,
    "Ġungracious": 18259,
    "incom": 21180,
    "Ġdiscipline": 26561,
    "red": 396,
    "ifle": 10891,
    "Ġcomplied": 14734,
    "Ġfrequencies": 4788,
    "Ġexordium": 26492,
    "aborate": 14021,
    "Ġcontinuation": 22914,
    "Ġpie": 13914,
    "urious": 21700,
    "Ġcompatibility": 2956,
    "Ġforecastle": 5495,
    "cousins": 20115,
    "Ġglowed": 24864,
    "Ġleaned": 7606,
    "Ġly": 2272,
    "Ġmiriam": 25273,
    "fair": 10092,
    "questions": 16760,
    "uced": 13799,
    "spade": 10339,
    "itled": 7576,
    "erne": 21268,
    "family": 7323,
    "gon": 17552,
    "ina": 21178,
    "Ġrecommence": 16812,
    "Ġundressed": 19512,
    "Ġcanoe": 9722,
    "igan": 21695,
    "ifford": 15781,
    "Ġdromed": 15594,
    "fooled": 24420,
    "Ġvibrating": 13537,
    "Ġprocessions": 18433,
    "bun": 12436,
    "Ġ1846": 26084,
    "swaying": 25910,
    "icing": 9200,
    "uguese": 20731,
    "appointment": 24059,
    "Ġroyals": 19531,
    "prof": 7697,
    "vest": 6230,
    "Ġsettled": 3741,
    "Ġremem": 4313,
    "uzza": 11271,
    "Ġextracts": 9364,
    "club": 26380,
    "atre": 17771,
    "procure": 23396,
    "pillar": 5619,
    "boat": 3363,
    "ta": 13788,
    "Ġmanip": 8871,
    "foremost": 14253,
    "Ġscrupulous": 20066,
    "Ġimproves": 22766,
    "Ġfall": 2984,
    "Ġgrace": 5374,
    "previous": 9760,
    "Ġblossom": 26312,
    "Ġdoubted": 7963,
    "Ġcliffs": 15965,
    "base": 20776,
    "Ġapprehen": 16829,
    "D": 40,
    "Ġrevolving": 9982,
    "ror": 7350,
    "ere": 6789,
    "Ġparis": 8177,
    "happiness": 6468,
    "striving": 24670,
    "Ġfearfulness": 23514,
    "Ġbasics": 13447,
    "permission": 15896,
    "Ġskipper": 22795,
    "Ġactivations": 2722,
    "Ġabounding": 12342,
    "alled": 5910,
    "Ġhunts": 23157,
    "Ġtinted": 13821,
    "Ġdesperation": 19816,
    "Ġchanges": 2288,
    "lik": 3915,
    "tit": 11528,
    "Ġconstitutes": 13551,
    "Ġsteady": 4846,
    "Ġsallow": 12533,
    "Ġnocturnal": 20714,
    "dy": 3861,
    "irs": 14069,
    "Ġgrudge": 20692,
    "Ġasph": 21896,
    "furthermore": 20001,
    "Ġtrials": 16789,
    "Ġthinner": 24182,
    "Ġcoin": 9770,
    "neighbour": 7210,
    "Ġdeclared": 5595,
    "»": 124,
    "Ġpants": 21463,
    "tarpaulins": 26405,
    "Ġungod": 22021,
    "Ġphilosopher": 12181,
    "dat": 1614,
    "Ġfelony": 18951,
    "avish": 22591,
    "usive": 8190,
    "ifiable": 18164,
    "Ġbeaches": 18085,
    "Ġgriev": 16634,
    "Ġhoisted": 5958,
    "Ġaboard": 6697,
    "Ġvariation": 22662,
    "take": 4575,
    "illity": 18296,
    "task": 13792,
    "drab": 23896,
    "Ġimpreg": 15986,
    "pot": 10117,
    "Ġappo": 8497,
    "Ġbulkhead": 24512,
    "Ġdash": 8120,
    "wherein": 19107,
    "Ġcompacted": 23510,
    "Ġinsp": 2101,
    "Ġdiscoursing": 26265,
    "Ġthimble": 15634,
    "Ġunbending": 25464,
    "Ġmagical": 23097,
    "Ġchrist": 4073,
    "connection": 18868,
    "ents": 1898,
    "Ġbetween": 792,
    "Ġcedars": 20290,
    "Ġpatent": 11957,
    "fters": 20860,
    "Ġcurbstone": 26042,
    "Ġassert": 7119,
    "affair": 14656,
    "umberland": 16837,
    "Ġdisputing": 25824,
    "Ġsecretary": 19440,
    "inte": 5143,
    "Ġceases": 19312,
    "Ġwatched": 6296,
    "Ġdomain": 3599,
    "Ġflaw": 23009,
    "unicorn": 21887,
    "Ġattacking": 24466,
    "super": 5942,
    "Ġfragmentary": 25856,
    "Ġexpressed": 4467,
    "Ġconfide": 13097,
    "Ġjurors": 17343,
    "Ġspermacetti": 19051,
    "cket": 3688,
    "X": 60,
    "Ġattaining": 15801,
    "compliment": 11365,
    "Ġpence": 17906,
    "Ġhos": 4941,
    "Ġdejected": 20302,
    "Ġgaol": 19565,
    "rog": 15637,
    "enderby": 25215,
    "angs": 5833,
    "Ġloading": 15872,
    "avail": 18604,
    "kered": 18275,
    "Ġgrasp": 4663,
    "Ġtherefore": 2242,
    "Ġnoticed": 5549,
    "Ġaccord": 4025,
    "Ġcellar": 8057,
    "Ġexhilarating": 26337,
    "Ġsuperstitious": 13519,
    "contracting": 19293,
    "Ġseptember": 18208,
    "Ġwandered": 6930,
    "Ġxv": 23406,
    "Ġirr": 10421,
    "Ġvib": 8163,
    "Ġsciences": 15942,
    "oda": 15747,
    "Ġinvade": 19142,
    "Ġstocks": 23175,
    "eed": 20840,
    "restraint": 18979,
    "Ġwilds": 16508,
    "fitzwilliam": 11353,
    "Ġplatform": 17131,
    "Ġarchitectures": 2907,
    "Ġalternative": 19984,
    "surgeon": 24215,
    "Ġ=": 1071,
    "Ġdoth": 13907,
    "Ġcherub": 23288,
    "Ġpacific": 5152,
    "Ġcarcase": 14444,
    "men": 1486,
    "Ġmonth": 2848,
    "Ġrecounted": 22736,
    "Ġsmothered": 20719,
    "Ġrivals": 20269,
    "crum": 17511,
    "Ġner": 1644,
    "eridge": 15524,
    "Ġprosperity": 20255,
    "science": 11907,
    "Ġomniscient": 20083,
    "âĢĻâĢĶ": 12734,
    "toss": 22563,
    "erately": 21272,
    "offended": 16395,
    "Ġreservo": 16831,
    "ases": 1523,
    "Ġcharing": 14181,
    "entreaties": 26185,
    "Ġincreasing": 8246,
    "Ġmidday": 23632,
    "Ġverify": 12085,
    "cart": 10688,
    "conceive": 16028,
    "pleasanter": 24047,
    "Ġchilian": 25563,
    "matters": 14874,
    "taking": 5689,
    "Ġdiscol": 12950,
    "âĢĶâĢĺ": 7013,
    "Ġmanilla": 15957,
    "erness": 6434,
    "Ġselect": 3998,
    "ompl": 4535,
    "Ġremarked": 3696,
    "Ġrambles": 17184,
    "Ġimpious": 15985,
    "gee": 15975,
    "databases": 3021,
    "Ġshoved": 23492,
    "quer": 11679,
    "bowing": 24455,
    "Ġindirect": 18840,
    "Ġfinishing": 23123,
    "--âĢĺ": 22845,
    "Ġknows": 4162,
    "Ġconfounded": 16383,
    "zor": 15457,
    "Ġcompleted": 8997,
    "Ġundulating": 19516,
    "Ġpersuas": 23945,
    "Ġgreenland": 5761,
    "dwelling": 20563,
    "large": 6625,
    "Ġturner": 7048,
    "Ġsink": 4341,
    "Ġgar": 10838,
    "Ġreceptive": 1562,
    "dwell": 15340,
    "Ġirre": 7467,
    "thorough": 21983,
    "Ġoutputs": 2884,
    "wat": 6231,
    "Ġquarrels": 16566,
    "Ġoverwhelming": 17102,
    "Ġanytime": 12882,
    "asion": 5714,
    "shaken": 16019,
    "Ġsing": 3070,
    "Ġvictims": 19802,
    "emptied": 23635,
    "Ġdistinction": 8885,
    "Ġsplend": 9897,
    "Ġchil": 11750,
    "Ġroad": 3880,
    "Ġkeel": 6443,
    "Ġloitered": 26525,
    "10": 17472,
    "arman": 11595,
    "distinguished": 10526,
    "Ġrejection": 19981,
    "Ġconveyed": 8333,
    "es": 288,
    "ease": 12455,
    "Ġretreats": 16928,
    "Ġunrecord": 16621,
    "Ġupstairs": 5836,
    "Ġhier": 1896,
    "cull": 20808,
    "inn": 5363,
    "Ġundeviating": 15217,
    "Ġharsh": 9519,
    "Ġawkwardness": 13486,
    "udding": 11864,
    "Ġvictor": 5124,
    "situ": 9621,
    "fight": 17538,
    "sweet": 8685,
    "Ġsuffoc": 18870,
    "hur": 6648,
    "Ġjog": 18404,
    "Ġdrought": 19278,
    "Ġscarlet": 13221,
    "Ġmingled": 12375,
    "Ġduration": 20351,
    "Ġ150": 22824,
    "Ġmacro": 25939,
    "Ġbottomless": 12104,
    "Ġrelieved": 7664,
    "dough": 15334,
    "eler": 1571,
    "Ġgrie": 3583,
    "Ġ124": 24470,
    "Ġpur": 2219,
    "Ġcommend": 10334,
    "Ġread": 1448,
    "Ġnick": 21520,
    "ozy": 17622,
    "Ġconsider": 2569,
    "Ġork": 18284,
    "Ġrisen": 9491,
    "Ġseized": 4832,
    "coburg": 13597,
    "Ġmanifold": 13559,
    "missing": 13217,
    "Ġadditional": 7934,
    "Ġexpiration": 22623,
    "Ġcontention": 22423,
    "cially": 3489,
    "lake": 13748,
    "acquaintance": 6938,
    "Ġespecially": 3935,
    "libr": 22921,
    "Ġheading": 8935,
    "Ġparamount": 15876,
    "Ġconcoct": 19047,
    "Ġperseverance": 13596,
    "rolled": 9059,
    "measured": 19987,
    "Ġgift": 10840,
    "school": 10054,
    "Ġembatt": 18857,
    "merchant": 10467,
    "Ġprincip": 5600,
    "gments": 12467,
    "Ġyou": 366,
    "Ġpriest": 7525,
    "thirst": 15823,
    "Ġinseparable": 20687,
    "Ġxavier": 2854,
    "Ġantarctic": 19549,
    "Ġmimic": 3140,
    "Ġappertain": 22216,
    "twist": 23701,
    "Ġbabes": 24426,
    "Ġtrous": 10958,
    "fast": 3067,
    "ences": 1263,
    "Ġcele": 9899,
    "creat": 20799,
    "oop": 10715,
    "generations": 23784,
    "Ġopinion": 3139,
    "Ġfrom": 434,
    "Ġdeeply": 4716,
    "Ġunlucky": 10049,
    "consolation": 15152,
    "Ġdigress": 24649,
    "Ġhosts": 19936,
    "Ġsimilarly": 24309,
    "Ġsubterraneous": 20263,
    "Ġfossil": 12385,
    "Ġlook": 878,
    "Ġselfish": 7271,
    "fabulous": 20471,
    "Ġexplained": 5935,
    "Ġbetake": 22904,
    "Ġgomorrah": 21612,
    "aux": 14289,
    "activation": 3229,
    "Ġgloom": 4202,
    "Ġpict": 3498,
    "Ġalpha": 13587,
    "Ġbison": 21386,
    "welt": 12518,
    "rians": 21923,
    "Ġuntimely": 16465,
    "Ġtreacher": 8604,
    "ladder": 19781,
    "yard": 5899,
    "nets": 9132,
    "Ġprimary": 25060,
    "Ġquant": 6423,
    "Ġenvirons": 13182,
    "Ġsize": 1217,
    "copper": 19187,
    "cri": 17505,
    "Ġholiday": 12995,
    "Ġextinct": 14337,
    "paint": 21017,
    "Ġflu": 3278,
    "ricane": 16276,
    "ugal": 19024,
    "Ġsaying": 3242,
    "Ġstoven": 23174,
    "Ġomin": 11577,
    "Ġinjured": 9039,
    "Ġintelligent": 1372,
    "rowsers": 8694,
    "conquerable": 17398,
    "Ġdon": 1615,
    "Ġcharles": 11955,
    "Ġvenge": 5420,
    "Ġleads": 12094,
    "Ġoutriders": 26543,
    "oblivious": 26582,
    "Ġindirectly": 8939,
    "Ġeas": 2352,
    "Ġencoura": 1368,
    "Ġensures": 3052,
    "Ġchemistry": 11461,
    "chemical": 23807,
    "Ġsheepfold": 25466,
    "Ġnumerous": 6920,
    "vedale": 22708,
    "Ġbanished": 10616,
    "Ġvir": 7001,
    "ional": 1081,
    "agree": 14066,
    "Ġingratitude": 17468,
    "Ġapproxim": 1218,
    "Ġgurglings": 26465,
    "Ġlawn": 7378,
    "Ġobscured": 15011,
    "scores": 22988,
    "whalemen": 10431,
    "Ġcass": 13878,
    "Ġmarvellous": 7537,
    "Ġethere": 23949,
    "Ġprepare": 8646,
    "meadow": 18675,
    "Ġsubstant": 14809,
    "tain": 559,
    "dri": 5887,
    "Ġtrait": 23071,
    "Ġbre": 1914,
    "ingham": 21299,
    "umpled": 15874,
    "Ġvine": 8470,
    "rable": 11632,
    "99": 1897,
    "blue": 13692,
    "madly": 24421,
    "Ġprotect": 6336,
    "ien": 10101,
    "return": 5489,
    "Ġstarts": 16582,
    "Ġdivine": 6921,
    "hoisting": 23716,
    "purpose": 10043,
    "Ġtoilette": 20490,
    "Ġ1671": 25005,
    "ressed": 3020,
    "Ġrelics": 16193,
    "Ġle": 333,
    "nut": 12492,
    "Ġcranial": 25592,
    "Ġboard": 3385,
    "alley": 23020,
    "ck": 436,
    "Ġbrings": 11879,
    "Ġinstructed": 19284,
    "Ġtatters": 21176,
    "reduced": 15803,
    "Ġceaseless": 13487,
    "Ġskewer": 19618,
    "Ġcomparable": 24279,
    "Ġnumberless": 16413,
    "Ġexcite": 11964,
    "Ġplainer": 23704,
    "Ġhost": 7067,
    "Ġrefusal": 10344,
    "Ġlowering": 7985,
    "Ġproced": 2580,
    "?âĢĶ": 3468,
    "Ġmissionary": 25696,
    "Ġplead": 14455,
    "prepare": 20210,
    "Ġalco": 21779,
    "Ġbarbar": 6935,
    "Ġcro": 4872,
    "94": 4802,
    "Ġcontro": 1683,
    "Ġstifle": 18074,
    "ters": 1572,
    "Ġhe": 318,
    "Ġdiverted": 14593,
    "Ġbitterness": 8023,
    "Ġtru": 4107,
    "Ġtroop": 24897,
    "perquis": 22182,
    "ster": 1953,
    "Ġsleeping": 6318,
    "Ġpursuing": 9436,
    "Ġattain": 12744,
    "Ġinnocently": 24027,
    "Ġslanting": 23171,
    "Ġabject": 18391,
    "attest": 23118,
    "Ġblacksmith": 6595,
    "upon": 2723,
    "home": 7340,
    "Ġcovered": 5170,
    "Ġjavelins": 26105,
    "Ġdisposed": 7082,
    "Ġconfusion": 7272,
    "stiff": 12672,
    "Ġcatching": 9476,
    "lovel": 22508,
    "bbed": 6910,
    "tol": 17672,
    "Ġmodified": 14167,
    "Ġ0": 1904,
    "Ġpounds": 5368,
    "shunned": 22452,
    "Ġscott": 22278,
    "Ġdissembling": 26254,
    "Ġtemporary": 7979,
    "Ġpy": 21449,
    "des": 1566,
    "Ġformality": 22826,
    "Ġunfathom": 14789,
    "Ġunalterable": 15849,
    "Ġsl": 1498,
    "Ġprecip": 7073,
    "Ġresid": 22535,
    "Ġworthless": 19562,
    "Ġsulky": 13514,
    "Ġmim": 3102,
    "otion": 4945,
    "nature": 5359,
    "Ġaffecting": 2323,
    "acrity": 14279,
    "Ġslipped": 6491,
    "Ġsurmis": 23463,
    "macy": 18802,
    "Ġwere": 556,
    "Ġpea": 14317,
    "folio": 10546,
    "Ġcanaan": 22166,
    "Ò": 147,
    "swed": 24254,
    "Ġprogra": 1145,
    "Ġveneration": 25044,
    "Ġillustration": 19135,
    "Ġloftiest": 16874,
    "Ġunfrequently": 20738,
    "âĢĶâĢĶâĢĿ": 15937,
    "sutherland": 21061,
    "itor": 12563,
    "Ġbrimstone": 25686,
    "Ġbelly": 10369,
    "Ġoptim": 796,
    "Ġstores": 18069,
    "Ġcomo": 21844,
    "ationally": 15702,
    "uting": 15657,
    "Ġsmiles": 6706,
    "Ġpersuasions": 16631,
    "Ġremains": 4909,
    "arm": 1356,
    "Ġunprepared": 22047,
    "ives": 1411,
    "sprinkling": 24912,
    "Ė": 215,
    "blown": 25201,
    "intim": 22932,
    "Ġintermediate": 18592,
    "Ġeffectually": 16164,
    "Ġcooper": 16075,
    "Ġclipping": 2439,
    "Ġsof": 18282,
    "irous": 8838,
    "astic": 1869,
    "Ġthreatened": 8328,
    "Ġpapers": 4021,
    "Ġrevolutions": 23840,
    "Ġbelfry": 26438,
    "thought": 3848,
    "ogue": 9785,
    "Ġdefiance": 11068,
    "Ġterminated": 23511,
    "Ġfought": 12590,
    "Ġlucifers": 16588,
    "incident": 14592,
    "Ġdouble": 4939,
    "Ġrepeat": 7998,
    "Ġfishy": 16522,
    "Ġ1883": 23895,
    "Ġpowerful": 1565,
    "Ġresolution": 5500,
    "ĠĠĠĠĠĠĠĠĠĠĠĠĠĠĠĠĠĠĠĠĠĠĠĠĠĠĠĠĠĠĠĠĠĠĠĠĠĠĠĠĠĠĠĠĠĠĠĠĠĠĠ": 20036,
    "raham": 18014,
    "Ġgrieve": 14707,
    "Ġtrotting": 19973,
    "ology": 1607,
    "Ġblushed": 12999,
    "answered": 10273,
    "Ġencourages": 2061,
    "Ġtied": 7356,
    "Ġminutest": 14561,
    "Ġneighb": 14073,
    "Ġrecover": 9791,
    "Ġjiff": 22293,
    "relative": 24012,
    "Ġscript": 18398,
    "Ġdrag": 6184,
    "apology": 22331,
    "Ġsuccour": 20432,
    "obscure": 23096,
    "french": 9119,
    "Ġupon": 719,
    "Ġresolutely": 14610,
    "Ġsanction": 20023,
    "Ġmagnificent": 9841,
    "moved": 9783,
    "abond": 15738,
    "Ġglen": 18851,
    "ufact": 10733,
    "Ġwaylaid": 22869,
    "oof": 15404,
    "Ġmanifested": 17157,
    "cet": 15324,
    "Ġfreely": 7055,
    "Ġfootpaths": 26318,
    "Ġliving": 3060,
    "beyond": 8882,
    "Ġcheshire": 13089,
    "byshire": 6172,
    "sche": 13016,
    "Ġspent": 3963,
    "Ġsins": 13836,
    "continued": 8675,
    "Ġsched": 2336,
    "Ġfielding": 16237,
    "pie": 21010,
    "Ġproblems": 2847,
    "Ġvehement": 16200,
    "Ġelect": 10842,
    "Ġcommended": 18656,
    "concerning": 9067,
    "kerchief": 7524,
    "Ġadvertised": 17247,
    "removed": 15515,
    "buckets": 26123,
    "forbearance": 22800,
    "Ġexecut": 4248,
    "Ġpreparation": 13528,
    "Ġbapt": 13895,
    "Ġrig": 4225,
    "Ġguido": 2974,
    "Ġderives": 16307,
    "Ġopinions": 9413,
    "Ġfar": 1451,
    "Ġwhereby": 11836,
    "Ġmarriage": 3184,
    "Ġdisown": 22521,
    "acqu": 4841,
    "Ġthreats": 13376,
    "loud": 11501,
    "parsee": 14515,
    "Ġjudged": 12081,
    "apparatus": 26563,
    "manner": 6170,
    "service": 15037,
    "nigh": 13762,
    "Ġhide": 4588,
    "Ġorph": 9716,
    "idious": 11662,
    "Ġunconsciously": 10004,
    "Ġcoil": 11817,
    "Ġproved": 4883,
    "Ġaccomplice": 24377,
    "knell": 24556,
    "parad": 16389,
    "Ġthoroughfares": 26095,
    "Ġgenerally": 4160,
    "Ġentr": 14336,
    "Ġcondescension": 10618,
    "taken": 7559,
    "tains": 10962,
    "destined": 24116,
    "Ġplush": 18609,
    "Ġhoriz": 4725,
    "Ġcreator": 7253,
    "Ġbru": 13894,
    "fainting": 20470,
    "introdu": 8937,
    "Ġdevelopments": 23245,
    "Ġuncommon": 5025,
    "liament": 16216,
    "Ġchewed": 16371,
    "ilogue": 21721,
    "virtue": 20568,
    "instrument": 15237,
    "ging": 2600,
    "Ġnetherfield": 3930,
    "Ġevolve": 2999,
    "bourn": 3303,
    "horrible": 14601,
    "Ġlarger": 1401,
    "vul": 15447,
    "cks": 3076,
    "arnel": 18125,
    "Ġdesirable": 8941,
    "_âĢĿ": 20760,
    "Ġinner": 9670,
    "Ġpaths": 2570,
    "Ġloose": 4648,
    "patter": 4037,
    "record": 16920,
    "Ġbraces": 14670,
    "Ġscroll": 14192,
    "ethe": 9676,
    "Ġdeadly": 5405,
    "light": 3014,
    "Ġwhom": 1832,
    "Ġpregnant": 26535,
    "gir": 8081,
    "Ġunmannerly": 26517,
    "seat": 18126,
    "Ġpermit": 9748,
    "Ġexacted": 23603,
    "Ġderive": 10394,
    "undoubtedly": 13310,
    "Ġth": 299,
    "Ġdistension": 22502,
    "Ġwaves": 3918,
    "tained": 4405,
    "phantoms": 24678,
    "Ġgracechurch": 12196,
    "Ġdeparture": 6489,
    ",âĢĶâĢĺ": 23801,
    "Ġtract": 21164,
    "believed": 9932,
    "obliv": 23095,
    "Ġrational": 8478,
    "coach": 23560,
    "pencil": 18827,
    "earnest": 12397,
    "Ġattentions": 5877,
    "iling": 3089,
    "Ġaff": 1116,
    "Ġmightier": 18729,
    "Ġspile": 22124,
    "shaw": 6864,
    "Ġnews": 3819,
    "Ġchambermaid": 24305,
    "Ġexotic": 21828,
    "features": 14780,
    "Ġsmacking": 20163,
    "all": 485,
    "Ġapproved": 16031,
    "Ġdivulged": 16648,
    "Ġalps": 10870,
    "Ġrates": 1405,
    "urable": 8930,
    "Ġugly": 8715,
    "unfortunate": 15774,
    "Ġtrembled": 8701,
    "encoura": 15049,
    "ago": 14064,
    "Ġhistory": 4008,
    "Ġsacr": 7193,
    "consequence": 9762,
    "Ġtennes": 23549,
    "alyards": 18780,
    "Ġenlarge": 21933,
    "Ġsorry": 4210,
    "Ġcollateral": 20069,
    "unciation": 25982,
    "ieces": 4771,
    "Ġboxes": 13373,
    "Ġlevels": 12695,
    "Ġgoin": 18469,
    "izarre": 17388,
    "Ġadvocate": 13675,
    "Ġadjusted": 23458,
    "Ġsinews": 20285,
    "Ġdisplay": 6427,
    "athies": 22698,
    "Ġvices": 14082,
    "Ġexig": 21823,
    "Ġsend": 4108,
    "Ġtantalizing": 20411,
    "Ġdictator": 20151,
    "Ġfooted": 23795,
    "Ġsay": 934,
    "Ġbutts": 15853,
    "Ġcorn": 9349,
    "Ġbreakers": 12053,
    "Ġlexic": 15721,
    "Ġharbors": 24901,
    "Ġplowdon": 26447,
    "design": 18957,
    "Ġsoon": 1227,
    "Ġphrenolog": 12332,
    "Ġtotally": 9469,
    "Ġextinction": 14338,
    "fates": 20857,
    "ggling": 19096,
    "tfordshire": 4810,
    "silent": 9973,
    "Ġanteced": 26177,
    "Ġbod": 4580,
    "Ġmorbidness": 20627,
    "inching": 21188,
    "attoo": 6807,
    "Ġscore": 9737,
    "elope": 14466,
    "Ġprotruding": 16658,
    "Ġtransf": 22434,
    "Ġbi": 918,
    "shrouded": 26361,
    "Ġsuppressed": 11910,
    "Ġswayed": 15048,
    "Ġqueens": 16706,
    "Ġdecl": 3590,
    "Ġelegance": 11333,
    "Ġpoisonous": 24887,
    "Ġsnatches": 16543,
    "Ġexploitation": 2347,
    "Ġfinger": 5273,
    "Ġprot": 3847,
    "Ġenchanted": 9080,
    "Ġchaise": 9076,
    "Ġengaging": 9335,
    "Ġhandspikes": 12935,
    "_.âĢĻâĢĿ": 17479,
    "Ġliterature": 17148,
    "Ġpalpable": 15206,
    "Ġcalamity": 17348,
    "rich": 11518,
    "<SOS>": 1,
    "ols": 2412,
    "intern": 23735,
    "Ġroarings": 25302,
    "uiperai": 10663,
    "Ġfigured": 16643,
    "Ġsepul": 14089,
    "Ġdiscompose": 25579,
    "schoolmaster": 15161,
    "ber": 881,
    "Ġgenerative": 5644,
    "breath": 15162,
    "Ġtroops": 24898,
    "Ġhollows": 19739,
    "Ġhumiliation": 16196,
    "Ġworship": 10366,
    "Ġbermud": 26439,
    "bres": 11472,
    "Ġelated": 18634,
    "Ġrefinement": 18704,
    "Ġunwilling": 7884,
    "Ġimpenet": 14221,
    "ittance": 12842,
    "Ġhimmale": 18329,
    "Ġbenevolent": 7771,
    "Ġbennets": 9805,
    "Ġcombined": 8547,
    "fly": 13713,
    "Ġguarded": 9825,
    "darted": 20831,
    "writing": 7719,
    "Ġbinnacle": 8117,
    "Ġserenely": 13506,
    "Ġfaced": 10808,
    "sail": 3604,
    "Ġenchant": 7184,
    "Ġwollstonecraft": 26425,
    "iries": 18168,
    "Ġexcitement": 9381,
    "Ġamong": 1664,
    "coff": 9108,
    "Ġconclusions": 10553,
    "Ġoarsman": 8637,
    "Ġobtruded": 20721,
    "communication": 25881,
    "Ġperceived": 4713,
    "advancing": 14836,
    "utility": 21584,
    "Ġcandle": 8290,
    "Ġstopping": 2750,
    "duodecimo": 16000,
    "civilities": 24971,
    "Ġwave": 7574,
    "instances": 13326,
    "strip": 19828,
    "Ġintellig": 526,
    "vings": 9750,
    "ĩ": 234,
    "Ġrobes": 16256,
    "invest": 11560,
    "ru": 483,
    "rive": 9706,
    "Ġmaria": 7123,
    "Ġgospel": 18001,
    "ought": 831,
    "nights": 16448,
    "ildad": 3530,
    "masculine": 24388,
    "Ġwandering": 8652,
    "Ġendowed": 18924,
    "Ġbeing": 1163,
    "icious": 7379,
    "Ġeh": 6987,
    "Ġsunday": 7269,
    "lingering": 18601,
    "Ġgratifying": 13304,
    "Ġsea": 1208,
    "Ġlucas": 3832,
    "Ġlimits": 3454,
    "profess": 10634,
    "Ġsentiment": 6589,
    "Ġordained": 19443,
    "Ġvestige": 20060,
    "Ġpalace": 16690,
    "Ġstung": 21735,
    "vers": 1327,
    "Ġv": 399,
    "ĠĠĠĠĠĠĠĠĠĠĠĠĠĠĠĠĠĠĠĠĠĠĠĠĠĠĠĠĠĠĠĠĠĠĠĠĠĠĠĠĠĠĠĠĠĠĠ": 16755,
    "Ġlit": 6246,
    "Ġagitation": 6865,
    "Ġcompanies": 14559,
    "greg": 6647,
    "Ġenables": 725,
    "hro": 20890,
    "Ġoverjoy": 15969,
    "lever": 2929,
    "threaten": 25461,
    "tashtego": 9622,
    "Ġresist": 7914,
    "Ġpitiful": 13238,
    "Ġfortnight": 6200,
    "Ġcatastrop": 3349,
    "Ġsmaller": 1884,
    "clam": 13052,
    "obst": 23091,
    "Ġalgorithm": 774,
    "Ġdeal": 3609,
    "Ġbarbarous": 13475,
    "iple": 4805,
    "Ġacc": 574,
    "dor": 12449,
    "shout": 22439,
    "vate": 21108,
    "Ġreserve": 9970,
    "Ġadmirer": 16838,
    "ob": 1421,
    "Ġchace": 14179,
    "Ġbackwards": 12922,
    "Ġtestified": 16316,
    "Ġarrived": 3746,
    "Ġgladness": 16591,
    "Ġaffability": 14387,
    "Ġwaned": 17792,
    "spouting": 25000,
    "Ġfed": 5530,
    "Ġforged": 12701,
    "legra": 10789,
    "Ġjoist": 19230,
    "Ġinfinity": 23283,
    "Ġpatiently": 19916,
    "Ġwaistcoat": 12268,
    "Ġbidden": 24647,
    "helping": 23137,
    "Ġtransferred": 16478,
    "Ġannual": 14832,
    "outer": 9668,
    "Ġof": 298,
    "entire": 6824,
    "ative": 738,
    "separ": 9230,
    "Ġstumped": 24942,
    "Ġolive": 12562,
    "Ġgeorgia": 23885,
    "k": 79,
    "Ġoriental": 9096,
    "Ġimminent": 11246,
    "Ġpair": 5706,
    "Ġslaughter": 20729,
    "Ġirons": 7694,
    "tting": 17680,
    "Ġl": 303,
    "finished": 10554,
    "companies": 24894,
    "globe": 25142,
    "Ġheed": 5630,
    "nels": 12493,
    "Ġstrictly": 12283,
    "pots": 11514,
    "Ġhappiness": 2942,
    "langu": 4806,
    "Ġcultivation": 17145,
    "distinct": 13334,
    "Ġhorn": 6185,
    "Ġthankful": 14738,
    "greek": 25404,
    "human": 7087,
    "Ġunthinkingly": 26220,
    "soft": 12507,
    "Ġunlock": 18244,
    "vens": 21111,
    "urch": 3993,
    "Ġdispel": 16596,
    "Ġpresc": 15923,
    "Ġweep": 7618,
    "Ġhysterics": 26093,
    "Ġfamed": 16326,
    "by": 1157,
    "Ġstuck": 9220,
    "imprudence": 16557,
    "indul": 22367,
    "Ġwrapping": 19773,
    "Ġbreaking": 6309,
    "dinah": 20078,
    "narwhale": 17317,
    "eminently": 25105,
    "Ġergo": 25029,
    "Ġstaircase": 20093,
    "Ġcondescend": 19952,
    "Ġwarriors": 19721,
    "general": 7488,
    "Ġwinking": 17794,
    "Ġimproving": 1210,
    "2": 22,
    "grow": 10098,
    "Ġunhe": 22008,
    "Ġgloried": 22983,
    "flinging": 20867,
    "dred": 2526,
    "near": 5842,
    "Ġstranger": 3485,
    "Ġuninterrupted": 22043,
    "Ġappear": 2483,
    "Ġeffects": 7235,
    "ellent": 3762,
    "gen": 6502,
    "Ġpride": 3823,
    "Ġmended": 21312,
    "sentimental": 25681,
    "Ġcleared": 6074,
    "Ġsalutations": 25382,
    "Ġsheeted": 19829,
    "Ġintolerable": 8480,
    "Ġwidows": 24237,
    "longbourn": 9895,
    "Ġcorresponds": 19819,
    "Ġimprisonment": 22387,
    "Ġsmelling": 16064,
    "Ġfanning": 23389,
    "Ġtweed": 22674,
    "),": 1347,
    "Ġended": 7948,
    "Ġreg": 727,
    "Ġhorrid": 7997,
    "Ġspanish": 2827,
    "formity": 10278,
    "Ġsim": 733,
    "Ġyea": 8915,
    "Ġ1778": 25730,
    "isf": 2434,
    "Ġhow": 599,
    "Ġseven": 4541,
    "Ġxlix": 25860,
    "Ġgreece": 17069,
    "gged": 3777,
    "Ġagreement": 18542,
    "Ġdecency": 18491,
    "Ġcommendation": 13609,
    "oundered": 14165,
    "Ġassu": 21895,
    "commun": 15034,
    "concerns": 24067,
    "Ġdescribing": 19253,
    "gale": 13723,
    "spr": 7434,
    "Ġtreble": 16503,
    "aring": 1477,
    "Ġamused": 11798,
    "fisher": 7546,
    "Ġobjects": 5578,
    "Ġintently": 8167,
    "Ġcontents": 7209,
    "Ġpack": 5444,
    "Ġcitadel": 25438,
    "epilogue": 22103,
    "Ġmouthful": 16574,
    "catherine": 7126,
    "Ġbri": 21376,
    "Ġdoubtfully": 23480,
    "ashions": 16416,
    "Ġtamely": 24977,
    "ocratic": 17245,
    "Ġmeanings": 18607,
    "Ġforwarded": 19045,
    "Ġcopies": 24935,
    "ifully": 13185,
    "liberal": 26281,
    "Ġearly": 2078,
    "Ġabsence": 4893,
    "Ġshrugged": 12766,
    "excuse": 13380,
    "Ġdummy": 25449,
    "Ġfagged": 17883,
    "Ġced": 10784,
    "Ġtattered": 21170,
    "Ġgeneral": 1861,
    "Å": 134,
    "finish": 24385,
    "fashion": 8079,
    "straw": 24095,
    "Ġfewer": 16222,
    "kindness": 10505,
    "Ġbranches": 6776,
    "ensils": 22545,
    "Ġseek": 4508,
    "Ġportents": 14680,
    "Ġmu": 17796,
    "Ġalacrity": 15734,
    "Ġspouting": 9437,
    "Ġreplaced": 13070,
    "drunk": 24660,
    "orand": 21395,
    "besides": 8695,
    "uttle": 6247,
    "arken": 18667,
    "Ġsleek": 23383,
    "Ġrele": 2914,
    "Ġfiver": 22776,
    "Ġchaff": 18383,
    "Ġhanging": 5447,
    "Ġspending": 10923,
    "Ġcunning": 6238,
    "bid": 5611,
    "Ġproper": 1379,
    "Ġproudly": 19740,
    "Ġlightnings": 16351,
    "sustained": 20567,
    "mur": 5428,
    "Ġhumans": 8928,
    "Ġunreasoning": 15843,
    "Ġgirl": 3082,
    "Ġire": 12666,
    "inces": 13827,
    "cig": 17503,
    "Ġsuggested": 8319,
    "Ġdefect": 8553,
    "happy": 4424,
    "Ġcompletely": 4859,
    "Ġranged": 10257,
    "Ġvice": 6547,
    "Ġfastidious": 14493,
    "notches": 22748,
    "sequently": 14584,
    "twinkle": 23703,
    "Ġartfully": 22607,
    "abetical": 15740,
    "concerted": 16671,
    "wid": 10134,
    "cho": 2760,
    "Ġlowerings": 23646,
    "[_": 5130,
    "encyclopÃ¦dia": 16663,
    "feeder": 12359,
    "Ġswaths": 23056,
    "Ġmadman": 13150,
    "each": 7334,
    "Ġtendinous": 16931,
    "sharp": 10306,
    "Ġfeathers": 15119,
    "Ġcolumbus": 26564,
    "observing": 25494,
    "Ġcasement": 25092,
    "utted": 15658,
    "âĢĿ]": 21809,
    "memory": 13616,
    "Ġdividing": 12109,
    "Ġbored": 16103,
    "Ġvalley": 5850,
    "Ġcall": 2074,
    "Ġcocked": 12901,
    "Ġelevates": 24504,
    "Ġtennessee": 26596,
    "Ġlive": 2736,
    "marked": 9048,
    "fted": 9118,
    "Ġcounterpane": 11343,
    "Ġdefy": 11896,
    "confusion": 13368,
    "Ġimbued": 17454,
    "ecess": 17532,
    "Ġabsurdly": 19957,
    "Ġsetting": 7045,
    "Ġwipe": 25764,
    "Ġfacing": 10171,
    "Ġlighter": 12650,
    "owards": 4593,
    "Ġyarns": 15195,
    "Ġhonors": 23601,
    "ackled": 22417,
    "Ġwindings": 18909,
    "Ġparad": 2841,
    "writ": 16553,
    "Ġfrancisco": 26064,
    "pain": 7349,
    "Ġalan": 10869,
    "Ġappre": 5164,
    "Ġtheorem": 2325,
    "oro": 21393,
    "Ġpettic": 14841,
    "tracks": 19636,
    "getting": 12964,
    "Ġbutter": 6842,
    "Ġdesign": 4133,
    "Ġdecomposition": 5342,
    "ns": 751,
    "Ġsatisfying": 23697,
    "Ġpipes": 9850,
    "Ġvows": 15806,
    "Ġsupposing": 6729,
    "Ġfronts": 20530,
    "Ġflounders": 23012,
    "Ġvehicle": 20136,
    "Ġaroused": 15892,
    "mology": 12489,
    "ient": 393,
    "Ġcrackling": 24958,
    "quick": 6399,
    "Ġmostly": 7662,
    "Ġdeformed": 14046,
    "Ġfabulous": 25948,
    "Ġmann": 18416,
    "ediction": 17945,
    "Ġmalacca": 24394,
    "Ġpursu": 3237,
    "direction": 17524,
    "deformity": 22144,
    "Ġmur": 2487,
    "Ġtuesday": 9626,
    "Ġwithdra": 6397,
    "Ġpreposterous": 13668,
    "Ġknown": 1641,
    "thunder": 10262,
    "Ġfireside": 23532,
    "Ġsir": 1569,
    "cond": 1663,
    "Ġhellish": 10550,
    "Ġdozing": 22240,
    "stories": 18024,
    "opolising": 25676,
    "gument": 20884,
    "arks": 2843,
    "Ġdesirous": 8942,
    "Ġdegra": 2589,
    "Ġseam": 3908,
    "Ġplaced": 3445,
    "Ġturnkeys": 23026,
    "Ġharvest": 13414,
    "Ġmatrix": 1608,
    "Ġbiography": 22763,
    "Ġvon": 14080,
    "Ġhenry": 5196,
    "Ġcurtains": 22950,
    "orse": 5806,
    "Ġlaboratory": 13611,
    "Ġassociated": 12247,
    "Ġmethinks": 10392,
    "Ġinteresting": 4325,
    "Ġbeatrix": 24205,
    "Ġrossum": 3010,
    "Ġitaly": 10867,
    "Ġphilosophy": 7102,
    "Ġinco": 14260,
    "Ġanonym": 17898,
    "Ġmagnus": 18956,
    "Ġbernard": 20683,
    "Ġunmethodically": 22068,
    "Ġinsisted": 12044,
    "Ġ59": 24328,
    "conversation": 7121,
    "Ġgraphs": 25463,
    "etymology": 14701,
    "Ġgates": 10200,
    "ļ": 253,
    "Ġbubbles": 11399,
    "Ġvapor": 8699,
    "Ġprocedural": 12029,
    "Ġtall": 4038,
    "plans": 21948,
    "uneven": 23682,
    "Ġcursory": 18834,
    "preserving": 25304,
    "Ġcrust": 21349,
    "Ġcreations": 18683,
    "degree": 12798,
    "Ġill": 2196,
    "Ġapproximates": 2417,
    "doctor": 19095,
    "Ġdrawing": 3917,
    "Ġflower": 16231,
    "fitting": 1510,
    "Ġcard": 7362,
    "Ġgodlike": 23356,
    "Ġwake": 4748,
    "phil": 7924,
    "Ġperuvian": 18452,
    "hers": 7634,
    "Ġvishnoo": 12750,
    ":": 30,
    "Ġincredible": 9513,
    "iveness": 2465,
    "isely": 4488,
    "inj": 9151,
    "Ġdiligently": 11406,
    "lascar": 20959,
    "servant": 15036,
    "Ġjar": 15948,
    "Ġproxim": 3196,
    "Ġcabinets": 23861,
    "Ġmyst": 4050,
    "urged": 18048,
    "Ġunwelcome": 12777,
    "Ġnois": 4268,
    "Ġaverse": 11080,
    "Ġlot": 6678,
    "hearth": 15498,
    "Ġhilariously": 25450,
    "ceremony": 20588,
    "cal": 1120,
    "Ġfather": 1452,
    "article": 22396,
    "iamond": 14591,
    "Ġpinioned": 21480,
    "Ġresemblance": 7972,
    "nett": 16219,
    "maj": 18801,
    "Ġstash": 18068,
    "v": 90,
    "Ġinfluence": 5515,
    "Ġclassification": 1088,
    "Ġfunctional": 3045,
    "Ġreverence": 12057,
    "!)": 10068,
    "royal": 11394,
    "atig": 13844,
    "rud": 4191,
    "Ġshudderings": 25200,
    "Ġoil": 3375,
    "doc": 23375,
    "Ġmortar": 19391,
    "Ġbare": 6132,
    "Ġsaintsbury": 26372,
    "Ġunlike": 7004,
    "Ġasc": 4764,
    "Ġvalue": 2084,
    "Ġinterpreted": 1709,
    "Ġunhinged": 26216,
    "Ġlively": 5449,
    "Ġagreeing": 20016,
    "Ġleathern": 15051,
    "ather": 740,
    "Ġapproving": 18509,
    "Ġgrew": 5181,
    "Ġyours": 4125,
    "floated": 24644,
    "Ġdismissed": 12889,
    "Ġ133": 24783,
    "Ġeighty": 19474,
    "sensible": 20049,
    "dress": 17520,
    "jaw": 13742,
    "Ġleyden": 21744,
    "kish": 20933,
    "Ġscraps": 16902,
    "Ġresults": 7307,
    "damn": 20021,
    "Ġmysteries": 11323,
    "am": 367,
    "fes": 20850,
    "Ġsnatched": 10471,
    "otions": 7179,
    "Ġbeginning": 4244,
    "offices": 19063,
    "threadbare": 25989,
    "during": 6787,
    "abash": 18108,
    "Ġintercept": 14269,
    "tribute": 21087,
    "roar": 17953,
    "hundred": 8329,
    "occur": 19573,
    "Ġkentuckian": 26342,
    "heartedness": 24827,
    "Ġowner": 8921,
    "Ġgardiner": 3236,
    "ig": 322,
    "I": 45,
    "Ġeavesdroppers": 25963,
    "Ġdisposing": 19373,
    "Ġencapsulate": 13673,
    "Ġtus": 10749,
    "biscuit": 17500,
    "Ġmonster": 3793,
    "itations": 17818,
    "Ġjig": 15949,
    "Ġtissu": 25920,
    "Ġbreakfast": 3974,
    "Ġabatement": 22273,
    "Ġslate": 11936,
    "Ġm": 274,
    "Ġcomely": 21845,
    "pagan": 17285,
    "Ġpop": 5150,
    "Ġclassify": 1542,
    "Ġchilled": 18382,
    "Ġwhisky": 23932,
    "tural": 21065,
    "Ġlookest": 22713,
    "Ġforgetfulness": 14607,
    "Ġgust": 21594,
    "ashtego": 4103,
    "Ġshocks": 16456,
    "gue": 12465,
    "Ġfold": 5531,
    "wooden": 24588,
    "Ġabruptly": 15150,
    "Ġsets": 8773,
    "Ġpolite": 9881,
    "Ġrejoiced": 8683,
    "Ġsling": 21219,
    "ę": 218,
    "Ġlifting": 10196,
    "frequent": 15352,
    "Ġwoollen": 12101,
    "one": 615,
    "Ġcompared": 2232,
    "Ġever": 1179,
    "irting": 11685,
    "inno": 10756,
    "Ġwaving": 8574,
    "carpet": 25202,
    "Ġprodu": 1205,
    "Ġjerk": 16950,
    "Ġgaiters": 20458,
    "Ġawkward": 7072,
    "Ġpunctilious": 26352,
    "Ġdestiny": 8983,
    "Ġwears": 10240,
    "Ġgovernments": 20265,
    "Ġchin": 4890,
    "na": 13759,
    "rals": 21041,
    "Ġst": 332,
    "flagged": 23970,
    "istics": 1630,
    "married": 9948,
    "Ġmurderers": 16811,
    "Ġinsincere": 26599,
    "Ġlivery": 15997,
    "uss": 8763,
    "Ġbase": 5012,
    "completed": 19991,
    "een": 726,
    "Ġjapanese": 10632,
    "usations": 15945,
    "Ġminut": 2206,
    "Ġhom": 9186,
    "Ġsank": 5075,
    "stately": 18022,
    "Ġ129": 24475,
    "Ġdarker": 13118,
    "overcome": 19052,
    "ually": 2770,
    "âĢĿ)": 21808,
    "Ġkept": 3348,
    "Ġflourishing": 25187,
    "Ġimmortal": 8016,
    "Ġremove": 7498,
    "Ġming": 9645,
    ")âĢĶâĢľ": 20742,
    "resolutions": 26164,
    "Ġnonsensical": 21526,
    "Ġconsec": 21802,
    "Ġcreeping": 18684,
    "Ġconqueror": 25796,
    "alog": 8804,
    "imental": 16533,
    "Ġenabled": 9295,
    "Ġrounds": 18883,
    "contented": 14635,
    "sway": 15423,
    "Ġ118": 19696,
    "Ġramadan": 9574,
    "res": 2759,
    "Ġreaches": 18032,
    "Ġemigrant": 25859,
    "abhorred": 17335,
    "itudes": 3012,
    "omorrah": 18018,
    "Ġreligious": 25121,
    "Ġskul": 22793,
    "Ġimparts": 18446,
    "hyme": 19607,
    "Ġenergy": 2552,
    "Ġcircumstances": 3925,
    "dashed": 12453,
    "successfully": 14991,
    "chance": 6827,
    "Ġfetching": 16896,
    "Ġsleepy": 8266,
    "Ġbedfellows": 23438,
    "either": 6791,
    "Ġfifty": 4623,
    "stretched": 10207,
    "venty": 6426,
    "Ġmock": 3692,
    "serv": 7450,
    "revenge": 13841,
    "ton": 1727,
    "ulty": 22564,
    "Ġyelling": 18097,
    "Ġcalls": 6744,
    "Ġindomit": 22958,
    "Ġsturgeon": 20590,
    "Ġdispelling": 23879,
    "rawling": 21633,
    "Ġfighting": 12195,
    "cious": 6643,
    "caus": 11477,
    "lording": 24050,
    "Ġdeceiving": 21834,
    "disappearing": 23504,
    "Ġcous": 3438,
    "Ġ37": 24078,
    "Ġgirdled": 19157,
    "Ġunexpl": 22036,
    "Ġideas": 5494,
    "Ġafternoon": 6052,
    "G": 43,
    "eskye": 21448,
    "ylon": 24975,
    "olen": 9699,
    "Ġprestige": 22233,
    "Ġinherent": 4590,
    "Ġfurlongs": 20722,
    "except": 5383,
    "ignantly": 23265,
    "Ġfejee": 18353,
    "Ġenvy": 13181,
    "Ġeverywhere": 9795,
    "Ĳ": 243,
    "Ġrespects": 7268,
    "Ġgroans": 14823,
    "Ġunpardonable": 22059,
    "Ġcorp": 5575,
    "streets": 13394,
    "burned": 25079,
    "Ġrelev": 1712,
    "Ġlur": 5225,
    "Ġrav": 14305,
    "Ġbring": 3324,
    "owder": 8448,
    "Ġblackstone": 23388,
    "Ġtoils": 10185,
    "roy": 7852,
    "bonnet": 25742,
    "Ġtrifled": 24675,
    "Ġcruisings": 25864,
    "Ġpuffed": 14976,
    "Ġesc": 2256,
    "Ġdrawled": 23987,
    "Ġreced": 15689,
    "Ġran": 3343,
    "quently": 9701,
    "Ġmiddle": 4139,
    "Ġretirement": 25378,
    "Ġgentlemanly": 19315,
    "Ġgreatness": 12940,
    "Ġsongs": 13419,
    "wall": 10136,
    "Ġhoist": 11975,
    "granting": 23413,
    "apprehens": 17405,
    "affection": 7486,
    "Ġbenefited": 19396,
    "Ġremarkable": 4914,
    "Ġunwillingly": 15846,
    "Ġabed": 22262,
    "leviathan": 7783,
    "Ġcaravan": 26290,
    "Ġsplintered": 11419,
    "Ġscorched": 17101,
    "Ġpouring": 12621,
    "penny": 22943,
    "crier": 20819,
    "x": 92,
    "Ġhessian": 3547,
    "illum": 15867,
    "oise": 15403,
    "rapidly": 15242,
    "Ġescort": 23507,
    "andy": 8156,
    "Ġthings": 1963,
    "Ġabsolut": 3910,
    "Ġeffective": 1248,
    "lie": 12480,
    "Ġrole": 15995,
    "Ġann": 4489,
    "omics": 21640,
    "Ġwhittling": 20698,
    "peleg": 16292,
    "save": 13784,
    "Ġlust": 9197,
    "returns": 23134,
    "Ġfeast": 10277,
    "Ġgaiety": 16749,
    "Ġsavor": 23874,
    "Ġconcealment": 16913,
    "daughters": 13465,
    "Ġtanning": 17729,
    "anybody": 12080,
    "governed": 25405,
    "Ġmadly": 16484,
    "Ġaz": 9629,
    "Ġsuffocated": 20727,
    "pyramid": 21029,
    "Ġwaste": 9233,
    "exe": 11788,
    "Ġhard": 1442,
    "iguous": 18044,
    "Ġfilm": 23923,
    "Ġpurchas": 19872,
    "ipping": 2209,
    "Ġinspirited": 23420,
    "encounter": 20389,
    "detective": 24384,
    "hears": 12530,
    "Ġneglig": 18877,
    "Ġlies": 5295,
    "Ġridicule": 13511,
    "sensibility": 25023,
    "Ġvinegar": 20097,
    "transform": 8048,
    "soc": 5174,
    "Ġfeebly": 24877,
    "Ġcircus": 19091,
    "elfth": 22366,
    "Ġtransport": 11279,
    "eps": 12788,
    "Ġjewel": 9941,
    "Ġdup": 21425,
    "¨": 106,
    "Ġscar": 3208,
    "shirt": 22445,
    "Ġspray": 7892,
    "Ġfumbled": 17882,
    "on": 267,
    "Ġgenerates": 3665,
    "nerable": 16274,
    "Ġunderneath": 16336,
    "Ġinvoluntarily": 8546,
    "Ġeternally": 11370,
    "sec": 6152,
    "Ġmalignity": 10556,
    "Ġscheme": 7063,
    "Ġmoses": 21314,
    "Ġentertaining": 16926,
    "Ġeconomically": 25288,
    "useless": 14595,
    "Ġbeliefs": 24583,
    "Ġwriters": 13542,
    "Ġresolving": 9417,
    "Ġinattention": 17932,
    "Ġacute": 16121,
    "saturday": 14858,
    "Ġdespondence": 25869,
    "Ġabrid": 22269,
    "atever": 3075,
    "Ġimmens": 9938,
    "kily": 20936,
    "Ġslavish": 23172,
    "wherefore": 19108,
    "Ġdiscomp": 11865,
    "thrasher": 25658,
    "tier": 12512,
    "threshold": 21985,
    "Ġchasing": 11753,
    "Ġloosed": 22109,
    "rem": 1522,
    "Ġcrests": 25685,
    "Ġsoil": 9254,
    "Ġoperations": 2300,
    "dee": 11732,
    "mantel": 26394,
    "Ġresting": 7960,
    "smallest": 23910,
    "infl": 15486,
    "Ġdreading": 23797,
    "Ġinhospit": 25452,
    "Ġaddresses": 3769,
    "Ġexpressions": 7704,
    "Ġincorrect": 2730,
    "bidden": 19735,
    "Ġinsure": 13177,
    "acled": 16079,
    "Ġdepending": 14292,
    "Ġcircles": 7965,
    "Ġuncommonly": 7758,
    "Ġredness": 19311,
    "Ġapo": 9630,
    "Ġdried": 7366,
    "Ġgaff": 17994,
    "Ġabhorrence": 9052,
    "Ġribbed": 16804,
    "iac": 6225,
    "Ġenric": 21932,
    "Ġtouching": 4680,
    "kindly": 14744,
    "Ġlondon": 2838,
    "Ġelaborate": 18637,
    "Ġdiscernible": 15069,
    "Ġhurry": 4912,
    "Ġjug": 12832,
    "Ġsharp": 2414,
    "alarm": 15624,
    "Ġpromised": 5180,
    "Ġpicking": 11260,
    "Ġflames": 7938,
    "Ġdolphins": 20393,
    "Ġcloset": 19589,
    "conditional": 9078,
    "adventurous": 25361,
    "Ġtilted": 20410,
    "repressed": 21242,
    "Ġcocksure": 26258,
    "Ġimpressive": 15000,
    "Ġfatt": 15576,
    "Ġundergone": 18985,
    "Ġjeopard": 9942,
    "breadth": 20274,
    "Ġuncounted": 19116,
    "Ġsaloon": 24062,
    "Ġtwelve": 4962,
    "Ġpleaded": 16297,
    "Ġafrican": 20135,
    "Ġshel": 6847,
    "het": 5435,
    "Ġess": 5691,
    "erity": 21266,
    "iscuit": 10598,
    "Ġdeserved": 7735,
    "Ġfew": 1196,
    "Ġdetestation": 17127,
    "bitt": 17485,
    "Ġwished": 3729,
    "ulged": 12727,
    "Ġinstead": 2790,
    "Ġroads": 13287,
    "Ġ130": 24781,
    "in": 262,
    "aunt": 8368,
    "together": 3555,
    "likes": 18814,
    "sulphur": 25909,
    "Ġfoundling": 22971,
    "Ġsi": 21211,
    "pal": 9616,
    "added": 11659,
    "Ġembodiment": 20527,
    "interchange": 23738,
    "pon": 17625,
    "agne": 21903,
    "Ġcetus": 19883,
    "vicinity": 20477,
    "Ġincorporate": 20452,
    "altering": 12637,
    "Ġcorpus": 13029,
    "Ġharpoone": 2908,
    "wonderful": 16959,
    "Ġjot": 11762,
    "Ġsumm": 3357,
    "Ġmist": 2875,
    "Ġswashing": 23054,
    "time": 3143,
    "Ġencircling": 26271,
    "ni": 1692,
    "priv": 9619,
    "Ġjerked": 19830,
    "Ġoarsmen": 7736,
    "ast": 471,
    "Ġcolder": 22851,
    "seemed": 4303,
    "Ġbos": 4874,
    "Ġshed": 8179,
    "quickness": 19848,
    "Ġphyseter": 26586,
    "Ġrecital": 16140,
    "imin": 1771,
    "achalot": 15856,
    "Ġunw": 8849,
    "rapid": 12667,
    "deck": 4500,
    "Ġparticulars": 5754,
    "Ġavenues": 25429,
    "ger": 1107,
    "Ġprint": 18970,
    "Ġcelebrated": 13593,
    "Ġemm": 18003,
    "dock": 16417,
    "Ġkink": 22190,
    "Ġdoomed": 11342,
    "Ġgoing": 2066,
    "shoes": 14240,
    "visits": 24224,
    "Ġpossessor": 23822,
    "Ġaccident": 5380,
    "Ġannesley": 19575,
    "Ġcumbrous": 26432,
    "rints": 12500,
    "nihil": 9852,
    "Ġroyalty": 19734,
    "affectionate": 24921,
    "atic": 4017,
    "Ġapprovingly": 26250,
    "Ġmoulton": 17434,
    "jephro": 26392,
    "subsided": 25830,
    "Ġshock": 6082,
    "Ġlighting": 13081,
    "Ġtapped": 11554,
    "ature": 521,
    "Ġencouraged": 9354,
    "franch": 24285,
    "Ġtokens": 1774,
    "Ġfro": 3471,
    "hamlet": 23262,
    "Ġwreak": 16817,
    "Ġzones": 22817,
    "Ġobli": 9315,
    "Ġ53": 19638,
    "rugg": 15900,
    "Ġemb": 1261,
    "Ġfreezing": 23882,
    "Ġeigenvalues": 4997,
    "neck": 14242,
    "Ġmarshy": 20216,
    "Ġ1807": 26083,
    "Ġschoolmasters": 19718,
    "Ġdisease": 14258,
    "avenue": 25057,
    "Ġaudience": 24769,
    "Ġextend": 18695,
    "Ġgarden": 3826,
    "Ġburglar": 17354,
    "raid": 3280,
    "cottage": 9568,
    "okened": 15982,
    "Ġanecdote": 26354,
    "worse": 14691,
    "Ġdissatisfied": 14257,
    "Ġdiffused": 12066,
    "Ġenclosure": 20622,
    "invested": 17117,
    "ulating": 10887,
    "Ġsaluted": 14758,
    "plifted": 9708,
    "networks": 2405,
    "Ġdumplings": 15190,
    "Ġarduous": 26529,
    "Ġshifted": 14106,
    "Ġnantucketers": 9894,
    "Ġdoom": 6416,
    "ech": 4389,
    "Ġperpendicularly": 11375,
    "Ġarranged": 9876,
    "Ġshaped": 15832,
    "Ġwhatever": 3473,
    "Ġoppose": 16518,
    "Ġpraised": 19550,
    "marry": 13321,
    "ezing": 10573,
    "hour": 7339,
    "Ġmagn": 1554,
    "Ġshilling": 18229,
    "Ġglue": 15671,
    "Ġqualifications": 24676,
    "Ġhamp": 12627,
    "london": 9609,
    "Ġpretension": 23763,
    "Ġfavours": 23282,
    "Ġinsurance": 23679,
    "Ġgladly": 14682,
    "Ġvillains": 14749,
    "Ġdiligence": 17114,
    "Ġvillainous": 25131,
    "Ġgro": 4396,
    "kine": 15374,
    "Ġdistrustful": 25054,
    "eon": 8729,
    "Ġmeek": 21806,
    "Ġisle": 8832,
    "Ġwal": 6516,
    "uns": 21867,
    "Ġencode": 4365,
    "Ġwindow": 2995,
    "Ġmount": 7361,
    "Ġsuspect": 5758,
    "Ġignited": 25069,
    "coat": 5407,
    "Ġberkshire": 16884,
    "Ġunanswerable": 26521,
    "Ġsine": 10763,
    "Ġstag": 6148,
    "Ġtechni": 1776,
    "moving": 11016,
    "Ġbegun": 7242,
    "Ġpreyed": 18366,
    "Ġmerc": 9424,
    "Ġkilled": 4954,
    "Ġmurdered": 6463,
    "holder": 13281,
    "Ġerud": 20052,
    "Ġgrapes": 15215,
    "connect": 1293,
    "Ġwatson": 3597,
    "Ġfac": 6380,
    "enance": 3373,
    "Ġwages": 13853,
    "Ġtidy": 17093,
    "sideways": 14573,
    "Ġdifferen": 937,
    "Ġfingers": 5672,
    "Ġspasmodically": 17313,
    "Ă": 195,
    "Ġhomeless": 23386,
    "Ġwonder": 2120,
    "Ġcrumb": 16439,
    "square": 15060,
    "Ġencoun": 4511,
    "really": 6971,
    "laughing": 15179,
    "gates": 20871,
    "Ġconting": 18472,
    "crimes": 16697,
    "Ġquestion": 2777,
    "Ġdrawings": 14722,
    "Ġor": 437,
    "comp": 3816,
    "hilar": 25081,
    "Ġschools": 9475,
    "Ġsordid": 26422,
    "remem": 13064,
    "impul": 16556,
    "Ġirksome": 13110,
    "Ġmusk": 7493,
    "Ġobjective": 3766,
    "Ġdimin": 3871,
    "Ġpapa": 10656,
    "sudden": 5315,
    "Ġrevolutionized": 3369,
    "Ġuncont": 14116,
    "omitted": 18017,
    "Ġedinburgh": 16435,
    "Ġtragedies": 25241,
    "Ġoath": 7832,
    "Ġconsists": 11976,
    "Ġnameless": 7698,
    "Ġfactor": 19012,
    "Ġobjection": 6585,
    "vishnoo": 21118,
    "build": 12185,
    "Ġoper": 2123,
    "Ġdownstream": 3775,
    "advantage": 8658,
    "cong": 10687,
    "Ġcasualties": 25512,
    "Ġtrades": 8230,
    "Ġsimilarity": 3163,
    "iogn": 20920,
    "uring": 821,
    "Ġbravery": 23835,
    "Ġlandsmen": 11352,
    "alcul": 15625,
    "affold": 16562,
    "iet": 1777,
    "Ġcommunicating": 16889,
    "discoloured": 23500,
    "Ġprinted": 11947,
    "Ġexped": 7649,
    "Ġgradients": 612,
    "Ġmichael": 20678,
    "Ġwhar": 7387,
    "Ġbedside": 19121,
    "sir": 5000,
    "Ġcrusad": 23706,
    "Ġconflict": 17275,
    "Ġevent": 2948,
    "Ġshould": 863,
    "Ġtitle": 11409,
    "profitable": 17071,
    "lads": 20954,
    "ur": 325,
    "sword": 10726,
    "symp": 14612,
    "strongly": 24683,
    "theast": 21745,
    "Ġmoon": 4607,
    "Ġassertions": 19944,
    "pling": 8472,
    "trunk": 23946,
    "empl": 5724,
    "Ġmetropolis": 17273,
    "Ġpreservative": 24626,
    "Ġferry": 24499,
    "hoping": 17566,
    "Ġreligion": 11416,
    "Ġbreathing": 9443,
    "Ġcapstan": 9098,
    "teen": 6369,
    "Ġwretchedness": 9026,
    "secondly": 16983,
    "Ġdesolated": 24812,
    "ġ": 226,
    "Ġrecre": 22735,
    "Ġcoldness": 23758,
    "nour": 20987,
    "aft": 9583,
    "onah": 3337,
    "evil": 11486,
    "Ġforenoon": 19126,
    "wheeler": 16186,
    "rene": 5379,
    "Ġpreluding": 18368,
    "Ġinviting": 19143,
    "Ġpupp": 10820,
    "constit": 24628,
    "Ġgreedy": 3050,
    "Ġconvert": 11842,
    "lue": 8507,
    "professor": 17249,
    "icial": 12652,
    "lived": 12484,
    "scand": 18854,
    "Ġsnap": 11202,
    "works": 6587,
    "Ġinsane": 19268,
    "pole": 9332,
    "Ġgeese": 7692,
    "Ġpaddington": 17095,
    "Ġneglected": 10377,
    "baboon": 25516,
    "intment": 4719,
    "genteel": 19946,
    "Ġworlds": 11945,
    "sphere": 22731,
    "composure": 24034,
    "Ġfreckled": 18959,
    "Ġsecondly": 14519,
    "asserted": 22306,
    "Ġmysterious": 7526,
    "Ġbursting": 8654,
    "Ġyounger": 5251,
    "Ġmountainous": 16599,
    "Ġspir": 2428,
    "Ġexasperated": 11413,
    "Ġamusing": 11799,
    "Ġpoliceman": 15257,
    "alluring": 18352,
    "Ġstrait": 23749,
    "Ġdawn": 6816,
    "Ì": 141,
    "Ġmeridian": 25714,
    "metal": 24765,
    "Ġboisterously": 25682,
    "pooh": 18799,
    "ib": 1235,
    "headed": 4318,
    "Ġgeneralize": 3097,
    "Ġdeposed": 16084,
    "contr": 12055,
    "Ġskilful": 25836,
    "Ġmultitudinous": 26273,
    "pike": 11515,
    "disgust": 23498,
    "Ġlately": 6386,
    "rese": 15507,
    "Ġrum": 5923,
    "Ġrestoration": 19029,
    "Ġprofile": 16487,
    "abiding": 21790,
    "Ġprecisely": 6465,
    "disagreeable": 11163,
    "ods": 8835,
    "Ġ----": 7144,
    "Ġgloss": 11956,
    ";âĢĿâĢĶ": 20759,
    "Ġprobed": 18734,
    "Ġseverity": 15818,
    "Ġinvaluable": 10182,
    "Ġadver": 5641,
    "Ġsauce": 15887,
    "Ġhes": 6250,
    "Ġastir": 14641,
    "Ġmutinous": 23956,
    "rie": 2786,
    "Ġwherein": 14295,
    "Ġoutrageous": 20609,
    "bal": 2158,
    "Ġsenate": 25214,
    "reach": 17758,
    "Ġwishing": 7829,
    "Ġspeechless": 13352,
    "Ġpurposely": 10444,
    "rock": 15638,
    "asburgh": 15644,
    "Ġwheel": 9717,
    "name": 6795,
    "Ġscores": 2716,
    "althily": 19357,
    "pilot": 25908,
    "suspect": 9538,
    "Ġindependent": 9015,
    "Ġpresence": 5030,
    "Ġwhichever": 13999,
    "Ġscrew": 8867,
    "Ġsweet": 3466,
    "iated": 5889,
    "Ġhereabouts": 12975,
    "ipp": 10102,
    "Ġentertain": 6053,
    "foreseen": 14254,
    "timidity": 25753,
    "Ġperils": 6272,
    "carrying": 16712,
    "to": 715,
    "perhaps": 4123,
    "Ġinterpre": 1588,
    "pacing": 21020,
    "motion": 17606,
    "Ġpainter": 19167,
    "Ġwrist": 8241,
    "understood": 13215,
    "Ġtransc": 12861,
    "Ġintru": 15825,
    "Ġblot": 9811,
    "Ī": 235,
    "nostril": 26559,
    "ensibility": 22544,
    "ppings": 18177,
    "Ġwrenching": 17322,
    "Ġmotioned": 19590,
    "Ġcust": 11582,
    "ateness": 15518,
    "Ġmaelstrom": 19354,
    "Ġrows": 10561,
    "Ġdownstairs": 11225,
    "Ġpassing": 4315,
    "Ġtallest": 15473,
    "Ġbolt": 11335,
    "Ġvelvet": 12396,
    "Ġimagined": 8606,
    "Ġcarelessness": 13074,
    "scho": 8759,
    "Ġavoided": 13257,
    "ighb": 10423,
    "ieth": 10704,
    "Ġnewcomer": 26040,
    "Ġunworth": 22033,
    "f": 74,
    "Ġejac": 10203,
    "Ġinfant": 11958,
    "impatient": 13639,
    "freighted": 14892,
    "Ġterribly": 10425,
    "pur": 7805,
    "irements": 22210,
    "Ġopportunities": 19248,
    "menced": 23143,
    "isis": 12576,
    "haw": 6360,
    "Ġrumpled": 24601,
    "ĠĠĠĠĠĠĠĠĠĠĠĠĠĠĠĠĠĠĠĠĠĠĠĠĠĠĠĠĠĠĠĠĠĠĠĠĠĠĠĠĠĠĠĠ": 12151,
    "Ġimpetus": 25569,
    "Ġaloysius": 15735,
    "produ": 10720,
    "inate": 6233,
    "Ġenlivened": 26207,
    "Ġsecrets": 9054,
    "rugged": 6849,
    "https": 11684,
    "Ġalternately": 15032,
    "Ġtruly": 4795,
    "Ġspitz": 14149,
    "Ġhandful": 9781,
    "Ġ91": 24590,
    "Ġnathan": 21523,
    "Ġappalling": 8498,
    "Ġorganisation": 23583,
    "division": 20046,
    "Ġsunny": 13084,
    "Ġhissed": 15786,
    "À": 129,
    "humor": 19450,
    "Ġindiscreet": 22959,
    "itoring": 21330,
    "complied": 19911,
    "Ġboston": 22635,
    "Ġconnecting": 18630,
    "gallantry": 15059,
    "Ġlomb": 21556,
    "Ġeffusion": 22495,
    "Ġstorm": 4300,
    "arious": 10316,
    "Ġtechnique": 2522,
    "agger": 7870,
    "bat": 8070,
    "Ġlandsman": 11351,
    "Ġtranquill": 6630,
    "Ġprized": 23222,
    "Ġinvolved": 8922,
    "dawson": 26128,
    "creator": 26381,
    "Ġrouse": 15820,
    "fanc": 20863,
    "Ġunequal": 14842,
    "Ġdrows": 21433,
    "empty": 23634,
    "Ġkindest": 23295,
    "onist": 21249,
    "Ġostentatious": 25736,
    "Ġjerking": 12243,
    "wonders": 17143,
    "Ġsubproblems": 12954,
    "Ġnugent": 26457,
    "experience": 17158,
    "Ġhunsford": 6300,
    "Ġdamp": 8262,
    "seen": 2879,
    "Ġdata": 517,
    "blades": 24132,
    "Ġmarshal": 20217,
    "Ġdrowsiness": 26445,
    "pleasures": 24046,
    "Ġsublim": 19964,
    "Ġwax": 10776,
    "Ġstro": 4594,
    "Ġimpact": 10296,
    "igantic": 5539,
    "Ġbarrowful": 25595,
    "apan": 6860,
    "teringly": 21820,
    "inclination": 20055,
    "assistant": 25567,
    "Ġcastor": 19425,
    "slack": 16894,
    "Ġcosmopol": 16454,
    "Ġtemptation": 8677,
    "landsmen": 25059,
    "Ġdiscrimination": 23605,
    "grounds": 11151,
    "Ġdi": 6524,
    "Ġaries": 21196,
    "assment": 9738,
    "hence": 16624,
    "Ġaudacity": 19880,
    "presum": 12865,
    "Ġanalyze": 1628,
    "unct": 18155,
    "Ġdevotees": 25376,
    "Ġlion": 9675,
    "Ġslop": 23161,
    "Ġcallest": 17833,
    "vicious": 21117,
    "Ġmeasureless": 14710,
    "acup": 14278,
    "oct": 7553,
    "Ġtackle": 9511,
    "Ġunquestion": 18249,
    "Ġcompanionship": 14920,
    "fifty": 12350,
    "Ġsilence": 3268,
    "erring": 11056,
    "Ġreached": 4022,
    "Ġconsisted": 10419,
    "pointing": 12222,
    "Ġbes": 2662,
    "Ġmorcar": 13012,
    "ctuous": 9205,
    "constantinople": 25508,
    "Ġhieroglyph": 11969,
    "quohog": 21855,
    "labours": 16617,
    "Ġtwinkling": 12322,
    "nurtured": 25524,
    "Ġclerks": 17294,
    "moran": 24153,
    "comfortably": 16875,
    "itz": 6004,
    "Ġranks": 21973,
    "Ġinstances": 5568,
    "omn": 15679,
    "Ġpoltroon": 26598,
    "Ġstacked": 21740,
    "Ġbet": 1134,
    "games": 20879,
    "Ġyoungster": 23178,
    "diff": 9113,
    "glings": 23850,
    "came": 4569,
    "Ġunexampled": 20357,
    "Ġdraw": 3672,
    "Ġcareful": 2611,
    "Ġretarded": 23069,
    "Ġtinkling": 25212,
    "Ġtwinkle": 12321,
    "Ġbe": 336,
    "Ġcrocod": 19626,
    "believing": 19460,
    "Ġperilous": 7767,
    "Ġheightened": 8648,
    "Ġbough": 13893,
    "Ġlines": 4533,
    "Ġobliging": 13242,
    "Ġberg": 24537,
    "crimin": 17508,
    "jud": 4481,
    "Ġtrusty": 24106,
    "complexion": 14360,
    "Ġflashed": 11913,
    "Ġadro": 15865,
    "Ġnoting": 18222,
    "Ġshone": 7403,
    "Ġrattler": 24995,
    "roots": 15640,
    "Ġresponsible": 9885,
    "Ġdeserve": 8307,
    "attention": 2112,
    "ateral": 19375,
    "akin": 11767,
    "shaped": 10308,
    "Ġcapsized": 20087,
    "ustomed": 6098,
    "jets": 20927,
    "Ġassemblage": 26351,
    "Ġd": 284,
    "objection": 19913,
    "Ġprop": 1678,
    "Ġuncompromised": 20602,
    "Ġplaus": 22596,
    "Ġlessened": 19087,
    "Ġplunging": 14952,
    "Ġtower": 8317,
    "Ġhappening": 14383,
    "Ġensure": 23685,
    "Ġadvoc": 12985,
    "triumph": 15439,
    "Ġsecurely": 16802,
    "watch": 6118,
    "ctors": 21587,
    "vard": 21109,
    "commission": 22810,
    "Ġpersist": 16285,
    "original": 9084,
    "impregn": 21711,
    "Ġze": 8544,
    "gladness": 25194,
    "Ġpresided": 20205,
    "orts": 2555,
    "leep": 4634,
    "Ġsunrise": 9372,
    "Ġfrightened": 5341,
    "Ġbrim": 12974,
    "ty": 998,
    "behaviour": 11302,
    "Ġgroves": 16740,
    "estations": 22221,
    "Ġessence": 13404,
    "along": 6011,
    "bordered": 17498,
    "Ġinventing": 24861,
    "Ġhandsom": 11124,
    "Ġcapric": 14577,
    "bub": 15315,
    "room": 2181,
    "emed": 3382,
    "Ġreck": 6536,
    "Ġglorious": 11075,
    "âĢĿâĢĶ": 5721,
    "fem": 17537,
    "Ġcherry": 16935,
    "accuracy": 9878,
    "child": 5538,
    "compared": 24033,
    "nings": 9131,
    "Ġsecondary": 23336,
    "ittingly": 18803,
    "Ġacknowledgment": 16956,
    "Ġtorrid": 25032,
    "nar": 12491,
    "Ġbranded": 14379,
    "Ġcorpor": 23039,
    "itar": 15544,
    "Ġhearth": 11980,
    "Ġindicates": 3190,
    "Ġdecreas": 1646,
    "Ġburnished": 23996,
    "instinctively": 26329,
    "Ġfastening": 16355,
    "Ġvicissitudes": 12417,
    "mechan": 11856,
    "Ġbeech": 18083,
    "Ġabstracted": 17182,
    "Ġnightgown": 23130,
    "gr": 2085,
    "Ġtho": 21511,
    "autumn": 23342,
    "Ġoverflowed": 20260,
    "Ġix": 12665,
    "Ġdespairing": 14773,
    "Ġperceptible": 18451,
    "Ġcorpusants": 13676,
    "prosper": 19100,
    "Ġano": 11596,
    "Ġhideousness": 16914,
    "Ġfrightful": 7734,
    "Ġphilosophical": 26334,
    "reg": 2186,
    "Ġcharnel": 22249,
    "Ġball": 3624,
    "Ġsent": 1778,
    "fam": 5987,
    "Ġoperated": 14548,
    "Ġprofessor": 11231,
    "Ġengine": 1919,
    "Ġraise": 6166,
    "deliver": 19503,
    "Ġrules": 1918,
    "Ġmurderous": 8314,
    "Ġmagnified": 23205,
    "Ġextracting": 11113,
    "Ġalongside": 6310,
    "uce": 11536,
    "aggra": 21904,
    "Ġplot": 14280,
    "outs": 7008,
    "Ġii": 7384,
    "Ġsuggestions": 24454,
    "gledy": 25403,
    "Ġvaluable": 5608,
    "othic": 16214,
    "Ġhardihood": 23110,
    "Ġrigged": 16717,
    "ifling": 15780,
    "Ġpercept": 14223,
    "Ġblessings": 24176,
    "Ġpod": 15601,
    "Ġfled": 6670,
    "likelihood": 4991,
    "thouse": 21980,
    "holloa": 19462,
    "Ġincul": 22546,
    "Ġinve": 17929,
    "mysterious": 26051,
    "Ġpool": 5172,
    "estruct": 22220,
    "Ġlikelihood": 16500,
    "ouching": 13176,
    "Ġther": 17779,
    "longing": 23725,
    "phant": 6286,
    "heim": 17747,
    "lesson": 22768,
    "Ł": 258,
    "trial": 20348,
    "Ġbearded": 15724,
    "Ġaid": 6122,
    "Ġunprotected": 22064,
    "Ġrepay": 19081,
    "Ġpugnacious": 26451,
    "Ġpoland": 23617,
    "silly": 24423,
    "Ġperemptory": 25740,
    "Ġroanoke": 22404,
    "olog": 1096,
    "Ġoat": 21321,
    "Ġhooped": 23354,
    "Ġvexed": 9993,
    "ced": 688,
    "Ġpity": 4940,
    "Ġfordham": 21773,
    "Ġomen": 11576,
    "Ġgenerate": 1541,
    "regarding": 15071,
    "riages": 10242,
    "Ġperished": 11783,
    "Ġoaths": 13523,
    "Ġindians": 14410,
    "Ġblight": 18817,
    "Ġnature": 2537,
    "Ġoysters": 20577,
    "Ġdiversion": 17197,
    "Ġmaterial": 5177,
    ",*": 17471,
    "Ġattributed": 11832,
    "pleasing": 14742,
    "de": 461,
    "Ġignorant": 5343,
    "Ġwhistle": 9065,
    "also": 7849,
    "soup": 21057,
    "Ġestimate": 19371,
    "itatingly": 25277,
    "Ġfuss": 13904,
    "Ġthirst": 7588,
    "Ġcosmopolitan": 20640,
    "Ġdeposited": 25484,
    "joint": 24008,
    "Ġgun": 4701,
    "Ġconsideration": 5190,
    "bled": 5469,
    "voices": 21116,
    "Ġpallor": 13515,
    "Ġinstinct": 6574,
    "Ġblan": 18816,
    "Ġprefer": 6415,
    "Ġholy": 6591,
    "Ġextremely": 2670,
    "erns": 8777,
    "Ġsermon": 12374,
    "Ġcalled": 1974,
    "Ġdau": 21423,
    "Ġbad": 3987,
    "Ġmonstr": 7666,
    "Ġgroup": 2038,
    "Ġunwarrantable": 26353,
    "Ġbreadth": 10563,
    "Ġdare": 3544,
    "Ġcheating": 16368,
    "Ġjurymen": 16847,
    "urring": 21702,
    "Ġanvil": 11597,
    "yards": 9623,
    "Ġmuffled": 10640,
    "Ġresult": 4460,
    "Ġcorrespondent": 19820,
    "quarter": 11389,
    "Ġhing": 11604,
    "Ġenhance": 3191,
    "Ġcell": 6237,
    "began": 6425,
    "table": 5795,
    "heads": 4094,
    "Ġdisreputable": 22531,
    "Ġquite": 1740,
    "glorious": 19365,
    "love": 9293,
    "Ġtrying": 4837,
    "Ġdeprived": 8208,
    "Ġdeaden": 23460,
    "Ġjack": 4652,
    "Ġfirmness": 11238,
    "Ġcandid": 4099,
    "Ġfunction": 585,
    "Ġharp": 17924,
    "Ġsupports": 3047,
    "Ġcruis": 14625,
    "Ġgoblet": 25823,
    "ites": 3898,
    "Ġrecesses": 17260,
    "Ġadvise": 7933,
    "Ġhams": 16612,
    "ð": 177,
    "Ġpawn": 12061,
    "Ġcage": 17826,
    "Ġducks": 25157,
    "emotions": 15794,
    "when": 1590,
    "Ġidler": 16404,
    "laug": 10707,
    "bitterly": 20335,
    "Ġskylight": 24073,
    "ores": 2413,
    "dripping": 16905,
    "untary": 9866,
    "Ġslapped": 23170,
    "happ": 3100,
    "redit": 3875,
    "can": 1233,
    "hibited": 17426,
    "raised": 15676,
    "Ġbower": 15564,
    "Ġgrey": 4512,
    "immediately": 10048,
    "Ġsuperseded": 26223,
    "autions": 20766,
    "proposal": 18754,
    "Ġhuggins": 24828,
    "draughts": 20385,
    "Ġtreacle": 14596,
    "unimportant": 18160,
    "sullen": 17669,
    "hound": 20894,
    "Ġremoving": 12114,
    "Ġengagement": 5397,
    "Ġengineer": 11973,
    "conc": 3946,
    "Ġowners": 7661,
    "precip": 14665,
    "icked": 10332,
    "isance": 17848,
    "Ġrail": 7224,
    "Ġeluded": 12919,
    "converse": 22470,
    "Ġwashington": 17202,
    "Ġarab": 7822,
    "Ġdetested": 14175,
    "Ġbounds": 9917,
    "Ġchancing": 22245,
    "birth": 15321,
    "unbounded": 21883,
    "Ġtorch": 25030,
    "tese": 21082,
    "ier": 1136,
    "Ġcausing": 16356,
    "Ġpractical": 3160,
    "Ġfor": 340,
    "Ġunchanged": 22028,
    "knowing": 10437,
    "Ġwe": 387,
    "Ġnormal": 1203,
    "ches": 2152,
    "Ġcustoms": 19650,
    "Ġdefe": 21832,
    "Ġmoluccas": 25629,
    "Ġeasiness": 23537,
    "Ġdeed": 7866,
    "rings": 10722,
    "Ġcorpora": 26580,
    "nay": 7134,
    "Ġleviathans": 8280,
    "currents": 23843,
    "Ġdiscriminative": 4327,
    "Ġpositively": 13028,
    "¦": 104,
    "Ġcables": 15555,
    "shroud": 20308,
    "description": 11092,
    "Ġwatchful": 16525,
    "Ġtumb": 21168,
    "Ġprayers": 12121,
    "spin": 22729,
    "Ġdevote": 10338,
    "Ġconfidential": 9087,
    "utely": 8130,
    "learned": 8589,
    "Ġhun": 1497,
    "Ġexclam": 6757,
    "Ġbeaks": 21752,
    "Ġincor": 2609,
    "Ġpsychology": 11449,
    "poky": 17644,
    "Ġobstinate": 11350,
    "Ġgentle": 1891,
    "Ġmagnificence": 20631,
    "Ġdissolved": 18553,
    "Ġrector": 21673,
    "Ġcontribut": 12856,
    "Ġinduce": 7761,
    "irious": 15783,
    "Ġ&": 6512,
    "Ġkilling": 13331,
    "anke": 15558,
    "remorse": 14467,
    "Ġtranslation": 3083,
    "Ġgrowing": 6750,
    "Ġdead": 2173,
    "13": 20749,
    "Ġmerid": 13194,
    "dle": 3248,
    "Ġcomfort": 3440,
    "Ġmay": 923,
    "apside": 22963,
    "atter": 639,
    "ouri": 21445,
    "grey": 14912,
    "Ġbig": 5805,
    "cc": 474,
    "apply": 18759,
    "Ġremonstrance": 20621,
    "Ġneedlessly": 23629,
    "Ġhelp": 1639,
    "Ġfrogs": 23921,
    "Ġpolitical": 19222,
    "Ġbreathlessly": 24281,
    "Ġkill": 4454,
    "\\": 64,
    "Ġspar": 10921,
    "verd": 21724,
    "colour": 9902,
    "Ġreeling": 18033,
    "Ġstaff": 14005,
    "medium": 23638,
    "seized": 14034,
    "warmest": 25027,
    "Ġarmies": 16491,
    "Ġchimer": 24603,
    "Ġobservation": 6597,
    "incing": 15484,
    "run": 10721,
    "Ġacquaint": 13042,
    "confirmed": 19643,
    "Ġextrem": 2472,
    "Ġgap": 21596,
    "links": 20957,
    "Ġabandonment": 25603,
    "Ġbless": 4343,
    "evenings": 19461,
    "hel": 4813,
    "skin": 10568,
    "bishop": 13693,
    "brace": 16942,
    "Ġnets": 21521,
    "obviously": 25242,
    "Ġstore": 8452,
    "Ġwarmup": 3921,
    "Ġrecall": 3855,
    "contrast": 25594,
    "Ġshortly": 6196,
    "Ġcorpore": 13400,
    "poling": 12217,
    "Ġgamming": 25542,
    "Ġgardens": 16452,
    "Ġrekindled": 21674,
    "faint": 17545,
    "Ġmors": 17802,
    "Ġinputs": 842,
    "Ġspur": 18303,
    "repaid": 24492,
    "Ġcellars": 24666,
    "Ġincluding": 2846,
    "period": 15895,
    "putation": 7623,
    "ias": 6361,
    "Ġrecovered": 5481,
    "under": 3129,
    "Ġunb": 10907,
    "ructive": 18562,
    "Ġmol": 12558,
    "berwell": 22716,
    "intercourse": 14639,
    "duck": 22409,
    "orative": 21396,
    "Ġjib": 14194,
    "puzzling": 26143,
    "Ġostens": 25275,
    "Ġmagnifying": 16319,
    "Ġfarm": 7839,
    "Ġrephrased": 26477,
    "Ġisol": 8833,
    "Ġwhimsical": 20425,
    "orton": 11755,
    "Ġeats": 15674,
    "Ġspoutings": 14676,
    "Ġissue": 2311,
    "Ġshrivelled": 19701,
    "Ġott": 13865,
    "ful": 673,
    "Ġsummoned": 9910,
    "ouncement": 11744,
    "Ġapartment": 6633,
    "Ġdemon": 7867,
    "flow": 2169,
    "Ġafford": 4366,
    "power": 7135,
    "poster": 11055,
    "dost": 14536,
    "Ġspectre": 16630,
    "Ġcadiz": 17324,
    "actually": 14297,
    "yond": 2329,
    "Ġyears": 1894,
    "Ġhotel": 8650,
    "abases": 3003,
    "Ġcommanded": 6329,
    "isome": 17849,
    "Ġscepticism": 25927,
    "Ġlandscape": 12415,
    "Ġmanx": 7903,
    "Ġcontradicted": 20209,
    "Ġexists": 14040,
    "whaling": 7897,
    "agre": 18165,
    "ax": 693,
    "Ġberm": 21381,
    "oment": 919,
    "Ġdrowned": 9550,
    "ren": 550,
    "beheaded": 22489,
    "Ġ104": 24413,
    "washed": 13043,
    "Ġvillanous": 24054,
    "Ġoverladen": 22359,
    "Ġcontortions": 18476,
    "Ġkindling": 19033,
    "hope": 5988,
    "Ġvaliantly": 22799,
    "omeness": 18016,
    "Ġtales": 10141,
    "nui": 20999,
    "Ġuniversal": 2237,
    "Ġpreventing": 880,
    "Ġguided": 10460,
    "Ġphysical": 7521,
    "Ġbone": 4694,
    "Ġexcept": 3313,
    "Ġanew": 11431,
    "Ġbiographical": 22764,
    "feelings": 5674,
    "Ġwonderland": 23424,
    "Ġlords": 14642,
    "Ġbleached": 24397,
    "Ġpiqu": 21475,
    "Ġsounding": 8263,
    "vari": 1518,
    "Ġhyp": 3872,
    "Ġ45": 14770,
    "chie": 21687,
    "orum": 12587,
    "Ġbewil": 11657,
    "Ġclo": 6041,
    "Ġtransparen": 10541,
    "Ġtuileries": 24826,
    "tempt": 21078,
    "Ġtruck": 19510,
    "Ġcobb": 14272,
    "Ġprompted": 23814,
    "Ġthrice": 10575,
    "requirements": 24857,
    "Ġverte": 9439,
    "salesman": 20670,
    "usion": 3301,
    "tolerable": 17688,
    "Ġhark": 8426,
    "Ġcontemporary": 16010,
    "gentleness": 24844,
    "dman": 10088,
    "ensed": 10995,
    "Ġembarked": 17134,
    "Ġtouch": 3397,
    "Ġremain": 1874,
    "ą": 198,
    "tranquillity": 20545,
    "earliest": 20117,
    "create": 24160,
    "Ġcautiousness": 19863,
    "tornadoes": 26153,
    "Ġjour": 11763,
    "unpardonable": 21888,
    "Ġplate": 8898,
    "manners": 16181,
    "uses": 11760,
    "Ġsuperior": 2753,
    "ã": 164,
    "lur": 13746,
    "Ġsolve": 4197,
    "Ġwoody": 23520,
    "Ġangular": 19205,
    "iner": 2672,
    "Ġshadows": 8011,
    "presented": 12989,
    "Ġdrops": 9032,
    "Ġclergy": 7641,
    "Ġhorizon": 6632,
    "Ġentertainment": 12220,
    "Ġinterruption": 9471,
    "Ġsubl": 7234,
    "Ġparc": 10920,
    "Ġhovers": 19078,
    "Ġgale": 5822,
    "Ġranging": 8477,
    "Ġstarvation": 19788,
    "mong": 15388,
    "Ġindistinct": 17407,
    "carried": 16711,
    "monster": 8592,
    "exception": 9975,
    "inlaid": 21189,
    "Ġquill": 12854,
    "Ġbrew": 23343,
    "Ġmajority": 13291,
    "Ġbeneficial": 23930,
    "Ġdarkened": 16431,
    "Ġraved": 22645,
    "icest": 21561,
    "reme": 2424,
    "Ġhinting": 19647,
    "Ġredeemed": 25789,
    "Ġluxuriant": 20392,
    "ate": 422,
    "Ġpensive": 21473,
    ":âĢĶ": 4431,
    "Ġendangered": 16302,
    "laz": 15384,
    "Ġprince": 18972,
    "Ġcasc": 15553,
    "tide": 11533,
    "Ġveil": 7932,
    "Ġpaul": 12060,
    "inde": 17731,
    "Ġthis": 382,
    "Ġramad": 8526,
    "Ġperformed": 8545,
    "Ġaud": 6661,
    "neying": 22460,
    "verbally": 25360,
    "Ġstands": 5257,
    "Ġcrane": 23439,
    "Ġcruelty": 9968,
    "privilege": 25263,
    "Ġlatterly": 24085,
    "Ġmasonry": 13598,
    "thumb": 18219,
    "Ġquito": 24409,
    "Ġgallop": 19552,
    "Ġcombing": 22847,
    "ceptive": 15974,
    "rench": 3966,
    "Ġreveries": 11347,
    "Ġmbpp": 21320,
    "dies": 15337,
    "broke": 14776,
    "entieth": 17979,
    "Ġungodly": 26513,
    "hat": 6956,
    "Ġsuffers": 2971,
    "Ġsounded": 8591,
    "Ġseaport": 20598,
    "serpent": 16290,
    "Ġjamming": 17264,
    "Ġalteration": 9544,
    "wilful": 25086,
    "Ġaims": 15495,
    "inions": 8400,
    "ergy": 2360,
    "backpropagation": 11984,
    "Ġindisposed": 26288,
    "dire": 15335,
    "Ġdragged": 6889,
    "Ġforgiven": 24026,
    "metallic": 19878,
    "algorithms": 8295,
    "Ġexperiment": 11911,
    "Ġnieces": 8431,
    "Ġnam": 17949,
    "Ġpuzz": 5533,
    "Ġsucked": 14132,
    "Ġprimal": 17107,
    "Ġconvulsive": 19306,
    "Ġrobberies": 23029,
    "wart": 17705,
    "Ġcivil": 4678,
    "Ġperempt": 13672,
    "Ġgreatest": 4092,
    "fate": 17539,
    "Ġsaturn": 22899,
    "Ġregarded": 5762,
    "Ġcand": 3277,
    "Ġunsupplied": 22040,
    "Ġaccommod": 14214,
    "Ġslackened": 15126,
    "Ġbuilded": 24718,
    "Ġenlist": 21934,
    "happen": 19330,
    "Ġflickering": 23013,
    "Ġxxx": 7765,
    "Ġillustrious": 17109,
    "Ġparaphrasing": 26526,
    "escaped": 14231,
    "Ġpray": 3899,
    "_âĢĶâĢĻâĢĿ": 25741,
    "inder": 9152,
    "Ġoh": 2178,
    "dared": 13701,
    "preserver": 20211,
    "sacrifice": 13491,
    "Ġcurvature": 3572,
    "arranged": 19318,
    "Ġsolitudes": 22884,
    "Ġbrick": 8924,
    "Ġdeployment": 11186,
    "Ġsigh": 10336,
    "Ġcalmness": 12090,
    "porpoise": 16437,
    "Ġvineyards": 25106,
    "Ġconcern": 2658,
    "Ġregions": 10323,
    "Ġfloats": 9411,
    "Ġgreen": 3049,
    "seamen": 13625,
    "Ġcrawl": 11376,
    "Ġthre": 2059,
    "Ġgreatly": 5849,
    "Ġpeaking": 22687,
    "Ġruff": 14349,
    "perplex": 18341,
    "intellect": 18821,
    "cription": 20817,
    "Ġrepent": 9862,
    "Ġnobleman": 19390,
    "Ġhazard": 20429,
    "Ġupdate": 2461,
    "sies": 21053,
    "imet": 21703,
    "Ġcharges": 23268,
    "penetrate": 20322,
    "Ġilliter": 23469,
    "avast": 8896,
    "oughed": 22078,
    "promise": 12248,
    "Ġflog": 23622,
    "ha": 3980,
    "Ġeasy": 3453,
    "Ġlacepede": 20492,
    "Ġbattering": 13900,
    "Ġmincing": 18750,
    "Ġcanterbury": 22167,
    "Ġassuring": 13061,
    "Ġsurely": 6306,
    "Ġsingle": 1689,
    "Ġfished": 21408,
    "Ġimmortality": 26325,
    "rated": 6227,
    "Ġdec": 642,
    "Ġunlabeled": 3800,
    "Ġthin": 4348,
    "Ġmatrimonial": 25489,
    "comprehensive": 20625,
    "athans": 7432,
    "gunwale": 20662,
    "insensibility": 23066,
    "Ġjollies": 20367,
    "Ġgiant": 13967,
    "Ġbowed": 6242,
    "against": 5870,
    "Ġliberty": 7760,
    "script": 11077,
    "Ġceti": 24773,
    "Ġmeagre": 21807,
    "rocket": 13943,
    "iteness": 4392,
    "Ġdeceitful": 25733,
    "Ġmontan": 22979,
    "namely": 23674,
    "Ġdeceived": 6543,
    "eding": 7164,
    "corner": 13396,
    "Ġrepul": 16407,
    "Ġtraps": 23077,
    "tempted": 26403,
    "Ġ36": 14767,
    "considerably": 13444,
    "Ġgirls": 4280,
    "vity": 7814,
    "Ġcalmer": 23042,
    "Ġanalogical": 25640,
    "Ġlassitude": 20585,
    "thomas": 18220,
    "advanced": 19586,
    "ipelagoes": 13670,
    "Ġendeavours": 8617,
    "Ġliter": 8811,
    "quaker": 15760,
    "Ġscaled": 2106,
    "act": 786,
    "springs": 24911,
    "Ġsill": 10765,
    "Ġsheet": 6262,
    "Ġexalted": 12410,
    "Ġmiles": 3804,
    "pun": 9617,
    "Ġshivering": 10265,
    "Ġlifts": 25358,
    "ullo": 12726,
    "Ġconveniently": 20076,
    "fered": 5560,
    "Ġdrug": 11411,
    "Ġcarpent": 4465,
    "÷": 184,
    "rained": 5161,
    "Ġhushed": 13924,
    "Ġstout": 6023,
    "Ġlingu": 11614,
    "ce": 313,
    "Ġvol": 4190,
    "Ġsermons": 20192,
    "Ġsinful": 18948,
    "Ġrecollections": 10512,
    "commotion": 24913,
    "Ġwick": 2007,
    "Ġirritation": 20264,
    "Ġimages": 1601,
    "Ġderivative": 2997,
    "Ġreiterating": 26474,
    "Ġcombinations": 22850,
    "popular": 26140,
    "Ġnetwork": 451,
    "ouble": 2663,
    "Ġcrate": 19122,
    "reproach": 15186,
    "~": 98,
    "Ġdreamy": 14703,
    "vices": 21115,
    "Ġpraises": 16730,
    "Ġeffect": 969,
    "Ġcomplement": 23709,
    "Ġappetite": 12382,
    "admirably": 24944,
    "Ġhunting": 7258,
    "Ġaffected": 5577,
    "Ġentreaty": 10529,
    "Ġsamples": 2959,
    "aced": 2407,
    "Ġrevolution": 3306,
    "Ġcontinued": 2919,
    "Ġresignation": 18566,
    "hard": 4689,
    "oftentimes": 19419,
    "Ġatlantic": 7000,
    "viv": 17698,
    "itself": 7833,
    "Ġsallies": 21228,
    "og": 871,
    "h": 76,
    "enhall": 13849,
    "89": 20758,
    "isite": 15560,
    "Ġcontrivances": 12355,
    "Ġprudence": 13919,
    "Ġwintry": 17433,
    "dan": 17515,
    "Ġquantity": 6948,
    "Ġeuropean": 20043,
    "otle": 21794,
    "Ġdoctors": 12149,
    "Ġmenaces": 23105,
    "mccarthy": 15394,
    "lift": 15383,
    "Ġw": 272,
    "Ġdate": 7840,
    "Ġstandards": 19015,
    "fac": 17541,
    "calculating": 25689,
    "Ġwight": 12550,
    "Ġmedical": 9462,
    "izar": 14049,
    "Ġconvince": 14643,
    "Ġestablishment": 13578,
    "idge": 14013,
    "Ġfishermen": 5969,
    "hidden": 17370,
    "Ġunfulfilled": 26509,
    "acquired": 24297,
    "osite": 4892,
    "emberley": 4173,
    "eag": 20841,
    "Ġlanguages": 1568,
    "aston": 7407,
    "maged": 15392,
    "Ġweight": 657,
    "telescope": 26562,
    "Ġbillow": 14778,
    "Ġfile": 13902,
    "embarr": 15796,
    "Ġmadden": 10447,
    "prick": 19341,
    "ivities": 22074,
    "gling": 10097,
    "Ġwilderness": 14840,
    "quitted": 21854,
    "masterly": 24531,
    "became": 10514,
    "allions": 22195,
    "Ġbaby": 6636,
    "earnestly": 17312,
    "Ġliv": 6679,
    "ushion": 14720,
    "Ġassumpt": 5415,
    "alive": 10827,
    "Ġacting": 10991,
    "Ġruinous": 24634,
    "â": 163,
    "solving": 3096,
    "Ġaged": 10321,
    "Ġfe": 490,
    "Ġmole": 11790,
    "mpt": 6653,
    "tram": 19633,
    "Ġblasphe": 17406,
    "nel": 11505,
    "Ġpages": 15605,
    "ture": 7557,
    "Ġreducing": 1959,
    "Ġ156": 20168,
    "Ġcomprehens": 8318,
    "hack": 20895,
    "fuller": 22497,
    "Ġcock": 10999,
    "Ġsuburban": 17345,
    "Ġabused": 22266,
    "ler": 3490,
    "flag": 14711,
    "io": 3802,
    "Ġhire": 21482,
    "Ġsworn": 14435,
    "Ġmessage": 13522,
    "astern": 8580,
    "Ġhollow": 5648,
    "ains": 5093,
    "Ġpatient": 6892,
    "Ġchamois": 16800,
    "Ġlowered": 6735,
    "Ġtarpaul": 17730,
    "Ġnovember": 11748,
    "Ġcan": 473,
    "animals": 24737,
    "magnetic": 20551,
    "Ġdiverse": 19207,
    "itically": 21328,
    "Ġimpressed": 8197,
    "inese": 12876,
    "Ġrim": 21966,
    "Ġhistorical": 3647,
    "ividual": 5464,
    "\",": 10678,
    "icher": 9202,
    "Ġhaws": 21956,
    "Ġrecursive": 4781,
    "Ġannotations": 25954,
    "Ġ100": 14364,
    "Ġsculpture": 26016,
    "Ġgarb": 21600,
    "Ġdiver": 2529,
    "Ġsaint": 15506,
    "Ġpen": 1531,
    "Ġhudson": 15191,
    "naturedly": 24840,
    "honey": 20904,
    "Ġstay": 3090,
    "Ġcad": 12565,
    "Ġart": 747,
    "Ġrephr": 21676,
    "Ġfails": 13312,
    "Ġsimultaneous": 22585,
    "profound": 16424,
    "Ġfervent": 14896,
    "carriage": 9945,
    "Ġoriginate": 24123,
    "Ġunaccountably": 26515,
    "Ġnibbling": 17384,
    "Ġharshly": 25249,
    "prodigious": 17466,
    "Ġpreprocess": 22230,
    "ion": 296,
    "Ġknife": 7308,
    "shoe": 14966,
    "blind": 16705,
    "Ġplu": 8798,
    "ĠĠĠĠĠĠĠĠĠĠĠĠĠĠĠĠĠĠĠĠĠĠĠĠĠĠ": 13387,
    "ager": 6545,
    "Ġsemantic": 1960,
    "Ġpausing": 8651,
    "Ġisa": 14024,
    "Ġglory": 6064,
    "secret": 12234,
    "ableness": 8147,
    "ratches": 20122,
    "Ġcomputes": 4767,
    "waters": 11334,
    "rah": 8135,
    "Ġtreading": 16504,
    "Ġfortunes": 12176,
    "objections": 19914,
    "inary": 3275,
    "inex": 14091,
    "leag": 21364,
    "Ġdiv": 3731,
    "ww": 10737,
    "Ġsurrounds": 24232,
    "Ġslid": 7950,
    "pp": 384,
    "Ġbark": 10798,
    "comb": 11035,
    "Ġnormalizing": 1823,
    "Ġconjured": 25099,
    "Ġbottles": 16570,
    "Ġsled": 21217,
    "Ġseizure": 21962,
    "Ġcompensated": 17400,
    "Ġsurmise": 12293,
    "Ġviolates": 3161,
    "unexpected": 15775,
    "Ġpictures": 5503,
    "Ġenjoyments": 24017,
    "european": 26371,
    "complacency": 19912,
    "Ġamaze": 22480,
    "sensations": 20048,
    "Ġcauses": 2562,
    "naturalists": 23475,
    "Ġsnoring": 23739,
    "Ġwherever": 8522,
    "Ġslammed": 20445,
    "Ġsalut": 10509,
    "slee": 17168,
    "helm": 12169,
    "fact": 6357,
    "Ġoutright": 18413,
    "pulled": 25145,
    "Ġ181": 23893,
    "Ġtrim": 15966,
    "Ġzer": 1092,
    "uesday": 8587,
    "esteemed": 26009,
    "Ġpull": 5151,
    "Ġfanatic": 23391,
    "Ġmajor": 13290,
    "Ġtattooing": 15028,
    "Ġenveloped": 12206,
    "reflected": 24732,
    "obliged": 20630,
    "hush": 20905,
    "naturally": 14564,
    "Ġpythag": 26448,
    "witted": 17707,
    "follow": 5680,
    "ante": 11720,
    "Ġthw": 21512,
    "Ġproc": 5545,
    "Ġlashings": 25097,
    "oquent": 12497,
    "Ġparading": 23710,
    "Đ": 209,
    "bos": 17483,
    "Ġcoats": 16074,
    "exclaimed": 11789,
    "hatred": 24821,
    "Ġbristling": 20525,
    "Ġconceals": 23902,
    "mical": 9128,
    "heidelburgh": 21210,
    "ras": 21035,
    "Ġrosings": 4606,
    "omit": 13973,
    "appears": 12058,
    "Ġsuspected": 9062,
    "Ġjagged": 18407,
    "Ġbowsman": 11256,
    "nowadays": 22335,
    "varieties": 23186,
    "Ġwishes": 4794,
    "Ġtoss": 10184,
    "Ġcolle": 8923,
    "hoist": 23713,
    "Ġlives": 4824,
    "Ġfluid": 11213,
    "lightened": 12063,
    "itious": 8779,
    "Ġcalcul": 3639,
    "woes": 21132,
    "Ġwhen": 514,
    "Ġmining": 22827,
    "Ġestim": 3350,
    "spouter": 22732,
    "Ġbaff": 10799,
    "Ġfamil": 4320,
    "Ġtooks": 23325,
    "imming": 9686,
    "conditionally": 24834,
    "Ġcerem": 7076,
    "ascar": 8433,
    "Ġsequences": 1751,
    "ocris": 23708,
    "unusual": 21877,
    "Ġdecoyed": 18494,
    "Ġperformance": 1309,
    "Ġtents": 13817,
    "Ġweakened": 16823,
    "Ġlow": 1645,
    "imodal": 17446,
    "Ġhourly": 23302,
    "Ġgunwale": 7324,
    "Ġacknowledges": 24687,
    "volume": 18594,
    "Ġappears": 5402,
    "Ġsammy": 24932,
    "Ġlawy": 9453,
    "Ġsqualls": 17020,
    "Ġoverhead": 11772,
    "Ġtraits": 23072,
    "Ġlesson": 7275,
    "Ġshr": 4226,
    "shoulder": 16583,
    "evidence": 25521,
    "Ġafresh": 18627,
    "Ġdescribe": 2765,
    "Ġinsatiate": 19269,
    "brothers": 17024,
    "und": 4119,
    "ks": 3142,
    "Ġoccurs": 1856,
    "compasses": 19456,
    "Ġcrowder": 19454,
    "Ġmajesty": 5200,
    "Ġsneer": 13446,
    "avers": 17480,
    "Ġholidays": 22920,
    "Ġsquire": 16179,
    "Ġneg": 1332,
    "1": 21,
    "Ġhit": 7162,
    "Ġlig": 21545,
    "Ġwearied": 15790,
    "uncontrollable": 20594,
    "Ġspan": 11727,
    "extent": 22751,
    "writes": 4987,
    "Ġprovoked": 13323,
    "ould": 428,
    "Ġimpropri": 14217,
    "murderers": 25728,
    "Ġgenteel": 19978,
    "pro": 2050,
    "study": 15117,
    "uries": 6147,
    "Ġcontented": 9755,
    "Ġunfolded": 10638,
    "congratulations": 20277,
    "Ġvigil": 9505,
    "nable": 13761,
    "Ġlawless": 19433,
    "Ġshoals": 13133,
    "Ġsmite": 22554,
    "fine": 10090,
    "overed": 2852,
    "sweeping": 24615,
    "orses": 6051,
    "Ġdiggings": 24650,
    "Ġvulture": 17338,
    "Ġduly": 13349,
    "saying": 8640,
    "Ġbattle": 5907,
    "Ġoffend": 16142,
    "Ġavailed": 23950,
    "Ġfinds": 6298,
    "storm": 9681,
    "arctic": 12607,
    "Ġsens": 1852,
    "ssing": 3809,
    "Ġsingers": 23770,
    "Ġhilarity": 20295,
    "Ĭ": 237,
    "active": 16101,
    "Ġwest": 5218,
    "kles": 17584,
    "deed": 1520,
    "prevented": 20371,
    "Ġbald": 16205,
    "Ġverses": 17063,
    "Ġsanity": 24979,
    "repro": 10770,
    "must": 3576,
    "Ġpenny": 16312,
    "Ġflirt": 14423,
    "Ġspoke": 2748,
    "gaff": 20881,
    "heartily": 24216,
    "early": 20116,
    "Ġing": 5283,
    "Ĥ": 229,
    "Ġbitterest": 12400,
    "Ġgettest": 23233,
    "magnitude": 17248,
    "Ġhairs": 13229,
    "ĠĠĠ": 2117,
    "ically": 850,
    "Ġcomforts": 14694,
    "Ġfacility": 19847,
    "Ġarisen": 11742,
    "Ġmulti": 1042,
    "Ġenchanting": 17039,
    "icions": 21560,
    "ess": 409,
    "Ġgenerating": 12849,
    "Ġduplicate": 17215,
    "mits": 13755,
    "shriek": 20518,
    "C": 39,
    "Ġindustry": 18842,
    "paying": 25411,
    "Ġabstra": 22268,
    "bermaid": 20789,
    "Ġ126": 24472,
    "Ġrenowned": 26193,
    "bo": 1687,
    "Ġeagerly": 4989,
    "Ġcollecting": 12284,
    "Ġexplanations": 15908,
    "vi": 2373,
    "Ġhappily": 9330,
    "ĳ": 244,
    "greeting": 24555,
    "Ġteach": 8552,
    "Ġtrem": 6659,
    "Ġadopted": 15178,
    "enses": 10994,
    "Ġfeasts": 25369,
    "Ġcontextually": 11952,
    "wel": 6117,
    "ever": 1073,
    "endless": 22223,
    "Ġmuttered": 7085,
    "Ġdishonoured": 20388,
    "Ġsimultaneously": 4311,
    "arled": 21440,
    "{": 95,
    "Ġspectacle": 10496,
    "programming": 10062,
    "Ġwinding": 8234,
    "signed": 21060,
    "Ġmaintaining": 1509,
    "enc": 7573,
    "Ġliterary": 25162,
    "Ġconspicuous": 13602,
    "Ġcombination": 22848,
    "cham": 10853,
    "Ġdocks": 14178,
    "Ġaccuracy": 1137,
    "fixed": 7547,
    "Ġmighty": 4230,
    "sc": 1258,
    "Ġoakum": 16934,
    "Ġsummoning": 23873,
    "Ġlvi": 21550,
    "Ġassured": 4372,
    "Ġemma": 20693,
    "Ġglu": 15665,
    "Ġbun": 6005,
    "Ġstrangeness": 16707,
    "tre": 8760,
    "Ġtucked": 12390,
    "Ġentreated": 9950,
    "Ġwooded": 23521,
    "roused": 16652,
    "Ġconsternation": 9858,
    "rix": 1573,
    "Ġpassers": 18757,
    "Ġsurviving": 24638,
    "Ġsunwards": 19011,
    "gences": 20876,
    "Ġcork": 12566,
    "Ġplace": 1650,
    "despond": 19798,
    "Ġanalyzing": 18795,
    "Ġfirmest": 16664,
    "Ġtune": 17725,
    "passage": 11262,
    "Ġspire": 18306,
    "Ġgenerously": 22398,
    "per": 480,
    "hed": 671,
    "Ġimputed": 12805,
    "Ġsmile": 4272,
    "Ġsoftness": 18917,
    "corrid": 24485,
    "Ġsto": 1500,
    "Ġfemale": 8343,
    "chosen": 21692,
    "rily": 7620,
    "urg": 8140,
    "Ġajar": 21201,
    "fishermen": 17061,
    "Ġquivered": 18467,
    "Ġsig": 866,
    "arrange": 23765,
    "Ġfeels": 6882,
    "Ġthunders": 15635,
    "Ġfinery": 23124,
    "Ġblind": 3716,
    "omination": 21639,
    "Ġtrees": 4203,
    "beauty": 20101,
    "Ġseverest": 14090,
    "Ġmaximizing": 3165,
    "elled": 3992,
    "Ġtrooped": 24899,
    "Ġadjusting": 3413,
    "Ġsol": 1103,
    "Ġinsip": 19266,
    "disguise": 26306,
    "Ġsurvivor": 17362,
    "Ġearthquake": 14629,
    "Ġdisplays": 19854,
    "colonel": 8283,
    "romised": 14111,
    "conjecturing": 20132,
    "Ġgermany": 25785,
    "events": 12315,
    "attered": 4018,
    "consp": 18504,
    "rudential": 16709,
    "discoveries": 25385,
    "ibly": 2993,
    "Ġdealer": 23975,
    "dl": 20822,
    "pires": 13774,
    "resentment": 15185,
    "Ġfine": 1318,
    "Ġwager": 17793,
    "wer": 8393,
    "conversations": 24748,
    "Ġprosecution": 12379,
    "ativeness": 15519,
    "bular": 15312,
    "Ġchristmas": 6924,
    "izard": 10883,
    "Ġarrested": 9559,
    "Ġbelike": 18835,
    "speed": 19407,
    "Ġofficial": 7080,
    "Ġsubtlety": 24780,
    "Ġcopse": 17067,
    "Ġpoisoned": 24886,
    "icism": 13955,
    "Ġthough": 990,
    "fire": 6356,
    "values": 4972,
    "Ġdivers": 9665,
    "Ġislets": 21798,
    "Ġpawnbroker": 13657,
    "Ġeat": 4643,
    "Ġequals": 4726,
    "Ġcond": 3874,
    "Ġpetersburgh": 24229,
    "Ġwondrous": 4734,
    "estab": 14171,
    "Ġdons": 17889,
    "Ġagatha": 6866,
    "Ġmap": 2390,
    "Ġhol": 1181,
    "Ġseventy": 7878,
    "Ġnarwhale": 12291,
    "Ġherbage": 25996,
    "Ġbur": 2700,
    "astrous": 15883,
    "Ġaust": 4870,
    "fearfully": 25116,
    "Ġfrock": 10489,
    "Ġcount": 1817,
    "yed": 3273,
    "Ġgazette": 19499,
    "myst": 9821,
    "ol": 362,
    "conf": 4956,
    "hastily": 19700,
    "Ġmichigan": 26426,
    "Ġcomposition": 1684,
    "Ġwedding": 4857,
    "Ġminister": 18751,
    "card": 11476,
    "Ġcomple": 2839,
    "zors": 21146,
    "Ġhighland": 18711,
    "Ġweeds": 21921,
    "Ġmerryweather": 9520,
    "Ġcolonies": 14375,
    "Ġbankrupt": 16796,
    "Ġbulk": 5591,
    "Ġpiece": 5367,
    "Ġshares": 23244,
    "Ġ_": 839,
    "Ġwinter": 5219,
    "Ġminiatures": 20319,
    "utting": 17985,
    "giving": 8738,
    "Ġabominably": 20063,
    "Ġcommodores": 25374,
    "Ġbased": 3339,
    "handed": 7481,
    "Ġspool": 24806,
    "Ġgener": 592,
    "Ġshud": 5461,
    "iate": 6504,
    "Ġgerm": 13963,
    "Ġemployer": 19430,
    "turkish": 24534,
    "Ġcanv": 7009,
    "mopol": 15395,
    "Ġbarbaric": 10013,
    "Ġamuse": 5938,
    "Ġprophecy": 25706,
    "erman": 5107,
    "osure": 5306,
    "ullen": 8233,
    "Ġgoverned": 23571,
    "Ġprincipal": 6495,
    "Ġlichen": 20089,
    "Ġfolks": 14426,
    "Ġreported": 11978,
    "talk": 6656,
    "Ġcable": 11580,
    "Ġwhitney": 11374,
    "Ġware": 12551,
    "Ġunreliable": 3928,
    "Ġcopying": 17068,
    "cigar": 26124,
    "Ġintercourse": 10998,
    "Ġpadd": 9669,
    "ices": 2139,
    "orns": 12589,
    "Ġbellies": 13354,
    "doom": 23376,
    "Ġdropped": 4471,
    "dz": 4738,
    "Ġsteadfast": 8678,
    "Ġrepeatedly": 9020,
    "Ġjaw": 3319,
    "Ġembal": 11909,
    "acle": 4715,
    "Ġforbidding": 17079,
    "aving": 2406,
    "Ġluggage": 25957,
    "Ġobtain": 8914,
    "despairing": 25074,
    "Ġcarr": 23088,
    "answering": 26004,
    "lar": 4483,
    "quality": 10232,
    "march": 13754,
    "Ġunseen": 3522,
    "Ġrem": 954,
    "Ġdood": 22239,
    "Ġbond": 21382,
    "Ġconfl": 11138,
    "hateful": 20908,
    "wound": 21125,
    "sales": 17667,
    "starbuck": 6017,
    "Ġdragging": 14476,
    "Ġrescales": 5067,
    "Ġsuperst": 7702,
    "superiority": 20183,
    "Ġtons": 11550,
    "Ġquadrant": 11405,
    "personal": 24963,
    "chastic": 2333,
    "oing": 15400,
    "Ġengravings": 15065,
    "Ġcarelessly": 11120,
    "Ġphil": 3387,
    "Ġmet": 1808,
    "Ġhowever": 1306,
    "Ġhumph": 22877,
    "Ġcottagers": 6761,
    "Ġinf": 1756,
    "Ġtar": 2564,
    "Ġravings": 18646,
    "Ġhydraulic": 10063,
    "Ġdragg": 23216,
    "Ġadmir": 12020,
    "Ġsparsity": 4208,
    "<PAD>": 0,
    "etence": 21574,
    "fears": 18531,
    "Ġassumptions": 5517,
    "betrayed": 24641,
    "fellows": 12271,
    "should": 3262,
    "Ġtext": 2271,
    "ascertaining": 26460,
    "Ġupheld": 22149,
    "quarried": 24945,
    "Ġberths": 20112,
    "Ġaforethought": 25428,
    "voy": 7142,
    "Ġemphasis": 20535,
    "Ġagencies": 18541,
    "Ġincompetent": 25679,
    "treas": 17679,
    "Ġexact": 2542,
    "Ġstatement": 5253,
    "Ġphysi": 9987,
    "Ġbreat": 3461,
    "gle": 20868,
    "Ġdripping": 13146,
    "Ġslow": 2378,
    "hit": 20888,
    "wearing": 22684,
    "Ġrounded": 14438,
    "Ġalpine": 18106,
    "bell": 7331,
    "instinct": 19563,
    "Ġthirteen": 15273,
    "Ġgn": 8817,
    "Ġexceeding": 1579,
    "Ġmultiplicity": 19274,
    "Ġdespair": 4010,
    "Ġepo": 21616,
    "olidity": 18133,
    "render": 10290,
    "Ġdisclosed": 15153,
    "Ġinitialized": 3947,
    "moor": 22700,
    "onent": 21247,
    "Ġapproximation": 2340,
    "Ġloud": 4700,
    "Ġnearest": 8468,
    "Ġworthy": 7240,
    "uning": 1314,
    "Ġjen": 9266,
    "angible": 22101,
    "Ġjune": 10288,
    "artic": 14225,
    "Ġstir": 5823,
    "corpse": 24487,
    "Ġepic": 15030,
    "Ġbetter": 1174,
    "capting": 24039,
    "Ġworld": 1597,
    "Ġsuccessive": 10500,
    "Ġinsanity": 12045,
    "Ġsteadfastly": 10651,
    "Ġrecords": 12193,
    "Ġungenerous": 18266,
    "acet": 5476,
    "conceivable": 17130,
    "Ġstiffest": 24829,
    "Ġbride": 6290,
    "umn": 5835,
    "Ġsucceeding": 16761,
    "Ġtalents": 15045,
    "Ġspin": 7628,
    "Ġbir": 17854,
    "Ġthackeray": 26455,
    "Ġdowncast": 18652,
    "Ġrattled": 15066,
    "Ġlonely": 6823,
    ".âĢĿ": 464,
    "Ġpersonally": 8599,
    "Ġsurmount": 19998,
    "Ġscound": 12829,
    "Ġinflicted": 11366,
    "remed": 18952,
    "Ġ49": 24082,
    "Ġpremises": 10487,
    "Ġends": 8236,
    "decor": 23779,
    "Ġcreate": 2091,
    "spirit": 11314,
    "chard": 21684,
    "Ġvillage": 5774,
    "Ġgestures": 13535,
    "Ġbarb": 4530,
    "itime": 15545,
    "Ġmotions": 8279,
    "Ġinsolent": 13599,
    "Ġgrunted": 16166,
    "Ġobjections": 8563,
    "Ġtunnels": 24617,
    "inioned": 19286,
    "Ġtexture": 19159,
    "Ġunless": 4090,
    "Ġsocial": 7007,
    "followed": 8337,
    "Ġwhispers": 14700,
    "Ġhandles": 22692,
    "Ġyouthful": 16723,
    "Ġchrysalis": 26538,
    "bpp": 20771,
    "nder": 20986,
    "leave": 7836,
    "anded": 5922,
    "Ġproverb": 12713,
    "activity": 22629,
    "Ġcurtain": 14406,
    "fre": 5425,
    "exact": 7908,
    "icient": 776,
    "Ġcordiality": 24396,
    "Ġbonds": 17870,
    "Ġgate": 6825,
    "Ġscruples": 15078,
    "pretending": 17041,
    "mushroom": 26395,
    "ceived": 1965,
    "appear": 13197,
    "Ġgulf": 10635,
    "Ġmoral": 6578,
    "Ġdubious": 17382,
    "ell": 398,
    "comple": 7440,
    "Ġswelled": 11087,
    "Ġmiraculous": 13546,
    "Ġcoloured": 11045,
    "Ġobserv": 8586,
    "loom": 18538,
    "ished": 1427,
    "lier": 20948,
    "Ġblanched": 26282,
    "Ġtranscend": 25667,
    "instance": 24194,
    "gaffman": 26390,
    "beth": 13687,
    "Ġdevoted": 6573,
    "Ġexecutioner": 12269,
    "Ġdread": 3159,
    "Ġjunks": 25113,
    "neighboring": 20615,
    "Ġagrippa": 11806,
    "Ġdevouring": 11858,
    "Ġbriefly": 11368,
    "Ġceleb": 20223,
    "Ġfl": 1280,
    "Ġexposed": 8521,
    "acked": 10973,
    "Ġgent": 7382,
    "Ġentertained": 9997,
    "Ġcolours": 12971,
    "Ġpersons": 6182,
    "Ġdeclaration": 16636,
    "Ġfireplace": 13144,
    "Ġnurse": 9515,
    "Ġpall": 7581,
    "quimaux": 21856,
    "Ġpomp": 12619,
    "Ġdies": 11593,
    "itories": 15546,
    "Ġvowed": 14083,
    "raction": 8136,
    "benefact": 24642,
    "securer": 25602,
    "Ġknew": 2055,
    "ollion": 19713,
    "trivial": 21091,
    "humanity": 24839,
    "Ġnorthwards": 19543,
    "Ġstoutly": 16923,
    "Ġchimney": 6496,
    "truth": 9918,
    "Ġlonged": 6435,
    "Ġdevil": 3614,
    "Ġinfall": 7958,
    "Ġcontinue": 5398,
    "fatig": 17089,
    "Ġaverages": 2398,
    "equally": 19897,
    "Ġmast": 2898,
    "Ġcanall": 10930,
    "clopÃ¦": 13053,
    "Ġkeep": 2355,
    "Ġpardon": 5727,
    "persons": 24174,
    "Ġparcel": 15199,
    "Ġbaboon": 19691,
    "noted": 22747,
    "blows": 17165,
    "igation": 5917,
    "400": 20754,
    "nt": 921,
    "Ġconfine": 14511,
    "understand": 1117,
    "xi": 17710,
    "Ġsands": 14948,
    "Ġflooded": 24959,
    "Ġcompute": 2903,
    "Ġtumble": 16879,
    "Ġencamp": 22797,
    "Ġintricate": 15137,
    "Ġbuoyancy": 20039,
    "Ġelephant": 8254,
    "uded": 6285,
    "turtle": 12209,
    "Ġnevertheless": 5039,
    "Ġshallow": 14394,
    "rees": 5436,
    "Ġejaculated": 15169,
    "Ġspangled": 22132,
    "Ġdecidedly": 9507,
    "still": 4219,
    "shock": 19852,
    "Ġhearts": 4971,
    "yes": 983,
    "Ġbene": 2033,
    "highly": 24764,
    "beware": 16037,
    "Ġtaller": 16688,
    "murder": 10564,
    "Ġupdates": 1300,
    "Ġpersuaded": 5769,
    "dorff": 15236,
    "Ġmagnanim": 14473,
    "plentiful": 21952,
    "others": 7668,
    "Ġtam": 7820,
    "Ġhumbled": 16194,
    "bib": 17491,
    "Ġweighty": 16030,
    "ref": 6514,
    "Ġsmallest": 6429,
    "Ġarrows": 18336,
    "Ġcheerfully": 12132,
    "Ġtransient": 18483,
    "Ġdrunkard": 20175,
    "Ġremnants": 22788,
    "Ġrestore": 9379,
    "Ġdidst": 11848,
    "Ġwater": 1949,
    "Ġscenes": 5730,
    "Ġvenom": 24239,
    "Ġhurt": 7699,
    "jump": 10103,
    "Ġpunchbowl": 20229,
    "Ġwidest": 24235,
    "Ġvarious": 3508,
    "Ġpert": 22391,
    "therly": 18344,
    "Ġsk": 960,
    "Ġwhereof": 16100,
    "Ġdistrust": 8203,
    "Ġjones": 7203,
    "Ġaccelerate": 23227,
    "Ġwhy": 1760,
    "Ġstained": 11652,
    "Ġusefulness": 19406,
    "Ġhab": 4218,
    "recl": 15509,
    "Ġpedest": 14996,
    "exceedingly": 9565,
    "Ġlonger": 3361,
    "Ġtenderest": 23550,
    "rope": 3180,
    "gal": 15354,
    "etch": 9204,
    "Ġfiles": 21411,
    "Ġloses": 15871,
    "Ġkiller": 19566,
    "Ġregularity": 22771,
    "Ġcheerfulness": 10516,
    "Ġtreats": 19342,
    "bunger": 20399,
    "Ġcreative": 9829,
    "ocation": 14627,
    "lifted": 15385,
    "origin": 7580,
    "Ġstra": 2989,
    "Ġhim": 475,
    "Ġwoods": 5406,
    "Ġspecialized": 3920,
    "Ġjacobians": 2891,
    "Ġluff": 15650,
    "Ġspeaks": 11159,
    "Ġecstasy": 11630,
    "wont": 21131,
    "Ġshop": 9251,
    "intense": 22934,
    "Ġblanket": 8341,
    "Ġtyros": 26101,
    "Ġbarrier": 16569,
    "Ġdisgra": 18548,
    "Ġguinea": 8947,
    "utarch": 15659,
    "Ġvers": 7562,
    "Ġkidn": 20203,
    "Ġguid": 2639,
    "Ġpreach": 14173,
    "jep": 20925,
    "Ġsystemat": 18442,
    "operations": 19972,
    "way": 761,
    "Ġtapping": 10752,
    "Ġclasped": 17206,
    "Ġbeam": 2878,
    "ledge": 1329,
    "Ġathe": 17742,
    "Ġmedicine": 15205,
    "Ġimitate": 14158,
    "Ġbread": 5404,
    "Ġ22": 8277,
    "inch": 10755,
    "Ġadvantage": 4316,
    "Ġimitation": 22168,
    "Ġelij": 8908,
    "Ġinterview": 9769,
    "Ġprophesied": 26062,
    "Ġinoffensive": 21495,
    "Ġsolicit": 22885,
    "Ġworking": 5574,
    "Ġpetticoat": 15294,
    "Ġstrives": 23695,
    "Ġproport": 2299,
    "disappo": 8984,
    "iscient": 17852,
    "jee": 17579,
    "Ġvalidation": 2356,
    "Ġbal": 1132,
    "estation": 15918,
    "Ġinheritance": 25355,
    "transferred": 24515,
    "Ġparadigms": 3053,
    "Ġimpunity": 14218,
    "Ġfiftieth": 24702,
    "wond": 8767,
    "passenger": 24167,
    "prepared": 13589,
    "slowly": 9088,
    "oppressed": 24824,
    "gre": 5788,
    "Ġsilk": 11961,
    "ela": 21566,
    "Ġsplitting": 4383,
    "vert": 15712,
    "Ġven": 4647,
    "Ġresolves": 23647,
    "Ġbask": 8115,
    "bedroom": 14677,
    "Ġintimate": 6548,
    "Ġunrem": 18245,
    "Ġsports": 18310,
    "Ġunintelligible": 26514,
    "orted": 4602,
    "figured": 20120,
    "idean": 14263,
    "preserve": 25303,
    "ned": 3491,
    "othed": 16510,
    "Ġplaned": 24055,
    "Ġregression": 4409,
    "Ġsom": 1275,
    "Ġdinners": 23980,
    "ole": 9613,
    "Ġpath": 2116,
    "ena": 11568,
    "itative": 13869,
    "Ġbecame": 2693,
    "Ġspell": 8855,
    "Ġche": 1764,
    "Ġstarbuck": 2197,
    "mises": 20977,
    "Ġcrystals": 20225,
    "Ġcommitted": 7430,
    "Ġeffected": 14353,
    "sand": 21051,
    "Ġdoubts": 8578,
    "Ġtransformer": 2637,
    "Ġcolour": 4461,
    "Ġjulia": 22299,
    "Ġconventional": 25547,
    "atra": 17772,
    "Ġinhabitant": 19753,
    "Ġadmiring": 16479,
    "Ġgard": 2191,
    "Ġexistence": 4706,
    "bearings": 25371,
    "Ġcolleg": 22852,
    "Ġlobster": 11390,
    "Ġvoid": 14085,
    "Ġbubblingly": 25632,
    "Ġenvironments": 24007,
    "Ġkate": 15903,
    "Ġcatholic": 20680,
    "Ġcastaways": 19426,
    "rr": 17650,
    "parm": 21013,
    "grief": 13730,
    "Ġcamel": 25349,
    "Ġenticements": 26034,
    "Ġstumbling": 21739,
    "Ġnigh": 4877,
    "Ġmo": 628,
    "Ġempt": 5050,
    "Ġcashier": 20196,
    "Ġfire": 2332,
    "Ġvel": 7185,
    "Ġnormalization": 1243,
    "mr": 1902,
    "uel": 6966,
    "Ġcharitable": 23269,
    "Ġusually": 6263,
    "Ġaslant": 21899,
    ",âĢĿâĢĶ": 14215,
    "Ġclinging": 10291,
    "Ġleague": 6537,
    "relu": 17760,
    "Ġvestibule": 13536,
    "Ġpartners": 11852,
    "limp": 20951,
    "Ġdetestable": 15098,
    "Ġtaurus": 21177,
    "ortations": 22255,
    "Ġcontradictory": 20394,
    "Ġproportionate": 17043,
    "ogene": 18678,
    "||": 4868,
    "concealed": 25115,
    "Ġtiresome": 26156,
    "Ġsucceeded": 6105,
    "Ġaccorded": 24089,
    "Ġegot": 18008,
    "Ġsupported": 9817,
    "rowed": 22857,
    "Ġtease": 18807,
    "Ġcomplain": 6685,
    "Ġreco": 9790,
    "Ġincorpor": 13164,
    "Ġhired": 10177,
    "Ġcaptain": 1605,
    "Ġcommanders": 23867,
    "Ġmurder": 4281,
    "lucas": 15151,
    "Ġbelow": 4062,
    "Ġbigness": 19758,
    "antediluvian": 24347,
    "Ġhapless": 15813,
    "Ġrapid": 1433,
    "Ġexquisitely": 20200,
    "Ġdough": 8419,
    "uendoes": 26407,
    "Ġif": 698,
    "Ġpace": 9183,
    "ething": 1602,
    "Ġpanic": 11287,
    "Ġtones": 8398,
    "Ġpromises": 10400,
    "ie": 729,
    "willing": 6592,
    "Ġsave": 4051,
    "Ġcomparative": 10542,
    "Ġwr": 1543,
    "Ġtriumphantly": 11288,
    "tempered": 13445,
    "Ġbirch": 26174,
    "secur": 18127,
    "Ġbehavior": 8000,
    "withstanding": 8945,
    "wrath": 23755,
    "Ġdigging": 14938,
    "Ġboone": 11839,
    "Ġfathers": 16294,
    "diver": 20830,
    "Ġdropout": 1557,
    "Ġmissed": 8554,
    "slight": 10727,
    "visit": 7753,
    "Ä": 133,
    "æ": 167,
    "believe": 8302,
    "roded": 17956,
    "afford": 14655,
    "Ġaromatic": 25925,
    "Ġins": 2781,
    "Ġpoising": 22588,
    "mingled": 14713,
    "spread": 8387,
    "captain": 3952,
    "Ġlordly": 23743,
    "Ġhue": 8427,
    "Ġpass": 1038,
    "lad": 5990,
    "Ġjoyful": 13219,
    "Ġcomprises": 22569,
    "Ġbow": 3058,
    "inery": 17733,
    "servants": 15038,
    "Ġscener": 10949,
    "stolen": 13981,
    "Ġmoist": 9284,
    "Ġcorporeal": 17359,
    "Ġmemory": 2278,
    "inations": 7566,
    "Ġdesignated": 19520,
    "Ġlastly": 16204,
    "Ġpoverty": 9303,
    "felix": 10653,
    "Ġassizes": 11108,
    "mere": 11854,
    "Ġrib": 4935,
    "Ġphaeton": 17464,
    "feature": 4053,
    "Ġchoking": 15932,
    "rey": 12535,
    "Ġwoeful": 19617,
    "Ġprovidence": 18745,
    "Ġhumour": 7930,
    "Ġcommon": 1415,
    "duty": 20237,
    "Ġsquad": 22834,
    "Ġfolk": 10375,
    "Ġcanvas": 7782,
    "Ġunwarrant": 20131,
    "stalk": 21647,
    "Ġell": 17715,
    "ented": 4349,
    "Ġrespectability": 14485,
    "Ġcorrespond": 6209,
    "comparatively": 25839,
    "perishing": 22178,
    "59": 17473,
    "Ġsympt": 7012,
    "Ġapproaching": 6283,
    "Ġturn": 1299,
    "heat": 15496,
    "Ġhorizontal": 7781,
    "pens": 17632,
    "Ġsits": 10768,
    "arat": 9180,
    "Ġarchly": 22769,
    "impatience": 25500,
    "Ġattractive": 25575,
    "flaming": 23968,
    "windward": 24161,
    "Ġdevoured": 16134,
    "Ġanalytical": 22903,
    "Ġbowditch": 19322,
    "Ġcontemplate": 19890,
    "Ġseriously": 7060,
    "Ġ1": 1014,
    "Ġusurpation": 18356,
    "whilst": 18371,
    "finger": 10093,
    "arpaul": 14537,
    "Ġlav": 13949,
    "utored": 15660,
    "ft": 908,
    "armed": 7250,
    "Ġnegro": 6446,
    "Ġhabitual": 24790,
    "Ġblinded": 13269,
    "sne": 10124,
    "gods": 13365,
    "Ġdispersed": 16597,
    "Ġpound": 12613,
    "Ġnovelist": 24777,
    "Ġeag": 2964,
    "Ġkra": 18348,
    "cream": 15330,
    "Ġfavourable": 7957,
    "urns": 10213,
    "Ġnight": 1465,
    "pitch": 13297,
    "Ġfisheries": 17437,
    "Ġpledged": 20686,
    "Ġglasses": 9473,
    "Ġmomentum": 1604,
    "Ġuseless": 7036,
    "Ġspies": 22125,
    "Ġabomin": 8187,
    "Ġimposed": 14216,
    "gul": 12463,
    "adequ": 11020,
    "mechanical": 25578,
    "Ġascending": 14854,
    "unw": 14056,
    "biqu": 17497,
    "Ġbegins": 7243,
    "Ġamendment": 26024,
    "moil": 22701,
    "Ġsalutation": 12395,
    "trees": 10731,
    "stun": 18019,
    "edmund": 17946,
    "ishment": 3504,
    "Ġcetacean": 25878,
    "Ġdances": 10812,
    "Ġbiggest": 24567,
    "Ġpos": 1009,
    "Ġmaiden": 13385,
    "aces": 2068,
    "warrant": 21136,
    "iancy": 13010,
    "Ġcant": 17825,
    "ory": 1077,
    "Ġbills": 17861,
    "pse": 21008,
    "denial": 18714,
    "Ġunaccountable": 7885,
    "Ġexterm": 21826,
    "elling": 5830,
    "stonecraft": 24357,
    "Ġdeprec": 15755,
    "iment": 2816,
    "pay": 10718,
    "Ġcoer": 22578,
    "filled": 9594,
    "Ġrotation": 25474,
    "wants": 21129,
    "Ġpolitely": 8993,
    "dued": 7907,
    "Ġmaze": 23829,
    "Ġwire": 13851,
    "ositions": 10283,
    "Ġyanke": 18098,
    "Ġdreaming": 11224,
    "another": 5439,
    "shortly": 12256,
    "Ġdreamt": 23937,
    "Ġwounded": 8657,
    "Ġevid": 3499,
    "Ġseas": 3074,
    "Ġvoyagings": 19234,
    "Ġperemptorily": 17366,
    "Ġmainmast": 9778,
    "gd": 3122,
    "Ġdesolation": 12266,
    "Ġantiquities": 25598,
    "lins": 2027,
    "prev": 12864,
    "azine": 19130,
    "Ġisrael": 21800,
    "Ġhearses": 20057,
    "Ġbrowne": 13300,
    "ater": 3372,
    "Ġcaved": 21351,
    "Ġbenignity": 18782,
    "Ġdatasets": 2388,
    "Ġslighted": 16567,
    "Ġostentatiously": 20466,
    "Ġvines": 12748,
    "including": 23590,
    "Ġticklish": 25034,
    "Ġteased": 18808,
    "sullenly": 26149,
    "Ġincess": 8429,
    "Ġattempting": 14697,
    "pushed": 21022,
    "Ġcaliforn": 14431,
    "Ġeng": 1162,
    "antarctic": 22096,
    "Ġwhims": 12689,
    "Ġprompt": 3185,
    "announced": 19757,
    "Ġsums": 2900,
    "favourable": 12261,
    "inguish": 9395,
    "isles": 15561,
    "Ġexe": 3994,
    "Ġzeal": 9097,
    "Ġcrutch": 23446,
    "Ġhorror": 3773,
    "england": 18928,
    "Ġneeded": 7716,
    "Ġhammock": 5768,
    "shott": 11793,
    "Ġprofane": 13151,
    "Ġsundering": 23274,
    "Ġ19": 6719,
    "Ġhart": 17922,
    "oubtedly": 6943,
    "Ġslices": 23164,
    "daugh": 6788,
    "luded": 4228,
    "ated": 737,
    "Ġkirwin": 8495,
    "Ġcet": 6669,
    "Ġbaptized": 25774,
    "geneva": 13729,
    "Ġarbit": 4650,
    "chant": 4259,
    "Ġhedge": 8362,
    "Ġpeaks": 16126,
    "ridden": 24363,
    "arn": 357,
    "Ġadversity": 24304,
    "Ġdivide": 12108,
    "impossible": 8823,
    "Ġeduc": 4784,
    "Ġrevelation": 25222,
    "Ġsaxe": 13626,
    "perceived": 8858,
    "eyes": 5684,
    "Ġspont": 22128,
    "Ġunstruct": 2992,
    "Ġlibrary": 6422,
    "aurs": 20768,
    "Ġcontinuing": 14396,
    "Ġactionable": 24560,
    "indirectly": 18437,
    "ispiece": 19723,
    "Ġlocking": 18298,
    "Ġtemple": 7652,
    "stein": 5505,
    "oline": 6834,
    "shame": 16018,
    "Ġey": 8133,
    "Ġsympathise": 16794,
    "Ġawhile": 13829,
    "Ġ88": 19709,
    "Ġadmires": 19683,
    "Ġdisliked": 12888,
    "dispositions": 25011,
    "fortun": 3537,
    "Ġconvalescence": 23745,
    "bread": 10684,
    "Ġecc": 11628,
    "stains": 11637,
    "ubbub": 23242,
    "Ġparish": 8854,
    "ersburgh": 18216,
    "Ġrocky": 13386,
    "Ġvoyage": 3051,
    "ese": 4444,
    "Ġapparition": 8065,
    "Ġebony": 18009,
    "Ġeye": 2283,
    "Ġseer": 21957,
    "ceptible": 10960,
    "cils": 20813,
    "Ġsucceed": 4544,
    "Ġaddison": 14233,
    "Ġburnt": 9927,
    "Ġmummy": 25768,
    "Ġmout": 17799,
    "Ġdeliver": 9846,
    "Ġminimizes": 2047,
    "Ġ29": 23729,
    "Ġmould": 6518,
    "hval": 20897,
    "Ġprophet": 7679,
    "Ġproduct": 3532,
    "ortion": 11756,
    "Ġturnpike": 23025,
    "Ġamelia": 26251,
    "Ġpreference": 9732,
    "Ġviii": 16411,
    "ushing": 5731,
    "Ġevermore": 18810,
    "dles": 11481,
    "Ġtempestuous": 20068,
    "Ġtrod": 15027,
    "Ġprotested": 9933,
    "biting": 20779,
    "umed": 6553,
    "Ġresulting": 24199,
    "Ġsubject": 2462,
    "Ġnothing": 1359,
    "discovering": 24252,
    "covered": 11478,
    "Ġdared": 5440,
    "depart": 12263,
    "Ġpaintings": 15056,
    "Ġlaughter": 9027,
    "Ġimprobable": 9794,
    "Ġpermanent": 13630,
    "sey": 5543,
    "Ġnooks": 26011,
    "Ġfavoring": 2344,
    "Ġwitt": 17784,
    "splinter": 25210,
    "Ġfeasible": 22206,
    "Ġbedrooms": 19967,
    "nose": 17610,
    "following": 10572,
    "simp": 17665,
    "Ġinstincts": 16986,
    "Ġhats": 14620,
    "eprints": 12789,
    "vital": 17700,
    "has": 4013,
    "Ġemph": 14525,
    "dually": 3284,
    "Ġbritain": 16955,
    "thoughtfully": 24044,
    "Ġmiseries": 10346,
    "aneously": 4060,
    "kick": 20935,
    "leaving": 10791,
    "Ġshipmate": 8927,
    "icy": 6140,
    "insult": 16277,
    "Ġshoots": 14570,
    "ancing": 1759,
    "utes": 5913,
    "Ġsprang": 5063,
    "Ġstory": 2899,
    "spirited": 19751,
    "blame": 14794,
    "Ġtubs": 11371,
    "Ġcl": 552,
    "Ġmanual": 14198,
    "Ġblades": 11894,
    "Ġmanufact": 22325,
    "Ġridges": 16731,
    "nearly": 8680,
    "hounds": 20906,
    "Ġsash": 17755,
    "Ġhadn": 9718,
    "angered": 16176,
    "arches": 10816,
    "Ġroaring": 10968,
    "Ġedged": 23436,
    "itching": 21333,
    "@": 36,
    "Ġcontroverted": 23251,
    "Ġlaw": 3656,
    "Ġsmelt": 16063,
    "Ġrollicking": 24452,
    "oked": 4307,
    "Ġacceptable": 16744,
    "prit": 19340,
    "spe": 3559,
    "Ġsubsiding": 23433,
    "Ġdecision": 2677,
    "Ġclimax": 25051,
    "Ġampl": 22477,
    "Ġcredulous": 17144,
    "Ġbehooves": 20732,
    "Ġparameter": 884,
    "Ġpar": 456,
    "Ġbag": 5699,
    "Ġsympathies": 14861,
    "accounted": 16501,
    "Ġextinguish": 14339,
    "Ġbarmaid": 19334,
    "Ġdesiring": 14413,
    "Ġ76": 24263,
    "ann": 5802,
    "itated": 4440,
    "Ġdeliberate": 15023,
    "Ġincreas": 1690,
    "Ġcomprehensiveness": 25072,
    "Ġpointed": 4772,
    "Ġ27": 8614,
    "Ġpurport": 14582,
    "uzzle": 19581,
    "circled": 24187,
    "Ġmarket": 7707,
    "Ġslouched": 13056,
    "ertain": 1207,
    "Ġbewildered": 15213,
    "Ġpreternatural": 12820,
    "Ġmaxim": 3081,
    "marest": 20979,
    "rigging": 20003,
    "Ġidentical": 10434,
    "Ġcentaurs": 23831,
    "Ġsprings": 16687,
    "istle": 15868,
    "Ġquebec": 24134,
    "Ġgiants": 25960,
    "impl": 21704,
    "years": 6883,
    "Ġmutually": 23955,
    "whips": 22235,
    "elab": 21567,
    "Ġ77": 24264,
    "dry": 13702,
    "ĝ": 222,
    "Ġachieves": 4379,
    "Ġhur": 2100,
    "Ġsugg": 4499,
    "Ġseren": 7400,
    "Ġclinch": 18424,
    "Ġpoints": 5246,
    "father": 3776,
    "Ġdistributes": 4196,
    "Ġknight": 9726,
    "Ġprofessed": 14724,
    "Ġoccasion": 3246,
    "ement": 1502,
    "Ġminimax": 5858,
    "Ġyoun": 1410,
    "Ġoft": 9194,
    "istic": 1033,
    "Ġmed": 3986,
    "le": 279,
    "Ġnine": 5369,
    "ude": 7561,
    "Ġparadise": 11196,
    "bey": 10313,
    "itary": 4750,
    "confirm": 16807,
    "nez": 22458,
    "Ġphiladelphia": 26604,
    "apparently": 15204,
    "Ġloft": 5642,
    "surprise": 9528,
    "Ġbeauty": 3770,
    "bless": 22309,
    "Ġelbow": 12918,
    "looked": 6083,
    "spersed": 22733,
    "Ġkentuck": 19889,
    "books": 8663,
    "public": 17646,
    "destroy": 19509,
    "Ġaffection": 2640,
    "Ġcapital": 7978,
    "Ġwebster": 20159,
    "Ġhel": 3786,
    "Ġadler": 8172,
    "luxur": 25822,
    "Ġimpropriety": 17394,
    "abode": 21788,
    "isco": 12578,
    "Ġignominy": 15085,
    "osp": 6854,
    "opened": 7911,
    "Ġstables": 23654,
    "locks": 14456,
    "Ġmarble": 7667,
    "Ġsignature": 16492,
    "Ġdefence": 11067,
    "Ġany": 687,
    "leap": 21365,
    "guessed": 25872,
    "Ġaccepted": 7749,
    "âĢĶâĢĺ_": 24831,
    "/(": 2979,
    "Ġkinds": 14508,
    "Ġmodular": 12813,
    "Ġdynamically": 4140,
    "Ġworkman": 16258,
    "ference": 1883,
    "Ġbohemia": 10649,
    "well": 1688,
    "Ġdivert": 23593,
    "amped": 12031,
    "ament": 2438,
    "Ġwillingly": 8884,
    "Ġintuitions": 17340,
    "Ġfumes": 21416,
    "Ġpulpit": 7469,
    "Ġ127": 24473,
    "goes": 10426,
    "Ġleap": 5824,
    "calcul": 12986,
    "Ġkingdom": 12017,
    "Ġfail": 4151,
    "Ġperverseness": 13653,
    "parted": 21015,
    "Ġtyro": 16994,
    "Ġheat": 5453,
    "Ġexerted": 15752,
    "urbed": 15705,
    "Ġpowers": 5419,
    "Ġwestmorland": 24391,
    "Ġtwinkled": 14312,
    "dismay": 19152,
    "Ġcomplexity": 1691,
    "omach": 11634,
    "Ġcath": 17827,
    "Ġalleged": 17290,
    "Ġeducated": 16785,
    "Ġacquiring": 2767,
    "resses": 16149,
    "Ġintentionally": 24524,
    "professional": 20273,
    "Ġgretna": 26468,
    "Ġcertainly": 2495,
    "kov": 17586,
    "Ġfishes": 11591,
    "Ġcosy": 13129,
    "snow": 10724,
    "Ġtresses": 21174,
    "conscientious": 19624,
    "Ġequin": 14496,
    "furn": 10091,
    "honour": 13466,
    "Ġmer": 2927,
    "Ġpigs": 19745,
    "osely": 9264,
    "sixty": 24852,
    "Ġreaching": 7302,
    "Ġunclasp": 26511,
    "Ġscreaming": 13422,
    "Ġcleansed": 26293,
    "Ġsustenance": 19931,
    "Ġplumage": 17297,
    "Ġmanagement": 8191,
    "Ġcruellest": 19656,
    "Ġpanted": 21470,
    "creatures": 7516,
    "Ġrelied": 16192,
    "Ġpermission": 9278,
    "important": 7111,
    "Ġtakes": 5006,
    "Ġfinal": 5400,
    "Ġauthent": 14507,
    "Ġstudents": 23219,
    "Ġentries": 22741,
    "Ġunrest": 11713,
    "cracy": 24689,
    "Ġcredited": 25153,
    "Ġanimated": 7700,
    "Ġheath": 15699,
    "Ġhole": 6079,
    "Ġtooth": 9192,
    "shot": 2110,
    "ounders": 22381,
    "igger": 21697,
    "ishes": 6522,
    "iliating": 12692,
    "Ġnapkins": 25161,
    "Ġexhale": 24403,
    "Ġsense": 3251,
    "Ġcommitting": 22670,
    "Ġenjoys": 19448,
    "Ġcin": 13874,
    "ucumber": 19058,
    "Ġopera": 23425,
    "Ġconfused": 7962,
    "Ġunsocial": 18257,
    "slouched": 24558,
    "Ġcouch": 12568,
    "Ġunconsc": 6551,
    "olerable": 7181,
    "experienced": 15121,
    "ots": 3295,
    "Ġbecher": 18878,
    "month": 6462,
    "Ġapprobation": 10985,
    "Ġeating": 8134,
    "than": 4088,
    "Ġregards": 16068,
    "Ġdaunt": 19662,
    "Ġchili": 25561,
    "Ġconfid": 7685,
    "haut": 20901,
    "Ġinflamed": 13472,
    "Ġsnaky": 23741,
    "Ġblubber": 5666,
    "Ġpatterns": 1213,
    "robe": 15639,
    "Ġhobbling": 25644,
    "Ġchristendom": 16695,
    "Ġadviser": 25312,
    "ians": 2358,
    "adequate": 15203,
    "Ġlist": 2364,
    "Ġportent": 12079,
    "itating": 9650,
    "Ġhempen": 13549,
    "Ġcronies": 23442,
    "Ġsailors": 4277,
    "Ġprovides": 1929,
    "Ġbreath": 4790,
    "idered": 4552,
    "Ġdire": 864,
    "Ġamazement": 7763,
    "alt": 12635,
    "Ġlight": 1697,
    "Ġamb": 9291,
    "chapter": 1404,
    "oblig": 16289,
    "Ġneatly": 17016,
    "þ": 191,
    "Ġdeified": 18138,
    "Ġpondering": 17005,
    "Ġlacey": 10197,
    "Ġarid": 22173,
    "pendicular": 6498,
    "ott": 1873,
    "thread": 15824,
    "Ġfrantic": 7955,
    "xt": 2080,
    "ads": 5718,
    "polar": 24584,
    "Ġropes": 10748,
    "isation": 13892,
    "Ġisles": 8458,
    "iour": 4036,
    "endeavoured": 12278,
    "Ġruefully": 17300,
    "leagues": 21371,
    "Ġwriggling": 15256,
    "Ġwhirl": 13448,
    "Ġfatigued": 13464,
    "Ġdispleasure": 16050,
    "Ġbiases": 2397,
    "wear": 22680,
    "Ġpropose": 9851,
    "Ġpeeling": 22689,
    "Ġporus": 24399,
    "Ġmechanical": 7936,
    "elt": 4116,
    "Ġstops": 3162,
    "igned": 5656,
    "wra": 11542,
    "grateful": 10428,
    "Ġtipped": 17728,
    "Ġthereof": 22365,
    "Ġplaymate": 23637,
    "Ġhappiest": 11881,
    "Ġpink": 12615,
    "Ġsingular": 4423,
    "Ġdisappearing": 22530,
    "Ġjur": 12831,
    "Ġadventurous": 16733,
    "impressed": 12688,
    "Ġcolourless": 19567,
    "Ġtradeoff": 2660,
    "extraordinary": 9094,
    "Ġ200": 19295,
    "Ġflow": 1239,
    "Ġgasping": 17038,
    "onstrate": 17769,
    "Ġdeterm": 1270,
    "Ġtarpaulin": 26157,
    "flame": 16637,
    "inished": 17734,
    "sartain": 25622,
    "Ġspecimen": 13020,
    "Ġcents": 17829,
    "strike": 14949,
    "Ġwester": 25152,
    "keenest": 25661,
    "Ġjava": 12310,
    "Ġreigning": 15698,
    "Ġemotion": 7688,
    "ourselves": 9010,
    "invol": 12527,
    "Ġbowsprit": 16560,
    "Ġwife": 2587,
    "Ġbanker": 8666,
    "âĢľâĢĻ": 10221,
    "Ġaquiline": 26159,
    "Ġflatt": 16244,
    "eager": 12457,
    "sooner": 14775,
    "Ġcharged": 9853,
    "afforded": 25865,
    "Ġfraud": 19016,
    "Ġcritics": 23444,
    "further": 7534,
    "Ġaint": 17745,
    "Ġclothing": 18423,
    "Ġdiffident": 23782,
    "Ġglist": 9344,
    "Ġ23": 13191,
    "Ġunworthy": 11714,
    "Ġeasily": 3890,
    "Ġgallied": 19553,
    "Ġ93": 24592,
    "Ġindic": 2885,
    "precedented": 15174,
    "Ġsatan": 14390,
    "Ġclues": 18421,
    "resp": 13838,
    "recollected": 25347,
    "Ġsimulates": 2740,
    "Ġquickly": 4242,
    "Ġscolded": 25472,
    "commend": 19990,
    "Ġbankers": 24303,
    "Ġaught": 8772,
    "Ġexclamation": 8698,
    "Ġsharper": 17179,
    "Ġdoesn": 7437,
    "pract": 10119,
    "Ġcottage": 4733,
    "Ġoctavo": 15163,
    "ý": 190,
    "Ġmapple": 11150,
    "ifice": 7197,
    "chiefly": 14846,
    "Ġmatter": 1733,
    "strate": 12671,
    "Ġanticipated": 13510,
    "resist": 8274,
    "itigated": 23045,
    "Ġwhel": 15864,
    "Ġubiqu": 18047,
    "max": 1681,
    "Ġplanks": 5563,
    "support": 9468,
    "Ġmister": 22756,
    "reasonable": 7750,
    "Ġupd": 947,
    "Ġskies": 8920,
    "Ġjealous": 9467,
    "Ġdivision": 19442,
    "Ġtowns": 11174,
    "Ġindispens": 22957,
    "suspicious": 25390,
    "Ġbuff": 9172,
    "Ġservices": 11218,
    "Ġhorizont": 6937,
    "Ġupp": 13991,
    "frightened": 17195,
    "Ġwithered": 19463,
    "Ġel": 803,
    "Ġengineering": 3023,
    "Ġthus": 2037,
    "charm": 13989,
    "sal": 8757,
    "Ġoffended": 7039,
    "Ġjoys": 13218,
    "Ġimped": 18443,
    "Ġstrands": 25574,
    "Ġprecaution": 11198,
    "Ġramsgate": 18648,
    "Ġcau": 13880,
    "Ġcounteracted": 19859,
    "ef": 5133,
    "Ġfurnishing": 16645,
    "Ġtelegraph": 25583,
    "Ġanimal": 2496,
    "illustration": 2285,
    "Ġvexation": 10586,
    "offic": 7465,
    "Ġfully": 6341,
    "Ġdomes": 23690,
    "Ġauthorized": 16735,
    "force": 12960,
    "Ġsecluded": 11991,
    "anything": 5518,
    "Ġhoary": 23353,
    "affa": 23775,
    "Ġprivate": 5345,
    "matlock": 23470,
    "castle": 3351,
    "Ġtravel": 5951,
    "Ġtrial": 6634,
    "inglass": 21301,
    "Ġmaking": 1782,
    "flukes": 25205,
    "Ġwiser": 14730,
    "Ġimmut": 13296,
    "Ġcupidity": 24536,
    "Ġturkey": 19218,
    "Ġstile": 21729,
    "iety": 2818,
    "aware": 16293,
    "Ġdeficient": 18824,
    "Ġcollege": 11425,
    "âĢĻ,": 14071,
    "Ġsadness": 13285,
    "Ġpince": 21469,
    "Ġra": 809,
    "Ġthanking": 18602,
    "Ġintention": 5638,
    "Ġessentials": 20000,
    "erect": 20847,
    "Ġaccompan": 5513,
    "aching": 5831,
    "Ġdispositions": 13231,
    "Ġsitt": 21216,
    "nurse": 15208,
    "Ġstolen": 14006,
    "Ġcloak": 9532,
    "Ġrudimental": 25108,
    "Ġprofund": 13152,
    "Ġflowery": 16232,
    "Ġtorn": 5998,
    "Ġcylinders": 25943,
    "Ġintegrity": 12311,
    "Ġpantry": 20293,
    "skylight": 25623,
    ")(": 2978,
    "Ġmilitary": 11259,
    "Ġheh": 21677,
    "Ġbil": 15562,
    "dun": 17516,
    "Ġsembl": 19059,
    "Ġsymmetry": 20363,
    "rad": 2260,
    "Ġestab": 6314,
    "Ġmicrosc": 20675,
    "Ġcontract": 18475,
    "unfort": 21874,
    "Ġview": 2761,
    "itance": 13867,
    "Ġlegitimate": 20641,
    "Ġguiding": 19239,
    "Ġinferiority": 17115,
    "Ġscand": 7202,
    "address": 14881,
    "fishers": 24928,
    "Ġsickened": 16775,
    "ĠĠĠĠĠĠĠĠĠĠĠĠĠĠĠĠĠĠĠĠĠĠĠĠĠĠĠĠĠĠĠĠĠĠĠĠĠĠĠĠĠ": 19580,
    "Ġcordial": 16835,
    "Ġbeck": 14008,
    "Ġcapacious": 19175,
    "ho": 2857,
    "Ġeffort": 8200,
    "ugnance": 12365,
    "weight": 2937,
    "Ġlbs": 11615,
    "belated": 24037,
    "jour": 20926,
    "Ġsagacity": 16973,
    "oboam": 9357,
    "vis": 4576,
    "beings": 12873,
    "straight": 9939,
    "Ġstarlight": 24623,
    "Ġcourt": 4171,
    "Ġyelled": 9693,
    "ch": 321,
    "Ġmeditation": 16680,
    "Ġraptures": 13496,
    "gang": 17553,
    "à": 161,
    "Ġobliter": 14322,
    "vitiated": 25754,
    "bald": 16446,
    "Ġitems": 9691,
    "Ġvint": 18195,
    "dings": 2227,
    "Ġdecent": 10982,
    "Ġhieroglyphics": 17302,
    "Ġluckily": 16798,
    "Ġdesperately": 24657,
    "Ġnet": 3627,
    "Ġsanguine": 25928,
    "fit": 6645,
    "valued": 2851,
    "Ġwindpipe": 23104,
    "Ġflask": 3036,
    "Ġlady": 1586,
    "Ġonset": 12707,
    "Ġbeach": 6540,
    "Ġdexterity": 25294,
    "Ġlanguid": 14211,
    "Ġstrict": 7221,
    "Ġfalling": 6915,
    "Ġpartly": 6713,
    "lucky": 24546,
    "Ġicy": 10747,
    "road": 6677,
    "Ġthickets": 24022,
    "Ġintellect": 8168,
    "ower": 1047,
    "Ġdemocracy": 25458,
    "cannibals": 25584,
    "Ġhearsed": 25039,
    "hunt": 20902,
    "semic": 21818,
    "ivial": 15858,
    "Ġfolios": 23017,
    "Ġillustrate": 25065,
    "Ġpap": 8797,
    "Ġdespaired": 14669,
    "Ġem": 1923,
    "tinted": 17683,
    "enborough": 21284,
    "Ġunable": 4950,
    "writer": 14649,
    "Ġtire": 17720,
    "Ġcreating": 2994,
    "Ġshipped": 9714,
    "ĠâĢľâĢĺ_": 25111,
    "pervised": 1609,
    "Ġwithheld": 18115,
    "Ġhapp": 1086,
    "Ġrevisit": 21667,
    "precious": 12070,
    "etah": 12658,
    "Ġthickest": 16654,
    "Ġfolly": 7939,
    "oh": 1576,
    "Ġheightens": 24155,
    "Ġrokovoko": 22403,
    "Ġtribe": 10751,
    "clinging": 20821,
    "Ġperfidious": 25666,
    "greatest": 10493,
    "representing": 25271,
    "Ġimperfectly": 25727,
    "Ġvillain": 8635,
    "Ġfig": 3625,
    "n": 82,
    "Ġdetermine": 3243,
    "stepfather": 19189,
    "Ġcheat": 19023,
    "Ġjohnson": 18409,
    "Ġaccompany": 9485,
    "aved": 5475,
    "nyder": 16686,
    "Ġobstructed": 22696,
    "Ġpaper": 4283,
    "Ġsocket": 12786,
    "Ġsingled": 23771,
    "bitter": 11242,
    "Ġprov": 4400,
    "word": 2486,
    "generosity": 23785,
    "Ġnose": 4402,
    "Ġebb": 21619,
    "Ġwindlass": 7255,
    "Ġrisks": 9963,
    "Ġmotion": 4565,
    "Ġwitnesses": 9484,
    "Ġnotable": 18223,
    "Ġmahogany": 20576,
    "wich": 11544,
    "Ġenjoying": 11235,
    "opotam": 22476,
    ".,": 5986,
    "Ġter": 2051,
    "gradu": 18615,
    "Ġhorseback": 14850,
    "*": 14,
    "Ġexpose": 10327,
    "Ġep": 7383,
    "Ġextravag": 11255,
    "Ġrotterdam": 25475,
    "Ġquadrille": 13540,
    "Ġattent": 4361,
    "Ġcig": 6519,
    "cork": 20795,
    "cuniary": 26379,
    "Ġexterior": 19985,
    "elsewhere": 19865,
    "Ġformation": 2940,
    "Ġseemingly": 9317,
    "pol": 5892,
    "erxes": 21274,
    "Ġwarm": 2425,
    "Ġ119": 24442,
    "Ġlod": 4042,
    "Ġhunter": 5401,
    "reflect": 19862,
    "Ġdepth": 2437,
    "Ġpenetrating": 17011,
    "Ġdexterously": 25295,
    "pennies": 26285,
    "Ġpanthe": 19651,
    "py": 17624,
    "innacle": 7518,
    "Ġwhalebone": 10977,
    "Ġcomforter": 20504,
    "Ġwaterloo": 11979,
    "softened": 20407,
    "Ġfisher": 3220,
    "Ġ179": 19752,
    "Ġappe": 1538,
    "Ġrejoined": 14927,
    "hosmer": 25902,
    "Ġobeyed": 12214,
    "Ġbroker": 23100,
    "Ġameric": 3853,
    "Ġstrip": 9419,
    "Ġmildness": 9943,
    "urance": 10857,
    "Ġsmilingly": 22557,
    "Ġforth": 3463,
    "Ġcritical": 7474,
    "Ġwatery": 6295,
    "Ġarri": 2553,
    "Ġder": 1499,
    "Ġsympathetic": 17358,
    "Ġapp": 498,
    "sent": 759,
    "rified": 15418,
    "Ġperfect": 2556,
    "Ġphysiogn": 12386,
    "rit": 21034,
    "outward": 22157,
    "feeders": 25235,
    "Ġhindrance": 25220,
    "Ġsurpass": 13582,
    "Ġscrupled": 25049,
    "Ġcontracted": 12857,
    "Ġgleaming": 24993,
    "impart": 21706,
    "osal": 11758,
    "Ġretrogress": 23070,
    "ographical": 16786,
    "Ġmaggie": 26291,
    "falgar": 26130,
    "Ġevangelists": 20337,
    "etimes": 1989,
    "port": 10719,
    "br": 2476,
    "Ġflung": 8561,
    "beat": 10986,
    "Ġloved": 4598,
    "Ġirrad": 19093,
    "Ġheaps": 11642,
    "rigged": 17062,
    "Ġspecific": 2004,
    "Ġincred": 5646,
    "Ġdeemed": 7611,
    "Ġbrigs": 20320,
    "Ġflee": 7078,
    "rel": 3755,
    "rods": 21535,
    "Ġefficient": 1029,
    "col": 3099,
    "Ġcreases": 22724,
    "control": 16542,
    "Ġpromptly": 23815,
    "Ġgobern": 22422,
    "Ġboys": 5193,
    "Ġsealed": 15816,
    "Ġdented": 17892,
    "Ġcream": 22722,
    "Ġembarrassment": 10626,
    "Ġstrang": 4163,
    "Ġ2026": 12333,
    "iction": 4269,
    "Ġcachalot": 17835,
    "Ġvertically": 19378,
    "Ġbount": 15565,
    "algorith": 3582,
    "mm": 675,
    "liter": 11502,
    "uttered": 8439,
    "Ġblast": 7444,
    "absent": 21786,
    "chat": 21683,
    "arking": 16123,
    "Ġac": 844,
    "Ġeffectual": 18732,
    "pondicherry": 26400,
    "Ġvalid": 1725,
    "say": 3983,
    "Ġnapole": 15115,
    "Ġentropy": 2032,
    "Ġlashed": 9198,
    "sequence": 2855,
    "Ġsmart": 11814,
    "readers": 23846,
    "disposed": 25010,
    "Ġencourag": 1393,
    "suitableness": 26260,
    "Ġartist": 12909,
    "glance": 16587,
    "sequ": 2401,
    "Ġremorse": 6440,
    "geons": 15977,
    "Ġwillow": 18533,
    "ounce": 6556,
    "arian": 10315,
    "give": 4688,
    "verb": 10216,
    "Ġoccas": 2705,
    "Ġdardanelles": 26443,
    "Ġinvincible": 23482,
    "Ġcot": 13876,
    "become": 14247,
    "Ġsubstituting": 26326,
    "Ġstreets": 5863,
    "Ġstrolled": 16770,
    "Ġparacels": 13666,
    "Ġcontrol": 13078,
    "Ġswerve": 14437,
    "Ġoccupy": 14731,
    "Ġwatch": 2744,
    "Ġchip": 12822,
    "Ġfleets": 23773,
    "Ġinterven": 10997,
    "print": 23809,
    "Ġsmoking": 6428,
    "Ġneighbors": 25804,
    "Ġdisagree": 22529,
    "Ġtheories": 13848,
    "Ġtrouble": 3691,
    "Ġwedge": 24070,
    "Ġmermaid": 17814,
    "neath": 12863,
    "wicked": 24450,
    "rossed": 11012,
    "Ġformless": 22825,
    "Ġtranquil": 7309,
    "cain": 15325,
    "Ġbouquet": 20682,
    "Ġattempted": 7999,
    "ruction": 4358,
    "par": 1859,
    "Ġusher": 22209,
    "Ġrainy": 24342,
    "Ġrespective": 16343,
    "heavily": 24535,
    "adieu": 26200,
    "Ġglassy": 19557,
    "Ġless": 1938,
    "Ġallegor": 25545,
    "Ġwanted": 4967,
    "grate": 23411,
    "Ġmuff": 8112,
    "Ġdogs": 7740,
    "Ġharb": 7369,
    "regard": 7971,
    "Ġmarlingspike": 26579,
    "Ġmanipulated": 25178,
    "Ġnosegay": 24192,
    "Ġspirit": 3724,
    "Ġconstructed": 9575,
    "scream": 11076,
    "Ġworaciousness": 22927,
    "olerably": 11673,
    "reluct": 26163,
    "Ġadam": 2129,
    "gentleman": 7517,
    "vac": 15449,
    "Ġinsensibly": 20073,
    "Ġstride": 22613,
    "Ġpra": 4347,
    "hurst": 19877,
    "Ġad": 440,
    "Ġswe": 2291,
    "isition": 11586,
    "Ġcalculates": 13264,
    "Ġzigzag": 26272,
    "Ġexord": 21824,
    "Ġfinding": 3265,
    "gypt": 8259,
    "Ġapologizing": 25197,
    "Ġconfirms": 23309,
    "Ġepidemic": 20694,
    "Ġbeque": 18081,
    "deceptive": 22147,
    "irited": 15784,
    "Ġlicense": 20088,
    "Ġreef": 10849,
    "quest": 4537,
    "Ġstoop": 16309,
    "Ġstruggle": 3676,
    "theirs": 23602,
    "Ġbed": 2147,
    "Ġwayward": 22868,
    "Ġtheir": 644,
    "Ġinclement": 22550,
    "stayed": 25290,
    "ogr": 18677,
    "Ġcomprehending": 24446,
    "Ġvideo": 25365,
    "Ġpantaloons": 20294,
    "Ġantics": 24178,
    "casks": 20400,
    "Ġmour": 6973,
    "Ġkent": 6691,
    "german": 11492,
    "Ġreceptacle": 23191,
    "friends": 8304,
    "Ġunconditional": 15842,
    "Ġrejoinder": 24598,
    "Ġcompliment": 5673,
    "Ġroof": 6563,
    "Ġdisplaying": 16965,
    "Ġcosmetic": 23472,
    "Ġinterconnected": 1338,
    "ifix": 21901,
    "Ġspouted": 14675,
    "ving": 594,
    "unch": 14057,
    "prospect": 23395,
    "Ġadoration": 18290,
    "black": 6768,
    "Ġeyelids": 26107,
    "absence": 12705,
    "recognised": 15261,
    "Ġplayfully": 19237,
    "Ġagonized": 25372,
    "Ġhumility": 12982,
    "ilet": 12826,
    "Ġinquiry": 6483,
    "Ġmirth": 15542,
    "Ġparticip": 16129,
    "peace": 13046,
    "Ġworker": 23030,
    "Ġking": 2305,
    "Ġ110": 24436,
    "photograph": 16160,
    "Ġnewly": 9337,
    "cour": 4479,
    "Ġcoronet": 6343,
    "Â·": 21148,
    "Ġdifficult": 3570,
    "rent": 1171,
    "Ġputting": 5326,
    "Ġlanc": 19762,
    "Ġapartments": 19612,
    "mercenary": 26315,
    "Ġroylott": 7304,
    "sorts": 21059,
    "Ġmainland": 22654,
    "thro": 12758,
    "Ġtangle": 25760,
    "orial": 8415,
    "Ġhug": 6979,
    "Ġfaithfulness": 24447,
    "Ġlamp": 4115,
    "Ġxxi": 24477,
    "Ġbour": 4875,
    "Ġ92": 24591,
    "feel": 3812,
    "cked": 2762,
    "Ġglobu": 23271,
    "mond": 20972,
    "isc": 6239,
    "pause": 12498,
    "Ġobligation": 13243,
    "level": 2655,
    "Ġcities": 17828,
    "onday": 6063,
    "quietude": 24656,
    "pense": 10368,
    "Ġapt": 9155,
    "Ġark": 10275,
    "Ġresol": 2667,
    "Ġbrand": 16184,
    "ulties": 12898,
    "Ġaspect": 3092,
    "wealth": 22685,
    "gin": 4929,
    "intelligent": 16844,
    "Ġwill": 680,
    "engagement": 14458,
    "Ġinn": 4589,
    "Ġinstant": 2706,
    "Ġsund": 8247,
    "Ġmoonshine": 19595,
    "expected": 5780,
    "Ġconduct": 3733,
    "bl": 4144,
    "Ġlibraries": 20613,
    "mor": 4215,
    "este": 15917,
    "Ġdisturb": 7106,
    "Ġlodgings": 8310,
    "Ġaugment": 8691,
    "Ġundeceive": 25552,
    "mean": 6437,
    "archical": 1925,
    "Ġpresume": 8036,
    "unbe": 21869,
    "Ġinmost": 17931,
    "Ġwhelm": 25998,
    "Ġten": 2385,
    "Ġtoiled": 12639,
    "drugg": 20837,
    "Ġarchangel": 8541,
    "Ġwarmly": 8987,
    "Ġide": 2125,
    "Ġmediterranean": 12313,
    "places": 7875,
    "Ġscaling": 3632,
    "range": 3493,
    "Ġcomposing": 16065,
    "Ġrus": 14092,
    "Ġargu": 10934,
    "kings": 17583,
    "fork": 20856,
    "Ġreckoning": 14978,
    "Ġcane": 10929,
    "Ġpacifics": 24374,
    "Ġmagg": 18905,
    "Ġbake": 21380,
    "prudently": 21033,
    "Ġclang": 15960,
    "drove": 16993,
    "dled": 9110,
    "Ġperhaps": 1912,
    "Ġbalancing": 2430,
    "cas": 20793,
    "mill": 13753,
    "Ġtreatment": 12069,
    "Ġtex": 15471,
    "Ġspeaking": 4026,
    "Ġthrilling": 19746,
    "Ġbringing": 5869,
    "Ġunbelief": 22046,
    "bare": 12439,
    "Ġdearer": 14048,
    "Ġreturned": 2889,
    "Ġword": 1051,
    "need": 10983,
    "Ġdism": 9766,
    "levi": 7046,
    "antee": 22094,
    "obey": 11510,
    "disapprobation": 19155,
    "Ġacquaintance": 4134,
    "Ġdest": 2240,
    "Ġamply": 22479,
    "mrs": 3744,
    "towns": 24854,
    "itical": 5801,
    "Ġcircumstance": 4986,
    "Ġfoe": 7678,
    "leaning": 10790,
    "inquiry": 15142,
    "tstone": 21083,
    "``": 15305,
    "intolerable": 22936,
    "cheon": 23802,
    "observation": 17269,
    "Ġrheumatic": 20704,
    "elstrom": 17982,
    "rack": 18011,
    "ĠdÃ¦mon": 7843,
    "forks": 26387,
    "norm": 20984,
    "Ġincreased": 2213,
    "isk": 9167,
    "Ġprofession": 6207,
    "Ġmar": 1313,
    "Ġwreat": 15529,
    "Ġpersonified": 19177,
    "tot": 10728,
    "Ġtide": 6658,
    "Ġineffect": 13929,
    "ben": 4925,
    "Ġillness": 8590,
    "Ġundec": 22016,
    ":âĢĶâĢĺ": 24193,
    "Ġsord": 21218,
    "Ġrally": 21969,
    "Ġample": 11797,
    "tahit": 17692,
    "Ġbrother": 2749,
    "ad": 337,
    "ivil": 6410,
    "Ġdistingu": 2511,
    "Ġfrontispiece": 23912,
    "Ġpickle": 16722,
    "Ġfright": 3796,
    "mag": 6507,
    "Ġhoneymoon": 25645,
    "Ġvirt": 3907,
    "disappeared": 14572,
    "classes": 12133,
    "canallers": 22967,
    "Ġlandowner": 23380,
    "ble": 542,
    "Ġexulting": 20256,
    "ire": 493,
    "Ġquiver": 16001,
    "Ġsooty": 25815,
    "Ġdestabilizing": 5052,
    "ately": 1704,
    "prejudiced": 17296,
    "unity": 4154,
    "Ġdeclare": 6613,
    "Ġawaiting": 11391,
    "Ġclump": 15963,
    "Ġ1839": 20457,
    "Ġincognita": 26551,
    "my": 1317,
    "Ġlabour": 7273,
    "Ġjove": 9267,
    "Ġwherefore": 8523,
    "Ġtasks": 1791,
    "announce": 24561,
    "Ġmonitors": 3153,
    "Ġscolding": 15200,
    "Ġrh": 9243,
    "Ġfavourite": 5270,
    "urities": 18049,
    "Ġdimmed": 24268,
    "ization": 487,
    "Ġsaville": 15886,
    "deser": 10402,
    "acing": 2719,
    "Ġdeformity": 11676,
    "Ġamount": 8510,
    "kins": 7344,
    "erative": 21271,
    "Ġprepared": 5876,
    "Ġbrit": 6288,
    "Ġplain": 2817,
    "belt": 24035,
    "Ġgodson": 23357,
    "where": 2092,
    "Ġthousands": 6748,
    "Ġbehoo": 19036,
    "Ġmasterly": 23992,
    "dare": 12451,
    "giana": 7799,
    "iana": 7047,
    "Ġsuch": 794,
    "missionary": 24612,
    "miss": 3169,
    "Ġswear": 6460,
    "Ġcandidates": 4334,
    "wished": 13804,
    "perai": 10276,
    "Ġconductor": 24005,
    "Ġlouder": 13467,
    "Ġboomer": 20165,
    "idually": 21766,
    "Ġtravelled": 7770,
    "Ġcretan": 22725,
    "Ġchurned": 18385,
    "Ġconfessor": 24018,
    "sp": 893,
    "als": 2042,
    "Ġpostmark": 16725,
    "Ġcaus": 1723,
    "sixteen": 24853,
    "seam": 10874,
    "Ġthrough": 604,
    "Ġiceland": 15146,
    "Ġcapting": 23018,
    "Ġfell": 1979,
    "Ġsystematic": 5243,
    "process": 11148,
    "Ġeverything": 3151,
    "Ġwhe": 439,
    "Ġwickedness": 9524,
    "Ġjewels": 12367,
    "Ġlifted": 6985,
    "Ġvectors": 1773,
    "Ġodds": 13328,
    "opposite": 19927,
    "Ġmoderation": 12815,
    "Ġwet": 6517,
    "after": 2894,
    "Ġpockets": 8895,
    "Ġcompany": 3721,
    "retrospect": 23135,
    "Ġyet": 1027,
    "Ġcamberwell": 25350,
    "however": 4373,
    "Ġsleeps": 10446,
    "forth": 9321,
    "Ġmaintainable": 12932,
    "emason": 18187,
    "Ġlater": 6015,
    "Ġmont": 8556,
    "Ġhateful": 19711,
    "Ġindu": 5293,
    "!_": 7328,
    "Ġeludes": 26554,
    "harmony": 25750,
    "Ġenthus": 7231,
    "concerned": 24639,
    "Ġmen": 1435,
    "quely": 10231,
    "vels": 5432,
    "Ġdaylight": 10350,
    "Ġbending": 12582,
    "Ġflapped": 23010,
    "neglected": 25669,
    "Ġmore": 678,
    "Ġstabilizing": 3658,
    "dÃ¦mon": 17527,
    "Ġunaffected": 14122,
    "achment": 5462,
    "Ġescaping": 13134,
    "Ġsemicirc": 16392,
    "confess": 12173,
    "Ġinvoking": 19145,
    "despatched": 19799,
    "Ġthreatens": 24376,
    "Ġreside": 22536,
    "Ġsigned": 11178,
    "recklessly": 25269,
    "Ġscrutin": 26014,
    "Ġamongst": 8959,
    "Ġpiratical": 24801,
    "Ġbind": 12579,
    "Ġrays": 10330,
    "Ġleaf": 15720,
    "continuing": 24480,
    "Ġmatlock": 18800,
    "Ġnic": 7375,
    "scure": 22984,
    "Ġoutward": 7902,
    "Ġnominally": 17231,
    "ounder": 11743,
    "Ġwilful": 10534,
    "tisement": 6767,
    "Ġboarders": 16600,
    "Ġdilig": 8348,
    "Ġshipping": 14103,
    "audible": 17132,
    "Ġprair": 7745,
    "Ġprevents": 2557,
    "Ġunquestionable": 26221,
    "ifted": 4494,
    "Ġwearisome": 19792,
    "ills": 1629,
    "Ġazores": 20191,
    "distressed": 24200,
    "ohnson": 16325,
    "Ġwine": 6810,
    "Ġcit": 10783,
    "Ġimpo": 3443,
    "Ġensl": 19273,
    "ustry": 18358,
    "Ġshoe": 14569,
    "Ġdepartments": 24243,
    "icity": 2538,
    "Ġsingularly": 12146,
    "separated": 20157,
    "Ġniag": 21527,
    "Ġsumat": 14131,
    "Ġbottled": 23794,
    "onde": 21250,
    "Ġproceeded": 5335,
    "bweb": 20790,
    "oin": 17617,
    "empt": 2618,
    "Ġmiscell": 16148,
    "Ġbrotherly": 16526,
    "Ġinvari": 6528,
    "Ë": 140,
    "Ġvalidate": 3095,
    "Ġangel": 4851,
    "Ġpattered": 19019,
    "Ġgrunt": 18736,
    "Ġrelease": 19290,
    "weeks": 14316,
    "Ġp": 289,
    "Ġethics": 15461,
    "Ġprocession": 11774,
    "Ġshalt": 18231,
    "Ġgives": 5017,
    "Ġjago": 22296,
    "Ġgowns": 25359,
    "Ġantagonist": 26327,
    "bye": 5948,
    "Ġhusband": 3621,
    "Ġfitness": 23998,
    "Ġlump": 21549,
    "Ġscriptures": 26235,
    "Ġvacant": 9493,
    "Ġfel": 1519,
    "obed": 14446,
    "quadrille": 20593,
    "Ġharpoon": 3617,
    "Ġhome": 2029,
    "enough": 6809,
    "Ġregulate": 22572,
    "Ġsu": 433,
    "Ġale": 9154,
    "Ġsystem": 583,
    "Ġhimmalehs": 26229,
    "Ġdollars": 11456,
    "Ġtermination": 16459,
    "mission": 5968,
    "llable": 6879,
    "Ġbug": 11589,
    "Ġabound": 8863,
    "phys": 18726,
    "Ġfixedly": 19247,
    "Ġhulls": 13925,
    "et": 307,
    "Ġdisse": 18547,
    "Ġrode": 15996,
    "Ġunhappiness": 14118,
    "Ġheedless": 14903,
    "Ġsavi": 18324,
    "centred": 25017,
    "henomena": 20270,
    "Ġwar": 5526,
    "inously": 21185,
    "Ġalarmed": 6923,
    "Ġlane": 5627,
    "Ġfaltering": 17885,
    "ĠĠĠĠĠĠĠĠĠĠĠĠĠĠĠĠĠĠĠĠĠĠĠĠĠĠĠĠĠĠĠĠĠĠ": 14615,
    "Ġmounts": 17807,
    "Ġorigin": 4121,
    "Ġcongratulations": 10580,
    "occ": 4484,
    "Ġunusual": 6552,
    "Ġequivalent": 4801,
    "ffy": 18314,
    "crown": 13697,
    "Ġpaus": 4298,
    "Ġpuppy": 12403,
    "Ġplump": 14282,
    "Ġxxxii": 24970,
    "ubb": 1647,
    "Ġstepdaughter": 22610,
    "somehow": 12010,
    "Ġfurs": 18739,
    "Ġdisciple": 22779,
    "Ġaccomplish": 14876,
    "determine": 19941,
    "Ġflamingo": 15100,
    "Ġvirginia": 13499,
    "Ġmor": 1249,
    "Ġdrowning": 19902,
    "ung": 2746,
    "benefit": 24643,
    "viating": 14580,
    "uy": 21098,
    "consol": 9761,
    "waste": 21133,
    "Ġbook": 2704,
    "hemat": 3126,
    "Ġexasper": 8465,
    "gain": 8736,
    "Ġbalance": 2022,
    "Ġastonishment": 4793,
    "suited": 22638,
    "Ġken": 22188,
    "Ġdeath": 2043,
    "business": 5610,
    "Ġsour": 21215,
    "Ġloveliest": 20259,
    "Ġgrated": 22802,
    "Ġexclusiveness": 23925,
    "Ġbronze": 22864,
    "lorn": 12485,
    "quished": 21851,
    "helped": 18923,
    "Ġdiabolism": 25514,
    "Ġtackles": 8049,
    "8": 28,
    "Ġgangs": 21606,
    "ulled": 14055,
    "Ġlikely": 3598,
    "flex": 24843,
    "Ġmurderer": 4979,
    "Ġundiscernible": 22065,
    "lakeman": 13750,
    "voyage": 7784,
    "assin": 22302,
    "button": 10966,
    "Ġfeelings": 2451,
    "Ġeloquent": 16108,
    "Ġsixteen": 8281,
    "behind": 6779,
    "Ġreconc": 9682,
    "Ġstreet": 2955,
    "Ġmarvelled": 18873,
    "Ġvindictiveness": 25738,
    "absolut": 8457,
    "Ġmuseum": 15270,
    "Ġaim": 10145,
    "Ġwindsor": 16887,
    "Ġsegment": 12754,
    "Ġdra": 1592,
    "Ġfigure": 4207,
    "rann": 21043,
    "razor": 21634,
    "whalers": 17263,
    "Ġphrases": 2797,
    "cob": 10086,
    "Ġfish": 2712,
    "Ġheeds": 24521,
    "Ġfix": 2505,
    "ĠĠĠĠĠĠĠĠĠĠĠĠĠĠĠĠĠĠĠĠĠĠĠĠĠĠĠĠĠĠĠĠĠĠĠĠĠĠĠĠĠĠĠĠĠĠĠĠĠĠĠĠĠ": 20037,
    "Ġbend": 9170,
    "Ġidly": 16403,
    "acity": 5735,
    "several": 5544,
    "que": 1149,
    "Ġcolumns": 14376,
    "catch": 17506,
    "seemingly": 25362,
    "calmed": 16203,
    "Ġdenote": 19332,
    "Ġtendency": 11330,
    "í": 174,
    "Ġribs": 7100,
    "Ġagric": 22512,
    "Ġprovoking": 16743,
    "Ġticking": 25033,
    "min": 4570,
    "Ġunfav": 14788,
    "opius": 18508,
    "Ġdestroyed": 5271,
    "Ġlivers": 18461,
    "Ġstem": 15716,
    "Ġvector": 1973,
    "valley": 16212,
    "Ġspatial": 2731,
    "-": 17,
    "Ġbelf": 21379,
    "Ġmicroscopic": 26373,
    "rebellum": 26165,
    "Ġisolated": 13558,
    "Ġplaying": 6909,
    "apothecary": 26545,
    "Ġappro": 659,
    "Ġtamer": 24976,
    "Ġsalt": 8015,
    "Ġkins": 22191,
    "Ġcompares": 20164,
    "thou": 4708,
    "arched": 10815,
    "Ġpriv": 4184,
    "hr": 20887,
    "stocks": 23819,
    "Ġgros": 14822,
    "published": 26142,
    "Ġblandly": 20321,
    "machines": 8383,
    "repeated": 12337,
    "Ġinst": 909,
    "Ġency": 21931,
    "Ġtistig": 26413,
    "Ġtrick": 7020,
    "feed": 9292,
    "Ġimport": 1046,
    "Ġcomplying": 18584,
    "Ġamput": 16032,
    "success": 6710,
    "respect": 6373,
    "Ġelucidated": 26029,
    "Ġtong": 4869,
    "nib": 5213,
    "Ġovertake": 15970,
    "Ġexponentially": 1443,
    "Ġexcurs": 23314,
    "Ġprinciples": 10010,
    "Ġspot": 4157,
    "Ġexpeditions": 24954,
    "Ġcried": 1487,
    "Ġconceivable": 16613,
    "aking": 975,
    "kept": 11716,
    "Ġcrunched": 19123,
    "ulatory": 15765,
    "Ġpraying": 19551,
    "ifting": 6544,
    "ĕ": 214,
    "pest": 6964,
    "year": 11094,
    "contrary": 23728,
    "Ġstanding": 2996,
    "Ġgidd": 25783,
    "Ġfaded": 10809,
    "Ġacknowledged": 7533,
    "Ġtriumphal": 24372,
    "ang": 445,
    "Ġunbecoming": 22061,
    "attempt": 9359,
    "Ġsuspic": 4470,
    "Ġrenewing": 19808,
    "!âĢĶâĢĻ": 23565,
    "Ġmartin": 25436,
    "Ġrecollect": 8308,
    "irectly": 6940,
    "Ġscuttle": 7413,
    "Ġe": 311,
    "hurried": 11354,
    "imprisonment": 23761,
    "abroad": 18109,
    "mblance": 7322,
    "Ġowed": 10780,
    "Ġgable": 15664,
    "Ġjustinian": 22970,
    "Ġbigger": 19759,
    "Ġsnugness": 20074,
    "Ġgrenadier": 21613,
    "Ġblank": 5949,
    "Ġlabyrin": 13102,
    "Ġdistribution": 2020,
    "Ġflourished": 15125,
    "Ġwrite": 3821,
    "kitchen": 17585,
    "Ġdisk": 22519,
    "Ġcontemplation": 11358,
    "Ġeconomy": 17200,
    "Ġtest": 1546,
    "knowledge": 7477,
    "Ġcour": 1770,
    "Ġbehalf": 14510,
    "Ġah": 5074,
    "Ġgrotesque": 26328,
    "ork": 415,
    "Ġmapp": 2081,
    "Ġposs": 1618,
    "Ġsuspicious": 9478,
    "Ġsil": 1799,
    "nin": 17608,
    "Ġbulldog": 23858,
    "struct": 2392,
    "Ġbusied": 19066,
    "scap": 22986,
    "Ġparent": 14646,
    "igner": 21698,
    "Ġregular": 932,
    "Ġnuptial": 25782,
    "Ġbaleen": 10036,
    "notwithstanding": 22749,
    "Ġhaught": 10254,
    "mun": 20961,
    "Ġmain": 811,
    "terr": 8152,
    "footman": 17162,
    "struck": 7860,
    "Ġstricken": 9775,
    "Ġfate": 4753,
    "tout": 21064,
    "Ġtedious": 15266,
    "neighbourhood": 10024,
    "harm": 13734,
    "Ġwid": 4632,
    "Ġlydia": 2372,
    "mod": 1100,
    "Ġplaything": 19236,
    "đ": 210,
    "accomplished": 17211,
    "Ġconsoled": 18113,
    "just": 1696,
    "Ġdefine": 9814,
    "Ġacres": 14313,
    "Ġepid": 18005,
    "Ġjuly": 17236,
    "Ġattended": 5391,
    "Ġlullaby": 20586,
    "Ġfreshe": 13068,
    "ike": 4999,
    "Ġshape": 5639,
    "southern": 20406,
    "Ġin": 291,
    "emy": 14074,
    "Ġferrule": 24501,
    "Ġcrammed": 16469,
    "income": 15485,
    "Ġgour": 21595,
    "ously": 2489,
    "Ġexchanged": 10878,
    "omist": 21635,
    "ificant": 22203,
    "Ġunshored": 25813,
    "Ġeu": 6389,
    "Ġser": 1668,
    "Ġdiabol": 11454,
    "author": 9859,
    "Ġmungo": 25631,
    "Ġsod": 11562,
    "Ġmuster": 16120,
    "Ġtou": 15465,
    "uniform": 18158,
    "vessels": 10625,
    "Ġconvergence": 974,
    "Ġcomrades": 9553,
    "Ġ48": 24081,
    "atiously": 15520,
    "Ġlanguage": 647,
    "Ġforces": 12699,
    "Ġpattern": 1290,
    "Ġdepos": 11007,
    "Ġhemis": 21681,
    "Ġamel": 18510,
    "Ġpathways": 11153,
    "Ġrespectively": 23247,
    "Ġmetaphysical": 26066,
    "Ġimbu": 15889,
    "Ġ550": 19639,
    "Ġtainted": 21169,
    "nant": 17609,
    "cursed": 23842,
    "yn": 7818,
    "urs": 6989,
    "Ġfowler": 16937,
    "Ġdiscovering": 13356,
    "Ġconc": 1842,
    "listener": 24930,
    "Ġswan": 23049,
    "Ġnail": 9195,
    "small": 6471,
    "Ġenrapt": 21937,
    "Ġbeholding": 8668,
    "indebted": 26158,
    "owe": 15706,
    "Ġplant": 8899,
    "iastic": 12477,
    "$": 8,
    "Ġcontinent": 14888,
    "halfway": 24312,
    "Ġlandlord": 5581,
    "Ġvillas": 24053,
    "local": 22507,
    "Ġghastly": 10059,
    "Ġradiating": 24336,
    "Ġcoburg": 18599,
    "deemed": 18316,
    "ity": 417,
    "Ġwhich": 503,
    "Ġvalu": 5038,
    "chorus": 19809,
    "Ġprivately": 19522,
    "arding": 22154,
    "claim": 9834,
    "brought": 7284,
    "species": 13255,
    "Ġqualities": 7532,
    "composed": 14740,
    "Ġparaph": 22117,
    "silence": 8043,
    "numer": 15398,
    "decoder": 3646,
    "verest": 13990,
    "merely": 16132,
    "Ġhotels": 19535,
    "Ġfollow": 1396,
    "Ġchoose": 5980,
    "Ġflexible": 23774,
    "ocean": 12399,
    "Ġimpress": 6862,
    "Ġcomstock": 21848,
    "Ġarrest": 7408,
    "iless": 10281,
    "Ġbeaten": 10528,
    "Ġdivin": 13272,
    "Ġsquaw": 22836,
    "Ġasi": 12729,
    "turned": 7305,
    "Ġgunw": 6212,
    "Ġvigour": 24463,
    "Ġwhale": 627,
    "harpooneers": 8689,
    "Ġmonkey": 8225,
    "Ġdemand": 4946,
    "monkey": 19169,
    "Ġmatches": 14395,
    "Ġrobins": 16257,
    "Ġfest": 10804,
    "Ġmodesty": 12814,
    "Ġweariness": 19791,
    "Ġdressing": 7089,
    "Ġeliminating": 20618,
    "positive": 20566,
    "Ġagain": 816,
    "Ġpeninsula": 23195,
    "Ġcorporeally": 25729,
    "Ġfriendship": 7245,
    "Ġelder": 7223,
    "Ġnarrow": 5085,
    "Ġclimes": 12837,
    "list": 7550,
    "Ġhandsomely": 25497,
    "dataset": 23228,
    "settled": 10506,
    "Ġgardeners": 12118,
    "united": 14059,
    "impe": 21705,
    "Ġpropos": 7061,
    "gn": 8080,
    "Ġstrengthen": 20699,
    "skirted": 24490,
    "Ġnimble": 21525,
    "Ġkindliness": 23296,
    "Ġgentleman": 3037,
    "Ġsensitive": 13198,
    "ounts": 4651,
    "wheeling": 22867,
    "Ġfact": 1728,
    "Ġterror": 5123,
    "Ġcavity": 20485,
    "Ġwhispered": 5337,
    "increased": 20268,
    "Ġug": 8139,
    "affect": 13211,
    "shabb": 18490,
    "Ġreverber": 19866,
    "Ġgoble": 14230,
    "Ġscant": 22277,
    "luckily": 19750,
    "Ġright": 1505,
    "Ġmatrimony": 13634,
    "Ġdong": 17888,
    "Ġrelaxed": 12981,
    "Ġbubb": 12581,
    "Ġcocaine": 20720,
    "Ġrebounds": 25967,
    "into": 3681,
    "Ġgreeted": 23213,
    "asing": 5911,
    "cil": 8720,
    "clopÃ¦dia": 15255,
    "tea": 18741,
    "Ġcounter": 6480,
    "etieth": 21581,
    "Ġsurest": 19056,
    "Ġ97": 19772,
    "lesc": 11039,
    "Ġerror": 1768,
    "Ġprevail": 13441,
    "hem": 6663,
    "err": 1142,
    "Ġquitting": 7644,
    "Ġthy": 2510,
    "Ġalph": 9694,
    "entered": 8814,
    "Ġcircumvent": 25064,
    "Ġtelegra": 11891,
    "observed": 7673,
    "hered": 5623,
    "sugg": 11840,
    "Ġbible": 9318,
    "ilities": 6991,
    "justice": 7956,
    "Ġrnns": 2394,
    "Ġinstruments": 12221,
    "Ġ[\"": 19928,
    "bers": 2571,
    "Ġmax": 2008,
    "Ġboats": 2638,
    "Ġleakage": 23459,
    "advent": 10220,
    "cl": 1493,
    "Ġbrilliantly": 25120,
    "rell": 11564,
    "Ġintegr": 7967,
    "Ġpemberley": 4587,
    "offered": 14518,
    "Ġsolicitude": 10039,
    "Ġodor": 12147,
    "Ġwaking": 11570,
    "mankind": 14374,
    "bone": 5612,
    "adem": 21754,
    "distrust": 19568,
    "Ġsain": 17751,
    "datasets": 11948,
    "Ġfollowed": 1796,
    "anges": 1671,
    "ead": 2599,
    "Ġintent": 6408,
    "iled": 1767,
    "Ġnetworks": 596,
    "apothe": 22332,
    "ator": 1922,
    "oke": 1858,
    "Ġtallow": 14777,
    "Ġprogressive": 5023,
    "Ġhosea": 17330,
    "Ġcries": 7153,
    "scy": 21054,
    "Ġnorm": 760,
    "Ġdiffusion": 23781,
    "Ġeaglet": 19304,
    "learnt": 23468,
    "Ġseparation": 11249,
    "Ġworth": 4416,
    "Ġhed": 7386,
    "howling": 18989,
    "prise": 7725,
    "forecastle": 10990,
    "Ġninety": 13600,
    "lest": 5288,
    "Ġglim": 9343,
    "Ġformidable": 8218,
    "elson": 16372,
    "Ġslu": 13835,
    "Ġmonosy": 18850,
    "Ġcloser": 8659,
    "Ġdepended": 9776,
    "Ġextent": 7654,
    "Ġwalton": 14971,
    "allies": 14166,
    "Ġcommence": 6167,
    "Ġbush": 23337,
    "Ġinvesting": 19644,
    "Ġbloody": 9888,
    "Ġcourtiers": 24138,
    "Ġcurb": 16224,
    "Ġcode": 1719,
    "Ġexc": 1833,
    "course": 6104,
    "Ġumb": 11646,
    "hind": 20893,
    "allowance": 16824,
    "gies": 13725,
    "Ġsupposed": 4557,
    "Ġsalad": 19477,
    "prep": 9758,
    "Ġmel": 4815,
    "Ġdetails": 6564,
    "Ġwrung": 14470,
    "Ġplaces": 5390,
    "Ġimmort": 19482,
    "Ġtoy": 15631,
    "Ġnast": 15636,
    "Ġillustrations": 17108,
    "ost": 5360,
    "Ġadm": 2402,
    "inence": 15480,
    "lleg": 20950,
    "fluttering": 23971,
    "hatch": 15363,
    "Ġshowing": 7730,
    "Ġtoler": 7587,
    "opposing": 24825,
    "fif": 9116,
    "Ġdestroy": 5772,
    "Ġofficially": 24838,
    "Ġproceed": 3241,
    "get": 1021,
    "ravity": 21632,
    "ondency": 15268,
    "Ġsepulch": 15283,
    "Ġlanterns": 24578,
    "Ġledgers": 23936,
    "Ġrealistic": 5860,
    "Ġepoch": 26471,
    "Ġoccupant": 16651,
    "Ġimportant": 1104,
    "disciple": 16778,
    "ich": 469,
    "Ġottoman": 17377,
    "Ġtumbled": 13405,
    "Ġinquest": 16546,
    "bour": 2072,
    "Ġsteelkilt": 5675,
    "Ġwho": 613,
    "ruin": 22183,
    "Ġchinese": 14184,
    "promised": 12249,
    "Ġallude": 12768,
    "Ġdelicate": 6479,
    "confid": 14867,
    "Ġpre": 507,
    "Ġharbour": 19977,
    "etition": 7381,
    "Ġgamesome": 17289,
    "intments": 18820,
    "Ġrepeated": 3831,
    "depend": 9112,
    "atious": 10151,
    "supervised": 1943,
    "devil": 7893,
    "Ġfair": 2836,
    "ells": 5303,
    "extracts": 22755,
    "Ġsunbeam": 23275,
    "Ġlull": 15648,
    "tenham": 16320,
    "Ġlinn": 13952,
    "establishment": 26113,
    "Ġapothe": 12373,
    "Ġprev": 6264,
    "Ġexpl": 486,
    "Ġthrills": 24543,
    "dreadful": 11422,
    "discovered": 8323,
    "esc": 618,
    "Ġclust": 9273,
    "Ġair": 1836,
    "landed": 18954,
    "kers": 7131,
    "Ĩ": 233,
    "Ġinterest": 2252,
    "bellies": 19971,
    "Ġmorose": 18848,
    "Ġstrangers": 8312,
    "backed": 9865,
    "Ġperpet": 7643,
    "ware": 3934,
    "Ġstill": 1156,
    "fat": 8077,
    "Ġroundabout": 23058,
    "ak": 540,
    "_.": 2214,
    "riptions": 14795,
    "lan": 15376,
    "Ġstates": 1851,
    "farintosh": 24554,
    "Ġboon": 22634,
    "Ġdanes": 25156,
    "Ġencomp": 12959,
    "Ġvari": 833,
    "hereditary": 26419,
    "Ġtraditions": 11444,
    "Ġentic": 16144,
    "etency": 21579,
    "Ġsow": 17750,
    "Ġ12": 5483,
    "necessary": 5881,
    "Ġdut": 2985,
    "Ġfilters": 3927,
    "Ġunfathomably": 25873,
    "Ġumbrella": 15264,
    "aurus": 20559,
    "Ġdeficiency": 14403,
    "divided": 25018,
    "rudence": 7091,
    "Ġinverted": 12634,
    "Ġaware": 5756,
    "Ġparacelsus": 15265,
    "Ġcritic": 19124,
    "Ġfield": 1253,
    "Ġinternal": 2250,
    "Ġwalk": 1827,
    "Ġdispute": 16054,
    "Ġenvelopes": 24511,
    "muring": 17601,
    "Ġimitated": 18330,
    "Ġslumbers": 18941,
    "Ġfootsteps": 16572,
    "Ġthirty": 4943,
    "Ġsafie": 6617,
    "rically": 15416,
    "Ġcornelius": 13572,
    "Ġstripped": 10465,
    "uction": 15442,
    "Ġlistened": 4469,
    "suspicions": 25391,
    "Ġevolved": 9891,
    "ashing": 4823,
    "Ġunfeeling": 14119,
    "tubs": 15130,
    "Ġelse": 2479,
    "Ġmish": 15535,
    "scarcely": 12384,
    "atum": 21258,
    "tackle": 17320,
    "Ġspiritual": 9929,
    "ir": 378,
    "W": 59,
    "Ġorphan": 12381,
    "Ġwait": 4906,
    "Ġdews": 21835,
    "Ġsleeve": 20138,
    "Ġafore": 10758,
    "Ġlandless": 23378,
    "Ġdelineations": 26058,
    "Ġnovelty": 13462,
    "Ġclapping": 14203,
    "Ġcontradict": 12383,
    "sofa": 26146,
    "Ġthews": 21276,
    "iom": 20914,
    "aphys": 15201,
    "mixed": 15393,
    "ested": 3479,
    "Ġflame": 7447,
    "ary": 985,
    "handle": 11192,
    "Ġmultiple": 1185,
    "featured": 24096,
    "Ġdig": 6135,
    "Ġslaugh": 18937,
    "bureau": 20788,
    "there": 1424,
    "Ġsteersman": 13038,
    "Ġcontextual": 3742,
    "Ġcounting": 13094,
    "ssian": 3401,
    "iscuits": 24667,
    "adow": 18088,
    "Ġtalked": 4420,
    "ishnoo": 10955,
    "Ġopened": 3511,
    "Ġhear": 1966,
    "Ġfiends": 14827,
    "Ġseething": 18204,
    "======================================================================": 10067,
    "Ġxx": 5492,
    "Ġreasoned": 23084,
    "ofs": 11829,
    "ishmael": 18420,
    "unquiet": 21879,
    "Ġandrew": 21504,
    "ame": 645,
    "licted": 20955,
    "Ġbuoy": 8002,
    "remember": 7261,
    "looks": 12016,
    "insupportable": 21192,
    "Ġsupervised": 3344,
    "Ġeighteen": 11240,
    "ough": 470,
    "Ġinsurg": 23678,
    "Ġbeaufort": 13567,
    "Ġfru": 8418,
    "Ġplanting": 16083,
    "neither": 9757,
    "artificial": 1011,
    "Ġsuspecting": 14910,
    "Ġtantamount": 25625,
    "Ġelud": 22641,
    "Ġtrample": 20325,
    "key": 5463,
    "Ġupbra": 22151,
    "Ġinclude": 1875,
    "Ġdespondency": 16577,
    "Ġactively": 18654,
    "vy": 21106,
    "roses": 17957,
    "ode": 1454,
    "Ġconversations": 9423,
    "ureau": 10226,
    "Ġaffords": 16734,
    "Ġtep": 21160,
    "V": 58,
    "Ġadmiral": 17304,
    "butt": 15992,
    "Ġsacred": 10928,
    "Ġpanegyric": 26449,
    "Ġdominant": 12394,
    "ap": 547,
    "accursed": 20539,
    "Ġinch": 7848,
    "Ġactivation": 917,
    "iding": 3846,
    "Ġstick": 6024,
    "Ġgord": 21597,
    "Ġbody": 2435,
    "Ġrewarding": 13436,
    "Ġpresumably": 19622,
    "Ġsimpleton": 16333,
    "Ġweap": 6155,
    "Ġshrieking": 24758,
    "dances": 17521,
    "ateg": 1360,
    "Ġplanisp": 24057,
    "Ġiroquois": 26472,
    "Ġpres": 9731,
    "Ġdrive": 5054,
    "Ġconnections": 972,
    "Ġcomparatively": 9488,
    "Ġdistinguish": 2728,
    "unteered": 26495,
    "ornamented": 26595,
    "Ġfrigates": 25707,
    "========": 2312,
    "Ġsullenly": 17172,
    "fatal": 17088,
    "Ġdrily": 23540,
    "Ġsmoothed": 23656,
    "mem": 10709,
    "Ġunallied": 22029,
    "Ġhazarded": 25654,
    "Ġabsolutely": 4856,
    "cano": 18845,
    "Ġcuba": 25095,
    "Ġunimpeachable": 26522,
    "Ġaghast": 16045,
    "Ġabstained": 25231,
    "Ġpollard": 20383,
    "Ġuniversally": 11998,
    "Ġrob": 1305,
    "Ġ1991": 3013,
    "Ġfavourably": 16363,
    "Ġevangelical": 25506,
    "shooting": 16964,
    "Ġrespectfully": 18993,
    "Ġfurthermore": 1170,
    "Ġlaugh": 4114,
    "Ġunwillingness": 20029,
    "barbar": 20236,
    "health": 13832,
    "Ġconcrete": 20635,
    "Ġbodily": 6106,
    "ĠĠĠĠĠĠĠ": 7630,
    "Ġcoming": 2617,
    "west": 10739,
    "Ġhugh": 15005,
    "Ġgreenhorn": 23767,
    "Ġedward": 19119,
    "chest": 11209,
    "Ġrecalled": 8536,
    "Ġcomparison": 7098,
    "excitement": 19667,
    "steady": 14709,
    "irc": 1730,
    "Ġbasis": 16960,
    "cloud": 11105,
    "Ġnaval": 16899,
    "shortened": 24747,
    "isons": 17850,
    "Ġsorely": 17256,
    "Ġfates": 15575,
    "Ġborn": 5223,
    "Ġmilan": 19534,
    "Ġerskine": 17431,
    "onsense": 6430,
    "Ġfurnished": 6474,
    "Ġfrost": 6095,
    "Ġtacit": 21173,
    "Ġturbul": 23612,
    "fatigue": 20657,
    "Ġdistinguished": 8271,
    "Ġtimidly": 11338,
    "shud": 18485,
    "expressing": 16801,
    "female": 20665,
    "Ġcompanion": 3645,
    "Ġimpulsively": 24880,
    "jonah": 11497,
    "Ġcab": 2633,
    "desc": 1394,
    "buncle": 13691,
    "Ġmillion": 14987,
    "hip": 8740,
    "Ġflashes": 11915,
    "Ġpiled": 8423,
    "companions": 15024,
    "Ġbennet": 1574,
    "anct": 21356,
    "itan": 10159,
    "Ġvegetables": 15221,
    "Ġrecommendation": 17025,
    "Ġframe": 1865,
    "Ġhearty": 9844,
    "Ġchanging": 11752,
    "Ġconfluent": 19042,
    "Ġbriony": 9328,
    "be": 669,
    "inkling": 16088,
    "Ġpor": 5224,
    "jumped": 20244,
    "Ġsnowy": 9017,
    "compar": 14358,
    "onds": 12992,
    "Ġtheme": 16016,
    "ugues": 19025,
    "prehens": 9288,
    "Ġinsignificance": 20455,
    "Ġzoned": 22818,
    "Ġdollar": 25283,
    "proof": 16422,
    "Ġmicha": 17812,
    "antique": 18287,
    "commodore": 20624,
    "Ġtides": 13820,
    "narrated": 25621,
    "Ġlancaster": 26340,
    "haps": 1667,
    "roylott": 20024,
    "inav": 15483,
    "adoes": 11660,
    "Ġprofit": 14586,
    "Ġwallow": 19464,
    "Ġimmensity": 25329,
    "Ġimpet": 11778,
    "Ġdemean": 12720,
    "Ġadequate": 20306,
    "us": 532,
    "Ġcirculation": 16414,
    "Ġconsort": 18721,
    "Ġwitnessed": 14844,
    "cherries": 19754,
    "sounding": 24796,
    "Ġevidently": 6759,
    "harpooneer": 8688,
    "Ġsubsequently": 16156,
    "estone": 18363,
    "Ġarguments": 8035,
    "Ġbliss": 12998,
    "henry": 16625,
    "Ġexhaust": 6398,
    "Ġbarbara": 24818,
    "Ġinsist": 9890,
    "hark": 15364,
    "Ġpersuading": 19408,
    "terdam": 18130,
    "distance": 12150,
    "haust": 5777,
    "vous": 2255,
    "Ġrefresh": 10345,
    "Ġdexterous": 15148,
    "baned": 17495,
    "Ġenraged": 10244,
    "Ġmusket": 12294,
    "civilized": 17075,
    "Ġstepping": 9353,
    "Ġrashly": 20303,
    "Ġult": 9074,
    "bitious": 16669,
    "Ġlearned": 2025,
    "Ġxii": 11989,
    "Ġcoals": 16073,
    "Ġserene": 8165,
    "Ġtraitors": 23075,
    "Ġtransformations": 3484,
    "quarrel": 20012,
    "Ġcoun": 4179,
    "Ġphren": 8570,
    "Ġexceeded": 14433,
    "Ġguernsey": 9350,
    "Ġausten": 5880,
    "venor": 16098,
    "fe": 679,
    "ancial": 21360,
    "Ġwan": 15526,
    "Ġdependent": 14293,
    "collected": 13212,
    "ll": 1141,
    "Ġgrating": 14355,
    "Ġsped": 22122,
    "bug": 17492,
    "help": 1478,
    "Ġinestimable": 17441,
    "Ġduc": 4696,
    "Ġcompassionate": 24722,
    "Ġchemical": 10410,
    "ox": 9133,
    "Ġmelbourne": 24290,
    "instead": 14829,
    "Ġfeatures": 1432,
    "zetts": 17714,
    "Ġslighter": 18939,
    "Ġbrid": 6289,
    "dear": 6554,
    "unwittingly": 25801,
    "Ġunsupp": 22018,
    "Ġirene": 8442,
    "Ġpan": 5081,
    "Ġprediction": 2111,
    "zeal": 16270,
    "Ġerr": 1322,
    "Ġpartaking": 22694,
    "Ġfol": 1288,
    "Ġaloud": 6252,
    "throne": 25657,
    "Ġbulge": 23856,
    "grampus": 18616,
    "utions": 1890,
    "tubes": 25211,
    "Ġelsewhere": 7711,
    "forgetting": 25485,
    "elop": 1514,
    "Ġwand": 4342,
    "Ġchurchyard": 16777,
    "ingle": 1037,
    "Ġreign": 13984,
    "september": 14035,
    "hil": 8377,
    "usage": 12830,
    "Ġmakes": 3653,
    "Ġnearer": 5301,
    "Ġunconcern": 14117,
    "Ġcompos": 22566,
    "rs": 7806,
    "Ġmeeting": 5192,
    "countless": 24151,
    "Ġproduces": 2093,
    "Ġendless": 7052,
    "any": 3338,
    "Ġmazes": 25940,
    "Ġpred": 662,
    "Ġcommands": 16589,
    "Ġheavier": 13100,
    "gentle": 5356,
    "ropes": 7901,
    "Ġinjury": 10540,
    "christmas": 20253,
    "upp": 10130,
    "nails": 17614,
    "Ġgoodge": 22821,
    "happened": 9431,
    "which": 1706,
    "Ġperformer": 18755,
    "interruption": 20109,
    "Ġturban": 23613,
    "Ġdoran": 9179,
    "Ġdivinest": 25722,
    "sound": 6799,
    "Ġseem": 911,
    "pread": 7418,
    "Ġinclinations": 19538,
    "Ġkrus": 18349,
    "Ġgrown": 5628,
    "Ġavowal": 19413,
    "oder": 2457,
    "Ġen": 392,
    "endom": 15921,
    "ont": 2621,
    "================": 3723,
    "protection": 19918,
    "thern": 4952,
    "Ġfulfilment": 20185,
    "Ġrooms": 5179,
    "Ġregained": 18587,
    "Ġglimmering": 25240,
    "Ġtranquillize": 24757,
    "ispens": 8334,
    "Ġcomputational": 1626,
    "portuguese": 25413,
    "ĠĠĠĠĠĠĠĠĠĠĠĠĠĠĠĠĠĠĠĠĠĠĠĠĠĠĠĠĠĠ": 24444,
    "largely": 19572,
    "Ġmariner": 7246,
    "Ġkicked": 10581,
    "Ġinaccessible": 13933,
    "ĠâĢľ": 515,
    "Ġsolitude": 6876,
    "Ġslee": 8974,
    "Ġbroods": 23101,
    "opp": 6963,
    "ria": 15793,
    "Ġtout": 17719,
    "Ġreckon": 19867,
    "Ġrepresentations": 1876,
    "Ġfanc": 6743,
    "call": 8722,
    "Ġalman": 21778,
    "Ġis": 347,
    "Ġoccupied": 5272,
    "177": 20751,
    "Ġmethods": 3156,
    "rents": 5308,
    "Ġwaited": 4907,
    "Ġdum": 10811,
    "Ġsimpler": 2048,
    "Ġrevolved": 9983,
    "Ġrepine": 16408,
    "Ġimp": 584,
    "Ġsymbolize": 24960,
    "dropping": 14982,
    "Ġmythologies": 26213,
    "Ġours": 4611,
    "Ġextremities": 19194,
    "this": 1439,
    "Ġrubbing": 9319,
    ").": 1272,
    "splash": 25209,
    "Ġearn": 3546,
    "pipe": 8696,
    "onies": 6806,
    "grave": 16092,
    "clad": 14459,
    "Ġreser": 5169,
    "cer": 6642,
    "Ġthese": 822,
    "Ġpalsied": 25779,
    "Ġornament": 11719,
    "Ġthere": 564,
    "Ġhandfuls": 17209,
    "Ġruled": 22781,
    "Ġcleaving": 23180,
    "consider": 6347,
    "Ġraises": 11844,
    "aract": 17895,
    "shazz": 14241,
    "Ġdisinclination": 22533,
    "sheets": 14441,
    "plexion": 14261,
    "Ġannounced": 9034,
    "Ġelemental": 19917,
    "Ġfogs": 25282,
    "sad": 11521,
    "ceptibly": 22360,
    "Ġconsummate": 25310,
    "Ġaltitude": 26202,
    "Ġimpat": 4456,
    "Ġassumed": 9464,
    "agos": 21902,
    "Ġrailway": 15021,
    "Ġpermanently": 25473,
    "bing": 7790,
    "Ġclut": 7640,
    "Ġname": 2082,
    "Ġwealthy": 18179,
    "Ġpovelson": 26552,
    "Ġvolcano": 24148,
    "¬": 110,
    "Ġaut": 1787,
    "?": 35,
    "Ġdarts": 16768,
    "Ġshameful": 19849,
    "chants": 21689,
    "Ġdiscretion": 10347,
    "Ġdegenerating": 25799,
    "Ġridge": 14818,
    "hom": 12471,
    "------": 12131,
    "Ġintroduce": 3202,
    "Ġengraving": 17080,
    "loops": 12880,
    "enjoyment": 17257,
    "Ġpairs": 4183,
    "isturbed": 18297,
    "Ġcaptains": 7456,
    "Ġdiab": 10611,
    "rants": 13777,
    "ourable": 4966,
    "Ġsalary": 13292,
    "ego": 4034,
    "wick": 5362,
    "Ġrate": 1060,
    "Ġstren": 15717,
    "estinated": 15919,
    "bowed": 10683,
    "matical": 13127,
    "adequately": 20317,
    "boscombe": 26121,
    "Ġgoverning": 2795,
    "tart": 21066,
    "post": 6061,
    "Ġfleeting": 19326,
    "K": 47,
    "Ġlectures": 17178,
    "Ġting": 8396,
    "batross": 9092,
    "Ġblasphemy": 26115,
    "Ġinvention": 19950,
    "Ġsnug": 8278,
    "Ġmes": 17797,
    "Ġposture": 24165,
    "Ġlets": 18077,
    "Ġsparks": 22129,
    "Ġburning": 5975,
    "Ġsteep": 2887,
    "Ġbehaviour": 4384,
    "Ġaccompanying": 11305,
    "iest": 4035,
    "Ġsket": 18727,
    "Ġbra": 3255,
    "flies": 19422,
    "henomen": 10494,
    "Ġcommonplaces": 16287,
    "Ġslavery": 16306,
    "Ġcivility": 4787,
    "Ġglittering": 10052,
    "horse": 8605,
    "Ġpoint": 2056,
    "carefully": 13367,
    "Ġburden": 8607,
    "Ġage": 3896,
    "Ġlosing": 10916,
    "Ġbelief": 5855,
    "sombre": 23853,
    "nlp": 8750,
    "risonment": 17374,
    "Ġledge": 19399,
    "irth": 5634,
    "Ġshaved": 22000,
    "chester": 23805,
    "wood": 5897,
    "Ġbriskly": 25311,
    "axen": 22518,
    "Ġepistle": 24904,
    "Ġantelope": 24180,
    "Ġwhittingham": 26197,
    "apt": 724,
    "val": 1158,
    "Ġchecking": 23287,
    "Ġinteractions": 12900,
    "conception": 22469,
    "ificial": 608,
    "Ġhertfordshire": 5377,
    "Ġdefendants": 15140,
    "itud": 2928,
    "Ġhipp": 21489,
    "Ġacquire": 2725,
    "Ġstarting": 7727,
    "Ġunder": 1635,
    "Ġsimplicity": 2920,
    "Ġresc": 4506,
    "Ġfins": 9663,
    "Ġgrove": 12144,
    "Ġlofty": 6217,
    "mounting": 25207,
    "itute": 9651,
    "ertips": 23639,
    "for": 970,
    "Ġwerter": 15238,
    "Ġembattled": 26289,
    "windows": 19533,
    "ede": 21503,
    "Ġhappy": 2463,
    "Ġeffusions": 18527,
    "Ġsnatching": 10472,
    "Ġemaciated": 20637,
    "reward": 15508,
    "lilies": 20960,
    "Ġunseason": 22049,
    "Ġhogshead": 26367,
    "Ġcelebrate": 26357,
    "Ġconcre": 16386,
    "Ġsuite": 18279,
    "Ġbackwoods": 22657,
    "onomy": 12544,
    "Ġblended": 16217,
    "Ġicelandic": 25886,
    "ensical": 18567,
    "Ġresuming": 12890,
    "....": 11317,
    "Ġrestrict": 16375,
    "**:": 4736,
    "Ġmizzen": 20287,
    "caut": 20811,
    "Ġthoughtfulness": 18772,
    "pond": 21012,
    "Ġmiscellaneous": 17462,
    "intended": 11066,
    "ening": 3101,
    "Ġtemporarily": 11167,
    "Ġwrecked": 9965,
    "Ġcabaco": 13166,
    "Ġstaring": 8824,
    "Ġtiar": 21166,
    "Ġreflections": 5944,
    "athy": 14323,
    "Ġinduced": 8670,
    "Ġrefine": 3183,
    "Ġdistantly": 18534,
    "Ġdestroying": 14729,
    "desponding": 26341,
    "Ġfancying": 12110,
    "umps": 6316,
    "iver": 2049,
    "Ġcoleridge": 18766,
    "gging": 7695,
    "Ġnumer": 3640,
    "Ġjingling": 26017,
    "Ġimplies": 24873,
    "bethinking": 25745,
    "Ġunabated": 15850,
    "pulling": 25146,
    "iminished": 19026,
    "Ġjudiciously": 23877,
    "toes": 22561,
    "Ġcham": 4891,
    "Ġjoints": 12033,
    "Ġwondrously": 24064,
    "Ġnorthward": 13319,
    "Ġdated": 10939,
    "limping": 26393,
    "complet": 11384,
    "disaster": 23495,
    "Ġ79": 24265,
    "oy": 991,
    "Ġcareless": 11119,
    "every": 2811,
    "Ġabased": 22265,
    "plings": 11691,
    "Ġsm": 704,
    "'re": 12426,
    "Ġdesisted": 22976,
    "ipelag": 12841,
    "Ġerrand": 11085,
    "Ġscre": 9736,
    "Ġprairies": 20018,
    "Ġ112": 24438,
    "Ġlabours": 8581,
    "Ġpom": 21450,
    "conviction": 19962,
    "Ġspades": 12793,
    "iffs": 9021,
    "bitts": 26122,
    "Ġmainly": 22653,
    "fear": 8512,
    "until": 6596,
    "Ġsally": 15501,
    "numbers": 17616,
    "Ġdescent": 999,
    "him": 1939,
    "Ġleading": 7296,
    "Ġmisfortune": 5569,
    "Ġdull": 6383,
    "Ġtahitian": 25427,
    "Ġcivilly": 19601,
    "got": 6955,
    "valuable": 8245,
    "Ġchosen": 7200,
    "ais": 8069,
    "Ġmargin": 11920,
    "bul": 6951,
    "Ġpreside": 18365,
    "Ġcombat": 16182,
    "Ġ69": 19659,
    "Ġrocking": 10969,
    "Ġinexplicable": 12254,
    "verted": 10217,
    "Ġworsh": 12997,
    "Ġdeacon": 18141,
    "Ġcommunications": 16353,
    "Ġlost": 2636,
    "Ġbegrimed": 26578,
    "Ġgallantry": 15103,
    "Ġtool": 21508,
    "Ġrepugn": 23362,
    "myself": 5112,
    "Ġmilk": 6484,
    "meet": 11855,
    "Ġmeasured": 9803,
    "voice": 7815,
    "Ġnewcastle": 16221,
    "Ġwarmed": 12022,
    "Ġwalks": 8966,
    "Ġcrosses": 23059,
    "adopt": 25544,
    "telesc": 22816,
    "Ġbeeches": 9226,
    "century": 20044,
    "Ġtap": 12523,
    "Ġprophetic": 20017,
    "Ġangelic": 19625,
    "Ġinexper": 16979,
    "behaved": 24464,
    "?âĢĻâĢĿ": 23642,
    "lead": 10165,
    "Ġscattered": 6856,
    "oqu": 7554,
    "Ġactor": 16046,
    "Ġsy": 491,
    "Ġguess": 4902,
    "dog": 10692,
    "Ġclass": 777,
    "xes": 21139,
    "Ġsooner": 5573,
    "ellations": 21942,
    "Ġlip": 6531,
    "Ġtreacherous": 13553,
    "Ġpatentee": 25586,
    "Ġsecrecy": 7315,
    "Ġlascar": 9199,
    "Ġlevel": 5019,
    "desired": 8957,
    "Ġobviously": 16810,
    "impress": 18052,
    "Ġcedar": 15188,
    "Ġneeds": 6605,
    "above": 8146,
    "Ġdazed": 15593,
    "Ġgull": 15667,
    "Ġdemo": 10879,
    "kington": 11204,
    "affrail": 11206,
    "Ġappointment": 10646,
    "Ĵ": 245,
    "ction": 501,
    "Ġartful": 22606,
    "eminent": 25104,
    "Ġmistifying": 23719,
    "Ġpurchasing": 19873,
    "Ġterr": 3274,
    "Ġreynolds": 10209,
    "vously": 23506,
    "arbuck": 2026,
    "Ġexperiments": 23004,
    "Ġcart": 11583,
    "Ġpossessing": 16575,
    "Ġhussey": 7723,
    "showing": 22448,
    "plac": 15812,
    "Ġcorrespondence": 10594,
    "Ġdisapprobation": 16056,
    "Ġdrow": 21424,
    "sort": 6798,
    "aped": 3765,
    "Ġimbib": 22172,
    "Ġunappe": 22015,
    "Ġcetology": 10008,
    "Ġcurly": 18830,
    "meal": 22706,
    "architect": 22891,
    "rocious": 21536,
    "Ġbreaths": 14857,
    "envelope": 17783,
    "Ġbreathed": 11221,
    "Ġunintermitted": 26219,
    "Ġboth": 1652,
    "istically": 14144,
    "inc": 2518,
    "Ġresides": 22537,
    "Ġsofa": 10270,
    "bolts": 11421,
    "result": 12041,
    "Ġthe": 270,
    "welcomed": 24645,
    "Ġbloodshot": 23798,
    "Ġaristotle": 25817,
    "lengthwise": 19947,
    "plex": 709,
    "Ġenlar": 15798,
    "Ġsending": 8774,
    "Ġrippling": 17277,
    "Ġwrapped": 8340,
    "Ġthee": 2622,
    "entials": 22661,
    "enormous": 26166,
    "Ġinvoked": 19144,
    "Ġlewis": 15722,
    "Ġbattery": 21392,
    "Ġsoften": 23122,
    "sails": 7496,
    "iards": 17574,
    "thirds": 25046,
    "mist": 5686,
    "Ġdeliverance": 15157,
    "Ġphysiognomical": 25611,
    "ety": 3519,
    "Ġhundreds": 4328,
    "Ġstable": 2701,
    "Ġdeceased": 15007,
    "cab": 7332,
    "Ġjoll": 11764,
    "cruise": 24841,
    "cheeks": 23806,
    "Ġbabies": 19690,
    "Ġaccumul": 1413,
    "Ġmeals": 12708,
    "Ġincomplete": 17208,
    "Ġindefatigable": 17177,
    "Ġsam": 7568,
    "retaining": 21244,
    "Ġcensure": 15095,
    "clut": 23148,
    "eman": 5636,
    "touching": 15091,
    "Ġensemble": 1611,
    "Ġsinks": 19546,
    "Ġsoftware": 18918,
    "Ġrugged": 18718,
    "Ġnorton": 12646,
    "narrow": 11508,
    "asmuch": 10194,
    "constantly": 24630,
    "ort": 523,
    "Ġflora": 11417,
    "Ġstumble": 26482,
    "Ġdescend": 7426,
    "Ġtravellers": 11309,
    "Ġdelicious": 14793,
    "Ġunexplored": 26518,
    "Ġmonotonically": 3833,
    "Ġearthly": 7988,
    "ism": 4873,
    "Ġexpressing": 12007,
    "Ġsubfield": 11868,
    "Ġhardened": 14450,
    "Ġfatally": 19392,
    "Ġflew": 5588,
    "Ġsavage": 4011,
    "È": 137,
    "Ġscimet": 22285,
    "rally": 17651,
    "Ġtag": 15467,
    "Ġpeak": 16124,
    "Ġrichest": 26211,
    "Ġsubstitute": 16726,
    "Ġtables": 9877,
    "Ġcoroner": 7509,
    "completely": 12418,
    "Ġlab": 1872,
    "Ġapolog": 9043,
    "Ġtalks": 23369,
    "Ġsurpl": 19132,
    "Ġhypocritical": 20737,
    "linearity": 1648,
    "petulance": 24300,
    "abs": 11667,
    "Ġreligions": 20105,
    "Ġdawned": 14994,
    "Ġextras": 22745,
    "Ġregretted": 13399,
    "Ġaccosted": 13671,
    "Ġnewcomers": 26041,
    "Ġwelcomed": 9480,
    "Ġtypes": 8936,
    "Ġqu": 606,
    "Ġlocked": 6033,
    "Ġpremium": 23903,
    "liked": 10508,
    "Ġobedient": 20102,
    "Ġbleeding": 14880,
    "Ġmuchness": 18708,
    "ĠĠĠĠĠĠĠĠĠĠĠĠĠĠ": 22560,
    "Ġsmitten": 12896,
    "Ġanyhow": 14255,
    "Ġpassengers": 13674,
    "Ġnash": 5819,
    "mole": 22699,
    "Ġstoner": 7177,
    "Ġpost": 4273,
    "telling": 14439,
    "Ġeel": 18002,
    ",âĢĶâĢľ": 10069,
    "ley": 1818,
    "_)": 9101,
    "Ġquoin": 22415,
    "Ġlevi": 3031,
    "qual": 8155,
    "Ġconveniences": 19810,
    "county": 25396,
    "barb": 10080,
    "race": 11631,
    "Ġarrant": 23299,
    "persuasion": 20041,
    "Ġordinarily": 20648,
    "placidity": 25988,
    "ipped": 5790,
    "Ġinfluences": 14865,
    "yield": 13808,
    "Ġabominate": 20062,
    "ultaneous": 18582,
    "Ġhorr": 3186,
    "Ġpuzzle": 11306,
    "Ġjun": 8504,
    "Ġhumbug": 18778,
    "Ġjoyfully": 19344,
    "open": 7025,
    "ney": 2491,
    "civil": 7795,
    "Ġbreeds": 23347,
    "arus": 13911,
    "igen": 4828,
    "masts": 19423,
    "Ġdoctor": 5066,
    "ury": 3312,
    "Ġhawaiian": 25366,
    "Ġdilatory": 24704,
    "osed": 1962,
    "Ġquar": 3110,
    "then": 2053,
    "Ġdevoting": 22720,
    "Ġsought": 5009,
    "Ġspared": 7891,
    "Ġhoney": 12629,
    "Ġdesmarest": 22977,
    "Ġspit": 22121,
    "suggested": 17298,
    "Ġscratches": 22283,
    "naught": 20993,
    "erce": 6126,
    "Ġascertain": 9705,
    "Ġcoffee": 6760,
    "Ġdefinition": 14404,
    "Ġpregn": 22229,
    "Ġoverlook": 10959,
    "Ġut": 2281,
    "Ġtrump": 8194,
    "Ġcommissionaire": 17000,
    "ougher": 18277,
    "Ġapproached": 5843,
    "account": 5329,
    "buried": 14849,
    "ú": 187,
    "Ġdressed": 5080,
    "Ġrestrained": 16374,
    "ĠâĢľâĢĶ": 9733,
    "Ġsagittarius": 24731,
    "Ġbradstreet": 9576,
    "declared": 15118,
    "Ġcongenial": 12409,
    "Ġtens": 17723,
    "Ġfervently": 25877,
    "computer": 1975,
    "Ġprotecting": 24685,
    "Ġstrewed": 23421,
    "az": 2184,
    "Ġattentively": 9949,
    "Ġspy": 22120,
    "Ġtwine": 14311,
    "stochastic": 3774,
    "Ġrelevance": 5183,
    "Ġcounterpart": 24720,
    "Ġflies": 13023,
    "untarily": 6311,
    "Ġproceeding": 9905,
    "Ġmeas": 1094,
    "feren": 763,
    "Ġconcealed": 7494,
    "Ġsaturation": 2062,
    "Ġsliding": 9362,
    "exposure": 19256,
    "ct": 309,
    "Ġwelded": 9570,
    "Ġslice": 23159,
    "Ġenig": 15797,
    "Ġgid": 13961,
    "Ġconsumm": 15154,
    "Ġscotch": 12207,
    "Ġacquiesced": 25493,
    "Ġmaterially": 12189,
    "iline": 21718,
    "Ġfade": 21405,
    "holes": 12052,
    "holmes": 4430,
    "breast": 11247,
    "Ġlethargy": 26483,
    "Ġgenealogies": 25961,
    "Ġaverage": 3136,
    "better": 7118,
    "amused": 21843,
    "ass": 537,
    "Ġfamiliarity": 16729,
    "twice": 14622,
    "Ġsweep": 8264,
    "Ġfundament": 2924,
    "Ġstings": 21731,
    "Ġyankees": 26201,
    "Ġcred": 8780,
    "Ġ": 225,
    "Ġramble": 9312,
    "Ġlethar": 21743,
    "Ġlun": 7854,
    "abling": 1075,
    "sens": 8094,
    "Ġmurmured": 7479,
    "Ġardent": 9969,
    "Ġthread": 14540,
    "atisf": 21262,
    "embow": 21929,
    "Ġvest": 8161,
    "Ġhinge": 25541,
    "Ġmanner": 2199,
    "infant": 19825,
    "himself": 3970,
    "alions": 21498,
    "Ġinfle": 16364,
    "Ġcaring": 23089,
    "swiftly": 20550,
    "Ġsoup": 7066,
    "happily": 14658,
    "iop": 20918,
    "Ġmoreover": 6163,
    "ses": 3024,
    "Ġfeather": 8859,
    "Ġappeals": 16314,
    "rear": 21231,
    "similar": 13452,
    "Ġpo": 736,
    "Ġrio": 23890,
    "Ġdwell": 5812,
    "somebody": 14567,
    "Ġwrongfully": 24249,
    "Ġrind": 21970,
    "Ġbegged": 8229,
    "ial": 411,
    "Ġleaves": 5020,
    "usual": 5841,
    "vid": 913,
    "Ġfads": 21414,
    "Ġpeaceable": 14723,
    "sloop": 26145,
    "Ġunhing": 18242,
    "Ġtrustworthy": 24108,
    "Ġpresuming": 16793,
    "Ġlowest": 11122,
    "Ġsundry": 20071,
    "Ġexempl": 21827,
    "Ġ94": 17717,
    "Ġdug": 21428,
    "Ġinstruct": 2863,
    "Ġwarb": 17788,
    "Ġexplored": 23519,
    "ik": 17571,
    "itic": 11578,
    "Ġcogn": 11002,
    "Ġcounterbalance": 24721,
    "Ġenvied": 19276,
    "untering": 15773,
    "alloyed": 22198,
    "real": 10149,
    "Ġdandy": 17893,
    "Ġgreedily": 18964,
    "Ġshield": 21997,
    "Ġdeduced": 12205,
    "Ġindia": 10370,
    "Ġhooded": 12404,
    "elaborate": 21573,
    "Ġopens": 23626,
    "Ġdistributions": 1050,
    "erted": 7360,
    "see": 3044,
    "Ġfreshly": 23985,
    "beg": 22483,
    "Ġdropt": 23672,
    "Ġhas": 826,
    "turbable": 24532,
    "Ġcompromised": 22568,
    "rot": 21529,
    "Ġbloodless": 19338,
    "Ġemploying": 23976,
    "eastward": 15129,
    "prom": 6508,
    "Ġruined": 12951,
    "Ġtemples": 18638,
    "Ġmonosyllable": 20725,
    "Ġovercame": 9745,
    "tumultuously": 25613,
    "Ġwhipping": 21713,
    "Ġumbrell": 13649,
    "accompan": 11453,
    "Ġhelpless": 8300,
    "Ġsolution": 9804,
    "handled": 19260,
    "Ġcrimin": 6901,
    "combination": 25486,
    "Ġigniting": 25070,
    "reshold": 21238,
    "Ġinvaders": 23483,
    "uming": 8490,
    "Ġwiping": 25765,
    "Ġfrequently": 4679,
    "Ġperfection": 19217,
    "Ġassistants": 9449,
    "Ġsandwiched": 26610,
    "Ġdarling": 12601,
    "admiration": 11388,
    "Ġpestilent": 25777,
    "Ġthick": 3782,
    "sl": 5794,
    "Ġow": 8406,
    "Ġvane": 22870,
    "cim": 8719,
    "Ġtorrents": 20053,
    "Ġeither": 2603,
    "Ġantilles": 24179,
    "Ġvehem": 22887,
    "Ġpedestrian": 25879,
    "Ġinherited": 25353,
    "cking": 4266,
    "Ġtrusted": 10517,
    "Ġcame": 1301,
    "Ġlest": 6394,
    "Ġexclusion": 19394,
    "unsupervised": 10889,
    "Ġpreparing": 8647,
    "office": 16394,
    "Ġdisappeared": 5645,
    "rove": 21530,
    "Ġlanguor": 12843,
    "Ġdodging": 19885,
    "Ġghostly": 24651,
    "Ġnich": 21517,
    "thodox": 21986,
    "Ġdisturbing": 19943,
    "Ġdeline": 16331,
    "flour": 23964,
    "Ġbeds": 14552,
    "likewise": 13104,
    "Ġmodeling": 2095,
    "pertaining": 22180,
    "kill": 13743,
    "rayed": 23563,
    "accomplishment": 20221,
    "journey": 8744,
    "Ġsee": 804,
    "founded": 16713,
    "Ġinsufferable": 13930,
    "vice": 15448,
    "Ġunbroken": 18251,
    "Ġmounted": 7831,
    "iriously": 18170,
    "dev": 7631,
    "Ġaccursed": 9452,
    "Ġtotal": 4992,
    "Ġdecapitated": 20614,
    "Ġhabit": 6771,
    "Ġcondemned": 7777,
    "Ġventilator": 8713,
    "staff": 21653,
    "eng": 1488,
    "Ġwhole": 1659,
    "narrowly": 20345,
    "compl": 6873,
    "orers": 14102,
    "Ġskeletons": 16791,
    "Ġreject": 7385,
    "Ġaffinity": 18786,
    "wishes": 13806,
    "Ġsullen": 9157,
    "effectually": 25128,
    "ant": 438,
    "alarmed": 21500,
    "throughout": 24087,
    "Ġsavages": 9911,
    "Ġsubordinate": 18720,
    "Ġremind": 6057,
    "Ġsgd": 3127,
    "Ġliberties": 19665,
    "Ġwound": 4527,
    "Ġinfancy": 10409,
    "Ġmaintain": 856,
    "Ġcem": 17824,
    "Ġrighteous": 18945,
    "Ġimplicated": 24875,
    "Ġmagnet": 10389,
    "Ġgans": 5821,
    "Ġponder": 6819,
    "iers": 5989,
    "Ġhilarious": 20296,
    "))": 1517,
    "satisfy": 16892,
    "spout": 7921,
    "inous": 8771,
    "Ġprof": 2458,
    "stick": 15682,
    "Ġvig": 5460,
    "Ġheaviest": 23324,
    "Ġroving": 22400,
    "âĢľ_": 5720,
    "Ġwafted": 14501,
    "edged": 15628,
    "Ġspreading": 13377,
    "Ġwedded": 16674,
    "ď": 208,
    "example": 16011,
    "Ġmortified": 14695,
    "Ġwith": 349,
    "Ġbegone": 11916,
    "tering": 3807,
    "Ġporpoises": 13381,
    "thy": 2931,
    "Ġmight": 962,
    "glue": 17556,
    "Ġintervals": 5598,
    "Ġperiodically": 19493,
    "ł": 259,
    "bee": 16035,
    "ois": 9134,
    "Ġeldest": 6570,
    "Ġambition": 11433,
    "mund": 13757,
    "Ġtempt": 5565,
    "Ġdepose": 22603,
    "lashed": 20953,
    "Ġagree": 7645,
    "Ġcurrents": 13003,
    "gard": 7338,
    "Ġxxxix": 24968,
    "sar": 12502,
    "tons": 7558,
    "storied": 18025,
    "ably": 1847,
    "Ġfathom": 17048,
    "Ġtransform": 748,
    "Ġ13": 6718,
    "Ġdisputes": 25825,
    "Ġbreathes": 13245,
    "Ġchoosing": 19588,
    "gan": 2201,
    "Ġreverend": 15258,
    "lighter": 20958,
    "istan": 22105,
    "Ġhung": 4559,
    "Ġvisage": 18767,
    "principle": 10650,
    "Ġcrushing": 20174,
    "Ġachieved": 13165,
    "Ġobsole": 22695,
    "Ġactiv": 834,
    "Ġutility": 23515,
    "sympathy": 20541,
    "ouement": 21446,
    "Ġacknowledge": 13401,
    "Ġoar": 6236,
    "ceiving": 3902,
    "wife": 8099,
    "Ġfacial": 10605,
    "Ġmeadow": 17151,
    "Ġunsh": 14114,
    "thick": 10260,
    "Ġincome": 7915,
    "Ġoppressive": 20453,
    "Ġinterval": 4054,
    "Ġlace": 13948,
    "Ġignoble": 19397,
    "Ġderived": 8237,
    "Ġfries": 21413,
    "Ġsnodhead": 19301,
    "Ġdescrib": 2720,
    "thur": 7187,
    "Ġinclu": 1097,
    "ugn": 9377,
    "Ġpainful": 6461,
    "consc": 4839,
    "maid": 8551,
    "Ġwip": 13852,
    "Ġmishap": 20575,
    "worship": 19385,
    "Ġdilated": 24703,
    "cross": 3574,
    "judge": 13335,
    "Ġoptimizer": 5035,
    "Ġsubst": 4274,
    "bene": 6112,
    "ipotence": 22362,
    "Ġgained": 4534,
    "Ġundeserving": 18268,
    "wins": 21128,
    "Ġrealism": 18983,
    "Ġprime": 10404,
    "Ġamounts": 6704,
    "shut": 10979,
    "Ġben": 1109,
    "Ġfergus": 16867,
    "Ġunattended": 15841,
    "Ġappend": 18360,
    "ineff": 21964,
    "Ġnorthumbria": 24171,
    "gh": 3801,
    "Ġhumane": 11883,
    "rifice": 12501,
    "Ġ1890": 23894,
    "arpo": 1755,
    "Ġtugged": 17288,
    "pounds": 21024,
    "Ġgravity": 9247,
    "offing": 23333,
    "Ġholds": 7974,
    "Ġstaggered": 9537,
    "Ġmasking": 2419,
    "she": 1397,
    "Ġvolume": 6769,
    "buff": 15317,
    "Ġklan": 23659,
    "horizon": 23615,
    "dining": 13704,
    "lemency": 21372,
    "leness": 4690,
    "Ġiv": 4044,
    "reached": 13840,
    "Ġalley": 15733,
    "imper": 13996,
    "isms": 12577,
    "Ġtigers": 25758,
    "Ġweeping": 11686,
    "Ġinquis": 19303,
    "Ġmira": 8405,
    "Ġtrace": 6180,
    "Ġsymp": 4502,
    "entitled": 21565,
    "tie": 21067,
    "Ġdates": 6693,
    "ability": 717,
    "Ġrecol": 4028,
    "Ġtowed": 11266,
    "oud": 1941,
    "Ġconverse": 11843,
    "tete": 10732,
    "Ġmurmur": 14590,
    "Ġtangles": 25761,
    "Ġrevenue": 26194,
    "Ġcharacteristically": 23688,
    "Ġcolon": 18764,
    "anatory": 21361,
    "Ġexcepting": 14681,
    "lished": 8381,
    "Ġunique": 12775,
    "showed": 16021,
    "Ġmills": 21310,
    "Ġsensation": 6896,
    "Ġrecur": 1623,
    "Ġsurging": 19133,
    "iro": 20913,
    "Ġcreature": 2383,
    "cery": 20807,
    "warnings": 20349,
    "Ġpit": 3421,
    "Ġstanders": 19014,
    "visitors": 13347,
    "Ġpacket": 14893,
    "Ġenormity": 19693,
    "queen": 12724,
    "Ġguardsmen": 20629,
    "hies": 17560,
    "Ġtarts": 10753,
    "Ġdisgu": 8204,
    "iving": 1724,
    "Ġvesuvius": 26501,
    "colnett": 19329,
    "Ġthemselves": 3252,
    "berg": 11857,
    "dissatisf": 26129,
    "Ġlatter": 3989,
    "Ġridiculous": 10628,
    "Ġcompliance": 12112,
    "ev": 6952,
    "itiousness": 21332,
    "Ġarc": 14159,
    "Ġwicked": 5959,
    "con": 653,
    "Ġwired": 17787,
    "Ġletters": 3792,
    "ģ": 228,
    "Ġarrangements": 16514,
    "Ġinscrut": 10033,
    "Ġacre": 22678,
    "solitary": 14509,
    "agreeable": 5829,
    "mend": 20965,
    "Ġcivilities": 14848,
    "Ġmany": 1105,
    "Ġshortness": 23484,
    "Ġpressure": 13421,
    "winds": 10521,
    "Ġsanta": 26420,
    "Ġlimped": 19180,
    "rain": 463,
    "Ġrevive": 13478,
    "Ġvaulted": 25167,
    "Ġphrase": 11189,
    "Ġascendency": 20230,
    "Ġmarlings": 23036,
    "volutions": 16321,
    "Ġavalanche": 17432,
    "women": 15455,
    "Ġearning": 23939,
    "atch": 674,
    "Ġnewfoundland": 26569,
    "Ġpile": 8422,
    "Ġcher": 6129,
    "Ġarmy": 11740,
    "Ġconcluding": 9856,
    "ling": 734,
    "Ġrandomly": 1920,
    "Ġbony": 12584,
    "Ġclad": 12836,
    "Ġbarbed": 14835,
    "Ġtail": 3085,
    "Ġabiding": 22267,
    "Ġupright": 8492,
    "Ġresnet": 5473,
    "Ġembellish": 25849,
    "Ġfairly": 6324,
    "Ġworkmen": 23031,
    "retirement": 23136,
    "Ġinterlacing": 22575,
    "ways": 1441,
    "³": 116,
    "Ġbagging": 24540,
    "Ġmoisture": 12357,
    "tree": 11534,
    "Ġdisgust": 6705,
    "buoy": 7759,
    "Ġparticle": 18671,
    "persecut": 22181,
    "Ġmr": 661,
    "Ġcoop": 14270,
    "Ġmum": 13857,
    "Ġhammer": 6093,
    "Ġmost": 1020,
    "Ġ{": 21151,
    "me": 867,
    "Ġunsafe": 22038,
    "--âĢľ": 12969,
    "Ġdoll": 10813,
    "Ġimpro": 920,
    "riot": 18182,
    "ă": 196,
    "Ġs": 265,
    "Ġwharves": 13505,
    "Ġdistur": 5312,
    "Ġhighness": 22772,
    "Ġcousins": 9914,
    "Ġunfitted": 24110,
    "scar": 9815,
    "Ġpredicts": 2594,
    "Ġkne": 4267,
    "rollable": 13944,
    "oot": 13764,
    "imson": 12686,
    "quid": 18147,
    "Ġsinusoidal": 4800,
    "hon": 6793,
    "Ġfundamentals": 14636,
    "Ġomit": 17816,
    "Ġblow": 3376,
    "Ġappeased": 23196,
    "aloons": 20008,
    "Ġcrazed": 19174,
    "Ġmyself": 1455,
    "Ġnoblest": 13241,
    "ning": 949,
    "Ġtorpor": 25031,
    "pire": 9135,
    "Ġsmo": 2703,
    "Ġbrown": 6297,
    "Ġgathered": 8441,
    "Ġplanisphere": 26607,
    "Ġinsult": 6747,
    "pick": 17634,
    "Ġstuffed": 13408,
    "Ġmiss": 1229,
    "Ġhum": 1095,
    "Ġdefray": 22939,
    "Ġconducted": 10502,
    "ĠĠĠĠĠĠĠĠ": 713,
    "altern": 17942,
    "Ġfrenz": 25446,
    "ilies": 18057,
    "ushed": 2968,
    "Ġsagaciously": 24730,
    "Ġyard": 5920,
    "Ġdod": 6672,
    "wes": 17703,
    "Ġstubbs": 23297,
    "Ġnowadays": 18545,
    "Ġimmemorial": 10510,
    "Ġlikewise": 5386,
    "Ġcontrad": 9754,
    "Ġbery": 13897,
    "Ġplease": 4722,
    "Ġvintage": 26209,
    "urry": 13992,
    ";âĢĻ": 15301,
    "Ġunmindful": 22063,
    "7": 27,
    "Ġquarrelling": 13498,
    "convenient": 12235,
    "Ġbore": 5078,
    "Ġjumping": 13340,
    "Ġfierce": 7436,
    "ried": 924,
    "gins": 12466,
    "some": 2238,
    "Ġattitude": 8902,
    "Ġbarren": 11207,
    "ldog": 21915,
    "Ġpredicting": 2415,
    "Ġfaulty": 14907,
    "apse": 14199,
    "Ġtears": 4231,
    "Ġtigris": 25759,
    "Ġillustrative": 25066,
    "appalling": 22842,
    "ogy": 22711,
    "imprudent": 14652,
    "Ġseparate": 5778,
    "acid": 11005,
    "Ġcurric": 22948,
    "st": 316,
    "Ġ**": 4720,
    "Ġlouisiana": 25076,
    "Ġbritish": 11337,
    "lightning": 16552,
    "Ġslates": 11106,
    "Ġfrosted": 19801,
    "Ġderivatives": 2369,
    "Ġhoky": 17927,
    "Ġvehemence": 26566,
    "Ġquietude": 19358,
    "Ġastr": 15493,
    "Ġscience": 1595,
    "Ġbulky": 13227,
    "Ġshouts": 19536,
    "Ġdeeps": 16113,
    "Ġscaramouch": 23826,
    "Ġadmitted": 8986,
    "you": 1002,
    "here": 2549,
    "att": 1457,
    "Ġrelationships": 2923,
    "Ġdamned": 13130,
    "brain": 13686,
    "roof": 17954,
    "Ġincludes": 2013,
    "Ġkeepers": 23539,
    "Ġact": 690,
    "Ġtass": 15468,
    "Ġresponses": 23648,
    "Ġutensils": 23516,
    "Ġcrews": 8990,
    "Ġdol": 9664,
    "Ġages": 7027,
    "punishment": 15145,
    "Ġache": 18663,
    "Ġsolitary": 5854,
    "jaws": 20931,
    "Ġbeasts": 10617,
    "dart": 20825,
    "desirable": 23209,
    "utterly": 20009,
    "pans": 13769,
    "Ġgather": 6533,
    "incredible": 16497,
    "Ġinadequate": 17937,
    "Ġendured": 6072,
    "Ġbrief": 6976,
    "nect": 663,
    "hun": 5209,
    "Ġought": 3420,
    "ene": 2171,
    "insula": 23063,
    "Ġgoney": 14546,
    "Ġdevious": 22719,
    "paws": 21028,
    "arboard": 7265,
    "Ġsings": 15504,
    "Ġconducting": 16649,
    "dropped": 12260,
    "med": 1909,
    "Ġevinced": 7099,
    "Ġreliability": 22875,
    "arris": 13208,
    "Ġcigars": 12250,
    "Ġgood": 997,
    "Ġunc": 2127,
    "Ġprecipice": 19938,
    "refuge": 24733,
    "Ġanimate": 23422,
    "Ġallowed": 4059,
    "Ġevaporate": 26332,
    "gathered": 13731,
    "Ġordin": 16650,
    "ojo": 7348,
    "Ġstructural": 2789,
    "Ġstaving": 21734,
    "Ġconstruction": 9385,
    "Ġtranspointed": 22437,
    "Ġcarrying": 6071,
    "Ġexhilar": 19681,
    "Ġglimmered": 20169,
    "growing": 13732,
    "antly": 1990,
    "sure": 5522,
    "Ġbuzz": 23995,
    "oregressive": 3426,
    "Ġbuttons": 12778,
    "Ġspokes": 18313,
    "Ġacquisition": 18899,
    "Ġaxis": 12305,
    "Ġlack": 17964,
    "Ġfamily": 1968,
    "arying": 9800,
    "how": 1642,
    "patient": 25342,
    "Ġbeh": 1803,
    "Ġautumnal": 19031,
    "lott": 6650,
    "Ġloun": 7165,
    "ination": 2910,
    "Ġparts": 4167,
    "Ġpronounce": 16967,
    "Ġai": 3125,
    "asted": 4649,
    "idirectional": 2420,
    "invite": 25088,
    "Ġbubble": 13534,
    "deadly": 17100,
    "Ġevian": 24293,
    "Ġclutches": 20015,
    "Ġsyllables": 25298,
    "Ġfaith": 5350,
    "Ġproprietor": 12371,
    "Ġclusters": 25232,
    "Ġseemed": 1278,
    "Ġspectator": 19404,
    "circumspect": 26086,
    "historian": 25735,
    "Ġlabors": 23327,
    "Ġcircumnav": 12424,
    "commencement": 26347,
    "Ġbristles": 25843,
    "rom": 420,
    "Ġmisfortunes": 7040,
    "Ġcrown": 5287,
    "'": 11,
    "Ġshocking": 10435,
    "Ġtener": 21162,
    "boiling": 18999,
    "Ġcondem": 6337,
    "matic": 4618,
    "isure": 6240,
    "hinting": 17569,
    "egypt": 15348,
    "violently": 23543,
    "yra": 8101,
    "mured": 6960,
    "acknowled": 10974,
    "engines": 18927,
    "Ġsuccor": 25662,
    "Ġhitting": 21484,
    "Ġnoise": 1065,
    "prolong": 23394,
    "Ġcase": 1940,
    "Ġknow": 631,
    "Ġjoists": 19231,
    "Ġindividuality": 14909,
    "akes": 2222,
    "Ġapprehens": 5682,
    "esu": 17902,
    "Ġtow": 4395,
    "Ġrepenting": 25322,
    "Ġbeth": 9657,
    "Ġbacking": 16115,
    "hullo": 17570,
    "erting": 17778,
    "Ġlarge": 1061,
    "Ġspeaker": 19148,
    "Ġpane": 21461,
    "Ġzone": 14363,
    "Ġ1894": 5195,
    "Ġscanning": 18399,
    "Ġstreaming": 19671,
    "produced": 25414,
    "Ġoffering": 3004,
    "Ġcrav": 19172,
    "blasted": 20187,
    "allow": 5103,
    "Ġredu": 1354,
    "hoisted": 19282,
    "Ġtenement": 23548,
    "Ġmace": 21308,
    "Ġunprincipled": 20707,
    "hood": 2661,
    "Ġexponential": 1055,
    "âĢľâĢĺ": 1484,
    "heavenly": 20042,
    "Ġawed": 23585,
    "Ġconse": 21801,
    "Ġburgl": 13172,
    "exped": 16523,
    "Ġspears": 12923,
    "Ġ33": 16676,
    "Ġadversarial": 5607,
    "Ġdanced": 7841,
    "Ġlecture": 13566,
    "zas": 17712,
    "confidence": 16808,
    "Ġoffensive": 18692,
    "Ġregulations": 18588,
    "Ġcobweb": 22583,
    "grew": 17555,
    "âĢĶ.": 11754,
    "Ġinherit": 25352,
    ";": 31,
    "ug": 1769,
    "uarded": 21104,
    "Ġconjoined": 21803,
    "Ġbingleys": 18994,
    "superior": 9523,
    "Ġselection": 18205,
    "Ġbuckler": 24859,
    "Ġcarriage": 3949,
    "Î": 143,
    "Ġsomnam": 23003,
    "Ġretreating": 19797,
    "Ġprinc": 4200,
    "perseus": 26005,
    "Ġbasic": 24700,
    "Ġworked": 6583,
    "racing": 21628,
    "educated": 17259,
    "Ġsun": 1718,
    "eyed": 11487,
    "Ġcommunity": 19009,
    "unob": 21873,
    "Ġhint": 5015,
    "Ġwhereupon": 14296,
    "Ġperception": 9749,
    "Ġbrooks": 25700,
    "Ġdramat": 23217,
    "Ġepit": 18007,
    "800": 17476,
    "nurs": 20998,
    "van": 7813,
    "temper": 10003,
    "Ġinher": 10179,
    "manif": 14373,
    "brow": 15314,
    "Ġrag": 18641,
    "Ġafforded": 8027,
    "Ġunreasonable": 12774,
    "entering": 17977,
    "Ġnarrative": 6215,
    "Ġwounding": 19584,
    "Ġadversary": 12171,
    "Ġluck": 4879,
    "Ġmerchant": 6466,
    "Ġtransported": 11280,
    "Ġbehavioral": 11397,
    "gar": 5615,
    "pardonable": 17217,
    "onian": 17768,
    "izon": 18142,
    "acetty": 24465,
    "tub": 9143,
    "Ġrecklessness": 24744,
    "inking": 6709,
    "Ġdeterminate": 23002,
    "rets": 12538,
    "Ġsettling": 11062,
    "Ġbuoyant": 13531,
    "z": 94,
    "Ġtoward": 17947,
    "Ġbeat": 4491,
    "Ġsquatted": 25841,
    "Ġadvertise": 25388,
    "Ġhospit": 7513,
    "arms": 10173,
    "ubines": 22962,
    "Ġforger": 15730,
    "specul": 23941,
    "Ġherds": 9715,
    "Ġsequel": 14356,
    "Ġafric": 8905,
    "Ġdownright": 16116,
    "japan": 15373,
    "Ġnavigation": 9992,
    "boone": 23253,
    "Ġthrust": 5083,
    "Ġliberally": 16830,
    "Ġpalpit": 16691,
    "illating": 22104,
    "lour": 15379,
    "Ġshout": 4265,
    "Ġthrone": 12211,
    "emph": 21926,
    "Ġsqueezing": 25006,
    "Ġfolio": 11917,
    "performed": 18342,
    "courage": 17509,
    "Ġcalf": 16264,
    "Ġbrutality": 26276,
    "raged": 9211,
    "distinction": 19569,
    "Ġstiffness": 24830,
    "cence": 9588,
    "icip": 6388,
    "Ġbowing": 10475,
    "Ġinside": 5448,
    "picture": 11408,
    "Ġhopelessly": 16377,
    "Ġdiscredit": 22778,
    "work": 1699,
    "icide": 11618,
    "Ġscrut": 15943,
    "belled": 24036,
    "Ġeuroc": 14958,
    "Ġlongitude": 11011,
    "muttered": 13758,
    "Ġev": 4827,
    "Ġcorridor": 10671,
    "face": 3678,
    "bucket": 17493,
    "prot": 6899,
    "addition": 13383,
    "represented": 20193,
    "Ġpersecutor": 26096,
    "Ġmentioned": 4329,
    "Ġprep": 4192,
    "Ġdz": 4755,
    "cannot": 5745,
    "Ġthenceforth": 25182,
    "Ġdeg": 3282,
    "Ġimpul": 7207,
    "Ġmalicious": 10557,
    "wa": 5896,
    "tremendous": 20672,
    "Ġpeasant": 13550,
    "itect": 964,
    "och": 21000,
    "ittle": 813,
    "Ġsurrounded": 5878,
    "retched": 3065,
    "englishman": 23673,
    "Ġaft": 5737,
    "upwards": 18864,
    "substance": 15230,
    "onym": 14650,
    "Ġrecl": 16138,
    "Ġserve": 9367,
    "Ġswears": 16462,
    "Ġdrags": 16941,
    "Ġapprove": 12870,
    "tedious": 22630,
    "as": 302,
    "Ġarist": 14160,
    "Ġand": 295,
    "pursuit": 20338,
    "Ġspake": 18308,
[...]
