{
  "metadata": {
    "vocab_size": 26614,
    "algorithm": "BPE",
    "created_at": "2026-05-13 05:47:28",
    "special_tokens": [
      "<PAD>",
      "<SOS>",
      "<EOS>",
      "<UNK>",
      "<MASK>"
    ]
  },
  "vocab": {
    "Ġcomment": 9232,
    "Ġcomforted": 19389,
    "Ġannot": 15599,
    "rises": 17655,
    "Ġpref": 14171,
    "Ġtol": 6675,
    "Ġhump": 5853,
    "Ġused": 2061,
    "Ġnaturalist": 22906,
    "morrow": 4572,
    "Ġvictory": 16653,
    "brew": 11473,
    "Ġmap": 2391,
    "Ġslender": 11938,
    "Ġfinding": 3263,
    "Ġdefects": 12331,
    "Ġwail": 21285,
    "Ġplatform": 17131,
    "Ġbattering": 13900,
    "Ġcontinually": 5042,
    "recurrent": 4994,
    "otent": 8831,
    "les": 1016,
    "Ġbegone": 11915,
    "Ġrigger": 19529,
    "Ġnast": 15636,
    "endar": 18364,
    "coffin": 10662,
    "Ġastir": 14639,
    "Ļ": 252,
    "Ġbush": 23335,
    "drawers": 19384,
    "Ġfamiliar": 5511,
    "Ġmemoirs": 26205,
    "Ġ64": 24367,
    "silenced": 24423,
    "Ġache": 18663,
    "Ġscenari": 22289,
    "Ġscroll": 14191,
    "deliberated": 26118,
    "alter": 10826,
    "Ġdetestable": 15097,
    "Ġubiquitous": 26195,
    "injustice": 17737,
    "Ġstudents": 23209,
    "Ġattention": 1153,
    "Ġhenry": 5197,
    "Ġtravelling": 11307,
    "Ġrmsprop": 3354,
    "wa": 5896,
    "luyt": 18454,
    "Ġsquint": 22835,
    "Ġdomes": 23642,
    "Ġunw": 8849,
    "chronicle": 26480,
    "Ġxli": 14541,
    "Ġtreading": 16503,
    "Ġhues": 21486,
    "conversation": 7122,
    "ben": 4926,
    "Ġpel": 17904,
    "swam": 24254,
    "Ġleviathans": 8281,
    "Ġbehind": 2807,
    "Ġpriv": 4184,
    "inting": 9813,
    "Ġpredef": 18515,
    "promote": 24727,
    "zar": 11547,
    "Ġiceberg": 14714,
    "Ġclearness": 23184,
    "Ġadds": 1806,
    "irty": 4051,
    "databases": 3022,
    "Ġfa": 4819,
    "Ġvestibule": 13536,
    "Ġvalued": 12180,
    "marest": 20979,
    "thrusting": 20258,
    "Ġpositives": 4318,
    "Ġguinea": 8947,
    "extent": 22764,
    "cific": 10085,
    "ender": 9160,
    "Ġretreating": 19798,
    "dare": 12451,
    "Ġsolve": 4197,
    "commodore": 20624,
    "Ġidiot": 11970,
    "inav": 15483,
    "Ġdissimilar": 22528,
    "Ġwire": 13851,
    "Ġsched": 2338,
    "courageous": 26127,
    "Ġhellish": 10550,
    "concerted": 16671,
    "max": 1683,
    "repro": 10770,
    "Ġintense": 6157,
    "silence": 8044,
    "Ġdromedary": 17438,
    "Ġcalculating": 9924,
    "Ġponies": 21474,
    "Ġdeft": 21833,
    "urred": 8449,
    "Ġforfeit": 21772,
    "Ġrallied": 14094,
    "Ġloos": 15869,
    "Ġtrust": 4081,
    "Ġslop": 23160,
    "Ġmouth": 3176,
    "Ġcausing": 16356,
    "Ġconcerning": 4070,
    "Ġeyed": 12664,
    "Ġinstruct": 2865,
    "Ġglide": 22983,
    "Ġhil": 10821,
    "wow": 21120,
    "arrangement": 17414,
    "class": 4098,
    "Ã¦mon": 7094,
    "ckles": 22086,
    "Ġdiana": 21434,
    "Ę": 217,
    "ography": 13361,
    "amed": 4450,
    "inf": 6232,
    "tray": 21076,
    "Ġguided": 10460,
    "total": 17250,
    "onday": 6063,
    "Ġcutting": 4983,
    "sence": 3304,
    "Ġpeddler": 24800,
    "Ġf": 283,
    "Ġinterview": 9769,
    "ires": 6037,
    "Ġmorning": 1749,
    "dron": 17525,
    "Ġcelebrate": 26357,
    "Ġdeceitful": 25733,
    "Ġxxx": 7766,
    "Ġvexed": 9993,
    "ggling": 19096,
    "Ġdistressed": 8514,
    "Ġvessel": 3801,
    "fashion": 8080,
    "Ġug": 8140,
    "af": 2376,
    "Ġprogra": 1145,
    "mured": 6960,
    "Ġfactory": 23274,
    "Ġstrong": 1786,
    "Ġpuppy": 12403,
    "Ġflooring": 23622,
    "Ġadmirals": 20383,
    "other": 1312,
    "bonnet": 25742,
    "Ġprone": 18969,
    "Ġlaug": 3626,
    "followed": 8338,
    "Ġgre": 1587,
    "Ġintensely": 17017,
    "Ġwords": 1321,
    "Ġmutable": 23952,
    "gence": 876,
    "Ġw": 272,
    "Ġsentence": 6187,
    "Ġgems": 9208,
    "Ġfewer": 16223,
    "Ġdowry": 20684,
    "Ġgrowth": 14628,
    "Ġsmiling": 5474,
    "Ġcomputers": 2647,
    "Ġmeasure": 3592,
    "smug": 23905,
    "Ġskiff": 16161,
    "Ġbern": 17858,
    "unbidden": 21891,
    "Ġcell": 6237,
    "you": 1005,
    "uc": 1878,
    "Ġlargest": 6282,
    "Ġdistingu": 2517,
    "Ġfascinating": 17327,
    "keeper": 5597,
    "Ġcontain": 1554,
    "Ġoccasions": 7987,
    "dum": 17518,
    "Ġdem": 11673,
    "Ġob": 861,
    "Ġprovide": 7749,
    "Ġplaus": 22598,
    "Ġtamely": 24977,
    "Ġbark": 10798,
    "Ġingenious": 12346,
    "over": 1848,
    "Ġaerial": 21197,
    "er": 269,
    "Ġcreating": 2996,
    "ifix": 21900,
    "cable": 20796,
    "Ġaddresses": 3772,
    "invest": 11559,
    "Ġmincer": 14366,
    "Ġslept": 8258,
    "Ġi": 312,
    "mathemat": 19137,
    "Ġinjection": 3465,
    "Ġconstrained": 19239,
    "Ġmarine": 23028,
    "explaining": 23139,
    "perai": 10276,
    "Ġflanks": 11912,
    "Ġturning": 3325,
    "Ġstripped": 10465,
    "continuance": 19717,
    "Ġstab": 10862,
    "Ġdisplays": 19856,
    "Ġentreat": 4510,
    "Ġcream": 22721,
    "Ġorange": 8486,
    "shoulder": 16583,
    "toes": 22561,
    "Ġhyena": 24519,
    "utarch": 15659,
    "Ġwonderland": 23423,
    "hmael": 7343,
    "Ġrestlessness": 23287,
    "magistrate": 19862,
    "Ġcomplement": 23708,
    "Ġpedestrian": 25879,
    "worth": 8626,
    "Ġencomp": 12959,
    "Ġhealthcare": 8015,
    "esting": 7413,
    "Ġ86": 24461,
    "Ġxiv": 23406,
    "Ġalarm": 4049,
    "Ġpaper": 4284,
    "Ġbits": 11587,
    "Ġbackpropagation": 1214,
    "atmosphere": 21263,
    "Ġburst": 4381,
    "Ġvictor": 5125,
    "}": 97,
    "Ġspotted": 12136,
    "Ġear": 1420,
    "uger": 21102,
    "Ġcomforts": 14692,
    "Ġerrand": 11084,
    "copyright": 5277,
    "Ġcave": 10785,
    "Ġpoky": 21477,
    "2": 22,
    "Ġeffectual": 18731,
    "Ġparson": 6687,
    "Ġexecuted": 9471,
    "always": 5708,
    "den": 939,
    "Ġbleeding": 14878,
    "Ġ[_": 15460,
    "Ġhim": 476,
    "Ġprematurely": 24005,
    "W": 59,
    "Ġclutched": 13518,
    "Ġspan": 11726,
    "rosc": 17954,
    "Ġresignation": 18566,
    "Ġelevated": 7319,
    "anous": 21357,
    "unction": 10234,
    "Ġflows": 13007,
    "discovery": 12015,
    "Ġmeanness": 22593,
    "Ġscrut": 15944,
    "Ġdimens": 3146,
    "Ġselfish": 7273,
    "Ġplumage": 17297,
    "Ġrefreshed": 15290,
    "anders": 18152,
    "Ġcaus": 1726,
    "Ġdesolated": 24812,
    "Ġfielding": 16231,
    "Ġencamp": 22797,
    "aul": 6352,
    "tuesday": 17690,
    "Ġgovernment": 15175,
    "Ġrans": 21963,
    "Ġscound": 12830,
    "acter": 2510,
    "Ġentailed": 11027,
    "Ġhaws": 21948,
    "Ġstrikes": 13182,
    "meantime": 9091,
    "inquir": 9535,
    "Ġhilarity": 20296,
    "Ġbaker": 4695,
    "Ġbrought": 2519,
    "secondly": 16984,
    "neglect": 25668,
    "anzas": 17840,
    "Ġduke": 7755,
    "Ġarsac": 11740,
    "Ġbristol": 14379,
    "turn": 4293,
    "Ġbat": 10795,
    "Ġwra": 5905,
    "ps": 4574,
    "Ġover": 555,
    "binder": 17499,
    "ength": 2314,
    "Ġunsupp": 22016,
    "believing": 19460,
    "Ġbegging": 11079,
    "Ġstubborn": 10413,
    "Ġparted": 5928,
    "Ġreasonably": 11091,
    "Ġstalk": 12694,
    "Ġshooting": 11162,
    "Ġgulp": 20027,
    "Ġresidence": 8206,
    "Ġcoil": 11816,
    "Ġunmethodically": 22066,
    "Ġai": 3124,
    "Ġx": 2075,
    "hammer": 14489,
    "Ġprocedures": 9411,
    "oof": 15404,
    "Ġide": 2123,
    "Ġcaring": 23088,
    "Ġchronicle": 20227,
    "Ĵ": 245,
    "iv": 432,
    "Ġcaroline": 7255,
    "ears": 20844,
    "Ġcolumb": 22853,
    "lift": 15383,
    "Ġgoal": 10301,
    "uction": 15442,
    "Ġclanging": 18422,
    "alk": 1152,
    "Ġinvent": 7165,
    "Ġforswe": 21771,
    "Ġinquir": 4243,
    "Ġgives": 5018,
    "Ġhit": 7164,
    "Ġkilling": 13331,
    "1775": 26378,
    "Ê": 139,
    "jewell": 25523,
    "ants": 1390,
    "affected": 10476,
    "Ġespecially": 3938,
    "F": 42,
    "Ġneedn": 19227,
    "Ġcage": 17825,
    "Ġpeering": 8534,
    "nt": 921,
    "lingering": 18601,
    "irable": 5776,
    "Ġhindrance": 25220,
    "Ġhundredth": 16518,
    "Ġcomfortable": 6094,
    "rig": 7558,
    "Ġsympat": 13339,
    "Ġpand": 21453,
    "ired": 1446,
    "ck": 436,
    "disapprobation": 19155,
    "Ġadmiral": 17304,
    "Ġknife": 7310,
    "Ġcemeteries": 26375,
    "responsible": 25763,
    "anesc": 21358,
    "Ġcolds": 23756,
    "Ġbranches": 6776,
    "lays": 14920,
    "token": 21081,
    "Ġnostrils": 10943,
    "arse": 7161,
    "stones": 11635,
    "Ġlimited": 23544,
    "ĠĠĠĠĠĠĠĠĠĠ": 18577,
    "inked": 12910,
    "Ġimplicate": 24876,
    "Ġloomings": 24949,
    "Ġconsummation": 17424,
    "Ġoy": 15543,
    "Ġanalogical": 25640,
    "Ġcorpusants": 13676,
    "Ġjub": 22292,
    "next": 5891,
    "Ġstability": 1364,
    "Ġelud": 22646,
    "Ġspake": 18308,
    "Ġrigged": 16717,
    "gered": 9275,
    "Ġiroquois": 26472,
    "Ġmerit": 9426,
    "advantages": 11271,
    "pronounce": 25192,
    "Ġreview": 18030,
    "mounting": 25207,
    "pron": 9005,
    "rib": 1947,
    "ject": 874,
    "Ġcategories": 4478,
    "andam": 10888,
    "âĢĶ.âĢĿ": 22252,
    "Ġeagerness": 6608,
    "eps": 12787,
    "Ġa": 263,
    "Ġtill": 1825,
    "Ġcetology": 10008,
    "Ġsymp": 4503,
    "Ġver": 3393,
    "grasp": 16429,
    "Ġconver": 806,
    "elfare": 11774,
    "lord": 3866,
    "Ġrobbed": 23046,
    "ing": 273,
    "generous": 16567,
    "Ġplump": 14281,
    "Ġterti": 14537,
    "rob": 5534,
    "Ġsil": 1796,
    "Ġwoodcock": 19162,
    "uting": 15657,
    "Ġstudy": 1733,
    "\":": 9581,
    "Ġmaze": 23828,
    "Ġdoubtful": 19141,
    "wrinkles": 16554,
    "Ġdomin": 10461,
    "gates": 20871,
    "Ġtows": 19561,
    "Ġsemantic": 1959,
    "Ġrefusing": 11029,
    "worm": 15452,
    "kinson": 10025,
    "Ý": 158,
    "su": 794,
    "Ġsilent": 3410,
    "crime": 14781,
    "_âĢĶâĢĻ": 13681,
    "Ġremoving": 12114,
    "Ġprey": 6414,
    "Ġclimax": 25051,
    "caused": 25519,
    "Ġimpute": 18331,
    "Ġmonotonically": 3835,
    "inea": 7625,
    "Ġannouncing": 16754,
    "Ġmutiny": 13258,
    "l": 80,
    "Ġmistaken": 4986,
    "Ġsher": 3765,
    "ieth": 10704,
    "Ġlacepede": 20493,
    "Ġlanguage": 652,
    "Ġunclad": 22049,
    "harrow": 20907,
    "Ġmaterials": 11288,
    "Ġclubb": 22345,
    "insufficient": 15488,
    "inctions": 17732,
    "dashing": 20835,
    "Ġpathetic": 19034,
    "Ġthirst": 7591,
    "wheels": 14380,
    "Ġworaciousness": 22926,
    "itt": 570,
    "Ġunnaturally": 24870,
    "Ġdemoniacal": 20555,
    "Ġcovering": 13254,
    "plainly": 11090,
    "your": 1985,
    "rated": 6227,
    "Ġemigrant": 25859,
    "Ġmortal": 4681,
    "Ġrevelation": 25222,
    "Ġgle": 7858,
    "Ġstructures": 2720,
    "Ġorphan": 12381,
    "Ġcharing": 14180,
    "ation": 320,
    "shoals": 24717,
    "Ġvanity": 7045,
    "shown": 22446,
    "antique": 18287,
    "Ġavail": 11226,
    "Ġcollins": 2180,
    "interruption": 20110,
    "attempted": 20173,
    "Ġplenty": 6708,
    "Ġghostly": 24650,
    "repressed": 21242,
    "Ġpresent": 1642,
    "Ġtrifles": 16951,
    "Ġswim": 3822,
    "attracted": 13048,
    "Ġendeavours": 8617,
    "uring": 819,
    "Ġboundary": 11222,
    "Ġplaid": 22599,
    "Ġremarkable": 4915,
    "Ġdisturb": 7107,
    "Ġpanting": 11602,
    "oriously": 17874,
    "Ġsandwiched": 26610,
    "avo": 8517,
    "ighb": 10423,
    "Ġdolphins": 20394,
    "soles": 18686,
    "Ġinarticulate": 21497,
    "resolved": 9639,
    "Ġworshipped": 25691,
    "Ġchatbots": 11349,
    "Ġscent": 10285,
    "Ġcarriage": 3952,
    "Ġintermission": 18587,
    "Ġcondem": 6338,
    "Ġunfortunate": 5376,
    "Ġoffice": 4965,
    "influences": 25250,
    "secut": 7866,
    "tell": 1380,
    "Ġoutrage": 15956,
    "enial": 17780,
    "teak": 22814,
    "Ġdyspepsia": 20642,
    "vast": 10736,
    "Ġwearer": 21919,
    "painting": 17046,
    "Ġaudience": 24769,
    "Ġartistic": 18608,
    "Ġhearts": 4972,
    "Ġalacrity": 15734,
    "Ġlucifers": 16588,
    "Ġfather": 1452,
    "Ġresentment": 7532,
    "cursed": 23841,
    "Ġca": 21337,
    "obstructed": 15225,
    "Ġnoises": 18373,
    "Ġclaws": 15964,
    "enance": 3370,
    "Ġwan": 15526,
    "itering": 17818,
    "Ġeveryone": 8916,
    "Ġpreposterous": 13668,
    "unconquerable": 21888,
    "Ġclever": 7054,
    "Ġlick": 21547,
    "Ġdire": 865,
    "Ġloathed": 15873,
    "Ġunwonted": 14123,
    "asis": 12647,
    "ctu": 5088,
    "Ġglobular": 19010,
    "Ġrules": 1920,
    "Ġcreaking": 14328,
    "Ġmeans": 699,
    "Ġplanning": 14749,
    "ineffectual": 26507,
    "Ġcocks": 18597,
    "ensity": 11811,
    "impenet": 18053,
    "vex": 21695,
    "withstand": 23022,
    "Ġendowed": 18924,
    "Ġstammered": 26199,
    "sort": 6798,
    "Ġinsens": 8276,
    "connect": 1291,
    "Ġincognita": 26551,
    "Ġsteer": 10386,
    "ari": 674,
    "boy": 4737,
    "Ġtobacc": 7852,
    "antediluvian": 24346,
    "ugues": 19018,
    "Ġdimmed": 24267,
    "princ": 8620,
    "Ġdepress": 14045,
    "happening": 16563,
    "Ġsuperstitions": 17072,
    "Ġimmeasurable": 26229,
    "ousings": 18335,
    "outon": 12800,
    "idence": 4303,
    "Ġloved": 4599,
    "Ġresistance": 13529,
    "Ġdraughts": 20220,
    "wreck": 21135,
    "Ġclean": 5652,
    "Ġhints": 8429,
    "Ġsangu": 15503,
    "Ġwhispering": 14943,
    "Ġbased": 3338,
    "Ġrecourse": 22743,
    "erde": 21267,
    "living": 7133,
    "Ġgam": 11623,
    "Ġsins": 13836,
    "oug": 431,
    "apable": 6421,
    "Ġshout": 4266,
    "bows": 10081,
    "rendering": 22337,
    "Ġgri": 17987,
    "Ġdense": 8122,
    "Ġafar": 14293,
    "residence": 19263,
    "Ġforthwith": 16618,
    "unnecessary": 21877,
    "houses": 9599,
    "ruit": 22184,
    "Ġadmeasure": 18293,
    "Ġrepetition": 8972,
    "Ġtumble": 16879,
    "lass": 5992,
    "Ġeccentric": 13648,
    "Ġexasperated": 11412,
    "Ġlighting": 13081,
    "principle": 10650,
    "Ġcommands": 16589,
    "uine": 13798,
    "olet": 13765,
    "rified": 15418,
    "Ġemploy": 3614,
    "Ġsw": 1355,
    "ĠâĢľâĢĶ": 9733,
    "Ġshavings": 14109,
    "Ġcoun": 4179,
    "Ġpan": 5082,
    "Ġostrich": 26430,
    "kers": 7132,
    "Ġconsoling": 19455,
    "Ġpapers": 4023,
    "Ġsobs": 14132,
    "Ġ30": 10511,
    "Ġsalutation": 12395,
    "Ġexamples": 2605,
    "Ġpanegyric": 26449,
    "Ġgush": 10202,
    "Ġvestige": 20061,
    "Ġstores": 18068,
    "Ġgoblet": 25823,
    "Ġassistants": 9450,
    "Ġsalad": 19477,
    "direful": 25896,
    "Ġunaccount": 22022,
    "Ġadvers": 4887,
    "Ġmagnificence": 20631,
    "stern": 8444,
    "Ġvintage": 26209,
    "osity": 14185,
    "children": 9055,
    "Ġtwinkled": 14311,
    "Ġoptimal": 1859,
    "initions": 21186,
    "boots": 11126,
    "Ġstaggers": 24653,
    "Ġbenef": 3486,
    "Ġevangel": 11280,
    "preserve": 25303,
    "c": 71,
    "etus": 21575,
    "Ġmultimodal": 18748,
    "mmar": 952,
    "Ġtract": 21164,
    "Ġobser": 2072,
    "Ġleeward": 6210,
    "boom": 18999,
    "Ġlengthened": 25958,
    "Ġaccumulation": 2693,
    "Ġglo": 1714,
    "gment": 4391,
    "Ġlouis": 8357,
    "Ġfaculties": 14956,
    "spl": 9139,
    "Ġwhistles": 24624,
    "Ġminister": 18752,
    "Ġdepicting": 22606,
    "Ġearlier": 9086,
    "mor": 4216,
    "Ġexquisitely": 20201,
    "Ġkeen": 4613,
    "Ġhang": 9187,
    "Ġinteractions": 12900,
    "Ġmerciless": 25246,
    "dilig": 17282,
    "ĠĠĠĠĠĠĠĠĠĠĠĠĠĠĠĠĠĠĠĠĠĠĠĠĠĠĠĠĠĠĠĠĠĠĠĠĠĠĠĠĠĠĠĠĠĠĠ": 16755,
    "dam": 7797,
    "transition": 24513,
    "Ġportly": 14677,
    "Ġtow": 4396,
    "doms": 20834,
    "sprang": 19989,
    "answering": 26004,
    "match": 15389,
    "Ġsalut": 10509,
    "beaut": 8512,
    "Ġresuming": 12890,
    "Ġdisinclination": 22533,
    "Ġagainst": 1697,
    "Ġannoyed": 17199,
    "corpse": 24486,
    "Ġpowdered": 24237,
    "servant": 15035,
    "Ġabilities": 8866,
    "Ġqueen": 3208,
    "26": 10072,
    "Ġorphans": 20203,
    "Ġdecidedly": 9508,
    "Ġtiar": 21166,
    "Ġrole": 16000,
    "Ġsprung": 11248,
    "Ġadaptively": 4131,
    "orter": 4257,
    "Ġarguing": 25470,
    "Ġcares": 9365,
    "Ġmerchants": 23731,
    "Ġdenied": 9000,
    "roads": 17957,
    "Ġwee": 21915,
    "Ġungracious": 18255,
    "Ġfainted": 8791,
    "Ġnodes": 1968,
    "Ġyale": 21776,
    "Ġshank": 21994,
    "ulged": 12727,
    "Ġxx": 5492,
    "Ġfrenz": 25446,
    "Ġellenborough": 26154,
    "poise": 6171,
    "Ġbehooves": 20732,
    "Ġexpands": 25237,
    "Ġgourmand": 26466,
    "educ": 10828,
    "Ġcertain": 1558,
    "slipped": 25529,
    "invincible": 25089,
    "Ġshrieking": 24758,
    "âĢĻ,": 14071,
    "gir": 8082,
    "Ġaffected": 5577,
    "Ġgaff": 17993,
    "-------": 20387,
    "induce": 22371,
    "Ġfrom": 435,
    "ositions": 10283,
    "Ġremove": 7501,
    "Ġscrewing": 20207,
    "short": 6566,
    "Ġcumbrous": 26432,
    "Ġnursed": 16885,
    "Ġrespective": 16343,
    "Ġbalance": 2021,
    "refuge": 24734,
    "Ġsan": 7824,
    "abiding": 21790,
    "Ġshining": 8171,
    "named": 9891,
    "Ġseats": 14088,
    "Ġclothed": 19605,
    "Ġspeeches": 22660,
    "lo": 682,
    "camp": 15329,
    "husband": 8041,
    "astron": 22166,
    "bery": 9787,
    "trivial": 21091,
    "weather": 7230,
    "Ġelbows": 18638,
    "Ġshrouds": 11344,
    "often": 6165,
    "Ġ181": 23892,
    "lost": 8887,
    "Ġjoky": 18406,
    "corner": 13396,
    "Ġeverybody": 4511,
    "Ġscrupulous": 20067,
    "Ġ56": 24324,
    "Ġexpressive": 8982,
    "rack": 18010,
    "aston": 7409,
    "ridge": 9496,
    "Ġtune": 17725,
    "action": 3728,
    "niece": 20994,
    "Ġabased": 22265,
    "box": 5749,
    "Ġwildest": 16509,
    "Ġfid": 10803,
    "Ġhunters": 6300,
    "ostent": 16846,
    "immediate": 20092,
    "addressing": 24401,
    "erness": 6433,
    "sicilian": 21062,
    "Ġfancying": 12110,
    "help": 1479,
    "detached": 19673,
    "spin": 22728,
    "Ġcomputing": 2220,
    "Ġnay": 5711,
    "Ġclutches": 20016,
    "Ġwishing": 7830,
    "dock": 16417,
    "C": 39,
    "Ġhearers": 15700,
    "Ġtestimony": 14466,
    "eld": 963,
    "Ġkeeping": 7284,
    "oughed": 22077,
    "Ġcontrol": 13078,
    "Ġdeserved": 7736,
    "Ġspecksnyder": 17402,
    "Ġship": 1092,
    "Ġloc": 10914,
    "Ġchewing": 23280,
    "fingers": 17369,
    "cious": 6643,
    "library": 12996,
    "Ġday": 956,
    "garn": 20869,
    "sho": 6424,
    "gallery": 24693,
    "Ġconn": 9229,
    "Ġdeprec": 15755,
    "Ġjelly": 22297,
    "Ġhurst": 5582,
    "tails": 21085,
    "Ġploughed": 22604,
    "Ġsized": 11562,
    "Ġpatted": 16381,
    "Ġthirds": 16708,
    "gaffman": 26390,
    "Ġdozen": 8185,
    "Ġshoving": 23488,
    "Ġmbpp": 21320,
    "Ġthin": 4349,
    "daughter": 8354,
    "pless": 6260,
    "kilt": 4866,
    "Ġdesperation": 19817,
    "Ġwinged": 16995,
    "Ġminuteness": 19138,
    "Ġh": 290,
    "correct": 24483,
    "gallantry": 15058,
    "welcomed": 24644,
    "Ġallen": 5160,
    "past": 8089,
    "Ġyer": 15731,
    "Ġpercept": 14222,
    "Ġmisgivings": 15289,
    "impressed": 12688,
    "en": 271,
    "eneva": 5118,
    "Ġ85": 24460,
    "kn": 5791,
    "Ġinch": 7849,
    "Ġbinding": 20417,
    "Ġdiscovered": 4413,
    "Ġinn": 4590,
    "Ġdost": 7638,
    "sailing": 14712,
    "Ġmyster": 5925,
    "angled": 6844,
    "wall": 10136,
    "Ġdynamic": 5123,
    "suddenly": 6492,
    "indeed": 4488,
    "haul": 14763,
    "armon": 23056,
    "Ġwhite": 1540,
    "Ġforgive": 8009,
    "Ġrelease": 19290,
    "Ġessence": 13404,
    "ensical": 18567,
    "Ġeliminating": 20618,
    "colonel": 8284,
    "Ġgrunt": 18736,
    "ony": 3026,
    "Ġperpetually": 17071,
    "Ġdebt": 12165,
    "Åĵuv": 15181,
    "Ġflowed": 10371,
    "Ġraven": 16114,
    "Ġsmaller": 1884,
    "Ġit": 339,
    "Ġconvulsive": 19306,
    "oided": 11508,
    "ther": 481,
    "school": 10054,
    "Ġdisengaged": 12886,
    "agreeable": 5829,
    "exception": 9975,
    "Ġblot": 9811,
    "sterdam": 19089,
    "Ġfountain": 7366,
    "rying": 3182,
    "Ġpaternal": 16383,
    "separately": 25227,
    "jammed": 25906,
    "Ġroaring": 10970,
    "drowned": 17368,
    "Ġsedentary": 25430,
    "Ġmechanical": 7937,
    "Ġlain": 17961,
    "kee": 18273,
    "Ġillum": 9399,
    "Ġdears": 18136,
    "ellative": 21942,
    "breathing": 25335,
    "Ġroyalty": 19735,
    "Ġpromised": 5181,
    "Ġratt": 7880,
    "ignity": 4375,
    "irations": 18168,
    "Ġspleen": 26421,
    "alice": 3204,
    "Ġskylarking": 19485,
    "Ġdislike": 6047,
    "Ġweedy": 15789,
    "omit": 13973,
    "enstein": 5799,
    "Ġcurling": 9340,
    "Ġput": 1797,
    "Ġpitches": 23899,
    "Ġspoils": 24808,
    "Ġade": 22098,
    "compliment": 11364,
    "orm": 425,
    "Ġstony": 21736,
    "Ġxl": 11988,
    "Ġwildness": 14602,
    "profitable": 17055,
    "Ġstrangeness": 16707,
    "ribution": 14306,
    "saying": 8640,
    "Ġmode": 8499,
    "Ġeternally": 11369,
    "Ġinherited": 25353,
    "angular": 11721,
    "alously": 15626,
    "isite": 15560,
    "Ġattachment": 6049,
    "Ġalan": 10869,
    "ondency": 15268,
    "Ġours": 4612,
    "Ġpail": 15604,
    "Ġladder": 8598,
    "Ġwhe": 439,
    "icient": 784,
    "Ġscener": 10949,
    "Ġkiller": 19567,
    "unted": 6998,
    "thirty": 12759,
    "Ġcatholic": 20680,
    "Ġgard": 2190,
    "))": 1517,
    "Ġpunishment": 9955,
    "Ġpres": 9731,
    "ips": 2593,
    "Ġrepaired": 13106,
    "Ġamsterdam": 22481,
    "<": 32,
    "stand": 625,
    "Ġincivility": 18572,
    "Ġsteward": 6584,
    "iness": 1281,
    "Ġneighbours": 8302,
    "ifled": 14062,
    "order": 1960,
    "Ġtoilings": 24742,
    "rices": 4559,
    "Ġdamp": 8263,
    "vapor": 25755,
    "Ġdemi": 25548,
    "Ġconve": 5455,
    "is": 280,
    "Ġapproximate": 2343,
    "Ġaback": 22263,
    "produced": 25414,
    "create": 24159,
    "Ġreminding": 19796,
    "wrinkled": 16553,
    "Ġcharles": 11955,
    "Ġpiling": 17910,
    "superstitiousness": 25508,
    "inions": 8401,
    "meetings": 20376,
    "ingu": 2120,
    "Ġmistress": 8611,
    "Ġfarewell": 9519,
    "Ġherring": 14126,
    "Ġsn": 2950,
    "Ġascending": 14852,
    "reputable": 15516,
    "Ġliterally": 15115,
    "Ġmoulton": 17434,
    "Ġmak": 10778,
    "Ġprotect": 6337,
    "topp": 22562,
    "ister": 1293,
    "unguarded": 23668,
    "Ġfunctions": 1339,
    "ense": 2052,
    "modesty": 22867,
    "Ġgirdled": 19157,
    "Ġcleaned": 23183,
    "Ġvibrated": 25045,
    "Ġplayful": 19236,
    "Ġaffectation": 14440,
    "joined": 13273,
    "springs": 24911,
    "characteristic": 24685,
    "Ġtrifled": 24674,
    "Ġunfav": 14787,
    "Ġdistrusting": 25053,
    "Ġdisaster": 12884,
    "Ġstun": 11649,
    "Ġguido": 2976,
    "clock": 3935,
    "Ġidolator": 19996,
    "Ġtrample": 20326,
    "reated": 10302,
    "capting": 24038,
    "Ġsneezes": 24698,
    "Ġoppressive": 20454,
    "Ġgiant": 13967,
    "Ġadmiration": 5328,
    "Ġimaginative": 19246,
    "Ġxxi": 24476,
    "Ġhugh": 15004,
    "Ġcommunications": 16353,
    "Ġprecisely": 6465,
    "moderate": 22868,
    "consciousness": 13364,
    "Ġinanimate": 13932,
    "whale": 2140,
    "contrivance": 26316,
    "Ġdataset": 12814,
    "Ġpocket": 4898,
    "heeded": 13833,
    "riving": 21923,
    "Ġgrizzled": 11450,
    "Ġproclaim": 18130,
    "indust": 18435,
    "20": 20752,
    "mess": 13752,
    "confined": 24332,
    "Ġpike": 12620,
    "Ġought": 3418,
    "Ġwaist": 6892,
    "Ġshreds": 12767,
    "Ġluff": 15650,
    "Ġcannibals": 10587,
    "fallen": 19658,
    "speaking": 12096,
    "Ġroot": 2652,
    "Ġbecome": 3154,
    "Ġsnows": 14724,
    "ortunity": 4404,
    "Ġmapp": 2083,
    "turtle": 12209,
    "Ġbeef": 6830,
    "Ġirr": 10421,
    "Ġsex": 8841,
    "ippi": 20243,
    "Ġdistribut": 842,
    "Ġuntutored": 19165,
    "Ġoccurs": 1860,
    "¬": 110,
    "Ġabominate": 20063,
    "proves": 23392,
    "Ġerrors": 2597,
    "Ġaccomp": 4712,
    "Ġpicturesque": 14892,
    "beaten": 20314,
    "Ġwithin": 2163,
    "Ġju": 10286,
    "Ġcoron": 4465,
    "iply": 22361,
    "Ġholes": 16407,
    "Ġenraptured": 26500,
    "occurrences": 26331,
    "Ġint": 409,
    "Ġlive": 2735,
    "Ġkeepers": 23538,
    "Ġallures": 22068,
    "Ġhackney": 20431,
    "Ġvineyarder": 25606,
    "Ġisle": 8832,
    "congenial": 25399,
    "71": 20755,
    "Ġwhis": 3502,
    "Ġmassachusetts": 24021,
    "Ġgoodness": 6058,
    "airing": 16175,
    "oko": 18440,
    "ilege": 22253,
    "Ġinvisible": 7328,
    "Ġelements": 2668,
    "ortions": 10948,
    "remains": 10398,
    "uded": 6286,
    "Ġviol": 2073,
    "lotte": 3330,
    "Ġmau": 21309,
    "Ġinherit": 25352,
    "Ġdiversity": 25284,
    "Ġstealing": 18893,
    "gems": 20883,
    "Ġconversed": 13187,
    "Ġhiss": 15785,
    "ĠĠĠĠĠĠĠĠĠĠĠĠĠĠĠĠĠĠĠĠĠĠĠĠĠĠĠĠĠĠĠĠĠĠĠĠ": 23665,
    "Ġenvy": 13174,
    "Ġev": 4828,
    "Ġbrew": 23342,
    "Ġvel": 7187,
    "coll": 23777,
    "Ġlooked": 1801,
    "Ġsqueeze": 10038,
    "ork": 416,
    "consideration": 14953,
    "uing": 17693,
    "Ġdisgrace": 7215,
    "Ġembatt": 18851,
    "Ġexplaining": 15958,
    "Ġprogress": 5023,
    "attention": 2111,
    "Ġobservation": 6597,
    "Ġreasoning": 2012,
    "Ġwhale": 628,
    "Ġconquer": 14026,
    "Ġuncovered": 23430,
    "Ġvindication": 25364,
    "Ġcircles": 7966,
    "Ġchristmas": 6924,
    "Ġstraggling": 23749,
    "cases": 12445,
    "Ġbabies": 19691,
    "Ġcompos": 22566,
    "Ġinmost": 17930,
    "inder": 9152,
    "Ġbind": 12579,
    "ferent": 4195,
    "season": 14033,
    "inate": 6233,
    "kish": 20933,
    "Ġstern": 4223,
    "widely": 25343,
    "Ġlays": 15987,
    ")": 13,
    "U": 57,
    "greater": 13250,
    "Ġgentlemanly": 19315,
    "Ġhierarchical": 1930,
    "rage": 10843,
    "Ġ*/": 10373,
    "cele": 21622,
    "Ġramadan": 9575,
    "fight": 17538,
    "specul": 23940,
    "Ġcod": 8411,
    "ghost": 20886,
    "musical": 25340,
    "Ġ(": 595,
    "Ġprep": 4192,
    "Ġdism": 9766,
    "Ġenemy": 5605,
    "uttering": 12659,
    "Ġdinners": 23979,
    "Ġcrews": 8990,
    "Ġforc": 9227,
    "Ġarray": 12806,
    "Ġkra": 18348,
    "air": 1002,
    "Ġhumour": 7931,
    "recklessly": 25269,
    "planted": 11694,
    "Ġtennessee": 26596,
    "then": 2053,
    "purpose": 10043,
    "Ġaloof": 21782,
    "/*": 10070,
    "Ġoppress": 13171,
    "Ġclaret": 22347,
    "Ġobeyed": 12214,
    "Ġreply": 4515,
    "nor": 2742,
    "raid": 3278,
    "Ġ133": 24783,
    "Ġbelieved": 4369,
    "Ġregarding": 13209,
    "cloud": 11105,
    "Ġenslaved": 26314,
    "Ġbumpkins": 25281,
    "told": 7811,
    "Ġdisgraceful": 15019,
    "Ġvolley": 24145,
    "title": 17287,
    "usoid": 4766,
    "odecim": 9831,
    "Ġlewis": 15722,
    "Ġdissipate": 13632,
    "Ġo": 275,
    "strils": 10458,
    "Ġadmeasurements": 26225,
    "lan": 15376,
    "Ġdejection": 15195,
    "Ġelimin": 16106,
    "Ġsaint": 15506,
    "aways": 15309,
    "coal": 12023,
    "Ġgrows": 4985,
    "ap": 547,
    "Ġobjects": 5578,
    "Ġexerting": 21829,
    "Ġmantle": 25274,
    "Ġelbow": 12920,
    "Ġanxiously": 8289,
    "Ġlong": 796,
    "anean": 7444,
    "Ġsweetest": 13245,
    "bulkington": 19924,
    "Ġencounters": 19579,
    "Ġdirt": 15591,
    "Ġbusied": 19066,
    "Ġlads": 8597,
    "Ġshaken": 10264,
    "Ġpush": 9184,
    "ints": 3416,
    "youn": 5690,
    "Ġwithdrawn": 10606,
    "Ġwhirl": 13448,
    "idated": 11660,
    "Ġanalytical": 22919,
    "hee": 10760,
    "Ġpremeditated": 22231,
    "Ġsyntax": 957,
    "Ġplan": 3884,
    "ailed": 3245,
    "Ġbinnacle": 8118,
    "Ġhoisted": 5959,
    "Ġwrists": 11113,
    "Ġramad": 8528,
    "choose": 23671,
    "Ġeh": 6987,
    "Ġledger": 19400,
    "Ġincommun": 25308,
    "Ġlakes": 8130,
    "Ġspirits": 3697,
    "Ġdescrying": 18618,
    "cap": 8372,
    "slide": 24556,
    "day": 1861,
    "Ġrods": 9753,
    "Ġtambourine": 9564,
    "Ġcoupled": 16851,
    "Ġarctic": 12807,
    "Ġeag": 2967,
    "oh": 1581,
    "Ġdemeanour": 17336,
    "of": 768,
    "Ġtor": 8105,
    "Ġgratefully": 20443,
    "avenza": 17104,
    "matters": 14872,
    "Ġpatchwork": 24141,
    "Ġsloop": 25930,
    "unders": 13308,
    "Ġgrating": 14357,
    "Ġrobberies": 23047,
    "Ġduchess": 4799,
    "fits": 13717,
    "ise": 708,
    "Ġ84": 19708,
    "Ġilleg": 21620,
    "stains": 11636,
    "noted": 22746,
    "Ġfifty": 4623,
    "Ġforcing": 3221,
    "Ġexhibition": 14955,
    "ontory": 10459,
    "Ġtwitch": 22673,
    "Ġpiping": 23244,
    "Ġridge": 14817,
    "sentiment": 12911,
    "pictures": 15089,
    "Ġspoil": 17007,
    "gences": 20876,
    "nez": 22458,
    "consolatory": 25306,
    "Ġcarried": 3693,
    "Ġdiscerned": 25003,
    "footsteps": 25199,
    "Ġcleat": 18946,
    "tt": 13789,
    "Ġtink": 9148,
    "some": 2235,
    "Ġanoint": 25537,
    "Ġdetection": 3323,
    "achus": 18283,
    "object": 6884,
    "swed": 24253,
    "prises": 23810,
    "Ġbarrels": 9435,
    "Ġparcel": 15198,
    "Ġdawned": 14993,
    "Ġharder": 14448,
    "Ġinferences": 17934,
    "Ġmedicine": 15204,
    "Ġcharley": 19006,
    "lected": 1638,
    "Ġmeddle": 19490,
    "Ġseaward": 22944,
    "aphys": 15200,
    "Ġwane": 21287,
    "Ġdiligently": 11405,
    "Ġsung": 23270,
    "bond": 17489,
    "Ġsuspects": 16890,
    "Ġparamet": 612,
    "Ġcorporeally": 25729,
    "uracy": 1068,
    "Ġrad": 4962,
    "depend": 9112,
    "evident": 25520,
    "ated": 719,
    "Ġmills": 21310,
    "Ġceler": 15548,
    "Ġconvenient": 8345,
    "Ġtype": 2020,
    "splice": 17170,
    "count": 4213,
    "Ġfundament": 2927,
    "Ġwolfish": 25935,
    "Ġclimate": 9274,
    "Ġmeasured": 9803,
    "Ġ182": 13235,
    "Ġbridal": 14952,
    "Ġfaults": 12210,
    "Ġshunned": 17292,
    "Ġadmission": 23554,
    "Ġbeau": 9224,
    "Ġwearing": 12736,
    "Ġderbyshire": 6586,
    "Ġrelatives": 12979,
    "Ġexisting": 12715,
    "Ġtwins": 16118,
    "Ġworthless": 19564,
    "Ġperemptory": 25740,
    "ulated": 6029,
    "ulity": 10886,
    "falling": 24361,
    "Ġmortar": 19391,
    "igan": 21696,
    "Ġcalculate": 13262,
    "Ġpebbles": 16127,
    "Ġsingularly": 12146,
    "ques": 2843,
    "Ġfearlessness": 19160,
    "Ġneurons": 978,
    "Ġyanke": 18097,
    "Ġearls": 18902,
    "years": 6883,
    "owed": 2271,
    "tland": 21072,
    "Ġwalks": 8965,
    "Ġdinnertime": 16719,
    "ad": 337,
    "cracy": 24690,
    "Ġecstasy": 11629,
    "Ġgeorge": 3750,
    "ois": 9134,
    "Ġdeputation": 21836,
    "using": 5468,
    "Ġwhisker": 23932,
    "ained": 3060,
    "Ġnewfoundland": 26569,
    "twenty": 6607,
    "consolation": 15151,
    "rons": 21038,
    "Ġhealthy": 10851,
    "Ġcentral": 7727,
    "Ġmoritz": 11903,
    "Ġoverboard": 6044,
    "respectable": 19846,
    "Ġinclination": 6623,
    "Ġvit": 10245,
    "phant": 6287,
    "adler": 21759,
    "olera": 21830,
    "ocris": 23707,
    "Ġpresentiment": 18989,
    "Ġhatchet": 16528,
    "Ġunful": 22006,
    "Ġminority": 18753,
    "Ġhis": 380,
    "Ġdynam": 3268,
    "Ġpresume": 8037,
    "urrection": 12407,
    "Ġcumul": 4180,
    "Ġturks": 14597,
    "Ġsustained": 13481,
    "xes": 21139,
    "Ġproductions": 22943,
    "Ġknows": 4161,
    "ascar": 8434,
    "Ġrecre": 22741,
    "Ġunalterable": 15849,
    "Ġunwearied": 20601,
    "Ġmariners": 6067,
    "sol": 1789,
    "Ġbankers": 24302,
    "Ġanchored": 17439,
    "Ġwillow": 18533,
    "gard": 7340,
    "avish": 22591,
    "Ġdoesn": 7439,
    "Ġclouds": 5775,
    "Ġbarn": 11586,
    "Ġdrawn": 4277,
    "verd": 21724,
    "heaved": 21209,
    "aration": 12604,
    "answer": 11730,
    "Ġpursued": 6328,
    "heat": 15496,
    "guilty": 19481,
    "Ġcontext": 1708,
    "ience": 825,
    "umerable": 11723,
    "Ġnarrowed": 24355,
    "Ġtangle": 25760,
    "bedstead": 23847,
    "Ġlandsman": 11350,
    "Ġworld": 1599,
    "Ġmisanthropic": 26560,
    "Ġsloping": 11937,
    "agues": 8160,
    "circ": 4389,
    "urch": 3995,
    "Ġundertaken": 18987,
    "Ġalien": 14017,
    "Ġresume": 18565,
    "Ġdeduced": 12205,
    "Ġautoregressive": 3430,
    "gained": 20880,
    "Ġshocks": 16457,
    "Ġneighbourhood": 5126,
    "iving": 1727,
    "Ġrol": 3553,
    "Æ": 135,
    "Ġlip": 6532,
    "Ġcolouring": 16751,
    "period": 15895,
    "Ġpillow": 10037,
    "eness": 2290,
    "Ġsimon": 5172,
    "Ġcred": 8780,
    "Ġdarkly": 19114,
    "Ġreduce": 7942,
    "sher": 5217,
    "Ġ44": 16679,
    "Ġremembering": 14609,
    "Ġedward": 19119,
    "opportunity": 12272,
    "isure": 6240,
    "Ġreflect": 6575,
    "ŀ": 257,
    "advancing": 14834,
    "Ġquitted": 5309,
    "Ġsubproblems": 12954,
    "pro": 2050,
    "kl": 4865,
    "Ġcorn": 9349,
    "Ġpeaked": 2295,
    "iftings": 23224,
    "Ġmeaning": 1414,
    "Ġpapered": 20129,
    "Ġappear": 2487,
    "eye": 6224,
    "retch": 4372,
    "marching": 25752,
    "onement": 21255,
    "Ġshrieked": 9547,
    "Ġmoist": 9284,
    "infor": 3457,
    "Ġslate": 11936,
    "Ġguest": 7250,
    "Ġsatin": 12985,
    "preserver": 20212,
    "Ġsafie": 6617,
    "elect": 20845,
    "mown": 20969,
    "Ġdab": 15585,
    "Ġpots": 9427,
    "Ġfierceness": 26265,
    "Ġwhitting": 18055,
    "lady": 4434,
    "Ġmister": 22755,
    "intention": 10367,
    "context": 3403,
    "Ġshetland": 22156,
    "Ġcloth": 9742,
    "bon": 13683,
    "Ġsne": 6372,
    "Ġdancing": 5703,
    "unexpected": 15775,
    "Ġhonourable": 10456,
    "tried": 13793,
    "Ġpear": 11850,
    "jep": 20925,
    "rog": 15637,
    "Ġp": 289,
    "Ġlamentations": 17076,
    "circumspect": 26086,
    "low": 656,
    "Ġloitered": 26525,
    "Ġchick": 22244,
    "Ġstabbing": 20302,
    "Ġinconstant": 21493,
    "Ġinno": 1334,
    "Ġequivalent": 4802,
    "Ġnotwithstanding": 9713,
    "ė": 216,
    "attachment": 13049,
    "prevented": 20372,
    "Ġvia": 2382,
    "iture": 5696,
    "disappearing": 23501,
    "Ġimmensely": 13594,
    "rians": 21922,
    "Ġtouch": 3395,
    "Ġdivers": 9665,
    "Ġwo": 3650,
    "Ġtokens": 1771,
    "Ġwhal": 5454,
    "Ġnodded": 11968,
    "Ġcovered": 5171,
    "eagerly": 17315,
    "ague": 3909,
    "Ġdearer": 14048,
    "Ġhasty": 10477,
    "Ġpiled": 8424,
    "Ġballs": 9014,
    "Ġgrow": 2861,
    "Ġbrightened": 23826,
    "Ġinsertion": 26343,
    "Ġprocedure": 2809,
    "conception": 22469,
    "Ġweakened": 16823,
    "helm": 12169,
    "irium": 8161,
    "Ġhop": 1461,
    "osa": 22257,
    "Ġcapt": 1290,
    "iven": 1238,
    "Ġxxv": 19716,
    "tained": 4406,
    "phere": 21018,
    "Ġjoists": 19231,
    "consumed": 25675,
    "Ġchivalrous": 20513,
    "onged": 18410,
    "Ġroof": 6564,
    "pier": 17635,
    "Ġdespair": 4011,
    "Ġrecurred": 18977,
    "Ġtail": 3084,
    "Ġinvoking": 19145,
    "apothe": 22332,
    "Ġreconsidered": 21670,
    "Ġimpotently": 22387,
    "mut": 17595,
    "app": 1041,
    "Ġcarn": 17821,
    "_)": 9101,
    "endeav": 7151,
    "ne": 647,
    "estate": 12818,
    "Ġwithheld": 18114,
    "begin": 8883,
    "Ġtempt": 5565,
    "Ġ180": 16606,
    "Ġoriginally": 7305,
    "otently": 21797,
    "remed": 18952,
    "Ġinterpreter": 23214,
    "tackle": 17320,
    "Ġinjunction": 19616,
    "fulfilment": 26025,
    "Ġbrim": 12973,
    "rol": 5713,
    "Ġsurmises": 17056,
    "Ġgroaned": 11266,
    "Ġthou": 1809,
    "agatha": 21905,
    "Ġcoarsely": 25828,
    "ieving": 7031,
    "carbuncle": 26382,
    "claims": 25319,
    "Ġcompat": 2938,
    "Ġrearing": 12674,
    "abama": 12706,
    "Ġdisappoint": 24205,
    "surface": 10530,
    "repent": 15512,
    "dition": 15339,
    "athan": 2957,
    "Ġfishe": 15583,
    "icles": 17972,
    "speckled": 23942,
    "Ġbride": 6291,
    "ener": 562,
    "recover": 24622,
    "ivility": 12782,
    "dependence": 17167,
    "Ġsciences": 15943,
    "ved": 869,
    "Ġblankness": 24610,
    "Ġancient": 5443,
    "iety": 2818,
    "Ġbabel": 24426,
    "Ġevol": 2814,
    "sford": 5997,
    "column": 19328,
    "Ġb": 281,
    "Ġstrife": 18613,
    "sailor": 14713,
    "Ġdeferred": 18825,
    "obedience": 17409,
    "lleg": 20950,
    "Ġpoints": 5247,
    "cre": 4252,
    "Ġattraction": 18619,
    "merc": 19280,
    "dial": 20824,
    "pious": 17633,
    "Ġind": 1221,
    "ula": 2826,
    "onom": 9158,
    "Ġhold": 2244,
    "Ġgroves": 16740,
    "Ġtracks": 18889,
    "Ġfurthermore": 1167,
    "Ġprocopius": 19730,
    "high": 6649,
    "Ġgrotes": 19562,
    "Ġtale": 5142,
    "Ġabomin": 8188,
    "Ġmaintaining": 1509,
    "Ġvolat": 24144,
    "Ġcathedral": 17412,
    "degrees": 22147,
    "Ġpaces": 13918,
    "barb": 10080,
    "Ġmanip": 8871,
    "Ġchace": 14178,
    "cold": 9589,
    "Ġconsist": 1936,
    "Ġschemes": 11131,
    "Ġrevenge": 5452,
    "mopol": 15395,
    "Ġfund": 2845,
    "lounged": 26133,
    "hel": 4814,
    "Ġapologize": 15127,
    "Ġagree": 7648,
    "Ġsuggestive": 11297,
    "unearthly": 19273,
    "Ġwould": 651,
    "guest": 19480,
    "Ġimprovements": 14513,
    "Ġhos": 4942,
    "Ġdeact": 18135,
    "Ġdecency": 18483,
    "Ġscraps": 16902,
    "ilib": 4119,
    "Ġrespects": 7270,
    "imprisonment": 23760,
    "Ġclustered": 25233,
    "Ġevaluate": 3214,
    "Ġcombinations": 22849,
    "Ġinspector": 6497,
    "Ġmarbank": 23032,
    "nals": 16399,
    "Ġadored": 18291,
    "orders": 12871,
    "Ġsub": 950,
    "asleep": 21541,
    "Ġshocking": 10435,
    "Ġrevolving": 9982,
    "bid": 5611,
    "Ġintimately": 24804,
    "noo": 9785,
    "Ġpolic": 13160,
    "vocabulary": 25085,
    "Ġcaused": 5048,
    "Ġkinds": 14500,
    "Ġabsurdities": 24878,
    "peter": 24298,
    "subject": 6631,
    "Ġeduc": 4784,
    "ashes": 6015,
    "Ġducks": 25157,
    "Ġintrospective": 20599,
    "Ġpemberley": 4588,
    "ĠâĢľ": 516,
    "Ġclasses": 4056,
    "unvarying": 21884,
    "Ġschol": 17376,
    "Ġscratch": 25564,
    "storm": 9681,
    "Ġpop": 5151,
    "Ġwollstonecraft": 26425,
    "returns": 23134,
    "Ġsorrowful": 10536,
    "cannibal": 15223,
    "Ġsingle": 1691,
    "/`)": 13659,
    "okened": 15982,
    "Ġburly": 19249,
    "g": 75,
    "tery": 14036,
    "Ġretire": 10381,
    "Ġeducation": 5128,
    "Ġindication": 22949,
    "Ġ----": 7145,
    "leviathans": 19936,
    "Ġshortly": 6196,
    "_.": 2213,
    "Ġdecayed": 22824,
    "whis": 7897,
    "steaks": 23958,
    "alse": 4186,
    "Ġwooded": 23518,
    "Ġconsulting": 13428,
    "reeling": 21243,
    "Ġhappen": 5571,
    "Ġmadman": 13150,
    "pag": 11510,
    "):": 11461,
    "Ġtrotting": 19974,
    "Ġshower": 11708,
    "aciousness": 18606,
    "shunned": 22457,
    "Ġoper": 2121,
    "Ġhalts": 3155,
    "regarding": 15070,
    "vult": 21112,
    "diminished": 20838,
    "ient": 394,
    ");": 7331,
    "Ġinfluence": 5515,
    "Ġtriumphantly": 11287,
    "Ġankers": 21443,
    "Ġmatches": 14395,
    "petulance": 24299,
    "Ġinvestment": 24336,
    "Ġsmack": 9299,
    "Ġinsult": 6747,
    "Ġimp": 578,
    "Ġencountered": 8321,
    "Ġhammered": 13238,
    "Ġmacro": 25939,
    "consternation": 16912,
    "Ġreading": 5114,
    "Ġcanst": 8857,
    "momentum": 4991,
    "Ġface": 1722,
    "Ġconsciousness": 9947,
    "Ġballasted": 23977,
    "Ġmeditations": 25013,
    "Ġocc": 886,
    "Ġscare": 18397,
    "Ġesc": 2252,
    "ane": 1177,
    "_.,": 14560,
    "Ġstarted": 4151,
    "Ġquestioning": 10464,
    "Ġrejected": 12292,
    "Ġterrible": 5327,
    "ates": 519,
    "Ġwhitney": 11373,
    "Ġobliterated": 17404,
    "risonment": 17374,
    "pits": 15411,
    "Ġblinding": 14726,
    "ste": 3582,
    "breaking": 14762,
    "beheaded": 22490,
    "Ġget": 1626,
    "Ġnegro": 6446,
    "Ġdistillation": 16043,
    "Ġforenoon": 19126,
    "gunwale": 20662,
    "Ġsignifies": 19203,
    "Ġattempts": 10490,
    "Ġlingo": 24903,
    "draul": 9442,
    "hullo": 17570,
    "turkish": 24533,
    "Ġattends": 19649,
    "Ġagreement": 18542,
    "pieces": 8754,
    "Ġslightly": 7294,
    "Ġnaked": 8126,
    "Ġsheeted": 19830,
    "aver": 6785,
    "Ġyourself": 2594,
    "Ġnoah": 10942,
    "ropes": 7902,
    "irst": 879,
    "Ġbachelors": 24860,
    "whar": 15925,
    "bald": 16447,
    "Ġflirt": 14422,
    "Ġdandy": 17892,
    "Ġsobbed": 14134,
    "neighboring": 20615,
    "band": 3054,
    "anc": 6378,
    "Ġidea": 2489,
    "transp": 24512,
    "Ġbull": 7839,
    "Ġengineer": 11973,
    "Ġmar": 1309,
    "gold": 9120,
    "Ġrival": 10485,
    "ville": 6087,
    "oquent": 12497,
    "Ġforesaw": 19127,
    "âĢĶ": 518,
    "Ġcake": 12567,
    "cheeks": 23805,
    "Ġjib": 14193,
    "enc": 7576,
    "Ġimmeas": 18330,
    "ited": 1751,
    "acknowledging": 25476,
    "dismay": 19152,
    "berg": 11857,
    "ishop": 9741,
    "Ġfinishing": 23121,
    "Ġnervously": 19184,
    "eenth": 12458,
    "az": 2181,
    "Ġtrampling": 25492,
    "quick": 6399,
    "Ġfarm": 7840,
    "-": 17,
    "proachable": 23396,
    "itty": 3552,
    "Ġrepentance": 15159,
    "Ġcuriosities": 26288,
    "Ġconting": 18472,
    "Ġcaved": 21351,
    "Ġunprovided": 18257,
    "Ġclubbed": 26546,
    "Ġcity": 4530,
    "itically": 21328,
    "invite": 25088,
    "Ġextremities": 19195,
    "://": 11465,
    "Ġlurk": 13382,
    "Ġcommence": 6167,
    "Ġetern": 7085,
    "Ġbears": 6829,
    "Ġhumanity": 6731,
    "Ġlizard": 12651,
    "hangs": 15367,
    "Ġadorn": 12789,
    "Ġhapp": 1091,
    "Ġtechnical": 17191,
    "Ġpreservation": 24630,
    "Ġunthinkingly": 26220,
    "Ġsenior": 17171,
    "Ġbelrive": 18830,
    "Ġunworth": 22031,
    "ure": 356,
    "Ġshoreless": 24295,
    "Ġword": 1053,
    "Ġpaddle": 20057,
    "othing": 6995,
    "coach": 23559,
    "Ġstanders": 19014,
    "Ġsymb": 2592,
    "ppa": 10239,
    "Ġkeenly": 9484,
    "osing": 3688,
    "ins": 1378,
    "arer": 3970,
    "roc": 9674,
    "better": 7119,
    "Ġting": 8397,
    "Ġcomfortably": 16615,
    "Ġboxed": 24360,
    "Ġdamn": 11158,
    "introduce": 25186,
    "aust": 15308,
    "Ġmixture": 9562,
    "concealed": 25115,
    "Ġjabez": 11764,
    "Ġmutilated": 23956,
    "revolver": 25627,
    "Ġsinging": 7723,
    "Ġtomorrow": 21510,
    "Ġtanning": 17729,
    "cord": 8723,
    "Ġsodden": 25535,
    "fetch": 12462,
    "Ġoverhear": 15974,
    "Ġtear": 6722,
    "compared": 24032,
    "Ġbricks": 13561,
    "Ġunluck": 8484,
    "Ġpassed": 2010,
    "hs": 8377,
    "Ġremarking": 13123,
    "Ġactions": 6278,
    "queness": 18147,
    "judgment": 16753,
    "Ġdens": 21422,
    "gun": 10096,
    "dict": 15338,
    "Ġseventeen": 26210,
    "Ġclosely": 6487,
    "Ġsparkling": 11356,
    "usations": 15940,
    "Ġcircumn": 11982,
    "Ġmany": 1106,
    "Ġprophesied": 26062,
    "Ġcool": 5734,
    "Ġfragment": 14509,
    "inquiry": 15141,
    "ineer": 11700,
    "ivened": 22962,
    "affold": 16561,
    "Ġhorrid": 7998,
    "Ġhandkerchief": 8913,
    "Ġthereof": 22365,
    "Ġmishap": 20575,
    "uccas": 21105,
    "Ġfrolic": 23921,
    "âĢľ": 344,
    "Ġtrivial": 10142,
    "Ġexternal": 8365,
    "deck": 4501,
    "cabinet": 25077,
    "paws": 21028,
    "expectation": 14854,
    "Ġhaunted": 10253,
    "know": 2319,
    "aly": 1158,
    "iogn": 20920,
    "lux": 14226,
    "Ġambition": 11432,
    "Ġsphy": 18311,
    "Ġpromotion": 23194,
    "Ġdeformed": 14046,
    "Ġinser": 6820,
    "Ġbust": 10167,
    "ceived": 1964,
    "tarpaul": 21096,
    "Ġfaint": 5811,
    "ope": 4126,
    "mole": 22698,
    "though": 2117,
    "Ġoutweigh": 22319,
    "izens": 18143,
    "Ġenchant": 7186,
    "tains": 10962,
    "Ġrogue": 22414,
    "Ġshed": 8180,
    "Ġmarlingspike": 26579,
    "atiously": 15520,
    "Ġdived": 9177,
    "Ġslee": 8974,
    "Ġrecogn": 2832,
    "Ġconcept": 671,
    "Ġentrances": 25834,
    "Ġresp": 2497,
    "Ġtumultuous": 10615,
    "gh": 3803,
    "Ġanalyzing": 18812,
    "Ġdeserve": 8308,
    "Ġstreat": 15718,
    "ames": 2954,
    "iquet": 17575,
    "Ġinhabited": 12183,
    "throt": 25659,
    "Ġprofoundly": 16859,
    "Ġjust": 1242,
    "ronted": 14875,
    "Ġannihil": 10174,
    "acey": 7651,
    "asons": 6014,
    "individual": 18436,
    "@": 36,
    "none": 6962,
    "Ġgarn": 13962,
    "edmund": 17945,
    "secure": 12233,
    "Ġtradeoff": 2660,
    "recogn": 13424,
    "comput": 1899,
    "Ġgentleman": 3037,
    "Ġgid": 13961,
    "f": 74,
    "hush": 20905,
    "expl": 9282,
    "Ġmaria": 7124,
    "Ġpawnbroker": 13657,
    "oul": 4698,
    "Ġjon": 15946,
    "Ġhumorously": 18778,
    "char": 3501,
    "gee": 15975,
    "athom": 12936,
    "counter": 20277,
    "Ġremainder": 9857,
    "Ġunacquainted": 12772,
    "jointed": 24009,
    "Ġrowing": 10300,
    "Ġaberdeen": 26541,
    "Ġgrec": 18961,
    "Ġdemig": 20355,
    "Ġclinch": 18424,
    "Ġliar": 22400,
    "loo": 10319,
    "Ġspar": 10921,
    "variety": 23186,
    "Ġbrotherly": 16527,
    "Ġparagra": 15877,
    "Ġpoet": 8207,
    "hounds": 20906,
    "ining": 3218,
    "Ġclerks": 17294,
    "Ġresolve": 13169,
    "ela": 21566,
    "Ġroyals": 19531,
    "hurry": 24763,
    "Ġsooty": 25815,
    "Ġoughts": 23898,
    "shad": 10981,
    "Ġaffability": 14386,
    "act": 788,
    "Ġfiendish": 13326,
    "cal": 1120,
    "Ġpagoda": 19787,
    "cc": 471,
    "nuts": 15397,
    "Ġshowed": 4497,
    "equ": 6790,
    "uth": 3016,
    "Ġhastened": 9004,
    "Ġunflinching": 26512,
    "Ġmomentum": 1605,
    "Ġpresenting": 18988,
    "?âĢĶ": 3466,
    "uneven": 23683,
    "Ġharpooned": 13260,
    "inities": 21184,
    "Ġsheltered": 19910,
    "entiating": 3436,
    "Ġspe": 821,
    "Ġcondition": 6764,
    "Ġsubdiv": 16157,
    "Ġheiress": 20696,
    "Ġmoluccas": 25629,
    "Ġmoreover": 6163,
    "Ġlabyrin": 13103,
    "itical": 5801,
    "neighb": 16025,
    "uted": 7594,
    "Ġben": 1109,
    "Ġsurrey": 14557,
    "Ġdeserves": 13288,
    "Ġslacked": 25188,
    "Ġoutrid": 22312,
    "Ġtapers": 11551,
    "Ġconfining": 23302,
    "Ġgospel": 18000,
    "Ġinquest": 16546,
    "stiff": 12672,
    "Ġroods": 22413,
    "Ġupbraiding": 26226,
    "Ġmansion": 17809,
    "inement": 11557,
    "supplied": 10519,
    "Ġbedroom": 7278,
    "Ġpursue": 6314,
    "Ġwrest": 11570,
    "Ġvig": 5460,
    "Ġburton": 23654,
    "Ġrepay": 19081,
    "tooth": 18579,
    "itigated": 23042,
    "house": 4079,
    "Ġconsistent": 14527,
    "Ġmanufactured": 22327,
    "force": 12961,
    "==": 944,
    "acy": 3956,
    "Ġsubfield": 11867,
    "cull": 20808,
    "izabeth": 907,
    "Ġcharge": 5324,
    "asily": 13945,
    "Ġoarsmen": 7737,
    "adequate": 15202,
    "Ġoffence": 12942,
    "Ġprotection": 9461,
    "Ġchasing": 11752,
    "Ġpriority": 19761,
    "Ġwasting": 12725,
    "Ġpirates": 9073,
    "destruction": 11255,
    "Ġcottage": 4733,
    "Ġhypotheses": 4387,
    "injury": 25213,
    "Ġmam": 8404,
    "hands": 5966,
    "loath": 22506,
    "Ġfix": 2511,
    "Ġcaliforn": 14430,
    "Ġdeliver": 9846,
    "Ġsleep": 2402,
    "icism": 13955,
    "Ġmuttered": 7086,
    "gazed": 15360,
    "rub": 15897,
    "Ġgeorgia": 23884,
    "Ġappellation": 22215,
    "thur": 7189,
    "Ġunlike": 7004,
    "Ġthrough": 602,
    "Ġfrance": 7683,
    "Ġoverpowered": 15287,
    "Ġrecalled": 8538,
    "Ġbloodshed": 23798,
    "Ġdisgusting": 19893,
    "Ġservant": 5764,
    "fare": 7798,
    "decl": 8856,
    "Ġbiases": 2398,
    "tri": 11529,
    "ilder": 15710,
    "ondescript": 22912,
    "Ġrace": 5847,
    "hered": 5623,
    "Ġsurprise": 3831,
    "Ġunce": 11709,
    "Ġprodigious": 8056,
    "cong": 10687,
    "Ġlivelong": 25511,
    "Ġhoping": 11103,
    "Ġplanted": 9773,
    "Ġspeedy": 11172,
    "empty": 23633,
    "Ġmin": 1026,
    "Ġexhilarating": 26337,
    "Ġtheory": 5798,
    "that": 850,
    "fters": 20860,
    "Ġteased": 18799,
    "Ġcorrupt": 11920,
    "Ġsoap": 14130,
    "snapping": 24849,
    "Ġelement": 6898,
    "uesday": 8587,
    "aggo": 5097,
    "Ġdipped": 15592,
    "staring": 18020,
    "haut": 20901,
    "Ġresnet": 5473,
    "Ġfrenchman": 11283,
    "handedness": 24920,
    "Ġdespise": 14664,
    "Ġundiscernible": 22063,
    "heavily": 24534,
    "Ġdes": 1252,
    "Ġrent": 11638,
    "Ġbestow": 6454,
    "Ġimprovement": 7965,
    "Ġpeeping": 16125,
    "arts": 6563,
    "ineas": 15820,
    "8": 28,
    "pens": 17632,
    "Ġoutlined": 22317,
    "Ġgrasped": 8033,
    "Ġwakes": 11571,
    "bacc": 7794,
    "minded": 9037,
    "imly": 12684,
    "Ġtaken": 2531,
    "window": 7742,
    "Ķ": 247,
    "aces": 2070,
    "worshipping": 16610,
    "Ġtusks": 17253,
    "emy": 14074,
    "Ġenclosure": 20622,
    "earliest": 20118,
    "Ġresponded": 13637,
    "ª": 108,
    "Ġopt": 786,
    "Ġfir": 17877,
    "neville": 22462,
    "Ġpoul": 15610,
    "op": 655,
    "Ġstead": 5650,
    "boone": 23252,
    "Ġcurse": 7668,
    "rollable": 13944,
    "Ġinsip": 19267,
    "scattered": 22992,
    "exertion": 16014,
    "Ġmystical": 12130,
    "Ġseven": 4542,
    "Ġveiled": 16199,
    "Ġrind": 21966,
    "Ġingen": 9049,
    "Ġsaturn": 22898,
    "cul": 1901,
    "Ġbough": 13893,
    "Ġbroke": 5322,
    "concern": 6099,
    "Ġsoda": 25534,
    "awful": 23111,
    "Ġpictures": 5503,
    "Ġsystematic": 5244,
    "Ġhams": 16612,
    "Ġdrows": 21433,
    "gently": 13728,
    "Ġclanking": 20610,
    "Ġheathenish": 13615,
    "Ġkiss": 8182,
    "Ġalphabetical": 17201,
    "cu": 10083,
    "Ġtechniques": 2868,
    "ibility": 2390,
    "Ġdesmarest": 22976,
    "Ġsmoothed": 23658,
    "Ġstaff": 14005,
    "chat": 21683,
    "beheld": 11799,
    "gi": 17551,
    "Ġstumbling": 21739,
    "queer": 10362,
    "rative": 17652,
    "Ġmalays": 19676,
    "Ġexplored": 23516,
    "Ġimprobable": 9793,
    "Ġinform": 997,
    "abilities": 3233,
    "angling": 14140,
    "carpet": 25202,
    "Ġpurses": 23476,
    "Ġaltern": 7395,
    "Ġpartaking": 22694,
    "christ": 10210,
    "buckets": 26123,
    "ctions": 951,
    "unusually": 15777,
    "otes": 15741,
    "Ġtornado": 24621,
    "ulus": 21861,
    "iors": 9125,
    "creat": 20799,
    "gno": 13726,
    "Ġhovered": 12628,
    "Ġunsounded": 15847,
    "import": 5668,
    "Ġbeatrix": 24204,
    "doesn": 19819,
    "Ġlig": 21545,
    "Ġbarrow": 12067,
    "Ġfrowning": 13622,
    "Ġcandidate": 16701,
    "ulled": 14055,
    "windibank": 24161,
    "Ġreturning": 5325,
    "Ġ200": 19295,
    "Ġinspiring": 19112,
    "Ġmons": 10156,
    "distinctive": 25726,
    "epilogue": 22097,
    "Ġdecanting": 22440,
    "Ġpump": 12618,
    "Ġimpenit": 22385,
    "Ġdoctor": 5067,
    "Ġrestrict": 16370,
    "snap": 24848,
    "Ġcrumb": 16440,
    "Ġliving": 3058,
    "dimens": 2318,
    "grampus": 18617,
    "Ġcurvature": 3571,
    "Ġmoth": 17802,
    "Ġtechn": 9367,
    "deeply": 16179,
    "lines": 6959,
    "spark": 18688,
    "ruct": 693,
    "Ġrepulsive": 14529,
    "Ġastonishing": 10501,
    "Ġinfiltrated": 23323,
    "original": 9084,
    "Ġirreducible": 5519,
    "me": 878,
    "Ġmaterial": 5178,
    "wherever": 13117,
    "Ġlegible": 23533,
    "Ġcate": 4111,
    "boil": 19000,
    "Ġbroods": 23099,
    "Ġapprehensions": 13403,
    "Ġstrides": 22614,
    "Ġcount": 1815,
    "ame": 645,
    "base": 20776,
    "seam": 10874,
    "Ġalone": 2569,
    "hunters": 16833,
    "ĠĠĠĠĠĠĠĠĠĠĠĠĠĠĠĠĠĠĠĠĠĠĠĠĠĠĠĠĠĠĠĠĠĠĠĠĠĠĠĠĠĠĠĠĠĠĠĠ": 7988,
    "Ġdair": 17889,
    "Ġlowered": 6735,
    "Ġ1": 1015,
    "Ġungod": 22019,
    "Ġrejoinder": 24597,
    "Ġvictim": 6097,
    "Ġemail": 19074,
    "ipped": 5790,
    "loa": 18536,
    "Ġasser": 6257,
    "Ġjeopard": 9942,
    "cavity": 26126,
    "Ġwrinkles": 8570,
    "Ġstay": 3089,
    "Ġhour": 1811,
    "Ġuseless": 7037,
    "Ġfare": 5809,
    "Ġspokes": 18313,
    "Ġtorm": 5434,
    "ort": 522,
    "Ġimped": 18443,
    "paradise": 20634,
    "destroyed": 15259,
    "Ġencouraging": 2264,
    "Ġvital": 9242,
    "Ġthoughtfulness": 18773,
    "Ġbiggest": 24566,
    "Ġthack": 21514,
    "ourable": 4967,
    "Ġevenings": 18754,
    "Ġge": 1979,
    "Ġsharpen": 13568,
    "aning": 2253,
    "Ġdrag": 6184,
    "Ġgarments": 15192,
    "Ġostentatious": 25736,
    "Ġforgiveness": 16656,
    "residual": 19262,
    "aments": 12722,
    "Ġshut": 3944,
    "Ġsells": 21222,
    "Ġfamous": 5255,
    "Ġsplend": 9897,
    "Ġcorrespondent": 19821,
    "commanders": 16989,
    "ables": 7889,
    "poky": 17644,
    "Ġpassing": 4316,
    "Ġarchitect": 977,
    "formity": 10278,
    "atter": 650,
    "Ġdeg": 3280,
    "importance": 9988,
    "mass": 12487,
    "Ġcompl": 3761,
    "terrific": 25040,
    "elder": 21569,
    "devil": 7894,
    "Ġwaxed": 21296,
    "Ġvirtuous": 14753,
    "Ġpicture": 4856,
    "Ġdeference": 10881,
    "held": 3842,
    "Ġintroduction": 8970,
    "Ġwaistcoat": 12268,
    "Ġzigzag": 26272,
    "dissatisfied": 26612,
    "Ġsupposition": 9816,
    "itions": 4149,
    "urg": 8141,
    "relig": 15511,
    "Ġdecided": 5471,
    "Ġleather": 7608,
    "uck": 1235,
    "Ġimminent": 11244,
    "bots": 10082,
    "success": 6710,
    "andish": 18153,
    "Ġhol": 1181,
    "engagement": 14458,
    "Ġfortunate": 6214,
    "dance": 17519,
    "mody": 16188,
    "Ġpolynes": 16077,
    "Ġhope": 1788,
    "maid": 8553,
    "Ġalas": 5921,
    "Ġsurely": 6307,
    "Ġdozing": 22240,
    "arity": 1301,
    "ieged": 22575,
    "Ġthrills": 24542,
    "Ġstoutly": 16924,
    "Ġcommissionaire": 17000,
    "cask": 12444,
    "Ġconstru": 19071,
    "und": 4089,
    "Ġalexander": 17423,
    "mercenary": 26315,
    "Ġconfounded": 16384,
    "Ġwhat": 599,
    "rain": 462,
    "Ġinfallible": 15069,
    "od": 355,
    "colnett": 19329,
    "Ġfrosty": 14933,
    "kicked": 20942,
    "Ġfaces": 6008,
    "Ġvii": 13107,
    "Ġstump": 7604,
    "Ġrelied": 16193,
    "Ġridicule": 13511,
    "Ġdiscover": 4717,
    "ike": 5000,
    "atics": 15521,
    "Ġcomparative": 10542,
    "Ġcombined": 8547,
    "Ġactiv": 834,
    "jer": 12478,
    "Ġfigure": 4207,
    "Ġanimate": 23421,
    "oquence": 11386,
    "Ġdilatory": 24705,
    "Ġjoin": 4853,
    "Ġarrog": 18337,
    "Ġdreams": 7498,
    "Ġbrewed": 23344,
    "wife": 8100,
    "Ġgrudge": 20692,
    "Ġrifts": 21972,
    "Ġvacancies": 24345,
    "Ġcanes": 22161,
    "Ġintention": 5638,
    "Ġmutinous": 23955,
    "all": 485,
    "Ġbrilliantly": 25120,
    "Ġnames": 4533,
    "isms": 12577,
    "problem": 25244,
    "Ġsubterranean": 13610,
    "Ġobligation": 13242,
    "prop": 1004,
    "Ġsituated": 9446,
    "Ġdut": 2987,
    "Ġissues": 9541,
    "Ġwriting": 4667,
    "Ġpotential": 3618,
    "row": 1064,
    "doing": 8584,
    "Ë": 140,
    "Ġforeb": 12002,
    "Ġbarbaric": 10013,
    "Ġwrapping": 19774,
    "mile": 17597,
    "Ġload": 14145,
    "Ġcandid": 4101,
    "Ġboone": 11839,
    "Ġdownstream": 3778,
    "Ġextremity": 8988,
    "liament": 16216,
    "Ġdescended": 7429,
    "roses": 17956,
    "estinated": 15918,
    "ters": 1576,
    "Ġlarge": 1063,
    "Ġtightly": 13533,
    "peare": 18910,
    "Ġsubject": 2468,
    "Ġheal": 21678,
    "iffe": 21899,
    "Ġshells": 20362,
    "Ġhowever": 1303,
    "Ġperempt": 13672,
    "Ġstare": 10864,
    "flo": 6114,
    "Ġvesuvius": 26501,
    "Ġunfathom": 14788,
    "Ġsums": 2904,
    "Ġfilm": 23922,
    "Ġplaint": 10325,
    "Ġcommended": 18656,
    "Ġgodly": 19080,
    "Ġdefinitions": 22941,
    "igner": 21699,
    "Ġpup": 12616,
    "Ġprovoking": 16743,
    "solitary": 14501,
    "Ġtropic": 17065,
    "Ġrevers": 21661,
    "Ġseasonable": 24406,
    "didn": 9006,
    "crimin": 17508,
    "bulk": 19923,
    "Ġnormalizes": 1865,
    "Ġalive": 4399,
    "transom": 19734,
    "Ġanimating": 23422,
    "Ġchilly": 25562,
    "pun": 9617,
    "Ġtree": 5284,
    "Ġwanderings": 20142,
    "Ġapproved": 16033,
    "Ġderick": 9363,
    "Ġmysteriously": 24601,
    "Ġscarlet": 13221,
    "deepest": 22833,
    "allions": 22195,
    "dually": 3282,
    "revealed": 20414,
    "served": 5043,
    "ifling": 15780,
    "Ġconscience": 6929,
    "stretching": 20497,
    "chanced": 18809,
    "sister": 5139,
    "ogne": 12937,
    "Ġadvent": 4358,
    "Ġcautiousness": 19865,
    "Ġmount": 7363,
    "Ġrepose": 6741,
    "plutarch": 21954,
    "Ġperils": 6273,
    "sticking": 21657,
    "ship": 1391,
    "Ġunion": 6839,
    "89": 20758,
    "Ġenglish": 3613,
    "Ġross": 2765,
    "velling": 14760,
    "Ġshrinking": 14803,
    "Ġforging": 18093,
    "Ġgathered": 8442,
    "Ġjud": 3357,
    "Ġsuperfluous": 17413,
    "mews": 22712,
    "rapidly": 15242,
    "Ġlinks": 13954,
    "Ġenveloped": 12206,
    "Ġswamp": 14435,
    "Ġmonth": 2851,
    "Ġsquaw": 22836,
    "Ġresist": 7915,
    "dist": 4481,
    "Ġboisterous": 20441,
    "Ġ42": 16678,
    "Ġvaluable": 5608,
    "Ġrestricted": 19023,
    "Ġcruc": 16534,
    "Ġpoultry": 17440,
    "garity": 17554,
    "Ġnich": 21517,
    "Ġillust": 8262,
    "elfth": 22366,
    "sphere": 22730,
    "Ġland": 1997,
    "oped": 6046,
    "Ġscaffold": 18401,
    "exceed": 7910,
    "Ġunaccountably": 26515,
    "Ġthoughtlessness": 16192,
    "Ġwester": 25152,
    "Ġafore": 10758,
    "Ġfanned": 19099,
    "warnings": 20350,
    "Ġplug": 17147,
    "Ġlandau": 16418,
    "Ġsacrificed": 17421,
    "Ġpostponed": 20388,
    "rants": 13777,
    "male": 15387,
    "batim": 25016,
    "unwillingness": 25802,
    "Ġauthority": 7748,
    "Ġthundering": 24291,
    "club": 26380,
    "Ġrecip": 16143,
    "pat": 10116,
    "Ġhailed": 6406,
    "instrument": 15237,
    "ective": 18174,
    "Ġimpediments": 26240,
    "Ġaux": 21198,
    "pulling": 25146,
    "Ġmatrimony": 13634,
    "Ġtortured": 14922,
    "Ġorganize": 8991,
    "Ġbeech": 18082,
    "vour": 17699,
    "Ġreproof": 24890,
    "speechless": 25395,
    "Ġcannib": 6035,
    "Ġcompan": 2173,
    "cerem": 15675,
    "collar": 19327,
    "!--": 10677,
    "icy": 6140,
    "given": 8376,
    "Ġatone": 15800,
    "Ġain": 6969,
    "Ġowners": 7664,
    "ifford": 15781,
    "Ġsplinters": 15101,
    "Ġfairest": 20461,
    "Ġexhib": 6349,
    "thirds": 25046,
    "Ġdrew": 3535,
    "Ġcaulk": 25440,
    "attain": 21260,
    "Ġpeaking": 22687,
    "Ġjudged": 12081,
    "clusion": 16303,
    "Ġsymmetry": 20364,
    "Ġstatistical": 11104,
    "Ġhorses": 6384,
    "eli": 3875,
    "âĢĻ!âĢĿ": 18173,
    "Ġrotterdam": 25475,
    "Ġpostmark": 16725,
    "Ġunderneath": 16337,
    "Ġaffronted": 22890,
    "helping": 23138,
    "Ġdecent": 10978,
    "exper": 8878,
    "Ġsnarl": 25715,
    "Ġarom": 15491,
    "Ġcher": 6129,
    "impossible": 8823,
    "Ġdives": 17890,
    "ssed": 3736,
    "Ġwears": 10240,
    "hear": 10146,
    "Ġcalmer": 23037,
    "earn": 10696,
    "Ġsteamer": 17188,
    "scratch": 26044,
    "Ġspinal": 12300,
    "intense": 22933,
    "Ġhereabouts": 12975,
    "etuous": 21580,
    "Ġlinn": 13952,
    "Ġfr": 1694,
    "mentioned": 10623,
    "uming": 8491,
    "oned": 4630,
    "Ġunstructure": 2993,
    "eel": 11483,
    "Ġproposition": 23248,
    "Ġhandsomer": 20332,
    "Ġthat": 335,
    "Ġmemory": 2276,
    "sink": 11521,
    "Ġreliable": 18776,
    "Ġrestless": 10412,
    "Ġr": 404,
    "Ġwalled": 15533,
    "Ġkeels": 11061,
    "Ġpreposter": 12819,
    "Ġcrystall": 20225,
    "Ġsworn": 14434,
    "dignity": 15344,
    "iding": 3848,
    "scap": 22987,
    "Ġaye": 3352,
    "Ġexploration": 2337,
    "Ġpaddled": 20200,
    "Ġexcessive": 3895,
    "Ġdangers": 12352,
    "Ġalt": 18098,
    "business": 5610,
    "Ġdoom": 6416,
    "Ġmajority": 13291,
    "Ġand": 295,
    "Ġsermon": 12374,
    "Ã¦st": 24175,
    "pause": 12498,
    "Ġdeity": 18134,
    "Ġbattery": 21392,
    "aw": 1449,
    "Ġdisposing": 19373,
    "mbl": 5945,
    "Ġro": 605,
    "star": 12669,
    "°": 113,
    "sombre": 23852,
    "Ġclum": 8872,
    "Ġterritories": 23843,
    "Ġjustice": 5111,
    "Ġfeverish": 11348,
    "tone": 8762,
    "long": 2913,
    "itation": 1779,
    "bound": 6220,
    "Ġdimensions": 16571,
    "agged": 9236,
    "Ġlack": 17963,
    "Ġinsists": 23676,
    "Ġkicking": 16901,
    "gainst": 25141,
    "Ġlvi": 21550,
    "Ġdomain": 3328,
    "Ġinvolving": 18761,
    "Ġodds": 13328,
    "Ġminimizing": 3463,
    "Ġtum": 5692,
    "Ġelias": 18637,
    "Ġpattering": 18651,
    "scrape": 25698,
    "atisf": 21262,
    "Ġterminating": 23509,
    "Ġbreach": 11972,
    "Ġ199": 3008,
    "Ġcheered": 16365,
    "Ġmetrics": 19031,
    "Ġcauldron": 25441,
    "bee": 16036,
    "Ġrascally": 26506,
    "portent": 25412,
    "hooked": 23714,
    "Ġomit": 17815,
    "Ġnuts": 17951,
    "Ġimmedi": 2906,
    "Ġpride": 3825,
    "Ġcreditor": 24290,
    "Ġabreast": 18394,
    "Ġsubmitted": 11869,
    "Ġwarmed": 12022,
    "imely": 13997,
    "Ġoffences": 18692,
    "Ġintolerably": 15827,
    "Ġliterature": 17148,
    "Ġdiscovers": 4429,
    "Ġvillain": 8635,
    "everlasting": 18771,
    "comm": 7440,
    "Ġprecip": 7074,
    "Ġaware": 5756,
    "Ġsales": 12804,
    "Ġrug": 16155,
    "foolish": 12345,
    "Ġ184": 16607,
    "Ġcategorization": 12134,
    "abominable": 20592,
    "Ġhosts": 19937,
    "deser": 10402,
    "Ġblan": 18816,
    "Ġrolled": 4431,
    "wondrous": 12336,
    "untering": 15773,
    "Ġrefres": 14344,
    "Ġmouthful": 16574,
    "Ġspy": 22120,
    "Ġseverely": 14931,
    "Ġideas": 5494,
    "Ġwashed": 15762,
    "Ġchurning": 15935,
    "Ġbamboo": 17436,
    "Ġchurned": 18385,
    "Ġsimultaneously": 4312,
    "ober": 15405,
    "Ġdiabol": 11453,
    "eminence": 20097,
    "meat": 18678,
    "Ġshan": 9248,
    "Ġtea": 5041,
    "Ġworry": 18815,
    "Ġtakes": 5007,
    "Ġher": 427,
    "Ġjen": 9266,
    "Ġdolph": 12378,
    "Ġgunwale": 7326,
    "pitching": 24075,
    "ese": 4445,
    "Ġdesolation": 12266,
    "Ġmccarthy": 5145,
    "Ġbecher": 18879,
    "erity": 21266,
    "ass": 536,
    "Ġwhilst": 9218,
    "opy": 4459,
    "solitude": 23291,
    "Ġk": 484,
    "Ġtall": 4040,
    "Ġdining": 6977,
    "unlike": 18156,
    "Ġbenjamin": 26567,
    "Ġperfections": 23607,
    "Ġprayed": 16667,
    "iscuit": 10598,
    "rs": 7807,
    "Ġtwisted": 7229,
    "hest": 3368,
    "preservation": 25305,
    "Ġtrack": 7451,
    "Ġchoking": 15932,
    "Ġlowerings": 23648,
    "V": 58,
    "Ġcircumnav": 12424,
    "Ġindividual": 5744,
    "Ġspectator": 19404,
    "Ġselects": 4386,
    "Ġzoology": 22818,
    "quod": 2164,
    "hence": 16624,
    "Ġdemocracy": 25458,
    "Ġtests": 8956,
    "glimmer": 26321,
    "mountains": 15179,
    "Ġsmote": 18574,
    "Ġmornings": 16235,
    "ĠĠĠĠĠĠĠĠĠĠĠĠĠĠĠĠĠĠĠĠĠĠĠĠĠĠĠĠĠĠĠĠĠĠĠ": 19257,
    "haired": 14764,
    "brevi": 24073,
    "Ġinterested": 6457,
    "back": 2017,
    "Ġwater": 1949,
    "fellow": 6792,
    "cock": 12024,
    "Ġprevailing": 24673,
    "Ġounce": 15271,
    "unaffected": 21880,
    "coronet": 16863,
    "tles": 10730,
    "Ġmoran": 9341,
    "Ġflirting": 16247,
    "Ġschools": 9476,
    "Ġcontemplated": 13463,
    "Ġplucked": 15112,
    "Ġsolemn": 4102,
    "Ġeurope": 8061,
    "Ġnatural": 1140,
    "overing": 6306,
    "sixty": 24852,
    "estim": 14168,
    "Ġmult": 1022,
    "bale": 20773,
    "Ġtra": 1384,
    "Ġdiscovering": 13356,
    "Ġworshipper": 25692,
    "immed": 9217,
    "produ": 10720,
    "Ġcooking": 16646,
    "istered": 14144,
    "beth": 13687,
    "Ġdecomposition": 5342,
    "drunk": 24659,
    "entary": 21564,
    "z": 94,
    "Ġcond": 3877,
    "indispensable": 14209,
    "Ġprocure": 9509,
    "Ġprow": 6684,
    "Ġcobweb": 22583,
    "Ġcared": 8782,
    "Ġjoking": 12834,
    "Ġprevent": 756,
    "Ġproportions": 16467,
    "Ġmannish": 26237,
    "Ġcau": 13880,
    "Ġgash": 15668,
    "Ġtashtego": 4487,
    "Ġghosts": 12230,
    "wol": 21121,
    "delighted": 10562,
    "Ġcomes": 3422,
    "Ġitaly": 10867,
    "Ġspots": 11727,
    "Ġapo": 9630,
    "Ġrelig": 8550,
    "wled": 15453,
    "Ġshop": 9251,
    "lively": 12482,
    "Ġrese": 2169,
    "Ġimbedded": 18332,
    "folding": 24927,
    "Ġdone": 1817,
    "Ġmilk": 6484,
    "Ġstreets": 5863,
    "Ġarsacides": 17293,
    "Ġcapting": 23017,
    "fire": 6357,
    "Ġsocket": 12781,
    "dug": 18457,
    "Ġnewcom": 16220,
    "Ġpaws": 13920,
    "Ġmidnight": 5265,
    "advance": 12154,
    "Ġdominion": 16514,
    "Ġas": 374,
    "uiperai": 10663,
    "âĢĻâĢĶ": 12734,
    "Ġel": 802,
    "Ġstim": 18063,
    "Ġheartless": 13071,
    "Ġporpoise": 7106,
    "Ġcrushing": 20175,
    "ta": 13788,
    "neighbours": 24881,
    "Ġheartily": 6890,
    "ulls": 8837,
    "showing": 22453,
    "Ġjet": 5307,
    "Ġcascade": 20579,
    "Ġproof": 6153,
    "Ġconceived": 8149,
    "lutions": 20949,
    "Ġrumpled": 24600,
    "orated": 12588,
    "Ġinvader": 23478,
    "Ġafternoon": 6052,
    "wild": 8766,
    "Ġassertion": 13488,
    "waited": 24585,
    "sinking": 17668,
    "Ġvent": 3999,
    "Ġbeneath": 3234,
    "ician": 21562,
    "Ġdeceive": 12719,
    "Ġconsumm": 15153,
    "Ġboston": 22638,
    "ination": 2914,
    "etite": 21576,
    "harpo": 4805,
    "Ġillustrate": 25065,
    "Ġdied": 4113,
    "Ġdistracted": 11802,
    "sword": 10726,
    "Ġtr": 553,
    "currents": 23842,
    "ignominious": 26587,
    "Ġrome": 12153,
    "oking": 4606,
    "Ġconstantinople": 19836,
    "thankful": 16806,
    "rubbed": 22187,
    "blister": 24128,
    "Ġspilling": 22134,
    "Ġbefall": 8828,
    "Ġquit": 5245,
    "cl": 1494,
    "Ġgreat": 896,
    "Ġcompre": 4449,
    "recollection": 25348,
    "Ġfootsteps": 16572,
    "Ġmechan": 1192,
    "Ġliberally": 16830,
    "nurse": 15207,
    "Ġaltogether": 4831,
    "orters": 21399,
    "thing": 1481,
    "libr": 22920,
    "Ġshrivelled": 19702,
    "Ġrepositories": 23362,
    "expected": 5780,
    "Ġsurf": 19131,
    "Ġsim": 735,
    "Ġcomprising": 16066,
    "Ġbeloved": 5572,
    "erm": 790,
    "belonged": 25597,
    "Ġdispute": 16053,
    "Ġindign": 6173,
    "gaz": 20877,
    "Ġblueprints": 13170,
    "range": 3492,
    "Ġcoroner": 7512,
    "'t": 3141,
    "Ġsyrian": 18354,
    "Ġdecap": 16018,
    "ook": 21003,
    "attend": 11101,
    "Ġjoyful": 13219,
    "barrow": 15320,
    "angs": 5834,
    "hecy": 21205,
    "Ġscarcity": 23824,
    "agitation": 14067,
    "cnns": 3620,
    "Ġcensus": 15095,
    "thoughtfully": 24043,
    "Ġfast": 1716,
    "Ġsagittarius": 24732,
    "Ġcopied": 20006,
    "backed": 9865,
    "consum": 12867,
    "tumbled": 21089,
    "Ġbanks": 6814,
    "Ġeddystone": 25709,
    "disgu": 19153,
    "Ġcongen": 10873,
    "machines": 8384,
    "Ġfoliage": 18867,
    "Ġneedlessly": 23628,
    "Ġpal": 4043,
    "Ġzeros": 3322,
    "âĢľâĢĶ": 10872,
    "Ġboister": 12917,
    "twice": 14620,
    "judging": 24201,
    "painted": 17639,
    "nades": 20996,
    "Ġsuffoc": 18870,
    "solution": 14685,
    "latter": 15381,
    "avoiding": 25236,
    "Ġeconomy": 17200,
    "Ġencoun": 4512,
    "meditation": 19068,
    "Ġoffending": 22736,
    "Ġheedless": 14901,
    "Ġascended": 8665,
    "Ġencl": 16163,
    "Ġla": 5912,
    "Ġchance": 3315,
    "Ġtour": 9147,
    "Ġ5": 4935,
    "Ġdiscriminative": 4328,
    "Ġdisplay": 6427,
    "countryman": 24639,
    "Ĭ": 237,
    "Ġlegs": 4916,
    "remental": 21246,
    "longer": 8612,
    "ifers": 15779,
    "unciation": 25982,
    "mosphere": 10042,
    "Ġconcussion": 26299,
    "develop": 13517,
    "Ġfrighted": 24028,
    "Ġbucket": 8787,
    "Ġstamping": 20029,
    "Ġactionable": 24559,
    "Ġdeliberation": 19967,
    "Ġeye": 2281,
    "Ġscreaming": 13422,
    "Ġbarbarous": 13475,
    "mend": 20965,
    "hyme": 19608,
    "đ": 210,
    "offing": 23331,
    "speeches": 25239,
    "Ġsavannah": 17415,
    "Ġaid": 6122,
    "Ġstubb": 1785,
    "Ġselect": 4000,
    "Ġtipt": 21172,
    "yn": 7819,
    "Ġmisery": 3816,
    "yesterday": 10352,
    "Ġcous": 3435,
    "Ġext": 893,
    "Ġmand": 21303,
    "ppery": 10892,
    "Ġtarpaul": 17730,
    "Ġfact": 1729,
    "Ġnour": 10830,
    "Ġarri": 2556,
    "agers": 5633,
    "Ġtend": 6120,
    "memory": 13616,
    "desolate": 25703,
    "Ġclutch": 15053,
    "cab": 7334,
    "Ġdescribe": 2766,
    "onah": 3336,
    "Ġusual": 3945,
    "Ġdistinguished": 8272,
    "Ġsemicircle": 26068,
    "Ġjava": 12310,
    "anywhere": 14681,
    "Ġsubord": 22785,
    "Ġghostliness": 24651,
    "happ": 3098,
    "Ġcovariate": 2351,
    "Ġimpunity": 14215,
    "childhood": 16868,
    "Ġaids": 12226,
    "proportions": 22821,
    "u": 89,
    "Ġfresh": 3669,
    "Ġpawn": 12061,
    "strade": 5065,
    "Ġcomb": 1048,
    "Ġpresumption": 10545,
    "Ġappeal": 16314,
    "Ġvirt": 3910,
    "animal": 16978,
    "Ġdried": 7368,
    "thole": 21983,
    "note": 14339,
    "adier": 18089,
    "slept": 17169,
    "Ġgros": 14821,
    "eff": 2537,
    "Ġchinese": 14183,
    "Ġunra": 18234,
    "Ġmisled": 22756,
    "Ġexordium": 26492,
    "Ġimpart": 11778,
    "Ġreproachfully": 25251,
    "Ġintending": 11702,
    "Ġcould": 703,
    "Ġgarden": 3828,
    "reserved": 13842,
    "Ġtoday": 12640,
    "Ġesquimaux": 25150,
    "Ġharbour": 19978,
    "Ġhail": 7401,
    "sey": 5543,
    "Ġwind": 1430,
    "ating": 664,
    "blooded": 20021,
    "Ġfrogs": 23920,
    "Ġvessels": 6755,
    "isher": 2879,
    "Ġpermanent": 13630,
    "Ġlists": 11166,
    "maybe": 23989,
    "Ġcentrally": 23829,
    "Ġseconds": 16398,
    "cooper": 19189,
    "Ġunfeeling": 14117,
    "Ġfaultless": 24540,
    "Ġmusk": 7496,
    "aving": 2408,
    "Ġhushed": 13924,
    "nuee": 17429,
    "tered": 2231,
    "Ġcompliance": 12112,
    "happy": 4426,
    "winding": 16720,
    "Ġchocks": 13344,
    "Ġdiab": 10611,
    "Ġdetermined": 2222,
    "Ġbead": 21747,
    "Ġcertainty": 6734,
    "Ġthorough": 6245,
    "Ġallows": 3230,
    "Ġproprietor": 12371,
    "Ġswords": 19896,
    "Ġpalpit": 16691,
    "persu": 8027,
    "Ġum": 10211,
    "separ": 9230,
    "Ġresembling": 4100,
    "windows": 19533,
    "infliction": 25924,
    "cible": 20805,
    "sing": 5138,
    "Ġfate": 4753,
    "Ġdecl": 3588,
    "Ġverge": 23885,
    "Ġshin": 18227,
    "Ġlate": 3377,
    "Ġpleasures": 11143,
    "Ġtidings": 11397,
    "stripped": 16945,
    "Ġsiberia": 26161,
    "imperturbable": 25790,
    "fier": 9593,
    "Ġcranes": 20381,
    "Ġtig": 13812,
    "Ġboxes": 13373,
    "Ġprocuring": 16870,
    "Ġresent": 6048,
    "Ġarches": 14160,
    "ī": 236,
    "confusion": 13368,
    "O": 51,
    "Ġsuspecting": 14908,
    "ys": 3961,
    "Ġexecutors": 19532,
    "Ġauthoritative": 19560,
    "Ġshore": 4834,
    "Ġshare": 1657,
    "Ġaffl": 14385,
    "mph": 20971,
    "https": 11683,
    "pass": 4292,
    "Ġindignantly": 16939,
    "Ġexchange": 15751,
    "dancing": 12452,
    "Ġdisagreeable": 9297,
    "attending": 18916,
    "Ġopal": 23624,
    "ravelled": 18014,
    "owner": 18612,
    "sand": 21051,
    "plicable": 10255,
    "Ġfail": 4150,
    "Ġgovernor": 16489,
    "thyself": 19297,
    "ishments": 9272,
    "Ġluxury": 20130,
    "Ġsupre": 10270,
    "Ġstride": 22613,
    "Ġcontract": 18475,
    "Ġviewing": 19264,
    "eng": 1489,
    "Ġwoe": 4792,
    "sign": 8387,
    "err": 1139,
    "Ġsoundings": 13132,
    "Ġsignify": 16493,
    "Ġimprove": 1855,
    "itig": 1328,
    "causes": 20342,
    "render": 10290,
    "Ġforemast": 12004,
    "Ġcombine": 4416,
    "expectant": 24275,
    "elijah": 19471,
    "Ġcustoms": 19651,
    "Ġfruits": 17118,
    "Ġsympathies": 14859,
    "Ġwickedness": 9525,
    "venant": 22624,
    "Ġfeelings": 2457,
    "bermaid": 20789,
    "Ġhorrors": 10479,
    "Ġcaution": 11346,
    "Ġreader": 11932,
    "guess": 14759,
    "Ġsundry": 20072,
    "agos": 21901,
    "aulets": 18621,
    "harm": 13734,
    "Ġchoice": 2165,
    "ners": 3270,
    "Ġcordage": 19677,
    "vol": 730,
    "calling": 12447,
    "rippling": 24714,
    "Ġaffording": 14819,
    "Ġfacet": 15582,
    "Ġconcentration": 25062,
    "Ġcomparable": 24278,
    "ue": 1178,
    "Ġspreading": 13377,
    "Ġouthouse": 22311,
    "Ġorigin": 4121,
    "Ġthick": 3785,
    "Ġname": 2084,
    "Ġproceeds": 12075,
    "Ġwander": 9031,
    "cost": 19186,
    "regret": 16451,
    "Ġimputable": 22170,
    "learnt": 23467,
    "Ġaloud": 6252,
    "iot": 9600,
    "entimes": 12653,
    "Ġpenny": 16313,
    "Ġcomparing": 14264,
    "Ġnobleman": 19390,
    "Ġdisgusted": 14989,
    "perse": 15893,
    "Ġcarved": 7946,
    "Ġmerest": 14029,
    "acqu": 4842,
    "Ġimpreg": 15985,
    "notice": 16145,
    "Ġgraph": 10902,
    "Ġmadam": 5663,
    "Ġterms": 2565,
    "lovely": 16044,
    "Ġdisreputable": 22531,
    "Ġvertical": 16604,
    "Ġcampaign": 20660,
    "Ġproced": 2581,
    "S": 55,
    "Ġindestructible": 26572,
    "Ġtraffic": 23080,
    "rrh": 26144,
    "Ġdisdained": 15009,
    "Ġdiscourage": 3111,
    "raved": 18012,
    "Ġtwee": 22672,
    "efficient": 2872,
    "Ġunrecord": 16621,
    "last": 3805,
    "Ġrevolutions": 23839,
    "mical": 9128,
    "Ġpersist": 16267,
    "Ġscar": 3207,
    "Ġflail": 23004,
    "Ġeucl": 24709,
    "Ġtreasure": 9558,
    "cement": 3238,
    ",*": 17471,
    "Ġromantic": 8030,
    "insufferable": 21191,
    "daw": 17522,
    "elastic": 17980,
    "Ġmumbling": 11573,
    "Ġold": 1057,
    "Ġrenowned": 26193,
    "Ġ25": 13193,
    "lanter": 15386,
    "Ġyankees": 26201,
    "Ġdoctrine": 24197,
    "Ġaffairs": 6877,
    "Ġhauled": 11692,
    "Ġavalanche": 17432,
    "heav": 5694,
    "Ġgrim": 7442,
    "burned": 25079,
    "sleepy": 24729,
    "oun": 482,
    "Ġpurpose": 2708,
    "vis": 4577,
    "birds": 15143,
    "univers": 15769,
    "accur": 14592,
    "Ġgobern": 22422,
    "Ġdesper": 6176,
    "Ġshowing": 7731,
    "Ġemig": 14523,
    "Ġhey": 11640,
    "Ġrequested": 14300,
    "Ġcertainly": 2500,
    "Ġdecomposes": 5506,
    "Ġperse": 6272,
    "ulsive": 10233,
    "Ġconvolutional": 2162,
    "hypothe": 25905,
    "Ġsurp": 9634,
    "Ġrubbing": 9320,
    "Ġcontrols": 1734,
    "suggested": 17298,
    "fle": 7128,
    "Ġdisregarded": 22527,
    "Ġdisenc": 22523,
    "sell": 13780,
    "iancy": 13006,
    "Ġjoosy": 23630,
    "composed": 14738,
    "market": 16839,
    "Ġnonce": 23232,
    "Ġyork": 11664,
    "Ġafresh": 18627,
    "Ġabsolutely": 4857,
    "Ġtrout": 22351,
    "directed": 20403,
    "sion": 8093,
    "Ġwant": 1119,
    "does": 6194,
    "Ġunicorn": 22052,
    "furthest": 19840,
    "wig": 17704,
    "Ġtang": 13813,
    "Ġano": 11595,
    "Ġlimping": 23545,
    "Ġleaking": 21742,
    "Ġbecoming": 4398,
    "Ġadvise": 7935,
    "Ġcabs": 23639,
    "id": 338,
    "content": 11198,
    "represented": 20194,
    "Ġseemingly": 9317,
    "Ġstowed": 21733,
    "Ġrealise": 16336,
    "maltese": 24795,
    "ulum": 21860,
    "educated": 17259,
    "Ġgunwales": 12238,
    "Ġhatter": 4114,
    "Ġmistake": 6203,
    "ulation": 5458,
    "Ġsuspected": 9062,
    "Ġblemish": 19678,
    "Ġpale": 4532,
    "Ġwinc": 9642,
    "Ġcruisings": 25864,
    "Ġcold": 3029,
    "Ġstiffest": 24829,
    "succeed": 10328,
    "Ġcorrob": 16260,
    "Ġperiod": 4005,
    "distance": 12150,
    "Ġdissu": 18549,
    "ef": 5134,
    "Ġsallies": 21228,
    "Ġtying": 15472,
    "Ġ92": 24590,
    "Ġanno": 9667,
    "Ġastern": 6090,
    "brit": 19197,
    "Ġparticular": 2453,
    "Ġunconsciously": 10004,
    "br": 2481,
    "\",": 10678,
    "Ġtangled": 13826,
    "Ġtempted": 9056,
    "Ġawakened": 10453,
    "Ġbourgh": 5069,
    "Ġdeliber": 7269,
    "itance": 13867,
    "Ġstones": 9221,
    "Ġklux": 22192,
    "Ġguilty": 7251,
    "Ġsubmerged": 11870,
    "inuating": 16201,
    "Ġhovel": 8253,
    "dried": 20826,
    "Ġlogs": 16345,
    "Ġheadlands": 22894,
    "Ġlayer": 1011,
    "Ġleaky": 2347,
    "escript": 18471,
    "Ġhypothe": 4075,
    "islanders": 25442,
    "Ġstir": 5823,
    "Ġmethinks": 10390,
    "avating": 18605,
    "Ġhind": 9188,
    "Ġsecond": 1892,
    "Ġcastor": 19425,
    "Ġbuff": 9172,
    "Ġperfidious": 25666,
    "capital": 15087,
    "Ġfurled": 22811,
    "Ġseeks": 14302,
    "Ġcondense": 21805,
    "Ġfainter": 14912,
    "Ġfrost": 6095,
    "Ġpronounced": 8350,
    "tempered": 13445,
    "Ġcooked": 13267,
    "Ŀ": 256,
    "Ġop": 2603,
    "Ġblunt": 11892,
    "Ġgeneralize": 3095,
    "Ġconfidential": 9087,
    "Ġmuttering": 10499,
    "Ġinvestig": 10549,
    "Ġatrocious": 21940,
    "Ġhousekeeper": 7457,
    "Ġdreaminess": 23937,
    "crowning": 25748,
    "Ġimpertin": 6933,
    "Ġovercame": 9745,
    "Ġheedfulness": 24522,
    "Ġlav": 13949,
    "lied": 6506,
    "Ġinsc": 7587,
    "Ġcongealed": 25981,
    "Ġbeckoned": 25793,
    "Ġseethings": 26503,
    "Ġcrowding": 13278,
    "Ġsacrific": 15017,
    "Ġheadstrong": 14387,
    "Ġsmelt": 16063,
    "ğ": 224,
    "Ġdur": 11591,
    "Ġern": 8396,
    "hing": 982,
    "osque": 22259,
    "Ġaxe": 15061,
    "Ġchilled": 18382,
    "Ġinde": 7372,
    "erest": 10697,
    "cries": 17510,
    "aret": 7418,
    "orne": 17872,
    "esc": 617,
    "Ġpettic": 14839,
    "Ġstraightened": 12106,
    "Ġlately": 6386,
    "Ġblame": 6445,
    "Ġdistances": 22501,
    "midnight": 14900,
    "Ġinforming": 18742,
    "Ġsurmisings": 26593,
    "Ġnorthumbria": 24171,
    "urn": 776,
    "dham": 20829,
    "Ġgeological": 14532,
    "shut": 10980,
    "Ġcomprehended": 11294,
    "Ġwond": 3941,
    "Ġcoffee": 6760,
    "vessels": 10625,
    "roqu": 21531,
    "Ġspitzbergen": 15286,
    "Ġbreathlessly": 24280,
    "je": 11495,
    "oing": 15400,
    "Ġlifts": 25358,
    "died": 10693,
    "Ġincessantly": 11411,
    "Ġcloser": 8659,
    "Ġadro": 15865,
    "Ġsaville": 15887,
    "Ġmarriage": 3184,
    "reproach": 15185,
    "Ġdeigned": 18138,
    "Ġmonsieur": 12419,
    "Ġpope": 11601,
    "eag": 20841,
    "Ġmetaphysical": 26066,
    "Ġwhel": 15864,
    "london": 9609,
    "Ġwast": 21857,
    "Ġhighland": 18708,
    "Ġra": 812,
    "Ġhud": 10822,
    "Ġtahiti": 13618,
    "Ġjavelin": 26104,
    "Ġcousin": 3704,
    "itten": 3439,
    "Ġvolumes": 14798,
    "Ġpalaces": 24091,
    "Ġredress": 23750,
    "Ġtoilet": 13936,
    "Ġdest": 2237,
    "Ġunmanner": 22024,
    "ims": 7177,
    "resemblance": 25933,
    "beh": 5472,
    "Ġumbrella": 15264,
    "Ġstroll": 13351,
    "Ġscandinavian": 26344,
    "outside": 12801,
    "sme": 17658,
    "Ġwrinkled": 7265,
    "Ġglad": 3324,
    "Ġoutriders": 26543,
    "beauty": 20102,
    "Ġugl": 12679,
    "Ġsteed": 13038,
    "accomplishment": 20222,
    "Ġpassionate": 11273,
    "Ġrelieve": 8223,
    "Ġguineas": 16266,
    "Ġinsipid": 26313,
    "atives": 2236,
    "Ġstands": 5258,
    "Ġfrantic": 7956,
    "tr": 3577,
    "Î": 143,
    "eringly": 23000,
    "Ġgowns": 25359,
    "Ġwired": 17786,
    "Ġloses": 15871,
    "Ġlance": 4879,
    "Ġsummar": 3524,
    "atching": 8201,
    "obey": 11509,
    "Ġnarrative": 6215,
    "Ġintroducing": 11974,
    "Ġreverber": 19868,
    "Ġdairy": 20685,
    "Ġbehavioral": 11396,
    "uberance": 25916,
    "thoroughly": 26508,
    "Ġpivot": 13922,
    ".âĢĿ": 464,
    "surrounded": 26088,
    "ignific": 11954,
    "contrast": 25594,
    "ificant": 22203,
    "Ú": 155,
    "Ġchanced": 8186,
    "Ġknot": 7011,
    "Ġspam": 7632,
    "Ġgnarled": 25165,
    "Ġfinanc": 23124,
    "Ġlibr": 15996,
    "Ġpron": 6450,
    "kitchen": 17585,
    "Ġbreaks": 13184,
    "Ġpatience": 2946,
    "lotts": 23823,
    "ensing": 12893,
    "ac": 742,
    "Ġbleeds": 24397,
    "[": 63,
    "Ġexamination": 8004,
    "decor": 23778,
    "helped": 18923,
    "Ġobstetrics": 24678,
    "Ġoverflow": 10292,
    "Ġsurvive": 9066,
    "Ġfurrow": 22812,
    "Ġtransparent": 9488,
    "Ġcolt": 11044,
    "Ġabstained": 25231,
    "Ġindications": 14631,
    "rannical": 26401,
    "Ġvoracity": 25986,
    "Ġcaged": 21350,
    "Ġblind": 3716,
    "terror": 18128,
    "sledge": 21056,
    "aguy": 21907,
    "Ġcape": 5146,
    "Ġref": 933,
    "Ġrejoicing": 13420,
    "unched": 10235,
    "bul": 6951,
    "imental": 16532,
    "Ġinquis": 19303,
    "Ġfull": 2177,
    "someone": 14562,
    "Ġpersisted": 13033,
    "Ġassu": 21894,
    "fellows": 12271,
    "shud": 18488,
    "Ġcellar": 8058,
    "usal": 7640,
    "Ġgently": 7172,
    "tisement": 6767,
    "progra": 9394,
    "Ġsmokes": 22556,
    "makes": 10711,
    "Ġcracked": 8594,
    "eping": 5833,
    "Ġmultiplied": 23688,
    "ads": 5718,
    "Ġmaj": 3929,
    "Ġfollowed": 1793,
    "asp": 3339,
    "Ġproducing": 11897,
    "Ġhedgehog": 10644,
    "Ġmagistrate": 8233,
    "Ġrecall": 3857,
    "Ġ47": 14769,
    "Ġreplen": 11115,
    "Ġremembr": 24170,
    "delirium": 14783,
    "atered": 22004,
    "Ġeyeing": 6459,
    "Ġdece": 6996,
    "Ġprompt": 3185,
    "Ġrespectively": 23247,
    "ven": 780,
    "taste": 10129,
    "Ġforgery": 25977,
    "senses": 25022,
    "Ġharvest": 13414,
    "Ġbrighter": 16185,
    "Ġblackest": 19098,
    "humor": 19450,
    "manned": 18763,
    "Ġmissing": 6175,
    "apprehens": 17405,
    "sery": 17661,
    "acters": 9308,
    "Ġtester": 21171,
    "Ġquakers": 22408,
    "domestic": 19824,
    "pemberley": 9620,
    "Ġdrama": 16328,
    "Ġjac": 1898,
    "Ġlaudanum": 20689,
    "Ġattentions": 5877,
    "Ġdiadem": 24741,
    "Ġsensible": 4976,
    "Ġsaved": 6690,
    "aze": 10074,
    "ly": 319,
    "Ġlaughing": 5338,
    "Ġczar": 12571,
    "practical": 17221,
    "oup": 2015,
    "returning": 12203,
    "Ġcoars": 14270,
    "regularization": 3513,
    "Ġarched": 10932,
    "Ġpaints": 23522,
    "Ġsneeze": 24699,
    "unctions": 18155,
    "84": 15300,
    "destroy": 19509,
    "Ġfetched": 24567,
    "Ġerad": 25028,
    "shaken": 16021,
    "Ġcircumstantial": 14642,
    "Ġtrad": 9827,
    "acknowledge": 18468,
    "break": 6101,
    "Ġanswered": 2853,
    "iom": 20914,
    "Ġonto": 14027,
    "Ġmich": 21304,
    "Ġendeav": 2955,
    "Ġpretty": 3862,
    "Ġpred": 663,
    "Ġundiscovered": 18249,
    "angles": 18295,
    "stay": 9680,
    "Ġperth": 7022,
    "pour": 17630,
    "Ġamb": 9291,
    "placidity": 25988,
    "Ġmort": 3458,
    "scho": 8759,
    "Ġlac": 17964,
    "slee": 17168,
    "Ġtarpaulin": 26157,
    "Ġselfishness": 12287,
    "wn": 721,
    "Ġtimorous": 24225,
    "Ġguide": 3211,
    "Ġaqu": 17742,
    "Ġthing": 1640,
    "rese": 15507,
    "Ġfurnaces": 24004,
    "Ġcomply": 8890,
    "aiian": 23591,
    "numerous": 17430,
    "Ġarist": 14159,
    "Ġmerited": 23729,
    "jump": 10103,
    "Ġasp": 15778,
    "antage": 3881,
    "Ġcha": 6853,
    "Ġpraised": 19552,
    "storied": 18024,
    "Ġcommand": 3319,
    "Ġrespectful": 16344,
    "Ġtinged": 20081,
    "Ġshock": 6082,
    "Ġchiswick": 25560,
    "Ġcosy": 13130,
    "fatigue": 20657,
    "iated": 5889,
    "Ġenables": 725,
    "Ġdisembow": 22534,
    "traversed": 19638,
    "Ġcontrasting": 11154,
    "Ġpoles": 11003,
    "Ġsaints": 20673,
    "Ġsupreme": 13606,
    "Ġdevout": 14326,
    "Ġworkmen": 23040,
    "Ġpag": 6010,
    "Ġ130": 24781,
    "jour": 20926,
    "Ġquieted": 23840,
    "ordinary": 4408,
    "Ġviolation": 23404,
    "aster": 1869,
    "Ġenumer": 12742,
    "Ġgener": 586,
    "Ġsevent": 18202,
    "imagination": 13479,
    "Ġpratt": 23219,
    "kingly": 20938,
    "Ġarrang": 2472,
    "Ġcircumstances": 3928,
    "Ġdecorated": 22442,
    "Ġmo": 629,
    "conve": 14243,
    "Ġadding": 2405,
    "Ġnile": 21518,
    "middle": 11310,
    "ye": 1404,
    "istic": 968,
    "cottagers": 20046,
    "Ġtrance": 12838,
    "telescope": 26562,
    "Ġtakings": 20571,
    "Ġreleased": 2977,
    "Ġ52": 24321,
    "Ġwhitish": 24866,
    "Ġimitated": 18329,
    "ouncing": 8494,
    "Ġinteraction": 7425,
    "Ġfris": 23254,
    "Ġpredicts": 2595,
    "Ġdetestation": 17127,
    "rolled": 9059,
    "Ġbackstays": 22642,
    "Ġaz": 9629,
    "Ġtackle": 9512,
    "ĠâĢĶ_": 3456,
    "bug": 17492,
    "ram": 13971,
    "Ġunmo": 12769,
    "serious": 14447,
    "hurried": 11353,
    "phys": 18700,
    "iza": 6255,
    "Ġunderstand": 831,
    "omen": 4088,
    "idean": 14262,
    "Ġpersuas": 23944,
    "Ġpermit": 9748,
    "Ġlaid": 3943,
    "Ġpulpit": 7471,
    "Ġvalleys": 14917,
    "Ġsplintered": 11418,
    "Ġsitu": 3493,
    "Ġstandard": 14496,
    "Ġseeth": 21957,
    "Ġunassuming": 20507,
    "Ġslime": 23159,
    "Ġclosed": 4604,
    "Ġdaw": 21427,
    "mediate": 16512,
    "Ġpotent": 12062,
    "Ġbehave": 23293,
    "Ġclung": 10957,
    "Ġmarried": 3407,
    "Ġsalutations": 25382,
    "Ġstruck": 3389,
    "Ġsecondary": 23334,
    "enet": 10152,
    "Ġdisinterested": 16054,
    "Ġsources": 10147,
    "author": 9859,
    "powers": 25410,
    "ichever": 13956,
    "Ġsuccour": 20433,
    "alterable": 13623,
    "Ġprofounder": 23568,
    "saved": 15430,
    "much": 3706,
    "Ġgrounds": 6749,
    "calm": 8934,
    "Ġaccusations": 22376,
    "Ġspile": 22124,
    "Ġcrazy": 8593,
    "Ġmarlings": 23031,
    "itories": 15546,
    "stealthily": 23959,
    "Ġharsh": 9520,
    "Ġwhirled": 14958,
    "Ġmod": 496,
    "poling": 12217,
    "direct": 12454,
    "Ġreporting": 24657,
    "Ġexpert": 18862,
    "Ġconjure": 17123,
    "ilight": 12690,
    "Ġamericans": 14741,
    "Ġdiscomposed": 25580,
    "Ġcosmopolitan": 20640,
    "Ġburnished": 23996,
    "Ġanother": 1739,
    "Ġthough": 993,
    "Ġconsole": 8150,
    "imp": 3030,
    "Ġjing": 15947,
    "Ġbeaver": 18085,
    "Ġgodson": 23356,
    "Ġgreater": 3034,
    "ult": 723,
    "Ġabominably": 20064,
    "marvell": 24172,
    "Ġvisitors": 7984,
    "conscientious": 19625,
    "ana": 15556,
    "Ġsuperst": 7703,
    "mense": 4779,
    "Ġadmired": 7981,
    "Ġbegun": 7244,
    "Ġfor": 340,
    "blood": 7779,
    "Ġexhale": 24402,
    "articulate": 17397,
    "Ġgemin": 21607,
    "Ġconge": 15743,
    "doubtless": 17002,
    "inburgh": 15489,
    "Ġrich": 2992,
    "wearing": 22684,
    "stave": 21646,
    "Ġsurrounded": 5878,
    "escaped": 14230,
    "bishop": 13693,
    "Ġbridge": 8348,
    "Ġunostentatious": 22065,
    "Ġpasses": 2680,
    "Ġcatch": 4442,
    "waiting": 12218,
    "Ġequinoctial": 20531,
    "Ġhot": 4259,
    "watson": 12241,
    "Ġdrank": 16535,
    "Ġwrong": 4723,
    "Ġemir": 23348,
    "Ġfaced": 10808,
    "Ġcoefficient": 2885,
    "Ġjagged": 18407,
    "friendly": 13283,
    "Ġannoyance": 20661,
    "Ġhur": 2101,
    "invari": 21183,
    "xic": 9145,
    "therefore": 5953,
    "Ġruin": 6055,
    "news": 23129,
    "eu": 17530,
    "ergy": 2361,
    "Ġdependencies": 2315,
    "agree": 14066,
    "boys": 13358,
    "Ġcast": 3604,
    "Ġsee": 803,
    "Ġpirate": 14996,
    "Ġaccidental": 16848,
    "Ġhorrible": 4905,
    "bottle": 20144,
    "orily": 15570,
    "Ġunintellig": 22021,
    "Ġgoest": 22420,
    "ades": 5631,
    "strained": 21655,
    "stop": 11634,
    "Ġarve": 15891,
    "fanc": 20863,
    "ativeness": 15519,
    "Ġstrain": 6023,
    "affairs": 14655,
    "trad": 21075,
    "Ġstove": 6733,
    "frost": 15105,
    "Ġineff": 12631,
    "Ġsatisfied": 4174,
    "Ġaver": 1285,
    "rug": 18345,
    "Ġlurking": 11289,
    "Ġinterp": 16067,
    "ured": 1654,
    "Ġunheeded": 18258,
    "Ġsauc": 15886,
    "Ġvisit": 2585,
    "Ġbrougham": 17870,
    "Ġbarely": 16936,
    "Ġmoon": 4608,
    "Ġmatter": 1735,
    "Ġmagnific": 16318,
    "Ġsoothing": 8172,
    "Ġsuperficial": 23455,
    "Ġbulwarks": 5592,
    "acies": 14276,
    "Ġclose": 3033,
    "impropriety": 21710,
    "ascribed": 24708,
    "ece": 17531,
    "Ġmarched": 18871,
    "Ġperch": 10298,
    "Ġeverywhere": 9795,
    "Ġattent": 4362,
    "Ġmonsie": 11447,
    "Ġechoed": 20422,
    "Ġnamed": 6139,
    "Ġvib": 8164,
    "ker": 5792,
    "Ġfob": 21407,
    "super": 5942,
    "Ġalarming": 14778,
    "bab": 11468,
    "Ġdeserving": 14751,
    "Ġdeserted": 8636,
    "Ġsatisfactory": 11192,
    "engines": 18927,
    "Ġthinks": 6169,
    "custom": 15332,
    "Ġdraught": 9844,
    "church": 8139,
    "Ġmilitia": 13316,
    "Ġinspired": 2522,
    "wondering": 19844,
    "Ġcommunication": 1872,
    "Ġhardihood": 23108,
    "Ġpause": 5707,
    "Ġembarr": 7447,
    "Ġinexperienced": 26100,
    "ration": 2004,
    "Ġseldom": 4629,
    "Ġconfirming": 25321,
    "ze": 1394,
    "Ġsurpass": 13582,
    "Ġsecluded": 11991,
    "Ġobliquely": 12360,
    "Ġbrightly": 13222,
    "thar": 18217,
    "Ġwhalebone": 10977,
    "Ġbugs": 13647,
    "ret": 1476,
    "Ġepic": 15029,
    "mix": 20973,
    "eliest": 14744,
    "Ġgarb": 21600,
    "Ġcollected": 2612,
    "Ġexpanding": 25238,
    "ascended": 24706,
    "Ġappro": 661,
    "wail": 21124,
    "elled": 3994,
    "tawn": 21079,
    "Ġgenerally": 4159,
    "correspond": 13397,
    "Ġpants": 21463,
    "Ġfeebly": 24877,
    "arian": 10316,
    "Ġlone": 11612,
    "Ġdenomin": 12065,
    "mises": 20977,
    "Ġdoctors": 12149,
    "Ġsaws": 23044,
    "Ġcling": 11769,
    "Ġpads": 21472,
    "Ġgathers": 24743,
    "became": 10514,
    "Ġringle": 18210,
    "americans": 25042,
    "murder": 10564,
    "pardon": 10064,
    "Ġvesture": 20060,
    "consp": 18504,
    "Ġspectacle": 10496,
    "ding": 1232,
    "_": 67,
    "Ġassisted": 11110,
    "Ġreflections": 5946,
    "×": 152,
    "Ġreiter": 21663,
    "Ġhawaiian": 25366,
    "concluding": 19479,
    "belais": 24037,
    "Ġblasts": 19994,
    "hastened": 16845,
    "jephro": 26392,
    "saw": 5893,
    "bey": 10313,
    "Ġfruitless": 25605,
    "Ġsteals": 23081,
    "Ġevening": 2654,
    "Ġfaded": 10809,
    "Ġgrowl": 16537,
    "Ġinterven": 10997,
    "Ġencounter": 6627,
    "Ġevents": 4473,
    "Ġdispersed": 16597,
    "accordingly": 19212,
    "Ġmournfully": 20115,
    "Ġapprehens": 5682,
    "Ġgleams": 17309,
    "Ġattractive": 25575,
    "Ġchannel": 26012,
    "Ġguess": 4903,
    "ĠĠĠĠĠ": 3525,
    "Ġnation": 12644,
    "Ġharris": 13926,
    "uend": 21100,
    "doubted": 17526,
    "Ġmorocc": 22974,
    "hid": 13733,
    "kine": 15374,
    "och": 21000,
    "Ġhypocritical": 20737,
    "Ġbranded": 14378,
    "Ġdaybreak": 18726,
    "razor": 21634,
    "Ġhabitu": 19527,
    "another": 5439,
    "Ġneighbour": 3810,
    "Ġnuptials": 20492,
    "Ġinsolence": 20252,
    "Ġgettest": 23231,
    "Ġbarrowful": 25595,
    "lik": 3918,
    "Ġtemperature": 1003,
    "began": 6425,
    "Ġfreer": 23210,
    "Ġwidower": 24235,
    "com": 972,
    "daylight": 19057,
    "aphs": 22333,
    "Ġwrist": 8242,
    "covering": 15333,
    "gast": 20870,
    "bowl": 14889,
    "interesting": 12199,
    "Ġensemble": 1611,
    "Ġjourneys": 19473,
    "glow": 20873,
    "Ġrails": 22655,
    "village": 25422,
    "unhesitatingly": 26496,
    "Ġwhelmed": 25999,
    "Ġtracing": 18888,
    "thy": 2934,
    "Ġcrescentic": 20619,
    "Ġrock": 5311,
    "ibule": 13004,
    "Ġcontrary": 5260,
    "itage": 17816,
    "bu": 5132,
    "sad": 11520,
    "expect": 4768,
    "esteemed": 26009,
    "Ġfleshy": 24614,
    "Ġ27": 8614,
    "Ġtravell": 5576,
    "path": 10118,
    "Ġoft": 9194,
    "Ġ39": 19488,
    "Ġbloodthirsty": 26601,
    "Ġexecution": 6927,
    "iluvian": 18060,
    "wantonly": 25149,
    "Ġmah": 15538,
    "trans": 5594,
    "Ġenable": 685,
    "Ġcrony": 23439,
    "ving": 594,
    "Ġfitting": 21406,
    "Ġlombardy": 26463,
    "Ġprophets": 20449,
    "verted": 10217,
    "Ġlengthwise": 10452,
    "Ġpore": 21456,
    "Ġadm": 2404,
    "men": 1487,
    "Ġthanks": 6707,
    "$": 8,
    "aries": 6244,
    "enderby": 25215,
    "<SOS>": 1,
    "fever": 22498,
    "ced": 698,
    "preser": 9759,
    "method": 17284,
    "inarticulate": 21194,
    "maker": 12490,
    "ĠmanÅĵuv": 18417,
    "Ġdisguise": 10045,
    "Ġpredictions": 1456,
    "hip": 8740,
    "rich": 11517,
    "kins": 7346,
    "Ġkettle": 26232,
    "metal": 24765,
    "Ġmaddening": 17243,
    "Ġpend": 15603,
    "lucifer": 25301,
    "Ġadmir": 12020,
    "Ġproduct": 3532,
    "Ġimbec": 14156,
    "Ġstruggles": 16578,
    "Ġsplin": 8618,
    "ceptible": 10959,
    "Ġriverside": 25247,
    "rest": 1634,
    "Ġpoverty": 9303,
    "draughts": 20386,
    "Ġsuperiors": 23454,
    "Ġslates": 11106,
    "Ġastr": 15493,
    "Ġoutbreak": 22314,
    "fish": 3514,
    "actory": 8907,
    "vengeance": 13355,
    "Ġeth": 17716,
    "å": 166,
    "Ġinhale": 20299,
    "Ġconvul": 13202,
    "Ġplaying": 6909,
    "sufficient": 6635,
    "fing": 13712,
    "luent": 15994,
    "Ġadequate": 20307,
    "Ġpointed": 4772,
    "nobody": 16132,
    "hitherto": 17283,
    "Ġmoulded": 16975,
    "Ġpay": 3965,
    "numbers": 17616,
    "frank": 7757,
    "Ġlengthen": 15651,
    "intellig": 5320,
    "tom": 15434,
    "Ġheath": 15699,
    "Ġsubstituting": 26326,
    "elephant": 12349,
    "Ü": 157,
    "wor": 3415,
    "alvan": 21501,
    "poured": 17637,
    "Ġjogged": 26236,
    "Ġhooped": 23353,
    "Ġanyone": 4460,
    "Ġrepeated": 3833,
    "Ġlory": 12649,
    "Ġinvolve": 11043,
    "Ġfrontispiece": 23911,
    "were": 2561,
    "Ġamusements": 16913,
    "Ġcontroverted": 23250,
    "properly": 24918,
    "oftentimes": 19419,
    "ensions": 14258,
    "Ġentic": 16141,
    "Ġoverflowing": 17237,
    "who": 2450,
    "oat": 13763,
    "andering": 21864,
    "Ġconcern": 2658,
    "Ġlongitudes": 22633,
    "reckoning": 25270,
    "Ġstrictly": 12283,
    "Ġspasmodic": 20396,
    "Ġbuoyant": 13531,
    "Ġsuckling": 25997,
    "Ġintellect": 8169,
    "Ġfashioned": 13319,
    "ative": 731,
    "urring": 21702,
    "prise": 7726,
    "sp": 892,
    "Ġjungfrau": 15247,
    "collect": 16562,
    "Ġunprepared": 22045,
    "ellest": 21571,
    "Ġalpine": 18105,
    "Ġunreason": 15840,
    "aceti": 7111,
    "Ġbody": 2439,
    "iceland": 21563,
    "Ġoccasionally": 5590,
    "izes": 885,
    "Ġeagle": 13201,
    "Ġfo": 1651,
    "tired": 21071,
    "purse": 20023,
    "geor": 15976,
    "Ġchoose": 5981,
    "Ġrue": 11865,
    "variance": 2657,
    "Ġ78": 19612,
    "Ġforbade": 15213,
    "data": 2266,
    "Ġprofoundest": 16860,
    "Ġdiv": 3733,
    "Ġattracted": 8904,
    "Ġslopes": 18940,
    "Ġmur": 2492,
    "aution": 9387,
    "mushroom": 26395,
    "summoned": 26591,
    "Ġmethodically": 23132,
    "ruined": 18346,
    "Ġfacial": 10605,
    "Ġglades": 19370,
    "Ġscrews": 25177,
    "becoming": 18519,
    "feelings": 5674,
    "Ġexchanging": 18131,
    "majesty": 26280,
    "Ġdavy": 25951,
    "Ġswearing": 16464,
    "ersburgh": 18215,
    "Ġcollinses": 19129,
    "Ġinvol": 1050,
    "binnacle": 20786,
    "patter": 4017,
    "threadbare": 25989,
    "Ġshortness": 23481,
    "Ġdeuteronomy": 15757,
    "Ġbackbones": 22640,
    "wel": 6117,
    "Ġgibberish": 25786,
    "Ġbathed": 17865,
    "Ġoat": 21321,
    "Ġcontribute": 12858,
    "Ġgratifying": 13304,
    "Ġreeled": 13985,
    "Ġblessed": 6931,
    "acup": 14277,
    "Ġdiligent": 25075,
    "Ġuneasily": 24230,
    "Ġrestrain": 8963,
    "Ġporter": 15608,
    "unknown": 10890,
    "Ġelevating": 19728,
    "simple": 13451,
    "Ġbusily": 9384,
    "Ġalms": 21777,
    "\"]": 17470,
    "wilful": 25086,
    "Ġnormalizing": 1822,
    "ars": 905,
    "endeavour": 17031,
    "carefully": 13367,
    "mot": 17596,
    "Ġswears": 16463,
    "Ġfalse": 4345,
    "Ġchalk": 15931,
    "Ġcountess": 11959,
    "concerns": 24066,
    "Ġconvolutions": 21804,
    "itled": 7579,
    "Ġheaps": 11641,
    "Ġsomewhat": 4897,
    "Ġgild": 15666,
    "Ġyounge": 16286,
    "Ġvouch": 15807,
    "Ġwrapped": 8341,
    "Ġtravelled": 7771,
    "Ġhither": 4758,
    "allies": 14165,
    "nephew": 26397,
    "Ġcretan": 22724,
    "Ġeloquence": 11840,
    "Ġlocket": 22110,
    "Ġunmingled": 18260,
    "Ġanatomical": 15075,
    "inn": 5363,
    "Ġscorch": 20065,
    "Ġilluminating": 25245,
    "ifts": 12732,
    "Ġconclude": 8579,
    "uber": 15444,
    "Ġamply": 22479,
    "Ġheedful": 19739,
    "Ġannoy": 17198,
    "icil": 17971,
    "Ġcramped": 23530,
    "Ġkno": 5241,
    "Ġcurrent": 13008,
    "hide": 10703,
    "Ġsuggestion": 19706,
    "classes": 12133,
    "Ġpassengers": 13674,
    "gain": 8736,
    "aire": 10680,
    "K": 47,
    "Ġreser": 5170,
    "Ġshook": 4469,
    "Ġrepro": 7276,
    "itude": 1416,
    "umed": 6554,
    "hever": 13830,
    "chan": 1176,
    "ingham": 21299,
    "akes": 2219,
    "Ġlater": 6016,
    "twas": 15436,
    "mannered": 22850,
    "hemat": 3125,
    "Ġsagacious": 14969,
    "Ġpopulous": 16826,
    "Ġ1846": 26084,
    "Ġchink": 15930,
    "ĠĠĠĠĠĠ": 6413,
    "Ġtram": 11092,
    "Ġconven": 6151,
    "rolling": 9060,
    "54": 15298,
    "Ġextraordinary": 5414,
    "els": 1763,
    "Ġdart": 4585,
    "Ġstrange": 2274,
    "Ġdismantled": 20215,
    "irted": 14070,
    "Ġglassy": 19559,
    "Ġlaughed": 5059,
    "bones": 8371,
    "Ġgenerating": 12846,
    "Ġmove": 5107,
    "girl": 12316,
    "riors": 18183,
    "glanced": 19364,
    "aviour": 11004,
    "mention": 7216,
    "Ġdeactivates": 20702,
    "det": 5207,
    "trap": 24313,
    "µ": 118,
    "oted": 4597,
    "Ġbreeding": 14521,
    "helmsman": 24287,
    "Ġplanisp": 24056,
    "_--": 20761,
    "Ġexcuse": 5861,
    "Ġmeal": 9696,
    "_âĢĶâĢĿ": 20762,
    "amplified": 26494,
    "Ġbakers": 17866,
    "Ġembarkation": 25122,
    "aggoo": 5130,
    "Ġbeautifully": 13265,
    "hanging": 10100,
    "hoisted": 19282,
    "task": 13792,
    "Ġobsequious": 17403,
    "where": 2093,
    "Ġflowers": 8940,
    "executed": 25739,
    "liter": 11501,
    "Ġmanipulated": 25178,
    "Ġthreading": 23400,
    "side": 2301,
    "actorily": 25576,
    "Ġisn": 7865,
    "Ġswelling": 11923,
    "Ġmild": 4148,
    "Ġprop": 1680,
    "Ġimpro": 911,
    "Ġethiopian": 26613,
    "Ġbasin": 19847,
    "murderers": 25728,
    "Ġincumbent": 16060,
    "adr": 6994,
    "Ġbos": 4875,
    "Ġrecovered": 5481,
    "tort": 17675,
    "Ġejac": 10203,
    "urous": 10212,
    "dis": 2250,
    "pped": 1998,
    "abled": 12791,
    "Ġopium": 8994,
    "absolute": 17122,
    "great": 3515,
    "Ġbeauties": 10445,
    "Ġgestures": 13535,
    "Ó": 148,
    "score": 18856,
    "adagrad": 9690,
    "display": 19154,
    "Ġmole": 11789,
    "detained": 24382,
    "dat": 1664,
    "Ġfollies": 16252,
    "Ġpubl": 3942,
    "inhabited": 13619,
    "uncle": 8158,
    "Ġreserves": 19669,
    "Ġsideboard": 10385,
    "Ġcontinuously": 23205,
    "ign": 1702,
    "Ġcharacteristically": 23689,
    "iful": 2883,
    "mur": 5428,
    "crossing": 19409,
    "Ġsir": 1573,
    "Ġrealism": 18984,
    "ivia": 22079,
    "Ġcirclings": 26431,
    "Ġunb": 10906,
    "march": 13754,
    "Ġratio": 5066,
    "Ġsmall": 891,
    "entiful": 10836,
    "Ġblameless": 19858,
    "Ġmending": 17804,
    "anish": 2618,
    "Ġcushion": 17833,
    "Ġdeeper": 2085,
    "qualities": 25043,
    "Ġunreliable": 3931,
    "ent": 305,
    "Ġprofession": 6207,
    "Ġgoverness": 8601,
    "Ġorchard": 22091,
    "Ġrevolver": 14898,
    "Ġswaying": 15046,
    "Ġoccurrences": 11050,
    "rained": 5162,
    "Ġgrandfather": 19420,
    "Ġwhisper": 6205,
    "engthen": 14457,
    "jected": 22709,
    "commer": 22800,
    "Ġdespond": 14666,
    "Ġinasmuch": 10825,
    "opened": 7912,
    "Ġunerringly": 18262,
    "itute": 9651,
    "ache": 8518,
    "Ġundertake": 14479,
    "een": 726,
    "Ġtok": 1246,
    "Ġ104": 24412,
    "Ġdirector": 18920,
    "po": 1137,
    "Ġcompetent": 11814,
    "Ġturkish": 12259,
    "Ġdecisions": 6702,
    "Ġcommonplaces": 16287,
    "Ġdoors": 6417,
    "geons": 15977,
    "Ġintegrity": 12311,
    "ateful": 5926,
    "killer": 20474,
    "Ġtrustworthy": 24107,
    "Ġbab": 5289,
    "accuracy": 9878,
    "Ġpauper": 26179,
    "Ġrandomly": 1922,
    "tashtego": 9622,
    "Ġpassionately": 16764,
    "Ġcomputation": 964,
    "Ġchronicler": 20228,
    "Ġinsatiate": 19270,
    "Ġfatality": 12092,
    "Ġhaggard": 17329,
    "Ġinclosed": 19537,
    "Ġdesist": 16236,
    "iloquent": 21722,
    "ny": 4016,
    "Ġplanting": 16083,
    "wr": 3025,
    "Ġavoided": 13257,
    "Ġimprinted": 22386,
    "Ġindomit": 22952,
    "captain": 3955,
    "Ġbath": 9658,
    "Ġjar": 15948,
    "Ġestablished": 9069,
    "endent": 15920,
    "Ġencaps": 12958,
    "Ġabsolute": 6765,
    "meaning": 2909,
    "Ġnoise": 1067,
    "Ġgirth": 13135,
    "Ġspectre": 16630,
    "Ġflushed": 13024,
    "zy": 2671,
    "Ġadopted": 15177,
    "ellig": 523,
    "Ġfood": 5080,
    "throwing": 11701,
    "greatest": 10493,
    "Ġstairs": 5541,
    "Ġbashaw": 25633,
    "cook": 8269,
    "ate": 421,
    "Ġpil": 5014,
    "Ġneighbouring": 12116,
    "Ġacquaint": 13042,
    "Ġprogeny": 17387,
    "Ġlanded": 7470,
    "Ġfourth": 7706,
    "Ġberth": 8679,
    "Ġmouse": 4693,
    "Ġsequences": 1752,
    "Ġcoincidences": 26363,
    "Ġcomfort": 3437,
    "civility": 17513,
    "Ġconnecting": 18635,
    "Ġtwit": 12926,
    "tra": 4934,
    "ĸ": 249,
    "Ġdeposited": 25484,
    "Ġswash": 23052,
    "shore": 10305,
    "than": 4091,
    "Ġappo": 8497,
    "Ġcentury": 8290,
    "retrie": 18922,
    "suffered": 24334,
    "Ġfergus": 16867,
    "Ġchain": 1846,
    "Ġopenly": 8572,
    "ounted": 5030,
    "three": 5238,
    "Ġguardsmen": 20629,
    "Ġdivinely": 25723,
    "ix": 1799,
    "Ġthemselves": 3250,
    "swiftly": 20550,
    "Ġlovers": 9719,
    "Ġdorm": 4821,
    "Ġremem": 4314,
    "Ġexhibiting": 19837,
    "Ġcyp": 21343,
    "Ġfeature": 748,
    "stre": 5451,
    "yond": 2331,
    "Ġcarpenters": 16752,
    "Ġmonarchs": 25846,
    "perseus": 26005,
    "Ġincor": 2610,
    "Ġkl": 2736,
    "Ġach": 2622,
    "&": 10,
    "inced": 3335,
    "Ġgamming": 25542,
    "Ġentirely": 3432,
    "Ġshoved": 23489,
    "Ġtransp": 4769,
    "Ġpredomin": 16034,
    "Ġrelationships": 2926,
    "Ġabrid": 22269,
    "aped": 3766,
    "Ġmim": 3100,
    "charitable": 23930,
    "Ġpartially": 13121,
    "flakes": 23965,
    "Ġswitzerland": 10379,
    "atively": 2696,
    "Ġrevolt": 24504,
    "sweep": 24617,
    "cil": 8720,
    "Ġencoding": 4773,
    "forever": 22516,
    "body": 2308,
    "incl": 8109,
    "agne": 21902,
    "bag": 7544,
    "Ġlay": 583,
    "Ġtransparency": 10676,
    "Ġcommon": 1412,
    "able": 452,
    "yth": 983,
    "Ġdoubting": 13097,
    "deficient": 23114,
    "rospect": 11611,
    "Ġdiverted": 14591,
    "lake": 13748,
    "Ġposit": 1304,
    "Ġvect": 1225,
    "Ġscheme": 7064,
    "Ġbutter": 6842,
    "watching": 16930,
    "Ġaccomplishments": 13378,
    "Ġyard": 5920,
    "Ġinvariably": 8063,
    "Ġpreface": 18367,
    "Ġphrase": 11187,
    "Ġbowlines": 19321,
    "Ġnoblest": 13240,
    "Ġsuppose": 2867,
    "Ġexactness": 23603,
    "sar": 12502,
    "whisper": 17083,
    "Ġineffable": 17331,
    "Ġsquad": 22834,
    "Ġencouragement": 13040,
    "dry": 13702,
    "Ġgrave": 5100,
    "Ġvol": 4190,
    "Ġsufferer": 16255,
    "Ġrenders": 13282,
    "Ġsurmised": 24919,
    "Ġurged": 6781,
    "n": 82,
    "Ġgentlemen": 3641,
    "Ġbaling": 17859,
    "saddest": 25527,
    "Ġmounting": 19975,
    "language": 5129,
    "Ġfreemason": 23212,
    "walls": 25345,
    "Ġfools": 14481,
    "ĠĠĠĠĠĠĠĠĠĠĠĠĠ": 22559,
    "Ġabsence": 4894,
    "Ġforgetfulness": 14605,
    "seeking": 17152,
    "ugl": 23284,
    "Ġlur": 5226,
    "woof": 21138,
    "odings": 4400,
    "Ġtapped": 11553,
    "Ġupbraid": 18318,
    "Ġshort": 2226,
    "í": 174,
    "Ġleghorn": 13145,
    "Ġgate": 6825,
    "Ġfrench": 4939,
    "Ġdutch": 6327,
    "Ġunfaltering": 24113,
    "Ġfonder": 17880,
    "Ġsc": 532,
    "iet": 1773,
    "Ġundec": 22014,
    "invisible": 17740,
    "Ġsolely": 9909,
    "waters": 11333,
    "phology": 3007,
    "teous": 16172,
    "unw": 14056,
    "Ġpistols": 17328,
    "anct": 21356,
    "punct": 20191,
    "Ġenvironment": 3705,
    "Ġincom": 9768,
    "igations": 18043,
    "Ġvainly": 9923,
    "Ġindist": 14407,
    "Ġburn": 3682,
    "hung": 8380,
    "Ġcrumpled": 16442,
    "Ġceasing": 23755,
    "Ġdeeds": 15756,
    "Ġcompassionate": 24723,
    "Ġmien": 17808,
    "Ġdrives": 14577,
    "Ġglory": 6064,
    "Ġbrides": 22860,
    "Ġsuccessful": 9922,
    "obtain": 23090,
    "Ġelizabeth": 1128,
    "Ġtowing": 9193,
    "Ġperdition": 15990,
    "Ġhelplessly": 20076,
    "Ġmurderers": 16811,
    "Ġmalignity": 10556,
    "Ġloomed": 12299,
    "Ġunav": 18237,
    "Ġhardship": 18913,
    "ubbub": 23241,
    "Ġpreserving": 19795,
    "immense": 18052,
    "Ġthro": 5817,
    "victim": 25530,
    "Ġreverie": 13456,
    "Ġsubstantiated": 25875,
    "towns": 24854,
    "ricade": 13036,
    "hertfordshire": 10936,
    "Ġtrapped": 23074,
    "ą": 198,
    "Ġcomplacency": 19446,
    "Ġamerica": 6763,
    "Ġtuesday": 9626,
    "iates": 13736,
    "fights": 20864,
    "Ġunfold": 8022,
    "Ġhairs": 13229,
    "feren": 767,
    "bable": 8718,
    "Ġdocumentation": 20553,
    "chorus": 19810,
    "Ġdelighted": 5499,
    "Ġrossum": 3011,
    "prevent": 11793,
    "Ġchained": 16388,
    "Ġmainten": 16112,
    "Ġfab": 15573,
    "Ġtransactions": 18482,
    "ntax": 934,
    "Ġoversampling": 20514,
    "Ġwritten": 4169,
    "dragging": 16609,
    "Ġscrawled": 24580,
    "Ġsubordinate": 18722,
    "hailed": 17565,
    "Ġnobler": 14173,
    "Ġaugmented": 15104,
    "Ġsoaring": 22074,
    "Ġfront": 3449,
    "Ġreinforcement": 3876,
    "arms": 10173,
    "Ġgenerative": 5644,
    "rations": 10723,
    "result": 12041,
    "Ġsufferings": 7515,
    "ulous": 4451,
    "Ġlens": 8437,
    "Ġquadru": 15999,
    "Ġcotton": 17378,
    "ably": 1850,
    "Ġinfall": 7964,
    "Ġpersonages": 23540,
    "Ġominous": 12422,
    "Ġpiteous": 17917,
    "Ġindependent": 9015,
    "Ġtreble": 16502,
    "Ġplutarch": 22602,
    "Ġintelligence": 561,
    "Ġpopular": 6216,
    "Ġrueful": 25581,
    "Ġchecked": 9375,
    "Ġimprisonment": 22384,
    "engine": 18926,
    "Ġforb": 11662,
    "Ġdischarged": 15219,
    "Ġausten": 5880,
    "resolutions": 26164,
    "Ġnerve": 16339,
    "chemical": 23806,
    "ical": 753,
    "Ġcreeping": 18684,
    "completed": 19992,
    "usive": 8189,
    "Ġdivine": 6921,
    "supportable": 12368,
    "Ġdisciple": 22781,
    "earnestly": 17312,
    "stead": 10846,
    "Ġfounder": 17883,
    "Ġhorseback": 14848,
    "surely": 10569,
    "mou": 10708,
    "hopper": 23713,
    "ultural": 22565,
    "Ġheedfully": 24521,
    "nib": 5214,
    "Ġreputed": 18035,
    "Ġvigilant": 20183,
    "asse": 15642,
    "Ġgravely": 7882,
    "Ġjan": 11760,
    "pipe": 8696,
    "Ġmagnificent": 9841,
    "Ġbiscuit": 12586,
    "Ġensuring": 11191,
    "Ġelev": 5536,
    "sax": 21055,
    "ĠâĢľâĢĺ_": 25111,
    "Ġimpatiently": 8337,
    "dwelling": 20563,
    "profess": 10628,
    "Ġpennies": 17270,
    "Ġdusk": 12325,
    "Ġpile": 8423,
    "Ġvillage": 5774,
    "contemplated": 20457,
    "abounding": 25979,
    "programming": 10062,
    "Ġreap": 18026,
    "dies": 15337,
    "Ġtalker": 23369,
    "scene": 14419,
    "800": 17476,
    "squ": 7809,
    "Ġbro": 1427,
    "Ġque": 4160,
    "mockery": 24378,
    "Ġsuck": 15860,
    "uture": 1070,
    "Ġlull": 15648,
    "Ġjob": 7015,
    "Ġricher": 12756,
    "without": 4846,
    "Ġallusions": 10909,
    "rayed": 23562,
    "tically": 3392,
    "Ġbonds": 17869,
    "poled": 22903,
    "Ġmanifold": 13559,
    "thinness": 25810,
    "Ġheading": 8935,
    "susp": 10596,
    "Ġsaw": 1349,
    "Ġemble": 13970,
    "Ġweakness": 9966,
    "Ġxlvi": 25590,
    "omp": 2475,
    "Ġphilipp": 23882,
    "Ġbowsman": 11254,
    "Ġcents": 17828,
    "Ġdefend": 9339,
    "Ġreach": 4048,
    "Ġple": 1471,
    "Ġcompetition": 14266,
    "Ġtrick": 7020,
    "Ġperhaps": 1914,
    "rut": 8091,
    "ined": 1262,
    "combination": 25485,
    "Ġtiles": 17726,
    "Ġwitnesses": 9485,
    "Ġinflex": 20636,
    "possess": 5983,
    "Ġyon": 9692,
    "Ġbasket": 9572,
    "'s": 2473,
    "Ġintrepid": 11703,
    "Ġlobsters": 13516,
    "utterly": 20010,
    "lestrade": 9656,
    "Ġchimneys": 16972,
    "Ġclergyman": 8711,
    "Ġmasonry": 13598,
    "Ġtransom": 22435,
    "Ġtophet": 23572,
    "system": 4173,
    "Ġsignals": 10585,
    "Ġenderby": 13650,
    "astic": 1870,
    "Ġruss": 18719,
    "Ġaltering": 18102,
    "Ġsurrender": 16450,
    "Ġcoinc": 11001,
    "portuguese": 25413,
    "Ġroman": 8322,
    "games": 20879,
    "Ġsince": 1795,
    "Ġdarted": 4757,
    "Ġsquat": 14367,
    "Ġlights": 8960,
    "Ġinvestigations": 17246,
    "Ġbast": 21377,
    "Ġpine": 8796,
    "Ġislets": 21798,
    "Ġrejoice": 10208,
    "Ġmanor": 14196,
    "Ġshalt": 18230,
    "ulpt": 10885,
    "lim": 9606,
    "Ġisland": 4050,
    "tattoo": 21086,
    "Ġadaptive": 1369,
    "Ġhails": 21947,
    "Ġhoneymoon": 25645,
    "permission": 15896,
    "Ġventil": 8019,
    "Ġmightier": 18729,
    "arded": 5029,
    "spirited": 19752,
    "w": 91,
    "Ġpanel": 13371,
    "Ġroy": 4230,
    "inkle": 22611,
    "Ġcoffins": 13248,
    "geon": 6270,
    "Ġprophecy": 25706,
    "Ġhempen": 13549,
    "es": 288,
    "Ġthyself": 6602,
    "robustness": 26338,
    "Ġredeem": 20498,
    "Ġadjust": 2155,
    "cocks": 23560,
    "Ġaf": 785,
    "elf": 564,
    "Ġtawny": 20480,
    "trees": 10731,
    "Ġdetermine": 3242,
    "Ġdumplings": 15189,
    "Ġhow": 598,
    "Ġmatted": 22909,
    "Ġidle": 8252,
    "Ġtattooed": 11378,
    "Ġlirra": 21557,
    "Ġsavage": 4012,
    "âĢĶâĢĺ_": 24831,
    "Ġglanced": 5951,
    "Ġoccurred": 4463,
    "Ġselecting": 16684,
    "gratification": 24348,
    "Ġseedy": 21959,
    "vineyard": 25421,
    "ery": 1269,
    "mathematics": 26304,
    "Ġcarbuncle": 14444,
    "zen": 5140,
    "bres": 11471,
    "sutherland": 21061,
    "Ġrede": 13983,
    "Ġadmits": 23553,
    "Ġintelligent": 1405,
    "Ġminut": 2205,
    "Ġwhile": 606,
    "Ġitself": 2525,
    "Ġconvulsively": 25717,
    "Ġth": 299,
    "dut": 10087,
    "avoid": 9304,
    "Ġaverred": 18865,
    "Ġdis": 692,
    "Ġdestroy": 5772,
    "Ġinevitably": 17230,
    "ward": 706,
    "ipelagoes": 13670,
    "jac": 8381,
    "aborate": 14021,
    "din": 8373,
    "Ġhungry": 10532,
    "Ġfigures": 8629,
    "Ġcolonnades": 26275,
    "half": 4931,
    "Ġblows": 5972,
    "Ġriveted": 13617,
    "pronouncing": 25193,
    "Ġunthink": 18244,
    "Ġplight": 14280,
    "Ġwow": 15527,
    "Ġfearfulness": 23511,
    "Ġlifetime": 13601,
    "?âĢĻâĢĿ": 23641,
    "Ġdistantly": 18534,
    "nin": 17608,
    "za": 13809,
    "Ġramble": 9312,
    "Ġsong": 5902,
    "grounds": 11151,
    "Ġreadily": 5253,
    "Ġactivity": 7919,
    "tied": 21069,
    "Ġhyper": 19738,
    "hastening": 24448,
    "volous": 18593,
    "Ġruddy": 17125,
    "uv": 6229,
    "Ġliberated": 19665,
    "satisf": 5781,
    "Ġstreams": 12190,
    "Ġlimits": 3451,
    "taught": 17684,
    "Ġborne": 6351,
    "Ġobeisance": 19757,
    "Ġjunks": 25113,
    "Ġcav": 13879,
    "quarrel": 20013,
    "Ġjonas": 20608,
    "landlord": 9839,
    "length": 7134,
    "Ġconsoled": 18112,
    "gument": 20884,
    "Ġexplanatory": 22199,
    "chiefly": 14844,
    "will": 1969,
    "Ġwhich": 503,
    "ick": 836,
    "Ġcontradicted": 20210,
    "Ġpressing": 9260,
    "Ġarbitrary": 4735,
    "Ġponder": 6819,
    "Ġbelow": 4063,
    "asters": 8433,
    "laws": 19806,
    "Ġburtons": 19252,
    "ome": 535,
    "Ġgallant": 8654,
    "Ġweaving": 12737,
    "getic": 12963,
    "Ġwound": 4528,
    "everybody": 8610,
    "Ġsouthampton": 24307,
    "Ġgradually": 3400,
    "gledy": 25403,
    "supervised": 1907,
    "Ġplace": 1652,
    "Ġwrung": 14470,
    "ighted": 8476,
    "Ġsubur": 12953,
    "Ġprecaution": 11197,
    "clopÃ¦": 13053,
    "osop": 4405,
    "Ġbone": 4694,
    "Ġabove": 2936,
    "Ġyoung": 1507,
    "make": 5793,
    "ality": 2515,
    "Ġgirdle": 19156,
    "protruding": 24816,
    "alog": 8804,
    "Ġprivile": 8645,
    "Ġphysiognomy": 25610,
    "Ġshrimp": 24157,
    "Ġmechanisms": 1580,
    "Ġgleaming": 24993,
    "ignation": 11128,
    "Ġdreading": 23796,
    "admire": 24943,
    "Ġadapts": 3819,
    "won": 7144,
    "Ġedinburgh": 16436,
    "uvier": 9068,
    "Ġoperated": 14546,
    "Ġstings": 21731,
    "eur": 7547,
    "Ġfurnishing": 16645,
    "Ġconsiderably": 7714,
    "Ġstraightway": 9016,
    "peleg": 16292,
    "cils": 20813,
    "imprudence": 16556,
    "salesman": 20670,
    "Ġdizzy": 21430,
    "oward": 6020,
    "Ġwidow": 8662,
    "Ġprair": 7746,
    "Ġhunger": 8566,
    "Ġexamine": 7734,
    "Ġsentiment": 6588,
    "Ġdiminishing": 4209,
    "Ġimper": 4502,
    "ler": 3489,
    "Ġwraps": 19775,
    "Ġvast": 3295,
    "touching": 15090,
    "Ġenumerating": 15243,
    "Ġburnt": 9927,
    "sur": 4523,
    "Ġwisest": 11232,
    "constellation": 24607,
    "Ġ(âĢľ": 15993,
    "Ġclimb": 15078,
    "etition": 7383,
    "Ġdisadvantages": 18557,
    "Ġclassical": 22626,
    "ateur": 22003,
    "Ġwickham": 2207,
    "Ġgrat": 4058,
    "ological": 1885,
    "Ġundue": 25993,
    "Ġprejudices": 13468,
    "owers": 12681,
    "Ġser": 1672,
    "emason": 18186,
    "Ġduodecimo": 16767,
    "Ġpermission": 9278,
    "Ġaccording": 5508,
    "Ġready": 3397,
    "Ġfrocks": 23919,
    "grand": 7969,
    "Ġintuitions": 17340,
    "nar": 12491,
    "gown": 9596,
    "Ġblossom": 26312,
    "ipagos": 22363,
    "Ġinterference": 8893,
    "rem": 1522,
    "suspicious": 25390,
    "Ġfavourable": 7958,
    "Ġmetaphys": 16376,
    "Ġstory": 2902,
    "Ġthreatening": 16828,
    "Ġlaughter": 9027,
    "ashed": 3787,
    "strangers": 20335,
    "tram": 19634,
    "jonah": 11496,
    "Ġscore": 9737,
    "Ġgr": 979,
    "Ġdependen": 1830,
    "Ġobtruded": 20721,
    "Ġexult": 10229,
    "Ġtissu": 25920,
    "venerable": 26408,
    "Ġnib": 13939,
    "acceler": 23597,
    "Ġheaths": 25972,
    "appalling": 22842,
    "Ġmysterious": 7529,
    "Ġninety": 13600,
    "uding": 16146,
    "Ġpovels": 22589,
    "inform": 10143,
    "eer": 15346,
    "Ġsharks": 4498,
    "ale": 504,
    "Ġvor": 15804,
    "mis": 4521,
    "Ġsociety": 3979,
    "Ġcruellest": 19657,
    "Ġkilled": 4955,
    "Ġspecies": 5112,
    "irous": 8838,
    "mat": 2201,
    "Ġsharpened": 17364,
    "Ġtoward": 17946,
    "Ġfrigate": 13080,
    "Ġcuriosity": 2434,
    "Ġseized": 4833,
    "dreams": 12335,
    "Ġremotest": 10051,
    "Ġtravellers": 11308,
    "Ġunre": 3475,
    "Ġrem": 954,
    "Ġsuperflu": 14553,
    "Ġdeduction": 14899,
    "tacit": 21097,
    "Ġbuildings": 24720,
    "persecutor": 26530,
    "Ġthrown": 4639,
    "Ġensue": 18190,
    "rench": 3969,
    "height": 21204,
    "Ġtarquin": 23609,
    "aded": 3547,
    "moonlight": 25375,
    "Ġflour": 8944,
    "shadows": 25479,
    "Ġavenues": 25429,
    "Ġdestabilizing": 5053,
    "Ġarchly": 22776,
    "iour": 4039,
    "Ġheaded": 11054,
    "mystical": 25317,
    "Ġsymptoms": 8704,
    "Ġcarries": 7675,
    "ech": 4390,
    "Ġburgled": 23655,
    "Ġbeam": 2881,
    "Ġsad": 3869,
    "Ġkeys": 11995,
    "Ġirrevocably": 15296,
    "charm": 13989,
    "Ġprojected": 16871,
    "Ġnewton": 3531,
    "Ġprinted": 11947,
    "Ġclient": 5556,
    "Ġquietly": 4567,
    "ield": 2410,
    "Ġharpooning": 23976,
    "Ġlobster": 11389,
    "oniously": 21256,
    "Ġpersevering": 20232,
    "ends": 6038,
    "night": 2167,
    "sorting": 17004,
    "Ġhonor": 5664,
    "perils": 22179,
    "Ġflying": 5413,
    "Ġbuckle": 17033,
    "dissemble": 23491,
    "Ġtraced": 10383,
    "Ġflash": 8229,
    "allest": 5485,
    "Ġsag": 6513,
    "Ġappeared": 2775,
    "Ġlob": 7629,
    "transferred": 24514,
    "Ġchances": 9262,
    "Ġwand": 4343,
    "Ġthr": 5709,
    "Ġtoils": 10185,
    "Ġsurface": 5119,
    "Ġplans": 7917,
    "luding": 6700,
    "Ġunnatural": 7191,
    "Ġgnashed": 20131,
    "ancy": 4394,
    "Ġtraged": 9351,
    "Ġmacy": 19353,
    "Ġrust": 6407,
    "Ġpour": 13913,
    "ked": 5616,
    "_).âĢĶ": 8681,
    "Ġswart": 14433,
    "Ġglances": 10372,
    "Ġconvention": 25546,
    "Ġsuccession": 12099,
    "Ġjobs": 24832,
    "Ġuniform": 2227,
    "sin": 21047,
    "Ġindulging": 16904,
    "Ġparamore": 22119,
    "Ġglu": 15665,
    "garden": 15025,
    "until": 6596,
    "Ġargu": 10934,
    "Ġcirculating": 23371,
    "inois": 17738,
    "Ġhavoc": 15811,
    "Ġmaimed": 21315,
    "Ġfrosts": 19801,
    "Ġspain": 15878,
    "cad": 17504,
    "Ġmedium": 16681,
    "ro": 301,
    "Ġimaginations": 16516,
    "gress": 2214,
    "Ġsoothe": 7406,
    "vers": 1323,
    "Ġforever": 14552,
    "generative": 4331,
    "Ġcommunion": 19008,
    "Ġprivate": 5345,
    "harbors": 20147,
    "conquerable": 17398,
    "Ġdiet": 13909,
    "Ġflourishing": 25187,
    "excited": 13379,
    "barr": 15319,
    "flame": 16637,
    "Ġopulent": 23627,
    "?_âĢĿ": 12314,
    "judged": 14829,
    "abouts": 9451,
    "intim": 22931,
    "wives": 15454,
    "dl": 20822,
    "direction": 17524,
    "Ġelephants": 9863,
    "enchant": 21282,
    "Ġlodger": 24092,
    "ordered": 8789,
    "iger": 8446,
    "Ġundeserving": 18265,
    "Ġeffemin": 18532,
    "dom": 6222,
    "Ġprobably": 4315,
    "Ġhung": 4560,
    "Ġmour": 6973,
    "ĝ": 222,
    "illings": 14142,
    "Ġwouldst": 18501,
    "Ġadieu": 10050,
    "Ġsocietal": 11436,
    "Ġirrespective": 23373,
    "Ġlitter": 19828,
    "Ġraised": 4660,
    "Ġemblematical": 25788,
    "conv": 7214,
    "Ġfisherman": 12073,
    "horizon": 23614,
    "Ġcar": 1417,
    "Ġign": 8294,
    "Ġsetbacks": 11063,
    "Ġdiscontented": 16056,
    "Ġinstructed": 19284,
    "Ġpompous": 20421,
    "Ġsailors": 4278,
    "Ġbeast": 7180,
    "ri": 390,
    "Ġs": 265,
    "Ġsteep": 2890,
    "Ġpressure": 13421,
    "Ġimperfectly": 25727,
    "Ġanimation": 11152,
    "Ġdismal": 11808,
    "sustained": 20567,
    "Ġenjoined": 18191,
    "hic": 3247,
    "Ġundertaking": 8573,
    "barn": 17482,
    "laid": 10109,
    "Ġdel": 1618,
    "imagine": 19930,
    "Ġphaet": 16317,
    "crimson": 24100,
    "nay": 7135,
    "hood": 2661,
    "fishing": 20858,
    "Ġagreeing": 20017,
    "Ġstorm": 4302,
    "Ġpuzz": 5533,
    "Ġlighter": 12650,
    "elling": 5830,
    "Ġpersisting": 18878,
    "Ġdesponding": 25868,
    "Ġscale": 1551,
    "Ġstark": 7391,
    "Ġthames": 13937,
    "Ġdrugged": 12599,
    "Ġbackbone": 22639,
    "Ġquebec": 24133,
    "Ġincluded": 8930,
    "Ġquito": 24408,
    "Ġevian": 24292,
    "Ġtrail": 16279,
    "Ġfour": 2215,
    "ouched": 4636,
    "Ġsunken": 14493,
    "Ġirresistible": 13111,
    "advent": 10220,
    "Ġshrink": 14802,
    "Ġraises": 11843,
    "Ġefforts": 11801,
    "Ġsickening": 19603,
    "Ġtepid": 26412,
    "Ġpugnacious": 26451,
    "Ġdaugh": 2292,
    "Ġthenceforth": 25182,
    "Ġimpressive": 14999,
    "Ġabraham": 18395,
    "belief": 13280,
    "Ġantiqu": 12142,
    "gling": 10097,
    "Ġdisown": 22521,
    "Ġparlour": 12319,
    "dropping": 14981,
    "Ġsanctioned": 26349,
    "Ġfriendship": 7247,
    "disc": 4728,
    "Ġearly": 2080,
    "Ġmicha": 17811,
    "gent": 7129,
    "vac": 15449,
    "Ġtable": 2502,
    "Ġbeings": 2493,
    "Ġhooked": 19079,
    "Ġarchitecture": 1118,
    "Ġcondensed": 24051,
    "gers": 8375,
    "Ġtresses": 21174,
    "icacy": 15655,
    "Ġvoyagings": 19235,
    "Ġcontrast": 2119,
    "Ġjourney": 3882,
    "#": 7,
    "Ġdevouring": 11856,
    "ought": 828,
    "Ġsurest": 19058,
    "Ġchamber": 6213,
    "urday": 13994,
    "wide": 10137,
    "proportion": 16177,
    "Ġchronic": 9928,
    "humorously": 24019,
    "Ġmaternal": 11059,
    "icuous": 10835,
    "Ġaffliction": 25844,
    "Ġglimmered": 20170,
    "Ġisles": 8459,
    "Ġin": 291,
    "Ġpretext": 22226,
    "rece": 21233,
    "atiable": 17774,
    "Ġparched": 11725,
    "alone": 10183,
    "Ġnephews": 24713,
    "arthly": 8029,
    "arranged": 19318,
    "oysius": 14365,
    "listened": 15043,
    "Ġlangs": 13953,
    "Ġnominally": 17231,
    "Ġrepresent": 1212,
    "ppers": 7619,
    "Ġic": 9625,
    "Ġmosses": 20162,
    "Ġdissect": 16050,
    "igh": 2029,
    "brandy": 19200,
    "Ġspl": 2983,
    "Ġscenery": 11456,
    "Ġsecure": 4912,
    "Ġhereditarily": 25224,
    "locks": 14455,
    "Ġcherry": 16935,
    "Ġclink": 22342,
    "ok": 573,
    "Ġsubst": 4275,
    "Ġdeveloped": 16331,
    "inople": 13828,
    "fates": 20857,
    "deal": 12796,
    "ang": 446,
    "Ġmiraculous": 13546,
    "Ġeyel": 17096,
    "cannon": 22959,
    "Ġfevers": 22204,
    "Ġstaggering": 20272,
    "meth": 11502,
    "Ġtemptation": 8677,
    "impatiently": 20469,
    "Ġsurplus": 26303,
    "Ġpublic": 4334,
    "Ġodor": 12147,
    "Ġintimacy": 8700,
    "polar": 24583,
    "hent": 12531,
    "Ġadjusts": 8980,
    "Ġdaniel": 15110,
    "cannibals": 25584,
    "activation": 3228,
    "Ġsubl": 7236,
    "Ġsynd": 22207,
    "rell": 11563,
    "Ġalfred": 21783,
    "Ġasks": 5115,
    "Ġsolving": 2485,
    "Ġschool": 5512,
    "Ġdeadly": 5405,
    "consider": 6348,
    "clad": 14459,
    "plain": 1357,
    "knell": 24555,
    "asion": 5714,
    "Ġanon": 9666,
    "Ġnapoleons": 25885,
    "Ġmales": 17805,
    "ca": 20792,
    "Ġhertfordshire": 5377,
    "myself": 5113,
    "Ġthose": 1171,
    "Ġow": 8407,
    "Ġpinioned": 21480,
    "Ġcommander": 8624,
    "ieves": 4007,
    "Ġcommonplace": 11096,
    "Ġsoothed": 10028,
    "opposition": 24823,
    "Ġcorpore": 13400,
    "def": 1453,
    "Ġant": 4347,
    "Ġresemble": 15690,
    "Ġpetticoat": 15294,
    "merged": 11193,
    "ics": 3255,
    "take": 4576,
    "Ġcompelled": 14265,
    "Ġtransmit": 10304,
    "bidden": 19736,
    "Ġmaintained": 12931,
    "emed": 3380,
    "perceive": 12808,
    "Ġended": 7949,
    "Ġinstinctively": 13458,
    "Ġbrine": 18768,
    "Ġsyllable": 9728,
    "ogn": 2611,
    "Ġsounding": 8264,
    "Ġfoster": 18991,
    "Ġhourly": 23296,
    "fishery": 10031,
    "lamps": 25260,
    "Ġindisposed": 26287,
    "Ġadver": 5641,
    "Ġturbid": 23610,
    "Ġlbs": 11614,
    "arial": 5532,
    "Ġunchanging": 22040,
    "bur": 4686,
    "ougher": 18277,
    "Ġalliance": 18268,
    "Ġtablets": 13154,
    "Ġprofessions": 11231,
    "Ġthird": 4188,
    "Ġinterlacing": 22573,
    "Ġsubstitute": 16726,
    "ethics": 8877,
    "Ġmargin": 11918,
    "hair": 9122,
    "Ġresort": 18563,
    "valu": 1718,
    "assist": 11765,
    "Ġlengths": 19205,
    "mature": 20966,
    ";âĢĿâĢĶ": 20759,
    "Ġcabinet": 23859,
    "turns": 14904,
    "athered": 6972,
    "Ġexultation": 15170,
    "attle": 4467,
    "supernatural": 19778,
    "ional": 1085,
    "Ġrolls": 8333,
    "Ġoblique": 20168,
    "Ġma": 3251,
    "Ġdimin": 3873,
    "Ġwhistle": 9065,
    "Ġlower": 2664,
    "churning": 21694,
    "Ġ1671": 25005,
    "Ġhaz": 12752,
    "moreover": 12966,
    "ubines": 22956,
    "Ġinnumerable": 13350,
    "duchess": 18458,
    "Ġsour": 21215,
    "Ġbanker": 8666,
    "regulated": 23466,
    "a": 69,
    "wake": 11545,
    "Ġunique": 12774,
    "Ġfatigue": 8697,
    "nyder": 16686,
    "Ġpunctilious": 26352,
    "Ġweave": 21917,
    "Ġcommons": 22669,
    "Ġgrunted": 16168,
    "Ġhasn": 12924,
    "Ġprovoked": 13324,
    "Ġepsom": 19981,
    "endering": 21283,
    "Ġscolded": 25472,
    "Ġacre": 22678,
    "Ġcomplex": 741,
    "Ġproportion": 7282,
    "Ġsultan": 15183,
    "levi": 7047,
    "which": 1707,
    "Ġsearch": 2591,
    "Ġcolleg": 22852,
    "Ġspecific": 2002,
    "Ġplaced": 3442,
    "Ġagile": 22510,
    "Ġbower": 15564,
    "oir": 21001,
    "Ġcurving": 16233,
    "Ġseparated": 9464,
    "Ġnorm": 762,
    "ě": 220,
    "Ġdisasters": 16051,
    "ego": 4037,
    "aisance": 15073,
    "asher": 15643,
    "conjectures": 25180,
    "Ġsacrilege": 26228,
    "Ġnightfall": 23127,
    "inative": 15482,
    "Ġrepairs": 19083,
    "Ġdescending": 8902,
    "Ġdebated": 9040,
    "Ġregularly": 7659,
    "ssible": 2991,
    "unfearing": 21889,
    "Ġdeadliest": 14555,
    "Ġabstraction": 26539,
    "Ġpict": 3497,
    "lighted": 23752,
    "Ġsomeone": 6703,
    "Ġslightest": 6092,
    "Ġaccountability": 10438,
    "Ġirresolution": 24915,
    "Ġcasement": 25092,
    "Ġimpose": 22379,
    "Ġwere": 556,
    "Ġbare": 6132,
    "Ġlowly": 11121,
    "istry": 22106,
    "horses": 17567,
    "ound": 584,
    "vill": 10735,
    "Ġcasts": 19424,
    "angible": 22102,
    "Ġbriskly": 25311,
    "Ġwalls": 6762,
    "###": 3829,
    "looked": 6083,
    "compass": 9459,
    "Ġmortals": 9915,
    "Ġcreat": 1432,
    "Ġtraitors": 23075,
    "Ġharb": 7371,
    "ashions": 16416,
    "Ġultimate": 12347,
    "Ġexcepting": 14679,
    "sprinkling": 24912,
    "Ġaccosted": 13671,
    "ladies": 9528,
    "Ġloaded": 8490,
    "Ġwages": 13853,
    "Ġassid": 18944,
    "fitting": 1510,
    "Ġimpropri": 14214,
    "culous": 11141,
    "true": 2587,
    "Ġpers": 1333,
    "Ġlords": 14640,
    "Ġdig": 6135,
    "Ġasylum": 13665,
    "Ġheighten": 19528,
    "Ġpossibilities": 18976,
    "Ġaway": 1245,
    "Ġhopelessly": 16372,
    "riv": 3103,
    "erable": 1926,
    "duty": 20238,
    "Ġpretend": 7721,
    "orum": 12587,
    "Ġswift": 3668,
    "Ġhuge": 4699,
    "Ġsaviour": 20712,
    "Ġpatronage": 17053,
    "Ġflatter": 9347,
    "velope": 17701,
    "Ġthoroughly": 8347,
    "Ġyea": 8915,
    "Ġdistension": 22502,
    "Ġeleventh": 23367,
    "Ġbeautiful": 3671,
    "ailing": 7021,
    "Ġbillow": 14777,
    "Ġsaturday": 6451,
    "Ġbrink": 18769,
    "dramatic": 19383,
    "Ġbowels": 9429,
    "Ġsnapped": 9896,
    "Ġrail": 7226,
    "Ġallurements": 22069,
    "liest": 6294,
    "Ġmanly": 22321,
    "Ġoverlapping": 26238,
    "Ġforehead": 5261,
    "Ġbreezes": 14867,
    "Ġmail": 17800,
    "anter": 9166,
    "Ġengine": 1921,
    "probably": 10019,
    "gressive": 2755,
    "Ġflights": 24753,
    "gish": 20872,
    "sold": 15425,
    "Ġbreaching": 23345,
    "Ġleatherhead": 20012,
    "Ġinfinite": 8580,
    "Ġincant": 18568,
    "erne": 21268,
    "Ġfists": 15580,
    "monsters": 19170,
    "Ġallowed": 4060,
    "Ġcrippled": 25278,
    "ls": 1289,
    "Ġthunders": 15635,
    "uendoes": 26407,
    "attributed": 23117,
    "ahead": 12432,
    "sworn": 24256,
    "iterranean": 15547,
    "Ġlizzy": 3544,
    "ardy": 22153,
    "Ġne": 389,
    "Ġrandom": 1591,
    "attempt": 9359,
    "Ġunlucky": 10049,
    "Ġretort": 23067,
    "Ġbronze": 22862,
    "Ġarrangement": 2659,
    "elson": 16367,
    "Ġplanned": 14750,
    "Ġrib": 4936,
    "pregn": 18498,
    "prejud": 11794,
    "Ġqu": 604,
    "Ġhaze": 18196,
    "haps": 1671,
    "Ġfishing": 9662,
    "Ġcopy": 10163,
    "mouthful": 25208,
    "Ġhalloa": 13315,
    "Ġelevation": 14897,
    "Ġdiver": 2533,
    "Ġinspection": 14543,
    "fears": 18528,
    "Ġcrowder": 19454,
    "race": 11630,
    "Ġrecovery": 11441,
    "shop": 14236,
    "Ġsweatings": 25710,
    "Ġpropriet": 9549,
    "Ġdoleful": 18377,
    "Ġdisappearance": 9296,
    "fold": 7548,
    "Ġshrubbery": 18232,
    "Ġgolden": 5336,
    "Ġtahitian": 25427,
    "Ġshoals": 13133,
    "Ġdrowsy": 26444,
    "pursue": 24973,
    "Ġsentimental": 24754,
    "Ġkill": 4455,
    "Ġminded": 23229,
    "Ġriding": 14093,
    "Ġdid": 835,
    "Ġthee": 2624,
    "Ġstill": 1156,
    "Ġlanguid": 14220,
    "particulars": 11315,
    "Ġjapan": 7641,
    "Ġimple": 1820,
    "ouching": 13178,
    "artic": 14225,
    "riages": 10242,
    "Ġcon": 348,
    "Ġimpet": 11777,
    "ĠâĢľâĢĻ": 22251,
    "Ġchamp": 18381,
    "Ġep": 7385,
    "completely": 12418,
    "Ġrecounted": 22742,
    "lydon": 13988,
    "Ġsqueaking": 26274,
    "giving": 8738,
    "Ġeat": 4643,
    "Ġunhinged": 26216,
    "slouched": 24557,
    "obst": 11930,
    "orient": 2880,
    "hears": 12530,
    "Ġbuoyed": 20039,
    "Ġrests": 13090,
    "dr": 6221,
    "intolerable": 22935,
    "Ġcl": 552,
    "urious": 21700,
    "Ġwrongfully": 24248,
    "Ġsaloon": 24061,
    "safe": 10053,
    "spears": 23939,
    "Ġdun": 6673,
    "Ġgritted": 22803,
    "Ġdarts": 16768,
    "Ġdashes": 21432,
    "Ġco": 732,
    "Ġinequal": 21494,
    "Ġalabama": 14018,
    "Ġmute": 19414,
    "Ġlastly": 16203,
    "Ġfors": 21768,
    "Ġingenuity": 17163,
    "relation": 19445,
    "Ġtemper": 955,
    "canallers": 22961,
    "ize": 763,
    "Ġcarry": 4778,
    "Ġverdant": 15002,
    "Ġeligible": 10670,
    "Ġwindibank": 7257,
    "Ġtwain": 16117,
    "Ġquite": 1742,
    "Ġminus": 18750,
    "Ġmem": 2071,
    "Ġrhyme": 21975,
    "Ġobservations": 13552,
    "Ġap": 5008,
    "Ġbridegroom": 10604,
    "Ġassaults": 15155,
    "Ġabsurd": 7203,
    "visual": 24222,
    "Ġsmoked": 10322,
    "Ġtooth": 9192,
    "Ġbowl": 11204,
    "Ġtransformed": 22609,
    "--âĢľ": 12969,
    "itchen": 7787,
    "Ġconnection": 5479,
    "Ġswing": 13034,
    "Ġatonement": 21939,
    "tar": 8097,
    "rics": 13035,
    "unte": 21870,
    "sound": 6799,
    "fail": 17540,
    "steak": 14706,
    "naturalists": 23526,
    "limping": 26393,
    "Ġsociable": 19401,
    "Ġsqualls": 17020,
    "prot": 6899,
    "Ġmott": 17803,
    "start": 7600,
    "sim": 6509,
    "Ġruined": 12951,
    "Ġblotting": 25313,
    "Ġcarpent": 4466,
    "Ġappeased": 23197,
    "Ġceiling": 7996,
    "raham": 18013,
    "Ġmurmured": 7482,
    "Ġlasting": 18790,
    "Ġhier": 1895,
    "Ġpoorly": 9854,
    "Ġ81": 24457,
    "asing": 5911,
    "Ġmeekly": 26490,
    "imaux": 21709,
    "nx": 17607,
    "bird": 9585,
    "Ġreven": 18028,
    "Ġgreatest": 4095,
    "cked": 2763,
    "taining": 7207,
    "Ġorganisation": 23582,
    "ittered": 18439,
    "sided": 17664,
    "Ġnoteworthy": 24162,
    "joining": 19444,
    "Ġirrad": 19093,
    "dawson": 26128,
    "Ġforgetting": 3433,
    "Ġrobust": 1441,
    "Ġverses": 17064,
    "Ġswam": 6447,
    "...": 24549,
    "Ġ2026": 12333,
    "Ġsust": 7007,
    "Ã¦us": 14815,
    "plumed": 21952,
    "Ġdiscoursing": 26266,
    ".âĢĶ": 4250,
    "noticed": 14340,
    "Ġreptile": 15276,
    "Ġdrab": 13069,
    ")âĢĶâĢľ": 20742,
    "omical": 9679,
    "Ġbirth": 6523,
    "Ġago": 3133,
    "behind": 6779,
    "Ġoutputs": 2887,
    "Ġaccomplish": 14874,
    "cell": 10685,
    "em": 391,
    "Ġrooted": 13168,
    "ivities": 22080,
    "Ġmachine": 782,
    "Ġfrayed": 23312,
    "Ġconstable": 19070,
    "Ġintimidated": 24805,
    "urried": 21701,
    "Ġblotches": 25314,
    "introdu": 8937,
    "Ġlivery": 15995,
    "weekly": 25684,
    "counters": 25397,
    "ı": 242,
    "Ġimpenetrable": 17396,
    "Ġcarted": 21347,
    "Ġunwound": 25169,
    "Ġoutwardly": 24998,
    "Ġfad": 17876,
    "gravel": 22617,
    "Ġverdure": 10612,
    "Ġgardiner": 3235,
    "ationally": 15702,
    "Ġ59": 24327,
    "Ġch": 512,
    "Ġdoubloons": 13433,
    "Ġsanta": 26420,
    "Ġmax": 2006,
    "Ġinqu": 2965,
    "mechanically": 17299,
    "fts": 18696,
    "Ġinc": 702,
    "Ġfortun": 4982,
    "eridge": 15524,
    "Ġstrives": 23693,
    "iable": 3333,
    "Ġunsettled": 14121,
    "scotland": 20527,
    "Ġagonized": 25372,
    "Ġcomplaints": 12262,
    "accomplished": 17211,
    "Ġbeheaded": 11655,
    "Ġrepugnant": 26590,
    "spanish": 14331,
    "Ġtone": 4041,
    "Ġpacific": 5153,
    "Ġplacing": 8900,
    "settle": 16661,
    "Ġinexorable": 12253,
    "Ġblaming": 22927,
    "Ġsurveying": 25325,
    "Ġmetallic": 19030,
    "Ġcaw": 13882,
    "uctive": 17696,
    "Ġtyro": 16994,
    "Ġbats": 13899,
    "Ġrecording": 24434,
    "Ġhoarsely": 26302,
    "Ġdisputes": 25825,
    "Ġspilled": 10924,
    "flex": 24843,
    "Ġoct": 10158,
    "lifted": 15385,
    "restrained": 16335,
    "Ġrepair": 11977,
    "Ġconversations": 9424,
    "Ġpract": 1839,
    "Ġaper": 17743,
    "Ġunimaginable": 15245,
    "square": 15059,
    "Ġwarning": 9058,
    "utored": 15660,
    "manifested": 20524,
    "had": 1951,
    "madly": 24420,
    "Ġsnoo": 21227,
    "Ġrestoration": 19022,
    "Ġproper": 1379,
    "necessity": 13366,
    "Ġcigaret": 16976,
    "rels": 6664,
    "inking": 6709,
    "Ġcolours": 12971,
    "Ġhipp": 21489,
    "rock": 15638,
    "Ġoakum": 16934,
    "Ġdisappointment": 6626,
    "veral": 2354,
    "Ġrickety": 26505,
    "fs": 17535,
    "clearer": 24067,
    "Ġgun": 4701,
    "Ġchallenges": 13629,
    "Ġwave": 7577,
    "Ġjackal": 24239,
    "grin": 19105,
    "brous": 19198,
    "Ġbecame": 2692,
    "._]]": 5334,
    "Ġbeliever": 25845,
    "Ġenvironmental": 24003,
    "Ġdisquiet": 18551,
    "Ġhelen": 16655,
    "re": 266,
    "Ġameric": 3855,
    "Ġnecessary": 4474,
    "Ġexcited": 5580,
    "ises": 3653,
    "Ġ123": 24468,
    "ahit": 9382,
    "Ġslack": 8955,
    "Ġsurvivors": 25732,
    "Ġinspect": 5963,
    "Ġdistance": 3481,
    "Ġscruples": 15077,
    "Ġalps": 10870,
    "rifled": 21046,
    "gorge": 22329,
    "Ġcommissioned": 19894,
    "Ġvariety": 8530,
    "lur": 13746,
    "atically": 2491,
    "stonecraft": 24356,
    "Ġevangelists": 20338,
    "tempted": 26403,
    "state": 13978,
    "Ġsympathise": 16794,
    "sm": 3434,
    "andromeda": 21865,
    "Ġnew": 1196,
    "down": 3467,
    "Ġfiend": 4412,
    "Ġsavages": 9911,
    "Ġconverse": 11842,
    "prov": 16421,
    "Ġnot": 413,
    "nursery": 26399,
    "accursed": 20539,
    "heavens": 19744,
    "destro": 13310,
    "Ġmonoman": 7938,
    "unhappy": 10237,
    "Ġframe": 1967,
    "Ġattentively": 9949,
    "iations": 11494,
    "Ġmanufact": 22325,
    "Ġindelicacy": 25695,
    "Ġgoblets": 20517,
    "Ġexert": 5722,
    "Ġbrooks": 25700,
    "obed": 14445,
    "signs": 16538,
    "Ġ-": 1946,
    "trucks": 25419,
    "Ġexpecting": 10436,
    "examined": 17266,
    "Ġcompares": 20165,
    "sheltered": 25585,
    "Ġpouring": 12621,
    "<MASK>": 4,
    "shipped": 18491,
    "Ġenv": 2748,
    "incing": 15484,
    "topic": 10527,
    "Ġserve": 9368,
    "Ġport": 3307,
    "Ġcontinental": 19704,
    "Ġheard": 1399,
    "dev": 7634,
    "Ġcable": 11579,
    "reshold": 21238,
    "ilations": 21719,
    "open": 7025,
    "through": 4025,
    "Ġskylight": 24072,
    "Ġharem": 9708,
    "barbaric": 26358,
    "hope": 5989,
    "Ġqualifications": 24675,
    "warmth": 20051,
    "Ġpark": 5465,
    "Ġfasten": 11132,
    "Ġtenth": 13824,
    "Ġsome": 654,
    "Ġinject": 2711,
    "Ġagain": 814,
    "Ġspind": 18307,
    "imod": 15707,
    "este": 15916,
    "bing": 7791,
    "Ġjets": 10287,
    "ree": 873,
    "Ġparading": 23709,
    "Ġrazor": 22657,
    "umns": 14147,
    "Ġneural": 620,
    "Ġinterconnected": 1337,
    "Ġimpending": 22381,
    "Ġmargaret": 10376,
    "tan": 4741,
    "Ġhats": 14618,
    "inno": 10756,
    "Ġtalent": 12295,
    "Ġye": 899,
    "Ġabhorrent": 16856,
    "Ġturner": 7049,
    "Ġsilvery": 13091,
    "Ġwildly": 9413,
    "Ġspring": 4122,
    "Ġeverything": 3151,
    "Ġpreviously": 3922,
    "Ġcreator": 7258,
    "totally": 25417,
    "Ġmental": 21318,
    "Ġtapering": 8770,
    "dred": 2530,
    "dar": 20823,
    "Ġcontaining": 2232,
    "Ġdanes": 25156,
    "Ġopposed": 11188,
    "rinted": 21042,
    "Ġslaughter": 20729,
    "hur": 6648,
    "Ġcostly": 23583,
    "Ġcoincid": 20316,
    "ents": 1897,
    "remarkable": 13497,
    "circum": 16737,
    "Ġeighteen": 11238,
    "ows": 1919,
    "experienced": 15120,
    "Ġnarrower": 24354,
    "Ġequals": 4726,
    "unavoidable": 17389,
    "Ġ[\"": 19929,
    "Ġfaintly": 14913,
    "Ġboarded": 13232,
    "sounded": 12264,
    "ushing": 5730,
    "Ġselling": 21223,
    "Ġcircular": 13109,
    "abbering": 21793,
    "racting": 10353,
    "Ġantichron": 24181,
    "Ġbrack": 23833,
    "makers": 20981,
    "walk": 5523,
    "Ġflashes": 11913,
    "Ġmist": 2878,
    "independ": 15979,
    "Ġpractices": 19044,
    "ocean": 12399,
    "Ġamazed": 14887,
    "Ġlegend": 14574,
    "flutter": 23968,
    "sweet": 8685,
    "quietly": 10592,
    "bs": 3752,
    "Ġdan": 8792,
    "quakes": 21853,
    "lips": 13749,
    "adding": 21756,
    "oqu": 7557,
    "Ġlikewise": 5386,
    "carry": 19525,
    "Ġrequ": 797,
    "Ġconducting": 16649,
    "inion": 2877,
    "eter": 11620,
    "acing": 2717,
    "Ġjoys": 13218,
    "ingale": 21298,
    "Ġqualities": 7535,
    "Ġph": 1550,
    "appeared": 4283,
    "oubled": 23647,
    "Ġdisappo": 4506,
    "Ġprecipitate": 19940,
    "perch": 18339,
    "Ġstrung": 22615,
    "Ġpossession": 5589,
    "Ġrom": 4525,
    "Ġaverages": 2399,
    "Ġante": 17896,
    "Ġflashing": 13025,
    "nearer": 22461,
    "Ġbusks": 23337,
    "ul": 371,
    "Ġgradual": 20600,
    "Ġpondering": 17005,
    "off": 1887,
    "Ġmariner": 7248,
    "minutes": 7514,
    "Ġboot": 11838,
    "Ġcheerful": 6621,
    "Ġpossesses": 19350,
    "Ġregard": 3062,
    "Ġunforeseen": 22048,
    "Ġappar": 7412,
    "Ġdiscreet": 16481,
    "unts": 12728,
    "Ġfootfall": 14660,
    "Ġsons": 10766,
    "Ġevident": 6612,
    "ditch": 17528,
    "Ġlee": 4224,
    "Ġhappiness": 2945,
    "sex": 12710,
    "Ġpunctures": 25133,
    "raised": 15676,
    "Ġloftiest": 16874,
    "Ġdisdain": 8360,
    "Ġexhausted": 8693,
    "ays": 6683,
    "Ġaccommod": 14212,
    "Ġcheapside": 23283,
    "van": 7814,
    "Ġorders": 5340,
    "Ġaught": 8772,
    "Ġeuroclydon": 15295,
    "Ġpreternatural": 12820,
    "disinterested": 23500,
    "Ġestim": 3348,
    "Ġembattled": 26289,
    "fork": 20856,
    "Ġfireplace": 13144,
    "Ġincred": 5646,
    "Ġmethodology": 2401,
    "Ġpython": 1066,
    "dep": 6786,
    "Ġbetween": 793,
    "Ġsleepy": 8267,
    "Ġagricultural": 26550,
    "Ġjokes": 18408,
    "Ġcampa": 17173,
    "Ġgroping": 13664,
    "Ġfault": 5702,
    "Ġimpul": 7209,
    "Ġblocked": 19221,
    "Ġconvergence": 975,
    "Ġgul": 7859,
    "Ġdiabolism": 25514,
    "Ġwindlass": 7256,
    "Ġcontributes": 15249,
    "Ġwilderness": 14838,
    "âĢľâĢĻ": 10221,
    "Ġdenoted": 16564,
    "imper": 13996,
    "evade": 24820,
    "Ġfron": 14487,
    "Ġauthorized": 16735,
    "Ġcrack": 7709,
    "Ġgrinned": 16857,
    "Ġthread": 14538,
    "Ġscratching": 20367,
    "Ġvisited": 5947,
    "satisfactory": 16893,
    "functions": 11256,
    "Ġunwe": 15836,
    "Ġpresto": 22227,
    "Ġoverdone": 22357,
    "Ġterm": 2268,
    "Ġphase": 14471,
    "Ġlistened": 4470,
    "ĩ": 234,
    "Ġsoften": 23120,
    "Ġboon": 22637,
    "Ġjavan": 24997,
    "latitude": 25259,
    "Ġphilosophers": 10551,
    "chooses": 23672,
    "lp": 898,
    "opius": 18508,
    "Ġisol": 8833,
    "thinks": 16641,
    "itancy": 21331,
    "Ġsneer": 13446,
    "laden": 14927,
    "Ġacquisition": 18898,
    "orses": 6051,
    "ituted": 13872,
    "Ġstud": 1570,
    "Ġvolition": 14796,
    "Ġworkman": 16263,
    "ug": 1766,
    "Ġpuzzle": 11305,
    "isbury": 21375,
    "abound": 15737,
    "Ġwhittling": 20698,
    "Ġsnoring": 23738,
    "Ġinexper": 16980,
    "Ġegyptian": 13585,
    "Ġcultured": 25154,
    "Ġlogger": 11952,
    "prophecy": 22822,
    "Ġfile": 13902,
    "fab": 13715,
    "deliber": 17425,
    "Ġhorizontal": 7782,
    "Ġdeclining": 23961,
    "anguish": 15981,
    "Ġsimpler": 2048,
    "Ġresearch": 3117,
    "nial": 20983,
    "Ġnum": 1347,
    "Ġbewildered": 15212,
    "enesis": 24388,
    "Ġalleged": 17290,
    "Ġweig": 7620,
    "Ġsomewhere": 5384,
    "Ġhieroglyphics": 17302,
    "Ġwithal": 18113,
    "Ġfreedom": 9082,
    "explanations": 25234,
    "Ġcorroborated": 26053,
    "Ġprophe": 13077,
    "quohog": 21855,
    "Ġactivation": 918,
    "ocr": 10468,
    "rd": 17649,
    "axed": 8888,
    "Ġspout": 3281,
    "Ġheel": 9683,
    "presum": 12865,
    "tern": 4225,
    "trembling": 17142,
    "Ġsoutherly": 23332,
    "dles": 11480,
    "Ġcrew": 2499,
    "Ġunfit": 14786,
    "wat": 6231,
    "dipped": 20836,
    "Ġabaft": 22271,
    "Ġinferiority": 17115,
    "Ġsafe": 5103,
    "Ġdatasets": 2389,
    "Ġton": 15463,
    "Ġmoodily": 19833,
    "Ġpalmed": 24090,
    "Ġaristocratic": 20510,
    "Ġlocked": 6034,
    "Ġequilib": 4138,
    "Ġswore": 10378,
    "Ġpurchas": 19873,
    "Ġxxxii": 24970,
    "Ġcheerless": 16694,
    "Ġconfederate": 17353,
    "Ġharbors": 24901,
    "repugnance": 16864,
    "hap": 17559,
    "Ġregain": 22576,
    "chari": 21686,
    "Ġencourag": 1392,
    "whose": 6852,
    "Ġannesley": 19576,
    "Ġerection": 23999,
    "Ġfoes": 11949,
    "Ġje": 4124,
    "Ġadmon": 15866,
    "ario": 14247,
    "Ġagitates": 22514,
    "Ġswaths": 23055,
    "Ġriot": 14687,
    "wedged": 24338,
    "Ġstock": 7456,
    "Ġ[": 6967,
    "acrity": 14278,
    "Ġturnkeys": 23025,
    "Ġlength": 2503,
    "Ď": 207,
    "pray": 5429,
    "Ġadvantage": 4317,
    "Ġmoses": 21314,
    "Ġsoph": 1537,
    "Ġabandonment": 25603,
    "Ġhad": 443,
    "Ġbeseeching": 26311,
    "feel": 3814,
    "Ġbug": 11588,
    "Ġthomas": 17947,
    "Ġrates": 1403,
    "fowl": 17549,
    "ylon": 24975,
    "Ġpieces": 7370,
    "Ġchim": 5932,
    "bbs": 23690,
    "county": 25396,
    "have": 2059,
    "lowering": 16029,
    "bordered": 17498,
    "Ġans": 1645,
    "allingly": 22196,
    "Ġexplanation": 6692,
    "extreme": 11028,
    "Ġpresided": 20206,
    "Ġcontented": 9755,
    "Ġsatan": 14389,
    "Ġparac": 12792,
    "Ġreg": 729,
    "Ġdupl": 9953,
    "Ġpurp": 2393,
    "soo": 18685,
    "Ġenticing": 22739,
    "commanded": 16988,
    "Ġaccounts": 7208,
    "_),": 7125,
    "armed": 7252,
    "didst": 19347,
    "qual": 8156,
    "Ġthickly": 12113,
    "quietude": 24655,
    "irting": 11684,
    "troubled": 17112,
    "Ġalleghan": 25795,
    "Ġhuff": 21487,
    "Ġsecondly": 14518,
    "illation": 14141,
    "am": 368,
    "Ġskeleton": 5514,
    "Ġpsychology": 11448,
    "Ġrate": 1062,
    "Ġpetrified": 19595,
    "precip": 14663,
    "Ġnapole": 15114,
    "Ġcheap": 13086,
    "ia": 1260,
    "bury": 9106,
    "ĠĠĠĠĠĠĠĠĠĠĠĠĠĠĠĠĠĠĠĠĠĠĠĠĠĠĠĠĠĠĠĠĠĠ": 14613,
    "Ġcard": 7364,
    "ep": 442,
    "Ġapprehension": 7113,
    "Ġbelief": 5855,
    "Ġmiriam": 25273,
    "Ġimplement": 3160,
    "Ġcasked": 24497,
    "fast": 3065,
    "Ġwaiter": 16359,
    "terday": 4704,
    "ien": 10101,
    "wit": 7817,
    "Ġinsurance": 23680,
    "list": 7553,
    "Ġinfatuation": 25858,
    "forbidding": 25840,
    "disreputable": 23502,
    "Ġmob": 16015,
    "practised": 20246,
    "Ġhen": 3500,
    "Ġexpected": 3696,
    "Ġrifle": 18212,
    "black": 6768,
    "ospit": 22260,
    "Ġost": 9649,
    "Ġmile": 7152,
    "Ġexhaust": 6398,
    "Ġlat": 5087,
    "lording": 24049,
    "Ġmilitary": 11258,
    "Ġenvelope": 7320,
    "ail": 566,
    "grave": 16092,
    "Ġdiversion": 17197,
    "Ġon": 350,
    "Ġfragments": 19043,
    "Ġcritics": 23443,
    "Ġlasted": 11053,
    "Ġamuse": 5939,
    "mist": 5686,
    "Ġfiss": 21410,
    "Ġdines": 21421,
    "Ġspray": 7893,
    "Ġswandam": 11089,
    "arris": 13208,
    "handed": 7484,
    "Ġterribly": 10425,
    "fluttering": 23970,
    "about": 3584,
    "Ġarise": 7895,
    "Ġslices": 23163,
    "Ġrecollection": 6620,
    "mists": 17605,
    "doors": 19094,
    "Ġpardon": 5727,
    "Ġjav": 7901,
    "Ġcaught": 3732,
    "Ġscraping": 13415,
    "Ġgord": 21597,
    "Ġendured": 6072,
    "blubber": 15235,
    "chains": 9684,
    "Ġeclipsed": 26376,
    "Ġaffection": 2641,
    "Ġclap": 10956,
    "Ġimprecations": 25820,
    "Ġgrease": 26189,
    "insensibility": 23066,
    "Ġunconditional": 15842,
    "Ġwert": 12553,
    "Ġmorrow": 9342,
    "Ġusefulness": 19406,
    "Ġenl": 18188,
    "critters": 14782,
    "Ġchann": 15933,
    "vens": 21111,
    "Ġundeniable": 26510,
    "Ġdetermines": 2367,
    "hued": 20910,
    "Ġunimpeachable": 26522,
    "Ġcoiling": 12902,
    "ie": 728,
    "Ġplanisphere": 26607,
    "opening": 10312,
    "Ġjinglers": 26018,
    "Ġdelight": 2550,
    "pressed": 6587,
    "ppo": 18175,
    "ibbald": 18841,
    "sander": 11526,
    "Ġpair": 5706,
    "ote": 4596,
    "luc": 9751,
    "Ġdents": 13910,
    "Ġmagic": 8232,
    "carb": 20809,
    "Ġcontinuing": 14396,
    "Ġregion": 2273,
    "Ġregularization": 1172,
    "Ġposterity": 17401,
    "Ġislands": 6766,
    "becomes": 22493,
    "Ġphant": 7055,
    "Ġthem": 640,
    "cun": 20794,
    "recurring": 24194,
    "Ġwebster": 20160,
    "somebody": 14563,
    "Ġhue": 8428,
    "Ġaunts": 21199,
    "estations": 22219,
    "raction": 8137,
    "Ġneglected": 10377,
    "appointment": 24058,
    "Ġrenewal": 12232,
    "Ġlarger": 1401,
    "ills": 1631,
    "events": 12315,
    "noon": 5037,
    "Ġidentify": 12012,
    "Ġvindictiveness": 25738,
    "ö": 183,
    "Ġovertaken": 18429,
    "Ġdebts": 8035,
    "Ġrum": 5923,
    "Ġfaith": 5350,
    "Ġtap": 12523,
    "Ġhovers": 19078,
    "Ġhussey": 7724,
    "Ġimmovable": 15890,
    "Ġtook": 1858,
    "Ġnotorious": 18223,
    "Ġsy": 491,
    "itime": 15545,
    "att": 1457,
    "positive": 20566,
    "Ġcourage": 4633,
    "Ġrelinqu": 12980,
    "Ġbreaking": 6310,
    "dued": 7908,
    "clerval": 7950,
    "Ġprecipice": 19939,
    "Ġaud": 6661,
    "Ġlocal": 1200,
    "Ġmiss": 1230,
    "Ġpon": 10175,
    "rance": 5993,
    "Ġcompute": 2907,
    "Ġperseverance": 13596,
    "Ġwag": 10775,
    "Ġprot": 3849,
    "quite": 4646,
    "Ġcrabs": 19173,
    "Ġunpleasing": 22050,
    "exercise": 17459,
    "Ġblessing": 11263,
    "Ġsweep": 8265,
    "postp": 24634,
    "Ġhob": 12626,
    "helpless": 16790,
    "Ġflung": 8562,
    "Ġevolved": 9890,
    "actually": 14296,
    "Ġfulfil": 9550,
    "Ġobstin": 14951,
    "Ġalpha": 13587,
    "term": 3760,
    "Ġfeel": 1263,
    "sighted": 19784,
    "missing": 13217,
    "ivil": 6410,
    "Ġcommonly": 3262,
    "Ġinvited": 6903,
    "ð": 177,
    "jets": 20927,
    "Ġboth": 1655,
    "Ġmu": 17795,
    "P": 52,
    "Ġpatagon": 14507,
    "Ġranged": 10257,
    "Ġoxford": 11371,
    "Ġconsp": 10224,
    "Ġnautical": 17385,
    "Ġcleans": 18947,
    "aled": 3946,
    "Ġpilot": 5984,
    "Ġspouts": 7729,
    "Ġnatur": 17333,
    "Ġlumber": 13951,
    "Ġexterm": 21826,
    "Ġhardy": 8565,
    "Ġvillainous": 25131,
    "Ġmexic": 14030,
    "Ġshutter": 16670,
    "Ġdescent": 998,
    "Ġmillions": 11354,
    "ll": 1138,
    "Ġphilosophical": 26334,
    "destined": 24115,
    "coun": 10686,
    "Ġowner": 8921,
    "tee": 16171,
    "Ġpower": 1249,
    "althy": 8431,
    "papers": 12499,
    "Ġplatonian": 25118,
    "pening": 2833,
    "canoes": 16228,
    "cheeked": 19339,
    "gy": 2098,
    "local": 22507,
    "Ġdistress": 5844,
    "Ġsecurely": 16802,
    "Ġconsiderable": 4008,
    "bitt": 17485,
    "remaining": 20219,
    "Ġproperties": 3113,
    "Ġtransparen": 10541,
    "isely": 4489,
    "xt": 2082,
    "Ġden": 3101,
    "Ġstretch": 6993,
    "sters": 6390,
    "Ġgranted": 22805,
    "quis": 7869,
    "Ġrule": 1534,
    "weigh": 18665,
    "oors": 17620,
    "Ġsleeps": 10446,
    "Ġtun": 5998,
    "relu": 17759,
    "Ġoars": 3900,
    "da": 17514,
    "Ġlatin": 16821,
    "Ġunholy": 26218,
    "Ġsluggishly": 25891,
    "Ġsoothingly": 25047,
    "istence": 2258,
    "visible": 10533,
    "umes": 10917,
    "features": 14773,
    "Ġcordially": 16836,
    "Ġpikes": 21476,
    "respectively": 24700,
    "gazing": 12469,
    "Ġ90": 24588,
    "gentle": 5356,
    "Ġwedge": 24069,
    "Ġchaff": 18383,
    "Ġvoids": 25807,
    "Ġlouisiana": 25076,
    "Ġhorn": 6185,
    "Ġbequeathed": 20700,
    "gigantic": 15358,
    "Ġsagaciously": 24731,
    "Ġeul": 21615,
    "cain": 15325,
    "hetically": 21207,
    "Ġblowing": 10484,
    "Ġmeanwhile": 5736,
    "looks": 12016,
    "Ġscold": 10950,
    "Ġfrivolous": 26176,
    "Ġcorrected": 10448,
    "ĠĠĠĠĠĠĠĠĠĠĠĠĠĠĠĠĠĠĠĠĠĠĠĠĠĠĠĠĠĠĠĠĠĠĠĠĠĠĠĠ": 4517,
    "Ġdiscern": 7925,
    "Ġhall": 4185,
    "delights": 19700,
    "Ġquickly": 4242,
    "kick": 20935,
    "Ġsays": 3559,
    "Ġflora": 11416,
    "Ġprehensile": 26534,
    "Ġelaborate": 18639,
    "Ġskilfully": 20522,
    "ominy": 13977,
    "romising": 18233,
    "Ġnowadays": 18545,
    "Ġpsal": 15613,
    "Ġdangling": 17174,
    "Ġbritish": 11337,
    "Ġmomentarily": 22810,
    "aking": 976,
    "Ġhousemaid": 14464,
    "msprop": 2626,
    "absurd": 21792,
    "Ġexpatiate": 18625,
    "Ġfavourably": 16361,
    "Ġunlimited": 26222,
    "Ġassembl": 20059,
    "Ġreasoner": 14437,
    "hammad": 23261,
    "Ġtest": 1511,
    "Ġcheery": 16364,
    "tomahawk": 25915,
    "Ġbewitched": 25975,
    "Ġrascal": 11698,
    "Ġhaunts": 18198,
    "laborers": 23913,
    "across": 10324,
    "thousand": 5547,
    "Ġmiracle": 15092,
    "Ġenhance": 3191,
    "<PAD>": 0,
    "pents": 11512,
    "oro": 21393,
    "Ġlot": 6678,
    "steady": 14707,
    "Ġabject": 18391,
    "Ġstraits": 7993,
    "Ġoblivion": 26031,
    "replied": 11565,
    "Ġfabric": 25947,
    "mouse": 15391,
    "Ġuncomp": 15839,
    "Ġyarn": 10868,
    "diss": 17523,
    "Ġrelevant": 1866,
    "Ġtrait": 23071,
    "Ġfrankness": 16746,
    "icking": 8910,
    "Ġinvented": 17037,
    "mens": 20968,
    "Ġwarsaw": 26167,
    "kindled": 16660,
    "Ġonce": 1492,
    "stranded": 19224,
    "ositories": 22261,
    "Ġdeliberate": 15022,
    "Ġgradient": 450,
    "Ġclatter": 22341,
    "Ġprojects": 9510,
    "§": 105,
    "hun": 5210,
    "Ġagatha": 6866,
    "Ġrequisite": 18632,
    "spersed": 22732,
    "Ġdirectors": 18921,
    "heads": 4097,
    "Ġhomage": 12353,
    "Ġkick": 5837,
    "aux": 14288,
    "shaven": 18492,
    "Ġanxious": 4518,
    "Ġcanted": 17831,
    "Ġincess": 8430,
    "mitted": 5213,
    "Ġbutchers": 18272,
    "throw": 14097,
    "nervous": 16274,
    "Ġdundee": 16997,
    "Ġwretch": 6377,
    "Ġintensity": 10015,
    "iles": 2862,
    "anchor": 13888,
    "nineteenth": 26138,
    "Ġbarnacled": 25536,
    "Ġlabyrinth": 13678,
    "Ġnapoleon": 20556,
    "holmes": 4432,
    "Ġsnatching": 10472,
    "Ġexquis": 9698,
    "Ġborders": 15569,
    "Ġtension": 13823,
    "picture": 11407,
    "Ġmorbid": 16234,
    "nns": 1894,
    "Ġrenow": 18027,
    "akened": 7416,
    "Ġpays": 13295,
    "Ġhardly": 2436,
    "ridden": 24362,
    "Ġsatisfaction": 5667,
    "iline": 21718,
    "vit": 13800,
    "Ġcannot": 1666,
    "ambition": 13410,
    "coarse": 16486,
    "itates": 13868,
    "Ġignorantly": 19494,
    "Ġblue": 3452,
    "Ġdreamt": 23936,
    "Ġunhappiness": 14116,
    "Ġexploding": 2110,
    "Ġimbued": 17454,
    "Ġspies": 22125,
    "Ġvictoria": 14871,
    "yt": 17711,
    "Ġrus": 14091,
    "urean": 18122,
    "ĠĠĠĠĠĠĠĠĠĠĠĠĠĠĠĠ": 1220,
    "Ġinspirited": 23419,
    "Ġcraven": 16469,
    "Ġdispelling": 23878,
    "stepfather": 19190,
    "Ġbul": 3292,
    "Ġpaus": 4300,
    "lydia": 6826,
    "Ġsinews": 20286,
    "Ġuntouched": 16465,
    "problems": 11434,
    "clearly": 25195,
    "Ġdiminished": 16665,
    "ived": 1533,
    "Ġfiends": 14826,
    "conjecture": 15121,
    "popular": 26140,
    "objects": 13469,
    "Ġruggedness": 26268,
    "outer": 9668,
    "pine": 13768,
    "rist": 10122,
    "Ġwhit": 7178,
    "banked": 25337,
    "oric": 21394,
    "isol": 17846,
    "Ġfairness": 9893,
    "Ġsemantics": 2895,
    "Ġmasts": 6464,
    "sockets": 22727,
    "Ġstepdaughter": 22610,
    "Ġalgorith": 560,
    "Ġestimates": 3749,
    "Ġlaw": 3654,
    "Ġcandles": 9907,
    "Ġscreamed": 9523,
    "Ġdiagon": 24740,
    "Ġjeroboam": 10600,
    "ov": 15399,
    "hit": 20888,
    "Ġuneasy": 8661,
    "Ġdick": 3495,
    "Ġcaucus": 17379,
    "Ġrector": 21673,
    "cely": 3572,
    "Ġfinish": 7948,
    "Ġtomahawk": 7541,
    "say": 3985,
    "Ġstepfather": 7222,
    "Ġcourtiers": 24137,
    "Ġessex": 20125,
    "sequently": 14582,
    "stoke": 18022,
    "wal": 10133,
    "Ġprom": 1528,
    "Ġroyal": 5602,
    "Ġwes": 8778,
    "Ġblank": 5950,
    "green": 7115,
    "«": 109,
    "concluded": 11242,
    "Ġunwarranted": 25171,
    "Ġestab": 6315,
    "script": 11077,
    "younger": 11312,
    "Ġconsumed": 10349,
    "interference": 23736,
    "Ġliber": 5168,
    "Ġcons": 953,
    "Ġdisgu": 8205,
    "ont": 2623,
    "Ġbehav": 3538,
    "Ġexclaimed": 4682,
    "Ġbegg": 16250,
    "Ġsubmission": 22787,
    "Ġpensive": 21473,
    "Ġdays": 2079,
    "Ġthimble": 15634,
    "Ġgifted": 17996,
    "Ġuniversally": 11998,
    "Ġburied": 7718,
    "Ġuncont": 14114,
    "lu": 597,
    "Ġdishes": 16047,
    "now": 548,
    "Ġassistant": 7299,
    "harpoon": 9490,
    "Ġmend": 8405,
    "Ġirretrie": 23372,
    "Ġlapse": 17120,
    "Ġnational": 13941,
    "ieces": 4771,
    "Ġdepended": 9776,
    "Ġrosy": 18466,
    "Ġprescribed": 26010,
    "Ġwretchedness": 9026,
    "Ġexceptional": 19369,
    "Ġincreasing": 8246,
    "Ġdecoyed": 18486,
    "tailed": 17685,
    "Ġthus": 2036,
    "Ġancestors": 25642,
    "Ġtumbled": 13405,
    "Ġhandles": 22692,
    "Ġweather": 3998,
    "Ġprofessional": 7300,
    "convalescence": 24884,
    "Ġdictionary": 15111,
    "Ġpleasantly": 14519,
    "Ġreplaced": 13070,
    "Ġmantelpiece": 15206,
    "zetts": 17714,
    "linearity": 1650,
    "Ġmarvell": 7249,
    "endeavoured": 12278,
    "Ą": 197,
    "Ġleviathan": 3287,
    "inclined": 10639,
    "Ġhaving": 1882,
    "Ġtrouble": 3689,
    "plex": 705,
    "Ġseren": 7402,
    "descend": 23082,
    "hoist": 23712,
    "tastes": 21095,
    "ines": 668,
    "oglyph": 11018,
    "Ġfates": 15575,
    "Ġroving": 22412,
    "Ġevinced": 7100,
    "putting": 14099,
    "considered": 9580,
    "Ġpanted": 21470,
    "Ġhalls": 19524,
    "T": 56,
    "appro": 7044,
    "Ġsuit": 5725,
    "Ġascendency": 20231,
    "weaving": 18666,
    "Ġseap": 15815,
    "resting": 23234,
    "aware": 16293,
    "Ġcounterpart": 24721,
    "Ġdisposition": 5409,
    "as": 302,
    "Ġdilated": 24704,
    "plish": 18200,
    "Ġcrescent": 16135,
    "Ġbottled": 23793,
    "iary": 15369,
    "Ġgould": 17989,
    "onical": 21252,
    "Ġsurpassing": 20466,
    "Ġaghast": 16045,
    "Ġassign": 11109,
    "ause": 1311,
    "Ġserviceable": 24718,
    "measured": 19988,
    "Ġfetch": 7769,
    "Ġsword": 6732,
    "Ġlively": 5449,
    "uteronomy": 15661,
    "Ġmelancholy": 5606,
    "Ġbart": 17857,
    "cats": 17512,
    "metals": 24766,
    "pointing": 12222,
    "Ġscoresby": 10462,
    "Ġtrespass": 23599,
    "Ġproudly": 19741,
    "Ġlegitimate": 20641,
    "points": 14392,
    "Ġknotted": 17019,
    "Ġpropag": 16346,
    "erie": 21270,
    "Ġperverseness": 13653,
    "gul": 12463,
    "Ġdefinite": 11069,
    "swallow": 24257,
    "Ġcur": 1248,
    "resolution": 17766,
    "nings": 9131,
    "Ġoverlooking": 22355,
    "seem": 10227,
    "dece": 11732,
    "Ġidler": 16405,
    "Ġcoco": 11000,
    "leagued": 26435,
    "Ġsweating": 16462,
    "13": 20749,
    "ically": 841,
    "Ġslabs": 13058,
    "hotel": 20048,
    "moil": 22700,
    "increased": 20269,
    "?": 35,
    "Ġpled": 17907,
    "embow": 21928,
    "commission": 22801,
    "rison": 13778,
    "crooked": 25746,
    "athed": 7828,
    "Ġterrified": 14670,
    "Ġtweezers": 26556,
    "Ġspoken": 4836,
    "Ġhagger": 21488,
    "Ġcrouched": 23440,
    "Ġsuppl": 11078,
    "lived": 12484,
    "Ġboy": 3020,
    "ping": 9615,
    "Ġincome": 7916,
    "iod": 3841,
    "Ġsage": 17752,
    "national": 20997,
    "tumultuously": 25613,
    "occ": 4485,
    "roded": 17955,
    "fre": 5425,
    "cast": 2928,
    "Ġfiery": 6871,
    "Ġticking": 25033,
    "they": 1881,
    "Ġdecember": 15007,
    "shone": 22445,
    "Ġinvitation": 5189,
    "Ġoccas": 2703,
    "ucket": 2486,
    "Ġbit": 2964,
    "perth": 22177,
    "Ġfidgeted": 25889,
    "Ġpersecut": 16952,
    "Ġfourteen": 12008,
    "rudence": 7092,
    "Ġfrequ": 3326,
    ",": 16,
    "cond": 1667,
    "Ġamateur": 22482,
    "roylott": 20025,
    "wond": 8767,
    "Ġfift": 6381,
    "impregnable": 26481,
    "legra": 10789,
    "Ġassociates": 24712,
    "sharpening": 22456,
    "Ġdict": 9175,
    "Ġpaused": 5416,
    "Ġtenderness": 12213,
    "ice": 587,
    "ours": 3426,
    "ounder": 11742,
    "dropout": 3193,
    "andes": 18151,
    "gradually": 12912,
    "Ġtwice": 4661,
    "Ġtransaction": 22436,
    "Ġsle": 2014,
    "Ġvicinity": 7316,
    "Ġshaped": 15832,
    "Ġensure": 23686,
    "Ġdownst": 3556,
    "Ġ550": 19640,
    "ensils": 22545,
    "ipper": 13739,
    "librarian": 26568,
    "Ġcow": 13875,
    "scarcely": 12384,
    "han": 12470,
    "arthur": 14828,
    "Ġaccordance": 19496,
    "Ġwonderful": 4563,
    "presents": 18795,
    "Ġgame": 3627,
    "Ġtreasures": 17047,
    "Ġembed": 1433,
    "Ġdecreas": 1648,
    "Ġschoolmasters": 19719,
    "Ġcomplaisance": 19447,
    "Ġahoy": 12182,
    "droppers": 24759,
    "Ġcrockery": 24301,
    "?âĢĿâĢĶ": 12892,
    "ament": 2442,
    "discrimin": 19607,
    "Ġwhosoever": 21716,
    "iters": 21327,
    "Ġclattering": 22348,
    "Ġphiladel": 23883,
    "Ġproduces": 2094,
    "Ġgay": 5535,
    "Ġmitigating": 1621,
    "reasoning": 9475,
    "fill": 15349,
    "accidents": 19211,
    "Ġremaining": 6188,
    "Ġstayed": 7997,
    "Ġpigs": 19746,
    "together": 3554,
    "Ġbehaved": 13252,
    "Ġreadiness": 13047,
    "Ġdisplaying": 16966,
    "augment": 18828,
    "asted": 4649,
    "Ġrather": 1496,
    "Ġcocain": 18598,
    "Ġdrug": 11410,
    "Ġdecomp": 3813,
    "Ġrenewing": 19809,
    "Ġdog": 4193,
    "Ġappetites": 20205,
    "Ġblu": 2687,
    "Ġsymbols": 2796,
    "whaleman": 23434,
    "support": 9469,
    "Ġmarty": 20289,
    "7": 27,
    "Ġdecreases": 3408,
    "Ġabsurdly": 19958,
    "ò": 179,
    "Ġobey": 9518,
    "gled": 10699,
    "ensation": 22542,
    "Ġcurds": 22969,
    "Ġincensed": 18571,
    "Ġnieces": 8432,
    "Ġmarbles": 18872,
    "Ġperpet": 7646,
    "search": 8464,
    "crow": 9590,
    "Ġperturbation": 20439,
    "Ġmeddling": 24082,
    "hateful": 20908,
    "Ġdoubt": 2223,
    "sprit": 11382,
    "ose": 717,
    "rine": 21036,
    "Ġquantity": 6948,
    "Ġbre": 1916,
    "Ġmisunderstood": 18703,
    "recur": 4438,
    "bar": 7543,
    "Ġbeams": 14630,
    "Ġdrily": 23539,
    "Ġpondicherry": 20489,
    "Ġsepar": 4001,
    "Ġskeletons": 16791,
    "Ġsign": 2498,
    "Ġcy": 13873,
    "Ġperformer": 18755,
    "Ġjury": 5378,
    "Ġcourses": 10410,
    "ric": 1377,
    "Ġfiled": 15577,
    "Ġtube": 15003,
    "arks": 2846,
    "rote": 4592,
    "Ġuttering": 16461,
    "Ġperiodical": 14770,
    "Ġmaggie": 26291,
    "Ġdreaming": 11223,
    "Ġthrowing": 6335,
    "Ġitalian": 12408,
    "Ġclaw": 22344,
    "Ġmerrily": 23730,
    "Ġdifficulties": 11225,
    "expressing": 16801,
    "Ġexecute": 7507,
    "Ġsuspending": 19243,
    "Ġmiz": 10777,
    "Ġbabes": 24425,
    "Ġtiller": 8964,
    "spout": 7922,
    "Ġwoodlands": 23519,
    "Ġpoltroon": 26598,
    "Ġinjure": 16781,
    "strongly": 24684,
    "Ġanimal": 2501,
    "fashioned": 9570,
    "Ġassistance": 6333,
    "Ġwidth": 16772,
    "onds": 12993,
    "batch": 1983,
    "Ġalike": 8146,
    "brated": 12025,
    "Ġlucy": 17969,
    "whom": 8184,
    "Ġgrieve": 14705,
    "Ġmarry": 4419,
    "Ġlisten": 4673,
    "pertaining": 22180,
    "ideas": 18581,
    "Ġconject": 6026,
    "Ġerecting": 24652,
    "unt": 2044,
    "Ġhurrying": 11993,
    "Ġfuel": 13903,
    "bull": 13689,
    "Ġinsert": 19904,
    "Ġassurances": 9999,
    "yes": 986,
    "crews": 15042,
    "houn": 20892,
    "chard": 21684,
    "Ġhelmeted": 19687,
    "Ġblending": 14398,
    "ar": 285,
    "Ġorgan": 2506,
    "Ġarduous": 26529,
    "Ġrow": 5310,
    "sail": 3601,
    "Ġmartial": 20290,
    "ouring": 6419,
    "Ġpertur": 12848,
    "ox": 9133,
    "gloom": 17139,
    "Ġgout": 21593,
    "learned": 8589,
    "Ġlifelessly": 23045,
    "Ġreliably": 22877,
    "Ġremarkably": 7702,
    "te": 995,
    "Ġchased": 8861,
    "parts": 14600,
    "muring": 17601,
    "Ġemperor": 15157,
    "Ġrespected": 11951,
    "Ġcontact": 9280,
    "sure": 5522,
    "oled": 17619,
    "Ġdiscoverer": 26035,
    "rim": 7137,
    "cated": 20802,
    "ations": 710,
    "Ġstaying": 8283,
    "Ġmaterially": 12189,
    "Ġdirest": 22702,
    "omorrah": 18017,
    "Ġforbe": 8457,
    "mn": 3574,
    "Ġmalady": 24392,
    "Ġpockets": 8895,
    "Ġbuy": 8299,
    "Ġchecking": 23281,
    "brance": 7285,
    "gre": 5788,
    "icherry": 15134,
    "Ġincommod": 25307,
    "Ġpersons": 6180,
    "Ġwilliam": 3480,
    "Ġobstacle": 16955,
    "Ġreadability": 2724,
    "Ġrendered": 5773,
    "Ġsuccess": 3608,
    "ma": 1150,
    "Ġvulture": 17338,
    "Ġelderly": 13494,
    "repe": 8775,
    "ago": 14064,
    "ber": 884,
    "several": 5544,
    "mar": 4337,
    "Ġwrithed": 17106,
    "crew": 7546,
    "ushion": 14718,
    "Ġbubbling": 17325,
    "seated": 11671,
    "posted": 24635,
    "hens": 3939,
    "Ġinst": 913,
    "Ġdefines": 1743,
    "Ġnorthward": 13320,
    "Ġreproofs": 24892,
    "Ġmonosyllable": 20725,
    "Ġbolts": 16943,
    "employ": 10895,
    "Ġgrandeur": 8627,
    "Ġearthquake": 14627,
    "feeders": 25235,
    "Ġbelfry": 26438,
    "Ġsinister": 8568,
    "Ġconnex": 10665,
    "final": 19675,
    "Ġanybody": 5313,
    "Ġmankind": 6698,
    "Ġstil": 15715,
    "umbent": 12093,
    "Ġissuing": 16948,
    "Ġtreat": 3172,
    "below": 12119,
    "Q": 53,
    "Ġdivided": 8631,
    "Ġtremendous": 8353,
    "Ġtrifling": 10602,
    "Ġremote": 8919,
    "erial": 4631,
    "Ġashore": 5351,
    "Ġgales": 12662,
    "arnel": 18124,
    "Ġartist": 12908,
    "Ġerie": 20052,
    "//": 11463,
    "Ġding": 12596,
    "Ġxi": 16428,
    "Ġhates": 21483,
    "Ġtro": 7357,
    "Ġyards": 5371,
    "Ġdefection": 22939,
    "slowly": 9088,
    "uttermost": 24940,
    "Ġaug": 6234,
    "bed": 3288,
    "glit": 23848,
    "Ġperseus": 10603,
    "lemag": 21370,
    "Ġhesitating": 16947,
    "Ġteaching": 10364,
    "Ġgabriel": 7597,
    "Ġwashing": 9704,
    "whalemen": 10431,
    "owal": 13992,
    "Ġorb": 22088,
    "trade": 19635,
    "Ġforgo": 21770,
    "Ġtwentieth": 18659,
    "Ġneatly": 17016,
    "plans": 21949,
    "15": 12428,
    "pshaw": 21027,
    "Ġcoldly": 14649,
    "Ġrefreshing": 20263,
    "Ġweight": 658,
    "Ġsensitivity": 3064,
    "Ġblend": 14397,
    "Ġarrived": 3748,
    "ccess": 3179,
    "dost": 14534,
    "h": 76,
    "Ġstops": 3163,
    "alizing": 17939,
    "Ġindic": 2888,
    "Ġbanners": 24858,
    "Ġdivergence": 2727,
    "dread": 8728,
    "violence": 16477,
    "Ġsharkish": 24506,
    "Ġglow": 7171,
    "Ġpalms": 8643,
    "ortment": 22254,
    "Ġbade": 9171,
    "felix": 10653,
    "Ġpretensions": 16557,
    "define": 1527,
    "eks": 4727,
    "acific": 4960,
    "Ġlashed": 9198,
    "Ġglaciers": 20172,
    "Ġhonest": 7288,
    "Ġdesolate": 10012,
    "Ġsurmis": 23462,
    "Ġsample": 3174,
    "Ġsob": 12780,
    "seamen": 13625,
    "Ġcomplicated": 14733,
    "performances": 26006,
    "sentimental": 25681,
    "ishnoo": 10955,
    "Ġatmosphere": 10897,
    "Ġsublime": 8065,
    "Ġcomo": 21839,
    "rebellum": 26165,
    "Ġeaves": 15673,
    "Ġinvestigated": 25386,
    "neys": 23581,
    "Ġunimpe": 22067,
    "braces": 24658,
    "irited": 15784,
    "Ġcasually": 25093,
    "Ġpoising": 22588,
    "cary": 10689,
    "Ġbowled": 23767,
    "Ġheads": 3742,
    "ffic": 22148,
    "Ġthirt": 13938,
    "Ġdial": 10810,
    "Ġlicence": 25096,
    "rushing": 10017,
    "Ġpals": 13917,
    "Ġendangered": 16302,
    "Ġsubsisting": 23433,
    "decease": 25557,
    "ceased": 21623,
    "Ġcaves": 15551,
    "kind": 3865,
    "algorith": 3376,
    "Ġrally": 21965,
    "Ġpigeon": 9515,
    "Ġchewed": 16366,
    "Ġplaited": 14282,
    "dishon": 20402,
    "Ġicy": 10747,
    "putation": 7626,
    "Ġplainer": 23702,
    "Ġreveal": 11200,
    "Ġkrusen": 20713,
    "Ġjustified": 11902,
    "Ġsteersman": 13039,
    "sea": 4762,
    "apple": 22839,
    "Ġadie": 8488,
    "Ġgases": 21599,
    "Ġcorrect": 2435,
    "itatingly": 25277,
    "Ġfurnish": 9018,
    "mechan": 11855,
    "·": 120,
    "ulty": 22564,
    "Ġcomputes": 4767,
    "etween": 775,
    "ediction": 17944,
    "Ġphenomenon": 17916,
    "Ġenjoyments": 24017,
    "Ġbehoo": 19029,
    "Ġcomplying": 18584,
    "Ġremarked": 3695,
    "twig": 23697,
    "Ġprivileged": 20111,
    "Ġtorpor": 25031,
    "Ġdetained": 18375,
    "Ġfant": 9173,
    "strom": 15681,
    "ĠĠĠĠĠĠĠĠĠĠĠĠĠĠĠĠĠĠĠĠĠĠĠĠĠĠĠĠĠĠĠ": 19699,
    "ington": 21300,
    "any": 3337,
    "aut": 1915,
    "tender": 14473,
    "Ġcontrari": 23347,
    "Ġduc": 4696,
    "inj": 9151,
    "ii": 4015,
    "Ġweltering": 19584,
    "Ġpossessor": 23821,
    "Ġfails": 13312,
    "purp": 8090,
    "Ġmichael": 20678,
    "Ġexclusion": 19394,
    "oms": 4593,
    "orously": 8418,
    "Ġwhoa": 22419,
    "Ġexig": 21823,
    "ssing": 3811,
    "Ġweep": 7621,
    "Ġoffic": 3183,
    "animation": 16979,
    "tle": 2411,
    "pense": 10368,
    "Ġsordid": 26422,
    "Ġtragedies": 25241,
    "Ġlingu": 11613,
    "lections": 4751,
    "proceeding": 20140,
    "idirection": 2413,
    "Ġdirty": 9178,
    "Ġfinest": 10392,
    "Ġpermitted": 9277,
    "Ġball": 3622,
    "Ġyouthful": 16723,
    "conce": 8510,
    "Ġendeavored": 19302,
    "Ġscotch": 12207,
    "otherwise": 7672,
    "ag": 377,
    "Ġperforming": 7927,
    "Ġsaxe": 13627,
    "Ġslighted": 16566,
    "Ġpagans": 16922,
    "Ġmessage": 13522,
    "wrath": 23754,
    "Ġindia": 10370,
    "mand": 3897,
    "Ġinterpret": 5490,
    "Ġcreature": 2383,
    "Ġexh": 5232,
    "Ġdelicate": 6479,
    "athy": 14322,
    "acc": 2536,
    "Ġinsepar": 17933,
    "Ġconsented": 11295,
    "Ġdropped": 4472,
    "Ġfolding": 19726,
    "win": 6801,
    "hurriedly": 25510,
    "erce": 6126,
    "Ġ1836": 25721,
    "diligence": 26110,
    "Ġdeject": 10880,
    "Ġmagical": 23095,
    "small": 6471,
    "Ġwigwam": 11428,
    "Ġundone": 24118,
    "Ġproves": 14037,
    "letters": 13173,
    "Ġeveryday": 22769,
    "ateral": 19375,
    "riet": 18180,
    "seventy": 10876,
    "Ġobsolete": 26558,
    "joice": 9602,
    "Ġsuspended": 5665,
    "Ġpanther": 16819,
    "Ġinterpreted": 1712,
    "Ġmer": 2930,
    "Ġparacels": 13666,
    "Ġroylott": 7306,
    "Ġblubber": 5666,
    "Ġcommenting": 25228,
    "iloqu": 11647,
    "Ġexempl": 21827,
    "fluke": 25204,
    "Ġdistributing": 22676,
    "Ġ&": 6512,
    "Ġgardens": 16453,
    "Ġskul": 22792,
    "Ġextravagant": 17278,
    "Ġconsecutive": 20701,
    "sens": 8095,
    "Ġbridges": 24682,
    "cery": 20807,
    "icest": 21561,
    "Ġmighty": 4231,
    "arrival": 15597,
    "girls": 12317,
    "pread": 7419,
    "Ġreck": 6537,
    "erated": 21269,
    "Ġdug": 21428,
    "up": 1283,
    "Ġfinal": 5400,
    "Ġtalk": 1970,
    "solely": 19815,
    "Ġbushy": 16401,
    "Ġvain": 3628,
    "Ġinseparable": 20687,
    "critical": 19502,
    "Ġnotions": 14098,
    "Ġstalked": 20427,
    "Ġanimated": 7701,
    "Ġconfronted": 23304,
    "Ġeluded": 12921,
    "Ġcorre": 3891,
    "Ġslipped": 6491,
    "dinner": 11406,
    "Ġcontemptuously": 19832,
    "Ġcannibal": 7773,
    "Ġrack": 9311,
    "Ġexclamation": 8698,
    "espe": 3496,
    "utted": 15658,
    "ucumber": 19060,
    "Ġbrush": 17864,
    "merely": 16133,
    "holloa": 19462,
    "Ġbulb": 23853,
    "Ġclump": 15963,
    "Ġgallery": 10524,
    "Ġstupid": 7605,
    "Ġhorizont": 6937,
    "Ġinsp": 2102,
    "Ġdexterously": 25295,
    "robotics": 11306,
    "ĺ": 251,
    "Ġtruly": 4795,
    "Ġfinally": 4666,
    "Ġtwenty": 3951,
    "Ġbrazen": 23837,
    "Ġsorrow": 4628,
    "Ġmurmuring": 23578,
    "Ġoutsk": 15954,
    "keepers": 16659,
    "amp": 2606,
    "reigned": 21241,
    "designated": 26295,
    "Ġpenalizing": 13088,
    "Ġjerked": 19831,
    "la": 10705,
    "acled": 16079,
    "Ġwhites": 21714,
    "iracle": 11243,
    "Ġarrow": 10931,
    "Ġspend": 5304,
    "asy": 5294,
    "Ġspices": 22127,
    "Ġtarget": 2821,
    "Ġqueerest": 16413,
    "Ġcath": 17826,
    "Ġcapabilities": 4378,
    "Ġbearing": 5298,
    "sperm": 5203,
    "Ġlosing": 10916,
    "ush": 3630,
    "found": 4215,
    "volutions": 16321,
    "Ġrag": 18643,
    "it": 276,
    "spee": 9316,
    "arius": 14248,
    "included": 19207,
    "Ġponderous": 8355,
    "Ġbeds": 14550,
    "owing": 7603,
    "Ġrequires": 1008,
    "Ġparameters": 994,
    "cape": 13696,
    "Ġstaple": 26198,
    "uvian": 12240,
    "fear": 8513,
    "Ġxviii": 23408,
    "Ġviews": 7291,
    "repeated": 12337,
    "Ġgreen": 3048,
    "scruple": 26045,
    "quiet": 6154,
    "ensibility": 22544,
    "Ġsake": 4094,
    "Ġinput": 610,
    "Ġbrothers": 13176,
    "Ġdisput": 14255,
    "wheel": 22865,
    "Ġtalks": 23368,
    "Ġtext": 2269,
    "Ġbrawny": 13612,
    "bert": 4662,
    "Ġthis": 382,
    "zening": 21147,
    "Ġeffectively": 2628,
    "put": 414,
    "iate": 6504,
    "Ġrabb": 4165,
    "Ġfoolishly": 19781,
    "circle": 16736,
    "Ġconceal": 5973,
    "catherine": 7127,
    "Ġvertically": 19378,
    "Ġdetail": 634,
    "Ġprint": 18970,
    "Ġbitterly": 8314,
    "Ġopulence": 23626,
    "Ġknee": 7093,
    "Ġalph": 9694,
    "placed": 7877,
    "Ĉ": 201,
    "ms": 540,
    "stalls": 26473,
    "namely": 23703,
    "Ġdesign": 4134,
    "Ġthrew": 3975,
    "Ġtides": 13820,
    "Ġcomforters": 25800,
    "Ġreusable": 13556,
    "Ġbelongs": 8014,
    "Ġcrackling": 24958,
    "Ġbreeds": 23346,
    "Ġinstead": 2789,
    "Ġkeeled": 18805,
    "ounding": 22389,
    "seas": 14032,
    "supers": 22632,
    "Ġsheep": 10926,
    "Ġaction": 5796,
    "contents": 12056,
    "arched": 10815,
    "Ġvortex": 26208,
    "Ġclapped": 9744,
    "Ġobjection": 6585,
    "Ġattendant": 11285,
    "sisters": 13375,
    "approb": 11042,
    "friend": 3864,
    "serv": 7452,
    "unavoid": 14061,
    "Ġholiest": 18811,
    "Ġbishop": 13901,
    "Ġfreshet": 25704,
    "accompan": 11452,
    "Ġfright": 3799,
    "Ġsewing": 21958,
    "osen": 6855,
    "Ġslide": 10393,
    "Ġlucas": 3834,
    "Ġwrought": 11942,
    "Ġkilburn": 18351,
    "ispiece": 19724,
    "Ġwip": 13852,
    "cle": 3957,
    "Ġpained": 19166,
    "Ġadhering": 14139,
    "Ġdespondence": 25869,
    "Ġimmortality": 26325,
    "Ġwife": 2588,
    "Ġrand": 1588,
    "forming": 15919,
    "icha": 11736,
    "Ġstoven": 23173,
    "Ġcountrymen": 23594,
    "Ġprofits": 16488,
    "Ġgibe": 25959,
    "Ġtermination": 16460,
    "Ġchanged": 5242,
    "Ġincident": 6280,
    "Ġfame": 21404,
    "Ġexertion": 8053,
    "creation": 14804,
    "Ġwhir": 6392,
    "embers": 21926,
    "Ġremorseless": 13450,
    "Ġpoliceman": 15257,
    "lemency": 21372,
    "jar": 17577,
    "Ġexceptions": 13228,
    "hawks": 24694,
    "Ġestates": 16459,
    "Ġincessant": 15096,
    "Ġvisions": 12974,
    "Ġbrass": 11048,
    "Ġporthole": 24399,
    "Ġinsensibly": 20074,
    "Ġsociet": 9448,
    "Ġparticulars": 5754,
    "Ġgestic": 21605,
    "10": 17472,
    "hercules": 22201,
    "Ġstiff": 6992,
    "Ġvictims": 19803,
    "Ġfulfilled": 11362,
    "Ġglit": 8559,
    "Ġpitched": 9443,
    "Ġcoloured": 11045,
    "iners": 4937,
    "Ġresolutely": 14608,
    "Ġscheduling": 2350,
    "returned": 7765,
    "Ġfest": 10804,
    "settled": 10506,
    "Ġdowncast": 18652,
    "secre": 18127,
    "Ġrecollected": 8310,
    "Ġcrad": 21348,
    "Ġflorid": 17135,
    "Ġforlorn": 14014,
    "Ġmodified": 14167,
    "Ġopposing": 12038,
    "Ġphiladelphia": 26604,
    "Ġimmense": 4952,
    "Ġearth": 2852,
    "Ġaudacity": 19881,
    "law": 6115,
    "Ġphrenologically": 20392,
    "Ġscalable": 1607,
    "Ġhunks": 18935,
    "Ġsultry": 20287,
    "Ġmasses": 10503,
    "Ġcheck": 7272,
    "Ġknowledge": 1447,
    "Ġexaggerated": 25650,
    "instance": 24168,
    "Ġhumorous": 10360,
    "ander": 6400,
    "thine": 15822,
    "distant": 13333,
    "Ġemployments": 12100,
    "waving": 21130,
    "99": 1896,
    "Ġquarters": 8619,
    "Ġarrant": 23292,
    "Ġpersuasion": 10498,
    "Ġgrievous": 13259,
    "cring": 20810,
    "mistake": 24529,
    "Ġtantamount": 25625,
    "Ġnaturally": 2470,
    "Ġdistressing": 12216,
    "Ġstave": 11650,
    "Ġunlocking": 20705,
    "heart": 4526,
    "crier": 20819,
    "seemed": 4305,
    "oppressed": 24824,
    "Ġbleak": 10558,
    "Ġenergy": 2555,
    "va": 4742,
    "Ġrolling": 5974,
    "bits": 17488,
    "Ġvibrating": 13537,
    "Ġfrigates": 25707,
    "powder": 17645,
    "likewise": 13104,
    "tedious": 22630,
    "Ġshipped": 9714,
    "Ġpaths": 2571,
    "Ġordinarily": 20648,
    "Ġde": 363,
    "100": 11464,
    "Ġrewards": 10848,
    "Ġminimum": 23035,
    "Ġzone": 14361,
    "Ġyawned": 15051,
    "rew": 3648,
    "Ġsavesoul": 26227,
    "Ġundressed": 19512,
    "photograph": 16148,
    "Ġgoing": 2067,
    "inspector": 13645,
    "Ġinstructing": 3119,
    "eling": 6681,
    "Ġnicely": 8708,
    "Ġdeer": 12717,
    "Ġtragic": 15254,
    "Ġbuckler": 24859,
    "Ġminima": 3462,
    "Ġfastened": 7065,
    "Ġbrid": 6290,
    "pon": 17625,
    "Ġfishes": 11590,
    "Ġmeadows": 11422,
    "Ġstrangers": 8313,
    "port": 10719,
    "hound": 20894,
    "Ġfaithfulness": 24446,
    "removing": 17764,
    "Ġoriental": 9096,
    "Ġtranquil": 7311,
    "Ġlogits": 3448,
    "Ġadvice": 4901,
    "ognit": 19234,
    "ġ": 226,
    "Ġ26": 10470,
    "lyph": 10852,
    "Ġdet": 510,
    "Ġbutterfly": 19909,
    "Ġcowards": 12570,
    "Ġreckoning": 14978,
    "Ġbriony": 9328,
    "Ġpeasant": 13550,
    "Ġconvincing": 19307,
    "Ġsometimes": 2166,
    "Ġidleness": 11144,
    "rown": 2193,
    "Ġdinner": 4246,
    "Ġawaken": 23585,
    "shadow": 20311,
    "Ġfooting": 14482,
    "Ġcolleague": 17159,
    "uttered": 8440,
    "ening": 3099,
    "Ġgoes": 3854,
    "Ġpeter": 10535,
    "fect": 2300,
    "oars": 9614,
    "Ġmund": 21316,
    "Ġcommend": 10334,
    "Ġmodesty": 12816,
    "ĠâĢĺ": 1633,
    "Ġwhatsoever": 18455,
    "Ġcongratulations": 10580,
    "arking": 16123,
    "Ġbub": 8117,
    "allowed": 5728,
    "Ġgu": 1325,
    "_.)": 7279,
    "Ġpolitely": 8993,
    "Ġbrooding": 18906,
    "Ġoblivious": 26032,
    "Ġreversed": 15694,
    "rior": 12739,
    "gra": 769,
    "nonsense": 17615,
    "oud": 1943,
    "Ġnotes": 7190,
    "hedge": 22496,
    "Ġming": 9645,
    "Ġenter": 4031,
    "Ġpublished": 11241,
    "Ġslid": 7951,
    "Ġgrated": 22802,
    "Ġprocessing": 900,
    "Ġairs": 14510,
    "Ġundaunted": 24120,
    "ikes": 8086,
    "Ġchord": 22242,
    "ividual": 5463,
    "Ġdevotion": 22716,
    "algorithms": 8292,
    "Ġbend": 9170,
    "spot": 9788,
    "Ġexord": 21824,
    "console": 22468,
    "among": 6256,
    "Ġfleet": 9431,
    "possessed": 9527,
    "tch": 9141,
    "Ġinserted": 8356,
    "Ġyes": 2689,
    "chambers": 25454,
    "Ġheaving": 7602,
    "Ġradney": 6775,
    "prosperity": 20734,
    "Ġrecorded": 11293,
    "acked": 10973,
    "quently": 9701,
    "Ġachieve": 3672,
    "Ġopens": 23625,
    "Ġund": 4120,
    "Ġsi": 21211,
    "Ġarrested": 9560,
    "Ġwing": 6665,
    "cred": 9107,
    "Ġcrowds": 14737,
    "Ġseeing": 2886,
    "Ġbes": 2662,
    "exact": 7909,
    "Ġsurrounds": 24231,
    "Ġshy": 10903,
    "icip": 6388,
    "Ġconviction": 6326,
    "Ġsoliloquized": 17301,
    "Ġcit": 10783,
    "Ġsnapping": 19300,
    "Ġheeds": 24520,
    "Ġmood": 6276,
    "Ġshoe": 14566,
    "Ġgallantry": 15102,
    "Ġcurls": 22967,
    "Ġperplexity": 2756,
    "plate": 18199,
    "feit": 16040,
    "Ġproduced": 2456,
    "Ġvapory": 17006,
    "Ġnap": 8808,
    "Ġblanc": 11065,
    "Ġsupper": 4665,
    "Ġconcrete": 20635,
    "fooled": 24419,
    "Ġmainly": 22651,
    "Ġfrightened": 5341,
    "Ġcommunicative": 24548,
    "Ġaimed": 20249,
    "Ġfight": 5366,
    "Ġfamil": 4321,
    "Ġeaster": 15672,
    "Ġinitial": 822,
    "trimmed": 23946,
    "rigging": 20004,
    "harpoons": 24285,
    "Ġbarred": 9002,
    "convolutional": 4958,
    "antucket": 2646,
    "Ġlit": 6246,
    "nowadays": 22335,
    "rate": 2424,
    "Ġwheeling": 18288,
    "Ġaval": 15492,
    "Ġdisapprobation": 16055,
    "Ġmace": 21308,
    "ware": 3937,
    "Ġintermix": 22574,
    "Ġtire": 17720,
    "Ġskewer": 19619,
    "favouring": 24762,
    "met": 6652,
    "Ġfatig": 6756,
    "Ġgeneralization": 985,
    "Ġpret": 3032,
    "Ġnom": 21516,
    "Ġscorching": 20066,
    "Ġethiop": 26155,
    "<EOS>": 2,
    "yourself": 6742,
    "ometer": 19325,
    "fa": 7337,
    "Ġarrange": 3116,
    "H": 44,
    "Ġconceits": 19388,
    "Ġmidday": 23631,
    "sides": 12505,
    "Ġholidays": 22918,
    "stays": 15686,
    "dle": 3246,
    "book": 4669,
    "architect": 22888,
    "Ġretribution": 16278,
    "Ġcome": 1243,
    "abez": 10222,
    "ippers": 17576,
    "Ġbolivia": 24667,
    "ley": 1816,
    "Ġwhose": 2008,
    "Ġinaccessible": 13933,
    "Ġcluster": 13570,
    "Ġlonely": 6823,
    "finds": 19926,
    "Ġliable": 14228,
    "touched": 15438,
    "Ġtrifle": 10601,
    "Ġlift": 8810,
    "strike": 14947,
    "Ġwallowing": 24042,
    "ashing": 4824,
    "mortal": 10112,
    "Ġblushed": 12999,
    "confirm": 16807,
    "corrid": 24484,
    "Ġtre": 2539,
    "Ġboundless": 10495,
    "Ġfrog": 23918,
    "Ġcook": 3712,
    "Ġbill": 4042,
    "sam": 21050,
    "ifies": 6686,
    "leaves": 12575,
    "Ġmamm": 25090,
    "Ġimprec": 14216,
    "Ġaugment": 8691,
    "woe": 21134,
    "Ġlearnable": 3997,
    "Ġsalted": 14754,
    "Ġarose": 7361,
    "ages": 827,
    "voices": 21116,
    "strugg": 21659,
    "find": 6954,
    "aker": 3662,
    "Ġtattooings": 24900,
    "Ġage": 3899,
    "Ġoverpower": 12839,
    "Ġmonica": 22980,
    "Ġvacant": 9494,
    "j": 78,
    "Ġnumber": 1982,
    "Ġmourn": 8703,
    "Ġgayer": 24501,
    "orange": 21398,
    "Ġforg": 3790,
    "Ġeloped": 22648,
    "Ġmans": 15534,
    "Ġgrapple": 25811,
    "takes": 21074,
    "Ġlinked": 15076,
    "rigible": 24931,
    "iac": 6225,
    "descried": 11927,
    "establishment": 26113,
    "Ġguardians": 14941,
    "Ġfervent": 14894,
    "older": 15753,
    "Ġtrod": 15026,
    "onde": 21250,
    "Ġdeaf": 12718,
    "plendent": 21955,
    "orney": 17873,
    "Ġstar": 6022,
    "being": 3916,
    "Ġkings": 7198,
    "Ġfringed": 17272,
    "Ġforebodings": 17303,
    "stove": 21649,
    "Ġif": 697,
    "Ġfork": 15729,
    "iteous": 14261,
    "Ġcausal": 3409,
    "perpetually": 20511,
    "Ġreasoned": 23057,
    "aby": 18106,
    "Ġunprofitable": 18264,
    "acquired": 24296,
    "Ġjot": 11761,
    "Ġhorns": 11123,
    "ascertaining": 26460,
    "Ġforger": 15730,
    "Ġpitching": 16611,
    "Ġbeale": 12696,
    "Ġdecently": 22439,
    "Ġhath": 12625,
    "Ġjump": 4504,
    "Ġnerves": 2629,
    "Ġfacil": 16962,
    "Ġbubblingly": 25632,
    "warrior": 24798,
    "sleepers": 24730,
    "Ġretention": 23068,
    "go": 2064,
    "Ġscrew": 8867,
    "Ġcomprehend": 6493,
    "Ġprincipal": 6495,
    "wick": 5362,
    "Ġsenate": 25214,
    "Ġscraped": 16903,
    "Ġquivered": 18462,
    "ection": 4948,
    "Ġconcert": 11963,
    "tossed": 10996,
    "Ġbreathe": 9011,
    "recursion": 13327,
    "Ġreconciled": 13586,
    "Ġworsh": 12997,
    "Ġflip": 11910,
    "gement": 13727,
    "Ġtwos": 18657,
    "Ġcondesc": 7182,
    "Ġappals": 22213,
    "Ġnurse": 9516,
    "Ġeach": 890,
    "Ġscrewed": 15119,
    "Ġvisible": 4776,
    "lengths": 24846,
    "Ġcottagers": 6761,
    "Ġmothers": 14539,
    "Ġacquaintance": 4135,
    "coiled": 16485,
    "joke": 20929,
    "Ġspaulding": 11729,
    "cer": 6642,
    "Ġpipe": 4322,
    "Ġsale": 14154,
    "fishers": 24928,
    "Ġquality": 3526,
    "Ġgrassy": 24379,
    "chance": 6827,
    "necessarily": 19630,
    "£": 101,
    "Ġglac": 9345,
    "threshold": 21984,
    "Ġrid": 4356,
    "Ġcashier": 20197,
    "infall": 21187,
    "oregressive": 3423,
    "Ġfebruary": 15910,
    "Ġsplice": 19308,
    "Ġforts": 21769,
    "Ġsupposed": 4558,
    "uncomfortable": 18160,
    "faint": 17545,
    "ige": 12677,
    "standard": 22428,
    "Ġmaid": 5285,
    "created": 12448,
    "Ġleaped": 8825,
    "Ġsubterr": 10348,
    "Ġevid": 3498,
    "Ġincomplete": 17208,
    "Ġslouched": 13056,
    "idge": 14013,
    "elzebub": 26464,
    "lean": 21363,
    "forced": 11033,
    "nav": 17612,
    "horn": 8085,
    "holder": 13281,
    "answ": 15882,
    "vig": 15445,
    "ieve": 1658,
    "Ġneuron": 1808,
    "car": 4212,
    "umst": 2507,
    "Ġshrugged": 12766,
    "Ġcorner": 4371,
    "Ġmelted": 19620,
    "Ġoscill": 2858,
    "clergy": 18933,
    "starbuck": 6018,
    "Ġere": 3684,
    "signed": 21060,
    "pond": 21012,
    "Ġcircumnavigation": 20398,
    "rocket": 13943,
    "Ġpolluted": 25593,
    "Ġsuff": 1302,
    "isles": 15561,
    "ered": 1682,
    "Ġlandowner": 23379,
    "ancholy": 5070,
    "Ġwhiskers": 10492,
    "build": 12185,
    "Ġyours": 4125,
    "Ġlabeled": 3718,
    "Ġyawning": 12298,
    "comra": 16165,
    "belt": 24034,
    "Ġgossiping": 26243,
    "fore": 686,
    "Ġgod": 1938,
    "Ġunsupervised": 2387,
    "Ġcatching": 9477,
    "Ġtemporary": 7980,
    "dripping": 16905,
    "Ġcoals": 16073,
    "effectually": 25128,
    "Ġslewed": 23383,
    "Ġthunder": 4823,
    "Ġmeagre": 21807,
    "bre": 3980,
    "Ġ70": 11276,
    "unity": 4153,
    "trying": 15437,
    "ingolstadt": 21302,
    "ficial": 17548,
    "Ġtorrents": 20054,
    "details": 19674,
    "illustration": 2283,
    "tales": 17686,
    "unerative": 21893,
    "Ġtries": 9150,
    "Ġledge": 19399,
    "case": 5206,
    "ithing": 11648,
    "the": 334,
    "Ġbenevol": 5961,
    "ù": 186,
    "Ġnewspapers": 17186,
    "Ġimmortal": 8017,
    "Ġalterations": 19870,
    "Ġbedfellow": 16437,
    "Ġbands": 14882,
    "exhibited": 18477,
    "Ġpossessing": 16575,
    "comple": 7441,
    "Ġdilig": 8349,
    "Ġhereditary": 10664,
    "Ġreappeared": 21662,
    "Ġhart": 17921,
    "Ġworship": 10366,
    "Ġharrow": 17925,
    "Ġarguments": 8036,
    "Ġovers": 14205,
    "Ġcommanders": 23866,
    "Ġplane": 11821,
    "landish": 11940,
    "Ġwounding": 19585,
    "Ġyou": 366,
    "avers": 17480,
    "twilight": 23700,
    "furnish": 25338,
    "arb": 1566,
    "iple": 4806,
    "Ġinfallibly": 10040,
    "Ġgrate": 12960,
    "Ġanyways": 22517,
    "Ġpanelled": 19653,
    "Ġapothe": 12373,
    "liking": 22921,
    "amy": 8467,
    "embedding": 20703,
    "Ġrepulses": 26070,
    "Ġrude": 7235,
    "Ġloveliness": 13607,
    "Ġmedit": 8018,
    "Ġtechni": 1698,
    "Ġfairy": 14626,
    "Ġropes": 10748,
    "Ġimpelled": 11780,
    "Ġpenetrated": 13471,
    "improve": 15709,
    "Ġnoiseless": 10356,
    "rences": 9271,
    "Ġumb": 11645,
    "Ġcongregation": 12327,
    "Ġobeying": 13413,
    "Ġbrains": 2632,
    "Ġdiscl": 9796,
    "Ġobscurely": 20187,
    "Ġclim": 8194,
    "Ġcruise": 12046,
    "ease": 12455,
    "queg": 1769,
    "Ġreferred": 8918,
    "co": 2437,
    "Ġ37": 24077,
    "ting": 1331,
    "Ġtouched": 6000,
    "disappeared": 14569,
    "ernsey": 8901,
    "Ġacquiescence": 20329,
    "auley": 22620,
    "Ġformed": 3886,
    "Ġwides": 17788,
    "Ġabhor": 5467,
    "Ġanswer": 2599,
    "Ġtantalizing": 20412,
    "Ġtargets": 4205,
    "delirious": 19504,
    "Ġconnivance": 25225,
    "Ġaperture": 26160,
    "achel": 7032,
    "Ġhighway": 14343,
    "Ġfarmhouse": 24984,
    "Ġembellish": 25848,
    "Ġtheir": 644,
    "alyards": 18806,
    "ĠĠĠĠĠĠĠĠĠĠĠĠĠĠĠĠĠĠĠĠĠĠĠĠĠĠĠĠĠĠĠĠĠĠĠĠĠĠĠ": 19258,
    "Ġsanity": 24979,
    "accept": 8897,
    "Ġency": 21930,
    "Ġdepicted": 14283,
    "Ġ125": 24470,
    "Ġmonths": 3453,
    "Ġbrisk": 9802,
    "Ġslavish": 23171,
    "odd": 21811,
    "Ġneared": 14072,
    "Ġsleeper": 8600,
    "Ġscuff": 15941,
    "travellers": 24318,
    "Ġ/*": 10139,
    "Ġacquiring": 2767,
    "Ġmanaged": 7905,
    "Ġlighten": 23257,
    "ici": 8439,
    "formality": 22221,
    "Ġmad": 2428,
    "hr": 20887,
    "Ġsumat": 14135,
    "Ġarm": 2495,
    "Ġfirst": 938,
    "public": 17646,
    "03": 20747,
    "Ġoutline": 15952,
    "Ġdrawer": 13264,
    "Ġemperors": 15158,
    "Ġrecommence": 16812,
    "Ġcaps": 8414,
    "Ġoptimization": 1435,
    "Ġad": 445,
    "Ġunperceived": 22032,
    "jewel": 20345,
    "Ġstructured": 2972,
    "kitty": 10105,
    "Ġaspects": 4176,
    "mered": 8217,
    "Ġsteam": 9352,
    "Ġnervousness": 23555,
    "Ġexper": 1280,
    "kes": 3677,
    "Ġalighted": 18103,
    "Ġincorrupt": 19233,
    "fem": 17537,
    "floated": 24643,
    "oran": 8788,
    "Ġthrows": 14735,
    "astes": 11737,
    "Ġdined": 9176,
    "Ġambergris": 8705,
    "buoy": 7760,
    "liness": 8746,
    "Ġhuddled": 20298,
    "Ġfren": 10805,
    "Ġcomfor": 14051,
    "succeeded": 15174,
    "happiness": 6468,
    "Ġgrampus": 21990,
    "ti": 8389,
    "Ġdown": 830,
    "Ġcitizens": 25439,
    "Ġjumped": 7096,
    "Ġclam": 7417,
    "Ġboa": 22635,
    "early": 20117,
    "Ġconcoct": 19048,
    "Ġcanoe": 9722,
    "Ġascertaining": 17203,
    "Ġseems": 2484,
    "Ġfled": 6670,
    "Ġcomely": 21840,
    "pudding": 17647,
    "Ġpuzzling": 14896,
    "Ġat": 395,
    "king": 3055,
    "iz": 365,
    "Ġstature": 10863,
    "venge": 4658,
    "ē": 212,
    "Ġintegral": 25008,
    "parsee": 14505,
    "derment": 22158,
    "Ġarbit": 4650,
    "Ġsnuff": 7991,
    "Ġpat": 1818,
    "Ġvancou": 22874,
    "benefact": 24641,
    "Ġwink": 11568,
    "reason": 4415,
    "Ġamusing": 11798,
    "authority": 13590,
    "official": 24914,
    "Ġsits": 10768,
    "Ġvaried": 11846,
    "singular": 12186,
    "Ġsymph": 22208,
    "wickham": 5883,
    "impul": 16555,
    "Ġsombre": 18859,
    "Ġreconc": 9682,
    "Ġpainfully": 13141,
    "Ġreaching": 7304,
    "Ġbackgammon": 22643,
    "anth": 13886,
    "sweeping": 24618,
    "european": 26371,
    "Ġaudible": 19880,
    "peaceful": 20445,
    "Ġphara": 23199,
    "Ġlamb": 8812,
    "described": 18894,
    "nailed": 20995,
    "Ġunlock": 18240,
    "exactly": 10636,
    "Ġimprecate": 20516,
    "Ġchronicled": 25328,
    "Ġspeed": 2452,
    "impress": 18051,
    "Ġinsanity": 12044,
    "came": 4570,
    "smooth": 20247,
    "Ġstru": 2170,
    "ensities": 22543,
    "Ġvolcanoes": 24146,
    "Ġterra": 13115,
    "Ġassuming": 16693,
    "Ġuncle": 3188,
    "eray": 21265,
    "Ġsled": 21217,
    "Ġblow": 3373,
    "Ġmeth": 1438,
    "ê": 171,
    "Ġoxen": 19949,
    "Ġexists": 14040,
    "Ġride": 12755,
    "roar": 17952,
    "Ġunpardonable": 22057,
    "Ġix": 12665,
    "Ġglim": 9343,
    "owners": 16085,
    "Ġwith": 349,
    "vag": 8764,
    "Ġdespondency": 16577,
    "beyond": 8882,
    "Ġdeftly": 26493,
    "nament": 11506,
    "whiskers": 12309,
    "Ġripp": 11219,
    "Ġterrier": 23397,
    "Ġrailway": 15020,
    "ided": 2784,
    "Ġble": 5223,
    "ugn": 9377,
    "Ġgidd": 25783,
    "Ġcalamity": 17348,
    "Ġsun": 1720,
    "Ġlived": 3992,
    "Ġcrow": 3807,
    "Ġashamed": 6402,
    "Ġardently": 9497,
    "Ġcompleted": 8997,
    "hideous": 25407,
    "irc": 1731,
    "Ġcolon": 18764,
    "Ġowe": 8114,
    "Ġtufted": 17014,
    "Ġdirecting": 16298,
    "Ġdexterity": 25294,
    "Ġknight": 9726,
    "Ġweeps": 24947,
    "Ġnigh": 4878,
    "uncont": 15771,
    "Ġawaited": 17074,
    "Ġexercised": 24803,
    "âĢľâĢĺ": 1485,
    "ud": 910,
    "Ġexclamations": 11361,
    "Ġstillness": 12992,
    "Ġknots": 15008,
    "Ġhitting": 21484,
    "Ġneeded": 7717,
    "ore": 418,
    "Ġemb": 1254,
    "seems": 10875,
    "carried": 16711,
    "Ġjustly": 11901,
    "Ġham": 3420,
    "abs": 11666,
    "arle": 21438,
    "Ġunman": 12770,
    "inguished": 6598,
    "moored": 22701,
    "ugging": 23285,
    "Ġcoppers": 22582,
    "Ġbedside": 19121,
    "Ġwestward": 24389,
    "iating": 3202,
    "Ġdetected": 18838,
    "Ġfrancis": 26063,
    "Ġventilator": 8713,
    "ez": 5683,
    "Ġhing": 11603,
    "Ġpolynesian": 26026,
    "Ġschooner": 16747,
    "lacings": 26134,
    "Ġclumsy": 9579,
    "Ġgreenhorn": 23766,
    "Ġhideous": 5982,
    "rably": 21630,
    "Ġ50": 24319,
    "ertips": 23638,
    "passion": 11260,
    "Ġobliv": 16131,
    "Ġcompromising": 22570,
    "oons": 12496,
    "Ġexile": 12714,
    "Ġfav": 1755,
    "versed": 9824,
    "abling": 1078,
    "Ġcour": 1767,
    "baboon": 25516,
    "Ġvivacity": 14939,
    "_.âĢĻâĢĿ": 17479,
    "aved": 5475,
    "Ġtechnique": 2326,
    "Ġzodiac": 16173,
    "Ġseizing": 7878,
    "Ġbe": 336,
    "Ġchopping": 24219,
    "Ġdissatisfied": 14256,
    "Ġbr": 1069,
    "Ġsabbath": 17254,
    "arus": 13911,
    "homage": 25616,
    "pierced": 26141,
    "Ġmark": 2332,
    "Ġdeficiency": 14402,
    "special": 14703,
    "crossed": 16632,
    "town": 7142,
    "Ġmention": 2985,
    "Ġrebellion": 26475,
    "Ġbeach": 6541,
    "coloured": 7292,
    "Ġdiving": 12598,
    "doublo": 24660,
    "vine": 10734,
    "urp": 1474,
    "Ġnailing": 21524,
    "Ġapologies": 25196,
    "Ġdoth": 13907,
    "Ġuncouth": 14548,
    "Ġcontriv": 9281,
    "Ġbustle": 17227,
    "Ġrelative": 11881,
    "Ġcrate": 19122,
    "Ġmummy": 25768,
    "nameless": 19902,
    "Ġrussia": 26267,
    "Ġhousekeeping": 18943,
    "iron": 3342,
    "Ġunrolled": 22033,
    "Ġdro": 2771,
    "Ġloun": 7167,
    "Ġinfatuated": 20534,
    "Ġprovince": 24189,
    "Ġarmada": 23579,
    "Ġredden": 15691,
    "Ġinquired": 7487,
    "Ġentering": 6285,
    "Ġwarrior": 24496,
    "Ġriots": 23890,
    "Ġdetest": 8500,
    "Ġquiescent": 26242,
    "Ġthousands": 6748,
    "Ġdeterminate": 23001,
    "Ġshelter": 17008,
    "Ġ63": 24366,
    "ĠdÃ¦mon": 7844,
    "mistakable": 20652,
    "wid": 10134,
    "Ġgown": 10201,
    "paused": 17373,
    "enger": 10773,
    "Ġdebility": 24272,
    "Ġindeed": 1679,
    "Ġtag": 15467,
    "frame": 17116,
    "ĠâĢľâĢĺ": 8503,
    "Ġprominence": 18953,
    "reader": 23844,
    "Ġirreparable": 19997,
    "chairs": 21690,
    "whatever": 6694,
    "Ġjustinian": 22964,
    "ique": 8742,
    "aneous": 7241,
    "Ġrushing": 7404,
    "Ġfitzwilliam": 5771,
    "Ġaccursed": 9457,
    "Ġsmacking": 20164,
    "Ġescaping": 13134,
    "Ġcrocod": 19627,
    "Ġbloodless": 19338,
    "Ġimmured": 24071,
    "Ġflukes": 5266,
    "Ġbeat": 4492,
    "ooping": 21006,
    "scuttle": 11908,
    "wl": 17702,
    "Ġofficer": 6753,
    "irement": 18355,
    "Ġcamp": 9164,
    "Ġsnatch": 14638,
    "Ġdoublo": 6078,
    "Ġwestmorland": 24390,
    "Ġaffectionately": 13167,
    "Ġseparating": 16685,
    ";âĢĶ": 3751,
    "Ġreported": 11978,
    "ially": 9246,
    "inhab": 10757,
    "stat": 21641,
    "Ġstudent": 14475,
    "Ġcust": 11581,
    "Ġrudder": 25107,
    "Ġpondered": 15165,
    "Ġamount": 8511,
    "Ġalgorithm": 761,
    "Ġquietude": 19358,
    "Ġhorizontally": 17012,
    "Ġtwitched": 20442,
    "Ġalert": 18101,
    "Ġmasters": 11574,
    "ivers": 1984,
    "twelvemonth": 25862,
    "Ġrubbed": 12952,
    "Ġribbed": 16804,
    "Ġbeggar": 9348,
    "Ġwonderfully": 10430,
    "Ġvoluntarily": 12138,
    "Ġdisputing": 25824,
    "mblings": 19779,
    "dances": 17521,
    "Ġscenarios": 26542,
    "Ġsettle": 6293,
    "apparently": 15203,
    "icilian": 20690,
    "Ġdiamond": 15596,
    "Ġobstacles": 19834,
    "brilliancy": 26077,
    "edged": 15628,
    "heredit": 21208,
    "Ġheroism": 24544,
    "bastian": 10673,
    "peculiarities": 13470,
    "Ġwayward": 22871,
    "Ġfeared": 5930,
    "Ġloose": 4648,
    "Ġsullenly": 17172,
    "Ġconj": 8460,
    "Ġposter": 14274,
    "Ġconjectured": 9996,
    "Ġbags": 24537,
    "omach": 11633,
    "Ġmingled": 12375,
    "Ġtass": 15468,
    "mine": 5618,
    "suff": 4961,
    "confess": 12173,
    "Ġjupiter": 17455,
    "Ġunhallowed": 17180,
    "worthy": 7732,
    "uten": 11621,
    "Ġpredicting": 2417,
    "Ġoppression": 23652,
    "Ġdarkness": 4279,
    "iem": 20916,
    "itated": 4441,
    "Ġgrown": 5628,
    "inc": 2524,
    "Ġ66": 24369,
    "Ġhyperborean": 26339,
    "Ġlingering": 11379,
    "âĢĶ(": 15936,
    "Ġremot": 8543,
    "reen": 21230,
    "Ġnations": 8809,
    "Ġsumatra": 15285,
    "tre": 8760,
    ")âĢĶ": 20741,
    "Ġcorpus": 13029,
    "Ġhammock": 5768,
    "Ġintrude": 25990,
    "Ġremoval": 12115,
    "Ġsavory": 23874,
    "Ġclouded": 13289,
    "Ġegress": 21618,
    "Ġelijah": 9099,
    "Ġexpand": 9306,
    "alas": 8803,
    "Ġabruptness": 25299,
    "Ġ179": 19753,
    "Ġpoetical": 25056,
    "Ġprobable": 5570,
    "Ġattain": 12744,
    "eminent": 25104,
    "Ġcontradictory": 20395,
    "Ġvelv": 10619,
    "manner": 6170,
    "Ġwindward": 6885,
    "Ġsorts": 6887,
    "Ġcash": 9652,
    "Ġswell": 8949,
    "beloved": 19459,
    "string": 15683,
    "Ġsuperiority": 14616,
    "Ġwarming": 23557,
    "Ġapartments": 19613,
    "Ġheire": 18036,
    "Ġeternal": 5975,
    "icular": 2023,
    "stache": 15687,
    "unfortunate": 15774,
    "Ġscre": 9736,
    "Ġtrunk": 7206,
    "enty": 2917,
    "Ġcheeks": 5957,
    "Ġmaritime": 23033,
    "Ġhove": 17922,
    "lucky": 24545,
    "folio": 10546,
    "Ġ29": 23728,
    "Ġdominant": 12394,
    "pencil": 18827,
    "ands": 21863,
    "Ġbulk": 5591,
    "Ġshuddering": 9051,
    "Ġfra": 1835,
    "Ġdenominated": 15227,
    "Ġadversity": 24303,
    "Ġpantry": 20294,
    "Ġamaz": 5385,
    "affection": 7489,
    "Ġcig": 6519,
    "ploy": 2054,
    "nel": 11504,
    "Ġauxiliary": 26418,
    "Ġalter": 6542,
    "Ġcolonial": 22855,
    "stock": 13220,
    "Ġcan": 472,
    "Ġwhiting": 10859,
    "Ġ24": 13192,
    "evidence": 25521,
    "amore": 21846,
    "Ġsulk": 15045,
    "matical": 13128,
    "Ġcomfits": 21844,
    "this": 1440,
    "mouth": 9130,
    "Ġlivid": 14988,
    "natural": 2310,
    "Ġplant": 8899,
    "Ġrig": 4226,
    "goodness": 19288,
    "swaying": 25910,
    "Ġwealth": 7622,
    "Ġstag": 6148,
    "bular": 15312,
    "confidential": 25876,
    "depart": 12263,
    "ributed": 8214,
    "Ġungrateful": 14119,
    "ect": 381,
    "Ġoverall": 4360,
    "Ġhealth": 3906,
    "Ġreturn": 1711,
    "octial": 20003,
    "rically": 15416,
    "Ġabuse": 18392,
    "conspicuous": 26247,
    "successfully": 14990,
    "Ġpossibility": 7459,
    "Ġwherever": 8523,
    "Ġstared": 8454,
    "Ġmeta": 2999,
    "Ġprognost": 15280,
    "Ġjune": 10288,
    "Ġaccumulated": 11929,
    "Ġlistener": 16474,
    "Ġfleece": 10614,
    "orton": 11754,
    "Ġundoubted": 19513,
    "Ġhell": 5019,
    "Ġmeas": 1099,
    "Ġcompens": 14263,
    "Ġblade": 11891,
    "purposes": 25021,
    "Ġsed": 10761,
    "paying": 25411,
    "Ġfasc": 12595,
    "Ġextreme": 2518,
    "Ġmcc": 21305,
    "Ġbible": 9319,
    "Ġsulkily": 25882,
    "accomplishments": 25326,
    "ising": 2254,
    "flinging": 20867,
    "Ġsport": 6688,
    "Ġsqualid": 14368,
    "Ġpeg": 22686,
    "Ġdiscussing": 5202,
    "================================================================": 9989,
    "theast": 21745,
    "gaff": 20881,
    "omically": 13975,
    "tem": 6369,
    "Ġperem": 12929,
    "Ġpresuming": 16793,
    "Ġkne": 4268,
    "Ġstricken": 9775,
    "Ġcomra": 7184,
    "wicked": 24449,
    "Ġtransient": 18481,
    "Ġpost": 4274,
    "can": 1234,
    "mming": 1170,
    "Ġcivil": 4678,
    "Ġstables": 23656,
    "urance": 10857,
    "Ġyoke": 18095,
    "Ġfocuses": 8649,
    "formed": 2557,
    "brother": 7091,
    "highly": 24764,
    "Ġnav": 5818,
    "Ġinsulated": 23678,
    "Ġconsequently": 8059,
    "cherish": 24552,
    "Ġreconciliation": 25292,
    "rously": 17654,
    "Ġhoky": 17926,
    "Ġpotency": 14645,
    "Ġchimney": 6496,
    "Ġ87": 19709,
    "bud": 10682,
    "Ġincalculable": 17460,
    "Ġcatherine": 2812,
    "Ġpenetration": 19916,
    "Ġpeeled": 14317,
    "lever": 2932,
    "proof": 16422,
    "Ġtreas": 7359,
    "Ġviolates": 3162,
    "university": 25983,
    "Ġcomprises": 22569,
    "Ġtravel": 5952,
    "ithmetic": 18061,
    "Ġcondemn": 13443,
    "difficult": 10057,
    "gether": 1598,
    "ann": 5802,
    "alescence": 15922,
    "Ġsnail": 19299,
    "Ġembarrassment": 10626,
    "Ġmelbourne": 24289,
    "bitious": 16669,
    "german": 11491,
    "Ġannals": 17898,
    "Ġcapering": 21352,
    "Ġreceives": 20353,
    "ounded": 9747,
    "umer": 9257,
    "burgh": 6773,
    "lantern": 17427,
    "Ġthine": 7375,
    "Ġblanche": 18819,
    "Ġsect": 17751,
    "ì": 173,
    "appears": 12058,
    "fatig": 17089,
    "Ġimpossible": 3541,
    "blog": 19838,
    "Ġsebastian": 11696,
    "beside": 19876,
    "idity": 8830,
    "mil": 13751,
    "Ġgracious": 8846,
    "Ġreceiving": 4882,
    "Ġunduly": 25994,
    "Ġspine": 7408,
    "yonder": 21143,
    "Ġwrecks": 16818,
    "longing": 23724,
    "illes": 12691,
    "omely": 21636,
    "Ġpiece": 5367,
    "comfortableness": 24525,
    "Ġcollectively": 19966,
    "Ġshrill": 12139,
    "ogany": 18676,
    "terdam": 18129,
    "quired": 21852,
    "Ġburying": 19251,
    "Ġstirring": 10579,
    "mosp": 8088,
    "aid": 1923,
    ")(": 2980,
    "Ġmillar": 13860,
    "readiness": 19361,
    "Ġwanting": 6721,
    "Ġpeculiarities": 12068,
    "Ġfifth": 11257,
    "lings": 8745,
    "Ġinstructions": 11195,
    "ctic": 8441,
    "Ġnathan": 21523,
    "Ġdiscriminator": 3391,
    "hearse": 17748,
    "asses": 7016,
    "Ġwives": 12552,
    "Ġrending": 19465,
    "description": 11094,
    "rice": 13776,
    "Ġabusing": 18393,
    "contain": 18502,
    "Ġigniting": 25070,
    "nikin": 23233,
    "ember": 1957,
    "brimmed": 14587,
    "Ġreusability": 13557,
    "Ġscepticism": 25927,
    "Ġdishonoured": 20389,
    "Ġcolony": 18765,
    "Ġfloats": 9412,
    "venth": 9294,
    "ry": 807,
    "shark": 14237,
    "Ġrh": 9243,
    "wedded": 24339,
    "bask": 20775,
    "indisc": 22370,
    "Ġuntil": 2669,
    "Ġencourage": 10380,
    "Ġthursday": 12641,
    "arr": 3041,
    "quimaux": 21856,
    "Ġseparation": 11247,
    "Ġlizzie": 26462,
    "Ġhead": 1123,
    "Ġcut": 2643,
    "tend": 17674,
    "henomena": 20271,
    "spikes": 10340,
    "Ġshades": 9462,
    "Ġorganizations": 12312,
    "iration": 4540,
    "Ġapex": 24342,
    "covenant": 23561,
    "Ġanchors": 12610,
    "painter": 24896,
    "ces": 577,
    "Ġasse": 8159,
    "Ġfootman": 8287,
    "Ġsouthwards": 19632,
    "inal": 15479,
    "Ġborrow": 10170,
    "ousness": 10274,
    "moving": 11016,
    "Ġsing": 3068,
    "Ġhig": 754,
    "baggage": 24926,
    "Ġsem": 1879,
    "ic": 304,
    "Ġgateway": 24802,
    "Ġslides": 18938,
    "ierce": 14390,
    "hyp": 15365,
    "till": 6965,
    "Ġsoaked": 15858,
    "Ġboom": 9309,
    "Ġforgot": 4683,
    "ger": 1107,
    "incredible": 16497,
    "deployment": 26527,
    "Ġpretence": 13206,
    "inguish": 9396,
    "Ġinquiring": 8999,
    "Ġclaimed": 14201,
    "Ġprovides": 1932,
    "lab": 3454,
    "Ġchristianity": 19860,
    "Ġinert": 15619,
    "Ġchemical": 10409,
    "silly": 24422,
    "Ġunp": 12768,
    "Ġgore": 17988,
    "Ġjem": 18402,
    "grinder": 23413,
    "scissors": 20726,
    "_;": 6640,
    "Ġkeener": 22911,
    "istrate": 7407,
    "Ġwhirlwinds": 20463,
    "loving": 18540,
    "Ġangles": 23587,
    "Ġleisure": 6539,
    "hurst": 19878,
    "independent": 26021,
    "Ġexplain": 545,
    "boat": 3361,
    "entrance": 12654,
    "Ġlucerne": 23862,
    "priv": 9619,
    "Ġsoft": 1459,
    "Ġmurdering": 14809,
    "Ġpictured": 16622,
    "Ġreckoned": 24744,
    "ancial": 21360,
    "Ġplush": 18610,
    "Ġincapable": 7424,
    "Ġadult": 18289,
    "Ġjail": 22291,
    "Ġprank": 23218,
    "Ġpen": 1532,
    "Ġembal": 11905,
    "Ġdusting": 24596,
    "surv": 24213,
    "kovoko": 20668,
    "Ġunappalled": 22060,
    "thereby": 14446,
    "Ġvengeful": 14888,
    "Ġmovable": 22432,
    "Ġequally": 5257,
    "Ġfathom": 17048,
    "Ġcarpet": 9355,
    "assembled": 21542,
    "Ġstool": 14461,
    "Ġcrows": 24030,
    "Ġsketch": 16162,
    "Ġprinciple": 6770,
    "Ġthirdly": 24143,
    "Ġsolution": 9804,
    "Ġwaning": 15532,
    "rue": 1127,
    "cles": 8725,
    "share": 14235,
    "Ġportraits": 20141,
    "Ġcame": 1298,
    "vate": 21108,
    "Ġcargo": 16288,
    "adopt": 25544,
    "Ġthomson": 26454,
    "Ġcontentment": 14868,
    "Ġinstrument": 7118,
    "Ġgree": 7596,
    "Ġpig": 5705,
    "opÃ¦": 12869,
    "Ġerect": 6143,
    "Ġenlarge": 21932,
    "Ġtypewriting": 16419,
    "Ġobvious": 4964,
    "Ġtus": 10749,
    "Ġbaleful": 24982,
    "disciple": 16778,
    "nowledge": 10289,
    "Ġlionel": 25286,
    "lesson": 22770,
    "Ġtierce": 15477,
    "Ġcommod": 10333,
    "governed": 25405,
    "proper": 7473,
    "Ġspears": 12923,
    "Ġrev": 6988,
    "Ġtowers": 16738,
    "thodox": 21985,
    "Ġholiday": 12995,
    "Ġinsincere": 26599,
    "care": 4928,
    "Ġferule": 24499,
    "Ġdella": 21437,
    "Ġdaily": 5986,
    "Ġpresc": 15923,
    "Ġcomfortless": 23910,
    "Ġbash": 12583,
    "Ġpromise": 4199,
    "office": 16395,
    "Ġtoilette": 20491,
    "Ġtransition": 14233,
    "Ġgem": 21591,
    "abilizing": 2925,
    "Ġbeard": 11654,
    "Ġunsophisticated": 25992,
    "Ġdiscrimination": 23604,
    "measure": 10030,
    "Ġmeditation": 16680,
    "unwholesome": 26497,
    "Ġcasualties": 25512,
    "aff": 3096,
    "Ġprevented": 5941,
    "thought": 3850,
    "Ġfrantically": 23256,
    "bast": 10076,
    "iro": 20913,
    "agra": 14065,
    "peddling": 24696,
    "Ġgriev": 16634,
    "watery": 19825,
    "Ġrivals": 20270,
    "Ġhoops": 9388,
    "Ġtinted": 13821,
    "|": 96,
    "Ġoaken": 13864,
    "Ġattempt": 3484,
    "Ġintellig": 526,
    "Ġdiggings": 24649,
    "ity": 417,
    "built": 16825,
    "Ġwept": 7185,
    "Ġheavy": 3745,
    "Ġpaced": 7585,
    "Ġformation": 2943,
    "Ġafloat": 9307,
    "Ġconstruction": 9385,
    "Ġunex": 11711,
    "Ġoil": 3372,
    "Ġreef": 10849,
    "surprised": 9530,
    "Ġtranquillize": 24757,
    "reg": 2183,
    "Ġdiscol": 12950,
    "aint": 2544,
    "Ġhood": 10823,
    "decan": 22139,
    "isson": 23460,
    "Ġperiods": 13302,
    "Ġnewcomer": 26040,
    "Ġragged": 11844,
    "Ġsagacity": 16974,
    "thern": 4953,
    "wretch": 17708,
    "Ġarrayed": 25664,
    "Ġbale": 7838,
    "mpus": 13756,
    "Ġbon": 8785,
    "1": 21,
    "Ġpropose": 9852,
    "both": 5785,
    "iver": 2049,
    "Ġdestitute": 14564,
    "Ġsilver": 7464,
    "Ġacid": 22679,
    "bingley": 4927,
    "Ġindex": 17049,
    "ousand": 2431,
    "une": 2785,
    "killed": 15375,
    "retion": 9361,
    "wouldn": 23535,
    "Ġscowl": 22287,
    "hint": 12473,
    "projecting": 26073,
    "Ġmournful": 12334,
    "Ġthirteen": 15273,
    "ordingly": 18518,
    "Ġcomput": 607,
    "lott": 6650,
    "Ġlullaby": 20586,
    "Ġsentry": 19021,
    "Ġcomplied": 14732,
    "Ġrustling": 24715,
    "Ġconfl": 11138,
    "cheerful": 13574,
    "Ġoaks": 16933,
    "bitter": 11240,
    "Ġschoolboys": 24481,
    "fields": 14652,
    "Ġstum": 21728,
    "Ġgas": 8132,
    "Ġtrustees": 24108,
    "examination": 25478,
    "Ġmoisture": 12357,
    "Ġbeholding": 8668,
    "Ġerroneous": 17408,
    "walked": 10570,
    "elihood": 4622,
    "Ġcalves": 13032,
    "Ġpyramid": 8801,
    "Ġrazors": 22659,
    "Ġunsc": 22009,
    "Ġvisibly": 22863,
    "menced": 23144,
    "Ġmagazine": 23096,
    "Ġcontrolled": 23249,
    "heavy": 10574,
    "Ġhay": 11604,
    "white": 4602,
    "youngest": 19742,
    "Ġresolved": 3800,
    "neighbouring": 19962,
    "Ġsugg": 4500,
    "Ġdimension": 3237,
    "Ġdeliberately": 10624,
    "Ġupwards": 7635,
    "Ġmunro": 25630,
    "Ġpumps": 8426,
    "Ġdisabled": 18560,
    "Ġunhing": 18238,
    "Ġemerge": 14926,
    "ched": 1548,
    "reproof": 25432,
    "cro": 13695,
    "Ġgrieved": 8297,
    "Ġparticle": 18671,
    "ides": 2161,
    "circumstantial": 24444,
    "Ġmainland": 22652,
    "Ġsundial": 15081,
    "Ġbelshazzar": 16224,
    "Ġsenseless": 12076,
    "Ġspasmodically": 17313,
    "Ġinsects": 25646,
    "Ġwhither": 10214,
    "examine": 25477,
    "Ġthousand": 2781,
    "estic": 4956,
    "Ġvirtue": 4922,
    "Ġhopes": 4235,
    "conduct": 11795,
    "Ġpremature": 3726,
    "obvious": 9356,
    "Ġdolphin": 17311,
[...]
