{
  "metadata": {
    "vocab_size": 26614,
    "algorithm": "BPE",
    "created_at": "2026-05-06 05:28:20",
    "special_tokens": [
      "<PAD>",
      "<SOS>",
      "<EOS>",
      "<UNK>",
      "<MASK>"
    ]
  },
  "vocab": {
    "ulates": 14054,
    "Ġcharacteristics": 8609,
    "Ġdistressing": 12216,
    "urn": 775,
    "Ġdistinction": 8885,
    "Ġconcussion": 26300,
    "Ġsque": 18757,
    "Ġstalk": 12694,
    "Ġstruct": 2782,
    "ductive": 23933,
    "Ġdoctors": 12149,
    "Ġspiced": 22130,
    "harm": 13734,
    "Ĩ": 233,
    "first": 3935,
    "Ġsubstance": 5510,
    "Ġhammers": 13239,
    "Ġbaltic": 18796,
    "glory": 23850,
    "broken": 8020,
    "Ġostrich": 26430,
    "anger": 2171,
    "Ġusurpation": 18356,
    "Ġoctober": 17226,
    "ĠĠĠĠĠĠĠĠĠĠĠĠĠĠĠĠĠĠĠĠĠĠĠĠ": 5321,
    "Ġprison": 5403,
    "Ġchestnut": 19671,
    "phren": 22773,
    "Ġbleak": 10558,
    "Ġagatha": 6866,
    "courage": 17509,
    "Ġlazily": 11380,
    "inery": 17733,
    "Ġtradesman": 20071,
    "Ġminima": 3462,
    "ade": 883,
    "Ġsurprise": 3829,
    "Ġsurpl": 19132,
    "Ġwarmth": 6905,
    "Ġexultation": 15170,
    "ies": 584,
    "Ġachieve": 3673,
    "frau": 15088,
    "erest": 10697,
    "springing": 24889,
    "Ġgam": 11623,
    "Ġconcentration": 25062,
    "Ġmedium": 16681,
    "trap": 24313,
    "Ġundeniable": 26510,
    "Ġfac": 6381,
    "Ġbind": 12579,
    "Ġhearse": 10420,
    "Ġfake": 5810,
    "Ġrevered": 23732,
    "wishing": 21127,
    "Ġcrouching": 23442,
    "resses": 16150,
    "themselves": 6540,
    "Ġechoed": 20422,
    "notwithstanding": 22748,
    "companions": 15023,
    "contriv": 19291,
    "Ġoffice": 4965,
    "Ġsweating": 16462,
    "Ġapple": 14167,
    "Ġsinusoidal": 4801,
    "Ġexalted": 12410,
    "Ġsimultaneously": 4313,
    "happening": 16564,
    "allow": 5104,
    "prejudiced": 17296,
    "Ġcoherent": 3259,
    "Ġdesirous": 8942,
    "Ġdeposited": 25484,
    "cre": 4253,
    "ms": 539,
    "Ġtremendous": 8352,
    "Ġrevelation": 25222,
    "Ġcongeal": 25980,
    "idual": 1558,
    "Ġadjacent": 20710,
    "argue": 21442,
    "fun": 3894,
    "Ġnlp": 3061,
    "writ": 16553,
    "nose": 17610,
    "floated": 24643,
    "Ġagree": 7646,
    "Ġminimize": 7050,
    "Ġgul": 7859,
    "shone": 22450,
    "Ġgurglings": 26465,
    "Ġimprove": 1917,
    "nails": 17614,
    "Ġpurporting": 19182,
    "Ġantagon": 19549,
    "Ġboats": 2637,
    "vill": 10735,
    "off": 1885,
    "Ġsoles": 22082,
    "recursion": 13327,
    "Ġdesperately": 24656,
    "ceptible": 10958,
    "ument": 5239,
    "ras": 21035,
    "stealthily": 23959,
    "foundered": 20866,
    "vision": 5620,
    "Ġvishnoo": 12750,
    "Ġoarsman": 8637,
    "luckily": 19751,
    "ald": 15622,
    "Ġferguson": 17469,
    "irth": 5634,
    "Ġheaps": 11641,
    "Ġbour": 4876,
    "Ġreproachfully": 25251,
    "Ġglanced": 5951,
    "cru": 7126,
    "Ġdull": 6384,
    "carefully": 13367,
    "she": 1394,
    "ox": 9133,
    "Ġgrammatical": 13538,
    "Ġrenewing": 19809,
    "Ġmoodily": 19833,
    "Ġsum": 2701,
    "er": 269,
    "steelkilt": 10046,
    "ust": 495,
    "Ġbelike": 18829,
    "arter": 17893,
    "Ġsul": 7570,
    "pread": 7419,
    "prise": 7726,
    "Ġsaving": 15885,
    "dden": 1803,
    "Ġlimited": 23543,
    "fug": 17543,
    "distant": 13333,
    "Ġattachment": 6049,
    "Ġbeggars": 20628,
    "Ġsurely": 6307,
    "ney": 2491,
    "xt": 2081,
    "Ġcarelessly": 11120,
    "bidden": 19736,
    "Ġcome": 1240,
    "Ġobtained": 7432,
    "Ġwhoever": 10973,
    "Ġsplitting": 4385,
    "Ġeternal": 5975,
    "frequent": 15352,
    "Ġcertain": 1556,
    "Ġnetworks": 599,
    "Ġdaugh": 2292,
    "Ġfish": 2711,
    "Ġbrook": 13045,
    "Ġupstairs": 5836,
    "Ġembarr": 7447,
    "Ġparac": 12792,
    "Ġconsistent": 14528,
    "Ġsurviv": 13434,
    "despatched": 19800,
    "izing": 1068,
    "Ġnantucketers": 9893,
    "grasp": 16429,
    "Ġgasped": 11372,
    "Ġcranial": 25592,
    "Ġcannib": 6035,
    "Ġmogul": 12859,
    "Ġangry": 5498,
    "data": 2209,
    "reduced": 15803,
    "lights": 13204,
    "fisher": 7547,
    "rot": 21529,
    "Ġinvisible": 7327,
    "Ġsom": 1277,
    "Ġconceited": 12088,
    "emptied": 23634,
    "Ġprojecting": 9984,
    "unctuous": 21879,
    "Ġmob": 16015,
    "former": 11746,
    "Ġfirmest": 16664,
    "dispute": 23497,
    "mastod": 23971,
    "Ġfatal": 5871,
    "Ġdependencies": 2312,
    "Ġbarbary": 24216,
    "hist": 7130,
    "Ġinfallible": 15069,
    "icable": 6388,
    "Ġattractive": 25575,
    "extric": 22762,
    "Ġslay": 16305,
    "Ġrows": 10561,
    "Ġloomed": 12299,
    "Ġhemisphere": 26478,
    "Ġverdant": 15002,
    "Ġenticing": 22743,
    "Ġremain": 1872,
    "oles": 21004,
    "Ġstamp": 7863,
    "creature": 5346,
    "Ġwilt": 9643,
    "Ġreasoning": 1976,
    "Ġturning": 3323,
    "Ġcalcul": 3637,
    "ittance": 12843,
    "Ġleyden": 21744,
    "owder": 8448,
    "ree": 873,
    "Ġrehearsed": 25971,
    "iracle": 11244,
    "Ġincapable": 7423,
    "Ġblessed": 6931,
    "tural": 21065,
    "manif": 14372,
    "Ġmining": 22827,
    "Ġfangs": 12594,
    "crime": 14781,
    "short": 6566,
    "Ġincessant": 15096,
    "Ġorthodox": 22092,
    "Ġfight": 5366,
    "Ġwaved": 9644,
    "Ġvillain": 8635,
    "Ġdoll": 10813,
    "Ġmission": 13003,
    "etrics": 21582,
    "mantel": 26394,
    "Ġfrightens": 24027,
    "Ġband": 5290,
    "Ġclanging": 18422,
    "Ġcolonies": 14374,
    "Ġphyseter": 26586,
    "Ġstains": 21738,
    "Ġsunshine": 14494,
    "mur": 5428,
    "Ġfive": 2834,
    "Ġhappens": 2187,
    "Ġfiled": 15577,
    "Ġtimidity": 24687,
    "Ġbottomless": 12104,
    "Ġloomings": 24949,
    "musket": 25341,
    "Ġwhisky": 23931,
    "Ġbids": 24645,
    "iment": 2815,
    "ognit": 19181,
    "tese": 21082,
    "artic": 14221,
    "cor": 5520,
    "Ġstartling": 14670,
    "Ġsutherland": 10148,
    "linen": 25257,
    "Ġsimon": 5172,
    "Ġpunchbowl": 20230,
    "Ġhorsey": 24249,
    "Ġacquiesced": 25493,
    "Ġceases": 19312,
    "Ġhow": 598,
    "Ġpalmed": 24088,
    "dispositions": 25011,
    "Ġcanoes": 12802,
    "Ġguns": 16776,
    "Ġlegendary": 20536,
    "writes": 4988,
    "Ġgouldings": 26187,
    "Ġwinter": 5220,
    "infall": 21187,
    "regiment": 16451,
    "goes": 10426,
    "crop": 20797,
    "Ġcrowds": 14738,
    "Ġresounded": 22541,
    "americans": 25042,
    "Ġplan": 3881,
    "Ġlatterly": 24082,
    "Ġskies": 8920,
    "lively": 12482,
    "Ġautomation": 13260,
    "ouse": 1192,
    "Ġtren": 17721,
    "Ġhearers": 15700,
    "ually": 2769,
    "Ġbride": 6291,
    "onym": 14649,
    "Ġsentinel": 26065,
    "ires": 6037,
    "yesterday": 10353,
    "whips": 22235,
    "chairs": 21690,
    "tland": 21072,
    "Ġliter": 8811,
    "cares": 24309,
    "Ġpuffs": 14975,
    "answers": 22147,
    "Ġplaguy": 22601,
    "fiercely": 25256,
    "aker": 3663,
    "Ġtyrant": 24767,
    "Ġcompared": 2227,
    "Ġthreading": 23400,
    "Ġcastle": 14716,
    "comp": 3817,
    "Ġcomposure": 7217,
    "Ġgurgling": 17445,
    "Ġseriously": 7061,
    "abil": 2006,
    "Ġreadily": 5253,
    "Ġvinc": 14084,
    "Ġsubstant": 14808,
    "slightest": 25416,
    "Ġneg": 1333,
    "Ġantip": 24177,
    "Ġreverse": 16982,
    "Ġvictims": 19803,
    "char": 3503,
    "asant": 17958,
    "apart": 15959,
    "mortal": 10112,
    "Ġmethodic": 23112,
    "Ġbeer": 10219,
    "Ġcompar": 4771,
    "Ġnarrative": 6215,
    "Ġheathen": 10565,
    "Ġsickbed": 24246,
    "Ġnothing": 1359,
    "Ġharbour": 19978,
    "talk": 6656,
    "clump": 23153,
    "Ġswaths": 23056,
    "Ġadoption": 24948,
    "Ġpersisted": 13042,
    "Ġcase": 1939,
    "Ġreceive": 4704,
    "viating": 14579,
    "_:": 17478,
    "Ġcommonly": 3260,
    "Ġfare": 5809,
    "harrow": 20907,
    "í": 174,
    "Ġlobes": 22112,
    "Ġdefinite": 11069,
    "Ġchallenges": 13629,
    "Ġrubber": 22784,
    "surround": 16758,
    "intments": 18820,
    "Ġbells": 19600,
    "Ġobjecting": 18894,
    "Ġdeduced": 12205,
    "iz": 365,
    "=": 33,
    "tipt": 25083,
    "Ġlikewise": 5386,
    "mas": 5212,
    "Ġenormity": 19694,
    "Ġ133": 24783,
    "Ġxxii": 24478,
    "whaling": 7898,
    "ineering": 21964,
    "Ġknowest": 12860,
    "Ġprophets": 20449,
    "board": 3564,
    "Ġfanned": 19099,
    "Ġcrippled": 25278,
    "Ġanimation": 11152,
    "Ġturks": 14598,
    "flowing": 14572,
    "entirely": 7781,
    "Ġacid": 22679,
    "invari": 21183,
    "Ġforest": 9870,
    "Ġautumn": 14507,
    "Ġcompetition": 14266,
    "Ġhorner": 8958,
    "else": 6533,
    "string": 15683,
    "Ġhelp": 1643,
    "Ą": 197,
    "Ġevils": 9019,
    "shaken": 16023,
    "ision": 1851,
    "ocations": 23705,
    "Ġattraction": 18626,
    "Ġimprecations": 25820,
    "station": 10844,
    "_.,": 14561,
    "į": 240,
    "inople": 13828,
    "Ġancest": 12611,
    "Ġpovels": 22589,
    "fancy": 7337,
    "Ġ76": 24262,
    "guest": 19480,
    "Ġterritories": 23843,
    "Ġpurposed": 23550,
    "inburgh": 15489,
    "hark": 15364,
    "ence": 394,
    "clam": 13052,
    "Ġherring": 14126,
    "attacked": 23120,
    "Ġintelligently": 3918,
    "ĠĠĠĠĠĠĠĠĠĠĠĠĠĠĠĠĠĠĠĠĠĠĠĠĠĠĠĠĠĠĠ": 19699,
    "elves": 2157,
    "Ġbrothers": 13174,
    "une": 2784,
    "Ġofficially": 24838,
    "oubled": 23644,
    "extracts": 22765,
    "Ġbeware": 8827,
    "Ġblame": 6446,
    "Ġsus": 18277,
    "Ġdraught": 9844,
    "Ġconsidered": 4612,
    "Ġregions": 10323,
    "Ġinferences": 17934,
    "Ġretiring": 16278,
    "Ġlucifers": 16588,
    "Ġintolerable": 8481,
    "bare": 12439,
    "Ġneutral": 12741,
    "curious": 10482,
    "Ġcoloss": 11046,
    "Ġthom": 21513,
    "Ġpenet": 6888,
    "isters": 11917,
    "enced": 4298,
    "expectation": 14855,
    "mankind": 14373,
    "Ġpulled": 5660,
    "Ġexhaled": 19681,
    "idel": 5299,
    "ĠĠĠĠĠĠ": 6414,
    "Ġcuriously": 13011,
    "Ġsandwich": 19827,
    "Ġgrasshopper": 24380,
    "âĢĶ.âĢĿ": 22252,
    "cing": 1014,
    "Ġbomb": 17867,
    "Ġselves": 21221,
    "william": 4563,
    "curiosity": 8623,
    "vously": 23504,
    "crew": 7544,
    "reproof": 25432,
    "Ġreligion": 11415,
    "Ġperuvian": 18453,
    "Ġadv": 1108,
    "continual": 20643,
    "cain": 15325,
    "Ġhasn": 12922,
    "detached": 19673,
    "Ġmagical": 23095,
    "exact": 7909,
    "Ġcrotch": 9962,
    "indifference": 15981,
    "Ġsockets": 22085,
    "Ġconcepts": 4552,
    "Ġposture": 24164,
    "velope": 17701,
    "Ġtwice": 4662,
    "gings": 7549,
    "Ġproverb": 12713,
    "Ġinconceivable": 17937,
    "Ġinfant": 11958,
    "Ġserve": 9368,
    "Ġloft": 5642,
    "Ġell": 17715,
    "Ġprestige": 22233,
    "sets": 17660,
    "Ġtransformed": 22607,
    "Ġdeclare": 6613,
    "Ġpallidness": 25604,
    "liv": 9607,
    "Ġravine": 18646,
    "Ġtraced": 10383,
    "conf": 4957,
    "art": 588,
    "Ġepis": 19980,
    "Ġinduced": 8670,
    "Ġjames": 6419,
    "idean": 14262,
    "Ġmaiden": 13385,
    "Ġposition": 1953,
    "laid": 10109,
    "co": 2430,
    "Ġfelt": 1745,
    "Ġkind": 1783,
    "app": 1042,
    "Ġvintage": 26209,
    "excitement": 19668,
    "Ġphilipses": 24452,
    "Ġmusty": 22677,
    "Ġdreamy": 14702,
    "employ": 10895,
    "gh": 3801,
    "Ġprepared": 5876,
    "Ġmediocr": 24081,
    "orough": 5700,
    "Ġpropriety": 10009,
    "Ġextracting": 11104,
    "suit": 18631,
    "Ġpioneer": 17918,
    "Ġfishers": 19352,
    "Ġenrolled": 21935,
    "Ġintimate": 6549,
    "Ġzeros": 3321,
    "Ġfinal": 5400,
    "mil": 13751,
    "fthand": 26386,
    "Ġrespons": 2686,
    "chariot": 26479,
    "evident": 25520,
    "sher": 5217,
    "Ġsoft": 1460,
    "Ġgregarious": 18965,
    "Ġinclosed": 19537,
    "Ġomitted": 12561,
    "Ġdeliberate": 15022,
    "furnished": 20240,
    "Ġcontinually": 5042,
    "Ġsufferer": 16257,
    "Ġdisturbing": 19944,
    "Ġcelest": 9900,
    "Ġwounding": 19585,
    "Ġfossils": 20221,
    "Ġmanifested": 17157,
    "dering": 5305,
    "Ġawait": 17073,
    "bern": 20774,
    "ille": 9219,
    "Ġbor": 5804,
    "Ġkelson": 18350,
    "luded": 4232,
    "terms": 15748,
    "Ġawful": 6199,
    "augment": 18828,
    "Ġemma": 20693,
    "Ġcoincid": 20316,
    "simple": 13451,
    "Ġdra": 1590,
    "Ġaston": 3701,
    "Ġcaves": 15551,
    "Ġsavoury": 23875,
    "entered": 8814,
    "Ġsinned": 18950,
    "Ġoughts": 23898,
    "Ġroyal": 5602,
    "se": 358,
    "Ġgl": 1254,
    "Ġdazed": 15593,
    "ivility": 12780,
    "enary": 12548,
    "give": 4689,
    "Ġhammer": 6093,
    "Ġtranquillity": 7536,
    "Ġalliance": 18235,
    "cold": 9589,
    "Ġcant": 17824,
    "Ġworried": 22923,
    "Ġobtruded": 20721,
    "Ġmisty": 16540,
    "Ġtransformers": 1135,
    "Ġgait": 13329,
    "Ġcouch": 12568,
    "Ġoriginally": 7304,
    "ron": 5216,
    "Ġdrop": 4347,
    "Ġcage": 17825,
    "congreg": 25398,
    "Ġgardener": 19134,
    "nar": 12491,
    "Ġkl": 2736,
    "Ġfifth": 11257,
    "Ġpatagon": 14506,
    "Ġjoints": 12034,
    "Ġwits": 15530,
    "Ġsober": 10911,
    "Ġful": 4299,
    "examined": 17266,
    "Ġpaunch": 23747,
    "Ġunthinkingly": 26220,
    "odiac": 14027,
    "Ġbenevol": 5961,
    "Ġrefuge": 8538,
    "Ġnations": 8809,
    "Ġla": 5912,
    "moment": 3577,
    "Ġenergetic": 15196,
    "letons": 14613,
    "bey": 10314,
    "Ġcred": 8780,
    "inous": 8771,
    "Ġpremium": 23902,
    "Ġperfections": 23607,
    "Ġelementary": 24814,
    "Ġheld": 3584,
    "dick": 11479,
    "Ġsaddest": 16662,
    "vious": 1782,
    "Ġplaint": 10325,
    "Ġoccurring": 2790,
    "Ġearthquake": 14628,
    "catch": 17506,
    "Ġwondrous": 4735,
    "Ġwarned": 16880,
    "aut": 1912,
    "Ġdeigned": 18138,
    "Ġhourly": 23298,
    "Ġstaving": 21734,
    "Ġrouted": 24907,
    "theast": 21745,
    "Ġnieces": 8432,
    "Ġprofusion": 23567,
    "Ġconscientious": 16727,
    "Ġ67": 19659,
    "Ġscorched": 17101,
    "totally": 25417,
    "Ġretired": 6070,
    "Ġtablets": 13154,
    "zening": 21147,
    ":": 30,
    "r": 86,
    "Ġdepths": 4328,
    "Ġput": 1796,
    "ough": 471,
    "Ġfavourably": 16360,
    "poled": 22905,
    "Ġslyness": 25266,
    "val": 1147,
    "Ġindist": 14407,
    "ceased": 21623,
    "Ġrich": 2995,
    "Ġluxurious": 17310,
    "Ġargue": 16783,
    "turner": 19540,
    "Ġoffer": 4843,
    "whal": 10940,
    "west": 10739,
    "Ġpurchases": 24756,
    "reliable": 21239,
    "eers": 20842,
    "Ġjustification": 22963,
    "Ġrafters": 22652,
    "mechanical": 25578,
    "Ġnigh": 4878,
    "Ġproportionably": 19969,
    "orily": 15570,
    "Ġmovement": 9967,
    "andes": 18151,
    "Ġcomplacency": 19446,
    "Ġthomas": 17947,
    "Ġquee": 1980,
    "Ġthorough": 6245,
    "idity": 8830,
    "Ġnon": 1628,
    "Ġantarctic": 19551,
    "Ġimped": 18443,
    "Ġdumbly": 24985,
    "Ġunanswerable": 26521,
    "Ġshadows": 8012,
    "Ġgathers": 24743,
    "Ġmuse": 13859,
    "Ġexceptions": 13228,
    "loose": 11803,
    "Ġinput": 609,
    "Ġbrotherly": 16526,
    "bow": 5424,
    "Ġholiest": 18812,
    "Ġpursuers": 13224,
    "isson": 23460,
    "Ġfail": 4153,
    "pious": 17633,
    "oc": 2832,
    "Ġweaver": 11686,
    "Ġaccurate": 13248,
    "Ġsod": 11561,
    "nder": 20986,
    "iantly": 13738,
    "Ġabominably": 20064,
    "ura": 1030,
    "iew": 2445,
    "Ġber": 5698,
    "lid": 20944,
    "Ġdetain": 14173,
    "keenest": 25661,
    "Ġemploy": 3615,
    "Ġfurlong": 18739,
    "Ġentry": 11027,
    "Ġidea": 2484,
    "ially": 9246,
    "Ġpossessor": 23820,
    "ignor": 8961,
    "along": 6012,
    "Ġsoftware": 18918,
    "Ġkissed": 10044,
    "Ġunperceived": 22034,
    "anned": 17839,
    "Ġenterprise": 8641,
    "Ġunsc": 22011,
    "Ġenem": 4708,
    "Ò": 147,
    "Ġbulldog": 23857,
    "Ġinspirited": 23419,
    "erect": 20847,
    "flitted": 23966,
    "Ġeng": 1160,
    "Ġwiping": 25765,
    "Ġcentaurs": 23829,
    "Ġme": 353,
    "noticed": 14342,
    "oftentimes": 19419,
    "Ġcherry": 16935,
    "Ġtelescope": 17347,
    "Ġbalmoral": 16207,
    "Ġpleasure": 2696,
    "Ġfifty": 4624,
    "Ġlegend": 14575,
    "rises": 17655,
    "Ġdrag": 6184,
    "grave": 16092,
    "Ġmagistrate": 8233,
    "rel": 3753,
    "venant": 22622,
    "Ġcontact": 9280,
    "itor": 12563,
    "Ġaccountability": 10438,
    "ential": 825,
    "Ġjenkinson": 11431,
    "Ġdeputation": 21836,
    "Ġclaim": 5106,
    "hounds": 20906,
    "intim": 22931,
    "Ġextremities": 19195,
    "ogne": 12931,
    "Ġgrammar": 1064,
    "consequential": 26249,
    "Ġvanquished": 22874,
    "Ġquicker": 16506,
    "Ġ1839": 20458,
    "thern": 4953,
    "Ġcanvas": 7783,
    "Ġhire": 21482,
    "specul": 23940,
    "Ġkuiperai": 10935,
    "preserver": 20212,
    "Ġredoubled": 23751,
    "Ġsarat": 21226,
    "Ġheroine": 24543,
    "Ġfiend": 4414,
    "Ġlapse": 17120,
    "Ġverbal": 19377,
    "Ġcalifornian": 25851,
    "Ġnegro": 6447,
    "Ġelectric": 15193,
    "ĠĠĠĠĠĠĠĠĠĠĠĠĠĠĠĠĠĠĠĠĠĠĠĠĠ": 24442,
    "Ġsadness": 13285,
    "ĠcÃ¦": 15552,
    "Ġrecognised": 8994,
    "Ġjoys": 13218,
    "conditional": 9078,
    "Ġpresent": 1644,
    "Ġnearest": 8469,
    "Ġunembarrassed": 22066,
    "Ġdecreed": 18484,
    "arance": 4698,
    "Ġplunged": 8692,
    "Ġdripping": 13146,
    "Ġmartyr": 26360,
    "Ġunb": 10907,
    "Ġaugmentation": 20114,
    "Ġtusked": 25426,
    "angels": 22103,
    "pump": 21016,
    "expl": 9282,
    "Ġinquired": 7485,
    "Ġunexplored": 26518,
    "Ġcau": 13880,
    "Ġwhereas": 3854,
    "Ġplainly": 4383,
    "Ġresponsiveness": 2897,
    "Ġknow": 630,
    "Ġcontribute": 12858,
    "antediluvian": 24346,
    "Ġsmells": 8889,
    "fil": 12460,
    "Ġsnows": 14725,
    "Ġtranquilly": 12288,
    "Ġcalmed": 16264,
    "izard": 10883,
    "Ġpsychology": 11448,
    "Ġloving": 8175,
    "Ġapparel": 20434,
    "Ġcooped": 22580,
    "laugh": 10108,
    "Ġproject": 5546,
    "Ġreminiscences": 26269,
    "benefact": 24641,
    "Ġdays": 2077,
    "Ġunimag": 12772,
    "Ġinfidel": 13086,
    "Ġhistorically": 19376,
    "Ġdecisive": 18485,
    "Ġyoungest": 7953,
    "Ġgar": 10838,
    "experienced": 15120,
    "Ġsallies": 21228,
    "Ġwake": 4749,
    "Ġbreathe": 9011,
    "Ġcharing": 14180,
    "Ġunlabeled": 3800,
    "Ġdependent": 14297,
    "organic": 25946,
    "Ġshuddering": 9051,
    "Ġaccompan": 5513,
    "amb": 5723,
    "approached": 13484,
    "bear": 10315,
    "Ġthought": 1093,
    "wards": 1278,
    "Ġpebbles": 16127,
    "Ġhoof": 23351,
    "rival": 12739,
    "mess": 13752,
    "Ġalterations": 19870,
    "Ġgracechurch": 12196,
    "ootiful": 17372,
    "opolising": 25676,
    "Ġoriginated": 24122,
    "Ġxxxvi": 24969,
    "arthly": 8029,
    "âĢĶ": 518,
    "Ġpeddling": 24799,
    "Ġnorthumbria": 24171,
    "Ġheels": 10850,
    "Ġdigest": 24647,
    "Ġ1778": 25730,
    "tained": 4408,
    "continuance": 19717,
    "details": 19674,
    "carbuncle": 26382,
    "breadth": 20275,
    "Ġcoins": 11817,
    "Ġnevertheless": 5040,
    "lydia": 6826,
    "wait": 11320,
    "Ġfountain": 7365,
    "Ġauthent": 14508,
    "infliction": 25924,
    "ck": 436,
    "Ġconfession": 11235,
    "Ġspurred": 22135,
    "bit": 3933,
    "Ġhamper": 19387,
    "Ġabated": 18390,
    "Ġbubb": 12581,
    "imitably": 21708,
    "atters": 18496,
    "Ġpo": 737,
    "Ġaffrighted": 13571,
    "engine": 18926,
    "richard": 17286,
    "Ġpurposes": 11168,
    "Ġadmitted": 8986,
    "Ġamazing": 9976,
    "architect": 22897,
    "Ġkidnapping": 26356,
    "Ġimages": 1598,
    "Ġcarriage": 3951,
    "Ġimpute": 18331,
    "Ġswashing": 23054,
    "Ġcorpore": 13400,
    "lied": 6507,
    "Ġcloser": 8659,
    "permitted": 18346,
    "Ġtorch": 25030,
    "asing": 5911,
    "ocation": 14626,
    "cab": 7333,
    "Ġsnuffed": 15071,
    "vessels": 10625,
    "greenland": 10020,
    "Ġyanke": 18097,
    "Ġmasoned": 20250,
    "Ġrudeness": 17124,
    "Ġtarts": 10753,
    "suspect": 9539,
    "Ġgoverned": 23570,
    "Ġspas": 10922,
    "Ġnut": 12643,
    "Ġcham": 4892,
    "asable": 21538,
    "Ġunwillingness": 20030,
    "Ġbigger": 19760,
    "ĠmanÅĵuv": 18417,
    "Ġharm": 5017,
    "arbuck": 2023,
    "ena": 11567,
    "ractions": 11632,
    "Ġprof": 2458,
    "Ġsupper": 4666,
    "ĠĠ": 352,
    "Ġsuggestive": 11297,
    "Ġ&": 6513,
    "stuff": 15685,
    "specific": 10497,
    "leagued": 26435,
    "bears": 22487,
    "access": 11180,
    "Ġtreasure": 9558,
    "Ġpocket": 4898,
    "asy": 5294,
    "soul": 9140,
    "something": 4287,
    "Ġprophe": 13077,
    "dead": 8179,
    "Ġantilles": 24179,
    "consent": 18503,
    "Ġfeebly": 24877,
    "Ġfrequencies": 4789,
    "Ġdiligent": 25075,
    "Ġstrove": 9956,
    "Ġadding": 2400,
    "hecy": 21205,
    "yramid": 8367,
    "ezes": 9990,
    "Ġunsh": 14114,
    "Ġmons": 10156,
    "cause": 7795,
    "Ġpresum": 4837,
    "Ġpolished": 11182,
    "Ġimm": 3967,
    "Ġoccasion": 3242,
    "forming": 15916,
    "Ġshared": 10263,
    "take": 4577,
    "Ġcitizens": 25439,
    "Ġundisturbed": 19518,
    "rather": 5430,
    "robe": 15639,
    "Ġdevoid": 18680,
    "Ġhope": 1788,
    "Ġproofs": 19813,
    "apparent": 11042,
    "Ġflapp": 23007,
    "throne": 25657,
    "mare": 17599,
    "safe": 10053,
    "oldened": 22636,
    "aggra": 21903,
    "ribs": 23363,
    "aved": 5475,
    "Ġship": 1091,
    "Ġcunning": 6238,
    "Ġbran": 5250,
    "Ġtattered": 21170,
    "conject": 8879,
    "Ġdoubtfully": 23476,
    "lonely": 20956,
    "Ġviolation": 23404,
    "Ġelbows": 18635,
    "Ġscoresby": 10461,
    "Ġshoulders": 5566,
    "Ġpatch": 4185,
    "Ġworst": 7444,
    "achine": 608,
    "Ġthan": 736,
    "Ģ": 227,
    "Ġdared": 5440,
    "isl": 21373,
    "Ġbalanced": 12989,
    "ilent": 21717,
    "Ġwasting": 12725,
    "repressed": 21242,
    "Ġtimely": 19593,
    "Ġpassion": 4558,
    "aring": 1480,
    "mean": 6438,
    "Ġoutsk": 15954,
    "nal": 1901,
    "we": 848,
    "Ġmor": 1248,
    "Ġforming": 7042,
    "Ġcock": 10999,
    "Ġchancing": 22245,
    "Ġaugust": 10597,
    "ays": 6683,
    ",": 16,
    "Ġtents": 13817,
    "regards": 23465,
    "lue": 8508,
    "amy": 8467,
    "Ġgreen": 3052,
    "Ġbelieve": 2147,
    "Ġfluttered": 16248,
    "Ġcomparing": 14264,
    "treatment": 20410,
    "Ġdamn": 11158,
    "angs": 5834,
    "Ġduplicity": 25331,
    "Ġnoisy": 13317,
    "Ġfigures": 8629,
    "Ġdexter": 9700,
    "Ġbeautiful": 3672,
    "Ġdusty": 14924,
    "most": 1255,
    "Ġrachel": 11845,
    "Ġbeh": 1800,
    "Ġcleat": 18946,
    "Ġrifle": 18212,
    "Ġpractice": 2807,
    "Ġsternly": 16715,
    "Ġgord": 21597,
    "Ġrepul": 16408,
    "Ġreeds": 15693,
    "ufactured": 15180,
    "Ġbordeaux": 24564,
    "Ġoverjoy": 15970,
    "Ġaccorded": 24086,
    "Ġliquid": 22406,
    "opinion": 10984,
    "Ġdestroyer": 13412,
    "Ġmaketh": 15186,
    "Ġlashings": 25097,
    "Ġel": 802,
    "Ġlayer": 1012,
    "Ġuses": 1208,
    "squall": 13521,
    "Ġabsorbed": 12329,
    "Ġmaintained": 12932,
    "Ġinvari": 6529,
    "Ġmildness": 9943,
    "Ġaskance": 23148,
    "Ġtoy": 15631,
    "Ġclearer": 16311,
    "founded": 16713,
    "Ġscraping": 13415,
    "Ġ18": 3402,
    "Ġwakeful": 24266,
    "Ġarrest": 7409,
    "Ġgateway": 24802,
    "Ġperceive": 6699,
    "Ġclaret": 22347,
    "ceiling": 21624,
    "Ġbewitching": 25976,
    "malicious": 19901,
    "Ġmonitors": 3155,
    "grey": 14911,
    "I": 45,
    "Ġloved": 4600,
    "uary": 11537,
    "Ġstrand": 11826,
    "crowning": 25748,
    "Ġfin": 1462,
    "Ġhanging": 5447,
    "honest": 17003,
    "ims": 7176,
    "ologies": 18767,
    "splash": 25209,
    "Ġfervour": 19725,
    "Ġface": 1723,
    "shudder": 26245,
    "800": 17476,
    "Ġlandowner": 23379,
    "Ġcol": 1061,
    "gown": 9596,
    "icity": 2537,
    "Ġhour": 1810,
    "Ġreaction": 15692,
    "Ġrecall": 3855,
    "Ġgout": 21593,
    "squ": 7809,
    "raction": 8137,
    "brated": 12025,
    "Ġtwee": 22672,
    "oriously": 17874,
    "carte": 25400,
    "Ġconveyed": 8334,
    "redit": 3875,
    "wide": 10137,
    "Ġspinal": 12300,
    "Ġgilt": 21603,
    "com": 1019,
    "Ġelixir": 26555,
    "foot": 9046,
    "Ġconfessor": 24016,
    "remarkable": 13497,
    "derest": 18314,
    "Ġtashtego": 4488,
    "Ġfrosty": 14934,
    "Ġxxiv": 24477,
    "embraces": 25805,
    "Ġmice": 13858,
    "resentment": 15184,
    "Ġexcuse": 5861,
    "Ġbrown": 6298,
    "Ġexactly": 2767,
    "Ġfleet": 9431,
    "scythes": 26402,
    "bingley": 4927,
    "fellow": 6792,
    "Ġdistrusted": 13541,
    "reputation": 15514,
    "chorus": 19810,
    "arrang": 14652,
    "Ġpoisoned": 24886,
    "Ġsweat": 13139,
    "Ġspecimens": 18857,
    "arding": 22154,
    "Ġtalents": 15044,
    "Ġsoul": 2726,
    "Ġbefore": 809,
    "Ġnodding": 23333,
    "Ġeigen": 4881,
    "pequod": 7052,
    "Ġlandsc": 11146,
    "irium": 8161,
    "chat": 21683,
    "Ġcherub": 23284,
    "Ġprivileges": 25132,
    "Ġtub": 7146,
    "Ġneighbor": 25803,
    "Ġtype": 2018,
    "Ġrecollections": 10512,
    "Ġtill": 1823,
    "Ġvag": 9707,
    "Ġ8": 5433,
    "ortunity": 4406,
    "calculation": 25689,
    "piling": 15414,
    "_,âĢĻâĢĿ": 20399,
    "infant": 19826,
    "corrupt": 14894,
    "Ġmoot": 22427,
    "Ġoccupied": 5272,
    "Ġpredicting": 2412,
    "Ġevenly": 4133,
    "Ġcommunicating": 16889,
    "tting": 17680,
    "Ġpresently": 5116,
    "Ġlooking": 2472,
    "Ġobserv": 8586,
    "drown": 13703,
    "horse": 8605,
    "Ġxavier": 2852,
    "boscombe": 26121,
    "Ġdismast": 12885,
    "abashed": 21789,
    "Ġhail": 7400,
    "Ġamelia": 26251,
    "Ġdeser": 3886,
    "Ġoverseeing": 22358,
    "Ġmassacre": 20546,
    "gunw": 17220,
    "unvarying": 21884,
    "lacing": 17590,
    "Ġenh": 3207,
    "Ġvir": 7001,
    "Ġseventy": 7879,
    "Ġslabs": 13058,
    "sailed": 17666,
    "consumed": 25675,
    "aped": 3763,
    "Ġphant": 7055,
    "Ġsickly": 16774,
    "suspended": 15176,
    "ĠĠĠĠĠĠĠĠĠĠĠĠĠĠĠĠĠĠĠĠĠĠĠĠĠĠĠĠĠĠĠĠĠĠĠĠĠĠĠĠ": 4518,
    "Ġjackal": 24239,
    "Ġmuzzle": 21319,
    "Ġstern": 4225,
    "cousin": 10652,
    "Ġbun": 6006,
    "crier": 20819,
    "Ġjabbering": 22300,
    "Ġwines": 21286,
    "ruff": 15893,
    "Ġtragedy": 10667,
    "Ġfuller": 11156,
    "biting": 20779,
    "Ġpuff": 6526,
    "Ġsympathy": 6346,
    "Ġsummons": 13230,
    "Ġattention": 1185,
    "tawn": 21079,
    "Ġrecord": 5316,
    "Ġacc": 568,
    "Ġplainpalais": 20736,
    "Ġhardihood": 23108,
    "Ġpistol": 7846,
    "Ġseclusion": 18208,
    "kick": 20935,
    "Ġ114": 24438,
    "Ġasking": 5651,
    "sou": 12503,
    "Ġlimit": 10443,
    "per": 482,
    "Ġdepressions": 25798,
    "Ġaud": 6661,
    "Ġhammock": 5768,
    "Ġabundance": 17155,
    "Ġundulations": 19514,
    "Ġparts": 4170,
    "Ġlottery": 19887,
    "ole": 9613,
    "carry": 19525,
    "Ġsecondary": 23334,
    "increase": 20267,
    "Ġrejoined": 14926,
    "pos": 15409,
    "ben": 4926,
    "Ġdrunken": 12048,
    "Ġhaunted": 10253,
    "upwards": 18863,
    "Ġabhor": 5467,
    "Ġ121": 24466,
    "shark": 14238,
    "Ġfuel": 13903,
    "Ġstudied": 11116,
    "ends": 6038,
    "wow": 21120,
    "Ġbusily": 9383,
    "ule": 6800,
    "Ġunfavourable": 17416,
    "Ġevanesc": 24294,
    "bing": 7791,
    "qualified": 17098,
    "Ġhermits": 22071,
    "Ġ94": 17717,
    "Ġtraged": 9351,
    "Ġrepresentation": 14404,
    "Ġcaulk": 25440,
    "Ġramad": 8527,
    "Ġdistension": 22502,
    "nable": 13761,
    "Ġadmits": 23552,
    "transformers": 8714,
    "narwhale": 17317,
    "Ġsoothe": 7405,
    "Ġapproximate": 2341,
    "gans": 11489,
    "Ġfaulty": 14906,
    "Ġinitialized": 3949,
    "dare": 12451,
    "deed": 1521,
    "times": 8098,
    "Ġcocked": 12901,
    "Ġwra": 5905,
    "Ġimpreg": 15985,
    "Ġampl": 22477,
    "Ġisinglass": 21799,
    "unctions": 18155,
    "Ġfingers": 5672,
    "Ġmariner": 7247,
    "view": 5895,
    "Ġvicious": 24403,
    "philosophy": 13579,
    "Ġincredible": 9514,
    "Ġcastaways": 19426,
    "Ġpaws": 13920,
    "Ġlist": 2364,
    "ind": 569,
    "flakes": 23965,
    "Ġscar": 3209,
    "lin": 9603,
    "Ġtracing": 18888,
    "oran": 8788,
    "Ġeverything": 3153,
    "sequ": 2398,
    "Ġgroom": 13965,
    "pots": 11513,
    "Ġpondered": 15165,
    "Ġhilarity": 20296,
    "system": 3977,
    "Ġobservations": 13552,
    "aside": 10191,
    "Ġswe": 2289,
    "Ġmanage": 7640,
    "devilish": 17082,
    "Ġbewitched": 25975,
    "habit": 16188,
    "royal": 11393,
    "abled": 12791,
    "ispens": 8335,
    "Ġdissol": 18551,
    "Ġrelationships": 2926,
    "iro": 20913,
    "Ġunintellig": 22023,
    "Ġdrinks": 24279,
    "Ġerection": 23998,
    "Ġoutward": 7903,
    ",âĢĻ": 2327,
    "Ġstormy": 16728,
    "vul": 15447,
    "://": 11465,
    "ry": 806,
    "Ġmug": 21311,
    "Ġpatriot": 23297,
    "Ġattracted": 8905,
    "Ġop": 2600,
    "diminished": 20838,
    "aper": 4999,
    "Ġwearily": 18177,
    "Ġ48": 24078,
    "Ġswell": 8949,
    "Ġjane": 1756,
    "Ġpar": 456,
    "Ġexist": 9231,
    "Ġvelvets": 25393,
    "Ġtravelling": 11307,
    "Ġmistifying": 23718,
    "Ġconquered": 14025,
    "Ġholland": 10365,
    "original": 9084,
    "Ġhoary": 23352,
    "revolver": 25627,
    "Ġcathedral": 17412,
    "returning": 12203,
    "bre": 3981,
    "drive": 8682,
    "l": 80,
    "Ġemployments": 12100,
    "Ġexciting": 23309,
    "rain": 462,
    "Ġflavor": 16251,
    "either": 6791,
    "Ġbook": 2703,
    "Û": 156,
    "Ġpag": 6010,
    "Ġconjectured": 9996,
    "Ġlawy": 9454,
    "Ġproportionate": 17043,
    "Ġapplies": 11953,
    "Ġdefine": 9814,
    "Ġrejoice": 10208,
    "Ġfring": 11127,
    "Ġcategories": 4479,
    "brary": 5755,
    "calculating": 25690,
    "ascar": 8434,
    "Ġevolve": 3003,
    "Ġaffected": 5577,
    "fleet": 15013,
    "Ġpulley": 2978,
    "Ġplanned": 14751,
    "Ġcharger": 19005,
    "Ġenorm": 5302,
    "tent": 21063,
    "idea": 9300,
    "Ġslopes": 18940,
    "Ġeul": 21615,
    "oe": 7552,
    "Ġneedles": 11184,
    "circumspect": 26086,
    "Ġforwarded": 19043,
    "ascertain": 21540,
    "Ġsupercil": 23453,
    "anter": 9166,
    "Ġage": 3897,
    "requirements": 24857,
    "Ġaggreg": 12881,
    "Ġserene": 8166,
    "Ġmemorable": 16426,
    "Ġannounced": 9034,
    "settled": 10506,
    "tart": 21066,
    "burnt": 20078,
    "Ġacquired": 13040,
    "Ġare": 526,
    "aneous": 7240,
    "partner": 19220,
    "ements": 11108,
    "accurately": 25861,
    "osed": 1960,
    "lessly": 4557,
    "begging": 22494,
    "Ġfuneral": 10282,
    "ways": 1442,
    "Ġvilest": 20099,
    "Ġpromoting": 3159,
    "found": 4217,
    "cano": 18839,
    "gment": 4393,
    "edy": 2856,
    "Ġcomparison": 7099,
    "Ġlima": 10442,
    "isance": 17847,
    "Ġruin": 6055,
    "Ġfastened": 7065,
    "amed": 4450,
    "benefit": 24642,
    "shore": 10305,
    "concerted": 16671,
    "Ġsquid": 11876,
    "Ġperturbation": 20439,
    "spir": 5739,
    "Ġph": 1548,
    "Ġlantern": 7116,
    "ror": 7351,
    "ooping": 21006,
    "Ġincreas": 1696,
    "Ġlittle": 867,
    "Ġcoldly": 14650,
    "Ġpromptly": 23814,
    "Ġreneg": 21672,
    "Ġcurtains": 22980,
    "Ġcaged": 21350,
    "Ġreclining": 26033,
    "oga": 22692,
    "Ġstores": 18068,
    "Ġdanish": 21429,
    "Ġratio": 5066,
    "harpoon": 9490,
    "acled": 16079,
    "Ġensemble": 1609,
    "Ġslight": 3117,
    "swed": 24253,
    "Ġencoun": 4513,
    "inv": 8400,
    "osque": 22259,
    "Ġindustry": 18836,
    "Ġdecidedly": 9508,
    "Ġcandidates": 4336,
    "Ġfascinating": 17327,
    "Ġstil": 15715,
    "Ġassurances": 9999,
    "mers": 9610,
    "Ġglue": 15671,
    "disappeared": 14569,
    "wam": 10135,
    "Ġclut": 7641,
    "Ġpolicy": 10457,
    "Ġnine": 5369,
    "Ġdub": 13908,
    "rior": 12738,
    "Ġcrackling": 24958,
    "Ġinexorable": 12253,
    "Ġtheology": 21275,
    "Ġuncompromised": 20602,
    "ful": 662,
    "Ġopulence": 23626,
    "Ġjiff": 22293,
    "Ġhappily": 9330,
    "Ġmuskets": 17056,
    "Ġrepositories": 23362,
    "Ġescaped": 6459,
    "Ġbloom": 9887,
    "sculpt": 16242,
    "Ġpeaceable": 14722,
    "Ġsatur": 1930,
    "Ġlies": 5295,
    "Ġirrad": 19093,
    "engthen": 14457,
    "Ġcoopman": 25827,
    "sockets": 22733,
    "persuade": 13532,
    "eked": 16401,
    "Ġdestitute": 14565,
    "Ġvort": 18193,
    "Ġdistrust": 8204,
    "Ġforetold": 23450,
    "Ġdeceiving": 21834,
    "cry": 12443,
    "Ġswinging": 7449,
    "ization": 486,
    "Ġrejected": 12292,
    "Ġexclamation": 8698,
    "inching": 21188,
    "indirect": 22372,
    "Ġsecretly": 13270,
    "Ġanteced": 26177,
    "Ġarrive": 6907,
    "Ġbre": 1913,
    "wander": 17709,
    "Ġvoices": 7875,
    "Ġmiller": 19882,
    "Ġlamentations": 17076,
    "Ġwhatsoever": 18460,
    "Ġneglig": 18878,
    "av": 739,
    "iar": 2376,
    "ribute": 7224,
    "ve": 322,
    "lected": 1639,
    "ints": 3414,
    "Ġrevel": 9214,
    "Ġfrightful": 7735,
    "Ġelab": 22639,
    "bies": 15311,
    "Ġletters": 3792,
    "Ġroast": 18455,
    "Ġlangu": 574,
    "Ġintrospect": 15826,
    "Ġsteelkilt": 5675,
    "confl": 22468,
    "Ġclad": 12836,
    "Ġundergo": 23236,
    "imet": 21703,
    "ternatural": 12712,
    "atlantic": 15522,
    "dham": 20829,
    "ells": 5303,
    "mountains": 15179,
    "Ġprobable": 5570,
    "Ġblock": 2571,
    "wilful": 25086,
    "tfordshire": 4811,
    "fixedly": 24929,
    "Ġodor": 12147,
    "Ġplaster": 16081,
    "Ġblacks": 23386,
    "Ġdismissed": 12889,
    "Ġperceptibly": 25821,
    "oar": 12495,
    "plans": 21949,
    "suggested": 17298,
    "Ġbenchmarks": 15021,
    "pleasant": 5874,
    "Ġmodesty": 12814,
    "ckets": 6843,
    "eded": 9673,
    "cake": 20803,
    "Ġple": 1471,
    "insufficient": 15488,
    "Ġrelaxed": 12980,
    "crane": 24097,
    "aked": 2014,
    "Ġadapt": 998,
    "Ġhousekeeping": 18943,
    "Ġdinnertime": 16719,
    "Ġconjunction": 25100,
    "Ġdam": 2214,
    "derment": 22164,
    "Ġreser": 5170,
    "Ġpursuits": 12074,
    "owners": 16084,
    "op": 654,
    "Ġunclad": 22051,
    "whel": 7664,
    "rayed": 23562,
    "savor": 25024,
    "esteemed": 26009,
    "Ġchanc": 18384,
    "Ġhelplessness": 25071,
    "tre": 8760,
    "efficient": 2868,
    "gentleness": 24844,
    "Ġshiver": 12764,
    "Ġinquis": 19302,
    "conversations": 24749,
    "halfway": 24311,
    "carries": 19526,
    "prevailed": 17344,
    "cost": 19186,
    "Ġornament": 11718,
    "Ġmajesty": 5201,
    "windows": 19533,
    "next": 5891,
    "Ġkins": 22191,
    "scrape": 25698,
    "ifications": 9727,
    "putation": 7624,
    "Ġcontour": 18474,
    "eng": 1492,
    "Ġhailed": 6407,
    "Ġinspire": 11994,
    "Ġmonstr": 7666,
    "Ġcha": 6853,
    "Ġclim": 8194,
    "Ġfollows": 7672,
    "ulence": 15763,
    "commer": 22823,
    "Ġfolly": 7940,
    "Ġfreshly": 23984,
    "Ġpumps": 8426,
    "Ġfilm": 23922,
    "Ġloud": 4701,
    "Ġsounded": 8590,
    "complet": 11383,
    "nt": 920,
    "Ġsuspicions": 9478,
    "sander": 11526,
    "want": 8765,
    "Ġarsac": 11740,
    "Ġprot": 3847,
    "Ġreservo": 16831,
    "to": 715,
    "Ġmalice": 7152,
    "Ġthen": 666,
    "Ġflank": 8228,
    "Ġunfolding": 17086,
    "Ġschedu": 1822,
    "Ġcholera": 22250,
    "Ġnuptials": 20492,
    "Ġhelps": 9367,
    "finds": 19926,
    "Ġguidance": 9416,
    "Ġdisdain": 8359,
    "separated": 20158,
    "lake": 13748,
    "Ġshouting": 10522,
    "Ġunprovided": 18260,
    "Ġkeen": 4614,
    "oky": 8197,
    "interests": 19707,
    "Ġatmosphere": 10897,
    "Ġlogical": 14486,
    "connections": 14427,
    "Ġaimed": 20249,
    "wester": 21137,
    "Ġcultured": 25154,
    "fired": 20859,
    "Ġvol": 4193,
    "Ġmoluccas": 25629,
    "Ġseparation": 11248,
    "Ġundersampling": 19517,
    "ropout": 1320,
    "icherry": 15134,
    "Ġnom": 21516,
    "vous": 2252,
    "!âĢĻâĢĿ": 16592,
    "Ġroses": 11784,
    "desc": 1391,
    "Ġconcernment": 23643,
    "Ġ(_": 3735,
    "ouch": 2778,
    "Ġwidower": 24235,
    "ositories": 22261,
    "Ġdissimilar": 22528,
    "Ġimmediate": 6089,
    "equally": 19898,
    "stamp": 21651,
    "Ġink": 8802,
    "Ġbriskly": 25311,
    "Ġaff": 1119,
    "Ġtilted": 20411,
    "absurd": 21792,
    "mist": 5686,
    "Ġadjusts": 8980,
    "Ġrheumatic": 20704,
    "Ġcries": 7154,
    "Ġcheshire": 13088,
    "stud": 8819,
    "Ġfeel": 1260,
    "Ġinfinity": 23279,
    "Ġrecess": 10847,
    "Ġfif": 4220,
    "Ġindispensable": 11898,
    "Ġpatted": 16378,
    "hearted": 6970,
    "Ġlumps": 21553,
    "Ġseveral": 2675,
    "orrow": 2915,
    "Ġ]": 15458,
    "tumultuous": 20397,
    "ppings": 18176,
    "Ġradiating": 24335,
    "xible": 13807,
    "Ġclients": 19731,
    "tacit": 21097,
    "Ġinterment": 22571,
    "Ġtorrent": 17092,
    "Ġcover": 3556,
    "ave": 978,
    "ign": 1705,
    "Ġhessian": 3547,
    "Ġspasmodic": 20396,
    "sharpening": 22461,
    "Ġemail": 19072,
    "Ġoptim": 783,
    "Ġberyls": 25775,
    "Ġsmacking": 20164,
    "Ġyore": 21775,
    "Ġappellation": 22216,
    "Ġcheerily": 13306,
    "Ġfallen": 5967,
    "elihood": 4623,
    "reck": 9636,
    "Ġapproxim": 1217,
    "Ġlaud": 17967,
    "Ġdome": 15586,
    "state": 13978,
    "Ġmutineer": 19416,
    "Ġadhering": 14139,
    "icate": 9201,
    "Ġclothing": 18423,
    "------": 12131,
    "binder": 17499,
    "Ġchildish": 13135,
    "Ġclutched": 13518,
    "Ġimproved": 7656,
    "angry": 18294,
    "inctions": 17732,
    "Ġadmiration": 5328,
    "Ġlucas": 3832,
    "cavity": 26126,
    "Ġtalked": 4423,
    "Ġlikely": 3597,
    "Ġepic": 15029,
    "cks": 3078,
    "Ġrearing": 12674,
    "Ġrevive": 13478,
    "dee": 11730,
    "Ġsuffers": 2976,
    "Ġessential": 7523,
    "Ġclothe": 4712,
    "look": 2262,
    "ibly": 2997,
    "âĢĺ": 940,
    "Ġsought": 5010,
    "Ġ(`": 12850,
    "Ġpillows": 24986,
    "shrouded": 26361,
    "Ġpagan": 7117,
    "Ġsummoned": 9910,
    "Ġconstraint": 16513,
    "lect": 1221,
    "vain": 15446,
    "Ġaccommod": 14210,
    "Ġcandelabra": 26602,
    "aract": 17894,
    "Ġstudious": 23232,
    "Ġthinner": 24182,
    "Ġwhich": 505,
    "Ġcigar": 9544,
    "Ġbristling": 20525,
    "Ġbesides": 3513,
    "hunt": 20902,
    "Ġprediction": 2226,
    "Ġcomplained": 16998,
    "Ġtask": 1310,
    "Ġhistory": 4010,
    "Ġsust": 7006,
    "Ġhandsomest": 20333,
    "Ġcopied": 20006,
    "Ġtypewriter": 19097,
    "Ġenveloped": 12206,
    "Ġamiable": 4272,
    "minutely": 19592,
    "Ġremote": 8919,
    "Ġclicked": 22349,
    "Ġdoctrine": 24197,
    "Ġentrance": 7233,
    "cull": 20808,
    "shunned": 22462,
    "heredit": 21208,
    "Ġpuzz": 5533,
    "Ġguitar": 16266,
    "Ġuncomfortable": 8485,
    "Ġvac": 5025,
    "kings": 17583,
    "Ġvisited": 5947,
    "brous": 19198,
    "Ġidly": 16403,
    "Ġfeedback": 23431,
    "Ġsable": 15499,
    "Ġsepul": 14089,
    "dangerous": 20239,
    "Ġsubmission": 22787,
    "uch": 877,
    "rennial": 22338,
    "ogene": 18671,
    "ble": 542,
    "Ġadded": 2717,
    "Ġnug": 21522,
    "Ġreckoned": 24744,
    "advent": 10220,
    "Ġcreative": 9829,
    "loath": 22506,
    "Ġexterior": 19986,
    "estion": 18362,
    "ommod": 13976,
    "pict": 8385,
    ",âĢĻâĢĶ": 23526,
    "humoredly": 26324,
    "Ġapproached": 5843,
    "coal": 12023,
    "Ġdelirium": 10405,
    "mopol": 15395,
    "ets": 1157,
    "Ġtopic": 9405,
    "Ġsprang": 5064,
    "Ġunlim": 18253,
    "endeavoured": 12278,
    "Ġaccursed": 9446,
    "Ġlandlord": 5581,
    "Ġtoken": 2037,
    "Ġbearing": 5298,
    "Ġmott": 17803,
    "Ġdistracted": 11802,
    "ĩ": 234,
    "imp": 3033,
    "Ġswimmer": 19457,
    "quely": 10231,
    "vap": 13802,
    "Ġprovocation": 24191,
    "Ġarchitects": 18737,
    "Ġshipmates": 6720,
    "ibule": 13004,
    "Ġwhirling": 12246,
    "happily": 14657,
    "Ġeclips": 20695,
    "Ġexulting": 20257,
    "Ġreputed": 18035,
    "Ġmahogany": 20576,
    "Ġuntoward": 19164,
    "Ġslime": 23159,
    "Ġmanhat": 22324,
    "Ġcut": 2642,
    "Ġfigured": 16643,
    "Ġobliging": 13241,
    "Ġenabling": 1081,
    "Ġsalad": 19477,
    "ifled": 14062,
    "Ġincensed": 18571,
    "arch": 1127,
    "ender": 9160,
    "oration": 2207,
    "Ġshoots": 14567,
    "Ġresources": 2938,
    "scores": 22987,
    "im": 327,
    "ilingly": 21720,
    "Ġleadenhall": 16628,
    "croquet": 25747,
    "ishnoo": 10955,
    "Ġventure": 7739,
    "declined": 25174,
    "Ġasph": 21895,
    "F": 42,
    "Ġsalutation": 12395,
    "wondered": 17029,
    "uded": 6286,
    "Ġsoften": 23122,
    "Ġardently": 9497,
    "mblance": 7323,
    "creation": 14805,
    "Ġsabbee": 17255,
    "Ġapparition": 8066,
    "Ġsqualidness": 25842,
    "rally": 17651,
    "Ġdro": 2770,
    "Ġabsorbing": 17128,
    "Ġsympathies": 14860,
    "method": 17284,
    "Ġ19": 6719,
    "Ġaugment": 8691,
    "Ġpul": 2039,
    "Ġeffusions": 18529,
    "adventures": 20255,
    "peculiar": 6886,
    "Ġprophesy": 26061,
    "Ġexclamations": 11361,
    ";âĢĿ": 7790,
    "Ġefforts": 11800,
    "Ġshudderings": 25200,
    "arian": 10316,
    "Ġfries": 21413,
    "Ġtheme": 16017,
    "anting": 6412,
    "Ġscrape": 14917,
    "Ġpestilent": 25777,
    "Ġrealities": 18982,
    "pierced": 26141,
    "Ġdiscipl": 22782,
    "angible": 22102,
    "Ġunspeak": 8850,
    "Ġestablishment": 13578,
    "Ġillness": 8589,
    "somewhere": 12011,
    "å": 166,
    "Ġalley": 15733,
    "accident": 11181,
    "raged": 9211,
    "Ġsurrey": 14558,
    "Ġissuing": 16948,
    "niest": 18955,
    "humour": 7498,
    "Ġreserve": 9970,
    "Ġ69": 19660,
    "Ġdejected": 20303,
    "Ġairth": 23316,
    "cad": 17504,
    "Ġspy": 22120,
    "Ġpigeon": 9515,
    "chose": 18040,
    "Ġhousehold": 8567,
    "Ġwaves": 3920,
    "Ġunquestionable": 26221,
    "Ġjohn": 5032,
    "sies": 21053,
    "okers": 18441,
    "Ġpaw": 12617,
    "Ġpostmark": 16725,
    "Ġadvanced": 1440,
    "Ġscattered": 6856,
    "Ġyale": 21776,
    "Ġdrifting": 19278,
    "Ġwarmly": 8987,
    "story": 9212,
    "introduce": 25186,
    "Ġflaming": 8563,
    "Ġconject": 6026,
    "Ġexperience": 1396,
    "Ġbehaves": 23296,
    "beries": 22719,
    "Ġlovel": 10271,
    "Ġmines": 21307,
    "Ġdivulged": 16648,
    "departed": 24794,
    "Ġyard": 5920,
    "Ġunwearied": 20601,
    "Ġunmethodically": 22068,
    "Ġmorrow": 9341,
    "Ġwestmorland": 24390,
    "Ġglac": 9345,
    "Ġmatted": 22909,
    "Ġforts": 21769,
    "Ġ13": 6718,
    "iftings": 23221,
    "introduced": 15123,
    "robustness": 26338,
    "ú": 187,
    "Ġnay": 5711,
    "Ġdominic": 25381,
    "Ġpredecessor": 26253,
    "Ġobserve": 4671,
    "step": 2454,
    "ortions": 10948,
    "Ġlabyrinth": 13678,
    "stained": 21652,
    "Ġpen": 1532,
    "Ġlouisa": 13545,
    "Ġtowering": 16739,
    "swiss": 24255,
    "Ġcont": 620,
    "alter": 10826,
    "cerem": 15675,
    "sigma": 3004,
    "stern": 8444,
    "Ġwaiter": 16358,
    "Ġrespond": 11176,
    "Ġfirmly": 8013,
    "ans": 459,
    "Ġinve": 17928,
    "Ġconcentrate": 25063,
    "Ġparadigms": 3056,
    "Ġobscured": 15010,
    "Ġinsupportable": 13931,
    "soldiers": 25911,
    "lanter": 15386,
    "turtle": 12209,
    "Ġlearnable": 3998,
    "powers": 25410,
    "swelled": 19609,
    "mo": 864,
    "Ġrover": 18454,
    "jack": 7344,
    "Ġrenders": 13282,
    "Ġstrewed": 23420,
    "Ġdit": 21418,
    "soundest": 24797,
    "Ġdrug": 11410,
    "Ġmusket": 12294,
    "Ġmour": 6973,
    "Ġcellar": 8058,
    "Ġwarriors": 19722,
    "Ġcran": 11999,
    "Ġhead": 1124,
    "Ġshoal": 12014,
    "vels": 5432,
    "remained": 8569,
    "Ġunfrequently": 20738,
    "Ġhung": 4561,
    "Ġdyspeps": 16507,
    "Ġdistraction": 22503,
    "blog": 19838,
    "Ġmainten": 16110,
    "speaks": 19718,
    "Ġtormenting": 15103,
    "Ġgushed": 21604,
    "Ġbuoyant": 13531,
    "cu": 10083,
    "Ġcomra": 7183,
    "etition": 7382,
    "Ġarve": 15896,
    "Ġmouldings": 24737,
    "Ġexpressive": 8982,
    "Ġzodiac": 16171,
    "ification": 1011,
    "Ġunbroken": 18250,
    "prints": 23809,
    "resting": 23234,
    "Ġtools": 11608,
    "Ġembal": 11908,
    "uting": 15657,
    "Ġdeaden": 23459,
    "Ġstrict": 7222,
    "ized": 1529,
    "Ġpointing": 5661,
    "Ġhandspikes": 12936,
    "Ġundue": 25993,
    "Ġoysters": 20577,
    "Ġrecourse": 22730,
    "Ġket": 18347,
    "ever": 1078,
    "Ġwreaths": 25937,
    "ieving": 7031,
    "alf": 4639,
    "Ġconveniently": 20077,
    "inable": 11555,
    "Ġsteals": 23081,
    "Ġrobins": 16245,
    "Ġtist": 21161,
    "Ġinanimate": 13932,
    "osop": 4407,
    "pip": 6654,
    "mou": 10708,
    "Ġtroublesome": 23999,
    "Ġrefusal": 10340,
    "verb": 10216,
    "Ġdiabolically": 25513,
    "lord": 3864,
    "greatly": 16623,
    "Ġlargely": 14284,
    "umphed": 23516,
    "surprising": 16919,
    "Ġredu": 1354,
    "Ġoccurrence": 14381,
    "adm": 7608,
    "Ġsuccession": 12099,
    "igating": 21697,
    "regular": 3042,
    "Ġpreliminaries": 25176,
    "Ġcontortions": 18476,
    "Ġroasted": 18458,
    "linked": 17593,
    "Ġfeatures": 1433,
    "Ġdiminishing": 4212,
    "Ġcalculus": 23980,
    "Ġmaintains": 2145,
    "Ġcells": 13884,
    "Ġphysiognomy": 25610,
    "deceiving": 22140,
    "Ġsaints": 20673,
    "Ġgentleness": 8709,
    "plate": 18199,
    "erm": 787,
    "Ġanimated": 7701,
    "Ġconsist": 1933,
    "Ġwrongfully": 24248,
    "Ġdusting": 24596,
    "position": 15412,
    "Ġbedford": 7473,
    "Ġdreams": 7496,
    "Ġeliza": 6437,
    "Ġ109": 24416,
    "ream": 2710,
    "Ġscientific": 6857,
    "Ġigniting": 25070,
    "Ġstrongest": 11135,
    "borrowed": 20791,
    "abs": 11666,
    "Ġsan": 7824,
    "practical": 17221,
    "mong": 15388,
    "Ġdescends": 14286,
    "Ġinmost": 17930,
    "consciously": 19624,
    "Ġher": 427,
    "acknowledge": 18470,
    "Ġrides": 21971,
    "Ġinstinctively": 13458,
    "variety": 23183,
    "Ġsnuff": 7991,
    "Ġcrowding": 13278,
    "Ġfastening": 16355,
    "comput": 2078,
    "Ġharpooneer": 3770,
    "Ġcategorization": 12134,
    "Ġduring": 872,
    "Ġcalves": 13032,
    "Ġobtain": 8914,
    "ilt": 2969,
    "wer": 8394,
    "Ġenlarged": 25985,
    "discharging": 26305,
    "Ġinquiries": 5678,
    "baden": 25615,
    "Ġdark": 2112,
    "nine": 13760,
    "Ġaugmented": 15104,
    "Ġremorse": 6441,
    "Ġdisposition": 5409,
    "Ġtraveller": 8048,
    "plumed": 21952,
    "Ġstarted": 4154,
    "unimportant": 18159,
    "Ġconditions": 8306,
    "Ġpoetical": 25056,
    "Ġarchitect": 989,
    "Ġglens": 18853,
    "Ġknew": 2054,
    "Ġaccording": 5508,
    "Ġ$": 21149,
    "watch": 6118,
    "Ġ89": 19711,
    "andam": 10888,
    "Ġswear": 6461,
    "Ġoffend": 16142,
    "Ġcapting": 23018,
    "avering": 24793,
    "Ġwhitt": 18054,
    "recklessly": 25269,
    "Ġalpine": 18105,
    "Ġlinks": 13954,
    "esu": 17901,
    "cast": 2928,
    "Ġprocuring": 16870,
    "horr": 14599,
    "Ġtiara": 26415,
    "Ġflourishing": 25187,
    "Ġlooks": 4171,
    "Ġmoustache": 20482,
    "Ġgrows": 4985,
    "Ġraiment": 22648,
    "athies": 22699,
    "Ġinstruction": 14343,
    "Ġdoubted": 7964,
    "Ġfires": 16471,
    "Ġfinished": 5044,
    "prepared": 13589,
    "Ġwag": 10775,
    "erpillar": 5797,
    "Ġemotion": 7689,
    "etah": 12658,
    "Ġprognostics": 20557,
    "blown": 25201,
    "ital": 4817,
    "Ġrepulses": 26070,
    "acquainted": 7313,
    "Ġguid": 2638,
    "popular": 26140,
    "spersed": 22738,
    "Ġbuilt": 8300,
    "Ġflood": 7715,
    "cr": 4076,
    "deprived": 19897,
    "regard": 7972,
    "Ġbroker": 23098,
    "unwholesome": 26497,
    "Ġafric": 8903,
    "Ġwhalebone": 10977,
    "hil": 8378,
    "Ġgrop": 12661,
    "Ġbapt": 13895,
    "Ġdiffused": 12066,
    "70": 17475,
    "orers": 14102,
    "Ġeverywhere": 9794,
    "Ġdiscl": 9796,
    "Ġconversations": 9424,
    "Ġcurds": 22979,
    "Ġcrush": 9421,
    "consist": 14815,
    "Ġcheerless": 16694,
    ")": 13,
    "Ġencountering": 11269,
    "Ġsummary": 19401,
    "Ġchanges": 2286,
    "Ġfrance": 7681,
    "Ġcandidate": 16701,
    "Ġgrin": 5482,
    "Ġfulfilment": 20186,
    "Ġappointment": 10646,
    "Ġdol": 9664,
    "Ġbarrens": 25501,
    "Ġexploit": 19161,
    "Ġabruptly": 15149,
    "Ġchast": 18380,
    "itically": 21328,
    "Ġjunior": 15098,
    "Ġgpt": 4353,
    "itation": 1779,
    "Ġheat": 5453,
    "benevol": 12224,
    "untering": 15773,
    "web": 18664,
    "shot": 2165,
    "Ġsymph": 22208,
    "Ġniagara": 26458,
    "Ł": 258,
    "Ġgamb": 17997,
    "Ġspires": 11728,
    "oriented": 2949,
    "Ġpearl": 20375,
    "wic": 21119,
    "Ġpeaks": 16126,
    "Ġyork": 11664,
    "weave": 22682,
    "Ġdrily": 23538,
    "Ġve": 1111,
    "throw": 14097,
    "ament": 2437,
    "jeroboam": 25619,
    "Ġreasoned": 23048,
    "text": 1973,
    "whalers": 17263,
    "punct": 20191,
    "÷": 184,
    "Ġbattering": 13900,
    "h": 76,
    "intern": 23734,
    "Ġcoburg": 18599,
    "Ġsalutations": 25382,
    "Ġfaithful": 9502,
    "Ġrecalled": 8537,
    "Ġtract": 21164,
    "chet": 13216,
    "Ġvisiting": 10361,
    "ham": 1704,
    "Ġtopsails": 19193,
    "Ġliving": 3062,
    "Ġproving": 15749,
    "Ġdepth": 2436,
    "Ġlatitude": 8328,
    "Ġplowdon": 26447,
    "torm": 11530,
    "unnecessary": 21877,
    "Ġcattle": 12569,
    "Ġtowed": 11265,
    "Ġcumbrous": 26432,
    "Ġcolonel": 3403,
    "Ġremember": 2680,
    "Ġfor": 340,
    "Ġends": 8237,
    "ostentatious": 20651,
    "effort": 19213,
    "Ġjoky": 18406,
    "Ġwarmed": 12022,
    "Ġsloop": 25930,
    "anity": 9654,
    "ne": 646,
    "irect": 5553,
    "Ġcaptioning": 23019,
    "enderby": 25215,
    "ively": 1301,
    "Ġremorselessly": 16967,
    "Ġhugh": 15004,
    "alley": 23020,
    "rust": 2577,
    "Ġdews": 21835,
    "lished": 8382,
    "encouragement": 17422,
    "gard": 7339,
    "generative": 4332,
    "Ġhurried": 4033,
    "ortunities": 15938,
    "Ġeaves": 15673,
    "intu": 22930,
    "Ġpondering": 17005,
    "-------": 20387,
    "Ġethere": 23948,
    "Ġplacid": 11824,
    "Ġtroubles": 19437,
    "Ġconjoined": 21803,
    "blind": 16705,
    "Ġduchess": 4799,
    "/`)": 13659,
    "Ġdenny": 9001,
    "variance": 2656,
    "incidentally": 20538,
    "baron": 24925,
    "Ġdecaying": 2245,
    "Ġvernal": 23886,
    "Ġurging": 24505,
    "Ġlord": 2967,
    "Ġharbor": 10026,
    "Ġtalk": 1969,
    "Ġwreat": 15529,
    "Ġdisapprobation": 16056,
    "ta": 13788,
    "_.)": 7278,
    "Ġmeet": 2803,
    "ravelled": 18014,
    "Ġwolfish": 25935,
    "Ġdried": 7367,
    "Ġstagger": 10591,
    "round": 3364,
    "embers": 21926,
    "Ġintrig": 21987,
    "Ġxxxi": 24966,
    "numerous": 17430,
    "Ġpeople": 2541,
    "kl": 4865,
    "shown": 22451,
    "Ġparticular": 2447,
    "ants": 1388,
    "Ġdanced": 7842,
    "troubled": 17112,
    "Ġexamination": 8004,
    "Ġbutterfly": 19909,
    "pigs": 17140,
    "strained": 21655,
    "resol": 17760,
    "Ġschoolboys": 24481,
    "iving": 1726,
    "daugh": 6788,
    "Ġsevent": 18202,
    "Ġfins": 9663,
    "Ġsar": 21212,
    "aisance": 15073,
    "doublo": 24660,
    "Ġgritted": 22802,
    "Ġpirates": 9073,
    "Ġunworthy": 11713,
    "Ġonset": 12707,
    "Ġstrangeness": 16707,
    "Ġpanting": 11602,
    "Ġcarcase": 14443,
    "umul": 1289,
    "Ġideal": 13119,
    "Ġsires": 21225,
    "uced": 13799,
    "Ġtennes": 23547,
    "ours": 3425,
    "Ġreign": 13984,
    "Ġunfathomably": 25873,
    "Ġcircumspection": 25884,
    "Ġowest": 25091,
    "Ġdangling": 17174,
    "ß": 160,
    "younger": 11312,
    "Ġsly": 9632,
    "iop": 20918,
    "Ġparamount": 15876,
    "Ġtexture": 19159,
    "Ġrely": 8820,
    "Ġprecip": 7074,
    "Ġcircumst": 2977,
    "Ġboxed": 24360,
    "acute": 22592,
    "lyph": 10852,
    "Ġreads": 23109,
    "Ġharpooned": 13261,
    "Ġsublim": 19965,
    "execut": 13654,
    "brimmed": 14588,
    "Ġchr": 3688,
    "Ġshake": 6033,
    "Ġwounded": 8657,
    "heavily": 24534,
    "Ġversion": 10629,
    "Ġhab": 4221,
    "Ġfailure": 13313,
    "Ġprophes": 16347,
    "them": 3019,
    "Ġstrictest": 17042,
    "Ġgentlemen": 3642,
    "elaborate": 21573,
    "xim": 1092,
    "dining": 13704,
    "Ġnatural": 1105,
    "quarter": 11388,
    "admiration": 11387,
    "Ġenjoyed": 8007,
    "Ġthickets": 24020,
    "aloons": 20009,
    "Ġdeliberately": 10624,
    "ilib": 4121,
    "Ġcomputer": 1190,
    "Ġsurmise": 12293,
    "Ġceased": 6468,
    "terr": 8153,
    "Ġhurt": 7700,
    "Ġmister": 22749,
    "urean": 18122,
    "wherein": 19107,
    "Ġoce": 3030,
    "retrie": 18922,
    "Ġdisgust": 6705,
    "terdam": 18129,
    "commander": 16987,
    "particular": 5757,
    "Ġencodings": 4775,
    "Ġevaluation": 16537,
    "Ġregain": 22576,
    "henomena": 20271,
    "tha": 15821,
    "Ġcautiousness": 19865,
    "Ġrespectfully": 18994,
    "Ġaristocratic": 20510,
    "capital": 15087,
    "ado": 11657,
    "Ġnonce": 23231,
    "Ġarmed": 9259,
    "Ġstandard": 14496,
    "inhab": 10757,
    "Ġsignify": 16493,
    "Ġenjoy": 3759,
    "Ġrefused": 6715,
    "Ġdec": 642,
    "Ġorb": 22088,
    "ission": 6457,
    "Ġgrave": 5100,
    "Ġslapped": 23169,
    "Ġballasted": 23977,
    "Ġsaville": 15887,
    "Ġbestowing": 16971,
    "tinted": 17683,
    "henomenon": 13613,
    "Ġfails": 13312,
    "Ġcigars": 12250,
    "aloft": 8806,
    "Ġmonomaniac": 9568,
    "Ġforeheads": 23447,
    "Ġrect": 18025,
    "Ġfurnace": 19438,
    "Ġbough": 13893,
    "impenet": 18053,
    "Ġresc": 4508,
    "Ġunprinciple": 18254,
    "ke": 429,
    "Ġconstable": 19068,
    "Ġ100": 14358,
    "porpoise": 16437,
    "Ġbuckler": 24859,
    "Ġphilosoph": 19650,
    "Ġdrenched": 12600,
    "Ġdeprec": 15755,
    "serv": 7451,
    "Ġwrote": 5011,
    "harpooneers": 8689,
    "Ġvary": 15805,
    "Ġchancery": 20715,
    "Ġanalyze": 1646,
    "Ġ[\"": 19929,
    "sli": 11522,
    "Ġclassify": 1583,
    "plings": 11693,
    "\",": 10678,
    "Ġpriest": 7526,
    "edged": 15628,
    "oking": 4607,
    "Ġadmiring": 16479,
    "result": 12042,
    "steak": 14707,
    "Ġsec": 2075,
    "Ġsurmisings": 26593,
    "inct": 3289,
    "Ġharris": 13926,
    "Ġhooked": 19079,
    "networks": 2402,
    "jabez": 20932,
    "Ġapr": 12529,
    "Ġtowards": 1729,
    "Ġforbidden": 17078,
    "Ġrelig": 8550,
    "Ġunprejudiced": 18269,
    "Ġtransom": 22435,
    "Ġoxen": 19949,
    "ĠĠĠĠĠĠĠĠĠĠĠĠĠĠĠĠĠĠĠĠĠĠ": 16225,
    "Ġflukes": 5266,
    "Ġwig": 9161,
    "rossed": 11012,
    "Ġwindigate": 18910,
    "Ġtim": 4579,
    "Ġexploration": 2335,
    "hoping": 17566,
    "Ġhunter": 5401,
    "Ġbulkington": 14677,
    "Ġexposure": 16094,
    "Ġbrains": 2630,
    "Ġquoted": 22412,
    "Ġfur": 992,
    "scale": 3534,
    "Ġhosts": 19937,
    "Ġveiled": 16200,
    "Ġsuffoc": 18869,
    "zes": 11548,
    "Ġheidelburgh": 11642,
    "Ġtol": 6675,
    "aded": 3548,
    "Ġbestirred": 20450,
    "Ġmercenary": 17193,
    "Ġrobustness": 18877,
    "Ġdisobey": 18559,
    "rit": 21034,
    "Ġwarped": 25035,
    "Ġdefined": 11896,
    "pause": 12498,
    "imming": 9686,
    "Ġfugitive": 17326,
    "Ġmy": 412,
    "Ġauger": 21202,
    "Ġfurnished": 6475,
    "Ġmak": 10778,
    "Ġharmony": 16814,
    "filled": 9594,
    "Ġascended": 8665,
    "Ġcivil": 4679,
    "presbyterian": 26368,
    "gee": 15975,
    "nels": 12493,
    "previous": 9760,
    "estinated": 15919,
    "Ġguernsey": 9350,
    "Ġign": 8294,
    "Ġarticulated": 24433,
    ".âĢĶ": 4251,
    "Ġtall": 4040,
    "scor": 13017,
    "floor": 14935,
    "Ġauthors": 10416,
    "Ġmate": 3707,
    "dun": 17516,
    "Ġvia": 2380,
    "Ġrelation": 2141,
    "nor": 2741,
    "see": 3047,
    "Ġprosecuted": 25293,
    "cheered": 23803,
    "Ġsignificant": 8633,
    "Ġdaw": 21427,
    "begone": 12875,
    "class": 4099,
    "Ġdistribution": 2017,
    "intended": 11066,
    "Ġenforced": 21936,
    "Ġplants": 22595,
    "Ġcure": 21338,
    "ief": 2044,
    "Ġbeliefs": 24582,
    "showed": 16025,
    "mons": 17600,
    "Ġset": 1174,
    "Ġthee": 2622,
    "quis": 7869,
    "false": 15353,
    "Ġunfav": 14786,
    "Ġsurpassed": 25267,
    "civility": 17513,
    "saf": 11524,
    "Ġwarrant": 17794,
    "magnet": 14969,
    "Ġodd": 6624,
    "Ġinvective": 26181,
    "Ġstretched": 5919,
    "ourers": 21447,
    "play": 5099,
    "Ġpostponed": 20388,
    "Ġgills": 17992,
    "Ġleviathans": 8281,
    "Ġgrounded": 23709,
    "ges": 2872,
    "Ġheadlong": 11888,
    "Ġblocked": 19221,
    "moreover": 12966,
    "Ġparticulars": 5754,
    "Ġthoughtless": 16191,
    "ailed": 3243,
    "Ġcoars": 14270,
    "Ġsolid": 6443,
    "Ġdistricts": 20262,
    "Ġsnuffing": 25012,
    "Ġtrail": 16280,
    "law": 6115,
    "Ġpest": 13912,
    "ware": 3936,
    "Ġworms": 25216,
    "dislike": 23492,
    "Ġvindict": 13604,
    "Ġentity": 10344,
    "Ġpasture": 14543,
    "rig": 7556,
    "Ġtenants": 23545,
    "Ġswiftly": 5670,
    "wag": 21122,
    "Ġsqueeze": 10038,
    "Ġtal": 7564,
    "Ġcaroline": 7254,
    "farintosh": 24553,
    "×": 152,
    "Ġelevation": 14898,
    "runs": 25415,
    "Ġblo": 2734,
    "erately": 21272,
    "Ġislets": 21798,
    "pse": 21008,
    "Ġlance": 4879,
    "urp": 1476,
    "Ġpolar": 9410,
    "aco": 12903,
    "wished": 13804,
    "Ġchecking": 23283,
    "Ġcul": 17822,
    "Ġscrolled": 22281,
    "Ġtant": 12522,
    "Ġbearded": 15724,
    "matic": 4619,
    "ojo": 7349,
    "Ġtrouble": 3690,
    "Ġquestions": 3974,
    "tubs": 15129,
    "Ġadmired": 7981,
    "ops": 5246,
    "Ġnose": 4405,
    "blazing": 24131,
    "Ġinglorious": 24424,
    "Ġhandful": 9782,
    "C": 39,
    "Ġbrix": 12580,
    "Ġbitterness": 8024,
    "Ġenjoys": 19448,
    "inferior": 12392,
    "Ġexhausting": 24710,
    "gus": 13724,
    "brimming": 23576,
    "Ġeleventh": 23367,
    "soled": 14333,
    "Ġyellow": 5300,
    "Ġwas": 370,
    "Ġinadequate": 17936,
    "Ġsafer": 22167,
    "Ġrepeated": 3831,
    "Ġcanted": 17831,
    "Ġlad": 2363,
    "Ġfeeding": 7971,
    "Ġannot": 15599,
    "Ġpage": 6978,
    "Ġhulls": 13925,
    "lift": 15383,
    "sheep": 23083,
    "Ġcarpenters": 16752,
    "Ġgums": 21608,
    "forbidding": 25837,
    "Ġrekindled": 21674,
    "Ġregent": 18591,
    "utting": 17984,
    "Ġmince": 22828,
    "Ġplaying": 6909,
    "Ġvide": 10250,
    "Ġlocking": 18298,
    "Ġstruck": 3385,
    "Ġhaughty": 11449,
    "/`": 12427,
    "Ġhailing": 11691,
    "Ġoblivious": 26032,
    "listener": 24930,
    "fatal": 17088,
    "electricity": 26385,
    "Ġshorter": 4500,
    "conc": 3948,
    "upright": 23015,
    "thumb": 18218,
    "Ġtumult": 7114,
    "Ġquality": 3527,
    "Ġhaunt": 18197,
    "Ġcrucifix": 26079,
    "aders": 21755,
    "Ġwicked": 5960,
    "Ġand": 295,
    "rigged": 17062,
    "Ġinfer": 7683,
    "Ġend": 1488,
    "Ġcorpor": 23036,
    "Ġdesigned": 7740,
    "Ġrag": 18640,
    "Ġforked": 11663,
    "mitting": 17602,
    "uish": 5431,
    "coburg": 13597,
    "Ġtrampled": 20327,
    "appin": 18759,
    "Ġtrous": 10959,
    "Ġsher": 3762,
    "Ġgeomet": 3189,
    "Ġinasmuch": 10825,
    "brother": 7091,
    "ibid": 18840,
    "lucas": 15150,
    "Ġpartial": 2129,
    "Ġwouldst": 18501,
    "hearth": 15498,
    "ird": 2424,
    "uge": 4018,
    "Ġcircumvent": 25064,
    "Ġinclu": 1101,
    "Ġard": 5164,
    "Ġboasting": 19934,
    "Ġrural": 21967,
    "Ġhearing": 4761,
    "Ġquickly": 4244,
    "shame": 16022,
    "Ġunderground": 18985,
    "Ġbrig": 11047,
    "Ġtaller": 16688,
    "Ġsteak": 9828,
    "tomorrow": 25914,
    "Ġtongs": 9960,
    "Ġnam": 17948,
    "Ġsalvation": 14756,
    "Ġlong": 794,
    "Ġaccent": 10293,
    "ivation": 3108,
    "Ġdames": 23472,
    "'d": 12425,
    "Ġattics": 22626,
    "ressing": 8918,
    "cary": 10689,
    "Ġformal": 2943,
    "Ġhunting": 7259,
    "clo": 5613,
    "[": 63,
    "bows": 10081,
    "ht": 375,
    "nurtured": 25524,
    "sails": 7497,
    "Ġexplicit": 3587,
    "Ġexhilar": 19682,
    "Ġtime": 690,
    "Ġconnectivity": 3667,
    "Ġtest": 1613,
    "Ġglossy": 15226,
    "Ġsimplicity": 2923,
    "Ġlevelled": 11284,
    "Ġsteadfast": 8678,
    "windibank": 24161,
    "uguese": 20731,
    "isles": 15561,
    "Ġfullest": 14813,
    "Ġmates": 4872,
    "âĢĻ": 378,
    "chemical": 23806,
    "Ġcatch": 4443,
    "prosper": 19100,
    "Ġstreet": 2959,
    "Ġstowing": 18071,
    "Ġvestige": 20061,
    "urns": 10213,
    "Ġserenely": 13506,
    "Ġlizzie": 26462,
    "mbling": 3342,
    "quietude": 24655,
    "Ġbumps": 21390,
    "carrying": 16712,
    "Ġfading": 15581,
    "Ġspangled": 22132,
    "Ġeligible": 10670,
    "icted": 5936,
    "Ġlascar": 9199,
    "Ġgamesome": 17289,
    "ois": 9134,
    "Ġordin": 16650,
    "Ġplay": 2626,
    "Ġintending": 11702,
    "rubbed": 22177,
    "Ġsecurity": 8977,
    "Ġspo": 6846,
    "Ġconcl": 5095,
    "Ġporus": 24398,
    "Ġjet": 5307,
    "Ġpole": 6433,
    "Ġengraved": 17081,
    "august": 11071,
    "comparison": 25840,
    "Ġlegible": 23532,
    "murdered": 12200,
    "Ġsupervised": 3294,
    "gladness": 25194,
    "Ġaccomplish": 14875,
    "beh": 5472,
    "tray": 21076,
    "girls": 12317,
    "Ġattendant": 11285,
    "Ġremainder": 9857,
    "analy": 17838,
    "Ġlast": 1123,
    "Ġg": 310,
    "Ġtexel": 25923,
    "gaining": 20122,
    "Ġphilistines": 26082,
    "Ġmourning": 13477,
    "Ġlads": 8596,
    "Ġvacancy": 9044,
    "ists": 4003,
    "dan": 17515,
    "kempt": 20940,
    "ĠĠĠĠĠĠĠĠĠĠĠĠĠĠĠĠĠĠĠĠĠĠĠĠĠĠĠĠĠĠĠĠĠĠĠĠĠĠĠĠĠĠĠĠĠĠĠĠĠĠĠ": 20037,
    "servants": 15037,
    "Ġirene": 8443,
    "tles": 10730,
    "hatred": 24821,
    "understanding": 1182,
    "embarrassed": 20595,
    "Ġfatality": 12092,
    "Ġbriony": 9328,
    "strip": 19829,
    "Ġhauled": 11692,
    "Ġdistances": 22501,
    "wives": 15454,
    "mosphere": 10042,
    "cherish": 24552,
    "barrels": 15041,
    "Ġbier": 22757,
    "adieu": 26200,
    "grace": 5846,
    "Ġchaplain": 19911,
    "ounted": 5030,
    "Ġimpact": 10296,
    "garn": 20869,
    "Ġwashington": 17202,
    "Ġreced": 15689,
    "Ġsettled": 3740,
    "stretching": 20497,
    "hearty": 14833,
    "Ġinquirer": 24961,
    "aud": 8521,
    "Ġstates": 1849,
    "Ġsurvivors": 25732,
    "Ġsteered": 11092,
    "Ġwoeful": 19618,
    "skelter": 24490,
    "ons": 710,
    "influences": 25250,
    "Ġox": 7153,
    "Ġbenjamin": 26567,
    "crooked": 25746,
    "children": 9055,
    "Ġunconscious": 9546,
    "Ġsturgeon": 20590,
    "Ġagitates": 22514,
    "carp": 9109,
    "Ġnervous": 2401,
    "place": 4158,
    "Ġcontr": 1914,
    "Ġingen": 9049,
    "Ġhumble": 8551,
    "Ġrage": 5110,
    "proves": 23392,
    "Ġcapital": 7979,
    "moon": 10335,
    "Ġtangled": 13826,
    "okes": 9276,
    "attributed": 23119,
    "Ġcandles": 9907,
    "Ġfren": 10805,
    "impul": 16556,
    "Ġunaccountably": 26515,
    "Ġthoughts": 3136,
    "Ġinvests": 14867,
    "unts": 12728,
    "kers": 7132,
    "Ġvillains": 14748,
    "Ġforeshad": 23451,
    "tiest": 21080,
    "Ġengraving": 17080,
    "Ġcoop": 14269,
    "Ġvariously": 18653,
    "Ġdesignated": 19520,
    "Ġgrego": 18963,
    "Ġbount": 15565,
    "Ġinvolve": 11041,
    "Ġportrait": 10661,
    "Ġspoil": 17007,
    ".âĢĿ": 464,
    "Ġgroans": 14823,
    "Ġreb": 15688,
    "Ġblot": 9811,
    "ipp": 10102,
    "stretch": 13980,
    "Ġmay": 923,
    "Ġwindows": 4971,
    "become": 14246,
    "Ġtechnique": 2117,
    "Ġroad": 3880,
    "Ġsed": 10761,
    "executed": 25739,
    "gunpowder": 25339,
    "Ġlydia": 2372,
    "Ġholmes": 1308,
    "Ġape": 21195,
    "Ġjur": 12831,
    "daughter": 8353,
    "Ġsuperflu": 14554,
    "Ġoppressed": 11189,
    "Ġsympathetic": 17358,
    "isely": 4490,
    "Ġpovelson": 26552,
    "Ġspectacle": 10496,
    "acies": 14276,
    "Ġvigilance": 12369,
    "warning": 25531,
    "Ġsinister": 8568,
    "Ġdivert": 23592,
    "Ġcupboard": 16883,
    "Ġdownward": 10331,
    "Ġstow": 21727,
    "together": 3555,
    "Ġqu": 605,
    "conda": 18993,
    "Ġboom": 9309,
    "dinah": 20079,
    "Ġugl": 12679,
    "Ġ44": 16679,
    "Ġconvincing": 19306,
    "Ġaccelerate": 23222,
    "cence": 9588,
    "Ġwhaleboats": 18478,
    "lungs": 26135,
    "Ġsubmit": 11868,
    "expressive": 24305,
    "Ġcourting": 23288,
    "forgetting": 25485,
    "Ġwired": 17786,
    "Ġengagement": 5397,
    "expressing": 16801,
    "Ġtightly": 13533,
    "walk": 5523,
    "Ġsatisfying": 23695,
    "Ġrenegades": 26476,
    "Ġecc": 11627,
    "Ġcosmopol": 16455,
    "headed": 4320,
    "Ġcommod": 10333,
    "craft": 12244,
    "redible": 15802,
    "sat": 4810,
    "arman": 11594,
    "Ġwan": 15526,
    "yl": 7818,
    "weakness": 16122,
    "Ġpiercing": 13493,
    "Åĵuv": 15181,
    "Ġunrestingly": 20359,
    "Ġbaggy": 24538,
    "encounter": 20390,
    "scans": 22984,
    "Ġhurtling": 24957,
    "eskye": 21448,
    "conceal": 25114,
    "ats": 4256,
    "Ġeurope": 8061,
    "verse": 9687,
    "Ġhopes": 4237,
    "success": 6710,
    "Ġinfiltrated": 23280,
    "Ġdeficiencies": 26570,
    "Ġ72": 19610,
    "Ġplumage": 17297,
    "Ġhearth": 11980,
    "wheeling": 22869,
    "Ġcatastrop": 3344,
    "iary": 15369,
    "Ġpleasurable": 23338,
    "uncont": 15771,
    "admitted": 18091,
    "Ġperched": 10299,
    "Ġjeopardy": 13595,
    "thes": 7391,
    "Ġuppermost": 15277,
    "Ġang": 2509,
    "urements": 18123,
    "shabbily": 26246,
    "eridge": 15524,
    "Ġevident": 6611,
    "Ġfury": 7660,
    "Ġdeact": 18135,
    "frozen": 25139,
    "Ġdiscern": 7925,
    "Ġtester": 21171,
    "Ġouthouse": 22311,
    "Ġalph": 9694,
    "Ġmidst": 7985,
    "ickering": 22667,
    "following": 10572,
    "Ġexpands": 25237,
    "Ġenvironmental": 24113,
    "rann": 21043,
    "Ġbraz": 19356,
    "Ġwhist": 6021,
    "tranqu": 14705,
    "Ġpadded": 25036,
    "Ġswitching": 23055,
    "Ġroot": 2651,
    "zors": 21146,
    "physiogn": 26265,
    "Ġpreface": 18367,
    "Ġcanterbury": 22162,
    "Ġhoot": 19076,
    "Ġoffices": 14339,
    "where": 2093,
    "Ġsearched": 15817,
    "reported": 24493,
    "Ġbreadth": 10563,
    "Ġostentatious": 25736,
    "Ġsaves": 18324,
    "idge": 14013,
    "orm": 425,
    "countless": 24150,
    "Ġcordiality": 24395,
    "avo": 8517,
    "Ġcontinual": 6777,
    "Ġbildad": 3779,
    "ready": 2359,
    "Ġmissed": 8555,
    "Ġexceptionable": 25503,
    "Ġvor": 15804,
    "Ġreveries": 11347,
    "rid": 5137,
    "Ġpenalties": 10412,
    "Ġcoronet": 6344,
    ":âĢĶâĢĺ": 24193,
    "Ġaint": 17744,
    "progress": 11986,
    "Ġent": 904,
    "soever": 11860,
    "Ġensuring": 11191,
    "respectively": 24700,
    "Ġsisterly": 16301,
    "Ġwrapped": 8341,
    "Ġced": 10784,
    "Ġblinding": 14727,
    "Ġhomeward": 9391,
    "Ġexceed": 1344,
    "Ġestablished": 9069,
    "pless": 6260,
    "Ġjac": 1897,
    "oub": 1636,
    "Ġpleasantly": 14519,
    "critters": 14782,
    "Ġbears": 6829,
    "Ġrepresentations": 1874,
    "Ġwaving": 8575,
    "Ġimportant": 1076,
    "Ġgravesend": 15215,
    "ject": 874,
    "Ġdimensions": 16571,
    "Ġgot": 2279,
    "Ġtheoretic": 23308,
    "Ġcabman": 14605,
    "hole": 5586,
    "Ġextrem": 2473,
    "successful": 11358,
    "utions": 1888,
    "asmuch": 10194,
    "Ġconvulsive": 19305,
    "alt": 12635,
    "Ġcharts": 12824,
    "pronounced": 12344,
    "Ġimbecile": 17391,
    "phology": 3009,
    "Ġeats": 15674,
    "Ġblanched": 26282,
    "kovoko": 20668,
    "Ġri": 3391,
    "shaped": 10308,
    "ferred": 16397,
    "relate": 24008,
    "Ġbathing": 20198,
    "number": 10114,
    "inhabited": 13619,
    "Ġunravel": 26214,
    "Ġmassa": 19452,
    "Ġinj": 4760,
    "Ġlisten": 4674,
    "Ġshuttle": 12124,
    "Ġbrawn": 10481,
    "Ġwhiff": 21715,
    "eaten": 20343,
    "ieves": 4008,
    "Ġruffled": 25835,
    "once": 5903,
    "judges": 19572,
    "iana": 7048,
    "brows": 17496,
    "Ġparish": 8854,
    "Ġconsoled": 18112,
    "Ġcrest": 12939,
    "condite": 23245,
    "seamen": 13625,
    "backpropagation": 11984,
    "Ġfisheries": 17437,
    "gun": 10096,
    "Ġleading": 7297,
    "Ġnaut": 13940,
    "tain": 559,
    "sutherland": 21061,
    "Ġ}": 21152,
    "eled": 2357,
    "Ġconventional": 25547,
    "Ġmechanisms": 1574,
    "Ġgas": 8132,
    "y": 93,
    "arling": 10814,
    "rants": 13777,
    "Ġcrystal": 17214,
    "ged": 1515,
    "situ": 9621,
    "evidence": 25521,
    "Ġmilan": 19534,
    "Ġpresents": 8244,
    "Ġlevi": 3034,
    "Ġeigenvalues": 4998,
    "try": 7812,
    "activity": 22629,
    "Ġconsume": 12955,
    "Ġplanting": 16083,
    "Ġgermany": 25785,
    "Ġchemist": 11134,
    "fishing": 20858,
    "base": 20776,
    "Ġvocation": 10525,
    "Ġsmo": 2702,
    "Ġoutskirts": 17456,
    "keen": 12779,
    "Ġfluctu": 5267,
    "Ġworking": 5575,
    "Ġnibbling": 17384,
    "Ġ47": 14770,
    "Ġquivering": 12855,
    "Ġcanvassed": 19933,
    "mosp": 8088,
    "Ġimperilled": 19577,
    "Ġsecuring": 11990,
    "Ġmanhandle": 22326,
    "alleging": 23021,
    "kindled": 16660,
    "ions": 448,
    "Ġcasks": 7521,
    "Ġmau": 21309,
    "Ġlock": 5927,
    "_âĢĶâĢĿ": 20762,
    "love": 9293,
    "viii": 12019,
    "Ġclimates": 25050,
    "Ġreplete": 15695,
    "Ġnecessity": 7296,
    "meeting": 11019,
    "Ġremembered": 5276,
    "ghan": 19453,
    "Ġsebastian": 11696,
    "®": 111,
    "Ġfloundering": 16250,
    "Ġconnexion": 11454,
    "Ġbilliard": 16689,
    "ward": 705,
    "Ġheedfully": 24521,
    "Ġclank": 15962,
    "âĢĿ;": 11669,
    "Ġprick": 14476,
    "frantic": 24283,
    "Ġpreserving": 19795,
    "Ġrequired": 7227,
    "Ġchron": 19436,
    "Ġtug": 11550,
    "neighbouring": 19962,
    "Ġlaws": 8002,
    "Ġherbage": 25996,
    "Ġausten": 5880,
    "Ġac": 846,
    "Ġrestlessness": 23289,
    "Ġcod": 8411,
    "direction": 17524,
    "Ġnow": 694,
    "Ġrusty": 14963,
    "Ġchewing": 23282,
    "ow": 325,
    "Ġding": 12596,
    "Ġdr": 2823,
    "Ġgum": 21592,
    "Ġefficient": 1033,
    "notice": 16145,
    "Ġprivate": 5345,
    "Ġrevolut": 3254,
    "Ġgrecian": 26296,
    "Ġdubious": 17382,
    "Ġconduct": 3732,
    "Ġwithal": 18113,
    "x": 92,
    "Ġjuly": 17236,
    "Ġobviously": 16810,
    "iverer": 11714,
    "Ġprovid": 1008,
    "intentions": 22936,
    "Ġhanged": 17924,
    "Ġdeliverance": 15156,
    "Ġow": 8407,
    "marriage": 7744,
    "Ġsky": 3971,
    "Ġfears": 5729,
    "feel": 3812,
    "Ġearl": 7675,
    "ather": 740,
    "Ġoverpowering": 15248,
    "âĢĶâĢĶâĢĿ": 15937,
    "Ġnash": 5819,
    "Ġbarn": 11586,
    "Ġ1950": 11359,
    "Ġparallel": 1413,
    "Ġadequate": 20307,
    "Ġmemory": 2275,
    "Ġ80": 24456,
    "Ġplease": 4723,
    "sust": 15421,
    "Ġbra": 3251,
    "Ġcame": 1299,
    "Ġaltitude": 26202,
    "eight": 9591,
    "ixed": 4851,
    "Ġdesolation": 12266,
    "direful": 25896,
    "Ġwashed": 15762,
    "annica": 24561,
    "ro": 301,
    "tor": 15431,
    "Ġfug": 12592,
    "Ġascribe": 16782,
    "deliver": 19503,
    "Ġhuzza": 12630,
    "grate": 23410,
    "con": 653,
    "Ġfaults": 12210,
    "Ġbowled": 23767,
    "Ġshifted": 14106,
    "ids": 21760,
    "Ġcracked": 8593,
    "agement": 4192,
    "Ġgardeners": 12118,
    "Ġhilariously": 25450,
    "Ġhuge": 4700,
    "Ġmasses": 10503,
    "Ġdragging": 14474,
    "akes": 2217,
    "lady": 4435,
    "Ġtallest": 15473,
    "atives": 2235,
    "Ġneur": 811,
    "Ġdeclines": 23960,
    "tured": 13794,
    "isa": 17845,
    "Ġforgiven": 24024,
    "Ġsympat": 13339,
    "Ġstr": 760,
    "itiousness": 21332,
    "Ġstriving": 8996,
    "nerable": 16274,
    "Ġspurn": 18309,
    "lins": 2025,
    "jaws": 20931,
    "Ġporch": 19679,
    "estim": 14169,
    "fulness": 4312,
    "ency": 3868,
    "Ġvillanous": 24051,
    "Ġpainted": 7978,
    "Ġra": 817,
    "Ġeveryday": 22767,
    "itic": 11577,
    "reserved": 13842,
    "inte": 5144,
    "Ġsecrets": 9054,
    "fair": 10092,
    "Ġdistinguished": 8272,
    "Ġaware": 5756,
    "ives": 1408,
    "Ġdiscre": 2413,
    "rippling": 24713,
    "Ġaffectionately": 13167,
    "Ġtrem": 6659,
    "Ĕ": 213,
    "Ġgush": 10202,
    "Ġhunsford": 6301,
    "Ġfearless": 9874,
    "Ġfrankly": 16745,
    "Ġmeas": 1097,
    "Ġreported": 11978,
    "travellers": 24318,
    "Ġplat": 8520,
    "Ġincurable": 22549,
    "much": 3705,
    "uplifted": 17695,
    "irregular": 21908,
    "obedience": 17409,
    "Ġmiddle": 4142,
    "mens": 20968,
    "Ġdeficiency": 14402,
    "Ġdriving": 3617,
    "======": 9832,
    "Ġindisc": 16226,
    "Ġstudying": 9847,
    "ensed": 10995,
    "Ġcalam": 13031,
    "Ġsurpass": 13582,
    "Ġencourages": 2060,
    "Ġshutting": 14758,
    "Ġheavens": 5050,
    "Ġhaven": 8473,
    "Ġseams": 12122,
    "Ġsecurely": 16802,
    "hibited": 17426,
    "Ġtheory": 5798,
    "Ġdisregarded": 22527,
    "Ġspace": 1500,
    "stee": 21648,
    "ing": 273,
    "Ġunshored": 25813,
    "Ġcolleg": 22850,
    "Ġstays": 16561,
    "Ġapolog": 9043,
    "Ġswayed": 15047,
    "glimmer": 26321,
    "gold": 9120,
    "Ġruthless": 15284,
    "unpardonable": 21887,
    "Ġexh": 5232,
    "Ġbewildered": 15212,
    "aks": 8506,
    "lads": 20954,
    "arches": 10816,
    "necessities": 24306,
    "exc": 5169,
    "mathemat": 19137,
    "flo": 6114,
    "Ġsigned": 11177,
    "omen": 4088,
    "Ġbonnet": 10655,
    "Ġlurch": 21552,
    "Ġgates": 10200,
    "Ġpoll": 12028,
    "rad": 2257,
    "Ġcigaret": 16976,
    "Ġmedical": 9463,
    "specim": 23941,
    "weather": 7229,
    "Ġplane": 11821,
    "vedale": 22707,
    "Ġhide": 4590,
    "Ġ500": 24328,
    "ptember": 10893,
    "enhall": 13849,
    "Ġric": 18209,
    "snap": 24848,
    "Ġadmiral": 17304,
    "everlasting": 18771,
    "Ġinformed": 6717,
    "fortunate": 4792,
    "nourished": 26398,
    "en": 271,
    "Ġdrinking": 12166,
    "Ġdomestic": 6911,
    "Ġsavi": 18325,
    "Ġcontract": 18475,
    "acious": 5562,
    "Ġwhosoever": 21716,
    "Ġmounted": 7832,
    "speed": 19407,
    "Ġoppose": 16518,
    "Ġsnodhead": 19300,
    "Ġsigh": 10336,
    "Ġmultitud": 18746,
    "icated": 7590,
    "Ġkicks": 19767,
    "Ġshan": 9248,
    "pening": 2830,
    "feeder": 12359,
    "Ġpasses": 2681,
    "Ġreduces": 2342,
    "Ġcollect": 7237,
    "Ġthief": 11609,
    "dire": 15335,
    "parted": 21015,
    "Ġreplaced": 13070,
    "congenial": 25399,
    "ingale": 21298,
    "Ġrelease": 19289,
    "Ġdistributes": 4199,
    "unning": 4495,
    "Ġproposition": 23247,
    "halloa": 17090,
    "ustom": 3787,
    "Ġtrifle": 10601,
    "Ġjewelled": 20182,
    "ict": 592,
    "happ": 3101,
    "Ġsofas": 26224,
    "told": 7811,
    "Ġgreenhorn": 23766,
    "Ġasse": 8159,
    "antarctic": 22096,
    "Ġkne": 4269,
    "acid": 11005,
    "Ġsaratoga": 26423,
    "Ġavoid": 5199,
    "Ġintend": 12761,
    "Ġpetrified": 19595,
    "claps": 23151,
    "places": 7876,
    "ibles": 18787,
    "Ġpoignant": 22590,
    "guilt": 24066,
    "Ġfoaming": 18992,
    "Ġvenetian": 14846,
    "Ġpreser": 6040,
    "Ġfarthest": 23115,
    "Ġcousin": 3704,
    "respective": 19845,
    "scuttle": 11907,
    "Ġrat": 4356,
    "Ġsimpl": 1578,
    "Ġanchored": 17439,
    "rubber": 12806,
    "Ġtiller": 8965,
    "Ġhackluyt": 25655,
    "ony": 3029,
    "Ġapt": 9155,
    "Ġnovel": 6695,
    "Ġsits": 10768,
    "willingness": 24755,
    "Ġdecoding": 3080,
    "Ġsanction": 20024,
    "Ġenjoyments": 24015,
    "nearly": 8680,
    "Ġmartha": 16259,
    "ssed": 3733,
    "Ġundeviating": 15216,
    "Ġcommonplace": 11095,
    "Ġjer": 6266,
    "Ġconclusions": 10553,
    "breckinridge": 24072,
    "Ġvictory": 16653,
    "uv": 6229,
    "Ġmotionless": 8323,
    "Ġlikeness": 11179,
    ">": 34,
    "Ġarrowy": 25469,
    "deacon": 22143,
    "inian": 21181,
    "osure": 5306,
    "Ġliveliest": 24775,
    "Ġapologize": 15127,
    "Ġrob": 1264,
    "Ġcorresponds": 19820,
    "Ġpool": 5173,
    "listen": 13513,
    "bbed": 6910,
    "aboard": 21791,
    "Ġsurm": 7476,
    "Ġpull": 5152,
    "Ġshark": 5550,
    "Ġsneezing": 12245,
    "Ġclub": 8873,
    "arm": 1357,
    "Ġbuckskin": 19950,
    "Ġmushroom": 13234,
    "Ġproceed": 3239,
    "Ġuncouth": 14549,
    "readers": 23845,
    "Ġsingular": 4426,
    "Ġshoes": 7071,
    "achable": 14137,
    "Ġherb": 15854,
    "named": 9894,
    "Ġaccompl": 5167,
    "Ġfel": 1520,
    "Ġcistern": 17380,
    "26": 10072,
    "Ġremorseless": 13450,
    "metic": 14983,
    "Ġmansion": 17809,
    "Ġmoose": 22428,
    "Ġgobern": 22420,
    "Ġmar": 1311,
    "Ġprair": 7746,
    "Ġsong": 5902,
    "Ġmystical": 12130,
    "Ġevermore": 18810,
    "Ġmajority": 13291,
    "Ġwritten": 4173,
    "nailed": 20995,
    "wonders": 17143,
    "Ġlistless": 16475,
    "Ġstooping": 13059,
    "Ġsodden": 25535,
    "Ġavowal": 19413,
    "Ġhospitable": 17059,
    "conversation": 7122,
    "lun": 20945,
    "top": 4487,
    "urmount": 13995,
    "Ġgeorgiana": 8625,
    "Ġbending": 12582,
    "Ġapartment": 6633,
    "Ġattending": 3281,
    "largely": 19573,
    "tisement": 6767,
    "Ġimputation": 22169,
    "Ġlunging": 24989,
    "Ġentic": 16144,
    "ide": 722,
    "hoist": 23711,
    "Ġparticularly": 5056,
    "Ġearn": 3546,
    "Ġmarlings": 23033,
    "uity": 12515,
    "Ġocean": 3301,
    "Ġillustrations": 17108,
    "Ġaltered": 7393,
    "cod": 12441,
    "otions": 7180,
    "Ġsymmet": 11745,
    "Ġdrown": 6815,
    "Ġwaterproof": 19088,
    "Ġimpressive": 14999,
    "Ġlouder": 13467,
    "Ġcoiling": 12902,
    "Ġdisciple": 22781,
    "Ġpeculiar": 3151,
    "hate": 20891,
    "lover": 18540,
    "Ġfitting": 21406,
    "Ġtornado": 24621,
    "Ġburgl": 13172,
    "intending": 22932,
    "Ġadvised": 16199,
    "apologizing": 26544,
    "Ġreverber": 19868,
    "uracy": 1050,
    "sc": 1258,
    "Ġthousands": 6748,
    "Ġcrazed": 19174,
    "Ġthroats": 24575,
    "ĠâĢľ_": 6696,
    "frock": 20119,
    "hideous": 25407,
    "Ġfelicity": 7260,
    "Ġdisclosed": 15152,
    "vell": 3960,
    "pregn": 18500,
    "Ġpractical": 3163,
    "Ġbackward": 7654,
    "Ġsuperficial": 23455,
    "Ġnoises": 18374,
    "onse": 21248,
    "irty": 4051,
    "yonder": 21143,
    "Ġemploying": 23975,
    "Ġinfatuation": 25856,
    "wandering": 20283,
    "Ġhowled": 12853,
    "Ġpenal": 1772,
    "Ġmuffled": 10640,
    "Ġresting": 7961,
    "Ġprinc": 4203,
    "examine": 25477,
    "Ġsignals": 10585,
    "Ġtucked": 12390,
    "ected": 7872,
    "inordinate": 21193,
    "Ġbig": 5805,
    "Ġtransports": 24277,
    "Ġlomb": 21556,
    "eler": 1570,
    "apothe": 22331,
    "Ġwhiteness": 5918,
    "lodged": 25907,
    "erval": 4021,
    "Ġsurpassing": 20466,
    "Ġastern": 6090,
    "Ġfearing": 12812,
    "Ġcondemn": 13443,
    "Ġvisitor": 5330,
    "Ġcontempl": 6701,
    "Ġglades": 19370,
    "Ġlanyard": 26461,
    "Ġsplin": 8618,
    "Ġsponge": 26003,
    "Ġpeels": 22688,
    "ired": 1445,
    "Ġmaybe": 12946,
    "vinegar": 25420,
    "prep": 9758,
    "Ġoverthrow": 18431,
    "Ġsickened": 16775,
    "Ġtyro": 16994,
    "Ġdances": 10812,
    "Ġpredestinated": 18516,
    "awk": 23110,
    "uttle": 6247,
    "same": 5361,
    "Ġgrieve": 14706,
    "pulling": 25146,
    "Ġrepugn": 23361,
    "itates": 13868,
    "star": 12669,
    "ening": 3103,
    "Ġderanged": 23172,
    "hound": 20894,
    "reel": 21232,
    "Ġwrecked": 9965,
    "Ġcaul": 10787,
    "Ġsacred": 10930,
    "streamed": 25966,
    "Ġcanal": 8181,
    "Ġpunct": 8660,
    "Ġyellowish": 24430,
    "suffer": 24333,
    "Ġcocksure": 26258,
    "ĠĠĠĠĠĠĠĠĠĠĠĠĠĠĠĠĠĠĠĠĠĠĠĠĠĠĠĠĠĠĠĠĠĠĠĠĠĠ": 16524,
    "circ": 4391,
    "!_âĢĿ": 11376,
    "xic": 9145,
    "Ġ93": 24591,
    "ashes": 6015,
    "member": 20974,
    "Ġballs": 9014,
    "Ġapples": 22212,
    "Ġcamp": 9164,
    "Ġbunger": 9995,
    "henry": 16625,
    "Ġdiscerned": 25003,
    "Ġdaylight": 10350,
    "handsome": 13175,
    "Ġobtru": 18675,
    "consc": 4840,
    "Ġquitting": 7645,
    "Ġprincipal": 6496,
    "orange": 21398,
    "Ġbus": 1904,
    "avast": 8896,
    "isms": 12577,
    "ruction": 4360,
    "clearly": 25195,
    "Ġdepress": 14045,
    "istence": 2624,
    "oth": 1183,
    "anyth": 5438,
    "Ġburton": 23651,
    "judging": 24201,
    "Ġnone": 3220,
    "Ġluxury": 20130,
    "Ġrational": 8479,
    "shattered": 22456,
    "Ġglen": 18851,
    "Ġstation": 5297,
    "Ġ34": 16677,
    "Ġrevelations": 25223,
    "aust": 15308,
    "Ġdrawling": 19435,
    "Ġtroop": 24897,
    "Ġfreshet": 25704,
    "Ġsetting": 7046,
    "Ġunhappily": 18262,
    "Ġfinger": 5273,
    "assembled": 21542,
    "stripped": 16945,
    "Ġpurchas": 19873,
    "Ġjeroboam": 10600,
    "surprised": 9530,
    "ä": 165,
    "tled": 3456,
    "bildad": 9586,
    "betrayed": 24640,
    "plifted": 9709,
    "holder": 13281,
    "Ġoutcast": 18414,
    "Ġundecided": 22045,
    "Ġundulating": 19516,
    "Ġhair": 3310,
    "Ġstole": 7952,
    "Ġancient": 5443,
    "Ġexquis": 9698,
    "agers": 5633,
    "trem": 17681,
    "Ġmonica": 22975,
    "Ġjerking": 12243,
    "Åĵ": 10744,
    "Ġundoing": 22032,
    "Ġresemblance": 7976,
    "Ġhonoured": 9880,
    "Ġfatigue": 8697,
    "12": 20748,
    "ource": 5243,
    "Ġextinguished": 10339,
    "determination": 19943,
    "alongside": 19788,
    "professor": 17249,
    "Ġrhyme": 21978,
    "Ġth": 299,
    "Ġprovince": 24189,
    "heavy": 10574,
    "Ġveget": 11884,
    "Ġthreatened": 8329,
    "Ġremembr": 24170,
    "Ġguineas": 16267,
    "bolts": 11420,
    "Ġhundredth": 16517,
    "Ġinclination": 6623,
    "Ġplanet": 14749,
    "Ġlothario": 26184,
    "Ġdeceive": 12719,
    "Ġsomewhat": 4897,
    "Ġimpotent": 18447,
    "Ġaslant": 21898,
    "Ġwaste": 9233,
    "Ġindia": 10370,
    "Ġfists": 15580,
    "Ġbars": 13896,
    "elder": 21569,
    "who": 2444,
    "Ġslightest": 6092,
    "Ġamend": 16033,
    "Ġdrives": 14578,
    "omical": 9679,
    "arn": 357,
    "Ġflowing": 14410,
    "Ġrheum": 18214,
    "swimming": 24258,
    "Ġimpression": 5732,
    "Ġcontrive": 16008,
    "oss": 10115,
    "pray": 5429,
    "Ġjew": 9467,
    "itals": 17820,
    "Ġted": 13811,
    "Ġpainfully": 13141,
    "girdling": 26389,
    "proud": 9903,
    "Ġspots": 11727,
    "advise": 24217,
    "Ġnarwhales": 24902,
    "Ġoctavo": 15162,
    "Ġomit": 17815,
    "Ġlaughter": 9027,
    "Ġinquir": 4245,
    "circle": 16736,
    "revol": 12537,
    "Ġreal": 1637,
    "Ġjewels": 12367,
    "Ġ39": 19488,
    "Ġgeneralize": 3098,
    "Ġgentle": 1889,
    "ą": 198,
    "Ġaug": 6234,
    "Ġadvoc": 12985,
    "idirectional": 2417,
    "quitted": 21854,
    "Ġgabriel": 7595,
    "Ġexample": 5096,
    "ott": 1871,
    "Ġhind": 9188,
    "ruin": 22173,
    "Ġmenaces": 23103,
    "dom": 6222,
    "Ġgros": 14822,
    "urning": 12913,
    "Ġduties": 6609,
    "Ġregularity": 22775,
    "Ġworked": 6583,
    "Ġcurt": 18845,
    "stupid": 12673,
    "rice": 13776,
    "liberal": 26281,
    "picture": 11407,
    "Ġhapp": 1089,
    "directed": 20403,
    "violent": 14580,
    "Ġunduly": 25994,
    "Ġflexible": 23773,
    "that": 850,
    "effect": 8603,
    "Ġquaff": 22411,
    "Ġlaugh": 4117,
    "idated": 11660,
    "pper": 3206,
    "usion": 3298,
    "Ġpurplish": 19140,
    "urer": 18121,
    "Ġformless": 22825,
    "bearers": 18524,
    "Ġbounce": 21391,
    "Ġsole": 3295,
    "Ġimmortal": 8017,
    "Ġexisting": 12715,
    "Ġanointing": 25539,
    "fere": 10989,
    "without": 4846,
    "Ġstream": 5186,
    "ishly": 14199,
    "Ġlack": 17963,
    "Ġerrand": 11085,
    "alice": 3205,
    "Ġpsal": 15613,
    "Ġuneasily": 24230,
    "mic": 12486,
    "Ġarchipelagoes": 14347,
    "Ġjenny": 20161,
    "Ġcrabs": 19173,
    "wand": 10738,
    "fered": 5560,
    "Ġmanip": 8871,
    "Ġintervene": 25480,
    "Ġdescription": 7429,
    "Ġmuscle": 14689,
    "Ġweight": 656,
    "igger": 21698,
    "Ġhanded": 8216,
    "formity": 10278,
    "greatest": 10493,
    "people": 7676,
    "teen": 6370,
    "Ġardour": 8042,
    "Ġjourney": 3879,
    "sufferable": 12174,
    "Ġohio": 19128,
    "Ġpatchwork": 24141,
    "Ġformidable": 8219,
    "Ġdestructive": 23485,
    "Ġalternative": 19985,
    "rederick": 14078,
    "Ġprogram": 12991,
    "Ġcoiled": 11818,
    "Ġevangelical": 25506,
    "heaved": 21209,
    "à": 161,
    "Ġcapering": 21352,
    "Ġfishe": 15583,
    "vicious": 21117,
    "Ġaudacity": 19881,
    "Ġwaits": 23276,
    "hundred": 8330,
    "verize": 21725,
    "owers": 12681,
    "Ġbloodthirsty": 26601,
    "Ġimpl": 7195,
    "Ġungover": 18255,
    "button": 10966,
    "Ġsignificantly": 4520,
    "Ġbaleen": 10036,
    "Ġholy": 6591,
    "Ġgazed": 6478,
    "Ġshol": 21992,
    "Ġmitt": 21306,
    "Ġjuicy": 25370,
    "lengths": 24846,
    "Ġwharves": 13505,
    "det": 5207,
    "Ġwatery": 6296,
    "Ġolfactories": 26171,
    "Ġblindly": 12107,
    "copper": 19188,
    "pled": 7891,
    "Ġmerryweather": 9521,
    "_,âĢĿ": 6218,
    "Ġspleen": 26421,
    "setting": 13284,
    "!âĢĿâĢĶ": 8532,
    "Ġbennett": 16322,
    "Ġgiants": 25960,
    "libra": 22922,
    "Ġancho": 15600,
    "sleepy": 24729,
    "Ġiteratively": 3057,
    "elter": 21568,
    "relations": 14732,
    "you": 1006,
    "Ġbene": 2031,
    "darcy": 5208,
    "Ġmorality": 22968,
    "tub": 9143,
    "Ġentreating": 24207,
    "Ġchoosing": 19589,
    "Ġeloquence": 11840,
    "quet": 6835,
    "Ġtelegraph": 25583,
    "gave": 7799,
    "announcement": 24562,
    "Ġshout": 4267,
    "Ġ42": 16678,
    "Ġleader": 14701,
    "Ġchag": 15929,
    "pencil": 18827,
    "bottle": 20144,
    "Ġoffering": 3008,
    "ics": 3253,
    "Ġtu": 6968,
    "Ġwharf": 9559,
    "ricade": 13035,
    "Ġrucastles": 18721,
    "Ġwithdrawing": 11340,
    "doubtful": 24791,
    "Ġbequest": 21750,
    "atch": 674,
    "ite": 713,
    "poke": 18800,
    "idays": 21767,
    "drab": 23895,
    "Ġdrows": 21433,
    "Ġ2": 2929,
    "Ġ>": 21150,
    "atus": 21259,
    "Ġfairness": 9892,
    "haul": 14764,
    "frankly": 20020,
    "Ġappearances": 10451,
    "Ġaffections": 10384,
    "Ġdevoutly": 25832,
    "rings": 10722,
    "Ġbeau": 9224,
    "Ġdefile": 18823,
    "disposition": 10041,
    "solute": 16598,
    "adagrad": 9690,
    "Ġfrosted": 19802,
    "sh": 647,
    "Ġstraw": 9428,
    "Ġgener": 587,
    "Ġmanipulation": 10658,
    "Ġexplo": 2285,
    "lascar": 20959,
    "Ġdetermines": 2366,
    "Ġunpleasant": 7191,
    "Ġovertake": 15971,
    "Ġstately": 9833,
    "Ġintens": 7003,
    "Ġpolitely": 8993,
    "Ġincreasing": 8247,
    "onial": 11566,
    "Ġmetropolitan": 17275,
    "Ġdeparted": 5564,
    "itering": 17818,
    "wearing": 22684,
    "ificial": 610,
    "Ġindelible": 25694,
    "fitted": 17544,
    "ber": 886,
    "gentleman": 7518,
    "Ġbuckle": 17033,
    "eteenth": 20156,
    "Ġru": 948,
    "Ġunhappy": 5640,
    "gerine": 22887,
    "chancing": 22918,
    "Ġsensitiveness": 23733,
    "elope": 14455,
    "Ġexpand": 9306,
    "urbed": 15706,
    "Ġborrowed": 17229,
    "Ġtambourine": 9564,
    "Ġsab": 10762,
    "Ġbench": 7238,
    "Ġpedestrian": 25879,
    "sar": 12502,
    "Ġcaring": 23088,
    "Ġclang": 15960,
    "lever": 2932,
    "eldest": 22792,
    "Ġusher": 22209,
    "nurs": 20998,
    "Ġgur": 21589,
    "Ġwoman": 2384,
    "Ġsordid": 26422,
    "Ġsquaw": 22834,
    "Ġguests": 12285,
    "Ġmagnifying": 16318,
    "Ġterrors": 6918,
    "hypothe": 25905,
    "kind": 3863,
    "Ġmummy": 25768,
    "hatches": 19927,
    "ultaneously": 4197,
    "Ġdece": 6996,
    "ev": 6952,
    "lers": 10106,
    "Ġflounders": 23012,
    "Ġunfeeling": 14118,
    "iful": 2881,
    "Ġretain": 7862,
    "asily": 13945,
    "Ġmeetings": 16531,
    "flung": 16638,
    "Ġfoiled": 23243,
    "Ġafterwards": 3530,
    "ios": 2250,
    "Ġlords": 14641,
    "Ġsubterr": 10348,
    "acles": 8519,
    "Ġmetallic": 19074,
    "Ġvalleys": 14918,
    "paid": 15413,
    "smallest": 23909,
    "ace": 716,
    "blue": 13692,
    "Ġfacility": 19849,
    "Ġunp": 12769,
    "Ġpharaoh": 26585,
    "Ġfol": 1288,
    "Ġvivid": 8057,
    "governed": 25405,
    "Ġtrooped": 24899,
    "Ġcommunicates": 24547,
    "Ġdecreases": 3406,
    "Ġblank": 5950,
    "ious": 770,
    "Ġmotioned": 19591,
    "Ġpythag": 26448,
    "Ġgomorrah": 21612,
    "Ġleather": 7606,
    "Ġhe": 318,
    "Ġremembering": 14611,
    "ive": 426,
    "Ġinsurg": 23676,
    "Ġpapa": 10656,
    "andromeda": 21865,
    "Ġabounding": 12342,
    "whether": 5319,
    "arrange": 23764,
    "thrill": 25656,
    "equal": 14992,
    "ariously": 18527,
    "Ġwickedness": 9525,
    "Ġmichael": 20678,
    "Ġfear": 2276,
    "Ġboisterously": 25682,
    "Ġconfeder": 25708,
    "inations": 7567,
    "they": 1879,
    "Ġpeaceful": 9455,
    "Ġadventures": 7747,
    "Ġdeficient": 18824,
    "Ġfringed": 17272,
    "Ġconciliating": 19047,
    "Ġdied": 4115,
    "Ġscriptures": 26235,
    "narrated": 25621,
    "leap": 21365,
    "Ġlethargy": 26483,
    "dial": 20824,
    "Ġarchitecture": 1126,
    "Ġindistinct": 17407,
    "Ġfilters": 3929,
    "Ġstiggs": 25792,
    "Ġstrateg": 1371,
    "rels": 6664,
    "Ġroared": 7023,
    "itude": 1416,
    "Ġthoughtlessness": 16192,
    "Ġnocturn": 18375,
    "Ġdeception": 18139,
    "make": 5793,
    "aggoo": 5130,
    "Ġhudson": 15190,
    "Ġpork": 21455,
    "Ġwearisome": 19794,
    "unt": 2042,
    "foreign": 18544,
    "Ġforces": 12699,
    "writer": 14648,
    "Ġtalker": 23369,
    "Ġpardon": 5727,
    "Ġreturn": 1712,
    "Ġfinishing": 23123,
    "Ġcheer": 4068,
    "Ġcomplex": 745,
    "tempered": 13445,
    "Ġadd": 629,
    "tenderly": 20529,
    "assault": 22303,
    "Â·": 21148,
    "Ġale": 9154,
    "Ġsweep": 8265,
    "Ġsanity": 24979,
    "flutter": 23968,
    "Ġpyramid": 8801,
    "Ġfourteen": 12008,
    "ep": 442,
    "Ġproblem": 1273,
    "stubb": 6017,
    "Ġelder": 7223,
    "Ġeyel": 17096,
    "Ġcapable": 5054,
    "Ġcontemplative": 19892,
    "Ġashore": 5351,
    "Ġinsertion": 26343,
    "live": 7550,
    "taller": 26150,
    "Ġberry": 19745,
    "snapping": 24849,
    "Ġseats": 14088,
    "expose": 23660,
    "asons": 6014,
    "nuts": 15397,
    "Ġmarines": 16258,
    "preced": 10309,
    "Ġpaltry": 16692,
    "treacle": 25148,
    "irst": 879,
    "cnns": 3621,
    "bil": 20770,
    "Ġstained": 11651,
    "Ġamongst": 8959,
    "imprudence": 16557,
    "bill": 10075,
    "Ġverses": 17063,
    "Ġclum": 8872,
    "Ġlessened": 19087,
    "Ġring": 4454,
    "Ġrelations": 5852,
    "Ġstoutly": 16924,
    "Ġsymmetrical": 20365,
    "Ġeag": 2968,
    "Ġrefreshed": 15289,
    "Ġdistance": 3483,
    "Ġbaptized": 25774,
    "calcul": 12987,
    "embraced": 25806,
    "cy": 633,
    "assin": 22302,
    "es": 288,
    "etence": 21574,
    "into": 3680,
    "venth": 9294,
    "ody": 1482,
    "touched": 15438,
    "outh": 2689,
    "Ġclaims": 13372,
    "nlp": 8750,
    "Ġhomage": 12353,
    "Ġneglecting": 25007,
    "atherley": 7220,
    "ped": 6365,
    "Ġcretan": 22726,
    "period": 15900,
    "Ġconstrained": 19239,
    "etency": 21579,
    "Ġflows": 13007,
    "Ġaccused": 8507,
    "Ġmemories": 14541,
    "hoisting": 23714,
    "Ġgir": 2256,
    "tied": 21069,
    "stick": 15682,
    "outs": 7008,
    "inquir": 9535,
    "icorn": 15654,
    "[_": 5131,
    "Ġpall": 7582,
    "ices": 2137,
    "Ġmealy": 18120,
    "likewise": 13104,
    "Ġlimbs": 5965,
    "Ġmounting": 19975,
    "Ġbaker": 4696,
    "te": 996,
    "Ġprotection": 9461,
    "Ġimpudence": 26241,
    "Ġ17": 5740,
    "Ġscott": 22278,
    "thanked": 24331,
    "peculiarities": 13470,
    "reduc": 5459,
    "poor": 6060,
    "wrapped": 15208,
    "Ġmysteriously": 24601,
    "Ġdramat": 23213,
    "Ġspecies": 5112,
    "Ġroaring": 10968,
    "itted": 2439,
    "Ġromantic": 8030,
    "elijah": 19471,
    "Ġenabled": 9295,
    "Ġhoping": 11103,
    "enched": 10154,
    "ineas": 15819,
    "Ġalteration": 9545,
    "Ġmodest": 15914,
    "took": 6164,
    "Ġinclined": 6622,
    "Ġpres": 9731,
    "rigging": 20004,
    "Ġpockets": 8895,
    "Ġsli": 4748,
    "Ġthinks": 6169,
    "Ġmastery": 23990,
    "illity": 18296,
    "indef": 17735,
    "affections": 17356,
    "dismay": 19152,
    "Ġburden": 8607,
    "absolutely": 10645,
    "occasionally": 13520,
    "Ġvital": 9242,
    "Ġcircumnavigating": 25614,
    "shall": 4551,
    "dec": 3110,
    "Ġwood": 2291,
    "Ġveracity": 23887,
    "Ġaffect": 1384,
    "Ġgro": 4399,
    "Ġdeploy": 2902,
    "Ġanticipating": 17058,
    "Ġbefriend": 18081,
    "Ġclay": 7018,
    "stopping": 19348,
    "Ġconfronted": 23305,
    "Ġesteemed": 10588,
    "Ġbanish": 15567,
    "ñ": 178,
    "Ġfast": 1718,
    "Ġcomfor": 14053,
    "Ġsystematically": 4094,
    "Ġnaked": 8126,
    "Ġregards": 16071,
    "Ġspake": 18308,
    "herent": 2527,
    "endar": 18364,
    "Ġextracted": 16299,
    "Ġshipwreck": 20444,
    "Ġrevolved": 9983,
    "loom": 18539,
    "lo": 683,
    "undant": 14790,
    "aneously": 4061,
    "shad": 10982,
    "Ġobservation": 6597,
    "cked": 2761,
    "Ġdraws": 19434,
    "Ġdarkly": 19114,
    "Ġcasualty": 20340,
    "incident": 14591,
    "Ġty": 6657,
    "iza": 6255,
    "Ġlestrade": 5825,
    "Ġbugs": 13647,
    "fect": 2299,
    "ny": 4017,
    "astes": 11737,
    "hair": 9122,
    "Ġxii": 11989,
    "Ġur": 5540,
    "mrs": 3743,
    "hunter": 10555,
    "Ġmethinks": 10388,
    "jacket": 12290,
    "Ġgraphs": 25463,
    "Ġbrass": 11048,
    "othic": 16214,
    "valued": 2850,
    "Ġslaves": 23167,
    "Ġhorns": 11123,
    "cring": 20810,
    "Ġlivery": 15998,
    "Ġexponentiating": 3444,
    "Ġfeeling": 3082,
    "Ġripple": 25504,
    "v": 90,
    "umns": 14147,
    "asburgh": 15644,
    "sighted": 19784,
    "emotion": 21927,
    "Ġnautical": 17385,
    "inclined": 10639,
    "osc": 18387,
    "ript": 4157,
    "Ġhaggard": 17329,
    "armed": 7252,
    "Ġmarble": 7668,
    "Ġawa": 7713,
    "rents": 5308,
    "intend": 16222,
    "gunwale": 20662,
    "educ": 10828,
    "Ġimmortality": 26325,
    "Ġlocks": 11722,
    "prit": 19340,
    "Ġreduced": 11922,
    "Ġork": 18284,
    "imperturbable": 25790,
    "Ġconjured": 25099,
    "Ġxi": 16428,
    "Ġcrad": 21348,
    "Ġinfants": 16362,
    "rim": 7137,
    "Ġwhir": 6393,
    "impart": 21706,
    "Ġsuperior": 2752,
    "etics": 21578,
    "Ġamazement": 7764,
    "Ġsuckling": 25997,
    "ĠĠĠĠĠ": 3526,
    "Ġovertaken": 18429,
    "lace": 13747,
    "published": 26142,
    "Ġimbued": 17454,
    "Ġinter": 728,
    "consuming": 25674,
    "oury": 22301,
    "Ġconvers": 2907,
    "Ġrubbing": 9320,
    "eluded": 21572,
    "onstrate": 17768,
    "gins": 12466,
    "Ġjon": 15946,
    "Ġimputable": 22170,
    "Ġbowl": 11204,
    "Ġpassenger": 14368,
    "Ġcareer": 11118,
    "ocr": 10468,
    "Ġtin": 15462,
    "ĠĠĠĠĠĠĠ": 7632,
    "sil": 5282,
    "Ġcum": 21340,
    "Ġparacels": 13666,
    "imaux": 21709,
    "girl": 12316,
    "Ġ105": 24413,
    "Ġlizzy": 3545,
    "Q": 53,
    "Ġcoarse": 14273,
    "Ġaccommodate": 20515,
    "Ġunholy": 26218,
    "Ġphysiognomically": 25612,
    "ighter": 7967,
    "borean": 25743,
    "Ġfunctions": 1340,
    "Ġplied": 22594,
    "Ġsqueezing": 25006,
    "ò": 179,
    "lasting": 8010,
    "Ġed": 2143,
    "africa": 26308,
    "Ġpicking": 11259,
    "Ġattain": 12744,
    "Ġflorid": 17135,
    "Ġrequirements": 9795,
    "Ġessence": 13404,
    "Ġthreatens": 24375,
    "Ġhorrible": 4905,
    "ma": 1149,
    "espe": 3497,
    "Ġspoke": 2747,
    "pro": 2048,
    "brance": 7284,
    "Ġtraverse": 18890,
    "Ġgramm": 8170,
    "Ġplayfulness": 23635,
    "Ġallow": 1128,
    "Ġpolice": 4675,
    "Ġcontro": 1690,
    "Ġimprovements": 14523,
    "Ġour": 1009,
    "Ġab": 528,
    "melancholy": 12351,
    "Ġhark": 8427,
    "Ġconsequ": 6254,
    "abbering": 21793,
    "Ġorange": 8486,
    "Ġmccarthys": 19661,
    "orified": 21400,
    "Ġeat": 4644,
    "ē": 212,
    "Ġthr": 5709,
    "Ġintentionally": 24523,
    "seriously": 18904,
    "hen": 3517,
    "unc": 15766,
    "Ġtwelvemonth": 12175,
    "Ġascribed": 14854,
    "Ġwreck": 7314,
    "Ġhabitation": 14802,
    "tri": 11529,
    "Ġerrors": 2594,
    "envelope": 17782,
    "Ġinexperience": 26099,
    "Ġbag": 5699,
    "Ġtranqu": 4606,
    "Ġmisanthropic": 26560,
    "attery": 18497,
    "Ġacquaintances": 17349,
    "gammon": 20242,
    "Ġcarving": 14442,
    "Ġmembrane": 20502,
    "Ġpre": 507,
    "dron": 17525,
    "chance": 6827,
    "Ġwondered": 11125,
    "obviously": 25242,
    "Ġmagnitude": 1942,
    "idious": 11661,
    "summon": 23414,
    "Ġsyllables": 25298,
    "Ġdue": 3844,
    "aft": 9583,
    "Ġprovidence": 18744,
    "Ġmajest": 24057,
    "Ġtraditions": 11443,
    "Ġmic": 17797,
    "batch": 1982,
    "Ġcourt": 4174,
    "althily": 19357,
    "attain": 21260,
    "Ġextra": 4057,
    "Ġlatter": 3992,
    "axing": 18547,
    "Ġcosy": 13129,
    "warks": 5004,
    "esc": 616,
    "ders": 8074,
    "Ġcrawled": 17044,
    "Ġconflag": 20334,
    "Ġcombat": 16184,
    "Ġrules": 1918,
    "Ġmeant": 3549,
    "Ġcornelius": 13572,
    "oin": 17617,
    "Ġlife": 1353,
    "tee": 16169,
    "Ġanoints": 25538,
    "unciation": 25982,
    "lesome": 12962,
    "tempestuous": 26097,
    "âĢĶ.": 11753,
    "entitled": 21565,
    "wheeler": 16187,
    "Ġasc": 4765,
    "Ġhastened": 9004,
    "Ġdiscernible": 15068,
    "Ġlick": 21547,
    "Ġhumanity": 6731,
    "Ġseparating": 16685,
    "verbally": 25360,
    "Ġdarkened": 16431,
    "ending": 1989,
    "spiracle": 22739,
    "Ġbi": 917,
    "Ġinfinitely": 8963,
    "Ġnerve": 16339,
    "Ġcollapsed": 15080,
    "Ġgrasping": 12163,
    "Ġangels": 11178,
    "Ġribs": 7101,
    "Ġgor": 9206,
    "Ġholiday": 12995,
    "ves": 693,
    "Ġcomple": 2838,
    "Ġsteam": 9352,
    "Ġnotwithstanding": 9713,
    "Ġshowers": 16605,
    "Ġfar": 1452,
    "Ġignorance": 6618,
    "Ġharpooning": 23976,
    "affold": 16562,
    "ulent": 21859,
    "arks": 2842,
    "cater": 20814,
    "boast": 23250,
    "hearse": 17748,
    "Ġswelled": 11088,
    "contemplated": 20457,
    "Ġfamily": 1965,
    "Ġsemblance": 20733,
    "Ġequatorial": 13508,
    "Ġgrowled": 19282,
    "Ġhelper": 24023,
    "Ġbattery": 21392,
    "Ġbush": 23335,
    "Ġadieus": 25110,
    "vis": 4578,
    "Ġanywhere": 8516,
    "Ġtattooed": 11378,
    "Ġindifferent": 6174,
    "Ġneatness": 19931,
    "Ġcoding": 8115,
    "Ġmain": 808,
    "thrown": 8480,
    "Ġriotous": 20543,
    "Ġlieuten": 13325,
    "mushroom": 26395,
    "Ġsoapstone": 20509,
    "produce": 20281,
    "Ġfade": 21405,
    "Ġtackles": 8050,
    "initions": 21186,
    "Ġperfection": 19217,
    "Ġclearing": 8239,
    "Ġdarts": 16768,
    "Ġgenerations": 10964,
    "Ġoversampling": 20514,
    "getting": 12964,
    "Ġcom": 368,
    "dued": 7908,
    "log": 18538,
    "Ġquarters": 8619,
    "Ġse": 402,
    "Ġwashing": 9704,
    "Ġcorridor": 10671,
    "strade": 5065,
    "Ġtapers": 11551,
    "Ġburly": 19249,
    "Ġheredit": 9216,
    "oped": 6046,
    "Ġdes": 1249,
    "Ġexchange": 15751,
    "Ġdesper": 6176,
    "Ġmended": 21312,
    "icuous": 10835,
    "Ġsucceed": 4546,
    "boats": 6204,
    "Ġco": 732,
    "Ġclimb": 15078,
    "Ġowed": 10780,
    "Ġnourishment": 15191,
    "Ġfrancisco": 26064,
    "iture": 5696,
    "Ġmyster": 5925,
    "ptic": 21915,
    "dri": 5887,
    "eneva": 5118,
    "Ġloadstone": 25816,
    "history": 15014,
    "Ġdodging": 19886,
    "Ġriddles": 16732,
    "Ġtawny": 20480,
    "rail": 10204,
    "screen": 22991,
    "returned": 7765,
    "Ġvolat": 24144,
    "Ġplaced": 3442,
    "Ġintelligence": 563,
    "Ġvalued": 12180,
    "bation": 9102,
    "Ġextracts": 9361,
    "til": 17671,
    "Ġinfirmity": 26298,
    "Ġmedit": 8018,
    "parable": 16389,
    "context": 3400,
    "volume": 18587,
    "brown": 15316,
    "go": 2062,
    "Ġregarded": 5762,
    "modesty": 22846,
    "Ġtastes": 15476,
    "Ġtack": 5621,
    "Ġcrater": 16438,
    "div": 8075,
    "abiding": 21790,
    "Ġprogress": 5023,
    "conjecturing": 20133,
    "Ġbridges": 24682,
    "sters": 6391,
    "housekeeping": 24101,
    "Ġbumpkin": 20199,
    "Ġhatty": 19264,
    "Ġdeductions": 19732,
    "Ġcumberland": 21353,
    "surpr": 5996,
    "quietly": 10592,
    "Ġwild": 2599,
    "Ġbeard": 11654,
    "Ġinsolence": 20252,
    "Ġirresolute": 24916,
    "Ġdiffident": 23781,
    "Ġgleaming": 24993,
    "Ġbaby": 6636,
    "Ġspanish": 2826,
    "ivable": 10910,
    "Ġhumiliation": 16197,
    "Ġvigilant": 20183,
    "Ġsafe": 5103,
    "whatever": 6694,
    "Ġ-": 1943,
    "mews": 22711,
    "government": 25406,
    "Ġliv": 6679,
    "Ġmend": 8405,
    "Ġvoyage": 3054,
    "bout": 20772,
    "Ġborder": 10169,
    "jer": 12478,
    "Ġbenjam": 22889,
    "ustry": 18357,
    "Ġshown": 5159,
    "dum": 17518,
    "Ġdepicting": 22604,
    "Ġjavelin": 26104,
    "sailors": 9921,
    "og": 854,
    "Ġterr": 3270,
    "Ġbat": 10795,
    "Ġnarr": 5085,
    "Ġaccidents": 10295,
    "formal": 14168,
    "de": 458,
    "Ġtorture": 9064,
    "rael": 21626,
    "atherine": 2593,
    "Ġclimate": 9274,
    "Ġwrithing": 11944,
    "choice": 21688,
    "Ġintegrated": 13530,
    "adders": 24400,
    "her": 488,
    "Ġdilig": 8349,
    "rated": 6227,
    "Ġ27": 8614,
    "Â£": 4812,
    "Ġreconc": 9682,
    "Ġsee": 803,
    "Ġenvironments": 24087,
    "stun": 18018,
    "Ġboneless": 19604,
    "--------": 14779,
    "Ġwip": 13852,
    "norm": 20984,
    "ropy": 1106,
    "Ġannouncement": 14832,
    "Ġcomp": 724,
    "Ġcharitable": 23267,
    "Ġsunny": 13084,
    "iour": 4039,
    "Ġhams": 16612,
    "Ġconsecutive": 20701,
    "Ġdem": 11673,
    "itu": 1227,
    "ĠlinnÃ¦us": 15274,
    "hooked": 23713,
    "convolutional": 4958,
    "Ġmurderer": 4980,
    "were": 2555,
    "Ġthese": 818,
    "fitzwilliam": 11352,
    "georgiana": 26020,
    ").": 1274,
    "'t": 3143,
    "Ġsimilarity": 3166,
    "looked": 6083,
    "Ġseeks": 14301,
    "pervised": 1602,
    "became": 10514,
    "Ġrelics": 16194,
    "crat": 24096,
    "explained": 23140,
    "consid": 4924,
    "hot": 8083,
    "Ġsimulates": 2739,
    "Ġdefer": 18822,
    "Ġrefuse": 5738,
    "Ġpink": 12615,
    "Ġwithstand": 10225,
    "Ġmoney": 3415,
    "vigorous": 25917,
    "Ġpriv": 4187,
    "Ġradiance": 13369,
    "Ġpurses": 23475,
    "Ġhyster": 16873,
    "Ġconcept": 668,
    "Ġwherever": 8523,
    "Ġrelevance": 5184,
    "Ġdesperate": 7776,
    "hollow": 24037,
    "Ġphotograph": 6302,
    "Ġboards": 14299,
    "Ġfrantic": 7956,
    "Ġsolitary": 5854,
    "usations": 15945,
    "required": 17030,
    "Ġirresolution": 24915,
    "Ġrasc": 21974,
    "Ġdaniel": 15110,
    "Ġere": 3685,
    "Ġincarnation": 25573,
    "Ġpropont": 16348,
    "Ġbrilliant": 11414,
    "Ġseaman": 8638,
    "rested": 13073,
    "Ġduodecimo": 16767,
    "Ġcursed": 6727,
    "Ġhath": 12625,
    "abern": 21787,
    "Ġbehav": 3539,
    "Ġunobserved": 18249,
    "phr": 18712,
    "Ġenriched": 26499,
    "Ġeh": 6987,
    "Ġmultimodal": 18747,
    "Ġflushed": 13024,
    "Ġalready": 2713,
    "Ġpipe": 4324,
    "Ġvestibule": 13536,
    "ficial": 17548,
    "Ġadopt": 10631,
    "Ġneeds": 6605,
    "Ġbetrayed": 9561,
    "ogue": 9781,
    "Ġobligations": 12089,
    "Ġuntouched": 16465,
    "Ġstreaked": 19113,
    "Ġoutlined": 22317,
    "Ġheaped": 18037,
    "Ġslaught": 23165,
    "rabbit": 20589,
    "Ġhappier": 10358,
    "Ġbodily": 6106,
    "Ġsmallest": 6430,
    "Ġunt": 2293,
    "Ġk": 484,
    "Ġnineveh": 13388,
    "Ġlodges": 19498,
    "Ġintuitions": 17340,
    "directly": 13708,
    "Ġragged": 11844,
    "sciss": 18856,
    "voyages": 24855,
    "Ġreduce": 7942,
    "compliments": 24810,
    "Ġobedience": 11413,
    "Ġprofessor": 11230,
    "Ġbullion": 24983,
    "Ġcredulous": 17144,
    "globe": 25142,
    "Ġvancou": 22873,
    "Ġantiquities": 25598,
    "Ġavenues": 25429,
    "Ġremembrance": 8317,
    "Ġexcl": 3473,
    "Ġfrighten": 13277,
    "Ġ41": 24077,
    "racing": 21628,
    "oblig": 16289,
    "Ġaft": 5737,
    "Ġhel": 3784,
    "Ġtrotting": 19974,
    "Ġstrokes": 16769,
    "Ġlances": 6984,
    "Ī": 235,
    "Ġinexplicable": 12254,
    "nep": 20985,
    "myself": 5113,
    "Ġpart": 860,
    "compassion": 12366,
    "Ġsplice": 19308,
    "Ġinsurance": 23677,
    "robber": 21534,
    "Ġarabian": 9089,
    "Ġoaken": 13864,
    "Ġunce": 11709,
    "Ġwiser": 14729,
    "Ġchest": 5185,
    "lev": 1235,
    "Ġpratt": 23215,
    "un": 373,
    "Ġwilson": 6629,
    "excepting": 19705,
    "oot": 13764,
    "am": 367,
    "bweb": 20790,
    "weed": 14314,
    "Ġidentifies": 12013,
    "feeling": 6616,
    "Ġconverted": 16109,
    "orne": 17872,
    "Ġofficial": 7081,
    "Ġannual": 14831,
    "ercely": 12547,
    "Ġv": 399,
    "Ġprevious": 2090,
    "Ġfinds": 6299,
    "Ġbashaw": 25633,
    "Ġrejoiced": 8683,
    "Ġmeaning": 1414,
    "noise": 14330,
    "caterpillar": 26383,
    "ittered": 18439,
    "daring": 20828,
    "Ġinflamed": 13472,
    "degrees": 22146,
    "Ġzoology": 22817,
    "Ġnote": 4266,
    "Ġcaucus": 17379,
    "Ġimp": 583,
    "Ġmatrimony": 13634,
    "ibank": 6880,
    "Ġsquares": 11169,
    "Ġestab": 6315,
    "Ġridiculous": 10628,
    "Ġjava": 12310,
    "Ġprodigy": 19791,
    "Ġpatent": 11961,
    "Ġselfish": 7272,
    "oices": 7348,
    "Ġmentioned": 4331,
    "Ġclimbing": 20068,
    "downward": 16619,
    "fier": 9593,
    "Ġof": 298,
    "measure": 10030,
    "gossip": 23402,
    "Ġresembled": 18033,
    "Ġlurks": 11290,
    "Ġeu": 6390,
    "jewell": 25523,
    "Ġstat": 1495,
    "oda": 15746,
    "Ġirretrie": 23372,
    "Ġmapple": 11150,
    "conv": 7213,
    "Ġruminated": 24599,
    "Ġdairy": 20685,
    "Ġgratefully": 20443,
    "lier": 20948,
    "nyder": 16686,
    "raid": 3276,
    "cop": 20800,
    "Ġincompetent": 25679,
    "Ġag": 685,
    "Ġsin": 1516,
    "Ġgrassy": 24379,
    "superst": 11325,
    "Ġwretched": 4083,
    "etian": 13958,
    "let": 2733,
    "ordinary": 4410,
    "forbearance": 22797,
    "Ġ63": 24366,
    "attended": 8952,
    "Ġloafer": 18299,
    "Ġegypt": 9678,
    "nihil": 9841,
    "Ġbatch": 891,
    "Ġdisregard": 22525,
    "Ġwound": 4529,
    "wart": 17705,
    "Ġscratches": 22283,
    "Ġmorals": 22967,
    "Ġterrible": 5327,
    "exclaimed": 11788,
    "Ġstand": 1735,
    "Ġfolds": 12204,
    "Ġbarbarians": 19586,
    "Ġenveloping": 19733,
    "Ġrichness": 19310,
    "laden": 14928,
    "Ġimpat": 4458,
    "Ġtechni": 1615,
    "Ġrelentless": 26277,
    "Ġfirmament": 19469,
    "Ġsatin": 12988,
    "Ġfishery": 4180,
    "ensity": 11811,
    "relatively": 24011,
    "subtle": 24243,
    "Ġdent": 13905,
    "Ġatom": 18192,
    "inquire": 16932,
    "Ġchapel": 9522,
    "Ġinterests": 14568,
    "mult": 8747,
    "pieces": 8754,
    "Ġfork": 15729,
    "Ġimmort": 19482,
    "Ġsway": 7571,
    "Ġtaurus": 21177,
    "Ġ127": 24472,
    "Ġcrocod": 19627,
    "transom": 19734,
    "ivory": 10268,
    "Ġmus": 3393,
    "Ġoccasionally": 5590,
    "diver": 20830,
    "Ġbigot": 24565,
    "ars": 905,
    "Ġbounds": 9917,
    "clair": 18932,
    "Ġstammered": 26199,
    "Ġfill": 5701,
    "Ġattic": 16096,
    "Ġoverlooked": 15972,
    "Ġpreacher": 18369,
    "Ġstirred": 12215,
    "oce": 10714,
    "rap": 21625,
    "Ġintroduced": 7690,
    "Ġappalled": 22215,
    "ooped": 17623,
    "turbaned": 24532,
    "reasonable": 7751,
    "ouraged": 22854,
    "Ġproperty": 6450,
    "Ġharem": 9708,
    "ravity": 21632,
    "Ġpractices": 19054,
    "Ġquarter": 3979,
    "bast": 10076,
    "spears": 23939,
    "Ġassociation": 24711,
    "ord": 667,
    "seaman": 25457,
    "Ġtunes": 24619,
    "shapes": 22459,
    "Ġrussia": 26267,
    "Ġmult": 1024,
    "Ġpatronage": 17053,
    "ede": 21503,
    "Ġeluded": 12919,
    "iscre": 17850,
    "Ġappears": 5402,
    "Ġstage": 7389,
    "indispensable": 14212,
    "sence": 3303,
    "Ġunconcern": 14116,
    "Ġreinforcement": 3419,
    "Ġexcurs": 23311,
    "ÿ": 192,
    "Ġpursued": 6328,
    "Ġlodged": 11252,
    "Ġprivately": 19522,
    "ames": 2955,
    "Ġmalignity": 10556,
    "Ġglued": 20587,
    "solitude": 23293,
    "peddling": 24696,
    "countenance": 6925,
    "Ġcivilized": 8664,
    "Ġdoubloons": 13433,
    "Ġaffidav": 18790,
    "Ġbrittle": 22863,
    "perse": 15898,
    "Ġcommander": 8624,
    "circumst": 5348,
    "Ġassures": 14465,
    "independ": 15980,
    "allied": 7410,
    "days": 7687,
    "itary": 4751,
    "saturday": 14857,
    "bless": 22309,
    "Ġunfolded": 10638,
    "sleet": 20148,
    "Ġslow": 2377,
    "Ġhardly": 2429,
    "Ġcoal": 18595,
    "Ġactivation": 916,
    "Ġfoam": 6891,
    "tch": 9141,
    "Ġshutter": 16670,
    "enth": 6680,
    "Ġhelping": 3263,
    "Ġrobinson": 17463,
    "ere": 6789,
    "Ġmaj": 3928,
    "ts": 959,
    "onely": 6516,
    "Ġclap": 10956,
    "Ġadmire": 5263,
    "tempt": 21078,
    "Ġsucceeded": 6105,
    "Ġinfluence": 5515,
    "Ġsuddenness": 23380,
    "cure": 11474,
    "Ġ3": 3987,
    "----": 4059,
    "Ġburke": 19250,
    "lines": 6959,
    "iles": 2859,
    "highest": 20406,
    "Ġspouted": 14674,
    "Ġprocedures": 9411,
    "Ġrallied": 14095,
    "Ġfra": 1832,
    "Ġinvisibly": 24817,
    "Ġbuoyed": 20039,
    "Ġyawn": 7609,
    "Ġflamingo": 15099,
    "Ġcharcoal": 19007,
    "Ġsorry": 4213,
    "Ġtropic": 17064,
    "omit": 13973,
    "Ġwedded": 16674,
    "Ġdoze": 14176,
    "Ġseemingly": 9317,
    "ouses": 5163,
    "Ġcomposed": 8891,
    "ctive": 11622,
    "Ġbraided": 16581,
    "vic": 13801,
    "Ġlocked": 6034,
    "Ġdispirited": 23880,
    "chased": 18041,
    "Ġconfirming": 25321,
    "report": 13398,
    "Ġf": 283,
    "Ġinfamous": 16363,
    "Ġlic": 8435,
    "Ġsenior": 17171,
    "Ġbrewed": 23344,
    "Ġleaks": 16447,
    "Ġleaky": 2345,
    "©": 107,
    "Ġadmit": 7710,
    "Ġren": 3845,
    "Ġuncovered": 23430,
    "\":": 9581,
    "Ġslipped": 6492,
    "Ġtet": 21156,
    "Ġdissuade": 26256,
    ",âĢĶâĢĺ": 23800,
    "anges": 1677,
    "ineff": 21963,
    "Ġforesee": 19125,
    "Ġconting": 18472,
    "pig": 8752,
    "Ġxlix": 25860,
    "Ġmass": 3778,
    "Ġado": 7626,
    "la": 10705,
    "companion": 9557,
    "inement": 11557,
    "Ġbored": 16103,
    "Ġheal": 21678,
    "illes": 12691,
    "·": 120,
    "Ġemerged": 8684,
    "Ġaccess": 9746,
    "Ġval": 969,
    ".âĢĻâĢĿ": 6739,
    "canoes": 16229,
    "Ġcounting": 13093,
    "Ġlithe": 24668,
    "Ġlives": 4825,
    "Ġsuspense": 9417,
    "Ġporing": 21465,
    "t": 88,
    "Ġtied": 7357,
    "Ġrh": 9243,
    "yarn": 15456,
    "plexion": 14260,
    "erxes": 21274,
    "Ġreminisc": 18725,
    "Ġamused": 11797,
    "leeward": 15209,
    "Ġunjust": 8483,
    "Ġmanilla": 15957,
    "Ġsunrise": 9372,
    "Ġbiological": 1932,
    "Ġeighteen": 11239,
    "bench": 16803,
    "Ġmarchant": 14784,
    "Ġclergyman": 8711,
    "Ġhitting": 21485,
    "vex": 21695,
    "Ġinfat": 14499,
    "Ġunbelief": 22046,
    "Ġhideousness": 16915,
    "mbly": 9792,
    "Ġsecret": 3719,
    "Ġdesponding": 25868,
    "Ġhump": 5853,
    "crippled": 26384,
    "Ġdrops": 9032,
    "historical": 20464,
    "e": 73,
    "Ġcleared": 6074,
    "dat": 1654,
    "Ġreliability": 22877,
    "encyclopÃ¦dia": 16663,
    "Ġtertiary": 15293,
    "Ġpainful": 6462,
    "Ġhalls": 19524,
    "dying": 10694,
    "oring": 1858,
    "slackened": 26094,
    "gy": 2097,
    "sprang": 19989,
    "sleepers": 24730,
    "Ġtomahawk": 7539,
    "Ġpronouncing": 16969,
    "study": 15116,
    "Ġrumors": 11321,
    "Ġshyness": 20305,
    "horses": 17567,
    "closed": 23152,
    "bree": 15313,
    "opius": 18508,
    "irresist": 21909,
    "ipl": 20917,
    "cheerfulness": 20179,
    "wins": 21128,
    "smeer": 26147,
    "acit": 16078,
    "ording": 9763,
    "Ġhypocritical": 20737,
    "Ġling": 7377,
    "hid": 13733,
    "chess": 16573,
    "burn": 8370,
    "Ġnetwork": 454,
    "thinking": 9013,
    "otics": 10223,
    "ahawk": 23313,
    "aways": 15309,
    "istry": 22106,
    "Ġbolt": 11334,
    "osen": 6855,
    "Ġconfess": 3765,
    "Ġrelapses": 26278,
    "Ġmerits": 13193,
    "Ġdiligence": 17114,
    "Ġexplanatory": 22199,
    "evinced": 19925,
    "entric": 11618,
    "cely": 3573,
    "wicked": 24449,
    "Ġans": 1648,
    "Ġconstantly": 11971,
    "Ġbecher": 18879,
    "Ġbeg": 1283,
    "Ġcaved": 21351,
    "_),": 7125,
    "Ġbluff": 16516,
    "started": 10845,
    "Ġcellars": 24665,
    "mut": 17595,
    "Ġscotch": 12207,
    "odd": 21806,
    "Ġcontin": 5382,
    "intelligence": 5882,
    "Ġaffectionate": 5585,
    "Ġgret": 21598,
    "author": 9859,
    "Ġofficio": 23812,
    "ral": 4628,
    "soft": 12507,
    "Ġswain": 18880,
    "Ġtoward": 17946,
    "Ġbeside": 5192,
    "Ġgrowing": 6750,
    "Ġintroduction": 8970,
    "Ġmoved": 4839,
    "enthusiastic": 20691,
    "Ġminimum": 23037,
    "skinned": 25387,
    "folly": 20861,
    "Ġclamorous": 24909,
    "Ġlory": 12649,
    "timidity": 25753,
    "partly": 14602,
    "Ġstoper": 14462,
    "ronted": 14876,
    "Ġgrove": 12144,
    "upp": 10130,
    "allet": 11083,
    "peasant": 23107,
    "Ġsense": 3247,
    "Ġample": 11796,
    "Ġfolding": 19726,
    "Ġardu": 22180,
    "attend": 11100,
    "crack": 19839,
    "Ġpacific": 5153,
    "Ġrails": 22649,
    "Ġbiases": 2395,
    "Ġpiny": 21468,
    "Ġsanta": 26420,
    "factories": 19842,
    "Ġunreliable": 3930,
    "Ġlo": 452,
    "re": 266,
    "Ġfavoured": 16359,
    "Ġmuteness": 19415,
    "Ġabed": 22262,
    "Ġsteer": 10386,
    "Ġalike": 8146,
    "Ġroundabout": 23058,
    "Ġagonies": 14251,
    "Ġbermud": 26439,
    "Ġrepaid": 19082,
    "Ġsteel": 3888,
    "Ġcomplement": 23707,
    "Ġflogged": 23623,
    "alizing": 17939,
    "Ġnod": 1887,
    "tranquil": 25870,
    "Ġaudibly": 24771,
    "collins": 6916,
    "paralleled": 14515,
    "Ġperiodically": 19493,
    "Ġadequ": 10913,
    "Ġsweeping": 8985,
    "Ġdoing": 3661,
    "Ġbrighter": 16186,
    "Ġday": 956,
    "Ġfooting": 14482,
    "urons": 3129,
    "Ġvel": 7186,
    "ldog": 21914,
    "omeness": 18015,
    "gies": 13725,
    "Ġstreamed": 14546,
    "Ġresembles": 25969,
    "Ġguido": 2979,
    "Ġcirculation": 16415,
    "Ġunfor": 15837,
    "Ġer": 8104,
    "Ġeagerly": 4990,
    "ulsive": 10233,
    "Ġinhaled": 25451,
    "Ġrun": 2353,
    "Ġwarming": 23556,
    "Ġnew": 1195,
    "Ġfrankenstein": 7095,
    "pets": 17636,
    "umps": 6317,
    "surd": 6934,
    "Ġprimary": 25060,
    "dimensional": 2347,
    "Ġwent": 1536,
    "Ġlandau": 16418,
    "Ġobsequ": 14319,
    "Ġpals": 13917,
    "Ġreply": 4516,
    "proble": 9393,
    "vess": 7354,
    "Ġposted": 16724,
    "ate": 421,
    "utarch": 15659,
    "Ġreplacing": 3448,
    "Ġaffinity": 18788,
    "ivers": 1983,
    "Ġbirth": 6524,
    "Ġunintelligible": 26514,
    "scarcely": 12384,
    "journey": 8744,
    "Ġinwards": 15618,
    "Ġconjugal": 25101,
    "Ġrattling": 11395,
    "Ġpassed": 2009,
    "Ġstrikes": 13180,
    "faint": 17545,
    "Ġdiabol": 11453,
    "Ġbaked": 21384,
    "Ġhasten": 10478,
    "Ġotherwise": 4658,
    "repe": 8775,
    "Ġreliance": 14384,
    "Ġslily": 23162,
    "Ġunusual": 6553,
    "Ġlegs": 4916,
    "Ġtomorrow": 21510,
    "links": 20957,
    "Ġglance": 4236,
    "haw": 6361,
    "Ġabstraction": 26539,
    "Ġunclasp": 26511,
    "Ġbott": 3147,
    "vour": 17699,
    "deformity": 22142,
    "Ġallowing": 2173,
    "Ġairs": 14511,
    "Ġcomputational": 1630,
    "Ġfabric": 25947,
    "Ġvillagers": 19472,
    "Ġsalisbury": 24060,
    "Ġadviser": 25312,
    "Ġwhole": 1665,
    "Ġdine": 7366,
    "exercise": 17459,
    "Ġ102": 24410,
    "Ġathirst": 20597,
    "oise": 15403,
    "Ġcask": 5527,
    "Ġsa": 474,
    "Ġlug": 15649,
    "Ġimplies": 24873,
    "perquisites": 26531,
    "pshire": 21023,
    "Ġmanufactured": 22327,
    "Ġexcess": 3339,
    "Ġfighting": 12195,
    "Ġmill": 6666,
    "Ġdegener": 14047,
    "beheld": 11799,
    "Ġwaylaid": 22871,
    "Ġpicture": 4856,
    "value": 18803,
    "Ġbefell": 14009,
    "Ġimpaling": 22381,
    "Ġmicrosc": 20675,
    "Ġceremony": 8360,
    "Ġgent": 7383,
    "instantly": 7506,
    "Ġregretted": 13399,
    "cruise": 24841,
    "oton": 3607,
    "Ġeuroclydon": 15295,
    "Ġnavigation": 9992,
    "Ġtook": 1852,
    "Ġhundreds": 4330,
    "Ġbelonging": 8307,
    "Ġdisappears": 18560,
    "94": 4803,
    "Ġsuggest": 5417,
    "Ġvolume": 6769,
    "Ġbrilliantly": 25120,
    "beware": 16038,
    "thr": 12757,
    "Ġgore": 17988,
    "Ġca": 21337,
    "Ġgall": 4354,
    "speech": 10666,
    "thank": 4950,
    "Ġaroused": 15897,
    "hens": 3938,
    "Ġselfishness": 12287,
    "Ġfanny": 23389,
    "Ġlevers": 18077,
    "Ġlighting": 13081,
    "block": 11470,
    "stige": 21658,
    "dled": 9110,
    "Ġcases": 3963,
    "Ġtottenham": 24142,
    "Ġ113": 19695,
    "regret": 16450,
    "Ġtrifled": 24674,
    "Ġsprained": 15881,
    "Ġemergencies": 17361,
    "oquence": 11386,
    "principle": 10650,
    "Ġameric": 3853,
    "ached": 2320,
    "Ġrecip": 16137,
    "Ġpretension": 23762,
    "Ġpainting": 13140,
    "actory": 8907,
    "sprinkling": 24912,
    "Ġshrubbery": 18232,
    "yourselves": 24956,
    "latitude": 25259,
    "Ġtho": 21511,
    "quest": 4539,
    "altern": 17941,
    "ute": 4643,
    "Ġreptile": 15276,
    "mentioning": 24885,
    "forster": 16163,
    "marry": 13322,
    "seemingly": 25362,
    "ding": 1231,
    "pursuit": 20339,
    "Ġcook": 3711,
    "Ġanalytical": 22913,
    "ivial": 15857,
    "Ġattempting": 14696,
    "port": 10719,
    "Ġflow": 1238,
    "Ġbeaks": 21752,
    "atisf": 21262,
    "indirectly": 18437,
    "prehend": 14242,
    "anks": 3917,
    "Ġfailed": 6671,
    "igators": 18045,
    "ourage": 2449,
    "Ġvapors": 19907,
    "Ġabilities": 8866,
    "generosity": 23784,
    "Ġcurled": 8226,
    "²": 115,
    "insula": 23063,
    "Ġwalker": 23307,
    "Ġtro": 7356,
    "sequence": 2853,
    "Ġnarrating": 24351,
    "Ġquieted": 23839,
    "Ġejac": 10203,
    "cheeked": 19339,
    "uce": 11535,
    "ounce": 6557,
    "trucks": 25419,
    "Ġbrill": 8549,
    "Ġtand": 21159,
    "Ġcocaine": 20720,
    "Ġdescend": 7427,
    "Ġhundred": 2695,
    "Ġexperiment": 11918,
    "Ġhurrying": 11993,
    "oun": 483,
    "Ġunlike": 7004,
    "Ġobliquely": 12360,
    "dataset": 23242,
    "ower": 1017,
    "Ġmighty": 4233,
    "Ġmachine": 799,
    "Ġbiographical": 22759,
    "Ġslide": 10393,
    "Ġdevouring": 11856,
    "wherever": 13117,
    "Ġrelated": 3714,
    "âĢ": 294,
    "grass": 23411,
    "grant": 10427,
    "Ġaudits": 24770,
    "Ġconsequences": 11335,
    "Ġstable": 2700,
    "Ġcircus": 19091,
    "Ġ82": 24458,
    "Ġmiracle": 15092,
    "utility": 21584,
    "Ġoverfitting": 1542,
    "Ġuse": 828,
    "!_": 7329,
    "Ġinspiring": 19112,
    "coiled": 16485,
    "Ġnumer": 3638,
    "Ġromans": 16759,
    "Ġmeth": 1426,
    "Ġcondemned": 7778,
    "Ġfant": 9173,
    "Ġinterference": 8893,
    "Ġmoonshine": 19596,
    "Ġcloud": 3912,
    "igms": 3046,
    "Ġboat": 1279,
    "bergen": 14329,
    "guard": 12126,
    "Ġrainy": 24341,
    "Ġbid": 6131,
    "Ġengaged": 3427,
    "Ġtaken": 2526,
    "visual": 24222,
    "Ġkno": 5241,
    "Ġdiffered": 22708,
    "fury": 17547,
    "mort": 10710,
    "positive": 20566,
    "Ġoutwardly": 24998,
    "Ġmodern": 3225,
    "mis": 4522,
    "Ġthings": 1961,
    "ampton": 18144,
    "Ġretained": 7173,
    "Ġrot": 10967,
    "Ġunsupp": 22018,
    "Ġinterpreted": 1713,
    "Ġacquaint": 13041,
    "Ġcurls": 22977,
    "stays": 15686,
    "Ġwish": 2098,
    "Ġcorrespondence": 10594,
    "Ġdirected": 5579,
    "Ġcele": 9899,
    "edmund": 17945,
    "Ġinitialization": 1252,
    "conscience": 14859,
    "indul": 22370,
    "Ġunderstanding": 1861,
    "99": 1894,
    "yingly": 23114,
    "Ġped": 6817,
    "Ġascent": 19617,
    "franch": 24284,
    "Ġspending": 10923,
    "Ġspear": 9313,
    "Ġreflections": 5945,
    "Ġgoal": 10301,
    "Ġfind": 1459,
    "Ġstack": 21730,
    "icest": 21561,
    "Ġheron": 22070,
    "Ġaccurately": 3954,
    "ierce": 14391,
    "Ġpopulation": 16827,
    "Ġpleas": 1906,
    "Ġparis": 8178,
    "ould": 428,
    "Ġeyeing": 6460,
    "Ġgouge": 26188,
    "Ġjam": 10951,
    "carpenter": 11427,
    "moil": 22702,
    "continuing": 24479,
    "Ġprompt": 3187,
    "Ġphrensy": 25124,
    "seat": 18125,
    "Ġmel": 4816,
    "unched": 10235,
    "Ġarranged": 9876,
    "Ġspend": 5304,
    "Ġrele": 2917,
    "Ġcin": 13874,
    "daughters": 13465,
    "Ġwarehouse": 20415,
    "Ġuncork": 23428,
    "Ġinstantaneously": 23656,
    "Ġirons": 7695,
    "oman": 2016,
    "hook": 12051,
    "Ġamericans": 14742,
    "Ġmeridians": 17355,
    "unicorn": 21886,
    "Ġsche": 1707,
    "Ġrough": 7187,
    "Ġfolios": 23017,
    "esty": 4308,
    "Ġcatching": 9477,
    "Ġbread": 5404,
    "ira": 3959,
    "presented": 12990,
    "mme": 22497,
    "Ġobe": 5800,
    "Ġchoked": 9263,
    "Ġtriumph": 5143,
    "Ġheaving": 7600,
    "Ġsciences": 15942,
    "Ġfounder": 17883,
    "sey": 5543,
    "Ġmale": 9648,
    "umbrance": 22115,
    "structure": 2435,
    "Ġtuning": 3071,
    "Ġtreating": 4286,
    "Ô": 149,
    "Ġconnex": 10665,
    "Ġluckily": 16798,
    "Ġcord": 5222,
    "Ġnormalization": 1242,
    "Ġaust": 4871,
    "af": 2374,
    "Ġorgans": 15863,
    "elve": 4642,
    "if": 376,
    "thodox": 21985,
    "brave": 19822,
    "insensibility": 23066,
    "Ġpinch": 15016,
    "ued": 7561,
    "ominy": 13977,
    "inted": 2650,
    "yset": 21144,
    "Ġdirect": 1474,
    "³": 116,
    "meanwhile": 10609,
    "fro": 8732,
    "Ġmam": 8404,
    "Ġbillow": 14777,
    "Ġhumorous": 10360,
    "Ġmingling": 20196,
    "known": 3567,
    "dig": 4929,
    "Ġforeshadowing": 26592,
    "Ġthanked": 9458,
    "ellations": 21941,
    "mira": 20978,
    "Ġ35": 24074,
    "Ġforgiveness": 16656,
    "Ġlar": 765,
    "Ġexcavating": 23312,
    "Ġapply": 1776,
    "added": 11658,
    "Ġimpulsively": 24880,
    "Ġtimorous": 24225,
    "Ġbirch": 26174,
    "helmsman": 24287,
    "Ġfreshets": 25705,
    "Ġantagonist": 26328,
    "iteous": 14261,
    "Ġstaring": 8824,
    "Ġdeeper": 2084,
    "Ġcircles": 7966,
    "plunging": 25987,
    "Ġequal": 4139,
    "Ġlizard": 12651,
    "lege": 17841,
    "Ġtanning": 17729,
    "arnel": 18124,
    "covered": 11477,
    "slight": 10727,
    "Ġterm": 2267,
    "ellow": 3876,
    "gryphon": 15357,
    "mass": 12487,
    "Ġdeclaring": 19418,
    "âĢľâĢĶ": 10872,
    "Ġblazing": 11894,
    "Ġcharacteristic": 12046,
    "90": 12430,
    "Ġstrasburgh": 18614,
    "Ġelemental": 19918,
    "kins": 7345,
    "stocks": 23817,
    "Ġthoroughly": 8347,
    "Ġinflex": 20633,
    "Ġtearless": 24786,
    "Ġju": 10286,
    "Ġmillion": 14986,
    "Ġnasty": 17442,
    "Ġwhistles": 24624,
    "Ġconsisted": 10419,
    "Ġtotal": 4993,
    "Ġweighty": 16029,
    "Ġsoutherly": 23332,
    "romised": 14111,
    "now": 548,
    "Ġoptimize": 1605,
    "pression": 10407,
    "Ġreleased": 2980,
    "hailed": 17565,
    "fourth": 11328,
    "listened": 15043,
    "Ġboil": 16102,
    "Ġobserved": 3540,
    "Ġbills": 17860,
    "Ġsleeping": 6319,
    "Ġhealthy": 10851,
    "ills": 1632,
    "Ġhumph": 22880,
    "inlaid": 21189,
    "renew": 24450,
    "purpose": 10043,
    "twilight": 23700,
    "Ġbod": 4582,
    "Ġcrept": 11022,
    "Ġintrodu": 1924,
    "Ġexplanation": 6692,
    "raise": 18011,
    "Ġpassage": 3884,
    "Ġforget": 2634,
    "Ġdiagon": 24740,
    "ader": 14011,
    "eer": 15346,
    "Ġproduces": 2094,
    "Ġadmin": 23551,
    "addition": 13383,
    "Ġpagans": 16922,
    "necessity": 13366,
    "whalemen": 10431,
    "Ġwebster": 20160,
    "Ġdefy": 11895,
    "becomes": 22493,
    "Ġrecursive": 4782,
    "Ġcomparative": 10542,
    "ection": 4948,
    "Ġoverhead": 11771,
    "Ġdistinctly": 7311,
    "Ġgospel": 18000,
    "Ġstopped": 5956,
    "rapt": 13972,
    "Ġfeelingly": 22992,
    "increased": 20269,
    "ile": 520,
    "Ġ124": 24469,
    "inguished": 6598,
    "ef": 5134,
    "Ġbrutality": 26276,
    "impenetrable": 26196,
    "heidelburgh": 21210,
    "Ġtr": 554,
    "hess": 4747,
    "Ġleft": 1759,
    "hers": 7635,
    "Ġgreas": 17991,
    "Ġaccustomed": 6861,
    "Ġah": 5075,
    "forget": 11032,
    "Ġbusy": 6189,
    "Ġhearties": 18967,
    "Ġbeginning": 4246,
    "Ġvanishing": 1345,
    "Ġdawned": 14993,
    "Ġshepherd": 14152,
    "Ġpausing": 8652,
    "Ġnorth": 4321,
    "nights": 16448,
    "fes": 20850,
    "recked": 17762,
    "Ġabsurdities": 24878,
    "Ġcease": 7076,
    "Ġfrayed": 23314,
    "promise": 12248,
    "Ġwrist": 8242,
    "Ġhonour": 3924,
    "Ġskiff": 16161,
    "Ġprotesting": 14740,
    "Ġtrepidation": 19214,
    "Ġseconds": 16396,
    "housekeeper": 24100,
    "Ġcaval": 25769,
    "Ġproducts": 5198,
    "repeat": 25151,
    "caves": 20815,
    "Ġsluggish": 25890,
    "Ġbreathes": 13244,
    "Ġinjunction": 19616,
    "Ġappetites": 20205,
    "Ġsquatted": 25841,
    "Ġpleadings": 25852,
    "¹": 122,
    "Ġarab": 7823,
    "Ġnarration": 13503,
    "2": 22,
    "âĢĶâĢĻâĢĿ": 20062,
    "Ġdecayed": 22821,
    "Ġwant": 1120,
    "Ġbully": 23854,
    "Ġcontrasting": 11154,
    "Ġviciously": 24404,
    "Ġdisliked": 12888,
    "ego": 4037,
    "Ġbite": 10797,
    "Ġpitied": 14691,
    "Ġforty": 5719,
    "Ġshops": 21998,
    "staking": 21645,
    "resembling": 25932,
    "Ġastr": 15493,
    "Ġdiscerning": 25002,
    "ultaneous": 18582,
    "iogn": 20920,
    "oken": 4309,
    "gments": 12467,
    "Ġclothes": 4997,
    "uccas": 21105,
    "Ġbeth": 9657,
    "Ġmonument": 16235,
    "Ġgetting": 4067,
    "Ġprehensile": 26534,
    "Ġberm": 21381,
    "Ġmerid": 13192,
    "mannered": 22848,
    "Ġrevolutions": 23838,
    "atics": 15521,
    "achel": 7032,
    "miseries": 16757,
    "Ġbabel": 24426,
    "furnish": 25338,
    "razor": 21634,
    "Ġcommercial": 22671,
    "O": 51,
    "Ġmaximizing": 3168,
    "taste": 10129,
    "calm": 8934,
    "Ġnonsensical": 21526,
    "ation": 320,
    "Ġassertion": 13488,
    "Ġapril": 13661,
    "Ġfiss": 21410,
    "continue": 16861,
    "Ġpresided": 20206,
    "Ġbeale": 12696,
    "wondrous": 12336,
    "clear": 9023,
    "discrimin": 19607,
    "inserted": 18886,
    "prevented": 20372,
    "iosity": 2326,
    "Ġlap": 8436,
    "flatter": 23964,
    "Ġchill": 11750,
    "Ġimpressed": 8198,
    "Ġbarmaid": 19334,
    "proved": 11985,
    "boat": 3358,
    "Ġadapted": 11037,
    "Ġepidemic": 20694,
    "Ġarches": 14160,
    "bureau": 20788,
    "scales": 22989,
    "moral": 14801,
    "complied": 19912,
    "Ġparliament": 18302,
    "rear": 21231,
    "Ġamong": 1670,
    "Ġcart": 11582,
    "Ġdecide": 9285,
    "Ġstrenuously": 17447,
    "Ġexpressions": 7705,
    "formed": 2551,
    "Ġnovelty": 13462,
    "confess": 12173,
    "Ġif": 698,
    "Ġsund": 8248,
    "Ġsain": 17750,
    "Ġcriminal": 7537,
    "ref": 6515,
    "cated": 20802,
    "Ġsubjects": 7072,
    "Ġthickness": 13276,
    "Ġrudder": 25107,
    "====": 1485,
    "buncle": 13691,
    "Ġnearer": 5301,
    "Ġlamented": 24991,
    "Ġjesty": 18405,
    "beaut": 8512,
    "Ġlabelled": 23328,
    "lux": 14226,
    "iastic": 12477,
    "Ġused": 2059,
    "Ġmuster": 16120,
    "Ġtechnical": 17191,
    "Ġyielding": 12184,
    "chains": 9684,
    "howling": 18990,
    "produced": 25414,
    "ational": 5716,
    "Ġspile": 22124,
    "Ġsuspected": 9062,
    "urable": 8922,
    "Ġcoco": 11000,
    "Ġmeadow": 17151,
    "stairs": 5155,
    "amount": 10884,
    "Ġfetching": 16896,
    "forth": 9321,
    "sperm": 5203,
    "Ġwheel": 9717,
    "spot": 9790,
    "Ġordinary": 6096,
    "Ġpolynes": 16077,
    "Ġselection": 18204,
    "Ġundiscernible": 22065,
    "Ġdecipher": 22443,
    "Ġum": 10211,
    "limbs": 20190,
    "Ġshape": 5639,
    "Ġbower": 15564,
    "Ġinteresting": 4327,
    "Ġtoilet": 13936,
    "Ġdirty": 9178,
    "Ġvariants": 1790,
    "Ġasi": 12729,
    "Ġfumbling": 21415,
    "Ġambition": 11432,
    "Ġoblig": 3443,
    "erated": 21270,
    "Ġmout": 17798,
    "landish": 11940,
    "Ġdaft": 19662,
    "Ġt": 261,
    "Ġyour": 632,
    "oul": 4699,
    "Ġfishes": 11590,
    "accomp": 10455,
    "Ġinserting": 19905,
    "Ġbravest": 23837,
    "Ġrib": 4936,
    "Ġomin": 11576,
    "âĢĻ-": 18166,
    "iety": 2817,
    "Ġrecur": 1625,
    "Ġvulgarity": 25363,
    "Ġdefilements": 26284,
    "Ġoccupant": 16651,
    "Ġgeneration": 2195,
    "Ġhushed": 13924,
    "Ġweig": 7618,
    "bee": 16036,
    "Ġsugg": 4501,
    "Ġhurriedly": 11250,
    "Ġexpensive": 12914,
    "Ġdeceitful": 25733,
    "Ġmoritz": 11903,
    "Ġlysander": 13137,
    "Ġcallest": 17832,
    "Ġleads": 12094,
    "indian": 11776,
    "bs": 3749,
    "Ġesq": 15107,
    "ct": 309,
    "Ġbridegroom": 10604,
    "Ġapp": 496,
    "Ġanalogy": 25639,
    "playing": 19656,
    "Ġrunning": 3952,
    "bled": 5469,
    "igning": 12678,
    "Ġunlocking": 20705,
    "exped": 16523,
    "Ġbordered": 24563,
    "oregressive": 3422,
    "stand": 636,
    "Ġprovinces": 24190,
    "â": 163,
    "Ġpeak": 16124,
    "Ġdeadliest": 14556,
    "otle": 21794,
    "Ġrider": 24185,
    "impossible": 8823,
    "Ġcrawford": 24893,
    "Ġstrangely": 5677,
    "Ġstrata": 26027,
    "mmed": 7913,
    "Ġbulkhead": 24511,
    "perform": 15899,
    "Ġcoupled": 16851,
    "iless": 10281,
    "ition": 651,
    "momentum": 4991,
    "Ġinterval": 4055,
    "Ġmisled": 22750,
    "leagues": 21371,
    "Ġimpud": 18445,
    "bourn": 3299,
    "Ġglitter": 25122,
    "¦": 104,
    "Ġlimping": 23544,
    "Ġchorus": 10946,
    "Ġplun": 6281,
    "oso": 12827,
    "Ġbones": 4584,
    "ended": 1833,
    "ga": 17550,
    "Ġtoil": 6531,
    "Ġcomputing": 2218,
    "sam": 21050,
    "Ġinsipid": 26313,
    "Ġdutch": 6327,
    "Ġsepulchre": 20558,
    "Ġcompiled": 22567,
    "Ġinsight": 16528,
    "Ġchanged": 5242,
    "Ġstubbornness": 25380,
    "fanning": 20865,
    "Ġtoilette": 20491,
    "Ġaright": 11738,
    "utral": 12660,
    "Ġseeking": 7035,
    "Ġwides": 17788,
    "clifford": 23155,
    "Ġscrib": 22280,
    "Ġanim": 2113,
    "ĠĠĠĠĠĠĠĠĠĠĠĠĠĠĠĠĠĠĠĠĠĠĠĠĠĠĠĠĠĠĠĠĠĠĠĠĠĠĠĠĠĠĠĠĠĠĠ": 16755,
    "Ġdaint": 15590,
    "Ġperf": 12847,
    "Ġimpossibility": 20646,
    "thunder": 10262,
    "Ġcreation": 6439,
    "Ġcalmly": 7733,
    "Ġfanatic": 23390,
    "Ġstacks": 18074,
    "Ġadro": 15865,
    "Ġestimation": 11218,
    "isher": 2877,
    "Ġhumility": 12981,
    "allowing": 24358,
    "Ġtold": 2183,
    "Ġblaze": 16218,
    "alle": 1293,
    "Ġ96": 24592,
    "Ġmeanwhile": 5736,
    "Ġgeor": 3383,
    "Ġinconvenience": 9563,
    "Ġ107": 24415,
    "Ġcastors": 23973,
    "Ġintentions": 10607,
    "Ġgenerates": 3664,
    "Ġcontinuation": 22914,
    "Ġwont": 9849,
    "unted": 6998,
    "Ġoffic": 3185,
    "Ġextract": 1475,
    "Ġpup": 12616,
    "Ġrig": 4228,
    "Ġpoltroon": 26598,
    "lighter": 20958,
    "bearer": 18521,
    "Ġcareful": 2610,
    "pride": 11210,
    "Ġtartar": 17321,
    "press": 1731,
    "Ġretrieval": 10674,
    "folio": 10546,
    "Ġabhorrent": 16856,
    "mounting": 25207,
    "Ġfield": 1225,
    "onents": 8776,
    "Ġimpress": 6862,
    "Ġstabilizing": 3656,
    "licted": 20955,
    "approach": 24833,
    "Ġsurplus": 26303,
    "biqu": 17497,
    "oop": 10715,
    "Ġpollard": 20384,
    "Ġrepenting": 25322,
    "Ġtenderest": 23548,
    "spread": 8388,
    "solution": 14686,
    "Ġwearer": 21920,
    "Ġcaresses": 26059,
    "gypt": 8260,
    "Ġministers": 22830,
    "mild": 15390,
    "Ġlunacy": 20026,
    "Ġrailway": 15020,
    "deployment": 26527,
    "Ġuntrodden": 23521,
    "Ġelegant": 7532,
    "apering": 8040,
    "Ġpatient": 6895,
    "partiality": 13159,
    "Ġungenerous": 18266,
    "improve": 15709,
    "Ġsegmentation": 17339,
    "Ġvalid": 1741,
    "Ġrepublican": 17411,
    "dw": 3330,
    "rative": 17652,
    "Ġinformation": 1049,
    "Ġpots": 9427,
    "fters": 20860,
    "Ġchurned": 18385,
    "Ġwisdom": 11233,
    "bore": 13685,
    "Ġhovers": 19078,
    "Ġrogue": 22402,
    "ld": 385,
    "contented": 14634,
    "Ġjo": 2607,
    "Ġreminded": 9998,
    "Ġiroqu": 21621,
    "ems": 5235,
    "Ġunheeded": 18261,
    "ige": 12677,
    "Ġanvil": 11596,
    "Ġvale": 14081,
    "asions": 12648,
    "rowing": 7930,
    "then": 2051,
    "inexplicable": 25808,
    "Ġobjectionable": 16991,
    "Ġsnoo": 21227,
    "Ġlocker": 16911,
    "Ġisle": 8832,
    "addressing": 24401,
    "Ġfeelings": 2451,
    "difficult": 10057,
    "reason": 4417,
    "Ġease": 5629,
    "dinner": 11406,
    "Ġoct": 10158,
    "understand": 1165,
    "Ġenumer": 12742,
    "Ġcomes": 3421,
    "dest": 4107,
    "persecut": 22186,
    "Ġshrieked": 9547,
    "Ġambitious": 18514,
    "likely": 9022,
    "Ġintimacy": 8700,
    "Ġboarders": 16600,
    "oping": 5559,
    "Ġcaress": 16338,
    "Ġintimidated": 24805,
    "asional": 17959,
    "Ġmankind": 6698,
    "Ġattributed": 11834,
    "Ġoil": 3369,
    "didn": 9006,
    "Ġinclusive": 24163,
    "Ġconfirmed": 11139,
    "Ġdiscourage": 3114,
    "so": 893,
    "Ġforce": 5092,
    "il": 329,
    "Ġextreme": 2513,
    "tur": 5688,
    "aurus": 20559,
    "singing": 24363,
    "featured": 24133,
    "lest": 5288,
    "Ġwhipcord": 20093,
    "Ġelasticity": 19557,
    "Ġpedro": 14994,
    "Ġembellish": 25849,
    "Ġscre": 9736,
    "iding": 3846,
    "Ġadjust": 2154,
    "Ġsolicit": 22886,
    "Ġcoincidences": 26363,
    "sme": 17658,
    "Ġjoists": 19232,
    "marked": 9048,
    "Ġcheerfulness": 10516,
    "philosop": 9567,
    "ertips": 23638,
    "anelles": 26434,
    "Ġhall": 4188,
    "Ġulster": 14997,
    "Ġphrenologist": 25607,
    "Ġvectors": 1770,
    "Ġsympathised": 14861,
    "belled": 24033,
    "Ġfunere": 22256,
    "Ġpatterns": 1213,
    "Ġgravity": 9247,
    "Ġexerting": 21829,
    "nades": 20996,
    "fearing": 18532,
    "tically": 3389,
    "Ġnought": 21519,
    "clouded": 20330,
    "spirit": 11313,
    "Ġcoroner": 7510,
    "Ġsquires": 16179,
    "Ġ221": 25068,
    "ifiable": 18163,
    "Ġdizzy": 21430,
    "Ġalcoves": 26486,
    "icked": 10332,
    "Ġgratification": 24094,
    "Ġdeserving": 14752,
    "Ġamel": 18510,
    "Ġenjoying": 11234,
    "programming": 10062,
    "Ġappo": 8498,
    "ense": 2050,
    "perpet": 14161,
    "distressed": 24199,
    "breaking": 14763,
    "Ġguess": 4903,
    "Ġclubb": 22345,
    "confirmation": 26089,
    "Ġabridged": 26540,
    "Ġtrousers": 12413,
    "conviction": 19963,
    "sought": 15426,
    "liament": 16216,
    "Ġpassions": 7929,
    "Ġunable": 4951,
    "conjectured": 25181,
    "Ġpig": 5705,
    "Ġlinen": 12405,
    "nostril": 26559,
    "Ġarduous": 26529,
    "classification": 4390,
    "onomy": 12544,
    "comfort": 5647,
    "Ġresolves": 23646,
    "Ġpunctil": 20112,
    "Ġmight": 962,
    "earthquakes": 24725,
    "clut": 23149,
    "umer": 9257,
    "Ġmonotonous": 13262,
    "Ġappear": 2482,
    "ipelag": 12841,
    "Ġtrying": 4838,
    "Ġbushy": 16400,
    "Ġdepend": 788,
    "Ġlordly": 23742,
    "ichron": 22163,
    "social": 11023,
    "Ġstochastic": 3262,
    "Ġblanche": 18819,
    "true": 2583,
    "Ġanecdote": 26354,
    "Ġsounding": 8264,
    "hood": 2660,
    "attentive": 17189,
    "volutions": 16320,
    "Ġheight": 4223,
    "Ġloath": 7890,
    "burned": 25079,
    "telescope": 26562,
    "memory": 13616,
    "nament": 11506,
    "Ġbulge": 23855,
    "Ġindividually": 22954,
    "Ġconn": 9229,
    "sounding": 24796,
    "Ġcongratulate": 9063,
    "Ġgesture": 11399,
    "Ġhus": 3090,
    "crimson": 24098,
    "iance": 5279,
    "Ġbeaches": 18084,
    "ascertaining": 26460,
    "Ġplatonian": 25118,
    "Ġstri": 2802,
    "jam": 15370,
    "Ġghastly": 10059,
    "unhesitatingly": 26496,
    "Ġtribe": 10751,
    "hour": 7340,
    "Ġevent": 2952,
    "truth": 9918,
    "bohem": 19002,
    "Ġapprehens": 5682,
    "clever": 20812,
    "trimmed": 23946,
    "outer": 9668,
    "Ġcr": 2151,
    "thanking": 24330,
    "Ġgun": 4702,
    "Ġoverjoyed": 17457,
    "Ġtamer": 24976,
    "Ġpoorly": 9854,
    "stone": 5089,
    "deck": 4502,
    "received": 9638,
    "oarsman": 25261,
    "Ġmatter": 1733,
    "Ġsmelt": 16063,
    "Ġhumorousness": 25377,
    "vely": 3866,
    "Ġtrump": 8195,
    "Ġpot": 2992,
    "Ġadroop": 26001,
    "Ġflights": 24753,
    "send": 15422,
    "Ġrate": 1065,
    "indifferent": 14211,
    "bastian": 10673,
    "Ġdrowned": 9551,
    "Ġheartily": 6890,
    "Ġgarb": 21600,
    "âĢľâĢĻ": 10221,
    "Ġdeceived": 6544,
    "Ġprincess": 23219,
    "Ġtransition": 14233,
    "Ġstool": 14461,
    "save": 13784,
    "advanced": 19587,
    "Ġcovers": 18596,
    "Ġnursed": 16885,
    "Ġlimp": 19179,
    "duck": 22409,
    "Ġsharkish": 24506,
    "ividual": 5463,
    "Ġdivers": 9665,
    "rix": 1572,
    "Ġinher": 10179,
    "na": 13759,
    "!âĢĿ": 847,
    "Ġ45": 14769,
    "c": 71,
    "Ġengage": 9334,
    "immediate": 20092,
    "erial": 4632,
    "conditionally": 24834,
    "Ġreturns": 11924,
    "remem": 13064,
    "model": 4096,
    "liest": 6294,
    "´": 117,
    "Ġmiss": 1230,
    "illed": 2623,
    "Ġunconsc": 6552,
    "invisible": 17740,
    "Ġrepublic": 14531,
    "westward": 25424,
    "Ġroving": 22400,
    "limin": 8383,
    "Ġunluck": 8484,
    "Ġliberty": 7761,
    "Ġnotion": 7881,
    "grieved": 17316,
    "Ġteaches": 18786,
    "score": 18855,
    "iveness": 2465,
    "Ġdismember": 20214,
    "swiftly": 20550,
    "untary": 9866,
    "probably": 10019,
    "Ġassurance": 7774,
    "Ġchiswick": 25560,
    "Ġacquaintance": 4137,
    "errand": 22907,
    "Ġwinged": 16995,
    "chief": 4645,
    "Ġbass": 17855,
    "Ġimpro": 915,
    "Ġwhitewashed": 14468,
    "aternity": 21264,
    "Ġconsiderable": 4009,
    "aciously": 12904,
    "quered": 11051,
    "Ġimplicated": 24875,
    "Ġcanada": 22160,
    "Ġarch": 941,
    "Ġrespectable": 6736,
    "ogrand": 26261,
    "n": 82,
    "Ġconflagration": 26364,
    "draughts": 20386,
    "resent": 10769,
    "Ġrespects": 7269,
    "medical": 23339,
    "Ġlaborious": 13102,
    "Ġseek": 4510,
    "Ġarr": 1797,
    "Ġannotations": 25954,
    "Ġlabour": 7274,
    "Ġsurf": 19131,
    "residence": 19262,
    "Ġasks": 5115,
    "Ġdesperado": 19818,
    "Ġack": 5622,
    "uttermost": 24940,
    "Ġwrists": 11113,
    "eration": 10772,
    "Ġobstructed": 24677,
    "Ġalternate": 19984,
    "evid": 11484,
    "Ġetc": 7084,
    "Ġtire": 17720,
    "Ġ150": 22822,
    "elastic": 17980,
    "bug": 17492,
    "Ġserenity": 10027,
    "forbid": 14352,
    "does": 6194,
    "Ġchurning": 15935,
    "Ġfishermen": 5970,
    "Ġbreat": 3459,
    "sneezes": 11446,
    "Ġdoubling": 23317,
    "Ġleaves": 5021,
    "deal": 12796,
    "Ġremonstr": 16159,
    "formation": 22218,
    "Ġswart": 14434,
    "Ġcam": 10161,
    "Ġaglow": 22511,
    "Ġunc": 2125,
    "Ġjapan": 7639,
    "induce": 22374,
    "significant": 25082,
    "sicilian": 21062,
    ".)": 6783,
    "cart": 10688,
    "Ġclo": 6042,
    "ified": 3223,
    ".}": 20744,
    "Ġsufficiently": 8973,
    "Ġexacted": 23602,
    "Ġleaving": 3905,
    "Ġwollstonecraft": 26425,
    "Ġdynam": 3326,
    "Ġpresto": 22227,
    "ca": 20792,
    "imately": 12685,
    "theless": 4263,
    "Ġrampart": 20317,
    "Ġh": 290,
    "ained": 3064,
    "Ġclose": 3036,
    "Ġmutinous": 23955,
    "Ġpast": 2099,
    "brace": 16942,
    "fight": 17538,
    "anous": 21357,
    "Ġexcitement": 9380,
    "repugnance": 16864,
    "Ġcurses": 13012,
    "Ġinviting": 19143,
    "Ġcus": 21341,
    "schoolmaster": 15160,
    "Ġunrolled": 22035,
    "º": 123,
    "Ġshoving": 23487,
    "drugg": 20837,
    "ullied": 23101,
    "Ġbulwarks": 5592,
    "Ġtrough": 15968,
    "xi": 17710,
    "Ġapprehending": 26090,
    "Ġcluster": 13570,
    "Ġholes": 16407,
    "keeper": 5597,
    "Ġhurry": 4913,
    "cially": 3489,
    "Ö": 151,
    "Ġinnovative": 1595,
    "infor": 3102,
    "suspicions": 25391,
    "Ġdispositions": 13231,
    "Ġvaulted": 25167,
    "lass": 5992,
    "Ġing": 5283,
    "pumps": 21026,
    "Ġfrozen": 9012,
    "Ġexcepting": 14680,
    "Ġinn": 4591,
    "Ġbidirectional": 3754,
    "Ġdived": 9177,
    "oundering": 11744,
    "ators": 7829,
    "izers": 18142,
    "Ġassistance": 6333,
    "cest": 12442,
    "Ġexal": 10877,
    "Ġvessel": 3798,
    "Ġhopeful": 19028,
    "Ġglaring": 11905,
    "Ġillustrative": 25066,
    "Ġcompanion": 3643,
    "Ġsteadfastly": 10651,
    "reach": 17757,
    "baked": 20778,
    "pair": 21011,
    "Ġno": 511,
    "Ġ177": 13411,
    "Ġpoisonous": 24887,
    "Ġbeaver": 18085,
    "Ġexpansion": 22621,
    "cheon": 23801,
    "respond": 12541,
    "Ġscores": 2715,
    "Ġdaintiest": 25953,
    "gaffman": 26390,
    "sper": 4437,
    "Ġheeds": 24520,
    "Ġunusually": 15844,
    "Ġappeal": 16313,
    "Ġopenshaw": 7954,
    "Ġratt": 7880,
    "Ġrendering": 16657,
    "akened": 7415,
    "Ġconvivial": 16548,
    "ffy": 18316,
    "mp": 3726,
    "Ġfalse": 4346,
    "Ġimper": 4503,
    "3": 23,
    "properly": 24918,
    "Ġbelonged": 6922,
    "Ġindicated": 10469,
    "etus": 21575,
    "ren": 549,
    "ack": 614,
    "otes": 15741,
    "ength": 2311,
    "grat": 5052,
    "Ġquietude": 19358,
    "Ġsmack": 9299,
    "Ġrush": 5924,
    "Ġnorm": 763,
    "Ġwheeling": 18288,
    "Ġbeheaded": 11655,
    "imly": 12684,
    "xology": 21140,
    "zek": 16269,
    "onsible": 22558,
    "decoder": 3644,
    "Ġhatch": 7847,
    "Ġbosoms": 16795,
    "Ġspears": 12921,
    "ores": 2410,
    "illating": 22104,
    "Ġnodded": 11968,
    "Ġmur": 2486,
    "Ġdynamic": 5124,
    "Ġstore": 8453,
    "Ġsailing": 5323,
    "accomplishments": 25326,
    "arial": 5532,
    "Ġ21": 11199,
    "thousands": 16872,
    "Ġorlop": 22090,
    "hastened": 16845,
    "Ġmes": 17796,
    "hatherley": 17568,
    "Ġinward": 11606,
    "Ġ119": 24441,
    "Ġcontaining": 2230,
    "passage": 11261,
    "fore": 687,
    "scoured": 22988,
    "Ġoutrid": 22312,
    "Ġplow": 21457,
    "Ġirreduc": 5491,
    "Ġdard": 21420,
    "Ġprincely": 24148,
    "charlotte": 6473,
    "Ġmosses": 20162,
    "Ġhatches": 12043,
    "Ġreproof": 24890,
    "Ġcou": 5286,
    "Ġany": 688,
    "Ġarchly": 22777,
    "Ġdaughters": 4424,
    "Ġworth": 4419,
    "ration": 2003,
    "proof": 16422,
    "Ġringleader": 26212,
    "agra": 14065,
    "Ġglasses": 9474,
    "Ġbooks": 4676,
    "Ġpequod": 2321,
    "sledge": 21056,
    "itage": 17816,
    "ssip": 14079,
    "enjoyment": 17257,
    "Ġstruggles": 16578,
    "Ġconsequent": 18110,
    "Ġoper": 2121,
    "Ġgain": 4827,
    "onds": 12993,
    "Ġabsorb": 25112,
    "stayed": 25290,
    "utch": 21583,
    "Ġsmiting": 12895,
    "ampling": 12723,
    "Ġparcel": 15198,
    "Ġfundament": 2927,
    "anzas": 17840,
    "Ġvig": 5460,
    "mbles": 23085,
    "Ġcringed": 25942,
    "Ġmexic": 14031,
    "Ġapologizing": 25197,
    "arent": 4252,
    "starbuck": 6018,
    "ss": 397,
    "Ġquar": 3111,
    "crazy": 24691,
    "Ġnaturalist": 22883,
    "Ġagrippa": 11805,
    "Ġmantel": 11439,
    "dred": 2525,
    "Ġcusack": 26433,
    "bons": 17486,
    "Ġcurves": 18847,
    "Ġaccomplishment": 19664,
    "oof": 15404,
    "Ġenvy": 13201,
    "humanity": 24839,
    "Ġstudents": 23233,
    "Ġsnatches": 16544,
    "Ġbeheld": 4494,
    "wanted": 10743,
    "Ġgard": 2188,
    "Ġfrenz": 25446,
    "--âĢĺ": 22843,
    "exceed": 7910,
    "pard": 9618,
    "Ġcounty": 9030,
    "riors": 18182,
    "Ġkinds": 14503,
    "lop": 20947,
    "Ġhymn": 24518,
    "Ġpulse": 13113,
    "atching": 8201,
    "immed": 9217,
    "Ġplaited": 14282,
    "Ġpropensity": 18997,
    "presbyter": 20616,
    "quently": 9701,
    "Ġgrope": 17994,
    "Ġlikes": 9407,
    "Ġinscrut": 10033,
    "Ġdissect": 16051,
    "Ġcru": 2822,
    "Ġwarn": 5695,
    "Ġsank": 5076,
    "85": 13680,
    "dish": 12450,
    "ĠĠĠĠĠĠĠĠĠĠĠĠĠĠĠĠĠĠĠĠĠĠĠĠĠĠĠĠĠĠĠĠĠĠĠĠĠĠĠĠĠĠĠĠĠ": 9951,
    "because": 4923,
    "adays": 14012,
    "Ġtherefore": 2238,
    "uberance": 25916,
    "dings": 2233,
    "chers": 11317,
    "Ġconcent": 8249,
    "hval": 20897,
    "Ġamuse": 5939,
    "Ġvacancies": 24345,
    "Ġconfines": 23302,
    "Ġindiscriminately": 20626,
    "irene": 15915,
    "Ġcorp": 5574,
    "appalled": 18761,
    "Ġmem": 2069,
    "fact": 6358,
    "poling": 12217,
    "beneath": 9534,
    "Ġfrock": 10489,
    "Ġskulls": 12956,
    "Ġbroods": 23099,
    "Ġfamous": 5255,
    "Ġbestowed": 6593,
    "foam": 24418,
    "Ġdropping": 7483,
    "Ġplaid": 22597,
    "Ġmiz": 10777,
    "autumn": 23341,
    "hast": 5357,
    "isle": 13891,
    "Ġsleepers": 13148,
    "miraculous": 26396,
    "ighb": 10423,
    "Ġcraven": 16469,
    "Ġjackets": 19601,
    "discredit": 24250,
    "customary": 25895,
    "gird": 20878,
    "Ġmeal": 9696,
    "Ġslang": 23157,
    "Ġuncles": 23429,
    "quee": 4134,
    "glings": 23849,
    "Â": 131,
    "Ġbend": 9170,
    "arying": 9800,
    "Ġgover": 2459,
    "Ġlovers": 9719,
    "Ġclue": 7019,
    "Ġunsuccessful": 18257,
    "Ġdifficulties": 11225,
    "Ġchoice": 2164,
    "Ġprec": 2919,
    "lar": 4485,
    "Ġcontempt": 6275,
    "merchant": 10467,
    "Ġgracefully": 13390,
    "uel": 6966,
    "going": 6313,
    "Ġwantonly": 22892,
    "Ġanoint": 25537,
    "Ġexaggerated": 25650,
    "Ġencoder": 3635,
    "Ġsite": 17753,
    "ees": 13710,
    "Ġclergy": 7642,
    "riet": 18179,
    "isome": 17848,
    "often": 6165,
    "Ġobed": 8535,
    "idence": 4304,
    "ations": 711,
    "cords": 25136,
    "Ġventured": 7501,
    "Ġlonged": 6436,
    "immediately": 10048,
    "Ġcheapside": 23285,
    "Ġcounterbalance": 24722,
    "Ġendless": 7053,
    "Ġgone": 2107,
    "steering": 16635,
    "Ġbeadle": 26484,
    "shells": 26056,
    "Ġmisfortune": 5569,
    "Ġplu": 8798,
    "Ġcheerful": 6621,
    "Ġarmchair": 8270,
    "Ġendured": 6072,
    "Ġyankees": 26201,
    "Ġcordially": 16836,
    "Ġscreamed": 9523,
    "eagerly": 17315,
    "Ġfinery": 23124,
    "beg": 22484,
    "E": 41,
    "involuntarily": 20413,
    "berries": 22721,
    "Ġleave": 2455,
    "Ġbolts": 16943,
    "Ġnearing": 15793,
    "Ġunion": 6839,
    "incredible": 16497,
    "gang": 17553,
    "confidential": 25876,
    "pshaw": 21027,
    "Ġap": 5008,
    "Ġwolves": 25934,
    "interference": 23736,
    "aught": 2682,
    "Ġ103": 24411,
    "Ġcollections": 22852,
    "boy": 4738,
    "penn": 18826,
    "Ġhollowly": 24526,
    "Ġgable": 15664,
    "ory": 1082,
    "Ġlaboratory": 13611,
    "Ġoaks": 16933,
    "azore": 23461,
    "Ġdelighted": 5499,
    "Ġdrink": 4787,
    "Ġcomfortless": 23910,
    "Ġprecise": 7075,
    "Ġsensitivity": 3068,
    "ersman": 11700,
    "Ġseam": 3909,
    "Ġgoble": 14229,
    "merely": 16132,
    "Ġdowry": 20684,
    "Ġmississ": 18838,
    "Ġmadman": 13150,
    "ener": 561,
    "relieved": 13275,
    "elephant": 12349,
    "Ġpushing": 10819,
    "ledyard": 22379,
    "Ġspatial": 2730,
    "Ġplayfully": 19238,
    "Ġeven": 1028,
    "Ġazores": 20192,
    "iminished": 19020,
    "abated": 14019,
    "Ġtrusted": 10517,
    "appearance": 5333,
    "Ġexper": 1304,
    "Ġflower": 16230,
    "Ġhold": 2242,
    "forgot": 11033,
    "Ġnoteworthy": 24162,
    "Ġhy": 5625,
    "couldn": 23715,
    "canallers": 22961,
    "rential": 22915,
    "incom": 21180,
    "corrob": 24485,
    "Ġrats": 21973,
    "ipagos": 22363,
    "Ġcrash": 12000,
    "Ġsteamer": 17188,
    "Ġgenteel": 19979,
    "Ġretarded": 23069,
    "Ġgoring": 21601,
    "Ġlabrador": 23329,
    "Ġdivergence": 2728,
    "Ġdeaf": 12718,
    "ided": 2783,
    "onday": 6063,
    "Ġsat": 1132,
    "abode": 21788,
    "Ġhamp": 12627,
    "Ġoath": 7833,
    "Ġrevers": 21661,
    "vo": 11539,
    "ard": 465,
    "Ġminiature": 11040,
    "distraction": 24200,
    "Ġdisappo": 4507,
    "granting": 23412,
    "venty": 6427,
    "Ġfriendless": 23022,
    "Ġandromeda": 21505,
    "Ġstraightened": 12106,
    "Ġbrushed": 15568,
    "Ġkramm": 26233,
    "Ġofficer": 6753,
    "Ġlounged": 19952,
    "Ġpitch": 5767,
    "Ġlengths": 19205,
    "Ġdestined": 7973,
    "Ġuneasiness": 9483,
    "town": 7142,
    "Ġtreatise": 19343,
    "Ġstru": 2169,
    "stood": 4120,
    "porary": 14552,
    "hotel": 20048,
    "Ġtool": 21508,
    "laborers": 23913,
    "Ġdetached": 10279,
    "Ġautom": 3596,
    "Ġtip": 15470,
    "Ġpent": 17903,
    "Ġtaught": 6803,
    "Ġprayed": 16667,
    "ĠĠĠĠĠĠĠĠĠĠĠĠĠĠĠĠĠĠĠĠĠĠĠĠĠĠĠĠĠĠĠĠĠĠĠĠĠĠĠĠĠĠĠĠĠĠĠĠĠĠĠĠĠĠĠĠĠĠĠĠ": 19259,
    "Ġshould": 865,
    "Ġjoyously": 19345,
    "cess": 534,
    "Ġillustrious": 17109,
    "Ġinhabitant": 19754,
    "wall": 10136,
    "Ġcompliment": 5673,
    "Ġjudging": 16595,
    "Ġmarks": 6746,
    "Ġbest": 1974,
    "Ġbroiled": 18908,
    "Ġconceived": 8149,
    "utter": 7593,
    "icts": 22398,
    "om": 315,
    "Ġliberated": 19665,
    "Ġcolumb": 22851,
    "justified": 19003,
    "Ġbrood": 23097,
    "Ġphilosopher": 12181,
    "inction": 6660,
    "Ġpresentation": 14480,
    "Ġblemish": 19678,
    "Ġhighness": 22769,
    "Ġplucked": 15112,
    "Ġprime": 10404,
    "Ġpreserved": 9261,
    "dissatisf": 26129,
    "Ġhampshire": 15241,
    "lection": 3652,
    "Ġpitches": 23899,
    "Ġinputs": 843,
    "Ġbequeathed": 20700,
    "ribbed": 16411,
    "Ġmute": 19414,
    "Ġshag": 9250,
    "design": 18958,
    "Ġsuperlative": 26074,
    "Ġscuff": 15940,
    "Ġretribution": 16279,
    "Ġro": 596,
    "continued": 8675,
    "Ġjack": 4653,
    "meat": 18678,
    "smoke": 17222,
    "ounding": 22389,
    "Ġpassengers": 13674,
    "tallow": 21084,
    "Ġregard": 3066,
    "Ġimpelled": 11780,
    "Ġbanking": 19629,
    "Ġincredulous": 9986,
    "Ġenergy": 2549,
    "saddest": 25527,
    "Ġagony": 5388,
    "dancing": 12452,
    "ĠĠĠĠĠĠĠĠĠĠĠĠĠĠĠĠĠĠĠĠĠĠĠĠĠĠĠĠĠĠĠĠĠĠĠĠĠĠĠĠĠĠĠĠĠĠĠĠĠ": 20036,
    "ulation": 5458,
    "front": 12168,
    "oding": 1464,
    "Ġencountered": 8321,
    "pressed": 6587,
    "Ġsou": 1886,
    "Ġlou": 6822,
    "Ġmember": 8585,
    "err": 1141,
    "hunted": 16832,
    "Ġproposals": 10613,
    "Ġquestion": 2776,
    "Ġperhaps": 1911,
    "Ġthrows": 14736,
    "Ġloungers": 24862,
    "chari": 21686,
    "Ġprobed": 18732,
    "Ġlabor": 10418,
    "Ġerr": 1321,
    "clu": 20798,
    "Ġconstitutes": 13551,
    "Ġstatue": 23147,
    "feature": 4165,
    "Ġkitchen": 8495,
    "Ġstructures": 2720,
    "Ġdespised": 14666,
    "Ġits": 706,
    "Ġlucases": 9009,
    "Ġstated": 9688,
    "Ġconcisely": 19044,
    "Ġvouch": 15807,
    "Ġtormented": 8674,
    "uction": 15442,
    "Ġsailor": 3535,
    "Ġterms": 2559,
    "quarried": 24945,
    "Ġdiminished": 16665,
    "majesty": 26280,
    "Ġjacobians": 2893,
    "Ġproportion": 7281,
    "pad": 13767,
    "Ġflu": 3274,
    "Ġliar": 22405,
    "Ġnantucket": 2836,
    "sor": 7352,
    "Ġget": 1626,
    "animation": 16979,
    "----âĢĻ": 24095,
    "Ġfashion": 4300,
    "Ġperson": 2367,
    "Ġnailing": 21524,
    "Ġarcher": 22181,
    "hemat": 3127,
    "Ġcustoms": 19651,
    "ubines": 22956,
    "arising": 17895,
    "Ġspokes": 18313,
    "Ġloves": 10915,
    "contempl": 13188,
    "bra": 6219,
    "Ġenlar": 15798,
    "Ġcompat": 2939,
    "Ġourselves": 5127,
    "Ġgowns": 25359,
    "Ġpacing": 8425,
    "Ġrapturously": 24888,
    "Ġplight": 14280,
    "dropped": 12260,
    "Ġfabulous": 25948,
    "Ġirrevocably": 15296,
    "Ġalso": 1343,
    "Ġplague": 11822,
    "Ġdive": 10172,
    "acency": 12905,
    "absence": 12705,
    "winds": 10521,
    "Ġcostume": 16494,
    "Ġshoved": 23488,
    "Ġshutters": 9936,
    "Ġ25": 13191,
    "id": 338,
    "Ġmut": 3581,
    "Ġrepetition": 8972,
    "Ġast": 2962,
    "Ġachieves": 4381,
    "rown": 2190,
    "sweetly": 25134,
    "#": 7,
    "Ġmuhammad": 26169,
    "reas": 990,
    "Ġassociates": 24712,
    "Ġcongenial": 12409,
    "Ġactivity": 7919,
    "at": 268,
    "fitters": 24761,
    ";--": 8068,
    "Ġstair": 8455,
    "Ġroll": 5381,
    "Ġpersu": 3562,
    "Ġtener": 21162,
    "Ġplug": 17147,
    "riages": 10242,
    "beat": 10986,
    "cription": 20817,
    "Ġstupendous": 20499,
    "Ġobeisance": 19757,
    "Ġlod": 4044,
    "Ġrambling": 18643,
    "wont": 21131,
    "inions": 8401,
    "Ġbressed": 21385,
    "Ġcoin": 9770,
    "Ġedinburgh": 16435,
    "Ġuttermost": 19486,
    "Ġwhispers": 14699,
    "returns": 23135,
    "terror": 18128,
    "clergyman": 20728,
    "rive": 9706,
    "Ġdandy": 17892,
    "oquent": 12497,
    "Ġswiftness": 9926,
    "hever": 13830,
    "Ġerie": 20052,
    "Ġborne": 6351,
    "Ġunscrew": 22037,
    "trouble": 8295,
    "Ġburnwell": 13267,
    "impressed": 12688,
    "Ġchip": 12822,
    "Ġcalms": 23038,
    "Ġthousandth": 23679,
    "Ġpretext": 22226,
    "Ġjudges": 14685,
    "bone": 5612,
    "ribution": 14302,
    "Ġwithdra": 6398,
    "racts": 14353,
    "Ġvent": 4000,
    "Ġcasting": 12098,
    "Ġneedle": 8274,
    "execution": 20470,
    "torture": 26151,
    "Ġespecially": 3937,
    "Ġblotting": 25313,
    "Ġintent": 6409,
    "hmael": 7342,
    "stirring": 20424,
    "Ġfris": 23253,
    "Ġapplying": 13090,
    "grammar": 6435,
    "Ġbecause": 2208,
    "Ġcompany": 3720,
    "queen": 12724,
    "Ġbalance": 2019,
    "surv": 24213,
    "ried": 926,
    "q": 85,
    "stump": 21650,
    "abash": 18107,
    "raltar": 24233,
    "assed": 6421,
    "Ġallies": 18234,
    "kindness": 10505,
    "eye": 6224,
    "isting": 5551,
    "Ġworkflow": 2521,
    "luxur": 25822,
    "Ġmuttering": 10499,
    "Ġwitt": 17783,
    "erns": 8777,
    "Ġdarcy": 1342,
    "Ã": 132,
    "ogr": 18670,
    "Ġsad": 3867,
    "Ġphaeton": 17464,
    "Ġrightly": 13062,
    "ashion": 3858,
    "!âĢĶâĢĻ": 23564,
    "Ġcondescension": 10618,
    "Ġornaments": 17451,
    "obvious": 9356,
    "Ġcreatures": 4141,
    "Ġfrench": 4939,
    "Ġthinkings": 22807,
    "gish": 20872,
    "Ġrecent": 7435,
    "ī": 236,
    "Ġbounded": 16626,
    "oms": 4594,
    "Ġexcept": 3309,
    "Ġcomplaint": 24776,
    "Ġcubs": 20085,
    "Ġemb": 1263,
    "Ġrestrained": 16371,
    "Ġwax": 10776,
    "official": 24914,
    "Ġworshipping": 22925,
    "Ġsuperiority": 14617,
    "Ġstops": 3165,
    "Ġpapered": 20129,
    "connected": 1309,
    "precipitance": 25867,
    "early": 20117,
    "thus": 5158,
    "maybe": 23988,
    "Ġconsternation": 9858,
    "Ġarm": 2490,
    "problem": 25244,
    "sings": 4254,
    "iliar": 15711,
    "Ġdebated": 9040,
    "Ġgreenland": 5761,
    "ĠĠĠĠĠĠĠĠĠĠĠĠĠĠĠĠĠĠĠ": 22947,
    "grampus": 18617,
    "insurance": 18887,
    "Ġ40": 14767,
    "Ġrepairing": 25589,
    "Ġwhat": 600,
    "Ġmurder": 4283,
    "city": 15326,
    "joined": 13274,
    "bott": 9105,
    "Ġheavier": 13100,
    "library": 12996,
    "Ġpride": 3823,
    "prob": 7069,
    "Ġdoes": 943,
    "Ġincreasingly": 9370,
    "atiate": 12545,
    "dimly": 15345,
    "Ġmizen": 17258,
    "ities": 1825,
    "Ġequalled": 13311,
    "knew": 9126,
    "Ġconfident": 11138,
    "Ġfondly": 19615,
    "ong": 538,
    "capt": 3836,
    "blo": 6353,
    "skill": 24487,
    "Ġdesigns": 13009,
    "Ġ73": 24260,
    "maker": 12490,
    "Ġhindoo": 17175,
    "Ġwriters": 13542,
    "Ġintimately": 24804,
    "goldsmith": 20146,
    "Ġfluke": 14673,
    "Ġsabbath": 17254,
    "Ġar": 480,
    "mouthed": 12398,
    "relig": 15511,
    "Ġbled": 17856,
    "Ġinsane": 19268,
    "Ġpane": 21461,
    "Ġbru": 13894,
    "Ġreplay": 5047,
    "Ġeldest": 6571,
    "roll": 9196,
    "Ġmeasured": 9803,
    "athered": 6972,
    "Ġorganization": 7983,
    "shabb": 18495,
    "Ġbrief": 6976,
    "Ġender": 11689,
    "Ġunwe": 15836,
    "s": 87,
    "Ġswore": 10378,
    "power": 7136,
    "pered": 4201,
    "immense": 18052,
    "Ġnumerical": 4248,
    "Ġfireplace": 13144,
    "replied": 11565,
    "peril": 18343,
    "iliary": 21723,
    "suddenly": 6493,
    "Ġinterruptions": 24186,
    "Ġlust": 9197,
    ":--": 5784,
    "spirited": 19752,
    "pipe": 8696,
    "nephew": 26397,
    "Ġklan": 23658,
    "rating": 7808,
    "Ġtwitched": 20442,
    "wr": 3028,
    "confined": 24332,
    "unavoid": 14061,
    "Ġrecommending": 24337,
    "Ġspir": 2425,
    "Ġmanifold": 13559,
    "jephro": 26392,
    "Ġwronged": 24247,
    "opy": 4460,
    "Ġpads": 21472,
    "Ġfoul": 7159,
    "break": 6101,
    "apping": 5851,
    "Ġoriginal": 6102,
    "Ġcongregational": 25102,
    "Ġann": 4491,
    "Ġdecisions": 6702,
    "Ġsharp": 2411,
    "Ġtechniques": 2865,
    "Ġsubsided": 14550,
    "enges": 13051,
    "ignorantly": 25189,
    "Ġbreaking": 6310,
    "Ġcompanionship": 14919,
    "Ġutmost": 5496,
    "Ġdeposed": 16085,
    "Ġmolasses": 25628,
    "Ġcronies": 23441,
    "teous": 16170,
    "Ġearned": 19403,
    "Ġcloudy": 19475,
    "Ġvoluntary": 14798,
    "etime": 12656,
    "superiority": 20184,
    "Ġpoints": 5247,
    "Ġtheirs": 7024,
    "Ġejaculation": 20253,
    "hampshire": 23262,
    "elfare": 11775,
    "Ġhunted": 7453,
    "Ġamphitheat": 26252,
    "Ġrebounds": 25967,
    "Ġaustral": 12170,
    "Ġadvocate": 13675,
    "Ġnorthern": 7265,
    "Ġspiral": 14584,
    "Ġfoundering": 21417,
    "island": 10794,
    "Ġconcise": 23320,
    "asher": 15643,
    "Ġconcrete": 20635,
    "Ġnights": 7258,
    "Ġther": 17778,
    "+": 15,
    "Ġpreprocess": 22230,
    "Ġoverwrites": 5033,
    "Ġmamma": 10047,
    "Ġdungeon": 16996,
    "Ġtalent": 12295,
    "pine": 13768,
    "aloes": 21499,
    "ograph": 4797,
    "Ġsmith": 16062,
    "Ġundet": 16704,
    "Ġcauses": 2558,
    "Ġdeactivates": 20702,
    "Ġgaining": 9491,
    "Ġpause": 5707,
    "Ġcens": 8412,
    "fare": 7798,
    "Ġcried": 1491,
    "Ġcott": 3708,
    "tan": 4742,
    "Ġsmitten": 12896,
    "Ġemerging": 24612,
    "era": 13846,
    "Ġfierc": 18710,
    "Ġextort": 22716,
    "Ġviolence": 5962,
    "Ġsustaining": 25333,
    "Ġcommunity": 19009,
    "pede": 19843,
    "Ġjohnson": 18409,
    "Ġgene": 15669,
    "Ġalter": 6542,
    "Ġrev": 6988,
    "Ġdemo": 10879,
    "Ġdifferences": 18714,
    "Ġbumpkins": 25281,
    "astrop": 3312,
    "Ġcuriosities": 26288,
    "Ġcombing": 22855,
    "Ġprofoundly": 16859,
    "Ġnephews": 24714,
    "barr": 15319,
    "Ġboarded": 13232,
    "Ġsplendour": 20223,
    "Ġjanuary": 13652,
    "Ġhoars": 19077,
    "derness": 11736,
    "Ġcapt": 1291,
    "Ġraving": 16111,
    "pronouncing": 25193,
    "Ġturnkeys": 23026,
    "Ġsakes": 18326,
    "Ġincome": 7916,
    "Ġperennial": 22691,
    "Ġpalms": 8643,
    "Ġsuccor": 25662,
    "Ġjerked": 19831,
    "Ġrandom": 1586,
    "Ġrefreshment": 17239,
    "Ġgerm": 13963,
    "ĠcÃ¦sar": 20578,
    "Ġinconven": 7586,
    "died": 10693,
    "spirits": 8054,
    "Ġtoss": 10184,
    "Ġliber": 5168,
    "Ġlose": 5028,
    "Ġnumbers": 2887,
    "corpse": 24486,
    "Ġpretending": 19314,
    "gd": 3123,
    "aken": 1868,
    "Ġweltering": 19584,
    "Ġflashed": 11912,
    "Ġexempl": 21827,
    "Ġcrews": 8990,
    "hurt": 19877,
    "Ġdrawled": 23986,
    "Ġcomparable": 24278,
    "orts": 2552,
    "Ġrequest": 6050,
    "Ġdefection": 22939,
    "Ġunmanner": 22026,
    "Ġitself": 2519,
    "anite": 17837,
    "asper": 7854,
    "sincere": 16907,
    "Ġbohemia": 10649,
    "rep": 5525,
    "Ġpillar": 21471,
    "Ġgranting": 18736,
    "knows": 19171,
    "shape": 10983,
    "engagements": 25853,
    "yard": 5899,
    "riv": 3107,
    "courageous": 26127,
    "Ġfig": 3624,
    "yd": 21141,
    "Ġapplicable": 18996,
    "Ġsupply": 6066,
    "istered": 14144,
    "Ġbent": 5149,
    "Ġunflinching": 26512,
    "Ġname": 2083,
    "boil": 19000,
    "Ġinf": 1755,
    "Ġwalking": 4326,
    "Ġheadlands": 22895,
    "Ġorphans": 20203,
    "kicked": 20942,
    "Ġfrig": 13079,
    "Ġtop": 2469,
    "Ġsex": 8841,
    "âĢĻâĢĶ": 12733,
    "Ġfro": 3470,
    "Ġfamiliar": 5511,
    "Ġparr": 22116,
    "avish": 22591,
    "Ġkiss": 8182,
    "Ġopulent": 23627,
    "those": 4497,
    "Ġjura": 14192,
    "brill": 16490,
    "accompan": 11452,
    "catherine": 7127,
    "Ġde": 364,
    "Ġrocking": 10969,
    "Ġweedy": 15790,
    "uine": 13798,
    "Ġstony": 21736,
    "Ġdragon": 14943,
    "Ġundivided": 24120,
    "arranted": 19319,
    "Ġadmirer": 16838,
    "Ġemployment": 8628,
    "Ġincarn": 11812,
    "arthur": 14829,
    "retch": 4373,
    "Ġwin": 9641,
    "ex": 623,
    "uneasiness": 23682,
    "Ġsink": 4343,
    "sheet": 16283,
    "Ġfeverish": 11348,
    "fishermen": 17061,
    "Ġalarm": 4049,
    "Ġstur": 15714,
    "Ġpepper": 9780,
    "neck": 14234,
    "Ġcoincidence": 25483,
    "Ġsustenance": 19932,
    "scence": 14416,
    "ning": 949,
    "Ġheroines": 19750,
    "Ġencoding": 4774,
    "overcoat": 19051,
    "charm": 13989,
    "ssian": 3396,
    "be": 670,
    "Ġsteed": 13037,
    "inea": 7622,
    "Ġgreatest": 4095,
    "Ġfamine": 16325,
    "Ġrewards": 10848,
    "Ġwinking": 17793,
    "Ġevening": 2653,
    "Ġ95": 19772,
    "Ġpublicly": 13321,
    "Ġcounteracted": 19861,
    "heav": 5694,
    "appo": 3915,
    "Ġthrilling": 19747,
    "Ġrash": 10898,
    "fold": 7546,
    "Ġschol": 17376,
    "Ġsemicirc": 16391,
    "Ġdriven": 6198,
    "Ġlangs": 13953,
    "particip": 23615,
    "ity": 416,
    "Ġshouts": 19536,
    "Ġdecanter": 22441,
    "Ġimparts": 18446,
    "Ġcream": 22723,
    "Ġhovered": 12628,
    "cork": 20795,
    "Ġprescribed": 26010,
    "Ġinvariably": 8063,
    "Ġungod": 22021,
    "civilities": 24971,
    "Ġunsatisfied": 22041,
    "Ġnavigators": 19762,
    "Ġanalog": 12609,
    "made": 4808,
    "Ġeyford": 10641,
    "Ġjob": 7015,
    "please": 8176,
    "Ġaqu": 17742,
    "Ġincognita": 26551,
    "Ġcushion": 17833,
    "Ġbarely": 16936,
    "agation": 1256,
    "hors": 9598,
    "Ġlapl": 19776,
    "centred": 25017,
    "iod": 3839,
    "Ġoutlandish": 12835,
    "studies": 25166,
    "Ġempt": 5051,
    "Ġbranches": 6776,
    "sake": 13782,
    "Ġ16": 7926,
    "Ġmaking": 1778,
    "itchen": 7787,
    "Ġyoun": 1407,
    "Ġjoined": 4565,
    "Ġmutter": 23951,
    "commission": 22824,
    "Ġlan": 5820,
    "Ġjolly": 6858,
    "iverse": 13114,
    "Ġ12": 5483,
    "ĉ": 202,
    "Ġeventually": 8616,
    "antically": 22093,
    "Ġporthole": 24399,
    "Ġven": 4648,
    "Ġmothers": 14540,
    "mouthful": 25208,
    "Ġqueequeg": 2011,
    "creatures": 7517,
    "wers": 12517,
    "Ġsne": 6372,
    "Ġable": 3079,
    "Ġtis": 15464,
    "Ġsurv": 6081,
    "Ġreeling": 18032,
    "Ġdif": 871,
    "Ġexpect": 2304,
    "Ġbridge": 8348,
    "iac": 6225,
    "kne": 20934,
    "adler": 21759,
    "Ġartist": 12909,
    "Ġflooded": 24959,
    "ice": 590,
    "ellent": 3760,
    "u": 89,
    "Ġtearing": 14385,
    "Ġboth": 1658,
    "Ġconcert": 11965,
    "Ġaccuracy": 1056,
    "hester": 9631,
    "pedest": 24695,
    "explain": 1484,
    "breath": 15161,
    "egyptians": 25898,
    "Ġtide": 6658,
    "Ġsax": 10929,
    "Ġjoke": 8868,
    "m": 81,
    "Ġhyper": 19738,
    "Ġloc": 10914,
    "Ġ71": 24259,
    "Ġnoise": 1071,
    "headsman": 16700,
    "Ġfoundation": 4235,
    "Ġcomprehension": 15085,
    "adequate": 15202,
    "ateral": 19375,
    "Ġtus": 10749,
    "conjectures": 25180,
    "lung": 17591,
    "Ġhers": 7888,
    "Ġadvise": 7933,
    "Ġimpending": 22382,
    "Ġpersuade": 5872,
    "Ġrepresented": 8938,
    "Ġsorely": 17256,
    "Ġas": 374,
    "Ġpass": 1041,
    "Ġopal": 23624,
    "Ġmask": 1865,
    "Ġrefer": 18690,
    "Ġexponential": 1060,
    "masts": 19423,
    "Ġprotracted": 19467,
    "Ġbraw": 23831,
    "jac": 8381,
    "Ġdevout": 14325,
    "Ġnar": 7375,
    "Ġdestroy": 5772,
    "Ġabode": 7899,
    "Ġpush": 9184,
    "Ġduc": 4697,
    "Ġtortures": 14922,
    "Ġexcessively": 9439,
    "Ġloitering": 22113,
    "Ġindomit": 22952,
    "Ġunjustifiable": 25109,
    "harpooneer": 8688,
    "elstrom": 17981,
    "Ġcountenances": 11963,
    "possess": 5983,
    "Ġhorror": 3771,
    "Ġliterary": 25162,
    "rugged": 6849,
    "Ġbagging": 24539,
    "Ġwaned": 17791,
    "Ġsubst": 4276,
    "mir": 20962,
    "asible": 21539,
    "Ġeating": 8135,
    "oried": 10802,
    "doub": 6223,
    "Ġdivision": 19442,
    "amid": 12721,
    "Ġspeaks": 11159,
    "Ġattached": 5392,
    "Ġinconvenient": 20008,
    "Ġsenseless": 12076,
    "Ġdone": 1816,
    "abulary": 4800,
    "thankful": 16806,
    "Ġmusical": 23891,
    "Ġcheering": 11133,
    "raham": 18013,
    "philips": 20033,
    "Ġmarred": 23029,
    "Ġchaise": 9076,
    "Ġlat": 5087,
    "aux": 14287,
    "ff": 461,
    "aby": 18106,
    "Ġbraces": 14669,
    "Ġhip": 17920,
    "Ġcop": 7579,
    "phantoms": 24679,
    "Ġsneer": 13446,
    "Ġtrifles": 16951,
    "Ġost": 9649,
    "promising": 24726,
    "tail": 8761,
    "orns": 12589,
    "Ġori": 8408,
    "Ġfought": 12590,
    "Ġcopper": 7425,
    "Ġrespective": 16343,
    "Ġheaved": 9382,
    "Ġfaces": 6008,
    "Ġtaste": 5524,
    "Ġbedfellows": 23437,
    "crossed": 16632,
    "Ġsold": 6002,
    "contempt": 13187,
    "ulous": 4452,
    "Ġemergency": 25731,
    "Ġrays": 10330,
    "ounts": 4652,
    "hroom": 12474,
    "Ġabating": 22264,
    "happiest": 19331,
    "armon": 23057,
    "iage": 17573,
    "Ġcandid": 4102,
    "Ġdeal": 3608,
    "Ġmichigan": 26427,
    "augh": 1781,
    "mming": 1170,
    "heavens": 19744,
    "Ġdepresses": 25797,
    "Ġadvertisement": 6941,
    "Ġtruthful": 23865,
    "Ġhooded": 12404,
    "ama": 11676,
    "Ġ5": 4935,
    "reached": 13840,
    "Ġskewer": 19619,
    "Ġreproofs": 24892,
    "Ġrejecting": 17051,
    "Ġwarsaw": 26167,
    "Ġdupl": 9953,
    "Ġsuch": 793,
    "ifling": 15780,
    "acted": 11010,
    "reflected": 24733,
    "Ġruff": 14348,
    "Ġrhine": 12354,
    "Ġlungless": 24863,
    "Ġspared": 7892,
    "Ġ36": 14766,
    "Ġisles": 8459,
    "Ġchewed": 16368,
    "coward": 13699,
    "Ġsire": 15500,
    "Ġ104": 24412,
    "hering": 12811,
    "reply": 19721,
    "Ġeasiest": 23536,
    "Ġinsulted": 14991,
    "Ġplainer": 23702,
    "Ġfedallah": 6108,
    "evenings": 19461,
    "Ġtrace": 6180,
    "Ġcravat": 26307,
    "bene": 6112,
    "Ġanguish": 5583,
    "concerned": 24638,
    "Ġmessages": 24981,
    "hest": 3365,
    "Ġcarav": 18900,
    "Ġinvent": 7164,
    "Ġhiding": 9822,
    "Ġdiff": 3113,
    "Ġsubl": 7235,
    "Ġvanity": 7045,
    "python": 4692,
    "Ġcomposing": 16065,
    "Ġshade": 6550,
    "Ġirreducible": 5519,
    "apan": 6860,
    "Ġpure": 6137,
    "Ġhook": 6453,
    "Ġhumbled": 16195,
    "Ġsupp": 1267,
    "consideration": 14954,
    "Ġbanker": 8666,
    "Ġdevoted": 6573,
    "locked": 7677,
    "Ġcalculates": 13264,
    "Ġinvoked": 19144,
    "uneasy": 23681,
    "Ġdiscernment": 15067,
    "ine": 404,
    "Ġcrowded": 8011,
    "Ġvolcanoes": 24146,
    "Ġdishon": 12228,
    "kilt": 4866,
    "Ġyonder": 7392,
    "ulance": 15764,
    "terrific": 25040,
    "Ġpale": 4533,
    "Ġbespe": 19241,
    "consol": 9761,
    "Ġaccepted": 7750,
    "Ġredeem": 20498,
    "Ġtrod": 15026,
    "neighb": 16021,
    "Ġwelcome": 5604,
    "Ġuncounted": 19116,
    "Ġmake": 1285,
    "Ġcro": 4873,
    "Ġgrinned": 16857,
    "Ġsuite": 18278,
    "Ġliberally": 16830,
    "gently": 13728,
    "Ġwaiting": 4325,
    "quer": 11678,
    "Ġlovely": 4710,
    "Ġ99": 10745,
    "Ġdisappeared": 5645,
    "itarian": 21335,
    "Ġkilburn": 18351,
    "resembled": 21245,
    "Ġtired": 9149,
    "Ġclattering": 22348,
    "Ġhiss": 15785,
    "bring": 9104,
    "Ġbrightest": 13223,
    "Ġrambled": 20167,
    "Ġhappening": 14382,
    "mblings": 19779,
    "Ġinterlude": 16068,
    "Ġclust": 9273,
    "Ġbro": 1430,
    "Ġpr": 1597,
    "Ġtemporal": 2611,
    "Ġcivility": 4788,
    "Ġtranquil": 7310,
    "Ġgourmand": 26466,
    "Ġluckless": 16797,
    "Ġpat": 1804,
    "vation": 4744,
    "gin": 4930,
    "Ġconspicuous": 13602,
    "ĠĠĠĠĠĠĠĠĠĠĠĠĠĠĠĠĠĠĠĠĠĠĠĠĠĠĠĠĠĠĠĠĠĠĠĠĠĠĠĠĠĠĠĠ": 12151,
    "Ġembattled": 26289,
    "emorial": 10243,
    "Ġcarefully": 6304,
    "Ġtuileries": 24826,
    "Ġsoar": 18282,
    "Ġscold": 10950,
    "doubtless": 17002,
    "Ġtrustees": 24106,
    "Ġdemoniac": 15063,
    "Ġinfallibly": 10040,
    "Ġgrappling": 25812,
    "quished": 21851,
    "oko": 18440,
    "believed": 9932,
    "Ġinterven": 10997,
    "create": 24159,
    "Ġhastily": 5763,
    "snowy": 20282,
    "resh": 8403,
    "ingolstadt": 21302,
    "mix": 20973,
    "Ġmontan": 22973,
    "Ġendued": 14076,
    "delivered": 24099,
    "embow": 21928,
    "Ġmot": 2987,
    "gazing": 12469,
    "Ġmarched": 18871,
    "Ġcomputation": 964,
    "Ġstoop": 16309,
    "night": 2167,
    "Ġplumber": 16082,
    "Ġscalable": 1627,
    "commanding": 24752,
    "Ġparch": 11724,
    "prosperity": 20734,
    "Ġfleets": 23772,
    "domestic": 19824,
    "Ġidentify": 12012,
    "Ġsupplied": 8943,
    "Ġpay": 3965,
    "Ġanticipatingly": 26102,
    "Ġ29": 23728,
    "Ġdeformity": 11675,
    "Ġdiscreet": 16481,
    "Ġalternating": 15030,
    "Ġbended": 21383,
    "proceeded": 25190,
    "Ġmoccas": 22431,
    "Ġfleecy": 17023,
    "Ġstall": 12693,
    "Ġqualified": 14949,
    "cking": 4268,
    "Ġchord": 22242,
    "ruct": 681,
    "Ġbow": 3060,
    "Ġvelvet": 12396,
    "rices": 4560,
    "ougher": 18275,
    "þ": 191,
    "Ġwalks": 8966,
    "ii": 4016,
    "Ġspeeches": 22654,
    "izon": 18141,
    "confidence": 16808,
    "itect": 982,
    "Ġcaterpillar": 5864,
    "agings": 18165,
    "Ġnostrils": 10943,
    "Ġoriental": 9096,
    "said": 4108,
    "Ġabject": 18391,
    "Ġtorments": 13393,
    "range": 3493,
    "answer": 11733,
    "Ġ1820": 25718,
    "ication": 970,
    "Ġhelmsman": 10504,
    "towns": 24854,
    "Ġsincerity": 13677,
    "Ġarray": 12807,
    "Ġrueful": 25581,
    "Ġnormal": 1202,
    "Ġhindrance": 25220,
    "Ġconducting": 16649,
    "Ġbuff": 9172,
    "Ġcottage": 4734,
    "garious": 17558,
    "morn": 20975,
    "Ġemig": 14524,
    "desired": 8956,
    "Ġunav": 18240,
    "Ġunaccountable": 7886,
    "Ġoak": 6128,
    "Ġprouder": 18973,
    "Ġdelivery": 18975,
    "Ġaccelerating": 1621,
    "floating": 12225,
    "ush": 3632,
    "Ġounce": 15271,
    "Ġswish": 23051,
    "prim": 23807,
    "Ġbelieving": 8224,
    "Ġdivineness": 25724,
    "sort": 6798,
    "Ġridicule": 13511,
    "ighted": 8476,
    "Ġadvancement": 24475,
    "Ġblandly": 20322,
    "Ġtickets": 17094,
    "Ġarbit": 4651,
    "Ġtoes": 10829,
    "Ġrecovered": 5481,
    "Ġthanking": 18602,
    "ples": 6845,
    "Ġagreeably": 24952,
    "bride": 19199,
    "sip": 10725,
    "Ġsnowy": 9017,
    "omn": 15679,
    "book": 4670,
    "Ġ{": 21151,
    "Ġslope": 14460,
    "Ġdishonor": 25601,
    "Ġun": 423,
    "Ġimposed": 14215,
    "Ġdevil": 3613,
    "Ġpretended": 19313,
    "Ġdwelling": 7322,
    "Ġshattered": 7883,
    "Ġmelt": 21316,
    "attempt": 9359,
    "Ġmicroscopic": 26373,
    "hidden": 17370,
    "Ġtrade": 2544,
    "Ġcas": 8410,
    "ester": 11597,
    "Ġminds": 6303,
    "Ġchat": 6560,
    "Ġexpectations": 13142,
    "Ġmere": 2714,
    "Ġyawned": 15051,
    "Ġexhibition": 14956,
    "idly": 12697,
    "Ġenvelop": 5587,
    "saw": 5893,
    "Ġtransferred": 16452,
    "Ġflattened": 26047,
    "Ġassuredly": 14821,
    "eries": 6808,
    "Ġdistressed": 8514,
    "gration": 9121,
    "Ġrazor": 22651,
    "centre": 17087,
    "Ġbeauties": 10445,
    "jur": 17578,
    "Ġrequire": 932,
    "andish": 18153,
    "Ġbitt": 10796,
    "compliment": 11364,
    "Ġundesired": 12776,
    "Ġswan": 23049,
    "dler": 13705,
    "these": 3238,
    "osy": 11756,
    "Ġdomineering": 23690,
    "Ġemotions": 8969,
    "iliation": 10860,
    "rush": 7010,
    "Ġmock": 3691,
    "tables": 19756,
    "bits": 17488,
    "fate": 17539,
    "Ġmechanical": 7937,
    "prior": 21031,
    "mish": 17598,
    "Ġexquisite": 12380,
    "cou": 13694,
    "reflection": 13454,
    "Ġsprain": 18305,
    "Ġpalsy": 25778,
    "Ġattitude": 8904,
    "stories": 18023,
    "recovered": 19786,
    "previously": 17207,
    "Ġcrosses": 23059,
    "wa": 5896,
    "Ġhearts": 4972,
    "Ġprogno": 14039,
    "Ġimmured": 24069,
    "inquiries": 13576,
    "Ġwilled": 21290,
    "hung": 8380,
    "Ġminor": 12965,
    "Ġsoup": 7067,
    "inously": 21185,
    "virt": 15450,
    "Ġweeks": 4566,
    "Ġapothe": 12373,
    "ications": 4447,
    "Ġforbear": 17121,
    "Ġsprinkled": 19495,
    "ked": 5616,
    "Ġwildness": 14603,
    "Ġabound": 8863,
    "Ġdesolated": 24812,
    "Ġwilds": 16508,
    "Ġvastly": 23858,
    "meetings": 20376,
    "Ġaccusations": 22368,
    "leads": 21368,
    "gor": 547,
    "ercial": 21273,
    "Ġseasons": 9430,
    "ouri": 21445,
    "Ġshelves": 14998,
    "Ġdusky": 13548,
    "Ġan": 286,
    "Ġpitched": 9443,
    "Ġhealed": 21680,
    "Ġcares": 9366,
    "Ġanswer": 2596,
    "affection": 7487,
    "Ġremark": 2146,
    "heavenly": 20043,
    "Ġprotested": 9933,
    "Ġig": 3501,
    "Ġhospit": 7514,
    "unsuitable": 21890,
    "Ġexpressing": 12007,
    "loved": 14250,
    "Ġcharming": 6628,
    "ance": 479,
    "volutional": 1934,
    "disappointment": 11425,
    "Ġsombre": 18859,
    "reast": 17758,
    "âĢĻ,": 14069,
    "bell": 7332,
    "Ġpants": 21463,
    "Ġfamed": 16324,
    "Ġknocking": 10559,
    "Ġseems": 2479,
    "Ġhospitals": 24923,
    "Ġstarting": 7728,
    "Ġshr": 4229,
    "ignomin": 23264,
    "lod": 15377,
    "Ġtass": 15468,
    "Ġlearning": 387,
    "upt": 13797,
    "Ġmachinery": 20483,
    "Ġpuffing": 12252,
    "77": 15299,
    "Ġscal": 1604,
    "animated": 14974,
    "Ġprofound": 5497,
    "placidity": 25988,
    "here": 2546,
    "iony": 9191,
    "aguy": 21907,
    "Ġperilous": 7768,
    "Ġbusiness": 2231,
    "Ġkings": 7197,
    "ateg": 1369,
    "Ġunless": 4092,
    "Ġsour": 21215,
    "Ġatrocious": 21940,
    "baned": 17495,
    "Ġsketches": 26270,
    "Ġincites": 22548,
    "ru": 478,
    "Ġfurious": 10354,
    "Ġathe": 17741,
    "mend": 20965,
    "Ġcolt": 11044,
    "beholding": 16039,
    "ction": 498,
    "thinks": 16641,
    "Ġtun": 5998,
    "training": 2515,
    "Ġprogressive": 5024,
    "unexpected": 15775,
    "lit": 9605,
    "list": 7551,
    "nineteenth": 26138,
    "sofa": 26146,
    "quickly": 14961,
    ")âĢĶ": 20741,
    "Ġlowly": 11121,
    "gon": 17552,
    "Ġafter": 870,
    "ah": 1831,
    "Ġten": 2383,
    "Ġvii": 13107,
    "prejud": 11794,
    "Ġperilously": 24507,
    "Ġconfinement": 19036,
    "Ġsle": 2012,
    "Ġlabours": 8582,
    "questioning": 16850,
    "Ġthink": 986,
    "Ġparaph": 22117,
    "Ġ57": 24325,
    "lanterns": 17428,
    "nevertheless": 8285,
    "Ġplush": 18609,
    "Ġnap": 8808,
    "achalot": 15861,
    "Ġdirectors": 18921,
    "Ġpopular": 6216,
    "iled": 1764,
    "tim": 13790,
    "Ġdefiance": 11068,
    "Ġrashly": 20304,
    "Ġdelineations": 26058,
    "Ġsunwards": 19011,
    "Ġzealand": 12348,
    "Ġemer": 5958,
    "Ġchildhood": 13136,
    "Ġintercepted": 25826,
    "rolling": 9060,
    "Ġcane": 10927,
    "Ġalders": 21781,
    "sky": 12508,
    "Ġpossibility": 7458,
    "Ġpattering": 18650,
    "Ġcommanders": 23866,
    "Ġsubdiv": 16157,
    "jud": 4483,
    "Ġconfirmation": 17210,
    "Ġauthority": 7748,
    "Ġlabors": 23327,
    "Ġemblaz": 16243,
    "Ġdates": 6693,
    "Ġdiddled": 22664,
    "verest": 13990,
    "Ġinterested": 6458,
    "quent": 2095,
    "conspicuous": 26247,
    "Ġgales": 12662,
    "Ġantics": 24178,
    "Ġheel": 9683,
    "Ġwears": 10240,
    "aus": 1505,
    "companies": 24894,
    "hears": 12530,
    "venison": 22623,
    "twain": 23698,
    "Ġadmitting": 19183,
    "Ġsnar": 13197,
    "Ġdiscrimination": 23604,
    "Ġkrempe": 10669,
    "Ġgenerating": 12846,
    "Ġmariners": 6067,
    "lived": 12484,
    "aset": 10832,
    "Ġrud": 8477,
    "felt": 5888,
    "Ġchimney": 6497,
    "mant": 20964,
    "netherfield": 9812,
    "tubes": 25211,
    "Ġlonely": 6823,
    "Ġrosings": 4608,
    "Ġparamet": 607,
    "Ġtomb": 8807,
    "Ġ1883": 23894,
    "Ġpilgrimage": 17307,
    "Ġpertin": 18450,
    "Ġuncommonly": 7759,
    "Ġaccusation": 22369,
    "Ġesteem": 7531,
    "Ġstranded": 9774,
    "Ġunbending": 25464,
    "Ġsleeper": 8599,
    "Ġclear": 1948,
    "Ġspont": 22128,
    "Ġwinchester": 10065,
    "Ġphaet": 16316,
    "worship": 19385,
    "slave": 16895,
    "convenient": 12235,
    "Ġcaptured": 7245,
    "Ġindignation": 8346,
    "Ġrevolver": 14899,
    "Ġcetus": 19884,
    "Ġspin": 7629,
    "Ġpeninsula": 23193,
    "Ġreceived": 2953,
    "Ġshone": 7404,
    "Ġfearfulness": 23512,
    "Ġvain": 3629,
    "sail": 3603,
    "Ġbruited": 25773,
    "iously": 2679,
    "Ġinner": 9670,
    "Ġregrets": 18594,
    "Ġinaccessible": 13933,
    "ix": 1799,
    "Ġusages": 15913,
    "Ġresolute": 19244,
    "ived": 1533,
    "Ġeager": 3569,
    "Ġpave": 8799,
    "Ġindolent": 13002,
    "Ġwrithed": 17106,
    "Ġdance": 4444,
    "shire": 3021,
    "attracted": 13048,
    "Ġdisquis": 22524,
    "Ġstunsail": 25543,
    "ecess": 17532,
    "Ġgown": 10201,
    "Ġmart": 10779,
    "Ġfurnaces": 24002,
    "ess": 409,
    "Ġadaptively": 3790,
    "mistake": 24529,
    "sustained": 20567,
    "thrusting": 20258,
    "necessary": 5881,
    "Ġhighway": 14345,
    "Ġserm": 9633,
    "Ġaperture": 26160,
    "Ġneurons": 976,
    "Ġostlers": 25276,
    "Ġmemo": 18119,
    "Ġpuzzling": 14897,
    "Ġfeels": 6882,
    "decan": 22138,
    "dress": 17520,
    "weight": 2941,
    "Ġsexes": 25168,
    "Ġattendance": 12179,
    "Ġnatures": 16504,
    "Ġgood": 1002,
    "taining": 7206,
    "bred": 11469,
    "Ġslaughter": 20729,
    "Ġeliminating": 20618,
    "nin": 17608,
    "Ġprairies": 20019,
    "Ġostentatiously": 20467,
    "Ġtotally": 9470,
    "Ġleeward": 6210,
    "hind": 20893,
    "coloured": 7291,
    "disguise": 26306,
    "Ġalfred": 21783,
    "Ġtweed": 22674,
    "Ġviol": 2071,
    "Ġconsiderations": 9409,
    "Ġugly": 8715,
    "ological": 1883,
    "iasm": 8060,
    "neighboring": 20615,
    "Ġcrate": 19122,
    "Ġinducement": 16843,
    "bunger": 20400,
    "nect": 663,
    "adoes": 11659,
    "lashed": 20953,
    ")âĢĶâĢľ": 20742,
    "Ġcalendar": 18876,
    "furthermore": 20002,
    "empty": 23633,
    "lemag": 21370,
    "Ġroughs": 19955,
    "middle": 11310,
    "supp": 4167,
    "beer": 22485,
    "Ġsaturation": 2061,
    "Ġguest": 7249,
    "Ġindispens": 22951,
    "Ġscrew": 8867,
    "stoke": 18022,
    "Ġpressure": 13421,
    "flaming": 23967,
    "Ġapparently": 6778,
    "Ġblooming": 17212,
    "Ġforever": 14553,
    "dil": 11478,
    "lantern": 17427,
    "Ġfrog": 23918,
    "poster": 11056,
    "Ġarmitage": 23580,
    "tattoo": 21086,
    "Ġmalay": 24391,
    "Ġstraits": 7993,
    "Ġele": 1962,
    "Ġquick": 2578,
    "avern": 24792,
    "diligence": 26110,
    "Ġorphan": 12381,
    "Ġbull": 7839,
    "Ġstra": 2993,
    "Ġlining": 13950,
    "Ġdenying": 14658,
    "Ġpell": 21454,
    "Ġcrony": 23439,
    "avating": 18605,
    "pha": 22772,
    "Ġvolcano": 24147,
    "Ġnosegay": 24192,
    "Ġgoverness": 8601,
    "Ġaddition": 1145,
    "Ġcensus": 15095,
    "Ġnapoleons": 25885,
    "property": 19998,
    "itated": 4442,
    "Ġpauper": 26179,
    "Ġsnap": 11201,
    "Ġsighs": 22706,
    "Ġappals": 22214,
    "Ġabreast": 18394,
    "Ġnewcom": 16220,
    "Ġfitly": 23996,
    "how": 1647,
    "Ġpricking": 23217,
    "ermost": 7430,
    "Ġscot": 5643,
    "Ġgive": 1714,
    "Ġcamel": 25349,
    "Ġengra": 7873,
    "Ġrose": 3441,
    "Ġnor": 1551,
    "Ġanchors": 12610,
    "Ġsinking": 7307,
    "Ġcontention": 22423,
    "pop": 17631,
    "Ġidiot": 11970,
    "knife": 6942,
    "pyramid": 21029,
    "trunk": 23945,
    "Ġpom": 21450,
    "Ġshri": 5375,
    "Ġawhile": 13829,
    "Ġprecautions": 23725,
    "december": 25558,
    "Ġreap": 18026,
    "icking": 8910,
    "anesc": 21358,
    "pense": 10368,
    "Ġremo": 3783,
    "Ġtrials": 16789,
    "insist": 23061,
    "Ġpossessing": 16575,
    "Ġscorn": 7900,
    "Ġneural": 622,
    "Ġcups": 16882,
    "Ġnarrations": 24352,
    "Ġsheltered": 19910,
    "Ġwet": 6518,
    "Ġinvariable": 13455,
    "Ġreporting": 24657,
    "wishes": 13806,
    "goodness": 19287,
    "ruit": 22174,
    "Ġseat": 4949,
    "Ġparson": 6687,
    "Ġhorseman": 19606,
    "Ġpence": 17905,
    "Ġnortheast": 23200,
    "Ġpreservation": 24630,
    "hammad": 23261,
    "Ġundertake": 14479,
    "Ġabout": 631,
    "Ġimperial": 9480,
    "apers": 3480,
    "ansion": 10925,
    "Ġwings": 9163,
    "purposes": 25021,
    "Ġdepended": 9776,
    "Ġbeheading": 21751,
    "Ġplain": 2816,
    "Ġprey": 6415,
    "apprec": 22839,
    "ĠdÃ¦mon": 7844,
    "rip": 9240,
    "matters": 14873,
    "oubted": 5859,
    "Ġcow": 13875,
    "Ġdecency": 18483,
    "Ġeyelashes": 26106,
    "Ġeternities": 19941,
    "Ġkick": 5837,
    "uerus": 26406,
    "Ġdeaths": 14537,
    "bat": 8071,
    "difficulty": 12388,
    "inking": 6709,
    "Ġeuropean": 20044,
    "barbar": 20237,
    "Ġperfidious": 25666,
    "axen": 22518,
    "worth": 8626,
    "unhappy": 10237,
    "apply": 18760,
    "Ġsentiments": 7960,
    "Ġdel": 1617,
    "Ġsupports": 3050,
    "chants": 21689,
    "Ġmisunderstood": 18705,
    "ulged": 12727,
    "Ġdeliberation": 19967,
    "harpo": 4805,
    "cooee": 12416,
    "Ġbuck": 7157,
    "Ġwrit": 8241,
    "securer": 25602,
    "Ġbreathless": 12167,
    "Ġbone": 4695,
    "Ġsignification": 19202,
    "mountain": 10713,
    "Ġsymptom": 13482,
    "Ġneighb": 14073,
    "sory": 17659,
    "Ġfatt": 15576,
    "ignantly": 23263,
    "Ġexcellent": 4241,
    "Ġcherish": 10589,
    "Ġmistake": 6203,
    "wling": 11544,
    "spike": 16140,
    "Ġunique": 12775,
    "Ġmeridian": 25714,
    "cious": 6643,
    "Ġoccurrences": 11050,
    "Ġthreatening": 16828,
    "walton": 20248,
    "wants": 21129,
    "Ġbody": 2433,
    "ries": 3350,
    "been": 3341,
    "Ġdocks": 14177,
    "Ġexertions": 13409,
    "Ġstartled": 7082,
    "Ġobedient": 20103,
    "Ġdim": 4757,
    "Ġwhe": 439,
    "Ġmonosy": 18844,
    "Ġcorrob": 16262,
    "icit": 3374,
    "darkness": 9511,
    "Ġappre": 5165,
    "icles": 17972,
    "Ġuncivilized": 25498,
    "Ġtimidly": 11338,
    "Ġdestination": 19149,
    "Ġexplore": 15906,
    "butt": 15992,
    "Ġundressed": 19512,
    "bald": 16446,
    "tender": 14472,
    "Ġchoicest": 24220,
    "Ġsailed": 4889,
    "Ġincluding": 2845,
    "Ġimpunity": 14217,
    "Ġecho": 12663,
    "proportions": 22844,
    "Ġpunish": 12157,
    "inquiry": 15141,
    "ě": 220,
    "Ġaye": 3349,
    "Ġinser": 6820,
    "Ġinterrupt": 4362,
    "fifth": 20145,
    "seen": 2880,
    "Ġaccosted": 13671,
    "Ġorgan": 2501,
    "Ġdz": 4756,
    "Ġfastidious": 14492,
    "istics": 1633,
    "Ġsixteen": 8282,
    "Ġshadowed": 24042,
    "Ġinjured": 9039,
    "weep": 22681,
    "Ġinjure": 16781,
    "Ġwine": 6810,
    "rey": 12535,
    "seventy": 10876,
    "Ġextraordinary": 5414,
    "Ġblades": 11893,
    "nered": 18488,
    "inferences": 17739,
    "suspicious": 25390,
    "ullen": 8234,
    "backed": 9865,
    "seems": 10875,
    "tumbled": 21089,
    "about": 3585,
    "Ġthankful": 14737,
    "Ġpopulous": 16826,
    "Ġgather": 6534,
    "Ġhere": 1088,
    "rance": 5993,
    "Ġhans": 12623,
    "Ġawaken": 23585,
    "Ġmarvels": 11084,
    "Ġwrong": 4724,
    "Ġrefill": 18691,
    "?âĢĿâĢĶ": 12892,
    "Ġcollege": 11424,
    "Ġact": 691,
    "ĠâĢĶ": 13810,
    "Ġdescending": 8902,
    "fulfil": 16034,
    "Ġenables": 726,
    "âĢĶ_": 3198,
    "roots": 15640,
    "Ġjets": 10287,
    "Ġcav": 13879,
    "Ġhopelessly": 16374,
    "Ġpunishment": 9955,
    "Ġdisgrace": 7215,
    "Ġmantelpiece": 15206,
    "Ġthereupon": 18434,
    "herfield": 3630,
    "Ġduration": 20352,
    "Ġhap": 18195,
    "Ġicy": 10747,
    "tains": 10962,
    "ality": 2510,
    "Ġhaving": 1880,
    "sect": 8152,
    "Ġhelpless": 8301,
    "Ġguide": 3213,
    "Ġpaintings": 15055,
    "Ġfavourites": 16644,
    "Ġimpressions": 9552,
    "Ġformer": 3319,
    "Ġshud": 5461,
    "su": 800,
    "Ġsem": 1877,
    "sych": 9885,
    "Ġgodly": 19080,
    "Ġhed": 7387,
    "Ġgrant": 11871,
    "ann": 5802,
    "Ġconfederate": 17353,
    "awake": 14451,
    "Ġmaterially": 12189,
    "onsensical": 18576,
    "indignation": 18438,
    "mary": 8748,
    "Ġbird": 3755,
    "Ġaustralia": 15231,
    "Ġunfold": 8022,
    "jah": 17581,
    "Ġsystems": 801,
    "ologist": 22860,
    "winter": 10740,
    "possibly": 10543,
    "Ġcharged": 9853,
    "Ġsmall": 896,
    "Ġsymbol": 7716,
    "Ġburtons": 19252,
    "Ġstricken": 9775,
    "Ġsullenly": 17172,
    "Ġsomething": 1793,
    "Ġascending": 14853,
    "prow": 15410,
    "Ġappend": 18359,
    "inconsiderable": 21190,
    "Ġtiresome": 26156,
    "Ġdents": 13910,
    "Ġbathed": 17865,
    "Ġendow": 23141,
    "Ġimminent": 11245,
    "Ġdawn": 6816,
    "wit": 7817,
    "Ġground": 2844,
    "Ġappearance": 3699,
    "Ġcapsized": 20088,
    "Ġconsuming": 22789,
    "rank": 21040,
    "commanded": 16988,
    "Ġanswered": 2849,
    "being": 3914,
    "Ġweaken": 21919,
    "Ġphren": 8571,
    "glad": 9007,
    "Ġtroubling": 26547,
    "Ġlips": 3994,
    "exper": 8878,
    "Ġ84": 19708,
    "icting": 12849,
    "Ġrigid": 16716,
    "Ġdiary": 24739,
    "Ġextinguish": 14328,
    "Ġseason": 5237,
    "Ġequinox": 25855,
    "wing": 2517,
    "grin": 19105,
    "Ġabhorrence": 9052,
    "Ġgrimly": 17052,
    "Ġwhilst": 9218,
    "Ġovers": 14205,
    "Ġrel": 1096,
    "patient": 25342,
    "Ġilluminated": 20174,
    "Ġgovernor": 16489,
    "no": 888,
    "urried": 21701,
    "Ġprinces": 23218,
    "pow": 10717,
    "elled": 3995,
    "Ġconceits": 19388,
    "Ġaver": 1286,
    "Ġadvert": 10571,
    "Ġenlist": 21934,
    "chant": 4261,
    "Ġsuck": 15858,
    "Ġanonym": 17897,
    "Ġjib": 14193,
    "your": 1984,
    "mock": 5174,
    "Ġpersecut": 16952,
    "Ġinjuring": 24268,
    "Ġearthly": 7989,
    "aples": 20767,
    "Ġharpoons": 5659,
    "Ġmarching": 16699,
    "Ġinexpress": 12632,
    "constit": 24604,
    "etw": 408,
    "Ġmildly": 9029,
    "aurs": 20768,
    "io": 3802,
    "Ġderives": 16307,
    "Ġasp": 15778,
    "Ġthump": 11610,
    "Ġmeeting": 5193,
    "Ġsinews": 20286,
    "ostent": 16846,
    "Ġhandsomer": 20332,
    "Ġunass": 14113,
    "beth": 13687,
    "Ġzoned": 22816,
    "Ġmissing": 6175,
    "ription": 5676,
    "Ġdismay": 11807,
    "Ġaffectation": 14440,
    "vered": 4829,
    "Ġconcealment": 16914,
    "maritime": 24173,
    "ã": 164,
    "Ġdefects": 12331,
    "Ġjealous": 9468,
    "Ġdesires": 9456,
    "Ġasyl": 12731,
    "Ġtuples": 13476,
    "Ġgale": 5822,
    "Ġnobody": 6158,
    "Ġwaldman": 11345,
    "orney": 17873,
    "instinctively": 26327,
    "Ġsuff": 1303,
    "Ġromish": 19583,
    "Ġmccauley": 26426,
    "str": 2574,
    "Ġhazard": 20430,
    "Ġlaz": 7378,
    "yond": 2329,
    "university": 25983,
    "Ġinnoc": 3794,
    "Ġdisposing": 19373,
    "gence": 876,
    "Ġfactory": 23274,
    "Ġindulgence": 11319,
    "Ġregular": 937,
    "covenant": 23560,
    "Ġtuesday": 9626,
    "Ġinscrutable": 10672,
    "Ġpredecess": 18517,
    "Ġfeeble": 12282,
    "Ġdest": 2236,
    "battle": 12440,
    "Ġarriving": 19216,
    "intment": 4720,
    "erted": 7361,
    "imod": 15707,
    "least": 8784,
    "shold": 2772,
    "Ġ22": 8278,
    "cle": 3957,
    "worse": 14690,
    "Ġactivations": 2721,
    "Ġ118": 19697,
    "russian": 22176,
    "reflections": 24735,
    "Ġchili": 25561,
    "apology": 22330,
    "Ġsoldier": 16920,
    "proceed": 8976,
    "batt": 20777,
    "stra": 4047,
    "Ġpermitted": 9277,
    "Ġprospects": 9958,
    "Ġmeditation": 16680,
    "ourse": 8869,
    "drowned": 17368,
    "Ġchamber": 6213,
    "Ġlonging": 14298,
    "Ġroughly": 17040,
    "Ġcatastrophic": 3541,
    "perhaps": 4126,
    "pit": 3985,
    "allowance": 16824,
    "Ġey": 8134,
    "Ġshield": 21996,
    "dishonourable": 26365,
    "Ġtangle": 25760,
    "Ġweigh": 10894,
    "ython": 1031,
    "rences": 9271,
    "Ġburying": 19251,
    "Ġcreditors": 20128,
    "Ġdoct": 4457,
    "Ġtumbling": 13825,
    "protest": 24815,
    "eyeing": 14945,
    "fallen": 19658,
    "geese": 22364,
    "ased": 1269,
    "grie": 12468,
    "erson": 7002,
    "within": 6730,
    "Ġawfulness": 23586,
    "chair": 5916,
    "Ġhal": 1361,
    "Ġexclusiveness": 23924,
    "Ġprognost": 15280,
    "Ġ181": 23892,
    "Ġobjective": 3764,
    "Ġencirc": 18731,
    "ateur": 22003,
    "endured": 22224,
    "deception": 22141,
    "Ġdormouse": 4925,
    "mature": 20966,
    "ophisticated": 22475,
    "devils": 20031,
    "Ġmeanest": 12907,
    "Ġgathered": 8442,
    "Ġstre": 2108,
    "Ġordered": 5832,
    "fortunes": 6332,
    "Ġasked": 2277,
    "Ġquivered": 18467,
    "Ġwallet": 21297,
    "Ġwhen": 514,
    "Ġrustic": 14964,
    "Ġunacquainted": 12773,
    "immedi": 8450,
    "tall": 17673,
    "Ġlessen": 14532,
    "Ġhum": 1100,
    "ĠvertebrÃ¦": 11435,
    "Ġsymbols": 2794,
    "hom": 12471,
    "boys": 13358,
    "by": 1155,
    "describe": 1517,
    "Ġobscure": 9553,
    "decl": 8856,
    "anging": 3550,
    "Ġjeopard": 9942,
    "Ġcompress": 21846,
    "Ġherein": 16189,
    "feeders": 25235,
    "Ġknight": 9726,
    "Ġsphynx": 20711,
    "tering": 3807,
    "Ġgo": 613,
    "alescing": 23864,
    "Ġhesitate": 16946,
    "engines": 18927,
    "Ġenthus": 7232,
    "Ġoust": 21322,
    "Ġsanely": 24980,
    "Ġconfidence": 6590,
    "car": 4215,
    "ibility": 2388,
    "possesses": 24616,
    "Ġsubs": 2130,
    "Ġrequires": 1059,
    "Ġcouple": 5423,
    "Ġfringe": 17271,
    "Ġquant": 6424,
    "Ġprodig": 6027,
    "Ġpra": 4349,
    "Ġlect": 9222,
    "Ġchinks": 22248,
    "saying": 8640,
    "stepfather": 19190,
    "Ġpurch": 6599,
    "Ġcruises": 23703,
    "Ġassented": 17337,
    "Ġsmite": 22554,
    "Ġwat": 1287,
    "refuge": 24734,
    "rec": 6003,
    "Ġfool": 4238,
    "spond": 5567,
    "writhed": 26080,
    "irresistible": 18173,
    "Ġlab": 1870,
    "Ġstepdaughter": 22610,
    "Ġunderstand": 845,
    "Ġcomput": 601,
    "Ġtid": 8106,
    "Ġprop": 1684,
    "Ġstudy": 1798,
    "condemned": 26060,
    "ghost": 20886,
    "holloa": 19462,
    "acca": 23596,
    "Ġskills": 1837,
    "Ġincommod": 25307,
    "preading": 18499,
    "antage": 3878,
    "ato": 17769,
    "Ġfrederick": 15584,
    "minute": 11274,
    "Ġexplained": 5935,
    "sometimes": 5971,
    "Ġdischar": 11806,
    "iliating": 12692,
    "Ġshovel": 23489,
    "allions": 22195,
    "Ġstruggled": 9904,
    "illings": 14142,
    "Ġmagn": 1554,
    "gracechurch": 24581,
    "eminent": 25104,
    "Ġcloak": 9533,
    "houses": 9599,
    "clouds": 25496,
    "little": 3348,
    "rosc": 17954,
    "poises": 11889,
    "Ġdogs": 7741,
    "Ġobstetrics": 24678,
    "zed": 8103,
    "visitor": 15057,
    "p": 84,
    "Ġfer": 5529,
    "depend": 9112,
    "heedful": 20572,
    "leave": 7837,
    "oder": 2457,
    "Ġcrumbs": 20639,
    "sentiment": 12911,
    "miserably": 24210,
    "Ġfrank": 4422,
    "semicirc": 26491,
    "bud": 10682,
    "swift": 14851,
    "Ġenclosure": 20622,
    "Ġconsent": 5372,
    "zag": 17713,
    "regarding": 15070,
    "Ġbul": 3290,
    "Ġstrengthen": 20699,
    "Ġgroup": 2036,
    "Ġtranced": 18426,
    "sway": 15423,
    "Ġwrath": 16315,
    "Ġrecorded": 11293,
    "Ġamusements": 16913,
    "Ġpresumed": 10544,
    "bun": 12436,
    "Ġfamiliarity": 16729,
    "conquerable": 17398,
    "Ġsends": 14788,
    "Ġdishes": 16048,
    "boxes": 16888,
    "Ġturk": 6603,
    "Ġsolar": 22884,
    "Ġattacks": 12202,
    "nant": 17609,
    "Ġnugent": 26457,
    "ching": 5156,
    "warmly": 25026,
    "Ġafforded": 8028,
    "ana": 15556,
    "Ġadoration": 18290,
    "Ġfreshness": 23985,
    "rant": 11516,
    "Ġspecimen": 13020,
    "tis": 4109,
    "Ġclumsy": 9579,
    "Ġmapp": 2082,
    "Ġjud": 3354,
    "Ġnumber": 1981,
    "Ġinstantaneous": 14612,
    "doesn": 19819,
    "achment": 5464,
    "Ġstraight": 3702,
    "Ġath": 15799,
    "Ġplum": 11820,
    "esting": 7412,
    "built": 16825,
    "particularly": 8339,
    "Ġgladstone": 23867,
    "utterly": 20010,
    "Ġscandal": 9081,
    "Ġcomplied": 14733,
    "Ġointment": 21324,
    "inary": 3271,
    "Ġlow": 1650,
    "sford": 5997,
    "analysis": 26173,
    "repid": 11564,
    "church": 8139,
    "Ġarmada": 23579,
    "nib": 5214,
    "Ġanom": 12608,
    "itance": 13867,
    "Ġunspeakable": 10055,
    "ĠĠĠĠĠĠĠĠĠĠĠĠĠĠĠĠĠ": 22946,
    "Ġdiet": 13909,
    "âĢĿ": 354,
    "ient": 392,
    "Ġinteractions": 12900,
    "Ġpau": 17908,
    "Ġsmiling": 5474,
    "Ġhurrah": 9868,
    "¬": 110,
    "Ġleatherhead": 20012,
    "Ġwad": 13850,
    "Ġpatched": 16379,
    "Ġunlocked": 14119,
    "better": 7119,
    "Ġcommend": 10334,
    "Ġcult": 8781,
    "angle": 22101,
    "Ġstaying": 8283,
    "Ġsocks": 14133,
    "knell": 24555,
    "Ġcylinders": 25943,
    "Ġhesitating": 16947,
    "Ġid": 1909,
    "Ġ11": 5318,
    "Ġcorpulence": 24509,
    "Ġwatson": 3595,
    "sensibility": 25023,
    "Ġmarked": 4620,
    "Ġstandards": 19015,
    "shroud": 20311,
    "Ġhairs": 13229,
    "adie": 18088,
    "Ġturbid": 23610,
    "Ġpeter": 10535,
    "triumph": 15439,
    "Ġfleeting": 19326,
    "Ġsidel": 9635,
    "Ġlurk": 13382,
    "Ġsweetest": 13245,
    "glancing": 11214,
    "Ġexactness": 23603,
    "ĠĠĠĠĠĠĠĠĠĠĠĠĠĠĠĠĠĠĠĠĠĠĠĠĠĠĠĠĠĠĠĠĠĠĠĠĠĠĠĠĠĠĠĠĠĠ": 9952,
    "Ġmiserably": 12945,
    "Ġpur": 2215,
    "fluke": 25204,
    "Ġfronted": 25854,
    "Ġpublisher": 24062,
    "Ġbushes": 16399,
    "Ġarguing": 25470,
    "Ġunsub": 22020,
    "Ġnum": 1348,
    "imprisonment": 23760,
    "Ġprofile": 16487,
    "Ġgibberish": 25786,
    "»": 124,
    "ispiece": 19724,
    "Ġconven": 6151,
    "ignominious": 26587,
    "Ġvortex": 26208,
    "Ġintelligent": 1432,
    "uteness": 17985,
    "elson": 16369,
    "Ġadorned": 15246,
    "Ġchart": 10945,
    "scissors": 20726,
    "Ġhist": 2443,
    "Ġclimes": 12837,
    "Ġcalmness": 12090,
    "hug": 17563,
    "thing": 1483,
    "Ġcompact": 2263,
    "Ġinde": 7371,
    "Ġcowardice": 17032,
    "slept": 17169,
    "Ġintact": 21986,
    "Ġresurrection": 12891,
    "Ġfiles": 21411,
    "Ġpresc": 15923,
    "Ġassoc": 6402,
    "Ġprophesied": 26062,
    "fellows": 12271,
    "Ġamb": 9291,
    "Ġlightning": 5750,
    "wid": 10134,
    "sample": 12504,
    "Ġgash": 15668,
    "hr": 20887,
    "expected": 5780,
    "Ġemble": 13970,
    "teeth": 10355,
    "Ġfourth": 7706,
    "oric": 21394,
    "Ġmoments": 4845,
    "bel": 3835,
    "Ġnewfoundland": 26569,
    "Ġvelocity": 10620,
    "Ġinspection": 14544,
    "Ġboomer": 20166,
    "particulars": 11315,
    "Ġcourtship": 24136,
    "Ġperiodical": 14771,
    "ructed": 7027,
    "Ġforger": 15730,
    "Ġauthorities": 11264,
    "stumps": 21656,
    "Ġservice": 6471,
    "ield": 2405,
    "Ġacquirement": 19254,
    "rog": 15637,
    "ancial": 21360,
    "Ġupbra": 22151,
    "Ġendeavoured": 4918,
    "blooded": 20021,
    "Ġnimble": 21525,
    "Ġunalterable": 15849,
    "Ġmerchants": 23731,
    "sho": 6425,
    "Ġresults": 7308,
    "Ġcrunched": 19123,
    "Ġmount": 7362,
    "elect": 20845,
    "Ġye": 901,
    "Ġpresuming": 16793,
    "aster": 1866,
    "Ġdissatisfied": 14256,
    "irt": 3075,
    "ameter": 2974,
    "Ġlibr": 15999,
    "):": 11461,
    "Ġspoon": 22131,
    "Ġrenowned": 26193,
    "iah": 14414,
    "Ġangel": 4852,
    "Ġtraffic": 23080,
    "Ġconsequently": 8059,
    "Ġbelf": 21379,
    "Ġsurtout": 23464,
    "comrade": 20623,
    "Đ": 209,
    "cripp": 20818,
    "alas": 8803,
    "Ġcomely": 21845,
    "ug": 1766,
    "Ġbeds": 14551,
    "geor": 15976,
    "Ġrapidly": 3429,
    "Ġlacepede": 20493,
    "strength": 13979,
    "trembling": 17142,
    "heeded": 13833,
    "Ġshy": 10903,
    "palms": 25262,
    "Ġfolded": 7767,
    "zetts": 17714,
    "Ġnoticed": 5549,
    "Ġknights": 15148,
    "furniture": 20241,
    "onsense": 6431,
    "Ġspeakest": 23484,
    "rium": 3131,
    "Ġmainz": 22644,
    "forest": 22515,
    "Ġattested": 22627,
    "Ġeditions": 19120,
    "Ġsecretary": 19440,
    "friend": 3862,
    "Ġcemeteries": 26375,
    "!": 5,
    "Ġnotes": 7189,
    "young": 7321,
    "Ġyoung": 1510,
    "uer": 21099,
    "Ġke": 1153,
    "Ġteased": 18785,
    "Ġroylott": 7305,
    "Ġenters": 11026,
    "Ġmightier": 18729,
    "trad": 21075,
    "spell": 22735,
    "moving": 11017,
    "Ġsymmetry": 20364,
    "scap": 22985,
    "Ġarrogance": 26231,
    "Ġsc": 529,
    "Ġaffright": 9331,
    "Ġmorcar": 13008,
    "sleep": 6511,
    "Ġdeacon": 18140,
    "odhead": 18117,
    "lips": 13749,
    "impregnable": 26481,
    "facts": 19841,
    "movement": 25577,
    "otion": 4946,
    "Ġmajor": 13290,
    "Ġfound": 1245,
    "Ġcircumn": 11982,
    "Ġliable": 14228,
    "eminently": 25105,
    "Ġwhy": 1758,
    "Ġmarshy": 20217,
    "Ġslender": 11938,
    "Ġstillness": 12992,
    "sheets": 14441,
    "Ġdependency": 3487,
    "Ġspoilt": 24807,
    "Ġclink": 22342,
    "screaming": 20324,
    "Ġbounding": 19398,
    "Ġyear": 3282,
    "Ġknots": 15008,
    "names": 16538,
    "longer": 8612,
    "Ġelopement": 10329,
    "Ġeulogy": 26470,
    "Ġwand": 4344,
    "Ġbrighton": 6470,
    "passion": 11260,
    "Ġthem": 641,
    "Ġflora": 11416,
    "bringing": 17166,
    "Ġraw": 3317,
    "Ġcocoanuts": 26362,
    "ricity": 23060,
    "cigar": 26124,
    "Ġunimpe": 22069,
    "Ġcontinued": 2922,
    "Ġsanctioned": 26349,
    "Ġpilgrim": 25599,
    "Ġsemicircle": 26067,
    "Ġboasted": 16104,
    "civil": 7796,
    "sul": 15420,
    "Ġlights": 8960,
    "Ġdank": 21426,
    "burg": 16773,
    "Ġredeemed": 25789,
    "lob": 22504,
    "bohemia": 20730,
    "Ġinit": 815,
    "Ġspread": 5161,
    "Ġexchanging": 18131,
    "Ġepit": 18006,
    "wn": 721,
    "eks": 4728,
    "ourselves": 9010,
    "as": 302,
    "eon": 8729,
    "isturbed": 18297,
    "Ġmakes": 3651,
    "Ġaffecting": 2322,
    "ĝ": 222,
    "Ġnative": 4641,
    "Ġcustom": 5078,
    "million": 25751,
    "txt": 12513,
    "Ġdespite": 19351,
    "Ġpencil": 11941,
    "Ġdromedary": 17438,
    "pier": 17635,
    "Ġtot": 4190,
    "ctor": 13959,
    "Ġunsafe": 22038,
    "Ġconceal": 5973,
    "plutarch": 21954,
    "Ġcrew": 2494,
    "Ġ75": 19611,
    "vag": 8764,
    "Ġcomprehensive": 15086,
    "Ġbrimstone": 25686,
    "anely": 17836,
    "Ġtipt": 21172,
    "Ġbroadened": 23982,
    "Ġirre": 7468,
    "iforn": 14063,
    "studied": 17149,
    "aching": 5831,
    "Ġ156": 20169,
    "ander": 6401,
    "Ġspent": 3966,
    "osis": 18389,
    "ropes": 7902,
    "Ġor": 437,
    "Ġlobster": 11389,
    "Ġsquint": 22833,
    "Ġassured": 4374,
    "Ġall": 422,
    "Ġappropriate": 2248,
    "Ġgliding": 8559,
    "Ġparl": 8177,
    "Ġsummits": 14683,
    "Ġdeny": 7488,
    "Ġconfluent": 19037,
    "Ġgrand": 3591,
    "Ġlizz": 21554,
    "harpooned": 24286,
    "Ġcub": 8413,
    "Ġharpo": 1941,
    "Ġimprudent": 12845,
    "Ġstrong": 1786,
    "Ġsignature": 16492,
    "Ġmeek": 21809,
    "W": 59,
    "Ġresearches": 13138,
    "Ġought": 3416,
    "Ġdipped": 15592,
    "Ġthereby": 7643,
    "Ġaffability": 14387,
    "Ġperv": 15988,
    "Ġgroan": 13323,
    "establish": 17392,
    "Ġdetail": 634,
    "Ġweek": 2825,
    "Ġfounded": 8556,
    "Ġsauntering": 18327,
    "Ġsuppose": 2864,
    "Ġwhelmed": 25999,
    "Ġfreckled": 18960,
    "Ġdefault": 3038,
    "Ġencourage": 10380,
    "ley": 1815,
    "network": 1875,
    "Ġstranger": 3485,
    "Ġcritic": 19124,
    "looking": 4034,
    "Ġthroughout": 8876,
    "Ġinflu": 4909,
    "abases": 3007,
    "Ġdum": 10811,
    "Ġsave": 4053,
    "Ġvitality": 15171,
    "behold": 12874,
    "Ġseethe": 21960,
    "game": 11490,
    "Ġcrockery": 24301,
    "function": 4334,
    "¶": 119,
    "Ġbead": 21747,
    "Ġincalculable": 17460,
    "Ġrandomly": 1920,
    "gaz": 20877,
    "Ġprivile": 8645,
    "Ġarticles": 7108,
    "Ġconsciousness": 9947,
    "Ġest": 2266,
    "Ġbehind": 2806,
    "Ġthrees": 23399,
    "thest": 11653,
    "Ġpropri": 6738,
    "Ġinsufferable": 13930,
    "cele": 21622,
    "Ġaf": 781,
    "Ġdears": 18136,
    "Ġhuggins": 24828,
    "Ġlinn": 13952,
    "Ġdecks": 6900,
    "loa": 18537,
    "Ġrelev": 1716,
    "Ġglassy": 19559,
    "Ġsix": 3044,
    "Ġunmannerly": 26517,
    "Ä": 133,
    "Ġbehave": 23295,
    "rers": 14717,
    "Ġconsolidation": 5060,
    "Ġinquest": 16547,
    "Ġimbib": 22172,
    "'(": 2981,
    "Ġshriek": 6637,
    "Ġbinding": 20417,
    "unmistakable": 21892,
    "Ġcensure": 15094,
    "Ġstared": 8454,
    "Ġdecent": 10978,
    "Ġluxuriant": 20393,
    "Ġsucking": 12783,
    "dismal": 23495,
    "prodigious": 17466,
    "Ġtapping": 10752,
    "Ġtingling": 15091,
    "past": 8089,
    "Ġfavours": 23278,
    "disapprobation": 19155,
    "Ġep": 7384,
    "osh": 18388,
    "Ġbewit": 15725,
    "rapidly": 15242,
    "Ġjustify": 11072,
    "Ġtickled": 20055,
    "Ġdiv": 3730,
    "Ġreached": 4024,
    "reclining": 20573,
    "Ġpin": 7161,
    "Ġeffaced": 18528,
    "Ġsnapped": 9896,
    "Ġglobu": 23269,
    "seated": 11671,
    "oper": 7347,
    "transferred": 24514,
    "Ġelij": 8908,
    "slo": 17656,
    "Ġcoach": 6867,
    "Ġyoked": 15732,
    "Ġmorphology": 3011,
    "standard": 22433,
    "building": 17308,
    "oqu": 7555,
    "Ġrepay": 19081,
    "mine": 5618,
    "Ġghosts": 12230,
    "tuesday": 17690,
    "Ġpositives": 4319,
    "Ġexhilarating": 26337,
    "Ġretreat": 6069,
    "fred": 20854,
    "eth": 619,
    "Ġsurrounding": 12160,
    "erringly": 16211,
    "escape": 16005,
    "Ġchivalrous": 20513,
    "Ġwitty": 21291,
    "Ġlion": 9675,
    "Ġarched": 10932,
    "confirm": 16807,
    "eu": 17530,
    "Ġansw": 2203,
    "Ġderision": 16308,
    "Ġasleep": 6836,
    "complain": 14359,
    "monkey": 19169,
    "it": 276,
    "Ġclaimed": 14201,
    "Ġanno": 9667,
    "Ġstrategy": 2441,
    "Ġjoining": 13163,
    "Ġprophet": 7680,
    "beef": 18523,
    "Ġcough": 11580,
    "Ġearls": 18903,
    "Ġadmires": 19684,
    "Ġrecovering": 11859,
    "orously": 8418,
    "aren": 10073,
    "ainted": 3658,
    "natural": 2251,
    "Ġfancy": 3744,
    "secut": 7866,
    "Ġsembl": 19059,
    "Ġruskin": 25809,
    "myst": 9821,
    "Ġkept": 3343,
    "Ġexam": 3710,
    "fastened": 19324,
    "Ġwantest": 18791,
    "Ġmomentarily": 22809,
    "Ġsolution": 9804,
    "nants": 17613,
    "ous": 477,
    "Ġsight": 2111,
    "headers": 23105,
    "Ġtugged": 17288,
    "voice": 7816,
    "sleeve": 26108,
    "Ġacknowledgment": 16957,
    "Ġaboard": 6697,
    "Ġran": 3340,
    "shel": 11928,
    "ulgences": 21862,
    "Ġnice": 6676,
    "divided": 25018,
    "Ġram": 11013,
    "fra": 8374,
    "Ġbelow": 4063,
    "inav": 15483,
    "Ġsmiles": 6706,
    "Ġarrived": 3745,
    "Ġbes": 2661,
    "Ġsituation": 4073,
    "hearing": 8402,
    "Ġjaws": 5593,
    "Ġrode": 15995,
    "Ġentitled": 8539,
    "Ġspirit": 3723,
    "Ġmuff": 8113,
    "Ġumb": 11645,
    "Ġsickness": 10538,
    "Ġscarcity": 23823,
[...]
