{
  "metadata": {
    "vocab_size": 26615,
    "algorithm": "BPE",
    "created_at": "2026-05-01 05:41:16",
    "special_tokens": [
      "<PAD>",
      "<SOS>",
      "<EOS>",
      "<UNK>",
      "<MASK>"
    ]
  },
  "vocab": {
    "rumours": 23924,
    "Ġy": 341,
    "ignorantly": 25190,
    "pull": 6796,
    "Ġaccurate": 13264,
    "ivil": 6410,
    "Ġadvanced": 1505,
    "Ġmaximizing": 3170,
    "evinced": 19928,
    "brilliancy": 26078,
    "Ġvelv": 10621,
    "Ġomin": 11579,
    "Ġmatrimony": 13638,
    "Ġstud": 1614,
    "Ġexplored": 23521,
    "Ġafloat": 9310,
    "surface": 10532,
    "vit": 13803,
    "sprit": 11383,
    "brated": 12029,
    "uccas": 21109,
    "Ġgravely": 7885,
    "Ġfunctional": 3047,
    "Ġexperiences": 13034,
    "sherlock": 5422,
    "Ġarrival": 4732,
    "arts": 6564,
    "Ġabsent": 7015,
    "Ġheartless": 13076,
    "agre": 18167,
    "Ġburying": 19254,
    "Ġsquatted": 25843,
    "ernation": 8213,
    "Ġnormal": 1202,
    "Ġconsideration": 5191,
    "atered": 22077,
    "Ġcond": 3873,
    "equal": 14995,
    "Ġmr": 660,
    "Ġburtons": 19255,
    "rium": 3134,
    "Ġbroods": 23107,
    "Ġincomplete": 17210,
    "neg": 12869,
    "ige": 12683,
    "pemberley": 9622,
    "Ġdrops": 9034,
    "isons": 17851,
    "Ġtrusted": 10519,
    "Ġweighing": 20019,
    "ectual": 21920,
    "Ġinfant": 11969,
    "ery": 1269,
    "Ġimperilled": 19581,
    "Ġfumbling": 21421,
    "Ġgreen": 3051,
    "?_âĢĿ": 12319,
    "asible": 21546,
    "Ġfixedly": 19250,
    "Ġstrangers": 8315,
    "Ġcarving": 14445,
    "Ġsewing": 21959,
    "Ġfield": 1238,
    "hecy": 21209,
    "Ġscandinavian": 26347,
    "failed": 20865,
    "Ġrailway": 15022,
    "values": 4973,
    "Ġefficiently": 4093,
    "clouded": 20334,
    "generally": 9437,
    "Ġcheerless": 16694,
    "Ġhosea": 17333,
    "Ġlying": 4827,
    "Ĳ": 243,
    "Ġimport": 1009,
    "haustible": 16892,
    ":": 30,
    "iah": 14419,
    "Ġcollecting": 12289,
    "renadier": 18420,
    "Ġcoats": 16079,
    "Ġrecommending": 24332,
    "Ġduplicate": 17217,
    "Ġwindlass": 7256,
    "Ġdeclining": 23967,
    "Ġpays": 13300,
    "Ġfloundered": 18863,
    "Ġlater": 6018,
    "Ġbuying": 23999,
    "Ġrattler": 25000,
    "Ġsteersman": 13046,
    "Ġmeditations": 25016,
    "Ġdeny": 7488,
    "Ġaugment": 8695,
    "Ġextending": 11025,
    "seek": 8840,
    "Ġenrolled": 21942,
    "elfare": 11780,
    "Ġdusting": 24598,
    "Ġremonstrate": 22798,
    "Ġdipping": 15595,
    "Ġjourneys": 19478,
    "Ġdelay": 5748,
    "Ġsobs": 14134,
    "anything": 5518,
    "erness": 6433,
    "Ġheavily": 6741,
    "Ġineffectual": 17386,
    "Ġswings": 11088,
    "Ġsystematically": 4091,
    "neville": 22470,
    "Ġdouble": 4940,
    "Ġqual": 6275,
    "Ġvict": 3761,
    "examination": 25479,
    "Ġmut": 3580,
    "Ġcrumbs": 19124,
    "Ġphysiognomically": 25613,
    "Ġfairness": 9896,
    "Ġone": 569,
    "Ġwaters": 3594,
    "Ġmasterless": 23998,
    "Ġelastic": 4363,
    "Ġanew": 11431,
    "jets": 20930,
    "Ġlawn": 7379,
    "30": 20756,
    "marest": 20982,
    "presented": 12994,
    "Ġarist": 14161,
    "aping": 8195,
    "ino": 15481,
    "Ġuninter": 18244,
    "Ġhorsham": 10407,
    "Ġlaughter": 9029,
    "Ġnuptial": 25783,
    "Ġalliance": 18269,
    "Ġsides": 4580,
    "Ġfacil": 16963,
    "Ġpsalmody": 20588,
    "yed": 3272,
    "towards": 5003,
    "Ġunintelligible": 26515,
    "Ġassuming": 16693,
    "Ġguessed": 11283,
    "bots": 10084,
    "Ġtremor": 24767,
    "feeders": 25236,
    "Ġmonotonically": 3833,
    "Ġslighter": 18942,
    "Ġendow": 23138,
    "Ġlong": 797,
    "ologically": 22883,
    "Ġanteced": 26178,
    "Ġ/*": 10141,
    "legs": 13185,
    "Ġbase": 5013,
    "Ġerrors": 2596,
    "haust": 5777,
    "Ġ95": 19776,
    "imes": 1300,
    "unalterable": 21891,
    "Ġjudgment": 5765,
    "obscure": 23102,
    "angles": 18291,
    "itatingly": 25278,
    "possession": 12225,
    "Ġchannels": 26014,
    "Ġwhirlpool": 20657,
    "Ġbudge": 15167,
    "Ġattend": 5035,
    "Ġoverl": 18424,
    "Ġembraces": 19874,
    "Ġcaptured": 7245,
    "Ġflew": 5587,
    "hatred": 24818,
    "Ġsoften": 23127,
    "Ġmeasureless": 14711,
    "message": 17374,
    "Ġbroadened": 23988,
    "Ġvestibule": 13539,
    "Ġsurmise": 12298,
    "Ġbust": 10169,
    "B": 38,
    "enty": 2910,
    "Ġcarter": 18901,
    "Ġcrown": 5289,
    "Ġparade": 18302,
    "Ġfad": 17878,
    "Ġoccurrence": 14384,
    "Ġdone": 1816,
    "governed": 25406,
    "Ġreeds": 15699,
    "cures": 20807,
    "feels": 22507,
    "rary": 4576,
    "uble": 21105,
    "Ġsolomon": 11053,
    "Ġripples": 25506,
    "rever": 21238,
    "whatever": 6695,
    "Ġbeer": 10221,
    "Ġphiladelphia": 26605,
    "Ġfundamental": 3009,
    "determine": 19947,
    "join": 12117,
    "Ġprogrammed": 11059,
    "Ġap": 5008,
    "Ġladder": 8601,
    "Ġthither": 6820,
    "appeared": 4284,
    "Ġassistants": 9453,
    "Ġbefallen": 12346,
    "Ġassert": 7121,
    "Ġselected": 9712,
    "deaux": 22153,
    "laz": 15388,
    "geese": 22372,
    "Ġcanada": 22168,
    "Ġxlvi": 25591,
    "Ġolive": 12569,
    "Ġassembled": 9238,
    "Ġalso": 1340,
    "soul": 9142,
    "Ġgrapes": 15218,
    "uttermost": 24943,
    "rippling": 24712,
    "igen": 4831,
    "iteous": 14263,
    "Ġabed": 22270,
    "Ġhousekeeping": 18946,
    "Ġplayfulness": 23639,
    "ble": 542,
    "Ġblacksmiths": 19875,
    "interests": 19711,
    "Ġfearful": 6198,
    "date": 17518,
    "oriously": 17876,
    "improve": 15715,
    "Ġdisgusting": 19896,
    "cake": 20806,
    "Ġoppressively": 25711,
    "Ġloves": 10916,
    "Ġwithhold": 18118,
    "gale": 13726,
    "ignomin": 23270,
    "Ġimpenitent": 26549,
    "Ġburst": 4382,
    "histor": 13494,
    "Ġcheese": 9379,
    "Ġkilled": 4955,
    "Ġgre": 1586,
    "Ġlakeman": 6986,
    "Ġcoffee": 6760,
    "Ġaffliction": 25846,
    "ued": 7561,
    "accompan": 11453,
    "Ġebony": 18011,
    "ientific": 6548,
    "Ġiteratively": 3056,
    "Ġconsequently": 8061,
    "Ġsolve": 4198,
    "gers": 8377,
    "attached": 11938,
    "rimshander": 20659,
    "Ġsplin": 8622,
    "burned": 25082,
    "Ġbengal": 18784,
    "Ġboscombe": 8327,
    "Ġsteak": 9831,
    "sin": 21051,
    "Ġnorth": 4321,
    "Ġcompunction": 18586,
    "ralian": 19603,
    "Ġeveryone": 8920,
    "henomena": 20275,
    "hours": 9126,
    "breathing": 25336,
    "Ġlancaster": 26342,
    "Ġcrossing": 7252,
    "Ġunwinding": 22061,
    "Ġinglorious": 24423,
    "igations": 18045,
    "Ġbill": 4039,
    "Ġproperly": 7946,
    "Ġindisp": 18836,
    "irect": 5552,
    "fra": 8376,
    "Ġas": 374,
    "Ġgreeks": 20016,
    "Ġstare": 10865,
    "Ġglobular": 19012,
    "archical": 1927,
    "Ġhorse": 4726,
    "Ġscoresby": 10462,
    "Ġlady": 1590,
    "visible": 10535,
    "edding": 4370,
    "Ġadler": 8175,
    "Ġexpenses": 11838,
    "talking": 10009,
    "Ġslave": 7454,
    "apply": 18760,
    "Ġdoth": 13910,
    "concerns": 24583,
    "Ġwallowed": 24045,
    "ished": 1427,
    "18": 20753,
    "rol": 5713,
    "overhearing": 19051,
    "beryls": 25310,
    "linen": 25258,
    "adagrad": 9693,
    "Ġhurtling": 24962,
    "arness": 11673,
    "Ġplaus": 22607,
    "Ġshun": 11712,
    "aet": 15310,
    "Ġconsol": 3815,
    "Ġconfided": 19035,
    "Ġdiscl": 9799,
    "Ġcurds": 22988,
    "Ġannual": 14833,
    "Ġsatire": 22904,
    "mblings": 19783,
    "Ġmuseum": 15274,
    "dar": 20826,
    "ishment": 3503,
    "Ġcountenance": 3968,
    "insanity": 23072,
    "Ġcongregation": 12332,
    "Ġribs": 7102,
    "Ġmultitude": 9327,
    "stead": 10847,
    "Ġob": 860,
    "capital": 15091,
    "andromeda": 21873,
    "Ġassail": 13067,
    "Ú": 155,
    "Ġgar": 10839,
    "apology": 22339,
    "Ġwidower": 24237,
    "Ġcripp": 9655,
    "Ġitems": 9694,
    "Ġfoundation": 4235,
    "Ġappet": 9733,
    "Ġencouraging": 2264,
    "Ġvortex": 26210,
    "tails": 21089,
    "Ġineffable": 17334,
    "script": 11078,
    "Ġrefresh": 10347,
    "Ġmasking": 2420,
    "suffered": 24329,
    "Ġcombing": 22855,
    "Ġsumatra": 15289,
    "Ġsharpened": 17367,
    "Ġesteem": 7531,
    "Ġcontention": 22431,
    "Ġpresumably": 19627,
    "Ġteeth": 4168,
    "Ġfobbing": 26442,
    "Ġtash": 13822,
    "Ġmore": 678,
    "Ġdepart": 4658,
    "nervous": 16280,
    "Ġcondescended": 19959,
    "Ġaloysius": 15741,
    "esty": 4308,
    "augh": 1784,
    "operation": 13503,
    "Ġspect": 3549,
    "Ġangry": 5498,
    "Ġconstru": 19069,
    "iot": 9602,
    "Ġtablets": 13158,
    "Ġcaprice": 14577,
    "yra": 8104,
    "left": 6975,
    "Ġdistended": 16047,
    "========": 2313,
    "Ġshattered": 7886,
    "Ġshore": 4836,
    "Ġhighway": 14348,
    "Ġcompasses": 11268,
    "Ġquiescent": 26244,
    "Ġthemselves": 3252,
    "romising": 18234,
    "Ġdiligence": 17114,
    "Ġroar": 9755,
    "tempest": 16960,
    "Ġinhabitants": 7524,
    "Ġyon": 9695,
    "Ġfired": 16157,
    "Ġspile": 22132,
    "Ġhip": 17923,
    "very": 501,
    "osing": 3688,
    "Ġhumane": 11887,
    "horrible": 14600,
    "Ġtranslates": 12054,
    "Ġconcealing": 23906,
    "Ġour": 1010,
    "Ġundertone": 23243,
    "court": 7511,
    "extending": 22775,
    "slept": 17171,
    "stat": 21648,
    "Ġfrock": 10491,
    "Ġstray": 18075,
    "Ġske": 4816,
    "endeavouring": 15017,
    "abular": 4763,
    "assembled": 21549,
    "Ġalle": 11668,
    "perv": 1556,
    "orting": 9737,
    "âĢĻ!âĢĿ": 18170,
    "Ġcomputes": 4769,
    "Ġshave": 22001,
    "Ġpurses": 23478,
    "Ġunsophisticated": 25993,
    "Ġrope": 4340,
    "Ġguards": 16270,
    "partner": 19224,
    "elzebub": 26465,
    "unctuous": 21887,
    "lift": 15387,
    "acrity": 14282,
    "robustness": 26340,
    "Ġbooks": 4677,
    "Ġindolent": 13009,
    "Ġpenal": 1773,
    "Ġbanking": 19633,
    "Ġspecks": 14306,
    "Ġhousings": 21497,
    "parts": 14601,
    "Ġsite": 17754,
    "Ġcrew": 2495,
    "Ġoccupy": 14732,
    "Ġvesture": 20065,
    "Ġmoodily": 19837,
    "dil": 11479,
    "icit": 3377,
    "Ġesq": 15111,
    "caught": 8730,
    "itic": 11580,
    "formed": 2554,
    "Ġlooks": 4167,
    "usiveness": 22298,
    "Ġinstant": 2699,
    "lowering": 16032,
    "ĠĠĠĠĠĠĠĠĠĠĠĠĠĠĠĠĠĠĠĠĠĠĠĠĠĠĠĠĠĠĠĠĠĠĠĠĠĠĠĠ": 4517,
    "Ġany": 687,
    "Ġsled": 21221,
    "Ġacquire": 2718,
    "ved": 869,
    "smart": 23910,
    "Ĥ": 229,
    "Ġemploying": 23981,
    "Ġindebted": 8711,
    "Ġwilled": 21294,
    "Ġgord": 21604,
    "Ġcounterpane": 11344,
    "blacksmith": 17002,
    "winds": 10523,
    "Ġirretrie": 23377,
    "Ġsubdiv": 16162,
    "Ġlighten": 23263,
    "inging": 5908,
    "breeding": 16676,
    "ket": 17583,
    "Ġpatchwork": 24142,
    "Ġhill": 5626,
    "Ġjones": 7204,
    "Ġincommun": 25309,
    "Ġunaccountable": 7888,
    "Ġcontingency": 26246,
    "Ġliberality": 24376,
    "wont": 21135,
    "Ġassailed": 23182,
    "Ġcourting": 23293,
    "Ġsticks": 14932,
    "lection": 3652,
    "Ġguar": 23050,
    "Ġstreams": 12196,
    "Ġalph": 9697,
    "Ġhovers": 19078,
    "Ġdisposing": 19378,
    "Ġvineyard": 12333,
    "Ġparameter": 890,
    "contains": 16034,
    "husband": 8043,
    "Ġguess": 4904,
    "Ġeaster": 15678,
    "Ġfearless": 9877,
    "bethinking": 25746,
    "done": 6499,
    "inf": 6233,
    "Ġadvised": 16213,
    "salesman": 20674,
    "Ġnotion": 7884,
    "tram": 19646,
    "thinness": 25811,
    "Ġunfrequent": 24109,
    "Ġsequence": 1978,
    "Ġscrews": 25178,
    "preserve": 25304,
    "harrow": 20910,
    "intense": 22940,
    "Ġfolding": 19729,
    "embarr": 17294,
    "purp": 8092,
    "Ġramsgate": 18651,
    "rad": 2157,
    "gryphon": 15361,
    "Ġimitation": 22176,
    "Ġconfused": 7964,
    "Ġsanct": 15066,
    "Ġfounder": 17885,
    "Ġman": 544,
    "Ġgeological": 14533,
    "Ġsuperglue": 23459,
    "avating": 18607,
    "Ġflowed": 10373,
    "Ġchimney": 6496,
    "Ġaccounts": 7207,
    "comple": 7441,
    "Ġanoints": 25539,
    "Ġhails": 21955,
    "Ġsentiments": 7961,
    "Ġsuggestions": 24452,
    "cock": 12028,
    "Ġstupid": 7607,
    "Ġrepressed": 21672,
    "Ġdimin": 3870,
    "cup": 10693,
    "Ġfasc": 12602,
    "Ġsneer": 13450,
    "Ġpist": 12619,
    "estate": 12824,
    "Ġtraditions": 11444,
    "Ġproofs": 19817,
    "oons": 12502,
    "ify": 1528,
    "Ġoperate": 19117,
    "83": 13683,
    "Ġbeginning": 4246,
    "Ġstep": 752,
    "lascar": 20962,
    "inching": 21192,
    "utral": 12667,
    "sufferable": 12180,
    "Ġfurrow": 22819,
    "connection": 18870,
    "Ġaddressing": 11165,
    "hello": 13367,
    "Ġ1869": 19387,
    "vener": 21114,
    "Ġmau": 21313,
    "limping": 26394,
    "Ġstealing": 18894,
    "apsed": 6296,
    "Ġmodels": 761,
    "Ġmonarchs": 25851,
    "Ġnlp": 3060,
    "Ġcontrary": 5261,
    "Ġbehind": 2805,
    "Ġreminds": 13434,
    "Ġtresses": 21178,
    "Ġexact": 2541,
    "Ġwander": 9033,
    "forest": 22523,
    "precise": 19354,
    "Ġrubbing": 9323,
    "gn": 8083,
    "stock": 13226,
    "rent": 1172,
    "ulity": 10887,
    "Ġplentiful": 12915,
    "solemn": 19820,
    "Ġmace": 21312,
    "william": 4563,
    "ken": 2798,
    "Ġunworth": 22037,
    "slackened": 26095,
    "Ġsalut": 10511,
    "Ġconsoled": 18115,
    "Ġassuredly": 14823,
    "someone": 14564,
    "fatig": 17089,
    "akened": 7415,
    "Ġdesire": 3715,
    "Ġstaring": 8829,
    "Ġmeta": 3565,
    "presumption": 20445,
    "choose": 23672,
    "Ġthrough": 604,
    "uneasiness": 23687,
    "Ġpresume": 8039,
    "magnificent": 20277,
    "Ġboard": 3382,
    "dropout": 3199,
    "Ġcrippled": 25279,
    "breadth": 20279,
    "Ġinterpre": 1592,
    "cer": 6644,
    "iro": 20916,
    "Ġwhile": 607,
    "fal": 17537,
    "Ġbam": 15569,
    "Ġfool": 4238,
    "Ġinconsiderable": 21499,
    "intelligent": 16845,
    "Ġamb": 9294,
    "Ġroll": 5381,
    "hailed": 17566,
    "Ġdeemed": 7613,
    "Ġheaved": 9385,
    "vol": 732,
    "Ġbody": 2436,
    "Ġcrozetts": 19632,
    "sit": 13782,
    "Ġdefence": 11068,
    "eluded": 21579,
    "Ġflour": 8946,
    "unhes": 21880,
    "meryton": 10113,
    "th": 407,
    "Ġwhale": 627,
    "Ġlabours": 8585,
    "armon": 23063,
    "Ġspecially": 12000,
    "nable": 13764,
    "Ġcorrespond": 6210,
    "Ġcoils": 9305,
    "Ġembarrassed": 11385,
    "Ġdepos": 11005,
    "Ġenvelop": 5586,
    "deceiving": 22149,
    "Ġprecision": 13190,
    "law": 6116,
    "Ġarsac": 11745,
    "knot": 13747,
    "ord": 666,
    "Ġinsurg": 23681,
    "sex": 12717,
    "Ġmilliner": 19886,
    "Ġeffected": 14357,
    "Ġchina": 8041,
    "Ġperched": 10301,
    "roded": 17958,
    "ificant": 22207,
    "iet": 1774,
    "Ġargument": 7099,
    "deserving": 17247,
    "Ġdwelt": 12609,
    "Ġprofessed": 14725,
    "Ġmoisture": 12362,
    "unmistakable": 21900,
    "gon": 17553,
    "istic": 969,
    ">": 34,
    "Ġchristians": 13312,
    "Ġunpleasant": 7191,
    "Ġeu": 6389,
    "Ġarrive": 6906,
    "peleg": 16296,
    "rob": 5533,
    "._]]": 5335,
    "Ġdante": 21442,
    "Ġrecovery": 11442,
    "Ġbeacon": 21761,
    "Ġdisgraceful": 15021,
    "Ġsupports": 3049,
    "Ġexasperated": 11413,
    "Ġiii": 7862,
    "hastily": 19705,
    "utted": 15664,
    "Ġslim": 18939,
    "Ġcoopers": 20525,
    "Ġdistingu": 2513,
    "Ġsnake": 12064,
    "Ġrare": 7038,
    "killer": 20479,
    "Ġdomineering": 23695,
    "Ġtuck": 10142,
    "Ġstriving": 8998,
    "possibly": 10545,
    "Ġmiserable": 3634,
    "poor": 6062,
    "enemy": 15529,
    "Ġbetween": 794,
    "Ġearnestness": 12129,
    "Ġroot": 2647,
    "firmly": 20283,
    "Ġchart": 10946,
    "Ġplead": 14457,
    "Ġclimates": 25054,
    "Ġsubjects": 7073,
    "Ġrum": 5925,
    "entire": 6823,
    "Ġdandy": 17894,
    "using": 5468,
    "stra": 4044,
    "Ġtou": 15468,
    "ledyard": 22397,
    "teak": 22821,
    "Ġmira": 8409,
    "weigh": 18666,
    "Ġinve": 17931,
    "mistakable": 20655,
    "Ġjumping": 13345,
    "Ġbodily": 6107,
    "iscuit": 10600,
    "Ġhadn": 9721,
    "Ġnap": 8812,
    "fugitive": 26132,
    "hammered": 19006,
    "compasses": 19461,
    "Ġobservations": 13556,
    "Ġwhine": 21719,
    "Ġinsolence": 20256,
    "pine": 13771,
    "rougham": 15996,
    "Ġinvari": 6528,
    "vellers": 16675,
    "cheeked": 19342,
    "okers": 18442,
    "itor": 12570,
    "happy": 4426,
    "Ġflint": 23013,
    "Ġlaws": 8004,
    "Ġjaw": 3318,
    "Ġpapers": 4020,
    "cadence": 26126,
    "Ġcring": 15555,
    "Ġdespaired": 14669,
    "Ġprincess": 23228,
    "injustice": 17738,
    "Ġrobberies": 23044,
    "Ġnarratives": 24352,
    "Ġoutstanding": 22321,
    "Ġvia": 2383,
    "Ġprevailed": 7778,
    "Ġswelled": 11089,
    "Ġsummits": 14683,
    "Ġwrought": 11947,
    "Ġeasy": 3451,
    "blades": 24131,
    "cus": 3978,
    "needle": 20316,
    "Ġsmart": 11818,
    "Ġclimes": 12848,
    "Ġpeculiarities": 12074,
    "Ġadmitting": 19185,
    "Ġcircumvent": 25067,
    "Ġdairy": 20689,
    "follow": 5680,
    "Ġchis": 11753,
    "unaffected": 21888,
    "Ġfamed": 16329,
    "ume": 4837,
    "Ġgoney": 14545,
    "indeed": 4488,
    "imprudence": 16558,
    "ould": 428,
    "dles": 11482,
    "surround": 16759,
    "Ġciv": 3307,
    "Ġstil": 15724,
    "ping": 9617,
    "ourably": 14379,
    "Ġanger": 5442,
    "doublo": 24661,
    "Ġfanning": 23393,
    "ï": 176,
    "Ġcoral": 11925,
    "apan": 6859,
    "drawn": 9915,
    "liber": 18815,
    "Ġpreposter": 12826,
    "Ġconception": 10315,
    "angered": 16180,
    "Ġperpendicular": 7209,
    "Ġaddresses": 3767,
    "ascribed": 24707,
    "Ġbaleful": 24987,
    "Ġtapping": 10753,
    "Ġsurm": 7476,
    "Ġmagnified": 23211,
    "Ġblew": 9047,
    "Ġbought": 8418,
    "axen": 22526,
    "everybody": 8614,
    "Ġpence": 17907,
    "Ġstains": 21749,
    "Ġbashful": 20423,
    "Ġhog": 13926,
    "Ġchemistry": 11461,
    "Ġunrival": 22048,
    "secure": 12239,
    "thy": 2927,
    "Ġslang": 23163,
    "Ġprudential": 17922,
    "Ġglue": 15677,
    "reds": 12754,
    "Ġincorporate": 20457,
    "hero": 21207,
    "Ġfleetness": 20182,
    "cupboards": 25402,
    "Ġincisive": 18571,
    "Ġneglect": 7943,
    "Ġviolet": 19091,
    "Ġamphitheat": 26253,
    "Ġparmacetti": 20607,
    "po": 1137,
    "Ġdifferen": 938,
    "Ġcompares": 20169,
    "Ġunexpectedly": 19911,
    "Ġrequisition": 22655,
    "Ġprogressive": 5024,
    "Ġnodes": 1970,
    "Ġt": 261,
    "iliar": 15717,
    "Ġseveral": 2668,
    "ă": 196,
    "Ġchurning": 15940,
    "ials": 11709,
    "ext": 929,
    "Ġsmokes": 22564,
    "hol": 3838,
    "ready": 2362,
    "Ġwhatever": 3472,
    "Ġhar": 5815,
    "imet": 21710,
    "scent": 13025,
    "etrics": 21589,
    "Ġperformed": 8548,
    "Ġve": 1107,
    "Ġmeaning": 1414,
    "reng": 4000,
    "shot": 2146,
    "Ġcommenced": 8533,
    "Ġwall": 3842,
    "Ġcarr": 23095,
    "iqu": 7803,
    "Ġmetropol": 11146,
    "alliance": 22205,
    "Ġsurf": 19133,
    "Ġremembrance": 8319,
    "ationally": 15708,
    "Ġpattered": 19052,
    "ps": 4575,
    "several": 5543,
    "Ġwrenching": 17325,
    "Ġobe": 5801,
    "Ġcaulking": 20296,
    "Ġfingertips": 24020,
    "Ġethics": 15464,
    "position": 15415,
    "increased": 20273,
    "Ġpride": 3823,
    "Ġheaded": 11055,
    "Ġpaying": 9940,
    "Ġdejection": 15199,
    "Ġexhib": 6350,
    "Ġjurors": 17346,
    "Ġangular": 19208,
    "opence": 18508,
    "Ġinferences": 17937,
    "Ġwheelbarrow": 17206,
    "water": 4869,
    "Ġseventeen": 26212,
    "Ġoverjoyed": 17460,
    "Ġindestructible": 26573,
    "Ġcoop": 14272,
    "adie": 18091,
    "Ġacquaintance": 4133,
    "Ġamiss": 18512,
    "Ġdisaster": 12891,
    "Ġagain": 814,
    "aware": 16297,
    "Ġbenjamin": 26568,
    "Ġhowled": 12859,
    "Ġsog": 22080,
    "Ġslippers": 19618,
    "Ġmainmast": 9781,
    "Ġconcerning": 4067,
    "lower": 8882,
    "Ġwriggling": 15260,
    "Ġproced": 2579,
    "faith": 15026,
    "Ġtahiti": 13622,
    "Ġtransactions": 18483,
    "otes": 15747,
    "mention": 7215,
    "Ġmaw": 15543,
    "Ġvial": 10250,
    "lamps": 25261,
    "ings": 631,
    "Ġguiltless": 16941,
    "brevi": 24074,
    "Ł": 258,
    "Ġag": 684,
    "promise": 12254,
    "apple": 22844,
    "exhibited": 18478,
    "Ġgames": 11628,
    "sleep": 6510,
    "Ġsuperflu": 14555,
    "Ġfluctuations": 5516,
    "Ġmainly": 22652,
    "Ġsult": 10768,
    "Ġlocal": 1199,
    "list": 7551,
    "Ġgilder": 21617,
    "Ġcausal": 3409,
    "Ġvertical": 16605,
    "waited": 24587,
    "urns": 10215,
    "according": 12030,
    "interest": 5421,
    "Ġclaims": 13376,
    "sac": 7141,
    "manners": 16188,
    "oda": 15752,
    "smeer": 26148,
    "Ġtypically": 1535,
    "Ġrepulsive": 14530,
    "Ġsailed": 4890,
    "Ġscrupulous": 20072,
    "force": 12965,
    "Ġjudging": 16596,
    "Ġlabyrinth": 13682,
    "Ġruined": 12958,
    "Ġboon": 22643,
    "Ġsuns": 23277,
    "Ġhappens": 2190,
    "Ġimprudent": 12851,
    "man": 1054,
    "ancing": 1759,
    "Ġclearly": 6896,
    "Ġintuitions": 17343,
    "apologizing": 26545,
    "Ġtempor": 2368,
    "measure": 10033,
    "orified": 21405,
    "Ġuncivilized": 25499,
    "repeating": 20132,
    "obedience": 17412,
    "Ġdr": 2821,
    "Ġhare": 5157,
    "isure": 6241,
    "Ġoutright": 18414,
    "Ġcould": 703,
    "Ġphrases": 2794,
    "unusually": 15783,
    "Ġspring": 4121,
    "Ġbaff": 10800,
    "Ġdownst": 3556,
    "Ġtarshish": 12031,
    "Ġwhitt": 18057,
    "Ġchinese": 14185,
    "Ġruddy": 17127,
    "armed": 7251,
    "reat": 618,
    "ifling": 15786,
    "Ġunprincipled": 20710,
    "family": 7324,
    "Ġvest": 8164,
    "Ġcomp": 724,
    "Ġpencils": 23199,
    "Ġanatomical": 15079,
    "Ġhides": 16266,
    "Ġstays": 16563,
    "verest": 13993,
    "Ġocc": 887,
    "Ġimmemorially": 25384,
    "Ġhawk": 15176,
    "Ġconscientious": 16728,
    "Ġcongrat": 5828,
    "Ġoverflowed": 20265,
    "Ġfacial": 10607,
    "Ġspir": 2428,
    "arranted": 19322,
    "shown": 22454,
    "ched": 1548,
    "ruck": 6847,
    "net": 1195,
    "expressed": 9043,
    "Ġcalculating": 9927,
    "islands": 21379,
    "Ġlinear": 3431,
    "sn": 7139,
    "specific": 10499,
    "Ġoverall": 4360,
    "homely": 25618,
    "Ġrogue": 22410,
    "ethe": 9678,
    "Ġpallidness": 25605,
    "Ġspars": 3810,
    "Ġprinc": 4201,
    "Ġwarden": 17226,
    "vig": 15448,
    "Ġvariance": 1169,
    "Ġbra": 3255,
    "Ġsympat": 13344,
    "eridge": 15528,
    "Ġ17": 5740,
    "chooses": 23673,
    "Ġinscrutable": 10674,
    "Ġcheerfully": 12138,
    "sham": 9759,
    "Ġbrooded": 23108,
    "Ġ1894": 5196,
    "Ġlivelihood": 24773,
    "Ġcups": 16883,
    "Ġgreece": 17069,
    "tackle": 17323,
    "mother": 5480,
    "Ġ113": 19699,
    "Ġdisputes": 25826,
    "wondered": 17117,
    "pire": 9137,
    "ruding": 9726,
    "Ġoverdone": 22357,
    "linging": 16081,
    "G": 43,
    "awake": 14454,
    "Ġtorment": 8677,
    "Ġbewil": 11659,
    "ures": 837,
    "quadrille": 20598,
    "apparat": 22848,
    "dwelt": 23874,
    "Ġensemble": 1610,
    "Ġunerring": 15850,
    "Ġgleaming": 24998,
    "Ġexternal": 8367,
    "Ġanyone": 4460,
    "Ġdesp": 3217,
    "cond": 1663,
    "conclusion": 25672,
    "mies": 20970,
    "Ē": 211,
    "Ġswash": 23059,
    "Ġprizes": 13077,
    "und": 4118,
    "Ġinjured": 9041,
    "Ġbeatrix": 24206,
    "Ġfollows": 7674,
    "Ġcuts": 14607,
    "heard": 5009,
    "Ġsavannah": 17418,
    "describe": 1515,
    "Ġforster": 5230,
    "Ġvibration": 17099,
    "Ġannoy": 17200,
    "Ġhereditary": 10666,
    "perai": 10278,
    "Ġnovel": 6696,
    "momentum": 4991,
    "Ġdefinition": 14406,
    "venison": 22632,
    "Ġlick": 21554,
    "gies": 13728,
    "Ġcongratulated": 19769,
    "Ġkindliness": 23296,
    "transp": 24508,
    "enjoyments": 25434,
    "umst": 2503,
    "morrow": 4573,
    "Ġoctavo": 15166,
    "Ġconsequence": 5541,
    "witness": 10037,
    "Ġ110": 24434,
    "Ġoccupies": 24011,
    "Ġforbade": 15217,
    "helped": 18927,
    "thereby": 14449,
    "affection": 7487,
    "Ġutmost": 5496,
    "Ġbond": 21387,
    "Ġsuperseded": 26226,
    "Ġyer": 15737,
    "orses": 6053,
    "meet": 11859,
    "abond": 15744,
    "Ġunav": 18238,
    "Ġunderground": 18985,
    "Ġwh": 328,
    "savor": 25027,
    "Ġtist": 21165,
    "eland": 11622,
    "Ġflorid": 17137,
    "anthrop": 17384,
    "diversity": 25898,
    "Ġhaughty": 11450,
    "Ġdusty": 14926,
    "Ġsandwic": 24665,
    "Ġshells": 20367,
    "Ġpon": 10177,
    "Ġbert": 4583,
    "Ġlifelessly": 23054,
    "Ġquench": 22424,
    "1775": 26379,
    "Ġdissect": 16055,
    "Ġpromotion": 23198,
    "Ġantip": 24179,
    "gling": 10099,
    "ending": 1991,
    "Ġdiscovered": 4414,
    "¢": 100,
    "ynolds": 10038,
    "anxious": 15112,
    "Ġelasticity": 19561,
    "hid": 13736,
    "Ġhorner": 8960,
    "Ġinquisitive": 26318,
    "Ġdegrad": 2589,
    "arch": 1124,
    "investments": 25533,
    "convolutional": 4958,
    "Ġvisited": 5949,
    "Ġetext": 23953,
    "allies": 14167,
    "Ġfoe": 7681,
    "Ġfragmentary": 25857,
    "Ġschool": 5512,
    "mature": 20969,
    "vity": 7816,
    "ades": 5631,
    "Ġwildness": 14603,
    "build": 12191,
    "Ġscales": 4851,
    "Ġretreating": 19802,
    "Ġgradients": 611,
    "Ġfidelity": 15244,
    "Ġwindigate": 18912,
    "fil": 12466,
    "Ġdrawling": 19440,
    "Ġfirst": 939,
    "Ġaccordance": 19501,
    "emin": 8471,
    "hyena": 24254,
    "iction": 4271,
    "iousness": 4900,
    "Ġlimited": 23547,
    "mat": 2201,
    "solitude": 23298,
    "cannot": 5745,
    "Ġlately": 6386,
    "Ġtribute": 15477,
    "merc": 19282,
    "Ġlace": 13951,
    "Ġlobster": 11390,
    "Ġpince": 21475,
    "nineteenth": 26139,
    "iii": 14778,
    "valuable": 8249,
    "Ġepic": 15031,
    "Ġpersisting": 18881,
    "Ġinequalities": 26454,
    "object": 6883,
    "Ġcount": 1814,
    "2": 22,
    "liament": 16220,
    "Ġsplashing": 16551,
    "grave": 16097,
    "ĠĠĠĠĠĠĠĠĠĠĠĠĠĠĠĠĠĠĠĠĠĠĠĠĠĠĠĠĠĠĠĠĠĠ": 14613,
    "Ġprodigious": 8058,
    "Ġcommercial": 22678,
    "Ġuncovered": 23435,
    "brim": 23576,
    "Ġheaviest": 23328,
    "Ġobtain": 8917,
    "Ġgiants": 25961,
    "Ġconfessor": 24022,
    "Ġchooses": 13350,
    "vessels": 10627,
    "Ġconsolation": 6209,
    "whal": 10941,
    "Ġwinchester": 10068,
    "Ġmagical": 23103,
    "Ġfr": 1695,
    "Ġfant": 9175,
    "Ġbaling": 17861,
    "allows": 15910,
    "sculptured": 26047,
    "Ġgrove": 12150,
    "Ġsteel": 3887,
    "Ġrises": 9715,
    "Ġevolved": 9894,
    "boxes": 16889,
    "Ġverdure": 10614,
    "Ġra": 827,
    "Ġhatchways": 24992,
    "entreat": 17978,
    "block": 11471,
    "Ġpettiness": 24231,
    "ann": 5803,
    "oftentimes": 19424,
    "Ġdanger": 3517,
    "Ġbusied": 19066,
    "Ġenlarged": 25986,
    "happ": 3104,
    "letters": 13177,
    "Ġind": 1221,
    "Ġsouthampton": 24308,
    "invari": 21187,
    "Ġargued": 13632,
    "caut": 20814,
    "ule": 6800,
    "Ġsparsity": 4211,
    "Ġsant": 21217,
    "Ġobservant": 20113,
    "thr": 12764,
    "Ġ(_": 3736,
    "Ġlargely": 14287,
    "Ġrattled": 15071,
    "Ġexpressed": 4468,
    "Ġoccasional": 7289,
    "desolate": 25717,
    "supers": 22640,
    "Ġtooks": 23329,
    "Ġaudacity": 19884,
    "rote": 4593,
    "longbourn": 9898,
    "Ġaccidental": 16849,
    "Ġtransports": 24279,
    "Ġhundreds": 4330,
    "Ġsimply": 7218,
    "Ġtempered": 12927,
    "Ġshovel": 23493,
    "Ġpemberley": 4589,
    "Ġarranging": 11175,
    "Ġhit": 7164,
    "haw": 6362,
    "Ġamounts": 6705,
    "gast": 20873,
    "Ġhands": 1664,
    "Ġmaintain": 856,
    "jewell": 25524,
    "Ġramadans": 25122,
    "duty": 20242,
    "superstitious": 17282,
    "Ġdenoted": 16567,
    "Ġcentaurs": 23836,
    "philosop": 9569,
    "Ġterra": 13120,
    "Ġtho": 21518,
    "itating": 9652,
    "monograph": 23529,
    "collected": 13216,
    "learn": 2478,
    "oe": 7552,
    "gled": 10700,
    "Ġpolitic": 23620,
    "Ġheedless": 14904,
    "Ġdate": 7842,
    "cceed": 4144,
    "Ġjustinian": 22971,
    "Ġcentre": 5123,
    "super": 5944,
    "?_": 8071,
    "Ġconstitution": 20112,
    "Ġhooded": 12409,
    "Ġbaggy": 24537,
    "coronet": 16864,
    "mmet": 10989,
    "Ġsli": 4749,
    "Ġlodge": 5779,
    "Ġkiller": 19571,
    "ody": 1477,
    "Ġfriesland": 26443,
    "Ġdey": 11677,
    "Ġrapidity": 11104,
    "etime": 12663,
    "Ġparaph": 22125,
    "P": 52,
    "Ġpron": 6450,
    "Ġruth": 14096,
    "Ġwast": 21865,
    "Ġabruptly": 15153,
    "fri": 20856,
    "vine": 10735,
    "anation": 5804,
    "Ġnobleman": 19395,
    "Ġbingley": 1676,
    "idelburgh": 10563,
    "Ġsubst": 4276,
    "Ġstarlight": 24628,
    "Ġdissol": 18552,
    "Ġterrible": 5328,
    "Ġconnectivity": 3666,
    "Ġboarding": 12090,
    "Ġ177": 13415,
    "Ġsk": 960,
    "preserver": 20216,
    "roylott": 20030,
    "Ġuplifted": 11649,
    "ceived": 1967,
    "Ġendangered": 16305,
    "Ġattribute": 16100,
    "constantly": 24608,
    "vib": 21118,
    "13": 20752,
    "Ġrenewed": 9540,
    "Ġsmallest": 6429,
    "Ġoxford": 11372,
    "oldened": 22645,
    "ieving": 7032,
    "concl": 12873,
    "centred": 25020,
    "ĠĠĠĠĠĠĠĠĠĠĠĠĠĠĠĠĠĠĠĠĠĠĠĠĠĠĠĠĠĠĠĠĠĠĠĠĠĠĠĠĠĠĠ": 12158,
    "Ġeavesdroppers": 25964,
    "Ġspoken": 4838,
    "Ġinclusive": 24165,
    "Ġafterwards": 3528,
    "Ġtry": 3135,
    "ruction": 4359,
    "ressed": 3019,
    "Ġgazette": 19504,
    "/(": 2977,
    "inquire": 16933,
    "mates": 5073,
    "latin": 25259,
    "diver": 20833,
    "Ġproposal": 10021,
    "Ġtwelvemonth": 12181,
    "gely": 10701,
    "Ġsustenance": 19937,
    "greg": 6649,
    "Ġwallet": 21301,
    "Ġcabal": 23644,
    "Ġsensibility": 14512,
    "Ġsupposition": 9819,
    "accomplished": 17213,
    "Ġtarpaul": 17731,
    "ult": 723,
    "Ð": 145,
    "Ġcontemplative": 19895,
    "bar": 7541,
    "acquired": 24297,
    "Ġgarden": 3825,
    "time": 3148,
    "Ġindirect": 18837,
    "chants": 21696,
    "amuse": 14055,
    "pred": 2799,
    "ober": 15408,
    "Ġarrogance": 26233,
    "Ġacc": 572,
    "Ġthrobbing": 16899,
    "Ġfle": 3091,
    "Ġeconomically": 25289,
    "Ġreus": 8825,
    "Ġadmits": 23556,
    "elstrom": 17984,
    "Ġevidence": 5270,
    "Ġcongeal": 25981,
    "esteem": 26009,
    "Ġtell": 1467,
    "beautiful": 10650,
    "arranging": 19320,
    "Ġrestricted": 19029,
    "Ġaustralia": 15235,
    "taking": 5689,
    "Ġenlist": 21941,
    "Ġmatrim": 11061,
    "Ġcompens": 14265,
    "shipmates": 11931,
    "Ġunperceived": 22038,
    "Ġpickle": 16723,
    "thorough": 21990,
    "Ġosc": 2832,
    "lungs": 26136,
    "Ġstru": 2173,
    "Ġmonomania": 17085,
    "Ġanticipated": 13513,
    "Ġwards": 17791,
    "Ġpenn": 11113,
    "Ġrepresent": 1211,
    "Ġclatter": 22362,
    "Ġhut": 15622,
    "Ġtwink": 8217,
    "Ġstooped": 14466,
    "Ġspl": 2979,
    "carrying": 16714,
    "attempts": 17192,
    "Ġtouching": 4682,
    "pooh": 18800,
    "urbed": 15712,
    "makes": 10712,
    "Ġengravings": 15070,
    "reluct": 26164,
    "Ġpanther": 16820,
    "supportable": 12373,
    "henomenon": 13617,
    "Ġmole": 11794,
    "Ġbec": 1346,
    "Ġsurvey": 13596,
    "volut": 1565,
    "cheer": 9439,
    "beauty": 20107,
    "Ġrightly": 13069,
    "Ġimmensity": 25330,
    "Ġteacup": 16215,
    "Ġtranqu": 4605,
    "Ġanchors": 12617,
    "Ġmonotonous": 13266,
    "Ġsecretly": 13275,
    "uing": 17694,
    "ville": 6088,
    "Ġpsych": 10178,
    "Ġbulldog": 23862,
    "Ġunfulfilled": 26510,
    "Ġalarm": 4046,
    "Ġconsoling": 19460,
    "resolved": 9641,
    "Ġaugust": 10599,
    "Ġimmediate": 6090,
    "shabb": 18494,
    "Ġ90": 24590,
    "urs": 6989,
    "Ġhappily": 9333,
    "score": 18858,
    "Ġdiggings": 24650,
    "aternity": 21268,
    "Ġcirc": 1987,
    "lested": 14884,
    "Ġthee": 2621,
    "Ġrumors": 11322,
    "Ġsod": 11563,
    "Ġunwilling": 7887,
    "Ġdiana": 21440,
    "Ġsuch": 795,
    "Ġhim": 476,
    "oms": 4594,
    "cannon": 22966,
    "Ġcongratulations": 10582,
    "Ġcandelabra": 26603,
    "ĠâĢľâĢĺ": 8505,
    "Ġexpectation": 6903,
    "japan": 15377,
    "Ġinf": 1846,
    "acity": 5735,
    "adier": 18092,
    "cannibal": 15227,
    "Ġstair": 8457,
    "Ġtwins": 16123,
    "Ġrob": 1317,
    "place": 4155,
    "promote": 24726,
    "Ġperils": 6274,
    "giving": 8742,
    "Ġsharpen": 13572,
    "Ġgothic": 18002,
    "Ġpike": 12627,
    "Ġconsiderations": 9412,
    "Ġrecur": 1623,
    "gazed": 15364,
    "Ġpeasants": 12335,
    "Ġlatterly": 24083,
    "Ġdusky": 13552,
    "affa": 23779,
    "Ġexpress": 2197,
    "Ġshadow": 5595,
    "Ġwest": 5219,
    "account": 5330,
    "preference": 22472,
    "Ġrand": 1587,
    "Ġwatery": 6297,
    "arrang": 14652,
    "Ġnoiseless": 10359,
    "Ġtints": 17728,
    "stumps": 21663,
    "Ġced": 10785,
    "Ġlacey": 10199,
    "Ġalter": 6543,
    "thrusting": 20262,
    "Ġrelied": 16197,
    "Ġcupboard": 16884,
    "Ġlicence": 25099,
    "Ġdistricts": 20266,
    "descried": 11932,
    "Ġfearlessness": 19163,
    "Ġphilosophers": 10553,
    "Ġbows": 4082,
    "Ġapparent": 5466,
    "ahab": 4292,
    "screaming": 20328,
    "spoutings": 25006,
    "Ġunintermitted": 26221,
    "hypothe": 25906,
    "Ġstranded": 9777,
    "powerful": 24848,
    "period": 15900,
    "oors": 17621,
    "Ġsank": 5076,
    "neying": 22468,
    "Ġshaping": 22008,
    "inkers": 22620,
    "whether": 5320,
    "ibilities": 13012,
    "Ġhish": 21918,
    "brew": 11474,
    "Ġbrawn": 10483,
    "Ġendeavours": 8621,
    "Ġabout": 633,
    "Ġbridegroom": 10606,
    "cross": 3573,
    "Ġnoiselessly": 22868,
    "Ġellenborough": 26155,
    "rying": 3188,
    "Ġleaves": 5021,
    "Ġuntidy": 23526,
    "Ġethiopian": 26614,
    "conditional": 9080,
    "Ġalabama": 14021,
    "chambers": 25455,
    "vand": 21111,
    "Ġwhether": 2001,
    "Ġfiles": 21417,
    "Ġchalk": 15936,
    "Ġ54": 24317,
    "Ġspeech": 4611,
    "ons": 709,
    "Ġsketches": 26272,
    "conjectures": 25181,
    "Ġpreceding": 7528,
    "]": 65,
    "Ġwithdrawn": 10608,
    "Ġdoings": 18377,
    "swept": 19789,
    "Ġeh": 6987,
    "Ġinstructing": 3123,
    "asion": 5714,
    "Ġhertfordshire": 5377,
    "Ġcolossal": 11460,
    "swing": 15431,
    "birth": 15324,
    "Ġdepicted": 14278,
    "Ġcanv": 7010,
    "Ġpostscript": 14809,
    "Ġindependent": 9018,
    "Ġrelent": 18776,
    "Ġgamesome": 17291,
    "oes": 4435,
    "recked": 17763,
    "Ġvideo": 25366,
    "âĢĻ,": 14072,
    "thoughts": 9937,
    "Ġcetace": 14990,
    "Ġmissed": 8557,
    "Ġimpassable": 20615,
    "itig": 1329,
    "splinter": 25211,
    "Ġequinoctial": 20535,
    "iftings": 23229,
    "stripped": 16946,
    "torn": 17683,
    "Ġstudent": 14480,
    "ultaneously": 4195,
    "Ġgrounds": 6750,
    "semicirc": 26492,
    "Ġcomprise": 18584,
    "seemed": 4306,
    "Ġdeception": 18142,
    "conclusions": 25673,
    "longer": 8616,
    "Ġrule": 1533,
    "ā": 194,
    "ropol": 10954,
    "Ġturnkeys": 23032,
    "dan": 17516,
    "Ġshoulders": 5565,
    "Ġlungs": 8364,
    "declaration": 25176,
    "twill": 21077,
    "valley": 16217,
    "Ġanticip": 7507,
    "Ġwillingness": 24911,
    "blow": 9106,
    "Ġdictated": 25219,
    "Ġlogger": 11957,
    "create": 24161,
    "falsehood": 25902,
    "Ġlives": 4828,
    "Ġunlucky": 10052,
    "Ġrise": 5637,
    "Ġdang": 9176,
    "Ġbroom": 18908,
    "Ġbird": 3755,
    "Ġtook": 1855,
    "Ġaback": 22271,
    "reception": 15516,
    "Ġreasoning": 2047,
    "Ġferrule": 24516,
    "Ġchecked": 9378,
    "Ġpay": 3961,
    "Ġmaids": 19694,
    "Ġcastors": 23979,
    "Ġtwos": 18658,
    "Ġhos": 4942,
    "forth": 9324,
    "laug": 10708,
    "Ġthreshold": 2806,
    "Ġfrequent": 3286,
    "j": 78,
    "considerably": 13448,
    "Ġrecurred": 18978,
    "reply": 19725,
    "Ġperusal": 14226,
    "Ġdrugg": 17121,
    "Ġslammed": 20451,
    "rics": 13042,
    "calculating": 25690,
    "Ġ108": 19687,
    "attain": 21264,
    "om": 315,
    "shore": 10307,
    "Ġcem": 17825,
    "Ġstrives": 23698,
    "Ġdeclaring": 19423,
    "weather": 7229,
    "Ġfade": 21411,
    "Ġchaps": 14181,
    "Ġimpul": 7208,
    "riving": 21931,
    "tro": 15435,
    "othic": 16218,
    "Ġinexperienced": 26101,
    "Ġmalays": 19680,
    "oars": 9616,
    "Ġsimulation": 2747,
    "cruet": 17027,
    "Ġperfect": 2556,
    "Ġpant": 10818,
    "Ġflutter": 16249,
    "loving": 18538,
    "fatal": 17088,
    "abashed": 21797,
    "gans": 11491,
    "Ġimmeas": 18331,
    "heidelburgh": 21214,
    "indifferent": 14210,
    "Ġsetting": 7047,
    "Ġungracious": 18256,
    "Ġbrah": 19360,
    "Ġearl": 7677,
    "Ġclaret": 22368,
    "ier": 1135,
    "Ġunra": 18235,
    "previously": 17209,
    "Ġwhole": 1662,
    "preser": 9762,
    "Ġbrushed": 15574,
    "Ġcobweb": 22590,
    "Ġthumb": 6981,
    "however": 4375,
    "Ġunmindful": 22067,
    "Ġgates": 10202,
    "indirect": 22377,
    "Ġperse": 6273,
    "Ġdodo": 9074,
    "Ġincluded": 8958,
    "orus": 10802,
    "province": 26073,
    "Ġrap": 14309,
    "Ġminute": 4281,
    "Ġdependency": 3485,
    "Ġdug": 21434,
    "Ġdisappears": 18561,
    "pond": 21015,
    "Ġwooded": 23523,
    "Ġcasket": 19727,
    "gen": 6502,
    "Ġabusing": 18394,
    "Ġcage": 17827,
    "mering": 12494,
    "_).âĢĶ": 8685,
    "elly": 17982,
    "Ġbeheading": 21759,
    "Ġsou": 1889,
    "fitted": 17545,
    "Ġfeet": 2258,
    "mouse": 15395,
    "concluding": 19484,
    "Ġprincip": 5599,
    "board": 3562,
    "bermaid": 20792,
    "Ġby": 383,
    "Ġ52": 24316,
    "concern": 5876,
    "Ġxlix": 25861,
    "took": 6165,
    "Ġevinced": 7101,
    "Ġbountiful": 25945,
    "Ġdivine": 6920,
    "Ġsn": 2943,
    "Ġimbalance": 22179,
    "affect": 13215,
    "naturally": 14571,
    "Ġdrunkard": 20180,
    "rably": 21637,
    "Ġost": 9651,
    "Ġstairs": 5540,
    "ference": 1884,
    "Ġpag": 6012,
    "Ġungover": 18253,
    "Ġobliter": 14324,
    "lodged": 25908,
    "Ġdismay": 11812,
    "neighb": 16030,
    "mason": 17603,
    "land": 1530,
    "round": 3367,
    "Ġdrily": 23542,
    "Ġluckily": 16799,
    "Ġhelen": 16657,
    "Ġstone": 4647,
    "grateful": 10429,
    "recurring": 24196,
    "Ġwhirl": 13452,
    "Ġclue": 7021,
    "etieth": 21588,
    "Ġlingered": 13507,
    "Ġfragrant": 13090,
    "usation": 18402,
    "Ġfathom": 17048,
    "Ġtipt": 21176,
    "Ġphotography": 24684,
    "aract": 17896,
    "antediluvian": 24345,
    "Ġfootpath": 19340,
    "come": 2378,
    "Ġcopestone": 24939,
    "Ġconfusing": 23308,
    "Ġcrib": 21351,
    "Ġwilds": 16510,
    "recurrent": 4994,
    "Ġsumm": 3355,
    "Ġreliably": 22884,
    "Ġrecording": 24433,
    "Ġdist": 680,
    "Ġset": 1178,
    "Ġwan": 15530,
    "Ġcetology": 10011,
    "Ġmannish": 26239,
    "Ġtamely": 24982,
    "Ġirr": 10422,
    "Ġpurposed": 23554,
    "Ġseize": 8167,
    "Ġotherwise": 4659,
    "Ġloosed": 22117,
    "Ġkind": 1786,
    "Ġobserve": 4672,
    "bation": 9105,
    "Ġvindictive": 20473,
    "par": 1864,
    "Ġsecret": 3719,
    "Ġsom": 1275,
    "Ġstrictest": 17042,
    "hairs": 20906,
    "Ġdivergence": 2722,
    "Ġharshly": 25250,
    "irst": 878,
    "hing": 980,
    "cr": 4011,
    "Ġwindows": 4971,
    "abilizing": 2918,
    "Ġuncont": 14117,
    "Ġemergencies": 17364,
    "Ġturbul": 23614,
    "<EOS>": 2,
    "Ġgills": 17995,
    "Ġwinding": 8237,
    "Ġwails": 21299,
    "Ġchestnuts": 24380,
    "Ġmillions": 11355,
    "Ġtortured": 14925,
    "Åĵuvre": 25888,
    "Ġasked": 2279,
    "Ġfurnish": 9021,
    "Ġsepulchral": 25893,
    "Ġextravagant": 17280,
    "Ġack": 5621,
    "Ġroylott": 7305,
    "Ġgrappling": 25813,
    "Ġinfidel": 13104,
    "Ġbelieved": 4369,
    "education": 20304,
    "Ġunrecorded": 17469,
    "interval": 7992,
    "Ġleading": 7297,
    "Ġolder": 9329,
    "Ġspirit": 3723,
    "isance": 17849,
    "Ġspectacles": 12101,
    "olly": 3228,
    "Ġconfed": 13100,
    "sight": 5996,
    "Ġimmensities": 25331,
    "Ġbl": 1191,
    "Ġpromote": 23197,
    "Ġfinest": 10394,
    "oarsman": 25262,
    "Ġlandlord": 5580,
    "prep": 9761,
    "flinging": 20870,
    "Ã¦us": 14818,
    "Ġsolitude": 6875,
    "Ġexclamation": 8702,
    "Ġmagnificent": 9846,
    "ze": 1349,
    "catch": 17508,
    "Ġcontracting": 16014,
    "Ġhomage": 12358,
    "Ġpress": 5933,
    "Ġmess": 7832,
    "Ġthigh": 10188,
    "tanh": 5204,
    "Ġconfluent": 19038,
    "Ġnetworks": 599,
    "Ġsweetheart": 19398,
    "apering": 8042,
    "cav": 17509,
    "Ġcomputer": 1183,
    "Ġproperty": 6449,
    "Ġprice": 10404,
    "unken": 10238,
    "adel": 15732,
    "labours": 16618,
    "bourine": 9398,
    "Ġworld": 1599,
    "Ġerrand": 11086,
    "Ġplumage": 17300,
    "rifled": 21050,
    "Ġopine": 19230,
    "Ġsquint": 22839,
    "Ġinterested": 6457,
    "arrived": 12613,
    "pretend": 24883,
    "Ġpunishment": 9958,
    "occasion": 7754,
    "science": 11912,
    "Ġcommenting": 25229,
    "Ġladyship": 5046,
    "Ġdivinest": 25722,
    "Ġmaimed": 21319,
    "oa": 9614,
    "name": 6795,
    "Ġ41": 24080,
    "Ġfitted": 6244,
    "Ġevenly": 4129,
    "elijah": 19476,
    "Ġtrowsers": 9629,
    "Ġbefore": 810,
    "guilty": 19486,
    "Ġfelt": 1747,
    "Ġlevel": 5020,
    "weave": 22689,
    "Ġenumer": 12749,
    "phon": 4127,
    "Ġasserted": 16950,
    "Ġembedding": 2104,
    "ys": 3958,
    "Ġeverlasting": 9339,
    "Ġjoker": 22303,
    "entreaties": 26187,
    "Ġwon": 1665,
    "ethics": 8880,
    "despatched": 19804,
    "Ġsurrey": 14559,
    "Ġugly": 8719,
    "Ġprosperity": 20260,
    "librarian": 26569,
    "Ġreaching": 7303,
    "reputation": 15517,
    "Ġsemblance": 20736,
    "Ġkill": 4455,
    "Ġcommunity": 19011,
    "Ġmorbid": 16237,
    "Ġmainz": 22651,
    "Ġcolle": 8926,
    "ump": 2286,
    "Ġfireside": 23534,
    "eu": 17531,
    "Ġwhich": 503,
    "anel": 21360,
    "Ġ24": 13194,
    "eers": 20845,
    "Ġirreproachable": 24918,
    "Ġgrated": 22808,
    "Ġtrifling": 10604,
    "pend": 6367,
    "keeping": 8638,
    "letons": 14612,
    "Ġwished": 3728,
    "Ġdeliber": 7268,
    "unning": 4494,
    "Ġrobust": 1398,
    "Ġineffect": 13932,
    "Ġsaintly": 25932,
    "Ġtoken": 2038,
    "icing": 9202,
    "itional": 22479,
    "Ġresolved": 3797,
    "Ġfell": 1979,
    "Ġprecipice": 19944,
    "Ġearly": 2080,
    "Ġappearing": 9843,
    "Ġevery": 926,
    "ouch": 2777,
    "bare": 12444,
    "Ġunluckily": 20105,
    "Ġunjustly": 17128,
    "pause": 12504,
    "ede": 21510,
    "convers": 6568,
    "Ġquies": 18465,
    "Ġoctober": 17228,
    "Ġreplay": 5047,
    "Ġawaken": 23588,
    "Ġfather": 1450,
    "performed": 18343,
    "ampton": 18148,
    "which": 1709,
    "agation": 1251,
    "Ġware": 12558,
    "Ġkitchen": 8497,
    "intelligence": 5884,
    "Ġincorrect": 2723,
    "Ġvinegar": 20103,
    "Ġblended": 16221,
    "stochastic": 3772,
    "itics": 13874,
    "Ġdeliver": 9851,
    "Ġbaptized": 25775,
    "nameless": 19905,
    "entering": 17979,
    "Ġinspecting": 24615,
    "ifies": 6687,
    "assured": 10953,
    "Ġbeget": 9227,
    "Ġspiral": 14584,
    "Ġsmell": 7216,
    "writhed": 26081,
    "Ġregarding": 13213,
    "Ġattic": 16098,
    "ķ": 248,
    "sounded": 12270,
    "Ġachieved": 13169,
    "Ġcommonly": 3264,
    "Ġadapts": 3817,
    "feature": 4003,
    "Ġwindow": 2994,
    "Ġdescrying": 18619,
    "thence": 23403,
    "Ġchair": 3661,
    "ý": 190,
    "Ġbreakers": 12058,
    "app": 1037,
    "subsided": 25832,
    "Ġdived": 9179,
    "ĠâĢľâĢĶ": 9736,
    "Ġsponge": 26004,
    "objections": 19918,
    "Ġaught": 8777,
    "Ġbarrier": 16571,
    "Ġsch": 13837,
    "Ġacutely": 14316,
    "measureless": 20238,
    "inglass": 21305,
    "dependence": 17169,
    "weight": 2933,
    "Ġwoods": 5406,
    "Ġfogs": 25283,
    "Ġsluggishly": 25892,
    "Ġrespecting": 14485,
    "comfort": 5647,
    "looked": 6084,
    "Ġwatched": 6298,
    "Ġcig": 6519,
    "Ġleatherhead": 20017,
    "Ġpacket": 14894,
    "charlotte": 6472,
    "ancholy": 5070,
    "Ġbabel": 24425,
    "pressing": 19015,
    "Ġthirt": 13941,
    "Ġhy": 5625,
    "Ġspecimen": 13027,
    "Ġdrow": 21430,
    "harpooned": 24287,
    "Ġtug": 11552,
    "solic": 16377,
    "Ġstifle": 18079,
    "Ġdecreed": 18485,
    "aces": 2070,
    "ops": 5248,
    "Ġabsurd": 7202,
    "cun": 20797,
    "Ġrock": 5311,
    "Ġdigress": 24649,
    "Ġperches": 18450,
    "Ġchambermaid": 24305,
    "erted": 7361,
    "Ġscrolled": 22289,
    "Ġbark": 10799,
    "fastened": 19327,
    "Ġspleen": 26422,
    "Ġdivineness": 25724,
    "Ġstayed": 7999,
    "Ġtrain": 516,
    "tawn": 21083,
    "Ġsymp": 4503,
    "Ġyesterday": 5333,
    "Ġboister": 12924,
    "Ġlaughed": 5059,
    "ć": 200,
    "Ġpockets": 8898,
    "Ġdagger": 21441,
    "riety": 12747,
    "Ġexponential": 1059,
    "Ġpol": 2576,
    "darkness": 9514,
    "tstone": 21087,
    "^{": 15307,
    "Ġzones": 22823,
    "Ġimplac": 24875,
    "fact": 6359,
    "strom": 15687,
    "Ġcircle": 4977,
    "dread": 8732,
    "umbled": 8494,
    "pyramid": 21032,
    "Ġbonds": 17871,
    "waste": 21137,
    "Ġscrewing": 20211,
    "Ġcarriage": 3948,
    "Ġplanted": 9776,
    "Ġhowever": 1303,
    "Ġfearing": 12819,
    "Ġrevered": 23736,
    "Ġmaker": 15546,
    "Ġswart": 14436,
    "Ġrefers": 1569,
    "Ġmant": 9649,
    "Ġxxii": 24477,
    "Ġconjectured": 9999,
    "Ġsubl": 7235,
    "Ġunsupp": 22022,
    "Ġboards": 14303,
    "Ġtheatre": 21281,
    "Ġdiscoveries": 13362,
    "Ġstubb": 1788,
    "Ġimpact": 10298,
    "ild": 1154,
    "Ġdens": 21428,
    "tiger": 13799,
    "asper": 7856,
    "Ġshr": 4229,
    "read": 3275,
    "cellar": 20280,
    "Ġadmirers": 19689,
    "Ġreduced": 11927,
    "silver": 19693,
    "Ġrack": 9315,
    "doubtless": 17003,
    "Ġswayed": 15049,
    "does": 6195,
    "Ġpurch": 6600,
    "twice": 14621,
    "dawson": 26129,
    "become": 14248,
    "countenance": 6924,
    "Ġartful": 22614,
    "Ġfund": 2840,
    "towns": 24855,
    "slipped": 25530,
    "Ġslewed": 23388,
    "Ġskylight": 24073,
    "Ġdemocracy": 25459,
    "Ġbuttoning": 17237,
    "iner": 2666,
    "Ġaccumulation": 2688,
    "Ġweighty": 16035,
    "Ġrationally": 18214,
    "Ġstruct": 2781,
    "Ġwilt": 9645,
    "Ġruminated": 24601,
    "bern": 20777,
    "Ġperry": 22402,
    "Ġpants": 21469,
    "Ġsupposing": 6730,
    "forgetting": 25486,
    "Ġoverthrow": 18428,
    "quickly": 14963,
    "Ġmeeting": 5193,
    "Ġbroiled": 18910,
    "Ġsnail": 19301,
    "advantage": 8662,
    "Ġhastening": 19338,
    "Ġspear": 9314,
    "Ġeffemin": 18541,
    "Ġpane": 21467,
    "ipped": 5790,
    "Ġspr": 4023,
    "ellation": 12753,
    "Ġbehaves": 23301,
    "jo": 3750,
    "Ġmidships": 23636,
    "Ġvalu": 5039,
    "Ġsol": 1104,
    "Ġawkwardness": 13490,
    "Ġbeast": 7180,
    "story": 9214,
    "Ġlips": 3989,
    "ific": 487,
    "Ġcalled": 1975,
    "plish": 18209,
    "inting": 9816,
    "Ġfav": 1756,
    "Ġwag": 10776,
    "Ġrepel": 23363,
    "representing": 25272,
    "Ġlawyers": 25249,
    "Ġpeninsula": 23200,
    "Ġvalleys": 14920,
    "Ġhav": 12758,
    "arily": 4126,
    "Ġhelmeted": 19691,
    "Ġadmirably": 16482,
    "tears": 11038,
    "darcy": 5208,
    "Ġmerrily": 23734,
    "Ġcorresponding": 13441,
    "lived": 12490,
    "client": 18934,
    "Ġlooking": 2472,
    "ġ": 226,
    "cottage": 9571,
    "Ġunpardonable": 22063,
    "Ġcapt": 1290,
    "Ġrefusal": 10346,
    "Ġdisenc": 22531,
    "Ġ66": 24368,
    "government": 25407,
    "eck": 20846,
    "Ġbattering": 13903,
    "athies": 22704,
    "Ġexult": 10231,
    "eddling": 11904,
    "apers": 3479,
    "Ġtreating": 4286,
    "Ġaffords": 16735,
    "transformer": 25018,
    "Ġconditions": 8308,
    "Ġplaces": 5390,
    "Ġshiny": 14108,
    "Ġmultiple": 1188,
    "damn": 20027,
    "Ġhelter": 24028,
    "Ġuppermost": 15281,
    "avor": 14279,
    "Ġerection": 24004,
    "hospit": 25904,
    "ah": 1831,
    "india": 22376,
    "Ġcontrolled": 23254,
    "ductive": 23939,
    "Ġworlds": 11951,
    "cated": 20805,
    "ĸ": 249,
    "damp": 15346,
    "Ġphren": 8574,
    "inate": 6234,
    "Ġislets": 21806,
    "Ġthings": 1965,
    "Ġdies": 11595,
    "Ġbeadle": 26485,
    "discovery": 12019,
    "ified": 3229,
    "Ġpull": 5152,
    "dece": 11737,
    "ably": 1847,
    "verse": 9690,
    "forster": 16168,
    "Ġleg": 2336,
    "Ġvital": 9245,
    "dragged": 16609,
    "Ġgradient": 450,
    "rowing": 7932,
    "Ġthickening": 24027,
    "plun": 15822,
    "Ġjack": 4654,
    "Ġphilipp": 23887,
    "elsewhere": 19870,
    "ols": 2412,
    "Ġfloundering": 16252,
    "pense": 10370,
    "Ġbecame": 2687,
    "Ġjon": 15951,
    "Ġrewarding": 13440,
    "..": 5783,
    "anned": 17841,
    "Ġplacing": 8903,
    "fiend": 13664,
    "Ġcal": 1324,
    "illustration": 2285,
    "deliber": 17428,
    "Ġexert": 5722,
    "Ġintegr": 7970,
    "Ġ1890": 23900,
    "Ġwarning": 9060,
    "Ġindicate": 23725,
    "Ġthundering": 24292,
    "Ġtorrid": 25035,
    "00": 1612,
    "Ġcandid": 4099,
    "wrong": 13209,
    "Ġedge": 5189,
    "Ġfettered": 24568,
    "Ġperceptible": 18453,
    "inclined": 10641,
    "Ġramble": 9316,
    "Ġvacancy": 9046,
    "Ġfreshly": 23990,
    "cords": 25139,
    "Ġthick": 3782,
    "Ġpolynes": 16082,
    "inously": 21189,
    "Ġkne": 4269,
    "Ġcheek": 8579,
    "Ġgoblets": 20522,
    "Ġlashing": 11618,
    "tled": 3456,
    "Ġvisible": 4778,
    "network": 1922,
    "Ġsprain": 18306,
    "Ġarctic": 12814,
    "Ġprimary": 25063,
    "Ġperishing": 22403,
    "Ġsports": 18311,
    "diff": 9115,
    "Ġmortification": 12098,
    "experience": 17160,
    "Ġhonourable": 10457,
    "Ġvanishing": 1343,
    "Ġthickness": 13281,
    "Ġrot": 10968,
    "Ġgeneralization": 983,
    "Ġfireboard": 23535,
    "Ġposture": 24166,
    "Ġappo": 8500,
    "Ġscud": 14192,
    "Ġjeopardized": 20233,
    "measured": 19993,
    "Ġmature": 17801,
    "Ġsquaw": 22840,
    "Ġserenely": 13509,
    "Ġmisanthropic": 26561,
    "cept": 552,
    "Ġnib": 13942,
    "Ġtricks": 13487,
    "Ġbeards": 21756,
    "Ġtattoo": 7359,
    "Ġforty": 5719,
    "Ġabreast": 18395,
    "Ġformality": 22832,
    "Ġfreedom": 9084,
    "Ġquivers": 22418,
    "estinated": 15926,
    "Ġproc": 5544,
    "Ġinh": 10825,
    "Ġhear": 1968,
    "spect": 3234,
    "Ġbressed": 21390,
    "addition": 13387,
    "Ġcause": 2410,
    "als": 2041,
    "unted": 6998,
    "prior": 21035,
    "Ġhair": 3312,
    "Ġmerchantmen": 19862,
    "Ġelbowed": 16113,
    "Ġpriests": 15042,
    "Ġsnatches": 16545,
    "orously": 8421,
    "okes": 9279,
    "//": 11464,
    "Ġspeaking": 4025,
    "Ġabundant": 17156,
    "Ġqueequeg": 2013,
    "Ġbackstays": 22660,
    "Ġcard": 7363,
    "Ġbearing": 5300,
    "kept": 11720,
    "Ġabode": 7902,
    "Ġimm": 3963,
    "Ġthese": 819,
    "ò": 179,
    "wing": 2518,
    "sav": 8098,
    "rice": 13779,
    "Ġchanced": 8188,
    "Ġunique": 12781,
    "leads": 21373,
    "100": 11465,
    "alle": 1292,
    "Ġingratitude": 17470,
    "Ġirrevocably": 15300,
    "resol": 17761,
    "acency": 12912,
    "derstand": 652,
    "Ġfurnished": 6474,
    "Ġhindrance": 25221,
    "Ġmumbled": 17809,
    "cre": 4253,
    "extent": 22773,
    "Ġsuccor": 25663,
    "Ġrelevant": 1863,
    "Ġrobes": 16264,
    "Ġgripping": 26188,
    "Ġcoleman": 22591,
    "Ġrefinement": 18701,
    "Ġparr": 22124,
    "jaw": 13745,
    "ari": 673,
    "Ġbasic": 24700,
    "Ġnearly": 3362,
    "Ġimprovements": 14516,
    "Ġcourse": 2132,
    "Ġestim": 3347,
    "Ġagents": 9768,
    "p": 84,
    "Ġirre": 7468,
    "Ġhugh": 15005,
    "lucases": 20213,
    "Ġslips": 23170,
    "tack": 12516,
    "machine": 998,
    "Ġwhipcord": 20098,
    "etite": 21583,
    "oured": 2667,
    "achusetts": 20712,
    "Ġquarters": 8623,
    "reckoning": 25271,
    "Ġdelicious": 14794,
    "Ġpolitely": 8995,
    "Ġinvolving": 18768,
    "for": 964,
    "Ġfootfalls": 25867,
    "asht": 4083,
    "Ġpitch": 5767,
    "play": 5099,
    "event": 8078,
    "Ġkate": 15908,
    "raged": 9213,
    "Ġincom": 9771,
    "dug": 18463,
    "iable": 3333,
    "Ġenormity": 19698,
    "Ġrnns": 2395,
    "lucky": 24544,
    "calabash": 22897,
    "Ġforest": 9873,
    "Ġbuzz": 24000,
    "Ġforth": 3461,
    "Ġkeenest": 12165,
    "fleet": 15015,
    "Ġours": 4613,
    "dissatisf": 26130,
    "eliest": 14747,
    "Ġresentful": 24633,
    "enormous": 26167,
    "Ġsubur": 12960,
    "lever": 2925,
    "Ġforce": 5092,
    "Ġsnuffed": 15075,
    "Ġpresum": 4839,
    "Ġnights": 7258,
    "Ġdidn": 4364,
    "Ġadmitted": 8988,
    "Ġclenched": 14209,
    "oper": 7347,
    "spears": 23945,
    "accepted": 20139,
    "Ġoaken": 13867,
    "ieve": 1658,
    "Ġwiping": 25766,
    "Ġheaps": 11644,
    "Ġrept": 13985,
    "Ġprecipitate": 19945,
    "croquet": 25748,
    "Ġnarrative": 6216,
    "Ġopulence": 23630,
    "Ġintermix": 25827,
    "Ġrele": 2911,
    "berries": 22723,
    "fields": 14653,
    "Ġcolumbus": 26565,
    "Ġinevitable": 15170,
    "Ġwhither": 10216,
    "Ġnewcastle": 16225,
    "bride": 19201,
    "elf": 565,
    "surd": 6933,
    "Ġwithal": 18116,
    "Ġslighted": 16569,
    "mical": 9130,
    "Ġtackles": 8052,
    "Ġredden": 15697,
    "Ġrocky": 13390,
    "Ġmontan": 22982,
    "Ġinquire": 7720,
    "Ġvanish": 8930,
    "yielded": 25757,
    "Ġdisappointed": 7098,
    "mysterious": 26052,
    "Ġgrunted": 16170,
    "Ġslide": 10395,
    "ibule": 13011,
    "Ġoldest": 12977,
    "Ġreigns": 21675,
    "ooped": 17624,
    "Ġdiscomposure": 20382,
    "scheme": 15257,
    "Ġheedfully": 24520,
    "soft": 12513,
    "Ġlo": 451,
    "Ġresentment": 7530,
    "Ġdaugh": 2295,
    "appalled": 18761,
    "Ġspiritual": 9932,
    "Ġdz": 4757,
    "Ġpeddler": 26181,
    "threat": 10901,
    "Ġoverhead": 11773,
    "eled": 2360,
    "Ġclouded": 13294,
    "windibank": 24163,
    "ople": 2320,
    "heim": 17747,
    "Ġstarve": 24627,
    "Ġcontradict": 12388,
    "Ġdismasted": 15254,
    "Ġbuilt": 8302,
    "Ġwert": 12560,
    "Ġfeigned": 22213,
    "Ġinclosed": 19541,
    "Ġswallowed": 7945,
    "Ġprot": 3847,
    "Ġcoco": 11001,
    "iences": 6956,
    "innocence": 15186,
    "Ġfolded": 7768,
    "Ġloc": 10915,
    "Ġhears": 8140,
    "Ġpoisoned": 24887,
    "Ġdevotedly": 24749,
    "rowsers": 8698,
    "Ġpriority": 19765,
    "Ġdiffidence": 14659,
    "Ġconjoined": 21811,
    "Ġcon": 348,
    "Ġourselves": 5127,
    "Ġpor": 5225,
    "Ġdoxology": 22249,
    "Ġapply": 1777,
    "token": 21085,
    "Ġencourag": 1392,
    "hob": 20902,
    "Ġhappier": 10361,
    "Ġinventing": 24862,
    "Ġohio": 19130,
    "Ġ(`": 12857,
    "offic": 7466,
    "Ġdivision": 19447,
    "Ġponder": 6818,
    "runs": 25416,
    "irium": 8163,
    "Ġsodden": 25536,
    "itates": 13871,
    "Ġabsor": 8506,
    "Ġdaybreak": 18727,
    "Ġprovocation": 24193,
    "Ġmoccas": 22439,
    "Ġwhisper": 6206,
    "beards": 22495,
    "arius": 14250,
    "captains": 12131,
    "oso": 12835,
    "Ġhel": 3786,
    "icular": 2023,
    "belled": 24039,
    "Ġwax": 10777,
    "Ġunceasing": 20361,
    "Ġhighly": 4846,
    "iom": 20917,
    "Ġincidents": 9301,
    "Ġassembly": 10644,
    "Ġgenealogies": 25962,
    "Ġradiating": 24330,
    "Ġg": 310,
    "Ġbringing": 5870,
    "Ġwhispered": 5338,
    "Ġfocused": 16344,
    "learned": 8605,
    "Ġcleared": 6076,
    "Ġvirt": 3905,
    "Ġsecuring": 11994,
    "perpetually": 20516,
    "Ġsharkish": 24502,
    "executed": 25740,
    "iamond": 14590,
    "orable": 8121,
    "Ġperplexity": 2750,
    "Ġoccasions": 7989,
    "Ġext": 895,
    "dually": 3283,
    "Ġadjacent": 20713,
    "Ġoutlast": 22318,
    "Ġrejoinder": 24599,
    "Ġrejo": 5917,
    "Ġadmin": 23555,
    "discovered": 8326,
    "puzz": 17641,
    "banked": 25338,
    "Ġfaculties": 14959,
    "appo": 3912,
    "Ġwheel": 9720,
    "Ġstarbuck": 2196,
    "Ġdecent": 10979,
    "Ġtailed": 21171,
    "Ġtormenting": 15107,
    "Ġplanning": 14752,
    "Ġbewildered": 15216,
    "future": 13719,
    "umn": 5836,
    "convinced": 10624,
    "Ġinquiry": 6483,
    "itaries": 21339,
    "begins": 18526,
    "sufficiently": 14983,
    "Ġpanthe": 19656,
    "gledy": 25404,
    "Ġinstructed": 19286,
    "Ġpensive": 21479,
    "sisters": 13379,
    "ustomed": 6100,
    "Ġclosed": 4606,
    "Ġmoment": 990,
    "Ġindomit": 22959,
    "Ġoffspring": 16148,
    "quired": 21860,
    "iel": 11495,
    "Ġupbraid": 18319,
    "Ġcomprising": 16071,
    "Ġreckoned": 24743,
    "Ġshelter": 17009,
    "Ġvows": 15811,
    "bra": 6220,
    "Ġrealised": 18981,
    "Ġappro": 667,
    "stri": 6250,
    "springing": 24890,
    "observing": 25495,
    "Ġlegend": 14575,
    "Ġade": 22109,
    "Ġornament": 11723,
    "fun": 3800,
    "Ġgourmand": 26467,
    "ropy": 1103,
    "Ġhost": 7069,
    "Ġmayhap": 18710,
    "itiously": 13873,
    "Ġjuly": 17238,
    "Ġdoc": 7200,
    "dirty": 20836,
    "Ġthroat": 7771,
    "Ġankles": 17901,
    "Ġundertaking": 8576,
    "Ġhalloa": 13320,
    "imitably": 21715,
    "Ġprobability": 1125,
    "arboard": 7266,
    "Ġdescribe": 2761,
    "Ġsteep": 2884,
    "Ġfrighted": 24032,
    "arthy": 4824,
    "Ġinsince": 23679,
    "Ġstrive": 23696,
    "Ġsinned": 18953,
    "Ġsilent": 3410,
    "Ġedinburgh": 16458,
    "fit": 6647,
    "Ġsuccessfully": 19432,
    "Ġrear": 6536,
    "Ġsoft": 1457,
    "crew": 7544,
    "ived": 1532,
    "forty": 9376,
    "Ġproduces": 2094,
    "Ġpatagonian": 20537,
    "Ġfewer": 16227,
    "Ġallev": 18103,
    "arian": 10318,
    "Ġheire": 18039,
    "Ġforeshadowing": 26593,
    "Ġhorizon": 6634,
    "Ġfruits": 17120,
    "Ġsnug": 8281,
    "Ġanomaly": 25637,
    "Ġpresc": 15928,
    "Ġunderstood": 5655,
    "Ġintolerably": 15832,
    "Ġtwitching": 25684,
    "aan": 20766,
    "pennies": 26287,
    "Ġstra": 2986,
    "although": 8809,
    "state": 13981,
    "Ġcomprehension": 15089,
    "idays": 21775,
    "Ġcolonies": 14377,
    "Ġsoapstone": 20514,
    "Ġmould": 6518,
    "pil": 15410,
    "Ġhimmale": 18335,
    "che": 3173,
    "pudding": 17648,
    "Ġpepper": 9783,
    "Ġ200": 19297,
    "Ġcupidity": 24534,
    "alogue": 25163,
    "Ġdesponding": 25869,
    "inkle": 22619,
    "Ġcopied": 20011,
    "ren": 549,
    "Ġcurtain": 14418,
    "Ġroyals": 19535,
    "Ġrolling": 5976,
    "Ġhoping": 11103,
    "Ġse": 401,
    "Ġbu": 3681,
    "teringly": 21828,
    "Ġunmanufactured": 20437,
    "van": 7815,
    "Ġlikes": 9410,
    "Ġvanity": 7046,
    "Ġundecided": 22049,
    "irksome": 18175,
    "Ġimpose": 22387,
    "Ġnumber": 1983,
    "Ġmeanness": 22603,
    "Ġpals": 13920,
    "Ġref": 910,
    "Ġwhar": 7388,
    "Ġenriched": 26500,
    "Ġtimidity": 24688,
    "guest": 19485,
    "Ġwound": 4528,
    "uneasy": 23686,
    "desper": 13222,
    "Ġuttering": 16463,
    "Ġcand": 3276,
    "soled": 14333,
    "Ġideal": 13124,
    "Ġenc": 966,
    "icating": 15658,
    "aphs": 22341,
    "Ġtomorrow": 21517,
    "Ġoriginally": 7304,
    "Ġglobules": 26589,
    "mot": 17597,
    "Ġmentioning": 9901,
    "Ġblasts": 19999,
    "mar": 4337,
    "Ġweedy": 15796,
    "Ġsordid": 26423,
    "Ġstrongest": 11136,
    "swim": 16780,
    "Ġdoubts": 8581,
    "Ġmining": 22833,
    "Ġconsult": 6058,
    "icious": 7380,
    "Ġremorseless": 13454,
    "allest": 5485,
    "Ġsyllable": 9731,
    "Ġshrieking": 24757,
    "Ġgathers": 24742,
    "al": 292,
    "ersman": 11705,
    "Ġpovelson": 26553,
    "Ġrece": 11640,
    "Ġnew": 1196,
    "utions": 1891,
    "estations": 22228,
    "Ġezek": 18012,
    "Ġnewcom": 16224,
    "vap": 13805,
    "Ġalmanac": 26486,
    "Ġtom": 15636,
    "Ġcalf": 16268,
    "Ġtones": 8402,
    "restrained": 16337,
    "Ġtriumphal": 24370,
    "Ġneeds": 6606,
    "Ġtransformers": 1120,
    "sk": 5521,
    "Ġface": 1722,
    "Ġpiping": 23210,
    "Ġsteeple": 19289,
    "Ġstarting": 7729,
    "ece": 17532,
    "vation": 4745,
    "Ġmitig": 1333,
    "Ġundoubtedly": 8314,
    "Ġslappin": 18945,
    "Ġlieuten": 13330,
    "Ġfundamentals": 14635,
    "Ġsequ": 982,
    "alog": 8808,
    "Ġloathsome": 13530,
    "pivot": 21033,
    "x": 92,
    "perceive": 12815,
    "Ġwealthy": 18181,
    "Ġcontradicted": 20214,
    "andish": 18156,
    "Ġstockings": 20000,
    "rev": 17757,
    "bowl": 14892,
    "Ġbended": 21388,
    "Ġsprinkled": 19500,
    "Ġpartial": 2129,
    "Ġamused": 11802,
    "Ġnarrowly": 16821,
    "Ġdimens": 3151,
    "mightily": 24103,
    "uch": 877,
    "Ġbecomes": 6395,
    "front": 12174,
    "isco": 12585,
    "ourage": 2450,
    "Ġgrateful": 7661,
    "Ġimpartial": 15222,
    "Ġwester": 25156,
    "quimaux": 21864,
    "L": 48,
    "erer": 8735,
    "Ġlogical": 14488,
    "frankly": 20025,
    "Ġshirr": 18232,
    "ratulations": 20129,
    "Ġcharming": 6630,
    "Ġfear": 2278,
    "Ġwhims": 12696,
    "sixteen": 24854,
    "functions": 11238,
    "seriously": 18906,
    "Ġrestrained": 16373,
    "Ġinvented": 17037,
    "stay": 9683,
    "orders": 12877,
    "Ġforeign": 9874,
    "Ġindelible": 25695,
    "Ġlimit": 10444,
    "Ġskirts": 14354,
    "Ġbenefit": 8295,
    "Ġexpressly": 16454,
    "Ġsitt": 21220,
    "easily": 17535,
    "Ġchapel": 9525,
    "Ġtrem": 6661,
    "Ġcompare": 9304,
    "hip": 8744,
    "barbar": 20241,
    "charm": 13992,
    "again": 3397,
    "Ġwired": 17788,
    "isol": 17848,
    "elope": 14463,
    "replied": 11567,
    "Ġclinch": 18432,
    "ifford": 15787,
    "Ġdied": 4111,
    "Ġpent": 17905,
    "Ġpermitting": 22405,
    "awed": 10392,
    "Ġbash": 12590,
    "Ġfairy": 14627,
    "hyme": 19612,
    "Ġcanaan": 22169,
    "Ġinsular": 19270,
    "Ġinterior": 8897,
    "Ġrequested": 14308,
    "Ġtopic": 9408,
    "Ġsallied": 12541,
    "allowance": 16825,
    "Ġstating": 15728,
    "penn": 18828,
    "exagger": 22433,
    "tenham": 16324,
    "Ġgardener": 19136,
    "Ġdaw": 21433,
    "Ġdisobey": 18560,
    "provided": 13640,
    "Ġinsertion": 26345,
    "Ġpaddling": 25286,
    "Ġresp": 2493,
    "Ġwindibank": 7257,
    "Ġcastle": 14718,
    "sincere": 16908,
    "Ġirene": 8446,
    "Ġserm": 9635,
    "Ġpanic": 11287,
    "iring": 1708,
    "Ġbrood": 23105,
    "ograph": 4798,
    "Ġprovoked": 13329,
    "Ġtrusting": 24105,
    "poled": 22911,
    "ast": 473,
    "Ġsolving": 2482,
    "philosophy": 13583,
    "ited": 1752,
    "Ġsimpler": 2048,
    "death": 6262,
    "Ġfisherman": 12079,
    "Ġtenth": 13828,
    "Ġcanvas": 7784,
    "Ġbo": 799,
    "Ġselfishness": 12292,
    "action": 3725,
    "ort": 521,
    ";âĢĿ": 7791,
    "ulates": 14057,
    "Ġtelegraph": 25584,
    "Ġperson": 2370,
    "vast": 10737,
    "manner": 6171,
    "Ġcastaways": 19431,
    "Ġandromeda": 21512,
    "rollable": 13947,
    "actorily": 25577,
    "poster": 11057,
    "ashion": 3858,
    "û": 188,
    "Ġdeeply": 4718,
    "ourse": 8872,
    "Ġpeas": 8535,
    "Ġaloof": 21790,
    "Ġprojects": 9513,
    "lesson": 22772,
    "Ġcomical": 11679,
    "tail": 8765,
    "Ġsec": 2077,
    "Ġmood": 6277,
    "vice": 15451,
    "Ġdip": 13909,
    "Ġhideous": 5984,
    "Ġstay": 3094,
    "Ġgalvan": 21621,
    "aver": 6785,
    "Ġreser": 5170,
    "Ġstepdaughter": 22618,
    "Ġfishermen": 5972,
    "Ġthirdly": 24144,
    "from": 1992,
    "scales": 22998,
    "Ġreluctant": 20528,
    "Ġcurve": 22985,
    "unvarying": 21892,
    "Ġxerxes": 23414,
    "Ġaccents": 14212,
    "Ġsnorting": 23743,
    "Ġinflicted": 11366,
    "Ġdaylight": 10352,
    "accomp": 10456,
    "apparently": 15207,
    "Ġattentions": 5879,
    "Ġautonom": 10416,
    "grass": 23416,
    "pers": 4338,
    "trying": 15440,
    "Ġhealthy": 10852,
    "Ġphysi": 9990,
    "Ġcobbler": 25831,
    "peculiar": 6885,
    "Ġdearest": 5457,
    "arded": 5029,
    "omp": 2470,
    "Ġunostentatious": 22070,
    "Ġbloodshot": 23802,
    "remonstr": 23195,
    "Ġprint": 18970,
    "Ġvault": 8844,
    "Ġvanished": 6873,
    "Ġrestore": 9382,
    "adam": 15733,
    "gal": 15358,
    "Ġtapers": 11553,
    "washed": 13050,
    "Ġclay": 7020,
    "scra": 13026,
    "Ġold": 1057,
    "mine": 5617,
    "larger": 24204,
    "direct": 12460,
    "Ġindestruct": 22962,
    ",*": 17473,
    "skill": 24486,
    "course": 6105,
    "Ġblasphemy": 26116,
    "Ġnarrowed": 24354,
    "Ġmediterranean": 12318,
    "serve": 13051,
    "moreover": 12973,
    "backs": 9393,
    "Ġoverhung": 15972,
    "labour": 23918,
    "azing": 7705,
    "Ġunnecessary": 8854,
    "Ġstiggs": 25793,
    "Ġtwit": 12933,
    "Ġbarbarous": 13479,
    "saved": 15433,
    "repugnance": 16865,
    "tossing": 18581,
    "Ġinvisibly": 24814,
    "Ġapologized": 25199,
    "Ġstripped": 10466,
    "Ġhistories": 14687,
    "Ġtrif": 6269,
    "Ġpenetrating": 17012,
    "Ġpinioned": 21487,
    "Ġinsc": 7586,
    "road": 6678,
    "Ġimbalanced": 18334,
    "Ġsuits": 22087,
    "Ġunrelieved": 20548,
    "dead": 8181,
    "nson": 16094,
    "bal": 2160,
    "vac": 15452,
    "cape": 13700,
    "Ġhydraulic": 10066,
    "azed": 9401,
    "Ġjelly": 22305,
    "Ġpossibly": 4514,
    "Ġdistinguishing": 16497,
    "Ġconsent": 5372,
    "ounce": 6558,
    "Ġirish": 14534,
    "stone": 5089,
    "Ġworn": 6444,
    "Ġblubber": 5666,
    "ding": 3022,
    "Ġbriefly": 11368,
    "Ġalike": 8148,
    "arding": 22162,
    "Ġtorch": 25033,
    "Ġrolled": 4431,
    "raised": 15682,
    "ek": 1908,
    "Ġfumbled": 17883,
    "mun": 20964,
    "Ġcounsel": 13618,
    "Ġarri": 2553,
    "Ġsales": 12811,
    "Ġwaits": 23283,
    "Ġlongbourn": 3506,
    "Ġmines": 21311,
    "Ġparagraph": 17456,
    "Ġperseus": 10605,
    "necess": 4897,
    "Ġbough": 13896,
    "uity": 12521,
    "elastic": 17983,
    "Ġwhereupon": 14298,
    "Ġincor": 2609,
    "Ġgrave": 5100,
    "Ġequ": 1734,
    "Ġcumbrous": 26433,
    "whenever": 11884,
    "Ġcontemplated": 13467,
    "Ġfoaming": 18993,
    "zealand": 26055,
    "fab": 13718,
    "Ġcore": 13880,
    "introduced": 15127,
    "Ġrevisit": 21674,
    "cursed": 23847,
    "Ġdeveloped": 16342,
    "Ġshowers": 16606,
    "Ġcorrupt": 11926,
    "Ġparac": 12799,
    "ercial": 21277,
    "considering": 12178,
    "Ġreneg": 21679,
    "Ġleap": 5824,
    "Ġha": 400,
    "boards": 23258,
    "ifice": 7198,
    "Ġdispose": 23882,
    "Ġabstained": 25232,
    "Ġinher": 10181,
    "repro": 10771,
    "kington": 11204,
    "Ġfer": 5623,
    "son": 2330,
    "ulus": 21869,
    "Ġpassionately": 16765,
    "itters": 10782,
    "Ġexcessively": 9442,
    "Ġdormouse": 4926,
    "Ġdrunken": 12053,
    "virt": 15453,
    "binnacle": 20789,
    "pool": 16210,
    "Ġhissing": 15793,
    "Ġsixteen": 8284,
    "Ġcordage": 19681,
    "Ġconfound": 23305,
    "Ġgenerously": 22400,
    "sad": 11522,
    "Ġalchemists": 26488,
    "com": 987,
    "pigs": 17142,
    "sticks": 25966,
    "ornamented": 26596,
    "Ġcoals": 16078,
    "Ġnamely": 20692,
    "exciting": 19671,
    "Ġhoisting": 9864,
    "Ġunequal": 14843,
    "brad": 20782,
    "away": 4627,
    "suggest": 20379,
    "Ġjump": 4504,
    "Ġacknowledges": 24689,
    "imson": 12693,
    "Ġpartners": 11856,
    "Ġcleans": 18950,
    "ampl": 21853,
    "Ġdue": 3844,
    "Ġvelvet": 12401,
    "Ġhorrid": 8000,
    "atre": 17771,
    "Ġsummoning": 23877,
    "Ġabstract": 17183,
    "look": 2262,
    "displayed": 20738,
    "folly": 20864,
    "Ġgentlemen": 3642,
    "Ġdiabolism": 25515,
    "Ġpeace": 3691,
    "secre": 18130,
    "Ġtheir": 642,
    "Ġne": 391,
    "Ġposit": 1304,
    "Ġblankets": 24613,
    "elevating": 20409,
    "Ġsupported": 9820,
    "Ġlicensing": 20096,
    "ditch": 17529,
    "Ġspray": 7896,
    "den": 940,
    "Ġacknowledged": 7534,
    "Ġhumaneval": 25583,
    "Ġrobinson": 17465,
    "king": 3058,
    "Ġburied": 7719,
    "befall": 22499,
    "nel": 11506,
    "awing": 18917,
    "Ġrelates": 12985,
    "Ġhimmalehs": 26232,
    "Ġtand": 21163,
    "years": 6882,
    "tempestuous": 26098,
    "izing": 1071,
    "Ġdoubted": 7965,
    "Ġscal": 1635,
    "estab": 14171,
    "make": 5793,
    "Ġfierc": 18714,
    "impatient": 13643,
    "exceed": 7913,
    "intosh": 22944,
    "ounders": 22399,
    "lonely": 20959,
    "Ġrest": 1782,
    "Ġseventy": 7880,
    "Ġvicissitudes": 12422,
    "headed": 4320,
    "Ġmantle": 25275,
    "Ġrecord": 5317,
    "Ġstagger": 10593,
    "remes": 21240,
    "avery": 13686,
    "Ġattractive": 25576,
    "Ą": 197,
    "ucy": 15446,
    "iny": 4296,
    "ange": 1017,
    "ĠĠĠĠĠĠĠĠĠĠĠĠĠĠĠĠĠĠĠĠĠĠĠĠĠĠĠĠĠĠĠĠĠĠĠĠĠĠĠĠĠĠĠĠĠĠĠĠĠĠĠĠĠ": 20043,
    "buttoned": 13635,
    "Ġfinny": 23130,
    "ically": 853,
    "Ġren": 3845,
    "Ġparalle": 1409,
    "Ġnapole": 15118,
    "Ġbelonged": 6921,
    "Ġjumbled": 22302,
    "Ġebb": 21626,
    "Ġ75": 19615,
    "Ġhats": 14619,
    "Ġloss": 822,
    "Ġprofessor": 11231,
    "Ġdaggoo": 5441,
    "Ġkneeling": 12146,
    "Ġleaky": 2347,
    "itty": 3551,
    "Ġasia": 11685,
    "acca": 23599,
    "Ġderbyshire": 6587,
    "Ġdestructive": 23488,
    "supp": 4163,
    "Ġoverthrown": 18427,
    "bits": 17490,
    "Ġpuzz": 5532,
    "94": 4804,
    "Ġtruthful": 23870,
    "arians": 18527,
    "doing": 8587,
    "Ġcorroded": 18877,
    "ass": 539,
    "Ġoutputs": 2881,
    "late": 11500,
    "Ġself": 1779,
    "Ġvancouver": 26566,
    "clothed": 19740,
    "Ġfisher": 3225,
    "Ġ26": 10471,
    "Ġgra": 415,
    "binary": 20786,
    "Ġaper": 17744,
    "urry": 13996,
    "acy": 3953,
    "Ġlanded": 7469,
    "Ġhungry": 10534,
    "sis": 1903,
    "hills": 13738,
    "Ġsurp": 9636,
    "Ġreverber": 19871,
    "Ġeyebrows": 23519,
    "Ġimplement": 2969,
    "ulence": 15769,
    "Ġdefects": 12336,
    "Ġchase": 3943,
    "alty": 17941,
    "Ġhearers": 15706,
    "oforte": 14288,
    "omin": 4704,
    "betrayed": 24641,
    "Ġesc": 2253,
    "Ġmacy": 19358,
    "lected": 1636,
    "iew": 2446,
    "Ġextent": 7656,
    "Ġthou": 1809,
    "outside": 12808,
    "Ġstands": 5259,
    "igin": 3655,
    "Ġmult": 1021,
    "Ġpeculiarly": 8288,
    "Ġtongue": 6348,
    "Ġinstruments": 12227,
    "Ġartificial": 790,
    "kind": 3862,
    "Ġprinciples": 10013,
    "Ġintrodu": 1926,
    "Ġpitied": 14692,
    "Ġantichronical": 26610,
    "irresistible": 18176,
    "Ġreusable": 13560,
    "Ġdepicting": 22599,
    "Ġscrape": 14919,
    "Ġnight": 1464,
    "ieces": 4773,
    "Ġmultipl": 2788,
    "retrospect": 23143,
    "Ġbub": 8119,
    "Ġresounded": 22549,
    "Ġsounded": 8594,
    "iterranean": 15553,
    "uts": 8819,
    "Ġentangled": 10345,
    "Ġobjects": 5577,
    "perplex": 18342,
    "99": 1896,
    "nam": 2776,
    "Ġrecurrent": 1804,
    "Ġwra": 5907,
    "Ġmoby": 3664,
    "Ġfrigates": 25707,
    "benefit": 24643,
    "grate": 23415,
    "Ġsweetness": 9448,
    "nour": 20990,
    "admiration": 11388,
    "Ġjuicy": 25371,
    "Ġenergies": 25460,
    "too": 4508,
    "often": 6166,
    "squeezing": 25914,
    "Ġwarmup": 3919,
    "Ġdecrease": 4202,
    "Ġgodfre": 14529,
    "uy": 21102,
    "Ġ{": 21155,
    "prospect": 23399,
    "Ġhyper": 19742,
    "Ġexception": 11217,
    "ages": 828,
    "Ġ20": 8617,
    "unks": 15778,
    "caterpillar": 26384,
    "separation": 25227,
    "Ġfold": 5530,
    "Ġfiner": 13057,
    "ssian": 3398,
    "Ġmanipulated": 25179,
    "aur": 15311,
    "Ġ33": 16677,
    "Ġjest": 18404,
    "Ġprecipitous": 24836,
    "Ġcot": 13879,
    "Ġrecollected": 8312,
    "Ġgloomy": 7504,
    "Ġmagnificence": 20635,
    "Ġmates": 4873,
    "ington": 21304,
    "shoals": 24716,
    "roused": 16654,
    "Ġbeth": 9659,
    "secur": 18129,
    "Ġhairs": 13234,
    "conversation": 7123,
    "nav": 17613,
    "Ġapprehensions": 13407,
    "Ġnonce": 23238,
    "latter": 15385,
    "imag": 6990,
    "ifully": 13187,
    "Ġun": 421,
    "Ġarts": 11009,
    "prob": 7070,
    "ouncement": 11748,
    "olen": 9702,
    "ancies": 11586,
    "deacon": 22152,
    "hundreds": 25076,
    "Ġnoises": 18375,
    "mounting": 25208,
    "Ġadver": 5641,
    "stud": 8823,
    "Ġagrippa": 11810,
    "quitted": 21862,
    "Ġpowdered": 24239,
    "load": 12885,
    "quietude": 24656,
    "Ġquery": 2479,
    "Ġperhaps": 1911,
    "Ġhoarse": 14526,
    "recollect": 17225,
    "Ġindignation": 8348,
    "Ġaccuracy": 1102,
    "Ġaccelerating": 1620,
    "before": 3114,
    "Ġadmir": 12024,
    "boots": 11127,
    "Ġsheet": 6263,
    "Ġvictoria": 14874,
    "ĠĠĠĠĠĠĠĠĠĠĠĠĠĠĠĠĠĠĠĠĠĠĠĠĠĠĠĠĠĠ": 24442,
    "¸": 121,
    "Ġsubmitted": 11874,
    "appears": 12063,
    "mology": 12495,
    "Ġbenjam": 22894,
    "Ġbounty": 26438,
    "Ġceases": 19315,
    "Ġsoul": 2720,
    "Ġinhabited": 12189,
    "Ġboundary": 11223,
    "Ġfires": 16473,
    "houses": 9601,
    "Ġcontaining": 2232,
    "Ġano": 11598,
    "Ġtim": 4579,
    "Ġaghast": 16050,
    "Ġheaths": 25973,
    "anite": 17839,
    "Ġpasses": 2674,
    "Ġowing": 6006,
    "cherries": 19759,
    "Ġmediocrity": 26609,
    "Ġfairer": 20465,
    "Ġcondense": 21813,
    "impress": 18054,
    "pleasure": 5979,
    "scythes": 26403,
    "Ġgazes": 24096,
    "Ġfacilitate": 26099,
    "Ġpreparing": 8651,
    "daw": 17523,
    "cheeks": 23810,
    "into": 3679,
    "advice": 12161,
    "Ġspringing": 10520,
    "Ġpil": 5014,
    "tery": 14039,
    "upid": 6583,
    "Ġencountered": 8323,
    "Ġhigher": 1818,
    "Ġincreas": 1693,
    "Ġmagnanim": 14475,
    "shells": 26057,
    "swell": 17664,
    "angels": 22108,
    "ter": 359,
    "Ġporter": 15614,
    "Ġleague": 6539,
    "moid": 2449,
    "Ġdiv": 3730,
    "frozen": 25142,
    "Ġpresentiment": 18989,
    "abilities": 3238,
    "Ġsig": 868,
    "Ġcomposed": 8894,
    "Ġslavish": 23177,
    "ression": 3404,
    "reshold": 21242,
    "honour": 13470,
    "Ġingolstadt": 8334,
    "Ġdealer": 23980,
    "ittle": 811,
    "Ġdil": 6382,
    "afraid": 10442,
    "Ġunhallowed": 17182,
    "âĢĻ-": 18169,
    "Ġentrance": 7233,
    "vision": 5619,
    "Ġfreely": 7057,
    "Ġthoughtfully": 12984,
    "Ġpromontory": 11944,
    "Ġoutput": 928,
    "Ġblinding": 14729,
    "Ġchewing": 23287,
    "Ġinflict": 15002,
    "naturalist": 23515,
    "gracious": 11834,
    "Ġpinch": 15018,
    "Ġstabilizing": 3656,
    "securer": 25603,
    "Ġbright": 3216,
    "ure": 356,
    "ainty": 21792,
    "Ġventured": 7501,
    "sar": 12508,
    "Ġroom": 1462,
    "Ġshouts": 19540,
    "urged": 18051,
    "duodecimo": 16005,
    "entary": 21571,
    "Ġfreshness": 23991,
    "Ġdrag": 6185,
    ",âĢĿâĢĶ": 14223,
    "Ġbackbones": 22658,
    "Ġlengths": 19207,
    "decided": 13218,
    "Ġcontributed": 16012,
    "Ġgreat": 896,
    "Ġexplanations": 15913,
    "Ġswear": 6460,
    "behind": 6779,
    "Ġfest": 10805,
    "Ġimmutable": 17360,
    "stump": 21657,
    "farewell": 12309,
    "Ġhanover": 20589,
    "Ġransacked": 26506,
    "screen": 23000,
    "Ġoutermost": 22324,
    "Ġaversion": 18868,
    "Ġglimmered": 20174,
    "Ġspirits": 3696,
    "Ġsit": 4220,
    "Ġadvancing": 6877,
    "ativeness": 15523,
    "Ģ": 227,
    "Ġungrateful": 14122,
    "Ġilleg": 21627,
    "unerative": 21901,
    "ella": 12752,
    "Ġphrenologist": 25608,
    "Ġwhalebone": 10978,
    "irection": 2389,
    "lantic": 6364,
    "Ġlod": 4041,
    "Ġpicturesqueness": 24479,
    "Ġviolation": 23409,
    "Ġindiam": 22957,
    "Ġbeauties": 10446,
    "engagement": 14460,
    "Ġreiterating": 26475,
    "à": 161,
    "Ġgrudge": 20696,
    "Ġwrinkles": 8573,
    "Ġmile": 7152,
    "immediately": 10051,
    "Ġfri": 17880,
    "ascertain": 21547,
    "coll": 23782,
    "Ġhabit": 6771,
    "Ġunharmed": 15142,
    "ily": 1029,
    "Ġcrucial": 9895,
    "Ġstunsail": 25544,
    "Ġinvention": 19956,
    "Ġleaders": 16629,
    "comparison": 25842,
    "Ġmay": 924,
    "Ġcolouring": 16752,
    "dart": 20828,
    "Ġwhispering": 14946,
    "Ġsundry": 20077,
    "Ġcorrob": 16267,
    "Ġscaffold": 18401,
    "Ġtouches": 20573,
    "pered": 4199,
    "quaker": 15766,
    "Ġknight": 9729,
    "precipitance": 25868,
    "Ġheadway": 18792,
    "Ġnewcomers": 26042,
    "wards": 1276,
    "Ġdisappeared": 5645,
    "except": 5383,
    "Ġspotted": 12142,
    "carp": 9112,
    "different": 6500,
    "Ġsuspected": 9064,
    "Ġhunts": 23162,
    ",âĢĶâĢľ": 10072,
    "Ġacquiring": 2763,
    "Ġ23": 13193,
    "whales": 5187,
    "links": 20960,
    "Ġeels": 21624,
    "Ġheron": 22078,
    "Ġbower": 15570,
    "bbing": 6324,
    "Ġdraws": 19439,
    "Ġrelaxed": 12988,
    "Ġjust": 1239,
    "Ġcoincid": 20320,
    "Ġwaylaid": 22877,
    "Ġcoaxing": 18599,
    "Ġcapering": 21357,
    "Ġexpiring": 16101,
    "Ġgamb": 18000,
    "fle": 7129,
    "Ġlay": 584,
    "loss": 22512,
    "Ġheightened": 8652,
    "Ġgaz": 4042,
    "Ġinputs": 842,
    "Ġstaff": 14009,
    "Ġdwelling": 7322,
    "Ġsamuel": 10035,
    "Ġrevenue": 26196,
    "Ġdeductions": 19735,
    "Ġgid": 13964,
    "Ġterror": 5124,
    "½": 126,
    "Ġdropout": 1563,
    "saturday": 14859,
    "Ġworthy": 7241,
    "Ġfow": 6134,
    "Ġcommis": 22675,
    "Ġmercy": 9000,
    "Ġpurple": 10434,
    "Ġdevouring": 11862,
    "Ġnet": 3626,
    "Ġjetted": 24430,
    "lee": 11587,
    "Ġbroker": 23106,
    "Ġ85": 24459,
    "i": 77,
    "now": 548,
    "othing": 6995,
    "ahawk": 23316,
    "Ġproceed": 3244,
    "Ġcasual": 11410,
    "Ġpersian": 11087,
    "irm": 3108,
    "Ġgul": 7861,
    "Ġeldest": 6572,
    "ady": 995,
    "both": 5785,
    "Ġparad": 2839,
    "Ġdre": 1745,
    "Ġwarmth": 6904,
    "along": 6014,
    "ggy": 13117,
    "Ġaffinity": 18787,
    "Ġbrandy": 11050,
    "Ġforgery": 25978,
    "Ġsaturn": 22905,
    "Ġcosine": 2374,
    "Ġinscribed": 24941,
    "Ġlest": 6394,
    "shell": 16289,
    "Ġhearing": 4762,
    "Ġindiscriminately": 20630,
    "Ġwarring": 16866,
    "Ġcocoan": 20319,
    "Ġorph": 9719,
    "Ġglens": 18856,
    "ged": 1512,
    "planted": 11701,
    "Ġdat": 492,
    "Ġundu": 15840,
    "Ġheadlands": 22900,
    "Ġtruly": 4797,
    "Ġendeav": 2950,
    "Ġdearer": 14051,
    "Ġtails": 9904,
    "Ġinexplicable": 12260,
    "Ġshaggy": 13573,
    "sion": 8095,
    "Ġunclasp": 26512,
    "Ġinvests": 14869,
    "Ġconsc": 4277,
    "Ġbackpropagation": 1266,
    "Ġgain": 4829,
    "owal": 13995,
    "Ġhotels": 19539,
    "ility": 621,
    "Ġkingdom": 12021,
    "treatment": 20415,
    "Ġcigar": 9547,
    "Ġpupils": 20424,
    "mblies": 24610,
    "Ġyojo": 7611,
    "Ġhelping": 3267,
    "Ġsaf": 3999,
    "swear": 16919,
    "Ġcar": 1418,
    "Ġjackal": 24241,
    "how": 1644,
    "fancy": 7337,
    "punct": 20195,
    "Ġhearse": 10421,
    "clifford": 23161,
    "Ġcase": 1940,
    "Ġburgl": 13176,
    "Ġdenied": 9002,
    "Ġmbpp": 21325,
    "Ġweld": 8113,
    "Ġlearnedly": 23389,
    "Ġblush": 14404,
    "mis": 4521,
    "disappeared": 14570,
    "Ġnext": 2141,
    "Ġ65": 24367,
    "browed": 25895,
    "downstairs": 23923,
    "Ġstatistical": 11105,
    "Ġstudy": 1787,
    "Ġalbert": 12710,
    "fishermen": 17061,
    "Ġstraps": 19311,
    "Ġnorthward": 13325,
    "Ġfists": 15586,
    "Ġin": 291,
    "sudden": 5316,
    "Ġbelong": 3884,
    "×": 152,
    "fellows": 12277,
    "Ġconnivance": 25226,
    "ch": 321,
    "Ġmast": 2895,
    "Ġgaped": 13969,
    "Ġrelatives": 12986,
    "assemblies": 25957,
    "Ġpoll": 12032,
    "Ġsilk": 11963,
    "Ġtestimony": 14474,
    "Ġpraises": 16731,
    "!_": 7329,
    "Ġleakage": 23461,
    "Ġ1883": 23901,
    "travellers": 24338,
    "Ġcelerity": 17438,
    "Ġstrictly": 12288,
    "Ġjove": 9270,
    "Ġcit": 10784,
    "helmsman": 24288,
    "Ġimprovement": 7967,
    "Ġcomforters": 25801,
    "putable": 10902,
    "Ġhollowly": 24525,
    "culiar": 2817,
    "Ġleast": 2064,
    "Ġglu": 15671,
    "Ġriding": 14097,
    "Ġcoopman": 25829,
    "Ġarticulate": 24431,
    "Ġrickety": 26507,
    "aning": 2254,
    "Ġsymbolize": 24965,
    "Ġpeddling": 21486,
    "Ġblaming": 22934,
    "fitzwilliam": 11353,
    "Ġfamil": 4323,
    "Ġnatur": 17336,
    "itories": 15552,
    "Ġphara": 23203,
    "Ġdeeps": 16110,
    "Ġredness": 19313,
    "Ġharbour": 19983,
    "Ġbrist": 14380,
    "Ġcirculation": 16419,
    "#": 7,
    "Ġinfrequent": 3824,
    "Ġrocks": 6862,
    "Ġslack": 8957,
    "ench": 21282,
    "Ġendued": 14079,
    "Ġmeetings": 16534,
    "Ġcomplaint": 24775,
    "Ġdispersed": 16598,
    "Ġaf": 783,
    "Ġvirtues": 9938,
    "ellow": 3874,
    "urable": 8925,
    "wrinkled": 16555,
    "jointed": 24013,
    "Ġfalsehood": 10525,
    "Ġassid": 18947,
    "Ġsurmised": 24920,
    "ootiful": 17375,
    "affording": 23780,
    "Ġunworthy": 11718,
    "vert": 15718,
    "Ġurging": 24501,
    "Ġencircling": 26273,
    "fen": 20852,
    "Ġshriek": 6639,
    "Ġwol": 15532,
    "Ġconfinement": 19037,
    "Ġdesperately": 24657,
    "Ġabhorrence": 9054,
    "Ġwedged": 24936,
    "Ġpoint": 2056,
    "otic": 15748,
    "Ġcomplete": 4384,
    "cream": 15333,
    "Ġrelieve": 8225,
    "Ġrespectively": 23252,
    "Ġ1846": 26085,
    "Ġamend": 16037,
    "Ġattics": 22625,
    "faint": 17546,
    "sus": 6229,
    "Ġpart": 859,
    "keys": 15861,
    "Ġisles": 8461,
    "Ġprodig": 6029,
    "wind": 4255,
    "inated": 6804,
    "ival": 4230,
    "undoubtedly": 13315,
    "tains": 10963,
    "Ġenormous": 5608,
    "sheet": 16288,
    "Ġbumpkins": 25282,
    "iquet": 17576,
    "carte": 25401,
    "ative": 739,
    "Ġtransparent": 9491,
    "Ġantics": 24180,
    ").âĢĿ": 20743,
    "Ġsentiment": 6590,
    "Ġheedfulness": 24521,
    "Ġcast": 3605,
    "ghan": 19458,
    "Ġcraft": 4378,
    "Ġbales": 21392,
    "h": 76,
    "._)": 10482,
    "Ġundet": 16702,
    "inferior": 12397,
    "cannib": 11905,
    "Ġerskine": 17434,
    "Ġgurglings": 26466,
    "Ġoccupation": 9933,
    "Ġcouns": 10522,
    "Ġmag": 1429,
    "objects": 13473,
    "Ġstrides": 22622,
    "heavy": 10576,
    "Ġmind": 1621,
    "Ġtranced": 18422,
    "Ġmer": 2923,
    "Ġpeak": 16129,
    "Ġhole": 6080,
    "Ġattending": 3284,
    "Ġbesides": 3511,
    "Ġindispensable": 11903,
    "Ġstress": 18072,
    "Ġaromatic": 25926,
    "Ġopened": 3510,
    "Ġcapture": 3383,
    "penetrate": 20327,
    "Ġprofuse": 23567,
    "Ġfamily": 1969,
    "Ġabhorrent": 16857,
    "Ġadvantages": 9813,
    "ulous": 4451,
    "Ġhart": 17924,
    "Ġwouldn": 6047,
    "Ġgrate": 12968,
    "Ġsuffoc": 18872,
    "Ġexample": 5096,
    "Ġsu": 432,
    "Ġentertain": 6055,
    "Ġtemples": 18638,
    "Ġsounds": 5190,
    "Ġbenches": 18782,
    "idually": 21774,
    "Ġxiii": 25592,
    "Ġarriving": 19220,
    "Ø": 153,
    "Ġeastern": 11631,
    "occupations": 24969,
    "Ġprotested": 9936,
    "rods": 21542,
    "Ġirregularly": 25324,
    "consequ": 18507,
    "ause": 1312,
    "warnings": 20354,
    "Ġscotland": 6641,
    "Ġblunder": 18820,
    "wood": 5899,
    "notches": 22754,
    "manned": 18763,
    "Ġindignantly": 16940,
    "Ġcat": 2122,
    "tim": 13793,
    "olog": 1097,
    "Ġtoma": 7373,
    "nets": 9134,
    "da": 17515,
    "stoke": 18025,
    "Ġdissipate": 13636,
    "teen": 6370,
    "oriental": 23723,
    "Ġsupplied": 8945,
    "Ġremoter": 20109,
    "Ġlandscape": 12420,
    "Ġprocopius": 19733,
    "Ġcus": 21346,
    "Ġspaniard": 20366,
    "smiled": 16615,
    "Ġexertion": 8055,
    "Ġswallow": 8952,
    "Ġworsted": 19998,
    "consequence": 9765,
    "Ġbeads": 18086,
    "Ġlass": 15651,
    "Ġpalp": 11251,
    "Ġsystem": 575,
    "Ġfeedback": 23436,
    "Ġunnearable": 26517,
    "Ġlodgings": 8313,
    "ians": 2361,
    "Ġbutt": 14127,
    "Ġsuperstitions": 17072,
    "Ġmarlings": 23040,
    "inable": 11557,
    "cl": 1493,
    "Ġ[": 6967,
    "Ġconclude": 8582,
    "Ġenveloping": 19736,
    "Ġsubject": 2463,
    "Ġdost": 7637,
    "Ġcharing": 14182,
    "thick": 10262,
    "fthand": 26387,
    "noon": 5037,
    "Ġextra": 4054,
    "Ġinsp": 2101,
    "Ġprince": 18972,
    "suppose": 8648,
    "ove": 1743,
    "arted": 2203,
    "Ġrattle": 10900,
    "til": 17672,
    "Ġharmony": 16815,
    "Ġblack": 2033,
    "Ġincivility": 18573,
    "aries": 6245,
    "Ġvillagers": 19477,
    "Ġwithheld": 18117,
    "Ġfinery": 23129,
    "Ġdiminishing": 4212,
    "Ġfifty": 4625,
    "ir": 379,
    "Ġreplenished": 13639,
    "Ġcrystals": 20230,
    "Ġfootfall": 14661,
    "Ġpork": 21461,
    "Ġangels": 11179,
    "Ġpausing": 8656,
    "Ġhatred": 8612,
    "let": 2727,
    "Ġname": 2084,
    "iss": 2179,
    "arson": 22752,
    "icions": 21567,
    "Ġswimming": 5507,
    "aples": 20770,
    "completed": 19997,
    "beheld": 11804,
    "Ġprints": 16333,
    "ĠĠĠĠĠĠĠĠĠĠĠĠĠĠĠĠĠĠĠĠĠĠĠĠĠĠĠĠĠĠĠĠĠĠĠĠ": 23665,
    "Ġgiddy": 20500,
    "Ġinsol": 10182,
    "Ġportents": 14679,
    "omn": 15685,
    "aches": 6571,
    "Ġpassenger": 14371,
    "Ġlength": 2500,
    "pity": 17628,
    "Ġemaciated": 20641,
    "Ġoriental": 9099,
    "Ġjournal": 15221,
    "Ġdebts": 8037,
    "Ġsporty": 19892,
    "Ġconvenient": 8347,
    "Ġfaintly": 14916,
    "Ġhouse": 1502,
    "ues": 2081,
    "Ġdevoting": 22725,
    "also": 7852,
    "Ġnaturalists": 10364,
    "Ġteach": 8554,
    "bweb": 20793,
    "Ġuncomfortable": 8487,
    "Ġlights": 8962,
    "Ġquadruped": 20618,
    "Ġdarted": 4759,
    "Ġoccurs": 1857,
    "athans": 7433,
    "oftener": 23968,
    "inclination": 20061,
    "Ġerrone": 14432,
    "cried": 8728,
    "Ġweather": 3994,
    "mouthful": 25209,
    "Ġcharacters": 9374,
    "lied": 6506,
    "Ġaccompanying": 11305,
    "dl": 20825,
    "Ġendeavoured": 4919,
    "abominable": 20597,
    "Ġshunned": 17295,
    "Ġannihilation": 15168,
    "Ġsincerity": 13681,
    "Ġwithdrawing": 11341,
    "Ġscolding": 15203,
    "Ġarrayed": 25665,
    "Ġcharts": 12831,
    "gings": 7549,
    "sul": 15423,
    "finally": 9501,
    "Ġactivations": 2714,
    "sebastian": 21825,
    "Ġcrowned": 16842,
    "Ġimpulsively": 24881,
    "heat": 15499,
    "Ġgracious": 8850,
    "Ġimpro": 911,
    "Ġtusk": 25426,
    "difficult": 10060,
    "Ġpianoforte": 15276,
    "Ġshades": 9465,
    "vitality": 20482,
    "Ġabounding": 12347,
    "Ġ1807": 26084,
    "Ġajar": 21205,
    "Ġenlar": 15803,
    "conscientious": 19629,
    "Ġunluck": 8486,
    "nature": 5360,
    "Ġorgan": 2502,
    "Ġdivert": 23595,
    "centre": 17087,
    "recol": 10152,
    "Ġdecide": 9288,
    "Ġdying": 2138,
    "sharpening": 22464,
    "promised": 12255,
    "Ġaverage": 3140,
    "Ġomit": 17817,
    "Ġamazed": 14890,
    "illed": 2622,
    "Ġmerc": 9428,
    "Ġdisent": 22528,
    "Ġdid": 835,
    "Ġschedu": 1821,
    "mayhew": 23995,
    "tps": 11536,
    "Ġsaved": 6691,
    "Ġtr": 553,
    "Ġbaronial": 23796,
    "Ġconverted": 16115,
    "Ġclam": 7416,
    "Ġmix": 7577,
    "Ġpond": 13918,
    "Ġtiresome": 26157,
    "orted": 4604,
    "Ġsarat": 21230,
    "Ġbru": 13897,
    "Ġbeside": 5192,
    "Ġsof": 18276,
    "Ġadditionally": 1177,
    "iting": 2161,
    "uttering": 12666,
    "Ġsuckling": 25998,
    "Ġlurid": 19684,
    "mospheric": 17091,
    "Ġstudents": 23232,
    "Ġlivid": 14991,
    "Ġchests": 19674,
    "Ġxxi": 24475,
    "Ġmak": 10779,
    "reproach": 15189,
    "humoured": 11237,
    "Ġhence": 4989,
    "Ġwelcomed": 9484,
    "rels": 6666,
    "Ġpeaks": 16131,
    "Ġunlike": 7005,
    "pitchpoling": 25725,
    "Ġresponsible": 9888,
    "utility": 21591,
    "Ġtumbling": 13827,
    "asters": 8436,
    "Ġindication": 22956,
    "Ġnash": 5820,
    "hest": 3368,
    "Ġclearing": 8241,
    "Ġamongst": 8961,
    "Ġhomeward": 9394,
    "facts": 19845,
    "Ġforces": 12706,
    "Ġdesperado": 19822,
    "Ġlydia": 2375,
    "Ġcruise": 12052,
    "ique": 8746,
    "Ġqualifications": 24676,
    "Ġharsh": 9523,
    "charge": 9450,
    "avo": 8519,
    "them": 3014,
    "Ġumbrell": 13653,
    "Ġpunish": 12163,
    "irty": 4048,
    "Ġdarkened": 16436,
    "Ġgasfitters": 25041,
    "Ġbakers": 17868,
    "Ġimpetuous": 25571,
    "Ġshade": 6551,
    "dem": 10694,
    "Ġeaten": 14846,
    "Ġcircumspect": 15087,
    "Ġnets": 21528,
    "Ġgrasped": 8035,
    "cri": 17507,
    "Ġfrost": 6097,
    "Ġsuggested": 8322,
    "estruct": 22227,
    "rians": 21930,
    "Ġmacey": 12567,
    "Ġairth": 23318,
    "Ġmemorable": 16430,
    "truth": 9921,
    "thousand": 5546,
    "Ġrelaps": 18777,
    "passing": 14813,
    "Ġchief": 3380,
    "Ġextinguished": 10343,
    "Ġbagging": 24538,
    "Ġstaircase": 20099,
    "Ġbowsman": 11255,
    "Ġunstructured": 3000,
    "salis": 25150,
    "fearfully": 25119,
    "protected": 19923,
    "intim": 22938,
    "Ġgrasping": 12169,
    "Ġcrate": 19121,
    "Ġsolemn": 4100,
    "Ġobsequious": 17406,
    "lop": 20950,
    "fell": 6952,
    "Ġoff": 902,
    "Ġtur": 2564,
    "Ġfainter": 14915,
    "sleepers": 24729,
    "Ġmutinous": 23961,
    "Ġlog": 1677,
    "Ġardour": 8044,
    "smitten": 23912,
    "Ġbroke": 5323,
    "achine": 608,
    "Ġfist": 21407,
    "enance": 3370,
    "Ġinfamy": 14511,
    "Ġsunday": 7270,
    "quee": 4130,
    "Ġculprit": 26173,
    "feet": 6569,
    "dare": 12457,
    "Ġseat": 4949,
    "terrors": 25044,
    "england": 18931,
    "Ġaffect": 1386,
    "cutting": 23787,
    "ccess": 3185,
    "iza": 6256,
    "Ġsubstituting": 26328,
    "passion": 11261,
    "antic": 1607,
    "Ġoutlaws": 22328,
    "Ġdiscol": 12957,
    "restoration": 23240,
    "mariners": 19551,
    "erranean": 9336,
    "Ġcoupled": 16852,
    "athy": 14325,
    "pacing": 21023,
    "Ġpreserve": 7529,
    "Ġmetallic": 19088,
    "Ġblue": 3453,
    "Ġult": 9076,
    "seems": 10876,
    "itch": 10162,
    "itz": 6007,
    "broker": 13308,
    "Ġsecrets": 9056,
    "Ġsuck": 15864,
    "ool": 17619,
    "Ġann": 4490,
    "Ġthinking": 4029,
    "Ġalternately": 15033,
    "luckily": 19755,
    "grammar": 6434,
    "iled": 1765,
    "Ġenticing": 22750,
    "hun": 5210,
    "uss": 8767,
    "Ġpossess": 3206,
    "Ġdetaining": 25819,
    "rd": 17650,
    "Ġspain": 15883,
    "emason": 18188,
    "Ġcontemplate": 19894,
    "Ġinquir": 4245,
    "Ġgirdled": 19161,
    "live": 7550,
    "Ġascended": 8669,
    "Ġinaccessible": 13936,
    "Ġnigh": 4879,
    "here": 2548,
    "fireside": 24693,
    "Ġparaphrasing": 26527,
    "Ġsavag": 19377,
    "Ġliveliness": 13646,
    "Ġmincer": 14368,
    "epilogue": 22105,
    "aset": 10833,
    "Ġspectre": 16632,
    "Ġonset": 12714,
    "Ġhob": 12633,
    "Ġornam": 15867,
    "entiating": 3436,
    "settled": 10508,
    "doubt": 6782,
    "Ġoat": 21326,
    "Ġfoundations": 11074,
    "Ġbaron": 19336,
    "Ġwants": 5742,
    "concent": 19483,
    "Ġfancying": 12116,
    "Ġstraw": 9431,
    "Ġunprofitable": 18265,
    "Ġobserved": 3538,
    "Ġkilling": 13336,
    "Ġsummons": 13235,
    "Ġmultiplication": 2867,
    "Ġbelieves": 14409,
    "Ġclasping": 20212,
    "Ġspatial": 2724,
    "Ġshallow": 14396,
    "wall": 10138,
    "Ġmonogra": 22981,
    "Ġrecollect": 8311,
    "announced": 19762,
    "Ġnegro": 6446,
    "Ġremoval": 12121,
    "Ġunbroken": 18248,
    "height": 21208,
    "Ġcapsized": 20093,
    "Ġsur": 2185,
    "Ġpanting": 11605,
    "description": 11095,
    "Ġimpossibility": 20649,
    "Ġcircumference": 13547,
    "leo": 21367,
    "Ġartic": 5315,
    "uteronomy": 15667,
    "Ġrelationships": 2919,
    ":âĢĶâĢĺ": 24195,
    "respectable": 19849,
    "constantinople": 25508,
    "Ġvirtue": 4923,
    "lege": 17843,
    "Ġtroop": 24898,
    "Ġcell": 6238,
    "Ġnarrower": 24353,
    "Ġtour": 9149,
    "Ġsavory": 23879,
    "Ġmisty": 16541,
    "neat": 22467,
    "soever": 11863,
    "Ġpunctually": 17140,
    "Ġinstructions": 11196,
    "Ġarrant": 23299,
    "foot": 9048,
    "Ġsebastian": 11699,
    "Ġunconditional": 15847,
    "Ġes": 8773,
    "ste": 3582,
    "Ġr": 405,
    "confined": 24327,
    "Ġfeatureless": 22604,
    "edd": 1230,
    "Ġnorris": 23208,
    "rifle": 21049,
    "Ġindic": 2882,
    "Ġcrawl": 11376,
    "elev": 12462,
    "miles": 10713,
    "atiate": 12552,
    "sentiment": 12918,
    "distrust": 19573,
    "ensity": 11816,
    "Ġspell": 8858,
    "Ġthin": 4349,
    "Ġmagnanimous": 17413,
    "ulls": 8841,
    "Ġstood": 2551,
    "Ġturkey": 19222,
    "Ġstrengthen": 20703,
    "Ġdeprec": 15761,
    "Ġpier": 7163,
    "Ġmounted": 7833,
    "concerted": 16673,
    "Ġemblematical": 25789,
    "Ġem": 1925,
    "Ġmadman": 13154,
    "this": 1439,
    "Ġlove": 2054,
    "Ġretire": 10383,
    "Ġobeisance": 19761,
    "kov": 17587,
    "Ġscience": 1448,
    "Ġhalls": 19528,
    "Ġguns": 16777,
    "Ġsloping": 11942,
    "Ġforg": 3787,
    "Ġbrightened": 23832,
    "Ġbuilded": 24718,
    "Ġinoffensive": 21502,
    "Ġtheoretically": 3563,
    "Ġblasp": 14403,
    "Ġhollows": 19744,
    "plunging": 25988,
    "scale": 3532,
    "venge": 4660,
    "Ġimbec": 14158,
    "imagination": 13483,
    "Ġwashington": 17204,
    "fisher": 7547,
    "staking": 21652,
    "henry": 16627,
    "Ġsleeper": 8603,
    "plexy": 18576,
    "Ġglowed": 24865,
    "beh": 5472,
    "companions": 15025,
    "Ġhighlands": 22779,
    "Ġfainting": 16898,
    "Ġesquimaux": 25154,
    "Ġworms": 25217,
    "Ġdowry": 20688,
    "Ġpraised": 19556,
    "Ĺ": 250,
    "idirectional": 2421,
    "Ġaustral": 12176,
    "max": 1684,
    "Ġmodesty": 12822,
    "missing": 13223,
    "narrated": 25622,
    "Ġunlo": 22013,
    "pagans": 25526,
    "Ġkeels": 11062,
    "Ġhealthful": 24061,
    "roar": 17955,
    "Ġfinancial": 23132,
    "Ġproblems": 2844,
    "ato": 17770,
    "dr": 6222,
    "oices": 7348,
    "ĠarchÃ¦": 22784,
    "ental": 7169,
    "Ġdestitute": 14566,
    "arr": 3044,
    "Åĵuv": 15185,
    "Ġunaffected": 14123,
    "whaleman": 23439,
    "Ġconversations": 9427,
    "Ġcautiousness": 19868,
    "Ġbetrayed": 9563,
    "Ġxvi": 19106,
    "Ġtop": 2469,
    "remembered": 17353,
    "Ġmaddening": 17244,
    "obvious": 9359,
    "Ġunaccountably": 26516,
    "Ġensuring": 11192,
    "Ġ93": 24593,
    "Ġwigwam": 11429,
    "bewil": 22502,
    "Ġcorresponds": 19824,
    "Ġduration": 20356,
    "grey": 14913,
    "Ġappare": 12825,
    "Ġdeified": 18140,
    "Ġwait": 4908,
    "acled": 16085,
    "Ġdon": 1615,
    "Ġsecond": 1883,
    "Ġminima": 3462,
    "Ġchat": 6561,
    "Ġdamning": 19141,
    "frantic": 24284,
    "kindly": 14745,
    "Ġreap": 18029,
    "Ġsworn": 14437,
    "Ġnarration": 13506,
    "Ġhercules": 14129,
    "Ġlapse": 17122,
    "Ġnonsense": 6982,
    "Ġintentionally": 24522,
    "Ġmenaces": 23111,
    "maj": 18805,
    "quar": 7616,
    "Ġinit": 817,
    "kered": 18275,
    "Ġsuspending": 19246,
    "prairies": 20569,
    "fanc": 20866,
    "Ġscuttle": 7414,
    "Ġneedle": 8276,
    "Ġamber": 7027,
    "Ġnecessitated": 23932,
    "Ġunwarranted": 24831,
    "faced": 8081,
    "Ġnecessary": 4474,
    "Ġsubsc": 22793,
    "lipped": 16219,
    "ancient": 9657,
    "Ġanaly": 1161,
    "Ġheroic": 14909,
    "Ġauto": 23320,
    "Ġaston": 3700,
    "Ġbestirred": 20454,
    "Ġancestry": 25642,
    "Ġbubbles": 11399,
    "Ġclustered": 25234,
    "itarian": 21340,
    "consolatory": 25307,
    "Ġplease": 4724,
    "Ġvalues": 2648,
    "Ġmasked": 3693,
    "irious": 15789,
    "Ġperplex": 2710,
    "enjoy": 10775,
    "swells": 26149,
    "Ġagreeably": 24955,
    "Ġinject": 2706,
    "somerset": 26324,
    "Ġgentlemanlike": 12070,
    "Ġlur": 5226,
    "Ġgreatly": 5850,
    "Ġstuck": 9224,
    "Ġgrenadier": 21620,
    "Ġoverlooking": 22355,
    "Ġpict": 3497,
    "Ġscotch": 12213,
    "Ġbeh": 1802,
    "Ġspouts": 7730,
    "Ġcomrades": 9235,
    "Ġwhilst": 9220,
    "Ġpang": 15608,
    "waters": 11334,
    "Ġrequiring": 2915,
    "id": 338,
    "Ġsimple": 1622,
    "oysius": 14367,
    "tremendous": 20676,
    "bran": 23575,
    "Ġboyhood": 23757,
    "Ġconsider": 2568,
    "heav": 5694,
    "Ġpiece": 5367,
    "Ġsh": 419,
    "perhaps": 4122,
    "hark": 15368,
    "Ġstruggling": 12078,
    "Ġed": 2241,
    "assertion": 22316,
    "imate": 4225,
    "Ġprobably": 4316,
    "Ġperform": 1032,
    "Ġfamiliar": 5511,
    "Ġhanging": 5447,
    "Ġsensation": 6895,
    "Ġblandly": 20326,
    "Ġidentified": 19152,
    "Ġ1671": 25008,
    "ogene": 18679,
    "Ġdependence": 18622,
    "afternoon": 13188,
    "Ġendeavored": 19304,
    "cherish": 24551,
    "Ġstories": 10866,
    "Ġrejected": 12297,
    "Ġtransportation": 13645,
    "sullenly": 26150,
    "hardly": 6490,
    "holloa": 19467,
    "whips": 22243,
    "ut": 308,
    "Ġflip": 11915,
    "Ġtawny": 20485,
    "ignantly": 23269,
    "Ġbewit": 15731,
    "Ġwrig": 13072,
    "Ġsepulch": 15287,
    "Ġunjustifiable": 25112,
    "impenetrable": 26198,
    "Ġjerk": 16951,
    "prevailed": 17347,
    "disc": 4730,
    ".âĢĶ": 4251,
    "Ġvile": 8474,
    "Ĝ": 221,
    "Ġsaith": 14157,
    "ook": 21006,
    "tiest": 21084,
    "Ġwater": 1949,
    "ying": 1366,
    "Ġfirmly": 8015,
    "Ġseptember": 18206,
    "Ġlazarus": 15030,
    "Ġactually": 5389,
    "Ġtremendous": 8355,
    "Ġmanifested": 17159,
    "fortun": 3536,
    "killed": 15379,
    "destiny": 16700,
    "Ġeternity": 12282,
    "Ġcold": 3028,
    "Ġsending": 8779,
    "fuller": 22503,
    "ber": 882,
    "dischar": 19155,
    "Ġsouthwards": 19636,
    "roman": 22009,
    "Ġmout": 17800,
    "Ġat": 395,
    "ropout": 1319,
    "Ġchilian": 25564,
    "Ġlip": 6533,
    "Ġjacobian": 2887,
    "Ġugl": 12686,
    "Ġgoethe": 22427,
    "aph": 10955,
    "Ġdispleasure": 16054,
    "Ġstill": 1156,
    "rael": 21633,
    "Ġfalse": 4345,
    "Ġirreparable": 20002,
    "Ġhowling": 8511,
    "Ġtowed": 11266,
    "âĢĿ": 354,
    "Ġchairs": 12830,
    "Ġvineyards": 25109,
    "Ġhope": 1791,
    "Ġpreparations": 12313,
    "Ġabusive": 22278,
    "Ġsinister": 8571,
    "Ġjuggler": 26368,
    "raved": 18015,
    "Ġcobbling": 20526,
    "Ġcareful": 2611,
    "Ġaspect": 3096,
    "À": 129,
    "ompl": 4536,
    "blows": 17167,
    "Ġeth": 17717,
    "Ġeyford": 10643,
    "Ġbrought": 2515,
    "Ġunsuccessful": 18255,
    "acious": 5562,
    "[": 63,
    "Ġtubs": 11371,
    "Ġpoetical": 25059,
    "Ġtons": 11551,
    "Ġmeryton": 4439,
    "Ġoffering": 3003,
    "first": 3931,
    "Ġspake": 18309,
    "steel": 8300,
    "magnifying": 25393,
    "Ġcreases": 22730,
    "aloons": 20014,
    "Ġportly": 14678,
    "Ġever": 1181,
    "Ġregal": 16075,
    "Ġseparate": 5778,
    "Ġquestions": 3970,
    "fulness": 4312,
    "au": 778,
    "Ġspires": 11733,
    "frost": 15109,
    "Ġdestiny": 8985,
    "metallic": 19882,
    "ana": 15562,
    "Ġclings": 15975,
    "Ġassociate": 13453,
    "Ġboundless": 10497,
    "Ġpresented": 5183,
    "Ġnarrated": 14872,
    "Ġbell": 4637,
    "(": 12,
    "Ġmeasure": 3592,
    "Ġsettled": 3741,
    "Ġbraces": 14670,
    "Ġgor": 9208,
    "Ġdeg": 3281,
    "Ġbodings": 21394,
    "Ġhaw": 10253,
    "Ġshetland": 22164,
    "Ġinterruptions": 24188,
    "lasting": 8012,
    "Ġknocking": 10561,
    "Ġcrescentic": 20624,
    "Ġbundles": 26176,
    "Ġunavailing": 26217,
    "idol": 21771,
    "izes": 883,
    "Ġliving": 3061,
    "pled": 7894,
    "Ġbelief": 5856,
    "Ġloses": 15876,
    "Ġla": 5914,
    "shutters": 20314,
    "lion": 20946,
    "forgot": 11034,
    "Ġopera": 23429,
    "ĠĠĠĠĠĠĠĠĠĠĠĠĠĠĠĠĠĠĠĠĠĠĠĠĠĠĠĠĠĠĠĠĠĠĠĠĠĠĠĠĠ": 19585,
    "algorithms": 8294,
    "Ġmainten": 16116,
    "Ġpulley": 2971,
    "wealth": 22692,
    "ineer": 11702,
    "agery": 21912,
    "goodness": 19290,
    "Ġmanx": 7907,
    "palms": 25263,
    "direful": 25897,
    "Ġdamp": 8265,
    "toes": 22569,
    "Ġscre": 9739,
    "cused": 15334,
    "Ġkicking": 16902,
    "Ġpassage": 3883,
    "Ġres": 696,
    "Ġcocksure": 26260,
    "Ġthought": 1095,
    "Ġchamois": 16801,
    "Ġwhales": 1826,
    "handed": 7482,
    "Ġrubbed": 12959,
    "Ġdaintiest": 25954,
    "lengths": 24847,
    "Ġasylum": 13669,
    "rigging": 20009,
    "Ġoppose": 16520,
    "Ġattentive": 9035,
    "wilful": 25152,
    "playing": 19660,
    "eff": 2533,
    "pher": 11513,
    "Ġgeneva": 5450,
    "Ġobeying": 13417,
    "Ġbounding": 19403,
    "Ġreb": 15694,
    "rid": 5137,
    "rust": 2580,
    "Ġpe": 849,
    "Ġgasped": 11373,
    "Ġbarricade": 14660,
    "Ġeffusions": 18540,
    "churning": 21701,
    "Ġmassacre": 20550,
    "Ġantelope": 24182,
    "!": 5,
    "Ġcap": 2364,
    "Ġadmirer": 16839,
    "Ġinsist": 9893,
    "##": 2317,
    "Ġstartling": 14671,
    "pse": 21011,
    "Ġalleghan": 25796,
    "Ġliterary": 25166,
    "Ġ199": 3005,
    "Ġjup": 15955,
    "Ġurgent": 16868,
    "offing": 23338,
    "Ġexclude": 19039,
    "mr": 1901,
    "Ġslept": 8260,
    "Ġspices": 22135,
    "Ġthre": 2059,
    "english": 2771,
    "divers": 15345,
    "ip": 554,
    "appetite": 22849,
    "money": 8753,
    "Ġinsisted": 12049,
    "Ġprotectors": 9072,
    "Ġdense": 8124,
    "Ġcock": 11000,
    "Ġascend": 9962,
    "Ġpink": 12622,
    "Ġfountain": 7365,
    "unte": 21878,
    "Ġriddles": 16733,
    "Ġconvert": 11846,
    "esting": 7411,
    "othed": 16512,
    "uvian": 12246,
    "Ġunexpl": 22040,
    "Ġbirch": 26175,
    "ries": 3353,
    "Ġsire": 15503,
    "unicorn": 21894,
    "Ġtravelling": 11308,
    "Ġweapons": 10595,
    "Ġvacuous": 24343,
    "benevolently": 25601,
    "strade": 5065,
    "È": 137,
    "listen": 13516,
    "Ġimbib": 22180,
    "ada": 14013,
    "Ġgaff": 17996,
    "few": 8204,
    "possess": 5985,
    "Ġinjury": 10542,
    "prosper": 19102,
    "ok": 573,
    "Ġswamp": 14438,
    "determination": 19948,
    "Ġrendered": 5773,
    "otently": 21805,
    "avers": 17482,
    "Ġpur": 2218,
    "explaining": 23146,
    "Ġappeared": 2772,
    "Ġindignant": 12243,
    "Ġdissuade": 26258,
    "fat": 8080,
    "Ġup": 463,
    "Ġchival": 14184,
    "Ġgem": 21598,
    "Ġbeck": 14011,
    "Ġsadder": 24054,
    "Ġconvenience": 11332,
    "Ġmedit": 8026,
    "amount": 10885,
    "Ġvexed": 9996,
    "mael": 6724,
    "blo": 6354,
    "Ġspies": 22133,
    "ri": 389,
    "Ġanx": 3183,
    "Ġimpotently": 22395,
    "Ġbusy": 6190,
    "Ġoverpowering": 15252,
    "Ġparticularly": 5056,
    "Ġdeparture": 6489,
    "Ġgree": 7595,
    "Ġrational": 8481,
    "Ġshouted": 5348,
    "dress": 17521,
    "possible": 5743,
    "Ġwaif": 9377,
    "Ġpetticoat": 15298,
    "Ġvapory": 17007,
    "causing": 25519,
    "Ġweep": 7620,
    "Ġhaws": 21956,
    "Ġcasks": 7521,
    "Ġscare": 18397,
    "Ġprogram": 12997,
    "Ġvic": 5237,
    "abst": 21793,
    "Ġcarve": 23097,
    "Ġcurly": 18849,
    "Ġfringe": 17273,
    "Ġflatt": 16248,
    "Ġpronounced": 8352,
    "Ġfriday": 14489,
    "rederick": 14081,
    "spades": 14335,
    "Ġcommissioned": 19897,
    "kin": 7132,
    "hitherto": 17285,
    "ority": 8420,
    "Ġdiscuss": 9476,
    "Ġdiscu": 4365,
    "repid": 11566,
    "eze": 20849,
    "instant": 8655,
    "Ġexclam": 6758,
    "Ġtokens": 1772,
    "Ġsow": 17750,
    "distinguish": 19575,
    "Ġsle": 2014,
    "satisfaction": 9994,
    "Ġhistory": 4006,
    "superstitiousness": 25509,
    "Ġchildhood": 13140,
    "Ġcapsizing": 20092,
    "Ġboarders": 16601,
    "Ġdynamically": 4140,
    "Ġincl": 4273,
    "exasper": 22432,
    "Ġlac": 17967,
    "Ġpostponed": 20393,
    "tomb": 21096,
    "wise": 2574,
    "Ġgone": 2107,
    "Ġpaved": 17915,
    "Ġanything": 2188,
    "Ġpregnant": 26536,
    "Ġtarn": 21161,
    "antial": 8489,
    "Ġacquired": 13048,
    "Ġplough": 18610,
    "mean": 6437,
    "Ġdescribes": 3121,
    "Ġconnection": 5479,
    "Ġ46": 19494,
    "Ġreel": 9215,
    "iminished": 19025,
    "Ġ86": 24460,
    "Ġlink": 8131,
    "ctuous": 9207,
    "lott": 6652,
    "Ġterm": 2268,
    "que": 1134,
    "Ġlose": 5028,
    "Ġperseverance": 13600,
    "Ġvilest": 20104,
    "apidated": 22342,
    "contained": 22475,
    "Ġpeep": 6869,
    "E": 41,
    "footed": 19692,
    "Ġcaused": 5048,
    "buck": 17492,
    "suitable": 18632,
    "itary": 4752,
    "Ġcontextual": 3742,
    "Ġhazard": 20435,
    "society": 9974,
    "Ġhis": 380,
    "Ġdeserve": 8310,
    "Ġgravesend": 15219,
    "aguy": 21915,
    "Ġdesert": 6727,
    "Ġfailed": 6673,
    "etwork": 445,
    "clergy": 18936,
    "Ġcoldly": 14650,
    "Ġnice": 6677,
    "Ġpractically": 13106,
    "Ġvenetian": 14848,
    "Ġreveal": 11200,
    "Ġlecture": 13570,
    "Ġsimplicity": 2917,
    "Ġtwelve": 4963,
    "separated": 20162,
    "Ġoccas": 2698,
    "Ġconnexion": 11455,
    "²": 115,
    "Ġ58": 24321,
    "Ġdavy": 25952,
    "Ġ73": 24262,
    "idual": 1564,
    "wholly": 10942,
    "anque": 13890,
    "Ġarranged": 9879,
    "shazz": 14242,
    "Ġscanning": 18400,
    "Ġtambourine": 9566,
    "pane": 10122,
    "Ġrequisite": 18641,
    "Ġwinged": 16996,
    "Ġpam": 21458,
    "prevent": 11798,
    "Ġsemantic": 1960,
    "discoveries": 25386,
    "Ġrequirements": 9797,
    "Ġemployer": 19435,
    "think": 3608,
    "peace": 13053,
    "Ġmask": 1866,
    "ĠĠĠĠĠĠĠĠĠĠĠĠĠĠĠĠĠĠĠĠĠĠĠĠĠĠĠĠĠĠĠĠĠĠĠĠĠĠ": 16526,
    "Ġsuccession": 12105,
    "Ġtie": 10751,
    "Ġsublime": 8067,
    "Ġconfide": 13101,
    "iloquent": 21730,
    "Ġsignals": 10587,
    "Ġunthink": 18245,
    "Ġglitter": 25126,
    "izarre": 17391,
    "Ġaccount": 2321,
    "Ġergo": 25032,
    "impud": 23762,
    "Ġpawn": 12066,
    "Ġindistinctly": 26118,
    "71": 20758,
    "Ġcontinual": 6777,
    "sa": 8760,
    "Ġinstinct": 6576,
    "after": 2891,
    "Ġtower": 8320,
    "Ġnotable": 18223,
    "hawks": 24695,
    "royal": 11394,
    "friends": 8307,
    "shrouded": 26363,
    "ils": 3184,
    "oon": 6365,
    "Ġexamination": 8006,
    "jabez": 20935,
    "Ġ1825": 25719,
    "Ġcru": 2820,
    "izz": 7615,
    "iature": 8745,
    "Ġdevious": 22724,
    "Ġunprotected": 22068,
    "Ġpurse": 12013,
    "Ġconcrete": 20638,
    "Ġ82": 24457,
    "Ġpioneer": 17921,
    "fears": 18529,
    "upper": 11540,
    "Ġkindest": 23295,
    "Ġdeaf": 12725,
    "Ġtransport": 11279,
    "Ġsheets": 9724,
    "Ġnephews": 24713,
    "Ġtoad": 21514,
    "Ġjudges": 14685,
    "Ġhead": 1123,
    "Ġoozy": 21330,
    "compliment": 11365,
    "Ġlizz": 21561,
    "ashed": 3784,
    "Ġrecede": 25969,
    "begging": 22501,
    "gre": 5788,
    "purse": 20028,
    "Ġcircumnav": 12429,
    "fluke": 25205,
    "occupation": 15060,
    "Ġunexplored": 26519,
    "Ġcarav": 18902,
    "Ġcruising": 6912,
    "utely": 8133,
    "Ġvictim": 6099,
    "iosity": 2348,
    "Ġleader": 14703,
    "Ġpious": 11601,
    "dor": 12455,
    "liking": 22928,
    "Ġragged": 11849,
    "chains": 9687,
    "orate": 10801,
    "burst": 10539,
    "Ġclust": 9276,
    "Ġlivelong": 25512,
    "aly": 1132,
    "Ġworth": 4418,
    "wrapped": 15212,
    "ribs": 23369,
    "Ġdeadly": 5405,
    "Ġimpending": 22389,
    "cork": 20798,
    "rannical": 26402,
    "hester": 9633,
    "ertips": 23642,
    "hil": 8380,
    "zz": 4295,
    "Ġrouse": 15825,
    "coward": 13703,
    "Ġraiment": 22663,
    "four": 6114,
    "Ġjoy": 3186,
    "pursuit": 20343,
    "cooee": 12421,
    "Ġtin": 15465,
    "balanced": 14556,
    "various": 10399,
    "Ġepicurean": 20558,
    "mer": 2830,
    "deficient": 23121,
    "helpless": 16791,
    "acles": 8521,
    "Ġseaward": 22951,
    "Ġtrivial": 10144,
    "Ġgrec": 18962,
    "Ġpatriot": 23325,
    "Ġsulphur": 24934,
    "contrivance": 26317,
    "Ġinterrupting": 19560,
    "way": 765,
    "Ġunrolled": 22039,
    "hor": 2571,
    "Ġmerid": 13196,
    "oing": 15403,
    "Ġundo": 15843,
    "Ġnation": 12651,
    "Ġduncan": 13464,
    "Ġblundering": 26285,
    "Ġpronounce": 16969,
    "Ġcomplaisance": 19452,
    "achel": 7033,
    "Ġprompt": 3192,
    "Ġsinusoid": 4782,
    "curious": 10484,
    "bell": 7332,
    "sheets": 14444,
    "Ġlaw": 3654,
    "Ġchambers": 16800,
    "Ġexaggerated": 25651,
    "15": 12433,
    "strongly": 24685,
    "Ġuntimely": 16468,
    "ura": 1060,
    "Ġstocks": 23181,
    "Ġlodging": 24095,
    "Ġsally": 15504,
    "ios": 2266,
    "Ġdivers": 9667,
    "kne": 20937,
    "tuesday": 17691,
    "invariably": 26417,
    "ful": 671,
    "Ġprophe": 13082,
    "therly": 18347,
    "solut": 3363,
    "Ġpublic": 4334,
    "orand": 21400,
    "vint": 21117,
    "ferent": 4196,
    "Ġbounce": 21396,
    "Ġcous": 3435,
    "ib": 1233,
    "Ġstrugg": 3219,
    "wife": 8102,
    "century": 20050,
    "Ġpoured": 8804,
    "Ġsmall": 893,
    "Ġshoals": 13136,
    "Ġdecks": 6899,
    "icle": 10835,
    "Ġapparition": 8068,
    "Ġimmured": 24072,
    "Ġmanhandle": 22334,
    "effectually": 25131,
    "Ġenigmatical": 20600,
    "Ġambergris": 8709,
    "Ġback": 826,
    "Ġretention": 23076,
    "Ġpecks": 18670,
    "Ġkeenly": 9487,
    "Ġlevi": 3030,
    "Ġfurled": 22818,
    "heaved": 21213,
    "Ġcosmopolitan": 20643,
    "Ġfull": 2180,
    "Ġpanted": 21476,
    "data": 2069,
    "Ġindepend": 3667,
    "Ġengagement": 5397,
    "Ġulster": 14998,
    "ulsive": 10235,
    "Ġmeet": 2802,
    "accepting": 20138,
    "Ġeffect": 978,
    "nered": 18495,
    "Ġphrenologically": 20397,
    "Ġshook": 4469,
    "Ġdespairing": 14775,
    "slide": 24555,
    "Ġgoat": 16009,
    "azine": 19132,
    "Ġprotect": 6338,
    "Ġdesk": 11910,
    "egypt": 15352,
    "Ġfashioned": 13324,
    "ered": 1683,
    "Ġdisplayed": 10610,
    "Ġpri": 5814,
    "felix": 10655,
    "ipt": 12482,
    "cc": 472,
    "Ġdeprived": 8210,
    "rep": 5525,
    "Ġskip": 1843,
    "Ġderives": 16310,
    "speps": 14336,
    "bes": 6643,
    "Ġhabitation": 14804,
    "Ġsymphony": 26533,
    "asse": 15648,
    "Ġrecords": 12199,
    "Ġabominably": 20069,
    "suddenly": 6492,
    "Ġvillas": 24056,
    "health": 13835,
    "rat": 8759,
    "vings": 9753,
    "Ġcongreg": 8464,
    "felicity": 25143,
    "similar": 13456,
    "uc": 1878,
    "cal": 1117,
    "inery": 17734,
    "Ġreckon": 19872,
    "ubines": 22963,
    "Ġnearest": 8472,
    "Ġorganically": 3007,
    "Ġinquiring": 9001,
    "Ġshivered": 14110,
    "ny": 4014,
    "Ġcongregational": 25105,
    "Ġprehens": 22236,
    "verted": 10219,
    "Ġsplendour": 20227,
    "Ġmartha": 16262,
    "Ġreverence": 12062,
    "Ġdiversity": 25285,
    "Ġmakes": 3651,
    "aug": 1212,
    "joke": 20932,
    "Ġfowler": 16938,
    "Ġkissed": 10047,
    "Ġshrivelled": 19706,
    "practical": 17223,
    "Ġadvantage": 4318,
    "Ġweeps": 24950,
    "intercourse": 14638,
    "civil": 7797,
    "Ġclient": 5555,
    "Ġbliss": 13005,
    "Ġconven": 6152,
    "Ġungod": 22025,
    "Ġdiscerned": 24959,
    "speechless": 25396,
    "Ġmississippi": 20727,
    "Ġparc": 10921,
    "belief": 13285,
    "Ġresidence": 8208,
    "Ġcapstan": 9101,
    "Ġenabling": 1081,
    "tal": 17671,
    "lab": 3455,
    "clever": 20815,
    "Ġputting": 5327,
    "Ġchap": 5935,
    "Ġsake": 4090,
    "Ġdispositions": 13236,
    "Ġkrusenstern": 20716,
    ",âĢĿ": 581,
    "oled": 17620,
    "Ġvast": 3295,
    "Ġbiscuit": 12593,
    "Ġmutter": 23957,
    "ely": 625,
    "Ġhoard": 23356,
    "Ġsummit": 7731,
    "Ġwalker": 23304,
    "Ġbumps": 21395,
    "Ġmajesty": 5201,
    "Ġyes": 2684,
    "athered": 6972,
    "Ġpettic": 14842,
    "Ġhandspike": 22700,
    "Ġcyn": 13888,
    "remarkable": 13500,
    "Ġprocedural": 12033,
    "Ġreserves": 19673,
    "ousness": 10276,
    "wreck": 21139,
    "Ġheroism": 24543,
    "heavens": 19748,
    "Ġsky": 3967,
    "Ġdevil": 3612,
    "Ġpractises": 23332,
    "a": 69,
    "Ġcoincidences": 26365,
    "sorrow": 12512,
    "Ġdispleased": 18556,
    "loom": 18536,
    "veral": 2355,
    "vedale": 22714,
    "Ġdemands": 19641,
    "Ġprev": 6265,
    "Ġrepro": 7275,
    "Ġaltar": 9230,
    "Ġflattening": 26049,
    "aside": 10193,
    "unless": 9237,
    "Ġconcocted": 26299,
    "Ġdistinction": 8888,
    "preading": 18498,
    "Ġcath": 17828,
    "Ġfullest": 14815,
    "Ġchurch": 4712,
    "Ġimposs": 16617,
    "gloomy": 25147,
    "Ġscuffle": 20611,
    "Ġsolved": 8933,
    "eager": 12463,
    "inst": 4297,
    "Ġvon": 14083,
    "Ġrome": 12159,
    "Ġcistern": 17383,
    "ury": 3310,
    "Ġuniform": 2227,
    "Ġcatastrop": 3346,
    "Ġinanimate": 13935,
    "Ġrefres": 14344,
    "pursu": 11393,
    "coil": 23560,
    "Ġbread": 5404,
    "Ġservants": 6611,
    "Ġrug": 16160,
    "Ġhumbly": 16200,
    "Ġadmiral": 17307,
    "quite": 4648,
    "esteemed": 26010,
    "Ġexcept": 3311,
    "Ġdin": 3625,
    "ullo": 12733,
    "Ġide": 2123,
    "ribution": 14305,
    "Ġdoubtful": 19143,
    "Ġinflu": 4910,
    "Ġlikened": 16501,
    "ration": 2005,
    "mutually": 26137,
    "Ġflap": 14424,
    "Ġenl": 18190,
    "Ġminded": 23235,
    "icirc": 15659,
    "ipp": 10104,
    "Ġdeputation": 21844,
    "Ġengage": 9337,
    "Ġproposition": 23253,
    "Ġplum": 11825,
    "Ġbells": 19604,
    "Ġdusk": 12330,
    "Ġfedallah": 6109,
    "aiian": 23594,
    "Ġrespite": 13157,
    "Ġrans": 21974,
    "Ġpermit": 9751,
    "mber": 7804,
    "fever": 22506,
    "plutarch": 21968,
    "indulged": 22380,
    "nose": 17611,
    "Ġ32": 19492,
    "Ġshared": 10265,
    "Ġrecursive": 4783,
    "Ġhurled": 10430,
    "kindness": 10507,
    "Ġopposition": 16521,
    "christmas": 20258,
    "Ġexploit": 19164,
    "Ġgermany": 25786,
    "Ġtears": 4234,
    "Ġdrags": 16942,
    "tried": 13796,
    "Ġark": 10277,
    "Ġscott": 22286,
    "rugg": 15905,
    "Ġo": 275,
    "Ġpicture": 4858,
    "keepers": 16661,
    "seaman": 25458,
    "Ġsacrificial": 24872,
    "revol": 12544,
    "Ġprofited": 19193,
    "inked": 12917,
    "Ġswing": 13041,
    "âĢľâĢĻ": 10223,
    "Ġpossessed": 5195,
    "terday": 4706,
    "Ġquart": 11790,
    "cra": 6355,
    "hogs": 20085,
    "Ġlandlady": 10423,
    "Ġdecayed": 22829,
    "Ġlabors": 23333,
    "im": 327,
    "laugh": 10110,
    "unforeseen": 21893,
    "Ġsen": 9158,
    "Ġcollections": 22863,
    "Ġfavourable": 7960,
    "minute": 11275,
    "Ġbeseeching": 26312,
    "Ġgidd": 25784,
    "business": 5609,
    "ignominious": 26588,
    "Ġrepairs": 19083,
    "doubted": 17527,
    "Ġconjecture": 9534,
    "lovely": 16049,
    "Ġdoubtfully": 23479,
    "Ġhinge": 25542,
    "shape": 10983,
    "Ġintegral": 25011,
    "ners": 3271,
    "Ġimpat": 4457,
    "Ġreally": 2163,
    "Ġdiscriminative": 4329,
    "uncle": 8160,
    "Ġestab": 6316,
    "dial": 20827,
    "ez": 5683,
    "telesc": 22822,
    "where": 2093,
    "Ġphenomena": 21488,
    "Ġless": 1938,
    "Ġtransaction": 22444,
    "proble": 9396,
    "Ġasc": 4766,
    "Ġprometheus": 15295,
    "Ġpyramid": 8805,
    "Ġexulting": 20261,
    "Ġvancou": 22879,
    "Ġwandered": 6929,
    "distinction": 19574,
    "Ġglory": 6066,
    "Ġsixth": 16560,
    "iment": 2813,
    "lar": 4484,
    "Ġwager": 17794,
    "ressing": 8921,
    "ì": 173,
    "Ġwhiteness": 5920,
    "Ġearthy": 23715,
    "Ġfinding": 3265,
    "Ġmeditation": 16706,
    "Ġsurpass": 13586,
    "call": 8726,
    "prejudice": 25572,
    "progress": 11990,
    "Ġnations": 8813,
    "entimes": 12660,
    "Ġavoided": 13261,
    "Ġclo": 6046,
    "Ġmechanically": 14400,
    "Ġliberally": 16831,
    "bub": 15319,
    "Ġincreasing": 8248,
    "Ġgay": 5534,
    "Ġweakened": 16824,
    "Ġjeopardy": 13599,
    "Ġmarbank": 23041,
    "Ġforeshad": 23454,
    "Ľ": 254,
    "Ġelbows": 18636,
    "Ġnephew": 6404,
    "header": 11936,
    ",âĢĶâĢĺ": 23805,
    "reward": 15511,
    "vult": 21116,
    "Ġgulf": 10637,
    "ifer": 11686,
    "Ġdutch": 6328,
    "Ġcompassion": 6486,
    "Ġcorre": 3886,
    "Ġextraordinary": 5414,
    "Ġiron": 3237,
    "Ġweap": 6156,
    "Ġunfair": 19510,
    "trem": 17682,
    "Ġanywhere": 8518,
    "blister": 24128,
    "Ġbarrowful": 25596,
    "signed": 21064,
    "Ġstript": 23697,
    "Ġwidespread": 20678,
    "Ġupheld": 22157,
    "Ġbenefits": 4289,
    "Ġmil": 4257,
    "Ġuncompromised": 20606,
    "rove": 21537,
    "Ġplayers": 12041,
    "ropri": 2182,
    "Ġhospitable": 17059,
    "Ġ116": 24439,
    "Ġprovince": 24191,
    "Ġsiberia": 26162,
    "pilot": 25909,
    "Ġje": 4123,
    "Ġnupt": 13945,
    "Ġmatted": 22915,
    "Ġpap": 8801,
    "Ġdine": 7366,
    "withdrawn": 23030,
    "uttered": 8443,
    "Ġbackwards": 12931,
    "Ġceaseless": 13491,
    "Ġrigger": 19533,
    "virtue": 20572,
    "Ġoath": 7834,
    "Ġpen": 1531,
    "troubled": 17112,
    "can": 1231,
    "Ġbehalf": 14504,
    "Ġwaggish": 25435,
    "Ġnovels": 15932,
    "ti": 8391,
    "amouch": 21856,
    "Ġcha": 6852,
    "Ġpatted": 16386,
    "Ġlit": 6247,
    "Ġmasks": 23330,
    "response": 25763,
    "Ġinhale": 20303,
    "emed": 3379,
    "Ġpermanently": 25474,
    "Ġembodiment": 20531,
    "Ġsque": 18757,
    "ocean": 12404,
    "Ġsting": 10862,
    "Ġwarmed": 12026,
    "inquir": 9538,
    "beth": 13691,
    "Ġcatastrophe": 10485,
    "{": 95,
    "Ġsab": 10763,
    "cabinet": 25080,
    "pop": 17632,
    "Ġrefreshed": 15293,
    "fel": 8737,
    "Ġfields": 2144,
    "back": 2017,
    "enstern": 17783,
    "Ġwalked": 3141,
    "Ġtribes": 20484,
    "Ġket": 18348,
    "persons": 24176,
    "delivered": 24100,
    "Ġvelocity": 10622,
    "Ġburn": 3682,
    "occasional": 19579,
    "Ġoutward": 7906,
    "Ġauthors": 10417,
    "atious": 10153,
    "overspreading": 26140,
    "Ġwings": 9165,
    "Ġrevel": 9216,
    "Ġreliable": 18778,
    "Ġauthor": 4377,
    "Ġtelegra": 11894,
    "Ġcharles": 11959,
    "Ġgallows": 12149,
    "Ġint": 409,
    "Ġbeg": 1282,
    "ment": 694,
    "backward": 2678,
    "sister": 5139,
    "Ġunp": 12775,
    "Ġpurport": 14581,
    "Ġfemin": 13439,
    "Ġexcess": 3341,
    "Ġkrem": 9728,
    "Ġrainbows": 19651,
    "wide": 10139,
    "Ġcomstock": 21851,
    "Ġaccompaniments": 24481,
    "Ġsleepless": 14582,
    "window": 7743,
    "Ġarrest": 7409,
    "Ġgas": 8134,
    "Ġobsolete": 26559,
    "control": 16544,
    "ims": 7177,
    "Ġjinglers": 26019,
    "coun": 10689,
    "ign": 1703,
    "Ġmassachusetts": 24025,
    "gment": 4392,
    "Ġnour": 10831,
    "adm": 7609,
    "gradu": 18617,
    "Ġantiqu": 12148,
    "Ġsher": 3762,
    "Ġcensus": 15099,
    "angle": 22106,
    "ambition": 13414,
    "Ġyields": 19659,
    "Ġoperation": 12001,
    "Ġminimax": 5859,
    "Į": 239,
    "Ġadapted": 11043,
    "Ġwoodcock": 19165,
    "Ġhearty": 9849,
    "Ġmarvelled": 18875,
    "Ġconqueror": 25797,
    "Ġloading": 15877,
    "ogne": 12944,
    "mod": 1047,
    "ull": 1432,
    "Ġthunder": 4825,
    "Ġoutfits": 22326,
    "glings": 23854,
    "Ġstrat": 16095,
    "Ġhogshead": 26369,
    "Ġlory": 12656,
    "istics": 1629,
    "pie": 21013,
    "worshipping": 16611,
    "clay": 18933,
    "voc": 8395,
    "Ġpersonally": 8602,
    "Ġexplore": 15911,
    "Ġhumility": 12989,
    "Ġtennessee": 26597,
    "Ġvesu": 21954,
    "Ġfaint": 5812,
    "gold": 9122,
    "Ġrenow": 18030,
    "philips": 20038,
    "Ġinsulted": 14994,
    "Ġfru": 8422,
    "Ġelegant": 7532,
    "Ġbrooks": 25701,
    "Ġfactor": 19014,
    "Ġscalable": 1659,
    "enances": 10155,
    "lan": 15380,
    "viating": 14579,
    "Ġinvol": 1069,
    "Ġabject": 18392,
    "Ġmethinks": 10393,
    "Ġfamilies": 8028,
    "Ġentirely": 3432,
    "Ġshoved": 23492,
    "Ġevident": 6613,
    "Ġintim": 6837,
    "Ġevaluation": 16562,
    "Ġanonymous": 26179,
    "hateful": 20911,
    "Ġconsummation": 17427,
    "Ġswarming": 16276,
    "humoredly": 26326,
    "organ": 15577,
    "ores": 2413,
    "began": 6425,
    "scrape": 25699,
    "Ġtahit": 10755,
    "imprudent": 14651,
    "Ġdebated": 9042,
    "Ġbrightest": 13229,
    "holmes": 4432,
    "Ġsagacity": 16975,
    "¤": 102,
    "Ġserpentine": 11361,
    "Ġindel": 13008,
    "Ġabsolut": 3908,
    "Ġratio": 5066,
    "------": 12137,
    "adr": 6994,
    "odd": 21816,
    "Ġfeeling": 3082,
    "ĠâĢľâĢĻ": 22259,
    "Y": 61,
    "Ġbabes": 24424,
    "Ġblazing": 11899,
    "Ġglare": 13021,
    "colour": 9905,
    "_.": 2214,
    "Ġxli": 14542,
    "Ġsoo": 15862,
    "Ġbriony": 9331,
    "Ġcastor": 19430,
    "Ġimplore": 24873,
    "Ġneed": 2607,
    "fresh": 13395,
    "adventurous": 25362,
    "Ġphysiology": 25333,
    "greek": 25405,
    "Ġremnants": 22797,
    "Ġalleys": 25979,
    "Ġdauntless": 26338,
    "Ġgomorrah": 21619,
    "Ġdegraded": 19229,
    "izings": 14053,
    "Ġincomp": 12901,
    "Ġmoves": 14233,
    "tem": 6369,
    "grim": 19108,
    "obliged": 20634,
    "Ġsibbald": 21233,
    "Ġlaudanum": 20693,
    "Ġlascar": 9201,
    "Ġanticipation": 17057,
    "younger": 11313,
    "Ġjun": 8507,
    "Ġaverse": 11081,
    "hound": 20897,
    "asserted": 22314,
    ".]": 15301,
    "Ġcollar": 11882,
    "Ġtasks": 1790,
    "cracy": 24691,
    "Ġcircumstances": 3923,
    "?": 35,
    "Ġrecollection": 6622,
    "Ġunthinkingly": 26222,
    "Ġscorching": 20071,
    "Ġaccomplishment": 19668,
    "adow": 18090,
    "plumed": 21966,
    "Ġmist": 2872,
    "Ġphotograph": 6303,
    "Ġlead": 3520,
    "Ġmarling": 23038,
    "degrad": 22148,
    "Ġsister": 1473,
    "Ġubiquitous": 26197,
    "Ġvisibly": 22866,
    "hever": 13833,
    "Ġproceedings": 9909,
    "Ġletting": 10363,
    "rons": 21042,
    "Ġdivin": 13277,
    "Ġoverpow": 14205,
    "elephant": 12354,
    "Ġwords": 1323,
    "Ġtil": 12528,
    "Ġdo": 511,
    "lose": 12886,
    "te": 994,
    "Ġdiscontented": 16061,
    "Ġproves": 14040,
    "Ġtars": 21167,
    "hair": 9124,
    "Ġcontrol": 13083,
    "Ġseeming": 8542,
    "encoun": 12301,
    "atigable": 15273,
    "Ġefficient": 1048,
    "Ġfaltering": 17886,
    "Ġnathan": 21530,
    "imodal": 17449,
    "Ġbulkington": 14677,
    "Ġscattered": 6855,
    "couldn": 23720,
    "Ġbay": 9170,
    "erred": 7149,
    "stretching": 20502,
    "Ġresid": 22543,
    "december": 25559,
    "Ġbefriend": 18084,
    "Ġerect": 6144,
    "plentiful": 21967,
    "ote": 4597,
    "Ġprofessional": 7299,
    "Ġcanaller": 25468,
    "coburg": 13601,
    "Ġheap": 12682,
    "Ġremains": 4911,
    "Ġbenevolence": 9529,
    "yonder": 21147,
    "Ġgnarled": 25169,
    "Ġtucked": 12395,
    "Ġfiss": 21416,
    "tre": 8764,
    "Ġreject": 7386,
    "don": 3541,
    "us": 532,
    "Ġconsiderable": 4005,
    "Ġoily": 13866,
    "alcul": 15631,
    "condition": 7060,
    "dman": 10090,
    "Ġscandalous": 24880,
    "Ġchronic": 9931,
    "Ġincred": 5646,
    "atically": 2738,
    "Ġsoftmax": 1688,
    "Ġoccurring": 2789,
    "everywhere": 23701,
    "Ġtemporary": 7982,
    "dog": 10695,
    "Ġrelation": 2143,
    "Ġdressing": 7091,
    "Ġharris": 13929,
    "Ġunhe": 22011,
    "ulties": 12905,
    "Ġpleases": 16300,
    "Ġimpossible": 3540,
    "throne": 25658,
    "ible": 1112,
    "Ġexpired": 18625,
    "Ġpenetrate": 12273,
    "Ġlover": 7193,
    "system": 4206,
    "inks": 6868,
    "Ġexclusion": 19399,
    "Ġbridges": 24683,
    "Ġimpenetrable": 17399,
    "Ġmagnetic": 17242,
    "Ġrestored": 7067,
    "Ġrecognised": 8997,
    "Ġsalutation": 12400,
    "Ġ(âĢľ": 15998,
    "ories": 4754,
    "Ġroving": 22408,
    "bony": 15322,
    "mighty": 9468,
    "despond": 19803,
    "Ġmaterially": 12195,
    "Ġgive": 1713,
    "Ġcorpore": 13404,
    "asons": 6016,
    "Ġcompl": 3758,
    "Ġruns": 8598,
    "olets": 21010,
    "remediable": 26296,
    "ser": 1426,
    "Ġfinger": 5274,
    "Ġundergone": 18986,
    "Ġappeased": 23201,
    "bunger": 20405,
    "Ġjerking": 12249,
    "directed": 20408,
    "Ġyouthful": 16724,
    "bale": 20776,
    "sequently": 14583,
    "odiac": 14034,
    "Ġwinc": 9644,
    "greenland": 10023,
    "jumped": 20249,
    "uary": 11539,
    "ial": 410,
    "Ġhudson": 15194,
    "Ġpatronage": 17053,
    "Ġhist": 2444,
    "Ġunreasonable": 12780,
    "pleas": 3851,
    "Ġexceeded": 14435,
    "enorm": 17782,
    "Ġstaggering": 20276,
    "Ġcustom": 5078,
    "admitted": 18094,
    "irwin": 8470,
    "superst": 11326,
    "restraint": 18980,
    "Ġ71": 24261,
    "Ġnetwork": 454,
    "Ġeste": 6085,
    "gments": 12473,
    "Ġtelescopes": 25691,
    "Ġincommod": 25308,
    "uish": 5431,
    "Ġwavering": 23284,
    "Ġcellar": 8060,
    "jump": 10105,
    "athan": 2952,
    "ilege": 22263,
    "Ġrmsprop": 3354,
    "Ġgeneration": 2145,
    "wound": 21129,
    "arus": 13914,
    "Ġquarrel": 7292,
    "calculation": 25689,
    "ments": 1400,
    "ashtego": 4102,
    "encing": 21285,
    "Ġregulate": 22584,
    "chancing": 22921,
    "Ġirreducible": 5519,
    "ascending": 24706,
    "beloved": 19464,
    "Ġextremely": 2664,
    "Ġblows": 5974,
    "aution": 9389,
    "Ġshow": 3400,
    "raid": 3279,
    "ago": 14067,
    "ver": 331,
    "Ġscrutin": 26015,
    "Ġromish": 19587,
    "Ġinmates": 15626,
    "terns": 21827,
    "ordinate": 12878,
    "Ġsinks": 19552,
    "Ġowes": 20088,
    "Ġinjunctions": 24271,
    "jury": 15376,
    "mish": 17599,
    "Ġpir": 6817,
    "Ġrealities": 18982,
    "Ġpledged": 20690,
    "Ġduke": 7756,
    "Ġhackney": 20436,
    "hundred": 8332,
    "Ġaddress": 2273,
    "obser": 11100,
    "endeavoured": 12284,
    "employ": 10896,
    "Ġdocuments": 10025,
    "Ġcarted": 21353,
    "Ġchr": 3687,
    "Ġshares": 23250,
    "particularly": 8341,
    "Ġbequeathed": 20704,
    "Ġbelike": 18831,
    "Ġtram": 11093,
    "Ġslaves": 23173,
    "Ġwhisky": 23937,
    "rope": 3187,
    "Ġround": 1368,
    "inside": 23069,
    "Ġendeavouring": 8036,
    "oped": 6048,
    "fort": 1751,
    "Ġhen": 3500,
    "Ġdecisions": 6703,
    "Ġinsane": 19271,
    "Ġintrepidity": 25551,
    "admit": 18093,
    "Ġdeft": 21841,
    "Ġreligious": 25124,
    "bru": 12442,
    "bulk": 19926,
    "rather": 5430,
    "Ġmotive": 6092,
    ",âĢĶ": 3172,
    "jah": 17582,
    "omist": 21642,
    "activity": 22635,
    "Ġhatchway": 13527,
    "Ġexamining": 8007,
    "Ġoverlapping": 26240,
    "Ġgroom": 13968,
    "Ġintricacies": 15141,
    "Ġtickled": 20060,
    "Ġactivity": 7922,
    "rers": 14719,
    "Ġvibrated": 25048,
    "Ġbeheaded": 11658,
    "phantoms": 24680,
    "steaks": 23964,
    "Ġunsur": 22023,
    "Ġlavater": 20499,
    "Ġfangs": 12601,
    "Ġpropriet": 9552,
    "Ġimperson": 14219,
    "Ġseething": 18202,
    "Ġbat": 10796,
    "treacle": 25151,
    "Ġcritical": 7474,
    "precip": 14665,
    "Ġincrease": 9372,
    "Ġobli": 9318,
    "Ġrecommended": 8671,
    "Ġflowing": 14413,
    "uments": 5551,
    "youngest": 19746,
    "Ġamounted": 18513,
    "alid": 13937,
    "Ġbrilliancy": 20110,
    ".": 18,
    "Ġhartshorn": 26182,
    "papers": 12505,
    "Ġplying": 17916,
    "Ġpledge": 11603,
    "Ġremaining": 6189,
    "complet": 11384,
    "Ġforeseen": 16443,
    "Ġlees": 18065,
    "Ġvoyages": 6907,
    "Ġunappe": 22019,
    "Ġshrugged": 12773,
    "Ġcensure": 15098,
    "jeroboam": 25620,
    "Ġsqueaking": 26276,
    "Ġevidently": 6759,
    "torm": 11532,
    "Ġmachinery": 20488,
    "Ġtrembled": 8705,
    "Ġmimic": 3145,
    "Ġremarks": 7473,
    "mount": 9131,
    "tempt": 21082,
    "Ġpoliceman": 15261,
    "onical": 21256,
    "anybody": 12086,
    "Ġivory": 4477,
    "Ġf": 283,
    "Ġbrill": 8551,
    "Ġbeckoning": 20505,
    "Ġgrowl": 16539,
    "avier": 2827,
    "Ġextracted": 16315,
    "Ġhumans": 8932,
    "Ġextrem": 2473,
    "Ġencourages": 2061,
    "Ġscoundrel": 13673,
    "Ġsnarled": 25715,
    "Ġconstables": 19070,
    "Ġomen": 11578,
    "Ġresigned": 9770,
    "tained": 4407,
    "Ġsaviour": 20715,
    "ader": 14014,
    "Ġpliny": 11828,
    "Ġband": 5292,
    "Å": 134,
    "Ġshone": 7404,
    "Ġgoblet": 25824,
    "Ġmetropolis": 17276,
    "content": 11198,
    "fare": 7799,
    "Ġquee": 1982,
    "counter": 20281,
    "inu": 1113,
    "keen": 12786,
    "iration": 4540,
    "Ġbattery": 21397,
    "her": 489,
    "influ": 9543,
    "Ġvoluntary": 14800,
    "Ġhouses": 6139,
    "arken": 18668,
    "Ġaffair": 4464,
    "parted": 21018,
    "resnet": 4068,
    "grace": 5847,
    "Ġinterference": 8896,
    "Ġreproof": 24891,
    "Ġbeef": 6829,
    "Ġrepresenting": 4059,
    "impart": 21713,
    "flu": 9119,
    "guilt": 24071,
    "Ġstreet": 2953,
    "Ġthorough": 6246,
    "pointed": 9810,
    "Ġbubble": 13537,
    "positive": 20570,
    "trade": 19647,
    "Ġpestilent": 25778,
    "aded": 3546,
    "Ġgrease": 26191,
    "Ġrevolved": 9986,
    "igned": 5656,
    "Ġinvolves": 1121,
    "loun": 17589,
    "Ġservices": 11218,
    "intend": 16226,
    "umnal": 18301,
    "comprehend": 14361,
    "Ġshakes": 10905,
    "Ġrestraint": 15130,
    "achment": 5464,
    "Ġvaliant": 9802,
    "prepar": 22471,
    "Ġfrankly": 16746,
    "Ġgrey": 4513,
    "Ġaccustomed": 6860,
    "Ġdynamic": 5122,
    "fierce": 25256,
    "Ġjourneying": 25566,
    "Ġperceive": 6700,
    "meth": 11504,
    "hate": 20894,
    "Ġports": 10819,
    "analysis": 26174,
    "Ġvalue": 2086,
    "Ġtortures": 14924,
    "Ġdeploy": 2948,
    "og": 872,
    "feather": 16046,
    "usive": 8193,
    "prudently": 21037,
    "Ġwere": 558,
    "isbury": 21380,
    "Ġthursday": 12648,
    "ading": 5091,
    "Ġtells": 9363,
    "Ġquarto": 17298,
    "Ġledge": 19404,
    "Ġmortal": 4683,
    "Ġenorm": 5304,
    "ieged": 22582,
    "Ġrobustness": 18897,
    "Ġaccommod": 14214,
    "Ġwoven": 9928,
    "Ġdesmarest": 22980,
    "relatively": 24017,
    "ivial": 15865,
    "Ġwaxed": 21300,
    "somewhere": 12015,
    "Ġunsatisfied": 22045,
    "ficial": 17549,
    "omach": 11636,
    "Ġsundial": 15085,
    "Ġbelrive": 18832,
    "lin": 9605,
    "Ġopal": 23628,
    "Ġmadly": 16486,
    "Ġfrom": 433,
    "Ġbring": 3323,
    "Ġreckless": 13461,
    "Ġimmersed": 19488,
    "Ġrephrased": 26478,
    "progression": 20385,
    "Ġflush": 14426,
    "ustration": 2259,
    "tedious": 22636,
    "Ġconvivial": 16549,
    "cils": 20816,
    "pid": 1425,
    "dec": 3112,
    "ra": 314,
    "Ġferocious": 17421,
    "Ġintervene": 25481,
    "myself": 5113,
    "Ġdiverted": 14592,
    "painting": 17046,
    "streets": 13398,
    "tha": 15826,
    "eleg": 20851,
    "Ġbar": 3149,
    "ouble": 2657,
    "Ġmillion": 14989,
    "Ġplayed": 9418,
    "Ġbackwater": 18643,
    "inarticulate": 21198,
    "classes": 12139,
    "Ġextinguish": 14339,
    "Ġforlorn": 14017,
    "shaken": 16026,
    "Ġtossing": 8127,
    "Ġuncouth": 14549,
    "Ġinteresting": 4327,
    "Ġprincipally": 11310,
    "Ġdecanting": 22448,
    "Ġrhone": 25231,
    "oton": 3606,
    "Ġgene": 15675,
    "spe": 3557,
    "grasping": 20642,
    "Ġstooping": 13066,
    "Ġspeculations": 23002,
    "ifiable": 18166,
    "horr": 14599,
    "billows": 20239,
    "od": 353,
    "Ġconvent": 11670,
    "Ġbethinking": 25280,
    "Ġneglig": 18879,
    "movable": 14326,
    "¡": 99,
    "Ġeternal": 5977,
    "Ġrec": 900,
    "ards": 2504,
    "Ġmournful": 12339,
    "luded": 4231,
    "Ġsounding": 8266,
    "amongst": 24673,
    "library": 13003,
    "xes": 21143,
    "hearth": 15501,
    "sullen": 17670,
    "Ġsolicitude": 10042,
    "Ġslumber": 13064,
    "kindled": 16662,
    "onial": 11568,
    "Ġantiquity": 15233,
    "information": 12396,
    "Ġprotruded": 19473,
    "Ġshipmate": 8931,
    "iece": 3231,
    "ificent": 8185,
    "Ġalternate": 19989,
    "Ġcaw": 13885,
    "Ġpurporting": 19184,
    "Ġimagined": 8610,
    "followed": 8340,
    "moral": 14803,
    "Ġdisquis": 22532,
    "ots": 3293,
    "Ġenvied": 19314,
    "Ġchronicled": 25329,
    "Ġasking": 5651,
    "persu": 8029,
    "topp": 22570,
    "'s": 2468,
    "Ġspinal": 12305,
    "oun": 483,
    "Ġbraved": 23841,
    "Ġthoroughfare": 16945,
    "Ġturk": 6604,
    "orph": 21402,
    "Ġcrags": 23531,
    "Ġtablet": 19206,
    "Ġsentin": 16372,
    "Ġhilarious": 20301,
    "Ġbeaten": 10530,
    "Ġdejected": 20307,
    "Ġecon": 9679,
    "Ġflapped": 23015,
    "Ġcoverage": 4290,
    "Ġwines": 21290,
    "Ġwiser": 14731,
    "equ": 6790,
    "Ġburgled": 23655,
    "Ġjoyfully": 19349,
    "Ġbuttoned": 25369,
    "ors": 855,
    "dock": 16421,
    "avail": 18606,
    "Ġschools": 9479,
    "doctor": 19097,
    "opened": 7915,
    "Ġexquis": 9701,
    "Ġbloodthirst": 23804,
    "zers": 21149,
    "Ġmeek": 21814,
    "Ġblow": 3373,
    "Ġsaves": 18325,
    "servants": 15039,
    "iety": 2815,
    "request": 21244,
    "Ġpreaching": 15929,
    "Ġplunging": 14953,
    "Ġwre": 5077,
    "illing": 8176,
    "Ġenraged": 10246,
    "âĢĶ.": 11758,
    "Ġsliding": 9365,
    "Ġcruelly": 13378,
    "tashtego": 9624,
    "Ġholidays": 22926,
    "tu": 12515,
    "gratification": 24347,
    "Ġbiography": 22769,
    "clearly": 25196,
    "Ġdedication": 3086,
    "confusion": 13373,
    "Ġregions": 10325,
    "âĢĿ]": 21820,
    "aloft": 8810,
    "certain": 3675,
    "Ė": 215,
    "presum": 12872,
    "eur": 7545,
    "Ġbolted": 12248,
    "Ġdiffident": 23786,
    "Ġw": 272,
    "Ġforgiven": 24030,
    "guessed": 25873,
    "Ġseap": 15817,
    "Ġaccord": 4024,
    "Ġcommon": 1412,
    "Ġspoon": 22139,
    "Ġderive": 10396,
    "moonlight": 25376,
    "Ġserve": 9370,
    "ised": 1082,
    "Ġfrederick": 15590,
    "Ġforbearance": 12331,
    "Ġcoll": 8222,
    "Ġproviding": 1358,
    "Ġostlers": 25277,
    "commission": 22816,
    "Ġgovernment": 15179,
    "Ġfevers": 22212,
    "Ġsmaller": 1885,
    "Ġrascal": 11704,
    "Ġderiv": 1736,
    "Ġtogether": 1880,
    "porpoise": 16438,
    "context": 3403,
    "exercise": 17461,
    "Ġlovers": 9722,
    "iverse": 13119,
    "Ġaffright": 9334,
    "branch": 23579,
    "Ġwinter": 5220,
    "Ġdub": 13911,
    "Ġhopkins": 23133,
    "Ġtremulous": 14988,
    "Ġimproper": 22756,
    "Ġbubb": 12588,
    "Ġvehic": 8935,
    "Ġcharacteristic": 12051,
    "bearing": 9767,
    "Ġsimpl": 1581,
    "osh": 18389,
    "Ġhasten": 10479,
    "intellig": 5321,
    "matlock": 23471,
    "Ġdependen": 1827,
    "playful": 24356,
    "Ġtargets": 4207,
    "conce": 8512,
    "Ġallow": 1126,
    "Ġtyphoons": 20237,
    "ires": 6039,
    "Ġreve": 2926,
    "Ġboxed": 24359,
    "Ġconduct": 3732,
    "his": 1411,
    "Ġcardboard": 19982,
    "inished": 17735,
    "Ġmasonry": 13602,
    "Ġsmoke": 4716,
    "Ġemb": 1240,
    "Ġiroquois": 26473,
    "des": 3174,
    "nelson": 25621,
    "breaths": 25337,
    "work": 1696,
    "adru": 15734,
    "Ġcanopy": 18322,
    "Ġantagon": 19553,
    "instinct": 19546,
    "sim": 6509,
    "each": 7335,
    "secured": 16939,
    "acing": 2712,
    "sixty": 24853,
    "rowed": 22867,
    "Ġhoot": 19076,
    "Ġimp": 574,
    "missed": 11210,
    "angel": 5726,
    "Ġdisagree": 22537,
    "Ġmagnitude": 1943,
    "Ġvigorously": 11300,
    "Ġinvoking": 19147,
    "Ġbelf": 21384,
    "Ġreflections": 5948,
    "Ġclaws": 15978,
    "Ġpines": 12621,
    "Ġflorida": 20661,
    "Ġrisks": 9966,
    "Ġpossessor": 23827,
    "Ġconjure": 17125,
    "å": 166,
    "Ġbelfry": 26439,
    "opius": 18509,
    "Ġarmies": 16493,
    "Ġconsum": 9801,
    "Ġincidentally": 16955,
    "Ġsometimes": 2170,
    "Ġcables": 15561,
    "Ġrepaired": 13111,
    "Ġchanc": 18385,
    "fourths": 25510,
    "swed": 24255,
    "fur": 6356,
    "Ġlifting": 10198,
    "mopol": 15398,
    "plicable": 10258,
    "Ġtrotting": 19979,
    "Ġcompiled": 22575,
    "Ġchoose": 5983,
    "Ġdismissed": 12896,
    "Ġdarkly": 19116,
    "Ġwriter": 11948,
    "oses": 3944,
    "Ġvaried": 11851,
    "fail": 17541,
    "Ġafforded": 8030,
    "quered": 11056,
    "inaw": 21186,
    "pendicular": 6498,
    "Ġtyrant": 24766,
    "Ġrichest": 26213,
    "countenances": 24153,
    "Ġinterchange": 16074,
    "Ġbutchers": 18273,
    "Ġpuzzled": 7317,
    "inian": 21185,
    "Ġfrosty": 14936,
    "Ġsal": 3936,
    "eches": 8079,
    "Ġexposes": 22628,
    "gunwale": 20665,
    "mouth": 9132,
    "Ġglistened": 20175,
    "conclude": 24069,
    "Ġobliterated": 17407,
    "Ġlads": 8600,
    "alarm": 15630,
    "Ġ44": 16680,
    "Ġcuriosities": 26291,
    "saying": 8644,
    "Ġundersampling": 19521,
    "Ġfolds": 12210,
    "Ġobservation": 6598,
    "unwho": 21882,
    "Ġavast": 9922,
    "Ġvisit": 2583,
    "Ġsitting": 3604,
    "Ġmeasures": 1206,
    "mand": 3892,
    "Ġcannib": 6037,
    "Ġshipmates": 6721,
    "oved": 5215,
    "pronounced": 12349,
    "Ġbranded": 14381,
    "Ġsuper": 2158,
    "formity": 10280,
    "Ġresting": 7962,
    "Ġusefulness": 19411,
    "irited": 15790,
    "Ġjobs": 24833,
    ":--âĢľ": 24549,
    "appalling": 22847,
    "Ġdeliverance": 15160,
    "Ġ4": 3984,
    "makers": 20984,
    "borean": 25744,
    "pp": 384,
    "Ġforebodings": 17306,
    "Ġquadrille": 13543,
    "Ġdel": 1616,
    "Ġskin": 5038,
    "Ġhumbled": 16199,
    "Ġburden": 8611,
    "parad": 16393,
    "Ġridge": 14820,
    "Ġchip": 12829,
    "Ġthieves": 15639,
    "Ġcompatibility": 2954,
    "Ġtroub": 22350,
    "Ġcomponents": 8895,
    "Ġsix": 3043,
    "Ġparch": 11729,
    "wore": 21127,
    "Ġinter": 727,
    "Ġengagements": 9980,
    "warrant": 21140,
    "85": 13684,
    "Ġirregular": 9867,
    "bad": 12439,
    "Ġravines": 25833,
    "Ġslily": 23168,
    "spass": 18688,
    "intu": 22937,
    "burnt": 20083,
    "Ġkilburn": 18352,
    "shire": 3017,
    "concluded": 11244,
    "Ġmutiny": 13262,
    "ictions": 14227,
    "Ġtrusty": 24104,
    "Ġprevail": 13445,
    "Ġsore": 10765,
    "roqu": 21538,
    "Ġanticipating": 17058,
    "Ġribbed": 16805,
    "tables": 19760,
    "Ġjohnson": 18410,
    "Ġcontrived": 10305,
    "Ġbeech": 18085,
    "Ġbottled": 23798,
    "emotions": 15799,
    "Ġsuperiority": 14617,
    "hullo": 17571,
    "ardy": 22161,
    "contact": 23730,
    "Ġdonkey": 23233,
    "Ġbang": 17856,
    "Ġphaeton": 17466,
    "Ġwounding": 19589,
    "Ġpoised": 22594,
    "etition": 7382,
    "picture": 11408,
    "going": 6314,
    "Ġ30": 10513,
    "poling": 12223,
    "Ġpod": 15607,
    "roses": 17959,
    "Ġzodiac": 16177,
    "an": 278,
    "press": 1731,
    "Ġmomentous": 16174,
    "Ġcreaking": 14331,
    "Ġdere": 21839,
    "Ġshoal": 12018,
    "Ġhoops": 9390,
    "Ġlimits": 3452,
    "Ġsplintered": 11419,
    "vii": 13151,
    "Ġvishnoo": 12757,
    "housekeeping": 24102,
    "Ġforecastle": 5495,
    "Ġelimin": 16111,
    "Ġcasc": 15559,
    "Ġyelled": 9696,
    "Ġthickets": 24026,
    "Ġimitate": 14159,
    "Ġoverlook": 10960,
    "umed": 6555,
    "plan": 15821,
    "Ġclear": 1950,
    "_).": 5888,
    "chan": 1165,
    "Ġjealousy": 13579,
    "savage": 15078,
    "Ġponies": 21480,
    "elves": 2162,
    "Ġnumberless": 16418,
    "Ġporus": 24397,
    "Ġrapt": 7227,
    "necessary": 5883,
    "soo": 18686,
    "Ġconcepts": 4551,
    "Ġparched": 11730,
    "Ġcircumstantial": 14643,
    "uzz": 4524,
    "Ġalcoves": 26487,
    "Ġcommend": 10336,
    "ifying": 5235,
    "drifting": 19827,
    "Ġattitude": 8906,
    "Ġungenerous": 18264,
    "ilities": 6991,
    "Ġvolcanoes": 24147,
    "Ġbeard": 11657,
    "Ġspy": 22128,
    "spot": 9791,
    "acceler": 23600,
    "Ġhyster": 16874,
    "Ġforeboding": 20387,
    "Ġsolace": 16202,
    "acceptance": 25186,
    "Ġtenderness": 12219,
    "particulars": 11316,
    "Ġharbor": 10029,
    "Ġinfatuated": 20538,
    "record": 16922,
    "Ġfollies": 16256,
    "Ġsource": 6805,
    "Ġhot": 4260,
    "Ġcautiously": 16978,
    "forget": 11033,
    "acetti": 13399,
    "shame": 16025,
    "Ġrem": 955,
    "dataset": 23218,
    "circumstantial": 24443,
    "Ġscold": 10951,
    "Ġacre": 22685,
    "Ġburnt": 9930,
    "ii": 4013,
    "Ġhitting": 21491,
    "ermaid": 14300,
    "xic": 9147,
    "Ġmovable": 22438,
    "Ġsecre": 5493,
    "cool": 19189,
    "Ġdiscussed": 19562,
    "Ġdrowning": 19906,
    "sick": 13786,
    "inary": 3274,
    "cies": 1813,
    "Ġreg": 729,
    "Ġdisquiet": 18553,
    "aments": 12729,
    "Ġmother": 2068,
    "Ġspeed": 2447,
    "dimens": 2318,
    "Ġshield": 22004,
    "Ġbeckoned": 25794,
    "Ġflavor": 16253,
    "Ġspecific": 2003,
    "caps": 20809,
    "Ġramad": 8530,
    "street": 6494,
    "Ġjudged": 12087,
    "Ġsize": 1218,
    "aken": 1869,
    "Ġdischarge": 18557,
    "Ġcirclings": 26432,
    "consc": 4842,
    "Ġsettles": 22924,
    "Ġarchangel": 8544,
    "xi": 17711,
    "Ġar": 479,
    "Ġglim": 9346,
    "Ġpiercing": 13496,
    "ade": 880,
    "rely": 6124,
    "Ġrespected": 11956,
    "iless": 10283,
    "pton": 15795,
    "Ġstrokes": 16770,
    "Ġdetection": 3190,
    "Ġland": 1998,
    "Ġcatherine": 2810,
    "Ġherd": 7890,
    "scor": 13024,
    "Ġridiculous": 10630,
    "based": 2955,
    "Ġadequate": 20311,
    "âĢĶ": 519,
    "destro": 13313,
    "Ġpositional": 2597,
    "Ġhonoured": 9883,
    "Ġimpregnable": 26024,
    "Ġenderby": 13654,
    "earnest": 12402,
    "akin": 11770,
    "Ġhesitate": 16947,
    "conside": 9292,
    "Ġpremises": 10489,
    "Ġmountains": 4428,
    "Ġ21": 11199,
    "Ġdescends": 14289,
    "Ġsche": 1705,
    "decease": 25558,
    "Ġpillar": 21477,
    "ighter": 7969,
    "Ġreview": 18033,
    "Ġacting": 10992,
    "bbings": 19278,
    "Á": 130,
    "Ġath": 15804,
    "Ġbarbar": 6934,
    "twelvemonth": 25863,
    "Ġseren": 7401,
    "Ġsanity": 24984,
    "ierce": 14393,
    "tur": 5688,
    "ilies": 18059,
    "etics": 21585,
    "andy": 8159,
    "Ġmeditating": 20046,
    "Ġblunt": 11897,
    "4": 24,
    "els": 1764,
    "Ĕ": 213,
    "Ġmicha": 17813,
    "Ġresided": 11814,
    "Ġenables": 725,
    "expressing": 16802,
    "Ġdisabled": 18562,
    "mockery": 24377,
    "Ġbottom": 3673,
    "Ġmax": 2007,
    "Ġidentical": 10435,
    "Ġgild": 15672,
    "Ġcelestial": 10069,
    "thrasher": 25659,
    "ollen": 11299,
    "cheered": 23808,
    "stand": 629,
    "Ġgrowth": 14629,
    "Ġfight": 5366,
    "lanter": 15390,
    "Ġbart": 17858,
    "capable": 13704,
    "expedition": 26079,
    "Ġheiress": 20700,
    "umb": 3401,
    "anger": 2175,
    "pay": 10719,
    "Ġcetacea": 20556,
    "Ġprobable": 5569,
    "astes": 11742,
    "Ġsold": 6004,
    "Ġmodes": 22221,
    "ontory": 10460,
    "Ġchoosing": 19593,
    "Ġforemast": 12008,
    "l": 80,
    "sequ": 2401,
    "meantime": 9094,
    "ifts": 12739,
    "hears": 12537,
    "Ġperfection": 19221,
    "Ġattends": 19653,
    "Ġcentrally": 23835,
    "treasures": 26153,
    "Ġintrig": 21995,
    "wet": 15454,
    "Ġeventually": 8620,
    "Ġbelonging": 8309,
    "Ġknees": 6927,
    "choice": 21695,
    "Ġundertaken": 18987,
    "Ġow": 8410,
    "itchen": 7788,
    "Ġserious": 4324,
    "arches": 10817,
    "ive": 427,
    "rine": 21040,
    "Ġevenings": 18755,
    "spread": 8390,
    "Ġissuing": 16949,
    "Ġdraughts": 20224,
    "ide": 722,
    "pos": 15412,
    "Ġlewis": 15722,
    "Ġlurking": 11290,
    "Ġepsom": 19986,
    "oman": 2018,
    "ways": 1441,
    "ometer": 19328,
    "Ġferguson": 17471,
    "Ġgallant": 8658,
    "Ġones": 3015,
    "Ġretort": 23075,
    "Ġsubsided": 14550,
    "locks": 14458,
    "horizon": 23617,
    "Ġinstituted": 18702,
    "purpose": 10046,
    "Ġstain": 18070,
    "Ġdeactivates": 20706,
    "Ġtoller": 9093,
    "@": 36,
    "Ġshel": 6846,
    "Ġtolerably": 8069,
    "complaisance": 24808,
    "Ġlurch": 21559,
    "irra": 15788,
    "Ġhardihood": 23116,
    "Ġforced": 4354,
    "Ġcomparing": 14266,
    "itiousness": 21337,
    "fingers": 17372,
    "Ġindulgence": 11320,
    "supplement": 14798,
    "hunsford": 24385,
    "Ġenvironments": 24127,
    "revenge": 13844,
    "attend": 11101,
    "sax": 21059,
    "Ġpredomin": 16038,
    "Ġpicking": 11260,
    "Ġwatching": 4856,
    "ason": 1265,
    "Ġuncontrollable": 25815,
    "**": 4687,
    "Ġcele": 9902,
    "spoke": 11024,
    "Ġprecaution": 11197,
    "frankenstein": 11392,
    "mid": 5616,
    "avish": 22601,
    "Ġchaldee": 26236,
    "Ġimperfectly": 25727,
    "Ġmccarthy": 5145,
    "igns": 8449,
    "Ġslu": 13838,
    "fed": 11489,
    "Ġbrisk": 9805,
    "Ġgrassy": 24378,
    "Ġkrempe": 10671,
    "expected": 5780,
    "loud": 11502,
    "Ġskirt": 18729,
    "returning": 12209,
    "Ġunchanged": 22032,
    "Ġbottomless": 12110,
    "Ġens": 2785,
    "Ġinfat": 14510,
    "ales": 3316,
    "lays": 14923,
    "Ġdisembow": 22542,
    "Ġepis": 19985,
    "Ġtimber": 13353,
    "Ġcruc": 16536,
    "purposes": 25024,
    "Ġtemple": 7654,
    "byshire": 6173,
    "Ġdiscre": 2417,
    "Ġbedside": 19125,
    "gunpowder": 25340,
    "ole": 9615,
    "captain": 3952,
    "Ġpatched": 16387,
    "Ġstubborn": 10414,
    "Ġlangu": 576,
    "Ġscores": 2709,
    "Ġstro": 4596,
    "estic": 4956,
    "rr": 17651,
    "Ġsigning": 22712,
    "Ġrigged": 16718,
    "idents": 6151,
    "H": 44,
    "Ġholding": 4979,
    "wn": 721,
    "Ġproprietor": 12376,
    "Ġyour": 634,
    "Ġeve": 13972,
    "apping": 5852,
    "Ġprincipal": 6495,
    "Ġwronged": 24249,
    "storied": 18027,
    "blame": 14795,
    "visitors": 13352,
    "Ġmel": 4818,
    "Ġresemble": 15696,
    "Ġscept": 15505,
    "Ġlanguages": 1571,
    "Ġrumours": 24600,
    "Ġspasmodic": 20401,
    "lad": 5993,
    "Ġstirs": 14918,
    "Ġjets": 10289,
    "Ġonto": 14030,
    "uv": 6230,
    "Ġflooring": 23626,
    "inspector": 13649,
    "Ġpresided": 20210,
    "Ġultimate": 12352,
    "scratch": 26045,
    "Ġcake": 12574,
    "Ġprayed": 16669,
    "Ġmutually": 23960,
    "Ġvide": 10252,
    "Ġpossibility": 7458,
    "Ġaz": 9631,
    "oboam": 9360,
    "Ġpaints": 23527,
    "extinguish": 22776,
    "Ġmystery": 5509,
    "Ġdiscomposed": 25581,
    "chet": 13220,
    "ers": 406,
    "Ġspears": 12928,
    "Ġimpertin": 6932,
    "Ġtus": 10750,
    "enary": 12555,
    "Ġdishes": 16052,
    "track": 24334,
    "market": 16840,
    "Ġconfessed": 8010,
    "Ġcut": 2639,
    "Ġshipw": 12983,
    "isely": 4489,
    "eral": 9161,
    "Ġaccursed": 9455,
    "Ġincurable": 22557,
    "Ġchiefly": 5766,
    "plendent": 21969,
    "Ġhard": 1442,
    "raint": 18317,
    "qualities": 25046,
    "excellent": 8045,
    "Ġdefines": 1742,
    "Ġbehaviour": 4386,
    "animated": 14976,
    "Ġsagacious": 14972,
    "Ġtorments": 13397,
    "screwed": 17189,
    "Ġfloated": 7288,
    "Ġpouring": 12628,
    "Ġsynd": 22215,
    "compared": 24036,
    "Ġoakum": 16935,
    "Ġswearing": 16466,
    "Ġcrosses": 23066,
    "Ġresearch": 3348,
    "_,âĢĻ": 12436,
    "ides": 2165,
    "Ġprynne": 25541,
    "Ġlookest": 22719,
    "composed": 14741,
    "Ġdistribut": 841,
    "Ġaccording": 5508,
    "Ġcaught": 3729,
    "Ġey": 8136,
    "Ġtarpaulin": 26158,
    "Ġcloak": 9536,
    "Ġforbe": 8459,
    "Ġclang": 15974,
    "Ġ130": 24780,
    "abouts": 9454,
    "Ġends": 8239,
    "Ġexhausting": 24709,
    "totally": 25418,
    "Ġwafted": 14500,
    "Ġboth": 1655,
    "wer": 8397,
    "advise": 24219,
    "Ġgracefully": 13394,
    "Ġagatha": 6865,
    "Ġfisheries": 17440,
    "Ġworshippers": 25694,
    "expect": 4770,
    "Ġsympathy": 6347,
    "gang": 17554,
    "de": 460,
    "saw": 5895,
    "gallant": 7781,
    "antucket": 2641,
    "ilingly": 21728,
    "Ġproxim": 3202,
    "Ġassertions": 19950,
    "ineff": 21971,
    "Ġcapricious": 20541,
    "Ġgl": 1254,
    "westward": 25425,
    "Ġsundering": 23278,
    "humorously": 24023,
    "Ġsickbed": 24248,
    "Ġyet": 1027,
    "Ġbreaking": 6311,
    "propagation": 1256,
    "inhab": 10758,
    "Ġmodeling": 2096,
    "Ġfootpaths": 26319,
    "Ġevening": 2649,
    "cating": 20804,
    "fooled": 24418,
    "Ġdiffused": 12072,
    "Ġhelps": 9369,
    "Ġgenerally": 4159,
    "cial": 2645,
    "Ġprecious": 5760,
    "rings": 10723,
    "Ġadjusted": 23460,
    "moving": 11017,
    "Ġrecollecting": 17113,
    "Ġvacancies": 24344,
    "Ġsufficient": 2004,
    "Ġ29": 23732,
    "conceal": 25117,
    "Ġadversity": 24304,
    "increasing": 20272,
    "¾": 127,
    "_âĢĶâĢĻ": 13685,
    "Ġclap": 10961,
    "Ġdrooping": 9422,
    "Ġalong": 1981,
    "Ġmoot": 22435,
    "proof": 16426,
    "yellow": 9626,
    "ocratic": 17246,
    "hounds": 20909,
    "Ġtown": 2454,
    "Ġcrocodile": 20742,
    "Ġpagan": 7118,
    "Ġliber": 5168,
    "Ġfil": 3471,
    "Ġassaults": 15159,
    "Ġsecluded": 11995,
    "Ġeffects": 7236,
    "Ġspe": 820,
    "Ġdomineer": 23694,
    "Ġembarked": 17136,
    "Ġhumorously": 18780,
    "Ġjav": 7904,
    "Ġblown": 12089,
    "Ġwrap": 24596,
    "discredit": 24252,
    "Ġnail": 9197,
    "your": 1986,
    "Ġharm": 5017,
    "Ġgeese": 7694,
    "anity": 9656,
    "bestow": 16930,
    "suspect": 9542,
    "Ġsubdued": 11031,
    "Ġspeeches": 22654,
    "Ġsandwiched": 26611,
    "Ġaction": 5797,
    "Ġcalmer": 23048,
    "mant": 20967,
    "Ġbands": 14885,
    "Ġdew": 14045,
    "itute": 9653,
    "Ġdoubloons": 13437,
    "distressed": 24201,
    "Ġobjections": 8567,
    "Ġmu": 17797,
    "Ġmagn": 1560,
    "Ġwhim": 14001,
    "Ġowed": 10781,
    "Ġpersonified": 19180,
    "Ġest": 2267,
    "Ġjulia": 22307,
    "confid": 14868,
    "Ġcleaving": 23186,
    "Ġbeggars": 20632,
    "Ġtroubling": 26547,
    "Ġgerman": 6142,
    "Ġgesture": 11400,
    "Ġcane": 10928,
    "Ġpatentee": 25587,
    "lat": 9606,
    "irs": 14073,
    "Ġcalifornia": 20533,
    "Ġafric": 8908,
    "rear": 21235,
    "ifications": 9730,
    "Ġmultiplicity": 19277,
    "Ġvicious": 24402,
    "darker": 24512,
    "oura": 1062,
    "Ġbasement": 24701,
    "springs": 24912,
    "Ġprofits": 16490,
    "Ġexisted": 15756,
    "Ġpurchase": 12263,
    "==": 945,
    "ering": 1267,
    "Ġsamples": 2957,
    "³": 116,
    "Ġdrink": 4788,
    "idable": 8147,
    "Ġer": 8106,
    "Ġharvard": 24573,
    "Ġnineveh": 13392,
    "Ġpatagonia": 25858,
    "Ġirrespective": 23378,
    "wel": 6118,
    "Ġhave": 443,
    "Ġextinction": 14338,
    "Ġwonderful": 4564,
    "Ġevolve": 2998,
    "Ġstoried": 18078,
    "locked": 7679,
    "windward": 24162,
    "september": 14038,
    "Ġscan": 22284,
    "Ġattributed": 11836,
    "Ġbreeze": 5681,
    "eldom": 4415,
    "Ġacceptable": 16745,
    "year": 11096,
    "Ġinward": 11609,
    "Ġintelligible": 15944,
    "america": 17097,
    "Ġblurred": 22935,
    "Ġmummy": 25769,
    "Ġphantom": 8710,
    "Ġhussey": 7725,
    "Ġcemet": 20683,
    "Ġminutest": 14560,
    "then": 2053,
    "Ġsubsequent": 7660,
    "Ġtermination": 16462,
    "Ġnaturalist": 22898,
    "Ġsymmetrical": 20370,
    "Ġsqualls": 17021,
    "telling": 14441,
    "Ġfragment": 14499,
    "Ġtradesmen": 17105,
    "happiest": 19334,
    "Ġuncomp": 15844,
    "Ġdeficient": 18826,
    "define": 1525,
    "iffe": 21907,
    "Ġrounding": 16278,
    "linearity": 1651,
    "order": 1961,
    "emone": 21932,
    "xible": 13810,
    "Ġwool": 19436,
    "Ġgame": 3628,
    "act": 786,
    "hamlet": 23266,
    ",)": 9103,
    "gems": 20886,
    "zening": 21151,
    "Ġnorthern": 7265,
    "Ġcredulous": 17146,
    "er": 269,
    "Ġthackeray": 26456,
    "Ġexordium": 26493,
    "Ġclamped": 18433,
    "Ġrind": 21977,
    "answered": 10275,
    "Ġodorous": 19569,
    "Ġregimentals": 19860,
    "equally": 19901,
    "Ġordained": 19448,
    "Ġbethink": 12382,
    "urch": 3991,
    "Ġjoyously": 19350,
    "ellent": 3760,
    "tout": 21068,
    "Ġoppressive": 20458,
    "Ġmors": 17803,
    "Ġopt": 781,
    "Ġopinions": 9417,
    "simply": 20673,
    "Ġstyled": 24672,
    "thirty": 12766,
    "!âĢĶ": 2453,
    "pulling": 25149,
    "Ġemergency": 25731,
    "solely": 19819,
    "Ġbreaks": 13186,
    "Ġeagle": 13203,
    "aped": 3763,
    "relations": 14734,
    "deception": 22150,
    "snatched": 24851,
    "goes": 10427,
    "wheels": 14383,
    "eld": 963,
    "Ġtrustees": 24107,
    "simp": 17666,
    "Ġadequately": 15201,
    "size": 15427,
    "establish": 17395,
    "clu": 20801,
    "imp": 3029,
    "Ġtypes": 8938,
    "Ġatmosphere": 10898,
    "div": 8077,
    "adler": 21767,
    "Ġnot": 413,
    "sole": 6169,
    "Ġworship": 10368,
    "atus": 21263,
    "Ġstave": 11653,
    "lot": 3209,
    "consum": 12874,
    "feelings": 5674,
    "title": 17289,
    "emorial": 10245,
    "Ġuniformity": 23485,
    "Ġcatching": 9480,
    "lucas": 15154,
    "offered": 14519,
    "ence": 392,
    "weakness": 16127,
    "Ġjustly": 11906,
    "Ġexceptions": 13233,
    "Ġbitterly": 8316,
    "Ġlessened": 19087,
    "respective": 19848,
    "Ġindist": 14411,
    "present": 1136,
    "Ġdisagreeable": 9300,
    "Ġtheorem": 2327,
    "Ġcomplimented": 14905,
    "robotics": 11307,
    "Ġraging": 14311,
    "Ġslate": 11941,
    "omen": 4085,
    "Ġowest": 25094,
    "Ġante": 17898,
    "own": 747,
    "Ġcaved": 21356,
    "/`": 12432,
    "task": 13795,
    "Ġpasture": 14543,
    "cring": 20813,
    "Ġbuckle": 17033,
    "Ġwhistles": 24626,
    "Ġmistakes": 16542,
    "Ġmeadow": 17153,
    "Ġeel": 18004,
    "Ġmoved": 4841,
    "-": 17,
    "Ġshelves": 14999,
    "Ġslumbering": 25702,
    "staff": 21660,
    "Ġrecounted": 22744,
    "scho": 8763,
    "Ġheroes": 10578,
    "extremely": 26266,
    "Ġluck": 4881,
    "Ġdoorway": 14498,
    "forward": 2189,
    "rap": 21632,
    "little": 3351,
    "cific": 10087,
    "Ġclaw": 22365,
    "vict": 11542,
    "Ġscope": 15946,
    "Ġsplinter": 23749,
    "ographical": 16787,
    "outer": 9670,
    "Ġhasn": 12929,
    "omeness": 18018,
    "irting": 11688,
    "queer": 10365,
    "Ġstrangely": 5677,
    "attachment": 13056,
    "Ġimpunity": 14217,
    "conversations": 24748,
    "Ġcomes": 3422,
    "ject": 875,
    "spouting": 25005,
    "Ġcelest": 9903,
    "ular": 713,
    "Ġchann": 15938,
    "Ġmac": 15541,
    "Ġmassac": 14737,
    "Ġunqualified": 22062,
    "Ġballs": 9017,
    "Ġdynam": 3220,
    "Ġforged": 12708,
    "Ġhamper": 19392,
    "dishon": 20407,
    "Ġjerked": 19835,
    "niece": 20997,
    "elder": 21576,
    "masters": 16835,
    "Ġwed": 7575,
    "Ġhaught": 10254,
    "Ġsmitten": 12903,
    "Ġrevolutions": 23845,
    "Ġnegatived": 23052,
    "Ġclouds": 5775,
    "Ġmysteriously": 24603,
    "objection": 19917,
    "ate": 423,
    "Ġimmaculate": 19489,
    "repressed": 21246,
    "whaler": 20312,
    "Ġnam": 17951,
    "Ġenthusiastic": 19969,
    "Ġstructure": 852,
    "Ġimbecile": 17394,
    "bohemia": 20733,
    "Ġcrumpled": 16441,
    "ohog": 9847,
    "Ġcalifornian": 25853,
    "Ġmethodically": 23152,
    "ats": 4256,
    "altogether": 12643,
    "Ġconnex": 10667,
    "Ġfict": 21408,
    "gging": 7697,
    "posted": 24637,
    "quit": 15765,
    "backed": 9868,
    "Ġstern": 4189,
    "Ġdiffer": 18677,
    "acceptable": 25185,
    "ĠĠĠĠĠĠĠĠĠĠĠĠĠĠ": 22568,
    "Ġscaled": 2106,
    "Ġpresently": 5116,
    "zor": 15460,
    "Ġpersons": 6181,
    "ricity": 23067,
    "immed": 9219,
    "rapidly": 15246,
    "moment": 3576,
    "Ġfulfil": 9553,
    "appointment": 24062,
    "Ġbenefited": 19401,
    "Ġevangelists": 20342,
    "Ġscreamed": 9526,
    "Ġnarrating": 24350,
    "communication": 25881,
    "Ġprepared": 5878,
    "teeth": 10356,
    "Ġmrs": 1466,
    "dangerous": 20243,
    "Ġrounded": 14440,
    "Ġinterm": 14270,
    "se": 358,
    "Ġjoint": 12037,
    "Ġridges": 16732,
    "Ġfactory": 23280,
    "cable": 20799,
    "Ġiv": 4043,
    "capting": 24042,
    "orphans": 26441,
    "gave": 7800,
    "east": 9117,
    "Ġamaze": 22488,
    "Ġfem": 6135,
    "©": 107,
    "Ġenclosure": 20627,
    "prov": 16425,
    "lines": 6958,
    "Ġcooked": 13272,
    "Ġmonarch": 14417,
    "luxur": 25823,
    "oline": 6833,
    "Ġworkflow": 2289,
    "Ġampl": 22485,
    "Ġincluding": 2847,
    "Ġforthwith": 16619,
    "Ġniece": 5712,
    "Ġhumanity": 6732,
    "Ġfun": 524,
    "distinct": 13339,
    "protest": 24812,
    "Ġsearched": 15819,
    "icial": 12659,
    "Ġding": 12603,
    "Ġoutstretched": 14197,
    "finding": 17014,
    "Ġvoracity": 25987,
    "Ġswitching": 23061,
    "feel": 3812,
    "readers": 23851,
    "Ġmotives": 7486,
    "Ġunctuousness": 17236,
    "Ġcabinet": 23864,
    "Ġdrawer": 13269,
    "Ġadvoc": 12996,
    "Ġshirt": 8852,
    "nonsense": 17616,
    "Ġadaptive": 1385,
    "Ġbirds": 5874,
    "Ġcurb": 16241,
    "rant": 11518,
    "Ġdreamt": 23942,
    "bottle": 20148,
    "spirit": 11314,
    "herself": 4891,
    "Ġgenuine": 14886,
    "Ġthreatening": 16829,
    "rew": 3648,
    "Ġmuhammad": 26170,
    "weeks": 14318,
    "Ġtreacherous": 13557,
    "Ġchains": 8252,
    "tubes": 25212,
    "Ġinconsistency": 26184,
    "Ġvult": 12756,
    "Ġinsolent": 13603,
    "Ë": 140,
    "Ġinterpreted": 1712,
    "ivided": 22091,
    "Ġwindings": 18911,
    "Ġcolleague": 17161,
    "Ġenjoys": 19453,
    "Ġpair": 5706,
    "Ġassign": 11110,
    "Ġwaterloo": 11983,
    "Ġfondness": 16781,
    "ĩ": 234,
    "gement": 13730,
    "Ġmorass": 22975,
    "Ġdirect": 1470,
    "quin": 21858,
    "Ġlomb": 21563,
    "Ġoverwrites": 5033,
    "Ġcircum": 8259,
    "Ġpound": 12620,
    "Ġhobbling": 25645,
    "harpoone": 6108,
    "rous": 3751,
    "Ġinser": 6819,
    "ones": 2737,
    "Ġly": 2270,
    "Ġdefine": 9817,
    "sleeping": 13457,
    "would": 2353,
    "distinguished": 10528,
    "continually": 11303,
    "nib": 5214,
    "quent": 2095,
    "Ġsemicircle": 26068,
    "develop": 13520,
    "Ġhereafter": 9332,
    "Ġfo": 1652,
    "Ġmoderate": 10940,
    "ĠĠĠĠ": 459,
    "aried": 10988,
    "Ġdiabol": 11454,
    "interview": 19300,
    "Ġinfamous": 16391,
    "Ġsquad": 22838,
    "arle": 21444,
    "abetical": 15746,
    "Ġunmo": 12776,
    "Ġintroduction": 8972,
    "orum": 12594,
    "ĠĠĠĠĠĠĠĠĠĠĠĠĠĠĠĠĠĠĠĠĠĠĠĠĠĠĠĠĠĠĠĠ": 2732,
    "scot": 14420,
    "Ġaval": 15495,
    "itated": 4441,
    "icated": 7591,
    "lutions": 20952,
    "Ġgr": 977,
    "Ġscientific": 6856,
    "osely": 9267,
    "hauteur": 26392,
    "Ġjokes": 18409,
    "Ġsincer": 13070,
    "concealed": 25118,
    "Ń": 260,
    "Ġreferences": 21678,
    "Ü": 157,
    "Ġix": 12672,
    "quakes": 21861,
    "ders": 8076,
    "beside": 19879,
    "Ġpictured": 16624,
    "Ġpunct": 8664,
    "Ġgleams": 17312,
    "Ġgodfrey": 15296,
    "Ġeducated": 16786,
    "Ġlab": 1873,
    "somers": 19371,
    "affected": 10477,
    "Ġdick": 3495,
    "Ġott": 13868,
    "Ġunfathomable": 20551,
    "ogr": 18678,
    "Ġprovincial": 20652,
    "kempt": 20943,
    "Ġrinal": 21985,
    "Ġpossessions": 23828,
    "Ġwel": 4527,
    "Ġtest": 1552,
    "fly": 13716,
    "Ġkindness": 4097,
    "accessible": 13642,
    "cous": 8725,
    "special": 14706,
    "enchant": 21286,
    "Ġaffl": 14388,
    "Ġbump": 9661,
    "Ġappertaining": 26534,
    "Ġsunlight": 13088,
    "Ġ78": 19616,
    "rank": 21044,
    "arp": 2027,
    "uzza": 11271,
    "point": 6064,
    "Ġ19": 6720,
    "Ġthrees": 23404,
    "yset": 21148,
    "D": 40,
    "Ġsp": 457,
    "hic": 3249,
    "Ġremembered": 5277,
    "garnished": 26389,
    "Ġmostly": 7665,
    "Ġpeaceful": 9458,
    "sters": 6390,
    "rennial": 22346,
    "Ġthousand": 2779,
    "Ġplainer": 23707,
    "Ġsuspicious": 9482,
    "Ġguidance": 9419,
    "deceit": 25557,
    "reme": 2424,
    "atig": 13847,
    "Ġoblivion": 26032,
    "pping": 1424,
    "Ġdiscount": 22786,
    "Ġunheeded": 18259,
    "reinforcement": 7827,
    "Ġsupper": 4667,
    "drab": 23902,
    "Ġbud": 10170,
    "soldiers": 25912,
    "Ġlisten": 4675,
    "Ġapplicable": 19018,
    "impatiently": 20474,
    "Ġwillow": 18531,
    "Ġcomprehending": 24444,
    "Ġtag": 15470,
    "Ġneighbor": 25806,
    "Ġhereford": 22881,
    "photograph": 16152,
    "Ġpour": 13916,
    "Ġlucas": 3832,
    "Ġceased": 6467,
    "Ġshad": 3849,
    "Ġlapl": 19780,
    "Ġpoker": 13924,
    "Ġgamming": 25543,
    "Ġdetermines": 2369,
    "writing": 7721,
    "grieved": 17319,
    "acetty": 24463,
    "function": 4210,
    "Ġcomplied": 14735,
    "copper": 19190,
    "Ġgum": 21599,
    "Ġbuy": 8301,
    "Ġadventures": 7748,
    "Ġharness": 17930,
    "sen": 21052,
    "Ġfriends": 2651,
    "Ġcritically": 23446,
    "Ġalgorith": 562,
    "pierced": 26142,
    "holding": 7739,
    "ships": 5486,
    "zag": 17714,
    "Ġspaces": 3111,
    "Ġstronger": 8580,
    "Ġpage": 6978,
    "Ġreply": 4515,
    "Ġfly": 3868,
    "Ġsucking": 12791,
    "Ġisland": 4047,
    "gratitude": 16817,
    "Ġgrinning": 9055,
    "Ġembra": 6579,
    "Ġnursing": 12218,
    "Ġliking": 23593,
    "itia": 11581,
    "Ġdiscipl": 22789,
    "Ġwrapped": 8343,
    "Ġblameless": 19861,
    "mistak": 16879,
    "Ġapprehended": 26091,
    "itigated": 23051,
    "engthen": 14459,
    "Ġsyntax": 958,
    "reast": 17759,
    "Ġannihil": 10176,
    "bounded": 13442,
    "Ġalarmed": 6922,
    "este": 15924,
    "Ġsubtlety": 24779,
    "Ġlid": 6983,
    "ologies": 18775,
    "Ġgu": 1326,
    "Ġteasing": 11893,
    "icest": 21568,
    "Ġforgive": 8011,
    "Ġcarcase": 14446,
    "Ġallured": 14126,
    "Ġoverflow": 10293,
    "ercely": 12554,
    "gives": 15360,
    "Ġglide": 22990,
    "hind": 20896,
    "Ġmischie": 22766,
    "Ġdetermined": 2223,
    "Ġalche": 21788,
    "Ġsigns": 2442,
    "execut": 13658,
    "Ġ1836": 25721,
    "drowned": 17371,
    "itate": 6669,
    "Ġriot": 14688,
    "Ġdismally": 20217,
    "Ġsoaring": 22082,
    "Ġsheath": 14153,
    "Ġfretfully": 25448,
    "Ġlaug": 3627,
    "nuts": 15400,
    "Ġunprinciple": 18252,
    "Ġrefuse": 5739,
    "Ġsixpence": 19319,
    "uits": 21107,
    "Ġpal": 4040,
    "Ġcanst": 8860,
    "Ġrouted": 24908,
    "mad": 5281,
    "Ġstubbornness": 25380,
    "Ġic": 9627,
    "ress": 930,
    "pent": 3491,
    "Ġsped": 22130,
    "Ġencirc": 18732,
    "Ġrepaid": 19082,
    "Ġwo": 3650,
    "conven": 6163,
    "Ġmomentarily": 22817,
    "Ġcoarse": 14276,
    "omely": 21643,
    "rimsh": 17028,
    "Ġspade": 9261,
    "Ġ53": 19638,
    "Ġaint": 17745,
    "Ġbuck": 7158,
    "canoes": 16232,
    "Ġrejection": 19987,
    "mises": 20980,
    "tranquil": 25871,
    "Ġvomit": 21953,
    "Ġpsal": 15619,
    "Ġcrutch": 23447,
    "unsuitable": 21898,
    "Ġweights": 897,
    "Ġclapping": 14208,
    "rosc": 17957,
    "Ġrotterdam": 25476,
    "tied": 21073,
    "Ġride": 12762,
    "Ġstings": 21742,
    "Ġnatural": 1118,
    "Ġempty": 5354,
    "inuating": 16205,
    "Ġbeggar": 9351,
    "Ġsatirical": 26281,
    "Ġslashing": 23174,
    "dense": 18717,
    "Ġarchitect": 975,
    "Ġinexper": 16981,
    "charmed": 21700,
    "osa": 22265,
    "tons": 7559,
    "Ġinsupportable": 13934,
    "tch": 9143,
    "secret": 12240,
    "prit": 19345,
    "Ġcoherent": 3263,
    "Ġlaughing": 5339,
    "finds": 19929,
    "u": 89,
    "Ġthirteen": 15277,
    "Ġimmortal": 8019,
    "umpled": 15879,
    "twas": 15439,
    "ortunity": 4405,
    "Ġrains": 24339,
    "Ġprisoner": 8676,
    "Ġbeautifully": 13270,
    "Ġago": 3137,
    "Ġeastward": 13393,
    "Ġgentleness": 8713,
    "Ġvain": 3629,
    "ooping": 21009,
    "Ġrelating": 2700,
    "masculine": 24386,
    "Ġcet": 6671,
    "Ġmouthfuls": 20648,
    "nearer": 22469,
    "Ġhall": 4185,
    "imly": 12691,
    "Ġrecall": 3855,
    "Ġreleased": 2973,
    "acting": 22634,
    "Ġrejoicing": 13424,
    "Ġconject": 6028,
    "Ġauthent": 14508,
    "Ġrevolve": 19732,
    "Ġpremium": 23908,
    "plate": 18208,
    "Ġaccidentally": 9507,
    "discern": 14852,
    "ama": 11681,
    "speech": 10668,
    "Ġflirt": 14425,
    "smooth": 20251,
    "Ġentitled": 8540,
    "Ġdevoted": 6574,
    "joice": 9604,
    "thirds": 25049,
    "upp": 10132,
    "square": 15063,
    "ength": 2314,
    "reach": 17758,
    "ĠĠĠĠĠĠĠĠĠĠĠĠĠĠĠĠĠĠĠĠĠĠĠĠĠĠĠĠ": 9977,
    "aby": 18109,
    "breast": 11247,
    "house": 4076,
    "Ġdirector": 18922,
    "Ġriotous": 20547,
    "prosperity": 20737,
    "most": 1255,
    "Ġgirls": 4282,
    "Ġcalculated": 4476,
    "Ġpreprocess": 22238,
    "fury": 17548,
    "five": 6357,
    "Ġvolcano": 24148,
    "bowing": 24453,
    "Ġflat": 8229,
    "yours": 7695,
    "Ġties": 12532,
    "consciously": 19628,
    "Ġwithin": 2167,
    "isition": 11588,
    "Ġstreaked": 19115,
    "Ġmechanism": 2324,
    "Ġdropt": 23675,
    "spell": 22736,
    "fired": 20862,
    "Ġshaster": 22003,
    "Ġoverpowered": 15291,
    "Ġstatistics": 1682,
    "attered": 4017,
    "Ġappre": 5165,
    "Ġcheery": 16368,
    "Ġimputable": 22178,
    "&": 10,
    "Ġcorruption": 15228,
    "eminently": 25108,
    "watery": 19829,
    "ceptive": 15965,
    "irene": 15917,
    "ĠĠĠĠĠĠĠĠĠĠĠĠĠĠĠĠĠĠĠĠĠĠĠĠĠĠĠĠĠĠĠĠĠĠĠĠĠĠĠĠĠĠĠĠĠĠĠ": 16756,
    "Ġidentity": 2523,
    "Ġcurse": 7669,
    "bs": 3775,
    "Ġinconceivable": 17940,
    "Ġexecute": 7505,
    "ises": 3653,
    "Ġsufferings": 7513,
    "Ġboiling": 8527,
    "Ġpall": 7583,
    "decoder": 3644,
    "Ġchurchyard": 16778,
    "Ġguardian": 14943,
    "Ġcarefully": 6305,
    "ensils": 22553,
    "hau": 17563,
    "Ġsources": 10149,
    "Ġrural": 21975,
    "Ġbarbaric": 10016,
    "Ġconcoct": 19044,
    "eprints": 12795,
    "Ġgo": 613,
    "Ġstepfather": 7221,
    "Ġlarge": 1068,
    "Ġunrem": 18242,
    "Ġimplicate": 24877,
    "Ġinflex": 20639,
    "Ġconvergence": 973,
    "tland": 21076,
    "should": 3262,
    "Ġtunes": 24621,
    "Ġgilded": 17447,
    "Ġclose": 3032,
    "Ġsalutations": 25383,
    "entirely": 7782,
    "bo": 1689,
    "Ġthan": 736,
    "swam": 24256,
    "Ġerror": 1766,
    "Ġdepends": 1065,
    "urities": 18052,
    "Ġcash": 9654,
    "thinks": 16643,
    "moored": 22708,
    "Ġsnoring": 23742,
    "ĠâĢĺ_": 11118,
    "Ġorgans": 15868,
    "Ġthirst": 7590,
    "historian": 25735,
    "Ġcocoanuts": 26364,
    "Ġseparated": 9466,
    "ley": 1815,
    "Ġcannot": 1666,
    "Ġscratching": 20372,
    "Ġoverflowing": 17239,
    "Ġresurrection": 12898,
    "Ġlane": 5627,
    "Ġchewed": 16370,
    "seamen": 13629,
    "urred": 8451,
    "Ġradiant": 16810,
    "Ġstriding": 16096,
    "Ġtwopence": 18661,
    "Ġwidely": 8034,
    "ply": 6366,
    "Ġstiffly": 15006,
    "Ġsuggestion": 19710,
    "Ġdisorder": 16053,
    "Ġsystems": 793,
    "Ġbearded": 15730,
    "Ġprop": 1681,
    "superiority": 20188,
    "scotch": 25852,
    "Ġconsumm": 15157,
    "exerc": 16018,
    "Ġportcullis": 26604,
    "Ġsatisfied": 4173,
    "Ġbetake": 22909,
    "Ġflounders": 23017,
    "out": 467,
    "generous": 16570,
    "sighted": 19788,
    "Ġcollected": 2610,
    "Ġoffence": 12949,
    "rents": 5310,
    "uendoes": 26408,
    "Ġfatigue": 8701,
    "mbling": 3344,
    "Ġglittering": 10055,
    "ract": 996,
    "dw": 3332,
    "rived": 5373,
    "Ġinsurance": 23682,
    "semic": 21826,
    "Ġshapes": 14111,
    "Ġequivalent": 4803,
    "ensed": 10996,
    "senses": 25025,
    "Ġmealy": 18121,
    "tremble": 17143,
    "Ġfanny": 23394,
    "occur": 19578,
    "ague": 3904,
    "Ġprof": 2459,
    "aviour": 11006,
    "Ġrewarded": 14941,
    "pumps": 21029,
    "medium": 23641,
    "Ġcombined": 8549,
    "rer": 3622,
    "Ġher": 426,
    "Ġlig": 21552,
    "Ġsubsiding": 23437,
    "Ġchal": 18379,
    "Ġoverseeing": 22358,
    "Ġsne": 6372,
    "Ġflaw": 23014,
    "urer": 18124,
    "Ġtoll": 7853,
    "riumph": 4920,
    "vitiated": 25755,
    "Ġclergy": 7643,
    "ets": 1159,
    "ripp": 6403,
    "Ā": 193,
    "Ġdeaths": 14537,
    "bulwarks": 12276,
    "among": 6257,
    "bath": 13692,
    "shining": 18491,
    "Ġball": 3623,
    "Ġrelish": 14386,
    "Ġconsistent": 14528,
    "Ġimpetus": 25570,
    "moved": 9786,
    "lier": 20951,
    "Ġreappearance": 21671,
    "Ġvessel": 3798,
    "tips": 13798,
    "Ġdismantled": 20219,
    "Ġscreening": 25301,
    "Ġfervour": 19741,
    "Ġhail": 7400,
    "Ġwond": 3937,
    "otle": 21802,
    "ounded": 9750,
    "Ġsurvivor": 17365,
    "Ġarmada": 23582,
    "Ġdreadfully": 7726,
    "procure": 23400,
    "Ġapprised": 18365,
    "Ġrevelation": 25223,
    "Ġmalice": 7153,
    "probability": 17023,
    "Ġservox": 23873,
    "doub": 6224,
    "constellation": 24609,
    "Ġpeaked": 2298,
    "prophet": 16184,
    "Ó": 148,
    "Ġvexations": 24611,
    "Ġgreater": 3033,
    "Ġbride": 6292,
    "oury": 22309,
    "Ġusing": 715,
    "Ġ2026": 12338,
    "gaz": 20880,
    "Ġmistaking": 23721,
    "Ġalien": 14020,
    "Ġloose": 4650,
    "Ġcopies": 24938,
    "Ġbidirectional": 3754,
    "Ġquar": 3113,
    "sombre": 23857,
    "coiled": 16487,
    "Ġtilted": 20416,
    "Ġdestination": 19151,
    "Ġachieve": 3672,
    "pray": 5429,
    "is": 280,
    "azz": 8263,
    "Ġbias": 1192,
    "Ġseven": 4542,
    "Ġuttered": 7280,
    "ocity": 8279,
    "Ġrheum": 18215,
    "Ġworks": 5858,
    "Ġinitial": 821,
    "wish": 8101,
    "Ġhalting": 16277,
    "Ġpositions": 2057,
    "snap": 24849,
    "Ġeaglet": 19306,
    "Ġpertin": 18451,
    "Ġpsychology": 11449,
    "tahit": 17693,
    "Ġseverity": 15820,
    "icher": 9204,
    "Ġblasted": 7939,
    "ream": 2704,
    "Ġsaville": 15892,
    "rooms": 10433,
    "apped": 5395,
    "-------": 20392,
    "pol": 5894,
    "Ġsummarization": 3646,
    "Ġclubs": 25180,
    "Ġvirginia": 13502,
    "idered": 4553,
    "Ġfeat": 10938,
    "Ġcomforts": 14694,
    "Ġpractice": 2829,
    "Ġcontr": 1915,
    "Ġtertiary": 15297,
    "Ġillum": 9402,
    "inous": 8776,
    "Ġusual": 3941,
    "Ġspectators": 19410,
    "muttered": 13761,
    "Ġnumerical": 4248,
    "Ġyelling": 18099,
    "Ġpassive": 22842,
    "Ġrustic": 14966,
    "Ġpreacher": 18370,
    "Ġcomprehensive": 15090,
    "Ġchances": 9265,
    "Ġprove": 5231,
    "remote": 23194,
    "Ġopening": 5045,
    "Ġtearing": 14398,
    "Ġenjoined": 18192,
    "Ġactiv": 834,
    "Ġinterrupt": 4361,
    "lest": 5290,
    "Ġshoulder": 5849,
    "Ġreminisc": 18726,
    "Ġsalad": 19482,
    "screw": 9349,
    "Ġstature": 10864,
    "ssip": 14082,
    "Ġted": 13814,
    "Ġdispute": 16058,
    ",--": 2476,
    "ary": 986,
    "Ġsuperlative": 26075,
    "Ġburly": 19252,
    "Ġaccomplished": 7105,
    "crier": 20822,
    "Ġceiling": 7998,
    "ivery": 17573,
    "Ġbrine": 18771,
    "iate": 6504,
    "empl": 5724,
    "pan": 10717,
    "ĠĠĠĠĠĠĠĠĠĠĠĠĠ": 22567,
    "Ġpunctil": 20117,
    "Ġanother": 1737,
    "Ġfortunate": 6215,
    "Ġamsterdam": 22489,
    "Ġapprehending": 26092,
    "Ġdrives": 14578,
    "Ġtinged": 20086,
    "Ġdozing": 22248,
    "Ġcontinu": 1166,
    "###": 3827,
    "tumult": 12426,
    "Ġenvelope": 7319,
    "ent": 305,
    "Ġconference": 15750,
    "Ġcirculating": 23376,
    "agatha": 21913,
    "Ġsets": 8778,
    "lue": 8510,
    "decl": 8859,
    "Ġpleasantly": 14520,
    "Ġsleek": 23387,
    "respectively": 24699,
    "Ġangles": 23590,
    "ca": 20795,
    "Ġspiracle": 14151,
    "ler": 3489,
    "Ġcho": 4547,
    "Ġpilgr": 12184,
    "Ġrecept": 1523,
    "Ġshrink": 14805,
    "Ġboasted": 16109,
    "excepting": 19709,
    "Ġwretchedness": 9028,
    "Ġcompass": 4410,
    "Ġnieces": 8435,
    "Ġsons": 10767,
    "Ġforming": 7043,
    "inity": 5693,
    "rapid": 12674,
    "Ġmim": 3106,
    "Ġfra": 1744,
    "Ġcl": 557,
    "Ġinfer": 6529,
    "ä": 165,
    "sens": 8097,
    "insufferable": 21195,
    "win": 6801,
    "Ġrows": 10562,
    "Ġvales": 21951,
    "Ġcries": 7155,
    "Ġactively": 18655,
    "hab": 1079,
    "horses": 17568,
    "Ġclothing": 18431,
    "Ġseventh": 18205,
    "Ġappe": 1540,
    "Ġphaet": 16320,
    "Ġbrings": 11883,
    "Ġlaz": 7378,
    "Ġpillow": 10040,
    "Ġincreasingly": 9373,
    "smith": 5669,
    "Ġdecidedly": 9511,
    "Ġfeminine": 15266,
    "ocations": 23710,
    "Ġdrows": 21439,
    "Ġappend": 18364,
    "Ġexcluded": 16382,
    "Ġgibraltar": 25788,
    "Ġsave": 4050,
    "uous": 4146,
    "Ġautumn": 14507,
    "Ġseriously": 7062,
    "hist": 7131,
    "Ġstur": 15723,
    "Ġapproximation": 2342,
    "Ġbelieving": 8226,
    "mes": 1197,
    "Ġtinkling": 25213,
    "idate": 21772,
    "Ġcigars": 12256,
    "whims": 22244,
    "tle": 2409,
    "Ġservice": 6470,
    "attent": 9361,
    "hes": 1397,
    "Ġplatonian": 25121,
    "mel": 9129,
    "Ġimpetuously": 20375,
    "Ġrom": 4525,
    ".,": 5989,
    "Ġlonely": 6822,
    "Ġmincing": 18752,
    "Ġshows": 8484,
    "Ġflung": 8565,
    "n": 82,
    "Ġparm": 15880,
    "sou": 12509,
    "Ġfilial": 16621,
    "Ġreef": 10850,
    "tese": 21086,
    "Ġlobsters": 13519,
    "Ġoccurred": 4463,
    "Ġstrife": 18615,
    "ollion": 19718,
    "Ġsoup": 7068,
    "Ġsty": 6252,
    "sperm": 5203,
    "vy": 21110,
    "Ġdismal": 11813,
    "Ġbowsprit": 16561,
    "Ġtiger": 11556,
    "Ġhardest": 18914,
    "Ġantichron": 24183,
    "mankind": 14376,
    "Ġalms": 21785,
    "Ġlean": 7603,
    "Ġloomed": 12304,
    "isa": 17847,
    "Ġmedium": 16707,
    "Ġswift": 3668,
    "somehow": 12014,
    "pressed": 6589,
    "Ġread": 1446,
    "Ġtouch": 3394,
    "ribut": 815,
    "Ġincredible": 9517,
    "Ġpoetry": 15083,
    "Ġbathe": 25444,
    "dearest": 11738,
    "coming": 3559,
    "Ġbattalions": 25777,
    "metic": 14986,
    "Ġcondu": 18112,
    "Ġoccasion": 3247,
    "manifested": 20529,
    "Ġunfor": 15842,
    "succeed": 10330,
    "Ġmention": 2981,
    "Ġroasted": 18461,
    "Ġsteam": 9355,
    "Ġsi": 21215,
    "Ġsystematic": 5245,
    "soup": 21061,
    "must": 3575,
    "Ġheat": 5453,
    "sailed": 17667,
    "reas": 989,
    "Ġroad": 3879,
    "Ġple": 1468,
    "shott": 11797,
    "persuaded": 15076,
    "Ġrevolving": 9985,
    "beaten": 20318,
    "Ġoriginal": 6103,
    "points": 14395,
    "Ġdisappearance": 9299,
    "pen": 1203,
    "oping": 5558,
    "Ġslew": 23386,
    "Ġpand": 21459,
    "Ġthanked": 9461,
    "Ġshin": 18228,
    "castle": 3349,
    "residence": 19265,
    "Ġresemblance": 7978,
    "sets": 17661,
    "knowing": 10438,
    "dum": 17519,
    "ought": 830,
    "Ġload": 14147,
    "Ġcrevice": 22732,
    "Ġthinker": 22813,
    "justice": 7959,
    "ory": 1083,
    "interference": 23740,
    "ted": 792,
    "watches": 14948,
    "Ġaquiline": 26160,
    "Ġsir": 1572,
    "pleased": 8856,
    "Ġuttermost": 19491,
    "Ġsuccessive": 10502,
    "Ġpomp": 12626,
    "Ġbawling": 25946,
    "aire": 10682,
    "Ġtrib": 13821,
    "Ġdetective": 14410,
    "Ġbulkhead": 24507,
    "Ġpacked": 9982,
    "Ġstove": 6734,
    "hatchet": 24819,
    "scattered": 22999,
    "erson": 7002,
    "Ġquickly": 4244,
    "Ġproportionate": 17043,
    "Ġuncork": 23433,
    "Ġopen": 1553,
    "Ġfrankenstein": 7096,
    "Ġpedro": 15067,
    "chased": 18044,
    "Ġswan": 23055,
    "Ġfreckled": 18961,
    "Ġinvaluable": 10184,
    "Ġnay": 5711,
    "Ġpauses": 14816,
    "Ġimitated": 18330,
    "Ġberyl": 20493,
    "Ġwaving": 8578,
    "cares": 24310,
    "isturbed": 18298,
    "Ġskiff": 16166,
    "corrid": 24483,
    "Ġclum": 8875,
    "getting": 12971,
    "Ġboat": 1277,
    "Ġpoky": 21483,
    "visitor": 15061,
    "Ġbaby": 6638,
    "Ġdeer": 12724,
    "Ġalpha": 13591,
    "Ġerie": 20057,
    "quick": 6399,
    "Ġapprehension": 7114,
    "87": 20759,
    "Ġperturbation": 20444,
    "Ġshabby": 14113,
    "Ġshifted": 14109,
    "Ġmyster": 5927,
    "Ġanimals": 8980,
    "Ġstorms": 11263,
    "Ġelse": 2480,
    "Ġundeviating": 15220,
    "Ġrivals": 20274,
    "dro": 6646,
    "Ġcustoms": 19655,
    "Ġottoman": 17380,
    "Ġwhalers": 8049,
    "antee": 22102,
    "ivered": 7006,
    "Ġmilitary": 11259,
    "Ġmaty": 22914,
    "Ġexhausted": 8697,
    "Ġhad": 441,
    "showed": 16028,
    "philosophers": 25253,
    "Ġlouder": 13471,
    "we": 846,
    "Ġmatrimonial": 25490,
    "Ġcountries": 13099,
    "Ġsubproblems": 12961,
    "merry": 16538,
    "lod": 15381,
    "alescing": 23869,
    "Ġhardly": 2433,
    "Ġwarehouse": 20420,
    "Ġointment": 21329,
    "Ġwritten": 4169,
    "accept": 8900,
    "Ġparadise": 11195,
    "Ġbundle": 13429,
    "penetrating": 25491,
    "extreme": 11030,
    "Ġcrept": 11022,
    "iles": 2857,
    "Ġorganize": 8993,
    "ronted": 14878,
    "amp": 2605,
    "Ġlightning": 5750,
    "ĠĠĠĠĠĠĠĠĠĠĠĠĠĠĠĠĠĠĠĠĠĠĠĠĠĠĠ": 14887,
    "Ġtail": 3089,
    "Ġpathways": 11154,
    "ignation": 11129,
    "Ġtrim": 15966,
    "dreaded": 25141,
    "irc": 1730,
    "Ġowen": 15097,
    "Ġsexes": 25172,
    "Ġassumptions": 5517,
    "Ġquaff": 22419,
    "she": 1396,
    "ided": 2782,
    "bit": 3929,
    "Ġtwice": 4663,
    "try": 7813,
    "takes": 21079,
    "Ġaged": 10323,
    "are": 638,
    "Ġportion": 7492,
    "Ġformal": 2935,
    "Ġalex": 15136,
    "Ġtattooing": 15029,
    "Ġjudge": 5502,
    "Ġexcellent": 4240,
    "Ġcommun": 1706,
    "engineer": 23150,
    "Ġintegrated": 13533,
    "Ġvilla": 14748,
    "Ġgraze": 18227,
    "«": 109,
    "Ġspasmod": 12417,
    "imod": 15713,
    "Ġsubaltern": 22795,
    "Ġrod": 9282,
    "erable": 1924,
    "ñ": 178,
    "Ġcolonial": 22864,
    "seals": 21823,
    "Ġincul": 22554,
    "Ġparent": 14645,
    "50": 6784,
    "Ġcolumb": 22862,
    "Ġfaith": 5351,
    "Ġmedicine": 15209,
    "Ġdock": 15933,
    "probably": 10022,
    "Ġfrequ": 3327,
    "Ġseldom": 4631,
    "Ġraw": 3320,
    "Ġsolicit": 22891,
    "Ġcuriosity": 2474,
    "marks": 7346,
    "Ġextravag": 11254,
    "Ġchick": 22252,
    "itioned": 22480,
    "Ġsignific": 3828,
    "edged": 15634,
    "Ġunex": 11716,
    "begone": 12882,
    "Ġyoked": 15738,
    "Ġsucc": 12789,
    "Ġshake": 6035,
    "design": 19343,
    "Ġconvulsively": 25716,
    "Ġsensitiveness": 23737,
    "Ġexpeditions": 24957,
    "Ġattempting": 14697,
    "Ġleft": 1761,
    "Ġbanish": 15573,
    "Ġant": 4347,
    "hap": 17560,
    "aught": 2675,
    "reen": 21234,
    "singing": 24362,
    "Ġsunda": 13546,
    "elaborate": 21580,
    "Ġcherry": 16936,
    "ick": 836,
    "asy": 5296,
    "Ġnote": 4266,
    "reduced": 15808,
    "Ġdesperate": 7777,
    "Ġbon": 8789,
    "Ġyear": 3285,
    "won": 8396,
    "Ġbarbarously": 24816,
    "Ġaltering": 18105,
    "Ġsine": 10764,
    "Ġeffectual": 18738,
    "Ġunimportant": 22031,
    "Ġmuffled": 10642,
    "Ġhandsome": 4907,
    "Ġcontact": 9283,
    "whosoever": 22245,
    "Ġeasily": 3889,
    "Ġphysiognomy": 25611,
    "Ġbushes": 16403,
    "cheerful": 13578,
    "Ġdisc": 944,
    "Ġinaudible": 21503,
    "Ġpaul": 12065,
    "Ġmogul": 12866,
    "Ġfurnishing": 16647,
    "furn": 10093,
    "mud": 20974,
    "neglect": 25669,
    "ohnson": 16328,
    "Ġsmothe": 18574,
    "Ġseam": 3906,
    "Ġcranial": 25593,
    "Ġappetite": 12387,
    "av": 740,
    "Ġsecurely": 16803,
    "subs": 14302,
    "hot": 8085,
    "Ġmuzzle": 21324,
    "twilight": 23705,
    "Ġforbearing": 25101,
    "Ġreceipt": 20358,
    "Ġbaffled": 12406,
    "verd": 21732,
    "Ġnic": 7376,
    "Ġsymptoms": 8708,
    "princip": 17138,
    "ger": 1106,
    "pedest": 24823,
    "Ġbegging": 11080,
    "tie": 21071,
    "Ġpredictions": 1454,
    "Ġrepast": 16413,
    "crossed": 16634,
    "Ġmargaret": 10378,
    "Ġstalls": 25648,
    "stocks": 23824,
    "Ġpaths": 2569,
    "Ġaw": 2509,
    "Ġholmes": 1306,
    "uncommonly": 25550,
    "Ġhumorous": 10362,
    "Ġexpost": 18626,
    "Ġtutored": 20131,
    "Ġexpands": 25238,
    "hangs": 15371,
    "summit": 23420,
    "Ġcounterpart": 24720,
    "dom": 6223,
    "esley": 17904,
    "Ġimprove": 1870,
    "Ġpunchbowl": 20234,
    "mut": 17596,
    "Ġamusing": 11803,
    "Ġgleam": 12311,
    "Ġinterposed": 20622,
    "Ġanalogy": 25640,
    "Ġkent": 6692,
    "Ġprofile": 16489,
    "Ġcharm": 4548,
    "ppa": 10241,
    "Ġminim": 1322,
    "aks": 8508,
    "Ġfut": 15578,
    "lizzy": 6653,
    "Ġwharves": 13508,
    "Ġvowed": 14086,
    "Ġappearance": 3698,
    "Ġperpetually": 17070,
    "Ġresisted": 22546,
    "Ġparlor": 13542,
    "indirectly": 18438,
    "Ġtrophy": 20010,
    "Ġdrought": 19280,
    "Ġinsufferable": 13933,
    "Ġaccent": 10295,
    "vi": 2376,
    "parm": 21016,
    "gle": 20871,
    "cst": 10086,
    "tier": 12518,
    "pres": 16031,
    "Ġbodies": 8033,
    "Ġincarn": 11817,
    "uled": 11538,
    "onents": 8781,
    "Ġmoul": 15547,
    "Ġenchanted": 9082,
    "Ġunseasonable": 26521,
    "Ġanimal": 2498,
    "Ġbottle": 7490,
    "Ġcultured": 25158,
    "Ġdiscoverer": 26036,
    "Ġrecre": 22743,
    "Ġpedestrian": 25884,
    "Ġslanting": 23176,
    "Ġstrength": 4262,
    "Ġdau": 21429,
    "Ġretrogress": 23078,
    "Ġsafie": 6619,
    "por": 2153,
    "Ġleaning": 5228,
    "Ġecho": 12670,
    "pents": 11514,
    "abound": 15743,
    "Ġgover": 2460,
    "Ġsorely": 17258,
    "Ġforbid": 7867,
    "Ġtools": 11611,
    "fifth": 20149,
    "Ġdisciple": 22788,
    "hideous": 25408,
    "Ġsuffering": 8948,
    "Ġclean": 5652,
    "Ġornamented": 20365,
    "malice": 17604,
    "Ġjingling": 26018,
    "mast": 3601,
    "Ġasiatic": 20433,
    "atmosphere": 21267,
    "Ġluxury": 20135,
    "boats": 6205,
    "fearing": 18530,
    "teous": 16176,
    "Ġlongest": 18630,
    "Ġindefinite": 17178,
    "Ġconcl": 5095,
    "lights": 13206,
    "ports": 13776,
    "abri": 6683,
    "Ġmisunderstood": 18708,
    "Ġhistorical": 3645,
    "Ġescorted": 23508,
    "Ġbitter": 4174,
    "Ġevermore": 18813,
    "circuit": 24190,
    "frisco": 16788,
    "halloa": 17090,
    "regulated": 23469,
    "Ġdocumentation": 20557,
    "Ġescaped": 6458,
    "Ġrender": 8306,
    "Ġfruitless": 25606,
    "Ġmeant": 3547,
    "Ġanalogical": 25641,
    "Ġsimul": 1807,
    "Ġmildly": 9031,
    "Ġglancing": 5399,
    "Ġrecollections": 10514,
    "Ġfreshet": 25704,
    "hro": 20893,
    "Ġrevealed": 6752,
    "eness": 2293,
    "Ġprestige": 22241,
    "Ġdanes": 25160,
    "Ġcaring": 23096,
    "Ġdais": 24371,
    "_âĢĶâĢĻâĢĿ": 25742,
    "Ġhaggerston": 26453,
    "Ġfascinating": 17330,
    "supplementary": 20552,
    "rained": 5162,
    "Ġpublicly": 13326,
    "Ġvoice": 2192,
    "Ġended": 7951,
    "Ġexile": 12721,
    "Ġupstairs": 5837,
    "icken": 6712,
    "Ġhab": 4222,
    "Ġmis": 916,
    "Ġlic": 8438,
    "Ġinstrum": 6056,
    "Ġrehears": 15703,
    "yesterday": 10354,
    "iscuits": 24667,
    "Ġrocking": 10970,
    "Ġlies": 5297,
    "disapprobation": 19159,
    "Ġpaddled": 20204,
    "Ġcherish": 10591,
    "deal": 12803,
    "Ġwave": 7576,
    "Ġsuspend": 14608,
    "cousin": 10654,
    "umbs": 14690,
    "Ġmadness": 6602,
    "Ġhams": 16613,
    "Ġpit": 3418,
    "ickering": 22674,
    "Ġdemo": 10880,
    "Ġepaulets": 24906,
    "ism": 4875,
    "Ġget": 1624,
    "Ġinterrupted": 6344,
    "ingale": 21302,
    "Ġrud": 8479,
    "bones": 8373,
    "itive": 6670,
    "Ġwithout": 1119,
    "ixed": 4853,
    "Ġcords": 14880,
    "va": 4744,
    "forecastle": 10991,
    "Ġimperial": 9483,
    "Ġdest": 2237,
    "steady": 14710,
    "Ġrust": 6407,
    "Ġinterview": 9772,
    "Ġnominally": 17233,
    "Ġherds": 9718,
    "ase": 1158,
    "Ġmixing": 24937,
    "nar": 12497,
    "Ġconceited": 12095,
    "Ġfunere": 22264,
    "ishnoo": 10956,
    "Ġpalmed": 24092,
    "eter": 11623,
    "Ġrole": 16001,
    "Ġrebounds": 25968,
    "Ġobtained": 7432,
    "Ġnomine": 26457,
    "convenient": 12241,
    "Ġcott": 3707,
    "ceased": 21630,
    "Ġparameters": 993,
    "Ġsums": 2897,
    "Ġinducements": 24970,
    "Ġhypothe": 4073,
    "Ġpoliteness": 8275,
    "who": 2445,
    "Ġsighing": 18676,
    "Ġstrainings": 24629,
    "paus": 13775,
    "Ġexerted": 15758,
    "Ġrussian": 14352,
    "ouring": 6419,
    "Ġhonour": 3920,
    "sub": 4661,
    "Ġtoward": 17949,
    "Ġexpressions": 7706,
    "Ġklux": 22200,
    "ts": 959,
    "germans": 20568,
    "nurtured": 25525,
    "national": 21000,
    "Ġfootmarks": 19339,
    "Ġseeing": 2880,
    "Ġbarren": 11207,
    "Ġspades": 12800,
    "Ġcauses": 2561,
    "Ġingen": 9051,
    "Ġsugg": 4500,
    "Ġrepugn": 23367,
    "Ġpassionate": 11274,
    "Ġmutual": 8298,
    "Ġfaulty": 14908,
    "log": 18535,
    "isle": 13894,
    "Ġdined": 9178,
    "heric": 15914,
    "Ġungodly": 26514,
    "itely": 5365,
    "urean": 18125,
    "Ġextant": 18691,
    "Ġstrongly": 5657,
    "Ġkeys": 11999,
    "Ġinterlacing": 22581,
    "mers": 9612,
    "Ġcorrespondent": 19825,
    "Ġbuckets": 17034,
    "Ġappertain": 22230,
    "blubber": 15239,
    "leaving": 10792,
    "izard": 10884,
    "Ġleaking": 21735,
    "happen": 19333,
    "cim": 8723,
    "shoes": 14241,
    "recovered": 19790,
    "Ġhe": 318,
    "Ġbeating": 8146,
    "Ġcorners": 18876,
    "Ġaristocratic": 20515,
    "Ġconjectures": 16926,
    "Ġcompliments": 8636,
    "beries": 22721,
    "Ġresearches": 13142,
    "Ġmarks": 6747,
    "Ġcargo": 16292,
    "bolt": 25138,
    "Ġscratch": 25565,
    "Ġplanting": 16089,
    "Ġexeget": 24084,
    "Ġbaltic": 18795,
    "Ġfervently": 25878,
    "Ġangrily": 9409,
    "Ġfang": 21406,
    "Ġsaws": 23053,
    "Ġchimneys": 16973,
    "with": 1295,
    "Ġtending": 17725,
    "atever": 3077,
    "geon": 6271,
    "Ġscore": 9740,
    "Ġkink": 22198,
    "Ġmat": 1146,
    "Ġfrance": 7683,
    "worship": 19390,
    "Ġrose": 3442,
    "Ġvicinity": 7315,
    "Ġwade": 17786,
    "Ġgiant": 13970,
    "Ġjoin": 4855,
    "s": 87,
    "Ġvol": 4191,
    "Ġgrain": 15834,
    "lic": 17588,
    "Ġunfold": 8023,
    "sunlight": 24852,
    "Ġcurling": 9345,
    "harpooneers": 8693,
    "nantucket": 7805,
    "Ġserved": 8247,
    "Ġuntutored": 19168,
    "Ġauxiliary": 26419,
    "Ġimprinted": 22394,
    "!âĢĻ": 3331,
    "officer": 17054,
    "gu": 3955,
    "Ġlined": 15653,
    "Ġconsequ": 6255,
    "Ġarm": 2491,
    "Ġfurious": 10355,
    "Ġreconcile": 25292,
    "Ġbecause": 2212,
    "lead": 10167,
    "Ġcling": 11776,
    "trick": 19416,
    "sat": 4811,
    "Ġcabs": 23643,
    "Ġstaggered": 9541,
    "Ġ*/": 10375,
    "Ġfork": 15735,
    "Ġhose": 12631,
    "appropri": 22845,
    "Ġadventurous": 16734,
    "Ġgems": 9210,
    "alleging": 23027,
    "reflected": 24732,
    "described": 18895,
    "Ġhelper": 24029,
    "Ġdropped": 4472,
    "Ġeliminating": 20623,
    "grees": 20888,
    "Ġmantel": 11440,
    "Ġbenediction": 18785,
    "ieth": 10705,
    "wives": 15457,
    "sulphur": 25910,
    "Ġbravery": 23840,
    "Ġignor": 4010,
    "Ġexcite": 11966,
    "Ġsettle": 6294,
    "Ġominous": 12427,
    "depths": 25664,
    "eg": 17530,
    "ving": 594,
    "daughter": 8356,
    "painter": 24897,
    "Ġpromise": 4200,
    "Ġdistrusted": 13544,
    "pect": 1253,
    "py": 17625,
    "Ġparents": 6753,
    "Ġflying": 5413,
    "Ġperch": 10300,
    "iasm": 8062,
    "Ġtwisting": 18659,
    "chosen": 21699,
    "Åĵ": 10745,
    "unbe": 21877,
    "ampled": 18885,
    "Ġclerval": 4655,
    "Ġstandards": 19017,
    "Ġstrung": 22623,
    "Ġresuming": 12897,
    "investigations": 25534,
    "Ġsage": 17753,
    "sweep": 24619,
    "Ġblocked": 19225,
    "determined": 9081,
    "Ġprayer": 16668,
    "invincible": 25092,
    "minutely": 19596,
    "rushing": 10020,
    "Ġtrail": 16285,
    "Ġineff": 12638,
    "Ġvocabulary": 4995,
    "Ġdrop": 4346,
    "iron": 3733,
    "Ġicicles": 25265,
    "Ġunlimited": 26224,
    "Ġevap": 19626,
    "Ġthomson": 26455,
    "Ġclaim": 5106,
    "Ġwitness": 4623,
    "Ġvariations": 22670,
    "interruption": 20115,
    "sur": 4523,
    "Ġyell": 21782,
    "Ġchronicler": 20232,
    "got": 6954,
    "claims": 25320,
    "yond": 2331,
    "Ġferule": 24515,
    "agged": 9239,
    "Ġflatter": 9350,
    "Ġthoughtful": 16194,
    "Ġentic": 16149,
    "uned": 21876,
    "Ġconfounded": 16381,
    "Ġwhom": 1829,
    "Ġregards": 16076,
    "¨": 106,
    "Ġcongealed": 25982,
    "ht": 376,
    "deployment": 26528,
    "Ġsurvive": 9069,
    "oc": 2831,
    "Ġwow": 15531,
    "whel": 7666,
    "Ġdelivery": 18976,
    "Ġverses": 17063,
    "Ġsparkling": 11357,
    "Ġdrenched": 12607,
    "boilers": 26298,
    "Ġfin": 1459,
    "Ġ51": 24315,
    "Ġsovere": 9258,
    "Ġperiodically": 19497,
    "Ġlitter": 19832,
    "Ġsupplement": 23006,
    "horse": 8609,
    "Ġbarbs": 10533,
    "Ġunsub": 22024,
    "Ġbrougham": 17872,
    "Ġimpious": 15989,
    "Ġdisregard": 22533,
    "Ġvalidation": 2359,
    "ources": 2786,
    "Ġsquare": 2397,
    "Ġmortals": 9918,
    "Ġtiar": 21170,
    "jackets": 24896,
    "Ġelevates": 24499,
    "Ġflurry": 18862,
    "ended": 1832,
    "Ġirritation": 20269,
    "Ġcrack": 7710,
    "Ġdetested": 14176,
    "Ġplants": 22606,
    "ic": 304,
    "ensibility": 22552,
    "Ġanimated": 7702,
    "itzerland": 9997,
    "Ġhardships": 14453,
    "allions": 22203,
    "Ġvind": 10251,
    "con": 654,
    "\"],": 26121,
    "Ġheavy": 3743,
    "throt": 25660,
    "Ġturtles": 19223,
    "Ġhauling": 14089,
    "Ġregardless": 19326,
    "Ġfrig": 13084,
    "Ġseams": 12128,
    "ilations": 21726,
    "Ġalow": 18102,
    "Ġcheered": 16369,
    "bedstead": 23935,
    "Ġchag": 15934,
    "Ġclassification": 1093,
    "gir": 8084,
    "legged": 10467,
    "Ġsor": 4147,
    "affrail": 11206,
    "Ġconcil": 23322,
    "Ġbugs": 13651,
    "fortune": 4975,
    "ellig": 522,
    "calm": 8936,
    "Ġoutrage": 15961,
    "python": 4693,
    "leaped": 17845,
    "Ġwalks": 8967,
    "Ġsunset": 8964,
    "Ġflames": 7941,
    "Ġthom": 21520,
    "Ġinterruption": 9475,
    "total": 17252,
    "Ġperil": 5556,
    "ety": 3518,
    "Ġreassure": 21676,
    "Ġhover": 15623,
    "animals": 24737,
    "Ġhates": 21490,
    "Ġcaves": 15557,
    "secondly": 16985,
    "Ġilliterate": 26595,
    "Ġmot": 2980,
    "Ġenglishman": 11230,
    "oney": 3048,
    "Ġclutching": 24954,
    "Ġhealthcare": 8017,
    "thee": 9692,
    "spent": 12946,
    "Ġranged": 10259,
    "sol": 1792,
    "Ġknows": 4161,
    "--âĢľ": 12976,
    "marked": 9050,
    "dramatic": 19388,
    "Ġmajor": 13295,
    "robe": 15645,
    "ipping": 2209,
    "Ġindex": 17049,
    "Ġrenew": 6146,
    "Ġbrotherly": 16528,
    "book": 4671,
    "Ġ135": 24784,
    "Ġ1828": 25720,
    "Ġliquid": 22414,
    "assist": 11771,
    "village": 25423,
    "sure": 5522,
    "Ġscrutiny": 26016,
    "Ġcountryside": 23598,
    "returned": 7766,
    "Ġpersist": 16275,
    "refuge": 24733,
    "Ġfootman": 8289,
    "Ġunbending": 25465,
    "Ġsub": 950,
    "pin": 13769,
    "ilburn": 18062,
    "nephew": 26398,
    "Ġinvaders": 23482,
    "Ġimbedded": 18333,
    "Ġindign": 6174,
    "amplified": 26495,
    "Ġblade": 11896,
    "Ġtw": 840,
    "Ġtax": 13818,
    "Ġwhereon": 16104,
    "Ġchancery": 20718,
    "^": 66,
    "Ġconvey": 9983,
    "://": 11466,
    "underneath": 23791,
    "oot": 13767,
    "Ġeye": 2283,
    "Ġdancing": 5703,
    "conquerable": 17401,
    "Ġaunt": 3179,
    "will": 1971,
    "Ġrecogn": 2762,
    "darted": 20834,
    "Ġspin": 7630,
    "Ġmumbling": 11576,
    "Ġinvite": 14563,
    "Ġdome": 15592,
    "Ġelephant": 8257,
    "Ġbrilliantly": 25123,
    "introduce": 25187,
    "rawling": 21640,
    "Ġmen": 1435,
    "self": 616,
    "arris": 13212,
    "Ġphilosop": 5057,
    "leness": 4692,
    "brave": 19826,
    "Ġwrinkled": 7264,
    "Ġfebruary": 15915,
    "stood": 4116,
    "Ġrambling": 18647,
    "drew": 7334,
    "alter": 10827,
    "Ġslabs": 13065,
    "assistant": 25568,
    "speed": 19412,
    "Ġpretence": 13210,
    "harpoon": 9493,
    "Ġtombed": 25164,
    "opening": 10314,
    "etimes": 1989,
    "kles": 17585,
    "starbuck": 6020,
    "Ġrio": 23894,
    "ichron": 22173,
    "Ġdelusion": 18975,
    "toed": 18579,
    "Ġpleasing": 6191,
    "Ġacquirement": 19257,
    "amy": 8469,
    "Ġhearties": 18967,
    "Ġrepeat": 8001,
    "Ġheaving": 7601,
    "foremost": 14254,
    "Ġretrie": 10384,
    "Ġcattle": 12576,
    "Ġmeasurement": 19426,
    "added": 11661,
    "Ġdictator": 20156,
    "itime": 15551,
    "Ġrestoration": 19028,
    "impregn": 21718,
    "Ġslip": 8956,
    "strained": 21662,
    "Ġcou": 5288,
    "successively": 24778,
    "Ġexhaled": 19685,
    "Ġorlop": 22098,
    "charles": 14700,
    "asable": 21545,
    "yes": 984,
    "Ġpom": 21456,
    "strange": 6087,
    "Ġunobserved": 18247,
    "umns": 14149,
    "Ġspite": 4157,
    "threw": 21989,
    "shel": 11933,
    "Ġsends": 14791,
    "Ġmonogram": 26575,
    "Ġsensit": 2940,
    "Ġinsists": 23678,
    "Ġvideos": 13609,
    "Ġoffice": 4965,
    "Ġrubber": 22791,
    "ê": 171,
    "tender": 14476,
    "apt": 734,
    "Ġrusty": 14965,
    "Ġproduced": 2451,
    "Ġsuppression": 23004,
    "Ġancest": 12618,
    "Ġevince": 24294,
    "Ġpropos": 7063,
    "Ġsnuff": 7993,
    "Ġbrag": 23837,
    "bbs": 23692,
    "poured": 17638,
    "glasses": 11216,
    "Ġtherefore": 2239,
    "Ġincome": 7919,
    "Ġsmut": 22561,
    "Ġassaulted": 25321,
    "brit": 19199,
    "Ġmotion": 4567,
    "yt": 17712,
    "Ġwet": 6517,
    "Ġcos": 2210,
    "Ġanybody": 5314,
    "Ġvacantly": 16816,
    "piteous": 21036,
    "Ġcelebrated": 13597,
    "acknowledge": 18471,
    "colonel": 8286,
    "Ġmiller": 19885,
    "Ġpoints": 5249,
    "commander": 16988,
    "Ġbattered": 17864,
    "Ġmerry": 5869,
    "Ġobserv": 8589,
    "sold": 15428,
    "¯": 112,
    "ancial": 21365,
    "Ġwhatsoever": 18456,
    "plenty": 14093,
    "swallowed": 14854,
    "Ġhour": 1811,
    "Ġdad": 12604,
    "Ġfar": 1449,
    "quiet": 6155,
    "Ġrelationship": 2316,
    "Ġconfeder": 25708,
    "Ġfig": 3624,
    "Ġstochastic": 3266,
    "Ġafore": 10759,
    "Ġcranes": 20386,
    "Ġbeware": 8831,
    "regret": 16451,
    "stave": 21653,
    "answering": 26005,
    "Ġtantalizing": 20417,
    "Ġlow": 1648,
    "ifled": 14065,
    "Ġcurved": 18851,
    "Ġinsincere": 26600,
    "Ġrobert": 10971,
    "Ġdampening": 2890,
    "igms": 3045,
    "iliary": 21731,
    "Ġpalaces": 24093,
    "Ġty": 6659,
    "leader": 25352,
    "Ġelix": 22648,
    "ve": 323,
    "Ġways": 5396,
    "Ġdecisive": 18486,
    "Ġblanc": 11066,
    "lur": 13749,
    "mselves": 2858,
    "Ġbanqu": 12592,
    "Ġclad": 12847,
    "mit": 4934,
    "Ġoutlined": 22325,
    "battle": 12445,
    "Ġholiday": 13002,
    "allah": 5839,
    "istol": 6260,
    "include": 23591,
    "Ġinexpress": 12639,
    "Ġchain": 1842,
    "ish": 550,
    "Ġadam": 2127,
    "official": 24915,
    "Ġensigns": 23689,
    "Ġcourtiers": 24137,
    "Ġsuperhuman": 23455,
    "Ġhammers": 13244,
    "Ġsl": 1496,
    "cook": 8271,
    "Ġcoming": 2616,
    "Ġseated": 4541,
    "Ġgracechurch": 12202,
    "Ġparacelsus": 15269,
    "Ġconclusion": 5987,
    "Ġofficer": 6754,
    "Ġsweep": 8267,
    "Ġdispelling": 23883,
    "Ġcollapsed": 15084,
    "ilder": 15716,
    "Ġgunw": 6213,
    "Ġretired": 6072,
    "Ġtrustworthy": 24106,
    "Ġaway": 1243,
    "Ġkidnapping": 26358,
    "as": 302,
    "hom": 12477,
    "tern": 4227,
    "abases": 3002,
    "ex": 623,
    "Ġdelineations": 26059,
    "ascended": 24705,
    "olent": 8156,
    "Ġsoon": 1227,
    "Ġ16": 7928,
    "(_": 7540,
    "Ġworthless": 19568,
    "france": 24283,
    "Ġmistaken": 4986,
    "Ġunwillingly": 15851,
    "Ġletters": 3792,
    "Ġreside": 22544,
    "Ġindicates": 3197,
    "Ġdrowned": 9554,
    "strils": 10459,
    "Ġupd": 947,
    "uttle": 6248,
    "Ġvexation": 10588,
    "Ġstreatham": 17451,
    "aming": 5829,
    "exped": 16525,
    "dogs": 25403,
    "dimly": 15349,
    "swaying": 25911,
    "Ġsullen": 9159,
    "Ġprecip": 7075,
    "Ġpotent": 12067,
    "hereabouts": 23608,
    "Ġfreemason": 23216,
    "Ġpills": 21470,
    "Ġtheories": 13851,
    "ackled": 22429,
    "obey": 11511,
    "Ġobey": 9521,
    "Ġcashier": 20201,
    "Ġbye": 12742,
    "Ġdescend": 7427,
    "once": 5905,
    "Ġromans": 16760,
    "agger": 7874,
    "warmly": 25029,
    "ggling": 19098,
    "wear": 22687,
    "Ġpublisher": 24068,
    "Ġimmediately": 3365,
    "Ġundertake": 14481,
    "Ġexcuses": 19040,
    "Ġso": 430,
    "pleasant": 5875,
    "Ġhunks": 18938,
    "Ġecstasy": 11632,
    "atics": 15525,
    "atived": 21265,
    "osop": 4406,
    "Ġguitar": 16271,
    "Ġpilgrimage": 17310,
    "vel": 2385,
    "arse": 7161,
    "Ġpersuasions": 16633,
    "azore": 23464,
    "ibank": 6879,
    "Ġoccupations": 9460,
    "Ġeven": 1026,
    "Ġoverspread": 14204,
    "roofed": 26185,
    "Ġcharmed": 16763,
    "abbering": 21801,
    "Ġoblong": 14323,
    "ĠĠĠĠĠĠĠĠĠĠ": 18578,
    "oh": 1579,
    "Ġembattled": 26290,
    "Ġruthless": 15288,
    "sound": 6799,
    "Ġuprising": 12806,
    "Ġexpert": 18864,
    "Ġhan": 15621,
    "Ġdisconcerted": 18563,
    "Ġacquiesce": 20332,
    "gained": 20883,
    "inced": 3335,
    "Ġhaven": 8475,
    "cain": 15328,
    "Ġtwo": 1039,
    "Ġconciliating": 19046,
    "Ġke": 1155,
    "Ġmemo": 18120,
    "need": 10984,
    "Ġfrank": 4421,
    "nx": 17608,
    "assuming": 22315,
    "inter": 2942,
    "keel": 14130,
    "Ġeloped": 22649,
    "Ġdeportment": 22600,
    "Ġbod": 4582,
    "writes": 4988,
    "Ġferoc": 14903,
    "Ġjaws": 5592,
    "permitted": 18344,
    "Ġconfidence": 6591,
    "Ġsultry": 20291,
    "Ġunallied": 22033,
    "oil": 7806,
    "Ġoutrageous": 20613,
    "Ġpenetrated": 13475,
    "Ġnut": 12650,
    "Ġret": 1380,
    "abled": 12798,
    "Ġscarcely": 4007,
    "Ġ114": 24437,
    "Ġrealise": 16338,
    "promising": 24725,
    "forbidding": 25839,
    "Ġberkshire": 16885,
    "Ġev": 4830,
    "clearer": 24070,
    "Ġenlivened": 26209,
    "Ġlock": 5929,
    "Ġsuperl": 16446,
    "Ġamelia": 26252,
    "Ġlieutenant": 15264,
    "Ġtemptations": 24504,
    "comrade": 18740,
    "ividual": 5463,
    "Ġrugged": 18721,
    "Ġxx": 5492,
    "nostril": 26560,
    "Ġindies": 22955,
    "knows": 19174,
    "Ġport": 3308,
    "unguarded": 23668,
    "Ġreferred": 8919,
    "laws": 19810,
    "Ġentering": 6286,
    "Ġwolfish": 25936,
    "profound": 16428,
    "Ġmembrane": 20507,
    "Ġton": 15466,
    "Ġmarshalled": 25316,
    "Ġacknowledge": 13405,
    "Ġcigaret": 16977,
    "shrugged": 22460,
    "atherley": 7220,
    "Ġrep": 1937,
    "endure": 22223,
    "Ġtemperate": 16165,
    "Ġoppressed": 11190,
    "neurons": 3136,
    "Ġwarrior": 24495,
    "Ġlivel": 11356,
    "Ġfreezing": 23886,
    "Ġmatter": 1733,
    "ivia": 22089,
    "Ġfought": 12597,
    "Ġcommanded": 6331,
    "just": 1699,
    "Ġremoving": 12120,
    "bil": 20773,
    "Ġpratt": 23224,
    "ĠlinnÃ¦us": 15278,
    "Ġappointment": 10648,
    "circumst": 5349,
    "Ġtrunks": 15968,
    "Ġtwig": 11853,
    "Ġafresh": 18629,
    "ö": 183,
    "Ġbold": 5293,
    "Ġoblique": 20172,
    "Ġnightgown": 23135,
    "Ġanguish": 5582,
    "Ġunbounded": 18257,
    "Ġblessing": 11264,
    "fl": 3599,
    "Ġassailants": 20452,
    "Ġlicense": 20094,
    "Ġsleeping": 6320,
    "affairs": 14656,
    "Ġtremble": 6905,
    "Ġsemicircular": 26069,
    "Ġcamel": 25350,
    "Ġfarmhouse": 24989,
    "Ġinterpretation": 19719,
    "Ġ100": 14365,
    "anging": 3548,
    "Ġearliest": 9832,
    "ivity": 1692,
    "Ġentit": 22748,
    "Ġcredit": 4820,
    "Ġaft": 5737,
    "Ġhearts": 4972,
    "Ġfrequented": 16587,
    "Ġglances": 10374,
    "Ġtrains": 10948,
    "Ġlordly": 23746,
    "Ġthrice": 10577,
    "Ġorphan": 12386,
    "Ġwoe": 4794,
    "bitt": 17487,
    "kicked": 20945,
    "Ġpained": 19169,
    "Ġnoteworthy": 24164,
    "Ġsweeter": 23921,
    "exam": 10977,
    "Ġdreadful": 4921,
    "Ġexal": 10878,
    "Ġtwine": 14313,
    "Ġyanke": 18100,
    "Ġnodding": 23340,
    "Ġhatty": 19267,
    "infant": 19830,
    "Ġerudite": 26353,
    "Ġramadan": 9577,
    "Ġgang": 9209,
    "Ġjoking": 12841,
    "ilty": 6393,
    "Ġoptim": 782,
    "Ġgrieved": 8299,
    "Ġsincerely": 7963,
    "gentlemanlike": 20005,
    "Ġhardware": 4905,
    "depth": 12804,
    "car": 4216,
    "Ġcrying": 10787,
    "stad": 7598,
    "Ġnecessitates": 23933,
    "head": 1436,
    "Ġfleet": 9434,
    "Ġfeatures": 1433,
    "Ġjung": 12840,
    "observed": 7676,
    "Ġmich": 21308,
    "Ġlived": 3988,
    "pictures": 15093,
    "homage": 25617,
    "Ġapt": 9157,
    "Ġheading": 8937,
    "Ġpint": 17911,
    "Ġinvited": 6902,
    "iteness": 4394,
    "Ġle": 332,
    "Ġamends": 14247,
    "Ġkramm": 26235,
    "Ġcomprehend": 6493,
    "lord": 3863,
    "ction": 496,
    "ensions": 14260,
    "Ġscimet": 22293,
    "proportions": 22851,
    "Ġdazz": 11596,
    "Ġimag": 2670,
    "country": 6104,
    "Ġwives": 12559,
    "Ġjub": 22300,
    "ĠĠĠĠĠĠĠĠĠĠĠĠĠĠĠĠ": 1220,
    "Ġviv": 6157,
    "Ġsuperstition": 15058,
    "Ġdrifting": 19281,
    "Ġcontemptible": 16954,
    "Ġparlour": 12324,
    "Ġunusual": 6554,
    "ccarthy": 4889,
    "Ġlowerings": 23648,
    "Ġintroduced": 7691,
    "Ġpractised": 23331,
    "aloes": 21506,
    "difference": 13710,
    "Ġaboard": 6698,
    "useness": 22297,
    "lers": 10108,
    "Ġexercised": 24800,
    "Ġclasped": 17208,
    "igation": 5919,
    "Ġundulations": 19518,
    "Ġvint": 18195,
    "Ġallures": 22074,
    "Ġweak": 5098,
    "Ġwrongfully": 24250,
    "floating": 12231,
    "Ġspind": 18308,
    "Ġapparelled": 20440,
    "Ġliberties": 19670,
    "Ġhate": 5445,
    "serv": 7451,
    "arter": 17895,
    "Ġskills": 1836,
    "Ġfanc": 6744,
    "Ġgood": 1000,
    "Ġstrand": 11831,
    "Ġnearing": 15801,
    "®": 111,
    "Ġadhes": 22111,
    "uten": 11624,
    "Ġpreliminaries": 25177,
    "Ġblessings": 24178,
    "Ġlub": 15652,
    "hering": 12818,
    "glanced": 19369,
    "Ġconcussion": 26300,
    "Ġax": 7823,
    "ony": 3025,
    "strength": 13982,
    "hastened": 16846,
    "comfortable": 7320,
    "hval": 20900,
    "Ġproposals": 10615,
    "fred": 20857,
    "Ġauger": 21206,
    "zen": 5140,
    "Ġanimating": 23427,
    "Ġdiabolically": 25514,
    "risonment": 17377,
    "Ġprouder": 18973,
    "Ġmonster": 3793,
    "Ġheated": 21686,
    "Ġtranslations": 12055,
    "Ġuncles": 23434,
    "unknown": 10891,
    "hush": 20908,
    "Ġelbow": 12925,
    "Ġharpo": 1942,
    "Ġgales": 12669,
    "Ġantiquities": 25599,
    "Ġapproved": 16039,
    "Ġquick": 2581,
    "pard": 9620,
    "Ġcoins": 11822,
    "ce": 313,
    "powers": 25411,
    "ains": 5094,
    "Ġdissembling": 26256,
    "Ġclosely": 6487,
    "Ġsusp": 2659,
    "Ġdebility": 24274,
    "convul": 24884,
    "ortment": 22261,
    "eteenth": 20160,
    "rippa": 11342,
    "Ġkid": 9727,
    "killing": 20944,
    "Ġimper": 4502,
    "inence": 15483,
    "Ġafternoon": 6054,
    "Ġacquiescence": 20333,
    "Ġepicures": 25880,
    "continuance": 19721,
    "Ġcluster": 13574,
    "Ġmanip": 8874,
    "flagged": 23975,
    "Ġlamp": 4114,
    "Ġcontrad": 9757,
    "Ġattract": 11835,
    "ff": 462,
    "Ġgilt": 21610,
    "Ġdashed": 6011,
    "Ġluggage": 25958,
    "contented": 14634,
    "analy": 17840,
    "responsible": 25764,
    "Ġflows": 13014,
    "Ġthanks": 6708,
    "onings": 21255,
    "Ġreception": 9841,
    "misfortunes": 16757,
    "Ġape": 21199,
    "Ġobsole": 22702,
    "boil": 19000,
    "Ġcottage": 4735,
    "Ġdistant": 5387,
    "standard": 22441,
    "ites": 3896,
    "Ġshivering": 10267,
    "Ġchicha": 15939,
    "Ġyarn": 10869,
    "disciple": 16779,
    "Ġlawyer": 10670,
    "Ġteneriffe": 26415,
    "stubb": 6019,
    "Ġcarpenter": 4686,
    "Ġembarks": 22972,
    "Ġdeliriously": 23234,
    "cap": 8374,
    "contemplated": 20461,
    "Ġuninhabited": 22052,
    "headsman": 16698,
    "Ġemma": 20697,
    "Ġbilliard": 16689,
    "Ġquaker": 10972,
    "igger": 21704,
    "Ġstoutest": 24630,
    "br": 2477,
    "retion": 9364,
    "Ġfergus": 16873,
    "oky": 8199,
    "Ġdeliberate": 15024,
    "Ġzealand": 12353,
    "anders": 18155,
    "Ġcorrection": 5062,
    "Ġsuperficial": 23458,
    "Ġhandled": 12941,
    "englishman": 23676,
    "Ġinput": 609,
    "monsters": 19173,
    "Ġenglish": 3613,
    "conceivable": 17132,
    "Ġlash": 8441,
    "================================================================": 9992,
[...]
