{
  "metadata": {
    "vocab_size": 26614,
    "algorithm": "BPE",
    "created_at": "2026-07-23 05:22:55",
    "special_tokens": [
      "<PAD>",
      "<SOS>",
      "<EOS>",
      "<UNK>",
      "<MASK>"
    ]
  },
  "vocab": {
    "Ġshot": 4542,
    "reception": 15514,
    "Ġers": 15460,
    "Ġdanger": 3519,
    "Ġintense": 6157,
    "orate": 10800,
    "raved": 18012,
    "ivorous": 22084,
    "Ġcocain": 18596,
    "spass": 18688,
    "Ġineff": 12631,
    "versed": 9824,
    "vert": 15713,
    "Ġbetween": 792,
    "Ġcongeal": 25980,
    "just": 1701,
    "why": 2830,
    "Ġsands": 14947,
    "Ġcombination": 22833,
    "Ġtransported": 11279,
    "ividual": 5464,
    "pagans": 25525,
    "oin": 17617,
    "Ġadversarial": 5607,
    "Ġcorrupt": 11921,
    "Ġfires": 16472,
    "Ġjuicy": 25370,
    "centred": 25017,
    "Ġpiny": 21468,
    "Ġinfernal": 11959,
    "Ġcalling": 5662,
    "Ġsec": 2077,
    "Ġceti": 24773,
    "arance": 4697,
    "Ġbarred": 9002,
    "Ġincumbent": 16061,
    "teous": 16173,
    "Ġmonuments": 22974,
    "Ġjungfrau": 15247,
    "conqu": 14244,
    "bohemia": 20730,
    "gled": 10699,
    "Ġric": 18209,
    "Ġtreatise": 19343,
    "Ġassured": 4371,
    "Ġunmo": 12770,
    "Ġbabies": 19691,
    "Ġivory": 4475,
    "Ġfreshness": 23985,
    "¨": 106,
    "Ġbumpkins": 25281,
    "Ġbe": 336,
    "Ġfurlong": 18740,
    "Ġdissuade": 26256,
    "Ġinnovative": 1615,
    "Ġrefrained": 14342,
    "ladies": 9528,
    "Ġdeny": 7489,
    "Ġexclamation": 8698,
    "ivia": 22081,
    "Ġaskance": 23145,
    "mortal": 10112,
    "practical": 17221,
    "Ġcastaways": 19426,
    "suitable": 18631,
    "Ġswept": 7977,
    "Ġcreat": 1448,
    "Ġflashes": 11914,
    "Ġinjured": 9039,
    "Ġwise": 6811,
    "iloquent": 21722,
    "Ġris": 4885,
    "shop": 14235,
    "Ġx": 2075,
    "greek": 25404,
    "beings": 12874,
    "doms": 20834,
    "Ġwashington": 17202,
    "originally": 24937,
    "Ġelixir": 26555,
    "cus": 3979,
    "Ġbreathe": 9011,
    "lonely": 20956,
    "thy": 2934,
    "Ġmarble": 7669,
    "Ġsharks": 4496,
    "need": 10983,
    "Ġvowed": 14083,
    "Ġtheore": 1827,
    "Ġportcull": 23861,
    "Ġtrunks": 15974,
    "Ġsunbeam": 23273,
    "drop": 15336,
    "Ġinsignific": 13179,
    "Ġwalked": 3142,
    "Ġ----": 7145,
    "Ġabsurd": 7202,
    "ory": 1077,
    "Ġweedy": 15791,
    "Ġdiscomposure": 20377,
    "Ġvast": 3298,
    "deacon": 22143,
    "Ġhalf": 1672,
    "Ġoscillations": 2900,
    "ility": 624,
    "Ġimpotent": 18453,
    "prec": 3202,
    "Ġcoaxing": 18598,
    "chor": 6146,
    "Ġincantation": 26257,
    "Ġsulphur": 24933,
    "================================================================": 9989,
    "erland": 9640,
    "Ġincites": 22548,
    "Ġtalks": 23368,
    "impatiently": 20469,
    "Ġinsert": 19904,
    "burgh": 6773,
    "sul": 15421,
    "idents": 6150,
    "hent": 12531,
    "Ġspat": 2667,
    "Ġadjusted": 23457,
    "oarsman": 25261,
    "inger": 6812,
    "Ġwarped": 25035,
    "Ġunexplored": 26518,
    "pad": 13767,
    "Ġopening": 5045,
    "aders": 21755,
    "mor": 4214,
    "Ġhealthy": 10851,
    "Ġglancing": 5399,
    "Ġscand": 7203,
    "Ġappal": 18359,
    "Ġsleeper": 8600,
    "iet": 1775,
    "Ġcrumb": 16440,
    "Ġawaiting": 11390,
    "Ġbeen": 626,
    "Ġreduce": 7942,
    "Ġancestors": 25642,
    "Ġeyford": 10641,
    "murder": 10564,
    "culous": 11141,
    "dart": 20825,
    "kill": 13743,
    "Ġvolumes": 14799,
    "Ġenable": 684,
    "reckoning": 25270,
    "ada": 14010,
    "res": 2760,
    "Ġallures": 22005,
    "abhorred": 17335,
    "sleet": 20148,
    "believed": 9932,
    "Ġclim": 8194,
    "Ġsavagely": 26323,
    "transition": 24513,
    "Ġunass": 14113,
    "izens": 18134,
    "Ġpredefined": 20716,
    "Ġbroadway": 23981,
    "Ġdevelop": 1697,
    "Ġanx": 3181,
    "worse": 14690,
    "Ġcontracted": 12857,
    "Ġregard": 3068,
    "Ġrepay": 19081,
    "grim": 19106,
    "Ġidentify": 12012,
    "Ġdood": 22239,
    "ureau": 10226,
    "Ġwrap": 24594,
    "Ġexalted": 12410,
    "Ġtrifling": 10602,
    "Ġbalance": 2022,
    "books": 8663,
    "unknown": 10890,
    "ject": 874,
    "irc": 1729,
    "Ġda": 5150,
    "Ġhandfuls": 17209,
    "Ġawhile": 13829,
    "Ġresiding": 16060,
    "Ġchurchyard": 16777,
    "Ġease": 5629,
    "used": 3260,
    "Ġ102": 24410,
    "peleg": 16293,
    "member": 20974,
    "Ġexcl": 3474,
    "ĠâĢľ": 516,
    "Ġ182": 13235,
    "iop": 20918,
    "mention": 7214,
    "Ġextracted": 16295,
    "Ġvesu": 21946,
    "Ġdanish": 21429,
    "Ġfluttered": 16249,
    "Ġbarbar": 6935,
    "Ġfloated": 7288,
    "Ġobvious": 4963,
    "lowering": 16028,
    "Ġwhaling": 2783,
    "influence": 13577,
    "unusual": 21876,
    "izarre": 17388,
    "puff": 21021,
    "Ġcharles": 11955,
    "Ġ(`": 12850,
    "Ġmanifested": 17157,
    "Ġmyself": 1455,
    "Ġearnestly": 5978,
    "Ġscratching": 20367,
    "Ġincrease": 9369,
    "Ġfifty": 4623,
    "exhibited": 18477,
    "ouement": 21446,
    "Ġair": 1835,
    "Ġpersons": 6181,
    "Ġsubordinate": 18722,
    "Ġopportunities": 19248,
    "prob": 7069,
    "Ġinhuman": 13928,
    "cushion": 20820,
    "walls": 25345,
    "oran": 8788,
    "Ġindef": 9189,
    "Ġreceives": 20353,
    "idy": 21761,
    "Ġoccurred": 4461,
    "loud": 11500,
    "Ġadapts": 3816,
    "Ġrushes": 20506,
    "Ġpunchbowl": 20230,
    "Ġmam": 8404,
    "Ġemig": 14522,
    "difference": 13707,
    "Ġrainy": 24341,
    "Ġsqualid": 14367,
    "Ġimpo": 3443,
    "Ġhighly": 4843,
    "Ġescaped": 6459,
    "Ġsunk": 5752,
    "Ġantichronical": 26609,
    "Ġirrevocably": 15296,
    "Ġwinking": 17793,
    "Ġmounting": 19975,
    "Ġplates": 11006,
    "niece": 20994,
    "sugg": 11837,
    "resolved": 9639,
    "Ġadmirer": 16838,
    "Ġshowers": 16605,
    "bber": 4567,
    "Ġgam": 11623,
    "Ġdiscoveries": 13357,
    "Ġsta": 18062,
    "hide": 10703,
    "Ġstealing": 18894,
    "Ġaloof": 21782,
    "Ġpursuits": 12074,
    "ounding": 22382,
    "Ġbride": 6291,
    "atived": 21261,
    "Ġfemale": 8344,
    "Ġtwitching": 25683,
    "supernatural": 19778,
    "Ġdrink": 4786,
    "study": 15116,
    "Ġfra": 1829,
    "Ġdisdain": 8359,
    "Ġcharger": 19004,
    "oar": 12495,
    "Ġcollections": 22854,
    "rolling": 9060,
    "Ġinvoluntary": 18766,
    "ction": 504,
    "according": 12026,
    "Ġbrightly": 13222,
    "straight": 9939,
    "sol": 1791,
    "chie": 21687,
    "respective": 19845,
    "Ġdire": 865,
    "Ġpoltroon": 26598,
    "Ġvulgar": 13603,
    "ty": 1003,
    "fixed": 7549,
    "okened": 15983,
    "Ġconfident": 11138,
    "although": 8805,
    "Ġdidn": 4362,
    "Ġsockets": 22077,
    "Ġscarcity": 23824,
    "Ġvessel": 3797,
    "brows": 17496,
    "Ġapt": 9155,
    "Ġradney": 6775,
    "ould": 428,
    "bitter": 11240,
    "sand": 21051,
    "oved": 5215,
    "Ġsigns": 2444,
    "Ġembra": 6579,
    "Ġcarbuncle": 14444,
    "howling": 18990,
    "Ġcontinental": 19704,
    "ches": 2154,
    "Ġaware": 5756,
    "Ġtarshish": 12027,
    "rise": 6226,
    "Ġed": 2148,
    "Ġhellish": 10550,
    "Ġgive": 1713,
    "Ġlife": 1354,
    "Ġdisturbance": 15012,
    "ackinaw": 22422,
    "Ġtread": 9408,
    "Ġswap": 23049,
    "Ġcollateral": 20070,
    "romeda": 17262,
    "inform": 10143,
    "ı": 242,
    "Ġhorse": 4724,
    "Ġprovision": 14824,
    "Ġtrivial": 10142,
    "day": 1857,
    "Ġprofess": 3697,
    "Ġalacrity": 15735,
    "Ġdeliber": 7268,
    "Ġscruple": 25048,
    "entitled": 21565,
    "Ġchief": 3382,
    "irements": 22211,
    "Ġworn": 6445,
    "Ġjoints": 12033,
    "Ġmantel": 11439,
    "Ġgreedy": 3054,
    "Ġtoilings": 24742,
    "deficient": 23114,
    "Ġwhile": 606,
    "extric": 22759,
    "ĠĠĠĠĠĠĠĠĠĠĠĠĠĠĠĠĠĠĠĠĠĠĠĠĠ": 24442,
    "Ġregiment": 6432,
    "Ġerskine": 17431,
    "Ġleads": 12094,
    "Ġwings": 9163,
    "fun": 4334,
    "rusion": 11323,
    "Ġancestry": 25641,
    "angered": 16177,
    "retired": 11934,
    "Ġscrib": 22280,
    "Ġshell": 11734,
    "Ġpartly": 6713,
    "woman": 5898,
    "Ġfore": 2157,
    "Ġilluminating": 25245,
    "Ġjeopardized": 20229,
    "stopping": 19348,
    "Ġstagnant": 24654,
    "meantime": 9091,
    "Ġcontemplate": 19891,
    "phr": 18709,
    "Ġmien": 17808,
    "contracting": 19292,
    "Ġperceived": 4713,
    "twelve": 14622,
    "$": 8,
    "gladness": 25194,
    "Ġhope": 1790,
    "Ġconnectivity": 3664,
    "Ġdrama": 16328,
    "88": 20757,
    "puzzling": 26143,
    "Ġmixed": 6974,
    "Ġanalyzing": 18802,
    "Ġsucking": 12784,
    "civility": 17513,
    "Ġappar": 7411,
    "anter": 9166,
    "Ġsuburban": 17345,
    "dor": 12449,
    "oes": 4433,
    "ique": 8742,
    "Ġfl": 1280,
    "hauteur": 26391,
    "gallant": 7780,
    "Ġcorrespondence": 10594,
    "Ġstooping": 13059,
    "Ġsyllable": 9727,
    "bottom": 11426,
    "precaution": 23820,
    "Ġcomponents": 8892,
    "Ġgag": 21590,
    "ieved": 3230,
    "iluvian": 18060,
    "unaffected": 21880,
    "Ġloving": 8175,
    "corrid": 24484,
    "Ġreaction": 15693,
    "oa": 9612,
    "orting": 9734,
    "Ġthanked": 9458,
    "Ġsupply": 6066,
    "visible": 10533,
    "Ĕ": 213,
    "nephew": 26397,
    "Ġconcernment": 23646,
    "Ġjog": 18404,
    "Ġdented": 17891,
    "Ġbearing": 5298,
    "Ġassailants": 20447,
    "Ġlanguid": 14213,
    "combination": 25486,
    "crowd": 25254,
    "Ġwestward": 24389,
    "saved": 15431,
    "frankenstein": 11391,
    "Ġapprehens": 5682,
    "Ġmislead": 22754,
    "Ġbetrayed": 9561,
    "Ġarist": 14163,
    "Ġautumnal": 19044,
    "art": 577,
    "oforte": 14285,
    "dining": 13704,
    "Ġnorms": 3663,
    "Ġwalker": 23306,
    "Ġfree": 3376,
    "Ġclothing": 18423,
    "on": 267,
    "Ġminiature": 11040,
    "Ġcalmed": 16268,
    "Ġfatality": 12092,
    "Ġwide": 4107,
    "Ġmeasure": 3592,
    "Ġmatches": 14395,
    "bat": 8071,
    "Ġyoun": 1407,
    "Ġgur": 21589,
    "Ġgiver": 21602,
    "Ġadapt": 1015,
    "Ġcalamities": 25699,
    "Ġhoarse": 14526,
    "Ġyour": 633,
    "Ġridges": 16731,
    "ivation": 3110,
    "Ġimmediately": 3367,
    "Ġbutts": 15854,
    "Ġsegmentation": 17339,
    "Ġoutput": 930,
    "emin": 8470,
    "tural": 21065,
    "Ġpoor": 1710,
    "ignity": 4373,
    "Ġ80": 24456,
    "ogne": 12937,
    "Ġlarge": 1063,
    "Ġactivation": 919,
    "Ġsewing": 21958,
    "sive": 4143,
    "Ġthrills": 24542,
    "discover": 10539,
    "Ġemper": 9860,
    "Ġkicked": 10581,
    "considering": 12172,
    "Ġ94": 17717,
    "Ġrattling": 11395,
    "hanging": 10100,
    "distraction": 24200,
    "Ġlegit": 16473,
    "Ġhandled": 12934,
    "Ġrelationships": 2926,
    "Ġcovers": 18594,
    "gledy": 25403,
    "description": 11094,
    "moderate": 22858,
    "er": 269,
    "Ġgramm": 8170,
    "Ġbremen": 23343,
    "Ġdragging": 14475,
    "Ġxi": 16429,
    "ł": 259,
    "oner": 6124,
    "Ġadmiration": 5328,
    "Ġcertain": 1560,
    "Ġantagon": 19549,
    "baked": 20778,
    "Ġears": 4489,
    ".": 18,
    "Ġfemales": 14936,
    "tackles": 25624,
    "Ġhired": 10177,
    "readiness": 19361,
    "Ġnamely": 20688,
    "iquette": 26132,
    "Ġexceptional": 19369,
    "Ġsecre": 5493,
    "Ġlose": 5028,
    "Ġringbolts": 24196,
    "Ġamput": 16033,
    "described": 18895,
    "h": 76,
    "Ġshrinking": 14804,
    "ording": 9763,
    "Ġcombines": 1126,
    "Ġdang": 9174,
    "Ġwithdrawing": 11340,
    "phants": 9319,
    "Ġpriv": 4181,
    "Ġrecom": 4553,
    "Ġbeadle": 26484,
    "whether": 5319,
    "rushing": 10017,
    "sies": 21053,
    "Ġhoriz": 4725,
    "Ġ43": 14768,
    "Ġtore": 6530,
    "Ġblubber": 5666,
    "Ġbeatrix": 24204,
    "Ġsherlock": 3892,
    "Ġfins": 9663,
    "Ġcatches": 23425,
    "december": 25558,
    "Ġpinioned": 21480,
    "Ġsulky": 13514,
    "Ġpervading": 20611,
    "eldom": 4413,
    "Ġblinds": 8006,
    "Ġhatch": 7847,
    "Ġtokens": 1773,
    "Ġplaguy": 22601,
    "endless": 22223,
    "Ġcondesc": 7181,
    "Ġphys": 5653,
    "Ġanatomical": 15075,
    "charm": 13989,
    "Ġveget": 11886,
    "Ġfairy": 14627,
    "jolly": 20930,
    "boats": 6204,
    "Ç": 136,
    "Ġgamb": 17997,
    "Ġzodiac": 16174,
    "horrors": 20540,
    "off": 1885,
    "Ġwrist": 8242,
    "Ġpremium": 23902,
    "Ġcongratulated": 19765,
    "Ġmaker": 15541,
    "generous": 16568,
    "Ġmatrimony": 13634,
    "Ġsaints": 20673,
    "Ġfingertips": 24014,
    "Ġpract": 1870,
    "Ġoverwhelm": 25052,
    "Ġmember": 8585,
    "Ġkra": 18348,
    "Ġbackwater": 18651,
    "Ġverify": 12085,
    "Ġstiffly": 15005,
    "sincere": 16907,
    "Ġunrivalled": 26519,
    "rised": 10123,
    "Ġgroves": 16740,
    "Ġlowerings": 23648,
    "accounted": 16501,
    "Ġsoundings": 13132,
    "Ġedition": 16434,
    "Ġplump": 14281,
    "cloudless": 20331,
    "Ġhoped": 5488,
    "Ġauthentic": 20534,
    "Ġpeaking": 22687,
    "devils": 20031,
    "ician": 21562,
    "Ġmechanically": 14403,
    "Ġproficiency": 19192,
    "county": 25396,
    "Ġmere": 2716,
    "promote": 24727,
    "Ġsurviv": 13434,
    "als": 2042,
    "Ġruddy": 17125,
    "Ġeclipsed": 26376,
    "ellation": 12747,
    "arctic": 12607,
    "Ġstrictest": 17042,
    "Ġphrenologists": 25608,
    "rule": 15893,
    "moran": 24152,
    "Ġsteeple": 19286,
    "across": 10324,
    "Ġsoftened": 11103,
    "see": 3048,
    "conscientious": 19625,
    "Ġtransc": 12865,
    "Ġcommander": 8624,
    "orange": 21398,
    "Ġbaron": 19333,
    "Ġcou": 5286,
    "cial": 2651,
    "Ġclutching": 24951,
    "Ġwitness": 4621,
    "al": 292,
    "Ġupp": 13991,
    "ediction": 17944,
    "wheel": 22866,
    "prejudiced": 17296,
    "saving": 21058,
    "Ġtrusting": 24104,
    "Ġreve": 2933,
    "Ġanxiety": 5408,
    "Ġhovering": 10178,
    "Ġimpregnable": 26023,
    "bless": 22309,
    "Ġattitudes": 16095,
    "Ġclutch": 15053,
    "tim": 13790,
    "_âĢĶ": 11467,
    "Ġbrag": 23831,
    "eluded": 21572,
    "soo": 18686,
    "Ġchaff": 18383,
    "Ġskipper": 22795,
    "Ġhieroglyphic": 25587,
    "Ġtroops": 24898,
    "Ġglit": 8558,
    "enances": 10153,
    "hearing": 8402,
    "Ġhumor": 11052,
    "Ġlofty": 6217,
    "Ġdue": 3843,
    "Ġcontrol": 13078,
    "Ġapartments": 19613,
    "Ġarriving": 19217,
    "Ġgrim": 7439,
    "friendly": 13283,
    "Ġexperience": 1401,
    "Ġbald": 16206,
    "based": 2959,
    "folio": 10546,
    "Ġaltar": 9228,
    "Ġknighthood": 25297,
    "whereby": 23416,
    "ime": 625,
    "Ġcards": 7581,
    "Ġaggreg": 12881,
    "Ġderives": 16308,
    "andromeda": 21865,
    "Ġmississ": 18837,
    "Ġgradient": 450,
    "mil": 13751,
    "Ġorph": 9716,
    "Ġsubt": 11866,
    "Ġdoubts": 8579,
    "Ġinevitable": 15166,
    "consent": 18503,
    "decided": 13214,
    "itably": 10782,
    "Ġresembled": 18033,
    "Ġextraction": 11252,
    "Ġapolog": 9043,
    "Ġpuzz": 5533,
    "Ġtravelling": 11307,
    "accept": 8897,
    "reasonable": 7751,
    "ieving": 7031,
    "ishly": 14199,
    "larger": 24202,
    "icity": 2540,
    "Ġcreator": 7257,
    "given": 8376,
    "Ġtapping": 10752,
    "narwhale": 17317,
    "Ġmoney": 3419,
    "Ġdearest": 5457,
    "bildad": 9586,
    "Ġunwound": 25169,
    "Ġpanthe": 19652,
    "Ġinsulted": 14991,
    "Ġforked": 11663,
    "ying": 1450,
    "Ġsmoked": 10322,
    "Ü": 157,
    "poor": 6060,
    "Ġefforts": 11803,
    "Ġobliterated": 17404,
    "Ġcol": 1056,
    "miraculous": 26396,
    "Ġnom": 21516,
    "scra": 13015,
    "Ġband": 5290,
    "float": 19804,
    "Ġearthy": 23710,
    "Ġbacked": 12923,
    "Ġepid": 18004,
    "threat": 10900,
    "Ġaugment": 8691,
    "Ġstren": 15718,
    "Ġjury": 5378,
    "Ġthrilling": 19747,
    "Ġhauling": 14087,
    "Ġobviously": 16810,
    "Ġpursuers": 13224,
    "Ġsuppressing": 22993,
    "Ġobeisance": 19757,
    "Ġwerter": 15238,
    "Ġaffront": 18790,
    "sens": 8095,
    "recur": 4436,
    "afraid": 10441,
    "thorough": 21982,
    "Ġfoundling": 22965,
    "receiving": 12540,
    "ordinary": 4407,
    "ui": 9144,
    "uit": 8392,
    "Ġvicinity": 7315,
    "glad": 9007,
    "asters": 8433,
    "Ġdavis": 25952,
    "board": 3564,
    "Ġlaughs": 24116,
    "Ġvoracity": 25986,
    "Ġinhabitant": 19754,
    "Ġfinishing": 23121,
    "Ġpersonified": 19177,
    "Ġpalace": 16690,
    "Ġcontingency": 26244,
    "Ġdiffused": 12066,
    "Ġfooting": 14482,
    "recklessly": 25269,
    "mission": 5969,
    "Ġferoc": 14896,
    "succeed": 10328,
    "Ġpots": 9427,
    "ength": 2313,
    "Ġhowever": 1305,
    "Ġgood": 1002,
    "Ġmembrane": 20502,
    "loving": 18537,
    "hearth": 15499,
    "Ġballs": 9014,
    "Ġuniversal": 2236,
    "ressing": 8918,
    "Ġcontrast": 2121,
    "Ġextended": 7921,
    "dia": 2138,
    "Ġinterpret": 5490,
    "murmured": 24455,
    "Ġevian": 24292,
    "Ġmadly": 16485,
    "Ġcoffee": 6760,
    "shutters": 20310,
    "merry": 16536,
    "Ġpromoting": 3162,
    "surv": 24213,
    "protest": 24815,
    "Ġhammock": 5768,
    "Ġpensive": 21473,
    "._": 3220,
    "Ġnobly": 22238,
    "Ġpatagon": 14502,
    "speed": 19407,
    "Ġscruples": 15077,
    "bottle": 20144,
    "Ġbetray": 7442,
    "Ġgerman": 6141,
    "Ġsat": 1132,
    "lutions": 20949,
    "covered": 11477,
    "Ġmagician": 25058,
    "Ġpractices": 19057,
    "tains": 10961,
    "Ġhalyards": 21491,
    "Ġstrings": 11827,
    "Ġwaterproof": 19088,
    "Ġphiladelphia": 26604,
    "Ġacquaint": 13042,
    "Ġregain": 22576,
    "ash": 1994,
    "Ġgrandfather": 19420,
    "Ġstandards": 19015,
    "Ġsits": 10768,
    "Ġstarry": 16923,
    "Ġporthole": 24399,
    "inclined": 10639,
    "betrayed": 24640,
    "Ġhereby": 10357,
    "enty": 2917,
    "Ġcombinations": 22835,
    "necessities": 24306,
    "Ġmelted": 19620,
    "camp": 15329,
    "icted": 5936,
    "Ġpassion": 4555,
    "ision": 1852,
    "ertain": 1205,
    "Ġbul": 3294,
    "anoke": 21359,
    "urned": 9305,
    "lucifer": 25301,
    "į": 240,
    "Ġscorched": 17101,
    "iastic": 12477,
    "pencil": 18827,
    "Ġrept": 13982,
    "Ġworsh": 12997,
    "Ġelix": 22641,
    "Ġusage": 9729,
    "movable": 14323,
    "direction": 17524,
    "rity": 13775,
    "Ġsubterraneous": 20264,
    "Ġbefitting": 15724,
    "stee": 21648,
    "Ġbid": 6131,
    "Ġfinanc": 23124,
    "companies": 24894,
    "itiously": 13870,
    "Åĵuv": 15181,
    "Ġgriefs": 16771,
    "Ġtit": 8398,
    "Ġjoyfully": 19344,
    "Ġhorsham": 10406,
    "olen": 9699,
    "Ġtraverse": 18891,
    "Ġvisibly": 22881,
    "atical": 10771,
    "ropes": 7902,
    "Ġdodo": 9072,
    "south": 8758,
    "Ġsolemnisation": 24113,
    "scap": 22982,
    "Ġcommitted": 7431,
    "Ġthinks": 6169,
    "ickering": 22667,
    "alth": 3256,
    "Ġpatronage": 17053,
    "Ġnews": 3818,
    "Ġpromised": 5181,
    "Ġrepaired": 13106,
    "marrying": 19546,
    "acters": 9308,
    "anc": 6379,
    "tallied": 21088,
    "Ġestablish": 9542,
    "Ġantiquities": 25598,
    "ceive": 3065,
    "Ġdiscourse": 9797,
    "itories": 15547,
    "yra": 8102,
    "eprints": 12789,
    "Ġshut": 3940,
    "having": 5211,
    "Ġdiggings": 24649,
    "Ġwidely": 8032,
    "oid": 3127,
    "Ġhappening": 14382,
    "Ġaccounts": 7207,
    "Ġplainly": 4381,
    "bits": 17488,
    "spl": 9139,
    "ainty": 21784,
    "Ġperfections": 23607,
    "Ġtax": 13815,
    "bey": 10313,
    "Ġremoving": 12114,
    "Ġstop": 2503,
    "hess": 4746,
    "Ġstash": 18067,
    "Ġluc": 3313,
    "ison": 3075,
    "Ġrises": 9712,
    "hello": 13362,
    "ething": 1606,
    "Ġgrate": 12961,
    "Ġbaboon": 19692,
    "bers": 2570,
    "Ġfundamental": 3013,
    "Ġwouldn": 6045,
    "Ġyield": 5093,
    "Ġlady": 1590,
    "Ġrooms": 5180,
    "punct": 20191,
    "ancholy": 5070,
    "Ġleak": 2164,
    "Ġdecisions": 6702,
    "Ġtags": 20570,
    "ising": 2257,
    "Ġbarricade": 14660,
    "hued": 20910,
    "Ġtransparen": 10541,
    "inous": 8771,
    "\"": 6,
    "alogue": 25159,
    "Ġagain": 812,
    "Ġgentle": 1890,
    "abb": 15737,
    "Ġmonosyllable": 20725,
    "Ġcot": 13876,
    "somebody": 14565,
    "zealand": 26054,
    "Ġrnns": 2395,
    "Ġgroan": 13323,
    "degrees": 22146,
    "Ġsailed": 4888,
    "Ġbegged": 8230,
    "cra": 6354,
    "countenances": 24151,
    "Ġinconceivable": 17937,
    "hunting": 24385,
    "Ġnur": 5710,
    "Ġlearnt": 7613,
    "disguise": 26306,
    "erest": 10697,
    "james": 15371,
    "Ġbathing": 20198,
    "ribs": 23363,
    "Ġeulogy": 26470,
    "Ġworshipper": 25692,
    "Ġirreducible": 5519,
    "Ġhel": 3785,
    "Ġslack": 8955,
    "Ġgrudge": 20692,
    "Ġsuffice": 18868,
    "Ġenhancement": 23767,
    "varied": 23181,
    "Ġsuppress": 13017,
    "Ġhurrah": 9868,
    "hopes": 15368,
    "Ġresults": 7308,
    "beautiful": 10648,
    "Ġinvesting": 19645,
    "Ġhazarded": 25654,
    "Ġvexations": 24609,
    "Ġhypotheses": 4386,
    "rents": 5308,
    "iel": 11493,
    "oried": 10802,
    "Ġlab": 1871,
    "Ġtasted": 12526,
    "Ġsweet": 3466,
    "month": 6463,
    "Ġmeasurement": 19421,
    "tent": 21063,
    "Ġroof": 6564,
    "5": 25,
    "Ġbargain": 23791,
    "Ġgreek": 10631,
    "structure": 2502,
    "Ġbase": 5013,
    "stop": 11634,
    "ool": 17618,
    "Ġgracechurch": 12196,
    "Ġ36": 14766,
    "Ġpretty": 3859,
    "tout": 21064,
    "Ġcommunicated": 9061,
    "lashed": 20953,
    "Ġcologne": 12972,
    "specimen": 26605,
    "Ġreligions": 20106,
    "j": 78,
    "Ġdespair": 4009,
    "unless": 9234,
    "Ġvoyage": 3055,
    "Ġaccounted": 10294,
    "rigible": 24931,
    "Ġenglishmen": 19428,
    "Ġshoots": 14568,
    "erson": 7002,
    "Ġphysiognomy": 25610,
    "Ġcasked": 24497,
    "Ġblasted": 7936,
    "Ġprincely": 24148,
    "Ġcop": 7580,
    "Ġcurved": 18856,
    "mush": 20976,
    "qual": 8155,
    "Ġmaggie": 26291,
    "Ġtortoise": 16908,
    "Ġcoverage": 4287,
    "tol": 17672,
    "Ġtwinkled": 14311,
    "itect": 971,
    "leaves": 12575,
    "Ġdaybreak": 18726,
    "Ġdoub": 1836,
    "following": 10572,
    "Ġdoubly": 16386,
    "Ġdictate": 20150,
    "igated": 15705,
    "hinting": 17569,
    "ented": 4348,
    "whose": 6852,
    "Ġgardiners": 11157,
    "Ġdesc": 773,
    "Ġpreposter": 12819,
    "rous": 3750,
    "ught": 2752,
    "loat": 8886,
    "Ġclosed": 4603,
    "Ġnotice": 4541,
    "ounts": 4650,
    "ues": 2081,
    "Ġthenceforth": 25182,
    "Ġreturns": 11924,
    "drown": 13703,
    "probable": 17021,
    "Ġrobustness": 18878,
    "uvian": 12240,
    "dock": 16418,
    "Ġbewil": 11656,
    "Ġunb": 10907,
    "impressed": 12688,
    "Ġvine": 8471,
    "atics": 15522,
    "Ġdemon": 7868,
    "achus": 18282,
    "fedallah": 25522,
    "Ġpaces": 13918,
    "Ġtuesday": 9626,
    "Ġswaying": 15046,
    "Ġescape": 2650,
    "Ġprofane": 13151,
    "Ġfainting": 16897,
    "avers": 17480,
    "Ġwoes": 23983,
    "boast": 23250,
    "Ġfaintness": 24570,
    "ically": 855,
    "ineffectual": 26504,
    "Ġplying": 17913,
    "ptic": 21915,
    "Ġwaning": 15533,
    "date": 17517,
    "Ġvehicle": 20137,
    "Ġcentrally": 23829,
    "tracks": 19637,
    "Ġwit": 3840,
    "Ġvane": 22870,
    "mentioned": 10623,
    "rical": 11518,
    "Ġserious": 4321,
    "lege": 17841,
    "imag": 6990,
    "Ġhigh": 932,
    "Ġdream": 3537,
    "decl": 8856,
    "ribbed": 16412,
    "Ġgripping": 26186,
    "Ġnick": 21520,
    "Ġclapham": 17265,
    "educ": 10828,
    "Ġverdant": 15002,
    "Ġlucases": 9009,
    "Ġthief": 11609,
    "despairing": 25074,
    "oided": 11508,
    "Ġvisible": 4776,
    "liter": 11501,
    "Ġcritics": 23443,
    "ele": 9114,
    "osh": 18388,
    "Ġnineveh": 13388,
    "Ġeigen": 4880,
    "Ġsnodhead": 19300,
    "Ġmob": 16016,
    "Ġtarpaul": 17730,
    "brim": 23574,
    "smug": 23905,
    "Ġhighest": 3528,
    "Ġinitialization": 1250,
    "Ġhasty": 10477,
    "remember": 7262,
    "accident": 11181,
    "Ġaloud": 6252,
    "Ġcarpet": 9355,
    "flag": 14710,
    "Ġcock": 10999,
    "Ġtranquo": 14842,
    "Ġfallen": 5967,
    "inburgh": 15490,
    "verize": 21725,
    "Ġshape": 5639,
    "Ġberm": 21381,
    "Ġcler": 11768,
    "visited": 13346,
    "Ġliterature": 17148,
    "Ġsl": 1498,
    "Ġcompact": 2265,
    "ustom": 3788,
    "tram": 19634,
    "wail": 21124,
    "design": 18959,
    ",_": 11462,
    "Ġquarto": 17295,
    "Ġgamesome": 17289,
    "Ġhardship": 18913,
    "Ġsets": 8773,
    "Ġrejection": 19982,
    "Ġmenaced": 16292,
    "desc": 1393,
    "Ġraising": 8909,
    "Ġheaving": 7601,
    "abling": 1075,
    "inspector": 13645,
    "interchange": 23736,
    "tawn": 21079,
    "stupid": 12673,
    "âĢĿâĢĶ": 5721,
    "Ġwhirlwinds": 20463,
    "Ġstrife": 18612,
    "lead": 10165,
    "Ġolfactories": 26171,
    "Ġnearest": 8469,
    "Ġmogul": 12859,
    "Ġtrump": 8196,
    "Ġanswered": 2853,
    "Ġsingers": 23770,
    "Ġsilken": 16381,
    "Ġbrist": 14377,
    "Ġdecomposes": 5506,
    "Ġtones": 8399,
    "Ġintrude": 25990,
    "Ġocc": 886,
    "astonished": 15032,
    "uv": 6229,
    "my": 1317,
    "Ġfringe": 17271,
    "seemingly": 25362,
    "Ġfreshly": 23984,
    "stepfather": 19190,
    "giana": 7800,
    "Ġrights": 10396,
    "fowl": 17549,
    "Ġdecl": 3588,
    "Ġpenetrate": 12267,
    "Ġarcher": 22187,
    "gather": 20874,
    "Ġvit": 10245,
    "Ġshadows": 8012,
    "Ġstrainings": 24627,
    "Ġgrizzled": 11450,
    "Ġdeity": 18137,
    "personal": 24963,
    "Ġdisown": 22521,
    "Ġheaped": 18037,
    "infall": 21187,
    "thinness": 25810,
    "tornadoes": 26153,
    "ĠĠĠĠĠĠĠĠĠĠĠĠĠĠĠĠĠĠĠĠĠĠĠĠĠĠĠĠĠĠĠĠĠĠĠĠĠĠĠ": 19258,
    "Ġperturbed": 20438,
    "everywhere": 23696,
    "Ġhorizontally": 17012,
    "abated": 14019,
    "lue": 8508,
    "Ġoffspring": 16144,
    "vint": 21113,
    "abern": 21787,
    "Ġinvari": 6529,
    "Ġunderwent": 23238,
    "adel": 15727,
    "Ġminimizes": 2047,
    "ear": 8730,
    "Ġdiana": 21434,
    "Ġsurmises": 17056,
    "Ġscandalous": 24879,
    "Ġreproof": 24890,
    "Ġmove": 5107,
    "Ġmaid": 5285,
    "Ġclenched": 14203,
    "Ġfron": 14487,
    "eration": 10772,
    "Ġframe": 1962,
    "hideous": 25407,
    "overcoat": 19053,
    "Ġconfirmation": 17210,
    "algorith": 3756,
    "Ġthirteen": 15273,
    "Ġ=": 1070,
    "ĠĠĠĠĠĠĠĠĠĠĠĠĠĠĠĠĠĠĠĠĠĠĠĠĠĠĠĠĠĠĠĠĠ": 12041,
    "Ġneutral": 12738,
    "Ġlogical": 14486,
    "Ġann": 4488,
    "Ġpipeline": 2385,
    "Ġspouting": 9438,
    "Ġneighbourhood": 5126,
    "uzz": 4522,
    "Ġtrust": 4077,
    "Ġhos": 4941,
    "Ġdod": 6672,
    "marks": 7346,
    "relation": 19445,
    "cloud": 11106,
    "Ġoverwhelmed": 11403,
    "Ġwitnesses": 9485,
    "Ġreverence": 12057,
    "Ġmists": 14630,
    "Ġutter": 3974,
    "Ġwood": 2292,
    "inct": 3293,
    "Ġheeds": 24520,
    "Ġpubl": 3938,
    "Ġdescription": 7429,
    "inctions": 17732,
    "Ġsmite": 22554,
    "Ġlabor": 10418,
    "head": 1434,
    "Ġskulls": 12957,
    "pitching": 24073,
    "Ġsung": 23270,
    "row": 1064,
    "Ġdescribing": 19253,
    "Ġsensationalism": 26067,
    "Ġsovereign": 10061,
    "Ġmizzen": 20288,
    "Ġflitting": 13023,
    "sterdam": 19089,
    "Ġpreparation": 13528,
    "Ġdif": 870,
    "Ġreflecting": 24751,
    "ened": 1388,
    "Ġperceiving": 8875,
    "rief": 6202,
    "Ġ12": 5483,
    "Ġimpropriety": 17395,
    "Ġ14": 9322,
    "Ġnostrils": 10943,
    "Ġterritories": 23843,
    "ê": 171,
    "consol": 9761,
    "Ġflaming": 8563,
    "aye": 3657,
    "Ġslides": 18938,
    "Ġwithhold": 18111,
    "Ġsignifies": 19204,
    "Ġriverside": 25247,
    "Ġofficious": 19346,
    "bulk": 19923,
    "Ġlongitude": 11011,
    "ĠâĢĺ": 1635,
    "reduc": 5459,
    "Ġunwritten": 22031,
    "Ġsend": 4106,
    "ird": 2429,
    "Ġalfred": 21783,
    "ification": 1014,
    "Ġarctic": 12809,
    "Ġdisgusted": 14989,
    "ecess": 17532,
    "Ġyet": 1029,
    "Ġspare": 5102,
    "aceti": 7111,
    "Ġoctavo": 15162,
    "Ã¦us": 14816,
    "pall": 17628,
    "Ġstray": 18069,
    "Ġdespondence": 25869,
    "loath": 22505,
    "Ġexceptionable": 25503,
    "que": 1088,
    "icilian": 20690,
    "longbourn": 9894,
    "Ġdressing": 7090,
    "Ġchowder": 10280,
    "portent": 25412,
    "Ġincred": 5646,
    "Ġwhatsoever": 18460,
    "athies": 22697,
    "Ġexplanation": 6692,
    "Ġdrops": 9032,
    "Ġshower": 11708,
    "Ġneskyeuna": 26459,
    "Ġtallest": 15474,
    "touching": 15090,
    "cious": 6643,
    "Ġidol": 7467,
    "Ġviv": 6156,
    "ommod": 13976,
    "haps": 1673,
    "ims": 7176,
    "Ġviciously": 24404,
    "ittered": 18439,
    "inst": 4294,
    "Ġplentiful": 12908,
    "Ġnods": 19064,
    "grass": 23411,
    "wedding": 13370,
    "eteenth": 20156,
    "Ġmalacca": 24393,
    "Ġdid": 835,
    "Ġinde": 7371,
    "Ġol": 17814,
    "Ġcensure": 15094,
    "Ġconfused": 7963,
    "oss": 10115,
    "Ġrather": 1495,
    "walks": 19720,
    "Ġabound": 8863,
    "ĠĠĠĠĠĠĠĠĠĠĠĠĠĠĠĠĠĠĠĠĠĠĠĠĠĠĠĠĠĠĠ": 19699,
    "melted": 25206,
    "flaming": 23967,
    "Ġpalsy": 25778,
    "ieged": 22575,
    "Ġimprudently": 22394,
    "Ġinterlacing": 22573,
    "ateral": 19375,
    "Ġpanel": 13371,
    "illings": 14142,
    "Ġfitted": 6243,
    "performed": 18341,
    "Ġsweetest": 13245,
    "Ġfairness": 9892,
    "Ġclearing": 8239,
    "netherfield": 9812,
    "adamite": 20591,
    "Ġtiles": 17726,
    "Ġglad": 3328,
    "Ġpresumption": 10545,
    "Ġraise": 6166,
    "Ġspaces": 3111,
    "Ġpitches": 23899,
    "Ġinfants": 16363,
    "Ġaccompanying": 11304,
    "Ġill": 2194,
    "rative": 17652,
    "Ġview": 2762,
    "Ġidentity": 2525,
    "alt": 12635,
    "Ġsources": 10147,
    "ac": 741,
    "Ġ]": 15459,
    "dug": 18462,
    "Ġcro": 4872,
    "horrible": 14600,
    "rear": 21231,
    "presumption": 20440,
    "credit": 12446,
    "allers": 22194,
    "Ġpoliceman": 15257,
    "tier": 12512,
    "ersed": 10259,
    "ove": 1744,
    "poled": 22905,
    "Ġinsens": 8276,
    "labours": 16617,
    "northern": 23666,
    "ushes": 22288,
    "balls": 12303,
    "ignorant": 13562,
    "unken": 10236,
    "hel": 4813,
    "Ġsenor": 20149,
    "Ġbrawn": 10481,
    "Ġfilling": 13407,
    "Ġtet": 21156,
    "Ġnative": 4640,
    "Ġhourly": 23298,
    "Ġnotes": 7189,
    "Ġdeadly": 5405,
    "roots": 15641,
    "Ġfow": 6133,
    "ë": 172,
    "Ġinferior": 8365,
    "Ġfocuses": 8649,
    "Ġimages": 1605,
    "ris": 9137,
    "provoke": 26071,
    "Ġlexic": 15722,
    "Ġgrammars": 11402,
    "Ġclinging": 10291,
    "Ġatrocious": 21940,
    "Ġboscombe": 8325,
    "ruff": 15894,
    "Ġpolished": 11182,
    "iogn": 20920,
    "Ġnewcom": 16221,
    "Ġforgive": 8009,
    "Ġlap": 8436,
    "ellest": 21571,
    "Ġpri": 5813,
    "ingley": 1547,
    "gaze": 17557,
    "Ġpostponed": 20388,
    "Ġending": 18189,
    "habit": 16189,
    "Ġsob": 12780,
    "Ġelig": 9777,
    "sartain": 25622,
    "Ġunfl": 22017,
    "Ġwrit": 8241,
    "Ġsequel": 14356,
    "lan": 15376,
    "Ġimpudence": 26241,
    "Ġhercules": 14127,
    "presence": 18496,
    "Ġmorsel": 20676,
    "enter": 7857,
    "Ġresented": 22540,
    "Ġcrawl": 11375,
    "mselves": 2864,
    "oppressed": 24824,
    "Ġdy": 2645,
    "Ġharness": 17927,
    "Ġhessian": 3547,
    "Ġnuptial": 25782,
    "spark": 18689,
    "Ġsmitten": 12896,
    "Ġdowncast": 18652,
    "Ġmeantime": 6206,
    "idled": 21765,
    "pale": 13771,
    "Ġplata": 25117,
    "strangers": 20335,
    "Ġcomple": 2842,
    "Ġtimidity": 24687,
    "Ġ132": 19895,
    "Ġfeeding": 7971,
    "Ġsupremacy": 20259,
    "Ġconsecrated": 26488,
    "Ġeconomical": 25287,
    "Ġmamma": 10047,
    "Ġcharcoal": 19006,
    "Ġsaxe": 13627,
    "Ġhumour": 7931,
    "?_âĢĿ": 12314,
    "inching": 21188,
    "overhearing": 19054,
    "tain": 557,
    "Ġwines": 21286,
    "tch": 9141,
    "everlasting": 18770,
    "astes": 11737,
    "Ġbravest": 23838,
    "Ġroad": 3879,
    "shame": 16020,
    "Ġconception": 10321,
    "Ġmainz": 22651,
    "Ġsaturn": 22900,
    "canoes": 16229,
    "Ġslopes": 18940,
    "Ġhearers": 15701,
    "Ġeaves": 15674,
    "mar": 4335,
    "utility": 21584,
    "Ġgenerator": 3383,
    "Ġfoot": 3163,
    "pine": 13768,
    "estruct": 22220,
    "Ġcordon": 24394,
    "replied": 11565,
    "ins": 1378,
    "Ġdrawled": 23986,
    "Ġfacet": 15583,
    "iece": 3229,
    "Ġeddy": 13122,
    "Ġlaborious": 13102,
    "Ġtablets": 13154,
    "unbounded": 21882,
    "Ġlounging": 10021,
    "Ġrecommence": 16812,
    "Ġbowing": 10475,
    "place": 4153,
    "Ġquadrant": 11404,
    "Ġassurance": 7774,
    "violets": 23543,
    "Ġeach": 891,
    "Ġcleaning": 23177,
    "Ġassuredly": 14821,
    "cri": 17505,
    "Ġnaught": 8127,
    "Ġcand": 3277,
    "Ġerror": 1767,
    "aze": 10074,
    "saying": 8640,
    "Ġrib": 4935,
    "Ġaccess": 9746,
    "ifted": 4493,
    "Ġhint": 5016,
    "Ġob": 861,
    "sum": 2088,
    "Ġpostscript": 14807,
    "ersampling": 18216,
    "smallest": 23909,
    "twinkle": 23701,
    "Ġlists": 11166,
    "Ġinhaled": 25451,
    "abond": 15739,
    "count": 4212,
    "Ġfluid": 11212,
    "Ġlabyrin": 13103,
    "promontory": 24728,
    "Ġeuropean": 20044,
    "Ġpal": 4039,
    "Ġboots": 5943,
    "Ġblotches": 25314,
    "Ġhero": 5715,
    "peril": 18339,
    "Ġrepine": 16410,
    "Ĉ": 201,
    "question": 5418,
    "Ġlayers": 815,
    "Ġsomething": 1795,
    "formed": 2554,
    "Ġtra": 1384,
    "Ġwavering": 23277,
    "Ġserviceable": 24718,
    "Ġceler": 15549,
    "Ġanat": 8123,
    "Ġindies": 22948,
    "Ġrapturously": 24888,
    "Ġsundial": 15081,
    "Ġsne": 6372,
    "ospit": 22260,
    "Ġledger": 19400,
    "Ġberyl": 20488,
    "Ġshake": 6033,
    "opic": 22473,
    "quin": 21845,
    "manned": 18761,
    "discovered": 8324,
    "Ġproperty": 6450,
    "harpo": 4804,
    "Ġsaucer": 20604,
    "Ġrabb": 4162,
    "Ġshamefully": 24716,
    "expl": 9282,
    "stolidity": 21660,
    "Ġprophesied": 26062,
    "Ġharvest": 13414,
    "Ġdefection": 22939,
    "arranted": 19319,
    "Ġirrespective": 23373,
    "Ġflooded": 24959,
    "Ġmoose": 22428,
    "hab": 1074,
    "Ġbreeding": 14520,
    "Ġtiger": 11554,
    "Ġladder": 8598,
    "Ġnurtured": 19748,
    "Ġnantucket": 2840,
    "Ġconce": 3423,
    "or": 282,
    "Ġprint": 18971,
    "Ġmasterless": 23992,
    "ientific": 6547,
    "andam": 10888,
    "Ġsaved": 6690,
    "Ġmanner": 2197,
    "edmund": 17945,
    "Ġpetersburgh": 24228,
    "Ġsolicited": 20035,
    "Ġshipw": 12975,
    "crack": 19839,
    "Ġenclosure": 20622,
    "Ġenjoyment": 7300,
    "Ġsubsided": 14551,
    "Ġdesolate": 10012,
    "Ġenvied": 19309,
    "eronomy": 15524,
    "Ġsanction": 20024,
    "upset": 23016,
    "Ġplunged": 8692,
    "Ġcried": 1487,
    "Ġwarehouses": 20416,
    "hered": 5623,
    "Ġmayhap": 18711,
    "Ġbrooding": 18907,
    "Ġreal": 1638,
    "Ġdedication": 2810,
    "Ġtreachery": 15100,
    "prep": 9758,
    "wherever": 13117,
    "pleased": 8853,
    "Ġinsignificance": 20456,
    "Ġtainted": 21169,
    "linging": 16077,
    "Ġineffect": 13929,
    "Ġveteran": 17449,
    "iences": 6957,
    "Ġdeeds": 15757,
    "Ġpolynesian": 26026,
    "Ġsherry": 19449,
    "whew": 22865,
    "Ġluckily": 16798,
    "eer": 15346,
    "ane": 1177,
    "Ġparliament": 18302,
    "Ġsorrowful": 10536,
    "Ġplowdon": 26447,
    "Ġworthless": 19564,
    "Ġmoss": 9283,
    "Ġhumming": 12982,
    "bows": 10081,
    "unbe": 21869,
    "Ġperiod": 4003,
    "Ġharder": 14448,
    "ication": 968,
    "smoke": 17222,
    "Ġhardened": 14449,
    "ago": 14064,
    "Ġfurnace": 19438,
    "Ġentire": 2559,
    "Ġbelow": 4059,
    "Ġpremature": 3723,
    "nowhere": 18418,
    "Ġdutch": 6327,
    "Ġencompassed": 15252,
    "Ġclaw": 22344,
    "Ġstreaked": 19113,
    "Ġunerringly": 18265,
    "Ġapproving": 18507,
    "rap": 21625,
    "Ġdus": 8422,
    "Ġjourneys": 19473,
    "ĠĠĠĠĠĠ": 6414,
    "affording": 23776,
    "Ġbeneficial": 23929,
    "Ġamounts": 6704,
    "Ġpatagonia": 25857,
    "gence": 875,
    "bourine": 9395,
    "Ġmon": 1248,
    "Ġiroqu": 21621,
    "Ġcoasts": 12161,
    "Ġslaughter": 20729,
    "Ġecon": 9677,
    "Ġharpoone": 2912,
    "Ġhorrify": 23816,
    "Ġdreading": 23797,
    "Ġ24": 13190,
    "Ġgest": 8133,
    "Ġkne": 4266,
    "Ġneedle": 8274,
    "Ġbenediction": 18786,
    "Ġheightens": 24154,
    "Ġwharves": 13505,
    "iards": 17574,
    "Ġrash": 10898,
    "Ġmace": 21308,
    "Ġnois": 4267,
    "Ġuntimely": 16467,
    "redible": 15803,
    "strongly": 24684,
    "Ġpermit": 9748,
    "Ġclipping": 2442,
    "Ġvacantly": 16815,
    "Ġsnowy": 9017,
    "Ġcontrari": 23347,
    "uy": 21098,
    "Ġchristians": 13307,
    "Ġinspecting": 24613,
    "apable": 6422,
    "shrouded": 26361,
    "Ġalliance": 18235,
    "weekly": 25684,
    "hogs": 20080,
    "answered": 10273,
    "Ġdecided": 5471,
    "Ġlabyrinth": 13678,
    "Ġprincipally": 11309,
    "kye": 20937,
    "grampus": 18617,
    "Ġwarm": 2427,
    "iguous": 18044,
    "advent": 10220,
    "disappointment": 11425,
    "Ġdug": 21428,
    "Ġgree": 7595,
    "Ġtwelfth": 22675,
    "Ġdepresses": 25797,
    "beam": 16038,
    "pute": 8844,
    "Ġvig": 5460,
    "Ġmicrosc": 20675,
    "Ġlanc": 19763,
    "Ġlandsman": 11350,
    "hamlet": 23260,
    "Ġhurry": 4912,
    "Ġthoughtfully": 12976,
    "âĢľ": 344,
    "Ġresearch": 3217,
    "Ġfleecy": 17023,
    "Ġclimb": 15078,
    "wait": 11320,
    "Ġproved": 4883,
    "Ġinclu": 1100,
    "enorm": 17781,
    "Ġplaced": 3445,
    "Ġachieved": 13165,
    "Ġsaint": 15507,
    "opposing": 24825,
    "Ġduplicates": 17216,
    "Ġheaviest": 23322,
    "Ġdisregarded": 22527,
    "Ġscandinav": 19959,
    "Ġextreme": 2516,
    "Ġenemy": 5605,
    "rr": 17650,
    "âĢĶâĢľ": 2969,
    "Ġvanishing": 1346,
    "irect": 5553,
    "Ġfeatureless": 22606,
    "goldsmith": 20146,
    "ative": 739,
    "Ġplaintiffs": 13608,
    "Ġundoing": 22032,
    "ainted": 3656,
    "Ġsalary": 13292,
    "Ġspy": 22120,
    "ificial": 608,
    "esty": 4305,
    "Ġexhaustion": 14960,
    "Ġturning": 3329,
    "upp": 10130,
    "Ġpersonal": 7480,
    "ĠâĢľâĢĺ": 8503,
    "irr": 12734,
    "Ġdimensions": 16571,
    "Ġwreath": 25936,
    "devouring": 24950,
    "Ġpeaceable": 14722,
    "ropout": 1321,
    "allest": 5485,
    "Ġsymph": 22204,
    "#": 7,
    "Ġchemist": 11134,
    "Ġcallest": 17832,
    "sli": 11522,
    "keys": 15857,
    "Ġsweeter": 23915,
    "Ġfanc": 6743,
    "get": 1021,
    "Ġpromises": 10400,
    "Ġsquat": 14366,
    "Ġcoll": 8220,
    "Ġlandau": 16419,
    "Ġextras": 22714,
    "Ġmotives": 7487,
    "Ġburg": 23653,
    "Ġmans": 15535,
    "Ġwh": 328,
    "Ġcasks": 7522,
    "Ġperceptibly": 25820,
    ".âĢĻ": 1718,
    "ez": 5683,
    "stream": 15685,
    "Ġsa": 474,
    "Ġhoisting": 9861,
    "Ġpositive": 2297,
    "Ġfashioned": 13319,
    "Ġgeneralize": 3101,
    "conceal": 25114,
    "Ġphiladel": 23883,
    "aint": 2542,
    "Ġevenness": 22831,
    "Ġinterpreter": 23213,
    "susceptible": 24661,
    "Ġeluc": 16107,
    "Ġantilles": 24179,
    "Ġchival": 14182,
    "Ġunivers": 2128,
    "ĠlinnÃ¦us": 15274,
    "erness": 6434,
    "itic": 11577,
    "Ġapologizing": 25197,
    "Ġambiguous": 20163,
    "Ġhealth": 3902,
    "anged": 3586,
    "destroyed": 15259,
    "Ġjot": 11761,
    "thomas": 18219,
    "Ġredness": 19311,
    "Ġeber": 18003,
    "stein": 5505,
    "depart": 12263,
    "breaths": 25336,
    "Ġahab": 1213,
    "task": 13792,
    "Ġmisunderstood": 18705,
    "Ġyard": 5920,
    "Ġharbors": 24901,
    "warmest": 25027,
    "Ġgre": 1587,
    "Ġoptimizer": 5035,
    "Ġimitation": 22168,
    "Ġfinish": 7948,
    "Ġloafer": 18299,
    "Ġsuccessive": 10500,
    "whales": 5187,
    "Ġdeferred": 18825,
    "Ġoaths": 13523,
    "anything": 5518,
    "allah": 5838,
    "Ġdampening": 2897,
    "Ġmistress": 8611,
    "Ġcottagers": 6761,
    "Ġmistaking": 23716,
    "avoiding": 25236,
    "Ġrenewal": 12232,
    "rated": 6227,
    "eth": 622,
    "voyages": 24855,
    "Ġextra": 4053,
    "Ġcous": 3438,
    "Ġgrasp": 4663,
    "Ġsuperglue": 23456,
    "Ġhundreds": 4327,
    "lotte": 3333,
    "Ġintellectual": 11401,
    "sledge": 21056,
    "covering": 15333,
    "Ġbeholding": 8668,
    "Ġinnocence": 6477,
    "Ġcane": 10927,
    ",": 16,
    "arranged": 19318,
    "ading": 5091,
    "heim": 17746,
    "Ġforg": 3786,
    "Ġforbe": 8457,
    "Ġcups": 16882,
    "semicirc": 26491,
    "Ġcompatibility": 2958,
    "hunt": 20902,
    "screaming": 20324,
    "heat": 15497,
    "Ġgladly": 14681,
    "Ġimpatiently": 8337,
    "Ġtypically": 1536,
    "Ġscan": 22276,
    "produced": 25414,
    "Ġsomewhere": 5384,
    "intended": 11066,
    "Ġexpedition": 10634,
    "shaw": 6864,
    "Ġmad": 2428,
    "Ġsuggests": 12198,
    "asion": 5714,
    "seam": 10874,
    "Ġvehic": 8933,
    "Ġencoun": 4510,
    "zes": 11548,
    "Ġregarding": 13209,
    "vessel": 11377,
    "Ġlan": 5820,
    "Ġits": 706,
    "gent": 7129,
    "77": 15299,
    "irium": 8161,
    "Ġslanting": 23167,
    "Ġcomrade": 12281,
    "Ġcurses": 13020,
    "Ġensemble": 1614,
    "tackle": 17320,
    "Ġclasses": 4052,
    "Ġinstance": 2545,
    "Ġrestore": 9379,
    "lasting": 8010,
    "Ġsoftmax": 1690,
    "ipotence": 22352,
    "Ġcrawled": 17044,
    "owe": 15706,
    "Ġloitering": 22113,
    "cord": 8723,
    "itters": 10781,
    "Ġincorpor": 13164,
    "weaknesses": 26030,
    "Ã¦st": 24175,
    "Ġobtruded": 20721,
    "Ġtackles": 8050,
    "Ġforesaw": 19127,
    "Ġscorch": 20065,
    "aired": 8368,
    "Ġmeas": 1096,
    "Ġcetacea": 20552,
    "happy": 4424,
    "once": 5903,
    "Ġisa": 14024,
    "roll": 9196,
    "Ġbow": 3062,
    "getting": 12964,
    "Ġjavelins": 26105,
    "Į": 239,
    "Ġgloves": 8574,
    "Ġsprinkled": 19495,
    "Ġconvolutions": 21804,
    "fancy": 7337,
    "incing": 15485,
    "oquence": 11386,
    "Ġinsular": 19267,
    "Ġtidy": 17093,
    "Ġfris": 23253,
    "Ġenthr": 22744,
    "Ġimpotently": 22398,
    "bond": 17489,
    "Ġconveys": 16855,
    "Ġcalcul": 3635,
    "Ġyear": 3286,
    "Ġfleets": 23773,
    "distance": 12150,
    "anatory": 21361,
    "nect": 664,
    "bucket": 17493,
    "Ġwhitting": 18055,
    "Ġsunny": 13084,
    "ientiously": 21938,
    "sent": 760,
    "Ġheavens": 5050,
    "Ġthousand": 2782,
    "Ġcrisp": 12001,
    "Ġdisappointing": 19578,
    "Ġunhallowed": 17180,
    "Ġcruel": 5121,
    "Ġdum": 10811,
    "Ġprophecy": 25706,
    "Ġstroke": 6936,
    "barr": 15319,
    "Ġtalk": 1971,
    "Ġeleventh": 23367,
    "Ġcommanded": 6330,
    "Ġprogramming": 1182,
    "fulfil": 16036,
    "Ġgeese": 7694,
    "rippling": 24714,
    "ahead": 12432,
    "Ġdared": 5440,
    "Ġheire": 18036,
    "Ġdiscussion": 17194,
    "conquerable": 17398,
    "icirc": 15654,
    "cils": 20813,
    "ier": 1136,
    "Ġswe": 2290,
    "iating": 3206,
    "teringly": 21820,
    "Ġrheumatic": 20704,
    "Ġfaced": 10808,
    "Ġquill": 12854,
    "inglass": 21301,
    "Ġfeathers": 15118,
    "Ġwhistle": 9065,
    "beloved": 19459,
    "visitors": 13347,
    "expressive": 24305,
    "Ġargemone": 24274,
    "Ġprobed": 18733,
    "Ġaxis": 12305,
    "Ġadded": 2719,
    "advanced": 19587,
    "Ġinterview": 9769,
    "Ġdirected": 5579,
    "morrow": 4571,
    "ingolstadt": 21302,
    "down": 3469,
    "dog": 10692,
    "marriage": 7744,
    "Ġanticip": 7508,
    "persecutor": 26529,
    "weave": 22682,
    "excitement": 19668,
    "Ġunquestion": 18248,
    "veh": 12676,
    "convalescence": 24884,
    "Ġawfulness": 23586,
    "Ġmischie": 22757,
    "Ġmeat": 8151,
    "Ġdoing": 3658,
    "Ġmould": 6519,
    "ļ": 253,
    "Ġloudly": 7312,
    "Ġcontrasting": 11154,
    "unted": 6998,
    "Ġthen": 667,
    "))": 1516,
    "spoke": 11024,
    "ull": 1430,
    "Ġincessant": 15096,
    "ĠĠĠĠĠĠĠĠĠĠĠĠĠĠĠĠĠĠĠĠĠĠĠ": 18831,
    "ales": 3319,
    "Ġphilosop": 5057,
    "Ġinstruct": 2866,
    "ella": 12746,
    "Ġindisposed": 26287,
    "21": 10071,
    "inquiries": 13576,
    "idity": 8830,
    "coloured": 7291,
    "Ġ183": 13236,
    "vanished": 15060,
    "ression": 3406,
    "Ġsquire": 16180,
    "Ġfrosted": 19802,
    "ition": 653,
    "Ġtaffrail": 15476,
    "ection": 4947,
    "Ġxxxi": 24966,
    "exam": 10976,
    "atters": 18491,
    "Ġprying": 15607,
    "Ġfellow": 2777,
    "arest": 4004,
    "ome": 535,
    "heartily": 24215,
    "quee": 4128,
    "nne": 20988,
    "itations": 17817,
    "Ġsupre": 10269,
    "ar": 285,
    "ē": 212,
    "ondescript": 22913,
    "Ġfurther": 1053,
    "angs": 5833,
    "hullo": 17570,
    "chancing": 22919,
    "Ġcapital": 7979,
    "bly": 6110,
    "Ġsinking": 7307,
    "Ġsultan": 15183,
    "Ġflourished": 15124,
    "Ġentry": 11026,
    "christ": 10210,
    "arer": 3968,
    "oubted": 5859,
    "bring": 9104,
    "Ġcocksure": 26258,
    "traced": 19636,
    "Ġbrawny": 13612,
    "Ġpuzzled": 7317,
    "igation": 5917,
    "Ġ21": 11199,
    "hereafter": 19216,
    "licted": 20955,
    "Ġmort": 3460,
    "Ġdistressing": 12216,
    "arus": 13911,
    "Ġskilfully": 20522,
    "Ġexposes": 22622,
    "Ġwedded": 16674,
    "Ġcalculate": 13262,
    "eel": 11483,
    "Ġjung": 12833,
    "Ġmott": 17803,
    "Ġlaug": 3625,
    "cottage": 9569,
    "Ġactive": 7914,
    "Ġisles": 8459,
    "Ġenjoined": 18191,
    "masterly": 24530,
    "befriend": 22489,
    "Ġsemantic": 1959,
    "Ġbumps": 21390,
    "Ġblanched": 26282,
    "Ġaltitude": 26202,
    "Ġstrides": 22611,
    "Ġwoollen": 12101,
    "Ġpreser": 6040,
    "Ġteacup": 16200,
    "ifications": 9728,
    "Ġcaps": 8414,
    "Ġhim": 475,
    "Ġswallowed": 7943,
    "Ġweary": 5635,
    "Ġminutely": 14561,
    "Ġstr": 756,
    "Ġrevel": 9214,
    "afer": 17481,
    "Ġhousemaid": 14463,
    "Ġencircling": 26271,
    "Ġenticing": 22743,
    "reast": 17758,
    "Ġtons": 11549,
    "Ġswarm": 23051,
    "Ġconditions": 8306,
    "Ġund": 4117,
    "Ġelbowed": 16108,
    "Ġadmeasure": 18293,
    "ums": 10272,
    "Ġattention": 1169,
    "Ġbeale": 12696,
    "Ġweighty": 16031,
    "Ġhearsed": 25039,
    "Ġsymb": 2591,
    "Ġtrappers": 23078,
    "+": 15,
    "Ġalmost": 1659,
    "Ġincensed": 18571,
    "Ġpremises": 10487,
    "erted": 7361,
    "ee": 1662,
    "cock": 12024,
    "Ġ200": 19294,
    "hens": 3935,
    "rious": 11687,
    "rene": 5379,
    "Ġmillar": 13860,
    "baggage": 24926,
    "hammered": 19003,
    "Ġorigin": 4118,
    "gd": 3125,
    "Ġdiab": 10611,
    "levelled": 23645,
    "Ġstarts": 16582,
    "Ġinstances": 5568,
    "Ġreckoned": 24744,
    "Ġinjection": 3467,
    "Ġrecollection": 6620,
    "Ġ[\"": 19929,
    "Ġquadrille": 13540,
    "ectual": 21912,
    "hours": 9124,
    "Ġtemporary": 7980,
    "dies": 15337,
    "Ġglimmered": 20170,
    "Ġexclam": 6757,
    "Ġsimon": 5172,
    "Ġcakes": 13883,
    "Ġshipwreck": 20444,
    "Ġpemberley": 4587,
    "Ġplants": 22595,
    "Ġbagging": 24539,
    "Ġclosely": 6488,
    "Ġgryphon": 4299,
    "gloves": 25143,
    "died": 10693,
    "cele": 21622,
    "speaks": 19718,
    "aulding": 11339,
    "Ġexhibition": 14956,
    "expense": 22426,
    "Ġsolitary": 5854,
    "Ġdegrees": 7294,
    "required": 17030,
    "uneven": 23683,
    "bowl": 14890,
    "Ġchild": 2263,
    "sentimental": 25681,
    "gods": 13365,
    "Ġplanisp": 24054,
    "Ġhow": 598,
    "hecy": 21205,
    "vigorous": 25917,
    "Ġbrightness": 16576,
    "Ġpredef": 18515,
    "Ġmuse": 13859,
    "deserving": 17241,
    "speaking": 12096,
    "specul": 23940,
    "Ġbelf": 21379,
    "Ġwriter": 11943,
    "thin": 14096,
    "oration": 2211,
    "beheld": 11799,
    "Ġcleaving": 23178,
    "designated": 26295,
    "Ġnortheast": 23200,
    "oam": 8751,
    "Ġcommissioned": 19894,
    "Ġpipes": 9849,
    "dissatisfied": 26612,
    "Ġprincip": 5600,
    "Ġcrumbs": 20639,
    "ceiling": 21624,
    "Ġphilistines": 26082,
    "Ġbowls": 23769,
    "laugh": 10108,
    "Ġlatitudes": 9495,
    "lever": 2932,
    "Ġpaul": 12060,
    "Ġspecially": 11996,
    "Ġcontention": 22423,
    "Ġunful": 22008,
    "appin": 18757,
    "Ġlasting": 18794,
    "Ġveil": 7933,
    "hun": 5210,
    "gered": 9275,
    "please": 8176,
    "agger": 7871,
    "hatchet": 24822,
    "Ġabundant": 17154,
    "Ġpressed": 6041,
    "Ġlevers": 18077,
    "Ġreligion": 11415,
    "Ġlevelled": 11284,
    "Ġphilosophers": 10551,
    "wreat": 21126,
    "stairs": 5155,
    "Ġcenturies": 8622,
    "pursued": 17281,
    "Ġpurchase": 12257,
    "Ġ39": 19488,
    "Ġfrequented": 16585,
    "elev": 12456,
    "ellig": 523,
    "======================================================================": 10067,
    "Ġcontracting": 16010,
    "Ġbrisk": 9802,
    "pretending": 17041,
    "Ġspeculations": 22990,
    "uneasy": 23684,
    "robe": 15640,
    "Ġtepid": 26412,
    "snapping": 24849,
    "dar": 20823,
    "ered": 1684,
    "Ġcivilities": 14847,
    "itions": 4147,
    "expressing": 16801,
    "rs": 7807,
    "bride": 19199,
    "Ġweeps": 24947,
    "ü": 189,
    "Ġgrego": 18963,
    "blows": 17165,
    "Ġspears": 12921,
    "Ġtufted": 17014,
    "Ġservices": 11217,
    "Ġcod": 8411,
    "taller": 26150,
    "Ġvale": 14081,
    "eded": 9673,
    "Ġboot": 11838,
    "Ġparsee": 6413,
    "ĠĠĠĠ": 458,
    "Ġpeeling": 22689,
    "Ġfring": 11127,
    "Ġbounds": 9917,
    "Ġdenny": 9001,
    "Ġmoral": 6578,
    "allow": 5104,
    "acting": 22628,
    "Ġadmission": 23554,
    "Ġenviron": 4069,
    "Ġhit": 7163,
    "Ġunnatural": 7190,
    "Ġhovered": 12628,
    "Ġstaying": 8283,
    "quohog": 21850,
    "sher": 5217,
    "rd": 17649,
    "<PAD>": 0,
    "Ġcavity": 20486,
    "mark": 5281,
    "tin": 6116,
    "Ġscound": 12829,
    "Ġarter": 22185,
    "Ġwarmest": 16484,
    "Ġpermitting": 22388,
    "Ġauger": 21202,
    "Ġspell": 8855,
    "Ġdogs": 7741,
    "tips": 13795,
    "national": 20997,
    "Ġtarquin": 23609,
    "Ġdread": 3164,
    "connections": 14427,
    "Ġdecline": 9286,
    "Ġunche": 23427,
    "Ġtunnels": 24620,
    "Ġwallowing": 24040,
    "Ġrely": 8820,
    "Ń": 260,
    "pacific": 17641,
    "isons": 17849,
    "Ġdexterity": 25294,
    "Ġpockets": 8895,
    "Ġguns": 16776,
    "australian": 20560,
    "Ġbelieve": 2152,
    "som": 3292,
    "Ġbound": 3518,
    "Ġknave": 11272,
    "Ġoverflowing": 17237,
    "Ġquant": 6424,
    "ubines": 22956,
    "rubber": 12806,
    "Ġtorment": 8673,
    "Ġminuteness": 19138,
    "Ġab": 528,
    "Ġantiqu": 12142,
    "chastic": 2333,
    "Ġspending": 10923,
    "Ġrem": 955,
    "Ġradiance": 13369,
    "Ġisolated": 13558,
    "orton": 11754,
    "Ġdesmarest": 22971,
    "Ġflush": 14423,
    "vius": 23541,
    "Ġsheets": 9721,
    "Ġbowlines": 19321,
    "ense": 2052,
    "smart": 23904,
    "Ġdegree": 3702,
    "Ġslappin": 18942,
    "flowing": 14543,
    "Ġevil": 3804,
    "Ġnose": 4402,
    "_.)": 7278,
    "Ġundergone": 18986,
    "Ġmaster": 3679,
    "avating": 18605,
    "Ġassizes": 11109,
    "observing": 25494,
    "mur": 5428,
    "Ġremarkable": 4914,
    "Ġther": 17778,
    "Ġmerrily": 23729,
    "Ġcomfort": 3440,
    "Ġuniversity": 13120,
    "Ġscorn": 7900,
    "Ġpromptly": 23815,
    "Ġundec": 22016,
    "acup": 14277,
    "united": 14059,
    "Ġlouisiana": 25076,
    "Ġweig": 7619,
    "Ġcust": 11581,
    "iliating": 12692,
    "Ġplate": 8898,
    "Ġvehemently": 26039,
    "Ġsincerity": 13677,
    "Ġfacetious": 20582,
    "started": 10845,
    "Ġtranspired": 16784,
    "Ġconnecting": 18632,
    "incess": 15482,
    "daylight": 19055,
    "immedi": 8450,
    "Ġstartling": 14670,
    "Ġcellar": 8058,
    "Ġstout": 6024,
    "oda": 15747,
    "Ġstride": 22610,
    "Ġneed": 2608,
    "Ġcove": 22579,
    "raising": 21629,
    "Ġstood": 2551,
    "Ġschedule": 2370,
    "Ġable": 3081,
    "uding": 16147,
    "involved": 25626,
    "lines": 6959,
    "maker": 12490,
    "Ġclay": 7018,
    "sat": 4809,
    "ordered": 8789,
    "Ġtwig": 11848,
    "Ġdreaded": 8288,
    "Ġput": 1798,
    "Ġstolen": 14006,
    "Ġcardboard": 19977,
    "imly": 12684,
    "Ġfall": 2985,
    "Ġpossibly": 4512,
    "Ġaboard": 6697,
    "thousand": 5547,
    "Ġtoad": 21507,
    "Ġabiding": 22267,
    "Ġflanks": 11913,
    "Ġmaps": 2962,
    "Ġvial": 10248,
    "Ġoblique": 20168,
    "ud": 911,
    "Ġinarticulate": 21497,
    "Ġintuitions": 17340,
    "Ġmarsh": 9820,
    "Ġcomra": 7183,
    "Ġspring": 4119,
    "besides": 8695,
    "Ġgreas": 17991,
    "strength": 13979,
    "Ġcontest": 18473,
    "stone": 5089,
    "fi": 12459,
    "Ġguilty": 7250,
    "irms": 18168,
    "orters": 21399,
    "Ġforest": 9870,
    "ĠĠĠĠĠĠĠĠĠĠĠĠĠĠĠĠĠĠĠĠĠĠĠĠĠĠ": 13387,
    "Ġarrange": 3121,
    "Ġexc": 1831,
    "Ġmappings": 2153,
    "Ġcollectively": 19966,
    "Ġspacious": 18312,
    "Ġerect": 6143,
    "growing": 13732,
    "Ġincredible": 9514,
    "bushes": 24447,
    "Ġcollect": 7237,
    "Ġsublime": 8065,
    "disposition": 10041,
    "Ġbonnet": 10655,
    "Ġhav": 12751,
    "Ġfrancis": 26063,
    "Ġdrowned": 9551,
    "ouching": 13176,
    "Ġimagine": 3922,
    "Ġcursed": 6729,
    "Ġcoat": 4552,
    "Ġloftiest": 16874,
    "Ġelevated": 7318,
    "Ġlydia": 2372,
    "honest": 17003,
    "gorith": 552,
    "Ġcomprehens": 8319,
    "Ġhorses": 6385,
    "Ġtriumphal": 24371,
    "Ġsteer": 10386,
    "canst": 22958,
    "inary": 3275,
    "Ġdictating": 20151,
    "Ġbrick": 8925,
    "Ġdespondency": 16577,
    "contempt": 13187,
    "ese": 4443,
    "Ġhear": 1966,
    "Ġkidnapping": 26356,
    "Ġpotential": 3617,
    "court": 7512,
    "Ġlandlady": 10422,
    "Ġ97": 19773,
    "Ġactuated": 18545,
    "Ġelement": 6898,
    "that": 849,
    "Ġsable": 15500,
    "Ġplacid": 11824,
    "Ġpirate": 14996,
    "Ġspas": 10922,
    "Ġoutweigh": 22319,
    "Ġliberal": 12188,
    "iasm": 8060,
    "Ġjohnson": 18409,
    "Ġexhibit": 14955,
    "ban": 9584,
    "Ġdoleful": 18377,
    "Ġsickbed": 24246,
    "Ġsuffoc": 18869,
    "Ġdespite": 19351,
    "Ġrevellers": 21675,
    "fee": 12877,
    "ax": 693,
    "Ġcontents": 7210,
    "Ġpaid": 5015,
    "Ġimagination": 5759,
    "Ġbeat": 4490,
    "Ġrumbling": 18211,
    "Ġinvoluntarily": 8548,
    "limping": 26393,
    "Ġtennes": 23548,
    "Ġinsc": 7586,
    "Ġagrees": 22513,
    "Ġplot": 14279,
    "Ġcivilized": 8664,
    "Ġenlightened": 12743,
    "ripp": 6405,
    "Ġharpooned": 13260,
    "nantucket": 7804,
    "rushed": 10584,
    "Ġcoinc": 11001,
    "Ġtimorous": 24225,
    "Ġwin": 9641,
    "ains": 5094,
    "lovely": 16045,
    "Ġmccarthys": 19661,
    "hatch": 15363,
    "hes": 1397,
    "Ġforbidding": 17079,
    "Ġnarratives": 24353,
    "Ġelias": 18634,
    "het": 5435,
    "Ġseap": 15816,
    "Ġprehens": 22228,
    "Ġunperceived": 22034,
    "wered": 2692,
    "former": 11746,
    "Ġaccording": 5508,
    "Ġautumn": 14509,
    "dham": 20829,
    "Ġaspire": 21897,
    "Ġsyrian": 18353,
    "Ġthrusts": 24350,
    "prevented": 20372,
    "Ġmachinations": 25767,
    "Ġoccasional": 7289,
    "Ġincidentally": 16954,
    "Ġwindlass": 7255,
    "Ġpersian": 11092,
    "than": 4087,
    "Ġsur": 2185,
    "Ġinsinuating": 19270,
    "ow": 325,
    "itically": 21328,
    "Ġbottled": 23794,
    "Ġhalting": 16273,
    "ess": 409,
    "Ġsheepfold": 25466,
    "honey": 20904,
    "byter": 16214,
    "Ġfaltering": 17884,
    "Ġhampshire": 15241,
    "Ġmes": 17796,
    "bular": 15312,
    "Ġdangerous": 6613,
    "Ġmature": 17799,
    "Ġcontinually": 5042,
    "Ġinsist": 9888,
    "Ġproceeding": 9905,
    "Ġgord": 21597,
    "pronouncing": 25193,
    "Ġspectrum": 4473,
    "trimmed": 23946,
    "Ġpan": 5082,
    "attent": 9359,
    "vine": 10734,
    "osite": 4892,
    "Ġintu": 12760,
    "imagination": 13479,
    "Ġdivine": 6921,
    "Ġsealed": 15817,
    "Ġkins": 22191,
    "Ġstubb": 1787,
    "Ġrubbed": 12952,
    "hmael": 7342,
    "Ġstumble": 26482,
    "Ġmisfortune": 5569,
    "Ġdismal": 11808,
    "Ġneighbor": 25803,
    "Ġcomputational": 1631,
    "soled": 14332,
    "Ġedges": 3824,
    "Ġdiffer": 18674,
    "neville": 22457,
    "attempt": 9360,
    "Ġresol": 2668,
    "pursuit": 20339,
    "Ġinquir": 4242,
    "wrinkles": 16555,
    "Ġcr": 2156,
    "Ġtwopence": 18660,
    "Ġcommons": 22669,
    "inished": 17734,
    "Ġarom": 15492,
    "Ġleaking": 21742,
    "Ġsuspicions": 9478,
    "Ġassisting": 13256,
    "anely": 17836,
    "cater": 20814,
    "?": 35,
    "Ġculprit": 26172,
    "lynes": 15702,
    "Ġheedfulness": 24522,
    "alluring": 18352,
    "Ġprof": 2461,
    "Ġlabours": 8582,
    "Ġlacepede": 20493,
    "Ġslipped": 6492,
    "Ġchaise": 9076,
    "box": 5749,
    "Ġbakers": 17866,
    "poison": 14392,
    "================": 3721,
    "Ġcatherine": 2814,
    "perpendicular": 14159,
    "aution": 9387,
    "Ġended": 7949,
    "Ġ32": 19487,
    "Ġvolcano": 24147,
    "Ġforced": 4352,
    "Ġnapole": 15114,
    "Ġgermans": 25784,
    "ivities": 22082,
    "Ġmonogram": 26574,
    "ister": 1294,
    "Ġcandidates": 4332,
    "stout": 21642,
    "arman": 11594,
    "possessed": 9527,
    "Ġoakshott": 12227,
    "Ġgidd": 25783,
    "Ġcope": 17830,
    "Ġparaph": 22117,
    "Ġslackened": 15125,
    "mosphere": 10042,
    "Ġdetermined": 2224,
    "ost": 5360,
    "evidence": 25521,
    "oke": 1858,
    "Ġlances": 6984,
    "erde": 21267,
    "Ġglobal": 2368,
    "Ġabundance": 17155,
    "Ġcrowder": 19454,
    "Ġshud": 5461,
    "Ġhole": 6079,
    "Ġuninterrupted": 22043,
    "deliber": 17425,
    "hers": 7636,
    "wil": 8395,
    "hor": 2571,
    "help": 1476,
    "stays": 15687,
    "conditionally": 24834,
    "Ġtig": 13812,
    "'d": 12425,
    "Ġaven": 10759,
    "Ġ150": 22823,
    "arranging": 19317,
    "woes": 21132,
    "Ġdisd": 7030,
    "Ġspitz": 14148,
    "rebellum": 26165,
    "tooth": 18579,
    "Ġattend": 5036,
    "Ġfads": 21414,
    "Ġspices": 22127,
    "obey": 11509,
    "Ġcontro": 1688,
    "Ġpewter": 17185,
    "Ġbloodthirst": 23800,
    "support": 9469,
    "mand": 3893,
    "furn": 10091,
    "Ġmouth": 3180,
    "Ġbrass": 11048,
    "Ġsque": 18755,
    "Ġend": 1485,
    "Ġpurely": 12229,
    "Ġlime": 13947,
    "Ġtattooing": 15027,
    "ensities": 22543,
    "opatra": 22474,
    "ular": 713,
    "concealed": 25115,
    "ppings": 18176,
    "Ġvinc": 14084,
    "Ġche": 1764,
    "Ġexterior": 19986,
    "entropy": 1437,
    "Ġsense": 3251,
    "Ġanother": 1739,
    "Ġlit": 6246,
    "norm": 20984,
    "Ġpropagating": 20632,
    "Ġsuperiors": 23454,
    "comfortable": 7320,
    "ferences": 10326,
    "Ġdraughts": 20220,
    "Ġentertaining": 16926,
    "Ġimpression": 5732,
    "Ġoak": 6128,
    "Ġbraved": 23835,
    "robust": 19727,
    "Ġsailor": 3535,
    "Ġfrigate": 13080,
    "Ġnarrated": 14870,
    "sion": 8093,
    "Ġbolt": 11334,
    "Ġalighted": 18103,
    "Ġunjustly": 17126,
    "evil": 11485,
    "hurry": 24763,
    "informed": 17736,
    "Ġperils": 6273,
    "Ġlustrous": 20155,
    "complained": 25838,
    "Ġalice": 1483,
    "Ġconcise": 23320,
    "Ġtech": 1555,
    "methodically": 20663,
    "Ġsecurely": 16802,
    "Ġendeavoured": 4917,
    "Ġsemicirc": 16390,
    "ubl": 3593,
    "Ġgentleman": 3041,
    "spirit": 11313,
    "Ġmonument": 16235,
    "Ġtriangular": 14858,
    "Ġdaughters": 4421,
    "umps": 6317,
    "rive": 9706,
    "hement": 13831,
    "Ġhastening": 19335,
    "Ġfle": 3092,
    "Ġbuzz": 23994,
    "Ġspake": 18308,
    "Ġparading": 23708,
    "Ġincant": 18568,
    "henomen": 10494,
    "Ġdi": 6525,
    "uling": 2260,
    "Ġmississippi": 20724,
    "ayed": 12709,
    "Ġdeclaration": 16636,
    "Ġheadlands": 22897,
    "Ġsurmisings": 26593,
    "Ġurged": 6781,
    "Ġsoo": 15858,
    "Ġpitched": 9443,
    "ribe": 1220,
    "ctor": 13959,
    "Ġinsipid": 26313,
    "Ġstalls": 25647,
    "Ġinnocently": 24025,
    "Ġslabs": 13058,
    "ct": 309,
    "Ġken": 22188,
    "Ġmortar": 19391,
    "Ġassembly": 10642,
    "stad": 7598,
    "Ġasc": 4764,
    "Ġfloundering": 16251,
    "oup": 2016,
    "Ġsharpen": 13568,
    "zening": 21147,
    "Ġundoubtedly": 8312,
    "reds": 12745,
    "Ġrome": 12153,
    "missionary": 24615,
    "Ġhere": 1087,
    "Ġyards": 5371,
    "Ġmeridians": 17355,
    "Ġhawaiian": 25366,
    "fourths": 25509,
    "powder": 17645,
    "Ġrestlessness": 23290,
    "offensive": 16394,
    "Ġactionable": 24559,
    "Ġfrighted": 24026,
    "Ġyourselves": 9028,
    "Ġreligious": 25121,
    "Ġfollowed": 1794,
    "latitudes": 17196,
    "zers": 21145,
    "Ġbest": 1977,
    "Ġmelting": 24288,
    "Ġconcluded": 5658,
    "Ġthursday": 12641,
    "Ġpromontory": 11939,
    "mblings": 19779,
    "Ġlamps": 14791,
    "mpt": 6653,
    "educated": 17259,
    "cream": 15330,
    "discharging": 26305,
    "ioning": 21506,
    "Ġembodiment": 20526,
    "asht": 4082,
    "Ġemma": 20693,
    "Ġelegance": 11332,
    "adier": 18089,
    "Ġbroadened": 23982,
    "instinctively": 26327,
    "Ġthirds": 16708,
    "¹": 122,
    "cour": 4478,
    "Ġgunwale": 7325,
    "Ġnarrative": 6215,
    "Ġexpect": 2306,
    "Ġcher": 6129,
    "ished": 1426,
    "Ġped": 6817,
    "Ġtr": 556,
    "Ġsakes": 18326,
    "access": 11180,
    "Ġmarling": 23032,
    "Ġstreet": 2957,
    "Ġrounding": 16274,
    "Ġowest": 25091,
    "Ġslashing": 23165,
    "Ġdecisive": 18483,
    "original": 9084,
    "ipelag": 12838,
    "Ġrecur": 1627,
    "draul": 9442,
    "faces": 13719,
    "delights": 19700,
    "hunters": 16833,
    "Ġclutches": 20016,
    "Ġimbalanced": 18335,
    "Ġparents": 6752,
    "Ġfastening": 16356,
    "Ġhers": 7888,
    "Ġsplice": 19307,
    "Ġpistol": 7846,
    "entered": 8814,
    "Ġresentment": 7531,
    "schoolmaster": 15160,
    "words": 7982,
    "Ġbreed": 19073,
    "Ġaddress": 2273,
    "Ġrambling": 18640,
    "liber": 18813,
    "umer": 9257,
    "ut": 308,
    "descending": 16284,
    "Ġwiser": 14729,
    "Ġcrescentic": 20619,
    "lucky": 24545,
    "Ġpol": 2576,
    "Ġsupports": 3051,
    "etus": 21575,
    "Ġvul": 10247,
    "Ġundertaken": 18987,
    "Ġsex": 8841,
    "Ġwreak": 16817,
    "ceptible": 10962,
    "Ġfulfil": 9550,
    "Ġ**": 4720,
    "Ġsting": 10861,
    "seen": 2882,
    "Ġfilled": 4394,
    "Ġsociet": 9449,
    "Ġcrystall": 20225,
    "Ġmer": 2930,
    "icacy": 15656,
    "Ġeffectively": 2639,
    "Ġchancing": 22245,
    "Ġwalton": 14971,
    "Ġconjured": 25099,
    "thine": 15823,
    "correct": 24483,
    "Ġintrusted": 21989,
    "Ġbrine": 18768,
    "ceed": 1072,
    "confined": 24332,
    "Ġnumerous": 6920,
    "Ġbusier": 23336,
    "Ġherring": 14126,
    "ivers": 1985,
    "Ġunavailing": 26215,
    "chorus": 19810,
    "Ġhours": 2820,
    "Ġfever": 6558,
    "Ġelectric": 15193,
    "Ġded": 2380,
    "Ġproof": 6153,
    "Ġbutler": 18270,
    "Ġchip": 12822,
    "Ġdreamt": 23936,
    "Ġshine": 12763,
    "ling": 735,
    "Ġreporting": 24657,
    "utored": 15661,
    "Ġbudge": 15163,
    "Ġpe": 851,
    "Ġvac": 5025,
    "Ġenric": 21931,
    "Ġrattler": 24995,
    "Ġmainten": 16114,
    "pleasantness": 19769,
    "Ġhopkins": 23126,
    "rud": 4188,
    "Ġbas": 6380,
    "blubber": 15235,
    "Ġguest": 7249,
    "Ġloading": 15873,
    "bre": 3978,
    "Ġperem": 12929,
    "rossing": 18647,
    "ounced": 4953,
    "Ġpangs": 15613,
    "Ġcontemptuously": 19832,
    "Ġdying": 2140,
    "Ġblotting": 25313,
    "stra": 4043,
    "Ġunfor": 15838,
    "ought": 830,
    "^": 66,
    "Ġhotels": 19535,
    "rates": 21037,
    "bud": 10682,
    "Ġexper": 1313,
    "within": 6730,
    "madly": 24420,
    "ilities": 6991,
    "stirred": 20423,
    "Ġpreceding": 7529,
    "Ġbi": 920,
    "Ġprocessions": 18433,
    "opportunity": 12272,
    "plifted": 9708,
    "Ġregretted": 13399,
    "boil": 18999,
    "Ġ19": 6719,
    "urons": 3131,
    "Ġcame": 1300,
    "grandfather": 25009,
    "avo": 8517,
    "uttermost": 24940,
    "fail": 17540,
    "akin": 11766,
    "Ġrefine": 2994,
    "Ġbuckle": 17033,
    "Ġaddressed": 5262,
    "Ġke": 1156,
    "Ġconfed": 13095,
    "belongs": 25596,
    "Ġwol": 15529,
    "tumbled": 21089,
    "Ġowns": 22821,
    "Ġblot": 9811,
    "Ġmisunderstand": 18704,
    "sheet": 16285,
    "Ī": 235,
    "concerted": 16671,
    "xic": 9145,
    "conditional": 9078,
    "Ġsch": 13834,
    "Ġpreside": 18365,
    "Ġalbino": 20501,
    "Ġcrate": 19122,
    "avail": 18604,
    "Ġvineyards": 25106,
    "Ġalthough": 4150,
    "Ġimmensely": 13594,
    "Ġconstit": 8583,
    "Ġconventional": 25547,
    "Ġtinged": 20081,
    "urmount": 13995,
    "months": 9071,
    "squeezing": 25913,
    "Ġfeatures": 1431,
    "``": 15305,
    "punishment": 15144,
    "Ġprove": 5231,
    "etime": 12656,
    "romang": 22002,
    "Ġdismember": 20214,
    "Ġdipped": 15593,
    "ounce": 6557,
    "Ġdazz": 11593,
    "Ġsagaciously": 24731,
    "ois": 9134,
    "unctuous": 21879,
    "Ġflight": 6580,
    "brimming": 23576,
    "Ġcoefficient": 2886,
    "responsible": 25763,
    "Ġwakeful": 24266,
    "whaleman": 23434,
    "Ġoverwrites": 5033,
    "uture": 1078,
    "cnns": 3619,
    "Ġcommands": 16589,
    "Ġscant": 22277,
    "Ġrudimental": 25108,
    "Ġchann": 15934,
    "Ġtruly": 4795,
    "inguished": 6598,
    "etition": 7382,
    "lur": 13746,
    "Ġeternal": 5975,
    "Ġbath": 9658,
    "Ġanomalous": 25637,
    "Ġ\"": 6119,
    "Ġprofits": 16489,
    "flight": 15351,
    "Ġeighteen": 11238,
    "fit": 6645,
    "rendering": 22337,
    "Ġont": 18116,
    "Ġsenate": 25214,
    "Ġembarkation": 25123,
    "ò": 179,
    "Ġmultipl": 2791,
    "Ġpress": 5931,
    "glance": 16587,
    "Ġmah": 15539,
    "pp": 384,
    "Ġcatastrop": 3349,
    "pray": 5429,
    "tons": 7560,
    "Ġsustaining": 25333,
    "Ġpossesses": 19350,
    "Ġbrig": 11047,
    "ell": 398,
    "Ġopulent": 23627,
    "Ġrashly": 20304,
    "Ġplatform": 17131,
    "Ġfulfilled": 11362,
    "despond": 19799,
    "ropol": 10953,
    "ells": 5303,
    "Ġveracity": 23887,
    "Ġmacro": 25939,
    "Ġsc": 529,
    "Ġseveral": 2675,
    "vanity": 24974,
    "quietude": 24655,
    "Ġcontemplated": 13463,
    "Ġmercenary": 17193,
    "Ġdevoting": 22734,
    "calculating": 25690,
    "!": 5,
    "Ġkeener": 22912,
    "unks": 15773,
    "subs": 14299,
    "proachable": 23396,
    "Ġimaginary": 11187,
    "Ġfacial": 10605,
    "Ġcontinual": 6777,
    "reader": 23844,
    "ted": 791,
    "conjecture": 15121,
    "Ġmab": 12557,
    "Ġgown": 10201,
    "something": 4284,
    "deav": 2676,
    "Ġfight": 5366,
    "Ġmermaids": 26170,
    "Ġdependence": 18628,
    "Ġomit": 17815,
    "Ġtrample": 20326,
    "Ġweal": 21917,
    "Ġconj": 8460,
    "Ġorgies": 18285,
    "ries": 3355,
    "Ġdevice": 1929,
    "Ġcensus": 15095,
    "ure": 356,
    "itancy": 21331,
    "Ġneighbours": 8302,
    "pushed": 21022,
    "sensible": 20050,
    "Ġminded": 23230,
    "urp": 1472,
    "Ġungover": 18255,
    "inite": 6001,
    "Ġhappiness": 2945,
    "ÿ": 192,
    "Ġelephant": 8255,
    "Ġplucked": 15112,
    "Ġulster": 14997,
    "leaning": 10790,
    "Ġnormalization": 1240,
    "brothers": 17024,
    "gardiner": 12289,
    "Ġcontinuously": 23203,
    "-": 17,
    "Ù": 154,
    "Ġmonday": 6127,
    "Ġswiftness": 9926,
    "Ġmidday": 23631,
    "seek": 8836,
    "loa": 18533,
    "spir": 5738,
    "Ġfortunate": 6214,
    "flakes": 23965,
    "Ġsquint": 22837,
    "Ġcomplement": 23707,
    "Ġconsummation": 17424,
    "Ġbeautiful": 3670,
    "Ġplacing": 8900,
    "Ġathirst": 20597,
    "Ġaver": 1285,
    "Ġattacked": 10567,
    "Ġsays": 3560,
    "Ġscor": 8189,
    "Ġbedford": 7474,
    "mo": 863,
    "Ġunbending": 25464,
    "nour": 20987,
    "Ġevaluate": 2947,
    "dening": 22777,
    "Ġbeef": 6830,
    "recollected": 25347,
    "confess": 12173,
    "thirds": 25046,
    "Ġsilk": 11961,
    "Ġting": 8397,
    "needle": 20312,
    "amongst": 24672,
    "Ġinverted": 12634,
    "phant": 6287,
    "uled": 11536,
    "fug": 17543,
    "Ġjumbled": 22294,
    "Ġwantest": 18793,
    "Ġborn": 5224,
    "Ġindependent": 9015,
    "Ġunstructured": 3003,
    "este": 15918,
    "Ġthin": 4347,
    "am": 369,
    "lightened": 12063,
    "stamp": 21651,
    "Ġfloats": 9412,
    "Ġintercept": 14268,
    "Ġpredicts": 2594,
    "spade": 10339,
    "extracts": 22762,
    "Ġcaut": 6521,
    "Ġinfallible": 15069,
    "adv": 4535,
    "Ġburning": 5976,
    "Ġdepressed": 10883,
    "Ġpudding": 17915,
    "Ġcoop": 14269,
    "âĢĻ!âĢĿ": 18167,
    "Ġgleamed": 17077,
    "nostr": 22724,
    "freely": 16854,
    "Ġcongregated": 20095,
    "Ġanom": 12608,
    "Ġrecoil": 18692,
    "Ġsuspending": 19243,
    "monograph": 23526,
    "uted": 7593,
    "Ġhelmsman": 10504,
    "thodox": 21985,
    "lock": 1470,
    "rich": 11517,
    "Ġvoid": 14085,
    "Ġdeceased": 15006,
    "!âĢĶ": 2455,
    "Ġascribed": 14854,
    "Ġinspired": 2519,
    "Ġaspect": 3097,
    "Ġsailors": 4276,
    "Ġcard": 7363,
    "Ġbarbara": 24818,
    "Ġgoug": 17990,
    "Ġvarieties": 14309,
    "level": 2656,
    "Ġgret": 21598,
    "ration": 2006,
    "Ġgnarled": 25165,
    "Ġtablet": 19205,
    "Ġmorphology": 3010,
    "Ġpeeping": 16126,
    "direful": 25896,
    "Ġaustralia": 15231,
    "Ġchivalry": 25819,
    "Ġearthquake": 14628,
    "Ġcreations": 18684,
    "Ġgash": 15669,
    "overfitting": 13099,
    "size": 15424,
    "Ġwondrously": 24061,
    "Ġassistants": 9451,
    "Ġgardener": 19134,
    "Ġsurely": 6307,
    "ccess": 3183,
    "Ġceremony": 8360,
    "Ġsecuring": 11990,
    "Ġhandspike": 22693,
    "Ġconstru": 19071,
    "evinced": 19925,
    "gyric": 19109,
    "Ġnewsp": 9338,
    "turns": 14905,
    "ures": 837,
    "Ġevangelist": 20337,
    "joke": 20929,
    "Ġindividuality": 14908,
    "Ġdistorted": 14249,
    "Ġhospital": 15039,
    "Ġcontrived": 10302,
    "Ġcaroline": 7254,
    "tender": 14472,
    "owders": 18047,
    "Ġarranging": 11174,
    "Ġoptimizers": 18619,
    "unavoid": 14061,
    "Ġtradesmen": 17105,
    "Ġconcealing": 23900,
    "Ġjovial": 19233,
    "Ġejaculation": 20253,
    "Ġgallied": 19555,
    "iner": 2673,
    "Ġdiscrimin": 2546,
    "archical": 1926,
    "Ġsuffers": 2972,
    "Ġmorcar": 13008,
    "wet": 15452,
    "ork": 414,
    "Ġchuckled": 10647,
    "Ġmuch": 924,
    "reng": 4002,
    "Ġtransactions": 18500,
    "Ġintolerably": 15828,
    "Ġperception": 9749,
    "goose": 19101,
    "Ġmerits": 13193,
    "shipmates": 11926,
    "Ġselecting": 16684,
    "Ġcontemptible": 16953,
    "Ġunprejudiced": 18269,
    "chers": 11317,
    "mounting": 25207,
    "flutterings": 26606,
    "Ġcontr": 1914,
    "Ġday": 957,
    "wont": 21131,
    "Ġgothic": 17999,
    "Ġgenerations": 10964,
    "asked": 8911,
    "Ġenvirons": 13203,
    "scence": 14417,
    "ared": 771,
    "ok": 573,
    "),": 1347,
    "Ġreappearance": 21664,
    "Ġuntil": 2670,
    "anesc": 21358,
    "Ġaveraging": 2419,
    "phology": 3008,
    "Ġungrateful": 14120,
    "Ġdeliciousness": 24126,
    "convolutional": 4957,
    "fortunes": 6332,
    "mare": 17599,
    "Ġunpitying": 25660,
    "Ġtransp": 4769,
    "Ġhurrying": 11993,
    "Ġdestiny": 8983,
    "cat": 15323,
    "ters": 1576,
    "Ġthroats": 24575,
    "entle": 1740,
    "atig": 13844,
    "Ġclut": 7642,
    "seat": 18125,
    "Ġelemental": 19918,
    "Ġaudits": 24770,
    "Ġaffright": 9331,
    "alcul": 15626,
    "manifested": 20524,
    "Ġnavel": 24576,
    "ald": 15623,
    "Ġthey": 576,
    "Ġstudy": 1749,
    "Ġstove": 6733,
    "ond": 1161,
    "aphys": 15200,
    "Ġsacr": 7194,
    "Ġchamounix": 14863,
    "proper": 7472,
    "Ġthrees": 23399,
    "Ġinmates": 15621,
    "acknowledge": 18471,
    "ols": 2413,
    "Ġbeauties": 10445,
    "riages": 10243,
    "frozen": 25139,
    "Ġthrone": 12211,
    "Ġagrippa": 11805,
    "Ġprofessor": 11230,
    "Ġdrawling": 19435,
    "Ġpassive": 22840,
    "Ġpunctually": 17138,
    "rably": 21630,
    "Ġcreature": 2384,
    "beheaded": 22490,
    ",âĢĶâĢĺ": 23801,
    "lust": 15378,
    "notwithstanding": 22748,
    "alongside": 19788,
    "andish": 18153,
    "quered": 11051,
    "mered": 8217,
    "address": 14880,
    "Ġcharing": 14180,
    "Ġepit": 18006,
    "natured": 7110,
    "city": 15326,
    "Ġperplexity": 2756,
    "restoration": 23236,
    "Ġthreatening": 16828,
    "Ġsorely": 17256,
    "Ġensue": 18190,
    "Ġspangled": 22132,
    "Ġsparkling": 11356,
    "Ġfaithful": 9502,
    "tottenham": 25418,
    "ocity": 8277,
    "etrics": 21582,
    "Ġblows": 5972,
    "Ġpadded": 25036,
    "Ġraptures": 13496,
    "Ġcomfits": 21844,
    "Ġdeact": 18138,
    "wis": 12516,
    "Ġhypothe": 4072,
    "settle": 16661,
    "Ġdreaming": 11223,
    "Ġprivate": 5345,
    "owers": 12681,
    "bunger": 20400,
    "Ġinst": 912,
    "Ġaccomplished": 7104,
    "creature": 5346,
    "Ġleaky": 2345,
    "Ġnoble": 3441,
    "Ġwig": 9161,
    "Ġarea": 14186,
    "vation": 4743,
    "Ġsnuffed": 15071,
    "Ġinnoc": 3793,
    "putation": 7625,
    "ante": 11719,
    "Ġgarden": 3825,
    "Ġassurances": 9999,
    "sales": 17667,
    "farmer": 25899,
    "Ġrepast": 16411,
    "witness": 10034,
    "rimsh": 17027,
    "hatchway": 25904,
    "Ġimpart": 11780,
    "Ġowl": 20082,
    "foundation": 16714,
    "Ġbeyond": 2459,
    "Ġlively": 5449,
    "Ġcheating": 16369,
    "Ġhyena": 24519,
    "Ġmarch": 4080,
    "deadly": 17100,
    "Ġsquaring": 22839,
    "Ġrejoiced": 8683,
    "Ġpolynes": 16078,
    "project": 16424,
    "Ġimpulsively": 24880,
    "Ġunequal": 14841,
    "musket": 25341,
    "sided": 17664,
    "itation": 1781,
    "ability": 716,
    "clo": 5613,
    "Ġbulkington": 14677,
    "·": 120,
    "comprehensive": 20625,
    "|": 96,
    "Ġshrugged": 12766,
    "Ġspouts": 7729,
    "Ġlandless": 23377,
    "pleasanter": 24044,
    "Ġgenerous": 6271,
    "Ġstab": 10862,
    "Ġbodily": 6106,
    "Ġwindward": 6885,
    "Ġfaculties": 14957,
    "ians": 2357,
    "Ġpartially": 13121,
    "Ġentit": 22741,
    "Ġcommenting": 25228,
    "hint": 12473,
    "afforded": 25865,
    "ollion": 19714,
    "Ġless": 1939,
    "Ġpitiless": 19386,
    "Ġfactory": 23274,
    "Ġfools": 14481,
    "gold": 9120,
    "Ġinforming": 18742,
    "moments": 19410,
    "pursue": 24973,
    "6": 26,
    "Ġrepresents": 4901,
    "istics": 1634,
    "savage": 15074,
    "excepting": 19705,
    "judge": 13335,
    "ouse": 1191,
    "Ġrearing": 12674,
    "ls": 1290,
    "Ġuns": 15835,
    "Ġsuff": 1303,
    "Ġturned": 2137,
    "Ġservox": 23868,
    "maltese": 24795,
    "Ġegress": 21618,
    "est": 501,
    "Ġbreezes": 14868,
    "Ġspectacles": 12095,
    "imprudence": 16557,
    "isles": 15562,
    "grasping": 20638,
    "Ġrascal": 11699,
    "milk": 20475,
    "scho": 8759,
    "Ġnursing": 12212,
    "Ġunobstructed": 18264,
    "Ġreplenished": 13635,
    "Ġowen": 15093,
    "Ġrenow": 18027,
    "Ġrobert": 10970,
    "Ġexhibiting": 19837,
    "scept": 21052,
    "Ġcedars": 20291,
    "purposes": 25021,
    "Ġcaucus": 17379,
    "Ġcivil": 4678,
    "Ġtwinkling": 12322,
    "Ġenter": 4028,
    "Ġeffective": 1245,
    "Ġlogs": 16345,
    "willingness": 24755,
    "Ġsweetly": 23916,
    "Ġdiverse": 19209,
    "Ġrules": 1919,
    "culiarity": 11142,
    "Ġwhereas": 3853,
    "Ġoverhear": 15971,
    "pond": 21012,
    "battle": 12440,
    "rivial": 9433,
    "Ġostlers": 25276,
    "ĠĠĠĠĠĠĠĠĠĠĠĠĠĠĠĠĠĠĠĠĠĠĠĠĠĠĠĠĠĠ": 24443,
    "rabb": 15678,
    "excellent": 8043,
    "ã": 164,
    "Ġwere": 555,
    "Ġimitate": 14157,
    "probably": 10019,
    "Ġwrite": 3820,
    "ieth": 10704,
    "Ö": 151,
    "compared": 24030,
    "awake": 14451,
    "Ġconvolutional": 2167,
    "Ġrestrict": 16376,
    "Ġfactor": 19011,
    "ourse": 8869,
    "Ġmomentum": 1607,
    "Ġprimitive": 25061,
    "Ġstubbs": 23293,
    "Ġbrothers": 13174,
    "Ġbreeds": 23346,
    "Ġspecific": 2004,
    "Ġmind": 1624,
    "Ġharpooning": 23976,
    "tired": 21071,
    "carefully": 13367,
    "ificant": 22208,
    "etwork": 438,
    "Ġcandid": 4098,
    "Ġbarn": 11586,
    "Ġindia": 10370,
    "itarian": 21335,
    "Ġbattering": 13900,
    "forster": 16162,
    "evenings": 19461,
    "Ġyarman": 12702,
    "grounds": 11151,
    "lording": 24047,
    "Ġsubdued": 11030,
    "Ġhereditarily": 25224,
    "atmospheric": 17776,
    "presents": 18799,
    "Ġbulky": 13227,
    "here": 2549,
    "Ġtand": 21159,
    "Ġmors": 17801,
    "Ġdealer": 23974,
    "Ġpursu": 3239,
    "Ġhunks": 18935,
    "ete": 9203,
    "Ġindiscreet": 22953,
    "invol": 12527,
    "thing": 1478,
    "terr": 8153,
    "Ġclutched": 13518,
    "Ġfowls": 8690,
    "Ò": 147,
    "Ġroylott": 7305,
    "Ġ126": 24471,
    "Ġparson": 6687,
    "istol": 6259,
    "compasses": 19456,
    "Ġcharacteristically": 23689,
    "Ġ181": 23892,
    "ĠĠĠĠĠĠĠĠĠĠĠĠĠĠĠĠĠĠĠĠĠĠĠĠĠĠĠĠĠĠĠĠĠĠĠĠĠĠĠĠĠĠĠĠ": 12151,
    "catherine": 7127,
    "Ġagon": 10319,
    "Ġunfathomably": 25873,
    "bler": 11472,
    "Ġcave": 10785,
    "Ġoffence": 12942,
    "Ġeas": 2351,
    "liked": 10508,
    "Ġhideousness": 16915,
    "Ġconvers": 2908,
    "experience": 17158,
    "Ġordinarily": 20648,
    "iling": 3094,
    "ortunities": 15939,
    "Ġdaunt": 19663,
    "Ġbelly": 10369,
    "anning": 10164,
    "Ġlungless": 24863,
    "etent": 10199,
    "crow": 9590,
    "seated": 11671,
    "Ġrepelled": 19085,
    "sorting": 17004,
    "Ġprofessors": 14724,
    "Ġantarctic": 19551,
    "Ġoverall": 4358,
    "Ġflit": 23005,
    "Ġblinding": 14727,
    "Ġsnugness": 20075,
    "Ġwent": 1537,
    "Ġperchance": 15986,
    "emberley": 4170,
    "terogene": 21822,
    "Ġengage": 9334,
    "critters": 14782,
    "weed": 14314,
    "Ġimplement": 2776,
    "Ġscot": 5643,
    "Ġlargest": 6282,
    "Ġdamned": 13131,
    "captains": 12125,
    "fle": 7128,
    "computer": 1975,
    "Ġpince": 21469,
    "sorrow": 12506,
    "Ġpatter": 824,
    "Ġlxi": 21558,
    "Ġlaying": 7907,
    "Ġshould": 864,
    "libra": 22922,
    "Ġproced": 2579,
    "exagger": 22425,
    "Ġentreating": 24207,
    "industrious": 26239,
    "Ġsturgeon": 20590,
    "rmsprop": 4520,
    "Ġeducated": 16785,
    "Ġdew": 14044,
    "pent": 3493,
    "Ġxxxii": 24970,
    "Ġhyperborean": 26339,
    "order": 1960,
    "Ġembeddings": 2225,
    "Ġheath": 15700,
    "Ġragged": 11842,
    "science": 11907,
    "Ġglanced": 5951,
    "Ġimpenitent": 26548,
    "Ġ53": 19639,
    "Ġpred": 662,
    "Ġimp": 592,
    "Ġextinction": 14326,
    "Ġbaleen": 10036,
    "feeder": 12359,
    "Ġpronounce": 16968,
    "Ġbolivia": 24667,
    "Ġindign": 6173,
    "Đ": 209,
    "Ġscaling": 3629,
    "agation": 1262,
    "th": 408,
    "bore": 13685,
    "Ġengravings": 15064,
    "Ġchrist": 4071,
    "Ġrowing": 10300,
    "Ġgener": 584,
    "ources": 2789,
    "ashed": 3783,
    "Ġunworthy": 11713,
    "Ġharrow": 17925,
    "Ġpaying": 9937,
    "Ġstriding": 16092,
    "Ġtext": 2270,
    "independent": 26021,
    "Ġ59": 24327,
    "ourers": 21447,
    "Ġsympathise": 16794,
    "Ġsleep": 2400,
    "follow": 5680,
    "Ġice": 3602,
    "Ġnorthumbria": 24171,
    "Ġskewer": 19619,
    "Ġacquaintances": 17349,
    "Ġsaddest": 16662,
    "Ġdelighted": 5499,
    "Ġcolds": 23756,
    "Ġlongbourn": 3508,
    "Ġscrewing": 20207,
    "stumps": 21656,
    "Ġthirst": 7590,
    "Ġspar": 10921,
    "ium": 4863,
    "Ġmountain": 3373,
    "Ġsmote": 18574,
    "Ġrenowned": 26193,
    "saddest": 25527,
    "Ġlowered": 6735,
    "Ġregularity": 22776,
    "Ġchatting": 24747,
    "stars": 18019,
    "tot": 10728,
    "Ġoffice": 4964,
    "Ġstocks": 23171,
    "cheon": 23802,
    "Ġletters": 3791,
    "murdered": 12200,
    "billiard": 25334,
    "pens": 17632,
    "Ġwherever": 8523,
    "Ġcitizens": 25439,
    "Ġschoolmasters": 19719,
    "ĥ": 230,
    "chess": 16573,
    "Ġnervously": 19184,
    "Ġsnap": 11201,
    "Ġpopulation": 16827,
    "urre": 10856,
    "Ġgems": 9208,
    "Ġenveloping": 19733,
    "Ġbison": 21386,
    "Ġtw": 840,
    "Ġmug": 21311,
    "Ġblame": 6446,
    "relieved": 13275,
    "Ġhamper": 19387,
    "Ġoppress": 13171,
    "approb": 11042,
    "Ġchron": 19436,
    "limin": 8383,
    "atever": 3079,
    "Ġpaints": 23524,
    "boxes": 16888,
    "Ġcordially": 16836,
    "enet": 10152,
    "Ġravine": 18643,
    "prevent": 11793,
    "Ġcomprehensive": 15086,
    "Ġrecalled": 8537,
    "rupt": 3210,
    "Ġundu": 15836,
    "ak": 539,
    "Ġintegr": 7968,
    "Ġenables": 726,
    "Ġgriev": 16634,
    "Ġglove": 14491,
    "Ġdisco": 3429,
    "Ġbenevol": 5961,
    "twas": 15437,
    "Ġtunnel": 14929,
    "Ġmatrimonial": 25489,
    "intentions": 22936,
    "ia": 1255,
    "Ġconfl": 11137,
    "acious": 5562,
    "Ġcorp": 5575,
    "inkling": 16089,
    "Ġleaving": 3903,
    "Ġseas": 3078,
    "Ġquar": 3113,
    "Ġearlier": 9086,
    "Ġgale": 5822,
    "Ġunquestionable": 26221,
    "dreaded": 25138,
    "Ġrural": 21967,
    "Ġladyship": 5046,
    "te": 998,
    "Ġdefe": 21833,
    "Ġouthouse": 22311,
    "Ġdoubloon": 6945,
    "insufferable": 21191,
    "tranquillity": 20545,
    "degree": 12798,
    "Ġassuming": 16693,
    "Ġdisappearing": 22530,
    "calabash": 22895,
    "Ġdecayed": 22822,
    "Ġdeficiency": 14401,
    "Ġadviser": 25312,
    "wel": 6117,
    "Ġuttering": 16462,
    "Ġfootman": 8287,
    "Ġservant": 5764,
    "urg": 8141,
    "Ġholding": 4978,
    "Ġcocked": 12901,
    "Ġmermaid": 17813,
    "dishon": 20402,
    "Ġlicence": 25096,
    "gings": 7550,
    "aming": 5828,
    "Ġaverse": 11081,
    "Ġthump": 11610,
    "billows": 20235,
    "Ġlately": 6387,
    "odings": 4399,
    "abeth": 905,
    "Ġaforethought": 25428,
    "Ġdanced": 7842,
    "Ġcontrary": 5260,
    "fifth": 20145,
    "jam": 15370,
    "fier": 9593,
    "Ġced": 10784,
    "Ġtrooped": 24899,
    "Ġexpon": 967,
    "Ġinteraction": 7424,
    "Ġcomparatively": 9489,
    "Ġtheology": 21275,
    "Ġcurled": 8226,
    "Ġendow": 23138,
    "relatively": 24011,
    "Ġunidirectional": 3426,
    "restrained": 16335,
    "Ġcharging": 23265,
    "Ġminus": 18749,
    "Ġworshipped": 25691,
    "e": 73,
    "Ġdetached": 10279,
    "sooner": 14774,
    "Ġbusks": 23337,
    "Ġbuilded": 24719,
    "carriage": 9945,
    "Ġinvested": 7279,
    "Ġprotruded": 19468,
    "bestowed": 12223,
    "Ï": 144,
    "bec": 4050,
    "scand": 18849,
    "Ġlinn": 13952,
    "ourney": 3552,
    "Ġcarries": 7674,
    "Ġhighway": 14345,
    "Ġstrength": 4259,
    "Ġfootsteps": 16572,
    "Ġremoval": 12115,
    "Ġsolely": 9909,
    "Ġbeard": 11654,
    "Ġfisher": 3222,
    "Ġdotted": 16792,
    "Ġconfirmed": 11139,
    "Ġdrugged": 12599,
    "istence": 2473,
    "Ġsog": 22073,
    "Ġunwe": 15837,
    "Ġwomanly": 23550,
    "Ġpor": 5225,
    "Ġmingling": 20196,
    "Ġmerryweather": 9521,
    "Ġspoiled": 11363,
    "supportable": 12368,
    "Ġearls": 18903,
    "Ġran": 3345,
    "Ġvault": 8840,
    "oked": 4307,
    "Ġstilly": 25973,
    "Ġsimpleton": 16334,
    "Ġinquire": 7719,
    "Ġthence": 8881,
    "scythes": 26402,
    "adr": 6994,
    "provided": 13636,
    "Ġmoved": 4838,
    "attered": 4017,
    "iverse": 13114,
    "farm": 15350,
    "Ġmy": 412,
    "Ġreddening": 25970,
    "ater": 3371,
    "Ġbatch": 888,
    "possess": 5983,
    "Ġseethe": 21960,
    "wantonly": 25149,
    "dwell": 15340,
    "leagues": 21371,
    "Ġsinews": 20286,
    "boards": 23252,
    "dron": 17525,
    "Ġcity": 4528,
    "Ġdiscussing": 5202,
    "Ġbeam": 2881,
    "Ġconstable": 19070,
    "Ġorganization": 7983,
    "westward": 25424,
    "Ġpoul": 15611,
    "wick": 5362,
    "ape": 1904,
    "Ġaustral": 12170,
    "Ġlaz": 7378,
    "really": 6971,
    "Ġantip": 24177,
    "Ġperish": 8874,
    "Ġnosegay": 24192,
    "Ġlurking": 11289,
    "Ġcarted": 21347,
    "result": 12042,
    "ifference": 5632,
    "Ġinsufficient": 9672,
    "Ġtennessee": 26596,
    "Ġbapt": 13895,
    "Ġsay": 933,
    "oth": 1184,
    "script": 11077,
    "Ġcontact": 9280,
    "scenes": 16240,
    "showed": 16023,
    "Ġjingling": 26017,
    "Ġrueful": 25581,
    "ishnoo": 10955,
    "Ġrecounted": 22737,
    "Ġprogress": 5023,
    "ogue": 9784,
    "Ġvic": 5236,
    "Ġillum": 9399,
    "Ġwhoa": 22417,
    "Ġholiday": 12995,
    "yp": 1044,
    "humor": 19450,
    "Ġrevolt": 24504,
    "ang": 443,
    "Ġpartiality": 9397,
    "writhed": 26080,
    "Ġundeserving": 18268,
    "Ġfullest": 14813,
    "in": 262,
    "Ġreserved": 7516,
    "Ľ": 254,
    "bear": 10314,
    "Ġfind": 1458,
    "Ġclouds": 5775,
    "prehend": 14241,
    "Ġsingularly": 12146,
    "Ġchamp": 18381,
    "chors": 11643,
    "lengthwise": 19948,
    "Ġtenderness": 12213,
    "Ġcorps": 13030,
    "vest": 6230,
    "Ġbelieving": 8224,
    "philosop": 9567,
    "ver": 331,
    "========": 2312,
    "4": 24,
    "Ġslily": 23159,
    "icha": 11736,
    "Ġoppressive": 20454,
    "roy": 7853,
    "Ġejaculated": 15168,
    "Ġsepar": 3999,
    "odox": 21808,
    "Ġporpoise": 7106,
    "cowardly": 25749,
    "Ġrevers": 21661,
    "Ġpeered": 18668,
    "Ġhousekeeping": 18943,
    "Ġclue": 7019,
    "mariners": 19547,
    "izer": 2031,
    "leg": 2815,
    "dropout": 3196,
    "attending": 18916,
    "achusetts": 20709,
    "Ġfishing": 9662,
    "Ġmichaelmas": 26374,
    "Ġwits": 15531,
    "Ġnam": 17948,
    "Ġdef": 1199,
    "Ġchaldee": 26234,
    "clothes": 9057,
    "Ġportcullis": 26603,
    "Ġsurface": 5119,
    "Ġdefect": 8554,
    "Ġgrieve": 14706,
    "Ġha": 401,
    "Ġprestige": 22233,
    "ĠdÃ¦mon": 7844,
    "crier": 20819,
    "Ġ134": 24784,
    "Ġcanterbury": 22162,
    "Ġbrew": 23342,
    "Ġwhich": 505,
    "Ġfogs": 25282,
    "Ġtimbers": 14838,
    "partiality": 13159,
    "barrels": 15041,
    "Ġrighted": 23173,
    "nature": 5359,
    "backward": 2686,
    "Ġlens": 8437,
    "Ġvind": 10249,
    "Ġisol": 8833,
    "ĝ": 222,
    "Ġcalves": 13032,
    "isted": 3301,
    "uiperai": 10663,
    "Ġincludes": 2013,
    "promising": 24726,
    "Ġspeedy": 11172,
    "escape": 16006,
    "Ġtable": 2500,
    "Ġ86": 24461,
    "Ġearning": 23938,
    "Ġairs": 14511,
    "Ġblemish": 19678,
    "Ġarrang": 2469,
    "Ġshops": 21998,
    "Ġdau": 21423,
    "Ġhaunted": 10255,
    "Ġramsgate": 18644,
    "favourite": 15142,
    "grasp": 16430,
    "before": 3114,
    "diversity": 25897,
    "Ġpoising": 22588,
    "Ġgate": 6825,
    "itance": 13867,
    "pleas": 3850,
    "Ġtrotting": 19974,
    "enjoyment": 17257,
    "Ġconcl": 5095,
    "encing": 21281,
    "Ġbracing": 16580,
    "Ġembrace": 16990,
    "Åĵuvre": 25887,
    "Ġmother": 2068,
    "Ġintimate": 6549,
    "aning": 2256,
    "Ġseasons": 9430,
    "guard": 12126,
    "Ġmaintain": 857,
    "Ġsimul": 1806,
    "Ġprejudice": 9075,
    "season": 14033,
    "Ġdisliked": 12888,
    "Ġmisty": 16540,
    "Ġdata": 517,
    "Ġstaggered": 9538,
    "Ġnearer": 5301,
    "Ġtask": 1311,
    "Ġstudent": 14474,
    "Ġkneel": 14806,
    "Ġfancying": 12110,
    "anxiously": 15109,
    "forget": 11032,
    "motives": 26137,
    "Ġshy": 10903,
    "Ġsalted": 14755,
    "Ġascendency": 20231,
    "uger": 21102,
    "Ġexposure": 16098,
    "Ġpassionate": 11273,
    "Ġquiescent": 26242,
    "ivity": 1723,
    "Ġdaintiest": 25953,
    "Ġcalculates": 13263,
    "Ġleaning": 5228,
    "Ġcensured": 25094,
    "Ġslu": 13835,
    "forward": 2189,
    "tle": 2410,
    "Ġscanning": 18399,
    "ernally": 22616,
    "Ġdesolation": 12266,
    "concent": 19478,
    "xt": 2082,
    "ely": 621,
    "summer": 11992,
    "strong": 6322,
    "Ġdefects": 12331,
    "Ġlighten": 23257,
    "Ġstraightway": 9016,
    "Ġmanifold": 13559,
    "¯": 112,
    "Ġequilib": 4134,
    "Ġenveloped": 12206,
    "tures": 21068,
    "oub": 1637,
    "Ġmel": 4815,
    "Ġformidable": 8219,
    "will": 1970,
    "aneously": 4057,
    "Ġunless": 4089,
    "Ġbuoyant": 13531,
    "sim": 6510,
    "attentive": 17189,
    "Ġpicturesqueness": 24480,
    "jephro": 26392,
    "Ġrods": 9753,
    "Ġground": 2848,
    "Ġusurpation": 18357,
    "Ġgemin": 21607,
    "col": 3103,
    "cheeks": 23806,
    "ulia": 18148,
    "veral": 2352,
    "Ġgospel": 18000,
    "Ġunreserved": 19395,
    "Ġresulting": 24198,
    "Ġkeepers": 23538,
    "Ġbehooves": 20732,
    "Ġdenied": 9000,
    "Ġwearing": 12736,
    "Ġplanet": 14749,
    "Ġrevolved": 9983,
    "Ê": 139,
    "achalot": 15861,
    "nered": 18494,
    "Ġfinding": 3266,
    "Ġerrors": 2596,
    "Ġquart": 11785,
    "ilege": 22253,
    "Ġrisk": 8038,
    "rum": 3416,
    "semble": 1524,
    "Ġshouted": 5347,
    "dropped": 12260,
    "Ġhist": 2446,
    "Ġflat": 8227,
    "rop": 541,
    ",--": 2478,
    "Ġprimary": 25060,
    "Ġfamiliarly": 11303,
    "rix": 1577,
    "Ġalow": 18099,
    "summon": 23414,
    "Ġdemonstrate": 24994,
    "Ġrequires": 1036,
    "Ġbased": 3341,
    "Ġwheeled": 14138,
    "Ġ46": 19489,
    "Ġepaulets": 24905,
    "iration": 4538,
    "Ġdischarged": 15219,
    "Ġrespectfully": 18994,
    "Ġreasons": 6019,
    "Ġhoky": 17926,
    "ringle": 21039,
    "Ġdemanded": 8326,
    "Ġbehalf": 14506,
    "hum": 3777,
    "Ġruthless": 15284,
    "Ġcultured": 25154,
    "ish": 550,
    "acc": 2534,
    "Ġunreason": 15841,
    "Ġthose": 1173,
    "supp": 4161,
    "Ġexamine": 7734,
    "Ġlibr": 15999,
    "dost": 14535,
    "Ġballarat": 14718,
    "Ġxxii": 24478,
    "treatment": 20410,
    "co": 2436,
    "Ġshrine": 19530,
    "astrop": 3318,
    "backed": 9865,
    "phren": 22767,
    "Ġactions": 6278,
    "Ġbran": 5250,
    "Ġjing": 15948,
    "Ġlima": 10442,
    "ason": 1249,
    "Ġdollar": 25283,
    "afflicted": 23777,
    "gazing": 12469,
    "Ġsurvived": 14933,
    "Ġdrab": 13069,
    "idea": 9300,
    "warm": 8101,
    "Ġenters": 11025,
    "Ġspectre": 16630,
    "Ġstra": 2989,
    "Ġsab": 10762,
    "Ġaccommod": 14212,
    "Ġshore": 4833,
    "Ġwhom": 1830,
    "Ġlif": 10195,
    "Ġsweeping": 8985,
    "Ġintegrated": 13530,
    "Ġdames": 23472,
    "wondering": 19844,
    "Ġmeadows": 11422,
    "Ġsteeply": 23721,
    "aged": 2607,
    "Ġscoundrel": 13669,
    "claim": 9834,
    "Ġprecipice": 19939,
    "ignantly": 23263,
    "Ġspit": 22121,
    "ometer": 19325,
    "Ġshrouded": 14968,
    "Ġdesertion": 24787,
    "Ġpermanent": 13630,
    "Ġpredict": 669,
    "neighbourhood": 10024,
    "polar": 24583,
    "Ġweighed": 8710,
    "ssed": 3732,
    "itiousness": 21332,
    "Ġfrightens": 24027,
    "Ġdark": 2115,
    "Ġwards": 17789,
    "lev": 1234,
    "Ġpasses": 2682,
    "leness": 4690,
    "each": 7335,
    "Ġdetestation": 17127,
    "^{": 15303,
    "Ġcompanion": 3641,
    "tube": 20409,
    "eat": 11482,
    "Ġabst": 9265,
    "detached": 19673,
    "Ġunfathomable": 20547,
    "Ġproves": 14037,
    "gangway": 20666,
    "exact": 7909,
    "Ġhealthcare": 8015,
    "Ġmoses": 21314,
    "Ġvagu": 13588,
    "Ġwedge": 24067,
    "rim": 7137,
    "Ġgain": 4826,
    "Ġstaircase": 20094,
    "aware": 16294,
    "Ġvindication": 25364,
    "behaved": 24463,
    "Ġoutlast": 22310,
    "Ġmoon": 4607,
    "Ġreigning": 15699,
    "crucible": 24842,
    "mason": 17603,
    "rowsers": 8694,
    "perishing": 22179,
    "rength": 4100,
    "Ġmorning": 1748,
    "ivility": 12786,
    "Ġeternity": 12276,
    "acled": 16080,
    "Ġhumbled": 16196,
    "Ġrestrained": 16375,
    "Ġbewit": 15726,
    "Ġsentimental": 24754,
    "Ġglittering": 10052,
    "Ġcoral": 11920,
    "Ġherbage": 25996,
    "playful": 24357,
    "situ": 9621,
    "Ġev": 4827,
    "Ġseventh": 18206,
    "Ġdenying": 14658,
    "Ġmince": 22828,
    "Ġgrammatical": 13538,
    "Ġrenders": 13282,
    "vitiated": 25754,
    "Ġalman": 21778,
    "inexplicable": 25808,
    "Ġhindrance": 25220,
    "Ġtrappings": 23079,
    "complacency": 19913,
    "Ġcheering": 11133,
    "Ġinexpress": 12632,
    "Ġpour": 13913,
    "fairly": 17219,
    "Ġprophetic": 20018,
    "Ġexplain": 545,
    "Ġcollapsed": 15080,
    "delighted": 10562,
    "lipped": 16216,
    "Ġchase": 3943,
    "Ġlikely": 3596,
    "esteem": 26008,
    "Ġpint": 17909,
    "Ġloud": 4700,
    "Ġado": 7627,
    "ĠĠĠĠĠĠĠĠĠĠĠĠĠĠĠĠ": 1217,
    "Ġbu": 3680,
    "Ġdisgrace": 7215,
    "pid": 1369,
    "adjust": 21757,
    "impregn": 21711,
    "Ġoverpowered": 15287,
    "Ġdistribut": 841,
    "mosp": 8088,
    "Ġ65": 24368,
    "for": 959,
    "Ġembraces": 19871,
    "Ġbank": 4876,
    "uble": 21101,
    "Ġuninjured": 22053,
    "Ġestimate": 19371,
    "standers": 18479,
    "Ġinstantaneous": 14611,
    "Ġcommerce": 11015,
    "Ġve": 1109,
    "Ġfling": 9660,
    "\":": 9581,
    "uss": 8763,
    "Ġapologize": 15127,
    "Ġinsupportable": 13931,
    "Ġnewspaper": 12362,
    "omitted": 18016,
    "Ġencamp": 22797,
    "Ġcircumspect": 15083,
    "Ġanaly": 1143,
    "ilent": 21717,
    "ulence": 15764,
    "Ġnorth": 4318,
    "Ġrushed": 4086,
    "Ġrests": 13091,
    "eries": 6808,
    "Ġmaintaining": 1509,
    "gathered": 13731,
    "Ġdelight": 2548,
    "impotence": 23759,
    "Ġtenth": 13824,
    "romised": 14111,
    "Ġbedrooms": 19968,
    "Ġfrenzy": 13621,
    "respectable": 19846,
    "Ġshudderings": 25200,
    "Ġwarned": 16880,
    "Ġboom": 9309,
    "Ġelev": 5536,
    "ĠâĢĻ": 3044,
    "Ġpagans": 16922,
    "drive": 8682,
    "lances": 15382,
    "Ġgesture": 11399,
    "Ġabominable": 12320,
    "Ġprivileges": 25132,
    "called": 6292,
    "Ġdrives": 14578,
    "Ġinaccessible": 13933,
    "Ġangel": 4851,
    "Ġjoint": 12032,
    "oding": 1462,
    "Ġconcoct": 19047,
    "emph": 21923,
    "Ġrack": 9311,
    "Ġloos": 15870,
    "pur": 7806,
    "Ġpalm": 10513,
    "Ġidly": 16401,
    "Ġscatter": 18397,
    "Ġeconomy": 17200,
    "Ġsn": 2950,
    "Ġcond": 3873,
    "Ġgordon": 26467,
    "Ġcoats": 16075,
    "Ġcries": 7154,
    "Ġneg": 1334,
    "Ġsp": 457,
    "inhab": 10757,
    "een": 727,
    "elius": 13286,
    "Ġkuiperai": 10935,
    "Ġcorpora": 26580,
    "initely": 7569,
    "Ġforeign": 9871,
    "Ġhates": 21483,
    "Û": 156,
    "Ġimpaling": 22391,
    "Ġpuff": 6526,
    "acquainted": 7313,
    "Ġsank": 5076,
    "could": 2874,
    "Ġramadans": 25119,
    "Ġseriously": 7060,
    "Ġstake": 14002,
    "Ġfrankness": 16746,
    "Ġhumans": 8929,
    "Ġportraits": 20141,
    "Ġmission": 13003,
    "Ġimpediments": 26240,
    "chambers": 25454,
    "remained": 8569,
    "Ġbears": 6829,
    "Ġcost": 2507,
    "Ġtens": 17723,
    "Ġabundantly": 17156,
    "Ġ113": 19695,
    "Ġirr": 10421,
    "tinted": 17683,
    "10": 17472,
    "Ġmanagement": 8192,
    "Ġchivalrous": 20513,
    "ego": 4033,
    "Ġoverthrown": 18430,
    "vii": 13147,
    "Ġorders": 5340,
    "Ġbark": 10798,
    "Ġnotion": 7881,
    "Ġscuffle": 20607,
    "carried": 16711,
    "arpo": 1756,
    "Ġapparel": 20434,
    "sail": 3601,
    "Ġauthorities": 11264,
    "sec": 6152,
    "darkened": 24517,
    "olerably": 11672,
    "Ġsuspend": 14608,
    "Ġwafted": 14498,
    "Ġsternly": 16715,
    "Ġinclude": 1874,
    "squall": 13521,
    "Ġmeanness": 22593,
    "Ġsparsity": 4206,
    "ibid": 18840,
    "Ġinstantly": 3590,
    "_.âĢĶ": 23471,
    "Ġpirates": 9073,
    "Ġalphabetical": 17201,
    "nor": 2743,
    "Ġdispose": 23877,
    "Ġassociates": 24712,
    "Ġhearty": 9846,
    "Ġdefinitions": 22941,
    "strang": 11183,
    "Ġparis": 8178,
    "Ġpier": 7162,
    "Ġsleepy": 8267,
    "embraces": 25805,
    "Ġfanny": 23389,
    "Ġsent": 1776,
    "Ġcoff": 3507,
    "Ġaccountability": 10438,
    "ĉ": 202,
    "again": 3400,
    "impetuous": 23761,
    "broker": 13303,
    "Ġdie": 3962,
    "mira": 20978,
    "lection": 3650,
    "Ġdusk": 12325,
    "magnetic": 20551,
    "Ġvertical": 16604,
    "reach": 17757,
    "Ġwalls": 6762,
    "Ġhandsome": 4905,
    "resolution": 17766,
    "Ġbrook": 13045,
    "Ġtattooed": 11378,
    "Ġretort": 23067,
    "Ġquestioned": 14619,
    "Ġprotection": 9461,
    "allet": 11083,
    "ascar": 8434,
    "quick": 6400,
    "Ġbristles": 25843,
    "Ġdiddled": 22664,
    "Ġthigh": 10186,
    "Ġfasting": 16355,
    "Ġconvulsive": 19305,
    "Ġintensely": 17017,
    "herfield": 3628,
    "Ġsells": 21222,
    "freighted": 14891,
    "opposite": 19928,
    "Ġaccumulates": 2892,
    "interference": 23735,
    "Ġjustified": 11902,
    "Ġpendulous": 25955,
    "Ġtoll": 7851,
    "perai": 10275,
    "D": 40,
    "Ġrealise": 16336,
    "Ġmasterly": 23991,
    "Ġneedles": 11185,
    "strate": 12671,
    "Ġreproached": 24891,
    "otion": 4945,
    "Ġhoarsely": 26302,
    "Ġvulgarity": 25363,
    "Ġfi": 941,
    "irst": 878,
    "practised": 20246,
    "alot": 15624,
    "Ġgrove": 12144,
    "Ġnodded": 11968,
    "hors": 9598,
    "Ġsuperstition": 15054,
    "Ġfattened": 25949,
    "Ġafghan": 22627,
    "Ġfright": 3795,
    "Ġnoticing": 18224,
    "Ġcrags": 23528,
    "dr": 6221,
    "Ġdrunkard": 20176,
    "Ġseren": 7401,
    "Ġjealous": 9468,
    "sar": 12502,
    "Ġsolving": 2484,
    "Ġ116": 24440,
    "gate": 12464,
    "painful": 13501,
    "Ġallowance": 14389,
    "Ġintegration": 9867,
    "physiogn": 26264,
    "food": 12461,
    "dare": 12451,
    "Ġcrop": 10162,
    "gish": 20872,
    "capt": 3835,
    "Ġmasts": 6465,
    "Ġ(": 595,
    "Ġsodden": 25535,
    "utmost": 21585,
    "Ġprot": 3846,
    "Ġpractical": 3165,
    "Ġbleeds": 24397,
    "Ġdisinclined": 22526,
    "Ġceaseless": 13487,
    "bble": 17484,
    "Ġhom": 9186,
    "Ġdisagreeable": 9297,
    "inder": 9152,
    "hercules": 22201,
    "ouncing": 8494,
    "Ġpoets": 11819,
    "agree": 14066,
    "Ġjail": 22291,
    "Ġkiss": 8182,
    "Ġgirls": 4279,
    "years": 6883,
    "Ġscaramouch": 23825,
    "Ġunderstand": 845,
    "Ġpom": 21450,
    "ts": 960,
    "Ġcynical": 25770,
    "awned": 19458,
    "Ġindifference": 6725,
    "Ġpleasanter": 19067,
    "toed": 18578,
    "Ġoutward": 7903,
    "readers": 23845,
    "ī": 236,
    "comparison": 25840,
    "mes": 1195,
    "Ġharpooneers": 4731,
    "Ġalterations": 19870,
    "Ġblank": 5950,
    "Ġrecre": 22736,
    "mightily": 24102,
    "ack": 617,
    "Ġeasiest": 23537,
    "Ġjunior": 15098,
    "Ġinquiry": 6484,
    "biqu": 17497,
    "Ġtempered": 12920,
    "outre": 18320,
    "Ġbust": 10167,
    "Ġbless": 4342,
    "hyme": 19608,
    "splice": 17170,
    "Ġsupplication": 25491,
    "Ġwad": 13850,
    "excited": 13379,
    "Ġhowl": 12851,
    "Ġexe": 3994,
    "apothe": 22331,
    "Ġkettle": 26232,
    "shell": 16286,
    "Ġchilian": 25563,
    "neg": 12861,
    "Ġeludes": 26554,
    "Ġlat": 5087,
    "Ġunsophisticated": 25992,
    "Ġbigger": 19760,
    "Ġtwit": 12926,
    "curious": 10482,
    "##": 2316,
    "ble": 542,
    "Ġlic": 8435,
    "Ġtranquil": 7310,
    "onness": 21253,
    "Ġsearching": 13161,
    "Ġthinkings": 22807,
    "Ġdrinking": 12166,
    "Ġfisherman": 12073,
    "Ġintelligently": 3945,
    "Ġbadly": 12129,
    "Ġunsuccessful": 18257,
    "Ġbigness": 19759,
    "ected": 7872,
    "Ġpuffing": 12252,
    "Ġbeast": 7179,
    "higher": 20405,
    "Ġinterposed": 20617,
    "Ġbullion": 24983,
    "disapprobation": 19155,
    "whatever": 6694,
    "grant": 10427,
    "befall": 22492,
    "clearer": 24065,
    "card": 11475,
    "osis": 18389,
    "Ġagent": 6277,
    "bastian": 10673,
    "Ġbillow": 14777,
    "lies": 15380,
    "asburgh": 15645,
    "Ġgossip": 18469,
    "Ġsqualls": 17020,
    "Ġezek": 18009,
    "wandering": 20283,
    "Ġfavourite": 5270,
    "alarm": 15625,
    "Ġdesper": 6176,
    "Ġjenny": 20161,
    "Ġbade": 9171,
    "Ġimpenet": 14225,
    "beth": 13687,
    "Ġappointed": 20101,
    "Ġcomprehension": 15085,
    "Ġtrains": 10947,
    "Ġtropic": 17065,
    "Ġwhal": 5454,
    "Ġstandard": 14496,
    "temper": 10003,
    "Ġexpand": 9306,
    "inction": 6660,
    "Ġbroke": 5322,
    "Ġhurricane": 16431,
    "sworn": 24256,
    "merged": 11194,
    "Ġark": 10276,
    "ctors": 21587,
    "Ġcoffin": 4428,
    "Ġartfully": 22615,
    "ue": 1179,
    "Ġferrule": 24500,
    "Ġsale": 14154,
    "uracy": 1091,
    "plan": 15811,
    "Ġbuoyed": 20039,
    "Ġbrave": 6329,
    "regularly": 13207,
    "quired": 21847,
    "places": 7876,
    "Ġgrunted": 16167,
    "Ġshipping": 14103,
    "ispiece": 19724,
    "Ġlunacy": 20026,
    "Ġ41": 24077,
    "iable": 3336,
    "Ġinclusive": 24163,
    "Ġinclinations": 19538,
    "Ġwithdrawn": 10606,
    "scheme": 15253,
    "Ġwatched": 6297,
    "Ġthumb": 6981,
    "iled": 1766,
    "Ġnerve": 16339,
    "Ġproving": 15750,
    "publ": 17638,
    "Ġvital": 9242,
    "Ġgasped": 11372,
    "ç": 168,
    "Ġspam": 7631,
    "Ġwell": 901,
    "Ġjar": 15949,
    "angle": 22100,
    "Ġhy": 5625,
    "Ġgore": 17988,
    "Ġjacobians": 2895,
    "says": 13298,
    "Ġshroud": 6483,
    "Ġtremendous": 8352,
    "Ġunholy": 26218,
    "Ġrolls": 8333,
    "Ġeag": 2966,
    "==": 945,
    "Ġaccompanied": 6780,
    "Ġidentical": 10434,
    "Ġcumbrous": 26432,
    "recked": 17762,
    "welcomed": 24644,
    "iness": 1281,
    "Ġnoises": 18373,
    "Ġcorre": 3886,
    "Ġdishonoured": 20389,
    "Ġspan": 11726,
    "Ġknives": 14836,
    "sight": 5994,
    "swear": 16918,
    "Ġhandy": 12933,
    "Ġfanatic": 23390,
    "oriental": 23718,
    "Ġdeserve": 8308,
    "stick": 15683,
    "inav": 15483,
    "Ġmed": 3986,
    "esting": 7412,
    "remote": 23186,
    "Ġintrepidity": 25550,
    "Ġvaliantly": 22799,
    "alyards": 18787,
    "ospel": 17010,
    "Ġmaking": 1780,
    "Ġinglorious": 24424,
    "Ġgraph": 10902,
    "ckles": 22086,
    "icient": 788,
    "Ġperhaps": 1911,
    "Ġlays": 15984,
    "Ġcountries": 13094,
    "Ġbrix": 12580,
    "ival": 4226,
    "forehead": 8515,
    "Ġquality": 3527,
    "darker": 24516,
    "volous": 18599,
    "erately": 21272,
    "Ġfine": 1318,
    "Ġah": 5075,
    "Ġstool": 14460,
    "Ġfumes": 21416,
    "Ġmeddling": 24080,
    "Ġtrade": 2547,
    "extraordinary": 9094,
    "meant": 7920,
    "punctual": 26355,
    "destruction": 11255,
    "Ġsemi": 11967,
    "Ġsax": 10929,
    "puted": 8845,
    "oves": 15403,
    "ds": 4687,
    "Ġpaved": 17912,
    "transform": 8049,
    "pulled": 25145,
    "Ġmahogany": 20576,
    "Ġtimor": 24224,
    "contin": 16542,
    "Ġforeheads": 23447,
    "Ġdeline": 16332,
    "Ġpapa": 10656,
    "urable": 8923,
    "aps": 1226,
    "Ġpositively": 13027,
    "Ġnooks": 26011,
    "Ġtotal": 4992,
    "Ġilluminated": 20174,
    "snatched": 24850,
    "feren": 767,
    "Ġgardens": 16453,
    "Ġlanyard": 26461,
    "Ġfake": 5810,
    "sides": 12505,
    "Ġsoothing": 8172,
    "Ġeveryday": 22769,
    "oyed": 14357,
    "Ġsignals": 10585,
    "Ġkrus": 18349,
    "Ġdrawers": 12103,
    "pal": 9616,
    "Ġskylarking": 19485,
    "Ġdeceit": 13480,
    "Ġjourneying": 25565,
    "alled": 5910,
    "Ġostr": 21323,
    "Ġintruder": 25991,
    "Ġ1846": 26084,
    "Ġimpenetrable": 17397,
    "Ġhuff": 21487,
    "Ġtrifled": 24674,
    "Ġstirring": 10579,
    "chair": 5916,
    "Ġinterven": 10997,
    "cano": 18839,
    "Ġretention": 23068,
    "Ġunre": 3477,
    "Ġsplendidly": 25327,
    "relics": 24012,
    "Ġdownright": 16117,
    "romising": 18233,
    "lower": 8879,
    "Ġdesisted": 22970,
    "Ġmeets": 7396,
    "Ġsweat": 13139,
    "Ġtottenham": 24142,
    "ribute": 7227,
    "gged": 3776,
    "Ġ1828": 25720,
    "ulate": 5233,
    "Ġadvantages": 9807,
    "Ġprofessions": 11231,
    "recognised": 15261,
    "Ġsummer": 4789,
    "mell": 20963,
    "bit": 3930,
    "icant": 21559,
    "cousins": 20116,
    "christmas": 20254,
    "sister": 5139,
    "couldn": 23715,
    "mouth": 9130,
    "Ġresistance": 13529,
    "Ġoverl": 18427,
    "Ġchamber": 6213,
    "cim": 8719,
    "Ġchained": 16388,
    "Ġforecastle": 5495,
    "Ġtak": 15470,
    "Ġlee": 4222,
    "Ġtahitian": 25427,
    "Ġtal": 7565,
    "Ġunnaturally": 24870,
    "Ġbeginning": 4243,
    "countenance": 6925,
    "hos": 15362,
    "Ġgovernment": 15175,
    "Ġsemicircle": 26068,
    "paralleled": 14525,
    "Ġhumorously": 18776,
    "raltar": 24233,
    "Ġevince": 24293,
    "Ġletter": 2198,
    "Ġhes": 6250,
    "Ġboundless": 10495,
    "Ġ130": 24781,
    "Ġsomeone": 6703,
    "Ġslit": 13054,
    "uits": 21103,
    "Ġtorture": 9064,
    "inv": 8400,
    "midnight": 14901,
    "Ġconjectured": 9996,
    "Ġstaple": 26198,
    "Ġresume": 18565,
    "Ġexal": 10877,
    "Ġinsufferable": 13930,
    "Ġkrempe": 10669,
    "detained": 24382,
    "Ġshooting": 11162,
    "unnecessary": 21877,
    "Ġvibrating": 13537,
    "Ġarrived": 3744,
    "Ġstructures": 2723,
    "Ġloft": 5642,
    "Ġclassify": 1546,
    "ference": 1881,
    "Ġdives": 17890,
    "Ġbrink": 18769,
    "professional": 20274,
    "Ġalas": 5921,
    "hotel": 20048,
    "waiter": 24586,
    "Ġspoon": 22131,
    "Ġhyster": 16873,
    "Ġnorton": 12646,
    "Ġaberde": 22274,
    "Ġaverages": 2399,
    "ur": 326,
    "Ġmathemat": 3203,
    "prolong": 23393,
    "harpooned": 24286,
    "Ġsatisfactory": 11193,
    "anelles": 26434,
    "Ġadoration": 18290,
    "mannered": 22850,
    "Ġhosts": 19937,
    "Ġsubstantiated": 25875,
    "Ġdistributed": 18661,
    "Ġbuilt": 8299,
    "ģ": 228,
    "Ġuproar": 22152,
    "Ġhostile": 19938,
    "Ġastonished": 7087,
    "Ġlights": 8960,
    "ree": 873,
    "being": 3912,
    "Ġhemis": 21681,
    "Ġannual": 14831,
    "Ġsubset": 9869,
    "Ģ": 227,
    "Ġimagenet": 19245,
    "Ġ77": 24263,
    "Ġperforming": 7927,
    "Ġjavelin": 26104,
    "disinterested": 23500,
    "Ġcompanies": 14558,
    "Ġmotioned": 19591,
    "servant": 15035,
    "Ġtwo": 1042,
    "Ġsituated": 9447,
    "impatient": 13639,
    "Ġsong": 5902,
    "Ġbreath": 4790,
    "databases": 3024,
    "Ġreigns": 21668,
    "Ġbritain": 16956,
    "kily": 20936,
    "wedded": 24339,
    "Ġduration": 20352,
    "ibilities": 13005,
    "itying": 21991,
    "subject": 6631,
    "Ġcogent": 14272,
    "Ġsmoothed": 23658,
    "bb": 2800,
    "verity": 14000,
    "Ġvapors": 19907,
    "Ġbehavioral": 11396,
    "indispensable": 14209,
    "Ġinsp": 2103,
    "Ġhalloa": 13315,
    "Ġwoman": 2388,
    "Ġbristling": 20525,
    "Ġdevotion": 22735,
    "penetrating": 25490,
    "Ġcompanions": 5865,
    "Ġdart": 4584,
    "Ġsanctioned": 26349,
    "Ġdecreed": 18482,
    "Ġprovincial": 20649,
    "Ġsepul": 14089,
    "Ġretarded": 23069,
    "Ġcheerless": 16694,
    "Ġmonoman": 7938,
    "Ġtwentieth": 18659,
    "Ġvacant": 9494,
    "Ġjacket": 6489,
    "Ġinterest": 2251,
    "Ġaback": 22263,
    "pervading": 18956,
    "yourself": 6742,
    "Ġparent": 14645,
    "Ġsire": 15501,
    "Ġhatches": 12043,
    "Ġmorocco": 26573,
    "uberance": 25916,
    "Ġrock": 5310,
    "Ġevangel": 11280,
    "Ġemblematical": 25788,
    "satisf": 5781,
    "Ġfeast": 10277,
    "Ġreasoner": 14437,
    "Ġmounted": 7832,
    "Ġgases": 21599,
    "elastic": 17980,
    "Ġghostly": 24650,
    "Ġdiversity": 25284,
    ",--âĢľ": 19196,
    "Ġwound": 4526,
    "Ġbarren": 11206,
    "Ġtriumphant": 12187,
    "Ġuncommon": 5026,
    "withstanding": 8945,
    "Ġprisoner": 8672,
    "una": 21866,
    "Ġgriff": 22803,
    "Ġrush": 5924,
    "!--": 10677,
    "Ġhowling": 8509,
    "Ġcalculus": 23980,
    "semic": 21818,
    "Ġbengal": 18785,
    "comple": 7441,
    "etw": 405,
    "Ġround": 1371,
    "Ġnibbling": 17384,
    "ssible": 2991,
    "attain": 21260,
    "braces": 24658,
    "ashions": 16417,
    "Ġperuvian": 18448,
    "Ġdeliberation": 19967,
    "Ġcritically": 23444,
    "Ġreadily": 5253,
    "arth": 4442,
    "Ġsleepless": 14582,
    "Ġanyhow": 14254,
    "retch": 4370,
    "tubs": 15129,
    "Ġweights": 897,
    "Ġprep": 4189,
    "wicked": 24449,
    "Ġflickering": 23013,
    "ially": 9245,
    "endeav": 7150,
    "ensed": 10995,
    "Ġanonymous": 26178,
    "Ġrespectful": 16344,
    "Ġminutest": 14560,
    "Ġcollar": 11877,
    "Ġbreathing": 9444,
    "Ġutensils": 23513,
    "neighboring": 20615,
    "mockery": 24378,
    "ric": 1377,
    "Ġpeculiarity": 12930,
    "Ġjove": 9267,
    "<MASK>": 4,
    "Ġshallow": 14394,
    "olerable": 7182,
    "moral": 14801,
    "employ": 10895,
    "tarpaul": 21096,
    "Ġcaused": 5048,
    "Ġinfirmity": 26298,
    "centre": 17087,
    "arrangement": 17414,
    "Ġinnumerable": 13350,
    "spending": 18690,
    "Ġpencil": 11941,
    "Ġinvol": 1061,
    "Ġresemble": 15691,
    "Ġcandles": 9907,
    "ivance": 22080,
    "Ġflap": 14421,
    "Ġbough": 13893,
    "Ġlethargy": 26483,
    "Ġflowery": 16231,
    "avish": 22591,
    "Ġconsort": 18723,
    "Ġvirgin": 7328,
    "Ġsleepers": 13148,
    "Ġsteadfast": 8678,
    "Ġcorrection": 5062,
    "Ġpoured": 8800,
    "teak": 22814,
    "Ġdim": 4756,
    "Ġimmaculate": 19484,
    "birds": 15143,
    "Ġlac": 17964,
    "his": 1411,
    "Ġnicely": 8708,
    "Ġopenly": 8572,
    "Ġinsane": 19268,
    "Ġ26": 10470,
    "_;": 6640,
    "Ġtortures": 14922,
    "Ġdesperation": 19817,
    "cool": 19187,
    "Ġfruit": 12324,
    "Ġuncertain": 4065,
    "ington": 21300,
    "Ġrele": 2918,
    "Ġtails": 9901,
    "Ġinflict": 15001,
    "Ġheadsman": 13273,
    "Ġkeeps": 8266,
    "hob": 20899,
    "Ġmiserably": 12945,
    "Ġleviathans": 8281,
    "estate": 12818,
    "bes": 6641,
    "begged": 18520,
    "Ġelevates": 24503,
    "Ġprepared": 5876,
    "Ġblo": 2736,
    "counter": 20277,
    "mem": 10709,
    "Ġtickets": 17094,
    "Ġcranes": 20381,
    "uses": 11759,
    "Ġfrantic": 7956,
    "Ġmund": 21316,
    "Ġespecial": 26410,
    "Ġguardian": 14941,
    "Ġrust": 6408,
    "Ġhate": 5445,
    "Ġbox": 5109,
    "Ġtrag": 13036,
    "fic": 20851,
    "Ġpotency": 14646,
    "estim": 14169,
    "fates": 20857,
    "Ġretrieval": 10674,
    "Ġenergetic": 15196,
    "Ġdolph": 12378,
    "irt": 3077,
    "ugging": 23288,
    "Ġfootfall": 14661,
    "ouched": 4636,
    "Ġtoast": 21509,
    "ste": 3583,
    "Ġburial": 16522,
    "Ġsympath": 4860,
    "Ġla": 5912,
    "inter": 2949,
    "Ġswallow": 8950,
    "Ġcursory": 18858,
    "Ġemboldened": 22979,
    "Ġnote": 4263,
    "threadbare": 25989,
    "Ġcyl": 15555,
    "Ġsmacking": 20164,
    "Ġsurrounds": 24231,
    "Ġassemblage": 26351,
    "Ġexceed": 1345,
    "Ġd": 284,
    "Ġaroused": 15902,
    "Ġaccept": 4410,
    "Ġoverhead": 11771,
    "Ġsafer": 22167,
    "hamed": 6305,
    "horn": 8085,
    "Ġrenewing": 19809,
    "Ġincreasingly": 9370,
    "Ġabrupt": 9735,
    "idav": 18092,
    "Ġhurled": 10429,
    "å": 166,
    "Ġanecd": 20153,
    "Ġphysi": 9987,
    "Ġsurmised": 24919,
    "Ġshield": 21996,
    "Ġyouthful": 16723,
    "Ġen": 392,
    "Ġreynolds": 10209,
    "ben": 4925,
    "Ġvindictiveness": 25738,
    "Ġexceedingly": 4613,
    "Ġetc": 7084,
    "Ġfidelity": 15240,
    "Ġages": 7027,
    "Ġgrinned": 16857,
    "Ġvoyager": 16511,
    "Ġdeeply": 4716,
    "Ġmiserable": 3632,
    "Ġanytime": 12882,
    "Ġpolite": 9881,
    "Ġdisposed": 7083,
    "ieves": 4005,
    "castle": 3351,
    "uting": 15658,
    "Ġfaulty": 14906,
    "Ġequally": 5257,
    "Ġmedical": 9463,
    "through": 4022,
    "holmes": 4430,
    "Ġdescribes": 3122,
    "iding": 3845,
    "kine": 15374,
    "Ġunseen": 3523,
    "pard": 9618,
    "Ġrabbit": 4288,
    "Ġsobs": 14132,
    "buffalo": 20562,
    "Ġeleven": 9389,
    "Ġrested": 9378,
    "Ġbreakers": 12053,
    "anations": 12573,
    "anced": 1304,
    "fooled": 24419,
    "Ġcontributed": 16008,
    "Ġinstructions": 11196,
    "Ġappropriate": 2252,
    "fights": 20864,
    "ications": 4444,
    "Ġboughs": 20487,
    "Ġuneasily": 24230,
    "Ġsprain": 18305,
    "Ġwedged": 24068,
    "Ġvacancy": 9044,
    "rip": 9240,
    "pun": 9617,
    "Ġsche": 1706,
    "Ġtemporal": 2613,
    "zy": 2672,
    "benevol": 12224,
    "Ġdispel": 16596,
    "Ġlater": 6016,
    "Ġimplore": 24872,
    "Ġcapacity": 10440,
    "Ġcurve": 22996,
    "Ġindispensable": 11898,
    "Ġmock": 3690,
    "Ġleaks": 16448,
    "spouter": 22730,
    "magnificent": 20273,
    "desper": 13067,
    "Ġling": 7377,
    "elt": 4114,
    "Ġham": 3422,
    "Ġnecks": 18179,
    "Ġparlour": 12319,
    "Ġunspeak": 8850,
    "Ġapprehending": 26090,
    "Ġrefusal": 10344,
    "Ġcanoes": 12802,
    "downward": 16619,
    "wheeler": 16188,
    "olds": 9310,
    "Ġsecret": 3718,
    "Ġmountainous": 16599,
    "Ġtransitory": 16027,
    "Ġ30": 10511,
    "nue": 15396,
    "ghan": 19453,
    "Ġsensitive": 13196,
    "Ġknew": 2055,
    "Ġaffidavit": 20723,
    "Ġrevolver": 14899,
    "notice": 16146,
    "Ġsworn": 14434,
    "rimin": 2425,
    "Ġshocked": 9400,
    "hawks": 24694,
    "Ġfigure": 4204,
    "Ġpropag": 16346,
    "Ġsir": 1573,
    "Ġsuccour": 20433,
    "Ġvigorous": 10566,
    "cruising": 12277,
    "Ġproposals": 10613,
    "Ġcable": 11579,
    "ju": 13740,
    "friends": 8305,
    "elves": 2162,
    "Ġacres": 14312,
    "Ġgoble": 14229,
    "Ġtenderly": 11314,
    "Ġchristian": 6479,
    "Ġsimplest": 16333,
    "Ġmemory": 2277,
    "oc": 2836,
    "makes": 10711,
    "Ġmaze": 23828,
    "Ġhapless": 15814,
    "Ġphilosophy": 7103,
    "Ġunparalleled": 15852,
    "Ġreasonably": 11089,
    "ichever": 13956,
    "windibank": 24161,
    "Ġlect": 9222,
    "indirect": 22369,
    "abular": 4761,
    "Ġbritish": 11337,
    "Ġswear": 6461,
    "ivil": 6411,
    "compar": 14360,
    "cabin": 8362,
    "Ġrescue": 13341,
    "Ġwipe": 25764,
    "Ġoverlapping": 26238,
    "&": 10,
    "Ġsole": 3299,
    "Ġproviding": 1363,
    "mayhew": 23989,
    "Ġancles": 21444,
    "Ġmanip": 8871,
    "thanking": 24330,
    "mine": 5618,
    "hem": 6663,
    "Ġsticks": 14930,
    "keepers": 16659,
    "Ġsqueaking": 26274,
    "Ġaffirm": 11887,
    "Ġmixture": 9562,
    "Ġcousins": 9914,
    "new": 1466,
    "Ġwestern": 10654,
    "appre": 14369,
    "Ġunmindful": 22063,
    "increasing": 20268,
    "furnish": 25338,
    "Ġott": 13865,
    "Ġsurging": 19133,
    "speak": 5504,
    "Ġfootmen": 23796,
    "Ġarticle": 9501,
    "Ġpecks": 18669,
    "Ġspades": 12793,
    "Ġunclasp": 26511,
    "Ġcopy": 10163,
    "shorn": 22444,
    "angry": 18294,
    "Ġreducing": 1958,
    "Ġcircling": 19092,
    "Ġoblig": 3446,
    "Ġknows": 4159,
    "Ġrelaxed": 12980,
    "vous": 2254,
    "Ġmelbourne": 24289,
    "three": 5238,
    "Ġeddying": 16435,
    "colour": 9902,
    "harm": 13734,
    "Ġconcentric": 20073,
    "Ġturner": 7049,
    "commanders": 16989,
    "Ġajar": 21201,
    "ring": 1753,
    "ined": 1257,
    "ze": 1326,
    "picture": 11407,
    "spermaceti": 12191,
    "Ġalgorithm": 775,
    "Ġcomprehend": 6494,
    "Ġanomaly": 25636,
    "Ġ120": 16858,
    "sound": 6799,
    "Ġreprehensible": 15697,
    "Ġreign": 13984,
    "reward": 15509,
    "trust": 21077,
    "Ġtrailing": 23076,
    "Ġconverted": 16113,
    "raged": 9211,
    "Ġstup": 14004,
    "Ġextremely": 2671,
    "Ġordered": 5832,
    "ursday": 12274,
    "magistrate": 19862,
    "belated": 24034,
    "appeared": 4281,
    "Ġcuff": 17829,
    "load": 12878,
    "Ġkicking": 16901,
    "Ġconcerned": 5331,
    "ceased": 21623,
    "Ġneglig": 18877,
    "Ġattending": 3285,
    "hastened": 16845,
    "Ġfig": 3622,
    "Ġfict": 21403,
    "mopol": 15395,
    "Ġproportionate": 17043,
    "warn": 11542,
    "undertaking": 23786,
    "Ġey": 8134,
    "Ġsideboard": 10385,
    "greater": 13250,
    "Ġintimidated": 24805,
    "aus": 1502,
    "Ġfugitives": 25634,
    "Ġstamp": 7863,
    "richard": 17286,
    "Ġnest": 10188,
    "brink": 23575,
    "asher": 15644,
    "ogn": 2482,
    "Ġbloodshed": 23799,
    "90": 12430,
    "Ġdiscretion": 10347,
    "Ġhip": 17920,
    "asted": 4649,
    "vid": 916,
    "tor": 15432,
    "Ġhove": 17922,
    "destined": 24114,
    "Ġfancies": 10424,
    "Ġhar": 5814,
    "Ġblessing": 11263,
    "cripp": 20818,
    "Ġroutine": 13507,
    "Ġfatigue": 8697,
    "Ġsupper": 4665,
    "scene": 14418,
    "definition": 23115,
    "Ġcarving": 14442,
    "Ġlottery": 19887,
    "Ġwaterward": 23365,
    "Ġflorid": 17135,
    "Ġunnear": 22025,
    "Ġbizarre": 17871,
    "bread": 10684,
    "Ġharpo": 1943,
    "Ġrevenue": 26194,
    "Ġubiqu": 18046,
    "uncomfortable": 18160,
    "service": 15036,
    "Ġvengeful": 14889,
    "bourgh": 19103,
    "Ġlodger": 24089,
    "southern": 20407,
    "Ġunalterable": 15850,
    "accusations": 23598,
    "base": 20776,
    "olog": 1104,
    "lacings": 26134,
    "Ġdifferen": 936,
    "Ġmonica": 22975,
    "Ġapprehensions": 13403,
    "Ġpianoforte": 15272,
    "Ġtopic": 9405,
    "ivering": 7698,
    "usiveness": 22290,
    "Ġperturbation": 20439,
    "cousin": 10652,
    "Ġunite": 9253,
    "Ġbottom": 3672,
    "lift": 15383,
    "'re": 12426,
    "abilities": 3236,
    "Ġgamy": 17998,
    "Ġfiercely": 12949,
    "Ġisland": 4046,
    "Ġhap": 18197,
    "loss": 22504,
    "Ġ2": 2929,
    "Ġrus": 14092,
    "Ġpuzzle": 11305,
    "Ġcharged": 9853,
    "enced": 4295,
    "Ġsit": 4215,
    "Ġthinker": 22806,
    "topic": 10527,
    "Ġpolluted": 25593,
    "Ġwearily": 18177,
    "ounds": 4157,
    "Ġresid": 22535,
    "Ġlost": 2637,
    "Ġxiv": 23406,
    "Ġrucastle": 5176,
    "shattered": 22446,
    "islanders": 25442,
    "Ġevinced": 7100,
    "Ġwashes": 21858,
    "Ġprogen": 14038,
    "noon": 5037,
    "ained": 3066,
    "Ġ275": 20109,
    "interest": 5421,
    "Ġtackle": 9512,
    "Ġchas": 18379,
    "Ġblades": 11893,
    "Ġdesignated": 19520,
    "Ġuppermost": 15277,
    "avenue": 25057,
    "olent": 8154,
    "Ġentertained": 9997,
    "Ġconnected": 5393,
    "Ġgrec": 18962,
    "Ġchain": 1843,
    "Ġeagerly": 4989,
    "lanterns": 17428,
    "Ġerroneous": 17408,
    "Ġspain": 15879,
    "prehens": 9288,
    "Ġcred": 8780,
    "54": 15298,
    "jar": 17577,
    "playing": 19656,
    "Ġsubfield": 11867,
    "Ġadro": 15866,
    "Ġrolling": 5974,
    "Ġpump": 12618,
    "Ġshowing": 7731,
    "ductive": 23933,
    "pretty": 10621,
    "Ġeverything": 3156,
    "Ġeating": 8135,
    "Ġwinged": 16995,
    "Ġexhausting": 24710,
    "Ġacquitted": 18898,
    "Ġoffices": 14337,
    "dread": 8728,
    "Ġnoteworthy": 24162,
    "Ġconsol": 3814,
    "creator": 26381,
    "Ġcaptive": 14426,
    "developed": 15263,
    "Ġanswering": 7478,
    "Ġbeaver": 18085,
    "Ġpitiful": 13237,
    "Ġfumbling": 21415,
    "Ġwithdra": 6398,
    "Ġblowing": 10484,
    "Ġrecklessly": 16983,
    "Ġalleged": 17290,
    "Ġvisited": 5947,
    "rose": 6013,
    "Ġwhimsical": 20426,
    "Ġenormous": 5609,
    "Ġfarmhouse": 24984,
    "Ġnoisy": 13317,
    "Ġhey": 11640,
    "ord": 668,
    "Ġrecogn": 2680,
    "mbly": 9794,
    "Ġgloss": 11956,
    "tasted": 17687,
    "impud": 23758,
    "Ġannoyance": 20661,
    "hic": 3249,
    "Ġcattle": 12569,
    "Ġphren": 8571,
    "wond": 8767,
    "Ġnatural": 1099,
    "Ġsperm": 1842,
    "enderby": 25215,
    "Ġtrembled": 8701,
    "estab": 14170,
    "forty": 9373,
    "folly": 20861,
    "Ġatone": 15801,
    "Ġwithout": 1123,
    "Ġinsip": 19266,
    "Ġrob": 1275,
    "Ġgasp": 7172,
    "Ġcontinued": 2923,
    "cheer": 9436,
    "Ġchallenges": 13629,
    "Ġburgl": 13172,
    "felix": 10653,
    "Ġjohn": 5032,
    "Ġworsted": 19993,
    "every": 2812,
    "Ġserving": 14485,
    "Ġprodigiously": 14931,
    "wore": 21123,
    "Ġregained": 18590,
    "Ġforeseen": 16443,
    "Ġheroic": 14907,
    "motion": 17606,
    "Ġdiverted": 14592,
    "Ġvernal": 23886,
    "Ġwidth": 16772,
    "Ġpert": 22384,
    "Ġentertain": 6053,
    "Ġreceptacle": 23188,
    "lant": 20946,
    "Ġbled": 17857,
    "Ġwast": 21857,
    "ondency": 15268,
    "Ġabide": 14187,
    "Ġcutting": 4982,
    "strikes": 24670,
    "Ġshoes": 7071,
    "delivered": 24099,
    "alid": 13934,
    "Ġcities": 17827,
    "Ġtatters": 21176,
    "knight": 20939,
    "Ġrelieved": 7666,
    "Ġtooth": 9192,
    "Ġinvective": 26181,
    "Ġeye": 2282,
    "Ġdenoted": 16565,
    "Ġadler": 8173,
    "Ġdesign": 4130,
    "Ġscept": 15503,
    "Ġwarmer": 19185,
    "impregnable": 26481,
    "onze": 21254,
    "Ġlift": 8810,
    "Ġboast": 7034,
    "vacancies": 25919,
    "Ġin": 291,
    "Ġtone": 4037,
    "Ġdevoutly": 25832,
    "Ġdespaired": 14668,
    "Ġeternities": 19941,
    "Ġstump": 7603,
    "asets": 2310,
    "Ġinf": 1757,
    "Ġbodings": 21389,
    "blacksmith": 17001,
    "Ġwind": 1432,
    ").âĢĿ": 20740,
    "call": 8722,
    "Ġinvolving": 18765,
    "severe": 21816,
    "ascended": 24706,
    "Ġprecision": 13186,
    "admirably": 24944,
    "osition": 1375,
    "zors": 21146,
    "z": 94,
    "Ġtoma": 7373,
    "Ġcountry": 2533,
    "Ġestimation": 11218,
    "Ġdair": 17889,
    "uth": 3018,
    "Ġcobbling": 20521,
    "Ġrollicking": 24451,
    "Ġstruck": 3391,
    "separated": 20158,
    "protection": 19919,
    "Ġdomain": 3306,
    "Ġmuslin": 19381,
    "Ġbarrowful": 25595,
    "allied": 7410,
    "Ġacc": 572,
    "\"]": 17470,
    "Ġsuperlative": 26074,
    "Ġnation": 12644,
    "Ġknocked": 9499,
    "Ġalb": 14015,
    "nose": 17610,
    "Ġinspector": 6498,
    "ighbour": 3390,
    "ided": 2785,
    "Ġmet": 1828,
    "Ġlabeled": 3716,
    "Ġmanaged": 7905,
    "benevolent": 15232,
    "mai": 22911,
    "ges": 2875,
    "iced": 3899,
    "Ġgazes": 24091,
    "Ġsage": 17752,
    "acity": 5735,
    "Ġsimilitude": 19210,
    "ized": 1527,
    "Ġsubord": 22785,
    "Ġ100": 14364,
    "Ġplan": 3880,
    "Ġclusters": 25232,
    "lanter": 15386,
    "Ġvisit": 2583,
    "urs": 6989,
    "Ġtiresome": 26156,
    "Ġfam": 1589,
    "Ġbour": 4875,
    "Ġfashions": 17885,
    "lizzy": 6651,
    "quite": 4646,
    "Ġreasoned": 23057,
    "gaining": 20122,
    "Ġunassuming": 20507,
    "Ġlivel": 11355,
    "Ġbidden": 24646,
    "Ġrequested": 14305,
    "Ġguests": 12285,
    "oldened": 22638,
    "Ġportable": 19368,
    "Ġfamine": 16327,
    "Ġobedient": 20103,
    "Ġdwelt": 12602,
    "Ġtraining": 530,
    "Ġyanke": 18097,
    "Ġhilarious": 20297,
    "asting": 12803,
    "astic": 1866,
    "Ġsculpt": 15945,
    "Ġvenerable": 9093,
    "Ġfergus": 16867,
    "longer": 8612,
    "mpus": 13756,
    "etics": 21578,
    "bitts": 26122,
    "cturn": 17986,
    "Ġ(_": 3734,
    "Ġconclude": 8580,
    "ctu": 5088,
    "Ġpurport": 14581,
    "ĠĠĠĠĠĠĠĠĠĠĠĠĠĠĠĠĠĠĠĠĠĠĠĠĠĠĠĠĠĠĠĠĠĠĠĠĠĠĠĠĠĠĠĠĠĠĠĠĠĠĠĠĠ": 20038,
    "Ġwhirlp": 16963,
    "Ġfaint": 5811,
    "significant": 25082,
    "dressing": 11481,
    "Ġsubstitute": 16726,
    "Ġrhine": 12354,
    "usages": 22287,
    "ached": 2321,
    "Ġessex": 20125,
    "vand": 21107,
    "Ġspeeches": 22655,
    "Ġvaluable": 5608,
    "y": 93,
    "Ġspecies": 5112,
    "Ġgracefully": 13390,
    "rapid": 12667,
    "Ġpow": 4637,
    "Ġ2026": 12333,
    "Ġlobsters": 13516,
    "Ġseasonable": 24406,
    "Ġdashes": 21432,
    "icting": 12848,
    "Ġlump": 21549,
    "Ġacknowled": 6350,
    "Ġtechnically": 12364,
    "Ġfeigned": 22206,
    "izabeth": 906,
    "Ġtacit": 21173,
    "Ġfirmness": 11237,
    "Ġpreventing": 883,
    "Ġsm": 704,
    "Ġdirty": 9178,
    "entreaties": 26185,
    "give": 4688,
    "Ġlashings": 25097,
    "Ġbreaking": 6310,
    "Ġminute": 4278,
    "Ġheeded": 13402,
    "Ġcigar": 9544,
    "Ġunsub": 22020,
    "Ġpainful": 6462,
    "txt": 12513,
    "1": 21,
    "Ġformula": 2867,
    "Ġsecretly": 13270,
    "è": 169,
    "Ġire": 12666,
    "Ġequal": 4133,
    "say": 3983,
    "Ġattached": 5392,
    "ign": 1704,
    "depend": 9112,
    "utterly": 20010,
    "surprising": 16919,
    "Ġtranquill": 6630,
    "Ġunsc": 22011,
    "holloa": 19462,
    "Ġspoilt": 24807,
    "Ġaccurate": 13248,
    "Ġsurmise": 12293,
    "Ġenormity": 19694,
    "Ġunsolved": 22030,
    "european": 26371,
    "Ġgratitude": 5599,
    "about": 3585,
    "Ġdoc": 7200,
    "Ġringed": 16750,
    "Ġcorruption": 15224,
    "sighted": 19784,
    "arabian": 26446,
    "nings": 9131,
    "conclude": 24063,
    "Ġfrantically": 23255,
    "value": 18804,
    "Ġdisgu": 8205,
    "Ġvincent": 15282,
    "aren": 10073,
    "Ġdeser": 3885,
    "mediate": 16512,
    "theast": 21745,
    "Ġphilips": 5410,
    "Ġreport": 6191,
    "dashed": 12453,
    "hertfordshire": 10936,
    "Ġcanaller": 25467,
    "Ġdeductions": 19732,
    "Ġconveyed": 8334,
    "Ġpals": 13917,
    "Ġsagittarius": 24732,
    "Ġscore": 9737,
    "Ġsudden": 2001,
    "ires": 6037,
    "Ġaccorded": 24086,
    "Ġstrateg": 1357,
    "Ġfeeble": 12282,
    "Ġnovember": 11747,
    "Ġpasseng": 12968,
    "Ġpublicly": 13321,
    "Ġreally": 2163,
    "Ġexert": 5722,
    "Ġwholesome": 16004,
    "anzas": 17840,
    "draw": 23896,
    "Ġnat": 12642,
    "mile": 17597,
    "Ġequator": 7461,
    "Ġbarely": 16936,
    "Ġdexterous": 15147,
    "Ġdecap": 16018,
    "omeness": 18015,
    "cas": 20793,
    "Ġwee": 21916,
    "Ġtransf": 22460,
    "Ġpict": 3499,
    "Ġcounteracted": 19861,
    "hend": 13251,
    "Ġlast": 1124,
    "Ġassociation": 24711,
    "Ġgpt": 4350,
    "venerable": 26408,
    "tranqu": 14705,
    "Ġmagnet": 10389,
    "Ġsour": 21215,
    "Ġhatty": 19264,
    "đ": 210,
    "Ġshores": 8847,
    "Ġjerking": 12243,
    "Ġdemoniac": 15063,
    "Ġvote": 21944,
    "Ġpainter": 19167,
    "istical": 8489,
    "Ġlestrade": 5825,
    "Ġswash": 23052,
    "Ġgeorgiana": 8625,
    "Ġvolcanoes": 24146,
    "Ġaffinity": 18789,
    "Ġrecesses": 17260,
    "Ġimprecations": 25821,
    "_.,": 14562,
    "Ġhammered": 13238,
    "Ġ25": 13191,
    "Ġforgot": 4683,
    "aries": 6244,
    "Ġmyster": 5925,
    "distinctive": 25726,
    "valu": 1664,
    "Ġhouse": 1504,
    "ties": 2759,
    "Ġanchor": 7368,
    "fal": 17536,
    "Ġaerial": 21197,
    "Ġexercise": 8358,
    "Ġincreas": 1694,
    "Ġimpud": 18451,
    "erably": 7574,
    "wooden": 24587,
    "Ġmathematical": 3352,
    "cho": 2761,
    "ub": 1223,
    "Ġmusky": 19380,
    "doors": 19094,
    "brary": 5755,
    "arab": 21439,
    "Ġdiv": 3729,
    "Ġbias": 1190,
    "aught": 2683,
    "Ġzones": 22816,
    "warning": 25531,
    "inferences": 17739,
    "station": 10844,
    "wheels": 14380,
    "Ġsupplied": 8943,
    "comp": 3815,
    "terday": 4704,
    "Ġserpent": 6737,
    "Ġendwise": 23139,
    "Ġalike": 8146,
    "securer": 25602,
    "jumping": 20244,
    "Ġticking": 25033,
    "Ġpublic": 4331,
    "leisure": 21369,
    "arius": 14248,
    "prove": 11147,
    "displayed": 20735,
    "headers": 23105,
    "aits": 20765,
    "Ġstopping": 2751,
    "saf": 11524,
    "going": 6313,
    "transferred": 24514,
    "Ġeasily": 3889,
    "Ġeconomically": 25288,
    "gre": 5788,
    "effort": 19214,
    "Ġpowdered": 24237,
    "Ġangry": 5498,
    "politeness": 16906,
    "vain": 15447,
    "Ġpair": 5706,
    "Ġreduced": 11922,
    "Ġjeroboam": 10600,
    "Ġap": 5008,
    "hammer": 14489,
    "ashes": 6015,
    "Ġswell": 8949,
    "land": 1531,
    "amore": 21853,
    "Ġmalay": 24391,
    "Ġsubmission": 22787,
    "Ġcritical": 7476,
    "Ġutterly": 6100,
    "Ġmitigating": 1622,
    "Ġbanish": 15568,
    "Ġdelights": 14596,
    "Ġirons": 7696,
    "Ġdemeanour": 17336,
    "commanding": 24752,
    "Ġ47": 14770,
    "Ġsemantics": 2896,
    "Ġprocopius": 19730,
    "regard": 7972,
    "Ġlines": 4532,
    "ips": 2592,
    "iline": 21718,
    "Ġfasten": 11132,
    "Ġcommentaries": 20159,
    "pequod": 7052,
    "Ġexhale": 24402,
    "arms": 10173,
    "Ġsigmoid": 2463,
    "lion": 20943,
    "ink": 754,
    "Ġconfession": 11235,
    "safe": 10053,
    "ob": 1419,
    "Ġdenial": 13213,
    "Ġarrives": 23606,
    "Ġpure": 6137,
    "Ġunheeded": 18261,
    "Ġgiddy": 20495,
    "learnt": 23485,
    "!âĢĻ": 3334,
    "father": 3775,
    "Ġcomprehensiveness": 25072,
    "engine": 18926,
    "believe": 8303,
    "Ġdeified": 18140,
    "frantic": 24283,
    "omorrah": 18017,
    "gely": 10700,
    "Ġnor": 1553,
    "Ġblessings": 24176,
    "Ġspend": 5304,
    "unearthly": 19272,
    "actor": 11836,
    "contrasted": 17305,
    "erringly": 16212,
    "Ġay": 15491,
    "friend": 3861,
    "hosmer": 25902,
    "Ġcargo": 16289,
    "Ġswimmer": 19457,
    "Ġsnuff": 7991,
    "Ġprediction": 2145,
    "Ġpatted": 16365,
    "Ġexcurs": 23311,
    "apprehens": 17405,
    "Ġpine": 8796,
    "thousands": 16872,
    "Ġtusk": 25425,
    "Ġafrica": 12343,
    "Ġhull": 5446,
    "Ġunbelief": 22046,
    "storm": 9681,
    "Ġmode": 8497,
    "glings": 23849,
    "Ġcome": 1239,
    "Ġshrimp": 24157,
    "orrah": 17875,
    "tribute": 21087,
    "jury": 15372,
    "abashed": 21789,
    "Ġdisputes": 25825,
    "boiling": 19000,
    "Ġtransparency": 10676,
    "class": 4095,
    "Ġpredecessor": 26253,
    "Ġentailed": 11027,
    "accompanied": 12420,
    "Ġencountering": 11269,
    "Ġadversary": 12171,
    "Ġweb": 9239,
    "ermost": 7430,
    "Ġsoliloquized": 17301,
    "Ġunctuousness": 17234,
    "recurrent": 4994,
    "Ġforgotten": 5679,
    "Ġmis": 917,
    "inations": 7568,
    "ronted": 14876,
    "Ġplaster": 16082,
    "Ġuniformity": 23482,
    "rael": 21626,
    "une": 2786,
    "Ġshiver": 12764,
    "Ġvillainous": 25131,
    "Ġrevolutionized": 3368,
    "Ġpredomin": 16035,
    "Ġtoken": 2039,
    "explain": 1479,
    "Ġsinful": 18948,
    "specim": 23941,
    "mole": 22698,
    "iza": 6255,
    "Ġeligible": 10670,
    "Ġmicha": 17811,
    "Ġextort": 22713,
    "dinner": 11406,
    "violently": 23542,
    "ushed": 2970,
    "Ġsensation": 6896,
    "east": 9115,
    "respect": 6374,
    "Ġcoer": 22578,
    "Ġignorance": 6618,
    "Ġspec": 1260,
    "Ġsporting": 16999,
    "Ġwhirl": 13448,
    "stud": 8819,
    "Ġoh": 2178,
    "Ġpassage": 3883,
    "Ġvapor": 8699,
    "pain": 7350,
    "Ġcrony": 23439,
    "Ġluckless": 16797,
    "breathing": 25335,
    "Ġmighty": 4229,
    "Ġladies": 3193,
    "ife": 1024,
    "antled": 18287,
    "field": 3072,
    "Ġattaining": 15802,
    "Ġfielding": 16242,
    "Ġcav": 13879,
    "Ġhindoo": 17175,
    "Ġreflected": 2910,
    "Ġboy": 3022,
    "gam": 10095,
    "azing": 7704,
    "Ġl": 303,
    "cries": 17510,
    "Ġnonce": 23234,
    "Ġtwitch": 22673,
    "wishes": 13806,
    "Ġsacred": 10930,
    "Ġcushion": 17833,
    "Ġ79": 24264,
    "Ġinhabitants": 7525,
    "Ġapprehended": 26091,
    "onings": 21251,
    "Ġnich": 21517,
    "Ġunexpected": 6841,
    "introduced": 15123,
    "Ġnoses": 18372,
    "piteous": 21032,
    "Ġloathsome": 13527,
    "Ġmoist": 9284,
    "_?âĢĿ": 15304,
    "real": 10149,
    "Ġundiscernible": 22065,
    "dw": 3335,
    "Ġmake": 1284,
    "various": 10397,
    "erer": 8731,
    "Ġterrific": 6754,
    "io": 3800,
    "Ġvishnoo": 12750,
    "highest": 20406,
    "Ġhedge": 8363,
    "Ġseclusion": 18208,
    "Ġdrifted": 14625,
    "Ġpurchases": 24756,
    "Ġsagacious": 14970,
    "Ġstraps": 19308,
    "overing": 6306,
    "Ġgrud": 17995,
    "Ġsurprised": 3829,
    "Ġpace": 9183,
    "Ġhealed": 21680,
    "time": 3148,
    "dles": 11480,
    "Ġmira": 8406,
    "boscombe": 26121,
    "Ġmeditate": 16682,
    "Ġenhance": 3059,
    "Ġperfidious": 25666,
    "Ġsnoo": 21227,
    "Ġbecame": 2694,
    "droppers": 24759,
    "browed": 25894,
    "Ġteaching": 10363,
    "disappo": 8984,
    "alous": 7372,
    "Ġhumiliating": 22879,
    "Ġwhar": 7388,
    "exe": 11787,
    "Ġstepdaughter": 22607,
    "nurs": 20998,
    "Ġuncork": 23428,
    "Ġdoze": 14176,
    "Ġstraggling": 23748,
    "Ġcasualty": 20340,
    "Ġrally": 21968,
    "Ġeliminating": 20618,
    "Ġjup": 15951,
    "Ġumb": 11645,
    "racing": 21628,
    "organic": 25946,
    "halfway": 24311,
    "lydia": 6826,
    "Ġunintelligible": 26514,
    "Ġbridges": 24682,
    "uguese": 20731,
    "I": 45,
    "Ġsidelong": 11438,
    "Ġmultiple": 1186,
    "Ġelucidated": 26029,
    "Ġstrangest": 14795,
    "Ġspans": 18304,
    "iality": 8843,
    "Ġstoper": 14461,
    "mies": 20967,
    "Ġclothed": 19605,
    "Ġroll": 5381,
    "Ġcraven": 16470,
    "Ġgallon": 24184,
    "Ġitems": 9691,
    "Ġbelieves": 14406,
    "Ġwhisper": 6205,
    "Ġdecay": 1012,
    "Ġwest": 5219,
    "exposure": 19256,
    "Ġimport": 1083,
    "somers": 19366,
    "Ġeditions": 19120,
    "Ġglossy": 15226,
    "Ġlingered": 13504,
    "Ġroofs": 16985,
    "Ġimpassable": 20612,
    "Ġprinc": 4197,
    "Ġintersect": 22572,
    "arb": 1566,
    "immediate": 20092,
    "superior": 9524,
    "icial": 12652,
    "mend": 20965,
    "Ġentropy": 2032,
    "equal": 14992,
    "Ġger": 21588,
    "Ġdownward": 10331,
    "Ġbelt": 13000,
    "Ġbelted": 22945,
    "Ġcircles": 7966,
    "Ġled": 3521,
    "Ġlivid": 14988,
    "ik": 17571,
    "Ġswerve": 14436,
    "Ġconsequently": 8059,
    "Ġpushed": 5909,
    "bbings": 19275,
    "Ġrevered": 23731,
    "supposing": 24135,
    "happened": 9432,
    "certainly": 5339,
    "https": 11682,
    "highly": 24764,
    "Ġchiefly": 5766,
    "Ġverd": 6919,
    "Ġsimilarity": 3168,
    "Ġcopying": 17069,
    "choice": 21688,
    "ios": 2358,
    "tanh": 5204,
    "Ġbrad": 8786,
    "Ġaston": 3700,
    "Ġseemed": 1278,
    "lance": 12479,
    "liberal": 26281,
    "ston": 15681,
    "july": 20473,
    "Ġdeg": 3282,
    "Ġcountless": 16382,
    "Ġstowing": 18071,
    "Ġcircumvent": 25064,
    "Ġsheaves": 22155,
    "plunging": 25987,
    "Ġgeneration": 2135,
    "gentleness": 24844,
    "Ġintellig": 527,
    "Ġ(âĢľ": 15994,
    "Ġincapable": 7423,
    "Ġcultivated": 17363,
    "Ġinwards": 15619,
    "Ġcut": 2644,
    "Ġdaggoo": 5441,
    "¦": 104,
    "sk": 5521,
    "Ġmarket": 7708,
    "Ġoccas": 2705,
    "ful": 665,
    "Ġelevation": 14898,
    "Ġidentified": 19150,
    "Ġproper": 1379,
    "dance": 17519,
    "Ġfog": 9661,
    "Ġchorus": 10946,
    "hold": 3981,
    "Ġtyros": 26101,
    "renew": 24450,
    "pertaining": 22181,
    "Ġeighty": 19474,
    "Ġouter": 6859,
    "Ġcongenial": 12409,
    "Ġoverwhel": 8195,
    "commission": 22809,
    "swiftly": 20550,
    "Ġhardships": 14450,
    "Ġflatter": 9347,
    "Ġhotel": 8650,
    "untary": 9866,
    "set": 3864,
    "Ġwater": 1949,
    "Ġnotions": 14098,
    "Ġplanks": 5563,
    "Ġtests": 8957,
    "gloomy": 25144,
    "hoped": 20909,
    "Ġfamed": 16326,
    "Ġstreams": 12190,
    "Ġtravellers": 11308,
    "Ġremembr": 24170,
    "Ġheaded": 11055,
    "Ġcrowding": 13278,
    "earnestly": 17312,
    "aster": 1865,
    "Ġavail": 11226,
    "Ġkn": 4544,
    "Ġslate": 11936,
    "Ġnarration": 13503,
    "insanity": 23065,
    "Ġdec": 640,
    "lays": 14921,
    "Ġdyspeps": 16515,
    "Ġcarpenter": 4684,
    "lemency": 21372,
    "bone": 5612,
    "Ġskirt": 18729,
    "Ġbraided": 16581,
    "Ġdeceived": 6544,
    "remorse": 14465,
    "edged": 15629,
    "Ġdolphin": 17311,
    "Ġabsorbed": 12329,
    "Ġspies": 22125,
    "Ġso": 431,
    "llable": 6879,
    "enborough": 21284,
    "Ġestab": 6315,
    "Ġsolutions": 1948,
    "Ġsaratoga": 26423,
    "Ġenergy": 2552,
    "Ġoriental": 9096,
    "Ġcrowds": 14738,
    "thread": 15825,
    "fr": 4803,
    "minute": 11274,
    "oof": 15405,
    "frame": 17116,
    "Ġclothes": 4997,
    "appro": 7044,
    "Ġrejoined": 14926,
    "Ġsings": 15505,
    "Ġatmosphere": 10897,
    "among": 6256,
    "achine": 601,
    "fellow": 6792,
    "sheep": 23083,
    "Ġroanoke": 22404,
    "Ġcognitive": 13633,
    "rential": 22915,
    "apologizing": 26544,
    "Ġyielding": 12184,
    "virt": 15451,
    "sw": 4740,
    "Ġpresence": 5031,
    "Ġforbearance": 12326,
    "<SOS>": 1,
    "Ġdemo": 10880,
    "glanced": 19364,
    "Ġfortitude": 9884,
    "Ġinfancy": 10409,
    "Ġlegisl": 23534,
    "Ġimpending": 22392,
    "Ġshan": 9248,
    "uncontrollable": 20594,
    "Ġrelevance": 5184,
    "Ġpeels": 22688,
    "oring": 1859,
    "rocket": 13943,
    "Ġnonsensical": 21526,
    "Ġobstructed": 24677,
    "fool": 9047,
    "ahab": 4289,
    "Ġoutstanding": 22313,
    "Ġexpert": 18873,
    "unwillingly": 21881,
    "Ġshoreless": 24295,
    "Ġlucerne": 23862,
    "watson": 12241,
    "Ġtapers": 11551,
    "nevertheless": 8285,
    "Ġwhence": 5839,
    "Ġplunder": 22599,
    "education": 20300,
    "keen": 12779,
    "Ġoccasion": 3246,
    "Ġreplete": 15696,
    "Ġportion": 7493,
    "Ġsheet": 6262,
    "Ġmoles": 22429,
    "Ġgall": 4351,
    "Ġbraces": 14669,
    "Ġtorrent": 17092,
    "Ġdiscrete": 2477,
    "Ġhoping": 11104,
    "Ġdem": 11673,
    "dying": 10694,
    "Ġscience": 1530,
    "brÃ¦": 11175,
    "Ġforty": 5719,
    "interrupted": 11417,
    "Ġslavish": 23168,
    "ienced": 5685,
    "vic": 13801,
    "Ġleisurely": 24746,
    "Ġrepetition": 8972,
    "absolute": 17122,
    "mont": 19168,
    "due": 22407,
    "Ġ98": 24593,
    "Ġregulations": 18591,
    "sole": 6168,
    "amusement": 15281,
    "Ġheels": 10850,
    "usal": 7639,
    "!âĢĻâĢĿ": 16592,
    "Ġstag": 6148,
    "Ġhollows": 19740,
    "gypt": 8260,
    "Ġdepicted": 14283,
    "isle": 13891,
    "Ġacquaintance": 4131,
    "Ġmilliner": 19883,
    "Ġblight": 18817,
    "Ġpau": 17908,
    "Ġextrem": 2476,
    "Ġaims": 15496,
    "Ġinducement": 16843,
    "Ġtranslates": 12049,
    "sence": 3309,
    "obliv": 23093,
    "Ġwhether": 2002,
    "bearings": 25371,
    "Ġnavigation": 9992,
    "own": 745,
    "Ġpregnant": 26535,
    "hing": 983,
    "wishing": 21127,
    "Ġoccupies": 24005,
    "Ġmabel": 17323,
    "Ġfails": 13312,
    "Ġvill": 3876,
    "Ġby": 383,
    "Ġenthusiastic": 19964,
    "Ġdisputing": 25824,
    "till": 6965,
    "Ġseverely": 14932,
    "Ġlashing": 11615,
    "daw": 17522,
    "Ġunfeeling": 14118,
    "Ġsumm": 3357,
    "Ġlexicon": 25974,
    "humanity": 24839,
    "Ġ*/": 10373,
    "hoist": 23711,
    "russian": 22176,
    "Ĭ": 237,
    "Ġconviction": 6326,
    "protruding": 24816,
    "deserted": 18960,
    "acrity": 14278,
    "Ġseizing": 7878,
    "Ġperceptible": 18447,
    "force": 12956,
    "Ġdoubtful": 19141,
    "Ġoverladen": 22359,
    "Ġlimb": 9401,
    "Ġreinforcement": 3295,
    "impart": 21706,
    "Ġsatin": 12986,
    "equ": 6790,
    "abhor": 12704,
    "wife": 8100,
    "Ġgrimly": 17052,
    "Ġlining": 13950,
    "Ġastr": 15494,
    "cheeked": 19339,
    "Ġdiscol": 12950,
    "ist": 449,
    "Ġvectors": 1772,
    "Ġpuffed": 14976,
    "marked": 9048,
    "oot": 13764,
    "Ġfatally": 19392,
    "Ġover": 554,
    "Ġspasmodically": 17313,
    "Ġf": 283,
    "Ġgrandeur": 8627,
    "Ġod": 4438,
    "Ġdusty": 14924,
    "Ġcontinues": 18809,
    "swells": 26148,
    "Ġadjacent": 20710,
    "Ġachieves": 4378,
    "Ġstores": 18068,
    "itioned": 22466,
    "Ġdrunk": 9423,
    "Ġcompar": 4770,
    "Ġstairs": 5541,
    "ight": 403,
    "fortunate": 4791,
    "Ġglared": 13011,
    "Ġtattoo": 7359,
    "_),": 7125,
    "Ġruinous": 24633,
    "Ġframework": 2066,
    ",)": 9100,
    "Ġdarkness": 4277,
    "engagement": 14457,
    "Ġdissect": 16052,
    "Ġrelease": 19289,
    "Ġtransport": 11278,
    "Ġtawny": 20480,
    "ationally": 15703,
    "Ġfeared": 5930,
    "Ġassail": 13060,
    "Ġanticipating": 17059,
    "Ġyoke": 18095,
    "Ġphaeton": 17464,
    "Ġfoundering": 21417,
    "Ġassaulted": 25320,
    "Ġemploying": 23975,
    "nx": 17607,
    "Ġtapering": 8770,
    "race": 11630,
    "Ġlatin": 16821,
    "sombre": 23852,
    "examination": 25478,
    "Ġjewel": 9941,
    "Ġmeaning": 1415,
    "Ġreflection": 6440,
    "Ġgrip": 11626,
    "Ġsoapstone": 20509,
    "Ġdistur": 5312,
    "Ġdaughter": 2871,
    "larking": 17594,
    "Ġhatherley": 7848,
    "Ġlascar": 9199,
    "Ġoften": 1956,
    "ank": 1367,
    "Ġdeclining": 23961,
    "deceptive": 22145,
    "Ġembarks": 22978,
    "Ġtendinous": 16931,
    "dressed": 10695,
    "Ġlard": 13946,
    "Ġrapid": 1420,
    "Ġconcealed": 7496,
    "Ġdifficult": 3570,
    "rely": 6123,
    "Ġmorass": 22966,
    "ootiful": 17372,
    "ager": 6546,
    "Ġimbu": 15890,
    "li": 1187,
    "Ġoffending": 22740,
    "Ġowner": 8921,
    "nothing": 3155,
    "car": 4211,
    "spond": 5567,
    "perquis": 22183,
    "Ġinconsistency": 26182,
    "Ġshout": 4264,
    "Ġwhither": 10214,
    "Ġsouthampton": 24307,
    "cook": 8269,
    "Ġholes": 16408,
    "ine": 404,
    "Ġthoughtfulness": 18771,
    "Ġwounding": 19585,
    "Ġinvolved": 8924,
    "alloyed": 22198,
    "greg": 6647,
    "Ġcrowd": 6336,
    "accomplished": 17211,
    "Ġprophet": 7681,
    "ground": 4671,
    "Ġcompacted": 23507,
    "luck": 5733,
    "cop": 20800,
    "Ġnoiseless": 10356,
    "Ġpoints": 5247,
    "Č": 205,
    "aset": 10832,
    "Ġcoun": 4176,
    "feit": 16041,
    "coat": 5407,
    "learning": 2421,
    "Ġcaptiv": 16257,
    "Ġinvestigated": 25386,
    "imodal": 17446,
    "cking": 4265,
    "carb": 20809,
    "ceremony": 20588,
    "Ġ99": 10745,
    "Ġdiabolically": 25513,
    "deser": 10402,
    "Ġpupella": 20420,
    "Ġch": 513,
    "Ġinform": 1000,
    "Ġscre": 9736,
    "shr": 10979,
    "swallow": 24257,
    "early": 20117,
    "Ġuncovered": 23430,
    "Ġchewed": 16372,
    "Ġdepicting": 22604,
    "Ġintermission": 18587,
    "rees": 5436,
    "Ġappo": 8498,
    "Ġcostume": 16495,
    "Ġdol": 9664,
    "atum": 21258,
    "Ġafford": 4365,
    "Ġhellaswag": 24343,
    "cially": 3490,
    "Ġsauce": 15889,
    "Ġplantation": 11423,
    "Ġabroad": 8865,
    "Ġungracious": 18258,
    "covenant": 23561,
    "ope": 4123,
    "Ġdepos": 11007,
    "Ġfills": 12591,
    "Ġawait": 17073,
    "acency": 12905,
    "Ġstowed": 21733,
    "Ġrepairing": 25589,
    "Ġcrust": 21349,
    "Ġtasks": 1789,
    "###": 3826,
    "Ġoppressively": 25712,
    "Ġgrowing": 6750,
    "Ġpartial": 2132,
    "brit": 19197,
    "Ġcister": 13881,
    "Ġheroine": 24543,
    "haust": 5777,
    "darkness": 9511,
    "ulatory": 15766,
    "Ġoffences": 18693,
    "Ġoverboard": 6044,
    "Ġchar": 1705,
    "ratulations": 20124,
    "Ġsorry": 4209,
    "ust": 495,
    "Ġnearing": 15793,
    "Ġpian": 13916,
    "Ġindustry": 18836,
    "Ġquee": 1982,
    "Ġdestroy": 5772,
    "Ġprinciple": 6770,
    "Ġborder": 10169,
    "Ġdri": 2362,
    "Ġscratches": 22283,
    "Ġdefilements": 26284,
    "inridge": 11560,
    "Ġdefines": 1743,
    "Ġheedfully": 24521,
    "Ġdrifting": 19278,
    "ę": 218,
    "derbyshire": 18322,
    "Ġsummoned": 9910,
    "Ġloses": 15872,
    "Ġjav": 7901,
    "Ġvari": 832,
    "itious": 8779,
    "Ġwoodcock": 19162,
    "Ġprec": 2920,
    "Ġsucceed": 4543,
    "Ġastonishing": 10501,
    "reflected": 24733,
    "Ġthus": 2037,
    "Ġupd": 947,
    "Ġprobably": 4313,
    "Ġlatterly": 24082,
    "enc": 7575,
    "Ġstrive": 23691,
    "Ġmercifully": 20177,
    "Ġdismay": 11807,
    "ĠĠĠĠĠĠĠĠĠĠĠĠĠĠĠĠĠĠĠĠĠĠ": 16226,
    "Ġclanging": 18422,
    "ceptive": 15978,
    "andes": 18151,
    "aste": 4600,
    "Ġagree": 7647,
    "Ġrelev": 1715,
    "Ġspiced": 22130,
    "Ġstony": 21736,
    "wouldn": 23535,
    "Ġexercised": 24803,
    "Ġdial": 10810,
    "Ġinsurmountable": 16531,
    "calcul": 12985,
    "Ġexcitement": 9381,
    "eenth": 12458,
    "Ġasph": 21895,
    "50": 6784,
    "Ġjoist": 19231,
    "Ġbursting": 8655,
    "separ": 9230,
    "Ġlapse": 17120,
    "left": 6975,
    "Ġfurious": 10354,
    "uttural": 21586,
    "´": 117,
    "ippi": 20243,
    "Ġdeeper": 2085,
    "Ġprehensile": 26534,
    "them": 3019,
    "Ġreciprocating": 26369,
    "Ġdir": 21419,
    "Ġlance": 4878,
    "itzerland": 9994,
    "Ġwinchester": 10065,
    "Ġmates": 4871,
    "masts": 19423,
    "Ġdinn": 23978,
    "deed": 1519,
    "Ġinjuries": 11277,
    "Ġgales": 12662,
    "Ġwed": 3960,
    "Ġeffectually": 16166,
    "Ġdirest": 22702,
    "icket": 22665,
    "Ġdarker": 13118,
    "glasses": 11215,
    "Ġpostpone": 17306,
    "Ġsuggest": 5417,
    "Ġstacks": 18074,
    "Ġgrat": 4054,
    "adler": 21759,
    "Ġslyness": 25266,
    "Ġmeasureless": 14709,
    "Ġasks": 5115,
    "Ġconstruction": 9385,
    "izing": 1065,
    "hope": 5989,
    "Ġexpose": 10327,
    "Ġcollected": 2611,
    "Ġalpha": 13587,
    "Ġcolonies": 14374,
    "Ġmaintenance": 17461,
    "Ġdry": 5624,
    "Ġreflections": 5945,
    "âĢĿ]": 21812,
    "ascertain": 21540,
    "Ġramad": 8527,
    "Ġcanopy": 18321,
    "Ġeventually": 8616,
    "Ġhing": 11603,
    "devilish": 17082,
    "Ġclank": 15963,
    "bles": 7017,
    "Ġexempl": 21827,
    "dogs": 25402,
    "Ġestablishment": 13578,
    "Ġbasin": 19847,
    "Ġcongrat": 5827,
    "Ġflooring": 23622,
    "Ġurgent": 16869,
    "Ġsneer": 13446,
    "Ġcharmed": 16762,
    "listener": 24930,
    "Ġexpedite": 24953,
    "Ġmerciless": 25246,
    "Ġfinest": 10391,
    "anting": 6412,
    "Ġ1991": 3015,
    "Ġgem": 21591,
    "chan": 1183,
    "esteemed": 26009,
    "Ġstrangely": 5677,
    "Ġexclamations": 11361,
    "Ġcurly": 18854,
    "arrange": 23764,
    "preser": 9759,
    "Ġropes": 10748,
    "figure": 13554,
    "Ġplain": 2818,
    "leman": 21366,
    "Ġinfant": 11958,
    "forgotten": 12414,
    "Ġmerit": 9426,
    "ckery": 22087,
    "Ġsnatch": 14639,
    "Ġper": 586,
    "Ġlangu": 574,
    "Ġbreckinridge": 14521,
    "Ġasiatics": 20429,
    "summoned": 26591,
    "Ġrecovery": 11441,
    "elop": 1542,
    "Ġfidget": 15188,
    "Ġtanning": 17729,
    "avings": 12021,
    "Ġperformer": 18754,
    "Ġtrap": 7672,
    "empt": 2620,
    "bal": 2160,
    "Ġcheery": 16370,
    "Ġnets": 21521,
    "Ġladen": 19176,
    "Ġfixing": 13155,
    "Ġdons": 17888,
    "Ġstrike": 4854,
    "Ġlandscape": 12415,
    "Ġethics": 15462,
    "met": 6652,
    "Ġ88": 19710,
    "Ġlane": 5627,
    "Ġeverywhere": 9795,
    "Ġmatted": 22910,
    "Ġorange": 8486,
    "Ġafraid": 3529,
    "istically": 14143,
    "Ġtheoretically": 3565,
    "achable": 14137,
    "Ġthunder": 4822,
    "Ġnewspapers": 17186,
    "Ġrising": 4355,
    "Ġinit": 817,
    "autions": 20766,
    "quickly": 14961,
    "move": 11852,
    "Ġhuddled": 20298,
    "Ġcontrive": 16009,
    "Ġcalls": 6744,
    "Ġomnipotent": 13547,
    "Ġacknowledgment": 16957,
    "Ġindelicacy": 25695,
    "Ġrose": 3444,
    "Ġscimet": 22285,
    "Ġforetold": 23450,
    "izes": 885,
    "ance": 478,
    "Ġcheek": 8577,
    "last": 3801,
    "ividually": 22085,
    "Ġshop": 9251,
    "nameless": 19902,
    "dered": 2474,
    "Ġflaw": 23009,
    "Ġenglishman": 11229,
    "Ġdynamic": 5124,
    "Ġintercepted": 25826,
    "Ġpray": 3898,
    "Ġthe": 270,
    "fatality": 25019,
    "Ġlambton": 10657,
    "Ġfuss": 13904,
    "Ġremained": 3143,
    "savagery": 25025,
    "rically": 15417,
    "oline": 6834,
    "A": 37,
    "Ġterminated": 23508,
    "ones": 2744,
    "Ġfrenchman": 11283,
    "Ġlordly": 23741,
    "Ġneighbors": 25804,
    "ort": 524,
    "Ġsagacity": 16974,
    "Ġtowards": 1728,
    "Ġintelligent": 1643,
    "Ġfab": 15574,
    "Ġtrail": 16281,
    "Ġpenalties": 10412,
    "Ġtear": 6721,
    "employed": 17261,
    "inated": 6804,
    "Ġforget": 2636,
    "Ġcategorization": 12134,
    "Ġquakers": 22413,
    "bol": 8717,
    "aternity": 21264,
    "Ġdegenerated": 20504,
    "roads": 17957,
    "ipp": 10102,
    "ineering": 21964,
    "Ġphysical": 7523,
    "etite": 21576,
    "Ġgaunt": 11268,
    "Ġmol": 12558,
    "Ġfastened": 7065,
    "Ġthreat": 5154,
    "Ġgathered": 8442,
    "stalls": 26473,
    "Ġnoah": 10942,
    "gs": 7338,
    "Ġ104": 24412,
    "Ġmuttering": 10499,
    "ampl": 21852,
    "out": 467,
    "con": 654,
    "jackets": 24895,
    "discovery": 12015,
    "Ġtolerable": 6949,
    "ks": 3147,
    "private": 13581,
    "penn": 18826,
    "Ġevidence": 5269,
    "Ġbuckskin": 19950,
    "Ġsumat": 14135,
    "cl": 1494,
    "atching": 8201,
    "hest": 3370,
    "Ġword": 1050,
    "Ġherein": 16190,
    "Ġchord": 22242,
    "Ġdeposed": 16085,
    "_.": 2214,
    "Ġpills": 21464,
    "nical": 20990,
    "Ġnovelist": 24777,
    "nikin": 23191,
    "Ġbristol": 14379,
    "Ġhide": 4588,
    "\\": 64,
    "Ġaudio": 24772,
    "Ġhast": 3152,
    "Ġcollection": 8221,
    "special": 14704,
    "Ġeurope": 8061,
    "Ġhelplessly": 20076,
    "Ġdisinclination": 22533,
    "racting": 10351,
    "Ġstays": 16561,
    "Ġhaws": 21955,
    "Ġmorality": 22968,
    "Ġwarring": 16865,
    "university": 25983,
    "tahit": 17692,
    "corn": 13698,
    "notches": 22747,
    "Ġdistracted": 11801,
    "ispensable": 9095,
    "Ġvenetian": 14846,
    "Ġinnocent": 4920,
    "circumst": 5348,
    "splash": 25209,
    "Ġcoldness": 23757,
    "thesize": 24906,
    "Ġfunctions": 1341,
    "Ġexpression": 4514,
    "Ġblaming": 22927,
    "Ġderived": 8238,
    "Ġfrogs": 23920,
    "Ġscrutiny": 26015,
    "Ġpathways": 11153,
    "Ġirresolute": 24916,
    "Ġtries": 9150,
    "í": 174,
    "Ġdoubtfully": 23476,
    "Ġxv": 23405,
    "{": 95,
    "succeeded": 15174,
    "bag": 7543,
    "consolatory": 25306,
    "alterable": 13623,
    "country": 6103,
    "north": 14615,
    "Ġlurch": 21552,
    "Ġmacy": 19353,
    "Ġgrease": 26189,
    "Ġprecautions": 23724,
    "Ġsanct": 15062,
    "Ġbrandy": 11049,
    "Ġcease": 7076,
    "Ġexamining": 8005,
    "Ġlament": 7856,
    "Ġtemperature": 1005,
    "Ġforemost": 12003,
    "yramid": 8367,
    "Ġprom": 1526,
    "Ġdomin": 10460,
    "makers": 20981,
    "sweep": 24617,
    "desp": 6075,
    "Ġdissu": 18550,
    "nament": 11506,
    "paused": 17373,
    "Ġreap": 18026,
    "Ġshrunk": 16718,
    "Ġsubdivisions": 26037,
    "Ġunsav": 18251,
    "burn": 8370,
    "Ġdemean": 12720,
    "Ġsummers": 23871,
    "def": 1453,
    "scrape": 25698,
    "Ġopened": 3512,
    "Ġpod": 15602,
    "Ġrhone": 25230,
    "clifford": 23152,
    "Ġsharing": 3476,
    "acles": 8519,
    "Ġfold": 5531,
    "goodbye": 12054,
    "Ġintervene": 25480,
    "Ġsentiments": 7960,
    "Ġunlim": 18253,
    "Ġduplicate": 17215,
    "Ġobjections": 8564,
    "table": 5795,
    "horse": 8605,
    "opard": 9290,
    "Ġunpleasing": 22052,
    "shows": 22443,
    "despicable": 24636,
    "Ġlieutenant": 15260,
    "Ġwonderful": 4562,
    "Ġclin": 14200,
    "Ġpallet": 21479,
    "Ġtraged": 9351,
    "peculiar": 6886,
    "followed": 8338,
    "onial": 11566,
    "Ġfamil": 4319,
    "Ġpounds": 5368,
    "Ġexquisitely": 20201,
    "Ġunfathom": 14788,
    "Ġaccused": 8507,
    "world": 5058,
    "Ġlikelihood": 16500,
    "fere": 10989,
    "Ġboneless": 19604,
    "Ġarrest": 7409,
    "Ġrepl": 1598,
    "ples": 6845,
    "Ġnovelties": 24778,
    "Ġdict": 9175,
    "finer": 17546,
    "bodily": 17314,
    "Ġ156": 20169,
    "pressed": 6587,
    "Ġvile": 8472,
    "Ġdante": 21436,
    "Ġroarings": 25302,
    "kicked": 20942,
    "Ġparameters": 997,
    "Ġassures": 14464,
    "Ġdundee": 16997,
    "forgetting": 25485,
    "belong": 12120,
    "Ġcomplained": 16998,
    "Ġexterm": 21826,
    "yonder": 21143,
    "Ġryder": 10258,
    "×": 152,
    "etian": 13958,
    "Ġearnest": 3928,
    "ariously": 18527,
    "Ġnarwhale": 12291,
    "iverer": 11714,
    "Ġclass": 780,
    "angled": 6844,
    "Ġwow": 15528,
    "atiously": 15521,
    "per": 480,
    "Ġwreaths": 25937,
    "Ġprincipal": 6496,
    "saw": 5893,
    "philosophy": 13579,
    "likes": 18814,
    "Ġobscured": 15010,
    "sis": 1886,
    "Ġthough": 996,
    "try": 7812,
    "accents": 19211,
    "Ġcondem": 6338,
    "Ġelsewhere": 7712,
    "Ġappeased": 23194,
    "Ġdisreputable": 22531,
    "onies": 6806,
    "Ġcondescension": 10618,
    "Ġstared": 8454,
    "farintosh": 24553,
    "Ġgrimesby": 11457,
    "Ġmirror": 12376,
    "Ġfumbled": 17881,
    "Ġsurtout": 23464,
    "athed": 7828,
    "Ġrefresh": 10345,
    "Ġanimating": 23422,
    "Ġcharm": 4546,
    "Ġaccusation": 22377,
    "string": 15684,
    "Ġvalu": 5039,
    "taking": 5689,
    "somehow": 12010,
    "Ġexecution": 6927,
    "Ġbeware": 8827,
    "folding": 24927,
    "sub": 4659,
    "surface": 10530,
    "Ġexhib": 6349,
    "Ġinclement": 22550,
    "derness": 11735,
    "Ġroods": 22401,
    "Ġwhelmed": 25999,
    "solitude": 23294,
    "Ġquadru": 16002,
    "ocation": 14626,
    "Ġeagle": 13199,
    "Ġcetace": 14987,
    "reliable": 21239,
    "Ġmonogra": 22972,
    "features": 14789,
    "Ġretired": 6070,
    "wheeling": 22867,
    "Ġcopestone": 24936,
    "rugg": 15895,
    "sa": 8756,
    "fins": 13718,
    "nals": 16396,
    "Ġbam": 15564,
    "Ġcauses": 2561,
    "ĠâĢľâĢĶ": 9733,
    "Ġjapan": 7640,
    "Ġlearns": 2646,
    "Ġeyeing": 6460,
    "Ġforge": 8456,
    "Ġrelinquish": 17346,
    "Ġ55": 24323,
    "imp": 3034,
    "Ġverses": 17064,
    "aug": 1211,
    "Ġattraction": 18620,
    "ellow": 3875,
    "hyena": 24252,
    "goin": 23401,
    "Ġand": 295,
    "ber": 884,
    "Ġabund": 8864,
    "properly": 24918,
    "isite": 15561,
    "Ġprized": 23219,
    "Ġmand": 21303,
    "Ġprudence": 13919,
    "Ġdesperado": 19818,
    "wise": 2574,
    "Ġfoul": 7159,
    "Ġconciliating": 19049,
    "ab": 345,
    "Ġchaps": 14179,
    "unctions": 18155,
    "few": 8202,
    "Ġpanelled": 19653,
    "rah": 8136,
    "Ġpersevering": 20232,
    "Ġmiz": 10777,
    "Ġwhirled": 14959,
    "idean": 14262,
    "ryphon": 4163,
    "appear": 13195,
    "Ġminor": 12965,
    "Ġimpenit": 22396,
    "haired": 14765,
    "Ġpoison": 7219,
    "abode": 21788,
    "Ġemails": 13105,
    "Ġreigned": 13986,
    "Ġunf": 4088,
    "Ġfad": 17876,
    "binder": 17499,
    "Ġfield": 1259,
    "charming": 15704,
    "easy": 9592,
    "as": 302,
    "Ġ11": 5318,
    "unerative": 21893,
    "Ġnerves": 2628,
    "Ġcells": 13884,
    "Ġimpelled": 11782,
    "surd": 6934,
    "itude": 1417,
    "planted": 11691,
    "Ġsoles": 22074,
    "oured": 2674,
    "Ġchallenge": 25471,
    "Ġlocations": 12411,
    "Ġjoined": 4563,
    "Ġneither": 3685,
    "killed": 15375,
    "Ġ118": 19697,
    "Ġrainbows": 19647,
    "increase": 20267,
    "ollen": 11298,
    "got": 6955,
    "Ġclosest": 16763,
    "Ġbrighter": 16187,
    "Ġtreacle": 14595,
    "Ġboston": 22637,
    "Ġapproaching": 6283,
    "Ġbru": 13894,
    "âĢĶ": 518,
    "Ġchamois": 16800,
    "ite": 712,
    "ception": 6562,
    "storied": 18024,
    "Ġsacrificed": 17421,
    "ulty": 22564,
    "Ġstraight": 3701,
    "Ġprodigious": 8056,
    "pumps": 21026,
    "Ġliable": 14228,
    "Ġperiodical": 14771,
    "itud": 2931,
    "Ġenquired": 21937,
    "expected": 5780,
    "Ġmisanthrop": 22756,
    "Ġchildish": 13136,
    "Ġarrival": 4730,
    "Ġallen": 5160,
    "mured": 6960,
    "ung": 2747,
    "Ġdeliriously": 23229,
    "Ġchatbots": 11349,
    "rail": 10204,
    "Ġerecting": 24652,
    "rowed": 22859,
    "Ġtales": 10141,
    "Ġam": 660,
    "ď": 208,
    "disgrace": 16459,
    "Ġcoars": 14270,
    "Ġinseparable": 20687,
    "Ġmerest": 14030,
    "meth": 11502,
    "Ġencoding": 4773,
    "locked": 7678,
    "answering": 26004,
    "gar": 5615,
    "animal": 16978,
    "Ġeffeminacy": 20717,
    "Ġavoided": 13257,
    "Ġdro": 2771,
    "shad": 10981,
    "duty": 20238,
    "dances": 17521,
    "Ġloungers": 24862,
    "Ġacting": 10991,
    "Ġchanged": 5242,
    "Ġsuddenly": 2649,
    "Ġhilarity": 20296,
    "riers": 18186,
    "Ġrequisite": 18648,
    "Ġunusual": 6553,
    "don": 3543,
    "oker": 10963,
    "able": 452,
    "Ġchin": 4890,
    "stoke": 18022,
    "Ġmaybe": 12946,
    "Ġthirty": 4943,
    "pires": 13774,
    "Ġscandal": 9081,
    "Ġbalmoral": 16207,
    "Ġcapt": 1291,
    "dragging": 16609,
    "Ġmarshalled": 25315,
    "cure": 11474,
    "ssian": 3401,
    "tedious": 22630,
    "mouthed": 12398,
    "Ġgreatest": 4092,
    "sleeping": 13453,
    "Ġstaid": 21732,
    "spell": 22728,
    "Ġjealously": 24124,
    "Ġhoneymoon": 25645,
    "Ġstrategies": 1839,
    "Ġperadventure": 22387,
    "giv": 13721,
    "ament": 2441,
    "historical": 20464,
    "touch": 8391,
    "Ġblending": 14398,
    "Ġsmells": 8889,
    "ĠĠĠĠĠĠĠĠĠĠĠĠĠĠĠĠĠĠĠĠĠĠĠĠĠĠĠĠĠĠĠĠ": 2740,
    "Ġaimed": 20249,
    "Ġchinks": 22248,
    "Ġleap": 5824,
    "reement": 15511,
    "tery": 14036,
    "Ġmagnificence": 20631,
    "Ġdisembow": 22534,
    "Ġ57": 24325,
    "wanted": 10743,
    "preserve": 25303,
    "Ġgrounded": 23709,
    "Ġplanisphere": 26607,
    "Ġasi": 12729,
    "Ġwildness": 14603,
    "Ġfurnishes": 19439,
    "Ġthreatens": 24375,
    "Ġdaylight": 10350,
    "Ġgable": 15665,
    "Ġsoldier": 16920,
    "recollection": 25348,
    "mblance": 7323,
    "esley": 17902,
    "Ġyourself": 2593,
    "Ġdisclose": 16155,
    "Ġgills": 17992,
    "streamed": 25966,
    "dro": 6644,
    "hurried": 11353,
    "Ġwrecks": 16818,
    "Ġberries": 13406,
    "icher": 9202,
    "Ġske": 4814,
    "Ġunfortunately": 10909,
    "Ġag": 683,
    "Ġunaccount": 22024,
    "Ġrattled": 15065,
    "agitation": 14067,
    "Ġthunders": 15636,
    "Ġinsatiate": 19269,
    "Ġwronged": 24247,
    "Ġskills": 1838,
    "gment": 4390,
    "resembled": 21245,
    "Ġstandpoint": 23275,
    "Ġtre": 2537,
    "Ġobstacles": 19834,
    "Ġeloquent": 16109,
    "Ġcontempt": 6275,
    "Ġantelope": 24180,
    "Ġperilously": 24507,
    "Ġpile": 8423,
    "Ġunnecessary": 8851,
    "Ġdaniel": 15110,
    "Ġencamped": 22798,
    "Ġprosper": 10228,
    "accur": 14593,
    "Ġborne": 6351,
    "lane": 10706,
    "ortion": 11755,
    "Ġblackest": 19098,
    "disgust": 23495,
    "stige": 21658,
    "Ġpreluding": 18368,
    "Ġshade": 6550,
    "convinced": 10622,
    "school": 10054,
    "Ġcompromised": 22568,
    "Ġbestowing": 16971,
    "umbled": 8492,
    "Ġevalu": 2862,
    "approached": 13484,
    "gin": 4929,
    "Ġorthodox": 22092,
    "Ġpepper": 9780,
    "Ġwoeful": 19618,
    "orily": 15571,
    "extinguish": 22761,
    "Ġannounce": 13337,
    "Ġunsupp": 22018,
    "Ġfortun": 4981,
    "tting": 17680,
    "Ġshares": 23244,
    "mccarthy": 15394,
    "ss": 397,
    "Ġphantoms": 13485,
    "Ġw": 272,
    "Ġembod": 14413,
    "Ġexcite": 11964,
    "Ġwant": 1120,
    "Ġweapons": 10593,
    "Ġirregularity": 25324,
    "acet": 5476,
    "arding": 22154,
    "honorable": 19900,
    "Ġostentatious": 25736,
    "Ġstreng": 18070,
    "Ġvines": 12748,
    "Ġwond": 3937,
    "Ġquarter": 3976,
    "atible": 17772,
    "pursu": 11392,
    "rubbery": 17341,
    "fthand": 26386,
    "Ġindic": 2889,
    "Ġadvers": 4886,
    "cooper": 19189,
    "course": 6104,
    "Ġgour": 21595,
    "Ġarise": 7895,
    "Ġstubborn": 10414,
    "Ġrecovering": 11861,
    "Ġventing": 19492,
    "dist": 4479,
    "Ġgodfre": 14529,
    "Ġexcellent": 4238,
    "Ġsnarl": 25715,
    "vate": 21108,
    "situation": 11437,
    "europe": 20664,
    "foremost": 14252,
    "Ġlatitude": 8328,
    "Ġrequiring": 2922,
    "gaff": 20881,
    "Ġtyph": 10007,
    "Ġmir": 9646,
    "sullenly": 26149,
    "Ġernest": 8716,
    "aim": 2757,
    "ram": 13971,
    "Ġstanding": 2998,
    "Ġcommendation": 13609,
    "Ġvaliant": 9799,
    "Ġshrouds": 11344,
    "Ġclang": 15961,
    "Ġstammered": 26199,
    "four": 6113,
    "pike": 11514,
    "Ġrotation": 25474,
    "Ġnorthwards": 19545,
    "Ġdilated": 24704,
    "Ġadhes": 22099,
    "bounded": 13438,
    "phur": 16150,
    "ribes": 23364,
    "Ġdesirable": 8941,
    "pra": 15407,
    "Ġcrime": 4615,
    "determ": 7105,
    "Ġrom": 4523,
    "big": 13684,
    "u": 89,
    "mill": 13753,
    "Ġmurdering": 14810,
    "usual": 5841,
    "running": 6797,
    "Ġexotic": 21828,
    "ksome": 10104,
    "Ġlibrary": 6423,
    "Ġencodings": 4774,
    "fishing": 20858,
    "Ġfinite": 2324,
    "Ġsensibly": 14513,
    "Ġdiscipline": 26561,
    "rayed": 23562,
    "Ġtipt": 21172,
    "Ġskylight": 24070,
    "length": 7134,
    "iably": 13737,
    "Ġdint": 15589,
    "Ġconsisting": 8971,
    "attle": 4465,
    "Ġbrings": 11878,
    "Ġskies": 8920,
    "Ġparac": 12792,
    "queness": 18146,
    "anchor": 13888,
    "Ġconsummate": 25310,
    "unreasonable": 18162,
    "Ġcheese": 9376,
    "Ġexponentiating": 3447,
    "Ġsuspect": 5758,
    "Ġune": 4597,
    "Ġane": 9181,
    "Ġspeechless": 13352,
    "za": 13809,
    "jumped": 20245,
    "Ġslide": 10393,
    "Ġporus": 24398,
    "ġ": 226,
    "Ġleading": 7297,
    "Ġdazzling": 15210,
    "Ġcommanding": 16590,
    "Ġcomplet": 4422,
    "ret": 1474,
    "Ġdecaying": 2249,
    "prophecy": 22849,
    "Ġemotion": 7690,
    "comes": 5394,
    "Ġeuroc": 14958,
    "ĠĠĠĠĠĠĠĠĠĠĠĠĠĠ": 22560,
    "istrate": 7406,
    "char": 3503,
    "Ġencounters": 19579,
    "ro": 301,
    "Ġpeaks": 16127,
    "embarrassed": 20595,
    "Ġencourages": 2061,
    "Ġpods": 17914,
    "gris": 8259,
    "Ġtaste": 5524,
    "Ġpersu": 3562,
    "eks": 4727,
    "Ġkeels": 11061,
    "bowsprit": 16853,
    "Ġovertaken": 18429,
    "Ġoppose": 16520,
    "Ġapplications": 4782,
    "Ġmutters": 23953,
    "Ġcherry": 16935,
    "Ġale": 9154,
    "Ġchurned": 18385,
    "Ġbewildered": 15212,
    "breaking": 14763,
    "pitch": 13297,
    "iature": 8741,
    "Ġforcing": 3224,
    "Ġsymptom": 13482,
    "crowning": 25748,
    "iac": 6225,
    "Ġnew": 1194,
    "muring": 17601,
    "Ġadds": 1805,
    "Ġshows": 8482,
    "fen": 20849,
    "Ġgovernor": 16490,
    "alse": 4183,
    "Ġwolfish": 25935,
    "branch": 23577,
    "Ġadie": 8488,
    "Ġundressed": 19512,
    "Ġrichest": 26211,
    "stuff": 15686,
    "Ġrum": 5923,
    "Ġgroans": 14823,
    "Ġmightiest": 12958,
    "volutions": 16322,
    "iform": 2202,
    "Ġelasticity": 19557,
    "wins": 21128,
    "»": 124,
    "Ġbitterness": 8024,
    "Ġchains": 8250,
    "bitterly": 20336,
    "Ġdeath": 2043,
    "Ġimbedded": 18334,
    "Ġstructural": 2798,
    "indisc": 22370,
    "div": 8075,
    "fallen": 19658,
    "ibule": 13004,
    "Ġneighb": 14073,
    "Ġlunch": 13525,
    "icit": 3379,
    "Ġrecurred": 18978,
    "mast": 3600,
    "anim": 6522,
    "iamond": 14590,
    "lected": 1640,
    "Ġlads": 8597,
    "adam": 15728,
    "merely": 16133,
    "ports": 13773,
    "Ġimpunity": 14222,
    "magn": 10610,
    "nay": 7135,
    "inople": 13828,
    "Ġconsist": 1935,
    "Ġishmael": 7395,
    "Ġhither": 4758,
    "Ġgeography": 23370,
    "miseries": 16757,
    "footman": 17162,
    "superst": 11325,
    "sharks": 14237,
    "Ġpredestinated": 18516,
    "Ġevenly": 4127,
    "Ġwidow": 8662,
    "skin": 10568,
    "Ġelab": 22639,
    "Ġabutted": 22272,
    "penetrate": 20323,
    "Ġburnt": 9927,
    "disputed": 23499,
    "rium": 3133,
    "whilst": 18371,
    "Ġext": 880,
    "ath": 862,
    "Ġinboard": 17932,
    "hidden": 17370,
    "aloft": 8806,
    "care": 4927,
    "neighbours": 24881,
    "Ġencouragement": 13040,
    "ieces": 4771,
    "Ġsave": 4049,
    "Ġheadsmen": 14731,
    "Ġsees": 8842,
    "indef": 17735,
    "ook": 21003,
    "bted": 7793,
    "Ġwhim": 13998,
    "separation": 25226,
    "recogn": 13424,
    "Ġsuspected": 9062,
    "Ġwidows": 24236,
    "Ġdrags": 16941,
    "Ġcrad": 21348,
    "Ġplun": 6281,
    "bering": 18682,
    "Ġnoblest": 13240,
    "Ġlistening": 6318,
    "Ġperfectly": 3699,
    "Ġfiner": 13050,
    "pped": 2000,
    "Ġmast": 2902,
    "Ġgouge": 26188,
    "Ġ50": 24319,
    "Ġpurch": 6599,
    "Ġlangsdorff": 15275,
    "mund": 13757,
    "Ġformal": 2942,
    "ieties": 19023,
    "Ġpedest": 14995,
    "Ġbackwoods": 22659,
    "flow": 2098,
    "hound": 20894,
    "unction": 10234,
    "Ġbloodshot": 23798,
    "ample": 1366,
    "Ġconceivable": 16613,
    "ission": 6457,
    "Ġslept": 8258,
    "Ġalternating": 15030,
    "Ġ48": 24078,
    "aky": 18411,
    "emed": 3381,
    "Ġenjoyments": 24015,
    "Ġinsepar": 17933,
    "Ġprey": 6415,
    "Ġprecaution": 11197,
    "Ġtongs": 9960,
    "ĠĊ": 12520,
    "Ġaristotle": 25817,
    "castles": 14636,
    "Ġstranger": 3485,
    "Ġcomprising": 16067,
    "Ġblinded": 13269,
    "decease": 25557,
    "Ġdividing": 12109,
    "Ġmamm": 25090,
    "onom": 9158,
    "exceeded": 24999,
    "onsible": 22558,
    "Ġweek": 2828,
    "Ġtucked": 12390,
    "Ġpicked": 6341,
    "Ġconvivial": 16548,
    "sounded": 12264,
    "Ġroar": 9752,
    "begin": 8883,
    "ĠĠĠĠĠĠĠĠĠĠĠĠĠĠĠĠĠĠĠĠĠĠĠĠĠĠĠĠĠĠĠĠĠĠĠĠĠĠĠĠĠĠĠĠĠĠĠ": 16755,
    "Ġthreshold": 2809,
    "Ġaccepted": 7750,
    "Ġaddition": 1147,
    "Ġedward": 19119,
    "Ġstick": 6025,
    "Ġzoned": 22817,
    "Ġindec": 13927,
    "Ġdelicately": 24125,
    "Ġassociate": 13449,
    "Ġmeditating": 20041,
    "species": 13255,
    "lim": 9606,
    "Ġthirt": 13938,
    "Ġpossess": 3204,
    "Ġwatches": 11082,
    "Ġstiggs": 25792,
    "Ġsignature": 16493,
    "Ġinserting": 19905,
    "god": 4862,
    "scales": 22986,
    "Ġcigaret": 16976,
    "Ġdilig": 8349,
    "Ġhonorable": 16876,
    "din": 8373,
    "Ġsnoring": 23737,
    "Ġweapon": 7775,
    "Ġexasperate": 20096,
    "Ġunfrequently": 20738,
    "red": 396,
    "flinging": 20867,
    "sitting": 8386,
    "bringing": 17166,
    "Ġdepression": 21838,
    "Ġinconstant": 21493,
    "transformer": 25015,
    "Ġblueprints": 13170,
    "Ġinter": 728,
    "Ġimbecile": 17391,
    "ivery": 17572,
    "true": 2586,
    "Ġclasping": 20208,
    "fa": 7336,
    "Ġseldom": 4629,
    "pos": 15410,
    "Ġcasualties": 25512,
    "Ġhunsford": 6301,
    "Ġchopping": 24219,
    "erve": 12546,
    "Ġmuff": 8113,
    "entiating": 3439,
    "Ġabode": 7899,
    "Ġsqueezing": 25006,
    "ohn": 4560,
    "Ġartful": 22614,
    "oblig": 16290,
    "naturalist": 23522,
    "ordingly": 18518,
    "Ġlanguor": 12844,
    "isco": 12578,
    "urday": 13994,
    "cross": 3574,
    "Ġexchange": 15752,
    "king": 3061,
    "liness": 8746,
    "Ġmessages": 24981,
    "think": 3607,
    "Ġmann": 18416,
    "reproof": 25432,
    "sch": 21049,
    "fro": 8732,
    "Ġpompous": 20421,
    "Ġconsistent": 14528,
    "Ġmaw": 15538,
    "Ġsquires": 16181,
    "fully": 2204,
    "Ġgraces": 18225,
    "secondly": 16984,
    "Ġbite": 10797,
    "Ġincomplete": 17208,
    "mult": 8747,
    "Ġcomprise": 18583,
    "Ġslipper": 24265,
    "Ġsparing": 22126,
    "Ġsafe": 5103,
    "Ġhil": 10821,
    "Ġdictated": 25218,
    "pieces": 8754,
    "Ġtooks": 23323,
    "he": 264,
    "perquisites": 26530,
    "orated": 12588,
    "Ġash": 4831,
    "Ġtilted": 20411,
    "alleging": 23023,
    "Ġspeech": 4609,
    "Ġblasphe": 17406,
    "Ġcheetah": 14503,
    "turn": 4291,
    "sen": 21048,
    "Ġbegging": 11080,
    "Ġlayer": 1011,
    "Ġspin": 7630,
    "Ġante": 17896,
    "Ġdiary": 24739,
    "Ġsenseless": 12076,
    "Ġagric": 22512,
    "uned": 21868,
    "ement": 1503,
    "Ġgroups": 3717,
    "Ġcylinders": 25943,
    "pres": 16026,
    "twill": 21073,
    "Ġli": 602,
    "Ġbubbles": 11398,
    "iterranean": 15548,
    "Ġhans": 12623,
    "Ġhanover": 20584,
    "Ġren": 3844,
    "Ġtubs": 11370,
    "Ġlodgings": 8311,
    "Ġlike": 670,
    "Ġwithstand": 10224,
    "ĠĠĠĠĠĠĠĠĠĠĠĠĠ": 22559,
    "ound": 585,
    "Ġmonths": 3456,
    "Ġvii": 13107,
    "frequently": 9978,
    "Ġrestoration": 19025,
    "owners": 16086,
    "Ġimpass": 15989,
    "Ġappearances": 10451,
    "yingly": 23112,
    "grin": 19105,
    "Ġduchess": 4798,
    "Ġdebility": 24272,
    "africa": 26308,
    "Ġoars": 3896,
    "resemblance": 25933,
    "Ġthird": 4185,
    "Ġwatching": 4853,
    "Ġsurrounding": 12160,
    "comb": 11035,
    "Ġcor": 1323,
    "Ġobservant": 20108,
    "Ġfundamentals": 14635,
    "enthusiastic": 20691,
    "Ġvex": 5948,
    "Ġwithin": 2166,
    "orrow": 2916,
    "Ġcheap": 13087,
    "Ġcanada": 22160,
    "writ": 16553,
    "Ġingen": 9049,
    "Ġsoon": 1225,
    "Ġadventurous": 16733,
    "Ġcertainly": 2498,
    "Ġquenched": 22414,
    "entirely": 7781,
    "Ġdashing": 8795,
    "Ġsounding": 8264,
    "Ġdisconsol": 18557,
    "us": 532,
    "someone": 14564,
    "Ġpartake": 18670,
    "Ġfortifications": 23619,
    "metal": 24765,
    "pacing": 21020,
    "Ġscott": 22278,
    "Ġsexes": 25168,
    "Ġelse": 2481,
    "luded": 4227,
    "Ġpeculiar": 3154,
    "sad": 11520,
    "Ġvindict": 13604,
    "Ġanchored": 17439,
    "ential": 826,
    "Ġhunter": 5401,
    "Ġturban": 23612,
    "Ġtragedy": 10667,
    "Ġharbor": 10026,
    "Ġneville": 7399,
    "getic": 12963,
    "Ġcollinses": 19129,
    "Ġconverse": 11845,
    "ira": 3957,
    "acute": 22592,
    "operation": 13500,
    "Ġbody": 2438,
    "ioneer": 15630,
    "Ġcollege": 11424,
    "Ġopt": 772,
    "Ġpool": 5173,
    "Ġtink": 9148,
    "ender": 9160,
    "Ġsummons": 13230,
    "Ġpeep": 6870,
    "whaler": 20308,
    "Ġapologies": 25196,
    "Ġdistribution": 2020,
    "colnett": 19329,
    "Ġpeak": 16125,
    "uc": 1876,
    "Ġinterference": 8893,
    "Ġgaz": 4041,
    "ys": 3959,
    "Ġthine": 7374,
    "admon": 21758,
    "cain": 15325,
    "Ġnatur": 17333,
    "Ġadapted": 11038,
    "Ġfeel": 1258,
    "Ġmoritz": 11903,
    "cks": 3080,
    "Ġcaw": 13882,
    "gossip": 23402,
    "Ġwaters": 3594,
    "heav": 5694,
    "ideas": 18581,
    "assed": 6421,
    "Ġfav": 1755,
    "max": 1685,
    "famous": 16916,
    "aguy": 21907,
    "Ġtemperate": 16161,
    "Ġvehement": 16202,
    "Ġburtons": 19252,
    "Ġpossible": 2585,
    "Ġordin": 16650,
    "ultaneously": 4191,
    "sixty": 24852,
    "Ġthrob": 21515,
    "ables": 7889,
    "Ġpassing": 4314,
    "Ġsanta": 26420,
    "Ġspoil": 17007,
    "Ġbony": 12584,
    "Ġbustle": 17227,
    "Ġgrieved": 8296,
    "ivened": 22962,
    "br": 2479,
    "Ġwing": 6665,
    "ergy": 2360,
    "trans": 5594,
    "thoughtfully": 24041,
    "Ġenriched": 26499,
    "orum": 12587,
    "Ġfulfilment": 20186,
    "throw": 14097,
    "Ġ42": 16678,
    "Ġcotton": 17378,
    "loops": 12880,
    "Ġfatal": 5871,
    "Ġsons": 10766,
    "winds": 10521,
    "anche": 10788,
    "Ġcondition": 6764,
    "Ġindignant": 12237,
    "backs": 9390,
    "Ġdiminished": 16665,
    "halloa": 17090,
    "Ġwa": 1754,
    "Ġcommissionaire": 17000,
    "breakfast": 8687,
    "Ġclustered": 25233,
    "Ġkno": 5241,
    "Ġdoubtless": 6195,
    "Ġdetails": 6565,
    "Ġworkman": 16256,
    "Ġtrue": 1340,
    "Ġmoored": 11790,
    "Ġseventeen": 26210,
    "completely": 12418,
    "Ġhorizontal": 7782,
    "change": 6392,
    "Ġmary": 3842,
    "ifferent": 4262,
    "Ġsuddenness": 23380,
    "Ġgurg": 15671,
    "itia": 11578,
    "Ġfingers": 5672,
    "Ġeyelashes": 26106,
    "daughters": 13465,
    "Ġperpet": 7645,
    "Ġgro": 4396,
    "imens": 1747,
    "bitt": 17485,
    "spin": 22727,
    "Ġrusty": 14963,
    "hid": 13733,
    "Ġexhilarating": 26337,
    "Ġcircumst": 2973,
    "inks": 6869,
    "Ġgay": 5535,
    "Ġpleases": 16298,
    "Ġcontriv": 9281,
    "Ġde": 365,
    "Ġjets": 10287,
    "Ġsens": 1851,
    "Ġbefriend": 18081,
    "Ġparadise": 11195,
    "Ġembattled": 26288,
    "opp": 6963,
    "glorious": 19365,
    "Ġcanst": 8857,
    "Ġdress": 4019,
    "Ġsketch": 16164,
    "Ġdisasters": 16053,
    "Ġpear": 11850,
    "Ġpomp": 12619,
    "Ġsteady": 4846,
    "scruple": 26044,
    "Ġmeet": 2805,
    "Ġerection": 23998,
    "irs": 14070,
    "Ġsignification": 19203,
    "aping": 8193,
    "spect": 3232,
    "ching": 5156,
    "Ġbegrim": 23014,
    "iters": 21327,
    "dued": 7908,
    "Ġchimney": 6497,
    "Ġdecently": 22434,
    "Ġinexperienced": 26100,
    "uther": 8816,
    "Ġsof": 18276,
    "sets": 17660,
    "Ġredoubled": 23750,
    "Ġfowl": 11330,
    "Ġlass": 15646,
    "Ġimprove": 1855,
    "Ġwester": 25152,
    "simultaneously": 19863,
    "Ġdeed": 7867,
    "Ġteach": 8552,
    "Ġterrify": 19359,
    "delirium": 14783,
    "ked": 5616,
    "Ġopp": 2699,
    "Ġgorge": 13565,
    "super": 5942,
    "gul": 12463,
    "Ġprophes": 16347,
    "fiercely": 25256,
    "Ġsurm": 7477,
    "Ġunhe": 22007,
    "Ġcharacteristic": 12046,
    "Ġpore": 21456,
    "Ġstories": 10865,
    "Ġmilitary": 11257,
    "imate": 4220,
    "Ġtertiary": 15293,
    "Ġpretension": 23762,
    "Ġmentioned": 4328,
    "¤": 102,
    "Ġapologized": 25198,
    "Ġlord": 2965,
    "Ġplanning": 14750,
    "Ġindistinctly": 26117,
    "Ġclink": 22342,
    "Ġimperfect": 13338,
    "Ġtuning": 3073,
    "interests": 19707,
    "Ġkin": 15903,
    "Ġdefend": 9339,
    "Ġding": 12596,
    "trowsers": 17691,
    "Ġsuperseded": 26224,
    "Ġbasics": 13447,
    "itchen": 7787,
    "shriek": 20518,
    "postp": 24634,
    "Ě": 219,
    "Ġextending": 11020,
    "Ġampl": 22477,
    "wharf": 20605,
    "Ġspent": 3964,
    "ent": 305,
    "Ġmight": 964,
    "Ġtusked": 25426,
    "waiting": 12218,
    "Ġblanc": 11065,
    "Ġvillas": 24050,
    "Ġtough": 13814,
    "Ġkick": 5837,
    "neys": 23581,
    "bur": 4686,
    "yesterday": 10353,
    "apparent": 11041,
    "Ġinfamous": 16364,
    "Ġdeclare": 6614,
    "Ġ110": 24435,
    "recl": 15510,
    "numerous": 17430,
    "Ġopinion": 3144,
    "missing": 13217,
    "Ġecho": 12663,
    "riage": 2126,
    "Ġparalle": 1409,
    "Ġsundering": 23272,
    "ody": 1477,
    "ball": 7792,
    "Ġcatching": 9477,
    "Ġmoderate": 10938,
    "extra": 8218,
    "ice": 590,
    "Ġpursued": 6328,
    "Ġoutskirts": 17456,
    "rey": 12535,
    "Ġlegal": 10439,
    "Ġprairies": 20019,
    "Ġrags": 18641,
    "Ġpurposed": 23551,
    "dream": 8727,
    "watching": 16930,
    "Ġph": 1550,
    "Ġmilky": 9946,
    "hy": 4739,
    "Ġutilize": 4797,
    "Ġbecher": 18879,
    "Ġphilosoph": 19650,
    "Ġbelief": 5855,
    "/*": 10070,
    "Ġbeaten": 10528,
    "boy": 4737,
    "Ġbecomes": 6396,
    "Ġawful": 6199,
    "Ġunembarrassed": 22066,
    "Ġhol": 1181,
    "Ġforce": 5092,
    "Ġlace": 13948,
    "wards": 1276,
    "missed": 11209,
    "Ġchil": 11749,
    "france": 24282,
    "Ġmaimed": 21315,
    "Ġpale": 4530,
    "Ġdoings": 18376,
    "Ġver": 3395,
    "Ġdesert": 6726,
    "contemplated": 20457,
    "Ġglory": 6064,
    "Ġunthink": 18247,
    "Ġbar": 3149,
    "lished": 8382,
    "au": 779,
    "Ġobeying": 13413,
    "ider": 21762,
    "aiian": 23591,
    "Ġwords": 1325,
    "Ġcontemptuous": 24676,
    "Ġcompunction": 18585,
    "wants": 21129,
    "Ġascended": 8665,
    "Ġcold": 3033,
    "------": 12131,
    "Ġsquare": 2397,
    "Ġcovered": 5171,
    "Ġsunda": 13543,
    "Ġfedallah": 6108,
    "Ġopinions": 9414,
    "Ġrapidity": 11100,
    "merchant": 10467,
    "Ġpiqu": 21475,
    "narrow": 11507,
    "strils": 10458,
    "Ġsalut": 10509,
    "Ġdance": 4441,
    "por": 2155,
    "Ġbend": 9170,
    "pract": 10119,
    "Ġegot": 18007,
    "Ġunjust": 8483,
    "retrie": 18922,
    "Ġpin": 7161,
    "future": 13716,
    "Ġsaintly": 25931,
    "Ġsovere": 9255,
    "Ġlooks": 4165,
    "Ġfinancial": 23125,
    "chairs": 21690,
    "Ġblocks": 6321,
    "decoder": 3642,
    "Ġprognost": 15280,
    "Ġchronicler": 20228,
    "Ġconsecut": 18114,
    "Ġhish": 21910,
    "Ġindisc": 16227,
    "Ġchapel": 9522,
    "sadly": 25526,
    "Ġexquis": 9698,
    "Ġ*": 1272,
    "Ġfierc": 18717,
    "Ġfel": 1518,
    "Ġelaborate": 18636,
    "magnitude": 17248,
    "Ġpainting": 13140,
    "Ġrelish": 14383,
    "ryder": 18646,
    "Ġtools": 11608,
    "Ġdescried": 7918,
    "Ġobli": 9315,
    "fortune": 4974,
    "Ġdistance": 3484,
    "steps": 9404,
    "Ġabounding": 12342,
    "Ġrud": 8477,
    "ining": 3221,
    "taste": 10129,
    "Ġvillanous": 24051,
    "Ġdost": 7637,
    "Ġdetailed": 12821,
    "Ġtell": 1468,
    "Ġvest": 8162,
    "ials": 11702,
    "ittingly": 18807,
    "terms": 15749,
    "squ": 7809,
    "Ġpolice": 4674,
    "strangely": 17276,
    "Ġreception": 9838,
    "Ġagitates": 22514,
    "manners": 16184,
    "elope": 14468,
    "Ġexpl": 487,
    "scot": 14416,
    "lights": 13204,
    "Ġzero": 1200,
    "Ġcalendar": 18876,
    "Ġsorrow": 4628,
    "would": 2350,
    "Ġmorals": 22967,
    "hib": 15366,
    "T": 56,
    "Ġ74": 24261,
    "Ġsupposing": 6728,
    "remains": 10398,
    "Ġreleased": 2976,
    "L": 48,
    "Ġoft": 9194,
    "Ġswimming": 5507,
    "Ġflora": 11416,
    "ev": 6952,
    "Ġcra": 2331,
    "Ġtrampling": 25492,
    ";": 31,
    "Ġgrapple": 25811,
    "Ġjoke": 8868,
    "founded": 16713,
    "endom": 15922,
    "Ġpastures": 23418,
    "may": 3677,
    "cork": 20795,
    "Ġnlp": 3063,
    "Ġcontented": 9755,
    "Ġinstructing": 3123,
    "Ġtren": 17721,
    "Ġcompos": 22566,
    "velope": 17701,
    "Ġshapeless": 24524,
    "enough": 6809,
    "conjectures": 25180,
    "Ġvindictive": 20468,
    "purp": 8090,
    "Ġvivacity": 14940,
    "harpoone": 6107,
    "thar": 18217,
    "Ġstair": 8455,
    "Ġtoiled": 12639,
    "iony": 9191,
    "Ġroman": 8322,
    "macy": 18806,
    "shock": 19854,
    "Ġindication": 22949,
    "Ġcrowded": 8011,
    "ĕ": 214,
    "guess": 14760,
    "Ġbubb": 12581,
    "Ġcaress": 16338,
    "usions": 6159,
    "still": 4218,
    "Ġfatigued": 13464,
    "Ġcoherent": 3263,
    "Ġputs": 19031,
    "main": 8087,
    "Ġwasn": 6997,
    "Ġvalidation": 2355,
    "ricade": 13035,
    "sterns": 23366,
    "Ġoysters": 20577,
    "Ġsubtle": 6716,
    "Ġhears": 8138,
    "Ġlifetime": 13601,
    "Ġconflagration": 26364,
    "singular": 12186,
    "merc": 19279,
    "abetical": 15741,
    "ending": 1991,
    "position": 15413,
    "Ġsecrecy": 7316,
    "Ġpiratical": 24801,
    "wander": 17709,
    "Ġpreserved": 9261,
    "ws": 7355,
    "?_": 8069,
    "Ġdispute": 16055,
    "Ġprojecting": 9984,
    "Ġrand": 1588,
    "Ġvult": 12749,
    "Ġarchy": 14346,
    "iceland": 21563,
    "Ġassistant": 7298,
    "people": 7677,
    "Ġthro": 5817,
    "effect": 8603,
    "Ġdisadvantages": 18558,
    "insensibility": 23066,
    "Ġvow": 10246,
    "Ġespe": 21154,
    "Ġattribute": 16096,
    "Ġrunning": 3950,
    "Ġaffair": 4462,
    "soul": 9140,
    "Ġlegs": 4915,
    "sh": 641,
    "Ġmaledictions": 26428,
    "Ġgives": 5018,
    "Ġglobular": 19009,
    "Ġpumps": 8426,
    "Ġperf": 12846,
    "nep": 20985,
    "dried": 20826,
    "Ġattitude": 8903,
    "Ġfair": 2839,
    "Ġban": 7156,
    "Ġstaggers": 24653,
    "Ġwaned": 17791,
    "Ġgrind": 18735,
    "infidel": 24663,
    "gl": 3291,
    "ounders": 22383,
    "data": 2072,
    "Ġscent": 10284,
    "errand": 22907,
    "Ġphrenologist": 25607,
    "heads": 4094,
    "longing": 23723,
    "Ġanalyze": 1618,
    "aan": 20763,
    "social": 11023,
    "Ġmeagre": 21810,
    "Ġcorroborated": 26053,
    "olently": 15755,
    "Ġdivergence": 2730,
    "Ġintelligence": 562,
    "Ġspoils": 24808,
    "ppered": 15789,
    "Ġsincer": 13063,
    "capable": 13700,
    "Ġwouldst": 18501,
    "Ġunattended": 15842,
    "Ġnightfall": 23127,
    "Ġreplen": 11115,
    "Ġbabel": 24426,
    "tempestuous": 26097,
    "Ġdoubted": 7964,
    "Ġdescrying": 18618,
    "Ġrmsprop": 3356,
    "lik": 3914,
    "Ġrevolving": 9982,
    "turbable": 24531,
    "Ġdefinite": 11069,
    "Ġpersuade": 5872,
    "Ġultimately": 17164,
    "Ġmanage": 7641,
    "warrant": 21136,
    "carte": 25400,
    "Ġlizard": 12651,
    "Ġrare": 7036,
    "Ġwhaleman": 4654,
    "abases": 3005,
    "Ġdivinest": 25722,
    "tailed": 17685,
    "Ġtelegraph": 25583,
    "matter": 5136,
    "Ġdescribe": 2766,
    "Ġredress": 23749,
    "£": 101,
    "Ġbreadth": 10563,
    "umst": 2505,
    "bra": 6219,
    "Ġconcealment": 16914,
    "Ġinsanity": 12045,
    "Ġmomentous": 16171,
    "Ġsheltered": 19910,
    "Ġslight": 3120,
    "Ġkidn": 20204,
    "arness": 11670,
    "Ġrefill": 18697,
    "Ġfurthest": 22813,
    "Ġgrooves": 16741,
    "Ġwisdom": 11233,
    "balanced": 14556,
    "aire": 10680,
    "Ġdeclined": 9920,
    "Ġbidirectional": 3753,
    "Ġnugent": 26457,
    "Ġindecision": 25781,
    "Ġbowditch": 19322,
    "Ġeffected": 14354,
    "lighted": 23751,
    "!_": 7329,
    "Ġomen": 11575,
    "Ġnervous": 2405,
    "Ġshining": 8171,
    "encoun": 12296,
    "Ġlanterns": 24577,
    "Ġgloomily": 14800,
    "Ġmechan": 1206,
    "pless": 6260,
    "Ġdecrease": 4198,
    "Ġdawned": 14993,
    "consolation": 15151,
    "write": 14647,
    "Ġind": 1218,
    "inev": 21962,
    "pedest": 24695,
    "Ġindicated": 10469,
    "quit": 15759,
    "Ġfashionable": 19543,
    "Ġfearfulness": 23511,
    "Ġdiligently": 11405,
    "Ġsneezing": 12245,
    "Ġtypewriting": 16420,
    "Ġmemo": 18119,
    "Ġannals": 17898,
    "Ġparticular": 2450,
    "Ġafter": 869,
    "Ġdent": 13905,
    "Ġhumaneval": 25582,
    "Ġjournal": 15217,
    "Ġshaking": 6551,
    "Ġverily": 16603,
    "Ġai": 3128,
    "Ġblessed": 6931,
    "Ġsupp": 1263,
    "Ġhearts": 4971,
    "Ġmainmast": 9778,
    "Ġfood": 5080,
    "Ġfist": 21402,
    "Ġamiss": 18512,
    "asserted": 22306,
    "Ġuser": 15915,
    "Ġvillagers": 19472,
    "springing": 24889,
    "emone": 21922,
    "rers": 14717,
    "bab": 11468,
    "Ġsparkled": 13461,
    "Ġwhispers": 14699,
    "renched": 7906,
    "Ġcruellest": 19657,
    "Ġmap": 2392,
    "Ġscuttle": 7414,
    "roar": 17952,
    "Ġtumb": 21168,
    "Ġhanding": 16129,
    "ilder": 15711,
    "Ġtightly": 13533,
    "away": 4625,
    "tal": 17670,
    "Ġrobe": 18457,
    "Ġscenarios": 26542,
    "Ġwhistles": 24624,
    "Ġhatchways": 24987,
    "Ġgarn": 13962,
    "opy": 4457,
    "Ġinsignificant": 20455,
    "Ġsickle": 24245,
    "Ġunimportant": 22027,
    "Ġbalancing": 2432,
    "Ġabaft": 22271,
    "Ġdischar": 11806,
    "ofs": 11828,
    "Ġeasiness": 23536,
    "Ġdarcy": 1343,
    "Ġcivilly": 19602,
    "Ġreserve": 9970,
    "uch": 876,
    "Ġwarmup": 3920,
    "Ġeuroclydon": 15295,
    "fluttering": 23970,
    "Ġpreacher": 18369,
    "Ġlun": 7855,
    "sembled": 7263,
    "isions": 6130,
    "Ġlove": 2054,
    "Ġjoys": 13218,
    "anse": 12572,
    "Ġmood": 6276,
    "Ġwindow": 2996,
    "heard": 5009,
    "Ġpresent": 1645,
    "listen": 13513,
    "Ġlandsc": 11146,
    "ood": 963,
    "Ġlive": 2737,
    "Ġsinister": 8568,
    "Ġvariously": 18653,
    "ternatural": 12712,
    "intu": 22930,
    "Ġjealousy": 13575,
    "Ġemploy": 3613,
    "Ġfunny": 7638,
    "Ġturks": 14598,
    "Ġphrenologically": 20392,
    "inu": 1117,
    "ause": 1315,
    "Ġcomes": 3424,
    "Ġsledge": 8110,
    "Ġsimultaneously": 4310,
    "Ġcab": 2634,
    "pth": 2382,
    "Ġinitial": 821,
    "Ġfountain": 7365,
    "money": 8749,
    "countless": 24150,
    "Ġfragments": 19041,
    "Ġveins": 8932,
    "ruin": 22173,
    "Ġret": 1381,
    "eager": 12457,
    "Ġ64": 24367,
    "neglected": 25668,
    "Ġeucl": 24709,
    "stonecraft": 24356,
    "es": 288,
    "Ġparameter": 894,
    "Ġnovelty": 13462,
    "royal": 11393,
    "Ġsuicide": 12785,
    "inforcement": 3043,
    "Ġimprudent": 12849,
    "Ġresp": 2495,
    "Ġit": 339,
    "distrust": 19569,
    "acific": 4959,
    "Ġquivers": 22410,
    "clump": 23150,
    "share": 14234,
    "les": 1017,
    "visit": 7754,
    "Ġbreaches": 14519,
    "thirst": 15824,
    "nant": 17609,
    "mystical": 25317,
    "avor": 14275,
    "mixed": 15393,
    "oise": 15404,
    "Ġdifficulty": 5770,
    "Ġsteps": 2865,
    "Ġwaited": 4907,
    "odhead": 18118,
    "Ġoverlooking": 22354,
    "Ġcroquet": 9961,
    "Ġinve": 17928,
    "requ": 7148,
    "Ġtemple": 7654,
    "writing": 7720,
    "Ġprevailed": 7777,
    "rather": 5430,
    "Ġstunsail": 25543,
    "Ġcompre": 4447,
    "Ġtrip": 16788,
    "Ġapr": 12529,
    "bruary": 15234,
    "Ġshuddering": 9051,
    "Ġglimpse": 6944,
    "cavity": 26126,
    "Ġcurb": 16243,
    "Ġadvanced": 1501,
    "peculiarity": 23106,
    "prejudice": 25571,
    "blog": 19838,
    "toes": 22561,
    "glim": 19363,
    "Ġcontaining": 2234,
    "discrimin": 19607,
    "Ġprevail": 13441,
    "suspicious": 25390,
    "Ġduncan": 13460,
    "Ġconcerning": 4066,
    "Ġpowers": 5419,
    "ize": 751,
    "Ġscrutin": 26014,
    "asse": 15643,
    "Ġmanilla": 15958,
    "causing": 25518,
    "Ġsubmerged": 11870,
    "naturally": 14571,
    "Â·": 21148,
    "Ġsanely": 24980,
    "Ġeyelids": 26107,
    "Ġearly": 2080,
    "Ġpredictions": 1456,
    "ron": 5216,
    "Ġsharkish": 24506,
    "Ġwallow": 19464,
    "Ġframed": 19040,
    "Ġassault": 9836,
    "Ġpollard": 20384,
    "Ġdeformity": 11675,
    "Ġcumulative": 4210,
    "involuntarily": 20413,
    "Ġno": 510,
    "Ġfor": 340,
    "diff": 9113,
    "Ġsums": 2904,
    "eness": 2291,
    "dz": 4738,
    "causes": 20342,
    "Ġcetology": 10008,
    "prev": 12863,
    "imely": 13997,
    "disposed": 25010,
    "Ġundulated": 19515,
    "Ġeager": 3569,
    "violence": 16478,
    "Ġii": 7385,
    "Ġfearlessness": 19160,
    "Ġencoura": 1368,
    "igh": 2030,
    "Ġinvoked": 19144,
    "Ġmournfully": 20115,
    "Ġfavoured": 16360,
    "ooping": 21006,
    "Ġsinusoidal": 4800,
    "cific": 10085,
    "Ġpalpitated": 26085,
    "Ġfearful": 6197,
    "Ġleast": 2064,
    "Ġchecking": 23284,
    "Ġderivative": 2999,
    "Ġway": 1082,
    "Ġposition": 1955,
    "ugal": 19020,
    "ama": 11679,
    "Ġult": 9074,
    "waistcoat": 17360,
    "Ġlust": 9197,
    "hee": 10760,
    "astonishment": 10029,
    "Ġsalmon": 24058,
    "Ġinterests": 14569,
    "falling": 24361,
    "igning": 12678,
    "anyth": 5438,
    "Ġlives": 4824,
    "Ġendeavouring": 8034,
    "Ġapothecary": 13658,
    "tell": 1380,
    "Ġaltering": 18102,
    "machines": 8384,
    "Ġpossibility": 7458,
    "Ġsoaring": 22075,
    "impl": 21704,
    "Ġsuffering": 8946,
    "Ġfibres": 12948,
    "Ġaccordingly": 6619,
    "elter": 21568,
    "Ġhairs": 13229,
    "bulwarks": 12270,
    "Ġdecanting": 22435,
    "Ġcurvature": 3572,
    "Ġcleans": 18947,
    "Ġshark": 5550,
    "Ġ96": 24592,
    "crossed": 16632,
    "coff": 9108,
    "Ġcrash": 12000,
    "Ġfolded": 7767,
    "Ġsacrificial": 24871,
    "ĠĠĠĠĠĠĠĠĠĠĠĠĠĠĠĠĠĠĠĠĠĠĠĠ": 5321,
    "indifference": 15982,
    "coffin": 10662,
    "Ġhelmeted": 19687,
    "Ġcomplaints": 12262,
    "programming": 10062,
    "Ġoutlandish": 12835,
    "Ġeaten": 14844,
    "Ġalps": 10870,
    "ner": 1373,
    "exped": 16525,
    "Ġcorpusants": 13676,
    "Ġdonkey": 23228,
    "Ġjudge": 5502,
    "Ġbor": 5804,
    "past": 8089,
    "Ġperse": 6272,
    "Ġforebodings": 17303,
    "jac": 8381,
    "Ġchast": 18380,
    "record": 16921,
    "Ġloosened": 26002,
    "Ġoutrageous": 20609,
    "Ġoar": 6236,
    "Ġchall": 10944,
    "Ġupdate": 2464,
    "observation": 17269,
    "vag": 8764,
    "utional": 17983,
    "ital": 4816,
    "à": 161,
    "Ġperiods": 13302,
    "Ġfeelings": 2454,
    "par": 1928,
    "remembered": 17350,
    "absence": 12705,
    "reck": 9636,
    "Ġretreating": 19798,
    "Ġirish": 14534,
    "Ġreplied": 2267,
    "Ġxl": 11988,
    "aper": 4999,
    "Ġimmovable": 15891,
    "Ġakin": 15495,
    "theirs": 23601,
    "dissatisf": 26129,
    "-------": 20387,
    "Ġmales": 17805,
    "Ġconcer": 23318,
    "Ġmakes": 3649,
    "plish": 18196,
    "Ġshowed": 4495,
    "Ġdarkened": 16432,
    "Ġwhole": 1665,
    "Ġmess": 7831,
    "achel": 7032,
    "ashing": 4823,
    "Ġfossiliferous": 25609,
    "rannical": 26401,
    "Ġrecess": 10847,
    "lun": 20945,
    "Ġinjustice": 9190,
    "Ġdoll": 10813,
    "Ġshelf": 12265,
    "Ġinhabited": 12183,
    "Ġbible": 9318,
    "Ġproducing": 11897,
    "iew": 2448,
    "aths": 22696,
    "Ġretiring": 16279,
    "Ġcontinuous": 1564,
    "Ġconsists": 11976,
    "Ġcreating": 2997,
    "Ġbud": 10168,
    "Ġhal": 1364,
    "Ġplays": 12035,
    "herds": 22200,
    "it": 276,
    "Ġmagnifying": 16320,
    "clam": 13052,
    "appointment": 24056,
    "Ġcheshire": 13088,
    "igms": 3047,
    "Ġcontextually": 11953,
    "Ġspoke": 2749,
    "threw": 21981,
    "Ġ76": 24262,
    "Ġfri": 17878,
    "Ġkink": 22190,
    "irresist": 21909,
    "Ġextremest": 19194,
    "shaven": 18489,
    "omp": 2472,
    "Ġfurnishing": 16645,
    "Ġdest": 2240,
    "pattern": 4208,
    "Ġstoven": 23170,
    "Ġclapping": 14202,
    "Ġplank": 7033,
    "Ġdears": 18139,
    "smiled": 16614,
    "Ġoversight": 22355,
    "Ġthreaten": 24374,
    "supplementary": 20548,
    "Ġsaw": 1352,
    "response": 25762,
    "plainly": 11090,
    "Ġgreenhorn": 23766,
    "Ġisinglass": 21799,
    "results": 20385,
    "Ġgaping": 13968,
    "Ġsuperficial": 23455,
    "noise": 14331,
    "Ġfaults": 12210,
    "supplemental": 25874,
    "oat": 13763,
    "Ġassoc": 6402,
    "gave": 7799,
    "won": 7144,
    "Ġunseason": 22049,
    "Ġslippery": 12164,
    "uming": 8491,
    "lifted": 15385,
    "Ġbenches": 18783,
    "Ġbrim": 12973,
    "Ġfain": 5808,
    "Ġearl": 7676,
    "Ġstooped": 14462,
    "Ġsucceeding": 16761,
    "U": 57,
    "Ġfir": 17877,
    "Ġpresentation": 14480,
    "Ġhides": 16263,
    "eminently": 25105,
    "Ġlin": 10833,
    "Ġstating": 15720,
    "Ġfeverish": 11348,
    "Ġtun": 5998,
    "deepest": 22826,
    "Ġmanufactured": 22327,
    "Ġexplanations": 15909,
    "iscre": 17850,
    "misrepresented": 24211,
    "á": 162,
    "Ġindistinct": 17407,
    "Ġplatonian": 25118,
    "Ġwor": 1188,
    "reas": 992,
    "fem": 17537,
    "Ġsilent": 3412,
    "fill": 15349,
    "blue": 13692,
    "inously": 21185,
    "Ġmediocr": 24081,
    "Ġparty": 3510,
    "Ġsouls": 6308,
    "Ġpole": 6433,
    "Ġmallet": 17810,
    "mortals": 25409,
    "nett": 16220,
    "Ġsolitudes": 22883,
    "Ġgulf": 10635,
    "Ġwoe": 4792,
    "dense": 18715,
    "Ġexcel": 3566,
    "Ġanybody": 5313,
    "augh": 1783,
    "Ġfile": 13902,
    "Ġoptimization": 1405,
    "Ġfoolishly": 19781,
    "Ġpist": 12612,
    "Ġbowled": 23768,
    "amidst": 25652,
    "tar": 8097,
    "ensing": 12893,
    "Ġuseful": 3557,
    "Ġobligation": 13242,
    "clergyman": 20728,
    "orand": 21395,
    "Ġain": 6969,
    "tra": 4933,
    "Ġqu": 605,
    "Ġtorn": 5999,
    "tling": 9142,
    "Ġscreamed": 9523,
    "Ġcolossal": 11459,
    "Ġmexico": 15279,
    "Ġensu": 7874,
    "Ġhousings": 21490,
    "england": 18928,
    "Ġtheme": 16017,
    "Ġbachelor": 7786,
    "Ġ84": 19708,
    "pate": 21009,
    "Ġrallied": 14095,
    "Ġparish": 8854,
    "Ġcrav": 19172,
    "Ġdistended": 16043,
    "Ġhoofs": 14527,
    "Ġpresc": 15924,
    "Ġenforced": 21935,
    "Ġexclude": 19042,
    "Ġfiery": 6871,
    "hil": 8378,
    "Ġordering": 18997,
    "Ġalternative": 19985,
    "Ġox": 7153,
    "Ġwail": 21285,
    "Ġgi": 15664,
    "Ġmant": 9647,
    "ills": 1633,
    "Ġthere": 564,
    "Ġunwinding": 22057,
    "Ġstones": 9221,
    "Ġbecalmed": 18086,
    "Ġdefault": 3039,
    "Ġintermediate": 18588,
    "rie": 2787,
    "strade": 5065,
    "Ġunlock": 18243,
    "tashtego": 9622,
    "00": 1617,
    "Ġcarpets": 18902,
    "Ġimposed": 14220,
    "Ġdefinition": 14402,
    "Ġincrust": 22547,
    "Ġstead": 5650,
    "Ġporch": 19679,
    "aston": 7408,
    "Ġforging": 18093,
    "Ġboys": 5194,
    "Ġcharley": 19005,
    "Ġnod": 1888,
    "Ġcreamy": 14330,
    "Ġspeedily": 7711,
    "Ġremonstrance": 20621,
    "Ġtot": 4184,
    "americans": 25043,
    "truth": 9918,
    "Ġcompared": 2231,
    "Ġsw": 1358,
    "Ġtantalizing": 20412,
    "strange": 6086,
    "Ġmanif": 8870,
    "Ġloc": 10914,
    "Ġappertaining": 26533,
    "mon": 2309,
    "Ġterrible": 5327,
    ";âĢĿ": 7790,
    "Ġundisturbed": 19518,
    "Ġbrief": 6976,
    "Ġpacing": 8425,
    "mitting": 17602,
    "Ġencouraged": 9354,
    "Ġtend": 6120,
    "Ġrio": 23889,
    "passenger": 24166,
    "floating": 12225,
    "Ġrending": 19465,
    "Ġdeuteronomy": 15758,
    "Ġburgled": 23655,
    "mal": 6794,
    "aux": 14288,
    "ong": 537,
    "hog": 8379,
    "ĠĠĠĠĠĠĠĠĠĠĠĠĠĠĠĠĠĠĠĠĠĠĠĠĠĠĠĠĠĠĠĠĠĠĠĠĠĠĠĠĠĠĠĠĠĠĠĠ": 7988,
    "perhaps": 4120,
    "animated": 14974,
    "izers": 18133,
    "Ġobey": 9518,
    "Ġsore": 10764,
    "Ġgrappling": 25812,
    "fri": 20853,
    "network": 1908,
    "bbing": 6323,
    "Ġintroduces": 3270,
    "Ġmonsie": 11447,
    "Ġp": 289,
    "Ġpetulance": 24227,
    "umnal": 18300,
    "Ġmagnitudes": 3821,
    "Ġaffectionate": 5585,
    "million": 25751,
    "Ġunravel": 26214,
    "Ġnon": 1630,
    "Ġlight": 1702,
    "sprit": 11382,
    "Ġunst": 18238,
    "expressed": 9041,
    "Ġintensified": 17018,
    "Ġjustify": 11072,
    "Ġdisinterested": 16056,
    "ma": 1152,
    "Ġdeployment": 11184,
    "Ġaugust": 10597,
    "acknowled": 10975,
    "Ġequalled": 13311,
    "Ġware": 12551,
    "Ġcast": 3604,
    "Ġelopement": 10329,
    "endar": 18364,
    "powers": 25410,
    "Ġsleet": 8975,
    "Ġunheard": 22022,
    "Ġprynne": 25540,
    "formity": 10278,
    "Ġimprovements": 14514,
    "Ġgums": 21608,
    "Ġparts": 4164,
    "pening": 2833,
    "rived": 5373,
    "shot": 2131,
    "Ġmaddened": 17244,
    "Ġpetticoat": 15294,
    "Ġlapl": 19776,
    "Ġupdates": 1299,
    "Ġrestrictions": 20634,
    "Ġhosmer": 6774,
    "Ġforthwith": 16618,
    "wid": 10134,
    "enses": 10994,
    "othe": 2615,
    "inferior": 12392,
    "Ġconscientious": 16727,
    "Ġfell": 1979,
    "apple": 22841,
    "Ġquestions": 3972,
    "Ġsecondary": 23334,
    "Ġpry": 11599,
    "Ġinferiority": 17115,
    "Ġbalm": 22902,
    "discoloured": 23497,
    "Ġgazing": 5875,
    "Ġdivision": 19442,
    "Ġrepresentation": 14404,
    "icated": 7591,
    "brother": 7091,
    "Ġskirts": 14352,
    "print": 23809,
    "Ġpardon": 5727,
    "Ġunfit": 14786,
    "imen": 12683,
    "Ġraw": 3323,
    "screw": 9345,
    "Ġbaronial": 23792,
    "Ġconsidered": 4610,
    "Ġbeauty": 3769,
    "Ġtut": 8769,
    "Ġmarched": 18870,
    "gon": 17552,
    "ouri": 21445,
    "Ġunforgiving": 25995,
    "itals": 17820,
    "Ġissu": 6253,
    "Ġflor": 8561,
    "kinson": 10025,
    "Ġslow": 2379,
    "relations": 14732,
    "inex": 14091,
    "pride": 11210,
    "youn": 5690,
    "Ġscener": 10949,
    "courage": 17509,
    "crowded": 20189,
    "Ġvi": 1954,
    "Ġlacey": 10197,
    "Ġinstantaneously": 23659,
    "fearfully": 25116,
    "Ġmurky": 19202,
    "Ġsnatched": 10471,
    "af": 2376,
    "athom": 12936,
    "Ġmusket": 12294,
    "oundered": 14161,
    "Ġexcell": 10415,
    "Ġsteelkilt": 5675,
    "vess": 7354,
    "Ġinherent": 4590,
    "ipher": 18426,
    "egypt": 15348,
    "Ġingenuity": 17163,
    "is": 280,
    "100": 11464,
    "Ġswamp": 14435,
    "wrinkled": 16554,
    "Ġbespe": 19241,
    "sounding": 24796,
    "eldest": 22800,
    "Ġinscrut": 10033,
    "lounged": 26133,
    "permitted": 18342,
    "persuade": 13532,
    "Ġexertions": 13409,
    "Ġhearses": 20058,
    "attracted": 13048,
    "consc": 4839,
    "Ġidiotic": 25588,
    "Ġrepugnant": 26590,
    "Ġclimate": 9274,
    "Ġrefusing": 11028,
    "imson": 12686,
    "Ġach": 2622,
    "Ġcredit": 4817,
    "Ġaghast": 16046,
    "Ġpitch": 5767,
    "Ġet": 3579,
    "Ġpun": 4586,
    "Ġexam": 3709,
    "Ġbows": 4081,
    "Ġunflinching": 26512,
    "Ġsenior": 17171,
    "Ġissued": 10599,
    "Ġhudson": 15190,
    "Ġsuffered": 5649,
    "Ġadrift": 11720,
    "Ġvoluntary": 14798,
    "sulphur": 25909,
    "Ġcarav": 18901,
    "imet": 21703,
    "wives": 15455,
    "Ġphysiogn": 12386,
    "Ġentreaties": 9035,
    "Ġgl": 1252,
    "Ġtrucks": 19511,
    "wrong": 13205,
    "ocations": 23705,
    "Ġkitchen": 8495,
    "Ġexpatiate": 18626,
    "fingers": 17369,
    "Ġreturn": 1711,
    "retrospect": 23133,
    "Ġmadame": 13149,
    "petulance": 24299,
    "Ġsilently": 6895,
    "Ġfowler": 16937,
    "iqu": 7802,
    "intments": 18820,
    "wart": 17705,
    "Ġcarrying": 6071,
    "Ġcornelius": 13572,
    "Ġstacked": 21740,
    "overed": 2855,
    "ć": 200,
    "nervous": 16276,
    "Ġgoring": 21601,
    "manif": 14372,
    "sorrows": 17319,
    "Ġordinary": 6096,
    "gal": 15354,
    "general": 7490,
    "breadth": 20275,
    "va": 4742,
    "Ġannoyed": 17199,
    "beating": 22486,
    "cro": 13695,
    "salis": 25147,
    "Ġanalysis": 1944,
    "cont": 2921,
    "Ġpoint": 2056,
    "Ġsongs": 13419,
    "Ġprayed": 16667,
    "Ġfeebly": 24877,
    "quarters": 24946,
    "rods": 21535,
    "beg": 22484,
    "Ġlunatic": 24990,
    "Ġfairer": 20460,
    "Ġseize": 8165,
    "Ġslumber": 13057,
    "ojo": 7349,
    "Ġtranspointed": 22463,
    "contact": 23725,
    "Ġinflex": 20633,
    "Ġlawy": 9454,
    "profitable": 17055,
    "Ġentity": 10342,
    "Ġ75": 19611,
    "Ġtiny": 11552,
    ",âĢĿâĢĶ": 14215,
    "Ġoozy": 21325,
    "Ġsounds": 5190,
    "drowned": 17368,
    "Ġfishermen": 5970,
    "Ġturbul": 23611,
    "Ġbrooks": 25700,
    "tiger": 13796,
    "Ġexcuse": 5861,
    "Ġexist": 9231,
    "Ġmolasses": 25628,
    "Ġbelie": 14405,
    "Ġdecide": 9285,
    "Ġczar": 12571,
    "Ġslumbering": 25701,
    "eds": 6674,
    "Ġdominant": 12394,
    "pha": 22766,
    "dear": 6555,
    "Ġperpetual": 12301,
    "love": 9293,
    "Ġneat": 6999,
    "Ġallowed": 4056,
    "Ġrelied": 16194,
    "Ġerred": 21155,
    "Ġbruised": 25772,
    "alarmed": 21500,
    "Ġfresher": 23207,
    "Ġchooses": 13345,
    "Ġobtaining": 16131,
    "screwed": 17187,
    "Ġobsequ": 14319,
    "heart": 4524,
    "tide": 11532,
    "fif": 9116,
    "Ġedged": 23435,
    "Ġtotally": 9470,
    "ingu": 2122,
    "Ġconsecutive": 20701,
    "conceive": 16029,
    "Ġattempts": 10490,
    "aunted": 20769,
    "Ġcosmopol": 16455,
    "Ġactivity": 7919,
    "Ġimpressions": 9552,
    "Ġstriking": 6088,
    "Ġprominence": 18953,
    "silent": 9973,
    "Ġcrowned": 16841,
    "pillar": 5619,
    "Ġadvertising": 25389,
    "Ġconcrete": 20635,
    "Ġpieces": 7369,
    "Ġlanguages": 1570,
    "Ġemergencies": 17361,
    "Ġsiber": 17755,
    "Ġlabel": 14515,
    "Ġparamore": 22119,
    "Ġred": 3004,
    "Ġbathed": 17865,
    "Ġ270": 25130,
    "discoveries": 25385,
    "Ġforefinger": 16444,
    "Ġattack": 5478,
    "Ġbye": 12735,
    "Ġdelivered": 11116,
    "Ġintervened": 25481,
    "Ġfascinated": 25635,
    "Ġanalytical": 22908,
    "Ġpiled": 8424,
    "Ġtransferred": 16457,
    "Ġwhiteness": 5918,
    "Ġhack": 12753,
    "Ġdisordered": 16054,
    "Ġvicious": 24403,
    "Ġfame": 21404,
    "Ġprecipices": 12275,
    "mish": 17598,
    "iar": 2378,
    "Ġpatiently": 19917,
    "careful": 14865,
    "Ġslighted": 16567,
    "Ġyonder": 7392,
    "classification": 4387,
    "Ġhastily": 5763,
    "Ġveiled": 16201,
    "Ġtitle": 11408,
    "odious": 21807,
    "Ġtrained": 8502,
    "umpled": 15875,
    "umber": 5240,
    "reputable": 15517,
    "voy": 7143,
    "Ġrelevant": 1862,
    "Ġinvented": 17037,
    "Ġloveliest": 20260,
    "emic": 18180,
    "undant": 14785,
    "converse": 22472,
    "fishery": 10031,
    "Ġbandaged": 16842,
    "Ġbethinking": 25279,
    "Ġlim": 2381,
    "desirable": 23205,
    "Ġmonsters": 11074,
    "Ġtea": 5041,
    "Ġimproves": 22750,
    "Ġprizes": 13072,
    "Ġpedestrian": 25879,
    "robber": 21534,
    "Ġemotions": 8969,
    "Ġbeliever": 25845,
    "shabbily": 26246,
    "Ġsadly": 7302,
    "Ġtoil": 6531,
    "dick": 11479,
    "dispute": 23498,
    "Ġamericans": 14742,
    "blending": 24129,
    "upt": 13797,
    "abouts": 9452,
    "ed": 293,
    "itche": 7579,
    "Ġsize": 1215,
    "Ġwon": 1667,
    "rudence": 7092,
    "Ġautomatically": 3891,
    "huzza": 20912,
    "Ġsaying": 3243,
    "Ġclump": 15964,
    "servants": 15037,
    "oder": 2460,
    "Ġgratify": 19501,
    "asible": 21539,
    "Ġswain": 18880,
    "Ġleadenhall": 16628,
    "eh": 13709,
    "waves": 10742,
    "nes": 6961,
    "hap": 17559,
    "Ġcontrolled": 23248,
    "nuts": 15398,
    "terdam": 18129,
    "eps": 12788,
    "Ġthickness": 13276,
    "Ġremarkably": 7702,
    "Ġdoes": 943,
    "Ġscolding": 15199,
    "ĠĠĠĠĠĠĠĠĠĠĠĠĠĠĠĠĠĠĠĠĠĠĠĠĠĠĠĠĠĠĠĠĠĠĠĠĠĠĠĠĠĠĠĠĠ": 9951,
    "limp": 20951,
    "Ġpremeditated": 22231,
    "earnest": 12397,
    "Ġbreaching": 23345,
    "fabulous": 20472,
    "spanish": 14333,
    "Ġlowly": 11121,
    "skirted": 24489,
    "Ġaccompl": 5167,
    "Ġjoosy": 23630,
    "Ġenvelop": 5587,
    "Ġexploded": 15908,
    "Ġtransform": 757,
    "Ġdiscernment": 15067,
    "cary": 10689,
    "Ġforming": 7042,
    "reat": 620,
    "Ġundue": 25993,
    "Ġflourish": 17160,
    "tw": 2813,
    "Ġcats": 8979,
    "ibly": 2995,
    "Ġgeor": 3389,
    "comfort": 5647,
    "illustration": 2284,
    "Ġmidnight": 5265,
    "Ġbrid": 6290,
    "subtle": 24243,
    "Ġroared": 7023,
    "Ġscramble": 24578,
    "la": 10705,
    "ensity": 11811,
    "venth": 9294,
    "Ġhomely": 25219,
    "shining": 18487,
    "Ġslip": 8954,
    "Ġperfume": 25665,
    "abilizing": 2925,
    "Ġargosy": 24273,
    "Ġheiress": 20696,
    "Ġprinciples": 10010,
    "unalterable": 21883,
    "vocabulary": 25085,
    "nlp": 8750,
    "Ġwhipcord": 20093,
    "Ġnow": 692,
    "Ġeyes": 1336,
    "Ġmicroscopic": 26373,
    "Ġblandly": 20322,
    "ves": 698,
    "Ġarrogance": 26231,
    "Ġnewton": 3532,
    "Ġengine": 1920,
    "Ġmim": 3106,
    "enchant": 21282,
    "Ġbehaved": 13252,
    "Ġfee": 7198,
    "wag": 21122,
    "Ġunable": 4950,
    "Ġphaet": 16317,
    "Ġsprout": 24085,
    "Ġunfold": 8022,
    "Ġhanging": 5447,
    "Ġobjects": 5578,
    "quarrel": 20013,
    "akes": 2220,
    "isure": 6240,
    "Ġpassers": 18756,
    "Ġdiscomposed": 25580,
    "witted": 17707,
    "Ġcabinets": 23860,
    "Ġlicense": 20089,
    "Ġhated": 7585,
    "Ġmeasured": 9803,
    "thole": 21983,
    "Ġesteem": 7532,
    "inordinate": 21193,
    "Ġpointing": 5661,
    "Ġalbert": 12703,
    "returning": 12203,
    "generative": 4329,
    "Ġmoonlight": 9957,
    "Ġadv": 1137,
    "Ġintroducing": 11974,
    "agrad": 2748,
    "cc": 472,
    "ĠĠĠĠĠĠĠĠĠĠĠĠĠĠĠĠĠĠĠĠĠĠĠĠĠĠĠĠĠĠĠĠĠĠĠ": 19257,
    "neurons": 3135,
    "Ġinducements": 24965,
    "Ġportent": 12079,
    "sleepy": 24729,
    "Ġeasterly": 25962,
    "blot": 20782,
    "Ġties": 12525,
    "Ġpresided": 20206,
    "Ġ105": 24413,
    "Ġscalable": 1591,
    "cd": 15322,
    "Ġwip": 13852,
    "Ġextent": 7656,
    "reached": 13840,
    "Ġsub": 950,
    "Ġbracelets": 25502,
    "Ġsmoothe": 23657,
    "Ġjudgment": 5765,
    "Ġunfelt": 24109,
    "Ġliber": 5168,
    "Ġbackbone": 22657,
    "stretching": 20497,
    "Ġgoose": 5937,
    "Ġcourtship": 24136,
    "Ġseam": 3907,
    "Ġprocesses": 3631,
    "solut": 3365,
    "Ġsling": 21219,
    "Ġeffusion": 22509,
    "ulls": 8837,
    "Ġkeenest": 12159,
    "Ġinj": 4759,
    "Ġname": 2084,
    "duct": 3506,
    "relu": 17759,
    "Ġdeploy": 2605,
    "exciting": 19667,
    "oses": 3944,
    "Ġwandered": 6930,
    "Ġaided": 17745,
    "Ġsame": 1342,
    "Ġclo": 6042,
    "domestic": 19824,
    "Ġmovement": 9967,
    "Ġoff": 902,
    "Ġgone": 2109,
    "andering": 21864,
    "Ġsalvation": 14756,
    "probability": 17022,
    "Ġjames": 6419,
    "yn": 7819,
    "omical": 9679,
    "type": 16175,
    "fore": 686,
    "seamen": 13625,
    "Ġquieted": 23840,
    "Ġjob": 7015,
    "Ġparade": 18301,
    "ifers": 15780,
    "Ġshin": 18227,
    "Î": 143,
    "Ġrashness": 25460,
    "Ġscreening": 25300,
    "Ġtri": 4812,
    "Ġhonoured": 9880,
    "Ġignorant": 5343,
    "Ġattractions": 12913,
    "Ġere": 3683,
    "sex": 12710,
    "Ġnought": 21519,
    "Ġpr": 1604,
    "Ġreneg": 21672,
    "Ġcalf": 16267,
    "Ġstoop": 16310,
    "Ġspirit": 3722,
    "sixteen": 24853,
    "Ġjagged": 18407,
    "jected": 22709,
    "Ġgips": 10841,
    "breckinridge": 24072,
    "Ġyarns": 15194,
    "arris": 13208,
    "Ġimbued": 17454,
    "Ġenvy": 13202,
    "Ġordained": 19443,
    "usive": 8191,
    "Ġinno": 1412,
    "Ġthree": 1372,
    "Ġmorrow": 9341,
    "Ġattested": 22619,
    "Ġunc": 2127,
    "Ġstoutest": 24628,
    "Ġestimated": 16594,
    "peculiarities": 13470,
    "Ġspleen": 26421,
    "Ġprevious": 2090,
    "ashtego": 4101,
    "Ġafternoon": 6052,
    "Ġcomo": 21839,
    "chooses": 23672,
    "Ġtouches": 20569,
    "floor": 14935,
    "Ġwhe": 439,
    "good": 2901,
    "execut": 13654,
    "Ġknowledge": 1445,
[...]
