{
  "metadata": {
    "vocab_size": 26616,
    "algorithm": "BPE",
    "created_at": "2026-08-21 02:59:31",
    "special_tokens": [
      "<PAD>",
      "<SOS>",
      "<EOS>",
      "<UNK>",
      "<MASK>"
    ]
  },
  "vocab": {
    "Ġmessages": 24984,
    "Ġchip": 12830,
    "Ġattached": 5392,
    "elt": 4112,
    "Ġcontrolled": 23253,
    "Ġamongst": 8962,
    "apprehens": 17409,
    "Ġden": 3106,
    "pigs": 17143,
    "otics": 10226,
    "Ġostrich": 26432,
    "Ġrecognised": 8995,
    "iard": 9604,
    "Ġaband": 6562,
    "Ġsocially": 22083,
    "choice": 21694,
    "pen": 1208,
    "Ġo": 275,
    "Ġsheer": 14153,
    "magistrate": 19865,
    "green": 7116,
    "Ġinterpret": 5490,
    "_âĢĶâĢĿ": 20765,
    "Ġdemi": 25549,
    "Ġpromethe": 14471,
    "prejudice": 25572,
    "apply": 18763,
    "Ġladen": 19180,
    "Ġleagues": 9226,
    "Ġstick": 6026,
    "Ġaccordingly": 6621,
    "ancholy": 5070,
    "Ġgabriel": 7595,
    "twice": 14623,
    "Ġuncouth": 14551,
    "Ġelsewhere": 7712,
    "hatred": 24818,
    "Ġwinding": 8236,
    "sincerely": 24585,
    "Ġlandsc": 11148,
    "dragging": 16611,
    "Ġender": 11694,
    "ushing": 5731,
    "Ġstrides": 22620,
    "Ġgurgling": 17449,
    "Ġ]": 15462,
    "greeting": 24554,
    "consumed": 25676,
    "Ġcircumspect": 15088,
    "Ġweltering": 19588,
    "Ġclamorous": 24910,
    "precaution": 23826,
    "Ġleg": 2337,
    "spot": 9794,
    "Ġsupplied": 8946,
    "ends": 6039,
    "Ġxlix": 25861,
    "Ġthirds": 16710,
    "Ġburglar": 17357,
    "Ġaxe": 15064,
    "Ġconvincing": 19309,
    "Ġreefed": 20305,
    "impart": 21712,
    "pres": 16028,
    "Ġswells": 9830,
    "Ġbeque": 18083,
    "arms": 10176,
    "Ġmes": 17798,
    "ifference": 5632,
    "Ġmercifully": 20181,
    "Ġrio": 23894,
    "Ġreplenished": 13640,
    "unfort": 21880,
    "Ġdecorated": 22449,
    "Ġcondescend": 19958,
    "specul": 23946,
    "proved": 11991,
    "Ġwires": 21298,
    "adr": 6994,
    "Ġpatiently": 19920,
    "Ġwarn": 5695,
    "prosperity": 20737,
    "charlotte": 6473,
    "last": 3804,
    "Ġdebility": 24275,
    "animal": 16980,
    "Ġregretted": 13404,
    "Ġchall": 10946,
    "Ġfold": 5531,
    "Ġtree": 5285,
    "housekeeper": 24102,
    "ivot": 11722,
    "Ġnotion": 7882,
    "Ġpugnacious": 26453,
    "Ġrehears": 15704,
    "Ġaccountability": 10440,
    "ary": 986,
    "Ġjokes": 18409,
    "Ġalso": 1342,
    "devouring": 24953,
    "Ġimagenet": 19248,
    "Ġglittering": 10056,
    "Ġnavies": 16902,
    "commanded": 16990,
    "party": 8996,
    "vels": 5432,
    "alongside": 19792,
    "Ġcraven": 16472,
    "Ġgradu": 15836,
    "response": 25763,
    "Ġroses": 11790,
    "Ġunass": 14117,
    "sisters": 13380,
    "Ġremembering": 14613,
    "uel": 6966,
    "Ġnecks": 18189,
    "8": 28,
    "Ġflounders": 23019,
    "asingly": 17963,
    "Ġtowns": 11175,
    "arnel": 18130,
    "Ġsepar": 3996,
    "eked": 16407,
    "Ġseparate": 5778,
    "Ġkilburn": 18352,
    "tisement": 6767,
    "occurrences": 26333,
    "Ġstriving": 8999,
    "Ġrepent": 9866,
    "intellig": 5321,
    "Ġhilarity": 20300,
    "Ġlaborious": 13108,
    "destined": 24115,
    "Ġwork": 1317,
    "Ġdissect": 16056,
    "insurance": 18891,
    "isely": 4490,
    "Ġpromised": 5181,
    "Ġdiscern": 7926,
    "ility": 622,
    "Ġfasc": 12603,
    "imes": 1300,
    "Ġdedicated": 19205,
    "Ġreality": 7059,
    "Ġstrokes": 16771,
    "stricken": 9887,
    "Ġjuly": 17239,
    "Ġcausal": 3412,
    "abated": 14023,
    "ially": 9250,
    "difficult": 10061,
    "animate": 12582,
    "scythes": 26404,
    "Ġbuilding": 8063,
    "tub": 9146,
    "Ġdignified": 15602,
    "susp": 10599,
    "Ġdispleasure": 16055,
    "urring": 21708,
    "smile": 23909,
    "Ġthanks": 6708,
    "Ġsolution": 9808,
    "Ġtun": 5999,
    "Ġincluded": 8959,
    "Ġsomeone": 6704,
    "Ġ41": 24081,
    "Ġlinn": 13956,
    "dismal": 23502,
    "Ġweeks": 4566,
    "Ġuncomfortable": 8487,
    "Ġfashion": 4298,
    "uting": 15664,
    "interchange": 23741,
    "Ġyesterday": 5333,
    "Ġpursuers": 13231,
    "Ġrefres": 14345,
    "eric": 3471,
    "Ġwhilst": 9221,
    "Ġmart": 10781,
    "Ġsweeter": 23921,
    "Ġuncont": 14119,
    "Ġrequisite": 18632,
    "Ġmourning": 13482,
    "women": 15459,
    "Ġperseverance": 13601,
    "Ġconcluded": 5658,
    "Ġlifetime": 13606,
    "Ġsarat": 21230,
    "ficial": 17550,
    ":--": 5784,
    "Ġnecessitated": 23932,
    "Ġwoeful": 19622,
    "icing": 9203,
    "feather": 16047,
    "assemblies": 25957,
    "Ġuntoward": 19167,
    "affairs": 14658,
    "airs": 2224,
    "Ġsituated": 9450,
    "Ġadjacent": 20713,
    "Ġmisunderstand": 18705,
    "Ġenglish": 3615,
    "Ġbrotherhood": 23669,
    "Ġwas": 370,
    "ables": 7890,
    "Ġdisembow": 22541,
    "hap": 17561,
    "cher": 5786,
    "Ġletters": 3794,
    "cruise": 24842,
    "Ġmajority": 13297,
    "accomplished": 17214,
    "Ġvan": 1089,
    "icles": 17975,
    "Ġsurm": 7475,
    "prudently": 21037,
    "Ġattending": 3286,
    "Ġinterven": 10999,
    "factories": 19846,
    "Ġblinds": 8007,
    "Ġneedle": 8275,
    "af": 2377,
    "Ġaccomplice": 24376,
    "pan": 10718,
    "Ġpausing": 8656,
    ".*": 7330,
    "Ġital": 10868,
    "Ġoperations": 2301,
    "Ġsod": 11564,
    "ituted": 13876,
    "braces": 24659,
    "meaning": 2906,
    "Ġremarkably": 7702,
    "Ġ52": 24317,
    "Ġwant": 1119,
    "Ġont": 18119,
    "Ġerroneous": 17412,
    "Ġbolts": 16945,
    "injustice": 17739,
    "puff": 21024,
    "beat": 10988,
    "Ġwaistcoat": 12275,
    "Ġpret": 3036,
    "resh": 8405,
    "Ġbows": 4081,
    "inian": 21185,
    "Ġhabitu": 19531,
    "Ġdiscourage": 3117,
    "people": 7676,
    "Ġphilipses": 24452,
    "ulance": 15771,
    "Ġimpossible": 3544,
    "Ġbouton": 17870,
    "soldiers": 25912,
    "Ġamel": 18511,
    "Ġeffaced": 18534,
    "Ġhudson": 15195,
    "ury": 3312,
    "Ġwhisky": 23937,
    "Ġmilk": 6485,
    "iline": 21724,
    "Ġboarding": 12091,
    "Ġproperties": 3119,
    "Ġsnap": 11202,
    "ogr": 18671,
    "Ġwheel": 9721,
    "Ġwet": 6518,
    "Ġlet": 1113,
    "Ġplays": 12042,
    "Ġmonitors": 3157,
    "Ġtreacle": 14597,
    "Ġconverts": 2808,
    "¤": 102,
    "respectively": 24699,
    "fi": 12466,
    "rence": 5555,
    "Ġdirty": 9181,
    "Ġphantoms": 13490,
    "Ġfacetious": 20587,
    "Ġpotential": 3620,
    "Ġreusable": 13561,
    "Ġmajor": 13296,
    "arising": 17897,
    "infernal": 24663,
    "Ġmagnified": 23209,
    "velling": 14765,
    "Ġscoundrel": 13674,
    "Ġpeeped": 10015,
    "Ġcountries": 13102,
    "speaking": 12103,
    "Ġchast": 18381,
    "Ġpagans": 16924,
    "bottom": 11428,
    "Ġcherub": 23290,
    "Ġmurmured": 7479,
    "Ġdusky": 13553,
    "Ġexceeded": 14436,
    "Ġdawned": 14997,
    "Ġphilips": 5410,
    "Ġsu": 432,
    "Ġmechanism": 2156,
    "Ġsmoked": 10325,
    "ations": 710,
    "gul": 12470,
    "Ġconveyed": 8335,
    "Ġtwos": 18658,
    "Ġcomputation": 967,
    "Ġlovel": 10274,
    "Ġcabinet": 23864,
    "forehead": 8517,
    "estic": 4956,
    "puzz": 17642,
    "Ġboldness": 24428,
    "how": 1645,
    "grinder": 23418,
    "Ġvoc": 4453,
    "Ġspeaks": 11161,
    "Ġarrived": 3748,
    "ortal": 6266,
    "Ġrelation": 2142,
    "Ġthis": 382,
    "Ġrequ": 793,
    "Ġsigma": 1541,
    "50": 6784,
    "reposed": 24492,
    "ue": 1179,
    "Ġconstru": 19071,
    "Ġarrows": 18342,
    "quick": 6400,
    "woe": 21138,
    "halloa": 17091,
    "alling": 6037,
    "Ġqual": 6275,
    "Ġ11": 5319,
    "ile": 520,
    "Ġnotice": 4544,
    "spermaceti": 12198,
    "Ġstool": 14465,
    "Ġdistrusting": 25056,
    "Ġforemost": 12009,
    "Ġcheshire": 13094,
    "Ġphilosopher": 12188,
    "Ġtoss": 10187,
    "Ġprofoundly": 16861,
    "å": 166,
    "kye": 20940,
    "Ġfunctional": 3049,
    "Ġforecastle": 5495,
    "street": 6495,
    "bat": 8072,
    "plete": 10921,
    "Ġhonestly": 19975,
    "extracts": 22771,
    "enderby": 25216,
    "aboard": 21798,
    "hastening": 24448,
    "Ġinserting": 19908,
    "Ġpacifics": 24373,
    "Ġbelt": 13008,
    "Ġhushed": 13928,
    "Ġundo": 15844,
    "mor": 4213,
    "slept": 17172,
    "turns": 14909,
    "bennet": 5353,
    "Ġcustoms": 19655,
    "Ġshelves": 15000,
    "inders": 15985,
    "Ġwillow": 18531,
    "Ġgreedy": 3054,
    "Ġoverwhelming": 17103,
    "Ġbowlines": 19323,
    "Ġmah": 15545,
    "Ġcrony": 23443,
    "Ġwreat": 15534,
    "rece": 21237,
    "erick": 13851,
    "librarian": 26570,
    "Ġchurned": 18386,
    "brandy": 19203,
    "makers": 20984,
    "cept": 550,
    "Ġtemptation": 8681,
    "trick": 19416,
    "Ġspecimens": 18860,
    "Ġcomplicated": 14738,
    "Ġsulky": 13518,
    "Ġtables": 9881,
    "Ġattach": 14297,
    "Ġjurors": 17347,
    "eches": 8078,
    "Ġparallelization": 3432,
    "Ġdecoding": 3082,
    "Ġhilarious": 20301,
    "Ġwhis": 3505,
    "Ġcanoes": 12811,
    "Ġfate": 4755,
    "worked": 19018,
    "itating": 9653,
    "vacancies": 25920,
    "itement": 7835,
    "Ġcarving": 14446,
    "allers": 22201,
    "Ġveil": 7934,
    "avating": 18607,
    "Ġallurements": 22013,
    "Ġearls": 18905,
    "merc": 19282,
    "Ġsensations": 5260,
    "Ġblot": 9815,
    "persecutor": 26531,
    "Ĕ": 213,
    "Ġrivers": 9445,
    "cab": 7332,
    "Ġyoungster": 23183,
    "Ġaffront": 18789,
    "Ġappellation": 22221,
    "Ġhush": 13215,
    "Ġlass": 15652,
    "Ġgallows": 12150,
    "answering": 26005,
    "Ġredden": 15698,
    "Ġfought": 12598,
    "tee": 16178,
    "Ġro": 595,
    "================================": 5671,
    "supp": 4159,
    "Ġdispleased": 18556,
    "networks": 2408,
    "conjectures": 25181,
    "Ġemploys": 19434,
    "Ġturkey": 19222,
    "inks": 6868,
    "gossip": 23407,
    "este": 15923,
    "Ġmaggie": 26293,
    "Ġinputs": 843,
    "semic": 21824,
    "introduce": 25187,
    "Ġbrut": 18770,
    "Ġshipwrecked": 25688,
    "Ġinvented": 17038,
    "banish": 20784,
    "Ġunrecord": 16623,
    "bu": 5132,
    "ality": 2514,
    "Ġworried": 22929,
    "Ġhurt": 7700,
    "Ġprone": 18969,
    "Ġpatagonian": 20537,
    "Ġdece": 6996,
    "Ġlin": 10835,
    "Ġdexterity": 25295,
    "Ġ20": 8617,
    "Ġpersuading": 19413,
    "Ġperturbed": 20443,
    "pra": 15410,
    "Ġvide": 10253,
    "Ġineff": 12639,
    "erman": 5108,
    "Ġcousins": 9918,
    "Ġbaked": 21389,
    "Ġloss": 823,
    "rimsh": 17029,
    "jure": 20926,
    "ocr": 10470,
    "entirely": 7781,
    "Ġsatisfactory": 11194,
    "Ġgrego": 18963,
    "Ġlull": 15655,
    "Ġ76": 24265,
    "sledge": 21060,
    "Ġhideousness": 16917,
    "Ġreplen": 11116,
    "Ġinvolved": 8926,
    "Ġpip": 1587,
    "course": 6105,
    "ernally": 22622,
    "Ġadopt": 10634,
    "Ġstepmother": 16093,
    "Ġprefers": 20517,
    "Ġfear": 2279,
    "towards": 5003,
    "Ġartistic": 18612,
    "eli": 3874,
    "Ġprofessors": 14728,
    "Ġsavory": 23879,
    "Ġcritics": 23447,
    "Ġdre": 1744,
    "ognit": 19175,
    "mangled": 20983,
    "Ġsurve": 9877,
    "Ġenticing": 22749,
    "Ġunho": 18246,
    "Ġstaves": 21744,
    "coloured": 7290,
    "league": 17846,
    "Ġhappiness": 2944,
    "Ġmalay": 24391,
    "Ġspirit": 3726,
    "assure": 9272,
    "Ġmutters": 23959,
    "Ġconcealing": 23906,
    "frankenstein": 11393,
    "Ġhood": 10825,
    "Ġcustomary": 8673,
    "Ġledgers": 23941,
    "Ġig": 3502,
    "ignomin": 23269,
    "Ġluggage": 25958,
    "Ġbradstreet": 9579,
    "Ġrigid": 16718,
    "Ġsafie": 6619,
    "jacket": 12296,
    "ampton": 18148,
    "idirection": 2414,
    "Ġflatter": 9351,
    "note": 14343,
    "Å": 134,
    "ister": 1294,
    "Ġliked": 5265,
    "Ġbathed": 17867,
    "Ġfugitives": 25635,
    "Ġungover": 18256,
    "usions": 6160,
    "Ġsymph": 22212,
    "Ġpieces": 7368,
    "wonderful": 16962,
    "risonment": 17378,
    "ureau": 10229,
    "reason": 4417,
    "osely": 9268,
    "Ġcounterbalance": 24721,
    "tap": 17678,
    "odecimo": 11446,
    "Ġsplend": 9901,
    "Ġbreakfast": 3973,
    "Ġninetieth": 25358,
    "Ġlivers": 18462,
    "return": 5489,
    "lanterns": 17432,
    "Ġpolluted": 25594,
    "Ġdeacon": 18143,
    "Ġfarmhouse": 24987,
    "Ġmassa": 19457,
    "Ġrh": 9247,
    "Ġdepart": 4657,
    "Ġsinusoidal": 4802,
    "Ġaudience": 24768,
    "Ġexhaustion": 14964,
    "Ġacting": 10993,
    "Ġsaves": 18325,
    "connections": 14431,
    "agon": 7871,
    "Ġimm": 3963,
    "Ġfoe": 7679,
    "Ġsnowy": 9021,
    "Ġinto": 648,
    "Ġdict": 9178,
    "Ġberg": 24536,
    "Ġanecdote": 26356,
    "remembrance": 25703,
    "Ġaper": 17745,
    "Ġabove": 2935,
    "Ġfid": 10805,
    "Ġgrenadier": 21619,
    "Ø": 153,
    "snow": 10726,
    "Ġalcoves": 26488,
    "Ġunknown": 4455,
    "performed": 18340,
    "Ġmine": 3179,
    "Ġquadrant": 11406,
    "ais": 8071,
    "changed": 7175,
    "sign": 8388,
    "Ġlady": 1588,
    "Ġfeature": 751,
    "antial": 8489,
    "Ġpurplish": 19142,
    "Ġmoses": 21318,
    "hurriedly": 25511,
    "Ġhinge": 25542,
    "ensibility": 22551,
    "Ġcust": 11585,
    "declare": 25174,
    "max": 1687,
    "prom": 6509,
    "gr": 2085,
    "Ġlo": 453,
    "Ġwrapped": 8342,
    "Ġstowing": 18074,
    "surprising": 16921,
    "Ġindignant": 12244,
    "Ġusual": 3942,
    "Ġfishers": 19357,
    "Ġtattoo": 7358,
    "Ġrifts": 21979,
    "Ġpals": 13921,
    "cheerful": 13579,
    "always": 5708,
    "Ġcottage": 4735,
    "Ġfrank": 4422,
    "Ġdiffer": 18678,
    "Ġhatty": 19267,
    "Ġintervening": 17270,
    "Ġdiscussing": 5202,
    "Ġsample": 3178,
    "went": 6512,
    "oid": 3127,
    "oons": 12503,
    "Ġeternities": 19946,
    "Ġcertainty": 6735,
    "Ġcreations": 18687,
    "Ġsacrificed": 17425,
    "Ġdiscoverer": 26036,
    "Ġinfall": 7960,
    "ui": 9147,
    "bits": 17491,
    "stra": 4042,
    "Ġapproving": 18510,
    "Ġadieus": 25113,
    "Ġbegat": 18865,
    "monsters": 19173,
    "mmar": 952,
    "Ġdoubly": 16390,
    "Ġlain": 17964,
    "otograph": 5827,
    "orously": 8420,
    "Ġtremor": 24767,
    "riety": 12748,
    "ica": 10201,
    "Ġgouge": 26190,
    "searching": 25106,
    "imely": 14001,
    "Ġinsurgents": 26602,
    "Ġpockets": 8899,
    "Ġreplaced": 13076,
    "Ġshop": 9255,
    "Ġsky": 3967,
    "binnacle": 20789,
    "despatched": 19804,
    "Ġcontinued": 2921,
    "Ġblown": 12090,
    "Ġsetting": 7047,
    "Ġthankful": 14741,
    "Ġundesired": 12784,
    "Ġdiminishing": 4207,
    "Ġpleasantest": 24138,
    "ulsive": 10236,
    "Ġrepublican": 17415,
    "pus": 3416,
    "Ġinsince": 23682,
    "Ġshifted": 14110,
    "Ġimplements": 2487,
    "Ġdismantled": 20219,
    "rah": 8137,
    "Ġviciss": 11294,
    "Ġwheeling": 18289,
    "Ġfever": 6559,
    "Ġanointing": 25540,
    "Ġhomely": 25220,
    "Ġscowl": 22289,
    "umed": 6555,
    "secur": 18128,
    "cru": 7127,
    "Ġpalaces": 24093,
    "ellation": 12757,
    "knight": 20942,
    "sharpening": 22472,
    "Ġease": 5629,
    "Ġthose": 1174,
    "Ġintricacies": 15142,
    "Ġgould": 17992,
    "isance": 17849,
    "Ġinsol": 10183,
    "Ġterti": 14540,
    "Ġracket": 22659,
    "Ġtrad": 9831,
    "conduct": 11801,
    "nowledge": 10292,
    "dart": 20828,
    "opement": 10314,
    "Ġdamn": 11160,
    "Ġunquestionable": 26223,
    "Ġfurious": 10357,
    "throw": 14101,
    "Ġrushes": 20511,
    "friend": 3863,
    "everybody": 8614,
    "Ġcrowd": 6337,
    "Ġwaned": 17793,
    "Ġarabian": 9093,
    "shadow": 20317,
    "Ġteach": 8554,
    "embarrassed": 20667,
    "scure": 22991,
    "southern": 20412,
    "objection": 19917,
    "rative": 17654,
    "Ġherds": 9719,
    "Ġsurvive": 9069,
    "Ġissue": 2312,
    "invest": 11562,
    "Ġrummaged": 16912,
    "operations": 19978,
    "page": 13774,
    "Ġsubstit": 19543,
    "Ġbred": 9172,
    "unhesitatingly": 26498,
    "Ġfaculties": 14961,
    "Ġneighb": 14079,
    "trivial": 21095,
    "Ġbery": 13901,
    "Ġpri": 5814,
    "Ġconnexion": 11456,
    "couldn": 23720,
    "sub": 4660,
    "ĝ": 222,
    "iration": 4541,
    "isl": 21378,
    "Ġunconcerned": 20513,
    "Ġthrust": 5084,
    "Ġounce": 15276,
    "superst": 11327,
    "Ġscrews": 25178,
    "requiem": 24857,
    "Ġrides": 21975,
    "Ġlash": 8440,
    "Ġimmediate": 6089,
    "rs": 7807,
    "judgment": 16755,
    "lins": 2027,
    "G": 43,
    "Ġform": 1023,
    "cro": 13700,
    "awakened": 14456,
    "Ġimbedded": 18333,
    "Ġtw": 840,
    "Ġfoundation": 4231,
    "?âĢĿâĢĶ": 12900,
    "Ġmoustache": 20487,
    "Ġascribed": 14858,
    "Ġfailed": 6673,
    "complexion": 14364,
    "Ġbohem": 8529,
    "ĠĠĠĠĠĠĠĠĠĠĠĠĠĠĠĠĠĠĠĠĠĠĠĠĠĠĠĠĠ": 19702,
    "Ġdistorted": 14252,
    "Ġcusack": 26435,
    "Ġgovernesses": 25130,
    "Ġhumorously": 18780,
    "Ġprice": 10405,
    "Ġthreading": 23405,
    "Ġpel": 17906,
    "bonnet": 25743,
    "Ġoutrid": 22319,
    "Ġcoffin": 4431,
    "ĠĠĠĠĠĠĠĠĠĠĠĠĠĠĠĠĠĠĠĠĠĠĠĠĠĠĠĠĠĠĠĠĠ": 12047,
    "beautiful": 10651,
    "esteem": 26009,
    "ud": 917,
    "Ġsealed": 15819,
    "ý": 190,
    "support": 9472,
    "ia": 1259,
    "gish": 20875,
    "Ġrector": 21679,
    "Ġgardens": 16454,
    "Ġlionel": 25287,
    "Ġconflict": 17278,
    "speed": 19412,
    "Ġgentlemanly": 19317,
    "Ġyourself": 2594,
    "Ġtails": 9905,
    "formation": 22228,
    "escript": 18470,
    "letter": 6202,
    "Ġluff": 15657,
    "firm": 10700,
    "Ġpure": 6138,
    "Ġlow": 1648,
    "emic": 18186,
    "Ġsecurity": 8980,
    "Ġmari": 6813,
    "Ġadd": 630,
    "Ġankers": 21448,
    "worm": 15456,
    "Ġstove": 6734,
    "Ġpresumed": 10547,
    "Ġinvincible": 23484,
    "ames": 2953,
    "Â·": 21152,
    "eu": 17532,
    "Ġexhausting": 24709,
    "Ġpassed": 2010,
    "Ġdaintiest": 25954,
    "Ġfacts": 2291,
    "Ġtitle": 11410,
    "Ġinno": 1446,
    "Ġsorrows": 13359,
    "Ġbast": 21382,
    "Ġmedd": 15543,
    "secured": 16940,
    "single": 10129,
    "Ġtoiling": 15639,
    "Ġjunk": 15957,
    "Ġsamuel": 10036,
    "Ġtallest": 15477,
    "Ġprepar": 7897,
    "Ġgenial": 12199,
    "eleg": 20851,
    "icant": 21565,
    "\"]": 17473,
    "Ġjury": 5378,
    "Ġentertain": 6054,
    "Ġengaged": 3431,
    "Ġcannot": 1670,
    "Ġwhites": 21720,
    "Ġhovel": 8254,
    "Ġhorner": 8961,
    "Ġenc": 968,
    "Ġmagical": 23102,
    "Ġnail": 9198,
    "Ġconvict": 23747,
    "ultural": 22572,
    "scorched": 25698,
    "Ġpenetrating": 17013,
    "ide": 721,
    "Ġnegatived": 23051,
    "ucy": 15447,
    "Ġtuileries": 24824,
    "Ġhitting": 21490,
    "strang": 11185,
    "Ġox": 7153,
    "Ġtrading": 23081,
    "Ġmadam": 5663,
    "Ġlowered": 6736,
    "related": 24015,
    "Ġbounty": 26439,
    "turner": 19544,
    "classes": 12140,
    "hast": 5358,
    "Ġde": 363,
    "married": 9952,
    "Ġnay": 5711,
    "Ġbrit": 6290,
    "ands": 21870,
    "keeping": 8638,
    "Ġtelescopes": 25691,
    "tom": 15438,
    "haut": 20904,
    "Ġphysical": 7521,
    "desk": 23811,
    "Ġquivering": 12863,
    "Ġtub": 7146,
    "rior": 12746,
    "Ġabridged": 26542,
    "telescope": 26564,
    "Ġcounteracted": 19864,
    "chorus": 19814,
    "upwards": 18866,
    "Ġprematurely": 24009,
    "Ġpolitical": 19226,
    "bler": 11474,
    "Ġclaw": 22364,
    "Ġhut": 15623,
    "Ġdestructive": 23491,
    "walks": 19724,
    "Ġsluggishly": 25892,
    "Ġrod": 9283,
    "Ġeverlasting": 9340,
    "Ġstrength": 4259,
    "guessed": 25873,
    "portuguese": 25414,
    "willing": 6593,
    "Ġconsiderable": 4003,
    "ourage": 2453,
    "Ġhiding": 9826,
    "eries": 6808,
    "Ġraises": 11847,
    "Ġmanly": 22328,
    "counterpart": 26361,
    "Ġdecent": 10980,
    "pemberley": 9623,
    "Ġcompanionship": 14923,
    "Ġadvanced": 1544,
    "atigable": 15274,
    "Ġaffected": 5577,
    "Ġcharacters": 9375,
    "ou": 288,
    "Ġdraw": 3673,
    "Ġauthentic": 20538,
    "Ġchildish": 13141,
    "Ġconcepts": 4552,
    "ackinaw": 22425,
    "Ġrevolve": 19733,
    "Ġshudder": 9053,
    "Ġunusually": 15850,
    "800": 17479,
    "instance": 24170,
    "Ġperem": 12937,
    "Ġlaborers": 19061,
    "scotland": 20532,
    "Ġexerc": 6832,
    "Ġanaly": 1143,
    "Ġnervous": 2407,
    "Ġbecomes": 6396,
    "Ġoverpow": 14206,
    "dough": 15338,
    "corpse": 24486,
    "Ġinheritance": 25356,
    "Ġattractive": 25576,
    "Ġsuck": 15865,
    "evil": 11488,
    "rogress": 21539,
    "Ġdeparted": 5562,
    "rever": 21238,
    "Ġseizure": 21961,
    "thes": 7390,
    "later": 20955,
    "Ġgrowled": 19285,
    "Ġwise": 6811,
    "Ġfrance": 7681,
    "opic": 22480,
    "Ġbeau": 9227,
    "azine": 19132,
    "Ġblandly": 20326,
    "Ġcylinders": 25944,
    "ophisticated": 22482,
    "Ġdisconsolate": 20721,
    "appalled": 18764,
    ".âĢĿ": 464,
    "Ġque": 4156,
    "Ġburned": 8634,
    "Ġchivalry": 25820,
    "time": 3147,
    "Ġener": 10898,
    "vint": 21117,
    "Ġretarded": 23075,
    "Ġsteadfast": 8682,
    "Ġhauled": 11698,
    "stars": 18022,
    "Ġkilling": 13337,
    "judges": 19576,
    "empt": 2618,
    "Ġhyperborean": 26341,
    "crime": 14777,
    "Ġindependence": 12109,
    "forbearance": 22794,
    "Ġmistifying": 23722,
    "bos": 17486,
    "Ġboy": 3022,
    "Ġut": 2282,
    "Ġsequential": 2132,
    "intim": 22937,
    "Ġprobably": 4314,
    "oundered": 14167,
    "complaisance": 24808,
    "writhed": 26081,
    "inn": 5364,
    "rear": 21235,
    "Ġrickety": 26507,
    "Ġincred": 5646,
    "Ġnursing": 12219,
    "lashed": 20956,
    "illuminated": 17456,
    "Ġbehav": 3541,
    "Ġgall": 4352,
    "perform": 15898,
    "abled": 12799,
    "Ġgilt": 21609,
    "Ġalb": 14019,
    "Ġshouted": 5348,
    "Ġadvances": 12998,
    "forbid": 14352,
    "Ġnap": 8813,
    "ishmael": 18421,
    "Ġsimilitude": 19213,
    "Ġeavesdroppers": 25964,
    "Ġamaz": 5385,
    "ription": 5676,
    "Ġsurp": 9637,
    "Ġsickly": 16776,
    "Ġbrings": 11884,
    "Ġcopestone": 24939,
    "ie": 729,
    "Ġformidable": 8220,
    "riptions": 14798,
    "please": 8177,
    "Ġteaches": 18805,
    "Ġtamely": 24980,
    "Ġregret": 5561,
    "oundering": 11750,
    "Ġsec": 2075,
    "flowing": 14564,
    "Ġtenement": 23551,
    "imagine": 19934,
    "Ġadvisable": 11444,
    "Ġscraping": 13420,
    "Ġsettled": 3743,
    "Ġconjoined": 21810,
    "abiding": 21797,
    "shadows": 25480,
    "Ġdet": 508,
    "opportunity": 12279,
    "Ġcould": 703,
    "Ġfrogs": 23927,
    "transform": 8050,
    "Ġundergone": 18986,
    "wond": 8772,
    "Ġcovering": 13260,
    "Ġpict": 3500,
    "teness": 23210,
    "Ġjune": 10291,
    "hours": 9127,
    "Ġsubstitute": 16728,
    "Ġsneering": 24696,
    "Ġabsorb": 25115,
    "Ġcetacean": 25879,
    "Ġdais": 24372,
    "pleas": 3853,
    "Ġexpressed": 4469,
    "Ġcurses": 13020,
    "Ġcommend": 10337,
    "phology": 3008,
    "rin": 10124,
    "Ġaided": 17747,
    "Ġbreaths": 14860,
    "Ġingolstadt": 8333,
    "Ġfinds": 6300,
    "Ġmassac": 14739,
    "Ġplaid": 22606,
    "Ġproportionably": 19974,
    "Ġrecklessly": 16985,
    "infor": 2948,
    "Ġintercourse": 11000,
    "consp": 18505,
    "Ġharriet": 24573,
    "Ġuniformity": 23488,
    "ale": 506,
    "Ġdiligence": 17115,
    "athans": 7432,
    "Ġpoison": 7218,
    "Ġshyness": 20309,
    "Ġmurmuring": 23581,
    "Ġinch": 7850,
    "fail": 17542,
    "Ġriggers": 24157,
    "Ġsnoo": 21231,
    "een": 726,
    "Ġextremity": 8991,
    "Ġgreen": 3053,
    "gging": 7696,
    "Ġindifferent": 6175,
    "wled": 15457,
    "gallant": 7780,
    "rail": 10207,
    "orrow": 2913,
    "Ġsoc": 3526,
    "Ġcharacteristics": 8613,
    "press": 1732,
    "felt": 5889,
    "nikin": 23243,
    "Ġvarieties": 14313,
    "Ġdisposal": 19379,
    "wins": 21132,
    "agos": 21908,
    "Ġmeasuring": 22885,
    "Ġprivately": 19526,
    "unity": 4149,
    "Ġdiverse": 19212,
    "Ġwitnesses": 9489,
    "Ġunchanging": 22049,
    "drop": 15340,
    "Ġtok": 1247,
    "Ġassur": 6074,
    "collar": 19330,
    "Ġcham": 4893,
    "Ġoriental": 9100,
    "came": 4571,
    "Ġdegree": 3705,
    "Ġpriv": 4182,
    "Ġcruising": 6912,
    "Ġplaying": 6908,
    "osop": 4407,
    "floating": 12232,
    "Ġfor": 340,
    "Ġunchanged": 22035,
    "Ġquivers": 22417,
    "Į": 239,
    "Ġdisciple": 22785,
    "Ġadventures": 7747,
    "Ġvalued": 12187,
    "gates": 20874,
    "Ġadorned": 15251,
    "Ġachieves": 4382,
    "Ġcontroverted": 23254,
    "ousness": 10277,
    "thine": 15828,
    "Ġ105": 24413,
    "Ġcalculated": 4477,
    "Ġeludes": 26556,
    "ctu": 5088,
    "dar": 20826,
    "Ġlottery": 19890,
    "sat": 4811,
    "Ġflourishing": 25188,
    "widows": 25345,
    "Ġprem": 3428,
    "ict": 596,
    "reported": 24493,
    "gives": 15361,
    "Ġdiscl": 9800,
    "clergy": 18936,
    "finally": 9502,
    ",": 16,
    "greenland": 10024,
    "ioneer": 15636,
    "Ġbloodthirsty": 26603,
    "Ġhunch": 18937,
    "Ġyour": 634,
    "Ġdiligently": 11407,
    "Ġlack": 17966,
    "gest": 5426,
    "Ġemer": 5959,
    "bale": 20776,
    "Ġargu": 10936,
    "Ġmermaids": 26171,
    "Ġparametric": 2398,
    "kitty": 10108,
    "lestrade": 9659,
    "fear": 8515,
    "Ġcolumbus": 26566,
    "sky": 12515,
    "Ġisrael": 21807,
    "Ġconducted": 10505,
    "!âĢĿ": 846,
    "leaped": 17845,
    "Ġ97": 19777,
    "Ġimbalance": 22178,
    "Ġledge": 19404,
    "Ġmuslin": 19386,
    "company": 9464,
    "Ġconcealed": 7494,
    "heartily": 24218,
    "Ġnight": 1465,
    "cle": 3954,
    "culine": 19067,
    "Ġseldom": 4630,
    "igation": 5918,
    "idity": 8835,
    "avoid": 9308,
    "true": 2587,
    "Ġ15": 9327,
    "Ġsublimity": 26348,
    "Ġdiscernment": 15072,
    "quently": 9705,
    "Ġconvenient": 8346,
    "sum": 2086,
    "bloom": 24690,
    "evidently": 20348,
    "Ġlondon": 2840,
    "Ġmeant": 3551,
    "unbe": 21876,
    "particulars": 11317,
    "Ġdishonoured": 20394,
    "ract": 965,
    "dwelt": 23874,
    "Ġfishery": 4173,
    "lish": 1952,
    "Ġgoodness": 6059,
    "Ġwitness": 4622,
    "Ġenduring": 16306,
    "Ġconject": 6027,
    "Ġsubproblems": 12962,
    "Ġminimizes": 2047,
    "acknowled": 10976,
    "Ġand": 295,
    "overed": 2854,
    "Ġobservable": 25129,
    "aug": 1216,
    "Ġpossible": 2586,
    "therefore": 5954,
    "Ġgeese": 7693,
    "circumstances": 8047,
    "Ġmerry": 5869,
    "pher": 11514,
    "corners": 17371,
    "istically": 14146,
    "hatches": 19930,
    "mbl": 5946,
    "Ġmechanisms": 1577,
    "Ġautumn": 14506,
    "ineffectual": 26509,
    "Ġprocedural": 12036,
    "ego": 4032,
    "/(": 2982,
    "Ġwhirl": 13453,
    "Ġevery": 928,
    "Ġtexture": 19162,
    "avings": 12027,
    "deser": 10481,
    "appearing": 14639,
    "Ġwrists": 11115,
    "Ġchurchyard": 16779,
    "Ġbespeaking": 26311,
    "Ġprovocation": 24194,
    "Ġingratitude": 17471,
    "toes": 22568,
    "Ġopposing": 12045,
    "Ġex": 361,
    "Ġpour": 13917,
    "Ġmansfield": 25939,
    "Ġcorresponding": 13442,
    "billows": 20239,
    "Ġinsane": 19271,
    "Ġbanners": 24859,
    "seldom": 13790,
    "Ġnarrative": 6216,
    "Ġident": 2242,
    "Ġconsol": 3817,
    "Ġmisfortunes": 7042,
    "about": 3588,
    "elves": 2160,
    "derstand": 646,
    "topic": 10530,
    "bewil": 22502,
    "ari": 672,
    "pictures": 15094,
    "ging": 2601,
    "ulged": 12735,
    "ilations": 21725,
    "Ġinsertion": 26345,
    "Ġunrest": 11718,
    "arrived": 12614,
    "acled": 16086,
    "Ġencircling": 26273,
    "yden": 21146,
    "longer": 8616,
    "Ġnaturally": 2468,
    "Ġsimultaneous": 22594,
    "Ġembraced": 10009,
    "ashing": 4826,
    "omics": 21646,
    "supplied": 10522,
    "Ġtapping": 10754,
    "Ġcalms": 23046,
    "erxes": 21278,
    "Ġgradually": 3402,
    "Ġpantheistic": 26337,
    "Ġallies": 18235,
    "Ġutter": 3972,
    "Ġresided": 11815,
    "Ġtemporarily": 11169,
    "Ġinjuries": 11279,
    "Ġexplanations": 15914,
    "Ġchanging": 11757,
    "Ġbennet": 1576,
    "Ġinjustice": 9193,
    "Ġwearing": 12744,
    "Ġlets": 18079,
    "Ġripp": 11221,
    "Ġoblig": 3446,
    "Ġbonnet": 10658,
    "Ġshapeless": 24524,
    "Ġpuzz": 5533,
    "Ġscrawled": 24581,
    "._)": 10483,
    "eyeing": 14949,
    "moderate": 22878,
    "Ġcavity": 20491,
    "Ġshaping": 22007,
    "rocious": 21542,
    "Ġlearnt": 7614,
    "Ġcrowded": 8012,
    "Ġfancy": 3747,
    "Ġcobweb": 22587,
    "Ġcap": 2363,
    "Ġlightened": 23264,
    "Ġfore": 2152,
    "earth": 6502,
    "Ġclearness": 23187,
    "Ġcuff": 17831,
    "volutional": 1937,
    "Ġintrepidity": 25551,
    "Ġdepend": 773,
    "vice": 15452,
    "Ġmayhew": 12955,
    "aration": 12612,
    "enes": 5218,
    "Ġaround": 3612,
    "Ġvolume": 6769,
    "flies": 19427,
    "ises": 3655,
    "Ġexploration": 2338,
    "fishing": 20861,
    "binder": 17502,
    "pression": 10409,
    "prospect": 23399,
    "Ġlvi": 21556,
    "Ġnonsensical": 21532,
    "Ġjo": 2609,
    "Ġsuperficial": 23460,
    "vig": 15449,
    "Ġlength": 2502,
    "ach": 435,
    "wheeling": 22872,
    "Ġbash": 12591,
    "Ġconfusing": 23312,
    "Ġdash": 8122,
    "Ġadvance": 5484,
    "cess": 536,
    "successful": 11360,
    "Ġthoroughfare": 16946,
    "Ġliv": 6680,
    "Ġscruples": 15082,
    "Ġungrateful": 14124,
    "Ġwolves": 25935,
    "Ġliter": 8816,
    "Ġreliable": 18778,
    "Ġvigil": 9510,
    "Ġpince": 21474,
    "Ġwarmth": 6904,
    "Ġhimmalehs": 26232,
    "Ġfarther": 5955,
    "Ġmin": 1025,
    "Ġmariner": 7246,
    "Ġneurons": 976,
    "Ġdevice": 1930,
    "Ġspatial": 2730,
    "beaten": 20318,
    "Ġcraggy": 23533,
    "Ġmining": 22834,
    "Ġslid": 7952,
    "expectations": 24279,
    "second": 6544,
    "etts": 12665,
    "owl": 12688,
    "contained": 22476,
    "acquaintance": 6937,
    "ta": 13792,
    "tanh": 5204,
    "Ġemotions": 8972,
    "Ġvigilance": 12375,
    "Ġepit": 18009,
    "Ġcircumnavigation": 20403,
    "proceeding": 20144,
    "Ġshad": 3851,
    "Ġrestrained": 16379,
    "Ġarranged": 9880,
    "looking": 4029,
    "Ġintertw": 18589,
    "Ġclout": 22360,
    "tired": 21075,
    "admirably": 24947,
    "wondering": 19847,
    "urred": 8451,
    "attering": 7418,
    "Ġfossil": 12391,
    "Ġdiscoverers": 26037,
    "tolerably": 21098,
    "inion": 2875,
    "ardy": 22160,
    "icuous": 10837,
    "ologies": 18774,
    "yder": 10141,
    "story": 9215,
    "wives": 15458,
    "harpooneer": 8692,
    "Ġbohemia": 10652,
    "thankful": 16808,
    "oment": 921,
    "unnecessary": 21884,
    "Ġdistraction": 22509,
    "horn": 8086,
    "Ġdepicted": 14278,
    "Ġeither": 2604,
    "Ġswap": 23055,
    "igating": 21702,
    "ura": 1082,
    "Ġmoney": 3419,
    "Ġbestow": 6455,
    "Ġreminiscences": 26271,
    "mid": 5617,
    "Ġjove": 9271,
    "Ġgenealogies": 25962,
    "Ġcreate": 2090,
    "Ġp": 289,
    "bunger": 20405,
    "icions": 21566,
    "Ġmean": 742,
    "Ġduodecimo": 16769,
    "Ġchest": 5185,
    "Ġpreliminaries": 25177,
    "doubt": 6782,
    "Ġhisself": 21918,
    "Ġtransition": 14236,
    "forgetting": 25486,
    "Ġimprove": 1834,
    "honour": 13471,
    "Ġobliquely": 12366,
    "Ġinseparable": 20691,
    "Ġraiment": 22657,
    "Ġaltitude": 26204,
    "onsible": 22565,
    "Ġinterrupt": 4361,
    "Ġshadowed": 24048,
    "Ġpay": 3961,
    "meanwhile": 10612,
    "Ġcoin": 9774,
    "Ġconvalescence": 23748,
    "Ġundone": 24118,
    "Ġdefection": 22945,
    "Ġresounds": 22546,
    "Ġreminded": 10002,
    "ileries": 18061,
    "Ġbeg": 1282,
    "pulled": 25148,
    "Ġcandles": 9911,
    "Ġtherefore": 2241,
    "Ġnumerous": 6919,
    "Ġcarpenter": 4685,
    "Ġflower": 16235,
    "Ġimpulsive": 19966,
    "presbyterian": 26370,
    "Ġgetting": 4063,
    "journey": 8748,
    "Ġlays": 15993,
    "Ġextracted": 16305,
    "onist": 21253,
    "Ġpoker": 13925,
    "Ġinteraction": 7423,
    "Ġextending": 11023,
    "Ġpumps": 8428,
    "Ġcy": 13877,
    "Ġheaped": 18040,
    "Ġtelegra": 11895,
    "ruck": 6847,
    "Ġadvoc": 12999,
    "backs": 9394,
    "cott": 8074,
    "Ġedge": 5189,
    "Ġint": 410,
    "Ġsangu": 15507,
    "Ġoverthrown": 18427,
    "hun": 5210,
    "throwing": 11707,
    "Ġte": 1148,
    "accursed": 20543,
    "Ġshow": 3403,
    "big": 13689,
    "&": 10,
    "learnt": 23476,
    "uten": 11625,
    "ordinate": 12881,
    "Ġmak": 10780,
    "Ġvery": 636,
    "olets": 21010,
    "Ġdefinition": 14408,
    "dwell": 15345,
    "terror": 18131,
    "Ġfervent": 14899,
    "Ġ51": 24316,
    "Ġdisp": 3360,
    "point": 6063,
    "mer": 2834,
    "Ġchimneys": 16974,
    "ron": 5216,
    "ring": 1752,
    "Ġprepared": 5877,
    "Ġ1820": 25718,
    "iates": 13740,
    "Ġgallant": 8658,
    "Ġweigh": 10896,
    "oga": 22698,
    "Ġcontro": 1689,
    "Ġpred": 674,
    "osy": 11762,
    "Ġinstantly": 3593,
    "Ġfreemason": 23214,
    "asse": 15649,
    "important": 7113,
    "Ġvote": 21949,
    "Ġvancou": 22880,
    "ously": 2493,
    "Ġwhelm": 25999,
    "Ġtumult": 7115,
    "Ġhangs": 11609,
    "Ġseven": 4543,
    "Ġpretensions": 16560,
    "Ġen": 393,
    "ibilities": 13013,
    "Ġlethar": 21750,
    "Ġswell": 8952,
    "Ġtriumphant": 12194,
    "sing": 5138,
    "Ġmishap": 20579,
    "Ġgreeted": 23215,
    "iquette": 26133,
    "Ġunfold": 8022,
    "lections": 4753,
    "offensive": 16403,
    "sensations": 20054,
    "Ġlads": 8601,
    "Ġanger": 5442,
    "experienced": 15125,
    "itoring": 21335,
    "feeders": 25236,
    "Ġnoblest": 13247,
    "mell": 20966,
    "Ġoptimizer": 5035,
    "ribes": 23369,
    "Ġruggedness": 26270,
    "vere": 4884,
    "Ġefforts": 11808,
    "Ġtask": 1308,
    "Ġderbyshire": 6587,
    "Ġinvisible": 7326,
    "eral": 9162,
    "Ġperceived": 4714,
    "ounders": 22397,
    "Ġnumberless": 16419,
    "es": 287,
    "Ġsomnambul": 26578,
    "Ġscared": 14192,
    "Ġjeopardized": 20233,
    "Ġcaus": 1726,
    "slee": 17171,
    "Ġbudge": 15168,
    "Ġhurst": 5582,
    "circumst": 5349,
    "Ġanyone": 4461,
    "Ġpyth": 21464,
    "ĠĠĠĠĠĠĠĠĠĠĠĠĠĠĠĠĠĠĠĠĠĠĠĠĠĠĠĠĠĠĠ": 19703,
    "Ġbelongs": 8015,
    "roofed": 26185,
    "Ġdelusion": 18975,
    "awn": 3836,
    "Ġr": 405,
    "Ġconflagration": 26366,
    "Ġshoot": 11163,
    "Ġexpans": 18623,
    "nest": 10116,
    "Ġembarks": 22971,
    "Ġdoze": 14179,
    "whilst": 18373,
    "Ġcombination": 22840,
    "express": 4896,
    "Ġbark": 10800,
    "Ġceleb": 20228,
    "Ġmeth": 1445,
    "leather": 13893,
    "wholly": 10943,
    "E": 41,
    "Ġcommissioned": 19897,
    "droppers": 24758,
    "Ġwor": 1194,
    "pitching": 24077,
    "Ġspouted": 14677,
    "Ġjohnson": 18410,
    "Ġsacr": 7193,
    "Ġprairie": 8716,
    "Ġscrewed": 15124,
    "Ġpull": 5152,
    "Ġappals": 22219,
    "Ġgreenwich": 19322,
    "Ġexempl": 21834,
    "Ġundoing": 22039,
    "Ġtunnels": 24621,
    "belt": 24038,
    "Ġclubb": 22365,
    "Ġcirculating": 23376,
    "Ġcommission": 6713,
    "macy": 18808,
    "isting": 5551,
    "Ġnurtured": 19752,
    "pulous": 15419,
    "Ġload": 14148,
    "arp": 2028,
    "treacle": 25151,
    "Ġcorps": 13038,
    "Ġblessing": 11265,
    "surprise": 9533,
    "Ġdrinks": 24282,
    "uttermost": 24943,
    "horrible": 14602,
    "Ġgoest": 22427,
    "Ġvines": 12753,
    "Ġvales": 21948,
    "lacing": 17592,
    "iron": 3809,
    "Ġbristol": 14383,
    "Ġenforced": 21942,
    "Ġgiddy": 20500,
    "nar": 12498,
    "ravelled": 18017,
    "Ġinconsiderable": 21498,
    "Ġdoub": 1838,
    "ois": 9137,
    "isen": 10794,
    "otic": 15749,
    "Ġrecurred": 18978,
    "Ġscept": 15506,
    "Ġshri": 5375,
    "Ġexamination": 8005,
    "ignantly": 23268,
    "Ġsadder": 24054,
    "Ġpick": 4256,
    "Ġrang": 9248,
    "Ġbridegroom": 10607,
    "Ġdelay": 5748,
    "Ġslaught": 23171,
    "Ġmerryweather": 9525,
    "Ġmincing": 18753,
    "Ġforked": 11667,
    "Ġcontempl": 6702,
    "avo": 8519,
    "Ġmortal": 4682,
    "Ġmomentous": 16173,
    "sip": 10727,
    "Ġregiment": 6432,
    "Ġconvulsive": 19308,
    "Ġcleaned": 23186,
    "Ġtheir": 643,
    "fel": 8737,
    "Ġgaiety": 16751,
    "acknowledged": 15206,
    "etimes": 1988,
    "Ġready": 3399,
    "Ġflush": 14427,
    "Ġbanish": 15574,
    "Ġwestmorland": 24390,
    "û": 188,
    "plish": 18209,
    "aurs": 20771,
    "Ġunreasonably": 17454,
    "various": 10400,
    "warm": 8102,
    "backed": 9869,
    "Ġyard": 5921,
    "throughout": 24089,
    "Ġbrave": 6330,
    "Ġsentry": 19027,
    "hereafter": 19219,
    "Ġinexperienced": 26101,
    "Ġlearnedly": 23389,
    "Ġnovelist": 24776,
    "Ġsure": 1870,
    "Ġwapping": 21297,
    "Ġbony": 12592,
    "eds": 6530,
    "Ġsmoky": 22562,
    "Ġgenerous": 6272,
    "Ġsimultaneously": 4311,
    "Ġtahitian": 25428,
    "Ġcontradict": 12389,
    "Ġburg": 23653,
    "Ġcorpusants": 13681,
    "Ġafforded": 8029,
    "Ġleaped": 8830,
    "Ġshadows": 8013,
    "Ġsolid": 6443,
    "Ġfaultless": 24540,
    "Ġstunsail": 25544,
    "Ġmemoirs": 26207,
    "Ġhe": 318,
    "ercial": 21277,
    "Ġdisgu": 8206,
    "Ġtwinkling": 12328,
    "Ġinserted": 8356,
    "Ġcopies": 24938,
    "libra": 22928,
    "omy": 6249,
    "Ġcourse": 2130,
    "Ġservant": 5764,
    "emin": 8471,
    "Ġsun": 1722,
    "Ġbarnacled": 25537,
    "Ġled": 3523,
    "unavoid": 14065,
    "Ġgoverned": 23573,
    "mansion": 20985,
    "Ġequinoctial": 20535,
    "ccarthy": 4890,
    "adier": 18092,
    "Ġscorch": 20070,
    "Ġfist": 21407,
    "Ġpatter": 830,
    "gazed": 15365,
    "Ġmature": 17801,
    "Ġampl": 22484,
    "Ġi": 312,
    "painting": 17047,
    "Ġconducting": 16652,
    "Ġcou": 5288,
    "Ġconsented": 11297,
    "Ġramadans": 25122,
    "Ġvehement": 16205,
    "Ġbehalf": 14511,
    "trust": 21081,
    "health": 13836,
    "conqu": 14247,
    "ceed": 1076,
    "Ġaccess": 9750,
    "Ġceased": 6468,
    "late": 11501,
    "Ġsuffer": 4723,
    "Ġferry": 24498,
    "Ġfashionable": 19547,
    "Ġgret": 21604,
    "diversity": 25898,
    "Ġunsavory": 20709,
    "Ġhunters": 6301,
    "Ġwoof": 14724,
    "repid": 11567,
    "Ġprobable": 5570,
    "Ġinfat": 14501,
    "Ġpeculiarities": 12075,
    "Ġafar": 14296,
    "Ġoft": 9197,
    "leo": 21367,
    "pth": 2382,
    "Ġtransports": 24280,
    "Ġexplanation": 6693,
    "angled": 6843,
    "Ġidolator": 20001,
    "/": 19,
    "Ġpotent": 12068,
    "Ġconcentric": 20078,
    "Ġfalsehood": 10526,
    "Ġdug": 21433,
    "@": 36,
    "âĢľâĢĺ": 1485,
    "Ġgained": 4536,
    "Ġcollins": 2182,
    "Ġmornings": 16239,
    "Ġjoys": 13225,
    "ber": 886,
    "Ġsir": 1570,
    "Ġlawyers": 25249,
    "Ġveneration": 25047,
    "Ġquiet": 3262,
    "Ġislets": 21805,
    "Ġcurved": 18851,
    "Ġauthoritative": 19564,
    "Ġlistener": 16477,
    "Ġmoran": 9344,
    "fiercely": 25257,
    "Ġacid": 22685,
    "Ġbon": 8790,
    "partiality": 13164,
    "Ġtottenham": 24143,
    "rop": 537,
    "itions": 4145,
    "danced": 20830,
    "eers": 20845,
    "antediluvian": 24346,
    "Ġunceasingly": 20362,
    "Ġforts": 21776,
    "Ġprices": 15616,
    "Ġpitiful": 13244,
    "Ġblow": 3375,
    "urns": 10216,
    "leader": 25352,
    "Ġarmy": 11745,
    "ods": 8840,
    "corner": 13401,
    "Ġinspecting": 24614,
    "Ġuncivil": 11157,
    "Ġvesu": 21951,
    "Ġignoble": 19402,
    "required": 17031,
    "Ġshank": 22001,
    "Ġterrors": 6917,
    "Ġexaggerate": 25650,
    "Ġclings": 15976,
    "prev": 12872,
    "Ġsat": 1132,
    "surd": 6933,
    "Ġcouch": 12576,
    "assed": 6421,
    "Ġtwopence": 18661,
    "fury": 17549,
    "eat": 11485,
    "rusion": 11325,
    "Ġruddy": 17128,
    "neck": 14237,
    "tailed": 17687,
    "angular": 11726,
    "Ġlend": 17965,
    "Ú": 155,
    "Ġsin": 1513,
    "Ġhart": 17924,
    "Ġquery": 2481,
    "Ġtypes": 8939,
    "Ġnor": 1552,
    "mblings": 19783,
    "Ġyounge": 16291,
    "comfort": 5647,
    "though": 2115,
    "Ġcreation": 6439,
    "Ġimperfect": 13344,
    "Ġadie": 8490,
    "Ġreproached": 24892,
    "Ġrallied": 14098,
    "tered": 2233,
    "Ġtapering": 8775,
    "efficient": 2870,
    "Ġcleansed": 26295,
    "ascar": 8436,
    "Ġspasmod": 12418,
    "Ġparch": 11730,
    "gone": 6504,
    "iny": 4294,
    "Ġdisliked": 12896,
    "Ġmodels": 767,
    "Ġbelow": 4059,
    "neighb": 16027,
    "Ġserene": 8167,
    "stall": 21649,
    "Ġyards": 5371,
    "Ġpeculiarity": 12938,
    "Ġheaps": 11645,
    "Ġshipping": 14107,
    "Ġinquirer": 24964,
    "Ġsobs": 14135,
    "Ġattacked": 10570,
    "Ġappre": 5165,
    "thence": 23403,
    "Ġstrang": 4158,
    "Ġinsensibly": 20079,
    "Ġpink": 12623,
    "Ġfake": 5811,
    "customary": 25896,
    "Ġlightly": 13088,
    "extinguished": 16154,
    "Ġproof": 6154,
    "bing": 7791,
    "Ġgloom": 4200,
    "Ġdictionary": 15116,
    "situation": 11439,
    "astic": 1873,
    "Ġdav": 15594,
    "Ġfest": 10806,
    "Ġoarsmen": 7737,
    "Ġcommons": 22675,
    "Ġbetray": 7441,
    "Ġesteemed": 10591,
    "Ġimprecations": 25821,
    "Ġstung": 21742,
    "kles": 17586,
    "canst": 22964,
    "preserve": 25304,
    "Ġtraffic": 23086,
    "Ġsteeple": 19289,
    "Ġsilent": 3413,
    "Ġcostly": 23586,
    "Ġgambler": 26192,
    "okened": 15988,
    "Ġmaddening": 17245,
    "vius": 23545,
    "Ġincessantly": 11413,
    "Ġtackle": 9516,
    "Ġarchitectures": 2908,
    "Ġheron": 22077,
    "erect": 20850,
    "Ý": 158,
    "levelled": 23645,
    "Ġind": 1223,
    "Ġstill": 1158,
    "Ġspouter": 12803,
    "Ġbath": 9661,
    "Ġquestions": 3970,
    "Ġdarling": 12609,
    "Ġobeying": 13418,
    "Ġcomplex": 747,
    "Ġfarthest": 23119,
    "tic": 8391,
    "lue": 8510,
    "f": 74,
    "pence": 15412,
    "Ġinarticulate": 21503,
    "igators": 18047,
    "whence": 23218,
    "Ġsentences": 2683,
    "Ġestablished": 9072,
    "conditionally": 24835,
    "Ġrats": 21977,
    "istics": 1629,
    "Ġdistrusted": 13545,
    "Ġpliny": 11829,
    "Ġlane": 5627,
    "build": 12192,
    "Ġsee": 805,
    "wretch": 17710,
    "Ġdong": 17889,
    "Ġnightmare": 18921,
    "Ġbarrowful": 25596,
    "savagery": 25028,
    "Ġseasonable": 24406,
    "far": 5787,
    "nez": 22451,
    "Ġextinction": 14331,
    "handled": 19263,
    "Ġmaz": 15546,
    "Ġhurled": 10431,
    "Ġ&": 6513,
    "Ġstamped": 13530,
    "Ġhappily": 9334,
    "Ġexpression": 4517,
    "Ġlabourers": 23335,
    "Ġaltar": 9231,
    "Ġcompacted": 23513,
    "Ġknight": 9730,
    "Ġbales": 21392,
    "Ġdiamond": 15603,
    "cop": 20803,
    "Ġabused": 22273,
    "fre": 5425,
    "Ġflea": 23775,
    "arians": 18524,
    "Ġloose": 4649,
    "Ġunion": 6838,
    "crossed": 16635,
    "Ġelegant": 7531,
    "Ġstupendous": 20504,
    "Ġcouples": 16854,
    "elter": 21574,
    "Ġmatlock": 18806,
    "Ġhave": 444,
    "Ġgra": 415,
    "Ġscolding": 15204,
    "Ġlimited": 23548,
    "Ġinsurance": 23685,
    "Ġphrenologists": 25609,
    "subst": 12169,
    "Ġfifty": 4624,
    "Ġbandages": 24427,
    "Ġsale": 14157,
    "Ġtwink": 8216,
    "Ġdisgracing": 26257,
    "broken": 8020,
    "asable": 21544,
    "Ġobsolete": 26560,
    "Ġfidel": 12601,
    "Ġmajesty": 5201,
    "Ġazores": 20196,
    "zening": 21151,
    "ees": 13714,
    "Ġpious": 11602,
    "Ġjoking": 12842,
    "beneath": 9538,
    "Ġhappening": 14386,
    "Ġshivering": 10268,
    "clergyman": 20731,
    "Ġlubber": 17447,
    "Ġ95": 19776,
    "abilizing": 2924,
    "Ġsadly": 7301,
    "apparent": 11043,
    "ious": 771,
    "Ġsickle": 24248,
    "Ġfacet": 15589,
    "Ġstrict": 7221,
    "Ġdispel": 16598,
    "Ġabsent": 7015,
    "peril": 18338,
    "Ġemph": 14527,
    "Ġpear": 11856,
    "glory": 23855,
    "apidated": 22340,
    "Ġhey": 11644,
    "umul": 1289,
    "Ġhandsomer": 20336,
    "Ġthackeray": 26457,
    "Ġhorrid": 7999,
    "Ġhel": 3788,
    "xi": 17712,
    "iced": 3900,
    "uit": 8393,
    "Ġdispositions": 13238,
    "Ġanimating": 23427,
    "poke": 18799,
    "confirmation": 26090,
    "boats": 6205,
    "Ġjudging": 16597,
    "Ġunheard": 22029,
    "rously": 17656,
    "Ġson": 2983,
    "Ġboth": 1658,
    "Ġluxuriant": 20398,
    "sey": 5543,
    "Ġsubterraneous": 20268,
    "Ġcomprehensiveness": 25075,
    "seems": 10877,
    "proceed": 8979,
    "Ġwore": 6377,
    "Ġinclude": 1879,
    "Ġschedu": 1825,
    "detective": 24383,
    "Ġhaving": 1885,
    "Ġcunning": 6239,
    "Ġstreat": 15725,
    "Ġdifficulties": 11227,
    "quaker": 15767,
    "Ġeuroc": 14962,
    "Ġswept": 7978,
    "hval": 20900,
    "Ġsplashed": 23750,
    "Ġinjurious": 24273,
    "Ġupd": 946,
    "least": 8789,
    "heum": 17749,
    "Ġunch": 18240,
    "Ġjewel": 9945,
    "Ġceremonious": 24838,
    "Ġopenshaw": 7955,
    "Ġground": 2847,
    "industrious": 26241,
    "historical": 20469,
    "Ġmu": 17797,
    "Ġre": 317,
    "nur": 11508,
    "Ġnecessitates": 23933,
    "Ġresources": 2936,
    "Ġcontribut": 12864,
    "_âĢĶâĢĻâĢĿ": 25742,
    "Ġunhappy": 5640,
    "Ġcannibal": 7773,
    "gin": 4931,
    "Ġpresumption": 10548,
    "Ġenabling": 1080,
    "Ġbushy": 16406,
    "ruct": 688,
    "Ġanonym": 17899,
    "icken": 6712,
    "Ġstript": 23697,
    "Ġprocessions": 18434,
    "Ġthirty": 4944,
    "Ġdry": 5624,
    "countless": 24151,
    "Ġwidely": 8033,
    "lust": 15383,
    "Ġcomment": 9235,
    "Ġposter": 14279,
    "Ġdismal": 11814,
    "aky": 18412,
    "nt": 922,
    "aint": 2544,
    "flesh": 13494,
    "Ġsunwards": 19013,
    "Ġdrooping": 9423,
    "Ġed": 2243,
    "Ġthrusting": 10555,
    "Ġpole": 6433,
    "Ġrag": 18641,
    "marest": 20982,
    "Ġconfidential": 9091,
    "Ġstamping": 20034,
    "Ġdestitute": 14569,
    "iality": 8848,
    "Ġmagnanim": 14476,
    "Ġnerves": 2626,
    "beg": 22491,
    "rolled": 9062,
    "pendicular": 6499,
    "Ġadvancing": 6878,
    "Ġexam": 3713,
    "Ġendeavour": 4678,
    "consolation": 15156,
    "Ġket": 18348,
    "Ġexhaled": 19685,
    "Ġclicked": 22369,
    "countenances": 24152,
    "itations": 17819,
    "attributed": 23123,
    "Ġcringed": 25943,
    "Ġsciences": 15948,
    "rennial": 22344,
    "Ġhosts": 19942,
    "heim": 17748,
    "seem": 10230,
    "omet": 3076,
    "Ġinher": 10182,
    "deserving": 17248,
    "Ġdock": 15934,
    "vial": 17699,
    "Ġenjoy": 3761,
    "regular": 3043,
    "rates": 21041,
    "speechless": 25396,
    "oring": 1865,
    "ouring": 6420,
    "Ġinquiring": 9002,
    "plentiful": 21966,
    "Ġmess": 7831,
    "Ġclimb": 15083,
    "Ġunman": 12779,
    "Ġwarming": 23560,
    "isition": 11589,
    "Ġjacket": 6489,
    "Ġencamp": 22805,
    "moving": 11019,
    "yielded": 25757,
    "Ġignorance": 6620,
    "Ġoccur": 1083,
    "miseries": 16759,
    "Ġcommenting": 25229,
    "Ġcool": 5734,
    "Ġadvent": 4357,
    "Ġfringed": 17275,
    "ipotence": 22351,
    "indifferent": 14211,
    "Ġcollectively": 19971,
    "Ġchr": 3690,
    "Ġgrotes": 19566,
    "vand": 21111,
    "Ġcracked": 8598,
    "subs": 14305,
    "Ġmanner": 2196,
    "ess": 409,
    "Ġwhen": 514,
    "Ġsl": 1497,
    "Ġallusions": 10908,
    "Ġexp": 779,
    "Ġprofessor": 11232,
    "Ġkne": 4266,
    "innacle": 7518,
    "Ġundertaking": 8576,
    "Ġkindest": 23297,
    "Ġcous": 3438,
    "Ġpadd": 9672,
    "Ġconceited": 12096,
    "nerable": 16280,
    "Ġdefect": 8556,
    "Ġguiding": 19243,
    "Ġreader": 11938,
    "Ġfloats": 9416,
    "Ġcivilly": 19606,
    "Ġano": 11599,
    "ensions": 14261,
    "Ġgot": 2283,
    "use": 2538,
    "Ġscandinav": 19964,
    "Ġunstructured": 3004,
    "determination": 19948,
    "gia": 20878,
    "bots": 10085,
    "Ġconnecting": 18634,
    "Ġstrasburgh": 18615,
    "Ġsharper": 17182,
    "Ġwoody": 23523,
    "Ġgrace": 5374,
    "Ġcountenances": 11969,
    "Ġabrid": 22276,
    "Ġconnivance": 25226,
    "ins": 1379,
    "Ġ90": 24589,
    "Ġrese": 2212,
    "erred": 6376,
    "Ġexcessively": 9443,
    "Ġoccasion": 3248,
    "ulations": 6029,
    "Ġjoes": 19233,
    "itche": 7578,
    "nowhere": 18419,
    "Ġvisited": 5948,
    "Ġcode": 1723,
    "Ġstocks": 23180,
    "wolf": 26411,
    "Ġwildness": 14605,
    "Ġkeep": 2357,
    "Ġatom": 18193,
    "called": 6293,
    "ograph": 4798,
    "Ġopine": 19230,
    "renched": 7907,
    "dozen": 23381,
    "birds": 15148,
    "cuniary": 26381,
    "Ġfantastic": 10062,
    "awed": 10394,
    "ralian": 19603,
    "fins": 13722,
    "Ġderived": 8239,
    "admon": 21764,
    "Ġcocks": 18594,
    "Ġet": 3582,
    "Ġmountains": 4429,
    "vap": 13806,
    "Ġawoke": 7285,
    "Ġdisd": 7031,
    "Ġrear": 6536,
    "beds": 16624,
    "Ġextraction": 11254,
    "Ġstripped": 10467,
    "Ġevermore": 18814,
    "acity": 5735,
    "whispered": 20037,
    "Ġremote": 8923,
    "aspect": 10196,
    "Ġschemes": 11133,
    "devoted": 20020,
    "Ġtrap": 7671,
    "ints": 3418,
    "Ġhorrible": 4906,
    "Ġrefers": 1566,
    "Ġ111": 24436,
    "ā": 194,
    "Ġarches": 14165,
    "rue": 1129,
    "Ġsunset": 8965,
    "Ġdissatisfied": 14259,
    "Ġcompos": 22573,
    "Ġsolve": 4195,
    "Ġpalm": 10516,
    "baked": 20781,
    "Ġoriginal": 6103,
    "Ġacceler": 1613,
    "Ġbressed": 21390,
    "Ġsympathetic": 17362,
    "Ġdeceived": 6545,
    "Ġcourtesy": 9948,
    "Ġbasis": 16963,
    "Ġbackpropagation": 1200,
    "Ġcandelab": 23852,
    "Ġvag": 9711,
    "Ġsympathised": 14865,
    "ille": 9222,
    "Ġresentment": 7529,
    "Ġapparition": 8067,
    "Ġmate": 3710,
    "Ġpostmark": 16727,
    "Ġepistle": 24905,
    "ich": 469,
    "Ġcubs": 20090,
    "ma": 1152,
    "Ġunfulfilled": 26511,
    "âĢĻ-": 18169,
    "cottagers": 20051,
    "lop": 20950,
    "eringly": 23008,
    "rawling": 21639,
    "residence": 19265,
    "signed": 21064,
    "following": 10575,
    "strike": 14952,
    "Ġacc": 574,
    "tling": 9145,
    "mselves": 2862,
    "shall": 4551,
    "Ġacknowledge": 13406,
    "Ġhunter": 5401,
    "Ġrecol": 4024,
    "sort": 6798,
    "Ġmarlingspike": 26581,
    "itic": 11581,
    "Ġlove": 2054,
    "uck": 1234,
    "anguish": 15984,
    "Ġpetticoat": 15299,
    "Ġcaught": 3732,
    "Ġmarred": 23035,
    "Ġadler": 8174,
    "rict": 8093,
    "phys": 18712,
    "Ġsurprise": 3831,
    "Ġdeparture": 6490,
    "Ġconveys": 16857,
    "erc": 5905,
    "Ġordering": 18999,
    "rect": 1601,
    "ac": 741,
    "Ġsunken": 14495,
    "Ġcivilities": 14851,
    "izings": 14054,
    "uarded": 21108,
    "odecimoes": 25319,
    "estruct": 22230,
    "Ġensl": 19276,
    "Ġcage": 17827,
    "Ġbloodless": 19341,
    "claps": 23157,
    "Ġfitting": 21411,
    "Ġunlocking": 20708,
    "Ġrocked": 12858,
    "Ġreasonably": 11097,
    "Ġvisits": 8221,
    "Ġtricks": 13488,
    "urbed": 15713,
    "Ġclattered": 22366,
    "Ġquaker": 10973,
    "murderers": 25728,
    "greatest": 10496,
    "detached": 19677,
    "seek": 8841,
    "Ġcanallers": 13631,
    "Ġcirclings": 26433,
    "Ġsoapstone": 20514,
    "then": 2053,
    "Ġsque": 18760,
    "why": 2830,
    "Ġwound": 4529,
    "Ġcarav": 18903,
    "Ġgrounds": 6750,
    "clu": 20801,
    "Ġseized": 4835,
    "Ġbenevol": 5962,
    "Ġduring": 871,
    "Ġfumbled": 17883,
    "Ġstretching": 10018,
    "nervous": 16281,
    "Ġfeverish": 11350,
    "vain": 15450,
    "persons": 24177,
    "Ġcatastrop": 3349,
    "liness": 8750,
    "Ġwag": 10777,
    "Ġowners": 7662,
    "Ġhappy": 2467,
    "wol": 21125,
    "Ġexertion": 8054,
    "Ġsublime": 8066,
    "furn": 10094,
    "Ġshouldn": 14328,
    "Ġsurrender": 16451,
    "Ġbabel": 24426,
    "fishermen": 17062,
    "Ġconvey": 9984,
    "Ġtumble": 16881,
    "Ġstri": 2806,
    "suit": 18635,
    "Ġmaternal": 11061,
    "end": 496,
    "Ġbrutality": 26278,
    "Ġpetrified": 19599,
    "orified": 21405,
    "itch": 10163,
    "Ġ69": 19664,
    "creat": 20802,
    "Ġbutterfly": 19912,
    "Ġaddition": 1147,
    "Ġrestore": 9383,
    "Ġling": 7376,
    "Ġindolence": 16231,
    "rely": 6124,
    "Ġdromedary": 17442,
    "beings": 12882,
    "Ġapparelled": 20440,
    "stories": 18026,
    "hook": 12057,
    "Ġsharing": 3477,
    "Ġdecay": 1011,
    "Ġaudacity": 19884,
    "Ġfrayed": 23302,
    "Ġmostly": 7663,
    "power": 7137,
    "Ġis": 347,
    "Ġcoffee": 6760,
    "chanced": 18801,
    "bib": 17494,
    "Ń": 260,
    "Ġown": 1004,
    "be": 670,
    "Ġfrequent": 3288,
    "Ġcombinations": 22842,
    "Ġromish": 19587,
    "Ġmushroom": 13241,
    "Ġnorris": 23207,
    "anean": 7442,
    "Ġcolour": 4463,
    "whips": 22242,
    "voc": 8394,
    "Ġfra": 1801,
    "line": 1440,
    "Ġevenings": 18756,
    "Ġumbrella": 15269,
    "although": 8810,
    "Ġscarcely": 4005,
    "Ġlunatic": 24993,
    "Ġcreative": 9833,
    "spirit": 11315,
    "Ġcosmetic": 23475,
    "Ġramsgate": 18648,
    "Ġmixed": 6974,
    "Ġeuroclydon": 15300,
    "Ġtolerable": 6948,
    "Ġrefuge": 8541,
    "Ġeluded": 12929,
    "wow": 21124,
    "Ġcapt": 1291,
    "Ġsubsets": 2347,
    "irons": 10241,
    "oise": 15407,
    "anche": 10790,
    "urning": 12921,
    "Ġirreparable": 20002,
    "Ġpurchases": 24755,
    "Ġworn": 6445,
    "conclusions": 25673,
    "gener": 3126,
    "=": 33,
    "coiled": 16488,
    "Ġtro": 7355,
    "Ġcrumbs": 19124,
    "englishman": 23676,
    "Ġharmless": 9968,
    "Ġelect": 10844,
    "Ġinterests": 14572,
    "Ġzones": 22824,
    "uncontrollable": 20599,
    "Ġharpoons": 5659,
    "ational": 5716,
    "Ġindication": 22955,
    "port": 10721,
    "Ġxxxix": 24971,
    "morrow": 4573,
    "Ġlounged": 19957,
    "uated": 10134,
    "isation": 13896,
    "Ġestim": 3350,
    "Ġcompanies": 14560,
    "hon": 6793,
    "truck": 15444,
    "dishon": 20407,
    "Ġus": 501,
    "Ġabund": 8868,
    "eer": 15351,
    "slo": 17658,
    "agra": 14069,
    "ù": 186,
    "Ġconsc": 4274,
    "deliberated": 26119,
    "safety": 20352,
    "Ġvillain": 8639,
    "perpendicular": 14162,
    "izabeth": 908,
    "till": 6965,
    "Ġwhipcord": 20098,
    "ening": 3104,
    "Ġanvil": 11600,
    "Ġringed": 16752,
    "longbourn": 9899,
    "rods": 21541,
    "Ġwonderfully": 10432,
    "inc": 2523,
    "inement": 11560,
    "Ġirish": 14536,
    "Ġgrieve": 14710,
    "Ġbeings": 2492,
    "Ġdoctrine": 24200,
    "lished": 8383,
    "sharks": 14243,
    "uned": 21875,
    "vering": 15720,
    "Ġdem": 11677,
    "Ġmichaelmas": 26376,
    "Ġunsupervised": 2447,
    "Ġtransportation": 13646,
    "rid": 5137,
    "utmost": 21591,
    "ele": 9117,
    "Ġpaste": 23422,
    "Ġrepulses": 26071,
    "Ġbillow": 14783,
    "Ġstrove": 9960,
    "Ġsavor": 23878,
    "Ġinformed": 6718,
    "Ġprofound": 5497,
    "hit": 20891,
    "begging": 22501,
    "Ġoptimal": 1860,
    "countenance": 6924,
    "Ġpips": 9847,
    "dying": 15344,
    "Ġexamining": 8006,
    "Ġthorough": 6246,
    "Ġmeaning": 1415,
    "rap": 21631,
    "Ġfug": 12600,
    "Ġinsights": 13183,
    "prepare": 20215,
    "Ġcontextually": 11962,
    "Ġtranquillize": 24756,
    "Ġtended": 21169,
    "icha": 11742,
    "from": 1991,
    "ĠĠĠĠĠĠĠĠĠĠĠĠĠĠĠĠĠĠĠĠĠĠĠĠĠĠĠĠĠĠĠĠĠĠĠĠĠĠĠĠĠĠĠĠĠĠĠĠĠĠĠĠĠĠĠĠĠĠĠĠ": 19262,
    "Ġlatitude": 8329,
    "Ġconfinement": 19045,
    "Ġconsidered": 4612,
    "iscreet": 20685,
    "Ġsepulch": 15288,
    "Ġinscribed": 24941,
    "Ġf": 283,
    "pieces": 8758,
    "Ġreflection": 6440,
    "Ġpursuits": 12081,
    "abulary": 4801,
    "intosh": 22943,
    "Ġflannel": 26579,
    "inished": 17736,
    "proposal": 18742,
    "Ġcontortions": 18477,
    "idy": 21768,
    "rying": 3186,
    "Ġklan": 23661,
    "Ġbrushed": 15575,
    "Ġphysiognomical": 25612,
    "Ġbubbles": 11400,
    "prophecy": 22821,
    "clear": 9027,
    "Ġharbour": 19983,
    "Ġbird": 3757,
    "ruin": 22190,
    "Ġsupported": 9821,
    "ever": 1077,
    "Ġbelfry": 26440,
    "misery": 13348,
    "Ġwanderings": 20146,
    "Ġsurv": 6081,
    "wishes": 13810,
    "reshold": 21242,
    "Ġspeckled": 14312,
    "Ġoccupant": 16654,
    "anel": 21360,
    "Ġaffirmative": 15226,
    "Ġmonomania": 17086,
    "ansion": 10927,
    "âĢĻ": 378,
    "Ġabounding": 12348,
    "Ġdepended": 9780,
    "Ġgreedily": 18966,
    "Ġeffectual": 18734,
    "Ġsummary": 19407,
    "Ġfilial": 16622,
    "unned": 21882,
    "sutherland": 21065,
    "Ġhumbled": 16200,
    "Ġ112": 24437,
    "doesn": 19823,
    "Ġyellow": 5302,
    "Ġinconceivable": 17940,
    "Ġaerial": 21201,
    "food": 12468,
    "Ġhardened": 14453,
    "windows": 19537,
    "striving": 24670,
    "Ġlivelong": 25512,
    "ĠĠĠĠĠĠĠĠĠĠĠĠĠĠĠĠĠĠĠĠĠĠĠĠĠĠĠĠĠĠĠĠĠĠĠĠ": 23665,
    "super": 5944,
    "Ġheard": 1398,
    "Ġtinted": 13825,
    "Ġstrip": 9424,
    "absurd": 21799,
    "Ġhip": 17923,
    "traced": 19648,
    "Ġbelonged": 6921,
    "avery": 13687,
    "Ġterribly": 10427,
    "Ġmakes": 3653,
    "Ġfainted": 8796,
    "iod": 3841,
    "Ġglimpse": 6943,
    "Ġdank": 21431,
    "Ġoutputs": 2885,
    "sullen": 17671,
    "Ġtune": 17727,
    "ety": 3522,
    "Ġinattention": 17934,
    "Ġfury": 7660,
    ":âĢĶ": 4434,
    "Ġlips": 3988,
    "ii": 4011,
    "Ġenjoyment": 7299,
    "Ċ": 203,
    "Ġlumps": 21559,
    "Ġrecur": 1623,
    "bask": 20778,
    "Ġtartar": 17325,
    "Ġlashed": 9201,
    "give": 4689,
    "Ġrespects": 7268,
    "ogra": 4574,
    "surf": 24215,
    "ress": 931,
    "dinah": 20084,
    "Ġholidays": 22925,
    "Ġbehold": 5049,
    "Ġslaughter": 20732,
    "ationally": 15709,
    "Ġsuperiors": 23459,
    "Ġcompressed": 21849,
    "hidden": 17374,
    "feeder": 12365,
    "ped": 6963,
    "ive": 428,
    "almost": 4943,
    "wr": 3029,
    "Ġdisguises": 25058,
    "income": 15489,
    "atic": 4014,
    "ilted": 21726,
    "Ġconscious": 7743,
    "send": 15426,
    "bare": 12445,
    "Ġnicely": 8712,
    "Ġsuspending": 19246,
    "Ġmiscellaneous": 17465,
    "po": 1139,
    "Ġaccidents": 10298,
    "Ġcase": 1942,
    "Ġ86": 24461,
    "especially": 3574,
    "Û": 156,
    "Ġalong": 1980,
    "useful": 16505,
    "Ġdesponding": 25869,
    "Ġprecip": 7075,
    "Ġshake": 6034,
    "Ġretreat": 6070,
    "Ġflowers": 8943,
    "Ġcontrivance": 17186,
    "Ġengra": 7874,
    "ĠĠĠĠĠĠĠ": 7631,
    "Ġferocious": 17422,
    "Ġhesitated": 10005,
    "frock": 20124,
    "senses": 25025,
    "Ġdog": 4191,
    "Ġconcoct": 19051,
    "Ġlat": 5087,
    "unteered": 26497,
    "mis": 4522,
    "reas": 987,
    "Ġclasses": 4052,
    "mess": 13756,
    "Ġmanage": 7640,
    "jonah": 11499,
    "warmth": 20056,
    "Ġcolonel": 3409,
    "seemed": 4304,
    "joining": 19449,
    "icult": 3341,
    "Ġskirting": 22801,
    "l": 80,
    "etrics": 21588,
    "Ġdup": 21430,
    "Ġglide": 22989,
    "globe": 25145,
    "mit": 4934,
    "clearer": 24071,
    "Ġkills": 15910,
    "Ġnugent": 26459,
    "ü": 189,
    "Ġreveries": 11349,
    "Ġsand": 6236,
    "Ġinconstant": 21499,
    "Ġpenet": 6887,
    "Ð": 145,
    "chain": 18042,
    "Ġsuite": 18280,
    "Ġpaws": 13924,
    "feels": 22506,
    "yourself": 6743,
    "Ġinspector": 6498,
    "Ġturbul": 23614,
    "Ġmorning": 1747,
    "uries": 6148,
    "acknowledge": 18469,
    "Ġsnail": 19301,
    "Ġghostly": 24651,
    "uture": 1049,
    "Ġclock": 9536,
    "ahab": 4290,
    "vol": 720,
    "shroud": 20315,
    "stem": 569,
    "Ġtri": 4814,
    "charming": 15710,
    "Ġaccord": 4022,
    "title": 17290,
    "rals": 21045,
    "Ġmathematical": 3352,
    "1": 21,
    "Ġsly": 9635,
    "itect": 1007,
    "Ġbeauty": 3770,
    "Ġpewter": 17188,
    "mole": 22706,
    "Ġcommunion": 19010,
    "Ġdesign": 4129,
    "Ġwithout": 1122,
    "ame": 644,
    "Ġprobabilities": 4966,
    "Ġfibres": 12956,
    "Ġexpressive": 8985,
    "Ġperemptory": 25741,
    "Ġanticip": 7506,
    "Ġpersian": 11092,
    "desp": 6093,
    "Ġtrif": 6269,
    "christmas": 20258,
    "untary": 9870,
    "Ġchalk": 15937,
    "squall": 13525,
    "occ": 4486,
    "89": 20761,
    "lotts": 23829,
    "Ġstanders": 19016,
    "Ġcourses": 10413,
    "Ġsable": 15503,
    "Ġbroad": 3641,
    "Ġdissip": 10994,
    "arbuck": 2026,
    "pause": 12505,
    "Ġped": 7845,
    "Ġconstable": 19070,
    "Ġinstinctively": 13463,
    "bub": 15320,
    "Ġlakes": 8131,
    "Ġbreckinridge": 14525,
    "skirted": 24489,
    "shish": 11799,
    "disputed": 23505,
    "Ġspectacle": 10499,
    "jer": 12485,
    "touch": 8392,
    "thrasher": 25659,
    "Ġimpending": 22388,
    "narwhale": 17321,
    "Ġstren": 15724,
    "et": 307,
    "Ġhired": 10180,
    "eld": 962,
    "Ġmountainous": 16601,
    "Ġunsav": 18252,
    "accomp": 10457,
    "Ġfired": 16158,
    "Ġpeculiar": 3153,
    "abounding": 25980,
    "Ġderivative": 2999,
    "Ġascertaining": 17206,
    "idation": 5022,
    "Ġfuture": 1054,
    "Ġpervers": 11787,
    "Ġperilous": 7768,
    "Ġscream": 5935,
    "Ġcetace": 14991,
    "Ġstrata": 26028,
    "Ġ113": 19699,
    "Ġid": 1911,
    "g": 75,
    "glass": 9912,
    "ela": 21572,
    "Ġtent": 15470,
    "Ġconfed": 13103,
    "Ġphysiognomically": 25613,
    "moid": 2452,
    "Ġpassengers": 13679,
    "Ġforger": 15737,
    "habit": 16192,
    "lances": 15387,
    "repeating": 20132,
    "Ġassemblage": 26354,
    "Ġflew": 5588,
    "Ġespecially": 3935,
    "Ġsnuffed": 15076,
    "Ġpropontis": 17468,
    "Ġconstruction": 9389,
    "Ġpopulation": 16829,
    "Ġorlop": 22097,
    "Ġv": 397,
    "Ġbreeze": 5681,
    "Ġsafety": 6340,
    "Ġprotested": 9937,
    "Ġpretence": 13209,
    "beating": 22493,
    "Ġbread": 5404,
    "Ġinviting": 19145,
    "Ġdominant": 12400,
    "cup": 10694,
    "Ġprouder": 18973,
    "Ġcorre": 3888,
    "Ġquietly": 4568,
    "Ġgrec": 18962,
    "Ġplanet": 14753,
    "Ġpushing": 10821,
    "Ġshock": 6082,
    "zag": 17715,
    "acies": 14281,
    "Ġshells": 20367,
    "fluttering": 23976,
    "Ġincomp": 12902,
    "cence": 9591,
    "Ġshaken": 10267,
    "wa": 5897,
    "Ġserm": 9636,
    "cking": 4265,
    "Ġanchors": 12618,
    "Ġopposite": 5120,
    "Ġexpenses": 11837,
    "Ġvaults": 17156,
    "Ġfixed": 2686,
    "ceiling": 21630,
    "Ġemptied": 24347,
    "Ġassailants": 20452,
    "Ġunmingled": 18264,
    "cial": 2647,
    "fanc": 20866,
    "Ġtongues": 14866,
    "bedded": 12447,
    "continuing": 24479,
    "lines": 6958,
    "Ġcoarse": 14277,
    "Ġlany": 21557,
    "Ġcombat": 16184,
    "Ġthumb": 6981,
    "angle": 22104,
    "ě": 220,
    "Ġunconnected": 18243,
    "craft": 12251,
    "Ġexceedingly": 4615,
    "odes": 18122,
    "Ġthoroughly": 8348,
    "utored": 15667,
    "baned": 17498,
    "h": 76,
    "beards": 22495,
    "xim": 1094,
    "Ġrounded": 14441,
    "_),": 7126,
    "Ġexceeding": 1582,
    "Ġsembl": 19063,
    "rot": 21535,
    "Ġsag": 6514,
    "Ġboarders": 16602,
    "Ġmeridian": 25713,
    "artic": 14227,
    "Ġpain": 2305,
    "Ġarising": 10935,
    "replied": 11568,
    "Ġpraise": 6486,
    "tuning": 1583,
    "Ġtags": 20574,
    "measureless": 20238,
    "Ġshrouded": 14972,
    "evening": 7090,
    "Ġmurmur": 14591,
    "aguy": 21914,
    "ow": 325,
    "Ġcomprehensive": 15091,
    "Ġwip": 13856,
    "Ġdelighted": 5499,
    "Ġrounds": 18887,
    "Ġdy": 2524,
    "Ġparc": 10922,
    "Ġwert": 12561,
    "iary": 15374,
    "Ġred": 3005,
    "Ġfollowed": 1794,
    "apology": 22337,
    "tains": 10964,
    "sens": 8096,
    "fair": 10095,
    "Ġacceded": 22383,
    "aths": 22704,
    "Ġscar": 3212,
    "poled": 22910,
    "Ġbouquet": 20686,
    "Ġbristles": 25845,
    "Ġmarine": 23036,
    "Ġflatt": 16251,
    "ibid": 18842,
    "Ġconciliating": 19053,
    "Ġstre": 2106,
    "Ġsegmentation": 17343,
    "Ġright": 1505,
    "raint": 18318,
    "Ġchal": 18379,
    "Ġadaptive": 1371,
    "dep": 6786,
    "pine": 13772,
    "Ġassure": 4421,
    "linked": 17595,
    "Ġalter": 6543,
    "oriously": 17876,
    "merry": 16539,
    "vict": 11543,
    "Ġgracechurch": 12203,
    "Ġdeliber": 7267,
    "Ġ109": 24416,
    "beware": 16043,
    "Ġcomprehend": 6494,
    "Ġfuriously": 9805,
    "Ġtimely": 19597,
    "Ġquieted": 23846,
    "night": 2169,
    "Ġdr": 2826,
    "Ġconce": 3424,
    "arity": 1301,
    "private": 13586,
    "Ġpromising": 10402,
    "Ġdirect": 1471,
    "ple": 455,
    "parm": 21016,
    "laz": 15389,
    "Ġinexpress": 12640,
    "Ġnapoleons": 25886,
    "Ġbase": 5013,
    "john": 11500,
    "Ġbulk": 5591,
    "Ġlakeman": 6986,
    "arent": 4249,
    "eliest": 14749,
    "amb": 5723,
    "studied": 17152,
    "Ġclothes": 4997,
    "Ġdeclining": 23967,
    "Ġhagger": 21494,
    "Ġtrust": 4077,
    "forced": 11033,
    "bows": 10084,
    "Ġspouts": 7729,
    "co": 2436,
    "Ġbats": 13903,
    "urre": 10858,
    "scans": 22992,
    "boilers": 26298,
    "iffe": 21906,
    "reasonable": 7751,
    "cape": 13701,
    "doctor": 19097,
    "civility": 17515,
    "Ġthinks": 6170,
    "Ġplaster": 16088,
    "Ġinquirers": 24965,
    "Ġtransitory": 16022,
    "Ġfif": 4216,
    "bles": 7018,
    "Ġrat": 4354,
    "Ġdisclosed": 15157,
    "Ġvisitors": 7985,
    "Ġrattler": 24998,
    "likes": 18817,
    "banked": 25338,
    "Ġcontemplative": 19895,
    "Ġscot": 5643,
    "Ġknights": 15153,
    "Ġcistern": 17384,
    "Ġhookah": 16972,
    "Ġunex": 11717,
    "Ġdeserved": 7736,
    "scale": 3536,
    "hounds": 20909,
    "Ġaccomp": 4713,
    "Ġparading": 23713,
    "Ġincludes": 2011,
    "Ġshoes": 7072,
    "cottage": 9572,
    "Ġcountenance": 3968,
    "Ġfad": 17878,
    "Ġtennessee": 26598,
    "slanting": 24558,
    "goodbye": 12060,
    "Ġstrategies": 1841,
    "mael": 6724,
    "Ġdiet": 13913,
    "Ġmixing": 24937,
    "Ġpoetry": 15084,
    "abern": 21794,
    "Ġandrew": 21510,
    "boots": 11128,
    "Ġlooked": 1803,
    "uneasiness": 23690,
    "Ġages": 7028,
    "Ġweaver": 11691,
    "Ġragged": 11848,
    "Ġsalad": 19482,
    "Ġsemicircle": 26069,
    "Ġdiscount": 22783,
    "vis": 4578,
    "Ġdesigns": 13017,
    "cleanliness": 25872,
    "sullenly": 26150,
    "Ġwretchedly": 19509,
    "ino": 15482,
    "ifully": 13188,
    "Ġtraces": 7946,
    "Ġhunsford": 6302,
    "Ġarmies": 16494,
    "serpent": 16295,
    "Ġcreates": 2009,
    "Ġ70": 11278,
    "pets": 17638,
    "Ġpainter": 19170,
    "Ġcondesc": 7181,
    "mitting": 20975,
    "rench": 3965,
    "Ġnoon": 6560,
    "bedroom": 14701,
    "Ġhans": 12631,
    "Ġvice": 6549,
    "Ġports": 10820,
    "Ġ17": 5740,
    "Ġintegration": 9871,
    "Ġdim": 4758,
    "Ġdo": 511,
    "Ġfaces": 6009,
    "Ġvirginia": 13503,
    "Ġwretch": 6378,
    "inquire": 16934,
    "ast": 471,
    "ances": 1334,
    "Ġhopelessly": 16382,
    "Ġ1671": 25008,
    "Ġlabels": 3289,
    "Ġvest": 8163,
    "yours": 7694,
    "Ġcran": 12005,
    "Ġpropose": 9856,
    "12": 20751,
    "Ġmemorable": 16431,
    "romang": 22009,
    "Ġaddressing": 11166,
    "abode": 21795,
    "!_": 7328,
    "Ġstrings": 11833,
    "Ġpetty": 19598,
    "Ġjackets": 19605,
    "Ġgrows": 4985,
    "Ġthunders": 15642,
    "cer": 6644,
    "Ġthirdly": 24144,
    "Ġaback": 22270,
    "Ġapart": 4747,
    "Ġdisturbance": 15015,
    "Ġpitches": 23905,
    "gs": 7337,
    "Ġarctic": 12816,
    "Ġbuilt": 8301,
    "Ġforehead": 5262,
    "Ġbringing": 5870,
    "Ġjoints": 12040,
    "Ġ1828": 25720,
    "Ġodor": 12154,
    "Ġjen": 9270,
    "Ġczar": 12579,
    "Ġgull": 15674,
    "Ġstrained": 10221,
    "shattered": 22467,
    "Ġwight": 12558,
    "Ġunimag": 12780,
    "Ġdefinite": 11071,
    "Ġreluctant": 20528,
    "istence": 2389,
    "Ġmicrosc": 20679,
    "Ġone": 568,
    "etency": 21585,
    "Ġthan": 737,
    "Ġowl": 20087,
    "Ġexplaining": 15964,
    "listen": 13517,
    "Ġtreading": 16507,
    "Ġshocking": 10437,
    "Ġroar": 9755,
    "Ġdang": 9177,
    "Ġoscill": 2857,
    "Ġbaleful": 24985,
    "dispositions": 25014,
    "Ġatlantic": 7000,
    "Ġ(`": 12857,
    "paint": 21020,
    "Ġsmell": 7215,
    "Ġsaville": 15892,
    "Ġfath": 7363,
    "Ġyou": 366,
    "bee": 16041,
    "Ġknown": 1642,
    "Ġbare": 6133,
    "bermaid": 20792,
    "Ġsocieties": 20185,
    "usiveness": 22297,
    "Ġpublished": 11244,
    "rumours": 23924,
    "investigations": 25534,
    "nson": 16092,
    "Ġguidance": 9420,
    "meditated": 19074,
    "bound": 6221,
    "Ġcas": 8412,
    "ieves": 4002,
    "Ġdol": 9667,
    "Ġargue": 16785,
    "erson": 7002,
    "whe": 1074,
    "causes": 20346,
    "59": 17476,
    "Ġlimb": 9405,
    "penet": 11072,
    "Ġmarvell": 7247,
    "rifice": 12508,
    "irect": 5553,
    "itute": 9654,
    "Ġhap": 18196,
    "Ġwhence": 5840,
    "Ġrope": 4339,
    "Ġappertaining": 26535,
    "sig": 2874,
    "Ġoutrage": 15962,
    "Ġcheat": 19022,
    "Ă": 195,
    "saturday": 14861,
    "vour": 17701,
    "Ġleadenhall": 16631,
    "Ġcoding": 8116,
    "gledy": 25404,
    "dev": 7632,
    "Ġholland": 10368,
    "Ġcheering": 11135,
    "Ġ66": 24369,
    "Ġpregn": 22236,
    "Ġinvention": 19956,
    "arrested": 15605,
    "ullied": 23108,
    "Ġinjure": 16783,
    "Ġlump": 21555,
    "Ġlucy": 17972,
    "Ġ119": 24441,
    "Ġunfolding": 17087,
    "accompan": 11454,
    "Ġproceeding": 9909,
    "Ġmish": 15541,
    "Ġrepented": 23365,
    "Ġhumph": 22886,
    "Ġnut": 12651,
    "Ġbetokened": 18797,
    "Ġapartments": 19617,
    "somewhere": 12017,
    "Ġimpertinence": 11368,
    "Ġinglorious": 24424,
    "yellow": 9627,
    "bellies": 19977,
    "Ġmanagement": 8193,
    "Ġtort": 5902,
    "conversation": 7123,
    "Ġdisconcerted": 18563,
    "Ġbehaves": 23304,
    "Ġwash": 9706,
    "Ġunsafe": 22045,
    "Ġgenteel": 19984,
    "let": 2733,
    "Ġdeserted": 8640,
    "Ġguido": 2976,
    "Ġdragging": 14478,
    "splinter": 25211,
    "Ġcrawling": 17046,
    "oblig": 16294,
    "Ġsheepfold": 25467,
    "Ġransacked": 26506,
    "clothes": 9060,
    "deepest": 22857,
    "sensibility": 25026,
    "blow": 9107,
    "Ġgrat": 4054,
    "headers": 23112,
    "Ġland": 1997,
    "Ġven": 4648,
    "Ġweather": 3993,
    "Ġdiverged": 23596,
    "reated": 10305,
    "Ġbeautifully": 13272,
    "indebted": 26159,
    "âĢľ": 344,
    "Ġbranded": 14382,
    "captain": 3952,
    "Ġzodiac": 16180,
    "cong": 10691,
    "atig": 13848,
    "Ġslacked": 25189,
    "Ġce": 3032,
    "geon": 6271,
    "riet": 18182,
    "Ġsorry": 4208,
    "Ġinstances": 5568,
    "usage": 12838,
    "merchant": 10469,
    "Ġworsh": 13005,
    "away": 4626,
    "pad": 13771,
    "nect": 662,
    "throne": 25658,
    "Ġfolded": 7767,
    "sprinkling": 24913,
    "Ġdevelopment": 7058,
    "ą": 198,
    "mers": 9613,
    "Ġvind": 10252,
    "Ġpilgr": 12185,
    "Ġsinking": 7306,
    "cull": 20811,
    "wherein": 19109,
    "gravel": 22623,
    "ipper": 13743,
    "Ġpractical": 3164,
    "Ġaccomplishment": 19668,
    "Ġplanned": 14755,
    "Ġscand": 7202,
    "Ġprudence": 13923,
    "pin": 13770,
    "Ġhovers": 19080,
    "Ġincarnate": 20378,
    "Ġabaft": 22278,
    "Ġfrenzy": 13626,
    "glo": 8741,
    "Ġpa": 2989,
    "Ġagonies": 14254,
    "Ġjenny": 20165,
    "iloquent": 21729,
    "Ġcostume": 16497,
    "calm": 8937,
    "familiar": 19786,
    "oniously": 21260,
    "Ġunfair": 19510,
    "Ġagatha": 6865,
    "Ġbrilliantly": 25123,
    "act": 786,
    "rushing": 10021,
    "Ġbott": 3149,
    "enary": 12556,
    "Ġevenly": 4126,
    "forward": 2188,
    "Ġmachine": 803,
    "Ġ{": 21155,
    "Ġpenalizing": 13095,
    "loose": 11809,
    "Ġscenes": 5730,
    "Ġinflict": 15003,
    "eagerly": 17319,
    "Ġinhuman": 13932,
    "Ġdisagreeable": 9301,
    "mus": 10113,
    "aders": 21762,
    "solved": 7684,
    "Ġnineveh": 13393,
    "Ġbalancing": 2432,
    "Ġdyspeps": 16501,
    "ense": 2052,
    "Ġkindred": 16381,
    "Ġfourteen": 12014,
    "Ġbelieving": 8225,
    "Ġoldest": 12979,
    "Ġblock": 2577,
    "ians": 2360,
    "gover": 10704,
    "Ġinnocent": 4922,
    "Ġornaments": 17455,
    "arus": 13915,
    "Ġstirred": 12222,
    "Ġplunged": 8696,
    "ylon": 24978,
    "Ġrafters": 22661,
    "Ġsuspect": 5758,
    "Ġinventing": 24862,
    "Ġentranced": 25836,
    "Ġhull": 5446,
    "harpooneers": 8693,
    "Ġparl": 8178,
    "possibly": 10546,
    "Ġpoliteness": 8274,
    "Ġunclad": 22058,
    "Ġcenturies": 8626,
    "aus": 1500,
    "ignorantly": 25190,
    "reached": 13844,
    "Ġfir": 17879,
    "ometer": 19328,
    "Ġadv": 1156,
    "actorily": 25577,
    "iform": 2200,
    "Ġembarked": 17137,
    "Ġexecution": 6926,
    "clad": 14463,
    "Ġsteepest": 3088,
    "Ġagreeable": 4553,
    "quietude": 24656,
    "Ġphrenologist": 25608,
    "Ġcontrari": 23352,
    "akness": 14197,
    "Ġretort": 23073,
    "ouching": 13181,
    "Ġrun": 2356,
    "Ġjago": 22303,
    "Ġcruisers": 25864,
    "handedness": 24921,
    "asets": 2311,
    "liber": 18816,
    "Ġarg": 4767,
    "Ġcommonplace": 11098,
    "scattered": 22998,
    "see": 3048,
    "idel": 5301,
    "Ġsprung": 11250,
    "Ġcascade": 20584,
    "Ġceasing": 23759,
    "putable": 10903,
    "past": 8090,
    "Ġfi": 932,
    "Ġalternating": 15033,
    "Ġlacey": 10200,
    "Ġrequested": 14302,
    "Ġmerest": 14033,
    "Ġowe": 8115,
    "Ġaloysius": 15742,
    "athered": 6972,
    "gy": 2095,
    "Ġprocession": 11779,
    "behold": 12883,
    "Ġhers": 7889,
    "allies": 14168,
    "Ġ34": 16679,
    "ander": 6401,
    "Ġ----": 7145,
    "Ġsoothe": 7404,
    "drove": 16995,
    "Ġcontinuously": 23211,
    "turbable": 24531,
    "Ġceiling": 7997,
    "generosity": 23788,
    "month": 6463,
    "aits": 20768,
    "Ġsuperior": 2753,
    "Ġimaginative": 19249,
    "deficient": 23120,
    "knell": 24555,
    "Ġfrigid": 17355,
    "aded": 3550,
    "accurately": 25862,
    "Ġcryst": 9920,
    "bers": 2572,
    "nameless": 19905,
    "Ġskirts": 14356,
    "<": 32,
    "Ġroom": 1463,
    "Ġdungeon": 16998,
    "Ġmatter": 1734,
    "ğ": 224,
    "dishonourable": 26367,
    "nets": 9135,
    "cring": 20813,
    "Ġsavage": 4007,
    "Ġspaulding": 11735,
    "happy": 4427,
    "Ġanomalously": 25639,
    "ences": 1264,
    "hearty": 14837,
    "waving": 21134,
    "etwork": 441,
    "Ġjav": 7902,
    "Ġfruits": 17121,
    "convinced": 10625,
    "Ġgigantic": 5915,
    "onement": 21259,
    "abama": 12714,
    "Ġunsocial": 18257,
    "Ġparticularly": 5056,
    "fourth": 11330,
    "anely": 17838,
    "onged": 18411,
    "Ġfootfalls": 25867,
    "Ġstings": 21738,
    "flitted": 23972,
    "Ġnarrated": 14874,
    "Ġpendulous": 25956,
    "Ġtobacco": 8367,
    "Ġcommissionaire": 17002,
    "painful": 13505,
    "âĢľâĢĶ": 10874,
    "Ġdiscrimin": 2548,
    "blu": 12444,
    "crawling": 16960,
    "Ġpovels": 22598,
    "Ġtelescope": 17351,
    "istry": 22113,
    "Ġrole": 16000,
    "ture": 7557,
    "Ġwaterward": 23370,
    "Ġfors": 21775,
    "spoutings": 25004,
    "corrid": 24484,
    "Ġleave": 2459,
    "Ġstoutly": 16926,
    "Ġupbraided": 26530,
    "ignant": 11131,
    "Ġthousand": 2785,
    "Ġglacier": 11435,
    "Ġnowadays": 18547,
    "achalot": 15867,
    "Ġtophet": 23575,
    "extending": 22769,
    "Ġmonomaniac": 9571,
    "Ġroyalty": 19739,
    "Ġmovable": 22439,
    "iot": 9603,
    "Ġanybody": 5314,
    "Ġangles": 23590,
    "aving": 2409,
    "oysius": 14375,
    "writes": 4988,
    "cu": 10086,
    "Ġincompatible": 25681,
    "dial": 20827,
    "itable": 5437,
    "vicinity": 20483,
    "cred": 9111,
    "Ġhealthcare": 8016,
    "bene": 6113,
    "bordered": 17501,
    "Ġsmith": 16068,
    "season": 14037,
    "comb": 11038,
    "pursue": 24976,
    "claims": 25320,
    "mm": 675,
    "Ġproposition": 23252,
    "thro": 12766,
    "igin": 3657,
    "Ġeducated": 16787,
    "Ġexamine": 7734,
    "Ġaye": 3354,
    "Ġcrockery": 24303,
    "needles": 20314,
    "edded": 8558,
    "fam": 5989,
    "================================================================": 9993,
    "Ġrecursive": 4783,
    "Ġcashier": 20201,
    "poles": 16212,
    "Ġimmersed": 19488,
    "isticated": 1589,
    "Ġconcer": 23325,
    "amped": 12038,
    "Ġunintermitted": 26221,
    "Ġdan": 8797,
    "Ġsprang": 5064,
    "din": 8374,
    "Ġaston": 3703,
    "Ġloomings": 24952,
    "Ġcreated": 2707,
    "Ġvoyagings": 19238,
    "Ġdeposition": 18602,
    "Ġhelmsman": 10507,
    "Ġdid": 835,
    "Ġpreviously": 3919,
    "Ġdoubloon": 6944,
    "Ġedd": 8398,
    "appears": 12064,
    "Ġobligation": 13249,
    "Ġdesperate": 7776,
    "Ġchristian": 6479,
    "Ġcheek": 8580,
    "Ġdiminish": 14748,
    "cks": 3080,
    "Ġrecollections": 10515,
    "cursed": 23847,
    "proves": 23397,
    "Ġquitted": 5312,
    "concerning": 9070,
    "Ġbluish": 23651,
    "Ġanxious": 4519,
    "illing": 8175,
    "encing": 21285,
    "Ġgrievous": 13265,
    "week": 12936,
    "book": 4670,
    "Ġfable": 15581,
    "Ġspear": 9317,
    "Ġtire": 17722,
    "ross": 810,
    "Ġclue": 7021,
    "Ġdemoniacal": 20559,
    "Ġadvancement": 24475,
    "Ġprocesses": 3634,
    "process": 11150,
    "Ġpride": 3825,
    "Ġmissed": 8557,
    "Ġliveliest": 24774,
    "anchor": 13892,
    "Ġexcuses": 19048,
    "Ġattachment": 6050,
    "Ġarthur": 7195,
    "Ġmerit": 9430,
    "osing": 3691,
    "Ġaccursed": 9458,
    "calcul": 12992,
    "Ġwickedness": 9529,
    "forks": 26389,
    "opinion": 10986,
    "Ġnarrowed": 24355,
    "stretch": 13984,
    "Ġtransparency": 10679,
    "Ġconjectures": 16927,
    "Ġserve": 9372,
    "persuaded": 15077,
    "Ġensuring": 11193,
    "Ġardu": 22188,
    "Ġdrove": 4984,
    "msgate": 18416,
    "asc": 6386,
    "immediate": 20097,
    "Ġbelshazzar": 16228,
    "Ġsisterly": 16308,
    "Ġbeast": 7179,
    "Ġeyelids": 26108,
    "Ġregularly": 7657,
    "Ġnathan": 21529,
    "Ġpythag": 26450,
    "dz": 4740,
    "Ġmultipl": 2794,
    "Ġinquiries": 5678,
    "hing": 979,
    "Ġtorrid": 25035,
    "Ġtarquin": 23612,
    "Ġparticular": 2451,
    "Ġgeneral": 1866,
    "Ġaloud": 6253,
    "itary": 4752,
    "Ġpaddock": 25040,
    "Ġpity": 4941,
    "wards": 1276,
    "Ġextravagance": 17282,
    "Ġfeigned": 22214,
    "Ġtopic": 9409,
    "objections": 19918,
    "Ġattain": 12752,
    "Ġdrops": 9035,
    "teen": 6370,
    "Ġinhospit": 25453,
    "Ġdolph": 12384,
    "coff": 9112,
    "Ġmiddle": 4135,
    "Ġtimor": 24227,
    "Ġdiscontented": 16062,
    "âĢĶ_": 3201,
    "Ġgratified": 8021,
    "Ġburly": 19252,
    "mind": 4627,
    "Ġdisgra": 18550,
    "engineer": 23152,
    "official": 24915,
    "ov": 15403,
    "skin": 10571,
    "Ġmysteriously": 24602,
    "Ġfountain": 7364,
    "Ġbenefited": 19401,
    "Ġinvader": 23483,
    "Ġsigh": 10339,
    "Ġcuriosities": 26291,
    "Ġlion": 9678,
    "Ġfortnight": 6201,
    "answ": 15888,
    "Ġretains": 20033,
    "stoke": 18025,
    "scra": 13027,
    "Ġbeef": 6829,
    "lant": 20949,
    "aset": 10834,
    "Ġhaw": 10254,
    "hark": 15369,
    "balance": 12011,
    "Ġcourt": 4167,
    "Ġdarkened": 16436,
    "Ġshut": 3941,
    "mediate": 16516,
    "morn": 20978,
    "Ġremotest": 10055,
    "ius": 5789,
    "Ġdecided": 5471,
    "desc": 1393,
    "would": 2353,
    "owing": 7601,
    "Ġgod": 1938,
    "Ġaffrighted": 13576,
    "tawny": 26406,
    "hideous": 25408,
    "investments": 25533,
    "Ġattorney": 18629,
    "Ġm": 274,
    "Ġnotwithstanding": 9717,
    "Ġplaned": 24058,
    "complained": 25840,
    "Ġplight": 14285,
    "fellow": 6792,
    "Ġdemanding": 16807,
    "Ġoccas": 2703,
    "Ġcamp": 9167,
    "Ġcrush": 9425,
    "Ġeels": 21623,
    "opius": 18509,
    "necessity": 13372,
    "representation": 20199,
    "ised": 1092,
    "runs": 25416,
    "olds": 9314,
    "ĠâĢĶ_": 3459,
    "ead": 2600,
    "eon": 8733,
    "Ġimmortality": 26327,
    "scent": 13026,
    "oro": 21398,
    "Ġradney": 6775,
    "humanity": 24840,
    "tranqu": 14709,
    "riages": 10245,
    "Ġenveloping": 19737,
    "Ġforesaw": 19128,
    "Ġsacrilege": 26230,
    "preser": 9762,
    "Ġhenceforth": 19645,
    "Ġelijah": 9103,
    "conscience": 14863,
    "devils": 20036,
    "Ġpeterson": 9486,
    "Ġstarvation": 19794,
    "consolatory": 25307,
    "Ġconsecrate": 26491,
    "handsome": 13180,
    "swinging": 25913,
    "Ġindicate": 23725,
    "Ġ82": 24458,
    "Ġexist": 9234,
    "height": 21208,
    "illum": 15873,
    "Ġcareless": 11121,
    "ensed": 10997,
    "_)": 9105,
    "avier": 2832,
    "commanders": 16991,
    "adjust": 21763,
    "Ġbildad": 3783,
    "achable": 14140,
    "ĠĠĠĠĠĠĠĠĠĠĠĠĠĠĠĠĠĠĠĠĠĠĠĠĠĠĠĠĠĠĠĠĠĠĠĠĠĠĠĠ": 4518,
    "Ġdrily": 23543,
    "Ġesc": 2255,
    "Ġryder": 10262,
    "appl": 9329,
    "blot": 20785,
    "eenth": 12465,
    "Ġwandered": 6929,
    "Ġsubsequently": 16164,
    "grees": 20888,
    "offered": 14521,
    "afer": 17484,
    "Ġinfant": 11964,
    "accusations": 23601,
    "Ġprofundity": 20455,
    "Ġsignals": 10588,
    "inhab": 10759,
    "assuming": 22314,
    "below": 12126,
    "alley": 23027,
    "swing": 15432,
    "och": 21003,
    "beholding": 16044,
    "Ġextravagant": 17281,
    "Ġbrandy": 11051,
    "considering": 12179,
    "Ġorphans": 20207,
    "Ġofficially": 24839,
    "gers": 8376,
    "Ġprogen": 14042,
    "Ġhemis": 21687,
    "Ġmiseries": 10349,
    "tles": 10732,
    "Ġsheeted": 19834,
    "bon": 13688,
    "Ġpsalmody": 20588,
    "Ġstacked": 21747,
    "icious": 7379,
    "Ġinternal": 2248,
    "vered": 4832,
    "Ġchestnut": 19675,
    "roof": 17956,
    "Ġcongen": 10875,
    "Ġprotect": 6338,
    "figures": 20125,
    "Ġbefell": 14013,
    "Ġviolin": 16432,
    "Ġdistances": 22507,
    "Ġxx": 5492,
    "trampled": 26335,
    "Ġprinciples": 10014,
    "Ġoverpowering": 15253,
    "Ġclass": 798,
    "Ġpsych": 10179,
    "ĠĠĠĠĠĠĠĠĠĠĠĠĠĠĠĠĠĠĠĠĠĠĠĠĠĠ": 13392,
    "Ġarmitage": 23583,
    "Ġ(âĢľ": 15999,
    "Ġaddu": 22109,
    "Ġmalacca": 24393,
    "Ġlard": 13950,
    "Ġmade": 1051,
    "Ġloves": 10917,
    "fav": 6648,
    "glit": 23853,
    "garden": 15028,
    "Ġalt": 18101,
    "Ġdiving": 12606,
    "Ġinterlacing": 22580,
    "Ġbethink": 12383,
    "include": 23591,
    "Ġdiddled": 22670,
    "ordingly": 18516,
    "sold": 15429,
    "rate": 2424,
    "Ġbells": 19604,
    "Ġlifts": 25359,
    "Ġnature": 2541,
    "Ġphys": 5653,
    "Ġconfused": 7964,
    "Ġeleven": 9393,
    "spersed": 22743,
    "croquet": 25748,
    "Ġenlarge": 21939,
    "Ġbetrayed": 9564,
    "Ġfootsteps": 16575,
    "garet": 9600,
    "Ġpredestinated": 18527,
    "glim": 19368,
    "Ġcampa": 17176,
    "comple": 7440,
    "iance": 5280,
    "Ġbanker": 8670,
    "Ġwindlass": 7255,
    "Ġlessened": 19089,
    "Ġeste": 6084,
    "repeat": 25155,
    "Ġrhone": 25231,
    "Ġcost": 2508,
    "disguise": 26307,
    "Ġplump": 14286,
    "Ġunaccount": 22031,
    "ler": 3492,
    "amplified": 26496,
    "traces": 24336,
    "pushed": 21025,
    "treasures": 26153,
    "Ġineffect": 13933,
    "lob": 22511,
    "neighbour": 7210,
    "Ġelasticity": 19561,
    "fifth": 20149,
    "Ġinspired": 2521,
    "inces": 13831,
    "decor": 23782,
    "aulding": 11341,
    "Ġsurprising": 14599,
    "solemn": 19820,
    "Ġmarching": 16698,
    "Ġbefore": 812,
    "Ġpawn": 12067,
    "Ġplaguy": 22610,
    "uses": 11765,
    "Ġgorgeous": 20470,
    "Ġmercenary": 17196,
    "Ġrevolutionized": 3368,
    "Ġhide": 4590,
    "etw": 407,
    "Ġintrude": 25991,
    "hailed": 17567,
    "jewel": 20349,
    "Ġprudential": 17922,
    "Ġinjuring": 24271,
    "browed": 25895,
    "Ġwanting": 6722,
    "onde": 21254,
    "Ġincalcul": 16067,
    "Ġpiazza": 26452,
    "net": 1199,
    "Ġchain": 1845,
    "Ġporch": 19683,
    "Ġsuggestive": 11299,
    "brimming": 23579,
    "slipping": 25529,
    "canoes": 16232,
    "Ġnoting": 18222,
    "ent": 305,
    "Ġagency": 11810,
    "compliment": 11366,
    "Ġorder": 1688,
    "progress": 11992,
    "Ġpast": 2097,
    "Ġbennett": 16329,
    "ittance": 12850,
    "Ġpleated": 16300,
    "Ġlandsman": 11352,
    "Ġimpotently": 22394,
    "Ġrome": 12160,
    "Ġdardanelles": 26445,
    "aft": 9586,
    "Ġprecisely": 6466,
    "Ġrevolved": 9987,
    "Ġconductor": 24010,
    "Ġmartha": 16264,
    "yea": 23090,
    "verty": 8454,
    "Ġnum": 1347,
    "Ġeffusions": 18535,
    "Ġmitig": 1333,
    "Ġhatch": 7848,
    "Ġmathematics": 12078,
    "byshire": 6173,
    "bbs": 23695,
    "Ġaustral": 12177,
    "Ġindebted": 8711,
    "Ġproductions": 22949,
    "Ġamply": 22486,
    "Ġrucastles": 18721,
    "Ė": 215,
    "Ġconnect": 799,
    "everywhere": 23701,
    "Ġclosing": 11778,
    "Ġmisled": 22759,
    "tide": 11535,
    "ateral": 19380,
    "til": 17673,
    "Ġcontemptible": 16955,
    "Ġactual": 3739,
    "Ġassured": 4375,
    "Ġblack": 2034,
    "Ġblind": 3718,
    "Ġrehearsed": 25972,
    "bod": 12441,
    "Ġrecital": 16142,
    "Ġexc": 1833,
    "accident": 11183,
    "ibly": 2995,
    "Ġnumbers": 2887,
    "Ġhammock": 5768,
    "ifferent": 4262,
    "onse": 21252,
    "expectation": 14859,
    "Ġsle": 2013,
    "z": 94,
    "Ġoffspring": 16149,
    "Ġnarwhales": 24903,
    "impenet": 18056,
    "Ġhope": 1790,
    "Ġglut": 18855,
    "arned": 21825,
    "Ġadmir": 12026,
    "Ġsickened": 16777,
    "Ġminister": 18754,
    "sol": 1791,
    "Ġclanking": 20614,
    "ibule": 13012,
    "Ġflow": 1241,
    "dreams": 12341,
    "rential": 22922,
    "Ġwicked": 5961,
    "inking": 6710,
    "Ġquickly": 4240,
    "Ġtou": 15469,
    "Ġcommunicates": 24547,
    "Ġsteed": 13046,
    "continual": 20646,
    "resides": 23671,
    "atory": 6126,
    "Ġdamned": 13136,
    "oric": 21399,
    "Ġkindly": 6077,
    "Ġtortoise": 16910,
    "Ġflickering": 23020,
    "Ġconjectured": 10000,
    "oting": 2744,
    "Ġverdant": 15004,
    "mal": 6794,
    "crossing": 19414,
    "Ġresp": 2496,
    "can": 1233,
    "ed": 293,
    "Ġaccumulates": 2889,
    "engagements": 25855,
    "Ġmarrying": 6178,
    "Ġscale": 1550,
    "Ġvehemently": 26040,
    "Ġinaccessible": 13937,
    "Ġrepeating": 11214,
    "Ġrejected": 12298,
    "Ġnervously": 19187,
    "warrior": 24797,
    "dreaded": 25141,
    "Ġbalance": 2020,
    "mystic": 25317,
    "Ġsparkling": 11358,
    "ģ": 228,
    "Ġbrooding": 18909,
    "sixteen": 24854,
    "Ġshetland": 22163,
    "Ġcontemporary": 16016,
    "Ġimpl": 7194,
    "Ġemble": 13974,
    "Ġdreaminess": 23943,
    "Ġgoring": 21607,
    "means": 9789,
    "ate": 421,
    "Ġexertions": 13414,
    "Ġchains": 8251,
    "Ġparagraph": 17457,
    "importance": 9992,
    "shabb": 18499,
    "fatal": 17089,
    "Ġbottomless": 12111,
    "Ġblanche": 18822,
    "Ġaccumul": 1411,
    "Ġdepressions": 25799,
    "iliary": 21730,
    "Ġtight": 8108,
    "Ġpedd": 17912,
    "Ġciv": 3309,
    "Ġtak": 15472,
    "Ġworldly": 16334,
    "Ġsupreme": 13611,
    "encountered": 20396,
    "Ġribs": 7102,
    "ulatory": 15772,
    "Ġbest": 1975,
    "ĠĠĠĠ": 459,
    "Ġlogic": 13082,
    "s": 87,
    "Ġmanipulation": 10661,
    "Ġbrigandish": 25488,
    "peter": 24300,
    "games": 20882,
    "Ġreus": 8826,
    "ceptible": 10958,
    "Ġvariation": 22668,
    "Ġca": 21342,
    "murder": 10567,
    "carry": 19529,
    "Ġsignifies": 19207,
    "trucks": 25420,
    "burned": 25082,
    "Ġprofundities": 20456,
    "distinct": 13340,
    "Ġfreshness": 23991,
    "Ġvowed": 14086,
    "my": 1313,
    "Ġnapoleon": 20560,
    "Ġoysters": 20582,
    "gainst": 25144,
    "cent": 8073,
    "Ġgives": 5018,
    "Ġhistories": 14689,
    "calling": 12454,
    "Ġcommodores": 25375,
    "Ġunrem": 18245,
    "Ġgoverness": 8605,
    "Ġinsurg": 23684,
    "Ġclothe": 4712,
    "Ġhighly": 4846,
    "foremost": 14255,
    "Ġbodies": 8032,
    "thyself": 19299,
    "Ġrecently": 11864,
    "scheme": 15258,
    "pots": 11516,
    "vation": 4745,
    "air": 1000,
    "iger": 8448,
    "Ġgratify": 19506,
    "Ġseeing": 2884,
    "Ġcane": 10929,
    "swam": 24257,
    "atever": 3079,
    "ingu": 2118,
    "atisf": 21266,
    "norm": 20987,
    "Ġminutely": 14563,
    "instrument": 15242,
    "Ġdistricts": 20266,
    "Ġhotel": 8654,
    "Ġweakened": 16825,
    "lux": 14229,
    "Ġswelled": 11089,
    "Ġintrospect": 15832,
    "Ġoperated": 14549,
    "Ġrogue": 22408,
    "worthy": 7732,
    "Ġevian": 24294,
    "Ġwrecks": 16820,
    "nant": 17611,
    "Ġmolasses": 25629,
    "Ġbrilliant": 11416,
    "Ġdesirous": 8945,
    "Ġpod": 15608,
    "ġ": 226,
    "Ġwintry": 17437,
    "Ġrecorded": 11295,
    "rope": 3185,
    "Ġbulwarks": 5592,
    "Ġgrandeur": 8631,
    "Ġpunctually": 17141,
    "Ġoust": 21327,
    "Ġspectrum": 4476,
    "Ġtwinkled": 14315,
    "pers": 4337,
    "face": 3679,
    "Ġdent": 13909,
    "completely": 12424,
    "Ġstalk": 12702,
    "Ġschedule": 2373,
    "Ġhigher": 1822,
    "Ġadored": 18294,
    "Ġworking": 5574,
    "Ġhelmet": 19690,
    "Ġhoot": 19078,
    "Ġthey": 576,
    "Ġsouth": 4912,
    "Ġruff": 14350,
    "peaceful": 20450,
    "Ġlanc": 19767,
    "Ġlad": 2365,
    "Ġadoption": 24951,
    "Ġdilig": 8350,
    "Ġpaid": 5015,
    "ented": 4349,
    "marry": 13328,
    "Ġusing": 727,
    "iop": 20921,
    "Ġvic": 5237,
    "Ġdevils": 7229,
    "Ġadvice": 4902,
    "Ġclapping": 14209,
    "âĢĶâĢľ": 2969,
    "Ġsevent": 18201,
    "Ġextinct": 14330,
    "Ġdizzy": 21435,
    "mary": 8752,
    "Ġho": 1934,
    "main": 8088,
    "Ġconfided": 19043,
    "Ġoily": 13867,
    "cold": 9592,
    "Ġe": 311,
    "pronounce": 25193,
    "augment": 18831,
    "Ġobservation": 6598,
    "Ġproposal": 10022,
    "Ġlandlady": 10424,
    "inese": 12879,
    "jet": 13745,
    "mill": 13757,
    "Ġsuccour": 20438,
    "pardon": 10068,
    "Ġchink": 15936,
    "Ġgam": 11627,
    "Ġwedge": 24935,
    "Ġargument": 7099,
    "greg": 6649,
    "Ġvary": 15809,
    "ope": 4122,
    "oked": 4308,
    "Ġunsolved": 22037,
    "myst": 9825,
    "standing": 5558,
    "Ġwished": 3731,
    "dread": 8732,
    "brated": 12031,
    "Ġscriptures": 26237,
    "q": 85,
    "bony": 15323,
    "Ġbusily": 9388,
    "Ġinnocence": 6477,
    "Ġbankers": 24304,
    "Ġfreshe": 13074,
    "er": 269,
    "Ġlavenza": 17973,
    "Ġaristotle": 25818,
    "thought": 3850,
    "inch": 10757,
    "Ġchord": 22249,
    "rucastle": 22192,
    "impressed": 12696,
    "Ġcloudless": 16671,
    "Ġhaunted": 10256,
    "piling": 15418,
    "Ġfret": 10808,
    "Ġbenjam": 22894,
    "Ġlined": 15654,
    "Ġflor": 8564,
    "Ġoffering": 3007,
    "Ġemb": 1244,
    "Ġcredit": 4820,
    "eaten": 20347,
    "Ġconvince": 14644,
    "lest": 5290,
    "Ġdarker": 13124,
    "Ġade": 22108,
    "crier": 20822,
    "Ġcomplaints": 12269,
    "ource": 5244,
    "Ġtokens": 1772,
    "Ġfuller": 11158,
    "Ġtested": 23202,
    "Ġobserving": 6080,
    "Ġanalogy": 25640,
    "Ġfirmest": 16667,
    "Ġhoisting": 9865,
    "Ġass": 1504,
    "expect": 4770,
    "Ġfriesland": 26444,
    "Ġwast": 21864,
    "tumbled": 21093,
    "Ġgib": 13968,
    "Ġsheaves": 22162,
    "Ġworms": 25217,
    "plendent": 21968,
    "Ġcaused": 5048,
    "composure": 24037,
    "Ġtiar": 21170,
    "Ġtossed": 5816,
    "bid": 5611,
    "ricane": 16282,
    "Ġwit": 3843,
    "uous": 4142,
    "fabulous": 20477,
    "Ġanswer": 2599,
    "Ġungracious": 18259,
    "Ġmagn": 1557,
    "ameter": 2918,
    "Ġpsychology": 11450,
    "Ġjabez": 11770,
    "Ġblameless": 19861,
    "Ġeternal": 5976,
    "conject": 8883,
    "breaking": 14767,
    "Ġequally": 5258,
    "Ġfloor": 4381,
    "copyright": 5278,
    "Ġdigesting": 19812,
    "hurried": 11355,
    "entering": 17979,
    "justified": 19005,
    "ier": 1137,
    "officer": 17055,
    "residual": 19264,
    "farmer": 25900,
    "recur": 4439,
    "vity": 7815,
    "entric": 11622,
    "Ġheathen": 10568,
    "Ġflourish": 17163,
    "Ġpalmy": 19502,
    "Ġ*/": 10376,
    "Ġairth": 23323,
    "Ġfolds": 12211,
    "Ġdefici": 22946,
    "Ġdisadvantages": 18559,
    "girl": 12322,
    "attending": 18918,
    "ĠĠĠĠĠĠĠĠĠĠĠĠĠĠĠĠĠ": 22952,
    "exclaimed": 11794,
    "unaffected": 21887,
    "Ġdisclose": 16160,
    "Ġsitt": 21220,
    "ave": 978,
    "satisf": 5781,
    "thoroughly": 26510,
    "Ġapologize": 15132,
    "hid": 13737,
    "jury": 15377,
    "furniture": 20245,
    "Ġobjection": 6586,
    "irra": 15789,
    "Ġunparalleled": 15857,
    "Ġcontemplation": 11359,
    "wonders": 17146,
    "Ġbreakers": 12059,
    "loat": 8890,
    "Ġdare": 3546,
    "Ġborrowed": 17232,
    "stating": 21650,
    "Ġcontradicted": 20214,
    "Ġeasterly": 25963,
    "icism": 13959,
    "Ġreturning": 5326,
    "Ġgreat": 897,
    "Ġfalsely": 20585,
    "Ġreadiness": 13055,
    "there": 1424,
    "Ġfaced": 10810,
    "Ġdrowsy": 26446,
    "Ġconstrued": 26302,
    "Ġfile": 13906,
    "Ġimpressed": 8199,
    "Ġtunnel": 14933,
    "Ġle": 333,
    "Ġestimable": 23875,
    "Ġtranspointed": 22444,
    "Ġyork": 11668,
    "rat": 8759,
    "Ġglued": 20592,
    "Ġimmemorial": 10513,
    "said": 4101,
    "asting": 12810,
    "Ġapproach": 853,
    "ĠĠĠĠĠĠĠĠĠĠĠĠĠĠĠĠĠĠĠĠĠĠĠĠĠĠĠĠĠĠĠĠĠĠĠĠĠĠĠĠĠĠĠ": 12159,
    "ô": 181,
    "sim": 6510,
    "Ġbert": 4583,
    "Ġmichigan": 26428,
    "Ġplunder": 22608,
    "t": 88,
    "Ġpropriet": 9553,
    "purpose": 10047,
    "Ġcaptiv": 16260,
    "Ġpowder": 11277,
    "Ġphilosophy": 7104,
    "during": 6787,
    "Ġcontented": 9759,
    "Ġrepel": 23362,
    "Ġcities": 17829,
    "olently": 15761,
    "Ġnobly": 22245,
    "Ġreciproc": 20624,
    "ske": 13785,
    "Ġspecialized": 3920,
    "Ġelevated": 7317,
    "Ġdemo": 10881,
    "Ġsched": 2339,
    "Ġaverages": 2401,
    "Ġconsummate": 25311,
    "Ġinvolves": 1070,
    "Ġplayfully": 19241,
    "contempl": 13193,
    "Ġtimid": 6346,
    "ching": 5156,
    "L": 48,
    "Ġfanatic": 23395,
    "alvan": 21507,
    "Ġlord": 2965,
    "Ġmurderer": 4980,
    "Ġfisher": 3223,
    "Ġwrithing": 11950,
    "ird": 2429,
    "aced": 2410,
    "Ġgover": 2463,
    "ested": 3479,
    "wall": 10139,
    "Ġinward": 11610,
    "Ġbrace": 11212,
    "Ġdines": 21426,
    "careful": 14869,
    "gpt": 5356,
    "Ġeyford": 10644,
    "Ġcott": 3711,
    "crimson": 24088,
    "Ġpleasure": 2695,
    "Ġutterance": 14766,
    "Ġannesley": 19580,
    "Ġwriter": 11949,
    "Ġshillings": 15839,
    "Ġsalutation": 12401,
    "Ġtuples": 13481,
    "dragged": 16610,
    "onies": 6806,
    "singing": 24363,
    "Ġfervently": 25878,
    "Ġmanipulated": 25179,
    "Ġindulging": 16906,
    "Ġeverywhere": 9799,
    "Ġtoe": 13939,
    "hoisted": 19284,
    "ify": 1501,
    "Ġcollecting": 12290,
    "seaman": 25458,
    "atus": 21263,
    "iluvian": 18063,
    "Ġalgorithm": 789,
    "disagreeable": 11165,
    "ounded": 9751,
    "arming": 8954,
    "Ġforemast": 12010,
    "Ġplough": 18610,
    "Ġoblivious": 26033,
    "Ġtarn": 21161,
    "iousness": 4900,
    "sacred": 17030,
    "pleased": 8857,
    "Ġquest": 2001,
    "Ġarrives": 23609,
    "Ġpuzzle": 11307,
    "âĢĶâĢľ_": 13206,
    "Ġwidower": 24238,
    "shoe": 14970,
    ");": 7329,
    "Ġlivid": 14992,
    "Ġredu": 1352,
    "Ġprincipally": 11311,
    "Ġview": 2762,
    "Ġgraves": 11712,
    "Ġhor": 1663,
    "ispens": 8336,
    "Ġunwell": 22021,
    "Ġkind": 1786,
    "Ġplentiful": 12916,
    "ashions": 16421,
    "olidity": 18135,
    "wretchedness": 17255,
    "Ġoverhear": 15974,
    "Ġhus": 3092,
    "Ġnieces": 8434,
    "Ġmethod": 1474,
    "uncont": 15778,
    "Ġcontemptuously": 19836,
    "Ġremembrance": 8318,
    "Ġromantic": 8031,
    "mrs": 3746,
    "twinkle": 23706,
    "Ġape": 21199,
    "buff": 15322,
    "staking": 21651,
    "Ġgrowl": 16540,
    "Ġdescends": 14290,
    "cook": 8270,
    "indispensable": 14212,
    "Ġchurch": 4711,
    "abetical": 15747,
    "Ġbull": 7839,
    "istan": 22112,
    "č": 206,
    "congratulations": 20282,
    "Ġjog": 18405,
    "stocks": 23824,
    "D": 40,
    "umbent": 12094,
    "Ġempire": 11147,
    "Ġpartiality": 9401,
    "haps": 1674,
    "Ġadvertising": 25390,
    "Ġvillanous": 24057,
    "Ġairy": 23322,
    "Ġjeer": 24124,
    "Ġwonderful": 4564,
    "Ġrambled": 20171,
    "partly": 14604,
    "oper": 7346,
    "organ": 15578,
    "floated": 24644,
    "Ġpads": 21477,
    "sion": 8094,
    "Ġechoed": 20427,
    "Ġslighter": 18942,
    "Ġcounterpane": 11345,
    "threshold": 21991,
    "Ġalco": 21786,
    "otently": 21804,
    "Ġwearily": 18180,
    "leap": 21370,
    "oology": 21008,
    "estim": 14172,
    "four": 6114,
    "wishing": 21131,
    "Ġbrilliancy": 20110,
    "giv": 13725,
    "Ġperpet": 7644,
    "ks": 3146,
    "say": 3981,
    "Ġmission": 13011,
    "Ġcru": 2825,
    "Ġfearlessness": 19163,
    "hateful": 20911,
    "Ġpurp": 2395,
    "Ġupwards": 7633,
    "Ġtroubling": 26548,
    "Ġsudden": 1999,
    "Ġswim": 3822,
    "causing": 25519,
    "benefact": 24642,
    "§": 105,
    "accountable": 7110,
    "odious": 21819,
    "Ġwalker": 23315,
    "Ġclad": 12848,
    "disappointed": 25192,
    "Ġadvantages": 9814,
    "deploy": 22146,
    "metallic": 19882,
    "regulated": 23471,
    "Ġinsincere": 26601,
    "antled": 18287,
    "Ġimpo": 3443,
    "Ġilliter": 23472,
    "Ġcrucial": 9896,
    "jee": 17581,
    "Ġwardrobe": 17228,
    "bad": 12440,
    "stay": 9684,
    "lives": 12490,
    "Ġspray": 7894,
    "Ġprincip": 5600,
    "allah": 5839,
    "Ġexagger": 12724,
    "Ġelevating": 19732,
    "readily": 19365,
    "Ġflows": 13015,
    "Ġmonuments": 22982,
    "cre": 4250,
    "whales": 5187,
    "Ġimmovable": 15896,
    "christian": 17235,
    "Ġcalmly": 7733,
    "Ġoutbreak": 22321,
    "Ġconfess": 3767,
    "Ġunduly": 25995,
    "Ġproduces": 2092,
    "Ġroused": 7622,
    "Ġbreathing": 9448,
    "Ġdetested": 14177,
    "Ġconcluding": 9860,
    "Ġforthwith": 16620,
    "Ġcommun": 1706,
    "Ġfeeds": 16437,
    "haustible": 16893,
    "inions": 8403,
    "Ġdexter": 9704,
    "drunk": 24660,
    "grace": 5847,
    "quin": 21857,
    "Ġunob": 22019,
    "round": 3369,
    "Ġtame": 17724,
    "Ġsuper": 2154,
    "Ġtypewriter": 19099,
    "Ġtriumph": 5143,
    "vanity": 24977,
    "mme": 22504,
    "Ġpropont": 16353,
    "Ġchristendom": 16696,
    "Ġoverlapping": 26240,
    "lays": 14925,
    "Ġintim": 6837,
    "Ġdrifted": 14627,
    "Ġpaunch": 23751,
    "scot": 14421,
    "sculpt": 16248,
    "Ġrevered": 23736,
    "Ġberries": 13411,
    "together": 3557,
    "Ġloitering": 22120,
    "drawn": 9916,
    "telesc": 22823,
    "circumstantial": 24444,
    "Ġillustrations": 17109,
    "Ġsubsequent": 7658,
    "Ġbawling": 25946,
    "comed": 8546,
    "Ġenrolled": 21941,
    "walking": 9985,
    "Ġgirth": 13140,
    "yes": 984,
    "Ġhollowly": 24526,
    "many": 5251,
    "talked": 14988,
    "Ġtrying": 4840,
    "chants": 21695,
    "laying": 19775,
    "possess": 5984,
    "supposed": 13320,
    "opposition": 24820,
    "ission": 6457,
    "Ġvarying": 15812,
    "uther": 8821,
    "Ġmissionary": 25697,
    "Ġtang": 13817,
    "Ġeaster": 15679,
    "Ġharbor": 10030,
    "Ġraging": 14309,
    "Ġmorocc": 22977,
    "Ġdenny": 9004,
    "Ġ36": 14770,
    "Ġunreserved": 19400,
    "Ġtrait": 23077,
    "carrying": 16714,
    "Ġrealising": 18983,
    "miss": 3174,
    "Ġfood": 5080,
    "Ġquestioned": 14622,
    "stool": 23823,
    "Ġselling": 21227,
    "Ġhob": 12634,
    "unw": 14060,
    "Ġnewfoundland": 26571,
    "sadly": 25527,
    "ivation": 3111,
    "lock": 1470,
    "Ġdispatched": 23884,
    "discover": 10542,
    "obliv": 23100,
    "Ġworshipped": 25692,
    "washed": 13051,
    "reclining": 20577,
    "intellect": 18824,
    "Ġexpectation": 6903,
    "pl": 403,
    "angered": 16183,
    "joke": 20932,
    "Ġresponsible": 9890,
    "Ġellenborough": 26155,
    "Ġscroll": 14194,
    "Ġpraises": 16732,
    "Ġ199": 3009,
    "Ġcyp": 21348,
    "Ġsignific": 3830,
    "dÃ¦mon": 17529,
    "Ġstim": 18066,
    "atered": 22011,
    "Ġmortally": 23920,
    "Ġplank": 7034,
    "duchess": 18464,
    "Ġbowditch": 19324,
    "impenetrable": 26198,
    "ets": 1162,
    "Ġsigns": 2444,
    "imper": 14000,
    "rod": 10833,
    "you": 1003,
    "Ġphilosoph": 19654,
    "Ġconjecture": 9535,
    "erate": 7149,
    "Ġsolving": 2484,
    "Ġezek": 18012,
    "ution": 4350,
    "exped": 16526,
    "Ġlie": 4409,
    "Ġhumiliating": 22887,
    "chapter": 1402,
    "spending": 18693,
    "Ġespecial": 26412,
    "latitudes": 17199,
    "arious": 10320,
    "Ġfatig": 6757,
    "roc": 9677,
    "Ġinsolence": 20256,
    "Ġfestival": 25446,
    "Ġsepulchral": 25893,
    "Ġcocoa": 25483,
    "Ġtech": 1665,
    "attracted": 13056,
    "Ġdisappo": 4507,
    "Ġdependencies": 2315,
    "Ġpitied": 14694,
    "Ġloads": 22118,
    "endeavour": 17032,
    "Ġfritters": 23259,
    "Ġsignal": 5945,
    "Ġnewcomer": 26041,
    "Ġfirmly": 8014,
    "Ġglac": 9349,
    "Ġlean": 7605,
    "Ġflung": 8565,
    "endurable": 22225,
    "Ġcurse": 7667,
    "child": 5538,
    "cano": 18841,
    "iber": 6506,
    "ersburgh": 18210,
    "Ġemboldened": 22972,
    "Ġdescribes": 3122,
    "ti": 8390,
    "Ġharem": 9712,
    "Ġponder": 6818,
    "Ġsounded": 8595,
    "nx": 17609,
    "Ġbarbarously": 24816,
    "profound": 16429,
    "uncomfortable": 18163,
    "Ġcontinually": 5042,
    "token": 21085,
    "Ġoctavo": 15167,
    "oided": 11511,
    "progression": 20385,
    "ech": 4392,
    "acting": 22633,
    "Ġdebar": 24274,
    "Ġsuddenness": 23385,
    "Ġwallow": 19469,
    "atlantic": 15527,
    "Ġunnear": 22032,
    "passage": 11263,
    "Ġsomewhat": 4898,
    "Ġcanes": 22169,
    "tures": 21072,
    "Ġseveral": 2673,
    "Ġhearse": 10422,
    "Ġseam": 3908,
    "Ġ21": 11200,
    "Ġaccusation": 22385,
    "sect": 8153,
    "Ġascend": 9963,
    "Ġdeduced": 12212,
    "deprived": 19900,
    "Ġskipper": 22802,
    "Ġjealously": 24125,
    "tre": 8764,
    "advantage": 8662,
    "Ġcrowder": 19459,
    "Ġfurther": 1058,
    "engagement": 14462,
    "theless": 4260,
    "oke": 1864,
    "Ġthin": 4348,
    "march": 13758,
    "jumping": 20248,
    "anse": 12580,
    "Ġfrequented": 16588,
    "Ġsides": 4580,
    "Ġpasseng": 12976,
    "Ġobscured": 15013,
    "Ġtanning": 17731,
    "amore": 21853,
    "Ġtyph": 10011,
    "Ġelab": 22651,
    "hope": 5990,
    "Ġcomparing": 14267,
    "Ġpeels": 22694,
    "Ġrobes": 16249,
    "à": 161,
    "Ġface": 1724,
    "batch": 1983,
    "tempt": 21082,
    "profess": 10637,
    "don": 3545,
    "ourable": 4967,
    "idge": 14017,
    "islands": 21379,
    "Ġstatistics": 1685,
    "cery": 20810,
    "finger": 10096,
    "spikes": 10344,
    "crown": 13702,
    "Ġdesertion": 24786,
    "Ġunerring": 15851,
    "Ġspin": 7629,
    "latitude": 25260,
    "oration": 2211,
    "ificant": 22210,
    "Ġdanger": 3521,
    "Ġprim": 8244,
    "Ġinformation": 1048,
    "smallest": 23915,
    "Ġimpertin": 6932,
    "pleasanter": 24050,
    "cry": 12450,
    "Ġcubic": 20091,
    "Ġundiscovered": 18253,
    "pair": 21014,
    "Ġbrigs": 20325,
    "Ġtinkling": 25213,
    "bulk": 19926,
    "Ġchry": 22250,
    "Ġbridge": 8349,
    "Ġwan": 15531,
    "emed": 3381,
    "Ġmumbling": 11577,
    "Ġashore": 5352,
    "orated": 12596,
    "anke": 15565,
    "consequ": 18507,
    "msman": 9273,
    "Ġash": 4834,
    "ructure": 760,
    "Ġthreat": 5154,
    "Ġcatching": 9481,
    "hunter": 10558,
    "station": 10846,
    "Ġweighted": 2089,
    "Ā": 193,
    "Ġblanched": 26284,
    "between": 5071,
    "Ġproflig": 23569,
    "Ġmonica": 22983,
    "useless": 14596,
    "sell": 13784,
    "Ġslates": 11109,
    "Ġserpent": 6738,
    "Ġundet": 16703,
    "Ġlands": 6595,
    "Ġdumb": 7843,
    "Ġattentive": 9036,
    "thur": 7187,
    "Ġtop": 2473,
    "Ġende": 21936,
    "Ġdearly": 10404,
    "Ġheavens": 5050,
    "Ġshapes": 14112,
    "rev": 17758,
    "ĠĠĠĠĠĠĠĠĠĠĠĠĠĠĠĠĠĠĠĠĠĠĠĠĠĠĠĠĠĠĠĠĠĠĠĠĠĠĠĠĠĠĠĠ": 12158,
    "Ġbush": 23340,
    "cousins": 20121,
    "metic": 14987,
    "Ġgrated": 22807,
    "26": 10076,
    "multiple": 15111,
    "Ġregularity": 22782,
    "Ġvillas": 24056,
    "put": 414,
    "whale": 2141,
    "Ġnine": 5369,
    "Ġinv": 2227,
    "Ġkicking": 16903,
    "Ġpossessed": 5195,
    "articulate": 17401,
    "Ġpressure": 13426,
    "Ġdifficulty": 5770,
    "Ġexists": 14044,
    "Ġmysterious": 7526,
    "Ġportcullis": 26605,
    "Ġcrawled": 17045,
    "Ġwharves": 13509,
    "poling": 12224,
    "Ġshroud": 6483,
    "car": 4210,
    "vapor": 25756,
    "Ġhabitations": 24788,
    "destroyed": 15264,
    "Ġpenalty": 1842,
    "glasses": 11216,
    "Ġoutside": 5554,
    "soo": 18689,
    "Ġamb": 9295,
    "Ġnook": 15932,
    "Ġregions": 10326,
    "Ġdaniel": 15115,
    "Ġur": 5540,
    "ripp": 6404,
    "hunting": 24385,
    "Ġlieu": 19567,
    "mountains": 15184,
    "Ġcategorization": 12141,
    "Ġincorpor": 13169,
    "ten": 1558,
    "Ġhook": 6453,
    "Ġattack": 5478,
    "Ġshattered": 7884,
    "Ġgovernor": 16492,
    "Ġhealed": 21686,
    "unfortunate": 15781,
    "Ġeaten": 14848,
    "Ġard": 5164,
    "Ġfoundations": 11075,
    "retrospect": 23145,
    "towing": 17691,
    "Ġdemonstrate": 24997,
    "aggo": 5097,
    "Ġarri": 2555,
    "Ġmoles": 22438,
    "exposure": 19259,
    "invari": 21187,
    "Ġhing": 11607,
    "mult": 8751,
    "Ġcordiality": 24395,
    "Ġbolivia": 24668,
    "iquet": 17577,
    "Ġlick": 21553,
    "Ġcoins": 11823,
    "explaining": 23148,
    "Ġcheerless": 16695,
    "Ġcaptains": 7456,
    "Ġgaiters": 20464,
    "Ġhypothesis": 14787,
    "Ġheels": 10852,
    "Ġ55": 24319,
    "ufact": 10735,
    "respond": 12549,
    "rank": 21044,
    "Ġoffensive": 18695,
    "attentions": 13578,
    "swallowed": 14856,
    "hs": 8378,
    "usations": 15951,
    "springs": 24912,
    "establish": 17396,
    "Ġprocopius": 19734,
    "Ġhulls": 13929,
    "mmed": 7914,
    "Ġswashing": 23059,
    "Ġbroken": 3449,
    "Ġbeads": 18086,
    "Ġspurn": 18310,
    "Ġplow": 21462,
    "Ġimpropriety": 17398,
    "rison": 13782,
    "Ġlowers": 23245,
    "Ġrecklessness": 24744,
    "Ġpoured": 8805,
    "eager": 12464,
    "sterns": 23371,
    "Ġtener": 21166,
    "Ġsnatching": 10474,
    "lying": 7174,
    "Ġtidy": 17094,
    "Ġcolleg": 22859,
    "Ġcontest": 18474,
    "Ġbulge": 23860,
    "ourably": 14380,
    "pervised": 1607,
    "Ġobedience": 11415,
    "Ġclues": 18429,
    "moment": 3580,
    "Ġscud": 14193,
    "grief": 13734,
    "Ġflies": 13031,
    "Ġkuiperai": 10937,
    "helm": 12176,
    "oup": 2014,
    "endering": 21287,
    "chan": 1141,
    "Ġslouched": 13064,
    "neighbourhood": 10028,
    "ecess": 17534,
    "Ġdefiance": 11070,
    "Ġbarmaid": 19337,
    "Ġoarsman": 8641,
    "Ġcomo": 21846,
    "ittarius": 22381,
    "Ġbreath": 4792,
    "Ġadventure": 5981,
    "Ġinverted": 12642,
    "Ġrepairs": 19085,
    "perceived": 8862,
    "Ġlogs": 16350,
    "Ġpeddler": 26181,
    "Ġdwell": 5813,
    "Ġmons": 10159,
    "Ġencourage": 10383,
    "heavenly": 20048,
    "cig": 17506,
    "Ġvexation": 10589,
    "Ġbravely": 23842,
    "ick": 836,
    "Ġcretan": 22735,
    "Ġinterference": 8897,
    "either": 6791,
    "Ġgladstone": 23872,
    "hour": 7339,
    "courageous": 26128,
    "Ġsecondary": 23336,
    "Ġcome": 1243,
    "Ġexotic": 21835,
    "mounting": 25208,
    "Ġmoody": 8201,
    "ö": 183,
    "since": 5895,
    "Ġodious": 12155,
    "harb": 9126,
    "Ġtry": 3134,
    "Ġ108": 19687,
    "Ġremonstrance": 20626,
    "dataset": 23244,
    "Ġfurthermore": 1171,
    "dashing": 20838,
    "Ġhues": 21492,
    "public": 17648,
    "Ġbruised": 25773,
    "Ġoverhanging": 22358,
    "writ": 16555,
    "Ġcadiz": 17328,
    "embers": 21933,
    "bestowed": 12230,
    "ributed": 8215,
    "ering": 1267,
    "Ġanchored": 17443,
    "owners": 16091,
    "Ġspite": 4153,
    "Ġperhaps": 1913,
    "Ġcontemplate": 19894,
    "Ġ85": 24460,
    "fork": 20859,
    "wered": 2690,
    "Ġgleams": 17313,
    "Ġpuzzling": 14901,
    "duodecimo": 16006,
    "reckoning": 25271,
    "Ġunderwent": 23241,
    "Ġpropensity": 18998,
    "Ġabased": 22272,
    "Ġtempest": 8214,
    "Ġsuspend": 14610,
    "Ġunf": 4087,
    "racts": 14357,
    "utions": 1894,
    "Ġspark": 6690,
    "bearer": 18519,
    "Ġbeliefs": 24583,
    "Ġprow": 6685,
    "Ġswish": 23056,
    "Ġspoils": 24805,
    "ribe": 1225,
    "creature": 5347,
    "Ġtract": 21168,
    "Ġstore": 8455,
    "uzza": 11272,
    "Ġbeen": 626,
    "Ġmeekly": 26492,
    "irements": 22216,
    "î": 175,
    "Ġcoldness": 23761,
    "Ġamphitheat": 26254,
    "nights": 16450,
    "nial": 20986,
    "ang": 442,
    "reserved": 13846,
    "Ġrecommended": 8671,
    "furthest": 19844,
    "Ġsamples": 2961,
    "Ġoffended": 7041,
    "shaw": 6863,
    "Ġguard": 6179,
    "Ġcarriage": 3949,
    "Ġnasty": 17446,
    "Ġawfulness": 23589,
    "Ġungenerous": 18267,
    "grammar": 6435,
    "Ġforbid": 7865,
    "Ġdisdain": 8360,
    "Ġgeneric": 18449,
    "Ġsustained": 13486,
    "Ġpromoting": 3161,
    "discernible": 20553,
    "Ġreporting": 24658,
    "Ġmister": 22758,
    "Ġwhile": 606,
    "Ġsubmission": 22792,
    "iah": 14420,
    "Ġdeterm": 1270,
    "Ġbolt": 11336,
    "Ġoutrageous": 20613,
    "Ġlegible": 23537,
    "Ġlying": 4827,
    "ason": 1284,
    "Ġconfidently": 24958,
    "Ġsegment": 12762,
    "Ġrejo": 5916,
    "Ġimprinted": 22393,
    "hound": 20897,
    "Ġeag": 2966,
    "aches": 6571,
    "vinegar": 25421,
    "Ġpleasantness": 24139,
    "Ġepic": 15032,
    "thole": 21990,
    "Ġmarch": 4080,
    "Ġchann": 15939,
    "Ġdost": 7636,
    "!_âĢĿ": 11378,
    "í": 174,
    "Ġfoundering": 21422,
    "Ġhumorous": 10363,
    "Ġdrawback": 23993,
    "Ġancestors": 25643,
    "Ġregression": 4412,
    "Ġobtaining": 16136,
    "Ġretreated": 13437,
    "tor": 15435,
    "separated": 20162,
    "Ġmarshalled": 25316,
    "Ġdiffers": 23783,
    "ahead": 12438,
    "Ġmanoir": 22335,
    "aster": 1872,
    "Ġwatch": 2743,
    "Ġhenry": 5197,
    "Ġvocation": 10528,
    "Ġquadruped": 20618,
    "Ġtumbling": 13828,
    "Ġmention": 2986,
    "pate": 21012,
    "Ġspare": 5102,
    "consent": 18504,
    "Ġsped": 22129,
    "Ġfurnishes": 19444,
    "Ġresented": 22547,
    "ilight": 12698,
    "alk": 1154,
    "athy": 14326,
    ",âĢĻâĢĶ": 23531,
    "atmosphere": 21267,
    "Ġplutarch": 22609,
    "arboard": 7265,
    "trem": 17683,
    "Ġfixedly": 19250,
    "Ġglowed": 24865,
    "perfect": 7634,
    "eprints": 12796,
    "Ġant": 4346,
    "Ġyelling": 18099,
    "Ġallowed": 4056,
    "Ġremainder": 9861,
    "Ġspiced": 22137,
    "unciation": 25983,
    "Ġunpleasant": 7190,
    "Ġcottages": 14730,
    "complet": 11385,
    "Ġinconveniences": 24942,
    "Ġlust": 9200,
    "Ġdined": 9179,
    "paid": 15417,
    "consc": 4842,
    "Ġgrass": 5177,
    "insisted": 23070,
    "Ġenemy": 5605,
    "trial": 20353,
    "Ġunwelcome": 12785,
    "Ġbri": 21381,
    "Ġmun": 12567,
    "Ġfeelingly": 23000,
    "sticks": 25966,
    "Ġwooing": 19437,
    "Ġhooded": 12410,
    "Ġrally": 21972,
    "Ġscarlet": 13228,
    "outside": 12809,
    "raid": 3281,
    "Ġaffectionate": 5585,
    "Ġnewfound": 22935,
    "Ġhint": 5016,
    "connected": 1307,
    "developed": 15268,
    "Ġsubtile": 20383,
    "Ġinser": 6819,
    "Ġhearses": 20063,
    "Ġdamning": 19141,
    "ray": 2439,
    "ben": 4927,
    "Ġpine": 8801,
    "Ġgrieved": 8298,
    "Ġconcil": 23326,
    "Ġsharpen": 13573,
    "Ġrisk": 8039,
    "blasted": 20192,
    "wic": 21123,
    "Ġwealth": 7620,
    "linearity": 1652,
    "Ġgaining": 9495,
    "anatory": 21366,
    "Ġreconciled": 13591,
    "Ġintensely": 17019,
    "Ġdistribut": 841,
    "Ġflexible": 23777,
    "ascertaining": 26462,
    "-------": 20392,
    "utted": 15665,
    "eskye": 21450,
    "Ġhyp": 3873,
    "calculating": 25690,
    "Ġwedding": 4817,
    "Ġproblems": 2848,
    "Ġequin": 14497,
    "Ġproved": 4885,
    "actually": 14300,
    "Ġshriek": 6639,
    "flex": 24844,
    "Ġskin": 5039,
    "Ġcandle": 8292,
    "Ġconcerned": 5332,
    "wound": 21129,
    "particip": 23618,
    "Ġcurbstone": 26044,
    "Ġrestrain": 8967,
    "Ġabsolute": 6765,
    "jabez": 20935,
    "edily": 17946,
    "Ġdevouring": 11862,
    "Ġwages": 13857,
    "Ġextrem": 2477,
    "Ġresent": 6049,
    "ceived": 1964,
    "descried": 11933,
    "Ġnarrations": 24352,
    "elevating": 20409,
    "Ġchival": 14185,
    "Ġsoo": 15863,
    "Ġbench": 7237,
    "Ġvane": 22879,
    "approb": 11044,
    "icy": 6141,
    "inative": 15487,
    "rim": 7138,
    "Ġaside": 5234,
    "voyages": 24856,
    "Ġcompose": 12907,
    "Ġinitialized": 3947,
    "Ġsect": 17753,
    "clopÃ¦": 13061,
    "likewise": 13110,
    "ourse": 8873,
    "ouraged": 22863,
    "place": 4151,
    "events": 12321,
    "comfortableness": 24525,
    "Ġactually": 5389,
    "Ġmisty": 16542,
    "Ġwishes": 4796,
    "omited": 21644,
    "event": 8077,
    "Ġrightly": 13070,
    "william": 4563,
    "âĢĶâĢĺ_": 24832,
    "contain": 18503,
    "Ġunivers": 2124,
    "Ġinform": 996,
    "Ġsleeves": 10663,
    "Ġweariness": 19797,
    "Ġcaut": 6521,
    "Ġconfessed": 8009,
    "'s": 2472,
    "Ġgro": 4399,
    "Ġvehem": 22893,
    "Ġvaliant": 9802,
    "Ġthickening": 24027,
    "Ġpumping": 25644,
    "cement": 2773,
    "Ġdespise": 14668,
    "lemag": 21375,
    "Ġhabits": 6925,
    "Ġscrut": 15949,
    "Ġsaratoga": 26425,
    "musical": 25341,
    "Ġfring": 11129,
    "months": 9074,
    "os": 525,
    "Ġmarsh": 9824,
    "Ġloved": 4600,
    "Ġcrisp": 12007,
    "ront": 15421,
    "higher": 20410,
    "Ġnations": 8814,
    "Ġunh": 9256,
    "Ġinclemency": 22559,
    "Ġprotection": 9465,
    "mockery": 24378,
    "Ġslides": 18941,
    "Ġingenuity": 17166,
    "pivot": 21033,
    "Ġtraverse": 18894,
    "Ġbreaks": 13187,
    "Ġmoods": 14954,
    "Ġmaintain": 856,
    "ĠÂ£": 5006,
    "Ġfatally": 19397,
    "Ġslack": 8958,
    "Ġwhitewashed": 14472,
    "Ġscratching": 20372,
    "tis": 4102,
    "Ġcontention": 22430,
    "ding": 3027,
    "Ġinferior": 8366,
    "Ġfollies": 16259,
    "reduc": 5460,
    "Ġno": 510,
    "result": 12048,
    "ancho": 4938,
    "Ġhaws": 21955,
    "Ġ68": 24370,
    "Ġtoy": 15638,
    "ofs": 11834,
    "Ġincorporated": 25710,
    "Ġdrenched": 12608,
    "Ġlaughing": 5339,
    "five": 6357,
    "Ġloosened": 26003,
    "Ġunderstanding": 1861,
    "Ġsocks": 14134,
    "Ġsoftmax": 1691,
    "Ġtuning": 3073,
    "Ġresolution": 5500,
    "kn": 5791,
    "Ġminiatures": 20324,
    "st": 316,
    "Ġfoam": 6890,
    "Ġdespair": 4006,
    "beauty": 20107,
    "Ġmace": 21312,
    "Ġirre": 7467,
    "Ġrambles": 17187,
    "Ġmerrily": 23734,
    "summer": 11998,
    "Ġhead": 1125,
    "lengths": 24847,
    "ied": 941,
    "Ġedition": 16458,
    "olen": 9703,
    "fordshire": 4677,
    "Ġthreats": 13381,
    "Ó": 148,
    "ange": 1017,
    "Ġcircum": 8258,
    "fen": 20852,
    "Ġpersu": 3564,
    "Ġsignification": 19206,
    "mur": 5428,
    "Ġmanhood": 22330,
    "inav": 15486,
    "Ġfettered": 24569,
    "Ġapology": 8328,
    "Ġcurrent": 13018,
    "Ġcomplimented": 14907,
    "Ġprojected": 16873,
    "wished": 13808,
    "Ġmon": 1252,
    "maj": 18807,
    "Ġhastened": 9007,
    "Ġfaster": 3198,
    "Ġcaptivating": 26050,
    "iries": 18172,
    "thinness": 25811,
    "Ġcontrols": 1733,
    "Ġapprehens": 5682,
    "Ġwretchedness": 9029,
    "Ġconstant": 6310,
    "Ġeloped": 22654,
    "Ġgritted": 22808,
    "Ġforty": 5719,
    "visitor": 15060,
    "Ġdelirium": 10407,
    "rief": 6203,
    "quarrel": 20018,
    "colonel": 8285,
    "abases": 3006,
    "Ġrelating": 2705,
    "iliating": 12700,
    "ming": 3602,
    "itory": 12572,
    "Ġcomforted": 19394,
    "resemblance": 25934,
    "nine": 13764,
    "Ġheadlands": 22901,
    "Ġdisabled": 18562,
    "Ġsim": 735,
    "Ġindustry": 18839,
    "Ġvalleys": 14922,
    "Ġcompany": 3723,
    "base": 20779,
    "Ġnewton": 3534,
    "Ġbounce": 21396,
    ",âĢĶ": 3170,
    "Ġgladness": 16593,
    "Ġaspect": 3096,
    "consum": 12875,
    "Ġ1883": 23901,
    "irection": 2390,
    "Ġabundant": 17157,
    "Ġrever": 6537,
    "Ġfut": 15579,
    "apering": 8041,
    "sively": 13789,
    "ryphon": 4161,
    "ce": 313,
    "Ġwilful": 10537,
    "instead": 14816,
    "comp": 3818,
    "written": 7995,
    "ition": 647,
    "Ġobject": 1394,
    "Ġspitzbergen": 15291,
    "Ġterminating": 23515,
    "Ġsymb": 2592,
    "Ġcore": 13881,
    "Ġmout": 17800,
    "libr": 22926,
    "redit": 3878,
    "tot": 10730,
    "shine": 9292,
    "Ġthr": 5709,
    "pil": 15411,
    "Ġendeavors": 16548,
    "Ġwager": 17794,
    "Ġuninjured": 22060,
    "Ġbeneath": 3239,
    "Ġrejoiced": 8687,
    "Ġhorrors": 10482,
    "blame": 14797,
    "Ġdonkey": 23232,
    "Ġproble": 1110,
    "accept": 8901,
    "Ġoutcast": 18414,
    "untering": 15780,
    "Ġserved": 8246,
    "Ġsick": 4693,
    "Ġwitty": 21295,
    "Ġbenefits": 4286,
    "ending": 1990,
    "science": 11913,
    "Ġsoon": 1229,
    "Ġgracious": 8851,
    "Ġtubs": 11372,
    "Ġpersuas": 23950,
    "Ġ42": 16680,
    "Ġnur": 5710,
    "Ġsucked": 14139,
    "Ġwalls": 6762,
    "Ġomnipotent": 13552,
    "Ġswallows": 18884,
    "Ġ1991": 3016,
    "Ġdesolated": 24809,
    "comparison": 25842,
    "inconsiderable": 21194,
    "Ġexclusiveness": 23931,
    "affording": 23779,
    "ensation": 22549,
    "Ġcordially": 16838,
    "Ġpigs": 19750,
    "Ġperils": 6274,
    "Ġmildly": 9032,
    "Ġhotels": 19539,
    "Ġblu": 2687,
    "Ġincensed": 18572,
    "assistant": 25568,
    "ithmetic": 18064,
    "Ġmat": 1149,
    "Ġbeloved": 5572,
    "path": 10121,
    "Ġalbert": 12711,
    "Ġcr": 2150,
    "estations": 22231,
    "Ġattend": 5036,
    "Ġremorse": 6441,
    "Ġcheeks": 5958,
    "Ġlou": 6821,
    "Ġcrust": 21354,
    "Ġfrown": 10809,
    "vens": 21115,
    "hurry": 24762,
    "Ġhospitable": 17060,
    "Ġmotions": 8281,
    "chair": 5917,
    "Ġreplacing": 3450,
    "nered": 18489,
    "Ġjoky": 18407,
    "Ġruinous": 24634,
    "Ġensure": 23691,
    "Ġsupplication": 25492,
    "ones": 2742,
    "Ġhollows": 19744,
    "fitters": 24760,
    "agues": 8161,
    "Ġsimply": 7217,
    "Ġstall": 12701,
    "Ġhandsom": 11126,
    "flo": 6115,
    "Ġ182": 13242,
    "ittered": 18440,
    "Ġblotted": 20220,
    "Ġbasement": 24701,
    "gratification": 24348,
    "Ġevils": 9023,
    "Ġdeigned": 18141,
    "Ġpolic": 13165,
    "Ġste": 1389,
    "Ġrepute": 18037,
    "Ġgeological": 14535,
    "Ġxv": 23410,
    "Ġnative": 4641,
    "display": 19158,
    "Ġcrouching": 23446,
    "Ġpitiable": 9917,
    "Ġswims": 12124,
    "american": 11402,
    "Ġscuff": 15946,
    "ades": 5631,
    "Ġproud": 5654,
    "Ġforbidding": 17080,
    "Ġheld": 3587,
    "Ġreview": 18033,
    "Ġelated": 18637,
    "reme": 2426,
    "Ġfundament": 2926,
    "innocence": 15187,
    "Ġcircumn": 11988,
    "Ġhorribly": 16346,
    "Ġwiping": 25766,
    "Ġannot": 15606,
    "Ġothers": 2584,
    "onts": 15522,
    "Ġdetermined": 2225,
    "Ġbump": 9662,
    "Ġelder": 7223,
    "Ġepidemic": 20698,
    "match": 15394,
    "Ġbathing": 20202,
    "varieties": 23190,
    "Ġnevertheless": 5040,
    "Ġfetching": 16898,
    "iage": 17575,
    "Ġmeet": 2807,
    "ist": 448,
    "Ġfearless": 9878,
    "examined": 17269,
    "Ġprofess": 3700,
    "Ġtestified": 16321,
    "Ġtoiled": 12647,
    "Ġsmitten": 12904,
    "Ġpulse": 13119,
    "held": 3842,
    "Ġinflamed": 13477,
    "Ġentropy": 2032,
    "Ġtear": 6723,
    "troubled": 17113,
    "Ġthrob": 21521,
    "mish": 17600,
    "Ġoozy": 21330,
    "Ġconcerning": 4066,
    "vellers": 16676,
    "Ġpreside": 18366,
    "rift": 11522,
    "Ġmira": 8408,
    "Ġarchitecture": 1151,
    "Ġplausible": 26555,
    "Ġungovernable": 20711,
    "Ġmagazine": 23103,
    "rength": 4098,
    "bourn": 3302,
    "Ġcomprehended": 11296,
    "Ġguineas": 16273,
    "fiery": 13585,
    "Ġdrows": 21438,
    "omen": 4084,
    "Ġostentatious": 25737,
    "Ġhousings": 21496,
    "Ġlichen": 20095,
    "numerous": 17434,
    "Ġformerly": 7492,
    "Ġlif": 10198,
    "Ġswarming": 16274,
    "est": 499,
    "Ġprendergast": 26539,
    "flag": 14714,
    "tt": 13793,
    "hurst": 19881,
    "Ġfamiliarly": 11305,
    "Ġbrought": 2519,
    "ß": 160,
    "Ġporpoise": 7107,
    "Ġtendency": 11331,
    "Ġfuel": 13907,
    "Ġilluminated": 20178,
    "Ġcultiv": 13560,
    "Ġneg": 1329,
    "Ġheaved": 9387,
    "Ġrelev": 1717,
    "Ġjuggl": 20441,
    "Ġensued": 11396,
    "Ġslop": 23166,
    "Ġneighbourhood": 5126,
    "Ġunp": 12777,
    "Ġplainly": 4384,
    "Ġtearless": 24785,
    "exceedingly": 9569,
    "Ġdisgraceful": 15022,
    "Ġlast": 1124,
    "Ġprefer": 6416,
    "Ġwomanly": 23554,
    "Ġonset": 12715,
    "sue": 2076,
    "arle": 21443,
    "Ġbelie": 14410,
    "Ġban": 7156,
    "re": 266,
    "Ġexpl": 487,
    "Ġcapering": 21357,
    "retirement": 23146,
    "Ġsigning": 22711,
    "venerable": 26410,
    "arness": 11675,
    "merely": 16138,
    "Ġnind": 17952,
    "Ġ94": 17719,
    "Ġboasting": 19939,
    "Ġclutch": 15056,
    "Ġrearing": 12682,
    "cil": 8724,
    "lovely": 16050,
    "Ġwondered": 11127,
    "Ġboats": 2637,
    "Ġfro": 3472,
    "Ġeats": 15681,
    "Ġmatrimony": 13639,
    "Ĵ": 245,
    "Ġcupidity": 24535,
    "compared": 24036,
    "Ġneedles": 11186,
    "Ġghast": 9212,
    "Ġpoem": 22595,
    "walls": 25346,
    "boiling": 19002,
    "Ġenormous": 5609,
    "Ġheedfully": 24521,
    "inclined": 10642,
    "Ġhereby": 10361,
    "pretend": 24883,
    "Ġcastaway": 16643,
    "Ġdocks": 14180,
    "Ġdivinely": 25723,
    "umbled": 8494,
    "stone": 5089,
    "Ġclean": 5652,
    "rowed": 22864,
    "ats": 4253,
    "Ġduck": 8798,
    "Ġinfidel": 13092,
    "Ġexpensive": 12922,
    "Ġannum": 24206,
    "Ġeccentric": 13653,
    "ut": 308,
    "Ġstood": 2553,
    "mathematics": 26305,
    "Ġpaints": 23528,
    "Ġbureau": 11593,
    "Ġleaves": 5021,
    "_.,": 14565,
    "Ġ128": 24473,
    "Ġvis": 1052,
    "Ġdecomposes": 5506,
    "Ġsearching": 13166,
    "Ġabsolut": 3910,
    "Ġevil": 3807,
    "cob": 10089,
    "gangway": 20670,
    "derbyshire": 18322,
    "cturn": 17989,
    "Ġhistor": 3392,
    "ĠâĢľ": 517,
    "resol": 17762,
    "ladies": 9532,
    "Ġbag": 5699,
    "Ġintellig": 526,
    "allen": 22200,
    "?_": 8070,
    "Ġfavoring": 2346,
    "Ġaright": 11744,
    "Ġlabyrinth": 13683,
    "quitted": 21861,
    "Ġclosely": 6488,
    "punishment": 15149,
    "reve": 12544,
    "Ġaccelerate": 23231,
    "Ġblended": 16222,
    "itics": 13875,
    "Ġeating": 8136,
    "eze": 20849,
    "daring": 20831,
    "atches": 13849,
    "Ġlug": 15656,
    "Ġschoolmaster": 16864,
    "Ġmarvel": 23038,
    "Ġmortifying": 13250,
    "Ġcrane": 23442,
    "comparatively": 25841,
    "Ġundaunted": 24120,
    "yrin": 12527,
    "âĢĻ,": 14073,
    "consist": 14819,
    "Ġfe": 491,
    "abez": 10225,
    "Ġtyrant": 24766,
    "Ġmien": 17810,
    "intelligence": 5883,
    "ļ": 253,
    "ourselves": 9014,
    "iza": 6256,
    "wrinkled": 16556,
    "Ġhistory": 4004,
    "mixed": 17607,
    "Ġlengthwise": 10454,
    "Ġtrusted": 10520,
    "ving": 593,
    "Ġpiteous": 17920,
    "Ġcoffins": 13255,
    "Ġevol": 2817,
    "prodig": 16430,
    "ĠĠĠĠĠĠĠĠĠĠĠĠĠĠĠĠĠĠĠĠĠĠĠĠĠĠĠĠĠĠĠĠĠĠ": 14616,
    "han": 12477,
    "Ġsingle": 1694,
    "himself": 3969,
    "youn": 5690,
    "photograph": 16156,
    "æ": 167,
    "Ġpantaloons": 20299,
    "dl": 20825,
    "Ġquaint": 18466,
    "distinctive": 25726,
    "arabian": 26448,
    "blo": 6354,
    "ik": 17573,
    "ays": 6684,
    "yet": 3754,
    "sus": 6229,
    "mits": 13759,
    "Ġstepping": 9357,
    "Ġ72": 19614,
    "Ġ89": 19715,
    "utherland": 9581,
    "Ġhil": 10823,
    "Ġlivel": 11357,
    "ched": 1547,
    "gast": 20873,
    "Ġdiary": 24738,
    "Ġfreely": 7057,
    "Ġexordium": 26494,
    "Ġheedful": 19743,
    "Ġreappeared": 21668,
    "Ġseething": 18202,
    "Ġmounting": 19980,
    "Ġsums": 2901,
    "Ġbrides": 22867,
    "Ġsolitudes": 22889,
    "Ġremorseless": 13455,
    "scales": 22997,
    "Ġcharnel": 22256,
    "bies": 15316,
    "Ġwitnessing": 19601,
    "Ġavowal": 19418,
    "Ġsouthern": 7688,
    "sho": 6425,
    "very": 500,
    "conced": 22474,
    "antically": 22100,
    "ged": 1512,
    "Ġadding": 2406,
    "recollection": 25349,
    "proportion": 16177,
    "Ġgilder": 21616,
    "Ġwhelmed": 26000,
    "attent": 9362,
    "Ġwhalers": 8048,
    "year": 11096,
    "Ġdecayed": 22830,
    "Ġfootmen": 23799,
    "Ġrasc": 21978,
    "Ġpensive": 21478,
    "Ġretribution": 16285,
    "Ġunctuous": 10269,
    "Ġiron": 3237,
    "dry": 13707,
    "excepting": 19709,
    "Ġfoul": 7159,
    "Ġhumans": 8933,
    "Ħ": 231,
    "ishop": 9745,
    "Ġinfallible": 15074,
    "Ġethere": 23954,
    "tremendous": 20676,
    "Ġformations": 18751,
    "Ġinscriptions": 20012,
    "Ġimagine": 3923,
    "hosmer": 25903,
    "Ġflorid": 17138,
    "legged": 10468,
    "Ġcanopy": 18323,
    "Ġwarp": 8113,
    "Ġscraggy": 24580,
    "Ġdimens": 3150,
    "isa": 17847,
    "Ġfin": 1459,
    "softened": 20413,
    "Ľ": 254,
    "Ġassembled": 9239,
    "hen": 3519,
    "Ġmyth": 18221,
    "lit": 9608,
    "reflected": 24732,
    "otence": 14026,
    "Ġxxi": 24476,
    "Ġvaluable": 5608,
    "lo": 681,
    "mush": 20979,
    "adoes": 11663,
    "Ġdimly": 9491,
    "variety": 23189,
    "Ù": 154,
    "feeling": 6618,
    "Ġculprit": 26173,
    "Ġinvoked": 19146,
    "naturedly": 24841,
    "Ġtossing": 8126,
    "Ġsuburban": 17349,
    "lose": 12887,
    "Ġperiod": 4000,
    "ermost": 7429,
    "Ġdeliberate": 15025,
    "stationed": 25454,
    "glue": 17558,
    "Ġdegrad": 2590,
    "virt": 15454,
    "Ġabating": 22271,
    "Ġclaimed": 14208,
    "transferred": 24514,
    "Ġnodded": 11974,
    "Ġkindliness": 23298,
    "Ġhire": 21488,
    "Ġtrail": 16286,
    "Ġurged": 6781,
    "pun": 9620,
    "Ġbordeaux": 24565,
    "Ġfrancis": 26064,
    "Ġbarque": 23792,
    "Ġcompre": 4450,
    "Ġbulb": 23858,
    "reast": 17760,
    "Ġhind": 9191,
    "Ġwel": 4528,
    "imprisonment": 23764,
    "Ġtalking": 3859,
    "Ġforeseen": 16444,
    "Ġghastly": 10063,
    "precedented": 15178,
    "Ġgenerations": 10966,
    "Ġul": 6827,
    "Ġamelia": 26253,
    "ominy": 13981,
    "shape": 10985,
    "Ġecho": 12671,
    "Ġstep": 752,
    "itives": 17821,
    "Ġwindigate": 18912,
    "maged": 15397,
    "iction": 4268,
    "Ġport": 3310,
    "Ġord": 3737,
    "Ġme": 351,
    "somehow": 12016,
    "Ġsuccor": 25663,
    "Ġhellish": 10553,
    "Ġcrushed": 9426,
    "pertaining": 22183,
    "Ġcle": 1510,
    "Ġmccarthys": 19665,
    "thou": 4709,
    "Ġornamented": 20365,
    "Ġsow": 17751,
    "Ġkilled": 4955,
    "Ġsenseless": 12083,
    "Ġincreasingly": 9374,
    "Ġinconvenience": 9566,
    "Ġlimit": 10445,
    "Ġfam": 1586,
    "Ġwoes": 23989,
    "Ġlibrary": 6423,
    "Ġethics": 15465,
    "Ġcolder": 22858,
    "Ġ275": 20114,
    "Ġend": 1475,
    "Ġrooted": 13173,
    "Ġuppermost": 15282,
    "female": 20669,
    "ho": 2858,
    "sence": 3307,
    "numer": 15402,
    "Ġmodest": 15921,
    "Ġdeclare": 6616,
    "Ã¦us": 14820,
    "Ġmysteries": 11324,
    "Ġwolfish": 25936,
    "Ġsurpr": 2552,
    "gunpowder": 25340,
    "calmly": 20142,
    "Ġapril": 13666,
    "Ġimmeas": 18331,
    "considerable": 10551,
    "Ġmouse": 4694,
    "Ġhuddled": 20302,
    "charm": 13993,
    "Ġliterally": 15120,
    "Ġcomprehension": 15090,
    "Ġconsole": 8151,
    "Ġhabitual": 24789,
    "Ġassociate": 13454,
    "Ġanalogical": 25641,
    "ouncement": 11749,
    "Ġdetached": 10282,
    "Ġdeep": 796,
    "Ġtem": 807,
    "(": 12,
    "Ġsignify": 16496,
    "Ġworst": 7443,
    "Ġbodiless": 24229,
    "Ġyoked": 15739,
    "Ġenjoyed": 8008,
    "Ġgn": 8822,
    "reception": 15517,
    "Ġcounter": 6481,
    "Ġdoth": 13911,
    "folly": 20864,
    "quadr": 15768,
    "Ġsatisfy": 6911,
    "pret": 7211,
    "Ġmasses": 10506,
    "Ġinvestment": 24332,
    "Ġjobs": 24833,
    "Ġadam": 2125,
    "Ġunrel": 14698,
    "Ġhurriedly": 11251,
    "Ġshipw": 12984,
    "earnest": 12403,
    "quakes": 21860,
    "white": 4603,
    "Ġintrodu": 1926,
    "maintained": 25023,
    "showing": 22469,
    "Ġdon": 1615,
    "Ġugly": 8719,
    "closing": 23160,
    "oubled": 23647,
    "Ġrashness": 25461,
    "orns": 12597,
    "Ġpress": 5932,
    "and": 372,
    "ancy": 4396,
    "viv": 17700,
    "Ġruthless": 15289,
    "Ġimpressions": 9556,
    "particularly": 8340,
    "Ġshipmates": 6721,
    "Ġfools": 14484,
    "Ġchairs": 12831,
    "conclusion": 25672,
    "Ġresembles": 25970,
    "Ġstandard": 14498,
    "dare": 12458,
    "deadly": 17101,
    "short": 6567,
    "Ġcompression": 18147,
    "Ġcompetition": 14269,
    "Ġclubs": 25180,
    "Ġconcre": 16391,
    "Ġbites": 23745,
    "commence": 19995,
    "burning": 25081,
    "Ġsta": 18065,
    "Ġlucky": 7758,
    "Ġlocked": 6035,
    "dressed": 10697,
    "ould": 427,
    "Ġwaters": 3597,
    "nui": 21002,
    "rebell": 17765,
    "Ġquiescent": 26244,
    "disgust": 23501,
    "pidation": 18888,
    "Ġattent": 4362,
    "hatherley": 17570,
    "Ġcritic": 19123,
    "_.": 2215,
    "Ġchill": 11756,
    "adopt": 25545,
    "drab": 23902,
    "Ġconversations": 9428,
    "Ġirregular": 9868,
    "Ġcomputations": 16003,
    "Ġtangles": 25762,
    "innocent": 20289,
    "Ġautom": 3348,
    "Ġpublic": 4332,
    "Ġpines": 12622,
    "ay": 354,
    "Ġsecuring": 11996,
    "Ġantiquities": 25599,
    "saf": 11527,
    "dislike": 23499,
    "Ġess": 5691,
    "ĠâĢľâĢĶ": 9737,
    "Ġrise": 5637,
    "Ġchased": 8865,
    "Ġmotive": 6091,
    "Ġprayed": 16670,
    "Ġmaddened": 17246,
    "gate": 12471,
    "Ġindu": 5295,
    "vener": 21114,
    "augmented": 26288,
    "unwho": 21881,
    "Ġarom": 15495,
    "ingle": 1037,
    "Ġmaria": 7125,
    "Ġcrown": 5289,
    "rodu": 1820,
    "Ġraft": 16119,
    "Ġjerking": 12250,
    "Ġerskine": 17435,
    "Ġbas": 6380,
    "Ġjuggler": 26368,
    "Ġwindsor": 16889,
    "moreover": 12974,
    "Ġswiftness": 9930,
    "Ġdur": 11595,
    "able": 451,
    "Ġdint": 15595,
    "Ġvictory": 16656,
    "capitals": 25083,
    "who": 2448,
    "false": 15358,
    "Ġsenses": 8252,
    "Ġlies": 5297,
    "ething": 1604,
    "Ġcommence": 6168,
    "Ġappl": 1678,
    "Ġicy": 10749,
    "Ġimprovement": 7965,
    "Ġevangelists": 20342,
    "Ġberm": 21386,
    "Ġprepare": 8650,
    "deliver": 19507,
    "albatross": 15634,
    "dipped": 20839,
    "Ġalien": 14021,
    "Ġundeviating": 15221,
    "Ġlife": 1351,
    "Ġheap": 12683,
    "vedale": 22713,
    "Ġoutput": 930,
    "Ġobstacle": 16957,
    "opp": 6962,
    "¹": 122,
    "felicity": 25143,
    "bert": 4663,
    "plainly": 11091,
    "Ġerad": 25031,
    "ontory": 10461,
    "rose": 6014,
    "Ġsatiated": 22905,
    "Ġapproximate": 2344,
    "Ġheaving": 7600,
    "Ġsocial": 7007,
    "iteness": 4395,
    "Ġexecut": 4247,
    "Ġfallen": 5968,
    "correct": 24483,
    "arers": 12134,
    "Ġsaturation": 2062,
    "Ġasiatics": 20434,
    "high": 6651,
    "Ġupdating": 2691,
    "Ġhy": 5625,
    "fill": 15354,
    "Ġpul": 2041,
    "Ġgovern": 10452,
    "Ġinvulnerable": 19148,
    "irresistible": 18176,
    "Ġstrewed": 23425,
    "Ġdescription": 7428,
    "Ġcomputing": 2223,
    "Ġso": 431,
    "agrad": 2746,
    "Ġamusements": 16915,
    "problem": 25245,
    "Ġtre": 2539,
    "Ġinsulted": 14995,
    "Ġpremises": 10490,
    "gladness": 25195,
    "sideways": 14574,
    "Ġsteam": 9356,
    "discovering": 24254,
    "Ġphren": 8574,
    "Ġprompt": 3189,
    "Ì": 141,
    "Ġnaut": 13944,
    "aan": 20766,
    "Ġc": 277,
    "Ġdespondence": 25870,
    "Ġproviding": 1361,
    "ias": 6363,
    "igated": 15711,
    "Ġsunbeam": 23278,
    "Ġclung": 10963,
    "Ġfamed": 16331,
    "Ġstrongest": 11137,
    "prof": 7698,
    "onday": 6064,
    "eluded": 21578,
    "Ġprick": 14480,
    "Ġhundred": 2694,
    "Ġcomparable": 24281,
    "Ġshepherd": 14155,
    "Ġmapple": 11152,
    "Ġhumane": 11888,
    "ipl": 20920,
    "Ġdip": 13910,
    "handkerchief": 14620,
    "Ġhardihood": 23115,
    "Ġfountains": 13506,
    "companions": 15026,
    "Ġtrunks": 15969,
    "Ġgreek": 10633,
    "thumb": 18219,
    "mir": 20965,
    "Ġreplay": 5047,
    "Ġspeaking": 4023,
    "Ġillustrative": 25069,
    "Ġdirections": 1970,
    "Ġopportunities": 19251,
    "Ġburnished": 24001,
    "witness": 10038,
    "sm": 3437,
    "Ġdiscredit": 22784,
    "Ġbottom": 3676,
    "founded": 16715,
    "irts": 9241,
    "Ġglory": 6065,
    "Ġgene": 15676,
    "cra": 6355,
    "soft": 12514,
    "aware": 16298,
    "Ġstam": 18068,
    "Ġirregularity": 25325,
    "Ġpolar": 9414,
    "Ġtransf": 22441,
    "Ġscreaming": 13427,
    "kerchief": 7524,
    "Ġoverlooking": 22354,
    "umer": 9261,
    "ð": 177,
    "Ġlambton": 10660,
    "Ġfootpaths": 26319,
    "collected": 13217,
    "ratches": 20128,
    "bouton": 17504,
    "Ġconstraint": 16515,
    "Ġremedy": 18725,
    "Ġacutely": 14317,
    "Ġsunk": 5752,
    "Ġjost": 23632,
    "injured": 15136,
    "Ġwhale": 627,
    "Ġmelted": 19624,
    "Ġnoticed": 5549,
    "Ġseems": 2483,
    "Ġsweet": 3466,
    "cerem": 15682,
    "Ġplied": 22603,
    "Â£": 4813,
    "Ġfab": 15580,
    "Ġcombined": 8550,
    "Ġoccupy": 14734,
    "shooting": 16967,
    "Ġmeeting": 5193,
    "bo": 1692,
    "itting": 1153,
    "Ġunexpectedly": 19911,
    "cabinet": 25080,
    "Ġsap": 18324,
    "Ġranges": 2882,
    "Ġrecord": 5317,
    "draul": 9446,
    "Ġtalked": 4423,
    "onstrate": 17770,
    "R": 54,
    "Ġacre": 22684,
    "comes": 5394,
    "dream": 8731,
    "Ġdropout": 1560,
    "officers": 10630,
    "Ġencourages": 2061,
    "Ġaverse": 11083,
    "Ġsuspic": 4472,
    "counters": 25398,
    "slackened": 26095,
    "understanding": 1127,
    "mention": 7214,
    "igns": 8449,
    "Ġxxxiv": 24970,
    "scream": 11078,
    "unks": 15779,
    "endom": 15920,
    "Ġantique": 19554,
    "Ġplan": 3882,
    "afraid": 10443,
    "sme": 17660,
    "position": 15416,
    "favourite": 15147,
    "Ġdrought": 19280,
    "Ġmut": 3584,
    "Ġvigorously": 11301,
    "clopÃ¦dia": 15260,
    "Ġkindled": 19031,
    "Ġtall": 4035,
    "Ġsleepers": 13153,
    "Ġforgot": 4684,
    "Ġtrusty": 24105,
    "precip": 14667,
    "Ġretreats": 16930,
    "affair": 14657,
    "Ġphrensy": 25127,
    "proportions": 22820,
    "itarian": 21340,
    "over": 1847,
    "Ġdreamy": 14706,
    "Ġsingularly": 12153,
    "skull": 24488,
    "ornament": 23493,
    "Ġdeduction": 14904,
    "Ġequal": 4132,
    "ropri": 2180,
    "Ġshuddered": 11302,
    "darkened": 24517,
    "Ġtheme": 16023,
    "Ġspeeches": 22666,
    "Ġends": 8238,
    "king": 3060,
    "Ġdishes": 16053,
    "Ġcompunction": 18588,
    "absolutely": 10648,
    "Ġhieroglyphics": 17306,
    "Ġsaviour": 20715,
    "Ġtranced": 18422,
    "Ġsequ": 982,
    "Ġsor": 4143,
    "unwittingly": 25802,
    "Ġreasoner": 14445,
    "andy": 8158,
    "Ġunostentatious": 22073,
    "safe": 10057,
    "gans": 11492,
    "ential": 826,
    "Ġrule": 1534,
    "Ġflowing": 14414,
    "Ġmuhammad": 26170,
    "del": 4074,
    "Ġ93": 24592,
    "porpoise": 16439,
    "Ġpossession": 5589,
    "¾": 127,
    "Ġfurniture": 6476,
    "Ġ13": 6719,
    "Ġexhibiting": 19841,
    "atching": 8202,
    "Ġgruff": 21617,
    "Ġseer": 21956,
    "Ġbakers": 17868,
    "Ġtruce": 24116,
    "gaze": 17559,
    "Ġtrivial": 10145,
    "Ġintolerable": 8483,
    "Ġsweeping": 8988,
    "Ġignorant": 5344,
    "pit": 3980,
    "ploy": 2221,
    "Ġscenery": 11458,
    "heaving": 21210,
    "agreeable": 5830,
    "Ġconver": 808,
    "provoke": 26072,
    "immediately": 10052,
    "Ġpeasants": 12336,
    "deployment": 26529,
    "Ġwooded": 23524,
    "arches": 10818,
    "Ġ$": 21153,
    "solving": 3099,
    "brushing": 20790,
    "Ġtender": 5753,
    "kind": 3864,
    "Ġper": 588,
    "Ġstagger": 10594,
    "laughed": 20284,
    "oward": 6021,
    "Ġrails": 22658,
    "Ġincome": 7917,
    "Ġcontriv": 9285,
    "Ġreadily": 5254,
    "revealed": 20419,
    "Ġgable": 15671,
    "Ġcock": 11001,
    "Ġfervour": 19729,
    "Ġsurrounds": 24234,
    "atha": 6573,
    "sixty": 24853,
    "oul": 4699,
    "privilege": 25264,
    "Ġretreating": 19802,
    "hur": 6650,
    "Ġwhirlpool": 20657,
    "ign": 1703,
    "Ġcheery": 16374,
    "verity": 14004,
    "Ġincarnation": 25574,
    "Ġcrucifix": 26080,
    "Ġcomfort": 3440,
    "Ġtrumpet": 9576,
    "Ġspoon": 22138,
    "Ġbeheld": 4494,
    "amiable": 14057,
    "Ġdated": 10940,
    "Ġpicturesque": 14897,
    "Ġunnatural": 7189,
    "Ġunjustifiable": 25112,
    "Ġsimulates": 2739,
    "Ġcoupled": 16853,
    "Ġarchitect": 1014,
    "moonlight": 25376,
    "Ġcurls": 22985,
    "ench": 21282,
    "Ġscandal": 9084,
    "Ġlbs": 11618,
    "Ġestimates": 3749,
    "Ġhed": 7386,
    "adagrad": 9694,
    "Ġk": 484,
    "Ġresume": 18566,
    "harmony": 25751,
    "Ġspeechless": 13358,
    "ency": 3869,
    "Ġdaring": 8121,
    "Ġrequisition": 22641,
    "Ġtil": 12529,
    "endeavoured": 12285,
    "ifting": 6546,
    "terms": 15755,
    "Ġbeholding": 8672,
    "Ġacqu": 1416,
    "Ġcanvassed": 19938,
    "Ġentr": 14342,
    "encoun": 12302,
    "fth": 20858,
    "Ġliberties": 19670,
    "Ġresponded": 13642,
    "Ġdull": 6384,
    "Ġcapstan": 9102,
    "Ġspies": 22132,
    "Ġexactness": 23606,
    "Ġunfinished": 19512,
    "itying": 21998,
    "Ĩ": 233,
    "Ġformula": 2865,
    "Ġdisappointing": 19582,
    "rel": 3755,
    "Ġ47": 14774,
    "cannon": 22965,
    "Ġobstin": 14956,
    "akes": 2222,
    "gn": 8082,
    "tal": 17672,
    "fairly": 17222,
    "grained": 20885,
    "conjecturing": 20137,
    "Ġsuch": 794,
    "Ġwire": 13855,
    "alled": 5911,
    "Ġcareful": 2612,
    "Ġperson": 2369,
    "Ġslumbering": 25702,
    "monster": 8596,
    "Ġpretension": 23766,
    "Ġrefrained": 14346,
    "flying": 13724,
    "sav": 8097,
    "Ġannihilated": 20255,
    "emb": 11693,
    "progra": 9398,
    "Ġscratch": 25565,
    "rices": 4560,
    "Ġsuccessful": 9926,
    "Ġvirtues": 9939,
    "Ġassign": 11112,
    "Ġpanel": 13376,
    "Ġworse": 4720,
    "Ġdiscrete": 2478,
    "Ġfunction": 591,
    "Ġstowed": 21740,
    "ugl": 23292,
    "Ġconsulting": 13433,
    "Ġanxiety": 5408,
    "Ġvor": 15808,
    "Ġbegrimed": 26580,
    "Ġeyelashes": 26107,
    "extraordinary": 9098,
    "prim": 23813,
    "sequ": 2404,
    "Ġunerringly": 18266,
    "itself": 7834,
    "abil": 2007,
    "Ġbuttoned": 25369,
    "animals": 24737,
    "Ġmilliner": 19886,
    "Ġcopying": 17069,
    "gang": 17555,
    "rowing": 7931,
    "accompanied": 12426,
    "Ġperceiving": 8879,
    "Ġgentleman": 3042,
    "Ġaught": 8777,
    "com": 991,
    "Ġobliging": 13248,
    "Ġbake": 21385,
    "Ġplain": 2819,
    "xes": 21143,
    "Ġinference": 9674,
    "Ġarchly": 22798,
    "grie": 12475,
    "Ġinfatuated": 20536,
    "composed": 14743,
    "me": 875,
    "Ġfigured": 16646,
    "Ġpomp": 12627,
    "Ġcosmopolitan": 20643,
    "vitality": 20482,
    "ceptibly": 22346,
    "philosophy": 13584,
    "Ġcarr": 23094,
    "Ġserpentine": 11362,
    "cc": 474,
    "got": 6954,
    "aract": 17896,
    "Ġviciously": 24404,
    "Ġpredicts": 2595,
    "iftings": 23228,
    "Ġdrag": 6185,
    "Ġsubterranean": 13615,
    "Ġunfaltering": 24113,
    "Ġaggreg": 12889,
    "shell": 16290,
    "Ġmoves": 14234,
    "favour": 9552,
    "merged": 11195,
    "Ġtook": 1859,
    "wat": 6232,
    "cushion": 20823,
    "impatiently": 20474,
    "Ġmole": 11795,
    "nav": 17613,
    "alescence": 15928,
    "ison": 3075,
    "Ġoriginated": 24123,
    "Ġbarbarous": 13480,
    "attain": 21264,
    "Ġstiggs": 25793,
    "Ġgradual": 20604,
    "Ġextras": 22723,
    "chors": 11647,
    "Ġstrung": 22621,
    "aphs": 22339,
    "inquir": 9539,
    "Ġrose": 3444,
    "Ġtrag": 13045,
    "nourished": 26400,
    "believing": 19465,
    "seamen": 13630,
    "nes": 6960,
    "Ġappearing": 9844,
    "Ġpar": 456,
    "Ġbod": 4582,
    "'": 11,
    "Ġresides": 22544,
    "elop": 1461,
    "Ġlearned": 2025,
    "gathered": 13735,
    "Ġshaster": 22002,
    "Ġreligion": 11417,
    "Ġjesty": 18406,
    "Ġnapkins": 25165,
    "Ġdepressed": 10884,
    "shipmates": 11932,
    "Ġstring": 11831,
    "when": 1593,
    "Ġsometimes": 2168,
    "Ġundeniable": 26512,
    "Ġappro": 659,
    "occupation": 15059,
    "urable": 8930,
    "Ġflamingo": 15104,
    "gale": 13727,
    "Ġlegisl": 23538,
    "Ġmaledictions": 26430,
    "Ġunresting": 25554,
    "Ġineffectual": 17387,
    "pole": 9336,
    "Ġaffectation": 14443,
    "theories": 18081,
    "prevent": 11797,
    "Ġsetbacks": 11065,
    "Ġmuch": 923,
    "Ġthirt": 13942,
    "Ġlanding": 11989,
    "comfortably": 16877,
    "Ġmurder": 4280,
    "Ġinspire": 12000,
    "Ġshed": 8181,
    "fts": 18697,
    "Ġvoyage": 3055,
    "Ġhoisted": 5960,
    "nesday": 8706,
    "overlooked": 23328,
    "Ġinterfere": 11821,
    "Ġsoliloqu": 11889,
    "treas": 17681,
    "appointment": 24062,
    "divided": 25021,
    "ilet": 12834,
    "Ġbone": 4695,
    "hib": 15371,
    "iastic": 12484,
    "Ġindulgence": 11321,
    "gods": 13371,
    "lean": 21368,
    "Ġcoroner": 7509,
    "Ġboys": 5194,
    "ocean": 12405,
    "common": 4125,
    "Ġfluke": 14676,
    "Ġcoincidence": 25484,
    "Ġpro": 360,
    "ix": 1800,
    "Ġdetection": 3487,
    "Ġdefendants": 15144,
    "Ġunfl": 22024,
    "recl": 15513,
    "Ġindian": 4128,
    "Ġrevolutions": 23845,
    "Ġchuck": 8503,
    "playful": 24357,
    "Ġdepending": 14291,
    "shudder": 26247,
    "verbally": 25361,
    "Ġvicissitudes": 12423,
    "Ġexcellent": 4237,
    "Ġsallied": 12542,
    "Ġmeanwhile": 5736,
    "seated": 11674,
    "asol": 21543,
    "Ġbroom": 18908,
    "Ġformal": 2941,
    "Ġbeliever": 25847,
    "Ġfortune": 4239,
    "Ġimpetuously": 20375,
    "dist": 4482,
    "Ġample": 11802,
    "Ġkelson": 18351,
    "tray": 21080,
    "Ġjavelins": 26106,
    "Ġstake": 14006,
    "Ġchristmas": 6923,
    "embarr": 17295,
    "fact": 6359,
    "Ġstruggling": 12079,
    "truth": 9922,
    "Ġbeams": 14633,
    "ribed": 7692,
    "rents": 5310,
    "Ġdecreasing": 2445,
    "Ġart": 744,
    "cul": 1903,
    "everlasting": 18773,
    "posted": 24636,
    "Ġinfiltrated": 23285,
    "Ġtired": 9152,
    "eps": 12795,
    "uctive": 17698,
    "Ġmainmast": 9782,
    "Ġessence": 13409,
    "ladder": 19787,
    "Ġentity": 10345,
    "Ġmarry": 4420,
    "unct": 18157,
    "Ġobliterated": 17408,
    "Ġunobserved": 18250,
    "noon": 5037,
    "inex": 14099,
    "Ġxiii": 25592,
    "Ġunbending": 25465,
    "Ġbreeding": 14524,
    "Ġkicked": 10584,
    "weekly": 25685,
    "Ġ121": 24466,
    "Ġslam": 13063,
    "Ġkeenest": 12166,
    "Ġsophisticated": 1599,
    "Ġthro": 5818,
    "Ġdownwards": 8531,
    "Ġprayers": 12128,
    "Ġpopulous": 16828,
    "Ġfasting": 16359,
    "bra": 6220,
    "Ġstoop": 16314,
    "sorrows": 17323,
    "Ġreverence": 12063,
    "Ġcups": 16884,
    "Ġbracing": 16583,
    "Ġtending": 17726,
    "Ġimperilled": 19581,
    "Ġxavier": 2855,
    "Ġglue": 15678,
    "Ġfru": 8421,
    "Ġhailed": 6407,
    "Ġdundee": 16999,
    "Ġdifferen": 936,
    "Ġinterposed": 20622,
    "Ġfevers": 22213,
    "Ġthousandth": 23687,
    "taken": 7559,
    "Ġbattalions": 25777,
    "pronouncing": 25194,
    "grandfather": 25012,
    "Ġinsipid": 26314,
    "Ġidentified": 19152,
    "Ġfundamental": 3014,
    "clerval": 7951,
    "Ġfeedforward": 2328,
    "Ġcommunication": 1875,
    "dient": 440,
    "Ġmedit": 8025,
    "accur": 14595,
    "stones": 11639,
    "Ġdown": 829,
    "tashtego": 9625,
    "Ġfrighten": 13283,
    "Ġconfound": 23309,
    "Ġyoung": 1506,
    "Ġascending": 14857,
    "Ġcommanders": 23871,
    "Ġnarrower": 24354,
    "conception": 22478,
    "Ġbattle": 5908,
    "Ġvisibly": 22855,
    "Ġhours": 2821,
    "Ġspeedy": 11174,
    "chery": 24551,
    "atiable": 17776,
    "Ġjovial": 19236,
    "Ġbeer": 10222,
    "Ġfaded": 10811,
    "Ġ7": 4746,
    "Ġsinew": 25432,
    "slide": 24556,
    "served": 5043,
    "ropes": 7903,
    "Ġcastles": 16642,
    "lacings": 26135,
    "machine": 1006,
    "gration": 9124,
    "Ġderision": 16313,
    "Ġinitials": 11016,
    "Ġrumbling": 18214,
    "ohn": 4562,
    "behaved": 24463,
    "Ġbirth": 6524,
    "ifiable": 18166,
    "remain": 9841,
    "stolidity": 21666,
    "brill": 16493,
    "ivility": 12794,
    "zz": 4293,
    "shone": 22461,
    "Ġ37": 24079,
    "Ġthrown": 4640,
    "Ġchil": 11755,
    "Ġguardians": 14946,
    "inlaid": 21193,
    "Ġensigns": 23692,
    "Ġprisoner": 8676,
    "Ġhasn": 12932,
    "Ġfairest": 20466,
    "interruption": 20115,
    "after": 2895,
    "Ġattempting": 14699,
    "aking": 974,
    "new": 1466,
    "Ġdaresay": 14707,
    "Ġsurvived": 14937,
    "Ġgpus": 3734,
    "akers": 9742,
    "antarctic": 22103,
    "Ġwe": 387,
    "Ġpressing": 9264,
    "Ġcelebrate": 26359,
    "contemplated": 20461,
    "Ġjacob": 1902,
    "Ġthomas": 17950,
    "[_": 5131,
    "Ġenchantment": 24870,
    "Ġscorn": 7901,
    "Ġrhyme": 21982,
    "Ġgaieties": 24198,
    "weaknesses": 26031,
    "Ġvisit": 2585,
    "Ġforever": 14556,
    "Ġskies": 8924,
    "Ġstubbornness": 25380,
    "Ġpistols": 17332,
    "ĠâĢĶâĢľ_": 17720,
    "iece": 3231,
    "Ġaffl": 14389,
    "Ġrevolver": 14903,
    "Ġfrivolous": 26177,
    "Ġepaulets": 24906,
    "Ġdiscourse": 9801,
    "Ġeffected": 14358,
    "clings": 23156,
    "Ġpulverize": 23396,
    "°": 113,
    "Ġflirt": 14426,
    "Ġdegenerating": 25800,
    "Ġtrous": 10959,
    "Ġdenial": 13218,
    "Ġbowsman": 11256,
    "Ġrelief": 6060,
    "Ġjagged": 18408,
    "plex": 708,
    "Ġwoven": 9929,
    "patient": 25343,
    "Ġunlock": 18244,
    "Ġwestern": 10657,
    "dman": 10091,
    "Ġbeech": 18085,
    "Ġendowed": 18925,
    "Ġhessian": 3549,
    "divers": 15346,
    "Ġplun": 6282,
    "Ġventure": 7739,
    "homage": 25617,
    "Ġcrutch": 23449,
    "Ġrevisit": 21673,
    "una": 21873,
    "supplementary": 20552,
    "Ġlooking": 2476,
    "vid": 916,
    "Ġvintage": 26211,
    "Ġhurricane": 16435,
    "oughed": 22079,
    "Ġtip": 15474,
    "Ġtough": 13818,
    "shr": 10982,
    "Ġevident": 6613,
    "bber": 4569,
    "neighboring": 20620,
    "Ġlanded": 7468,
    "Ġcalculates": 13269,
    "announced": 19762,
    "Ġgrimly": 17053,
    "here": 2551,
    "Ġexeget": 24085,
    "Ġexcursion": 26591,
    "affrail": 11206,
    "Ġcrammed": 16473,
    "Ġimpunity": 14219,
    "Ġostlers": 25277,
    "unfearing": 21896,
    "Ġtimes": 2304,
    "Ġfuneral": 10285,
    "Ġstab": 10864,
    "Ġalarmed": 6922,
    "Ġintegral": 25011,
    "Ġworlds": 11951,
    "Ġdesire": 3719,
    "Ġsweating": 16465,
    "Ġfac": 6381,
    "lungs": 26136,
    "Ġdupl": 9957,
    "Ġexempt": 21832,
    "vib": 21118,
    "deeply": 16188,
    "hic": 3250,
    "aid": 1923,
    "Ġwantest": 18791,
    "Ġbleeds": 24397,
    "resnet": 4067,
    "distinction": 19574,
    "Ġfished": 21413,
    "Ġeigenvalues": 4998,
    "Ġoverflow": 10294,
    "oin": 17619,
    "disappeared": 14573,
    "Ġtoll": 7852,
    "Ġtrifling": 10605,
    "mouth": 9133,
    "robe": 15646,
    "Ġamazing": 9980,
    "Ġcommodore": 12399,
    "Ġwarmest": 16486,
    "Ġasph": 21902,
    "enced": 4296,
    "distressed": 24202,
    "Ġgash": 15675,
    "Ġshout": 4264,
    "entieth": 17981,
    "Ġweights": 898,
    "bes": 6643,
    "Ġexpedition": 10636,
    "pounds": 21027,
    "draughts": 20391,
    "Ġadieu": 10054,
    "windward": 24162,
    "apparat": 22852,
    "Ġgentlemen": 3644,
    "rained": 5162,
    "Ġ1807": 26084,
    "Ġnurse": 9520,
    "Ġtows": 19565,
    "killer": 20479,
    "Ġshortly": 6197,
    "Ġmarched": 18873,
    "fights": 20867,
    "idence": 4302,
    "Ġfavourites": 16647,
    "Ġ53": 19638,
    "utting": 17987,
    "Ġdiscriminative": 4327,
    "abby": 14024,
    "Ġfleetness": 20182,
    "affect": 13216,
    "leagued": 26437,
    "knife": 6941,
    "Ġestablish": 9546,
    "Ġplane": 11827,
    "Ġprincess": 23227,
    "Ġmainten": 16121,
    "Ġrestrict": 16380,
    "imp": 3034,
    "Ġcrags": 23532,
    "zeal": 16276,
    "Ġseventy": 7878,
    "happening": 16566,
    "Ġlimping": 23549,
    "Ġdecapitated": 20619,
    "Ġsuspecting": 14913,
    "van": 7814,
    "Ġbeard": 11658,
    "liv": 9610,
    "elect": 20848,
    "ad": 337,
    "Ġbigger": 19764,
    "anelles": 26436,
    "Ġdocile": 19962,
    "Ġneville": 7398,
    "Ġunrivalled": 26521,
    "ye": 1405,
    "Ġweek": 2828,
    "Ġcalculating": 9928,
    "Ġterrier": 23402,
    "liable": 3820,
    "Ġfamiliarity": 16731,
    "sufficient": 6637,
    "Ġcul": 17824,
    "Ġperplex": 2716,
    "inferiors": 25347,
    "orm": 425,
    "pre": 649,
    "dington": 12070,
    "complacency": 19916,
    "long": 2910,
    "disappo": 8987,
    "Ġcells": 13888,
    "Ġmoulded": 16977,
    "Ġimmensely": 13599,
    "Ġreceive": 4704,
    "Ġpiping": 23216,
    "Ġilluminate": 17195,
    "daughters": 13470,
    "Ġadds": 1807,
    "Ġreeds": 15700,
    "cor": 5520,
    "imaux": 21715,
    "pick": 17636,
    "Ġinstituted": 18702,
    "Ġepicurean": 20558,
    "Ġdeity": 18137,
    "Ġcolourless": 19572,
    "Ġcumul": 4178,
    "naturalist": 23439,
    "Ġcorpore": 13405,
    "Ġcouple": 5423,
    "Ġembodiment": 20531,
    "Ġexcavating": 23320,
    "Ġhandsome": 4907,
    "Ġhumility": 12990,
    "Ġparadise": 11196,
    "deformity": 22150,
    "Ġgodson": 23361,
    "Ġonly": 788,
    "money": 8753,
    "necessities": 24308,
    "Ġcocoan": 20319,
    "best": 6112,
    "gird": 20881,
    "Ġcomposition": 1690,
    "minded": 9040,
    "Ġbasics": 13452,
    "concern": 6100,
    "Ġdu": 4585,
    "lur": 13750,
    "posture": 16929,
    "Ġcloud": 3911,
    "prob": 7070,
    "Ġconvivial": 16550,
    "desponding": 26343,
    "duty": 20242,
    "problems": 11436,
    "battering": 20788,
    "Ġstrugg": 3217,
    "Ġbenjamin": 26569,
    "Ġappertain": 22218,
    "Ġleading": 7296,
    "Ġalbino": 20506,
    "itous": 13870,
    "intern": 23738,
    "entiful": 10838,
    "honest": 17005,
    "withdrawn": 23031,
    "failed": 20865,
    "Ġuncork": 23433,
    "anct": 21361,
    "hue": 20901,
    "attached": 11939,
    "Ġsorrow": 4629,
    "Ġearn": 3548,
    "Ġthou": 1810,
    "Ġbill": 4037,
    "rib": 1947,
    "Ġadmon": 15872,
    "Ġcollapsed": 15085,
    "iature": 8745,
    "Ġchanc": 18385,
    "sheltered": 25586,
    "Ġtand": 21163,
    "Ġoutermost": 22323,
    "Ġarcher": 22189,
    "Ġinstinct": 6576,
    "mant": 20967,
    "Ġresemblance": 7974,
    "Ġhoarsely": 26303,
    "Ġdews": 21842,
    "agger": 7872,
    "Ġhur": 2098,
    "Ġdirector": 18922,
    "twenty": 6608,
    "Ġfasten": 11134,
    "Ġproclaim": 18133,
    "Ġacquire": 2724,
    "Ġconfidence": 6591,
    "Ġnotorious": 18224,
    "Ġstarry": 16925,
    "Ġrefuse": 5739,
    "Ġjohn": 5032,
    "kempt": 20943,
    "esy": 9185,
    "Ġfals": 15585,
    "Ġprodu": 1209,
    "ium": 4865,
    "Ġdepicting": 22592,
    "iceland": 21569,
    "Ġimply": 18444,
    "Ġsumatra": 15290,
    "Ġ1894": 5196,
    "Ġexploitation": 2349,
    "Ġdow": 17888,
    "strikes": 24671,
    "Ġheat": 5453,
    "Ġpenetrate": 12274,
    "aught": 2681,
    "ĠĠĠĠĠĠĠĠĠĠĠĠĠĠĠĠĠĠĠĠĠĠĠĠĠĠĠĠĠĠĠĠĠĠĠĠĠĠĠĠĠĠĠĠĠĠĠĠĠ": 20041,
    "Ġder": 1498,
    "estate": 12826,
    "Ġaccommod": 14216,
    "Ġwedged": 24936,
    "Ġsaddest": 16665,
    "anqu": 4107,
    "advantages": 11273,
    "Ġninety": 13605,
    "python": 4692,
    "all": 485,
    "Ġconvent": 11671,
    "gunwale": 20665,
    "balanced": 14558,
    "Ġglimmered": 20174,
    "Ġ132": 19898,
    "borrowed": 20794,
    "apt": 734,
    "Ġbowl": 11205,
    "grown": 10102,
    "flow": 2207,
    "Ġrelig": 8552,
    "anywhere": 14684,
    "Ġishmael": 7394,
    "ferred": 16396,
    "Ġturning": 3327,
    "Ġl": 303,
    "Ġsolved": 8934,
    "Ġbrink": 18772,
    "master": 5687,
    "Ġincorporate": 20457,
    "iven": 1239,
    "Ġdecl": 3591,
    "ulating": 10889,
    "Ġshivered": 14111,
    "Ġwithered": 19468,
    "Ġapr": 12537,
    "Ġblast": 7444,
    "Ġtotally": 9474,
    "billiard": 25335,
    "Ġships": 3716,
    "Ġoutweigh": 22326,
    "Ġdisposing": 19378,
    "cloudless": 20335,
    "Ġunexampled": 20363,
    "inal": 15483,
    "idelburgh": 10564,
    "secut": 7867,
    "Ġunearthly": 9039,
    "Ġheadstrong": 14391,
    "Ġdeprived": 8208,
    "Ġcolony": 18768,
    "Ġrush": 5925,
    "Ġwine": 6810,
    "Ġgomorrah": 21618,
    "iet": 1774,
    "Ġdetained": 18371,
    "tit": 11530,
    "umps": 6318,
    "Ġable": 3081,
    "heat": 15500,
    "heaved": 21213,
    "Ġenjoying": 11237,
    "gigantic": 15363,
    "Ġcongratulations": 10583,
    "Ġneed": 2608,
    "Ġcoal": 18592,
    "Ġrates": 1403,
    "class": 4093,
    "sherlock": 5422,
    "favouring": 24761,
    "Ġbaltic": 18796,
    "Ġinstability": 3815,
    "Ġgretna": 26470,
    "Ġcask": 5527,
    "Ġsurviving": 24637,
    "mathemat": 19139,
    "manner": 6171,
    "Ġforcing": 3226,
    "Ġoff": 903,
    "Ġpreservative": 24630,
    "o": 83,
    "Ġwings": 9166,
    "intervals": 10640,
    "Ġphilosophical": 26336,
    "Ġpretty": 3862,
    "imental": 16536,
    "Ġluck": 4881,
    "gunw": 17223,
    "fore": 686,
    "Ġdropt": 23675,
    "Ġiceland": 15150,
    "Ġglaciers": 20176,
    "Ġoptimize": 1556,
    "nails": 17616,
    "lizzy": 6653,
    "Ġresults": 7307,
    "Ġcapture": 3386,
    "hro": 20893,
    "Ġcopper": 7424,
    "Ġreception": 9842,
    "Ġexig": 21830,
    "ap": 546,
    "Ġadditional": 7935,
    "Ġunderstood": 5655,
    "idated": 11664,
    "Ġinterlude": 16074,
    "illity": 18297,
    "boo": 16354,
    "prec": 3202,
    "Ġtorrents": 20059,
    "Ġsnatch": 14641,
    "alarms": 21508,
    "Ġcircumst": 2974,
    "Ġuproar": 22159,
    "Ġrenegades": 26478,
    "Ġdeuteronomy": 15764,
    "Ġdrink": 4788,
    "Ġamsterdam": 22488,
    "Ġemper": 9864,
    "Ġflashed": 11919,
    "Ġcapst": 8600,
    "Ġexcluded": 16389,
    "boys": 13364,
    "Ġcertain": 1559,
    "Ġmere": 2714,
    "Ġband": 5292,
    "Ġsevere": 6032,
    "try": 7812,
    "bab": 11470,
    "Ġmans": 15540,
    "Ġpharaoh": 26587,
    "natural": 2135,
    "Ġwarning": 9061,
    "Ġcash": 9655,
    "Ġgestic": 21611,
    "Ġsabbath": 17257,
    "Ġhud": 10824,
    "Ġpitchpoling": 14914,
    "Ġhobbling": 25645,
    "Ġdynamically": 4136,
    "ĠĠĠĠĠĠĠĠĠĠĠĠĠĠĠĠĠĠĠĠĠĠĠ": 18834,
    "words": 7983,
    "surround": 16760,
    "allest": 5485,
    "Ġblackest": 19100,
    "Ġinterruption": 9476,
    "school": 10058,
    "ping": 9618,
    "otam": 21802,
    "inity": 5693,
    "Ġfaint": 5812,
    "Ġassizes": 11111,
    "desperate": 17360,
    "Ġgloomy": 7503,
    "Ġneural": 623,
    "Ġinvestigated": 25387,
    "Ġhighest": 3530,
    "Ġmonogra": 22980,
    "centred": 25020,
    "Ġdecline": 9290,
    "thin": 14100,
    "ulates": 14058,
    "Ġsecure": 4913,
    "Ġrepetition": 8975,
    "denial": 18717,
    "Ġmore": 676,
    "Ġrelationship": 2316,
    "died": 11482,
    "Ġstopped": 5957,
    "zza": 24169,
    "umber": 5241,
    "Ġfaithfulness": 24446,
    "no": 901,
    "Ġsharpened": 17368,
    "Ġgnarled": 25169,
    "Ġpolitics": 19227,
    "oes": 4436,
    "conditional": 9081,
    "Ġcoachman": 15002,
    "Ġtug": 11553,
    "hr": 20890,
    "Ġsneer": 13451,
    "ivering": 7697,
    "Ġheed": 5630,
    "batross": 9096,
    "Ġcanst": 8861,
    "brow": 15319,
    "Ġmoth": 17804,
    "osen": 6854,
    "Ġunited": 6839,
    "carbuncle": 26384,
    "holding": 7738,
    "stealthily": 23965,
    "barbaric": 26360,
    "Ġcommanded": 6331,
    "Ġimpaling": 22387,
    "oil": 7805,
    "Ġhills": 6527,
    "ellest": 21577,
    "Ġtrip": 16790,
    "Ġgar": 10840,
    "Ġhelmeted": 19691,
    "Ġabraham": 18396,
    "james": 15376,
    "Ġunlab": 3790,
    "Ġbewildered": 15217,
    "dreadful": 11423,
    "arts": 6564,
    "Ġguise": 14435,
    "insula": 23069,
    "Ġwickham": 2206,
    "alleled": 14432,
    "gins": 12473,
    "arranted": 19321,
    "grasping": 20642,
    "Ġcemeteries": 26377,
    "witted": 17709,
    "Ġpunctil": 20117,
    "Ġunavailing": 26217,
    "Ġitalian": 12414,
    "Ġbags": 24537,
    "Ġlimbs": 5966,
    "Ġimplore": 24873,
    "ı": 242,
    "Ġclub": 8877,
    "faint": 17547,
    "ot": 346,
    "Ġmonotonous": 13267,
    "Ġdiscipl": 22786,
    "Ġdishonor": 25602,
    "Ġfaintly": 14918,
    "Ġinhab": 5083,
    "Ġmodel": 513,
    "onted": 11570,
    "Ġannotations": 25955,
    "ps": 4575,
    "Ġdante": 21441,
    "masterly": 24530,
    "reader": 23850,
    "Ġlogger": 11959,
    "Ġadviser": 25313,
    "Ġpicked": 6342,
    "Ġhorizont": 6936,
    "Ġoccurrence": 14385,
    "into": 3682,
    "Ġeffeminacy": 20720,
    "erable": 1918,
    "float": 19808,
    "Ġindeed": 1683,
    "77": 15304,
    "Ġbowing": 10477,
    "Ġincrease": 9373,
    "Ġbingleys": 18997,
    "esley": 17903,
    "terns": 21826,
    "rivial": 9437,
    "Ġbring": 3324,
    "Ġrepine": 16414,
    "Ġpained": 19169,
    "Ġsmile": 4271,
    "Ġfurlong": 18739,
    "prejudiced": 17300,
    "Ġpist": 12620,
    "Ġcomprising": 16072,
    "w": 91,
    "ugn": 9381,
    "Ġfloated": 7287,
    "âĢĶ.âĢĿ": 22259,
    "Ġecl": 18008,
    "Ġfellows": 8257,
    "invariably": 26418,
    "conveyed": 20524,
    "Ġmind": 1621,
    "hitherto": 17286,
    "Ġfinny": 23129,
    "Ġslewed": 23388,
    "ights": 8476,
    "waste": 21137,
    "yn": 7819,
    "Ġswaying": 15049,
    "Ġaccusations": 22384,
    "Ġ}": 21156,
    "Ġshocks": 16460,
    "Ġdevout": 14329,
    "Ġelephants": 9867,
    "Ġtars": 21167,
    "arrange": 23768,
    "currents": 23848,
    "Ġturing": 7565,
    "Ġmonsters": 11076,
    "output": 4404,
    "rally": 17653,
    "Ġline": 1853,
    "Ġgunw": 6213,
    "Ġalliance": 18236,
    "Ġprejudice": 9078,
    "orous": 5294,
    "Ġmr": 661,
    "Ġheaven": 3366,
    "missionary": 24616,
    "Ġeyed": 12672,
    "Ġrefreshment": 17242,
    "Ġsnaky": 23744,
    "Ġauxiliary": 26420,
    "ch": 321,
    "Ġpanting": 11606,
    "Ġdays": 2077,
    "Ġenvirons": 13213,
    "Ġdiffered": 22714,
    "Ġsatisfaction": 5667,
    "7": 27,
    "ĠâĢľâĢĺ": 8505,
    "Ġdata": 516,
    "Ġcomposed": 8895,
    "hyme": 19612,
    "mes": 1202,
    "m": 81,
    "Ġteaching": 10367,
    "Ġmour": 6973,
    "ended": 1836,
    "Ġscaffold": 18401,
    "Ġinns": 17932,
    "Ġcope": 17832,
    "Ġuniversity": 13126,
    "Ġacquiesce": 20332,
    "difference": 13711,
    "cused": 15335,
    "Ġsix": 3045,
    "400": 20757,
    "Ġgames": 11629,
    "Ġmantel": 11441,
    "Ġacute": 16127,
    "Ġofficious": 19351,
    "ills": 1628,
    "form": 498,
    "sulphur": 25910,
    "Ġcomparatively": 9493,
    "hob": 20902,
    "Ġsnar": 13202,
    "windibank": 24163,
    "downstairs": 23923,
    "Ġap": 5008,
    "Ġlamentations": 17077,
    "Ġmark": 2333,
    "Ġjib": 14196,
    "Ġbanquet": 15244,
    "Ġmonoton": 3638,
    "ougher": 18276,
    "has": 4010,
    "Ġmachinations": 25768,
    "asis": 12655,
    "amusement": 15286,
    "authority": 13595,
    "Ġarduous": 26533,
    "Ġfolks": 14429,
    "Ġhammered": 13245,
    "growing": 13736,
    "Ġmagg": 18907,
    "nels": 12500,
    "Ġbeginning": 4243,
    "Ġrespite": 13158,
    "Ġsepulchre": 20562,
    "Ġcup": 5697,
    "Ġtwinkle": 12327,
    "render": 10293,
    "Ġbestowed": 6594,
    "Ġcattle": 12577,
    "airing": 16182,
    "icated": 7590,
    "blood": 7779,
    "obli": 23098,
    "Ġfoes": 11956,
    "boscombe": 26122,
    "Ġsmaller": 1888,
    "mon": 2310,
    "Ġvill": 3876,
    "Ġmaimed": 21319,
    "Ġastir": 14642,
    "Ġconstitution": 20112,
    "suspended": 15181,
    "Ġtide": 6660,
    "Ġgamb": 18000,
    "Ġresearch": 3241,
    "allingly": 22203,
    "Ġintroducing": 11980,
    "contrivance": 26317,
    "Ġmacy": 19358,
    "Ġtyp": 1131,
    "Ġobserv": 8589,
    "mechanical": 25579,
    "Ġactions": 6279,
    "Ġtenderest": 23553,
    "Ġune": 4599,
    "su": 801,
    "Ġwo": 3652,
    "Ġjourneys": 19478,
    "Ġsubset": 9873,
    "Ġclaims": 13377,
    "flood": 19809,
    "Ġentreaty": 10532,
    "Ġprivile": 8649,
    "frequent": 15357,
    "Ġsteer": 10389,
    "itively": 21334,
    "avenue": 25060,
    "teeth": 10358,
    "Ġwaterproof": 19090,
    "Ġcasual": 11411,
    "hil": 8379,
    "vessels": 10628,
    "Ġtiara": 26417,
    "Ġminiature": 11041,
    "Ġlighted": 7064,
    "commission": 22819,
    "Ġministers": 22837,
    "ivities": 22089,
    "Ġbarbar": 6934,
    "Ġfoss": 9854,
    "create": 24161,
    "Ġsore": 10766,
    "Ġstroke": 6935,
    "remental": 21250,
    "sal": 8761,
    "dening": 22781,
    "Ġimparts": 18446,
    "Ġsuffered": 5649,
    "Ġhis": 380,
    "preced": 10308,
    "anting": 6412,
    "frantic": 24285,
    "movable": 14327,
    "Ġcurving": 16243,
    "Ġtoler": 7588,
    "Ġtomorrow": 21516,
    "gree": 10703,
    "Ġpinch": 15019,
    "cross": 3577,
    "coast": 10451,
    "sc": 1260,
    "ried": 927,
    "Ġeth": 17718,
    "omely": 21642,
    "head": 1436,
    "piece": 6657,
    "repent": 15516,
    "favourable": 12268,
    "Ġridic": 7507,
    "licted": 20958,
    "Ġlimber": 16481,
    "Ġwait": 4908,
    "Ġfergus": 16869,
    "quee": 4127,
    "Ġcrawl": 11377,
    "ar": 285,
    "Ġbidden": 24647,
    "Ġeighteen": 11241,
    "Ġprovided": 6578,
    "smooth": 20251,
    "Ġadjust": 2155,
    "Ġquartered": 20376,
    "Ġdeepest": 8213,
    "willingly": 11987,
    "church": 8140,
    "Ġwindow": 2997,
    "Ġhalting": 16278,
    "Ġdampening": 2894,
    "coil": 23561,
    "Ġcommencement": 12243,
    "Ġlaz": 7377,
    "Ġjoppa": 12041,
    "Ġpian": 13920,
    "Ġsympathise": 16796,
    "Ġcustody": 13651,
    "cl": 1493,
    "Ġgrandfather": 19425,
    "Ġhouse": 1503,
    "Ġconjugal": 25104,
    "Ġmalice": 7152,
    "quit": 15766,
    "Ġwrites": 23204,
    "pyramid": 21032,
    "Ġhold": 2246,
    "Ġintelligible": 15945,
    "Ġbed": 2151,
    "Ġemac": 16411,
    "Ġpaus": 4299,
    "Ġair": 1837,
    "erringly": 16214,
    "ugging": 23293,
    "Ġbuoy": 8004,
    "Ġduly": 13355,
    "Ġaudits": 24769,
    "Ġunderground": 18985,
    "Ġlac": 17967,
    "Ġshreds": 12775,
    "aks": 8508,
    "ghan": 19458,
    "Ġconnections": 972,
    "ĠĠĠĠĠĠĠĠĠĠĠĠĠĠĠĠĠĠĠĠĠĠĠĠĠĠĠĠĠĠĠĠĠĠĠĠĠĠĠĠĠ": 19585,
    "Ġcivilised": 24247,
    "Ġcocaine": 20723,
    "_âĢĶ": 11469,
    "Ġdomes": 23678,
    "Ġshows": 8484,
    "Ġbegun": 7242,
    "Ġrolled": 4432,
    "Ġslung": 23172,
    "da": 17516,
    "nose": 17612,
    "Ġexisted": 15757,
    "Ġrascally": 26508,
    "neg": 12870,
    "caves": 20818,
    "Ġsant": 21217,
    "Ġcontextual": 3744,
    "Ġshallow": 14397,
    "lady": 4435,
    "australian": 20564,
    "Ġarch": 960,
    "examine": 25478,
    "Ġshol": 21999,
    "Ġarguments": 8037,
    "Ġamput": 16038,
    "Ġspoiled": 11365,
    "Ġcondem": 6339,
    "Ġ14": 9326,
    "Ġcomfortably": 16617,
    "guarded": 13299,
    "Ġcouldn": 7648,
    "Ġangle": 8606,
    "Ġnetwork": 452,
    "prolong": 23398,
    "Â": 131,
    "dec": 3113,
    "Ġprecious": 5760,
    "dr": 6222,
    "Ġspiritual": 9933,
    "Ġcra": 2334,
    "Ġethiop": 26156,
    "Ġslavish": 23177,
    "3": 23,
    ".âĢĻ": 1721,
    "Ġexhib": 6350,
    "Ġassaults": 15160,
    "dled": 9114,
    "wling": 11547,
    "Ġentry": 11028,
    "Ġbutcher": 18272,
    "irm": 3108,
    "else": 6534,
    "Ġmaintains": 2144,
    "oubtedly": 6942,
    "Ġ16": 7927,
    "Ġclassification": 1109,
    "Ġviolates": 3165,
    "occur": 19578,
    "igate": 8827,
    "Ġexpert": 18862,
    "Ġnorthwards": 19549,
    "poises": 11893,
    "Ġremarking": 13128,
    "determ": 7106,
    "othe": 2614,
    "Ġcetology": 10012,
    "declined": 25175,
    "ifies": 6687,
    "Ġcoppers": 22586,
    "Ġquantity": 6947,
    "plague": 21963,
    "Ġsearch": 2591,
    "rog": 15644,
    "Ġpriest": 7525,
    "Ġfall": 2987,
    "Ġunbecoming": 22068,
    "ergy": 2362,
    "Ġantelope": 24183,
    "Ġturks": 14600,
    "ouses": 5163,
    "Ġgordon": 26469,
    "Ġsoften": 23126,
    "tail": 8765,
    "Ġreceptive": 1564,
    "Ġfowl": 11332,
    "apparently": 15208,
    "Ġsteps": 2863,
    "Ġharm": 5017,
    "Ġbask": 8117,
    "expressive": 24307,
    "listened": 15046,
    "define": 1526,
    "large": 6627,
    "Ġfinally": 4667,
    "Ġvault": 8845,
    "Ġprimitive": 25064,
    "Ġforeign": 9875,
    "elopement": 23133,
    "ote": 4597,
    "þ": 191,
    "Ġtal": 7563,
    "ited": 1750,
    "Ġreduce": 7943,
    "Ġstumped": 24945,
    "Ġrecovered": 5481,
    "opening": 10315,
    "Ġnupt": 13946,
    "contriv": 19294,
    "tawn": 21083,
    "Ġ81": 24457,
    "Ġthrough": 603,
    "Ġticklish": 25037,
    "worn": 13809,
    "Ġaffords": 16736,
    "Ġeffectively": 2679,
    "flask": 12104,
    "Ġrick": 21974,
    "Ġdusty": 14928,
    "pling": 8478,
    "constantly": 24607,
    "Ġprosperity": 20260,
    "Ġfiftieth": 24702,
    "Ġenables": 725,
    "Ġecstasy": 11633,
    "Ġbite": 10799,
    "Ġarsacidean": 20368,
    "Ġsolicited": 20040,
    "Ġvagueness": 25738,
    "Ġtrapped": 23079,
    "lid": 20947,
    "I": 45,
    "hug": 17565,
    "aciously": 12912,
    "Ġjackson": 24243,
    "reproof": 25433,
    "hawk": 7122,
    "Ġcorrupt": 11927,
    "Ġodorous": 19569,
    "Ġdropping": 7482,
    "Ġeyeing": 6460,
    "Ġforc": 9230,
    "Ġcolours": 12980,
    "Ġclearly": 6896,
    "Ġmisgiv": 14348,
    "Ġlima": 10444,
    "happ": 3103,
    "Ġcircumvent": 25067,
    "Ġtopsails": 19196,
    "Ġlastly": 16208,
    "rist": 10125,
    "Ġcapacious": 19179,
    "ria": 15799,
    "stat": 21647,
    "Ġthine": 7373,
    "Ġrashly": 20308,
    "Ġdear": 1539,
    "oar": 12502,
    "irty": 4046,
    "Ġintruding": 21995,
    "Ġmeanest": 12915,
    "luck": 5733,
    "Ġplata": 25120,
    "Ġnominal": 15172,
    "Ġwhispered": 5338,
    "Ġlimits": 3454,
    "bearings": 25372,
    "Ġdefray": 22944,
    "Ġdiscernible": 15073,
    "Ġbenef": 3489,
    "div": 8076,
    "brothers": 17026,
    "Ġkeenly": 9488,
    "native": 17614,
    "È": 137,
    "Ġdictionaries": 12344,
    "Ġprevent": 756,
    "Ġboarded": 13239,
    "unusual": 21883,
    "whereby": 23421,
    "rmsprop": 4523,
    "silver": 19693,
    "lun": 20948,
    "Ġrewarding": 13441,
    "Ġdismasted": 15255,
    "Ġassume": 10518,
    "Ġprair": 7746,
    "involuntarily": 20418,
    "Ġcoarsely": 25830,
    "Ġentrances": 25835,
    "Ġlory": 12657,
    "otted": 14027,
    "confl": 22475,
    "Ġevolved": 9895,
    "Ġgravity": 9251,
    "source": 11528,
    "Ġdisagree": 22536,
    "Ġnew": 1201,
    "Ġkn": 4547,
    "Ġloveliest": 20264,
    "Ġword": 1056,
    "Ġrucastle": 5176,
    "Ġoccupation": 9934,
    "Ġhurling": 19112,
    "Ġdefile": 18826,
    "credit": 12453,
    "izers": 18145,
    "Ġpaint": 7707,
    "retion": 9366,
    "Ġale": 9157,
    "sleepers": 24729,
    "Ġinsignificance": 20460,
    "Ġpeeping": 16131,
    "Ġers": 15463,
    "Ġfavourite": 5271,
    "Ġ127": 24472,
    "Ġstarting": 7728,
    "wal": 10136,
    "studies": 25170,
    "horrors": 20544,
    "Ġwhich": 505,
    "Ġunconsc": 6553,
    "mpt": 6655,
    "Ġ102": 24410,
    "Ġeaves": 15680,
    "cheap": 23806,
    "crowd": 25255,
    "Ġbrazier": 26322,
    "ep": 445,
    "borough": 20787,
    "Ġtouch": 3397,
    "Ġpraying": 19557,
    "Ġwhimsical": 20431,
    "Ġpoint": 2056,
    "lim": 9609,
    "angu": 564,
    "Ġtasks": 1789,
    "Ç": 136,
    "Ġcelerity": 17439,
    "deli": 15348,
    "rade": 9682,
    "extric": 22768,
    "uendoes": 26409,
    "employed": 17264,
    "Ġach": 2620,
    "T": 56,
    "Ġknowledge": 1447,
    "sis": 1806,
    "Ġmenacing": 23111,
    "Ġelixir": 26557,
    "oused": 6557,
    "madly": 24420,
    "comm": 7439,
    "Ġstriding": 16097,
    "Ġcasc": 15560,
    "Ġspecial": 2101,
    "presence": 18491,
    "uts": 8820,
    "Ġadded": 2717,
    "Ġslink": 23167,
    "Ġquestioning": 10465,
    "Ġproport": 2300,
    "Ġintimidated": 24802,
    "ications": 4447,
    "eline": 2258,
    "Ġpursuing": 9441,
    "Ġdoll": 10815,
    "promised": 12256,
    "ocations": 23710,
    "Ġlizzy": 3547,
    "Ġ56": 24320,
    "distrust": 19573,
    "ppo": 18178,
    "Ġarrowy": 25470,
    "Ġhovered": 12636,
    "Ġnewly": 9341,
    "Ġcontinent": 14891,
    "ric": 1378,
    "Ġpettiness": 24232,
    "Ġstealing": 18896,
    "orse": 5807,
    "Ġtattooings": 24901,
    "rig": 7555,
    "Ġrecl": 16140,
    "Ġshoulder": 5849,
    "Ġpeculiarly": 8287,
    "Ġdaylight": 10353,
    "ateg": 1353,
    "grand": 7970,
    "unvarying": 21891,
    "iant": 5427,
    "square": 15062,
    "Ġdam": 2218,
    "Ġchar": 1704,
    "Ġreneg": 21678,
    "Ġgrapp": 14104,
    "Ġmatted": 22917,
    "bowsprit": 16855,
    "Ġcramped": 23534,
    "Ġspurred": 22142,
    "Ġinfinitely": 8966,
    "Ġq": 1086,
    "collins": 6915,
    "Ġnorthumbria": 24173,
    "tranquillity": 20549,
    "21": 10075,
    "terbury": 21828,
    "lorious": 17594,
    "Ġmalignant": 14881,
    "Ġwhirlwinds": 20468,
    "Ġinclud": 1511,
    "shutters": 20316,
    "Ġabated": 18391,
    "sales": 17669,
    "athom": 12945,
    "Ġclasped": 17209,
    "didst": 19352,
    "Ġscales": 4851,
    "Ġjer": 6267,
    "pass": 4291,
    "Ġtex": 15475,
    "Ġhumbly": 16201,
    "accomplishments": 25327,
    "disciple": 16780,
    "Ġstreets": 5864,
    "Ġdazed": 15600,
    "âĢĻ!âĢĿ": 18170,
    "Ġporing": 21470,
    "sea": 4764,
    "atively": 2696,
    "Ġmasts": 6465,
    "Ġgratitude": 5599,
    "lect": 1224,
    "Ġsickbed": 24249,
    "Ġcaulking": 20296,
    "Ġconsid": 1815,
    "Ġmagnitude": 1945,
    "igen": 4831,
    "stock": 13227,
    "Ġhos": 4942,
    "shire": 3021,
    "Ġall": 422,
    "Ġdrifting": 19281,
    "Ġsporting": 17001,
    "jep": 20928,
    "ortment": 22261,
    ",âĢĿ": 580,
    "Ġawful": 6200,
    "Ġkingdom": 12023,
    "understand": 1104,
    "Ġunder": 1634,
    "Ġmisconduct": 22761,
    "Ġconcentrate": 25066,
    "Ġrepresenting": 4058,
    "Ġcompletely": 4861,
    "pron": 9009,
    "Ġsoar": 18278,
    "mut": 17597,
    "evinced": 19928,
    "Ġcl": 556,
    "Ġwisely": 13277,
    "Ġunprejudiced": 18270,
    "Ġappo": 8499,
    "Ġaccounts": 7206,
    "Ġpalp": 11252,
    "Ġeggs": 12346,
    "Ġirrevocably": 15301,
    "raising": 21635,
    "bitterly": 20340,
    "Ġfavoured": 16364,
    "Ġrep": 1939,
    "wont": 21135,
    "ef": 5134,
    "Ġlurks": 11292,
    "Ġfocuses": 8653,
    "Ġbravery": 23840,
    "Ġjetted": 24431,
    "Ġrealities": 18982,
    "Ġfrancisco": 26065,
    "kshire": 13749,
    "Ġserves": 4669,
    "immedi": 8452,
    "Ġautomatically": 3516,
    "separ": 9233,
    "Ġalarm": 4044,
    "morland": 24154,
    "O": 51,
    "remains": 10401,
    "thar": 18218,
    "Ġpertaining": 18452,
    "list": 7550,
    "Ġdrawer": 13271,
    "ke": 429,
    "lay": 5891,
    "Ġroving": 22406,
    "inction": 6662,
    "ryder": 18650,
    "Ġprevented": 5942,
    "oned": 4631,
    "Ġdisdained": 15012,
    "Ġslyness": 25267,
    "Ġemployments": 12107,
    "Ġexpost": 18625,
    "Ġcosy": 13134,
    "abomin": 15746,
    "Ġmach": 13860,
    "quer": 11683,
    "rupt": 3211,
    "great": 3518,
    "Ġfinancial": 23131,
    "Ġced": 10786,
    "Ġsilken": 16385,
    "Ġnostrils": 10945,
    "Ġgreeks": 20016,
    "Ġtreats": 19347,
    "Ġperched": 10302,
    "enthusiastic": 20695,
    "weeks": 14319,
    "Ġphr": 2682,
    "introduced": 15128,
    "rived": 5373,
    "Ġdisco": 3430,
    "iment": 2818,
    "Ġsubstant": 14812,
    "service": 15039,
    "Ġchecking": 23289,
    "ze": 1360,
    "Ġsuav": 22085,
    "Ġbuy": 8300,
    "Ġdutch": 6328,
    "Ġlost": 2635,
    "p": 84,
    "Ġmournfully": 20120,
    "Ġgle": 7859,
    "Ġearth": 2850,
    "Ġstare": 10866,
    "elze": 21576,
    "Ġwing": 6667,
    "Ġmilky": 9950,
    "Ġprodigies": 19796,
    "Ġprogressive": 5024,
    "spell": 22740,
    "Ġ270": 25133,
    "restored": 18979,
    "ana": 15563,
    "owder": 8450,
    "Ġremorselessly": 16969,
    "Ġwithdraw": 16966,
    "impud": 23762,
    "Ġidentify": 12018,
    "87": 20759,
    "Ġreckoned": 24743,
    "Ġnorton": 12654,
    "Ġsallow": 12541,
    "Ġgame": 3629,
    "Ġshaggy": 13574,
    "Ġtester": 21175,
    "abash": 18110,
    "Ġtrue": 1338,
    "probable": 17023,
    "analy": 17840,
    "Ġconcocted": 26300,
    "Ġsiberia": 26162,
    "Ġtempor": 2367,
    "Ġdiana": 21439,
    "Ġavenue": 13625,
    "Ġliberal": 12195,
    "ractions": 11636,
    "deduction": 23670,
    "Ġmight": 964,
    "Ġdrags": 16943,
    "Ġlocket": 22117,
    "woes": 21136,
    "Ġcarter": 18902,
    "pleasure": 5978,
    "Ġseventeen": 26212,
    "Ġbrush": 17866,
    "Ġiceberg": 14719,
    "yond": 2332,
    "Ġ107": 24415,
    "lingly": 9776,
    "Ġshuddering": 9054,
    "quar": 7615,
    "seeing": 7079,
    "%": 9,
    "Ġbatt": 13902,
    "plumed": 21965,
    "Ġshrivelled": 19706,
    "jam": 15375,
    "leaves": 12583,
    "Ġestimate": 19376,
    "÷": 184,
    "Ġproperty": 6450,
    "Ġcontingency": 26246,
    "Ġglistening": 12369,
    "disaster": 23498,
    "dorff": 15241,
    "Ġdoubting": 13105,
    "provid": 11151,
    "Ġindestruct": 22961,
    "Ġdisaster": 12892,
    "Ġinnocently": 24031,
    "Ġcommentaries": 20163,
    "Ġfris": 23258,
    "Ġoceans": 7996,
    "hement": 13835,
    "Ġflaw": 23016,
    "reeable": 3613,
    "Ġsimilar": 4918,
    "prepar": 22458,
    "Ġrobinson": 17466,
    "Ġitaly": 10869,
    "Ġnick": 21526,
    "Ġpays": 13301,
    "Ġslappin": 18945,
    "Ġhappen": 5571,
    "Ġpy": 21454,
    "jud": 4483,
    "Ġsyrian": 18354,
    "Ġenthusiastic": 19969,
    "Ġbrine": 18771,
    "Ġprofounder": 23571,
    "Ġbricks": 13566,
    "Ġbolted": 12249,
    "muring": 17603,
    "gay": 11491,
    "fancy": 7336,
    "alliance": 22204,
    "setting": 13290,
    "phew": 6368,
    "unctuous": 21886,
    "Ġche": 1763,
    "Ġgranting": 18737,
    "Ġimpress": 6861,
    "condemned": 26061,
    "degrees": 22154,
    "Ġconsolidation": 5060,
    "bethinking": 25746,
    "header": 11937,
    "bohemia": 20733,
    "Ġhatred": 8612,
    "allowed": 5728,
    "ol": 362,
    "Ġdears": 18139,
    "Ġrelaxed": 12989,
    "electricity": 26387,
    "Ġlaug": 3628,
    "Ġhasty": 10479,
    "Ġextraordinary": 5414,
    "Ġfattened": 25950,
    "Ġdecks": 6899,
    "Ġconstantinople": 19840,
    "Ġshelf": 12272,
    "ature": 521,
    "Ġanything": 2187,
    "magnificent": 20277,
    "Ġtravels": 11931,
    "Ġknot": 7012,
    "inclination": 20061,
    "Ġstained": 11655,
    "Ġbrisk": 9806,
    "bidden": 19740,
    "diss": 17525,
    "beam": 16042,
    "Ġcontact": 9284,
    "Ġassembl": 20064,
    "Ġrecesses": 17263,
    "carte": 25401,
    "Ġpebbles": 16133,
    "Ġagon": 10323,
    "ientific": 6548,
    "fig": 8738,
    "Ġresc": 4508,
    "ulpt": 10887,
    "contracting": 19295,
    "Ġsweatings": 25709,
    "Ġafter": 869,
    "however": 4376,
    "grasp": 16434,
    "Ġante": 17898,
    "reputable": 15520,
    "Ġprevention": 16095,
    "recognised": 15266,
    "Ġbreaking": 6311,
    "Ġeffemin": 18536,
    "Ġpatients": 24810,
    "Ġschooner": 16749,
    "Ġmaybe": 12954,
    "ermaid": 14301,
    "Ġcloset": 19594,
    "Ġpouring": 12629,
    "Ġflattened": 26048,
    "Ġmastery": 23996,
    "smith": 5669,
    "earthly": 24723,
    "Ġpreventing": 885,
    "Ġponies": 21479,
    "tubes": 25212,
    "oqu": 7554,
    "onomy": 12552,
    "Ġprevailed": 7777,
    "Ġtart": 12533,
    "unsupervised": 10891,
    "Ġhands": 1668,
    "syntax": 5867,
    "Ġunheeded": 18262,
    "quely": 10234,
    "vessel": 11379,
    "Ġmortification": 12099,
    "Ġimposed": 14217,
    "Ġbuff": 9175,
    "Ġknob": 24407,
    "iers": 5991,
    "Ġreason": 1406,
    "inisc": 15491,
    "eland": 11623,
    "Ġgrowing": 6751,
    "Ġdairy": 20689,
    "plutarch": 21967,
    "Ġdeaf": 12726,
    "Ġsunda": 13547,
    "pect": 1255,
    "itan": 10162,
    "retaining": 21248,
    "Ġlulled": 17971,
    "Ġhereditarily": 25225,
    "sies": 21057,
    "Ġplatonian": 25121,
    "epend": 3315,
    "Ġprecipitous": 24836,
    "Ġsleeps": 10448,
    "Ġentail": 9796,
    "Ġfatality": 12100,
    "Ġrig": 4224,
    "Ġfifth": 11259,
    "Ġunable": 4951,
    "Ġwer": 12557,
    "Ġpond": 13919,
    "Ġrans": 21970,
    "Ġgreatness": 12949,
    "occasion": 7753,
    "Ġattaining": 15807,
    "Ġcurtain": 14419,
    "addressed": 13389,
    "aulets": 18622,
    "Ġlone": 11616,
    "Ġproportional": 2528,
    "spent": 12948,
    "chard": 21690,
    "Ġselfish": 7271,
    "musket": 25342,
    "lion": 20946,
    "influences": 25251,
    "Ġedward": 19153,
    "will": 1968,
    "Ġmemorand": 23408,
    "Ġunfrequent": 24110,
    "intimate": 22940,
    "Ġisolated": 13563,
    "Ġdemig": 20359,
    "Ġcommand": 3322,
    "Ġflint": 23015,
    "enthus": 17980,
    "Ġexclusion": 19399,
    "tremble": 17144,
    "qualified": 17099,
    "oars": 9617,
    "Ġviolent": 5117,
    "system": 4030,
    "Ġpikes": 21481,
    "Ġsatir": 18795,
    "ricity": 23066,
    "Ġunembarrassed": 22075,
    "Ġhoneymoon": 25646,
    "qual": 8157,
    "Ġemerged": 8688,
    "erring": 11059,
    "Ġgord": 21603,
    "Ġstartling": 14673,
    "Ġlawless": 19438,
    "harpo": 4806,
    "Ġchaplain": 19914,
    "(_": 7539,
    "oth": 1189,
    "Ġathe": 17743,
    "Ġsqueezing": 25009,
    "Ġah": 5075,
    "Ġfootmarks": 19339,
    "Ġmontan": 22981,
    "Ġpickle": 16724,
    "Ġinstead": 2793,
    "painter": 24897,
    "Ġblaming": 22933,
    "Ġposition": 1955,
    "Ġbead": 21754,
    "ids": 21767,
    "Ġhardship": 18915,
    "Ġcler": 11776,
    "Ġpolished": 11184,
    "gracechurch": 24582,
    "Ġhypothe": 4072,
    "Ġcousin": 3706,
    "oll": 5456,
    "Ġtack": 5621,
    "fal": 17538,
    "Ġfordham": 21780,
    "Ġinitialization": 1254,
    "Ġchapter": 2955,
    "acon": 10684,
    "Ġsituation": 4069,
    "Ġbarbara": 24815,
    "lies": 15385,
    "Ġjenkinson": 11433,
    "ctic": 8443,
    "speps": 14339,
    "Ġhaze": 18197,
    "prepared": 13594,
    "Ġstump": 7602,
    "ertips": 23641,
    "Ġarid": 22186,
    "Ġinsect": 12641,
    "Ġendeavored": 19304,
    ".)": 6783,
    "Ġundiscernible": 22072,
    "fearing": 18530,
    "elements": 25204,
    "Ġbeautiful": 3674,
    "Ġuntrodden": 23526,
    "Ġutilize": 4799,
    "Ġbirds": 5874,
    "enstein": 5800,
    "Ġshoal": 12020,
    "Ġcompletion": 12152,
    "Ġneatly": 17018,
    "Ġkinds": 14508,
    "Ġconfide": 13104,
    "Ġneglecting": 25010,
    "Ġtesting": 23201,
    "intment": 4721,
    "Ġuninhabited": 22055,
    "le": 279,
    "Ġresort": 18564,
    "tails": 21089,
    "Ġmrs": 1467,
    "pursued": 17284,
    "shining": 18496,
    "Ġmonarchs": 25851,
    "nearer": 22454,
    "Ġcynical": 25771,
    "Ġindividually": 22960,
    "civilities": 24974,
    "Ġexpressing": 12013,
    "Ġthemselves": 3253,
    "ts": 959,
    "it": 276,
    "Ġrosings": 4608,
    "Ġ54": 24318,
    "Ġglistened": 20175,
    "Ġemblematical": 25789,
    "Ġdab": 15592,
    "Ġthroes": 24575,
    "Ġoverheard": 11775,
    "dissatisf": 26130,
    "Ġinte": 2065,
    "dependence": 17170,
    "Ġhandfuls": 17212,
    "they": 1884,
    "orph": 21402,
    "Ġinvent": 7164,
    "Ġcocksure": 26260,
    "Ġappal": 18358,
    "oner": 6125,
    "Ġstolen": 14010,
    "guard": 12133,
    "Ġmeditations": 25016,
    "Ġmiles": 3805,
    "6": 26,
    "Ġrefreshing": 20267,
    "presbyter": 20621,
    "governed": 25406,
    "aired": 8369,
    "Ġdotted": 16794,
    "Ġlower": 2661,
    "Ġcorporeal": 17363,
    "Ġdough": 8422,
    "Ġrecede": 25969,
    "Ġthrowing": 6336,
    "ouch": 2783,
    "Ġscreen": 17208,
    "Ġfathoms": 9086,
    "shipping": 10311,
    "Ġdisse": 18549,
    "aret": 7416,
    "lamp": 9611,
    "Ġsecret": 3722,
    "Ġcomply": 8894,
    "Ġgettest": 23236,
    "Ġhunt": 6184,
    "Ġdart": 4586,
    "Ġt": 261,
    "Ġphysi": 9991,
    "justine": 7682,
    "Ġbristling": 20530,
    "porary": 14554,
    "gences": 20879,
    "Ġquarter": 3974,
    "Ġniece": 5712,
    "Ġmou": 13858,
    "Ġsaluted": 14761,
    "Ġwood": 2294,
    "Ġimproves": 22752,
    "room": 2179,
    "gam": 10098,
    "Ġrhine": 12360,
    "superstitious": 17283,
    "ructive": 18545,
    "ibbald": 18843,
    "Ġdisease": 14260,
    "Ġuncle": 3192,
    "Ġlonging": 14303,
    "Ġnamed": 6140,
    "Ġswitzerland": 10382,
    "Ġloaded": 8492,
    "ri": 389,
    "v": 90,
    "Ġexercise": 8359,
    "races": 21633,
    "Ġhoops": 9392,
    "Ġpolite": 9885,
    "Ġlaughs": 24117,
    "Ġappearances": 10453,
    "mas": 5212,
    "Ġbloodshed": 23802,
    "ieties": 19026,
    "vital": 17702,
    "Ġstabilizing": 3658,
    "Ġkramm": 26235,
    "cient": 4570,
    "thomas": 18220,
    "akeman": 6268,
    "Ġclo": 6045,
    "appo": 3914,
    "Ġ31": 12135,
    "heeded": 13837,
    "cannibals": 25585,
    "Ġsmoothe": 23657,
    "alt": 12643,
    "Ġreynolds": 10212,
    "Ġrecovery": 11443,
    "Ġspade": 9262,
    "Ġpe": 851,
    "Ġenlarged": 25986,
    "Ġpleases": 16301,
    "ub": 1227,
    "Ġ120": 16860,
    "Ġplucked": 15117,
    "andish": 18156,
    "Ġstriking": 6088,
    "Ġgem": 21597,
    "Ġintrusted": 21996,
    "Ġinf": 1756,
    "Ġtemper": 956,
    "Ġcomprised": 14270,
    "balls": 12309,
    "Ġdella": 21442,
    "Ġheaded": 11056,
    "apside": 22963,
    "Ġincident": 6281,
    "depart": 12270,
    "Ġlatent": 19658,
    "Ġvol": 4188,
    "falling": 24361,
    "previously": 17210,
    "Ġstanzas": 21748,
    "Ġwhirled": 14963,
    "Ġsodden": 25536,
    "iriously": 18174,
    "Ġwarmup": 3921,
    "Ġreckless": 13462,
    "conside": 9293,
    "Ġagainst": 1699,
    "Ġclust": 9277,
    "ootiful": 17376,
    "Ġchambers": 16801,
    "Ġsoftened": 11104,
    "Ġuseful": 3560,
    "Ġsplendour": 20227,
    "Ġdies": 11596,
    "counter": 20281,
    "Ġbuffalo": 11431,
    "Ġconsumed": 10352,
    "Ġrapture": 13499,
    "rey": 12543,
    "inferior": 12398,
    "Ġintermission": 18590,
    "Ġcargo": 16293,
    "Ġwhose": 2008,
    "<SOS>": 1,
    "indirectly": 18438,
    "jur": 17580,
    "Ġrural": 21971,
    "Ġoverwrites": 5033,
    "Ġalluding": 18237,
    "Ġobjective": 3766,
    "Ġcontinuous": 1563,
    "ornamented": 26597,
    "Ġadhering": 14143,
    "kward": 6957,
    "commod": 16174,
    "Ġirksome": 13116,
    "Ġartfully": 22613,
    "oices": 7347,
    "anque": 13891,
    "rious": 11692,
    "Ġcrib": 21351,
    "leg": 2816,
    "Ġtrack": 7449,
    "Ġther": 17780,
    "ante": 11725,
    "extra": 8219,
    "nurse": 15212,
    "amy": 8469,
    "Ġlacepede": 20498,
    "inform": 10146,
    "urs": 6989,
    "wait": 11322,
    "Ġinterment": 22578,
    "Ġdeception": 18142,
    "Ġladyship": 5046,
    "ments": 1399,
    "Ġvi": 1954,
    "Ġcareer": 11120,
    "skeleton": 17379,
    "henry": 16628,
    "reeling": 21247,
    "Ġafghan": 22630,
    "brad": 20782,
    "Ġman": 544,
    ",âĢĿâĢĶ": 14223,
    "Ġsleep": 2403,
    "Ġpatent": 11966,
    "Ġburying": 19254,
    "Ġjewell": 19523,
    "Ġdevelop": 1600,
    "ħ": 232,
    "offended": 16402,
    "Ġfreckled": 18960,
    "Ġbaleen": 10040,
    "gradu": 18618,
    "Ġpreferment": 19855,
    "ivance": 22087,
    "seas": 14036,
    "Ġperry": 22400,
    "Ġbow": 3061,
    "Ġteneriffe": 26416,
    "unhes": 21879,
    "bable": 8722,
    "transition": 24513,
    "flames": 14715,
    "Ġvulture": 17342,
    "Ġcombining": 22841,
    "warks": 5004,
    "Ġregrets": 18601,
    "Ġrandomly": 1922,
    "Ġrifled": 21980,
    "generous": 16571,
    "gan": 2198,
    "Ġlanterns": 24578,
    "Ġmoored": 11796,
    "Ġexercised": 24800,
    "Ġobsequious": 17407,
    "am": 368,
    "imble": 10860,
    "Ġtertiary": 15298,
    "archangel": 18792,
    "Ġben": 1108,
    "historian": 25735,
    "Ġve": 1107,
    "coll": 23781,
    "esu": 17902,
    "Ġrepining": 23363,
    "per": 479,
    "Ġdishon": 12235,
    "aging": 2240,
    "Ġflattered": 10377,
    "approbation": 11460,
    "dogs": 25403,
    "ator": 1924,
    "Ġpenetrated": 13476,
    "hering": 12819,
    "ete": 9206,
    "Ġrubbed": 12960,
    "ret": 1477,
    "Ġgaol": 19570,
    "robotics": 11308,
    "Ġfluctuations": 5516,
    "Ġdisconnected": 22529,
    "Ġdanced": 7842,
    "wel": 6118,
    "enet": 10155,
    "Ġapoplexy": 25266,
    "Ġmccarthy": 5145,
    "Ġbumping": 25281,
    "Ġgidd": 25784,
    "tempered": 13450,
    "geneva": 13733,
    "Ġfading": 15588,
    "united": 14063,
    "acute": 22601,
    "umerable": 11729,
    "Ġcal": 1323,
    "Ġobsequ": 14323,
    "protested": 13478,
    "Ġbehavior": 8002,
    "Ġbracelets": 25503,
    "Ġpulley": 2975,
    "Ġfairer": 20465,
    "Ġmediocrity": 26610,
    "Ġseventh": 18205,
    "arat": 9183,
    "Ġtracing": 18892,
    "igantic": 5539,
    "Ġxvi": 19106,
    "Ġsummit": 7730,
    "eneva": 5118,
    "extent": 22767,
    "tahit": 17694,
    "Ġgales": 12670,
    "saw": 5894,
    "Ġbaronial": 23795,
    "topp": 22569,
    "kington": 11204,
    "deep": 1060,
    "Ġbagging": 24539,
    "Ġtu": 6968,
    "soles": 18690,
    "certain": 3678,
    "fatigue": 20660,
    "Ġreconc": 9686,
    "Ġflask": 3040,
    "Ġindefatigable": 17180,
    "Ġapply": 1777,
    "chancing": 22912,
    "itters": 10783,
    "back": 2016,
    "Ġteasing": 11894,
    "Ġimple": 1851,
    "Ġpacific": 5153,
    "Ġga": 4448,
    "entiating": 3439,
    "reck": 9639,
    "resist": 8276,
    "Ġjewels": 12373,
    "rise": 6227,
    "Ġproject": 5546,
    "Ġaccordance": 19501,
    "Ġbalances": 2342,
    "Ġaw": 2512,
    "Ġocc": 889,
    "Ġstash": 18070,
    "Ġexpectantly": 23529,
    "Ġprecipitate": 19945,
    "Ġcomprehens": 8320,
    "Ġagrees": 22520,
    "unavoidable": 17393,
    "Ġmid": 2615,
    "language": 5129,
    "ite": 712,
    "franch": 24286,
    "Ġgroaned": 11268,
    "vex": 21705,
    "Ġexplanatory": 22206,
    "Ġdistrust": 8204,
    "Ġnav": 5819,
    "Ġembedd": 1419,
    "Ġtrade": 2549,
    "Ġprincely": 24149,
    "Ġtyphoons": 20237,
    "Ġ116": 24440,
    "Ġextent": 7655,
    "Ġstatement": 5255,
    "Ġfulf": 6772,
    "Ġreadability": 2725,
    "Ġindign": 6174,
    "stopping": 19353,
    "oop": 10717,
    "Ġappropriate": 2251,
    "Ġdomineering": 23680,
    "Ġshrieking": 24757,
    "Ġeventually": 8620,
    "Ġimaginations": 16518,
    "Ġrustic": 14968,
    "Ġsust": 7008,
    "Ġkissed": 10048,
    "ailed": 3249,
    "Ġsweat": 13144,
    "altering": 12645,
    "rann": 21047,
    "Ġdesirable": 8944,
    "Ġsituations": 10494,
    "Ġmamm": 25093,
    "oing": 15404,
    "Ġprivileged": 20116,
    "eldest": 22804,
    "Ġflutter": 16252,
    "wer": 8396,
    "Ġworked": 6584,
    "Ġpell": 21459,
    "Ġgulp": 20032,
    "Ġsam": 7568,
    "Ġkink": 22197,
    "Ġjulia": 22306,
    "Ġancest": 12619,
    "uccas": 21109,
    "Ġsagacity": 16976,
    "Ġsaw": 1349,
    "Ġbremen": 23348,
    "Ġfoaming": 18993,
    "bone": 5612,
    "Ġeach": 893,
    "Ġcanaller": 25468,
    "Ġerecting": 24653,
    "links": 20960,
    "Ł": 258,
    "shook": 19858,
    "ilburn": 18062,
    "hotel": 20053,
    "Ġcarcase": 14447,
    "stumps": 21662,
    "Ġeasy": 3453,
    "iver": 2049,
    "breeze": 20565,
    "without": 4848,
    "Ġjing": 15953,
    "Ġdoubt": 2226,
    "Ġupset": 22157,
    "urned": 9309,
    "abular": 4763,
    "bitt": 17488,
    "ript": 4150,
    "Ġunusual": 6554,
    "Ġalow": 18102,
    "narrated": 25622,
    "allet": 11085,
    "Ġlaud": 17970,
    "Ġbrains": 2629,
    "Ġto": 297,
    "Ġprotecting": 24687,
    "Ġrestraint": 15131,
    "Ġincreases": 3797,
    "Ġeasiest": 23541,
    "Ġhapless": 15816,
    "admiration": 11389,
    "Ġclutches": 20021,
    "Ġstaring": 8829,
    "Ġdesiring": 14417,
    "jump": 10106,
    "Ġunhappiness": 14121,
    "Ġunimaginable": 15250,
    "gus": 13728,
    "extensive": 18709,
    "Ġpots": 9431,
    "Ġdescried": 7919,
    "thest": 11657,
    "Ġreve": 2932,
    "ures": 837,
    "Ġessentially": 24925,
    "Ġix": 12673,
    "Ġadro": 15871,
    "Ġmutual": 8297,
    "surrounded": 26089,
    "Ġfraud": 19035,
    "ington": 21304,
    "roylott": 20030,
    "outon": 12808,
    "pull": 6796,
    "smo": 10128,
    "Ġslice": 23164,
    "extrem": 18708,
    "roads": 17960,
    "Ġhan": 15622,
    "Ġfrantically": 23261,
    "Ġolive": 12570,
    "Ġquadr": 8200,
    "Ġgre": 1584,
    "Ġplaintiffs": 13613,
    "apable": 6422,
    "Ġresigned": 9771,
    "Ġseparately": 13307,
    "Ġbrawn": 10484,
    "Ġquite": 1741,
    "Ġsuppression": 23003,
    "Ġbehind": 2810,
    "ishes": 6523,
    "east": 9118,
    "Ġconcl": 5095,
    "Ġphilist": 16603,
    "geese": 22371,
    "Ġsummarization": 3648,
    "ism": 4875,
    "Ġinvolve": 11042,
    "Ġguessed": 11284,
    "Ġequals": 4728,
    "withstanding": 8948,
    "Ġlav": 13953,
    "Ġmodern": 3230,
    "Ġliking": 23593,
    "Ġcomplaisance": 19452,
    "Ġhish": 21917,
    "Ġleviathanic": 12085,
    "aked": 2015,
    "rints": 12507,
    "Ġavoid": 5199,
    "Ġtowers": 16740,
    "artificial": 1013,
    "uing": 17695,
    "sight": 5995,
    "wrinkles": 16557,
    "Ġrelates": 12986,
    "Ġcalcul": 3639,
    "Ġprizes": 13078,
    "Ġdistinguished": 8273,
    "hawks": 24695,
    "Ġtus": 10751,
    "Ġstation": 5299,
    "Ġrespectfully": 18995,
    "avering": 24792,
    "ernal": 4312,
    "Ġcringing": 25942,
    "Ġresemble": 15697,
    "Ġcharge": 5325,
    "Ġbumpkin": 20203,
    "strongly": 24685,
    "atherine": 2596,
    "Ġrods": 9756,
    "preading": 18492,
    "Ġcouns": 10523,
    "Ġ135": 24784,
    "angels": 22106,
    "Ġdearest": 5457,
    "Ġgenerate": 1495,
    "Ġdepose": 22591,
    "Ġborders": 15576,
    "Ġsphynx": 20714,
    "gold": 9123,
    "Ġpeaked": 2298,
    "Ġhesitation": 13445,
    "fingers": 17373,
    "Ġtablet": 19208,
    "underneath": 23790,
    "Ġelementary": 24811,
    "<UNK>": 3,
    "whole": 6085,
    "vul": 15451,
    "Ġlanguages": 1569,
    "Ġassumed": 9468,
    "fooled": 24419,
    "Ġassoc": 6402,
    "Ġcherish": 10592,
    "beginning": 13565,
    "Ġtreacherously": 25132,
    "Ġgallop": 19558,
    "Ġdish": 6137,
    "Ġadmission": 23558,
    "Ġunscrew": 22044,
    "stirred": 20428,
    "Ġdreaming": 11225,
    "rich": 11520,
    "Ġbreezes": 14872,
    "Ġoffend": 16148,
    "meadow": 18680,
    "Ġtransparen": 10544,
    "Ġlight": 1701,
    "Ġrights": 10399,
    "Ġstarboard": 7604,
    "rigible": 24932,
    "Ġimpenetrable": 17400,
    "Ġelegance": 11334,
    "Ġmad": 2428,
    "hued": 20913,
    "Ġpredecess": 18528,
    "Ġharb": 7369,
    "vert": 15719,
    "Ġwearied": 15798,
    "Ġreading": 5114,
    "Ġcommonplaces": 16292,
    "Ġteacup": 16215,
    "Ġdiscoveries": 13363,
    "establishment": 26114,
    "dressing": 11484,
    "Ġirreducible": 5519,
    "orte": 14187,
    "cabin": 8363,
    "daw": 17524,
    "emph": 21932,
    "Ġfashions": 17887,
    "execut": 13659,
    "beyond": 8886,
    "Ġlegs": 4917,
    "prehensible": 12364,
    "slow": 7810,
    "izing": 1069,
    "figured": 20126,
    "hard": 4690,
    "strugg": 21665,
    "Ġwrapt": 24596,
    "iar": 2379,
    "thanking": 24326,
    "serv": 7450,
    "range": 3495,
    "estinated": 15925,
    "Ġsiam": 13841,
    "Ġtrample": 20330,
    "Ġrapt": 7225,
    "Ġobtain": 8918,
    "dutch": 17221,
    "darkness": 9515,
    "haul": 14768,
    "Ġoverlooked": 15972,
    "Ġsundry": 20077,
    "Ġbowels": 9433,
    "satisfied": 10581,
    "ops": 5248,
    "awake": 14455,
    "Ġcases": 3959,
    "Ġstark": 7389,
    "eck": 20846,
    "Ġhearties": 18967,
    "Ġowen": 15098,
    "supposing": 24135,
    "Ġportrait": 10664,
    "Ġencountering": 11271,
    "regard": 7973,
    "cheered": 23807,
    "incl": 8110,
    "Ġdefects": 12337,
    "Ġlamb": 8817,
    "Ġlancaster": 26342,
    "Ġramadan": 9578,
    "ython": 1029,
    "Ġinsert": 19907,
    "ental": 7168,
    "Ġconceived": 8150,
    "Ġhurts": 19113,
    "Ġmisunderstood": 18706,
    "Ġobstinate": 11338,
    "traversed": 19650,
    "idate": 21771,
    "mp": 3729,
    "Ġdownward": 10334,
    "è": 169,
    "names": 16531,
    "ditch": 17530,
    "Ġsof": 18277,
    "ieving": 7032,
    "Ġfolio": 11923,
    "Ġwaking": 11573,
    "thinks": 16644,
    "awful": 23118,
    "Ġearnestly": 5979,
    "Ġmistakes": 16543,
    "â": 163,
    "Ġhelplessness": 25074,
    "ty": 999,
    "Ġfortresses": 23623,
    "Ġadhes": 22110,
    "fields": 14655,
    "Ġforbidden": 17079,
    "char": 3504,
    "acher": 6867,
    "lightened": 12069,
    "Ġbigot": 24566,
    "ager": 6547,
    "Ġaverred": 18867,
    "Ġmonotonically": 3835,
    "rified": 15422,
    "court": 7510,
    "Ġunrestingly": 20364,
    "comprehensive": 20629,
    "Ġ181": 23899,
    "Ġpiratical": 24798,
    "tempted": 26405,
    "cordiality": 25140,
    "Ġretrogress": 23076,
    "hanging": 10103,
    "Ġobe": 5801,
    "Ġfilled": 4397,
    "Ġevaluate": 3206,
    "Ġlawn": 7378,
    "unimportant": 18162,
    "Ġshowers": 16607,
    "Ġmississ": 18840,
    "ount": 1114,
    "Ġsnows": 14729,
    "Ġmusket": 12300,
    "Ġbunch": 11328,
    "Ġdere": 21838,
    "eler": 1572,
    "Ġdispirited": 23885,
    "unusually": 15784,
    "Ġvineyarder": 25607,
    "goldsmith": 20150,
    "Ġbearing": 5300,
    "ruined": 18346,
    "Ġdams": 16457,
    "Ġleague": 6539,
    "neglect": 25669,
    "cules": 12395,
    "Ġinsist": 9894,
    "disposition": 10045,
    "Ġdrugg": 17122,
    "illa": 12798,
    "cousin": 10655,
    "Ġresembling": 4095,
    "Ġhandful": 9786,
    "Ġmarlings": 23039,
    "Ġlog": 1680,
    "sford": 5998,
    "alions": 21504,
    "Ġidler": 16409,
    "Ġdissu": 18551,
    "Ġgreas": 17994,
    "der": 468,
    "Ġswart": 14437,
    "Ġrichest": 26213,
    "antucket": 2643,
    "Ġreaction": 15699,
    "Ġinde": 7370,
    "Ġgently": 7171,
    "Ġspect": 3553,
    "Ġsaws": 23052,
    "gement": 13731,
    "err": 1142,
    "ording": 9767,
    "ineff": 21984,
    "embraces": 25804,
    "Ġquote": 18467,
    "Ġshade": 6551,
    "terday": 4705,
    "impossible": 8828,
    "Ġcentaurs": 23836,
    "Ġfabric": 25948,
    "Ġgreece": 17070,
    "suspected": 12376,
    "Ġwalking": 4324,
    "Ġref": 912,
    "Ġtahiti": 13623,
    "rets": 12546,
    "Ġportion": 7491,
    "Ġtar": 2565,
    "Ġpatagonia": 25858,
    "exerc": 16019,
    "Ġsignificant": 8637,
    "Ġfill": 5701,
    "easily": 17536,
    "Ġdomestic": 6909,
    "Ġabandonment": 25604,
    "Ġrotterdam": 25476,
    "Ġluckless": 16799,
    "Ġlot": 6679,
    "Ġcigar": 9548,
    "Ġelud": 22652,
    "Ġosc": 2836,
    "uer": 21103,
    "Ġprosper": 10231,
    "contr": 12061,
    "chose": 18043,
    "Ġsnugness": 20080,
    "Ġartificial": 781,
    "Ġmutable": 23958,
    "lar": 4485,
    "triumph": 15443,
    "belled": 24039,
    "Ġgour": 21601,
    "Ġdisorder": 16054,
    "world": 5058,
    "Ġdru": 8423,
    "mud": 20973,
    "atra": 17773,
    "Ġinboard": 17935,
    "Ġbier": 22764,
    "Ġburgl": 13177,
    "Ġchagrin": 20610,
    "miserably": 24213,
    "Ġwoodcock": 19165,
    "Ġswain": 18882,
    "Ġgoug": 17993,
    "Ġslighted": 16570,
    "Ġcorpulence": 24509,
    "Ġstate": 1811,
    "improve": 15716,
    "Ġprinces": 23226,
    "itical": 5802,
    "Ġcell": 6238,
    "Ġchief": 3383,
    "Ġconfederate": 17356,
    "Ġflock": 21414,
    "Ġpouch": 21472,
    "Ġpoisonous": 24888,
    "Ġimpression": 5732,
    "Ġpop": 5151,
    "Ġdiscerned": 25006,
    "Ġbottled": 23797,
    "Ġexpiring": 16099,
    "Ġfollow": 1395,
    "fters": 20863,
    "Ġoxford": 11373,
    "slouched": 24557,
    "Ġpunch": 9958,
    "lers": 10109,
    "Ġpredef": 18526,
    "Ġinterpreter": 23217,
    "particular": 5757,
    "Ġyojo": 7610,
    "Ġgrizz": 10355,
    "Ġcreases": 22734,
    "okers": 18442,
    "Ġ\"": 6120,
    "20": 20755,
    "bowed": 10687,
    "Ġjub": 22299,
    "chance": 6826,
    "performances": 26007,
    "Ġpersevering": 20236,
    "Ġsurrey": 14561,
    "Ġconspicuous": 13607,
    "Ġhatter": 4109,
    "pool": 16211,
    "ableness": 8149,
    "headed": 4318,
    "Ġbriskly": 25312,
    "hooked": 23718,
    "programming": 10066,
    "Ġomin": 11580,
    "lab": 3457,
    "Ġrevelation": 25223,
    "ĸ": 249,
    "Ġmurky": 19204,
    "ous": 477,
    "whiskers": 12315,
    "octavo": 11387,
    "Ġmoderation": 12825,
    "Ġscraped": 16905,
    "Ġmy": 412,
    "vine": 10736,
    "Ġquoin": 22422,
    "Ġimbec": 14159,
    "Ġ_": 839,
    "acquainted": 7312,
    "pos": 15413,
    "Ġzeros": 3325,
    "Ġloungers": 24863,
    "Ġneatness": 19935,
    "Ġteeth": 4164,
    "ulate": 5233,
    "Ġpointing": 5661,
    "Ġcooper": 16079,
    "ainted": 3660,
    "begged": 18518,
    "returning": 12210,
    "ago": 14068,
    "sk": 5521,
    "Ġanx": 3181,
    "Ġaccustomed": 6860,
    "ssip": 14082,
    "finish": 24384,
    "Ġacquainted": 5179,
    "Ġslips": 23170,
    "Ġezekiel": 26194,
    "Ġfowls": 8694,
    "Ġentrance": 7232,
    "Ġstoke": 10398,
    "powder": 17647,
    "Ġdesol": 6880,
    "Ġmarried": 3410,
    "Ġhandspike": 22701,
    "Ġidentifies": 12019,
    "Ġunjustly": 17129,
    "Ġmerid": 13197,
    "Ġpout": 17908,
    "urous": 10215,
    "Ġsatan": 14393,
    "Ġpeeled": 14321,
    "Ġblame": 6446,
    "salis": 25150,
    "Ġwhereon": 16105,
    "preservation": 25306,
    "elly": 17982,
    "Ġbrooks": 25701,
    "ascal": 10195,
    "Ġjavan": 25000,
    "Ġmarbank": 23040,
    "Ġinvestigation": 9045,
    "Ġdressing": 7091,
    "Ġwhistled": 24624,
    "Ġcalm": 3448,
    "engthen": 14461,
    "mysteries": 26051,
    "Ġleyden": 21751,
    "attest": 23122,
    "Ġcollar": 11883,
    "Ġtuesday": 9629,
    "Ġ99": 10747,
    "Ġrepugnance": 19088,
    "Ġexord": 21831,
    "ors": 854,
    "limp": 20954,
    "harpoons": 24287,
    "Ġwint": 15536,
    "Ġclank": 15977,
    "Ġdisputes": 25826,
    "Ġgoblet": 25824,
    "Ġskewer": 19623,
    "bulwarks": 12277,
    "Ġelevates": 24503,
    "Ġlikes": 9411,
    "eridge": 15529,
    "Ġreport": 6192,
    "Ġcharlotte": 3890,
    "Ġrays": 10333,
    "alyards": 18786,
    "Ġsend": 4104,
    "Ġexerting": 21836,
    "assertion": 22315,
    "Ġcoop": 14273,
    "Ġfriends": 2653,
    "Ġscan": 22283,
    "wil": 8769,
    "Ġsummar": 3527,
    "Ġillinois": 19138,
    "Ġbigness": 19763,
    "Ġinjunctions": 24272,
    "oc": 2835,
    "pless": 6261,
    "poison": 14395,
    "Ġfob": 21412,
    "Ġordin": 16653,
    "indul": 22374,
    "Ġderives": 16312,
    "Ġshare": 1660,
    "Ġfreshly": 23990,
    "Ġfairly": 6326,
    "ic": 304,
    "outs": 7009,
    "onym": 14651,
    "Ġconfine": 14512,
    "intention": 10370,
    "Ġfitly": 24002,
    "inated": 6804,
    "Ġinsolent": 13604,
    "Ġdimmed": 24270,
    "Ġhanded": 8217,
    "Ġrecognition": 2779,
    "Ġjoyful": 13226,
    "Ġsubsiding": 23437,
    "Ġ103": 24411,
    "Ġsnow": 3709,
    "Ġharbors": 24902,
    "Ġtea": 5041,
    "Ġdignity": 5704,
    "Ġlike": 669,
    "Ġoverspread": 14205,
    "Ġworthy": 7240,
    "Ġprofoundest": 16862,
    "Ġu": 324,
    "Ġhackney": 20436,
    "Ġstooping": 13067,
    "Ġfatal": 5872,
    "gallantry": 15061,
    "trifling": 19417,
    "Ġdisturbing": 19949,
    "Ġpsal": 15620,
    "Ġflight": 6582,
    "erval": 4016,
    "Ġvertebra": 20184,
    "Ġfunere": 22263,
    "apple": 22848,
    "Ġliberality": 24377,
    "masts": 19428,
    "Ġremember": 2678,
    "Ġassertions": 19950,
    "Ġsynthe": 26008,
    "Ġevanesc": 24296,
    "Ġmiser": 18704,
    "tarpaulins": 26407,
    "Ġmogul": 12867,
    "Ġafrica": 12349,
    "Ġpainfully": 13146,
    "Ġrenewal": 12239,
    "Ġnone": 3224,
    "Ġdistur": 5313,
    "conscientious": 19629,
    "Ġavenues": 25430,
    "Ġluxury": 20135,
    "murdered": 12207,
    "._]]": 5335,
    "Ġregular": 939,
    "Ġpittance": 15621,
    "Ġcaged": 21355,
    "Ġnautical": 17389,
    "sail": 3604,
    "Ġgrain": 15835,
    "Ġsquared": 1383,
    "salesman": 20674,
    "ulation": 5458,
    "sust": 15425,
    "upper": 11541,
    "Ġduchess": 4800,
    "eldom": 4416,
    "ribly": 8255,
    "Ġrecent": 7434,
    "Ġblue": 3455,
    "Ġbrand": 16189,
    "Ġvalid": 1650,
    "Ġassertion": 13493,
    "erative": 21275,
    "Ġfo": 1654,
    "Ġaglow": 22518,
    "Ġunforeseen": 22057,
    "Ġsecrecy": 7315,
    "Ġprofusion": 23570,
    "torture": 26152,
    "adequately": 20322,
    "Ġrequest": 6051,
    "promontory": 24727,
    "ernation": 8212,
    "Ġmichael": 20682,
    "mortar": 25409,
    "Ġemails": 13111,
    "otes": 15748,
    "Ġfanc": 6744,
    "scr": 16245,
    "skelter": 24490,
    "unction": 10237,
    "Ġsnodhead": 19303,
    "Ġlamp": 4111,
    "Ġsain": 17752,
    "Ġindies": 22954,
    "Ġimplicate": 24877,
    "brimmed": 14590,
    "magn": 10613,
    "Ġgrief": 4621,
    "recover": 24623,
    "Ġrejoicing": 13425,
    "Ġprivilege": 11421,
    "calculation": 25689,
    "iana": 7049,
    "nelson": 25621,
    "Ġsuppl": 11080,
    "Ġpatroness": 13513,
    "natured": 7111,
    "Ġwarnings": 16883,
    "Ġpersonified": 19181,
    "ail": 566,
    "frightened": 17198,
    "Ġoath": 7833,
    "break": 6102,
    "^{": 15308,
    "sigma": 3003,
    "unt": 2044,
    "Ġdinn": 23984,
    "Ġrigged": 16719,
    "Ġvolition": 14801,
    "Ġfrench": 4939,
    "Ġsultan": 15188,
    "egyptians": 25899,
    "vious": 1785,
    "cries": 17513,
    "Ġcobbler": 25831,
    "fast": 3071,
    "Ġconstitutional": 25128,
    "diver": 20833,
    "Ġback": 792,
    "Ġsilvery": 13098,
    "Ġcalmed": 16270,
    "Ġfilthy": 13253,
    "Ġparting": 9787,
    "Ġreverse": 16984,
    "Ġguilt": 6180,
    "smeer": 26148,
    "dried": 20829,
    "Ġparamount": 15882,
    "Ġfel": 1518,
    "supper": 12927,
    "cruising": 12284,
    "compar": 14362,
    "maul": 11896,
    "rival": 12747,
    "Ġwilled": 21294,
    "icher": 9205,
    "Ġaccused": 8509,
    "Ġalteration": 9549,
    "bly": 6111,
    "wn": 719,
    "Ġwithal": 18116,
    "dock": 16422,
    "Ġwaning": 15537,
    "Ġvacuous": 24344,
    "azed": 9402,
    "_).âĢĶ": 8685,
    "atics": 15526,
    "Ġbeats": 21756,
    "Ġinconven": 7586,
    "Ġexpressly": 16455,
    "Ġgaily": 16750,
    "Ġforgiven": 24030,
    "Ġdescend": 7426,
    "Ġ10": 5250,
    "practised": 20250,
    "Ġartist": 12917,
    "Ġjar": 15954,
    "Ġcontext": 1715,
    "Ġfeels": 6881,
    "Ġkid": 9728,
    "Ġimperfectly": 25727,
    "compl": 6872,
    "Ġprincipal": 6496,
    "Ġtasted": 12534,
    "Ġdiscovered": 4415,
    "Ġsavann": 14686,
    "determine": 19947,
    "ustomed": 6099,
    "Ġmarty": 20293,
    "Ġenjoined": 18192,
    "bildad": 9589,
    "Ġcaresses": 26060,
    "Ġblurred": 22934,
    "ires": 6038,
    "abbering": 21800,
    "interval": 7991,
    "Ġexposing": 11836,
    "Ġpervading": 20616,
    "Ġsympt": 7013,
    "Ġlogical": 14489,
    "lowering": 16035,
    "Ġfit": 3686,
    "Ġopened": 3513,
    "mand": 3894,
    "Ġcot": 13880,
    "isol": 17848,
    "utterly": 20015,
    "Ġcurvature": 3575,
    "reward": 15512,
    "immed": 9220,
    "Ġor": 437,
    "Ġwafted": 14500,
    "unconquerable": 21895,
    "isure": 6241,
    "prit": 19345,
    "Ġopium": 8998,
    "Ġdances": 10814,
    "Ġbehavioral": 11398,
    "Ġexcess": 3342,
    "Ġvalidation": 2358,
    "Ġdoesn": 7437,
    "x": 92,
    "Ġlead": 3524,
    "spond": 5567,
    "emone": 21931,
    "Ġvoyages": 6907,
    "helped": 18927,
    "Ġwhispers": 14703,
    "Ġveins": 8935,
    "filled": 9597,
    "baron": 24926,
    "Ġpunctures": 25136,
    "Ġdeployment": 11219,
    "Ġdared": 5440,
    "sway": 15428,
    "Ġalready": 2713,
    "Ġgratefully": 20448,
    "Ġfancied": 7325,
    "Ġhappens": 2189,
    "Ġcry": 3497,
    "Ġfinish": 7949,
    "plenty": 14094,
    "Ġrains": 24340,
    "ger": 1106,
    "Ġvilest": 20104,
    "Ġeleg": 6193,
    "text": 1974,
    "eminently": 25108,
    "Ġinequal": 21500,
    "Ġsa": 473,
    "Ġbaker": 4696,
    "Ġadvis": 9813,
    "ressed": 3024,
    "Ġbarricade": 14662,
    "Ġchoke": 22253,
    "Ġadvert": 10574,
    "Ġblankets": 24612,
    "Ġtho": 21517,
    "Ġdeline": 16337,
    "breat": 10081,
    "wet": 15455,
[...]
