{
  "metadata": {
    "vocab_size": 26614,
    "algorithm": "BPE",
    "created_at": "2026-05-15 05:54:27",
    "special_tokens": [
      "<PAD>",
      "<SOS>",
      "<EOS>",
      "<UNK>",
      "<MASK>"
    ]
  },
  "vocab": {
    "ine": 405,
    "one": 617,
    "Ġancestors": 25642,
    "ff": 465,
    "ashtego": 4102,
    "Ġhush": 13210,
    "Ġglobe": 6076,
    "Ġaskance": 23146,
    "venge": 4658,
    "Ġrelevant": 1864,
    "described": 18895,
    "Ġkidnapping": 26356,
    "iancy": 13010,
    "Ġburnt": 9927,
    "Ġhopelessly": 16374,
    "Ġstronger": 8578,
    "Ġsanta": 26420,
    "banked": 25337,
    "Ġwarn": 5695,
    "oforte": 14286,
    "preading": 18491,
    "Ġmeantime": 6206,
    "ension": 6569,
    "Ġscore": 9737,
    "Ġwithdraw": 16964,
    "Ġstrength": 4258,
    "Ġyonder": 7392,
    "Ġmuster": 16120,
    "Ġphysiognomical": 25611,
    "ascended": 24706,
    "Ġhanover": 20584,
    "Ġmeanings": 18607,
    "Ġheight": 4218,
    "uck": 1232,
    "Ġconvivial": 16547,
    "Ġpolitical": 19221,
    "Ġturned": 2136,
    "Ġmarble": 7669,
    "Ġgratefully": 20443,
    "fee": 12877,
    "Ġbows": 4080,
    "nursery": 26399,
    "gave": 7799,
    "Ġstarvation": 19790,
    "Ġassur": 6073,
    "Ġchamp": 18380,
    "Ġtechnique": 2394,
    "protest": 24815,
    "meanwhile": 10609,
    "Ġforgot": 4683,
    "tern": 4222,
    "Ġtugged": 17288,
    "ateral": 19375,
    "aloft": 8806,
    "Ġnewton": 3533,
    "Ġpatroness": 13509,
    "ċ": 204,
    "Ġinvolving": 18762,
    "heaved": 21209,
    "Ġfairer": 20460,
    "Ġgoin": 18470,
    "darkness": 9511,
    "inese": 12870,
    "Ġvice": 6548,
    "Ġbrand": 16185,
    "Ġfootpath": 19337,
    "Ġaromatic": 25925,
    "Ġ56": 24324,
    "Ġelij": 8908,
    "flying": 13720,
    "barn": 17482,
    "Ġincess": 8430,
    "Ġutilize": 4798,
    "Ġwhere": 785,
    "Ġvehemently": 26039,
    "hom": 12471,
    "Ġyes": 2691,
    "Ġirrad": 19093,
    "Ġcaprice": 14577,
    "four": 6113,
    "Ġhaving": 1880,
    "Ġvideo": 25365,
    "Ġmenaces": 23103,
    "injured": 15131,
    "description": 11094,
    "Ġplayed": 9415,
    "Ġoverwhelmed": 11403,
    "nades": 20996,
    "Ġtucked": 12390,
    "Ġunexplored": 26518,
    "Ġcontrol": 13078,
    "founded": 16713,
    "Ġorganization": 7983,
    "Ġmartyr": 26360,
    "welt": 12518,
    "Ġdrenched": 12600,
    "Ġ77": 24263,
    "aur": 15307,
    "Ġforeseeing": 23449,
    "phil": 7924,
    "ashed": 3782,
    "iction": 4267,
    "thread": 15824,
    "Ġ22": 8278,
    "Ġfrocks": 23919,
    "Ġcomfort": 3440,
    "Ġjudge": 5502,
    "Ġsmith": 16062,
    "Ġax": 7822,
    "Ġencoding": 4774,
    ":--": 5784,
    "Ġtropical": 17066,
    "Ġsupplying": 19797,
    "secondly": 16984,
    "nearer": 22447,
    "Ġunseen": 3524,
    "shunned": 22464,
    "hogs": 20080,
    "Ġadro": 15865,
    "Ġclusters": 25232,
    "Ġhes": 6250,
    "owner": 18610,
    "Ġadjacent": 20710,
    "quaker": 15760,
    "Ġgums": 21608,
    "danish": 20832,
    "Ġresist": 7915,
    "Ġpassion": 4556,
    "Ġdisadvantages": 18558,
    "Ġmiles": 3801,
    "Ġoccurred": 4461,
    "glory": 23850,
    "Ġendeavours": 8617,
    "Ġindicated": 10469,
    "Ġfashion": 4297,
    "Ġrang": 9244,
    "rarely": 21631,
    "azine": 19130,
    "Ġcemeteries": 26375,
    "Ġobli": 9315,
    "Ġdrama": 16328,
    "Ġshell": 11734,
    "sounding": 24796,
    "Ġcontrived": 10303,
    "kles": 17584,
    "Ġbias": 1191,
    "Ġincreases": 3793,
    "Ġneighb": 14073,
    "Ġyale": 21776,
    "pressed": 6587,
    "ter": 359,
    "ined": 1259,
    "weigh": 18665,
    "rence": 5555,
    "itiously": 13870,
    "subtle": 24243,
    "Ġthirdly": 24141,
    "hem": 6663,
    "Ġoppressive": 20454,
    "Ġbeholding": 8668,
    "Ġapproached": 5843,
    "Ġshop": 9251,
    "prep": 9757,
    "Ġeldest": 6571,
    "Ġextract": 1473,
    "pute": 8844,
    "foremost": 14252,
    "Ë": 140,
    "lydon": 13988,
    "part": 2573,
    "classification": 4386,
    "plicable": 10255,
    "Ġwoes": 23983,
    "sen": 21048,
    "Ġunanswerable": 26521,
    "Ġbecalmed": 18086,
    "Ġaboard": 6697,
    "Ġadventurous": 16733,
    "Ġrom": 4524,
    "Ġgates": 10200,
    "Ġhousings": 21490,
    "Ġdisastrous": 16058,
    "Ġfilling": 13407,
    "Ġbranded": 14378,
    "Ġcont": 620,
    "upp": 10130,
    "Ġwintry": 17433,
    "Ġmeryton": 4437,
    "Ġpremature": 3723,
    "Ġwindings": 18909,
    "Ġfairy": 14627,
    "Ġtul": 21158,
    "mannered": 22850,
    "Ġattach": 14287,
    "sl": 5794,
    "Ġunnaturally": 24870,
    "pire": 9135,
    "Ġprove": 5231,
    "Ġarbitrary": 4736,
    "finer": 17546,
    "Ġoccurs": 1858,
    "beautiful": 10648,
    "rison": 13778,
    "Ġinclusive": 24161,
    "Ġted": 13811,
    "Ġunalterable": 15849,
    "Ġrascally": 26507,
    "Ġhumbled": 16195,
    "Ġocean": 3309,
    "mess": 13752,
    "Ġthink": 986,
    "Ġabsolut": 3908,
    "Ġflashes": 11913,
    "Ġadorn": 12787,
    "Ġconcentrate": 25063,
    "Ġinfinity": 23279,
    "Ġcommunicate": 10577,
    "Ġ111": 24436,
    "Ġaccent": 10293,
    "Ġstreams": 12190,
    "Ġreplete": 15695,
    "Ġprobabilities": 4966,
    "icles": 17972,
    "disappointed": 25191,
    "rot": 21529,
    "Ġdaniel": 15110,
    "Ġlandau": 16418,
    "owders": 18050,
    "case": 5206,
    "ten": 1556,
    "Ġcontent": 5034,
    "Ġgush": 10202,
    "Ġcongreg": 8462,
    "Ġcorruption": 15224,
    "hounds": 20906,
    "glasses": 11215,
    "Ġapproximation": 2345,
    "teous": 16172,
    "Ġalas": 5921,
    "Ġdeprived": 8210,
    ")": 13,
    "Ġromantic": 8030,
    "Ġcounter": 6481,
    "anx": 8783,
    "Ġtranquill": 6630,
    "tural": 21065,
    "Ġanchored": 17439,
    "ravity": 21632,
    "eleg": 20848,
    "Ġproceeded": 5335,
    "ber": 885,
    "Ġcomrades": 9554,
    "ried": 926,
    "concern": 6099,
    "Ġspinning": 15052,
    "Ġsherlock": 3891,
    "Ġsweep": 8265,
    "deformity": 22143,
    "Ġalow": 18099,
    "Ġunimag": 12772,
    "Ġsuper": 2156,
    "**": 4686,
    "Ġsalary": 13292,
    "tips": 13795,
    "Ġneg": 1334,
    "Ġrepairing": 25589,
    "Ġintroduction": 8970,
    "borrowed": 20791,
    "Ġfascinating": 17327,
    "Ġwhiting": 10859,
    "fters": 20860,
    "Ġeffected": 14353,
    "Ġcalled": 1974,
    "Ġbubble": 13534,
    "Ġhorrible": 4905,
    "Ġtrains": 10947,
    "Ġhempen": 13549,
    "Ġunfrequently": 20738,
    "Ġblanc": 11065,
    "kington": 11203,
    "thus": 5158,
    "Ġspikes": 22133,
    "learned": 8591,
    "Ġstaid": 21732,
    "Ġear": 1421,
    "profess": 10628,
    "Ġrule": 1535,
    "Ġlookest": 22712,
    "Ġrequesting": 24632,
    "Ġleave": 2459,
    "Ġaccomp": 4713,
    "Ġpacifics": 24373,
    "ohnson": 16325,
    "Ġminutes": 3004,
    "Ġciv": 3313,
    "Ġsure": 1865,
    "Ġpassenger": 14369,
    "Ġtwine": 14310,
    "Ġmanner": 2196,
    "amb": 5723,
    "Ġunconcerned": 20508,
    "Ġtranquil": 7310,
    "antly": 1989,
    "Ġadapt": 987,
    "puted": 8845,
    "shazz": 14242,
    "Ġintelligences": 12828,
    "Ġorange": 8486,
    "Ġcomprehensive": 15086,
    "Ġ500": 24328,
    "arts": 6563,
    "Ġpresently": 5116,
    "Ġattentive": 9033,
    "halloa": 17090,
    "Ġhurry": 4913,
    "Ġlashings": 25097,
    "Ġtrooped": 24899,
    "Ġappal": 18361,
    "!âĢĻ": 3336,
    "Ġenumerating": 15243,
    "Ġbumping": 25280,
    "Ġsecretly": 13269,
    "arian": 10316,
    "Ġpresum": 4837,
    "Ġannouncing": 16754,
    "«": 109,
    "ald": 15622,
    "Ġfatality": 12092,
    "Ġrhine": 12354,
    "ot": 346,
    "Ġsimplest": 16333,
    "droppers": 24759,
    "shadows": 25479,
    "Ġcrony": 23439,
    "itatingly": 25277,
    "Ġfactory": 23274,
    "approached": 13484,
    "french": 9119,
    "Ġeffective": 1247,
    "Ġabundant": 17154,
    "Ġsplashed": 23746,
    "loaded": 22508,
    "oping": 5559,
    "kshire": 13745,
    "Ġdiscovered": 4412,
    "bidden": 19736,
    "Ġserpentine": 11360,
    "Ġbutt": 14125,
    "etting": 21577,
    "skirted": 24489,
    "Ġpurchase": 12257,
    "Ġchowder": 10279,
    "Ġcruis": 14624,
    "Ġdrifted": 14625,
    "subst": 12162,
    "plendent": 21955,
    "txt": 12513,
    "Ġagonies": 14251,
    "Ġmary": 3841,
    "Ġdifficulty": 5770,
    "Ġspur": 18303,
    "Ġbrought": 2517,
    "Ġwires": 21294,
    "Ġthoughtful": 16190,
    "Ġhadn": 9718,
    "ring": 1752,
    "assisted": 22304,
    "cries": 17510,
    "Ġplates": 11006,
    "Ġincredulity": 11311,
    "cursed": 23841,
    "Ġadapts": 3813,
    "terror": 18128,
    "Ġtowns": 11173,
    "dear": 6555,
    "Ġardu": 22186,
    "Ġauto": 23294,
    "Ġvoy": 2620,
    "times": 8098,
    "Ġsoles": 22082,
    "Ġbreach": 11972,
    "obser": 11099,
    "Ġintric": 9246,
    "tail": 8761,
    "warmth": 20051,
    "uber": 15444,
    "acting": 22628,
    "Ġjoyously": 19345,
    "Ġbade": 9171,
    "Ġflint": 23006,
    "Ġq": 1082,
    "various": 10397,
    "bery": 9786,
    "difficulty": 12388,
    "Ġpretensions": 16557,
    "wrapped": 15208,
    "Ġdairy": 20685,
    "Ġhoard": 23350,
    "Ġcutting": 4983,
    "lifeless": 24312,
    "Ġce": 3032,
    "Ġscolded": 25472,
    "Ġwondering": 7971,
    "Ġshol": 21992,
    "Ġwelcome": 5604,
    "ersman": 11697,
    "omination": 21639,
    "lp": 898,
    "Ġferguson": 17469,
    "Ġgases": 21599,
    "Ġproced": 2579,
    "Ġern": 8396,
    "Ġweighty": 16030,
    "Ġarchitects": 18737,
    "surely": 10569,
    "corrob": 24485,
    "dishon": 20402,
    "\"]": 17470,
    "Ġunprotected": 22064,
    "Ġtops": 14586,
    "Ġprayers": 12121,
    "alvan": 21501,
    "Ġsenor": 20149,
    "iard": 9601,
    "intentions": 22936,
    "Ġtrials": 16789,
    "innocence": 15182,
    "Ġtransl": 2831,
    "par": 1847,
    "Ġprovoked": 13324,
    "Ġposter": 14274,
    "Ġstraightway": 9016,
    "Ġcondition": 6764,
    "isol": 17846,
    "Ġconquer": 14026,
    "Ġproportion": 7281,
    "different": 6501,
    "Ġagonizing": 17238,
    "singing": 24363,
    "floor": 14935,
    "ĸ": 249,
    "Ġtimidly": 11338,
    "Ġtint": 13816,
    "Ġlightnings": 16351,
    "Ġdie": 3960,
    "persons": 24173,
    "Ġprevented": 5941,
    "Ġdawn": 6816,
    "Ġcoincidence": 25483,
    "Ġcontact": 9280,
    "Ġabhorrent": 16856,
    "Ġflip": 11910,
    "û": 188,
    "Ġpredict": 664,
    "Ġheidelburgh": 11642,
    "Ġubiquitous": 26195,
    "Ġjug": 12832,
    "Ġlabels": 3292,
    "toes": 22561,
    "Ġlobster": 11389,
    "iac": 6225,
    "stre": 5451,
    "Ġgestic": 21605,
    "Ġlig": 21545,
    "cross": 3575,
    "aw": 1447,
    "decor": 23779,
    "Ġhampshire": 15241,
    "imet": 21703,
    "Ġconfound": 23302,
    "Ġnavies": 16900,
    "Ġdormouse": 4925,
    "Ġsprained": 15881,
    "esty": 4305,
    "Ġsaloon": 24059,
    "thee": 9689,
    "ers": 404,
    "Ġreadiness": 13047,
    "Ġoh": 2176,
    "wont": 21131,
    "Ġindulging": 16904,
    "na": 13759,
    "Ġimplicate": 24876,
    "?_": 8069,
    "Ġinstructive": 19284,
    "following": 10572,
    "Ġdisplays": 19856,
    "resent": 10769,
    "ĵ": 246,
    "iveness": 2469,
    "Ġpicturesqueness": 24480,
    "Ġtorpor": 25031,
    "Ġbert": 4582,
    "frost": 15105,
    "Ġassizes": 11109,
    "Ġpreserved": 9261,
    "ip": 557,
    "action": 3724,
    "Ġremote": 8919,
    "Ġnotice": 4542,
    "Ġgranting": 18736,
    "Ġomit": 17815,
    "Ġinfrequent": 3821,
    "Ġdecide": 9285,
    "Ġmerchant": 6467,
    "trained": 4237,
    "prehend": 14235,
    "volous": 18599,
    "Ġnervousness": 23555,
    "origin": 7582,
    "inside": 23061,
    "Ġclaims": 13372,
    "Ġimputation": 22169,
    "Ġprevent": 758,
    "Ġsulk": 15045,
    "come": 2379,
    "erm": 787,
    "Ġdiscussed": 19558,
    "miles": 10712,
    "Ġwarmly": 8987,
    "Ġcharacteristics": 8609,
    "Ġcopper": 7425,
    "opatra": 22472,
    "Ġprized": 23220,
    "Ġrelics": 16194,
    "Ġpang": 15602,
    "Ġgambler": 26190,
    "asses": 7016,
    "Ġidentified": 19150,
    "Ġundecided": 22045,
    "Ġfilled": 4394,
    "prit": 19340,
    "Ġrepine": 16408,
    "le": 279,
    "mr": 1901,
    "Ġsurpasses": 25268,
    "Ġsk": 960,
    "enterprise": 24992,
    "gement": 13727,
    "bottle": 20144,
    "Ġpauper": 26179,
    "Ġmixture": 9562,
    "Ġspeechless": 13352,
    "recked": 17762,
    "Ġphilosophers": 10551,
    "Ġhurricane": 16430,
    "ĠĠĠĠĠĠĠĠĠĠĠĠĠĠĠĠĠĠĠĠĠĠĠĠĠĠ": 13387,
    "Ġsolicit": 22886,
    "Ġactionable": 24559,
    "Ġinland": 11607,
    "Ġpoem": 22586,
    "Ġprocessing": 882,
    "Ġappro": 669,
    "Ġeaglet": 19303,
    "genteel": 19947,
    "aculate": 16080,
    "prior": 21031,
    "Ġtastes": 15476,
    "Ġclerks": 17294,
    "Ġindividually": 22959,
    "Ġpurses": 23475,
    "Ġ43": 14768,
    "imson": 12686,
    "Ġtyphoon": 12387,
    "pieces": 8754,
    "Ġreproach": 9556,
    "Ġdebts": 8035,
    "Ġalacrity": 15734,
    "Ġbeads": 18083,
    "pan": 10716,
    "swe": 5995,
    "Ġfearing": 12812,
    "clut": 23147,
    "Ġtransmit": 10304,
    "Ġferoc": 14896,
    "Ġsnoo": 21227,
    "Ġgenerally": 4158,
    "Ġimpotently": 22388,
    "rally": 17651,
    "Ġvultures": 25653,
    "Ġprincipal": 6496,
    "Ġhanding": 16128,
    "type": 16174,
    "Ġcoin": 9770,
    "Ġconcealing": 23900,
    "Ġconvenience": 11331,
    "Ġunful": 22008,
    "Ġbuffalo": 11429,
    "Ġunhappily": 18262,
    "Ġfebruary": 15910,
    "bloom": 24689,
    "lanterns": 17428,
    "Ġright": 1506,
    "Ġinjure": 16781,
    "shining": 18495,
    "desolation": 20448,
    "Ġdisinclined": 22526,
    "Ġretort": 23067,
    "Ġfemale": 8344,
    "Ġbachelor": 7786,
    "Ġtight": 8107,
    "charitable": 23930,
    "aware": 16293,
    "mp": 3725,
    "Ġhandspikes": 12935,
    "och": 21000,
    "Ġallusion": 7626,
    "roads": 17957,
    "Ġdrawn": 4274,
    "ripp": 6405,
    "ask": 856,
    "Ġpenet": 6888,
    "Ġhorizontally": 17012,
    "ither": 1547,
    "consequential": 26249,
    "Ġyards": 5371,
    "Ġsimilitude": 19208,
    "riptions": 14794,
    "Ġpondicherry": 20489,
    "ras": 21035,
    "Ġcoach": 6867,
    "Ġamput": 16032,
    "trimmed": 23946,
    "fierce": 25255,
    "Ġaware": 5756,
    "Ġ26": 10470,
    "Ġbackgammon": 22659,
    "Ġcleaning": 23178,
    "Ġadoration": 18290,
    "Ġarched": 10932,
    "ibles": 18785,
    "hills": 13735,
    "Ġcomplicated": 14734,
    "Ġhurling": 19110,
    "almost": 4943,
    "whale": 2143,
    "Ġcompiled": 22567,
    "Ġarchitect": 984,
    "Ġreview": 18030,
    "Ġcondu": 18109,
    "Ġpresented": 5183,
    "Ġwaning": 15532,
    "reflected": 24733,
    "answered": 10273,
    "Ġbuckets": 17034,
    "Ġdent": 13905,
    "able": 452,
    "Ġhammered": 13238,
    "Ġ97": 19773,
    "gage": 13722,
    "Ġharem": 9708,
    "nuee": 17429,
    "goose": 19101,
    "Ġnorthumbria": 24170,
    "Ġturn": 1299,
    "weary": 22683,
    "Ġpreceding": 7529,
    "Ġint": 410,
    "Ġwanderings": 20142,
    "strikes": 24670,
    "disapprobation": 19155,
    "Ġconcept": 665,
    "Ġdedication": 3272,
    "Ġregularly": 7658,
    "Ġbinnacle": 8118,
    "Ġcowards": 12570,
    "destro": 13310,
    "Ġsurmise": 12293,
    "Ġpleases": 16296,
    "comra": 16167,
    "favour": 9548,
    "oured": 2675,
    "Ġgifts": 21609,
    "Ġproposed": 7460,
    "Ġindisposed": 26288,
    "Ġoverpowered": 15287,
    "Ġwantonly": 22892,
    "officers": 10627,
    "Ġturk": 6603,
    "ourably": 14376,
    "utional": 17983,
    "neural": 3067,
    "Ġdisinterested": 16055,
    "Ġfloating": 6604,
    "Ġmont": 8557,
    "rising": 7558,
    "Ġadded": 2718,
    "Ġenslaved": 26314,
    "painting": 17046,
    "Ġforbidden": 17078,
    "ry": 804,
    "Ġrespons": 2687,
    "tolerably": 21094,
    "Ġknows": 4160,
    "petulance": 24299,
    "Ġporter": 15608,
    "Ġdiligently": 11405,
    "Ġwrenching": 17322,
    "break": 6101,
    "second": 6543,
    "Ġclearness": 23181,
    "Ġetc": 7084,
    "Ġstress": 18066,
    "Ġitem": 12698,
    "Ġbleeds": 24397,
    "Ġtren": 17721,
    "Ġgrows": 4985,
    "Ġascendency": 20231,
    "Ġeager": 3570,
    "naught": 20993,
    "Ġnooks": 26011,
    "Ġparish": 8854,
    "Ġnodding": 23331,
    "Ġgives": 5018,
    "Ġdreamt": 23936,
    "ensibility": 22544,
    "Ġparlour": 12319,
    "Ġpest": 13912,
    "admire": 24943,
    "Ġcabman": 14605,
    "rices": 4558,
    "Ġcomfortless": 23910,
    "Ġscent": 10284,
    "Ġtwisting": 18658,
    "Ġhamp": 12627,
    "Ġoverpower": 12839,
    "Ġsurmis": 23462,
    "Ġlayer": 1011,
    "Ġmeanness": 22593,
    "backed": 9865,
    "Ġdetaining": 25819,
    "Ġpant": 10817,
    "Ġ129": 24474,
    "county": 25396,
    "Ġsole": 3302,
    "Ġlaid": 3938,
    "violent": 14580,
    "bread": 10684,
    "Ġequin": 14495,
    "abilities": 3238,
    "Ġsuccor": 25662,
    "Ġliquid": 22406,
    "assed": 6421,
    "astonished": 15032,
    "Ġfeeble": 12282,
    "gover": 10702,
    "Ġnecessary": 4472,
    "Ġdug": 21428,
    "Ġdz": 4756,
    "Ġwhirlp": 16963,
    "Ġpassed": 2010,
    "Ġlet": 1114,
    "Ġescorted": 23506,
    "Ġsnug": 8279,
    "Ġpatagonian": 20534,
    "embers": 21926,
    "Ġnecessity": 7296,
    "Ġpyth": 21459,
    "bearer": 18521,
    "bes": 6641,
    "Ġintelligent": 1435,
    "Ġfaults": 12210,
    "Ġmilliner": 19883,
    "Ġday": 957,
    "Ġtasks": 1787,
    "pooh": 18798,
    "Ġshank": 21994,
    "Ġrokovoko": 22403,
    "Ġdinners": 23979,
    "Ġglobular": 19009,
    "cheeked": 19339,
    "Ġpoets": 11819,
    "Ġscuff": 15940,
    "Ġclank": 15963,
    "Ġisolated": 13558,
    "nament": 11506,
    "overfitting": 13099,
    "Ġfleetness": 20178,
    "Ġbegrimed": 26578,
    "Ġlandlessness": 23378,
    "zening": 21147,
    "Ġshed": 8180,
    "Ġvenetian": 14846,
    "Ġvoyages": 6908,
    "Ġeligible": 10670,
    "Ġflatt": 16244,
    "Ġungod": 22021,
    "Ġdescription": 7429,
    "fitting": 1510,
    "Ġbeing": 1165,
    "Ġpressing": 9260,
    "Ġwhim": 13998,
    "lat": 9604,
    "Ġcoff": 3508,
    "Ġsumat": 14129,
    "Ġgreenhorn": 23766,
    "Ġhalls": 19524,
    "plain": 1357,
    "Ġwel": 4526,
    "beloved": 19459,
    "Ġbracing": 16580,
    "unhes": 21872,
    "Ġban": 7156,
    "Ġhunts": 23154,
    "Ġopportunity": 4786,
    "Ġomens": 21326,
    "Ġrestrictions": 20634,
    "Ġprofession": 6207,
    "contriv": 19291,
    "nothing": 3155,
    "Ġbabel": 24426,
    "evade": 24820,
    "Ġtinge": 25087,
    "_,âĢĿ": 6218,
    "Ġwarmup": 3919,
    "Ġdepose": 22604,
    "Ġfresher": 23211,
    "obscure": 23094,
    "Ġep": 7384,
    "rises": 17655,
    "Ġthence": 8881,
    "Ġauthor": 4374,
    "coff": 9108,
    "ushing": 5731,
    "congenial": 25399,
    "Ġnourishment": 15191,
    "Ġsturgeon": 20590,
    "Ġperseus": 10603,
    "Ġsteam": 9352,
    "Ġ18": 3408,
    "istence": 2385,
    "Ġimpelled": 11780,
    "harpooned": 24286,
    "process": 11148,
    "Ġstack": 21730,
    "john": 11497,
    "amet": 588,
    "Ġeasiness": 23536,
    "reeable": 3611,
    "Ġlexic": 15721,
    "sperm": 5203,
    "Ġdear": 1540,
    "uncle": 8158,
    "Ġmore": 678,
    "Ġcontempl": 6701,
    "Ġapt": 9155,
    "Ġmasonry": 13598,
    "torm": 11530,
    "Ġinterpretation": 19715,
    "oring": 1861,
    "ann": 5802,
    "parameter": 2975,
    "Ġres": 695,
    "Ġconcepts": 4550,
    "lection": 3652,
    "Ġtaller": 16688,
    "illar": 5101,
    "cele": 21622,
    "spoken": 11859,
    "Ġinboard": 17932,
    "Ġverbal": 19377,
    "Ġdespair": 4008,
    "Ġpurchasing": 19874,
    "Ġcringing": 25941,
    "Ġside": 1388,
    "knows": 19171,
    "Ġsuperstitions": 17072,
    "brink": 23575,
    "Ġpumps": 8426,
    "Ġcaval": 25769,
    "bright": 8989,
    "Ġlistening": 6318,
    "ic": 304,
    "arthur": 14829,
    "Ġshaking": 6551,
    "inqu": 6121,
    "Ġloosened": 26002,
    "talking": 10006,
    "fits": 13717,
    "Ġporing": 21465,
    "Ġmanip": 8871,
    "buff": 15317,
    "Ġ0": 1903,
    "Ġmarch": 4079,
    "Ġsprout": 24085,
    "Ġfools": 14481,
    "Ġwhole": 1661,
    "Ġloadstone": 25816,
    "iv": 430,
    "Ġshrieking": 24758,
    "water": 4868,
    "Ġfreer": 23210,
    "feature": 4090,
    "Ġtopmost": 14587,
    "Ġwhal": 5454,
    "Ġswash": 23052,
    "gree": 10701,
    "tears": 11038,
    "Ġproduct": 3534,
    "etween": 775,
    "recollection": 25348,
    "imming": 9686,
    "pitching": 24073,
    "loss": 22504,
    "Ġcountries": 13095,
    "Ġnile": 21518,
    "Ġdetest": 8501,
    "twas": 15436,
    "Ġlent": 21544,
    "etical": 13957,
    "christian": 17232,
    "Ġintersect": 22574,
    "writhed": 26080,
    "Ġreplen": 11115,
    "enses": 10994,
    "alt": 12635,
    "Ġaglow": 22510,
    "Ġimag": 2678,
    "vice": 15448,
    "lucifer": 25301,
    "Ġsnaky": 23740,
    "Ġadroit": 26000,
    "inous": 8771,
    "msman": 9269,
    "Ġunsub": 22020,
    "hall": 8084,
    "Ġpot": 2991,
    "Ġsixteen": 8282,
    "ues": 2081,
    "supernatural": 19778,
    "Ġgerman": 6141,
    "Ġtested": 23208,
    "Ġsailing": 5323,
    "Ġcrush": 9421,
    "Ġboast": 7034,
    "tol": 17672,
    "Ġshoved": 23488,
    "throt": 25659,
    "asis": 12647,
    "ature": 522,
    "whe": 1072,
    "Ġacross": 1332,
    "Ġdismally": 20213,
    "Ġacquaintance": 4133,
    "Ġcitizens": 25439,
    "Ġninetieth": 25357,
    "Ġ99": 10745,
    "Ġshoals": 13133,
    "Ġbegan": 2021,
    "Ġthickly": 12113,
    "gentle": 5356,
    "Ġissu": 6253,
    "Ġchivalry": 25818,
    "Ġcalls": 6744,
    "dashing": 20835,
    "Ġannual": 14831,
    "suspect": 9539,
    "offered": 14517,
    "striking": 13439,
    "Ġbolts": 16943,
    "Ġdidst": 11847,
    "Ġcrust": 21349,
    "asion": 5714,
    "voice": 7816,
    "Ġpri": 5813,
    "Ġtattooings": 24900,
    "calling": 12447,
    "Ġtenderly": 11314,
    "romeda": 17262,
    "Ġfist": 21402,
    "Ġpermanent": 13630,
    "Ġunbending": 25464,
    "Ġjune": 10288,
    "Ġrecovery": 11441,
    "pict": 8385,
    "Ġdamps": 23473,
    "Ġpopulous": 16826,
    "spring": 7231,
    "Ġwarrant": 17794,
    "Ġperry": 22394,
    "ulate": 5233,
    "Ġjavelins": 26105,
    "pray": 5429,
    "Ġgr": 976,
    "Ġreligious": 25121,
    "Ġfif": 4215,
    "igned": 5656,
    "ention": 846,
    "pents": 11512,
    "Ġintroduced": 7691,
    "Ġpatches": 4235,
    "untering": 15773,
    "Ġbloss": 19255,
    "Ġyelling": 18096,
    "Ġadvis": 9809,
    "Ġstony": 21736,
    "Ġgovern": 10450,
    "Ġempt": 5051,
    "stiff": 12672,
    "buckets": 26123,
    "begging": 22493,
    "Ġperiodically": 19493,
    "Ġyaw": 18094,
    "parable": 16389,
    "Ġp": 289,
    "Ġinaudible": 21496,
    "accurately": 25861,
    "Ġbears": 6829,
    "Ġfurnished": 6475,
    "Ġbewitched": 25975,
    "age": 505,
    "impul": 16555,
    "Ġwonderfully": 10430,
    "Ġtwitching": 25683,
    "Ġcommodores": 25374,
    "Ġstrateg": 1321,
    "Ġopinions": 9414,
    "Ġregimentals": 19857,
    "Åĵuv": 15181,
    "Ġimpertin": 6933,
    "Ġproximity": 3221,
    "islands": 21374,
    "atives": 2240,
    "atible": 17772,
    "Ġponderous": 8354,
    "Ġrepelled": 19085,
    "Ġalpha": 13587,
    "christ": 10210,
    "Ġscare": 18396,
    "Ġcomely": 21840,
    "lake": 13748,
    "Ġframed": 19034,
    "Ġexpanse": 14290,
    "mistress": 14904,
    "commun": 15033,
    "Ġiterate": 13198,
    "Ġwight": 12550,
    "causing": 25518,
    "Ġapples": 22217,
    "Ġ117": 19696,
    "orand": 21395,
    "Ġconcealment": 16914,
    "Ġfatig": 6756,
    "Ġmodern": 3230,
    "Ġobscured": 15010,
    "romised": 14111,
    "Ġmasts": 6465,
    "Ġwater": 1947,
    "Ġfashioned": 13319,
    "Ġconsoling": 19455,
    "Ġconsecrated": 26488,
    "ien": 10101,
    "Ġgoes": 3851,
    "om": 315,
    "Ġah": 5075,
    "Ġchip": 12821,
    "Ġthirds": 16708,
    "Ġblasts": 19994,
    "Ġmournful": 12334,
    "Ġpattering": 18652,
    "Ġlurch": 21552,
    "sink": 11521,
    "itage": 17816,
    "Ġcargo": 16288,
    "rev": 17756,
    "enjoyments": 25433,
    "Ġensemble": 1607,
    "Ġrepaired": 13106,
    "Ġamusement": 8055,
    "Ġacquiring": 2768,
    "Ġseren": 7401,
    "Ġexpectantly": 23525,
    "Ġemboldened": 22993,
    "Ġcounty": 9030,
    "Ġrelationships": 2928,
    "Ġworks": 5857,
    "Ġsixth": 16558,
    "could": 2873,
    "Ġretire": 10381,
    "Ġflows": 13011,
    "itive": 6668,
    "Ġcalling": 5662,
    "gressive": 2755,
    "Ġav": 3581,
    "Ġgushed": 21604,
    "Ġpebbles": 16127,
    "aus": 1502,
    "Ġstrife": 18613,
    "Ġweld": 8111,
    "Ġsides": 4579,
    "Ġintelligible": 15939,
    "Ġdimly": 9487,
    "nameless": 19902,
    "Ġbolted": 12242,
    "Ġlakeman": 6986,
    "slackened": 26094,
    "Ġcoleridge": 18766,
    "Ġsteelkilt": 5675,
    "pretending": 17041,
    "Ġtrades": 8231,
    "Ġdragging": 14476,
    "tier": 12512,
    "Ġponies": 21474,
    "Ġyojo": 7611,
    "Ġromish": 19583,
    "Ġfreely": 7056,
    "writing": 7720,
    "Ġwaggish": 25434,
    "verb": 10216,
    "Ġcrumb": 16439,
    "Ġrains": 24340,
    "Ġpinioned": 21480,
    "so": 892,
    "Ġcontrad": 9754,
    "Ġ30": 10511,
    "attacked": 23118,
    "Ġenough": 1761,
    "cracy": 24690,
    "Ġsurgeons": 23463,
    "Ġcraft": 4375,
    "increase": 20267,
    "Ġlifelessly": 23047,
    "brilliancy": 26077,
    "Ġantilles": 24178,
    "Ġexcluded": 16383,
    "Ġpowers": 5419,
    "expressive": 24305,
    "Ġrecess": 10847,
    "÷": 184,
    "Ġethere": 23948,
    "play": 5099,
    "Ġsharkish": 24506,
    "Ġdipping": 15589,
    "Ġuns": 15834,
    "ild": 1155,
    "Ġdiffusion": 23781,
    "Ġsuffusing": 23028,
    "Ġpals": 13917,
    "successively": 24779,
    "ĠĠĠĠĠĠĠĠĠĠĠĠĠĠĠĠĠĠĠĠĠĠĠĠĠĠĠĠĠĠĠĠĠĠ": 14614,
    "Ġreflection": 6440,
    "particip": 23615,
    "ady": 997,
    "Ġacted": 7422,
    "Ġprendergast": 26537,
    "os": 524,
    "pract": 10119,
    "castles": 14636,
    "other": 1315,
    "ĠĠĠĠĠĠĠĠĠĠĠĠĠĠĠĠĠĠĠĠĠĠĠĠĠĠĠĠĠĠ": 24443,
    "Ġrushes": 20506,
    "Ġeffects": 7236,
    "Ġindependent": 9015,
    "norm": 20984,
    "Ġgovernments": 20266,
    "featured": 24111,
    "vel": 2387,
    "cial": 2650,
    "Ġmeagre": 21807,
    "mary": 8748,
    "Ġneck": 4885,
    "Ġhistorical": 3644,
    "Ġtolerably": 8067,
    "Ġerection": 23998,
    "homage": 25616,
    "Ġunhappiness": 14117,
    "Ġtaught": 6803,
    "plexy": 18575,
    "Ġslabs": 13058,
    "Ġgobern": 22422,
    "Ġcompose": 12899,
    "tubs": 15129,
    "hearty": 14833,
    "Ġjackson": 24240,
    "Ġstrangest": 14795,
    "Ġpaddling": 25285,
    "Ġdi": 6525,
    "Ġfatally": 19392,
    "fem": 17537,
    "Ġbesides": 3514,
    "thrasher": 25658,
    "Ġbalance": 2020,
    "Ġevents": 4471,
    "Ġabsence": 4894,
    "Ġuninter": 18246,
    "oregressive": 3426,
    "Ġancho": 15600,
    "rised": 10123,
    "ollen": 11298,
    "Ġporpoise": 7106,
    "Ġfron": 14487,
    "Ġmany": 1106,
    "Ġ66": 24369,
    "Ġscreaming": 13422,
    "Ġcrusad": 23705,
    "Ġaside": 5234,
    "doubted": 17526,
    "Ġbats": 13899,
    "Ġchoked": 9263,
    "alo": 7588,
    "sterdam": 19089,
    "perv": 1500,
    "Ġshutters": 9936,
    "Ġvicissitudes": 12417,
    "Ġinvests": 14867,
    "barbaric": 26358,
    "storied": 18024,
    "Ġbarrier": 16568,
    "gre": 5788,
    "Ġrestraint": 15126,
    "put": 414,
    "ficial": 17548,
    "Ġscepticism": 25927,
    "Ġtattered": 21170,
    "Ġlovely": 4710,
    "Ġmassac": 14735,
    "Ġhedges": 19983,
    "narrative": 17318,
    "Ġstarbuck": 2194,
    "Ġsadder": 24048,
    "Ġreader": 11932,
    "Ġandromeda": 21505,
    "id": 338,
    "Ġattent": 4360,
    "suitableness": 26260,
    "Ġbody": 2438,
    "ahead": 12432,
    "Ġnever": 1021,
    "Ġtestimony": 14475,
    "unity": 4152,
    "Ġcoil": 11816,
    "otle": 21794,
    "ater": 3373,
    "Ġarrested": 9560,
    "Ġgreas": 17991,
    "Ġimpet": 11777,
    "Ġcon": 348,
    "Ġexponentiating": 3447,
    "Ġtokens": 1772,
    "Ġproficiency": 19191,
    "dep": 6786,
    "Ġextravagant": 17278,
    "Ġoarsman": 8637,
    "Ġfatigue": 8697,
    "anatory": 21361,
    "Ġscared": 14189,
    "lengthwise": 19948,
    "----âĢĿ": 13305,
    "iability": 20919,
    "Ġpeaceable": 14722,
    "usage": 12830,
    "Ġgunwale": 7325,
    "hinting": 17569,
    "rs": 7807,
    "Ġauthorized": 16735,
    "Ġwaves": 3916,
    "Ġinjuries": 11277,
    "Ġfade": 21405,
    "Ġreckoning": 14978,
    "cap": 8372,
    "season": 14033,
    "Ġreserve": 9970,
    "Ġdelicacy": 6340,
    "Ġinclemency": 22552,
    "Ġlinguistic": 12423,
    "Ġpredicting": 2418,
    "afflicted": 23777,
    "Ġdiversity": 25284,
    "Ġpetty": 19594,
    "alty": 17938,
    "Ġerred": 21155,
    "Ġjoined": 4563,
    "Ġostrich": 26430,
    "Ġideas": 5494,
    "Ġdoing": 3660,
    "otent": 8831,
    "Ġofficially": 24838,
    "stump": 21650,
    "Ġ/*": 10139,
    "ceptive": 15960,
    "asleep": 21541,
    "Ġcapsizing": 20087,
    "po": 1140,
    "Ġconceals": 23901,
    "hro": 20890,
    "rusion": 11323,
    "ambition": 13410,
    "warn": 11542,
    "Ġwaterproof": 19088,
    "Ġcomprehension": 15085,
    "unworthy": 18161,
    "Ġcorpse": 6638,
    "Ġforbade": 15213,
    "Ġfits": 8790,
    "insufficient": 15488,
    "Ġwearily": 18177,
    "Ġhellaswag": 24343,
    "Ġtreasures": 17047,
    "5": 25,
    "Ġdeduce": 8336,
    "tese": 21082,
    "ir": 379,
    "rum": 3417,
    "expression": 10547,
    "Ġstrangely": 5677,
    "laid": 10109,
    "loun": 17588,
    "mindful": 19598,
    "Ġeffemin": 18544,
    "ruct": 675,
    "Ġbuck": 7157,
    "Ġbrightest": 13223,
    "Ġadmits": 23553,
    "Ġinner": 9670,
    "Ġenl": 18188,
    "Ġboasted": 16104,
    "plete": 10919,
    "Ġbeale": 12696,
    "iloquent": 21722,
    "Ġabaft": 22271,
    "magnet": 14969,
    "Ġcoincidences": 26363,
    "Ġcity": 4529,
    "reshold": 21238,
    "peleg": 16292,
    "Ġmess": 7831,
    "Ġsire": 15500,
    "Ġbelted": 22950,
    "morrow": 4572,
    "seized": 14034,
    "Ġconversations": 9424,
    "leman": 21366,
    "tackle": 17320,
    "meth": 11502,
    "isf": 2437,
    "Ġlabors": 23325,
    "holmes": 4430,
    "Ġcooked": 13267,
    "Ġventil": 8019,
    "oak": 21002,
    "lant": 20946,
    "Ġdreams": 7497,
    "Ġpledge": 11600,
    "6": 26,
    "ifice": 7198,
    "Ġfig": 3623,
    "mechanically": 17299,
    "Ġcenturies": 8622,
    "Ġrampart": 20317,
    "Ġsolving": 2484,
    "Ġweights": 897,
    "patched": 17643,
    "determination": 19943,
    "Ġmanufactured": 22327,
    "Ġbedside": 19121,
    "irably": 13294,
    "'re": 12426,
    "miniature": 16765,
    "Ġvari": 832,
    "Ġpermitting": 22397,
    "Ġobstinate": 11336,
    "spersed": 22733,
    "Ġeffusions": 18543,
    "Ġridge": 14818,
    "Ġgeometric": 3220,
    "Ġstyle": 6946,
    "tw": 2812,
    "Ġregrets": 18589,
    "Ġshrunk": 16718,
    "Ġwriter": 11943,
    "liter": 11501,
    "Ġimperfectly": 25727,
    "Ġbended": 21383,
    "impregn": 21711,
    "Ġnurse": 9516,
    "Ġpag": 6010,
    "ribed": 7693,
    "arpaul": 14536,
    "ô": 181,
    "Ġpretend": 7721,
    "Ġbanker": 8666,
    "Ġacc": 573,
    "Ġ1894": 5196,
    "Ġ107": 24415,
    "Ġveritable": 19379,
    "vity": 7815,
    "Ġperfection": 19216,
    "appears": 12058,
    "Ġcomparison": 7099,
    "~": 98,
    "Ġimpassable": 20611,
    "Ġwag": 10775,
    "Ġendeavour": 4677,
    "ils": 3182,
    "Ġwhe": 439,
    "Ġgreedy": 3055,
    "understanding": 1122,
    "early": 20117,
    "Ġtruthful": 23865,
    "pat": 10116,
    "jewell": 25523,
    "thou": 4709,
    "Ġbuff": 9172,
    "atically": 2623,
    "royal": 11393,
    "Ġdeliberate": 15022,
    "Ġbitten": 21388,
    "Ġfluctuations": 5516,
    "flag": 14710,
    "Ġexacted": 23602,
    "Ġsupply": 6066,
    "Ġrestored": 7066,
    "forster": 16153,
    "Ġunaccount": 22024,
    "Ġloads": 22111,
    "Ġbounce": 21391,
    "Ġstatistical": 11105,
    "Ġconfed": 13096,
    "?âĢĻâĢĿ": 23644,
    "Ġglorious": 11075,
    "gaffman": 26390,
    "anks": 3914,
    "mentioning": 24885,
    "Ġprynne": 25540,
    "Ġstung": 21735,
    "alongside": 19788,
    "Ġhalts": 3160,
    "unken": 10236,
    "Ġresearch": 3003,
    "fedallah": 25522,
    "gument": 20884,
    "Ġskirting": 22794,
    "Ġlessened": 19087,
    "Ġdoor": 1740,
    "lur": 13746,
    "Ġdemi": 25548,
    "Ġresounded": 22541,
    "Ġcot": 13876,
    "Ġmetal": 9382,
    "tempestuous": 26097,
    "air": 1003,
    "anite": 17837,
    "Ġguernsey": 9350,
    "Ġpane": 21461,
    "deliver": 19503,
    "Ġfirmly": 8013,
    "still": 4217,
    "Ġdisown": 22521,
    "Ġskirts": 14352,
    "Ġbefitting": 15723,
    "Ġdream": 3538,
    "Ġcommunicating": 16889,
    "Ġheave": 7600,
    "Ġcripp": 9653,
    "Ġthrows": 14736,
    "rics": 13035,
    "Ġvolumes": 14799,
    "Ġsuperst": 7703,
    "Ġsatisfy": 6912,
    "Ġanatomical": 15075,
    "Ġpubl": 3937,
    "Ġwages": 13853,
    "yards": 9623,
    "adding": 21756,
    "Ġgrinned": 16857,
    "Ġ31": 12128,
    "Ġconcluding": 9856,
    "Ġpine": 8796,
    "te": 996,
    "Ġplant": 8899,
    "tomorrow": 25914,
    "Ġmild": 4147,
    "Ġbeautiful": 3671,
    "breeze": 20561,
    "Ġhisself": 21911,
    "Ġthrilling": 19747,
    "Ġautonomous": 10675,
    "Ġstir": 5823,
    "Ġexact": 2542,
    "Ġordering": 18997,
    "attentions": 13573,
    "Ġscenari": 22284,
    "Ġtouches": 20569,
    "cook": 8269,
    "Ġsanctified": 25883,
    "Ġfurs": 18739,
    "Ġruinous": 24633,
    "Ġartificial": 793,
    "putting": 14099,
    "Ġinterlude": 16070,
    "brimmed": 14588,
    "level": 2655,
    "Ġvalley": 5850,
    "Ġswings": 11086,
    "ginger": 13162,
    "onged": 18410,
    "fate": 17539,
    "Ġhemp": 9215,
    "Ġtrapped": 23074,
    "Ġaccused": 8507,
    "Ġcontempt": 6275,
    "Ġweariness": 19793,
    "Ġstalls": 25647,
    "otam": 21795,
    "Ġgroans": 14823,
    "Ġincrust": 22547,
    "local": 22506,
    "Ġfrantic": 7956,
    "Ġreflections": 5945,
    "lung": 17591,
    "Ġranks": 21972,
    "Ġgroups": 3717,
    "Ġconcernment": 23646,
    "Ġcash": 9652,
    "dar": 20823,
    "pride": 11210,
    "iest": 4034,
    "ik": 17571,
    "Ġgerm": 13963,
    "Ġacting": 10991,
    "ptember": 10893,
    "Ġbru": 13894,
    "staff": 21653,
    "quis": 7869,
    "Ġmeddle": 19490,
    "Ġlogs": 16345,
    ",--âĢľ": 19195,
    "Ġprosperous": 15169,
    "system": 4006,
    "Ġnoblest": 13240,
    "Ġtiny": 11552,
    "firmly": 20279,
    "Ġmak": 10778,
    "marked": 9048,
    "Ġdesolated": 24812,
    "Ġinvader": 23477,
    "Ġvexed": 9993,
    "Ġsurpass": 13582,
    "_": 67,
    "tumultuously": 25613,
    "Ġspies": 22125,
    "Ġclaps": 22344,
    "coiled": 16485,
    "alth": 3257,
    "Ġli": 601,
    "Ġprairie": 8712,
    "Ġcruellest": 19657,
    "54": 15298,
    "Ġfuriously": 9801,
    "magnitude": 17248,
    "arising": 17895,
    "alarms": 21502,
    "Ġhungry": 10532,
    "Ġnay": 5711,
    "Ġliking": 23590,
    "Ġinfatuated": 20532,
    "Ġsecured": 6745,
    "ound": 584,
    "Ġsumatra": 15285,
    "vag": 8764,
    "Ġsubst": 4272,
    "Ġarrival": 4731,
    "Ġdisdain": 8359,
    "Ġslightest": 6092,
    "iasm": 8060,
    "Ġjoosy": 23630,
    "Ġlanding": 11983,
    "ldog": 21914,
    "Ġbond": 21382,
    "Ġshot": 4543,
    "famous": 16916,
    "Ġgleams": 17309,
    "Ġharb": 7370,
    "Ġgloomy": 7505,
    "Ġlot": 6678,
    "Ġurged": 6781,
    "Ġfretfulness": 25448,
    "Ġstrung": 22611,
    "Ġjac": 1897,
    "Ġobliter": 14321,
    "Ġmab": 12557,
    "Ġlimbs": 5965,
    "icism": 13955,
    "loops": 12880,
    "Ġresided": 11809,
    "Ġbreezes": 14868,
    "Ġhues": 21486,
    "Ġpeace": 3691,
    "Ġchallenges": 13629,
    "._]]": 5334,
    "Ġrecklessness": 24745,
    "Ġdances": 10812,
    "pus": 3416,
    "Ġappeals": 16315,
    "Ġaristotle": 25817,
    "Ġbless": 4342,
    "Ġinfluences": 14864,
    "Ġhansom": 13663,
    "Ġdepend": 789,
    "Ġgin": 13960,
    "Ġfitzwilliam": 5771,
    "Ġjudges": 14685,
    "sleeves": 26109,
    "notice": 16144,
    "Ġcru": 2825,
    "Ġrestrict": 16372,
    "Ġrout": 7402,
    "Ġmeekly": 26490,
    "av": 738,
    "peare": 18911,
    "Ġstore": 8453,
    "Ġtelegraph": 25583,
    "Ġscud": 14190,
    "Ġwhichever": 13999,
    "Ġleech": 24153,
    "Ġmoritz": 11903,
    "apse": 14198,
    "Ġducks": 25157,
    "Ġaperture": 26160,
    "Ġsurrender": 16449,
    "dignity": 15344,
    "happily": 14657,
    "Ġroad": 3879,
    "decoder": 3643,
    "obedience": 17409,
    "marks": 7346,
    "Ġtypewriting": 16419,
    "Ġmutters": 23953,
    "vard": 21109,
    "ign": 1701,
    "armed": 7251,
    "Ġcompens": 14263,
    "Ġdived": 9177,
    "Ġanyways": 22516,
    "Ġerudite": 26350,
    "pens": 17632,
    "Ġsentimental": 24754,
    "kindled": 16660,
    "aked": 2015,
    "Ġsucking": 12783,
    "trembling": 17142,
    "splice": 17170,
    "Ġhazard": 20430,
    "Ġfals": 15578,
    "fre": 5425,
    "volume": 18600,
    "âĢĻ-": 18166,
    "Ġcultivation": 17145,
    "Ġfaster": 3198,
    "Ġsocially": 22084,
    "pursue": 24973,
    "mens": 20968,
    "Ġactivations": 2722,
    "ever": 1075,
    "Ġrefrain": 12944,
    "wondering": 19844,
    "Ġresol": 2669,
    "hanging": 10100,
    "itives": 17819,
    "whatever": 6694,
    "aid": 1921,
    "fellow": 6792,
    "probable": 17021,
    "Ġsuspecting": 14909,
    "brary": 5755,
    "Ġlac": 17964,
    "Ġcomprehending": 24445,
    "Ġgodly": 19080,
    "Ġlump": 21549,
    "Ġrescued": 24206,
    "Ġranging": 8478,
    "Ġclinging": 10291,
    "orative": 21396,
    "successfully": 14990,
    "gard": 7339,
    "Ġmediocr": 24081,
    "intu": 22930,
    "Ġdecaying": 2250,
    "impropriety": 21710,
    "Ġbelongs": 8014,
    "minute": 11274,
    "rock": 15638,
    "Ġimagination": 5759,
    "Ġlottery": 19887,
    "Ġpointing": 5661,
    "que": 1137,
    "kovoko": 20668,
    "Ġarmy": 11739,
    "Ġfurniture": 6476,
    "Ġmale": 9648,
    "Ġreminds": 13430,
    "darkened": 24517,
    "Ġmaj": 3924,
    "Ġconsolidation": 5060,
    "Ġparaph": 22117,
    "Ġstrolled": 16770,
    "Ġpoint": 2057,
    "joined": 13273,
    "Ġdews": 21836,
    "fered": 5560,
    "Ġstalked": 20427,
    "Ġfort": 2578,
    "Ġlean": 7606,
    "plifted": 9709,
    "spike": 16136,
    "condite": 23246,
    "arse": 7160,
    "Ġunwarrant": 20132,
    "Ġpeev": 22690,
    "Ġdeser": 3885,
    "Ġentertaining": 16926,
    "?": 35,
    "Ġpriority": 19761,
    "distrustful": 26330,
    "Ġkeenest": 12159,
    "Ġrelied": 16193,
    "frame": 17116,
    "cost": 19185,
    "immed": 9217,
    "oting": 2746,
    "ĠĠĠĠĠĠĠĠĠĠĠĠĠĠĠĠĠĠĠĠĠĠĠĠĠ": 24442,
    "Ġnlp": 3063,
    "Ġthousand": 2782,
    "beat": 10986,
    "b": 70,
    "icken": 6711,
    "Ġvacant": 9494,
    "Ġpray": 3897,
    "Ġpreternatural": 12820,
    "Ġunlock": 18243,
    "Ġplayfully": 19237,
    "Ġantiqu": 12142,
    "Ġinsist": 9889,
    "Ġfur": 992,
    "Ġprincely": 24146,
    "Ġtwin": 12925,
    "capable": 13700,
    "shot": 2202,
    "gences": 20876,
    "Ġscraping": 13415,
    "Ġpromotion": 23191,
    "aset": 10832,
    "menced": 23142,
    "Ġcontribut": 12856,
    "Ġhelpless": 8301,
    "Ġtreble": 16502,
    "Ġspec": 1262,
    "apering": 8040,
    "Ġdecap": 16018,
    "remarks": 23186,
    "buttoned": 13631,
    "Ġheal": 21678,
    "Ġv": 399,
    "Ġcompare": 9301,
    "Ġaw": 2511,
    "blue": 13692,
    "Ġapprehending": 26090,
    "Ġcrammed": 16470,
    "protested": 13473,
    "Ġfruits": 17118,
    "Ġnarwhales": 24902,
    "Ġconfessor": 24016,
    "umerable": 11723,
    "velled": 9875,
    "Ġannealing": 1553,
    "irons": 10238,
    "ived": 1534,
    "civilized": 17075,
    "ople": 2323,
    "Ġrevered": 23732,
    "anish": 2617,
    "Ġinattention": 17931,
    "Ġdiscriminative": 4326,
    "rop": 540,
    "Ġtending": 17724,
    "vari": 1516,
    "Ġbearing": 5298,
    "Ġmutilated": 23956,
    "Ġgore": 17988,
    "ang": 444,
    "Ġdisengaged": 12886,
    "Ġask": 1493,
    "pag": 11510,
    "Ġbegrim": 23012,
    "itled": 7578,
    "uteness": 17985,
    "Ġsyllables": 25298,
    "vain": 15446,
    "Ġlegal": 10439,
    "Ġtransportation": 13641,
    "vengeance": 13355,
    "Ġpriest": 7527,
    "Ġbeaches": 18084,
    "Ġkeel": 6444,
    "Ġindelicacy": 25695,
    "Ġceti": 24773,
    "adjust": 21757,
    "Ġjago": 22296,
    "Ġcoast": 4655,
    "Ġsynd": 22208,
    "Ġsuperficial": 23455,
    "Ġincorrect": 2730,
    "ells": 5303,
    "Ġdedu": 5585,
    "oh": 1578,
    "ias": 6362,
    "Ġkindred": 16373,
    "Ġgrating": 14354,
    "Ġgrego": 18963,
    "Ġcircumstance": 4987,
    "Ġirresolute": 24916,
    "Ġnegro": 6447,
    "Ġunallied": 22029,
    "hands": 5966,
    "ird": 2430,
    "remaining": 20219,
    "Ġdrowned": 9551,
    "shold": 2774,
    "cal": 1123,
    "unhesitatingly": 26496,
    "definition": 23115,
    "Ġdaint": 15590,
    "kye": 20937,
    "Ġwreath": 25936,
    "aped": 3762,
    "Ġservox": 23868,
    "greater": 13250,
    "ure": 356,
    "Ġpluck": 15611,
    "ough": 471,
    "Ġfirm": 3869,
    "ividually": 22077,
    "Ġvanish": 8927,
    "Ġprospect": 4706,
    "unbe": 21869,
    "prints": 23810,
    "Ġpenny": 16313,
    "dz": 4739,
    "likely": 9022,
    "Ġitself": 2522,
    "accur": 14593,
    "atmospheric": 17776,
    "biscuit": 17500,
    "Ġthankful": 14737,
    "į": 240,
    "Ġwounding": 19585,
    "enchant": 21282,
    "Ġtoilings": 24742,
    "inno": 10756,
    "ex": 623,
    "lies": 15380,
    "Ġglacier": 11433,
    "activation": 3233,
    "Ġdataset": 12816,
    "cooks": 25067,
    "shed": 8094,
    "coat": 5407,
    "oarsman": 25261,
    "Ġelimin": 16105,
    "Ġgrizz": 10351,
    "rubbed": 22177,
    "irksome": 18172,
    "Ġripples": 25505,
    "ilies": 18056,
    "Ġreleased": 2979,
    "Ġcomposition": 1686,
    "Ġsuspending": 19243,
    "ret": 1475,
    "Ġillum": 9399,
    "Ġostentatious": 25736,
    "Ġ166": 25004,
    "Ġprincip": 5600,
    "Ġpatchwork": 24139,
    "fifth": 20145,
    "Ġnorton": 12646,
    "plainly": 11089,
    "shop": 14238,
    "dies": 15337,
    "Ġmerely": 3769,
    "Ġungover": 18255,
    "Ġtiara": 26415,
    "Ġthought": 1089,
    "ory": 1079,
    "allers": 22194,
    "Ġcreaking": 14330,
    "Ġunusual": 6553,
    "Ġstoke": 10395,
    "iality": 8843,
    "tree": 11533,
    "grounds": 11151,
    "gloves": 25143,
    "Ġblackest": 19098,
    "Ġguidance": 9416,
    "relig": 15511,
    "Ġsteady": 4847,
    "Ġchimer": 24602,
    "ants": 1392,
    "Ġfriday": 14488,
    "Ġpup": 12616,
    "Ġnast": 15636,
    "Ġdiligence": 17114,
    "imely": 13997,
    "Ġgrievous": 13259,
    "fug": 17543,
    "azz": 8261,
    "ogn": 2583,
    "Ġboisterously": 25682,
    "ising": 2258,
    "Ġpoints": 5247,
    "Ġtossing": 8125,
    "bag": 7543,
    "Ġflirting": 16247,
    "ek": 1908,
    "manifested": 20524,
    "Ġunprincipled": 20707,
    "erde": 21267,
    "Ġgrapes": 15214,
    "Ġfloundered": 18861,
    "Ġreneg": 21672,
    "Ġlid": 6983,
    "Ġemployments": 12100,
    "Ġsiberia": 26161,
    "acled": 16079,
    "bol": 8717,
    "Ġnursed": 16885,
    "Ġcholera": 22250,
    "Ġevangelical": 25506,
    "Ġ130": 24781,
    "dozen": 23376,
    "Ġours": 4612,
    "rical": 11518,
    "Ġbodies": 8031,
    "Ġmince": 22831,
    "Ġexe": 3992,
    "Ġestimate": 19371,
    "orses": 6051,
    "importance": 9988,
    "Ġvortex": 26208,
    "offer": 19060,
    "Ġcottagers": 6761,
    "Ġsemicirc": 16392,
    "_.": 2214,
    "Ġrepositories": 23362,
    "Ġdarts": 16768,
    "eight": 9591,
    "yden": 21142,
    "liber": 18813,
    "Ġwinged": 16995,
    "Ġforebodings": 17303,
    "Ġword": 1051,
    "Ġwhispering": 14944,
    "confirm": 16807,
    "Ġcheshire": 13088,
    "Ġbefallen": 12341,
    "Ġutmost": 5496,
    "hoisting": 23715,
    "Ġmere": 2715,
    "Ġserenely": 13506,
    "Ġadorned": 15246,
    "Ġautomatically": 3645,
    "Ġsteward": 6584,
    "Ġbottled": 23794,
    "lect": 1222,
    "Ġpleasantness": 24137,
    "or": 282,
    "Ġsalvation": 14756,
    "Ġbaling": 17859,
    "Ġdesolate": 10012,
    "onah": 3341,
    "connections": 14427,
    "Ġdespairing": 14772,
    "Ġebony": 18008,
    "Ġcod": 8411,
    "utions": 1888,
    "does": 6194,
    "cturn": 17986,
    "Ġdecipher": 22443,
    "swam": 24254,
    "Ġwines": 21286,
    "renew": 24450,
    "Ġincreas": 1692,
    "Ġwool": 19431,
    "Ġkeepers": 23538,
    "Ġstr": 751,
    "influ": 9540,
    "Ġlifts": 25358,
    "Ġcruisers": 25863,
    "Ġrag": 18641,
    "Ġdwell": 5812,
    "Ġ1": 1015,
    "expose": 23663,
    "Ġchristendom": 16695,
    "Ġpreluding": 18368,
    "crane": 24096,
    "abling": 1077,
    "stoke": 18022,
    "Ġunctuousness": 17234,
    "surd": 6934,
    "Ġbitterest": 12400,
    "repeating": 20127,
    "Ġappetite": 12382,
    "Ġmiscellaneous": 17462,
    "deceptive": 22146,
    "Ġadmission": 23554,
    "chant": 4257,
    "foreign": 18541,
    "icable": 6388,
    "ust": 494,
    "Ġdecidedly": 9508,
    "Ġannihil": 10174,
    "creation": 14805,
    "Ġunspeakable": 10055,
    "Ġbandages": 24427,
    "noon": 5037,
    "Ġsympt": 7012,
    "Ġcountry": 2532,
    "Ġy": 341,
    "pursuit": 20339,
    "iness": 1280,
    "promise": 12248,
    "fixed": 7549,
    "ho": 2859,
    "Ġkeener": 22912,
    "Ġapologize": 15127,
    "Ġphenomena": 21481,
    "lim": 9606,
    "Ġtermination": 16459,
    "Ġcirculating": 23371,
    "pron": 9005,
    "Ġstrive": 23691,
    "stirred": 20423,
    "ready": 2363,
    "Ġdecanting": 22440,
    "Ġdelusion": 18974,
    "iters": 21327,
    "Ġstuff": 5717,
    "largely": 19573,
    "cats": 17512,
    "het": 5435,
    "Ġblemish": 19678,
    "Ġfierc": 18713,
    "Ġmaintain": 855,
    "Ġmamma": 10047,
    "atisf": 21262,
    "Ġlap": 8436,
    "Ġdanger": 3520,
    "unbidden": 21891,
    "Ġvancou": 22872,
    "Ġsupp": 1264,
    "straight": 9939,
    "Ġspasmodic": 20396,
    "fs": 17535,
    "ven": 779,
    "prise": 7726,
    "Ġbaffled": 12401,
    "Ġuntamed": 19163,
    "igner": 21698,
    "onial": 11566,
    "turns": 14905,
    "gled": 10699,
    "certainly": 5339,
    "Ġhark": 8427,
    "Ġperman": 10964,
    "Ġare": 527,
    "Ġcapacity": 10440,
    "ather": 739,
    "Ġrelationship": 2319,
    "elter": 21568,
    "Ġlivid": 14988,
    "L": 48,
    "swaying": 25910,
    "garn": 20869,
    "Ġfringed": 17272,
    "Ġtales": 10141,
    "Ġflannel": 26577,
    "Ġintegration": 9867,
    "resolved": 9639,
    "Ġhoping": 11103,
    "chorus": 19810,
    "Ġrope": 4338,
    "becoming": 18519,
    "hold": 3979,
    "loveliness": 26549,
    "Ġhar": 5814,
    "execution": 20470,
    "Ġseals": 11695,
    "olog": 1099,
    "horse": 8605,
    "Ġsped": 22122,
    "acters": 9308,
    "Ġcarrying": 6071,
    "philips": 20033,
    "Ġfake": 5810,
    "sign": 8387,
    "five": 6356,
    "Ġpropose": 9852,
    "Ġan": 286,
    "renadier": 18419,
    "Ġmoisture": 12357,
    "ructure": 747,
    "Ġveins": 8932,
    "admon": 21758,
    "express": 4895,
    "Ġfair": 2839,
    "uted": 7593,
    "orum": 12587,
    "fearfully": 25116,
    "ferences": 10326,
    "suggested": 17298,
    "Ġimmut": 13296,
    "blu": 12438,
    "ousand": 2432,
    "cher": 5786,
    "Ġsermons": 20193,
    "Ġswallows": 18881,
    "olence": 10230,
    "chance": 6827,
    "Ġestimates": 3745,
    "Ġcistern": 17380,
    "Ġtear": 6722,
    "to": 715,
    "Ġlets": 18076,
    "Ġfragrant": 13093,
    "neighbourhood": 10024,
    "Ġaghast": 16045,
    "Ġreef": 10849,
    "Ġarrived": 3744,
    "Ġarg": 4766,
    "hole": 5586,
    "same": 5361,
    "Ġdec": 642,
    "sphere": 22731,
    "visual": 24222,
    "gloom": 17139,
    "mid": 5617,
    "Ġprematurely": 24003,
    "turbable": 24531,
    "Ġbottles": 16569,
    "friend": 3861,
    "pinn": 21025,
    "Ġflourished": 15124,
    "Ġremembr": 24169,
    "Ġpunctual": 17137,
    "ellation": 12747,
    "Ġzoology": 22818,
    "Ġbundle": 13425,
    "sue": 2078,
    "wanderer": 25423,
    "Ġcousins": 9914,
    "ents": 1896,
    "Ġremarkable": 4915,
    "knife": 6942,
    "Ġexcurs": 23312,
    "amy": 8467,
    "Ġmode": 8497,
    "Ġembeddings": 2235,
    "Ġrestore": 9379,
    "yd": 21141,
    "Ġstraight": 3701,
    "Ġfasten": 11132,
    "Ġhull": 5446,
    "Ġink": 8802,
    "Ġwarb": 17787,
    "Ġforced": 4352,
    "uated": 10131,
    "bres": 11471,
    "generative": 4329,
    "kine": 15374,
    "Ġniag": 21527,
    "Ġcrimin": 6901,
    "pad": 13767,
    "Ġreb": 15688,
    "harpoons": 24285,
    "Ġexhibit": 14955,
    "Ġapproved": 16034,
    "Ġgayer": 24501,
    "Ġpicking": 11259,
    "Ġnaturalist": 22890,
    "beaut": 8512,
    "Ġelevated": 7318,
    "Ġlament": 7856,
    "Ġriding": 14094,
    "Ġapiece": 16813,
    "family": 7324,
    "conduct": 11795,
    "Ġtease": 18800,
    "Ġfishing": 9662,
    "stonecraft": 24356,
    "Ġworker": 23015,
    "Ġdisquis": 22524,
    "regiment": 16451,
    "tfordshire": 4811,
    "Ġconsummate": 25310,
    "Ġfurlongs": 20722,
    "Ġexpands": 25237,
    "slee": 17168,
    "Ġcapture": 3387,
    "rud": 4189,
    "Ġawaited": 17074,
    "Ġbasement": 24702,
    "lamps": 25260,
    "Ġnar": 7375,
    "Ġpythag": 26448,
    "Ġalders": 21781,
    "calm": 8934,
    "Ġacquainted": 5179,
    "Ġvul": 10247,
    "Ġdrowsy": 26444,
    "causes": 20342,
    "Ġreaped": 18029,
    "unerative": 21893,
    "Ġbread": 5404,
    "Ġtendons": 19807,
    "4": 24,
    "illa": 12790,
    "entiating": 3439,
    "sincere": 16907,
    "Ġjudiciously": 23876,
    "latter": 15381,
    "Ġindic": 2887,
    "Ġexpecting": 10436,
    "itime": 15545,
    "Ġtechniques": 2868,
    "Ġmanipulated": 25178,
    "Ġdefray": 22938,
    "Ġjup": 15950,
    "plumed": 21952,
    "Ġinjection": 3469,
    "Ġstren": 15717,
    "Ġsubterraneous": 20264,
    "magnetic": 20551,
    "Ġwakeful": 24266,
    "Ġportion": 7493,
    "practical": 17221,
    "Ġinvoked": 19144,
    "gentlemanlike": 20000,
    "ged": 1512,
    "gu": 3954,
    "Ġcle": 1511,
    "ontory": 10459,
    "forming": 15913,
    "aux": 14288,
    "Ġsomeone": 6703,
    "Ġfear": 2283,
    "Ġdescended": 7428,
    "Ġunav": 18240,
    "Ġduplicates": 17216,
    "attent": 9358,
    "Ġconviction": 6326,
    "ologist": 22882,
    "Ġespecially": 3933,
    "Ġviolet": 19090,
    "Ġwisdom": 11233,
    "Ġintervened": 25481,
    "Ġprosecut": 9697,
    "bone": 5612,
    "Ġincensed": 18571,
    "itect": 978,
    "Ġinsurance": 23680,
    "ren": 549,
    "Ġenglishmen": 19428,
    "Ġgust": 21594,
    "bu": 5132,
    "bildad": 9586,
    "hook": 12051,
    "fins": 13718,
    "Ġeagerly": 4990,
    "sets": 17660,
    "Ġcombination": 22825,
    "Ġfrosty": 14934,
    "Ġtant": 12522,
    "Ġgrowth": 14629,
    "disagreeable": 11163,
    "Ġlulled": 17968,
    "ners": 3275,
    "housekeeping": 24100,
    "Ġbask": 8116,
    "Ġconsidered": 4611,
    "moreover": 12966,
    "inquir": 9535,
    "Ġbrightness": 16576,
    "Ġtolland": 24988,
    "Ġcurds": 22948,
    "Ġswelling": 11923,
    "Ġrede": 13983,
    "circ": 4388,
    "Ġappre": 5165,
    "Ġeagerness": 6608,
    "Ġelbowed": 16107,
    "Ġagonized": 25372,
    "Ġ184": 16607,
    "contempt": 13187,
    "forgot": 11032,
    "Ġalphabetical": 17201,
    "itan": 10159,
    "rect": 1598,
    "Ġtroubled": 6615,
    "Ġcreeping": 18686,
    "oriental": 23719,
    "Ġvehicles": 10659,
    "Ġdismal": 11808,
    "Ġconjured": 25099,
    "Ġinv": 2227,
    "**:": 4737,
    "Ġdarker": 13119,
    "icial": 12652,
    "Ġshowing": 7731,
    "idel": 5299,
    "iar": 2380,
    "blo": 6353,
    "Ġslices": 23161,
    "Ġdamned": 13131,
    "Ġstandpoint": 23275,
    "ipping": 2207,
    "Ġfloundering": 16248,
    "Ġencountering": 11269,
    "Ġgpus": 3730,
    "gorith": 554,
    "Ġvivid": 8057,
    "bad": 12434,
    "Ġho": 1932,
    "england": 18928,
    "Ġrotation": 25474,
    "Ġwear": 6030,
    "iven": 1235,
    "Ġspoke": 2749,
    "Ġacquire": 2725,
    "if": 376,
    "Ġbunger": 9995,
    "Ġguiding": 19239,
    "Ġseeking": 7035,
    "Ġargosy": 24273,
    "Ġhearses": 20058,
    "mur": 5428,
    "Ġpict": 3500,
    "Ġdevouring": 11856,
    "Ġmet": 1841,
    "Ġfug": 12592,
    "Ġsalut": 10509,
    "Ġclients": 19731,
    "hearing": 8402,
    "leviathans": 19936,
    "Ġstabbing": 20302,
    "ille": 9219,
    "Ġoverlook": 10960,
    "ms": 542,
    "ivened": 22967,
    "Ġaccordance": 19496,
    "arr": 3045,
    "Ġvocabulary": 4995,
    "kinson": 10025,
    "Ġprelimin": 8860,
    "pent": 3494,
    "bern": 20774,
    "dimensional": 2352,
    "Ġfortitude": 9884,
    "cellar": 20276,
    "Ġconnection": 5479,
    "Ġxxi": 24476,
    "Ġmarked": 4619,
    "itations": 17817,
    "Ġredeem": 20498,
    "uerus": 26406,
    "twinkle": 23701,
    "didn": 9006,
    "Ġattendant": 11285,
    "fellows": 12271,
    "century": 20045,
    "Ġ81": 24457,
    "transition": 24513,
    "loved": 14250,
    "Ġadmired": 7981,
    "foreseen": 14253,
    "ogy": 22708,
    "farintosh": 24553,
    "Ġcaged": 21350,
    "Ġhydraulic": 10063,
    "cupboards": 25401,
    "Ġstately": 9833,
    "wh": 508,
    "Ġopenness": 18956,
    "Ġryder": 10259,
    "Ġgratitude": 5599,
    "Ġsmothered": 20719,
    "Ġsinks": 19548,
    "Ġhummed": 18776,
    "Ġserved": 8245,
    "bro": 4032,
    "Ġbehooves": 20732,
    "mai": 22910,
    "Ġoblique": 20168,
    "Ġprompt": 3189,
    "Ġnantucket": 2840,
    "Ġeating": 8135,
    "Ġdecisions": 6702,
    "Ġwhalers": 8047,
    "Ġjoint": 12032,
    "Ġharriet": 24572,
    "stay": 9680,
    "Ġmut": 3582,
    "Ġdisliked": 12888,
    "Ġbluish": 23651,
    "rating": 7808,
    "swed": 24253,
    "ulum": 21860,
    "Ġindignantly": 16939,
    "Ġriot": 14688,
    "nourished": 26398,
    "Ġswiss": 18880,
    "semic": 21818,
    "umbling": 6758,
    "Ġcombine": 4415,
    "Ġprofessed": 14723,
    "Ġpretext": 22226,
    "Ġpar": 456,
    "jour": 20926,
    "Ġtrained": 8502,
    "Ġbabies": 19691,
    "speak": 5504,
    "Ġflooded": 24959,
    "Ġpink": 12615,
    "gor": 547,
    "thirds": 25046,
    "Ġcivilized": 8664,
    "Ġnerve": 16339,
    "consc": 4840,
    "Ġunwarranted": 25171,
    "umbers": 10918,
    "answers": 22137,
    "Ġintim": 6838,
    "Ġerrone": 14429,
    "Ġsound": 2245,
    "Ġchaise": 9076,
    "grinder": 23413,
    "Ġuncork": 23428,
    "Ġenjoying": 11234,
    "Ġperil": 5557,
    "Ġtist": 21161,
    "Ġloathsome": 13527,
    "saddest": 25527,
    "Ġbestowing": 16971,
    "ared": 773,
    "Ġbeggar": 9348,
    "Ġthinkings": 22807,
    "disc": 4729,
    "Ġaccompl": 5167,
    "bantering": 25253,
    "Ġimpregnable": 26023,
    "oat": 13763,
    "Ġsarat": 21226,
    "school": 10054,
    "Ġcontention": 22423,
    "Ġgossip": 18471,
    "Ġdevelopments": 23227,
    "Ġabused": 22266,
    "Ġtremor": 24768,
    "beh": 5472,
    "Ġclass": 784,
    "Ġverdure": 10612,
    "disgraceful": 26076,
    "Ġguest": 7249,
    "Ġmultitudinous": 26273,
    "bewil": 22494,
    "Ġmuff": 8113,
    "Ġintercepted": 25826,
    "humored": 19451,
    "Ġmanxman": 9565,
    "throne": 25657,
    "Ġeleven": 9389,
    "Ġwaned": 17791,
    "Ġcavity": 20486,
    "Ġindividuals": 24546,
    "ailed": 3248,
    "×": 152,
    "Ġlately": 6387,
    "Ġheiress": 20696,
    "Ġcomplex": 745,
    "Ġanything": 2187,
    "Ġopens": 23625,
    "univers": 15769,
    "rippa": 11341,
    "Ġclos": 4548,
    "Ġsepulch": 15283,
    "unfortunate": 15774,
    "Ġexceptionable": 25503,
    "Ġmarking": 16468,
    "produced": 25414,
    "pervised": 1520,
    "caused": 25519,
    "specific": 10497,
    "Ġ41": 24077,
    "distinctive": 25726,
    "Ġrests": 13091,
    "Ġgravely": 7882,
    "rec": 6003,
    "Ġindistinct": 17407,
    "flu": 9117,
    "rons": 21038,
    "Ġcom": 367,
    "remed": 18953,
    "cks": 3082,
    "remains": 10398,
    "ucy": 15443,
    "Ġgloried": 22982,
    "<PAD>": 0,
    "Ġfeature": 754,
    "Ġcabs": 23639,
    "ispens": 8335,
    "Ġvideos": 13605,
    "Ġpour": 13913,
    "Ġmal": 5221,
    "Ġbomb": 17867,
    "thro": 12758,
    "Ġflattering": 13026,
    "Ġsurrounds": 24231,
    "Ġpy": 21449,
    "itch": 10160,
    "Ġcoco": 11000,
    "ription": 5676,
    "Ġdominic": 25381,
    "Ġinher": 10179,
    "Ġsquaring": 22841,
    "romising": 18233,
    "Ġsli": 4748,
    "vo": 11539,
    "respectable": 19846,
    "Ġrigger": 19529,
    "lled": 10107,
    "Ġobe": 5800,
    "Ġtents": 13817,
    "shrugged": 22459,
    "Ġobsequ": 14319,
    "Ġvines": 12748,
    "steak": 14707,
    "Ġalso": 1344,
    "Ġwanting": 6721,
    "Ġdiscomposed": 25580,
    "continu": 5501,
    "Ġconstantinople": 19836,
    "resembling": 25932,
    "gent": 7129,
    "Ġwhaleman": 4654,
    "Ġwrapping": 19774,
    "Ġoverhung": 15973,
    "striving": 24669,
    "Ġexpressed": 4466,
    "days": 7688,
    "Ġthing": 1639,
    "Ġintrepidity": 25550,
    "Ġassure": 4418,
    "X": 60,
    "scotch": 25847,
    "Ġbully": 23854,
    "Ġpiqu": 21475,
    "clay": 18930,
    "Ġcurved": 18831,
    "Ã": 132,
    "Ġadopted": 15177,
    "idly": 12697,
    "Ġforc": 9227,
    "Ġoldest": 12970,
    "Ġtrucks": 19511,
    ").": 1271,
    "Ġresidence": 8206,
    "Ġdisinclination": 22533,
    "Ġcopy": 10163,
    "ľ": 255,
    "Ġimpediments": 26240,
    "Ġtumble": 16879,
    "Ġleast": 2065,
    "olds": 9310,
    "Ġmourning": 13477,
    "Ġawait": 17073,
    "Ġcandles": 9907,
    "Ġsubord": 22786,
    "carrying": 16712,
    "Ġbespeaking": 26310,
    "Ġagencies": 18539,
    "Ġvariations": 22663,
    "ris": 9137,
    "embra": 14075,
    "east": 9115,
    "Ġhobbling": 25644,
    "Ġoptimal": 1857,
    "Ġcondescending": 24868,
    "Ġsculpture": 26016,
    "Ġbiggest": 24566,
    "Ġspoiled": 11363,
    "Ġcontradictory": 20395,
    "Ġ75": 19611,
    "complied": 19912,
    "Ġcrews": 8990,
    "missed": 11209,
    "Ġapproach": 868,
    "Ġvulgar": 13603,
    "Ġrace": 5847,
    "Ġlevel": 5020,
    "wart": 17705,
    "Ġstated": 9688,
    "Ġspatial": 2731,
    "Ġgazette": 19499,
    "duing": 22408,
    "Ġapproxim": 1218,
    "Ġlearnedly": 23384,
    "T": 56,
    "frau": 15088,
    "Ġtip": 15470,
    "rail": 10204,
    "uttering": 12659,
    "Ġgrotesque": 26329,
    "Ġdownward": 10331,
    "Ġneighbourhood": 5126,
    "Ġpole": 6433,
    "Ġhindrance": 25220,
    "Ġfireplace": 13144,
    "ids": 21760,
    "Ġbubblingly": 25632,
    "ina": 21178,
    "inations": 7568,
    "writer": 14648,
    "impression": 15708,
    "estation": 15918,
    "diff": 9113,
    "Ġ199": 3012,
    "clam": 13052,
    "Ġglistened": 20171,
    "heavy": 10574,
    "Ġairs": 14511,
    "Ġoutfits": 22318,
    "Ġsupple": 22996,
    "eh": 13709,
    "Ġflavor": 16249,
    "luding": 6700,
    "pie": 21010,
    "occasion": 7753,
    "wharf": 20605,
    "izabeth": 907,
    "comprehens": 16169,
    "Ġpersevering": 20232,
    "Ġenriched": 26499,
    "impat": 11202,
    "Ġretirement": 25378,
    "ross": 805,
    "Ġmemorand": 23403,
    "Ġterrify": 19359,
    "dangerous": 20239,
    "Ġembatt": 18857,
    "Ġtranslations": 12050,
    "unfearing": 21889,
    "iza": 6255,
    "intolerable": 22935,
    "entions": 17974,
    "Ġscor": 8189,
    "Ġtargets": 4203,
    "Ġjib": 14193,
    "Ġwatched": 6297,
    "Ġtemple": 7654,
    "Ġnook": 15926,
    "Ġmajesty": 5201,
    "vering": 15713,
    "company": 9460,
    "unwholesome": 26497,
    "ucket": 2485,
    "Ġsacrific": 15017,
    "Ġforesight": 13127,
    "Ġhardened": 14449,
    "Ġfaithfully": 14886,
    "burgh": 6773,
    "acit": 16078,
    "Ġofficio": 23813,
    "gris": 8259,
    "anced": 1329,
    "Ġalterations": 19870,
    "Ġtowing": 9193,
    "Ġfourteen": 12008,
    "Ġseparating": 16685,
    "Ġl": 303,
    "Ġdepicting": 22605,
    "Ġpoky": 21477,
    "Ġvoyagings": 19234,
    "Ġdun": 6673,
    "Ġsc": 529,
    "experienced": 15120,
    "Ġmortification": 12091,
    "Ġentreat": 4509,
    "consp": 18502,
    "ager": 6546,
    "Ġovercome": 6043,
    "Ġflinging": 13584,
    "stricken": 9883,
    "complain": 14357,
    "wife": 8100,
    "Ġindestruct": 22960,
    "ius": 5789,
    "Ġirene": 8443,
    "Ġlung": 7167,
    "lotte": 3335,
    "Ġquick": 2581,
    "Ġcrest": 12939,
    "discovered": 8324,
    "Ġreefed": 20301,
    "Ġlaboratory": 13611,
    "Ġpopulation": 16827,
    "Ġtraces": 7945,
    "danced": 20827,
    "wherein": 19107,
    "Ġinfallible": 15069,
    "Ġmanor": 14196,
    "Ġagitated": 7648,
    "hap": 17559,
    "wondered": 17029,
    "Ġmagazine": 23096,
    "onents": 8776,
    "Ġstables": 23656,
    "Ġsofas": 26224,
    "ries": 3357,
    "itted": 2443,
    "hs": 8377,
    "Ġgrant": 11871,
    "Ġgrievances": 20647,
    "Ġsnugness": 20075,
    "toller": 20671,
    "smug": 23905,
    "Ġtitle": 11408,
    "had": 1949,
    "ills": 1630,
    "Ġmiz": 10777,
    "Ġcontinually": 5042,
    "Ġopen": 1550,
    "der": 468,
    "Ġilleg": 21620,
    "Ġrobinson": 17463,
    "Ġmultiplication": 2872,
    "Ġgloss": 11956,
    "Ġplanted": 9773,
    "Ġdes": 1249,
    "Ġjuicy": 25370,
    "Ġgurgling": 17445,
    "cannibals": 25584,
    "Ġearth": 2852,
    "Ġair": 1835,
    "Ġunwonted": 14124,
    "unct": 18154,
    "clearer": 24065,
    "Ġslo": 15505,
    "pe": 1436,
    "Ġfate": 4754,
    "Ġmagnific": 16318,
    "Ġmetallic": 19044,
    "Ġfonder": 17880,
    "Ġslam": 13055,
    "onic": 7827,
    "Ġprofessors": 14724,
    "fatig": 17089,
    "set": 3864,
    "Ġexecutioner": 12269,
    "haz": 17564,
    "Ġprofanely": 23569,
    "Ġefficiently": 3947,
    "security": 26206,
    "Ġxxxi": 24966,
    "bohemia": 20730,
    "Ġstrikes": 13180,
    "Ġarrog": 18344,
    "ources": 2789,
    "Ġtransaction": 22436,
    "interrupted": 11417,
    "Ġbefell": 14009,
    "Ġnail": 9195,
    "Ġfaintest": 24569,
    "Ġey": 8134,
    "urs": 6989,
    "Ġbiological": 1933,
    "ky": 4519,
    "plun": 15813,
    "Ġstamping": 20029,
    "Ġpersonality": 16476,
    "Ġcraven": 16469,
    "Ġapprised": 18363,
    "below": 12119,
    "latitudes": 17196,
    "ieties": 19022,
    "Ġcopied": 20006,
    "umnal": 18300,
    "Ġinsanity": 12044,
    "Ġpromptly": 23815,
    "Ġhaunted": 10253,
    "Ġcub": 8413,
    "iew": 2448,
    "Ġwrote": 5011,
    "grew": 17555,
    "Ġwiser": 14729,
    "Ġshelves": 14998,
    "Ġdecanter": 22441,
    "unavoidable": 17389,
    "Ġblasphemy": 26115,
    "Ġconducting": 16649,
    "Ġclattering": 22349,
    "rowing": 7930,
    "Ġaffinity": 18786,
    "Ġcentury": 8290,
    "wel": 6117,
    "Ġflexible": 23773,
    "Ġfailing": 12135,
    "arus": 13911,
    "Ġdeified": 18140,
    "Ġverse": 16602,
    "Ġbutchers": 18272,
    "picture": 11407,
    "izes": 886,
    "Ġunchanging": 22042,
    "Ġwhipcord": 20093,
    "Ġreplenished": 13635,
    "Ġdiffidence": 14659,
    "spark": 18690,
    "15": 12428,
    "Ġdelight": 2548,
    "una": 21866,
    "hamlet": 23260,
    "soo": 18687,
    "luxur": 25822,
    "rapid": 12667,
    "Ġfling": 9660,
    "arthy": 4822,
    "Ġfren": 10805,
    "interred": 23735,
    "amuse": 14052,
    "Ġfore": 2155,
    "worthy": 7732,
    "mush": 20976,
    "brave": 19822,
    "Ġune": 4598,
    "Ġwilds": 16508,
    "[_": 5131,
    "Ġfeedback": 23431,
    "Ġbarbarous": 13475,
    "alcul": 15625,
    "Ġuniformly": 19147,
    "ld": 384,
    "Ġglowed": 24864,
    "Ġtruest": 16703,
    "Ġforty": 5719,
    "Ġmadam": 5663,
    "Ġimparted": 15986,
    "Ġexamination": 8004,
    "Ġfoot": 3163,
    "arned": 21814,
    "Ġleaves": 5021,
    "Ġcousin": 3703,
    "Ġuncivilized": 25498,
    "kick": 20935,
    "iftings": 23224,
    "comfort": 5647,
    "grass": 23411,
    "Ġunaware": 22056,
    "aries": 6244,
    "Ġanswerable": 23469,
    "Ġquee": 1981,
    "Ď": 207,
    "Ġslighter": 18939,
    "tro": 15432,
    "Ġasleep": 6836,
    "Ġexpedite": 24953,
    "others": 7670,
    "vocabulary": 25085,
    "ordingly": 18517,
    "Ġinvite": 14563,
    "Ġ156": 20169,
    "Ġpreliminaries": 25176,
    "inating": 9153,
    "Ġsauc": 15885,
    "Ġinex": 6528,
    "Ġparticip": 16129,
    "sac": 7140,
    "knives": 14912,
    "Ġhail": 7400,
    "Ġindefinite": 17176,
    "Ġblood": 3169,
    "makers": 20981,
    "Ġfergus": 16867,
    "Ġviolin": 16427,
    "awake": 14451,
    "measured": 19988,
    "colnett": 19329,
    "wrinkles": 16554,
    "Ġdefects": 12331,
    "Ġsmelling": 16064,
    "Ġplainly": 4380,
    "Ġbony": 12584,
    "Ġmuttered": 7086,
    "Ġhieroglyph": 11969,
    "Ġdeer": 12717,
    "Ġblacksmith": 6595,
    "Ġhatch": 7847,
    "Ġcrept": 11022,
    "Ġcoal": 18593,
    "Ġcorrid": 9823,
    "curious": 10482,
    "Ġregained": 18587,
    "Ġpushed": 5909,
    "olets": 21007,
    "Ġmouldy": 14973,
    "string": 15683,
    "Ġexclaimed": 4682,
    "Ġabridged": 26540,
    "Ġtallow": 14776,
    "Ġenig": 15797,
    "Ġrepresent": 1212,
    "Ġperformed": 8547,
    "Ġensuing": 12307,
    "leading": 15559,
    "stands": 22427,
    "Ġrelish": 14383,
    "preserving": 25304,
    "rooms": 10432,
    "years": 6883,
    "happen": 19330,
    "Ġremedy": 18725,
    "effectually": 25128,
    "Ġsuccessive": 10500,
    "expectant": 24275,
    "rr": 17650,
    "recurring": 24194,
    "Ġgreatly": 5849,
    "Ġpul": 2040,
    "Ġunrecord": 16621,
    "honorable": 19900,
    "wanted": 10743,
    "Ġmarvels": 11084,
    "Ġcontextually": 11955,
    "Ġinhabitants": 7525,
    "roused": 16652,
    "oar": 12495,
    "ancient": 9655,
    "Ġfind": 1456,
    "Ġesc": 2256,
    "Ġdishonor": 25601,
    "Ġson": 2984,
    "Ġmen": 1433,
    "imens": 1746,
    "Ġslightly": 7293,
    "Ġdecorated": 22442,
    "Ġdifferent": 1426,
    "Ġbur": 2700,
    "ainted": 3658,
    "Ġpartly": 6713,
    "Ġ4": 3983,
    "posterity": 25488,
    "Ġeffect": 968,
    "Ġpout": 17906,
    "divided": 25018,
    "Ġhopes": 4232,
    "Ġunabated": 15850,
    "varied": 23182,
    "confirmed": 19644,
    "vis": 4577,
    "comprehend": 14359,
    "contracting": 19292,
    "Ġdis": 694,
    "aky": 18411,
    "Ġweaken": 21919,
    "Ġsparsity": 4206,
    "inaw": 21182,
    "Ġwrig": 13065,
    "Ġbag": 5699,
    "Ġpart": 858,
    "Ġquoted": 22412,
    "ethics": 8877,
    "Ġhammock": 5768,
    "momentum": 4991,
    "vine": 10734,
    "Ġ104": 24412,
    "weekly": 25684,
    "Ġhated": 7585,
    "Ġwr": 1544,
    "Ġabsurd": 7202,
    "Ġhinted": 6011,
    "hideous": 25407,
    "Ġmatrix": 1605,
    "ĠĠĠĠĠĠĠĠĠĠĠĠĠĠĠĠĠĠĠĠĠĠĠĠ": 5321,
    "stranger": 9882,
    "iding": 3844,
    "Ġwhirling": 12246,
    "Ġshave": 21993,
    "cery": 20807,
    "Ġbusiness": 2237,
    "Ġoxen": 19949,
    "Ġark": 10276,
    "opposite": 19928,
    "Ġstanzas": 21741,
    "Ġcontour": 18474,
    "Ġswiftly": 5670,
    "Ġsweetness": 9445,
    "Ġindel": 13005,
    "Ġhoof": 23351,
    "ific": 489,
    "Ġtub": 7146,
    "Ġhauled": 11692,
    "scho": 8759,
    "bling": 10078,
    "inexplicable": 25808,
    "Ġinspiring": 19112,
    "Ġruffled": 25836,
    "Ġsurging": 19133,
    "í": 174,
    "oper": 7347,
    "wa": 5896,
    "resentment": 15184,
    "sor": 7352,
    "Ġunansw": 22055,
    "Ġcoronation": 13332,
    "Ġlabrador": 23327,
    "Ġbend": 9170,
    "Ġovertaken": 18429,
    "burg": 16773,
    "Ġhoist": 11975,
    "¹": 122,
    "Ġwhalebone": 10977,
    "Ġnails": 12645,
    "commodore": 20624,
    "Ġunreasoning": 15843,
    "Ġpersuasions": 16631,
    "grant": 10427,
    "Ġharness": 17927,
    "Ġeighty": 19474,
    "minutes": 7513,
    "Ġsatin": 12985,
    "convers": 6567,
    "owal": 13995,
    "Ġsymmetrical": 20365,
    "Ġdelineate": 26057,
    "dreaded": 25138,
    "algorith": 3464,
    "judged": 14830,
    "mental": 16047,
    "Ġprevious": 2091,
    "eds": 6674,
    "Ġachieve": 3672,
    "satisf": 5781,
    "app": 1041,
    "Ġstartled": 7082,
    "Ġsettee": 22918,
    "Ġdisobedience": 22532,
    "elf": 564,
    "Ġgratify": 19501,
    "unnecessary": 21877,
    "ornamented": 26595,
    "Ġavert": 14424,
    "Ġsprinkled": 19495,
    "Ġtearless": 24786,
    "deficient": 23114,
    "mastod": 23971,
    "Ġperseverance": 13596,
    "Ġasia": 11681,
    "Ġdeserves": 13288,
    "asy": 5294,
    "attachment": 13049,
    "Ġpunct": 8660,
    "Ġcables": 15555,
    "Ġindomit": 22957,
    "Ġadvised": 16210,
    "Ġseats": 14088,
    "Ġimbecile": 17391,
    "Ġcreativity": 2818,
    "Ġbridle": 24681,
    "Ġgeneva": 5450,
    "Ġship": 1087,
    "Ġisland": 4046,
    "Ġrings": 11699,
    "Ġlizard": 12651,
    "Ġmorals": 22972,
    "fastened": 19323,
    "Ġsmothe": 18573,
    "Ġlaure": 16909,
    "Ġunspeak": 8850,
    "Ġ80": 24456,
    "Ġsemantics": 2895,
    "Ġslim": 18936,
    "Ġencountered": 8321,
    "Ġ(": 596,
    "Ġhoofs": 14526,
    "Ġeventually": 8616,
    "Ġjeroboam": 10600,
    "Ġgam": 11623,
    "Ġtroops": 24898,
    "Ġhorsey": 24249,
    "Ġdeal": 3607,
    "Ġdoubloon": 6945,
    ",âĢĶâĢľ": 10069,
    "Ġattorney": 18620,
    "Ġmappings": 2151,
    "Ġlay": 583,
    "Ġdislike": 6047,
    "ouri": 21445,
    "Ġeast": 5370,
    "Ġundiscernible": 22065,
    "Ġphotography": 24683,
    "Ġunravel": 26214,
    "Ġceasing": 23755,
    "crat": 24095,
    "bred": 11469,
    "#": 7,
    "Ġpanegyric": 26449,
    "Ġjourney": 3878,
    "Ġexpedition": 10634,
    "Ġresentment": 7531,
    "lessly": 4555,
    "Ġconceive": 8461,
    "Ġfangs": 12594,
    "Ġtin": 15462,
    "medical": 23339,
    "Ġprovinc": 16742,
    "Ġobtruded": 20721,
    "news": 23129,
    "lod": 15377,
    "Ġdemoniacal": 20555,
    "remembered": 17350,
    "Ġchoke": 22246,
    "tstone": 21083,
    "reproach": 15185,
    "Ġfortunate": 6214,
    "mouthed": 12398,
    "Ġdece": 6996,
    "Ġscaramouch": 23825,
    "Ġmainland": 22654,
    "Ġinexhaustible": 16981,
    "scales": 22989,
    "Ġmanual": 14197,
    "worth": 8626,
    "Ġcurves": 18830,
    "dwelt": 23869,
    "disguise": 26306,
    "turtle": 12209,
    "Ġtimes": 2307,
    "Ġeccentric": 13648,
    "Ġcompletion": 12145,
    "Ġchap": 5933,
    "Ġjenkinson": 11431,
    "Ġoversight": 22356,
    "sander": 11526,
    "wed": 5003,
    "Ġrubbing": 9321,
    "inferior": 12392,
    "Ġmassacre": 20546,
    "Ġfewer": 16226,
    "umpled": 15874,
    "H": 44,
    "Ġsalted": 14755,
    "pleas": 3850,
    "Ġrejo": 5915,
    "Ġshipwreck": 20444,
    "Ġresidual": 1678,
    "habit": 16188,
    "Ġhistorically": 19376,
    "Ġthings": 1963,
    "ctions": 952,
    "clusion": 16304,
    "Ġrouted": 24907,
    "suspended": 15176,
    "Ġconstitution": 20107,
    "Ġcarted": 21347,
    "hig": 12472,
    "Ġagency": 11803,
    "evening": 7089,
    "loving": 18538,
    "Ġingolstadt": 8332,
    "Ġofficers": 4425,
    "Ġhypocritical": 20737,
    "Ġmissing": 6175,
    "Ġdelicate": 6480,
    "Ġtimbers": 14838,
    "Ġpersu": 3563,
    "Ġshilling": 18228,
    "Ġporpoises": 13381,
    "Ġpens": 21458,
    "Ġsuggests": 12198,
    "only": 3312,
    "Ġfringe": 17271,
    "Ġledgers": 23935,
    "Ġlater": 6016,
    "inary": 3278,
    "feared": 11800,
    "Ġholds": 7975,
    "conda": 18993,
    "image": 9685,
    "Ġwondered": 11125,
    "hit": 20888,
    "interruption": 20110,
    "Ġjoes": 19229,
    "Ġgrin": 5482,
    "stranded": 19223,
    "Ġpeak": 16124,
    "Ġwish": 2099,
    "Ġphilist": 16601,
    "aphys": 15200,
    "Ġtrembled": 8701,
    "elizabeth": 1987,
    "Ġsalad": 19477,
    "icated": 7591,
    "Ġhorse": 4725,
    "Ġtwo": 1043,
    "Ġabroad": 8865,
    "Ġhemis": 21681,
    "Ġhigher": 1819,
    "Ġneedles": 11184,
    "Ġ100": 14362,
    "Ġbordeaux": 24564,
    "eldest": 22797,
    "conven": 6162,
    "playful": 24357,
    "value": 18810,
    "towards": 5002,
    "rously": 17654,
    "Ġtypewritten": 16420,
    "upset": 23014,
    "ourselves": 9010,
    "Ġtension": 13823,
    "Ġperfections": 23607,
    "Ġcausing": 16356,
    "bur": 4687,
    "everything": 6324,
    "Ġcompleted": 8997,
    "inctions": 17732,
    "Ġcapital": 7979,
    "Ġcontemporary": 16010,
    "Ġsepulchre": 20558,
    "uits": 21103,
    "thereby": 14446,
    "asily": 13945,
    "Ġalman": 21778,
    "Ġexclusiveness": 23924,
    "Ġbullion": 24983,
    "oran": 8788,
    "Ġevid": 3501,
    "Ġvexatious": 19780,
    "jac": 8381,
    "Ġgod": 1936,
    "Ġarithmetic": 18345,
    "Ġnight": 1463,
    "Ġdistracted": 11801,
    "Ġbefore": 809,
    "Ġenvirons": 13209,
    "gging": 7697,
    "incident": 14591,
    "Ġseizure": 21961,
    "ited": 1750,
    "mistake": 24529,
    "Ġtrain": 513,
    "explaining": 23137,
    "otted": 14023,
    "Ġweaving": 12737,
    "Ġrandom": 1590,
    "Ġfetched": 24567,
    "barrow": 15320,
    "Ġwindow": 3000,
    "ordered": 8789,
    "Ġslily": 23160,
    "osed": 1961,
    "Ġundet": 16704,
    "piled": 21014,
    "Ġjealousy": 13575,
    "Ġcautious": 12251,
    "lantic": 6363,
    "Ġplanet": 14749,
    "Ġreferred": 8916,
    "Ġjohn": 5032,
    "Ġul": 6828,
    "Ġsomnam": 23002,
    "Ġcrow": 3802,
    "Ġpalm": 10513,
    "wait": 11320,
    "Ġconcerns": 11966,
    "Ġplug": 17147,
    "Ġgeorgia": 23884,
    "ignor": 8961,
    "Ġsails": 5256,
    "total": 17250,
    "Ġincidents": 9298,
    "roc": 9674,
    "occasional": 19575,
    "Ġhug": 6979,
    "cro": 13695,
    "Ġthanking": 18602,
    "balls": 12303,
    "Ġnon": 1626,
    "queer": 10363,
    "Ġbrah": 19355,
    "Ġlad": 2367,
    "harbor": 13563,
    "Ġunworth": 22033,
    "Ġmerited": 23729,
    "desper": 13067,
    "Ġstalk": 12694,
    "accuracy": 9878,
    "inf": 6232,
    "Ġforehead": 5261,
    "Ġallies": 18234,
    "oof": 15404,
    "Ġherb": 15854,
    "Ġransacked": 26505,
    "destined": 24113,
    "Ġcheeks": 5957,
    "î": 175,
    "was": 1420,
    "Ġbrewed": 23344,
    "accompan": 11452,
    "ciousness": 20816,
    "kempt": 20940,
    "ġ": 226,
    "glancing": 11214,
    "Ġpossess": 3207,
    "Ġreck": 6537,
    "Ġvaried": 11846,
    "chester": 23805,
    "Ġbenefit": 8293,
    "Ġsentiment": 6589,
    "omely": 21636,
    "ourable": 4967,
    "Ġstri": 2803,
    "Ġdutch": 6327,
    "Ġtech": 1673,
    "Ġbeeches": 9226,
    "pulling": 25146,
    "Ġinhabit": 5782,
    "Ġunsav": 18251,
    "Ġmistake": 6203,
    "thousand": 5547,
    "Ġplaus": 22596,
    "Ġascertaining": 17203,
    "Ġoutbreak": 22314,
    "Ġwearisome": 19794,
    "Ġfamous": 5255,
    "Ġcommencement": 12236,
    "Ġstupid": 7604,
    "Ġdu": 4584,
    "Ġfurthest": 22813,
    "spot": 9788,
    "atics": 15521,
    "Ġworms": 25216,
    "Ġrelaps": 18774,
    "mockery": 24378,
    "Ġrival": 10485,
    "Ġspring": 4120,
    "Ġepo": 21616,
    "overlooked": 23321,
    "Ġpeter": 10535,
    "Ġincessant": 15096,
    "Ġdisorder": 16049,
    "intern": 23734,
    "gorge": 22334,
    "Ġscuffle": 20607,
    "aggra": 21903,
    "Åĵ": 10744,
    "ela": 21566,
    "expedition": 26078,
    "amongst": 24672,
    "Ġwade": 17784,
    "Ġrepented": 23360,
    "Ġscorn": 7900,
    "exagger": 22425,
    "rians": 21922,
    "pair": 21011,
    "Ġreturns": 11924,
    "Ġtook": 1856,
    "Ġpatiently": 19917,
    "Ġanticip": 7508,
    "Ġalarming": 14778,
    "Ġstrengthen": 20699,
    "rann": 21043,
    "Ġworkflow": 2234,
    "justified": 19002,
    "hum": 3776,
    "Ġwis": 3726,
    "Ġterritories": 23843,
    "Ġbressed": 21385,
    "Ġrepute": 18034,
    "Ġimpul": 7208,
    "arking": 16123,
    "acious": 5562,
    "avoid": 9304,
    "nonsense": 17615,
    "ricane": 16277,
    "Ġrashness": 25460,
    "train": 2034,
    "W": 59,
    "stout": 21642,
    "Ġfootman": 8287,
    "pshire": 21023,
    "coil": 23558,
    "Ġaccommod": 14213,
    "Ġselecting": 16684,
    "Ġtheatre": 21277,
    "bent": 15310,
    "ishmael": 18420,
    "Ġfinds": 6299,
    "Ġtie": 10750,
    "please": 8176,
    "Ġlamps": 14791,
    "keel": 14128,
    "oko": 18440,
    "icious": 7380,
    "Ġnash": 5819,
    "antee": 22094,
    "necessities": 24306,
    "Ġeditions": 19120,
    "Ġglen": 18851,
    "tables": 19756,
    "aneously": 4057,
    "Ġintervening": 17267,
    "Ġobscurely": 20187,
    "g": 75,
    "articulate": 17397,
    "Ġcarpet": 9355,
    "Ġpike": 12620,
    "Ġavenues": 25429,
    "cull": 20808,
    "Ġdried": 7367,
    "Ġmute": 19414,
    "mystic": 25316,
    "Ġtemperature": 1004,
    "Ġobliged": 4285,
    "Ġgrieved": 8297,
    "no": 911,
    "Ġowned": 11874,
    "Ġgasping": 17038,
    "Ġdisconcerted": 18562,
    "Ġexpectation": 6904,
    "Ġ127": 24472,
    "Ġcrisp": 12001,
    "Ġunp": 12769,
    "ges": 2874,
    "Ġloosed": 22109,
    "Ġirksome": 13110,
    "Ġanalytical": 22911,
    "sadly": 25526,
    "atherley": 7220,
    "Ġstep": 753,
    "Ġintegr": 7968,
    "Ġtiller": 8965,
    "Ġticklish": 25034,
    "dock": 16417,
    "Ġedges": 3822,
    "Ġsacr": 7194,
    "Ġstudied": 11114,
    "Ġfolded": 7767,
    "Ġimper": 4501,
    "ractions": 11632,
    "Ġchased": 8861,
    "Ġtrial": 6634,
    "Ġmac": 15536,
    "recovered": 19786,
    "Ġblown": 12083,
    "Ġunexpectedly": 19908,
    "Ġsearched": 15817,
    "vens": 21111,
    "Ġreason": 1380,
    "Ġmich": 21304,
    "Ġvariance": 1169,
    "ileries": 18058,
    "Ġresisted": 22538,
    "Ġimpudence": 26241,
    "Ġmargaret": 10376,
    "crimes": 16697,
    "anned": 17839,
    "ana": 15556,
    "Ġtrif": 6269,
    "Ġblowing": 10484,
    "iant": 5427,
    "Ġacknowled": 6350,
    "Ġbrute": 8926,
    "months": 9071,
    "ulls": 8837,
    "neys": 23581,
    "back": 2016,
    "conclusive": 25673,
    "Ġjove": 9267,
    "Ġinhabited": 12183,
    "Ġunsettled": 14122,
    "Ġabsent": 7014,
    "Ġig": 3502,
    "adm": 7609,
    "Ġsupers": 18278,
    "Ġ118": 19697,
    "achalot": 15861,
    "Ġ6": 5141,
    "wide": 10137,
    "Ġprotectors": 9070,
    "Ġawake": 8271,
    "Ġpotent": 12062,
    "osc": 18387,
    "ograph": 4797,
    "Ġinternal": 2249,
    "Ġwashes": 21858,
    "depart": 12263,
    "Ġsituated": 9446,
    "Ġproportionably": 19969,
    "idy": 21761,
    "project": 16423,
    "Ġfloats": 9412,
    "Ġnantucketer": 6914,
    "Ġjerked": 19831,
    "ion": 296,
    "Ġread": 1446,
    "Ġpronouncing": 16969,
    "enderby": 25215,
    "arial": 5532,
    "Ġstiggs": 25792,
    "Ġodorous": 19565,
    "Ġhabit": 6771,
    "Ġeth": 17716,
    "Ġdifficult": 3571,
    "Ġrugged": 18721,
    "Ġlearns": 2645,
    "Ġlikelihood": 16499,
    "compan": 7301,
    "Ġbowed": 6242,
    "wall": 10136,
    "oubled": 23647,
    "sorts": 21059,
    "else": 6533,
    "Ġominous": 12422,
    "Ġcatholic": 20680,
    "Ġinfallibly": 10040,
    "parlour": 16390,
    "Ġwhistle": 9065,
    "Ġobtaining": 16130,
    "8": 28,
    "Ġclattered": 22347,
    "Ġchurning": 15935,
    "Ġhorizontal": 7782,
    "Ġbeak": 18079,
    "Ġsliding": 9363,
    "ellect": 7381,
    "act": 786,
    "Ġdull": 6384,
    "Ġbear": 3657,
    "Ġtarquin": 23609,
    "Ġsant": 21213,
    "Ġjudging": 16595,
    "Ġfruit": 12324,
    "spermaceti": 12191,
    "conviction": 19963,
    "Ġferule": 24499,
    "Ġoarsmen": 7737,
    "Ç": 136,
    "witted": 17707,
    "Ġmis": 916,
    "Ġweakened": 16823,
    "ė": 216,
    "melancholy": 12351,
    "Ġpossession": 5589,
    "dece": 11732,
    "Ġmutinous": 23955,
    "irements": 22207,
    "anke": 15558,
    "Ġlingering": 11379,
    "dense": 18715,
    "Ġliv": 6679,
    "Ġpronounce": 16968,
    "Ġpad": 8124,
    "ppers": 7618,
    "Ġprophe": 13077,
    "illity": 18296,
    "Ġain": 6969,
    "Ġevince": 24293,
    "ines": 660,
    "Ġmaterially": 12189,
    "Ġbloodshed": 23799,
    "Ġcaut": 6521,
    "Ġcopies": 24935,
    "Ġladies": 3193,
    "Ġexposure": 16097,
    "compose": 24029,
    "oman": 2017,
    "Ġ91": 24589,
    "police": 10583,
    "mount": 9129,
    "fired": 20859,
    "Ġsore": 10764,
    "cooper": 19188,
    "Ġprofane": 13151,
    "Ġbritain": 16956,
    "Ġdiscussion": 17194,
    "Ġprofess": 3697,
    "icult": 3345,
    "Ġputs": 19032,
    "Ġthou": 1809,
    "pedest": 24695,
    "mathematics": 26304,
    "ck": 436,
    "attoo": 6807,
    "Ġbanish": 15567,
    "Ġprofessions": 11231,
    "horror": 13158,
    "Ġsermon": 12374,
    "ladyship": 14828,
    "Ġ25": 13191,
    "Ġunwinding": 22057,
    "ilst": 8143,
    "Ġentreaties": 9035,
    "Ġserviceable": 24718,
    "Ġtechnically": 12364,
    "Ġlee": 4221,
    "Ġpatagon": 14507,
    "resp": 13838,
    "Ġ&": 6513,
    "Ġassociate": 13449,
    "Ġdil": 6383,
    "meal": 22710,
    "copy": 5133,
    "Ġmagnified": 23200,
    "servants": 15037,
    "Ġpersuas": 23944,
    "poises": 11887,
    "Ġcirculation": 16415,
    "portuguese": 25413,
    "Ġcontest": 18473,
    "Ġaccelerate": 23226,
    "Ġthrobbing": 16898,
    "Ġfingertips": 24014,
    "mense": 4780,
    "Ġdodge": 19885,
    "nnight": 20992,
    "Ġhardware": 4904,
    "Ġrent": 11638,
    "Ġdays": 2079,
    "itarian": 21335,
    "dinah": 20079,
    "Ġcheering": 11133,
    "Ġconcisely": 19046,
    "jee": 17579,
    "Ġlikes": 9407,
    "Ġspaces": 3113,
    "ol": 362,
    "Ġnapoleon": 20556,
    "Ġpreparation": 13528,
    "alterable": 13623,
    "erably": 7574,
    "Ġequator": 7461,
    "oe": 7553,
    "Ġunceasing": 20356,
    "Ġtrod": 15026,
    "ê": 171,
    "gunpowder": 25339,
    "Ġalongside": 6311,
    "venty": 6427,
    "Ġmetropol": 11140,
    "Ġprec": 2921,
    "Ġstru": 2171,
    "mon": 2313,
    "Ġeel": 18001,
    "Ġfumbling": 21415,
    "Ġthundering": 24291,
    "Ġmonarch": 14412,
    "Ġbridges": 24682,
    "Ġinscrutable": 10672,
    "Ġfri": 17878,
    "Ġmightier": 18730,
    "Ġsisters": 3639,
    "Ġpardon": 5727,
    "Ġglac": 9345,
    "Ġincompatible": 25680,
    "Ġstumbling": 21739,
    "Ġplantation": 11423,
    "Ġshaggy": 13569,
    "Ġskirt": 18729,
    "nostr": 22749,
    "Ġcontro": 1685,
    "tur": 5688,
    "orphans": 26440,
    "accursed": 20539,
    "Ġresign": 18564,
    "ħ": 232,
    "berwell": 22720,
    "parsee": 14512,
    "Ġconfounded": 16382,
    "Ġaverred": 18864,
    "Ĭ": 237,
    "Ġconsole": 8150,
    "Ġdissimilar": 22528,
    "luck": 5733,
    "Ġencamped": 22799,
    "Ġmummy": 25768,
    "Ġpersecutor": 26096,
    "§": 105,
    "Ġsteed": 13038,
    "Ġconcil": 23319,
    "Ġsprain": 18305,
    "inquiry": 15141,
    "Ġcir": 21339,
    "Ġweaver": 11686,
    "Ġenergy": 2553,
    "sheets": 14441,
    "Ġpassing": 4314,
    "source": 11525,
    "disciple": 16778,
    "Ġleviathan": 3293,
    "Ġfamine": 16327,
    "Ġexplanations": 15908,
    "legra": 10789,
    "invest": 11559,
    "Ġpersian": 11090,
    "Ġcommotion": 9779,
    "france": 24282,
    "drew": 7334,
    "Ġhappier": 10359,
    "Ġrever": 6536,
    "gained": 20880,
    "Ġburly": 19249,
    "Ġpassengers": 13674,
    "Ġtexas": 25922,
    "Ġfailed": 6671,
    "Ġattachment": 6049,
    "Ġequal": 4135,
    "meadow": 18679,
    "ß": 160,
    "Ġslack": 8955,
    "Ġperemptory": 25740,
    "iqu": 7802,
    "Ġwhaleboats": 18479,
    "Ġretains": 20028,
    "cottage": 9569,
    "arily": 4126,
    "Ġpatron": 7464,
    "Ġxliv": 23407,
    "hyp": 15365,
    "pulous": 15415,
    "Ġtend": 6120,
    "pierced": 26141,
    "snapping": 24849,
    "ails": 6160,
    "Ġgriefs": 16771,
    "Ġque": 4159,
    "step": 2458,
    "Ġay": 15490,
    "Ġenglishman": 11229,
    "Ġreeled": 13985,
    "Ġsystematically": 4123,
    "ook": 21003,
    "Ġal": 342,
    "imes": 1302,
    "ider": 21762,
    "Į": 239,
    "Ġrumbling": 18213,
    "Ġhappily": 9330,
    "Ġassail": 13060,
    "utely": 8131,
    "Ġelevate": 24502,
    "Ġfault": 5702,
    "Ġphr": 2684,
    "Ġcalculates": 13263,
    "Ġfondness": 16780,
    "Ġturks": 14598,
    "continuing": 24479,
    "regards": 23465,
    "Ġlouisiana": 25076,
    "unwilling": 14060,
    "Ġunmo": 12770,
    "spirited": 19752,
    "tranquillity": 20545,
    "Ġf": 283,
    "Ġinanimate": 13932,
    "Ġlees": 18075,
    "ethe": 9676,
    "Ġeas": 2356,
    "Ġtawny": 20480,
    "Ġmanx": 7904,
    "freighted": 14891,
    "Ġsec": 2077,
    "Ġswan": 23048,
    "desk": 23205,
    "Ġyer": 15731,
    "Ġvariety": 8530,
    "Ġpleasurable": 23338,
    "hearted": 6970,
    "events": 12315,
    "Ġanom": 12608,
    "emic": 18184,
    "help": 1477,
    "Ġunderstand": 835,
    "runs": 25415,
    "Ġgarn": 13962,
    "Ġbut": 424,
    "Ġramad": 8527,
    "Ġcape": 5146,
    "this": 1438,
    "Ġplague": 11822,
    "chariot": 26479,
    "Ġfortunes": 12176,
    "Ġinsupportable": 13931,
    "horn": 8085,
    "Ġalready": 2714,
    "Ġpalpitated": 26085,
    "Ġcem": 17823,
    "Ġphyset": 23197,
    "Ġsmote": 18574,
    "Ġreaction": 15692,
    "Ġwithdrew": 9695,
    "Ġimpertinence": 11366,
    "spirits": 8054,
    "whaler": 20308,
    "Ġpiling": 17910,
    "urning": 12914,
    "Ġunperceived": 22034,
    "embow": 21928,
    "idation": 5022,
    "Ġlustrous": 20155,
    "bow": 5424,
    "Ġdardanelles": 26443,
    "reputation": 15514,
    "Ġfavourite": 5270,
    "Ġserm": 9633,
    "Ġplying": 17913,
    "Ġexpatiate": 18625,
    "Ġsimpler": 2048,
    "Ġpuppy": 12403,
    "Ġmercenary": 17193,
    "regarding": 15070,
    "ads": 5718,
    "fect": 2305,
    "supper": 12916,
    "mechan": 11855,
    "Ġpersever": 10002,
    "://": 11465,
    "Ġemployment": 8628,
    "âĢĺ": 942,
    "Ġabhorred": 9507,
    "hear": 10146,
    "Ġconstraints": 2742,
    "Ġgreedily": 18966,
    "Ġbodings": 21389,
    "Ġspear": 9313,
    "Ġam": 661,
    "author": 9859,
    "arious": 10317,
    "Ġunconsc": 6552,
    "Ġarri": 2554,
    "Ġcoffin": 4428,
    "meantime": 9091,
    "istics": 1631,
    "Ġfossils": 20221,
    "doub": 6223,
    "tormented": 13644,
    "preserver": 20212,
    "Ġstricken": 9775,
    "Ġimmovable": 15890,
    "plunging": 25987,
    "moonlight": 25375,
    "Ġrefres": 14338,
    "taught": 17684,
    "Ġlays": 15987,
    "Ī": 235,
    "Ġantichron": 24180,
    "widely": 25343,
    "Ġearnestly": 5978,
    "Ġafforded": 8028,
    "Ġdiscover": 4718,
    "Ġcovers": 18594,
    "insupportable": 21192,
    "Ġcoverage": 4287,
    "Ġbenefited": 19396,
    "Ġpolitics": 19222,
    "Ġhostile": 19938,
    "Ġpretty": 3859,
    "turning": 8316,
    "Ġsurvive": 9066,
    "Ġcharles": 11954,
    "crowded": 20189,
    "Ġda": 5150,
    "Ġgrowled": 19282,
    "Ġleak": 2162,
    "Ġimmens": 9938,
    "Ġexplanation": 6692,
    "Ġforgiven": 24024,
    "shortly": 12256,
    "Ġpregn": 22229,
    "Ġtortoise": 16908,
    "enchanted": 26424,
    "deaux": 22145,
    "âĢĶâĢĺ_": 24831,
    "Ġafar": 14291,
    "ples": 6845,
    "Ġholder": 6724,
    "Ġcommonplaces": 16287,
    "Ġcrew": 2498,
    "polar": 24583,
    "showed": 16026,
    "Ġrefreshment": 17239,
    "Ġunjust": 8483,
    "Ġhare": 5157,
    "Ġnightmare": 18919,
    "Ġclung": 10958,
    "Ġresiding": 16059,
    "Ġmischie": 22755,
    "Ġflann": 23009,
    "mercenary": 26315,
    "Ġdam": 2218,
    "Ġdoran": 9179,
    "material": 13129,
    "Ġpreference": 9732,
    "opement": 10311,
    "civilities": 24971,
    "Ġjar": 15948,
    "ulence": 15763,
    "Ġradiance": 13369,
    "Ġfocuses": 8649,
    "alive": 10827,
    "anation": 5803,
    "Ġpan": 5082,
    "Ġsubmission": 22788,
    "Ġhosea": 17330,
    "Ġexcept": 3317,
    "embarr": 15796,
    "Ġguitar": 16267,
    "Ġtranspired": 16784,
    "inching": 21188,
    "executed": 25739,
    "enthus": 17977,
    "Ġmau": 21309,
    "Ġrelating": 2707,
    "Ġhesitation": 13440,
    "Ġparts": 4165,
    "Ġmoody": 8200,
    "ii": 4012,
    "trunk": 23945,
    "Ġballasted": 23977,
    "Ġneeded": 7717,
    "brim": 23574,
    "Ġamph": 18513,
    "Ġboneless": 19604,
    "am": 368,
    "Ġfurlong": 18740,
    "dug": 18462,
    "Ġrebell": 21666,
    "Ġnarrating": 24351,
    "partner": 19219,
    "Ġdreamy": 14702,
    "Ġmurdering": 14810,
    "Ġsurviving": 24637,
    "Ġray": 18642,
    "Ġstretch": 6993,
    "Ġsite": 17753,
    "seems": 10875,
    "commendation": 26348,
    "writes": 4988,
    "Ġinduce": 7762,
    "thy": 2936,
    "Ġstrokes": 16769,
    "nearest": 16020,
    "Ġtwee": 22672,
    "Ġdispirited": 23880,
    "Ġresume": 18565,
    "Ġunman": 12771,
    "Ġbern": 17858,
    "Ġembarrassed": 11384,
    "mund": 13757,
    "Ġtrad": 9827,
    "Ġinve": 17928,
    "uttered": 8440,
    "Ġjog": 18404,
    "Ġanger": 5442,
    "Ġplanks": 5563,
    "Ġregression": 4409,
    "Ġfinery": 23122,
    "Ġrecording": 24434,
    "Ġbottomless": 12104,
    "Ġprejudice": 9075,
    "Ġcabal": 23640,
    "earth": 6502,
    "gra": 771,
    "bird": 9585,
    "Ġworrying": 22924,
    "emed": 3383,
    "Ġwakes": 11571,
    "Ġencompassed": 15252,
    "Ġgardeners": 12118,
    "pane": 10120,
    "Ġflorida": 20658,
    "Ġpen": 1533,
    "myself": 5113,
    "Ġpoured": 8800,
    "miseries": 16757,
    "low": 651,
    "gravel": 22617,
    "Ġdiscl": 9796,
    "Ġextensive": 12938,
    "ault": 2311,
    "Ġbenef": 3490,
    "Ġoriginal": 6102,
    "Ġmortal": 4681,
    "advent": 10220,
    "Ġprovoking": 16743,
    "uss": 8763,
    "fights": 20864,
    "Ġblock": 2575,
    "landlord": 9839,
    "Ġluggage": 25957,
    "Ġrequirements": 9787,
    "Ġpark": 5465,
    "Ġbathing": 20198,
    "Ġpresents": 8244,
    "Ġthreatens": 24375,
    "Ġrange": 9711,
    "Ġspreading": 13377,
    "ateness": 15518,
    "Ġrmsprop": 3358,
    "Ġcoronet": 6344,
    "Ġcoron": 4463,
    "Ġinterference": 8893,
    "dron": 17525,
    "Ġfurnishing": 16645,
    "miss": 3174,
    "Ġsentry": 19023,
    "Ġly": 2276,
    "Ġhates": 21483,
    "Ġutility": 23514,
    "Ġcoopman": 25827,
    "ĠĠĠĠĠĠĠĠĠĠĠĠĠĠ": 22560,
    "driver": 14920,
    "Ġbewitching": 25976,
    "Ġmagnanimous": 17410,
    "absolutely": 10645,
    "Ġpatter": 831,
    "Ġlane": 5627,
    "tort": 17675,
    "Ġfry": 17879,
    "uring": 818,
    "screen": 22991,
    "err": 1142,
    "Ġtrunk": 7205,
    "Ġfuel": 13903,
    "Ġadm": 2405,
    "Ġdelightful": 6320,
    "Ġwriting": 4667,
    "Ġdilatory": 24705,
    "Ġhed": 7387,
    "Ġcared": 8782,
    "Ġprows": 19888,
    "Ġobtru": 18672,
    "ropes": 7902,
    "joice": 9602,
    "Ġfugitives": 25634,
    "Ġbrut": 18768,
    "Ġstrewed": 23420,
    "Ġsteepest": 3090,
    "Ġsagittarius": 24732,
    "Ġsensible": 4976,
    "whatsoever": 18487,
    "Ġdiscernible": 15068,
    "Ġinsists": 23676,
    "Ġspecially": 11996,
    "Ġability": 2765,
    "rets": 12538,
    "appearance": 5333,
    "ivial": 15857,
    "sar": 12502,
    "august": 11071,
    "stretch": 13980,
    "Ġarmitage": 23580,
    "Ġanomaly": 25636,
    "Ġtimor": 24224,
    "Ġkneeling": 12140,
    "Ġband": 5290,
    "yrin": 12519,
    "swallowed": 14852,
    "Ġadvantages": 9810,
    "Ġhedgehog": 10644,
    "projecting": 26073,
    "ible": 1118,
    "Ġsickle": 24245,
    "near": 5842,
    "Ġkind": 1784,
    "Ġsmiled": 5940,
    "uded": 6286,
    "Ġheart": 1595,
    "field": 3073,
    "Ġglades": 19370,
    "tornadoes": 26153,
    "Ġbewildered": 15212,
    "apply": 18759,
    "Ġwretchedly": 19505,
    "Ġpicturesque": 14893,
    "Ġunworthy": 11713,
    "fortnight": 13085,
    "Ġonto": 14027,
    "Ġneglected": 10377,
    "Ġblows": 5972,
    "expressed": 9041,
    "raham": 18013,
    "Ġrightly": 13062,
    "Ġyawn": 7610,
    "Ġunchanged": 22028,
    "Ġnoses": 18372,
    "Ġpregnant": 26535,
    "Ġgratifying": 13304,
    "gale": 13723,
    "Ġdumbly": 24985,
    "ę": 218,
    "Ġtuples": 13476,
    "hes": 1399,
    "silence": 8044,
    "Ġcus": 21341,
    "Ġnoteworthy": 24160,
    "Ġpowerful": 1589,
    "Ġdebated": 9040,
    "Ġcontrive": 16008,
    "Ġsow": 17749,
    "Ġcontext": 1707,
    "Ġornam": 15862,
    "Ġremarks": 7475,
    "Ġexchanging": 18131,
    "Ġphant": 7055,
    "Ġran": 3347,
    "Ġvilla": 14746,
    "restrained": 16335,
    "Ġabated": 18390,
    "ere": 6789,
    "Ġcastor": 19425,
    "Ġfifteen": 6947,
    "Ġuplifted": 11646,
    "destroyed": 15259,
    "Ġwhel": 15864,
    "Ġdaresay": 14703,
    "Ġmurderous": 8315,
    "Ġdespised": 14666,
    "late": 11498,
    "vac": 15449,
    "Ġcommand": 3326,
    "illing": 8174,
    "Ġduly": 13349,
    ",âĢĶ": 3171,
    "Ġwaif": 9374,
    "Ġillustrative": 25066,
    "Ġri": 3397,
    "_,": 2799,
    "rab": 7597,
    "cons": 4308,
    "benevolently": 25600,
    "sometimes": 5971,
    "proceed": 8976,
    "Ġbecause": 2212,
    "Ġthre": 2060,
    "grieved": 17316,
    "frantic": 24283,
    "cstasy": 11445,
    "somewhat": 11160,
    "!âĢĿâĢĶ": 8532,
    "mer": 2835,
    "Ġten": 2388,
    "Ġacquaintances": 17349,
    "Ġwhom": 1830,
    "Ġsuit": 5725,
    "Ġcurbstone": 26042,
    "daring": 20828,
    "given": 8376,
    "Ġcurving": 16224,
    "weep": 22681,
    "intended": 11066,
    "Ġfriend": 1295,
    "Ġtire": 17720,
    "canst": 22963,
    "Ġtied": 7357,
    "iarity": 8743,
    "Ġcake": 12567,
    "Ġundo": 15838,
    "Ġtranslates": 12049,
    "Ġrepro": 7275,
    "umbria": 23928,
    "mus": 10110,
    "oking": 4606,
    "non": 9611,
    "velling": 14761,
    "feel": 3809,
    "Ġsauce": 15887,
    "Ġvillas": 24050,
    "Ġsuperfluous": 17413,
    "Ġmeasuring": 22877,
    "continuance": 19717,
    "Ġcontract": 18475,
    "Ġeluc": 16106,
    "Ġoverall": 4358,
    "Ġexceed": 1345,
    "Ġvia": 2384,
    "Ġtemperate": 16161,
    "go": 2064,
    "Ġseating": 18201,
    "Ġsudden": 1999,
    "Ġpacing": 8425,
    "Ġcous": 3438,
    "Ġstar": 6022,
    "Ġsurvey": 13592,
    "Ġspecimens": 18858,
    "arians": 18526,
    "stige": 21658,
    "Ġextremity": 8988,
    "Ġconce": 3424,
    "Ġconclude": 8580,
    "Ġparticulars": 5754,
    "Ġwedged": 24068,
    "Ġpassive": 22842,
    "Ġapp": 502,
    "reasonable": 7751,
    "Ġchoose": 5981,
    "Ġdistance": 3485,
    "Ġgoethe": 22421,
    "dun": 17516,
    "Ġeloped": 22643,
    "Ġmid": 2616,
    "Ġmovements": 24359,
    "ifted": 4494,
    "brevi": 24071,
    "Ġdears": 18139,
    "Ġnailing": 21524,
    "valley": 16213,
    "aths": 22696,
    "Ġseap": 15815,
    "flames": 14711,
    "Ġencircling": 26271,
    "Ġupbra": 22150,
    "Ġabraham": 18395,
    "imate": 4219,
    "Ġjot": 11761,
    "Ġnosegay": 24192,
    "dor": 12449,
    "Ġbeh": 1802,
    "bit": 3929,
    "Ġpiny": 21468,
    "Ġfiltering": 23923,
    "Ġsigma": 1542,
    "Ġfishes": 11590,
    "Ġmincing": 18750,
    "Ġcrane": 23438,
    "Ġpassage": 3883,
    "Ġappropriated": 23483,
    "Ġpipeline": 2487,
    "breathing": 25335,
    "Ġstur": 15714,
    "Ġpoignant": 22590,
    "Ġthrice": 10575,
    "mortal": 10112,
    "Ġbat": 10795,
    "Ġdisturbed": 8671,
    "surprised": 9530,
    "proportions": 22836,
    "Ġutterance": 14762,
    "fi": 12459,
    "Ġexpense": 7652,
    "Ġpromethe": 14467,
    "Ġsympathised": 14861,
    "Ġlowers": 23240,
    "Ġphrenologists": 25608,
    "Ġpiece": 5367,
    "Ġdisgrace": 7215,
    "desired": 8956,
    "uncontrollable": 20594,
    "Ġfacts": 2294,
    "walls": 25345,
    "Ġfumes": 21416,
    "mes": 1197,
    "later": 20952,
    "Ġservants": 6611,
    "foot": 9046,
    "circumspect": 26086,
    "30": 20753,
    "Ġbrings": 11878,
    "warning": 25531,
    "jected": 22709,
    "Ġdom": 2636,
    "Ġmates": 4872,
    "rig": 7557,
    "Ġslaves": 23165,
    "Ġfoundering": 21417,
    "Ġsay": 933,
    "dismay": 19152,
    "Ġhandling": 8912,
    "intosh": 22937,
    "urities": 18048,
    "Ġmoccas": 22433,
    "Ġclum": 8872,
    "Ġannot": 15599,
    "Ġcarve": 23089,
    "cadence": 26125,
    "/*": 10070,
    "Ġincludes": 2011,
    "hunters": 16833,
    "Ġresembled": 18033,
    "obtain": 23090,
    "Ġspe": 821,
    "lege": 17841,
    "shaped": 10309,
    "Ġruin": 6055,
    "\":": 9581,
    "lee": 11584,
    "Ġinvest": 4978,
    "Ġscru": 8190,
    "communication": 25881,
    "Ġmiseries": 10346,
    "Ġshape": 5639,
    "Ġseventy": 7879,
    "000": 2561,
    "reply": 19721,
    "cific": 10085,
    "centred": 25017,
    "Ġimbalanced": 18334,
    "commander": 16987,
    "Ġsaints": 20673,
    "Ġborders": 15569,
    "Ġexhaustion": 14960,
    "perch": 18338,
    "Ġmob": 16015,
    "apidated": 22333,
    "Ġwarehouse": 20415,
    "Ġports": 10818,
    "mme": 22497,
    "Ġawfulness": 23586,
    "Ġrows": 10561,
    "useness": 22289,
    "$": 8,
    "Ġactuated": 18545,
    "Ġstarted": 4150,
    "endering": 21283,
    "Ġwhile": 606,
    "Ġindispens": 22956,
    "Ġsixty": 7722,
    "Ġexistence": 4707,
    "bits": 17488,
    "Ġshapeless": 24524,
    ":--âĢľ": 24550,
    "unders": 13308,
    "liked": 10508,
    "Ġcatastrophic": 3542,
    "yset": 21144,
    "Ġinhaled": 25451,
    "Ġwelded": 9571,
    "aswag": 21543,
    "de": 460,
    "Ġinvis": 6902,
    "wholly": 10941,
    "Ġconfining": 23304,
    "Ġproperties": 3120,
    "darted": 20831,
    "Ġarch": 940,
    "Ġabruptness": 25299,
    "Ġslippers": 19614,
    "Ġenvy": 13208,
    "Ġbunch": 11326,
    "tack": 12510,
    "lacing": 17590,
    "jerked": 25618,
    "Ġforwarded": 19043,
    "enorm": 17781,
    "ode": 1452,
    "Ġeyeing": 6460,
    "Ġovercame": 9745,
    "paradise": 20636,
    "tisement": 6767,
    "stars": 18019,
    "Ġreliance": 14384,
    "Ġglu": 15665,
    "seven": 8463,
    "Ġincorporate": 20453,
    "Ġresult": 4459,
    "Ġvalleys": 14918,
    "Ġinfamous": 16363,
    "Ġwrite": 3818,
    "Ġflung": 8562,
    "Ġcongealed": 25981,
    "Ġsystematic": 5244,
    "likelihood": 4992,
    "Ġconcoct": 19047,
    "Ġpie": 13914,
    "Ġug": 8140,
    "ĠĠĠĠĠĠĠĠĠĠĠĠĠĠĠĠĠĠĠĠĠĠ": 16227,
    "Ġswinging": 7449,
    "rrh": 26144,
    "Ġvictor": 5125,
    "Ġwhip": 8451,
    "gardiner": 12289,
    "boards": 23253,
    "Ġconsumed": 10349,
    "Ġwind": 1432,
    "Ġsurmisings": 26593,
    "Ġbingley": 1675,
    "Ġtutored": 20126,
    "div": 8075,
    "Ġsupplies": 20325,
    "Ġcall": 2076,
    "ppered": 15788,
    "omet": 3077,
    "deliber": 17425,
    "Ġaffords": 16734,
    "Ġlanded": 7469,
    "adventurous": 25361,
    "points": 14392,
    "companion": 9557,
    "Ġwrithing": 11944,
    "Ġgermany": 25785,
    "Ġheathen": 10565,
    "Ġcarpenter": 4685,
    "Ġsports": 18310,
    "instrument": 15237,
    "here": 2549,
    "ester": 11597,
    "Ġboughs": 20487,
    "worshipping": 16610,
    "Ġbrutality": 26276,
    "Ġemerg": 13423,
    "Ġmeas": 1092,
    "Ġlabour": 7274,
    "Ġraised": 4660,
    "Ġmat": 1147,
    "skelter": 24490,
    "accept": 8897,
    "ick": 837,
    "entimes": 12653,
    "bourine": 9395,
    "Ġinjunctions": 24269,
    "erness": 6434,
    "Ġdined": 9176,
    "uing": 17693,
    "Ġrecounted": 22741,
    "Ġgravity": 9247,
    "withstanding": 8945,
    "sp": 895,
    "fashioned": 9570,
    "Ġmil": 4253,
    "Ġade": 22097,
    "Ġjoker": 22295,
    "arth": 4442,
    "hoped": 20909,
    "Ġapplicable": 19018,
    "jephro": 26392,
    "turn": 4291,
    "Ġkno": 5241,
    "Ġtowed": 11265,
    "Ġtorment": 8673,
    "Ġdependency": 3489,
    "Ġseizing": 7878,
    "Ġunusually": 15844,
    "meditated": 19069,
    "Ġcrowned": 16841,
    "Ġassoc": 6402,
    "Ġlanguor": 12843,
    "subject": 6631,
    "Ġtrustees": 24105,
    "encoura": 15048,
    "Ġchanced": 8186,
    "betrayed": 24640,
    "organ": 15571,
    "Ġmosses": 20162,
    "aking": 973,
    "Ġexcessively": 9439,
    "Ġuncivil": 11155,
    "Ġthese": 819,
    "Ġdood": 22239,
    "herds": 22200,
    "Ġprim": 8243,
    "accomplishments": 25326,
    "Ġlights": 8960,
    "urpation": 16299,
    "mped": 16647,
    "uttle": 6247,
    "Ġparc": 10920,
    "Ġarsacides": 17293,
    "icirc": 15653,
    "âĢĻ": 378,
    "Ġcarpent": 4464,
    "oment": 919,
    "Ġchestnut": 19671,
    "safety": 20348,
    "Ġmaritime": 23037,
    "Ġtravellers": 11308,
    "Ġwrithed": 17106,
    "Ġconfirmed": 11139,
    "Ġslop": 23158,
    "Ġuninterrupted": 22043,
    "Ġcoaxing": 18598,
    "Ġoppress": 13171,
    "bene": 6112,
    "acked": 10974,
    "Ġobviously": 16810,
    "deceit": 25556,
    "madness": 14881,
    "examine": 25477,
    "Ġlunging": 24989,
    "Ġcelerity": 17435,
    "Ġcry": 3497,
    "Ġtask": 1311,
    "painful": 13501,
    "Ġattacks": 12202,
    "Ġreasonable": 7253,
    "machine": 1005,
    "considerably": 13444,
    "rative": 17652,
    "Ġfront": 3452,
    "Ġblast": 7445,
    "Ġcondem": 6338,
    "Ġtrespass": 23599,
    "Ġsnowy": 9017,
    "Ġcreatures": 4137,
    "Ġfelix": 4848,
    "dan": 17515,
    "indignation": 18438,
    "Ġstory": 2902,
    "al": 292,
    "Ġanalogical": 25640,
    "Ġknife": 7309,
    "backward": 2686,
    "gaz": 20877,
    "scand": 18854,
    "prises": 23811,
    "Ġacquies": 11097,
    "Ġfiss": 21410,
    "shadow": 20313,
    "Ġclasses": 4052,
    "Ġhint": 5016,
    "Ġentranced": 25833,
    "sex": 12710,
    "Ġgrey": 4512,
    "Ġbulge": 23855,
    "Ġsunbeam": 23273,
    "Ġpail": 15604,
    "Ġwholesome": 16004,
    "Ġreveries": 11347,
    "Ġdisasters": 16052,
    "Ġthrone": 12211,
    "Ġcolonial": 22855,
    "Ġoctober": 17226,
    "Ġfight": 5366,
    "liament": 16216,
    "Ġschooner": 16747,
    "purpose": 10043,
    "Ġfishy": 16523,
    "Ġhappen": 5571,
    "orne": 17872,
    "Ġowest": 25091,
    "Ġfurther": 1054,
    "Ġpoetry": 15079,
    "Ġforbid": 7864,
    "othing": 6995,
    "ternatural": 12712,
    "Ġnest": 10188,
    "soul": 9140,
    "maritime": 24172,
    "Ġtufted": 17014,
    "occasionally": 13520,
    "Ġtreachery": 15100,
    "dig": 4929,
    "Ġloose": 4648,
    "Ġnam": 17948,
    "Ġcomposed": 8891,
    "Ġbiographical": 22758,
    "Ġalthough": 4151,
    "itude": 1417,
    "Ġtraitors": 23075,
    "Ġglare": 13014,
    "ue": 1180,
    "Ġmasked": 3693,
    "Ġinstability": 3810,
    "Ġrooms": 5180,
    "Ġappellation": 22221,
    "Ġvineyarder": 25606,
    "infer": 10144,
    "isen": 10792,
    "wil": 8395,
    "delight": 5344,
    "Ġprecipitous": 24835,
    "Ġhugh": 15004,
    "deployment": 26527,
    "Ġlurks": 11290,
    "Ġpref": 14171,
    "Ġwork": 1283,
    "Ġunparalleled": 15851,
    "Ġvolat": 24142,
    "Ġsporting": 16999,
    "cork": 20795,
    "imper": 13996,
    "ilingly": 21720,
    "Ġtale": 5142,
    "Ġunfrequent": 24107,
    "Ġexplored": 23518,
    "Ġfossiliferous": 25609,
    "icing": 9200,
    "Ġclam": 7416,
    "Ġglimmer": 15140,
    "injury": 25213,
    "Ġsunny": 13084,
    "icking": 8910,
    "Ġusual": 3940,
    "exciting": 19667,
    "Ġsend": 4107,
    "icle": 10834,
    "Ġhome": 2028,
    "Ġshalt": 18230,
    "reproof": 25432,
    "Ġmanned": 9270,
    "Ġexal": 10877,
    "Ġrecip": 16142,
    "Ġtoma": 7373,
    "unless": 9234,
    "Ġfrenchman": 11283,
    "Ġrepresented": 8938,
    "Ġliber": 5168,
    "Ġarguments": 8036,
    "Ġrecommending": 24337,
    "regular": 3042,
    "Ġthieves": 15633,
    "Ġtyphoons": 20233,
    "persuasion": 20042,
    "Ġfeatures": 1430,
    "Ġspat": 2668,
    "Ġdiscerned": 25003,
    "mody": 16184,
    "Ġhaught": 10252,
    "Ġwhitt": 18054,
    "iogn": 20920,
    "Ġexhibiting": 19837,
    "Ġejaculated": 15168,
    "Ġexped": 7651,
    "Ġraved": 22645,
    "Ġadrift": 11720,
    "explanation": 12356,
    "ley": 1815,
    "Ġmonsie": 11447,
    "Ġsymptom": 13482,
    "Ġdagger": 21435,
    "male": 15387,
    "iet": 1774,
    "garnished": 26388,
    "chie": 21687,
    "Ġsights": 7473,
    "Ġdiscrimin": 2545,
    "shish": 11793,
    "Ġde": 365,
    "thur": 7188,
    "Ġdocile": 19957,
    "erval": 4017,
    "Ġdefinite": 11069,
    "Ġsoft": 1457,
    "Ġaffidav": 18788,
    "stupid": 12673,
    "taste": 10129,
    "Ġparac": 12792,
    "vedale": 22705,
    "Ġsources": 10147,
    "educ": 10828,
    "<SOS>": 1,
    "Ĥ": 229,
    "fates": 20857,
    "ical": 755,
    "Ġ133": 24783,
    "fields": 14653,
    "Ġass": 1505,
    "Ġconvince": 14642,
    "Ġsket": 18728,
    "Ġgrowing": 6750,
    "Ġmace": 21308,
    "Ġcontinent": 14887,
    "mmed": 7913,
    "awe": 20764,
    "izon": 18133,
    "disgu": 19153,
    "possibility": 13360,
    "Ġclergy": 7643,
    "Ġtelescope": 17347,
    "mare": 17599,
    "commod": 16168,
    "Ġyarn": 10868,
    "Ġinvolved": 8922,
    "Ġelias": 18635,
    "Ġanim": 2116,
    "algorithm": 3830,
    "extra": 8218,
    "Ġnorms": 3665,
    "Ġexpost": 18624,
    "Ġkate": 15903,
    "Ġinferiority": 17115,
    "soundest": 24797,
    "Ġ102": 24410,
    "Ġord": 3733,
    "Ġravines": 25831,
    "nowledge": 10289,
    "Ġmake": 1284,
    "pret": 7212,
    "Ġtelegram": 15222,
    "travellers": 24318,
    "Ġgods": 6454,
    "okingly": 22375,
    "retrie": 18922,
    "Ġuncles": 23429,
    "Ġdoubtless": 6195,
    "Ġbored": 16103,
    "Ġwake": 4749,
    "Ġstopping": 2751,
    "Ġoars": 3895,
    "function": 4684,
    "Ġoccasioned": 13225,
    "pressing": 19012,
    "thrust": 10261,
    "confl": 22466,
    "Ġerr": 1323,
    "ahit": 9381,
    "urer": 18121,
    "Ġnevertheless": 5040,
    "example": 16011,
    "Ġrejoinder": 24597,
    "empl": 5724,
    "Ġcomputation": 964,
    "nett": 16219,
    "anyth": 5438,
    "Ġinadequate": 17936,
    "Ġunkindness": 22039,
    "Ġnecessitated": 23925,
    "Ġsuperseded": 26223,
    "Ą": 197,
    "Ġsum": 2702,
    "discoveries": 25385,
    "slightest": 25416,
    "Ġnorthwards": 19545,
    "ase": 1161,
    "Ġformidable": 8219,
    "Ġboun": 21378,
    "Ġlikely": 3597,
    "professor": 17249,
    "Ġdetermined": 2225,
    "ithmetic": 18061,
    "mod": 1069,
    "Ġhuge": 4700,
    "Ġdramatic": 4850,
    "Ġconceal": 5973,
    "masts": 19423,
    "Ġventilator": 8713,
    "best": 6111,
    "mast": 3601,
    "icts": 22392,
    "prob": 7069,
    "Ġemphasis": 20535,
    "Ġcounterpane": 11343,
    "brothers": 17024,
    "shown": 22453,
    "iterranean": 15547,
    "Ġassuring": 13061,
    "Ġdusting": 24596,
    "Ġheaped": 18037,
    "Ġindiscreet": 22958,
    "ieth": 10704,
    "Ġicebergs": 23972,
    "Ġgaunt": 11268,
    "Ġhap": 18195,
    "Ġoverboard": 6044,
    "Ġsome": 656,
    "Ġinconvenience": 9563,
    "sensible": 20050,
    "Ġlowermost": 23241,
    "atever": 3081,
    "Ġmethod": 1501,
    "Ġbehold": 5049,
    "Ġowe": 8114,
    "ifferent": 4261,
    "gno": 13726,
    "miserably": 24210,
    "Ġrepast": 16409,
    "Ġhay": 11604,
    "ouring": 6420,
    "flinging": 20867,
    "hatch": 15363,
    "orters": 21399,
    "crimson": 24097,
    "furniture": 20241,
    "Ġemblaz": 16243,
    "Ġsqueezing": 25006,
    "besides": 8695,
    "enty": 2918,
    "Ġbiography": 22757,
    "Ġspecksnyder": 17402,
    "Ġvertu": 23888,
    "Ġevangelist": 20337,
    "Ġdirector": 18920,
    "Ġcrime": 4616,
    "sweep": 24617,
    "fork": 20856,
    "Ġmoran": 9341,
    "Ġmoment": 991,
    ";": 31,
    "Ġunaccountable": 7886,
    "seem": 10227,
    "Ġmingling": 20196,
    "present": 1139,
    "Ġtravell": 5576,
    "Ġjagged": 18407,
    "address": 14880,
    "conclusion": 25671,
    "Ġquivering": 12855,
    "Ġdashed": 6009,
    "asted": 4649,
    "persuaded": 15072,
    "Ġconfirmation": 17210,
    "Ġconfl": 11137,
    "Ġportions": 19367,
    "Ġneighbour": 3805,
    "resum": 17761,
    "Ġindign": 6173,
    "Ġinclude": 1874,
    "Ġconsist": 1934,
    "Ġheadlong": 11886,
    "Ġcount": 1814,
    "ran": 11515,
    "covering": 15333,
    "duodecimo": 16000,
    "continually": 11302,
    "Ġeffort": 8204,
    "Ġmonotonically": 3831,
    "Ġrepulses": 26070,
    "occurrences": 26331,
    "thinks": 16641,
    "Ġnewsp": 9338,
    "onom": 9158,
    "antial": 8487,
    "Ġroman": 8322,
    "Ġheads": 3738,
    "Ġworshippers": 25693,
    "ccarthy": 4889,
    "ģ": 228,
    "Ġbeggars": 20628,
    "obed": 14445,
    "Ġhumorous": 10360,
    "Ĵ": 245,
    "Ġperfidious": 25666,
    "yesterday": 10353,
    "Ġcoils": 9302,
    "Ġexploitation": 2351,
    "istrate": 7406,
    "Ġfathom": 17048,
    "Ġhind": 9188,
    "studies": 25166,
    "Ġeve": 13969,
    "count": 4211,
    "Ġcompetition": 14266,
    "Ġaloft": 4302,
    "philosophy": 13579,
    "Ġcomfits": 21844,
    "ium": 4864,
    "Ġlur": 5226,
    "Ġprettier": 23763,
    "Ġexclaiming": 13640,
    "Ġequival": 4783,
    "usal": 7639,
    "elfare": 11775,
    "Ġxerxes": 23409,
    "Ġstring": 11825,
    "Ġenhancement": 23774,
    "Ġfad": 17876,
    "Ġcalam": 13031,
    "mel": 9127,
    "ape": 1905,
    "killer": 20474,
    "anth": 13886,
    "Ġhooked": 19079,
    "Ġpugn": 21478,
    "Ġparagraph": 17453,
    "Ġanimal": 2500,
    "Ġrejoicing": 13420,
    "Ġrepugn": 23361,
    "wantonly": 25149,
    "drovand": 24760,
    "Ġpropag": 16346,
    "Ġtesting": 23207,
    "gently": 13728,
    "antucket": 2646,
    "max": 1683,
    "ost": 5360,
    "Ġnursery": 19749,
    "hue": 20898,
    "Ġinstruction": 14343,
    "Ġmermaids": 26170,
    "ipl": 20917,
    "asible": 21539,
    "princip": 17136,
    "Ġcolumns": 14375,
    "constantly": 24606,
    "nostril": 26559,
    "Ġflew": 5588,
    "Ġpuzzling": 14897,
    "Ġers": 15459,
    "establishment": 26113,
    "Ġsighed": 10337,
    "Ġanxious": 4517,
    "msprop": 2626,
    "ourers": 21447,
    "ubb": 1649,
    "ĠĠĠĠĠĠĠĠĠĠĠĠĠĠĠĠĠĠĠĠĠĠĠĠĠĠĠĠĠĠĠĠĠĠĠĠĠĠ": 16525,
    "Ġsupervised": 3049,
    "iece": 3231,
    "landish": 11940,
    "Ġtender": 5753,
    "Ġenem": 4708,
    "eches": 8077,
    "Ġoverladen": 22360,
    "eye": 6224,
    "bel": 3833,
    "Ġprey": 6415,
    "Ġwilled": 21290,
    "Ġrather": 1495,
    "Ġirreproachable": 24917,
    "Ġgenerator": 3385,
    "species": 13255,
    "Ġfurthermore": 1170,
    "Ġpersons": 6180,
    "Ġsubset": 9869,
    "Ġvague": 6406,
    "visitors": 13347,
    "Ġcampa": 17173,
    "Ġgener": 592,
    "Ġemotions": 8969,
    "F": 42,
    "Ġasks": 5115,
    "Ġhos": 4942,
    "Ġhidden": 1374,
    "retch": 4370,
    "Ġreluct": 14371,
    "Ġneglect": 7941,
    "Ġviciously": 24404,
    "oughed": 22080,
    "affections": 17356,
    "Ġcircumspection": 25884,
    "Ġashes": 7617,
    "Ġencouraged": 9354,
    "Ġmacey": 12560,
    "stee": 21648,
    "Ġstacked": 21740,
    "Ġtallest": 15473,
    "lakeman": 13750,
    "faith": 15024,
    "erring": 11057,
    "elastic": 17980,
    "Ġernest": 8716,
    "Ġconscious": 7743,
    "Ġvengeance": 5884,
    "Ġsoul": 2727,
    "Ġsimultaneously": 4310,
    "aintance": 3569,
    "Ġcolossal": 11459,
    "Ġstation": 5297,
    "Ġ-": 1944,
    "iment": 2816,
    "Ġplanning": 14750,
    "Ġprompted": 23814,
    "Ġsn": 2951,
    "Ġdisgracing": 26255,
    "Ġspectators": 19405,
    "Ġshabby": 14110,
    "Ġparadigms": 3058,
    "Ġpilgr": 12178,
    "brew": 11473,
    "Ġdoomed": 11342,
    "Ġspasmod": 12412,
    "Ġ95": 19772,
    "onds": 12993,
    "securing": 19812,
    "Ġtit": 8398,
    "Ġthorough": 6245,
    "Ġunrest": 11712,
    "Ġrally": 21968,
    "Ġretrogression": 26581,
    "Ġstreatham": 17448,
    "Ġfashions": 17885,
    "Ġblessings": 24175,
    "Ġvows": 15806,
    "Ġgrud": 17995,
    "Ġnav": 5818,
    "Ġarguing": 25470,
    "Ġslay": 16305,
    "etuous": 21580,
    "Ġglobu": 23269,
    "ache": 8518,
    "judgment": 16753,
    "ilt": 2969,
    "belais": 24035,
    "Ġperilously": 24507,
    "Ġbee": 21746,
    "Ġestim": 3352,
    "Ġpaying": 9937,
    "Ġquivered": 18467,
    "details": 19674,
    "Ġclump": 15964,
    "Ġverd": 6919,
    "resses": 16149,
    "Ġprotruded": 19468,
    "Ġtick": 8108,
    "bl": 4141,
    "Ġcasualty": 20340,
    "Ġuncl": 22013,
    "taller": 26150,
    "Ġalbertus": 25648,
    "mmet": 10988,
    "Ġdiverged": 23593,
    "Ġwaterward": 23365,
    "Ġcarelessly": 11120,
    "Ġasser": 6257,
    "lock": 1468,
    "Ġdism": 9766,
    "seas": 14032,
    "ieving": 7031,
    "Ġclearly": 6897,
    "irited": 15784,
    "Ġcomplimented": 14903,
    "fifty": 12350,
    "etence": 21574,
    "Ġshivering": 10265,
    "Ġsmiting": 12895,
    "precious": 12070,
    "huzza": 20912,
    "Ġforgive": 8009,
    "lar": 4482,
    "lo": 682,
    "Ġblueprints": 13170,
    "circumst": 5348,
    "Ġupward": 9720,
    "Ġ124": 24469,
    "Ġpool": 5173,
    "Ġstepdaughter": 22612,
    "slipping": 25528,
    "spades": 14334,
    "ction": 500,
    "ulity": 10886,
    "Ġblinding": 14727,
    "Ġcollins": 2181,
    "dragged": 16608,
    "Ġbor": 5804,
    "Ġemer": 5958,
    "Ġsmilingly": 22557,
    "Ġcanterbury": 22165,
    "E": 41,
    "Ġcognitive": 13633,
    "nowled": 5470,
    "sitting": 8386,
    "Ġbrick": 8925,
    "personal": 24963,
    "Ġluckily": 16798,
    "mant": 20964,
    "conspicuous": 26247,
    "watches": 14946,
    "Ġdowry": 20684,
    "Ġpower": 1278,
    "Ġroom": 1461,
    "Ġculprit": 26172,
    "Õ": 150,
    "owder": 8449,
    "misrepresented": 24211,
    "Ġcomprehensiveness": 25072,
    "Ġconse": 21801,
    "Ġendeavoured": 4918,
    "maj": 18803,
    "Ġeddies": 23436,
    "Ġimmort": 19482,
    "ilet": 12826,
    "urance": 10857,
    "july": 20473,
    "figured": 20121,
    "Ġintruder": 25991,
    "Ġcrawling": 17045,
    "Ġshocking": 10435,
    "Ġwhoa": 22417,
    "sk": 5521,
    "Ġdrawback": 23987,
    "angry": 18294,
    "slipped": 25529,
    "Ġsain": 17750,
    "Ġvenge": 5420,
    "declared": 15117,
    "Ġcontemptuous": 24676,
    "hatherley": 17568,
    "Ġobed": 8535,
    "Ġapartment": 6633,
    "Ġrespite": 13153,
    "indisc": 22370,
    "Ġplayful": 19235,
    "Ġinterests": 14569,
    "accessory": 25499,
    "Ġpatronage": 17053,
    "clear": 9023,
    "Ġtalents": 15044,
    "Ġexplained": 5935,
    "ism": 4874,
    "Ġdisc": 945,
    "Ġdisguises": 25055,
    "sixty": 24852,
    "Ġclothed": 19605,
    "hither": 11492,
    "Ġintu": 12760,
    "bos": 17483,
    "Ġcad": 12565,
    "Ġnumbers": 2888,
    "fa": 7336,
    "Ġdeserted": 8636,
    "ootiful": 17372,
    "sicilian": 21062,
    "Ġpuff": 6526,
    "Ġgradual": 20600,
    "Ġsallow": 12533,
    "Ġtradesman": 20071,
    "failed": 20862,
    "Ġfordham": 21773,
    "Ġscraped": 16903,
    "ĠarchÃ¦": 22778,
    "spouting": 25000,
    "Ġscroll": 14191,
    "Ġpensive": 21473,
    "impud": 23758,
    "Ġpresentiment": 18988,
    "Ġarabian": 9089,
    "tenderly": 20529,
    "Ġcelebrated": 13593,
    "wretched": 10741,
    "Ġd": 284,
    "Ġrehearsed": 25971,
    "arabian": 26446,
    "Ġprofusion": 23567,
    "Ġfates": 15575,
    "uendoes": 26407,
    "Ġtransient": 18481,
    "writ": 16552,
    "Ġfrog": 23918,
    "lust": 15378,
    "Ġproject": 5546,
    "Ġventure": 7739,
    "Ġbrotherhood": 23669,
    "Ġantarctic": 19551,
    "Ġwager": 17792,
    "Ġscarcely": 4007,
    "daylight": 19055,
    "Ġcommentaries": 20159,
    "Ġzoned": 22817,
    "Ġw": 272,
    "Þ": 159,
    "wants": 21129,
    "Ġcord": 5222,
    "Ġconfiding": 19038,
    "header": 11931,
    "Ġleagues": 9223,
    ".âĢĻ": 1718,
    "assment": 9738,
    "Ġdante": 21436,
    "ulsive": 10233,
    "Ġinsomuch": 23681,
    "Ġdinah": 9452,
    "Ġsledge": 8110,
    "Ġtrusting": 24103,
    "Ġinconstant": 21493,
    "Ġstomach": 11652,
    "Ġmod": 495,
    "Ġredness": 19310,
    "paws": 21028,
    "Ġterrors": 6918,
    "armon": 23056,
    "Ġcorrupt": 11921,
    "Ġz": 1000,
    "Ġesteem": 7532,
    "Ġfanning": 23388,
    "Ġpell": 21454,
    "Ġfeed": 2131,
    "irc": 1730,
    "idays": 21767,
    "whis": 7897,
    "Ġsalisbury": 24060,
    "Ġsoot": 14131,
    "Ġcore": 13877,
    "ierce": 14390,
    "Ġaddressing": 11164,
    "Ġchemical": 10410,
    "Ġashen": 21896,
    "Ġthews": 21276,
    "Ġwithal": 18113,
    "Ġindulge": 10582,
    "Ġplaid": 22597,
    "Ġdarkened": 16431,
    "warrior": 24798,
    "ne": 646,
    "Ġ1839": 20458,
    "ë": 172,
    "Ġpreventing": 883,
    "Ġmostly": 7664,
    "Ġinser": 6820,
    "iom": 20914,
    "Ġconnivance": 25225,
    "blown": 25201,
    "Ġuntutored": 19165,
    "Ġbaron": 19333,
    "Ġclaw": 22345,
    "trying": 15437,
    "iner": 2674,
    "Ġcatches": 23425,
    "thick": 10260,
    "Ġsequence": 1977,
    "solut": 3367,
    "unable": 14058,
    "Ġportent": 12079,
    "Ġpeterson": 9482,
    "Ġanxiety": 5408,
    "Ġlethargy": 26483,
    "henomenon": 13613,
    "Ġminded": 23230,
    "bast": 10076,
    "Ġlevers": 18077,
    "solitary": 14504,
    "Ġgenealogies": 25961,
    "ç": 168,
    "ele": 9114,
    "dread": 8728,
    "Ġhonour": 3920,
    "Ġbun": 6006,
    "itself": 7834,
    "Ġcomical": 11676,
    "Ġjourneying": 25565,
    "Ġwealthy": 18178,
    "inioned": 19285,
    "bey": 10314,
    "ying": 1448,
    "shoulder": 16583,
    "Ġhearth": 11980,
    "mountain": 10713,
    "Ġparacelsus": 15265,
    "Ġwo": 3650,
    "Ġner": 1646,
    "Ġfiendish": 13326,
    "Ġleisure": 6539,
    "Ġsinister": 8568,
    "Ġcritical": 7476,
    "Ġskilfully": 20522,
    "Ġshifting": 12765,
    "oration": 2209,
    "ise": 707,
    "provid": 11149,
    "Ġviv": 6156,
    "plague": 21950,
    "Ġspiral": 14584,
    "Ġpitched": 9443,
    "aggoo": 5130,
    "Ġdegenerating": 25799,
    "ackinaw": 22419,
    "trust": 21077,
    "Ġmogul": 12859,
    "Ġdeed": 7867,
    "stick": 15682,
    "browed": 25894,
    "Ġpainter": 19167,
    "strils": 10458,
    "odiac": 14031,
    "circumstantial": 24444,
    "conversation": 7122,
    "Ġworse": 4719,
    "Ġpeas": 8533,
    "Ġcorner": 4369,
    "constit": 24604,
    "stript": 21654,
    "puzzling": 26143,
    "langu": 4807,
    "Ġund": 4118,
    "Ġreverie": 13456,
    "Ġ24": 13190,
    "@": 36,
    "invisible": 17740,
    "rom": 420,
    "wling": 11544,
    "drifting": 19823,
    "Ġdro": 2772,
    "rib": 1945,
    "Ġfuss": 13904,
    "Ġsuppressed": 11909,
    "Ġmantel": 11439,
    "repent": 15512,
    "Ġriggers": 24154,
    "arrow": 4179,
    "Ġjan": 11760,
    "Ġsensitivity": 3071,
    "inously": 21185,
    "bingley": 4927,
    "easy": 9592,
    "Ġdenying": 14658,
    "Ġgl": 1254,
    "Ġpir": 6818,
    "indifference": 15981,
    "shipped": 18496,
    "Ġleaving": 3902,
    "Ġscrewed": 15119,
    "Ġcivil": 4678,
    "encyclopÃ¦dia": 16663,
    "Ġreveal": 11200,
    "education": 20300,
    "Ġye": 899,
    "Ġapproving": 18518,
    "modern": 1184,
    "jumped": 20245,
    "Ġrespectfully": 18994,
    "avering": 24793,
    "Ġparamount": 15876,
    "Ġsegmentation": 17339,
    "crated": 16696,
    "Ġhus": 3094,
    "Ġinestimable": 17441,
    "Ġlubber": 17443,
    "Ġoccurrences": 11050,
    "Ġtransformed": 22603,
    "moral": 14801,
    "hammered": 19003,
    "Ġlawless": 19433,
    "Ġmediterranean": 12313,
    "Ġunable": 4951,
    "Ġhackney": 20431,
    "hurried": 11353,
    "bra": 6219,
    "Ġboyhood": 23753,
    "Ġoccup": 3737,
    "Ġgilt": 21603,
    "Ġshare": 1657,
    "very": 499,
    "consider": 6348,
    "Ġans": 1645,
    "estruct": 22215,
    "Ġmysticetus": 24922,
    "Ġsatisfying": 23695,
    "itancy": 21331,
    "ork": 416,
    "Ġrucastle": 5176,
    "deploy": 22140,
    "elly": 17979,
    "Ġsuperlatively": 26075,
    "hil": 8378,
    "presently": 9806,
    "Ġprudential": 17919,
    "rudently": 16710,
    "place": 4154,
    "omit": 13973,
    "Ġlibr": 15998,
    "Ġtamer": 24976,
    "Ġcuriosities": 26286,
    "Ġsentiments": 7960,
    "Ġaltering": 18102,
    "tempered": 13445,
    "Ġkrempe": 10669,
    "Ġblame": 6446,
    "thoughts": 9934,
    "revival": 26162,
    "Ġbliss": 12998,
    "Ġbake": 21380,
    "Ġdaughters": 4421,
    "sake": 13782,
    "Ġstud": 1564,
    "Ġnought": 21519,
    "Ġopulent": 23627,
    "Ġpredefined": 20716,
    "Ġappl": 1764,
    "ellations": 21941,
    "Ġindustry": 18842,
    "Ġyoungest": 7953,
    "headed": 4317,
    "Ġmine": 3179,
    "dough": 15334,
    "Ġhunters": 6300,
    "Ġmaintainable": 12932,
    "Ġroanoke": 22404,
    "umberland": 16837,
    "Ġrumors": 11321,
    "rapt": 13972,
    "Ġsomehow": 4841,
    "Ġangelic": 19626,
    "Ġamours": 22478,
    "elope": 14456,
    "Ġ23": 13189,
    "Ġmour": 6973,
    "Ġages": 7028,
    "ignified": 14490,
    "avast": 8896,
    "getic": 12963,
    "distinguished": 10526,
    "wick": 5362,
    "entropy": 1437,
    "jub": 20928,
    "Ġdescribes": 3123,
    "Ġemptied": 24347,
    "Ġcolt": 11044,
    "mb": 914,
    "Ġmoves": 14231,
    "Ġbehaviour": 4383,
    "Ġlids": 12273,
    "Ġcontributed": 16007,
    "Ġrashly": 20304,
    "Ġhapless": 15810,
    "ray": 2439,
    "crossing": 19409,
    "Ġbeliever": 25845,
    "Ġdesertion": 24787,
    "gen": 6503,
    "Ġdoctor": 5067,
    "kn": 5791,
    "Ġsignals": 10585,
    "Ġhawsers": 26502,
    "Ġdogs": 7741,
    "Ġbrood": 23097,
    "Ġbare": 6132,
    "Ġinforming": 18742,
    "poverty": 22905,
    "attached": 11933,
    "dum": 17518,
    "idirectional": 2423,
    "Ġtahit": 10754,
    "riminately": 16482,
    "Ġsluggishly": 25891,
    "Ġdive": 10172,
    "Ġhats": 14619,
    "Ġscra": 5840,
    "therly": 18346,
    "rer": 3621,
    "Ġhall": 4183,
    "tuning": 1582,
    "Ġlimited": 23544,
    "fred": 20854,
    "Ġglass": 4368,
    "eastern": 17533,
    "Ġmuhammad": 26169,
    "Ġmilan": 19534,
    "Ġspouts": 7729,
    "Ġhearing": 4761,
    "lengths": 24846,
    "inguished": 6598,
    "Ġinserted": 8355,
    "Ġlinear": 3434,
    "Ġnostrils": 10943,
    "Ġsaintly": 25931,
    "Ġexterior": 19986,
    "Ġbruited": 25773,
    "Ġsires": 21225,
    "voy": 7143,
    "Ġnamely": 20688,
    "Ġdesc": 761,
    "name": 6795,
    "exp": 2739,
    "nep": 20985,
    "violets": 23543,
    "Ġopposed": 11188,
    "Ġslyness": 25266,
    "Ġrude": 7234,
    "osop": 4404,
    "Ġawa": 7713,
    "ctive": 11622,
    "drawn": 9912,
    "Ġstochastic": 3267,
    "Ġcommis": 22668,
    "deliberated": 26118,
    "Ġtingling": 15091,
    "Ġlunatic": 24990,
    "Ġmonitors": 3158,
    "Ġdru": 8421,
    "linearity": 1650,
    "illum": 15867,
    "ality": 2513,
    "urns": 10213,
    "Ġinvention": 19951,
    "Ġcame": 1301,
    "Ġinvari": 6529,
    "dishonourable": 26365,
    "Ġimproving": 1210,
    "know": 2322,
    "Ġhimself": 1352,
    "Ġdriving": 3616,
    "liest": 6294,
    "Ġsnow": 3705,
    "Ġbreeds": 23346,
    "unch": 14057,
    "kitty": 10105,
    "Ġuncomp": 15839,
    "ch": 321,
    "Ġwhistles": 24624,
    "Ġmarlings": 23035,
    "Ġimprudent": 12845,
    "Ġcommended": 18656,
    "Ġabominate": 20063,
    "goes": 10426,
    "Ġcourses": 10411,
    "lucas": 15150,
    "Ġvener": 8163,
    "tranqu": 14705,
    "ĠĠĠĠĠĠĠĠĠĠĠĠĠĠĠĠ": 1220,
    "bab": 11468,
    "insulting": 26055,
    "Ġattics": 22618,
    "Ġinnocently": 24025,
    "Ġpolitely": 8993,
    "Ġconvulsive": 19305,
    "Ġorder": 1684,
    "tube": 20409,
    "Ġecon": 9677,
    "judging": 24201,
    "Ġ29": 23728,
    "Ġplaning": 22598,
    "Ġtheories": 13848,
    "Ġfins": 9663,
    "situ": 9621,
    "Ġmowers": 17812,
    "Ġknotted": 17019,
    "Ġavoid": 5199,
    "Ġregulations": 18588,
    "satisfied": 10578,
    "seeing": 7078,
    "Ġdreading": 23797,
    "eaten": 20343,
    "Ġbelfry": 26438,
    "Ġpompous": 20421,
    "Ġcrate": 19122,
    "Ġhusbands": 16642,
    "mansion": 20982,
    "acquaintance": 6938,
    "Ġancest": 12611,
    "Ġfun": 525,
    "resting": 23234,
    "Ġinhuman": 13928,
    "ing": 273,
    "Ġattitude": 8903,
    "Ġtarshish": 12027,
    "Ġacquiescence": 20329,
    "Ġsab": 10762,
    "Ġple": 1467,
    "byshire": 6172,
    "Ġstrives": 23693,
    "hampshire": 23262,
    "regulated": 23466,
    "Ġtempt": 5565,
    "<UNK>": 3,
    "Ġcaravan": 26290,
    "Ġcontriv": 9281,
    "Ġcomputations": 15999,
    "withstand": 23024,
    "inquire": 16932,
    "Ġdifficulties": 11225,
    "Ġenergies": 25459,
    "spite": 16135,
    "Ġalchemists": 26487,
    "base": 20776,
    "Ġcarpets": 18902,
    "Ġhelmeted": 19687,
    "Ġcynical": 25770,
    "Ġsnarl": 25715,
    "Ġearthly": 7989,
    "Ġgazing": 5875,
    "Ġalien": 14017,
    "ĠâĢľâĢĺ": 8503,
    "Ġunaffected": 14121,
    "Ġforegoing": 23448,
    "worse": 14690,
    "amid": 12721,
    "ogrand": 26261,
    "Ġaddition": 1146,
    "Ġsallies": 21228,
    "Ġbe": 336,
    "Ġopposing": 12038,
    "ici": 8439,
    "Ġdiscrete": 2478,
    "Ġrespectability": 14484,
    "intend": 16222,
    "Ġdock": 15928,
    "Ġabstra": 22268,
    "Ġtut": 8769,
    "sprang": 19989,
    "ulged": 12727,
    "Ġcold": 3033,
    "Ġbl": 1190,
    "Ġvisiting": 10356,
    "Ġsexes": 25168,
    "Ġfactor": 19011,
    "whilst": 18371,
    "Ġardently": 9497,
    "explained": 23138,
    "Ġduplicate": 17215,
    "remember": 7262,
    "lemag": 21370,
    "Ġweeping": 11685,
    "Ġgrasshopper": 24380,
    "Ġmout": 17798,
    "affa": 23775,
    "Ġezekiel": 26192,
    "Ġinsince": 23677,
    "Ġinvestigated": 25386,
    "Ġrising": 4355,
    "Ġunderneath": 16337,
    "Ġpersonally": 8599,
    "twig": 23697,
    "Ġindist": 14408,
    "tumultuous": 20397,
    "Ġaccumulation": 2695,
    "Ġcalculated": 4474,
    "Ġbradstreet": 9576,
    "Ġcommend": 10334,
    "mm": 677,
    "Ġspoils": 24808,
    "Ġcongenial": 12409,
    "Ġskill": 6872,
    "orders": 12871,
    "living": 7133,
    "Ġirregularity": 25324,
    "Ġreduces": 2347,
    "Ġturbul": 23611,
    "Ġcav": 13879,
    "uv": 6229,
    "Ġgash": 15668,
    "gling": 10097,
    "arb": 1563,
    "Ġderiv": 1737,
    "hon": 6793,
    "Ġspoutings": 14675,
    "compliments": 24810,
    "Ġamel": 18512,
    "main": 8087,
    "Ġmantelpiece": 15206,
    "atered": 22004,
    "¤": 102,
    "firm": 10698,
    "Ġconvalescence": 23744,
    "enes": 5218,
    "Ġanoints": 25538,
    "Ġbreathless": 12167,
    "Ġproducing": 11897,
    "Ġfrequented": 16585,
    "Ġtrust": 4076,
    "throughout": 24084,
    "Ġwander": 9031,
    "erranean": 9333,
    "Ġresponsiveness": 2898,
    "Ġbloodthirsty": 26601,
    "Ġomitted": 12561,
    "Ġfeeling": 3086,
    "Ġagreement": 18540,
    "Ġoffspring": 16139,
    "accomplished": 17211,
    "Ġbarn": 11586,
    "Ġlapse": 17120,
    "helpless": 16790,
    "Ġtobacc": 7852,
    "autumn": 23341,
    "uries": 6147,
    "Ġheadsman": 13272,
    "esy": 9182,
    "Ġtickled": 20055,
    "Ġcant": 17824,
    "eous": 13711,
    "convolutional": 4958,
    "Ġconfines": 23303,
    "Ġpious": 11598,
    "Ġoverhear": 15974,
    "Ġgate": 6825,
    "Ġsepar": 3997,
    "anders": 18152,
    "Ġimproper": 22764,
    "Ġthere": 563,
    "Ġwall": 3840,
    "ensed": 10995,
    "Ġzone": 14361,
    "Ġpaddles": 15146,
    "ade": 880,
    "rolling": 9060,
    "ariously": 18527,
    "Ġembodiment": 20527,
    "Ġscr": 11758,
    "Ġopulence": 23626,
    "Ġbr": 1071,
    "ryphon": 4163,
    "Ġfrom": 434,
    "Ġinfamy": 14501,
    "Ġventured": 7502,
    "Ġbutton": 10267,
    "Ġseparate": 5778,
    "uguese": 20731,
    "Ġdiscoloured": 15251,
    "Ġland": 1997,
    "gangway": 20666,
    "Ġfreezing": 23881,
    "Ġencouragement": 13040,
    "Ġdelay": 5748,
    "blasted": 20188,
    "Ġallows": 3235,
    "Ġbenignity": 18782,
    "Ġcompromised": 22568,
    "Ġhoe": 23349,
    "Ġmay": 923,
    "Ġwoof": 14720,
    "downward": 16619,
    "metic": 14983,
    "Ġident": 2244,
    "Ġdisregarded": 22527,
    "Ġcarried": 3692,
    "Ġborrowed": 17229,
    "gul": 12463,
    "Ġshouted": 5347,
    "Ġbrides": 22863,
    "Ġbehaved": 13252,
    "Ġspoilt": 24807,
    "Ġdrawled": 23986,
    "offing": 23329,
    "Ġgaol": 19566,
    "Ġlithe": 24668,
    "Ġdiversion": 17197,
    "77": 15299,
    "Ġchildish": 13136,
    "principle": 10650,
    "Ġaudacity": 19881,
    "Ġelevates": 24503,
    "Ġprocession": 11773,
    "voices": 21116,
    "declaration": 25175,
    "Ġtasted": 12526,
    "Ġappar": 7412,
    "conclusions": 25672,
    "orter": 4254,
    "arches": 10816,
    "nal": 1902,
    "Ġpallidness": 25604,
    "Ġrate": 1061,
    "Ġaggreg": 12881,
    "Ġparted": 5928,
    "speeches": 25239,
    "Ġbrooding": 18907,
    "Ġdepending": 14296,
    "Ġbatch": 891,
    "Ġpresuming": 16793,
    "Ġthrough": 603,
    "whew": 22866,
    "Ġgateway": 24802,
    "Ġfitness": 23997,
    "Ġlieu": 19563,
    "Ġworkmen": 23016,
    "racted": 4776,
    "Ġjun": 8505,
    "vour": 17699,
    "raise": 18011,
    "Ġseemed": 1277,
    "Ġacquaint": 13042,
    "Ġ40": 14767,
    "¢": 100,
    "Ġobsolete": 26558,
    "Ġtigers": 25758,
    "arying": 9800,
    "Ġdexterous": 15147,
    "Ġfisher": 3224,
    "Ġcreative": 9829,
    "retirement": 23135,
    "sofa": 26146,
    "ssip": 14079,
    "Ġcred": 8780,
    "Ġlandscape": 12415,
    "Ġrestrained": 16371,
    "Ġcomplied": 14733,
    "Ġcompos": 22566,
    "Ġunimportant": 22027,
    "Ġlingered": 13504,
    "Ġvap": 6837,
    "Ġprick": 14478,
    "paused": 17373,
    "Ġcolder": 22851,
    "Ġunpitying": 25660,
    "Ġjones": 7204,
    "decan": 22139,
    "unusual": 21876,
    "Ġlion": 9675,
    "Ġloom": 7629,
    "Ġbanks": 6814,
    "Ġ2": 2931,
    "Ġinseparable": 20687,
    "Ġdreaminess": 23937,
    "Ġ106": 24414,
    "Ġfem": 6134,
    "apparent": 11041,
    "Ġroyal": 5602,
    "Ġlordly": 23742,
    "covered": 11477,
    "Ġsponge": 26003,
    "Ġinducement": 16843,
    "Ġeyed": 12664,
    "entitled": 21565,
    "Ġnormal": 1203,
    "afterwards": 7485,
    "Ġfame": 21404,
    "Ġmin": 1028,
    "Ġoccasional": 7289,
    "Ġshake": 6033,
    "investments": 25532,
    "verity": 14000,
    "bench": 16803,
    "Ġheadway": 18791,
    "chronicle": 26480,
    "Ġamused": 11797,
    "Ġtropic": 17065,
    "Ġpredicts": 2594,
    "Ġstat": 1491,
    "Ġpalace": 16690,
    "stationed": 25453,
    "orse": 5806,
    "Ġintensified": 17018,
    "Ġway": 1083,
    "Ġnarr": 5085,
    "soled": 14332,
    "lux": 14226,
    "smiles": 14692,
    "Ġfir": 17877,
    "clo": 5613,
    "Ġwonderful": 4562,
    "orted": 4603,
    "lead": 10165,
    "Ġcommitting": 22670,
    "Ġlar": 766,
    "Ġlords": 14641,
    "Ġsubstitute": 16726,
    "Ġrobbed": 23029,
    "neighbour": 7211,
    "Ġoffence": 12942,
    "uteronomy": 15661,
    "Ġfirmness": 11237,
    "Ġharder": 14448,
    "Ġheinous": 18038,
    "ousness": 10274,
    "Ġchall": 10944,
    "tarpaulins": 26405,
    "Ġconstruct": 23340,
    "Ġpantheistic": 26335,
    "rely": 6123,
    "vex": 21699,
    "Ġmanhood": 22323,
    "Ġhogshe": 20490,
    "Ġgreenness": 23765,
    "what": 643,
    "Ġphilosophy": 7103,
    "Ġconjoined": 21803,
    "ud": 909,
    "trade": 19635,
    "Ġthreshold": 2809,
    "Ġbrix": 12580,
    "Ġthenceforth": 25182,
    "beneath": 9534,
    "gentleness": 24844,
    "older": 15753,
    "glue": 17556,
    "bowing": 24454,
    "ounix": 14163,
    "adopt": 25544,
    "oundered": 14164,
    "Ġinexperience": 26099,
    "ony": 3030,
    "Ġmultiplied": 23688,
    "apter": 1193,
    "Ġpow": 4637,
    "endeav": 7150,
    "Ġconduct": 3731,
    "Ġbefall": 8828,
    "uling": 2262,
    "accompl": 9879,
    "Ġburtons": 19252,
    "Ġfled": 6670,
    "paralleled": 14513,
    "Ġtens": 17723,
    "Ġswandam": 11088,
    "Ġheartless": 13071,
    "yellow": 9624,
    "morning": 4859,
    "Ġcontaining": 2236,
    "Ġhatchet": 16528,
    "Ġaffecting": 2328,
    "Ġdecline": 9286,
    "Ġharvest": 13414,
    "Ġbenevol": 5961,
    "Ġrelentless": 26277,
    "Ġdevoutly": 25832,
    "Ġavast": 9919,
    "Ġecstasy": 11629,
    "Ġwrongfully": 24248,
    "Ġbiscuit": 12586,
    "Ġvengeful": 14889,
    "resistible": 10643,
    "Ġwantest": 18789,
    "Ġpatient": 6895,
    "Ġsheer": 14150,
    "Ġfood": 5080,
    "Ġvaults": 17153,
    "Ġinnocent": 4921,
    "ortment": 22254,
    "Ġdefendants": 15139,
    "we": 848,
    "Ġassiduous": 26292,
    "gypt": 8260,
    "australian": 20560,
    "ellest": 21571,
    "Ġmasses": 10503,
    "cutting": 23783,
    "Ġspiritual": 9929,
    "Ġbill": 4038,
    "numbers": 17616,
    "Ġrambled": 20167,
    "Ġinaccessible": 13933,
    "write": 14647,
    "Ġentailed": 11027,
    "Ġimputable": 22170,
    "Ġspam": 7631,
    "Ġelse": 2482,
    "Ġrifled": 21976,
    "Ġwherein": 14292,
    "Ġsinews": 20286,
    "hearts": 13343,
    "dition": 15339,
    "dissatisfied": 26612,
    "dissemble": 23490,
    "Ġdaylight": 10350,
    "Ġasking": 5651,
    "Ġbead": 21747,
    "Ġausten": 5880,
    "excuse": 13380,
    "ĠâĢľ": 516,
    "Ġinvisibly": 24817,
    "Ġinherited": 25353,
    "Ġtrees": 4201,
    "leviathan": 7784,
    "Ġvit": 10245,
    "Ġfollowed": 1792,
    "shone": 22452,
    "weakness": 16122,
    "oid": 3128,
    "Ġlucifers": 16588,
    "Ġmusty": 22677,
    "trem": 17681,
    "Ġmaterials": 11288,
    "Ġtophet": 23572,
    "Ġdrunkard": 20176,
    "cr": 4072,
    "return": 5489,
    "Ġconfirms": 23307,
    "difference": 13707,
    "uten": 11621,
    "Ġbackward": 7655,
    "ensions": 14258,
    "Ġfluctu": 5267,
    "scores": 22987,
    "Ġregion": 2279,
    "moby": 8536,
    "Ġanoint": 25537,
    "dut": 10087,
    "Ġbachel": 7158,
    "iations": 11494,
    "Ġmultiple": 1187,
    "Ġpremium": 23902,
    "Ġur": 5540,
    "Ġconjure": 17123,
    "Ġobserved": 3541,
    "Ġturner": 7049,
    "Ġsoar": 18282,
    "standard": 22428,
    "Ġtinted": 13821,
    "hooked": 23714,
    "ees": 13710,
    "anning": 10164,
    "Ġinsensibility": 17110,
    "Ġintend": 12761,
    "Ġignor": 4010,
    "sleepers": 24730,
    "Ġbrief": 6976,
    "Ġaffright": 9331,
    "Ġtended": 21165,
    "Ġpreserving": 19795,
    "Ġmodes": 22212,
    "ython": 1032,
    "Ġunsophisticated": 25992,
    "and": 372,
    "Ġcrests": 25685,
    "Ġprivileges": 25132,
    "aft": 9583,
    "Ġcongeal": 25980,
    "slack": 16894,
    "cripp": 20818,
    "Ġsuspicions": 9478,
    "Ġfid": 10803,
    "Ġhorrors": 10479,
    "._": 3222,
    "Ġsobbed": 14136,
    "backs": 9390,
    "Ġmetropolis": 17274,
    "Ġtwig": 11848,
    "Ġadieus": 25110,
    "ingly": 2138,
    "follows": 24528,
    "Ġvisual": 5741,
    "sum": 2089,
    "opius": 18508,
    "Ġquarters": 8619,
    "Ġclenched": 14203,
    "Ġsummer": 4790,
    "Ġstave": 11650,
    "Ġinvent": 7164,
    "Ġarr": 1799,
    "gener": 3127,
    "Ġfuller": 11156,
    "idea": 9300,
    "Ġskrimshander": 22796,
    "believed": 9932,
    "Ġbloodless": 19338,
    "offers": 16393,
    "Ġsuspicious": 9479,
    "Ġdoub": 1836,
    "een": 726,
    "deal": 12796,
    "extensive": 18707,
    "oga": 22707,
    "Ġvillanous": 24051,
    "Ġimage": 3405,
    "amount": 10884,
    "Ġsandwic": 24664,
    "Ġpovels": 22589,
    "Ġtoler": 7589,
    "Ġorphan": 12381,
    "Ġhumorousness": 25377,
    "Ġmicha": 17811,
    "Ġexhilarating": 26337,
    "phys": 18712,
    "Ġbillow": 14777,
    "verize": 21725,
    "obvious": 9356,
    "pect": 1253,
    "Ġlibrary": 6423,
    "Ġcommendation": 13609,
    "aceti": 7111,
    "Ġmississ": 18843,
    "µ": 118,
    "Ġenric": 21931,
    "Ġapologized": 25198,
    "cig": 17503,
    "Ġarrang": 2470,
    "bulkington": 19924,
    "Ġstepped": 7051,
    "Ġchapter": 2957,
    "Ġinclu": 1096,
    "riety": 12741,
    "Ġabstracted": 17182,
    "interrupt": 8615,
    "fortunes": 6332,
    "Ġparr": 22116,
    "ics": 3258,
    "Ġcard": 7363,
    "indirectly": 18437,
    "cho": 2762,
    "Ġstrip": 9420,
    "Ġroast": 18457,
    "arthly": 8029,
    "abominable": 20592,
    "Ġprints": 16330,
    "Ġtangles": 25761,
    "Ġsteeply": 23722,
    "Ġsuff": 1304,
    "vib": 21114,
    "Ġangry": 5498,
    "Ġfacility": 19849,
    "Ġapex": 24342,
    "said": 4104,
    "Ġgib": 13964,
    "Ġaffections": 10384,
    "fleece": 19946,
    "ifled": 14062,
    "shut": 10981,
    "Ġensuring": 11191,
    "introduce": 25186,
    "Ġmaterial": 5178,
    "ceive": 3065,
    "lets": 7836,
    "dro": 6644,
    "ilburn": 18059,
    "Ġstars": 6149,
    "Ġinstinctively": 13458,
    "Ġauthent": 14506,
    "Ġboards": 14301,
    "unreasonable": 18162,
    "ernity": 18616,
    "motives": 26137,
    "Ġsi": 21211,
    "Ġlargely": 14285,
    "speechless": 25395,
    "sters": 6391,
    "Ġruth": 14093,
    "Ġmeals": 12708,
    "ertips": 23638,
    "Ġbedrooms": 19968,
    "motion": 17606,
    "Ġpop": 5151,
    "squee": 15429,
    "Ġripe": 13233,
    "object": 6884,
    "Ġapothe": 12373,
    "Ġswain": 18879,
    "Ġcontains": 2793,
    "marvell": 24171,
    "dish": 12450,
    "Ġvoracity": 25986,
    "!": 5,
    "solving": 3101,
    "Ġnugent": 26457,
    "Ġstray": 18069,
    "ologically": 22883,
    "Ġimpending": 22382,
    "lying": 7174,
    "Ġgroaned": 11266,
    "Ġrazors": 22651,
    "Ġsuffice": 18869,
    "Ġplausible": 26553,
    "Ġflank": 8228,
    "Ġposture": 24162,
    "icide": 11617,
    "Ġslice": 23156,
    "Ġexcellent": 4236,
    "flex": 24843,
    "whel": 7665,
    "azing": 7704,
    "Ġcommunication": 1870,
    "avail": 18604,
    "Ġaver": 1285,
    "Ġfixedly": 19247,
    "Ġbroad": 3638,
    "Ġblending": 14399,
    "shel": 11928,
    "pt": 386,
    "crossed": 16632,
    "Ġcoinc": 11001,
    "isturbed": 18297,
    "Ġrid": 4354,
    "ssible": 2994,
    "onze": 21254,
    "precise": 19349,
    "Ġcott": 3707,
    "Ġsuddenness": 23380,
    "an": 278,
    "ronted": 14876,
    "Ġpaddock": 25037,
    "Ġtracks": 18891,
    "etah": 12658,
    "Ġgrec": 18962,
    "Ġcynicism": 25771,
    "Ġcases": 3959,
    "Ġghostliness": 24651,
    "Ġmiraculous": 13546,
    "Ġdespite": 19351,
    "inc": 2521,
    "Ġarom": 15491,
    "Ġrealistic": 5860,
    "unctions": 18155,
    "Ġaddu": 22098,
    "pping": 1423,
    "inative": 15483,
    "Ġethics": 15461,
    "Ġexpect": 2310,
    "Ġkith": 22189,
    "Ġtriumphant": 12187,
    "Ġtendinous": 16931,
    "ally": 531,
    "pike": 11514,
    "sculpt": 16242,
    "Ġrecognise": 12046,
    "Ġthw": 21512,
    "Ġshoreless": 24295,
    "Ġsighing": 18673,
    "Ġfounder": 17883,
    "doublo": 24660,
    "Ġmedium": 16681,
    "Ġsmile": 4270,
    "Ġflirt": 14422,
    "get": 1024,
    "Ġattacked": 10567,
    "insensibility": 23065,
    "thinness": 25810,
    "precision": 4330,
    "Ġutil": 4672,
    "Ġgradients": 611,
    "Ġdisappoint": 24205,
    "Ġsgd": 3131,
    "barbs": 20236,
    "Ġminimizing": 3467,
    "multiple": 15106,
    "Ġrecollect": 8309,
    "Ġspirit": 3722,
    "aim": 2758,
    "tremendous": 20672,
    "ivates": 18275,
    "Ġopened": 3513,
    "Ġlass": 15645,
    "Ġsy": 492,
    "mosphere": 10042,
    "Ġhazarded": 25654,
    "lungs": 26135,
    "Ġdeactivates": 20702,
    "overed": 2855,
    "Ġgliding": 8559,
    "mysteries": 26050,
    "Ġoverjoy": 15970,
    "aiian": 23591,
    "opposing": 24825,
    "Ġdenote": 19332,
    "Ġmagnitude": 1943,
    "Ġcheever": 23281,
    "Ġ20": 8613,
    "Ġentrance": 7233,
    "Ġgathered": 8442,
    "initions": 21186,
    "Ġeasy": 3454,
    "Ġprognostics": 20557,
    "Ġetern": 7085,
    "Ġgrecian": 26296,
    "Ġadmires": 19684,
    "Ġsteel": 3887,
    "Ġpawnbroker": 13657,
    "ohog": 9843,
    "Ġblend": 14398,
    "forks": 26387,
    "Ġmagnet": 10389,
    "iro": 20913,
    "Ġaccusations": 22377,
    "Ġacquirement": 19254,
    "Ġexplanatory": 22199,
    "Ġmarling": 23033,
    "Ġsatisf": 2807,
    "Ġstraining": 11327,
    "Ġdut": 2989,
    "caterpillar": 26383,
    "Ġarticulate": 24432,
    "Ġdisappo": 4505,
    "suspicions": 25391,
    "unicorn": 21886,
    "filled": 9594,
    "Ġboomer": 20166,
    "ably": 1848,
    "Ġdespondency": 16577,
    "onsense": 6431,
    "buttons": 22399,
    "allah": 5838,
    "rin": 10121,
    "Ġopenshaw": 7954,
    "Ġimagenet": 19245,
    "employ": 10895,
    "Ġviolent": 5117,
    "join": 12111,
    "orable": 8119,
    "Ġusher": 22214,
    "Ġado": 7627,
    "Ġslung": 23164,
    "Ġmoth": 17802,
    "Ġrepeat": 7999,
    "Ġ89": 19711,
    "hend": 13251,
    "ullen": 8234,
    "deepest": 22835,
    "several": 5544,
    "Ġ96": 24592,
    "Ġguise": 14431,
    "despatched": 19800,
    "Ġoverdone": 22357,
    "Ġsheet": 6262,
    "supplemental": 25874,
    "Ġarrant": 23296,
    "99": 1895,
    "pay": 10718,
    "Ġinstructed": 19283,
    "athom": 12936,
    "meetings": 20376,
    "Ġcompatibility": 2960,
    "Ġcorpore": 13400,
    "iring": 1705,
    "leful": 17842,
    "Ġbenjam": 22889,
    "Ġbel": 1216,
    "Ġ46": 19489,
    "Ġmidnight": 5265,
    "Ġcover": 3557,
    "battle": 12440,
    "Ġevery": 927,
    "Ġdiscernment": 15067,
    "Ġstories": 10865,
    "became": 10514,
    "Ġtumbled": 13405,
    "Ġwent": 1538,
    "hopeless": 16917,
    "Ġdenomin": 12065,
    "pregn": 18492,
    "Ġminima": 3466,
    "Ġfloated": 7288,
    "Ġbesee": 19241,
    "igms": 3046,
    "mitted": 5213,
    "Ġtenement": 23547,
    "Ġoutlaws": 22320,
    "mouth": 9130,
    "Ġstoried": 18072,
    "Ġhindoo": 17175,
    "oubtedly": 6943,
    "Ġthack": 21514,
    "Ġrepeated": 3828,
    "Ġscheduling": 2353,
    "Ġcompany": 3719,
    "unks": 15772,
    "ppery": 10892,
    "erative": 21271,
    ")(": 2982,
    "Ġbeliefs": 24582,
    "Ġmonth": 2851,
    "Ġfavours": 23278,
    "ead": 2599,
    "Ġentities": 11860,
    "wat": 6231,
    "Ġperceived": 4714,
    "Ġshoot": 11161,
    "Ġfol": 1287,
    "Ġ$": 21149,
    "Ġerroneous": 17408,
    "merged": 11193,
    "Ġmarriage": 3188,
    "Ġdilated": 24704,
    "Ġnatures": 16504,
    "generosity": 23785,
    "Ġvic": 5236,
    "ulnerable": 18150,
    "Ġkissed": 10044,
    "Ġdepl": 14045,
    "Ġriver": 5411,
    "Ġunostentatious": 22067,
    "Ġharbour": 19978,
    "Ġrobberies": 23030,
    "Ġtempor": 2369,
    "Ġsixpence": 19315,
    "believe": 8303,
    "vent": 683,
    "Ġpiercing": 13493,
    "Ġtennes": 23548,
    "Ġhoneymoon": 25645,
    "rabbit": 20589,
    "Ġarose": 7360,
    "beating": 22485,
    ".--": 20745,
    "supplied": 10519,
    "Ġpunctilious": 26352,
    "Ġannum": 24203,
    "[": 63,
    "uccas": 21105,
    "Ġparsonage": 7123,
    "Ġborrow": 10170,
    "imble": 10858,
    "Ġappears": 5402,
    "Ġ(âĢľ": 15993,
    "distrust": 19569,
    "atmosphere": 21263,
    "rals": 21041,
    "dil": 11478,
    "etch": 9204,
    "Ġexecution": 6927,
    "Ġpooh": 18603,
    "ordinary": 4407,
    "Ġslipping": 13359,
    "Ġfaithfulness": 24446,
    "othic": 16214,
    "Ġnapkins": 25161,
    "veral": 2357,
    "Ġkra": 18348,
    "ermaid": 14295,
    "br": 2480,
    "Ġemergency": 25731,
    "Ġbloodthirst": 23800,
    "odd": 21811,
    "Ġesquimaux": 25150,
    "acetti": 13395,
    "six": 7141,
    "Ġtrunks": 15969,
    "Ġdreadful": 4920,
    "Ġminers": 22832,
    "Ġsurrey": 14559,
    "craft": 12244,
    "Ġdau": 21423,
    "Ġattempts": 10490,
    "Ġhundredth": 16518,
    "Ġattractions": 12913,
    "pattern": 4567,
    "Ġconsisted": 10419,
    "Ġghastly": 10059,
    "Ġder": 1498,
    "nur": 11505,
    "sticking": 21657,
    "Ġbusily": 9384,
    "Ġap": 5008,
    "Ġcopse": 17068,
    "Ġath": 15799,
    "Ġcrystal": 17214,
    "Ġhoney": 12629,
    "Ġelement": 6898,
    "andish": 18153,
    "apple": 22843,
    "Ġinsolence": 20252,
    "ignomin": 23264,
    "Ġpitching": 16611,
    "Ġshow": 3404,
    "Ġconstructed": 9386,
    "Ġeavesdroppers": 25963,
    "recol": 10150,
    "Ġtruck": 19510,
    "cest": 12442,
    "Ġsensibility": 14514,
    "Ġidentical": 10434,
    "Ġissuing": 16948,
    "culous": 11141,
    "asting": 12803,
    "Ġramadans": 25119,
    "Ġrabbit": 4288,
    "baby": 25515,
    "Ġinterruptions": 24185,
    "Ġhabitual": 24790,
    "Ġsecre": 5493,
    "Ġenvironment": 4387,
    "Ġsinking": 7307,
    "ting": 1335,
    "Ġwitness": 4621,
    "Ġhappy": 2467,
    "Ġdelighted": 5499,
    "rist": 10122,
    "Ġrephrased": 26477,
    "&": 10,
    "rack": 18010,
    "Ġdirectly": 2106,
    "Ġsmallest": 6430,
    "Ġatonement": 21939,
    "car": 4210,
    "Ġpositions": 2058,
    "Ġdireful": 11017,
    "suspicious": 25390,
    "Ġasylum": 13665,
    "Ġalteration": 9545,
    "anc": 6379,
    "Ġdistur": 5312,
    "itioned": 22476,
    "ĠĠĠĠĠĠĠĠĠĠĠĠĠĠĠĠĠĠĠĠĠĠĠĠĠĠĠĠĠ": 19698,
    "Ġcomp": 724,
    "smoking": 23908,
    "oun": 483,
    "Ġbowl": 11204,
    "Ġbritannica": 24680,
    "Ġheredit": 9216,
    "mopol": 15395,
    "Ġgurg": 15670,
    "ores": 2416,
    "annica": 24561,
    "Ġroute": 11381,
    "Ġpersecut": 16952,
    "grey": 14911,
    "Ġro": 600,
    "Ġdevotion": 22715,
    "cold": 9589,
    "Ġsustain": 10016,
    "Ġproviding": 1361,
    "while": 2937,
    "Ġscho": 4435,
    "Ġpaddington": 17095,
    "soles": 18688,
    "mounting": 25207,
    "Ġpigeon": 9515,
    "Ġshameful": 19851,
    "âĢĿ]": 21809,
    "urged": 18047,
    "Ġstaring": 8824,
    "Ġoriental": 9096,
    "Ġtamely": 24977,
    "Ġmoul": 15541,
    "Ġcompass": 4408,
    "Ġstabbed": 25456,
    "Ġcolourless": 19568,
    "preference": 22450,
    "say": 3981,
    "damp": 15342,
    "Ġmarshy": 20217,
    "Ġhuggins": 24828,
    "aton": 21257,
    "Ġpencils": 23192,
    "Ġpremises": 10487,
    "bows": 10081,
    "Ġdromedary": 17438,
    "Ġmach": 13856,
    "Ġwedded": 16674,
    "unearthly": 19272,
    "Ġemerge": 14927,
    "Ġpracticable": 19064,
    "Ġbrit": 6289,
    "Ġirrevoc": 15038,
    "Ġquietude": 19358,
    "Ġidly": 16403,
    "Ġbrittle": 22862,
    "obli": 23091,
    "atious": 10151,
    "Ġsingled": 23770,
    "Ġindisp": 18839,
    "actions": 8906,
    "udg": 22748,
    "Ġdrows": 21433,
    "woods": 13418,
    "Ġswept": 7977,
    "Ġrec": 904,
    "ĠâĢĶâĢĶ": 25757,
    "discernible": 20549,
    "appropri": 22844,
    "Ġcustoms": 19651,
    "Ġold": 1055,
    "Ġwears": 10240,
    "Ġfill": 5701,
    "ige": 12676,
    "Ġwindlass": 7256,
    "misery": 13342,
    "shroud": 20311,
    "nue": 15396,
    "Ġdining": 6977,
    "bod": 12435,
    "Ġsperma": 19050,
    "z": 94,
    "Ġblow": 3377,
    "Ġgre": 1583,
    "Ġdismay": 11807,
    "pervading": 18943,
    "Ġdismasted": 15250,
    "ĠĠĠĠĠĠĠĠĠĠĠĠ": 12897,
    "Ġcoral": 11920,
    "provoke": 26071,
    "Ġvices": 14082,
    "rupt": 3213,
    "Ġdeportment": 22606,
    "day": 1859,
    "Ġcorners": 18874,
    "yond": 2334,
    "Ġplead": 14454,
    "Ġspermacetti": 19051,
    "pips": 21019,
    "Ġforcibly": 10060,
    "Ġbas": 6380,
    "Ġdated": 10939,
    "Ġheartily": 6890,
    "Ġwaste": 9233,
    "Ġremarking": 13124,
    "Ġunf": 4087,
    "tub": 9143,
    "Ġabreast": 18394,
    "limbs": 20190,
    "eminently": 25105,
    "Ġxxii": 24478,
    "Ġphantoms": 13485,
    "anim": 6522,
    "Ġsympathising": 24297,
    "Ġsque": 18756,
    "Ġbenevolent": 7772,
    "she": 1398,
    "Ġsentence": 6187,
    "Ġknock": 9972,
    "Ġcens": 8412,
    "Ġren": 3843,
    "Ġapo": 9630,
    "iards": 17574,
    "ulent": 21859,
    "Ġjoll": 11763,
    "frequent": 15352,
    "ay": 354,
    "insanity": 23064,
    "laying": 19771,
    "Ġpride": 3820,
    "footsteps": 25199,
    "Ġdine": 7366,
    "Ġdeaf": 12718,
    "Ġprecip": 7074,
    "Ġpale": 4531,
    "Ġmans": 15534,
    "Ġfil": 3474,
    "Ġattic": 16093,
    "Ġaltern": 7394,
    "Ġbull": 7839,
    "Ġhealth": 3901,
    "Ġbestowed": 6593,
    "Ġrisen": 9492,
    "originally": 24937,
    "Ġusage": 9729,
    "Ġlegisl": 23534,
    "Ġdazed": 15593,
    "Ġvigorously": 11299,
    "Ġreappearance": 21664,
    "camp": 15329,
    "hest": 3372,
    "Ġphilosopher": 12181,
    "Ġtreatment": 12069,
    "Ġentic": 16140,
    "Ġplaited": 14282,
    "Ġtall": 4036,
    "Ġpond": 13915,
    "Ġoccasions": 7987,
    "Ġwarming": 23557,
    "Ġre": 317,
    "coronet": 16863,
    "elve": 4641,
    "Ġinexplicable": 12254,
    "solid": 16376,
    "resolution": 17766,
    "Ġcaptains": 7457,
    "Ġunsavory": 20706,
    "cordiality": 25137,
    "Ġsultanism": 25888,
    "Ġleaky": 2350,
    "Ġevaporate": 26332,
    "taffrail": 15441,
    "cushion": 20820,
    "Ġdevoting": 22714,
    "Ġsongs": 13419,
    "_;": 6640,
    "emptied": 23634,
    "Ġdandy": 17892,
    "Ġfriendship": 7246,
    "Ġlodger": 24089,
    "Ġnewfound": 22929,
    "Ġpresumably": 19623,
    "complet": 11383,
    "Ġshutting": 14758,
    "Ġroyalty": 19735,
    "Ġdemoniac": 15063,
    "Ġcallest": 17832,
    "Ġensure": 23686,
    "Ġadieu": 10050,
    "wr": 3029,
    "ĠÂ£": 5006,
    "Ġyourselves": 9028,
    "Ġimmemorially": 25383,
    "Ġseason": 5237,
    "public": 17646,
    "lop": 20947,
    "hun": 5210,
    "Ġselfish": 7272,
    "brimming": 23576,
    "anywhere": 14682,
    "Ġsolemnisation": 24112,
    "Ġbetween": 792,
    "appe": 2946,
    "cock": 12024,
    "Ġremnants": 22791,
    "quality": 10232,
    "Ġalice": 1483,
    "ative": 748,
    "Ġrights": 10396,
    "Ġagricultural": 26550,
    "Ġmistaken": 4986,
    "Ġanticipated": 13510,
    "Ġforb": 11662,
    "Ġmisanthrop": 22754,
    "Ġpain": 2308,
    "Ġcomparative": 10542,
    "Ġducking": 17146,
    "appo": 3912,
    "enormous": 26166,
    "2": 22,
    "cleanliness": 25871,
    "Ġloathing": 15066,
    "Ġemig": 14523,
    "Ġclinched": 17393,
    "Ġsystems": 822,
    "Ġunwilling": 7885,
    "Ġlaw": 3654,
    "Ġcostume": 16494,
    "Ġquitting": 7646,
    "Ġalliance": 18235,
    "pocket": 9808,
    "Ġcurls": 22946,
    "Ġfancies": 10424,
    "gates": 20871,
    "Ġfix": 2509,
    "Ġwaxed": 21296,
    "astrous": 15883,
    "Ġlav": 13949,
    "Ġconcentric": 20073,
    "Ġwhen": 515,
    "Ġcaps": 8414,
    "Ġfow": 6133,
    "tal": 17670,
    "Ġcaress": 16338,
    "Ġqueens": 16706,
    "Ġseventh": 18206,
    "Ġdeftly": 26493,
    "sens": 8095,
    "Ġseamen": 5063,
    "orial": 8416,
    "Ġgirl": 3088,
    "jewel": 20345,
    "Ġoverpowering": 15248,
    "Ġprocuring": 16870,
    "Ġrevers": 21661,
    "Ġnavigators": 19762,
    "edy": 2860,
    "ceiving": 3900,
    "Ġimmeas": 18331,
    "Ġoccasion": 3247,
    "Ġcrib": 21346,
    "Ġrefresh": 10345,
    "Ġthroat": 7770,
    "Ġelasticity": 19557,
    "Ġgained": 4534,
    "Ġspleen": 26421,
    "Ġdusky": 13548,
    "qualified": 17098,
    "fering": 17542,
    "rents": 5308,
    "Ġthump": 11610,
    "Ġharpoone": 2913,
    "chan": 1158,
    "istically": 14143,
    "gledy": 25403,
    "ssing": 3806,
    "Ġcomponents": 8892,
    "ondescript": 22914,
    "iana": 7048,
    "Ġscale": 1549,
    "Ġgills": 17992,
    "Ġrun": 2358,
    "hope": 5989,
    "sinking": 17668,
    "Ġgospel": 18000,
    "Ġoun": 13862,
    "Ġjoky": 18406,
    "thirst": 15823,
    "Ġmidships": 23632,
    "³": 116,
    "Ġcarry": 4779,
    "crucible": 24842,
    "Ġtep": 21160,
    "pton": 15789,
    "garden": 15025,
    "Ġtortures": 14922,
    "ingolstadt": 21302,
    "Ġrollicking": 24451,
    "Ġrece": 11637,
    "Ġshining": 8171,
    "Ġphil": 3388,
    "Ġspotted": 12136,
    "Ġgales": 12662,
    "compar": 14358,
    "Ġoft": 9194,
    "nelson": 25620,
    "Ġrestricted": 19025,
    "Ġsales": 12804,
    "none": 6962,
    "Ġdesol": 6881,
    "yramid": 8367,
    "Ġmasking": 2422,
    "Ġintelligently": 4095,
    "Ġlawy": 9453,
    "Ġdetermine": 3246,
    "Ġoffice": 4965,
    "Ġavenue": 13620,
    "Ġsmaller": 1882,
    "Ġstores": 18068,
    "dirty": 20833,
    "Ġchilian": 25563,
    "hunsford": 24386,
    "overcoat": 19053,
    "shock": 19854,
    "Ġseized": 4833,
    "aggo": 5097,
    "Ġcrevice": 22726,
    "oysius": 14364,
    "Ġstature": 10863,
    "Ġcharacter": 2794,
    "blubber": 15235,
    "copper": 19187,
    "izz": 7614,
    "Ġmethodic": 23173,
    "sounded": 12264,
    "vol": 732,
    "Ġdirection": 1791,
    "Ġrobe": 18458,
    "Ġpossessing": 16575,
    "yth": 981,
    "Ġconsummation": 17424,
    "Ġblind": 3714,
    "Ġpr": 1599,
    "icilian": 20690,
    "keen": 12779,
    "bid": 5611,
    "Ġhast": 3152,
    "Ġnois": 4266,
    "Ġvesuvius": 26501,
    "Ġdesigns": 13013,
    "Ġindians": 14409,
    "ansion": 10925,
    "Ġdow": 17886,
    "entreaties": 26185,
    "Ġpoliteness": 8273,
    "vener": 21110,
    "Ġinsincere": 26599,
    "Ġintrospect": 15826,
    "bastian": 10673,
    "Ġconsistence": 23354,
    "Ġcruelty": 9968,
    "Ġvisit": 2584,
    "Ġdisagree": 22529,
    "Ġstatistics": 1681,
    "constant": 11324,
    "9": 29,
    "Ġsolicitude": 10039,
    "fortunate": 4792,
    "Ġsweeping": 8985,
    "Ġsavi": 18325,
    "Ġobedience": 11413,
    "Ġsolemn": 4100,
    "_)âĢĶ": 20143,
    "hereafter": 19214,
    "Ġhead": 1126,
    "ittance": 12842,
    "Ġintensely": 17017,
    "Ġhumiliation": 16197,
    "Ġboarders": 16600,
    "Ġnovelties": 24778,
    "Ġobliterated": 17404,
    "Ġsigning": 22703,
    "Ġmoney": 3420,
    "Ġag": 684,
    "code": 15328,
    "Ġhabitu": 19527,
    "Ġhearties": 18967,
    "apology": 22330,
    "finished": 10554,
    "wise": 2574,
    "Ġacceptable": 16744,
    "odecim": 9831,
    "Ġdiffident": 23782,
    "omp": 2474,
    "Ġfibres": 12948,
    "Ġstain": 18064,
    "Ġhospit": 7515,
    "Ġhun": 1496,
    "Ġcensure": 15094,
    "Ġconsequences": 11335,
    "jaws": 20931,
    "Ġdebt": 12165,
    "fere": 10989,
    "Ġelixir": 26555,
    "irra": 15782,
    "Ġx": 2075,
    "bular": 15312,
    "Ġcrown": 5287,
    "Ġimprovement": 7965,
    "Ġarmies": 16491,
    "Ġclever": 7054,
    "Ġcomes": 3425,
    "zetts": 17714,
    "Ġcleared": 6074,
    "Ġscrolled": 22281,
    "pets": 17636,
    "Ġglided": 7446,
    "Ġmysteries": 11322,
    "fallen": 19658,
    "elder": 21569,
    "Ġshirt": 8848,
    "poke": 18797,
    "Ġbrill": 8549,
    "Ġfortnight": 6200,
    "urity": 8142,
    "Ġputting": 5326,
    "Ġfelicity": 7260,
    "Ġendurance": 23141,
    "Ġlambton": 10657,
    "patter": 4484,
    "Ġgame": 3627,
    "anct": 21356,
    "Ġspacious": 18312,
    "sequence": 2857,
    "Ġvelvets": 25393,
    "Ġsleeps": 10446,
    "Ġglens": 18853,
    "stalk": 21647,
    "Ġsuspicion": 6211,
    "Ġcorroded": 18875,
    "wild": 8766,
    "brought": 7285,
    "aff": 3104,
    "Ġoverwhelm": 25052,
    "mistaken": 12208,
    "Ġraw": 3325,
    "Ġwritten": 4168,
    "ti": 8389,
    "Ġtransom": 22435,
    "Ġweak": 5098,
    "xi": 17710,
    "Ġessentially": 24924,
    "Ġsanguine": 25928,
    "Ġobserve": 4670,
    "ways": 1440,
    "have": 2059,
    "Ġquarto": 17295,
    "ama": 11677,
    "float": 19804,
    "Ġundergo": 23236,
    "Ġconsciousness": 9947,
    "overspreading": 26139,
    "earnest": 12397,
    "Ġpersonal": 7480,
    "enth": 6680,
    "Ġimpact": 10296,
    "Ġsprawling": 22136,
    "ath": 860,
    "Ġoily": 13863,
    "fear": 8513,
    "Ġbang": 17854,
    "Ġlanguages": 1569,
    "germ": 15355,
    "sufferable": 12174,
    "Ġconveying": 19713,
    "Ġnods": 19062,
    "Ġmoist": 9284,
    "Ġyouth": 4260,
    "Ġcetology": 10008,
    "apolog": 22329,
    "overing": 6306,
    "Ġdonkey": 23228,
    "roof": 17953,
    "Ġgreat": 896,
    "publ": 17638,
    "Ġharpo": 1942,
    ")âĢĶâĢľ": 20742,
    "Ġunch": 18239,
    "spanish": 14333,
    "Ġge": 1979,
    "Ġirish": 14534,
    "Ġsar": 21212,
    "ĠĠĠĠĠĠĠĠĠĠĠĠĠĠĠĠĠĠĠĠĠĠĠĠĠĠĠĠĠĠĠĠĠĠĠĠĠĠĠĠĠĠĠĠĠĠĠĠĠĠĠ": 20037,
    "Ġlearning": 387,
    "Ġseverely": 14932,
    "Ġprofits": 16488,
    "bug": 17492,
    "savor": 25024,
    "Ġarising": 10933,
    "--âĢľ": 12969,
    "Ġgloom": 4200,
    "Ġhaunts": 18198,
    "Ġluxuries": 25163,
    "Ġannoyance": 20661,
    "Ġnewspaper": 12362,
    "notches": 22746,
    "dispute": 23497,
    "Ġbreaths": 14856,
    "Ġexceptions": 13228,
    "playing": 19656,
    "impatient": 13639,
    "Ġresignation": 18566,
    "Ġstreets": 5863,
    "Ġscarce": 8621,
    "Ġwax": 10776,
    "iocr": 20922,
    "Ġlightly": 13082,
    "conside": 9289,
    "beam": 16036,
    "Ġsuns": 23271,
    "Ġequatorial": 13508,
    "Ġleader": 14701,
    "Ġcapric": 14576,
    "lemency": 21372,
    "Ġinsip": 19266,
    "Ġdisturbing": 19944,
    "merit": 19280,
    "Ġbashful": 20418,
    "Ġkeeping": 7283,
    "bitterly": 20336,
    "âĢľ_": 5720,
    "new": 1464,
    "Ġnot": 413,
    "merchant": 10467,
    "Ġeclipsed": 26376,
    "Ġbreaks": 13182,
    "18": 20750,
    "Ġproduced": 2453,
    "trees": 10731,
    "fresh": 13391,
    "performed": 18341,
    "Ġbackstays": 22658,
    "Ġapparatus": 24908,
    "wearing": 22684,
    "Ġspanish": 2829,
    "window": 7742,
    "Ġ94": 17717,
    "Ġgraces": 18225,
    "Ġholiest": 18812,
    "til": 17671,
    "blood": 7779,
    "ledge": 1331,
    "Ġrespectful": 16344,
    "okers": 18441,
    "Ġendeavored": 19301,
    "Ġinsert": 19904,
    "seek": 8836,
    "esc": 612,
    "Ġrowing": 10300,
    "anoke": 21359,
    "breckinridge": 24072,
    "Ġproposition": 23248,
    "<EOS>": 2,
    "Ġhastened": 9004,
    "Ġspray": 7893,
    "mira": 20978,
    "Ġfound": 1245,
    "Ġventing": 19492,
    "eps": 12788,
    "choice": 21688,
    "opotam": 22474,
    "Ġshrine": 19530,
    "Ġcuts": 14607,
    "itche": 7579,
    "lower": 8879,
    "Ġstubbs": 23292,
    "ĺ": 251,
    "Ġhorrid": 7998,
    "Ġgrappling": 25812,
    "iage": 17573,
    "Ġtoiled": 12639,
    "Ġsmitten": 12896,
    "rayed": 23562,
    "Ġunconsciously": 10004,
    "Ġburton": 23654,
    "kicked": 20942,
    "acted": 11010,
    "Ġrenow": 18027,
    "amaz": 21847,
    "Ġcommanding": 16590,
    "edily": 17943,
    "Ġlard": 13946,
    "olic": 14041,
    "buffalo": 20562,
    "Ġslip": 8954,
    "Ġtables": 9877,
    "Ġstartling": 14670,
    "Ġsing": 3075,
    "Ġcredited": 25153,
    "Ġlinn": 13952,
    "Ġsoundings": 13132,
    "Ġenlist": 21933,
    "Ġengra": 7873,
    "Ġterrier": 23397,
    "Ġarrowy": 25469,
    "Ġnavy": 14915,
    "Ġphrase": 11187,
    "Ġsleeves": 10660,
    "Ġamid": 4959,
    "Ġitaly": 10867,
    "Ġweal": 21917,
    "Ġunconnected": 18242,
    "life": 4932,
    "Ġjackets": 19601,
    "Ġpirates": 9073,
    "Ġslanting": 23168,
    "Ġimplicit": 19956,
    "ipper": 13739,
    "aders": 21755,
    "Ġsworn": 14434,
    "Ġitems": 9691,
    "Ġornamented": 20360,
    "ridden": 24362,
    "Ġmachinery": 20483,
    "mises": 20977,
    "Ġintellig": 526,
    "dropping": 14981,
    "Ġgasp": 7172,
    "Ġextras": 22717,
    "Ġmad": 2429,
    "vember": 10855,
    "before": 3116,
    "Ġcarries": 7674,
    "Ġwhir": 6393,
    "Ġpiled": 8424,
    "Ġcurt": 18828,
    "Ġwill": 680,
    "pense": 10368,
    "yielded": 25756,
    "othe": 2615,
    "itated": 4439,
    "clings": 23148,
    "omically": 13975,
    "Ġexempl": 21827,
    "itious": 8779,
    "anxious": 15108,
    "Ġjo": 2609,
    "Ġdeliber": 7268,
    "pard": 9618,
    "too": 4507,
    "Ġstarve": 24625,
    "necessary": 5881,
    "luc": 9751,
    "Ġunnatural": 7190,
    "Ġfaulty": 14906,
    "twill": 21073,
    "ishop": 9741,
    ";âĢĻ": 15301,
    "Ġmastiff": 23723,
    "Ġseeks": 14302,
    "Ġsabbath": 17254,
    "Ġhawaiian": 25366,
    "Ġuncouth": 14550,
    "teringly": 21820,
    "accents": 19209,
    "clothed": 19737,
    "Ġenveloped": 12206,
    "Ġ9": 5900,
    "Ġreel": 9213,
    "Ġunstructure": 2996,
    "Ġcrags": 23528,
    "ince": 4339,
    "Ġhate": 5445,
    "Ġfleet": 9431,
    "Ļ": 252,
    "assault": 22303,
    "inquiries": 13576,
    "Ġpeevish": 26557,
    "omuch": 21637,
    "holder": 13281,
    "Ġgnashed": 20131,
    "Ġfootsteps": 16571,
    "Ġgrapple": 25811,
    "Ġscot": 5643,
    "Ġunexpected": 6841,
    "chants": 21689,
    "corner": 13396,
    "Ġfastened": 7065,
    "written": 7994,
    "Ġundertaken": 18986,
    "Ġgurglings": 26465,
    "venth": 9294,
    "hval": 20897,
    "Ġimpulse": 10023,
    "Ġmemo": 18117,
    "absent": 21786,
    "Ġwhatsoever": 18455,
    "Ġjiff": 22293,
    "Ġbower": 15564,
    "tasted": 17687,
    "Ġhideousness": 16915,
    "lucky": 24545,
    "where": 2094,
    "Ġor": 437,
    "Ġdisenc": 22523,
    "Ġequivalent": 4802,
    "Ġactively": 18654,
    "Ġchalk": 15931,
    "Ġpenetration": 19916,
    "Ġconsid": 1812,
    "Ġwester": 25152,
    "Ġblanche": 18819,
    "Ġpresentation": 14480,
    "reach": 17757,
    "Ġcontemptuously": 19832,
    "Ġdistorted": 14249,
    "Ġceremony": 8360,
    "sharks": 14240,
    "fever": 22498,
    "Ġheaving": 7601,
    "Ġfainter": 14913,
    ".": 18,
    "Ġbehav": 3540,
    "Ġpettic": 14840,
    "ual": 947,
    "Ġsetting": 7046,
    "Ġcries": 7154,
    "Ġgamesome": 17289,
    "Ġdemonstrate": 24994,
    "Ġdesirous": 8942,
    "Ġwitnessing": 19597,
    "followed": 8338,
    "Ġoscillations": 2899,
    "(-": 2981,
    "Ġvor": 15804,
    "Ġjig": 15949,
    "Ġinjunction": 19616,
    "adel": 15726,
    "deli": 15343,
    "regularly": 13205,
    "Ġnearing": 15792,
    "displeasure": 23493,
    "Ġpreser": 6040,
    "Ġprobably": 4313,
    "Ġtremendous": 8352,
    "illustration": 2289,
    "Ġsigmoid": 2464,
    "Ġsucceeding": 16761,
    "avings": 12021,
    "bar": 7542,
    "ooped": 17623,
    "Ġfrolic": 23921,
    "Q": 53,
    "Ġcannot": 1664,
    "icherry": 15134,
    "Ġpersistence": 2998,
    "Ġdistribut": 842,
    "Ġawkwardness": 13486,
    "great": 3517,
    "Ġchron": 19436,
    "Ġlofty": 6217,
    "Ġcucumber": 21354,
    "dispositions": 25011,
    "Ġreasons": 6019,
    "ù": 186,
    "Ġpirate": 14996,
    "pall": 17628,
    "dred": 2527,
    "ctu": 5088,
    "which": 1706,
    "Ġprecision": 13186,
    "Ġlatter": 3987,
    "insula": 23062,
    "_âĢĶâĢĿ": 20762,
    "Ġbaboon": 19692,
    "buncle": 13691,
    "hidden": 17370,
    "manners": 16183,
    "came": 4570,
    "haired": 14765,
    "Ġstructural": 2798,
    "Ġselection": 18204,
    "Ġdirectors": 18921,
    "Ġevils": 9019,
    "Ġparm": 15875,
    "Ġcushion": 17833,
    "Ġcomplaisance": 19447,
    "actually": 14294,
    "Ġbrothers": 13174,
    "Ġsouls": 6308,
    "Ġtacit": 21173,
    "rated": 6227,
    "instr": 12528,
    "Ġfav": 1754,
    "ice": 591,
    "Ġlounging": 10021,
    "Ġbank": 4877,
    "guard": 12126,
    "Ġincumbent": 16060,
    "Ġfamed": 16326,
    "Ġrevived": 11368,
    "Ġsuffocated": 20727,
    "Ġalternately": 15031,
    "achusetts": 20709,
    "Ġfarmhouse": 24984,
    "aud": 8521,
    "Ġgeorge": 3746,
    "Ġsteps": 2864,
    "Ý": 158,
    "I": 45,
    "Ġmexic": 14030,
    "entrance": 12654,
    "Ġshoes": 7071,
    "pher": 11511,
    "Ġsociety": 3975,
    "Ġdemon": 7868,
    "Ġopt": 781,
    "Ġchinks": 22248,
    "Ġgull": 15667,
    "Ġimpressive": 14999,
    "attacks": 23119,
    "Ġevenly": 4129,
    "Ġwished": 3727,
    "Ġbarrens": 25501,
    "Ġinfancy": 10409,
    "Ġassailed": 23175,
    "similar": 13452,
    "Ġlucerne": 23862,
    "Ġearned": 19403,
    "Ġfeelingly": 22994,
    "Ġconstrain": 2631,
    "Ġgrop": 12661,
    "Ġlongbourn": 3509,
    "Ġvertical": 16604,
    "gration": 9121,
    "mblies": 24608,
    "Ġfert": 15579,
    "Ġsupposition": 9816,
    "smart": 23904,
    "Ġspurn": 18309,
    "Ġquadruped": 17458,
    "Ġstumped": 24942,
    "Ġwestward": 24389,
    "antarctic": 22096,
    "Ġwallowed": 24039,
    "Ġsample": 3178,
    "kill": 13743,
    "Ġsurface": 5119,
    "Ġtun": 5998,
    "Ġrevelations": 25223,
    "Ġinvesting": 19645,
    "owed": 2277,
    "Ġannounce": 13337,
    "wondrous": 12336,
    "benevol": 12224,
    "Ġbalances": 2344,
    "Ġnug": 21522,
    "discrimin": 19607,
    "Ġaqu": 17742,
    "Ġairy": 23315,
    "Ġlearn": 363,
    "Ġstraits": 7993,
    "Ġproved": 4884,
    "delights": 19700,
    "Ġmyst": 4048,
    "ceed": 1074,
    "Ġbecher": 18878,
    "afternoon": 13184,
    "rian": 10241,
    "uther": 8816,
    "Ġdepresses": 25797,
    "bishop": 13693,
    "Ġacquit": 18897,
    "lu": 597,
    "hess": 4747,
    "crack": 19839,
    "Ġrecords": 12193,
    "Ġfunctional": 3050,
    "Ġattentions": 5877,
    "ifford": 15781,
    "ocr": 10468,
    "Ġcollateral": 20070,
    "Ġirreduc": 5491,
    "Ġ123": 24468,
    "Ġmy": 412,
    "Ġkidn": 20204,
    "Ġding": 12596,
    "Ġlistened": 4468,
    "outh": 2690,
    "Ġbelike": 18835,
    "Ġpredicted": 2044,
    "interval": 7990,
    "Ġprosecution": 12379,
    "Ġfisheries": 17437,
    "Ġano": 11595,
    "Ġperiodical": 14771,
    "Ġlullaby": 20586,
    "cake": 20803,
    "Ġliterary": 25162,
    "Ġdusty": 14924,
    "Ġnonce": 23233,
    "length": 7134,
    "espe": 3499,
    "lier": 20948,
    "Ġrecomm": 4996,
    "Ġwillingness": 24910,
    "fluttering": 23970,
    "Ġarid": 22184,
    "Ġrapidly": 3206,
    "Ġhissed": 15786,
    "Ġmythologies": 26213,
    "Ġdaggoo": 5441,
    "sombre": 23852,
    "riors": 18183,
    "Ġconvers": 2908,
    "Ġelements": 2670,
    "Ġtreats": 19342,
    "Ġwhispered": 5337,
    "Ġplacing": 8900,
    "otence": 14022,
    "mic": 12486,
    "Ġpeg": 22686,
    "Ġmoulded": 16975,
    "whisper": 17083,
    "itigated": 23044,
    "side": 2306,
    "anged": 3587,
    "Ġimposs": 16616,
    "Z": 62,
    "Ġfinger": 5273,
    "Ġrecovered": 5481,
    "Ġthomas": 17947,
    "adequate": 15202,
    "Ġrod": 9279,
    "alization": 733,
    "Ġporus": 24398,
    "cul": 1900,
    "warmly": 25026,
    "Ġpipe": 4320,
    "Ġrevolved": 9983,
    "kne": 20934,
    "Ġverses": 17064,
    "lives": 12483,
    "Ġexploit": 19161,
    "atching": 8201,
    "ogue": 9784,
    "property": 19998,
    "Ġestab": 6315,
    "omb": 10205,
    "Ġwavering": 23277,
    "poster": 11056,
    "Ġhol": 1182,
    "Ġengaging": 9335,
    "inordinate": 21193,
    "Ô": 149,
    "Ġstood": 2552,
    "Ġruss": 18720,
    "Ġjourneys": 19473,
    "Ġherself": 1568,
    "locks": 14455,
    "humanity": 24839,
    "Ġpositional": 2597,
    "vid": 915,
    "Ġcathed": 14549,
    "knot": 13744,
    "Ġbitterness": 8024,
    "avenue": 25057,
    "networks": 2408,
    "contrivance": 26316,
    "Ġsling": 21219,
    "yt": 17711,
    "ighb": 10423,
    "Ġstealing": 18894,
    "satisfaction": 9991,
    "inspector": 13645,
    "Ġingrat": 16840,
    "Ġrumours": 24598,
    "e": 73,
    "igan": 21695,
    "Ġrnns": 2398,
    "Ġploughed": 22602,
    "Ġassembled": 9235,
    "Ġadvertise": 25388,
    "Ġcurling": 9340,
    "Ġirrevocably": 15296,
    "hangs": 15367,
    "onely": 6516,
    "Ġcannon": 14153,
    "natured": 7110,
    "Ġexamples": 2605,
    "daw": 17522,
    "Ġhat": 2773,
    "Ġulster": 14997,
    "Ġbounded": 16626,
    "be": 671,
    "Ġreappeared": 21662,
    "vishnoo": 21118,
    "Ġdesperation": 19817,
    "Ġoverlapping": 26238,
    "Ġmerrily": 23730,
    "pling": 8474,
    "Ġapparel": 20434,
    "Ġcloak": 9533,
    "val": 1175,
    "Ġvest": 8162,
    "Ġenjoyed": 8007,
    "Ġpers": 1359,
    "locked": 7678,
    "ard": 464,
    "Ġsolved": 8931,
    "kind": 3862,
    "reed": 6373,
    "Ġhist": 2446,
    "lights": 13202,
    "dem": 10691,
    "ashion": 3857,
    "Ġincantation": 26257,
    "Ġfaded": 10809,
    "Ġimperfect": 13338,
    "wig": 17704,
    "Ġsalmon": 24058,
    "Ġbreeding": 14521,
    "greenland": 10020,
    "Ġeleventh": 23367,
    "Ġkramm": 26233,
    "Ġceased": 6468,
    "Ġvertebra": 20180,
    "const": 5938,
    "Ġbreaches": 14520,
    "Ġhenry": 5197,
    "swear": 16918,
    "Ġcoars": 14270,
    "Ġebb": 21619,
    "Ġtwopence": 18660,
    "Ġserve": 9367,
    "Ġendowed": 18924,
    "woes": 21132,
    "Ġspake": 18308,
    "mysterious": 26051,
    "dire": 15335,
    "Ġorph": 9716,
    "phenomenon": 17648,
    "terogene": 21822,
    "Ġtheirs": 7024,
    "Ġunknown": 4452,
    "inde": 17731,
    "Ġoverseeing": 22358,
    "Ġensures": 3057,
    "Ġfists": 15580,
    "about": 3586,
    "Ġcollect": 7237,
    "althy": 8431,
    "Ġcomplete": 4381,
    "Ġinterrupt": 4359,
    "bbed": 6911,
    "Ġelusive": 22644,
    "Ġwet": 6518,
    "Ġlivers": 18461,
    "Ġabsor": 8504,
    "Ġgentlemen": 3641,
    "hos": 15362,
    "Ġour": 1009,
    "plan": 15812,
    "Ġcapting": 23018,
    "fel": 8733,
    "Ġerrors": 2596,
    "Ġdaughter": 2870,
    "Ġpotential": 3618,
    "standers": 18478,
    "frankly": 20020,
    "Ġunlucky": 10049,
    "Ġamend": 16033,
    "Ġaudits": 24770,
    "headsman": 16700,
    "Ġbattle": 5907,
    "Ġweltering": 19584,
    "Ġprovidence": 18745,
    "bye": 5949,
    "mouse": 15391,
    "Ġodds": 13328,
    "Ġmazes": 25940,
    "Ġtaurus": 21177,
    "baden": 25615,
    "objections": 19915,
    "aways": 15309,
    "Ġhoped": 5488,
    "Ġscramble": 24578,
    "Ġestablishment": 13578,
    "Ġroused": 7624,
    "ingu": 2123,
    "_.âĢĶ": 23471,
    "Ġjingling": 26017,
    "conqu": 14244,
    "Ġshipped": 9714,
    "avor": 14275,
    "Ġaspired": 25984,
    "temper": 10003,
    "Ġneither": 3685,
    "nant": 17609,
    "ouement": 21446,
    "Ġassum": 4062,
    "Ġdistress": 5844,
    "Ġact": 690,
    "Ġinjury": 10540,
    "Ġtriangular": 14858,
    "Ġnoise": 1068,
    "Ġbushy": 16400,
    "time": 3148,
    "Ġdefined": 11896,
    "Ġowl": 20082,
    "Ġpublisher": 24062,
    "owe": 15706,
    "arp": 2027,
    "Ġmechan": 1174,
    "Ġimplicated": 24875,
    "Ġlodge": 5779,
    "proceeded": 25190,
    "fic": 20851,
    "Ġroods": 22401,
    "Ġbrazier": 26320,
    "isis": 12576,
    "Ġgips": 10841,
    "scure": 22983,
    "bearing": 9764,
    "execut": 13654,
    "Ġselects": 4384,
    "aug": 1213,
    "there": 1422,
    "Ġchr": 3687,
    "enjoyment": 17257,
    "Ġqual": 6274,
    "_.,": 14562,
    "Ġboys": 5194,
    "city": 15326,
    "Ġbrixton": 13662,
    "Ġsuffer": 4722,
    "Ġprepar": 7896,
    "strong": 6322,
    "kes": 3677,
    "Ġbarber": 23788,
    "attention": 2112,
    "eon": 8729,
    "axing": 18547,
    "Ġknitting": 24218,
    "Ġbenches": 18781,
    "take": 4576,
    "Ġintercept": 14268,
    "Ġcomplexion": 8209,
    "Ġjuncture": 17129,
    "Ġdecorum": 16019,
    "Ġcampaign": 20660,
    "Æ": 135,
    "Ġscientific": 6857,
    "Ġtal": 7565,
    "Ġcrosses": 23058,
    "Ġninety": 13600,
    "abhor": 12704,
    "Ġsanct": 15062,
    "Ġstanding": 3001,
    "Ġkentuckian": 26342,
    "Ġeuroclydon": 15295,
    "'s": 2471,
    "Ġcosine": 2375,
    "Ġaffrighted": 13571,
    "urements": 18123,
    "bers": 2570,
    "Ġspot": 4155,
    "Ġinf": 1756,
    "affected": 10476,
    "Ġvoice": 2191,
    "Ġsm": 704,
    "opy": 4457,
    "Ġtortured": 14923,
    "Ġvaluable": 5608,
    "comed": 8544,
    "creat": 20799,
    "numerous": 17430,
    "Ġshattered": 7883,
    "Ġyouthful": 16723,
    "Ġlamb": 8812,
    "Ġrationally": 18215,
    "Ġnarrations": 24352,
    "Ġexpressions": 7705,
    "Ġredeemed": 25789,
    "reme": 2427,
    "Ġfreshets": 25705,
    "ubl": 3594,
    "tawny": 26404,
    "imperturbable": 25790,
    "Ġaggregate": 25677,
    "Ġmajority": 13291,
    "Ġbeaufort": 13567,
    "whispering": 26103,
    "Ġrecklessly": 16983,
    "Ġcruelly": 13374,
    "plans": 21949,
    "Ġgeneralize": 3102,
    "Ġmaybe": 12946,
    "Ġdistances": 22500,
    "Ġdot": 4820,
    "Ġcouples": 16852,
    "Ġphrenologically": 20392,
    "Ġelig": 9777,
    "Ġpoland": 23616,
    "bec": 4050,
    "gment": 4390,
    "Ġcul": 17822,
    "gives": 15356,
    "ange": 1017,
    "Ġundue": 25993,
    "Ġprophets": 20449,
    "Ġfairness": 9893,
    "data": 2113,
    "rog": 15637,
    "hew": 5364,
    "hee": 10760,
    "cc": 474,
    "Ġsuperstition": 15054,
    "venison": 22625,
    "noo": 9792,
    "Ġtiresome": 26156,
    "O": 51,
    "Ġhookah": 16970,
    "Ġfold": 5531,
    "kerchief": 7526,
    "Ġimitate": 14157,
    "forecastle": 10990,
    "uish": 5431,
    "isco": 12578,
    "pleasure": 5977,
    "Ġniagara": 26458,
    "permitted": 18342,
    "Ġslope": 14460,
    "Ġ125": 24470,
    "bled": 5469,
    "eat": 11482,
    "agon": 7870,
    "°": 113,
    "interchange": 23737,
    "Ġrevolver": 14899,
    "Ġgene": 15669,
    "Ġtelescopes": 25690,
    "Ġmeans": 699,
    "Ġvindication": 25364,
    "Ġtremulous": 14985,
    "Ġmichael": 20678,
    "Ġpost": 4271,
    "coach": 23559,
    "ulty": 22564,
    "Ġinnovative": 1697,
    "Ġbreaching": 23345,
    "sof": 17657,
    "Ġtilted": 20411,
    "fore": 686,
    "Ġtackle": 9512,
    "bbings": 19275,
    "Ġcandour": 14672,
    "ufactured": 15180,
    "received": 9638,
    "Ġmidday": 23631,
    "ued": 7562,
    "rivial": 9433,
    "Ġroared": 7023,
    "Ġinquisitive": 26317,
    "Ġimpaling": 22381,
    "garity": 17554,
    "aphs": 22332,
    "Ġlashes": 17966,
    "Ġpillow": 10037,
    "Ġfearless": 9874,
    "Ġunt": 2299,
    "eyeing": 14945,
    "yder": 10138,
    "butt": 15992,
    "ı": 242,
    "Ġarabic": 24978,
    "Ġrage": 5110,
    "empt": 2619,
    "Ġqueen": 3215,
    "sockets": 22728,
    "Ġadds": 1806,
    "chancing": 22913,
    "Ġmeal": 9696,
    "Ġ183": 13236,
    "Ġcircumnavigation": 20398,
    "priv": 9619,
    "Ġdwelling": 7322,
    "Ġmouse": 4694,
    "silent": 9973,
    "accomplishment": 20222,
    "Ġemac": 16405,
    "Ġoperate": 19115,
    "iforn": 14063,
    "Ġgolden": 5336,
    "Ġpermit": 9748,
    "Ġsequel": 14356,
    "lins": 2026,
    "Ġpuzz": 5533,
    "Ġstunsail": 25543,
    "relate": 24008,
    "acknowled": 10975,
    "alone": 10183,
    "ougher": 18280,
    "Ġspokes": 18313,
    "Ġguinea": 8947,
    "Ġhappiness": 2947,
    "Ġmalicious": 10557,
    "Ġmanifested": 17157,
    "colonel": 8284,
    "uch": 877,
    "Ġsom": 1274,
    "Ġsallied": 12534,
    "Ġimmured": 24069,
    "Ġmuzzle": 21319,
    "approb": 11042,
    "Ġreflect": 6574,
    "Ġcorpora": 26580,
    "Ġunacquainted": 12773,
    "Ġsweetheart": 19393,
    "Ġpickle": 16722,
    "ars": 905,
    "speptic": 23943,
    "Ġlounged": 19952,
    "nyder": 16686,
    "Ġgipsies": 12406,
    "Ġraven": 16111,
    "utes": 5913,
    "chains": 9684,
    "some": 2239,
    "mming": 1172,
    "partiality": 13159,
    "Ġslang": 23155,
    "Ġlabelled": 23326,
    "Ġwaifing": 25243,
    "!âĢĶâĢĻ": 23564,
    "¦": 104,
    "Ġansw": 2205,
    "Ġ": 225,
    "remembrance": 25702,
    "Ġgodfrey": 15292,
    "feet": 6568,
    "silver": 19689,
    "Ġcommunications": 16353,
    "Ġpraise": 6486,
    "Ġmaria": 7124,
    "Ġinstincts": 16986,
    "ates": 518,
    "user": 5105,
    "fin": 5209,
    "oqu": 7556,
    "Ġforg": 3785,
    "Ġblank": 5950,
    "telescope": 26562,
    "retrospect": 23134,
    "Ġknew": 2056,
    "Ġtradesmen": 17105,
    "Ġsaxon": 25468,
    "Ġmomentum": 1602,
    "ture": 7559,
    "charmed": 21693,
    "Ġ112": 24437,
    "Ġthomson": 26454,
    "iety": 2819,
    "absolut": 8458,
    "ast": 472,
    "Ġspeedy": 11172,
    "omas": 12668,
    "Ġplants": 22595,
    "Ġinteractions": 12900,
    "abilizing": 2927,
    "spe": 3560,
    "Ġswart": 14433,
    "Ġaffair": 4462,
    "Ġanxiously": 8289,
    "vi": 2377,
    "imagination": 13479,
    "andes": 18151,
    "lorn": 12485,
    "uting": 15657,
    "impe": 21705,
    "Ġimbued": 17454,
    "oniously": 21256,
    "04": 10679,
    "Ġxvi": 19104,
    "Ġdared": 5440,
    "Ġthither": 6821,
    "Ġfeigned": 22205,
    "sudden": 5315,
    "Ġungovernable": 20708,
    "Ġtormenting": 15103,
    "Ġrides": 21971,
    "Ġconnecting": 18633,
    "Ĝ": 221,
    "happiness": 6469,
    "Ġanimation": 11152,
    "Ġcarriage": 3948,
    "Ġcool": 5734,
    "Ġimmemorial": 10510,
    "sec": 6152,
    ".}": 20744,
    "Ġperuvian": 18451,
    "ading": 5091,
    "twist": 23699,
    "Ġcoats": 16074,
    "ingham": 21299,
    "Ġgeography": 23370,
    "Ġsucc": 12781,
    "billiard": 25334,
    "Ġhumane": 11882,
    "hatchway": 25904,
    "Ġvide": 10250,
    "Ġstern": 4220,
    "Ġshy": 10903,
    "Ġwrest": 11570,
    "Ġcommod": 10333,
    "Ġcable": 11579,
    "Ġemploying": 23975,
    "Ġunsur": 22019,
    "eding": 7165,
    "Ġgossiping": 26243,
    "Ġdarted": 4758,
    "Ġhypothe": 4071,
    "Ġremember": 2681,
    "omist": 21635,
    "Ġconn": 9229,
    "iffe": 21899,
    "Ġmastery": 23990,
    "Ġdependent": 14297,
    "foolish": 12345,
    "Ġdisclosed": 15152,
    "Ġstrasburgh": 18614,
    "Ġhydraul": 9513,
    "dogs": 25402,
    "Ġepaulets": 24905,
    "gone": 6504,
    "Ġlegible": 23533,
    "Ġrods": 9753,
    "Ġbursting": 8655,
    "Ġmending": 17804,
    "Ġpresto": 22227,
    "never": 3153,
    "icy": 6140,
    "alously": 15626,
    "Ġadagrad": 2905,
    "just": 1698,
    "prepare": 20211,
    "Ġcastors": 23973,
    "ratches": 20123,
    "ident": 3382,
    "brushing": 20787,
    "Ġaboriginal": 14188,
    "shine": 9288,
    "ipotence": 22362,
    "Ġfisherman": 12073,
    "Ġwounded": 8657,
    "Ġhealed": 21680,
    "Ġbrim": 12974,
    "Ġerrand": 11085,
    "rane": 17653,
    "shaven": 18497,
    "leag": 21364,
    "circled": 24187,
    "Ġweedy": 15790,
    "Ġindications": 14632,
    "friends": 8305,
    "Ġvoices": 7875,
    "urned": 9305,
    "tram": 19634,
    "rucastle": 22175,
    "Ġchick": 22244,
    "sion": 8093,
    "inent": 9628,
    "Ġinquirers": 24962,
    "Ġperched": 10299,
    "Ġchink": 15930,
    "Ġdra": 1593,
    "Ġunfaltering": 24110,
    "Ġspare": 5102,
    "Ġmahogany": 20576,
    "Ġloft": 5642,
    "Ġskylarking": 19485,
    "Ġshavings": 14109,
    "faint": 17545,
    "insist": 23060,
    "Ġfed": 5530,
    "sacrifice": 13491,
    "eks": 4728,
    "strate": 12671,
    "Ġadvent": 4356,
    "Ġhabitation": 14802,
    "hever": 13830,
    "Ġfarthing": 14453,
    "âĢĶâĢľ_": 13201,
    "tri": 11529,
    "amous": 15758,
    "Ġmetropolitan": 17275,
    "Ġmccarthy": 5145,
    "spr": 7435,
    "future": 13716,
    "Ġglossy": 15226,
    "oric": 21394,
    "Ġmarsh": 9820,
    "Ġdick": 3498,
    "hello": 13362,
    "forgetting": 25485,
    "quer": 11678,
    "Ġamerica": 6763,
    "Ġbenjamin": 26567,
    "Ġengagements": 9977,
    "ogra": 4573,
    "Ġfrequent": 3290,
    "tons": 7560,
    "quod": 2166,
    "the": 334,
    "?âĢĿ": 700,
    "Ġlub": 15646,
    "Ġsplitting": 4382,
    "Ġprolonged": 8357,
    "Ġrecommence": 16812,
    "Ġquadrille": 13540,
    "Ġreputation": 11639,
    "Ġdisapprobation": 16056,
    "umed": 6554,
    "Ġsilver": 7463,
    "Ġtyp": 1133,
    "Ġpulpit": 7470,
    "wished": 13804,
    "Ġpopularly": 12239,
    "Ġextreme": 2516,
    "relation": 19445,
    "Ġunfathomable": 20547,
    "Ġhither": 4759,
    "Ġaustrian": 24300,
    "ificial": 608,
    "Ġrejoice": 10208,
    "otograph": 5826,
    "Ġdrawing": 3915,
    "ane": 1179,
    "Ġarches": 14162,
    "oms": 4593,
    "Ġdebar": 24271,
    "Ġclang": 15961,
    "Ġterribly": 10425,
    "Ġliving": 3064,
    "ad": 337,
    "mushroom": 26395,
    "Ġfashionable": 19543,
    "aming": 5828,
    "Ġtwenty": 3946,
    "tling": 9142,
    "Ġdarkness": 4276,
    "indian": 11776,
    "Ġexchange": 15751,
    "Ġglim": 9343,
    "aulding": 11339,
    "Ġsickbed": 24246,
    "Ġenclosure": 20622,
    "Ġbus": 1904,
    "Ġaugmented": 15104,
    "Ġsaint": 15506,
    "Ġdeclining": 23961,
    "Ġstatue": 23145,
    "este": 15917,
    "Ġmaintains": 2148,
    "Ġjump": 4503,
    "Ġaccuracy": 1117,
    "Ġunimpe": 22069,
    "Ġcurtains": 22949,
    "invite": 25088,
    "herself": 4890,
    "Ġrect": 18025,
    "uts": 8815,
    "Ġpapers": 4019,
    "invariably": 26416,
    "Ġburg": 23653,
    "Ġdiab": 10611,
    "Ġsequ": 982,
    "Ġstock": 7455,
    "Ġus": 496,
    "nest": 10113,
    "Ġflattered": 10374,
    "es": 288,
    "Ġcetus": 19884,
    "Ġhoarse": 14525,
    "afford": 14654,
    "Ġmetaphys": 16385,
    "agatha": 21905,
    "alleled": 14428,
    "Ġarisen": 11741,
    "Ġsoftware": 18918,
    "ques": 2843,
    "Ġindignation": 8346,
    "Ġpetulance": 24227,
    "Ġbenevolence": 9526,
    "Ġvial": 10248,
    "atiate": 12545,
    "Ġpossessed": 5195,
    "Ġsymbols": 2796,
    "Ġplaything": 19236,
    "Ġevidence": 5269,
    "Ġbraced": 16579,
    "Ġpractical": 3165,
    "inces": 13827,
    "Ġcontinu": 1167,
    "Ġnathan": 21523,
    "Ġcollinses": 19129,
    "Ġconstrained": 19238,
    "hawk": 7121,
    "carb": 20809,
    "Ġexcited": 5580,
    "somehow": 12010,
    "Ġsundial": 15081,
    "Ġgeneration": 2266,
    "Ġhimmale": 18329,
    "Ġtim": 4578,
    "press": 1731,
    "Ġ----": 7145,
    "woe": 21134,
    "who": 2447,
    "Ġjem": 18402,
    "announce": 24560,
    "Ġquakers": 22413,
    "judge": 13335,
    "Ġremonstrance": 20621,
    "unimportant": 18159,
    "outside": 12801,
    "Ġpitchpoling": 14910,
    "Ġphase": 14470,
    "Ġ72": 19610,
    "service": 15036,
    "Ġringleader": 26212,
    "with": 1298,
    "stove": 21649,
    "iour": 4035,
    "Ġundoubtedly": 8312,
    "Ġquies": 18464,
    "incess": 15481,
    "Ġcruisings": 25864,
    "Ġwoke": 21288,
    "Ġart": 749,
    "ards": 2506,
    "Ġsenses": 8251,
    "Ġbreat": 3462,
    "Ġpolluted": 25593,
    "Ġduodecimo": 16767,
    "south": 8758,
    "Ġstile": 21729,
    "walks": 19720,
    "Ġwa": 1753,
    "Ġcorresponding": 13437,
    "Ġfarthest": 23113,
    "Ġencode": 4364,
    "Ġapparent": 5466,
    "Ġcurtain": 14404,
    "Ġunassuming": 20507,
    "Ġtreading": 16503,
    "Ġcoer": 22578,
    "ē": 212,
    "Ġadv": 1148,
    "Ġdidn": 4362,
    "lob": 22503,
    "ishly": 14199,
    "Ġappeared": 2776,
    "Ġquestion": 2778,
    "secret": 12234,
    "Ġknown": 1642,
    "Ġinexpressible": 17332,
    "concerned": 24638,
    "whalebone": 19118,
    "elze": 21570,
    "Ġpuzzled": 7317,
    "Ġgoodge": 22820,
    "Ġgover": 2463,
    "atlantic": 15522,
    "Ġbrandy": 11049,
    "doom": 23375,
    "Ġfills": 12591,
    "Ġcrop": 10162,
    "Ġminut": 2204,
    "Ġtransform": 744,
    "Ġexcitement": 9380,
    "Ġcreditor": 24290,
    "pres": 16022,
    "trial": 20349,
    "Ġcurve": 22945,
    "Ġnobody": 6158,
    "Ġeyford": 10641,
    "Ġfinite": 2329,
    "even": 3835,
    "âĢĿ": 353,
    "Ġcheapside": 23285,
    "Ġsleepers": 13148,
    "Ġdum": 10811,
    "dick": 11479,
    "Ġmart": 10779,
    "carpet": 25202,
    "Ġvaulted": 25167,
    "lift": 15383,
    "reement": 15510,
    "Ġexciting": 23310,
    "fen": 20849,
    "Ġslaugh": 18937,
    "angel": 5726,
    "raising": 21629,
    "Ġnewly": 9337,
    "pistol": 17642,
    "Ġwarmest": 16483,
    "Ġdeeds": 15756,
    "Ġpathways": 11153,
    "appetite": 22848,
    "cad": 17504,
    "Ġunclasp": 26511,
    "Ġmagnanim": 14471,
    "Ġprofuse": 23565,
    "Ġrover": 18456,
    "Ġoverlooked": 15972,
    "cord": 8723,
    "Ġlavenza": 17970,
    "Ġderives": 16307,
    "caut": 20811,
    "atus": 21259,
    "Ġenjoy": 3758,
    "stool": 23817,
    "considered": 9580,
    "Ġwhite": 1539,
    "Ġaccomplishments": 13378,
    "of": 768,
    "Ġcongratulatory": 19766,
    "Ġdeclare": 6614,
    "ezes": 9990,
    "senses": 25022,
    "Ġchurch": 4711,
    "ication": 1014,
    "germans": 20564,
    "Ġtar": 2564,
    "Ġmasters": 11574,
    "Ġwad": 13850,
    "eth": 621,
    "fare": 7798,
    "wheels": 14380,
    "fiend": 13660,
    "relative": 24010,
    "smo": 10125,
    "Ġlengths": 19204,
    "pounds": 21024,
    "Ġinvulnerable": 19146,
    "ror": 7351,
    "Ġmarred": 23031,
    "shore": 10306,
    "power": 7136,
    "Ġconvulsively": 25717,
    "Ġresolutely": 14610,
    "mons": 17600,
    "ns": 752,
    "southern": 20407,
    "sand": 21051,
    "bringing": 17166,
    "Ġget": 1625,
    "eties": 10837,
    "Ġful": 4296,
    "sullen": 17669,
    "week": 12928,
    "cious": 6643,
    "Ġsquint": 22839,
    "Ġow": 8407,
    "theirs": 23601,
    "define": 1527,
    "Ġscholar": 26111,
    "upwards": 18863,
    "Ġlecture": 13566,
    "Ġet": 3580,
    "Ġrascal": 11700,
    "lections": 4752,
    "Ġhatchways": 24987,
    "Ġabilities": 8866,
    "mention": 7214,
    "settled": 10506,
    "Ġnib": 13939,
    "pon": 17625,
    "ans": 458,
    "Ġassurances": 9999,
    "Ġcountryside": 23595,
    "encouragement": 17422,
    "ffic": 22154,
    "Ġtwink": 8215,
    "represent": 9637,
    "Ġmystical": 12130,
    "Ġimpression": 5732,
    "Ġlogits": 3451,
    "cast": 2930,
    "rus": 5929,
    "oused": 6556,
    "Ġmotives": 7487,
    "itzerland": 9994,
    "erted": 7361,
    "Ġreduce": 7942,
    "Ġmining": 22830,
    "prisoner": 20542,
    "Ġamply": 22479,
    "Ġcotton": 17378,
    "inion": 2876,
    "Ġislands": 6766,
    "meditation": 19068,
    "Ġpatience": 2834,
    "Ġsauntering": 18327,
    "Ġspices": 22127,
    "Ġthin": 4347,
    "mblings": 19779,
    "Ġhousehold": 8567,
    "Ġinoffensive": 21495,
    "Ñ": 146,
    "Ġgu": 1330,
    "satisfactory": 16893,
    "Ġreven": 18028,
    "Ġbeast": 7179,
    "Ġattended": 5391,
    "Ġasserted": 16949,
    "Ġcum": 21340,
    "Ġconveys": 16855,
    "Ġadler": 8173,
    "Ġsport": 6688,
    "Ġcoquet": 22581,
    "Ġfam": 1585,
    "Ġprocedures": 9411,
    "Ġseasoned": 24405,
    "Ġlearnt": 7613,
    "Ġparting": 9782,
    "Ġgamb": 17997,
    "Ġpositives": 4316,
    "Ġevap": 19622,
    "Ġunfortunate": 5376,
    "Ġbranch": 8331,
    "Ġcircumn": 11982,
    "Ġbrigs": 20321,
    "Ġmove": 5107,
    "totally": 25417,
    "Ġaverage": 3140,
    "Ġclasping": 20208,
    "Ġchopping": 24219,
    "Ġcomfortable": 6094,
    "Ġexample": 5096,
    "Ġdivided": 8631,
    "Ġglimmered": 20170,
    "contrary": 23727,
    "Ġimm": 3963,
    "word": 2490,
    "Ġperishing": 22395,
    "Ġrecollecting": 17113,
    "ember": 1956,
    "Ġunex": 11711,
    "Ġtemporal": 2613,
    "adders": 24400,
    "fishermen": 17062,
    "Ġ1820": 25718,
    "Ġstrictest": 17042,
    "aks": 8506,
    "Ġlowered": 6735,
    "Ġel": 800,
    "Ġinsignificance": 20456,
    "Ġoct": 10158,
    "Ġrogue": 22402,
    "seventh": 12711,
    "Ġbaleen": 10036,
    "Ġequinox": 25855,
    "Ġprojects": 9510,
    "Ġelix": 22642,
    "Ġmitig": 1337,
    "Ġfalsely": 20580,
    "dataset": 23225,
    "Ġst": 332,
    "Ġfolios": 23017,
    "Ġextinguish": 14328,
    "ainty": 21784,
    "arrang": 14652,
    "Ġremem": 4312,
    "Ġawaiting": 11390,
    "terms": 15748,
    "estone": 18360,
    "consternation": 16912,
    "opence": 18507,
    "ridge": 9496,
    "lilies": 20960,
    "itional": 22475,
    "Ġstone": 4645,
    "Ġhopkins": 23126,
    "Ġunresting": 25553,
    "Ġruthless": 15284,
    "Ġxxiv": 24477,
    "Ġeagle": 13199,
    "lascar": 20959,
    "Ġdepth": 2440,
    "Ġvon": 14080,
    "Ġstraightened": 12106,
    "labours": 16617,
    "Ġsaf": 3999,
    "waited": 24585,
    "achable": 14137,
    "smallest": 23909,
    "Ġcompasses": 11267,
    "Ġhearse": 10420,
    "Ġfrosts": 19801,
    "iners": 4937,
    "Ġleviathanic": 12078,
    "Ġstaying": 8283,
    "Ġpermanently": 25473,
    "Ġrecourse": 22742,
    "ease": 12455,
    "Ġsub": 951,
    "Ġfurnace": 19438,
    "bank": 10079,
    "Ġmarched": 18871,
    "torn": 17682,
    "onstrate": 17768,
    "Ġgans": 5821,
    "married": 9948,
    "Ġyear": 3289,
    "Ġdishes": 16048,
    "Ġtalker": 23369,
    ";âĢĶ": 3747,
    "results": 20385,
    "unching": 18158,
    "Ġlexicon": 25974,
    "Ġidolator": 19996,
    "Ġtantamount": 25625,
    "Ġwalker": 23308,
    "Ġillness": 8589,
    "Ġalong": 1980,
    "sank": 17662,
    "====": 1481,
    "Ġmutter": 23951,
    "Ġantichronical": 26609,
    "Ġimpotent": 18446,
    "scenes": 16241,
    "Ġcorn": 9349,
    "rossing": 18640,
    "oury": 22301,
    "Ġvernal": 23886,
    "Ġlaying": 7907,
    "Ġlimit": 10443,
    "Ġbones": 4583,
    "adequately": 20318,
    "sad": 11520,
    "Ġshoots": 14568,
    "Ġtragedies": 25241,
    "Ġfigured": 16643,
    "Ġbud": 10168,
    "Ġhour": 1811,
    "haust": 5777,
    "orns": 12589,
    "Ġsubstit": 19539,
    "reds": 12745,
    "ression": 3407,
    "blending": 24127,
    "Ġforetold": 23450,
    "appalled": 18760,
    "Ġcig": 6520,
    "Ġwhirlpool": 20654,
    "Ġconverse": 11842,
    "Ġcontraction": 16006,
    "duty": 20238,
    "Ġreal": 1635,
    "Ġmean": 741,
    "Ġaffording": 14820,
    "Ġentra": 18694,
    "Ġ85": 24460,
    "Ġwaldman": 11345,
    "stem": 574,
    "Ġplutarch": 22600,
    "Ġconverts": 2805,
    "Ġwee": 21916,
    "quee": 4130,
    "pshaw": 21027,
    "Ġaunt": 3177,
    "Ġjunk": 15951,
    "Ġbeginning": 4241,
    "Ġcharacteristically": 23689,
    "Ġhiding": 9822,
    "Ġbran": 5250,
    "Ġguardian": 14941,
    "Ġshaken": 10264,
    "ugnance": 12365,
    "https": 11682,
    "arling": 10814,
    "ruined": 18337,
    "Ġmoustache": 20482,
    "angu": 567,
    "monkey": 19169,
    "Ġdevoid": 18680,
    "Ġnecessitates": 23926,
    "Ġholiday": 12995,
    "Ġvel": 7186,
    "^": 66,
    "send": 15422,
    "Ġought": 3421,
    "Ġded": 2664,
    "Ġproving": 15749,
    "Ġferocity": 16866,
    "pol": 5892,
    "Ġmildly": 9029,
    "bethinking": 25745,
    "Ġsyntax": 958,
    "ive": 426,
    "Ġlangu": 572,
    "Ġsquall": 7043,
    "omitted": 18016,
    "Ġdaintiest": 25953,
    "unexpected": 15775,
    "Ġarms": 3964,
    "Ġgrounds": 6749,
    "Ġidleness": 11144,
    "Ġcounted": 12137,
    "Ġignorantly": 19494,
    "Ġfiercely": 12949,
    "Ġnoting": 18221,
    "Ġoverl": 18427,
    "rose": 6013,
    "Ġwhat": 599,
    "Ġsung": 23270,
    "Ġtorments": 13393,
    "Ġdeg": 3285,
    "Ġ98": 24593,
    "Ġ131": 24782,
    "Ġflock": 21409,
    "Ġ1671": 25005,
    "ourage": 2452,
    "ishness": 22339,
    "humorously": 24017,
    "Ġefforts": 11805,
    "Ġfrederick": 15584,
    "Ġbou": 17852,
    "Ġegotistical": 26191,
    "Ġspectacle": 10496,
    "Ġchange": 1994,
    "Ġcategor": 4139,
    "interference": 23736,
    "gged": 3775,
    "emy": 14074,
    "Ġstating": 15719,
    "Ġtrinity": 22354,
    "_).": 5886,
    "Ġreproached": 24891,
    "Ġimprec": 14218,
    "Ġrabb": 4164,
    "Ġastir": 14640,
    "Ġinstigated": 18702,
    "Ġgone": 2108,
    "Ġwearer": 21920,
    "Ġmerchantmen": 19859,
    "Ġnewspapers": 17186,
    "lan": 15376,
    "Ġbanqu": 12585,
    "ifer": 11683,
    "Ġfavourable": 7958,
    "Ġsuch": 795,
    "itaries": 21334,
    "hero": 21203,
    "Ġforeman": 23446,
    "Ġdisquiet": 18552,
    "Ġatone": 15800,
    "dream": 8727,
    "Ġxx": 5492,
    "Ġreception": 9838,
    "Ġoughts": 23898,
    "ĠâĢľâĢĺ_": 25111,
    "Ġinterposed": 20617,
    "Ġflapp": 23005,
    "letter": 6201,
    "erer": 8731,
    "Ġcorrect": 2434,
    "Ġii": 7385,
    "Ġowen": 15093,
    "Ġintermission": 18591,
    "folio": 10546,
    "Ġcaroline": 7255,
    "Ġsupplied": 8943,
    "dissatisf": 26129,
    "Ġteaching": 10364,
    "Ġpaved": 17912,
    "hastily": 19701,
    "Ġfulf": 6772,
    "Ġsquee": 7928,
    "Ġoverthrown": 18430,
    "oy": 1018,
    "Ġcurv": 3512,
    "Ġperpendicular": 7209,
    "Ġest": 2272,
    "Ġforswe": 21771,
    "mpus": 13756,
    "Ġmarried": 3410,
    "Ġpeculiarities": 12068,
    "Ġtempest": 8212,
    "Ġstormy": 16728,
    "Ġnarrowed": 24355,
    "asets": 2314,
    "Ġaddresses": 3767,
    "Ġenrolled": 21934,
    "repugnance": 16864,
    "apothecary": 26545,
    "Ġacutely": 14313,
    "Ġchilly": 25562,
    "relieved": 13274,
    "extent": 22759,
    "proposal": 18755,
    "ortunity": 4403,
    "Ġlarboard": 11009,
    "pence": 15408,
    "Ġviol": 2073,
    "Ġperiods": 13302,
    "Ġexamined": 6334,
    "structure": 2261,
    "Ġforecastle": 5495,
    "udding": 11863,
    "thunder": 10262,
    "Ġfearful": 6197,
    "grace": 5846,
    "Ģ": 227,
    "Ġspangled": 22132,
    "Ġpremeditated": 22231,
    "Ġtraged": 9351,
    "Ġtransactions": 18482,
    "Ġdazzling": 15210,
    "Ġoar": 6236,
    "Ġreminded": 9998,
    "Ġunintermitted": 26219,
    "ar": 285,
    "landed": 18955,
    "instinctively": 26327,
    "177": 20751,
    "Ġblinds": 8006,
    "Ġconversing": 14633,
    "¸": 121,
    "Ġassent": 12730,
    "Ġmonster": 3791,
    "Ġjet": 5307,
    "Ġheightened": 8648,
    "Ġrigged": 16717,
    "spade": 10340,
    "Ġrealities": 18981,
    "Ġfalls": 14644,
    "Ġe": 311,
    "Ġwood": 2297,
    "Ġaction": 5796,
    "Ġexploded": 15907,
    "ppo": 18175,
    "Ġwidest": 24234,
    "Ġpa": 2990,
    "Ġpierce": 17036,
    "Ġcharnel": 22249,
    "Ġwrench": 12554,
    "virtue": 20568,
    "Ġsummarization": 3646,
    "Ġvisage": 18767,
    "Ġgrass": 5177,
    "Ġweap": 6155,
    "Ġcap": 2365,
    "Ġkitchen": 8495,
    "Ġcent": 3255,
    "Ġthr": 5709,
    "Ġbuoyancy": 20040,
    "Ġforget": 2637,
    "Ġdragged": 6889,
    "robustness": 26338,
    "Ġsurf": 19131,
    "Ġworth": 4416,
    "Ġadmitted": 8986,
    "Ġpays": 13295,
    "hundreds": 25073,
    "Ġkrus": 18349,
    "Ġgleamed": 17077,
    "becomes": 22492,
    "Ġtunes": 24619,
    "atively": 2698,
    "Ġinsens": 8276,
    "Ġsymph": 22209,
    "handled": 19260,
    "vels": 5432,
    "Ġsteadily": 8051,
    "Ġsinful": 18949,
    "Ġjoin": 4853,
    "iance": 5279,
    "dy": 3860,
    "longing": 23724,
    "verdict": 21726,
    "Ġthoroughfare": 16944,
    "Ġinterpreted": 1710,
    "attempt": 9359,
    "Ġperplex": 2717,
    "bury": 9106,
    "Ġgangs": 21606,
    "kins": 7345,
    "Ġharbor": 10026,
    "shazzar": 15288,
    "ghan": 19453,
    "mayhew": 23989,
    "comple": 7441,
    "Ġlurking": 11289,
    "vil": 2733,
    "Ġostr": 21323,
    "Ġintermediate": 18592,
    "Ġsurtout": 23464,
    "belated": 24034,
    "condition": 7059,
    "Ġdoubtfully": 23476,
    "Ġbrig": 11047,
    "Ġgibe": 25959,
    "erc": 5904,
    "Ġsharply": 9402,
    "neurons": 3136,
    "Ġevalu": 3199,
    "Ġbruised": 25772,
    "Ġnarrated": 14870,
    "Ġstatements": 7517,
    "Ġalarmed": 6923,
    "okened": 15982,
    "resides": 23670,
    "Ġstre": 2110,
    "unted": 6998,
    "imag": 6990,
    "Ġwrecks": 16818,
    "Ġinput": 609,
    "Ġsquire": 16181,
    "Ġclerical": 25568,
    "Ġconflag": 20334,
    "Ġmillion": 14986,
    "Ġpassions": 7929,
    "Ġcapricious": 20537,
    "Ġroughs": 19955,
    "Ġscorch": 20065,
    "Ġ1828": 25720,
    "ove": 1743,
    "Ġhovered": 12628,
    "Ġanne": 1530,
    "Ġprair": 7746,
    "Ġemb": 1260,
    "Ġsister": 1474,
    "ifference": 5632,
    "Ġknights": 15148,
    "Ġmonuments": 22979,
    "Ġbreathlessly": 24280,
    "Ġaccost": 12844,
    "Ġborne": 6351,
    "Ġextort": 22716,
    "Ġgot": 2286,
    "destiny": 16702,
    "clerval": 7950,
    "atherine": 2595,
    "Ġunequal": 14841,
    "matter": 5136,
    "Ġparis": 8178,
    "enary": 12548,
    "ung": 2747,
    "someone": 14564,
    "aring": 1476,
    "roded": 17955,
    "Ġfolks": 14425,
    "Ġsagacious": 14970,
    "Ġpalpable": 15205,
    "confused": 19643,
    "ru": 478,
    "Ġeaves": 15673,
    "old": 799,
    "Ġunimaginable": 15245,
    "uncommon": 11680,
    "bered": 4504,
    "Ġhasn": 12924,
    "enge": 21279,
    "latin": 25258,
    "prolong": 23393,
    "slide": 24556,
    "cring": 20810,
    "Ġgul": 7859,
    "force": 12950,
    "Ġremoval": 12115,
    "Ġcrackling": 24958,
    "twain": 23698,
    "Ġpaintings": 15055,
    "Ġsplendid": 17213,
    "Ġcharacteristic": 12045,
    "Ġtrifle": 10601,
    "accusations": 23598,
    "Â·": 21148,
    "sequent": 6831,
    "Ġcigar": 9544,
    "Ġquite": 1741,
    "sample": 12504,
    "revol": 12537,
    "Ġconfusing": 23305,
    "Ġsullenly": 17172,
    "hair": 9122,
    "Ġimprudence": 10297,
    "Ġfossil": 12385,
    "Ġspence": 22123,
    "Ġrepent": 9862,
    "Ġliberally": 16830,
    "Ġrelig": 8550,
    "itation": 1780,
    "Ġvouch": 15807,
    "Ġcontents": 7210,
    "elijah": 19471,
    "ignorantly": 25189,
    "Ġscrupled": 25049,
    "Ġroofs": 16985,
    "Ġtranquillize": 24757,
    "arming": 8951,
    "batch": 1983,
    "sea": 4763,
    "Ġassured": 4371,
    "should": 3263,
    "Ġwait": 4907,
    "Ġ69": 19660,
    "Ġassailants": 20447,
    "Ġsilently": 6894,
    "Ġvagabond": 20202,
    "reckoning": 25270,
    "Ġbenefits": 4286,
    "vy": 21106,
    "Ġzigzag": 26272,
    "member": 20974,
    "Ġconsidering": 4615,
    "ulus": 21861,
    "Ġpile": 8423,
    "Ġpass": 1040,
    "fts": 18700,
    "Ġshower": 11708,
    "Ġdoubt": 2226,
    "Ġaged": 10321,
    "inions": 8401,
    "bedstead": 23847,
    "Ġdevotedly": 24750,
    "Ġheated": 21679,
    "touched": 15438,
    "utmost": 21585,
    "Ġglasses": 9474,
    "replied": 11565,
    "Ġindoors": 18841,
    "Ġaffirm": 11885,
    "Ġowners": 7663,
    "_,âĢĻ": 12431,
    "Ġloaded": 8490,
    "Ġjournal": 15217,
    "Ġcrotch": 9962,
    "Ġfixed": 2688,
    "Ġexpanding": 25238,
    "Ġpear": 11850,
    "Ġwand": 4341,
    "Ġisinglass": 21799,
    "Ġbuckle": 17033,
    "Ġsubterr": 10348,
    "Ġimprinted": 22387,
    "ighbour": 3391,
    "Ġproflig": 23566,
    "giana": 7800,
    "Ġdecided": 5471,
    "ught": 2752,
    "especially": 3572,
    "promote": 24727,
    "scar": 9815,
    "Ġscal": 1519,
    "Ġshad": 3848,
    "admit": 18090,
    "Å": 134,
    "uction": 15442,
    "Ġplain": 2817,
    "ativeness": 15519,
    "cain": 15325,
    "using": 5468,
    "zag": 17713,
    "neat": 22445,
    "Ġyourself": 2593,
    "_--": 20761,
    "charles": 14698,
    "Ġpartial": 2132,
    "Ġoffences": 18692,
    "Ġbureau": 11589,
    "illings": 14142,
    "mistak": 16878,
    "Ġfolly": 7940,
    "idirection": 2414,
    "Ġnet": 3625,
    "Ġassume": 10515,
    "Ġviolation": 23404,
    "somewhere": 12011,
    "fitters": 24761,
    "coming": 3562,
    "Ġmortally": 23914,
    "Ġjustice": 5111,
    "Ġcolon": 18764,
    "Ġcongrat": 5827,
    "Ġcyl": 15554,
    "enc": 7575,
    "Ġsegment": 12754,
    "itable": 5437,
    "Ġpaws": 13920,
    "Ġremoving": 12114,
    "perceived": 8858,
    "Ġdishonoured": 20389,
    "anely": 17836,
    "Ġbennet": 1576,
    "Ġske": 4815,
    "je": 11495,
    "Ġembracing": 14979,
    "Ġwallet": 21297,
    "Ġwhist": 6021,
    "det": 5207,
    "Ġmerid": 13192,
    "Ġegress": 21618,
    "tery": 14036,
    "Ġwalked": 3141,
    "Ġinference": 9671,
    "darcy": 5208,
    "Ġtools": 11608,
    "Ġsaville": 15886,
    "Ġworthless": 19564,
    "questions": 16760,
    "Ġsemicircle": 26068,
    "mccarthy": 15394,
    "Ġnovelist": 24777,
    "Ġconvinced": 4204,
    "Ġends": 8237,
    "Ġwhispers": 14699,
    "Ġtelling": 5747,
    "Ġfavourably": 16360,
    "ropri": 2180,
    "invested": 17117,
    "Ġcontemplated": 13463,
    "Ġrummaged": 16910,
    "nine": 13760,
    "Ġinstrument": 7118,
    "bath": 13688,
    "Ġrobbery": 11918,
    "caus": 11476,
    "Ġlash": 8438,
    "q": 85,
    "Ġclim": 8194,
    "pots": 11513,
    "ideas": 18581,
    "ientiously": 21938,
    "Ġloth": 17965,
    "Ġcorpus": 13029,
    "beheld": 11799,
    "Ġcoffee": 6760,
    "Ġsult": 10767,
    "Ġinviting": 19143,
    "Ġlabours": 8582,
    "Ġjoist": 19230,
    "Ġstoutly": 16924,
    "ume": 4835,
    "Ġoutrid": 22312,
    "Ġeber": 18003,
    "abby": 14020,
    "diss": 17523,
    "Ġinspire": 11994,
    "Ġcha": 6853,
    "Ġentangled": 10343,
    "marrying": 19546,
    "Ġprofit": 14585,
    "tar": 8097,
    "spears": 23939,
    "Ġnoticed": 5549,
    "Ġpounds": 5368,
    "culiarity": 11142,
    "Ġloungers": 24862,
    "smile": 23903,
    "Ġbasics": 13447,
    "Ġindifferent": 6174,
    "Ġscriptures": 26235,
    "blast": 9587,
    "Ġtriumphal": 24371,
    "Ġaright": 11738,
    "Ġgord": 21597,
    "proves": 23392,
    "Ġabject": 18391,
    "Ġdere": 21832,
    "ichever": 13956,
    "Ġescape": 2649,
    "helping": 23136,
    "Ġevaluation": 16574,
    "extric": 22760,
    "Ġinsular": 19267,
    "Ġcare": 1638,
    "Ġsagaciously": 24731,
    "Ġmumbled": 17807,
    "Ġjoyfully": 19344,
    "Ġplowdon": 26447,
    "Ġtyph": 10007,
    "absurd": 21792,
    "Ġigniting": 25070,
    "Ġmoon": 4608,
    "Ġones": 3022,
    "language": 5129,
    "Ġcontinuation": 22915,
    "Ġmathematical": 3354,
    "Ġpettiness": 24229,
    "Ġdimin": 3870,
    "mering": 12488,
    "Ġpaced": 7584,
    "Ġannesley": 19576,
    "breat": 10077,
    "Ġrevolutions": 23839,
    "Ġbowditch": 19321,
    "anguish": 15978,
    "Ġdesmarest": 22976,
    "london": 9609,
    "mud": 20970,
    "Ġquench": 22416,
    "Ġpeep": 6870,
    "mis": 4520,
    "supp": 4162,
    "Ġproper": 1377,
    "exercise": 17459,
    "impossible": 8823,
    "Ġcautiousness": 19865,
    "Ġpictured": 16622,
    "Ġdivin": 13271,
    "Ġfeverish": 11348,
    "Ġnoon": 6559,
    "Ġtoe": 13935,
    "uation": 17694,
    "Ġdistrust": 8203,
    "provided": 13636,
    "yourselves": 24956,
    "maul": 11890,
    "Ġsphere": 15880,
    "Ġdeclared": 5595,
    "======================================================================": 10067,
    "Ġvineyards": 25106,
    "Ġdong": 17887,
    "Ġfacial": 10605,
    "Ġgroan": 13323,
    "Ġwhales": 1826,
    "¨": 106,
    "Ġdizzy": 21430,
    "fearing": 18530,
    "hers": 7636,
    "explain": 1480,
    "atoes": 17775,
    "Ġhish": 21910,
    "enhall": 13849,
    "Ġconv": 2970,
    "stains": 11636,
    "gods": 13365,
    "Ġobservable": 25126,
    "aret": 7417,
    "Ġinspirited": 23419,
    "teeth": 10355,
    "ĠĠĠĠĠĠĠĠĠĠĠĠĠĠĠĠĠĠĠ": 22952,
    "Ġpained": 19166,
    "Ġcalhoun": 23042,
    "Ġcoding": 8115,
    "Ġcompanion": 3642,
    "Ġwhalemen": 3910,
    "Ġlie": 4406,
    "Ġinfat": 14499,
    "william": 4561,
    "corn": 13698,
    "Ġstabilizing": 3656,
    "Ġgodfre": 14528,
    "ospel": 17010,
    "Ġstrictly": 12283,
    "Ġsympathise": 16794,
    "Ġalph": 9694,
    "Ġenlightened": 12743,
    "Ġ90": 24588,
    "Ġwidower": 24235,
    "fire": 6357,
    "itar": 15544,
    "Ġcolonel": 3409,
    "Ġsting": 10861,
    "Ġbeheaded": 11655,
    "dering": 5305,
    "Ġannoyed": 17199,
    "afforded": 25865,
    "dances": 17521,
    "Ġaccur": 3763,
    "Ġindolence": 16229,
    "cabin": 8362,
    "Ġinsatiate": 19269,
    "Ġordained": 19443,
    "Ġstolen": 14006,
    "owards": 4594,
    "Ġhieroglyphics": 17302,
    "st": 316,
    "flatter": 23964,
    "Ġjustine": 4970,
    "ibule": 13008,
    "Ġanytime": 12882,
    "Ġamber": 7026,
    "Ġwhelm": 25998,
    "Ġcumberland": 21353,
    "Ġjustify": 11072,
    "leg": 2814,
    "jackets": 24895,
    "Ġspitz": 14148,
    "Ġargued": 13628,
    "ke": 429,
    "Ġunmingled": 18263,
    "abst": 21785,
    "Ġgentleness": 8709,
    "Ġthousandth": 23682,
    "Ġwearied": 15791,
    "Ġcommission": 6712,
    "\"],": 26120,
    "formation": 22210,
    "K": 47,
    "urried": 21701,
    "propagation": 1246,
    "sweeping": 24618,
    "Ġgreeting": 18964,
    "Ġvintage": 26209,
    "Ġencoura": 1367,
    "support": 9469,
    "Ġrounded": 14437,
    "Ġlinen": 12405,
    "Ġ275": 20109,
    "Ġbehind": 2808,
    "Ġbleached": 24396,
    "Ġjapan": 7640,
    "Ġpurchases": 24756,
    "Ġdevelop": 1610,
    "Ġtartar": 17321,
    "peddling": 24696,
    "performances": 26006,
    "Ġirregular": 9864,
    "Ġcomplying": 18584,
    "Ġbob": 22636,
    "chairs": 21690,
    "Ġexisted": 15750,
    "Ġgesture": 11399,
    "Ġseen": 1368,
    "oquence": 11386,
    "Ġdyspeps": 16505,
    "Ġdeficiency": 14402,
    "Ġremoter": 20104,
    "Ġslain": 8953,
    "Ġgrated": 22801,
    "opard": 9290,
    "lamp": 9608,
    "eager": 12457,
    "oded": 11669,
    "Ġtanning": 17729,
    "Ġbaptized": 25774,
    "Ġapprehension": 7113,
    "Ġepic": 15029,
    "Ġrob": 1305,
    "Ġhorizont": 6937,
    "arrangement": 17414,
    "iminished": 19021,
    "Ġmountain": 3375,
    "Ġ235": 25713,
    "Ġforms": 6397,
    "tired": 21071,
    "Ġfeebly": 24877,
    "Ġunluckily": 20100,
    "Ġsumm": 3359,
    "Ġeste": 6084,
    "Ġjava": 12310,
    "Ġfunny": 7638,
    "U": 57,
    "leather": 13889,
    "presumption": 20440,
    "requ": 7148,
    "Ġcorps": 13030,
    "advantages": 11271,
    "musket": 25341,
    "Ġkeys": 11995,
    "Ġcurios": 18832,
    "Ġirre": 7468,
    "chel": 11207,
    "Ġcheating": 16365,
    "Ġfemin": 13435,
    "Ġneur": 812,
    "Ġcollections": 22854,
    "zar": 11547,
    "accounted": 16500,
    "aits": 20765,
    "Ġgames": 11625,
    "Ġbraved": 23835,
    "walked": 10570,
    "Ġthom": 21513,
    "nay": 7135,
    "Ġso": 433,
    "Ġproblem": 1270,
    "Ġemploys": 19429,
    "difficult": 10057,
    "earthly": 24724,
    "Ġfoss": 9848,
    "do": 1995,
    "Ġexalted": 12410,
    "Ġang": 2512,
    "cheered": 23804,
    "Ġsmoky": 22555,
    "Ġdiggings": 24649,
    "Ġdon": 1615,
    "Ġ[_": 15460,
    "Ġcolours": 12971,
    "Ġalms": 21777,
    "stave": 21646,
    "Ġcaptain": 1603,
    "lude": 6161,
    "separated": 20158,
    "Ġcaptured": 7245,
    "Ġaffectionately": 13167,
    "flung": 16638,
    "Ġcelestial": 10066,
    "Ġdecks": 6900,
    "repaid": 24491,
    "Ġencounters": 19579,
    "Ġscream": 5934,
    "Ġsweatings": 25710,
    "Ġfriendly": 9819,
    "Ġcompared": 2231,
    "Ġanywhere": 8516,
    "Ġinstituted": 18701,
    "Ġardour": 8042,
    "stein": 5505,
    "Ġ550": 19640,
    "hatchet": 24822,
    "whenever": 11879,
    "kept": 11715,
    "Ġreceptacle": 23189,
    "Ġaccompan": 5513,
    "Ġvariation": 22662,
    "Ġpossible": 2585,
    "Ġintrospective": 20599,
    "Ġpumping": 25643,
    "Ġgroup": 2037,
    "Ġinputs": 843,
    "Ġmexico": 15279,
    "Ġeduc": 4785,
    "Ġpeeling": 22689,
    "into": 3679,
    "Ġjung": 12833,
    "Ġxlvi": 25590,
    "ĠâĢľâĢĻ": 22251,
    "Ġunwaning": 25170,
    "racting": 10352,
    "Ġpertaining": 18449,
    "Ġoverheard": 11772,
    "awn": 3832,
    "Ġpaus": 4298,
    "Ġwig": 9161,
    "Ġreported": 11978,
    "rabb": 15677,
    "Ġunsh": 14114,
    "groom": 8739,
    "Ġmaggie": 26291,
    "Ġflukes": 5266,
    "Ġhumble": 8551,
    "kilt": 4866,
    "ively": 1293,
    "atches": 13845,
    "Ġcapt": 1290,
    "Ġplayers": 12036,
    "agger": 7871,
    "Ġworshipped": 25691,
    "finger": 10093,
    "homely": 25617,
    "Ġgrizzled": 11450,
    "Ġshrimp": 24155,
    "cating": 20801,
    "Ġdoublo": 6078,
    "Ġchristian": 6479,
    "nable": 13761,
    "spass": 18689,
    "atiously": 15520,
    "ĠâĢĶ_": 3460,
    "Ġhypothesis": 14780,
    "Ġfeminine": 15262,
    "Ġroasted": 18460,
    "Ġrevol": 5537,
    "atch": 674,
    "Ġupdating": 2693,
    "Ġeludes": 26554,
    "Ġgretna": 26468,
    "Ġflurry": 18860,
    "osely": 9264,
    "Ġhighness": 22769,
    "Ġdisappointing": 19578,
    "hound": 20894,
    "Ġimproves": 22765,
    "Ġ1778": 25730,
    "Ġbug": 11588,
    "Ġmathemat": 3204,
    "Ġequinoctial": 20531,
    "import": 5668,
    "obey": 11509,
    "Ġtropics": 17067,
    "don": 3544,
    "collar": 19327,
    "!_âĢĶ": 19971,
    "Ġwithered": 19463,
    "Ġexcell": 10417,
    "Ġhanged": 17924,
    "Ġrevellers": 21675,
    "ould": 428,
    "ned": 3493,
    "nowhere": 18418,
    "Ġwillow": 18531,
    "rous": 3750,
    "Ġdrinking": 12166,
    "Ġadored": 18291,
    "Ġseams": 12122,
    "Ġprofundities": 20452,
    "Ġexactness": 23603,
    "qu": 369,
    "devilish": 17082,
    "binder": 17499,
    "Ġdolphin": 17311,
    "itters": 10781,
    "Ġrad": 4962,
    "Ġineffectual": 17383,
    "Ġprodigiously": 14931,
    "a": 69,
    "ilent": 21717,
    "Ġminiatures": 20320,
    "Ġprudent": 9185,
    "Ġorigin": 4119,
    "Ġfra": 1801,
    "Ġmarshalled": 25315,
    "Ġending": 18189,
    "Ġprize": 11946,
    "Ġlevels": 12695,
    "saf": 11524,
    "deception": 22142,
    "Ġalternative": 19985,
    "vius": 23541,
    "Ġpattern": 1346,
[...]
