{
  "metadata": {
    "vocab_size": 26614,
    "algorithm": "BPE",
    "created_at": "2026-08-27 12:19:14",
    "special_tokens": [
      "<PAD>",
      "<SOS>",
      "<EOS>",
      "<UNK>",
      "<MASK>"
    ]
  },
  "vocab": {
    "impatiently": 20469,
    "rating": 7808,
    "olets": 21007,
    "conduct": 11795,
    "Ġhel": 3785,
    "Ġt": 261,
    "objection": 19914,
    "abri": 6682,
    "entreaties": 26185,
    "convul": 24883,
    "Ġcourse": 2132,
    "Ġsisterly": 16301,
    "Ġsteeply": 23723,
    "fishery": 10031,
    "georgiana": 26020,
    "aciously": 12904,
    "ellect": 7381,
    "pictures": 15089,
    "diss": 17523,
    "istan": 22105,
    "Ġancles": 21444,
    "Ġcommunicate": 10577,
    "stiff": 12672,
    "Ġdevilish": 11228,
    "mass": 12487,
    "ahab": 4289,
    "Ġconstables": 19070,
    "ogue": 9784,
    "Ġclicked": 22349,
    "Ġcommitting": 22670,
    "te": 996,
    "arken": 18667,
    "Ġauthentic": 20533,
    "Ġties": 12524,
    "Ġmaddened": 17244,
    "aling": 1034,
    "Ġcaroline": 7254,
    "Ġvinegar": 20098,
    "Ġmoran": 9341,
    "killing": 20941,
    "cons": 4308,
    "Ġsweat": 13139,
    "front": 12168,
    "Ġspouter": 12795,
    "anqu": 4110,
    "Ġxxiv": 24477,
    "Ġforbear": 17121,
    "Ġwalked": 3140,
    "Ġtransp": 4770,
    "Ġsalesman": 13667,
    "Ġactor": 16047,
    "Ġexacted": 23602,
    "Ġkirwin": 8496,
    "Ġdummy": 25449,
    "ess": 411,
    "Ġsoldier": 16920,
    "Ġmedium": 16681,
    "Ġcomputes": 4768,
    "Ġringbolts": 24196,
    "Ġoverdone": 22356,
    "Ġlonged": 6436,
    "Ġessentials": 20001,
    "Ġsaviour": 20712,
    "Ġkins": 22191,
    "travellers": 24318,
    "Ġarmy": 11739,
    "orated": 12588,
    "character": 6331,
    "Ġposit": 1308,
    "Ġoffended": 7040,
    "ior": 2040,
    "Ġrelieved": 7665,
    "thed": 8826,
    "!âĢĶ": 2457,
    "Ġ1950": 11359,
    "pious": 17633,
    "anelles": 26434,
    "shut": 10981,
    "Ġwine": 6810,
    "Ġweapon": 7775,
    "spiracle": 22734,
    "Ġmajesty": 5201,
    "iceland": 21563,
    "ushing": 5730,
    "rous": 3752,
    "Ġconsternation": 9858,
    "Ġenjoined": 18191,
    "Ġupbra": 22151,
    "Ġgardens": 16452,
    "Ġjudiciously": 23876,
    "Ġspell": 8855,
    "ional": 1086,
    "Ġevident": 6612,
    "Ġstreams": 12190,
    "thomas": 18219,
    "lived": 12484,
    "Ġdavy": 25951,
    "ran": 11515,
    "sle": 9138,
    "constantly": 24606,
    "spark": 18690,
    "Ġderivatives": 2371,
    "Ġspend": 5304,
    "Ġattend": 5036,
    "Ġ43": 14769,
    "Ġasse": 8159,
    "Ġcrouching": 23442,
    "Ġodds": 13328,
    "ously": 2492,
    "visual": 24222,
    "Ġethiop": 26155,
    "Ġpersuaded": 5769,
    "Ġingolstadt": 8332,
    "Ġcovers": 18592,
    "Ġneglecting": 25007,
    "Ġalbert": 12703,
    "iple": 4806,
    "Ġexhaled": 19681,
    "Ġheadache": 22895,
    "ested": 3478,
    "Ġderbyshire": 6586,
    "considering": 12172,
    "Ġconcert": 11964,
    "skinned": 25387,
    "Ġtremble": 6906,
    "archical": 1923,
    "bows": 10081,
    "Ġstepdaughter": 22610,
    "Ġordinary": 6096,
    "Ġmabel": 17323,
    "appears": 12058,
    "Ġposs": 1618,
    "scho": 8759,
    "itz": 6005,
    "Ġafternoon": 6052,
    "Ġaint": 17744,
    "Ġmainland": 22658,
    "Ġturning": 3326,
    "brill": 16490,
    "Ġdeceived": 6544,
    "Ġxxi": 24476,
    "Ġroads": 13287,
    "Ġcavity": 20486,
    "Ġunlocked": 14119,
    "shortened": 24748,
    "Ġtantamount": 25625,
    "Ġguided": 10460,
    "Ġhal": 1361,
    "Ġnet": 3625,
    "Ġdeaden": 23459,
    "Ġcompanion": 3642,
    "conced": 22469,
    "Ġsizes": 1520,
    "advent": 10220,
    "Ġsignifies": 19202,
    "Ġfeature": 739,
    "Ġfiery": 6871,
    "shout": 22451,
    "uary": 11537,
    "©": 107,
    "tipt": 25083,
    "_.âĢĿ": 5885,
    "aphs": 22333,
    "educated": 17259,
    "Ġchronicled": 25328,
    "Ġrealised": 18981,
    "consolation": 15151,
    "Ġshock": 6082,
    "Ġsolic": 7933,
    "Ġoverbearing": 12840,
    "omnipotent": 25964,
    "Ġpresum": 4837,
    "Ġeducation": 5128,
    "Ġsnatching": 10472,
    "Ġuncovered": 23430,
    "ethics": 8877,
    "Ġkind": 1785,
    "Ġspur": 18303,
    "Ġdescribed": 6606,
    "disaster": 23491,
    "incing": 15484,
    "Ġweedy": 15790,
    "Ġbowl": 11204,
    "Ġgrowth": 14629,
    "Ġbeck": 14008,
    "Ġpain": 2304,
    "Ġreliable": 18776,
    "Ġdiscerned": 25003,
    "Ġripples": 25505,
    "Ġargue": 16783,
    "Ġparticle": 18671,
    "presence": 18490,
    "tuning": 1581,
    "remained": 8569,
    "antages": 7192,
    "bu": 5132,
    "vid": 914,
    "Ġconfine": 14506,
    "dation": 2613,
    "doom": 23375,
    "Ĕ": 213,
    "Ġpatched": 16388,
    "wid": 10134,
    "reng": 4002,
    "Ġwire": 13851,
    "Ġburglar": 17354,
    "Ġdifferently": 10388,
    "estic": 4956,
    "bright": 8989,
    "abound": 15737,
    "immed": 9217,
    "confidence": 16808,
    "Ġrandom": 1587,
    "found": 4211,
    ";--": 8068,
    "Ġgazed": 6478,
    "consciously": 19624,
    "Ġbro": 1431,
    "arthy": 4822,
    "string": 15683,
    "displeasure": 23493,
    "Ġconjecture": 9531,
    "Ġscho": 4436,
    "lotts": 23823,
    "eldom": 4413,
    "leviathan": 7784,
    "ipt": 12476,
    "heeded": 13833,
    "glancing": 11214,
    "Ġgoing": 2067,
    "Ġensigns": 23687,
    "Ġrigger": 19529,
    "erably": 7573,
    "ithmetic": 18061,
    "Ġmusty": 22677,
    "joy": 3335,
    "Ġmuscles": 12086,
    "hollow": 24037,
    "Ġcompromised": 22568,
    "Ġmature": 17799,
    "dared": 13701,
    "Ġchoked": 9263,
    "sprang": 19989,
    "tap": 17676,
    "Ġhen": 3500,
    "Ġlaughter": 9027,
    "Ġseals": 11695,
    "Ġsuperiority": 14616,
    "Ġpuff": 6526,
    "worm": 15452,
    "meditated": 19067,
    "Ġcruise": 12047,
    "Ġobst": 6284,
    "ome": 535,
    "rief": 6202,
    "Ġresurrection": 12891,
    "explained": 23140,
    "Ġothers": 2582,
    "Ġappearing": 9840,
    "Ġblocked": 19221,
    "Ġpredomin": 16044,
    "perseus": 26005,
    "Ġviciss": 11292,
    "ispiece": 19724,
    "Ġdu": 4583,
    "gratulation": 24349,
    "irection": 2387,
    "Ġskies": 8920,
    "Ġillum": 9399,
    "explanations": 25234,
    "Ġoverlapping": 26238,
    "Ġretrie": 10382,
    "Ġpropriet": 9549,
    "Ġproducing": 11897,
    "leading": 15559,
    "Ġwestern": 10654,
    "ilst": 8143,
    "Ġlun": 7855,
    "Ġwearing": 12736,
    "Ġcope": 17830,
    "Ġinvoked": 19144,
    "Ġvolume": 6769,
    "Ġbashaw": 25633,
    "kington": 11203,
    "Ġquestionable": 19265,
    "mosphere": 10042,
    "Ġfeeling": 3084,
    "born": 7543,
    "reigned": 21241,
    "ser": 1426,
    "Ġpersuading": 19408,
    "Ġuse": 824,
    "Ġatone": 15800,
    "buoy": 7760,
    "imental": 16533,
    "Ġpince": 21469,
    "Ġacquirement": 19254,
    "Ġultimately": 17164,
    "Ġheavenly": 12082,
    "Ġcetology": 10008,
    "calmed": 16203,
    "tort": 17675,
    "Ġpines": 12614,
    "Ġmeanly": 12906,
    "unvarying": 21884,
    "Ġjewelled": 20182,
    "Ġ(": 594,
    "stige": 21658,
    "ception": 6562,
    "Ġfurniture": 6476,
    "bers": 2570,
    "Ġfigured": 16643,
    "Ġintrude": 25990,
    "Ġsnaky": 23741,
    "Ġputs": 19029,
    "otion": 4946,
    "Ġnecks": 18183,
    "tered": 2230,
    "ford": 2822,
    "meryton": 10111,
    "Ġtak": 15468,
    "Ġprotect": 6337,
    "bable": 8718,
    "achusetts": 20709,
    "Ġtistig": 26413,
    "nowledge": 10289,
    "le": 279,
    "Ġunhappily": 18262,
    ",--âĢľ": 19195,
    "comp": 3814,
    "Ġsavor": 23873,
    "hew": 5364,
    "Ġshabby": 14110,
    "chery": 24551,
    "Ġenticing": 22743,
    "itical": 5801,
    "Ġfabric": 25947,
    "Ġhopkins": 23127,
    "Ġnecessity": 7296,
    "Ġcured": 21345,
    "Ġzodiac": 16173,
    "ively": 1299,
    "Ġeconomical": 25287,
    "Ġulster": 14997,
    "ner": 1373,
    "Ġexpect": 2306,
    "Ġparchment": 13651,
    "Ġjerked": 19831,
    "Ġwhir": 6393,
    "ators": 7829,
    "engaged": 7452,
    "Ġimbu": 15889,
    "holloa": 19462,
    "Ġconquer": 14026,
    "Ġdy": 2588,
    "Ġexposing": 11832,
    "inuating": 16202,
    "Ġmanned": 9270,
    "philosophy": 13579,
    "perv": 1542,
    "Ġmurderers": 16811,
    "Ġmouldings": 24737,
    "Ġreducing": 1957,
    "covery": 11171,
    "Ġengrossed": 12994,
    "rubbed": 22187,
    "som": 3292,
    "moran": 24152,
    "Ġdirt": 15591,
    "Ġaverage": 3139,
    "floating": 12225,
    "izing": 1067,
    "Ġilliter": 23467,
    "iday": 8829,
    "strate": 12671,
    "Ġtrifling": 10602,
    "Ġdisreputable": 22531,
    "Ġphantoms": 13485,
    "dat": 1703,
    "Ġfusion": 21412,
    "Ġevalu": 2771,
    "Ġcaptioning": 23021,
    "Ġguid": 2637,
    "Ġrokovoko": 22402,
    "aintance": 3569,
    "Ġph": 1546,
    "Ġimmensities": 25330,
    "Ġcities": 17827,
    "Ġhandspikes": 12935,
    "Ġomen": 11575,
    "scotland": 20526,
    "Ġwrap": 24594,
    "dz": 4739,
    "Ġlap": 8436,
    "Ġpantaloons": 20295,
    "Ġisle": 8832,
    "icions": 21560,
    "Ġintelligible": 15939,
    "Ġoaken": 13864,
    "Ġgradual": 20600,
    "Ġtom": 15630,
    "breadth": 20275,
    "Ġplanning": 14750,
    "Ġdislike": 6047,
    "impregnable": 26481,
    "Ġpump": 12618,
    "leness": 4690,
    "Ġcruising": 6913,
    "ying": 1368,
    "Ġxxxii": 24970,
    "Ġrhone": 25230,
    "Ġacquitted": 18898,
    "weakness": 16122,
    "puzz": 17640,
    "Ġdeterm": 1271,
    "Ġcheat": 19017,
    "arr": 3047,
    "Ġfanned": 19099,
    "Ġemblazonings": 26046,
    "endar": 18362,
    "Ġlongitudes": 22631,
    "Ġchancery": 20715,
    "attery": 18502,
    "care": 4928,
    "Ġcried": 1489,
    "Ġaccounts": 7207,
    "Ġlouder": 13467,
    "ios": 2120,
    "Ġautoregressive": 3431,
    "Ġbordering": 17228,
    "Ġstrongly": 5657,
    "Ġmoles": 22429,
    "crated": 16696,
    "expedition": 26078,
    "Ġindestruct": 22955,
    "bered": 4504,
    "Ġloftiest": 16874,
    "ounce": 6557,
    "Ġintruder": 25991,
    "playful": 24357,
    "Ġgoodly": 22819,
    "Ġsurmisings": 26593,
    "Ġperched": 10299,
    "Ġcompromising": 22570,
    "Ġholes": 16406,
    "Ġprospect": 4705,
    "ged": 1513,
    "urred": 8449,
    "Ġjacob": 1897,
    "Ġcherry": 16935,
    "torn": 17682,
    "gging": 7696,
    "Ġgrec": 18961,
    "Ġleaks": 16447,
    "jam": 15370,
    "equ": 6790,
    "Ġbreaths": 14856,
    "Ġcompos": 22566,
    "surv": 24213,
    "clopÃ¦": 13053,
    "Ġdivide": 12108,
    "Ġxavier": 2855,
    "Ġempt": 5051,
    "distrustful": 26330,
    "Ġslung": 23166,
    "vill": 10735,
    "Ġprosecut": 9697,
    "Ġdifferent": 1429,
    "irwin": 8468,
    "utmost": 21585,
    "ez": 5683,
    "returned": 7765,
    "Ġfast": 1717,
    "mown": 20969,
    "Ġexecution": 6927,
    "urously": 18050,
    "Ġpersonages": 23539,
    "greatly": 16623,
    "olently": 15754,
    "Ġmichaelmas": 26374,
    "Ġany": 688,
    "pardonable": 17217,
    "Ġplantation": 11423,
    "Ġprophetic": 20018,
    "Ġshutting": 14758,
    "Ġrecompense": 14837,
    "elephant": 12349,
    "tried": 13793,
    "Ġstores": 18068,
    "mor": 4212,
    "Ġsupposing": 6729,
    "Ġsaville": 15887,
    "Ġfever": 6558,
    "max": 1686,
    "Ġaffidavit": 20723,
    "Ġwinds": 5746,
    "Ġ98": 24593,
    "forming": 15916,
    "attoo": 6807,
    "matter": 5136,
    "Ġmonoman": 7938,
    "Ġtinge": 25087,
    "Ġfortresses": 23620,
    "Ġworshipper": 25692,
    "Ġbree": 5012,
    "approaching": 15011,
    "Ġnour": 10830,
    "Ġspecialized": 3918,
    "Ġportly": 14678,
    "Ġrapturously": 24888,
    "species": 13255,
    "Ġcharlotte": 3887,
    "problems": 11434,
    "Ġmerchantmen": 19859,
    "Ġhasten": 10478,
    "Ġchurned": 18384,
    "Ġunful": 22008,
    "Ġsuite": 18277,
    "Ġretrogress": 23071,
    "Ġdenoted": 16565,
    "Ġwonderfully": 10430,
    "Ġmoulton": 17434,
    "Ġdown": 830,
    "approve": 19935,
    "Ġmost": 1020,
    "Ġmovements": 24359,
    "Ġmathematical": 3351,
    "intense": 22933,
    "Ġchemist": 11134,
    "Ġsheath": 14151,
    "oboam": 9357,
    "Ġremoved": 5274,
    "Ġsagaciously": 24731,
    "ered": 1685,
    "Ġdinn": 23978,
    "Ġspe": 820,
    "Ġdeportment": 22606,
    "Ġpendulous": 25955,
    "Ġspaulding": 11729,
    "Ġminiatures": 20320,
    "Ġacceptable": 16744,
    "Ġexperience": 1382,
    "Ġsuppress": 13021,
    "Ġworship": 10366,
    "Ġforts": 21769,
    "Ġhouses": 6138,
    "fight": 17538,
    "iest": 4036,
    "arth": 4443,
    "love": 9293,
    "Ġdesired": 4664,
    "Ġ75": 19611,
    "Ġspatial": 2727,
    "Ġboa": 22632,
    "Ġorlop": 22090,
    "Ġtoad": 21507,
    "Ġghast": 9209,
    "Ġchap": 5933,
    "Ġmungo": 25631,
    "Ġintimacy": 8700,
    "Ġclimate": 9274,
    "Ġnetherfield": 3929,
    "Ġlucerne": 23862,
    "recurring": 24194,
    "Ġdiv": 3731,
    "tol": 17672,
    "Ġbroke": 5322,
    "Ġfluttered": 16248,
    "azing": 7704,
    "salesman": 20670,
    "Ġlengthened": 25958,
    "during": 6787,
    "Ġman": 544,
    "Ġaccumulation": 2691,
    "elve": 4641,
    "Ġelement": 6898,
    "Ġmizzen": 20288,
    "Ġslighted": 16567,
    "unknown": 10890,
    "aculate": 16080,
    "Ġhangs": 11605,
    "iled": 1764,
    "âĢľâĢĶ": 10872,
    "Ġosc": 2836,
    "Ġdepartment": 24241,
    "Ġoppose": 16518,
    "Ġinfernal": 11958,
    "regular": 3044,
    "tie": 21067,
    "presume": 25670,
    "Ġisol": 8833,
    "olstad": 7611,
    "Ġrat": 4353,
    "Ġneed": 2607,
    "acked": 10973,
    "delirious": 19504,
    "Ġsubjected": 23570,
    "Ġridge": 14818,
    "Ġunexpected": 6841,
    "insensibility": 23067,
    "Ġwes": 8778,
    "Ġmemorable": 16426,
    "elder": 21569,
    "Ġtest": 1609,
    "Ġoverfitting": 1540,
    "converse": 22474,
    "extracts": 22756,
    "anyth": 5438,
    "Ġproduce": 4366,
    "inquire": 16932,
    "Ġsummoning": 23872,
    "colnett": 19329,
    "Ġpreach": 14172,
    "shaped": 10309,
    "Ŀ": 256,
    "Ġepistle": 24904,
    "stern": 8444,
    "Ġvolition": 14797,
    "conven": 6162,
    "Ġinsulated": 23678,
    "odings": 4399,
    "Ġnotable": 18222,
    "Ġaddress": 2272,
    "Ġjot": 11761,
    "Ġwaterproof": 19086,
    "Ġbench": 7238,
    "Ġlens": 8437,
    "Ġlover": 7193,
    "Ġtwisted": 7228,
    "Ġastonishing": 10501,
    "mis": 4520,
    "cous": 8721,
    "aret": 7417,
    "beer": 22484,
    "suitable": 18632,
    "Ġconveniently": 20077,
    "Ġaffectation": 14440,
    "Ġjoky": 18406,
    "Ġtwinkle": 12321,
    "ky": 4519,
    "Ġjapan": 7639,
    "Ġsolitudes": 22883,
    "hatch": 15363,
    "_.,": 14562,
    "Ġscand": 7203,
    "Ġyour": 633,
    "Ġpropont": 16348,
    "Ġmention": 2989,
    "Ġpaid": 5015,
    "Ġdenny": 9001,
    "uture": 1071,
    "Ġprincely": 24148,
    "algorith": 3377,
    "Ġpres": 9731,
    "Ġunsupervised": 2447,
    "abash": 18107,
    "Ġsisters": 3639,
    "Ġsaleve": 17390,
    "Ġdec": 641,
    "Ġassert": 7120,
    "finish": 24384,
    "Ġdeficient": 18824,
    "Ġnext": 2140,
    "circum": 16737,
    "Ġperformer": 18757,
    "83": 13679,
    "Ġcandles": 9907,
    "Ġescorted": 23504,
    "Ġcells": 13884,
    "Ġcanst": 8857,
    "ulous": 4450,
    "generative": 4329,
    "Ġcorpora": 26580,
    "Ġcottage": 4734,
    "market": 16839,
    "Ġmarbles": 18872,
    "elaborate": 21573,
    "cst": 10084,
    "Ġrenegades": 26476,
    "Ġpursuit": 4733,
    "ċ": 204,
    "Ġhowever": 1307,
    "further": 7535,
    "Ġsupper": 4665,
    "irst": 879,
    "Ġerr": 1322,
    "empl": 5724,
    "Ġderick": 9364,
    "Ġbottom": 3674,
    "satisfactory": 16893,
    "icts": 22404,
    "Ġjudged": 12081,
    "sheep": 23084,
    "Ġwatching": 4854,
    "intment": 4720,
    "Ġ6": 5141,
    "anous": 21357,
    "Ġremorseless": 13450,
    "Ġadjusted": 23457,
    "Ġiter": 2956,
    "Ġcoaxing": 18596,
    "Ġembod": 14417,
    "augh": 1783,
    "Ġharness": 17927,
    "infallibly": 26417,
    "avo": 8517,
    "Ġbosom": 6939,
    "Ġimply": 18444,
    "Ġere": 3685,
    "Ġtradesman": 20071,
    "Ġhing": 11603,
    "comes": 5394,
    "convolutional": 4958,
    "Ġlimit": 10443,
    "ortations": 22255,
    "Ġentertaining": 16926,
    "chess": 16573,
    "Ġmysterious": 7527,
    "Ġspecks": 14306,
    "Ġintruding": 21988,
    "itted": 2442,
    "Ġfollies": 16254,
    "obtained": 23093,
    "espe": 3496,
    "Ġlashes": 17966,
    "Ġcontin": 5382,
    "log": 18534,
    "Ħ": 231,
    "Ġ101": 24409,
    "strong": 6322,
    "Ġlakeman": 6986,
    "Ġdistrustful": 25054,
    "Ġextravagance": 17279,
    "rowsers": 8694,
    "itating": 9650,
    "Ġ48": 24081,
    "Ġremoving": 12114,
    "advise": 24217,
    "Ġseethe": 21960,
    "Ġcircumstance": 4987,
    "Ġdoleful": 18376,
    "Ġknave": 11272,
    "iogn": 20920,
    "Ġperth": 7022,
    "reluct": 26163,
    "rance": 5993,
    "ogrand": 26261,
    "Ġtattooing": 15027,
    "Ġphilosophical": 26334,
    "atch": 670,
    "Ġ68": 24370,
    "alliance": 22197,
    "kovoko": 20668,
    "rice": 13776,
    "Ġspectators": 19405,
    "Ġhooks": 14967,
    "Ġmarlingspike": 26579,
    "Ġcontroverted": 23249,
    "oting": 2744,
    "sharks": 14240,
    "Ġadv": 1101,
    "Ġsemi": 11967,
    "appe": 2947,
    "Ġlack": 17963,
    "Ġanimating": 23422,
    "somewhere": 12011,
    "sed": 4175,
    "Ġheredit": 9216,
    "itche": 7578,
    "Ġreceipt": 20354,
    "pil": 15407,
    "Ġgroups": 3718,
    "Ġpure": 6137,
    "mother": 5480,
    "Ġchosen": 7201,
    "Ġconfessed": 8008,
    "Ġvain": 3628,
    "Ġgoodge": 22820,
    "sofa": 26146,
    "malice": 17604,
    "Ġmechanical": 7936,
    "Ġcast": 3605,
    "Ġwardrobe": 17225,
    "Ġexhausting": 24710,
    "Ġbelieving": 8224,
    "Ġagitation": 6865,
    "Ġdiscretion": 10347,
    "undoubtedly": 13310,
    "mush": 20976,
    "Ġsocial": 7007,
    "Ġpicture": 4856,
    "Ġmerry": 5868,
    "Ġrepresent": 1210,
    "Ġprobed": 18734,
    "Ġcoils": 9302,
    "Ġhinted": 6011,
    "Ġsust": 7006,
    "furnished": 20240,
    "eze": 20846,
    "cruet": 17026,
    "Ġendued": 14076,
    "loom": 18535,
    "haust": 5777,
    "pain": 7350,
    "farm": 15350,
    "ied": 941,
    "Ġflapped": 23010,
    "Ġconducted": 10502,
    "Ġlabelled": 23326,
    "correct": 24483,
    "extinguish": 22755,
    "Ġ78": 19612,
    "Ġhymn": 24518,
    "earthly": 24724,
    "spouter": 22732,
    "sis": 1925,
    "Ġ114": 24438,
    "ousness": 10274,
    "Ġ8": 5433,
    "cil": 8720,
    "cry": 12443,
    "Ġexhibition": 14956,
    "Ġhospital": 15039,
    "Ġlocations": 12411,
    "Ġyonder": 7392,
    "Ġmistake": 6203,
    "Ġprom": 1526,
    "Ġsleeping": 6319,
    "Ġsmelling": 16064,
    "Ġsurmount": 19999,
    "Ġdecision": 2675,
    "Ġfurnished": 6475,
    "Ġphyseter": 26586,
    "Ġfounded": 8556,
    "Ġexpiration": 22622,
    "Ġtinted": 13821,
    "Ġmiscellaneous": 17462,
    "Ġ*/": 10373,
    "Ġtransient": 18481,
    "bench": 16803,
    "merit": 19280,
    "attacked": 23119,
    "Ġprior": 11318,
    "taining": 7206,
    "useless": 14594,
    "Ġclattered": 22346,
    "Ġnaturally": 2469,
    "Ġways": 5396,
    "Ġsouthampton": 24307,
    "Ġtelesc": 12989,
    "Ġuncont": 14115,
    "Ġrivers": 9441,
    "Ġtakes": 5007,
    "Ġgossiping": 26243,
    "Ġmanagement": 8192,
    "works": 6589,
    "Ġsuggestive": 11297,
    "ffic": 22148,
    "Ġfarm": 7840,
    "Ġpri": 5813,
    "Ġmult": 1022,
    "ument": 5240,
    "Ġmanipulation": 10658,
    "Ġasks": 5115,
    "Ġvaults": 17153,
    "prepare": 20211,
    "diligence": 26110,
    "masterly": 24530,
    "Ġrespective": 16343,
    "exasper": 22424,
    "Ġleatherhead": 20012,
    "hanging": 10100,
    "Ġnervously": 19183,
    "ĠĠĠĠĠĠĠĠĠĠĠĠĠĠĠĠĠĠĠĠĠĠĠĠĠĠĠĠĠĠĠĠĠĠĠĠĠĠĠĠĠĠĠĠĠĠĠĠĠĠĠĠĠ": 20038,
    "Ġdaughter": 2870,
    "Ġkith": 22189,
    "quest": 4537,
    "ss": 397,
    "Ġmanage": 7640,
    "Ġhurry": 4913,
    "Ġcathedral": 17412,
    "ment": 690,
    "Ġretiring": 16279,
    "ede": 21503,
    "Ġga": 4446,
    "business": 5610,
    "Ġcrowd": 6336,
    "Ġsaturation": 2062,
    "Ġfinancier": 26583,
    "proportion": 16178,
    "Ġrifle": 18212,
    "inter": 2952,
    "Ġcrozetts": 19628,
    "Ġmachinery": 20483,
    "Ġfireplace": 13144,
    "Ġhappen": 5571,
    "endure": 22220,
    "Ġenlarged": 25985,
    "Ġopenness": 18956,
    "ashes": 6015,
    "Ġsolemnity": 9940,
    "Ġfeat": 10937,
    "Ġslowly": 3617,
    "Ġslim": 18936,
    "tall": 17673,
    "ubl": 3594,
    "Ġestab": 6315,
    "Ġspies": 22125,
    "Ġthem": 638,
    "Ġreliably": 22877,
    "Ġmister": 22757,
    "Ġport": 3309,
    "Ġour": 1009,
    "Ġrags": 18643,
    "Ġharp": 17923,
    "quis": 7869,
    "Ġglistened": 20171,
    "Ġprodigiously": 14931,
    "marrying": 19546,
    "Ġmalay": 24391,
    "hetically": 21207,
    "Ġundeserving": 18268,
    "Ġcoleridge": 18766,
    "places": 7876,
    "Ġhey": 11640,
    "Ġantics": 24178,
    "Ġk": 484,
    "maltese": 24795,
    "Ġstrategy": 2419,
    "Ġhereditary": 10664,
    "Ġcontrol": 13078,
    "Ġfondly": 19615,
    "reject": 21235,
    "Ġconvivial": 16548,
    "ullied": 23102,
    "Ġfriendless": 23025,
    "Ġminutest": 14560,
    "Ġwint": 15531,
    "Ġscrutin": 26014,
    "Ġoverpower": 12839,
    "nament": 11506,
    "Ġtowers": 16738,
    "Ġcoun": 4176,
    "Ġsnarled": 25716,
    "Ġirreducible": 5519,
    "Ġsling": 21219,
    "Ġbeast": 7179,
    "Ġalt": 18098,
    "rob": 5534,
    "anged": 3587,
    "icil": 17971,
    "Ġforked": 11663,
    "never": 3151,
    "ict": 600,
    "Ġassociated": 12247,
    "solut": 3364,
    ",âĢĶ": 3170,
    "Ġfunctional": 3050,
    "Ġhor": 1663,
    "Ġgoring": 21601,
    "Ġfoes": 11949,
    "Ġinquiries": 5678,
    "Ġlandless": 23377,
    "Ġconstraints": 2740,
    "Ġwith": 349,
    "Ġdeplored": 20503,
    "ú": 187,
    "Ġextraction": 11252,
    "Ġpropensity": 18996,
    "Ġturbid": 23610,
    "ulus": 21861,
    "sleeve": 26108,
    "animated": 14974,
    "Ġpermit": 9748,
    "Ġmeasures": 1204,
    "Ġimprudence": 10297,
    "ily": 1032,
    "Ġretort": 23068,
    "Ġconfided": 19031,
    "tranqu": 14705,
    "Ġfeast": 10277,
    "mushroom": 26395,
    "Ġutmost": 5496,
    "apology": 22331,
    "allet": 11083,
    "Ġclassification": 1092,
    "Ġkeen": 4612,
    "ancho": 4938,
    "Ġrepaired": 13106,
    "Ġdelicious": 14792,
    "Ġmisgivings": 15289,
    "alescing": 23864,
    "Ġdrawer": 13264,
    "Ġbeseeching": 26311,
    "obst": 11930,
    "Ġfluctuating": 24417,
    "Ġwife": 2586,
    "Ġpoultry": 17440,
    "Ġmagnific": 16317,
    "Ġforeheads": 23447,
    "inte": 5144,
    "Ġsympathised": 14861,
    "Ġmantle": 25274,
    "Ġbellies": 13354,
    "Ġpoets": 11819,
    "Ġbreeding": 14522,
    "frankenstein": 11391,
    "pidation": 18886,
    "Ġextravag": 11253,
    "Ġsmut": 22553,
    "stones": 11635,
    "lances": 15382,
    "Ġwinchester": 10065,
    "Ġseven": 4541,
    "assed": 6421,
    "Ġstoutest": 24628,
    "Ġmurder": 4280,
    "ccess": 3182,
    "Ġresnet": 5473,
    "Ġbug": 11588,
    "Ġ*": 1274,
    "Ġdishonoured": 20389,
    "Ġwarring": 16865,
    "Ġsolar": 22882,
    "achus": 18281,
    "bantering": 25253,
    "Ġconversing": 14633,
    "Ġquestions": 3971,
    "lucky": 24545,
    "Ġanecdote": 26354,
    "Ġquee": 1981,
    "Ġmorose": 18847,
    "conce": 8510,
    "Ġmalacca": 24393,
    "Ġeach": 892,
    "ven": 781,
    "Ġgpt": 4350,
    "Ġchopping": 24219,
    "Ġsafety": 6339,
    "Ġensu": 7874,
    "zetts": 17714,
    "Ġundertake": 14479,
    "Ġentities": 11862,
    "Ġoperation": 11997,
    "unhesitatingly": 26496,
    "Ġaggregate": 25677,
    "windward": 24160,
    "Ġdraw": 3669,
    "riers": 18181,
    "ooping": 21006,
    "remind": 23185,
    ";": 31,
    "Ġhark": 8427,
    "Ġdevice": 1927,
    "bal": 2156,
    "Ġwallowing": 24040,
    "uish": 5431,
    "Ġbeadle": 26484,
    "Ġimprudently": 22385,
    "Ġremarks": 7474,
    "Ġpalsy": 25778,
    "Ġintimately": 24804,
    "adders": 24400,
    "oles": 21004,
    "Ġhousemaid": 14464,
    "Ġinvaders": 23479,
    "itance": 13867,
    "Ġcarpenters": 16752,
    "Ġcandid": 4099,
    "Ġhams": 16612,
    "Ġdeeds": 15756,
    "Ġscandinav": 19959,
    "Ġlargest": 6282,
    "Ġlowers": 23240,
    "Ġscholar": 26111,
    "Ġdair": 17889,
    "ckery": 22087,
    "Ġdebt": 12165,
    "Ġlot": 6678,
    "Ġtargets": 4202,
    "Ġbubbles": 11398,
    "figures": 20120,
    "season": 14033,
    "Ġboats": 2636,
    "Ġinarticulate": 21497,
    "Ġpedro": 14994,
    "trowsers": 17691,
    "Ġmajest": 24058,
    "Ġdefy": 11895,
    "richard": 17286,
    "althy": 8431,
    "acet": 5476,
    "Ġtucked": 12390,
    "Ġsque": 18758,
    "Ġdivined": 19441,
    "favour": 9548,
    "rapt": 13972,
    "Ġfog": 9661,
    "Ġcruelly": 13374,
    "Ġloitering": 22113,
    "Ġtemptation": 8677,
    "Ġdifficulty": 5770,
    "cele": 21622,
    "Ġconducting": 16649,
    "Ġbrave": 6329,
    "od": 351,
    "Ġbuffalo": 11429,
    "Ġdisappo": 4505,
    "shri": 14236,
    "Ġstockings": 19995,
    "feit": 16038,
    "tural": 21065,
    "rians": 21922,
    "Ġsons": 10766,
    "spanish": 14333,
    "Ġcannibal": 7773,
    "ok": 573,
    "Ġimperfect": 13338,
    "Ġscales": 4849,
    "Ġpanted": 21470,
    "speed": 19407,
    "stands": 22432,
    "blue": 13692,
    "Ġperverseness": 13653,
    "Ġstrongest": 11135,
    "Ġtarget": 2821,
    "Ġepit": 18006,
    "Ġthan": 736,
    "Ġhval": 21484,
    "Ġboom": 9309,
    "Ġnur": 5710,
    "Ġfrance": 7681,
    "wal": 10133,
    "rage": 10843,
    "Ġquantity": 6948,
    "elfare": 11775,
    "liament": 16216,
    "Ġviewing": 19263,
    "speechless": 25395,
    "opposite": 19928,
    "Ġreg": 733,
    "Ġsymph": 22208,
    "Ġsends": 14789,
    "Ġwarmth": 6905,
    "Ġpoison": 7219,
    "Ġhammock": 5768,
    "Ġtreas": 7358,
    "Ġtempor": 2366,
    "Ġsolace": 16199,
    "ctu": 5088,
    "tery": 14036,
    "Ġplight": 14280,
    "Ġinteractions": 12900,
    "Ġirretrie": 23372,
    "Ġindebted": 8707,
    "nur": 11505,
    "Ġheat": 5453,
    "Ġtelling": 5747,
    "Ġ11": 5318,
    "volume": 18582,
    "ls": 1291,
    "introdu": 8937,
    "Ġhull": 5446,
    "ansion": 10925,
    "deformity": 22143,
    "arding": 22154,
    "Ġenrolled": 21934,
    "blow": 9103,
    "Ġgazing": 5875,
    "anth": 13886,
    "Ġhers": 7888,
    "Ġthrilling": 19747,
    "Ġelij": 8908,
    "Ġkindest": 23290,
    "gling": 10097,
    "Ġhatch": 7847,
    "Ġcondescension": 10618,
    "gallantry": 15058,
    "Ġenchantment": 24869,
    "Ġboards": 14299,
    "Ġspeech": 4609,
    "erect": 20847,
    "ĠĠĠĠĠĠĠĠĠĠĠĠĠĠĠĠĠĠĠĠĠĠĠĠĠĠĠĠĠĠĠĠĠĠĠĠ": 23665,
    "Ġlearning": 386,
    "enit": 17779,
    "Ġdeft": 21833,
    "Ġwound": 4527,
    "restrained": 16335,
    "kindness": 10505,
    "Ġdesigned": 7740,
    "Ġassaulted": 25320,
    "iciency": 9574,
    "Ġwilled": 21290,
    "Ġsliding": 9363,
    "aming": 5828,
    "Ġxvi": 19104,
    "Ġprocedure": 2808,
    "Ġinfer": 7683,
    "Ġpacked": 9979,
    "Ġinitialization": 1253,
    "Ĺ": 250,
    "Ġrejo": 5915,
    "Ġrim": 21962,
    "Ġgreeting": 18963,
    "rebellum": 26165,
    "itiously": 13870,
    "silence": 8044,
    "Ġdictionaries": 12338,
    "Ġtransport": 11278,
    "Ġhunting": 7259,
    "conc": 3945,
    "testing": 12514,
    "Ġpen": 1531,
    "andes": 18151,
    "erer": 8731,
    "Ġinch": 7849,
    "arying": 9800,
    "promising": 24726,
    "ĠâĢĶ": 13810,
    "instances": 13318,
    "Ġgrinning": 9053,
    "Ġredeem": 20498,
    "Ġerie": 20052,
    "Ġtor": 8105,
    "wa": 5896,
    "Ġcloud": 3909,
    "Ġinhospit": 25452,
    "Ġjoyful": 13219,
    "Ġheavens": 5050,
    "Ġrhyme": 21975,
    "Ġcertain": 1555,
    "Ġ150": 22823,
    "rew": 3647,
    "Ġtapping": 10752,
    "Ġouthouse": 22311,
    "Ġdoors": 6418,
    "Ġsavoury": 23875,
    "Ġplaymate": 23636,
    "Ġduck": 8793,
    "Ġarchitect": 965,
    "Ġostentatiously": 20467,
    "odd": 21806,
    "recovered": 19786,
    "Ġstreaming": 19672,
    "tan": 4742,
    "Ġsight": 2111,
    "Ġanoints": 25538,
    "Ġsending": 8774,
    "mediate": 16512,
    "inquir": 9535,
    "ir": 379,
    "desol": 13066,
    "Ġcome": 1242,
    "Ġunclasp": 26511,
    "Ġsleeps": 10446,
    "bethinking": 25745,
    "sm": 3435,
    "Ġraises": 11841,
    "Ġillinois": 19136,
    "Õ": 150,
    "press": 1730,
    "Ġanaly": 1138,
    "Ġancho": 15600,
    "Ġgrief": 4619,
    "Ġtombed": 25160,
    "Ġinvis": 6902,
    "mitted": 5213,
    "emotion": 21927,
    "Ġscience": 1655,
    "provided": 13636,
    "Ġstrasburgh": 18615,
    "Ġembarrassment": 10626,
    "Ġguns": 16776,
    "Ġluckless": 16797,
    "Ġswift": 3667,
    "Ġpurporting": 19181,
    "Ġdesper": 6176,
    "scoured": 22988,
    "Ġworst": 7444,
    "Ġshift": 2282,
    "Ġillness": 8589,
    "Ġwhosoever": 21716,
    "retion": 9362,
    "cring": 20810,
    "Ġsignify": 16493,
    "has": 4014,
    "pper": 3207,
    "gentlemanlike": 20000,
    "Ġuser": 15914,
    "yonder": 21143,
    "Ġwishes": 4795,
    "officers": 10627,
    "Ġfairest": 20461,
    "feet": 6568,
    "ĠâĢľâĢĻ": 22251,
    "jury": 15372,
    "Ġlegitimate": 20641,
    "soles": 18688,
    "suspended": 15176,
    "tering": 3805,
    "immortal": 21707,
    "Ġdiction": 8794,
    "Ġassent": 12730,
    "Ġdrop": 4344,
    "Ġrestlessness": 23289,
    "Ġunreasonably": 17450,
    "icit": 3379,
    "Ġretarded": 23070,
    "emason": 18186,
    "Ġintrusion": 12762,
    "Ġcalculated": 4475,
    "Ġlayers": 816,
    "Ġnail": 9195,
    "Ġmortification": 12091,
    "Ġanomalous": 25637,
    "Ġsmoothed": 23655,
    "Ġmuchness": 18708,
    "lish": 1951,
    "forest": 22515,
    "red": 398,
    "Ġdisappeared": 5645,
    "vex": 21699,
    "Ġpreferment": 19852,
    "perplex": 18341,
    "Ġpaddock": 25037,
    "aching": 5831,
    "Ġut": 2279,
    "Ġroof": 6564,
    "Ġfron": 14487,
    "Ġfettered": 24568,
    "Ġ1883": 23894,
    "senses": 25022,
    "Ġdispleased": 18555,
    "unreasonable": 18162,
    "grate": 23410,
    "Ġhanover": 20584,
    "genteel": 19947,
    "vap": 13802,
    "Ġvirtue": 4922,
    "Ġbraved": 23835,
    "cruising": 12277,
    "off": 1884,
    "garnished": 26388,
    "Ġargued": 13628,
    "illation": 14141,
    "Ġsag": 6514,
    "Ġpolynes": 16077,
    "Ġalbatross": 10871,
    "hereditary": 26419,
    "lion": 20943,
    "k": 79,
    "Ġsatisfaction": 5667,
    "bur": 4686,
    "Ġgangs": 21606,
    "rosc": 17954,
    "Ġmuteness": 19415,
    "Ġdeeps": 16105,
    "Ġslice": 23158,
    "Ġboscombe": 8325,
    "Ġcharacters": 9371,
    "Ġhousekeeper": 7456,
    "Ġwooden": 4730,
    "Ġdiscours": 18718,
    "gratitude": 16816,
    "cher": 5786,
    "Ġgale": 5822,
    "party": 8992,
    "Ġplaint": 10325,
    "Ġremembering": 14610,
    "Ġrequisition": 22660,
    "Ġconcuss": 19044,
    "rodden": 21532,
    "Ġdecapitated": 20614,
    "upon": 2719,
    "Ġcompute": 2909,
    "sheets": 14441,
    "del": 4076,
    "multiple": 15106,
    "Ġsuccessfully": 19427,
    "Ġinstantaneously": 23656,
    "hullo": 17570,
    "meas": 7434,
    "elling": 5830,
    "Ġtriumphant": 12187,
    "expectations": 24276,
    "ryder": 18648,
    "urches": 12682,
    "Ġsings": 15504,
    "Ġowl": 20082,
    "gy": 2097,
    "Ġauto": 23313,
    "crippled": 26384,
    "eldest": 22799,
    "Ġmightiest": 12958,
    "Ġseeing": 2887,
    "Ġcapric": 14576,
    "Ġcreate": 2091,
    "Ġprofess": 3698,
    "Ġannihilated": 20251,
    "Ġprevent": 756,
    "Ġundulated": 19515,
    "inspector": 13645,
    "minds": 24232,
    "employed": 17261,
    "pay": 10718,
    "Ġpossession": 5589,
    "Ġbankrupt": 16796,
    "Ġguernsey": 9350,
    "Ġcarpent": 4465,
    "flung": 16638,
    "Ġdemocracy": 25458,
    "Ġarctic": 12807,
    "dough": 15334,
    "Ġsubjects": 7072,
    "Ġnursed": 16885,
    "origin": 7581,
    "irements": 22209,
    "Ġalready": 2710,
    "Ġunbelief": 22046,
    "belong": 12120,
    "iary": 15369,
    "ipping": 2205,
    "Ġcontent": 5034,
    "religion": 20574,
    "eye": 6224,
    "ificent": 8183,
    "blame": 14793,
    "Ġstandpoint": 23275,
    "Ġcollinses": 19129,
    "Ġfootfalls": 25866,
    "Ġabstracted": 17182,
    "Ġdrawn": 4275,
    "Ġpassion": 4556,
    "Ġcloth": 9742,
    "Ġvolcano": 24147,
    "Ġjaws": 5593,
    "Ġdefilements": 26284,
    "Ġdears": 18136,
    "harpooneers": 8689,
    "Ġquartered": 20371,
    "Ġdefend": 9339,
    "Ġpracticable": 19061,
    "culous": 11140,
    "whole": 6085,
    "Ę": 217,
    "Ġviolently": 6456,
    "ulated": 6029,
    "Ġconstable": 19068,
    "Ġdisgraceful": 15019,
    "omon": 10206,
    "belongs": 25596,
    "aper": 4999,
    "Ġconcerns": 11965,
    "Ġdrily": 23538,
    "inav": 15482,
    "--âĢľ": 12969,
    "Ġtrifle": 10601,
    "Ġsphy": 18311,
    "Ġkentuck": 19890,
    "omin": 4702,
    "Ġoriginated": 24123,
    "Ġstow": 21727,
    "elev": 12456,
    "etical": 13957,
    "Ġgift": 10840,
    "Ġslaves": 23167,
    "Ġpit": 3420,
    "imming": 9686,
    "Ġintentionally": 24523,
    "ech": 4389,
    "angels": 22103,
    "Ġgrasp": 4663,
    "mock": 5174,
    "Ġwhen": 514,
    "backs": 9390,
    "Ġoversight": 22355,
    "Ġbeau": 9224,
    "truck": 15440,
    "Ġinstructions": 11196,
    "Ġsummarization": 3645,
    "owards": 4593,
    "attending": 18916,
    "Ġcrumb": 16439,
    "adler": 21759,
    "distinguished": 10526,
    "Ġruskin": 25808,
    "print": 23809,
    "both": 5785,
    "Ġurged": 6781,
    "night": 2167,
    "Ġrepair": 11977,
    "fthand": 26386,
    "Ġeuroc": 14958,
    "Ġcontented": 9755,
    "Ġplied": 22595,
    "mbly": 9793,
    "Ġwhales": 1828,
    "Ġrecesses": 17260,
    "Ġ184": 16607,
    "Ġconsuming": 22789,
    "Ġcountrymen": 23594,
    "tish": 17677,
    "Ġwood": 2293,
    "Ġprimitive": 25061,
    "illum": 15867,
    "fortunately": 9450,
    "Ġswept": 7977,
    "Ġsubtile": 20378,
    "cooper": 19188,
    "Ġrecounted": 22737,
    "Ġnails": 12645,
    "Ġaccelerate": 23227,
    "Ġenergy": 2552,
    "amuse": 14051,
    "ipped": 5790,
    "Ġspurn": 18309,
    "ickering": 22667,
    "Ġswinging": 7449,
    "plans": 21949,
    "Ġresigned": 9767,
    "Ġprofounder": 23567,
    "Ġlearned": 2025,
    "cream": 15330,
    "Ġlobster": 11389,
    "Ġlivery": 15997,
    "greeting": 24554,
    "relation": 19445,
    "opened": 7911,
    "Ġintricate": 15136,
    "takes": 21074,
    "among": 6256,
    "Ġcum": 21340,
    "medical": 23339,
    "Ġhugh": 15004,
    "Ġnotes": 7189,
    "ieve": 1661,
    "Ġselected": 9710,
    "Ġglided": 7446,
    "ineering": 21978,
    "Ġrenewing": 19809,
    "Ġerrand": 11085,
    "Ġcordiality": 24395,
    "Ġoffers": 12943,
    "countryman": 24639,
    "characteristic": 24685,
    "politeness": 16906,
    "Ġpol": 2576,
    "Ġgrandeur": 8627,
    "hidden": 17370,
    "Ġjones": 7204,
    "Ġdesert": 6727,
    "pol": 5892,
    "Ġextort": 22716,
    "Ġsaved": 6690,
    "Ġreligion": 11415,
    "Ġfisher": 3219,
    "kshire": 13745,
    "Ġaverse": 11081,
    "Ą": 197,
    "Ġsimil": 2532,
    "ego": 4035,
    "Ġready": 3398,
    "volutional": 1935,
    "Ġletting": 10362,
    "quarter": 11388,
    "Ġfailing": 12135,
    "suspected": 12370,
    "sort": 6798,
    "Ġsusp": 2661,
    "Ġdie": 3961,
    "Ġmonarchs": 25846,
    "Ġkeepers": 23537,
    "5": 25,
    "isters": 11918,
    "Ġseaport": 20598,
    "Ġtet": 21156,
    "Ġclasping": 20208,
    "refusal": 24736,
    "Ġhaught": 10252,
    "forecastle": 10990,
    "ot": 346,
    "Ġminutes": 3003,
    "Ġbundles": 26175,
    "Ġunconditional": 15842,
    "clearer": 24067,
    "emporary": 15795,
    "jacket": 12290,
    "Ġducks": 25157,
    "Ġpalmed": 24090,
    "Ġinformed": 6717,
    "Ġproceeds": 12075,
    "Ġimpertin": 6933,
    "Ġpurse": 12009,
    "utored": 15660,
    "Ġabhor": 5467,
    "Ġvillain": 8635,
    "Ġsuperior": 2752,
    "Ġfairer": 20460,
    "Ġagreeing": 20017,
    "Ġperishing": 22395,
    "Ġ49": 24082,
    "igated": 15704,
    "Ġdarcy": 1343,
    "caut": 20811,
    "Ġunassuming": 20507,
    "arrangement": 17414,
    "Ġbloom": 9886,
    "confirmation": 26089,
    "telesc": 22815,
    "Ġroots": 11185,
    "al": 292,
    "capable": 13700,
    "ivility": 12784,
    "produced": 25414,
    "side": 2302,
    "Ġgrasped": 8033,
    "Ġdemanding": 16805,
    "injured": 15131,
    "Ġelaborate": 18636,
    "Ġduplicates": 17216,
    "interests": 19707,
    "iature": 8741,
    "Ġobligation": 13242,
    "Ġdegradation": 2630,
    "Ġrecommending": 24337,
    "Ġduodecimo": 16767,
    "Ġshaggy": 13569,
    "existence": 16012,
    "Ġsolved": 8931,
    "Ġactionable": 24559,
    "Ġsurmised": 24919,
    "Ġmarry": 4417,
    "recur": 4437,
    "Ġhandsomely": 25497,
    "Ġmincer": 14366,
    "Ġohio": 19128,
    "Ġgest": 8133,
    "Ġhish": 21910,
    "Ġpaddle": 20057,
    "unks": 15772,
    "rified": 15418,
    "Ġpace": 9183,
    "Ġusage": 9729,
    "force": 12956,
    "sacred": 17028,
    "Ġspent": 3963,
    "Ġdeposition": 18610,
    "Ġante": 17896,
    "Ġgloomily": 14800,
    "Ġcolleague": 17159,
    "Ġsimilarity": 3167,
    "Ġhim": 476,
    "aviour": 11004,
    "Ġhanging": 5447,
    "Ġcharger": 19004,
    "Ġbra": 3254,
    "usiveness": 22280,
    "based": 2963,
    "gammon": 20242,
    "Ġchann": 15933,
    "greg": 6647,
    "Ġcastaway": 16640,
    "Ġbrace": 11211,
    "tranquillity": 20545,
    "Ġimped": 18443,
    "Ġdistributions": 1050,
    "Ġearthquake": 14628,
    "Ġhatty": 19264,
    "Ġcirc": 1988,
    "orph": 21397,
    "Ġknow": 631,
    "interesting": 12199,
    "Ġapprehen": 16829,
    "mology": 12489,
    "grinder": 23413,
    "spite": 16135,
    "Ġpoltroon": 26598,
    "retaining": 21244,
    "agings": 18165,
    "Ġcharacteristically": 23689,
    "Ġuncompromised": 20602,
    "Ġproceeding": 9905,
    "Ġhol": 1182,
    "Ġremarked": 3695,
    "Ġprudent": 9185,
    "Ġfulfilment": 20186,
    "coach": 23558,
    "transp": 24512,
    "Ġcrawl": 11375,
    "Ġimpulse": 10023,
    "alty": 17938,
    "Ġeventually": 8616,
    "Ġtoiled": 12639,
    "kerchief": 7525,
    "Ġdarling": 12601,
    "Ġsumatra": 15285,
    "Ġvisions": 12974,
    "cen": 17502,
    "Ġwail": 21285,
    "Ġnominally": 17231,
    "Ġliter": 8811,
    "arity": 1305,
    "bos": 17483,
    "Ġpostmark": 16725,
    "Ġinsular": 19267,
    "aught": 2679,
    "Ġmeaning": 1415,
    "Ġjon": 15946,
    "reated": 10302,
    "Ġrows": 10561,
    "Ġgovernment": 15175,
    "Ġtruck": 19510,
    "Ġsoundings": 13131,
    "Ġstands": 5258,
    "Ġsubl": 7235,
    "counter": 20277,
    "Ġstrikes": 13180,
    "oga": 22702,
    "Ġbiting": 17861,
    "Ġfavourite": 5270,
    "Ġmightier": 18731,
    "Ġpatentee": 25586,
    "Ġjingling": 26017,
    "Ġgout": 21593,
    "Ġcommunicated": 9061,
    "ĠâĢĻ": 3045,
    "Ġinferred": 14500,
    "lesson": 22772,
    "Ġfollows": 7672,
    "Ġhove": 17922,
    "Ġpursuers": 13224,
    "Ġinjuring": 24268,
    "Ġwouldn": 6046,
    "lie": 12480,
    "Ġpreced": 6039,
    "lord": 3862,
    "Ġconsidered": 4610,
    "Ġthrew": 3972,
    "Ġopens": 23625,
    "Ġplumage": 17297,
    "Ġhaggard": 17329,
    "Ġsinging": 7723,
    "Ġplanet": 14749,
    "Ġdrawers": 12103,
    "Ġsurpasses": 25268,
    "haut": 20901,
    "Ġloom": 7628,
    "instrument": 15237,
    "irmed": 9238,
    "Ġpossibility": 7458,
    "ounding": 22391,
    "Ġshouting": 10522,
    "Ġtable": 2500,
    "Ġsuffoc": 18870,
    "Ġgarnery": 17386,
    "inces": 13827,
    "ulate": 5233,
    "ĠâĢĶâĢĶ": 25757,
    "Ġhumility": 12984,
    "Ġfitly": 23996,
    "surpr": 5996,
    "Ġpuzz": 5533,
    "Ġever": 1181,
    "carte": 25400,
    "rushing": 10017,
    "cial": 2646,
    "Ġcorpore": 13400,
    "Ġdri": 2363,
    "stocks": 23818,
    "lod": 15377,
    "bert": 4662,
    "Ġtransparency": 10676,
    "ographical": 16786,
    "Ġvesu": 21946,
    "Ġclanking": 20610,
    "nihil": 9846,
    "Ġbristol": 14379,
    "Ġhump": 5853,
    "Ġdomain": 3466,
    "Ġtriangular": 14858,
    "@": 36,
    "Ġparticularly": 5056,
    "stretch": 13980,
    "Ġcheap": 13087,
    "Ġunctuousness": 17234,
    "Ġsymbol": 7716,
    "Ġtahit": 10754,
    "Ġsymmetry": 20364,
    "greatest": 10493,
    "kindly": 14743,
    "ays": 6683,
    "Ġtechnically": 12364,
    "Ġstartling": 14670,
    "Ġhundredth": 16517,
    "thrown": 8480,
    "pressing": 19012,
    "Ġtin": 15462,
    "Ġvehem": 22886,
    "icles": 17972,
    "Ġtrustees": 24108,
    "Ġkrusenstern": 26377,
    "heum": 17747,
    "tra": 4934,
    "ough": 472,
    "cent": 8072,
    "Ġrocked": 12850,
    "zy": 2667,
    "Ġderision": 16308,
    "izz": 7614,
    "Ġdisastrous": 16058,
    "ampton": 18144,
    "eds": 6674,
    "Ġpole": 6433,
    "ensing": 12893,
    "waters": 11333,
    "Ġpants": 21463,
    "tails": 21085,
    "Ġoutrid": 22312,
    "Ġfinny": 23124,
    "opolising": 25671,
    "Ġrevenue": 26194,
    "sacrifice": 13491,
    "commotion": 24913,
    "Ġopenshaw": 7954,
    "Ġdirectly": 2105,
    "Ġindef": 9189,
    "Ġbeh": 1800,
    "ball": 7792,
    "Ġbegg": 16252,
    "Ġupdates": 1302,
    "tent": 21063,
    "Ġvelv": 10619,
    "Ġarrest": 7409,
    "absolut": 8458,
    "herent": 2530,
    "Ġpowder": 11275,
    "ents": 1895,
    "Ġyear": 3285,
    "swed": 24253,
    "Ġcomplet": 4423,
    "Ġextended": 7921,
    "Ġinstinct": 6574,
    "axed": 8888,
    "ife": 1026,
    "Ġadvice": 4901,
    "tumbled": 21089,
    "Ġsteadily": 8051,
    "Ġexcell": 10415,
    "Ġglacier": 11433,
    "Ġtransformer": 2635,
    "tranquil": 25870,
    "Ġhem": 8445,
    "Ġgoblets": 20517,
    "promontory": 24728,
    "Ġpiteous": 17917,
    "Ġirreduc": 5491,
    "function": 4622,
    "Ġrector": 21673,
    "Ġappropri": 2226,
    "Ġintense": 6157,
    "Ġplanets": 24053,
    "customary": 25895,
    "Ġhorn": 6185,
    "Ġruddy": 17125,
    "giving": 8738,
    "cont": 2923,
    "Ġvulgar": 13603,
    "ampled": 18883,
    "Ġstays": 16561,
    "Ġhistory": 4008,
    "Ġbelf": 21379,
    "Ġashamed": 6403,
    "Ġmouthful": 16574,
    "joining": 19444,
    "ban": 9584,
    "Ġlin": 10833,
    "Ġallured": 14112,
    "vere": 4883,
    "Ġevaluation": 16529,
    "Ġwharves": 13505,
    "Ġslang": 23157,
    "Ġconveying": 19713,
    "Ġtranquil": 7310,
    "Ġgrievous": 13259,
    "determine": 19942,
    "code": 15328,
    "Ġmetaphys": 16412,
    "Ġweeds": 21921,
    "Ġsparkling": 11356,
    "Ġcampaign": 20660,
    "Ġdull": 6384,
    "Ġtowed": 11265,
    "Ġenters": 11025,
    "Ġattitudes": 16094,
    "Ġclergy": 7642,
    "Ġglories": 16237,
    "Ġglared": 13015,
    "terns": 21819,
    "Ġdevices": 2944,
    "Ġtraps": 23078,
    "Ġline": 1850,
    "roy": 7853,
    "keep": 3848,
    "apidated": 22334,
    "Ġproprietor": 12371,
    "Ġmorphology": 3012,
    "Ġsecrets": 9054,
    "Ġminimum": 23039,
    "Ġreverend": 15258,
    "Ġdisabled": 18561,
    "amusement": 15281,
    "Ġorgans": 15863,
    "Ġcollectively": 19966,
    "Ġexpon": 968,
    "atched": 6375,
    "ums": 10272,
    "pudding": 17647,
    "ksome": 10104,
    "wer": 8394,
    "lake": 13748,
    "arabian": 26446,
    "Ġexerted": 15752,
    "tumult": 12421,
    "Ġelevation": 14898,
    "vour": 17699,
    "Ġseclusion": 18208,
    "close": 9985,
    "retched": 3069,
    "atiously": 15520,
    "loa": 18533,
    "Ġliar": 22405,
    "Ġlake": 5227,
    "Ġcarry": 4779,
    "entropy": 1438,
    "omeness": 18015,
    "Ġgrotesque": 26329,
    "Ġyawn": 7609,
    "Ġdenying": 14658,
    "Ġwedding": 4858,
    "Ġrecollected": 8310,
    "taking": 5689,
    "iloqu": 11647,
    "agree": 14066,
    "Ġcommonest": 23087,
    "Ġpromethe": 14467,
    "forgotten": 12414,
    "rush": 7010,
    "strained": 21655,
    "igantic": 5539,
    "stopping": 19348,
    "itoring": 21330,
    "Ġerskine": 17431,
    "resent": 10769,
    "Ġslow": 2379,
    "Ġmuch": 923,
    "Ġisa": 14024,
    "disgrace": 16458,
    "_âĢĿ": 20760,
    "Ġthreshold": 2807,
    "Ġmarshal": 20218,
    "Ġlands": 6594,
    "princ": 8620,
    "kitty": 10105,
    "Ġspared": 7892,
    "ibilities": 13009,
    "Ġpeculiar": 3152,
    "Ġexpose": 10327,
    "Ġlandsman": 11350,
    "Ġrelates": 12978,
    "Ġmechan": 1178,
    "Ġtravels": 11925,
    "desp": 6075,
    "Ġidentified": 19150,
    "osque": 22259,
    "increase": 20267,
    "reported": 24493,
    "Ġpainful": 6462,
    "persuade": 13532,
    "Ġcrowder": 19454,
    "Ġmagic": 8232,
    "Ġoverlook": 10959,
    "Ġadagrad": 2907,
    "Ġvelocity": 10620,
    "bounded": 13438,
    "ĠĠĠĠĠĠĠĠĠĠĠĠĠĠĠĠĠĠĠĠĠĠĠĠĠĠĠĠĠĠĠ": 19699,
    "ctive": 11622,
    "cherries": 19755,
    "Ġdeserved": 7736,
    "Ġsubsequent": 7658,
    "Ġsurp": 9634,
    "Ġsqueaking": 26274,
    "Ġisn": 7865,
    "Ġminister": 18754,
    "Ġrighted": 23176,
    "Ġlong": 795,
    "Ġdegenerated": 20504,
    "expectant": 24275,
    "Ġengra": 7873,
    "itar": 15544,
    "Ġmonth": 2850,
    "chase": 11644,
    "crew": 7544,
    "conditionally": 24834,
    "Ġmarchant": 14785,
    "immedi": 8450,
    "bler": 11472,
    "Ġpeered": 18668,
    "burgh": 6773,
    "Ġblow": 3374,
    "Ġbar": 3147,
    "Ġse": 402,
    "Ġstarry": 16923,
    "Ġsaturn": 22899,
    "ther": 482,
    "duodecimo": 15999,
    "Ġselects": 4385,
    "Ġresist": 7915,
    "Ġunrestingly": 20359,
    "Ġhatter": 4112,
    "Ġcauldron": 25441,
    "Ġharpooneer": 3771,
    "ug": 1766,
    "urous": 10212,
    "Ġfingers": 5672,
    "Ġsharply": 9402,
    "blocks": 25517,
    "Ġbreaching": 23345,
    "Ġstupidity": 15049,
    "pans": 13769,
    "Ġlofty": 6217,
    "scy": 21054,
    "å": 166,
    "Ġindiscreet": 22953,
    "Ġartic": 5314,
    "Ġrepining": 23358,
    "Ġtempered": 12922,
    "Ġwidows": 24236,
    "..": 5783,
    "Ġinexperience": 26099,
    "ermost": 7430,
    "arat": 9180,
    "umpled": 15874,
    "Ġrecklessly": 16983,
    "Ġpray": 3897,
    "brilliancy": 26077,
    "Ġgrazed": 15831,
    "wing": 2519,
    "raint": 18317,
    "Ġshare": 1660,
    "Ġrelaxed": 12981,
    "Ġdelineations": 26058,
    "Ġremove": 7499,
    "alid": 13934,
    "pleasanter": 24044,
    "Ġgloves": 8574,
    "Ġdripping": 13146,
    "Ġsemicircle": 26067,
    "Ġforemast": 12004,
    "atching": 8201,
    "elius": 13286,
    "alter": 10826,
    "Ġmournful": 12334,
    "Ġend": 1487,
    "Ġautomation": 13265,
    "bil": 20770,
    "Ġunfathom": 14788,
    "stately": 18021,
    "Ġtwit": 12926,
    "Ġforwarded": 19041,
    "Ġsammy": 24932,
    "Ġscraggy": 24579,
    "Ġhypocritical": 20737,
    "Ġanvil": 11596,
    "Ġesteem": 7531,
    "Ġdagger": 21435,
    "Ġschool": 5512,
    "Ġspin": 7629,
    "Ġop": 2602,
    "moid": 2452,
    "treacle": 25148,
    "Ġdays": 2078,
    "Ġmanilla": 15957,
    "Ġceases": 19312,
    "Ġcorpusants": 13676,
    "Ġretrieval": 10674,
    "allowed": 5728,
    "Ġlids": 12273,
    "Ġpirates": 9073,
    "Ġshutters": 9936,
    "inqu": 6121,
    "fatigue": 20657,
    "neither": 9756,
    "Ġresumed": 11810,
    "Ġbehaved": 13252,
    "ti": 8389,
    "Ġchowders": 18385,
    "Ġarcher": 22176,
    "Ġrevived": 11368,
    "Ġpicking": 11259,
    "Ġimplies": 24873,
    "Ġentire": 2559,
    "Ġconsp": 10224,
    "Ġshore": 4834,
    "viating": 14579,
    "istol": 6259,
    "Ġahab": 1213,
    "tin": 6116,
    "expressive": 24305,
    "Ġpivot": 13922,
    "Ġgenerally": 4156,
    "Ġbarque": 23789,
    "Ġstolen": 14006,
    "Ġwrapped": 8341,
    "Ġapplies": 11959,
    "years": 6883,
    "vis": 4576,
    "Ġassistant": 7298,
    "isp": 5528,
    "Ġprovinces": 24190,
    "Ġapplicable": 19016,
    "Ġtube": 15003,
    "Ġtown": 2458,
    "blooded": 20021,
    "Ġexulting": 20257,
    "Ġshadow": 5596,
    "post": 6061,
    "Ġreconc": 9682,
    "Ġarriving": 19216,
    "gives": 15356,
    "Ġcan": 468,
    "carrying": 16712,
    "Ġply": 21451,
    "Ġplaning": 22599,
    "Ġfordham": 21773,
    "Ġtime": 692,
    "break": 6101,
    "Ġhandled": 12934,
    "Ġextras": 22717,
    "Ġfooted": 23795,
    "aurus": 20559,
    "Ġdisinclination": 22533,
    "Ġda": 5150,
    "ifferent": 4260,
    "cheered": 23804,
    "Ġabhorrence": 9052,
    "vacancies": 25919,
    "Ġdiscoursing": 26266,
    "Ġjuicy": 25370,
    "Ġcommentators": 25229,
    "metals": 24766,
    "Ġembraces": 19871,
    "Ġpear": 11850,
    "Ġdiagon": 24740,
    "atig": 13844,
    "Ġinsult": 6747,
    "Ġharpo": 1943,
    "Ġdefici": 22940,
    "Ġclaw": 22344,
    "Ġsuperstitious": 13519,
    "Ġburgled": 23652,
    "Ġsuspicions": 9478,
    "Ġtheology": 21275,
    "jaws": 20931,
    "Ġinestim": 15621,
    "ĠĠĠĠĠĠĠĠĠĠĠĠĠĠ": 22560,
    "throughout": 24087,
    "ft": 909,
    "friends": 8305,
    "bolts": 11420,
    "Ġswitching": 23055,
    "Ġwithdrawn": 10606,
    "itself": 7834,
    "mming": 1171,
    "Ġsensit": 2950,
    "Ġflying": 5413,
    "Ġconjunction": 25100,
    "Ġtrades": 8231,
    "Ġfulfil": 9550,
    "ethe": 9676,
    "Ġroods": 22400,
    "dress": 17520,
    "Ġlater": 6016,
    "Ġchar": 1706,
    "speaking": 12096,
    "âĢĶâĢĺ_": 24831,
    "bib": 17491,
    "acks": 11786,
    "geons": 15977,
    "Ľ": 254,
    "Ġoarsman": 8637,
    "Ġtrue": 1340,
    "oker": 10963,
    "Ġinexhaustible": 16981,
    "))": 1516,
    "contempl": 13190,
    "Ġfogs": 25282,
    "Ġaids": 12226,
    "Ġdisclose": 16154,
    "pervading": 18955,
    "Ġhurled": 10429,
    "opement": 10311,
    "Ġremonstrate": 22791,
    "successfully": 14990,
    "reement": 15510,
    "Ġfuriously": 9801,
    "savor": 25024,
    "Ġbristling": 20525,
    "Ġsincerely": 7962,
    "mark": 5281,
    "hum": 3777,
    "Ġfins": 9663,
    "Ġweakened": 16823,
    "Ġmast": 2903,
    "Ġeffective": 1247,
    "least": 8784,
    ",âĢĶâĢĺ": 23801,
    "Ġhedges": 19983,
    "Ġstil": 15715,
    "disappeared": 14570,
    "Ġapoplexy": 25265,
    "obliv": 23094,
    "despair": 8343,
    "yea": 23085,
    "Ġbelted": 22945,
    "Ġhousekeeping": 18943,
    "Ġluxurious": 17310,
    "Ġkissed": 10044,
    "Ġinspecting": 24613,
    "Ġastern": 6090,
    "Ġbutcher": 18271,
    "Ġcontinual": 6777,
    "Ġretribution": 16280,
    "lead": 10165,
    "Ġhorner": 8958,
    "okingly": 22378,
    "Ġver": 3394,
    "sailor": 14714,
    "Ġgarments": 15192,
    "semic": 21818,
    "atisf": 21262,
    "Ġencoder": 3634,
    "Ġefforts": 11801,
    "Ġinnocent": 4921,
    "sham": 9760,
    "Ġvexations": 24609,
    "Ġthereof": 22365,
    "Ġparts": 4164,
    "Ġnostrils": 10943,
    "Ġeither": 2603,
    "Ġsurrender": 16449,
    "Ġhedge": 8363,
    "Ġberg": 24536,
    "Ġprodigies": 19792,
    "Ġcompose": 12899,
    "pulling": 25146,
    "Ġstranded": 9774,
    "gaz": 20877,
    "irement": 18355,
    "Ġbecalmed": 18086,
    "Ġpunctually": 17138,
    "Ġinvest": 4978,
    "encies": 4081,
    "ober": 15405,
    "perse": 15893,
    "Ġfurled": 22811,
    "prow": 15410,
    "relative": 24010,
    "Ġvisited": 5947,
    "Ġillustrative": 25066,
    "Ġbachelor": 7786,
    "ilingly": 21720,
    "Ġfurther": 1056,
    "Ġtear": 6722,
    "Ġfurn": 3709,
    "Ġmorass": 22971,
    "awake": 14452,
    "Ġming": 9645,
    "Ġtandem": 26411,
    "Ġaquiline": 26159,
    "hers": 7635,
    "stream": 15684,
    "cott": 8073,
    "Ġrendered": 5773,
    "Ġwounds": 17790,
    "Ġsorrowful": 10536,
    "Ġju": 10286,
    "gue": 12465,
    "Ġcl": 552,
    "happily": 14657,
    "inch": 10755,
    "Ġendowed": 18924,
    "Ġsufferable": 16259,
    "Ġunrival": 22044,
    "earthquakes": 24725,
    "Ġtacit": 21173,
    "etah": 12658,
    "Ġmuff": 8113,
    "affections": 17356,
    "confusion": 13368,
    "concluding": 19479,
    "leaped": 17843,
    "Ġbranded": 14378,
    "hes": 1398,
    "idirection": 2411,
    "odes": 18117,
    "Ġsnake": 12059,
    "Ġensue": 18190,
    "Ġassociate": 13449,
    "Ġhails": 21947,
    "Ġcharity": 8862,
    "Ġprecipitate": 19940,
    "Ġaltitude": 26202,
    "nes": 6961,
    "habit": 16188,
    "Ġunacquainted": 12773,
    "Ġdread": 3163,
    "onian": 17767,
    "venerable": 26408,
    "grounds": 11151,
    "Ġwer": 12549,
    "sunlight": 24851,
    "Ġlect": 9222,
    "Ġdoze": 14174,
    "Ġpulled": 5660,
    "Ġsummoned": 9910,
    "slipping": 25528,
    "Ġfeebly": 24877,
    "Ġcharmed": 16762,
    "lads": 20954,
    "reproach": 15185,
    "Ġlegendary": 20536,
    "Ġknows": 4159,
    "Ġlongest": 18629,
    "Ġsubstantiated": 25875,
    "comparison": 25840,
    "crawling": 16958,
    "Ġmounts": 17806,
    "Ġsting": 10861,
    "Ġcompletely": 4860,
    "cket": 3687,
    "Ġweights": 896,
    "god": 4863,
    "Ġmenaced": 16291,
    "Ġconcer": 23317,
    "Ġwrecks": 16818,
    "Ġdisquis": 22524,
    "planks": 21951,
    "Ġcomp": 724,
    "Ġproportion": 7281,
    "however": 4372,
    "Ġidentifies": 12013,
    "Ġreappeared": 21662,
    "Ġestimated": 16594,
    "ieged": 22575,
    "Ġcarried": 3693,
    "hundred": 8330,
    "afric": 19178,
    "unfort": 21873,
    "Ġstile": 21729,
    "Ġintercepted": 25826,
    "Ġshaded": 14104,
    "Ġdaily": 5986,
    "bourine": 9395,
    "Ġlifted": 6985,
    "sin": 21047,
    "Ġsedentary": 25430,
    "Ē": 211,
    "Ġcontriv": 9281,
    "ĠĠĠĠĠĠĠĠĠĠĠĠĠĠĠĠĠĠĠĠĠĠĠĠĠĠĠĠ": 9974,
    "Ġkilburn": 18351,
    "Ġshy": 10903,
    "Ġstrides": 22615,
    "fetch": 12462,
    "orter": 4253,
    "Ġdismember": 20214,
    "Ġravines": 25831,
    "vinegar": 25420,
    "nants": 17613,
    "Ġnursery": 19749,
    "Ġtowards": 1728,
    "Ġbusily": 9383,
    "corner": 13396,
    "pump": 21016,
    "could": 2874,
    "Ġempty": 5353,
    "Ġtrous": 10958,
    "Ġcarpet": 9355,
    "outward": 22157,
    "included": 19206,
    "Ġembracing": 14979,
    "Ġcoff": 3505,
    "Ġprevailing": 24673,
    "occasion": 7753,
    "âĢĶâĢĻâĢĿ": 20062,
    "injury": 25213,
    "chancing": 22913,
    "qualities": 25043,
    "Ġinvolve": 11039,
    "harb": 9123,
    "powers": 25410,
    "quent": 2094,
    "Ġhooded": 12404,
    "istic": 988,
    "Ġwhale": 627,
    "female": 20665,
    "unexpected": 15775,
    "Ġcholera": 22250,
    "ed": 293,
    "aud": 8521,
    "Ġdyspeps": 16507,
    "Ġrecurring": 23231,
    "Ġyoungest": 7953,
    "Ġannounced": 9034,
    "Ġbarbary": 24216,
    "Ġinstances": 5568,
    "Ġintermix": 22574,
    "othe": 2614,
    "Ġagonies": 14251,
    "capitals": 25080,
    "Ġbidden": 24646,
    "Ġbuzz": 23994,
    "Ġfurnace": 19438,
    "Ġjudging": 16595,
    "Ġspecimen": 13020,
    "Ġnaut": 13940,
    "Ġskul": 22793,
    "Ġgallop": 19554,
    "Ġcheery": 16366,
    "oted": 4596,
    "evidently": 20344,
    "tit": 11527,
    "âĢĿ)": 21811,
    "abst": 21785,
    "Ġinverted": 12634,
    "fields": 14653,
    "Ġpitch": 5767,
    "Ġadm": 2400,
    "Ġconsistence": 23354,
    "Ġidea": 2488,
    "Ġabominable": 12320,
    "grammar": 6435,
    "swe": 5995,
    "wretched": 10741,
    "Ġridicule": 13511,
    "Ġbred": 9169,
    "Ġgilded": 17444,
    "embow": 21928,
    "Ġmaterials": 11288,
    "youth": 11873,
    "aswag": 21543,
    "Ġbeamed": 23721,
    "Ġillustrate": 25065,
    "Ġforbidden": 17078,
    "impat": 11202,
    "Ġinsert": 19904,
    "alongside": 19788,
    "sensations": 20049,
    "Ġmagnus": 18957,
    "Ġdrama": 16328,
    "Ġsensations": 5259,
    "Ġdeformed": 14046,
    "Ġgib": 13964,
    "Û": 156,
    "occupation": 15056,
    "Ġfairness": 9892,
    "renew": 24450,
    "hook": 12051,
    "Ġinexper": 16980,
    "tack": 12510,
    "occup": 7752,
    "wholly": 10941,
    "Ġflee": 7079,
    "Ġsurround": 4616,
    "lashed": 20953,
    "Ġfanny": 23389,
    "dependence": 17167,
    "Ġtribe": 10751,
    "Ġsoftness": 18917,
    "Ġhyp": 3870,
    "gangway": 20666,
    "Ġmornings": 16234,
    "Ġthanks": 6707,
    "Ġalley": 15733,
    "Ġbumps": 21390,
    "Ġschedule": 2372,
    "Ġnice": 6676,
    "Ġmagnitude": 1944,
    "Ġbowled": 23768,
    "Ġproductions": 22943,
    "Ġstayed": 7997,
    "Ġashes": 7616,
    "garity": 17554,
    "Ġperilously": 24507,
    "hever": 13830,
    "henry": 16625,
    "Ġeddy": 13122,
    "Ġbuilding": 8062,
    "Ġalgorithms": 852,
    "Ġale": 9154,
    "Ġenslaved": 26314,
    "Ġpredecess": 18540,
    "abbering": 21793,
    "Ġpeace": 3692,
    "Ġunra": 18237,
    "Ġhalls": 19524,
    "Ġprepar": 7896,
    "Ġcommunicative": 24548,
    "]]": 5205,
    "nels": 12493,
    "Ġcolle": 8924,
    "iness": 1282,
    "Ġgasp": 7172,
    "Ġtrusting": 24106,
    "Ġposted": 16724,
    "ases": 1522,
    "whis": 7897,
    "uerus": 26406,
    "Ġboomer": 20166,
    "Ġregent": 18597,
    "Ġdouble": 4940,
    "Ġbarbara": 24818,
    "Ġthw": 21512,
    "Ġaim": 10145,
    "Ġportrait": 10661,
    "icy": 6140,
    "pits": 15411,
    "robustness": 26338,
    "induce": 22371,
    "man": 1052,
    "Ġcosy": 13129,
    "Ġadjacent": 20710,
    "Ġ107": 24415,
    "penny": 22942,
    "Ġtwopence": 18660,
    "Ġrecollections": 10512,
    "seeking": 17152,
    "suggested": 17298,
    "terms": 15748,
    "Ġunaccountably": 26515,
    "scra": 13019,
    "Ġshut": 3940,
    "Ġcorroboration": 26053,
    "ger": 1108,
    "Ġlean": 7605,
    "Ġprone": 18970,
    "osis": 18389,
    "perceive": 12808,
    "Ġbattered": 17862,
    "Ġsanely": 24980,
    "Ġrepresenting": 4061,
    "Ġtouch": 3396,
    "Ġattachment": 6049,
    "freighted": 14891,
    "rack": 18010,
    "Ġlegisl": 23531,
    "nnight": 20992,
    "Ġinte": 2066,
    "Ġovertook": 18428,
    "itigated": 23044,
    "client": 18931,
    "Ġpitiless": 19386,
    "rigged": 17062,
    "Ġobstinacy": 17420,
    "Ġnoises": 18373,
    "Ġac": 846,
    "Ġkid": 9724,
    "Ġinferiority": 17115,
    "Ġfancying": 12110,
    "ĠĠĠĠ": 460,
    "Ġyellowish": 24430,
    "Ġ74": 24261,
    "Ġhaughty": 11449,
    "mindful": 19598,
    "ij": 7801,
    "Ġ**": 4721,
    "Ġcaut": 6521,
    "Ġlegal": 10439,
    "Ġ500": 24328,
    "Ġrang": 9244,
    "Ġespecially": 3934,
    "umblings": 23927,
    "Ġhoist": 11975,
    "Ġglobular": 19009,
    "Ġgeometric": 3215,
    "fright": 9595,
    "rove": 21530,
    "cape": 13696,
    "Ġlimits": 3452,
    "Ġcooking": 16646,
    "Ġliberated": 19665,
    "inkers": 22612,
    "south": 8758,
    "Ġwarehouse": 20415,
    "Ġfaintly": 14914,
    "i": 77,
    "minute": 11274,
    "taken": 7560,
    "Ġcolours": 12971,
    "Ġbedfellow": 16436,
    "Ġbas": 6380,
    "Ġhesitated": 10001,
    "Ġtwentieth": 18659,
    "Ġprotested": 9933,
    "Ġ122": 24467,
    "bearers": 18521,
    "Ġburning": 5976,
    "Ġleviathans": 8281,
    "Ġtrooped": 24899,
    "¯": 112,
    "meat": 18679,
    "ep": 442,
    "Ġoversampling": 20514,
    "Ġvaliantly": 22800,
    "venant": 22624,
    "Ġuneasiness": 9483,
    "Ġrestrain": 8964,
    "stolen": 13981,
    "bergen": 14329,
    "Ġcassock": 20485,
    "uzz": 4523,
    "oc": 2835,
    "Ġattach": 14287,
    "mill": 13753,
    "paralleled": 14509,
    "Ġbetokened": 18798,
    "Ġilluminating": 25245,
    "Ġattack": 5478,
    "Ġbaronial": 23792,
    "peleg": 16292,
    "Ġinfancy": 10409,
    "oning": 7572,
    "magnitude": 17248,
    "Ġdrugg": 17119,
    "achalot": 15859,
    "ķ": 248,
    "Ġimprec": 14219,
    "Ġcem": 17823,
    "Ġnodes": 1969,
    "ations": 710,
    "Ġstrictly": 12283,
    "Ġstubb": 1786,
    "unalterable": 21883,
    "Ġjames": 6419,
    "Ġrelish": 14383,
    "Ġwigwam": 11428,
    "ague": 3904,
    "Ġspilled": 10924,
    "Ġhawk": 15172,
    "peare": 18911,
    "Ġceased": 6468,
    "ustomed": 6098,
    "Ġcoronet": 6344,
    "magn": 10610,
    "Ġhumorous": 10360,
    "Ġcrossed": 6068,
    "Ġcracked": 8593,
    "Ġroutine": 13507,
    "Ġhulls": 13925,
    "unless": 9234,
    "inked": 12910,
    "Ġatmosphere": 10897,
    "Ġdetermined": 2221,
    "sales": 17667,
    "ires": 6037,
    "Ġdiligently": 11405,
    "Ġgradu": 15830,
    "Ġequilibrium": 4140,
    "Ġindistinct": 17407,
    "ertain": 1206,
    "Ġvigorous": 10566,
    "Ġsooner": 5573,
    "ī": 236,
    "Ġdirest": 22704,
    "Ġtimbers": 14838,
    "Ġ58": 24326,
    "tle": 2409,
    "Ġhope": 1789,
    "ensical": 18568,
    "Ġacceded": 22375,
    "iece": 3227,
    "Ġgoverned": 23569,
    "Ġequal": 4135,
    "ifies": 6686,
    "Ġleakage": 23458,
    "ront": 15417,
    "buttons": 22398,
    "served": 5043,
    "Ġcomplaisance": 19447,
    "tor": 15431,
    "forbidding": 25836,
    "Ġmultiplicity": 19274,
    "learnt": 23589,
    "Ġexasperate": 20096,
    "Ġconversed": 13187,
    "Ġensures": 3057,
    "Ġharpooneers": 4732,
    "Ġwatson": 3596,
    "Ġcondesc": 7181,
    "Ġeconomically": 25288,
    "Ġsquires": 16181,
    "narr": 12494,
    "pling": 8474,
    "Ġsympt": 7012,
    "Ġenjoyments": 24015,
    "hosmer": 25902,
    "Ġforbade": 15213,
    "youn": 5690,
    "Ġports": 10818,
    "Ġreserved": 7515,
    "ilations": 21719,
    "emorial": 10243,
    "Ġcranial": 25592,
    "propriety": 14365,
    "Ġscrutiny": 26015,
    "Ġdare": 3543,
    "Ġexpanse": 14290,
    "Ġpl": 744,
    "approach": 24833,
    "Ġintent": 6409,
    "Ġhid": 1320,
    "admirably": 24944,
    "Ġardu": 22175,
    "loun": 17588,
    "Ġwhichever": 13999,
    "palms": 25262,
    "pute": 8844,
    "sens": 8095,
    "chiefly": 14845,
    "Ġstro": 4594,
    "Ġterminated": 23507,
    "Ġreproofs": 24892,
    "that": 850,
    "surely": 10569,
    "mond": 20972,
    "Ġphrensy": 25124,
    "bones": 8371,
    "Ġcheers": 16364,
    "Ġhorrid": 7998,
    "Ġhinge": 25541,
    "Ġpanthe": 19652,
    "Ġdeposited": 25484,
    "Ġevents": 4472,
    "Ġadieu": 10050,
    "agged": 9236,
    "Ġtheir": 643,
    "Ġcurve": 22956,
    "aped": 3764,
    "evidence": 25521,
    "Ġjago": 22296,
    "Ġvenom": 24238,
    "swept": 19785,
    "ĠâĢľâĢĺ_": 25111,
    "Ġsatur": 1930,
    "battering": 20785,
    "Ġhumph": 22880,
    "Ġinfallibly": 10040,
    "seriously": 18904,
    "Ġcowards": 12570,
    "Ġrests": 13091,
    "Ġvillainous": 25131,
    "ursday": 12274,
    "Ġserenity": 10027,
    "Ġdespondence": 25869,
    "Ġpend": 15603,
    "Ġselfish": 7272,
    "Ġappeased": 23194,
    "Ġmiller": 19882,
    "Ġoppress": 13171,
    "ractions": 11632,
    "Ġendeavor": 16545,
    "Ġfloor": 4377,
    "amy": 8467,
    "ber": 885,
    "Ġclients": 19731,
    "Ġsalt": 8016,
    "Ġsmiled": 5940,
    "Ġbos": 4875,
    "Ġfuture": 1084,
    "Ġblandly": 20322,
    "ensed": 10995,
    "Ġregained": 18598,
    "intend": 16222,
    "erve": 12546,
    "Ġstony": 21736,
    "Ġpalp": 11250,
    "Ġmarlings": 23035,
    "spears": 23939,
    "12": 20748,
    "ighted": 8476,
    "Ġwhitney": 11373,
    "Ġthre": 2059,
    "Ġevidently": 6759,
    "Ġsubmerged": 11870,
    "anks": 3914,
    "Ġcrav": 19172,
    "uming": 8491,
    "Ġtyph": 10007,
    "motion": 17606,
    "Ġfoundation": 4229,
    "Ġtyp": 1132,
    "mechanically": 17299,
    "Ġincites": 22548,
    "Ġimprove": 1819,
    "hammad": 23261,
    "Ġfain": 5808,
    "aur": 15307,
    "Ġproclaim": 18130,
    "moor": 22699,
    "tend": 17674,
    "Ġnaval": 16899,
    "Ġscheduling": 2349,
    "Ġdiscourse": 9797,
    "anx": 8783,
    "Ġmaggie": 26291,
    "borean": 25743,
    "Ġintrig": 21987,
    "transformer": 25015,
    "Ġhaunt": 18197,
    "refuge": 24734,
    "obli": 23092,
    "Ġclung": 10957,
    "madness": 14881,
    "gryphon": 15357,
    "english": 2773,
    "aw": 1451,
    "herself": 4890,
    "Ġperished": 11782,
    "Ġoy": 15543,
    "Ġbone": 4694,
    "Ġhateful": 19712,
    "Ø": 153,
    "Ġsatan": 14389,
    "Ġrumbling": 18211,
    "Ġopulence": 23626,
    "course": 6104,
    "Ġkrem": 9725,
    "Ġrepeating": 11213,
    "Ġvig": 5460,
    "Ġcorner": 4369,
    "Ġ31": 12128,
    "xology": 21140,
    "itor": 12563,
    "Ġdispatched": 23879,
    "owder": 8448,
    "sailed": 17666,
    "Ġknowledge": 1449,
    "roll": 9196,
    "====": 1484,
    "Ġrelationship": 2316,
    "relieved": 13275,
    "ortions": 10948,
    "Ġexpectations": 13142,
    "Ġdoubly": 16384,
    "twenty": 6607,
    "Ġmut": 3582,
    "Ġrailway": 15020,
    "Ġstarboard": 7604,
    "hurt": 19877,
    "Ġblaze": 16218,
    "Ġthursday": 12641,
    "Ġproportionably": 19969,
    "Ġvari": 831,
    "Ġsingled": 23771,
    "Ġnatives": 17950,
    "Ġscarcity": 23824,
    "estab": 14170,
    "ribly": 8254,
    "Ġafforded": 8028,
    "analysis": 26173,
    "endom": 15918,
    "Ġgunwale": 7325,
    "Ġanswering": 7477,
    "inhabited": 13619,
    "Ġconfirms": 23304,
    "Ġplayfulness": 23635,
    "Ġbiography": 22764,
    "woman": 5898,
    "ific": 490,
    "Ġdeg": 3281,
    "Ġdrink": 4787,
    "Ġplata": 25117,
    "Ġsultanism": 25888,
    "Ġasking": 5651,
    "Ġcentaurs": 23830,
    "Ġ39": 19488,
    "wet": 15451,
    "Ġrecital": 16140,
    "aggo": 5097,
    "Ġeulogy": 26470,
    ".âĢĻâĢĿ": 6739,
    "sleepers": 24730,
    "promote": 24727,
    "kered": 18274,
    "Ġcouples": 16852,
    "Ġgrateful": 7659,
    "work": 1778,
    "derstand": 656,
    "Ġvi": 1953,
    "Ġrecord": 5316,
    "Ġrome": 12153,
    "Ġpeaks": 16126,
    "r": 86,
    "Ġupward": 9720,
    "Ġoutstanding": 22313,
    "network": 1931,
    "Ġreverber": 19868,
    "kicked": 20942,
    "Ġtul": 21158,
    "diversity": 25897,
    "Ġmonomania": 17085,
    "Ġendurance": 23143,
    "Ġrainy": 24341,
    "Ġtrowsers": 9627,
    "Ġthine": 7374,
    "gg": 1998,
    "Ġoppressive": 20454,
    "an": 278,
    "pacific": 17641,
    "Ġage": 3894,
    "iscuit": 10598,
    "Ġvariously": 18653,
    "Ġbend": 9170,
    "comb": 11035,
    "Ġancient": 5443,
    "Ġkn": 4545,
    "Ġpossesses": 19350,
    "intimate": 22934,
    "Ġdaunt": 19663,
    "Ġreached": 4023,
    "downstairs": 23917,
    "old": 800,
    "D": 40,
    "Ġhog": 13923,
    "ichever": 13956,
    "Ġrings": 11697,
    "Ġfreshet": 25704,
    "Ġaudibly": 24771,
    "fail": 17540,
    "bound": 6220,
    "Ġmoose": 22428,
    "Ġdum": 10811,
    "Ġpia": 21462,
    "Ġmim": 3107,
    "Ġactively": 18654,
    "eland": 11619,
    "Ġbless": 4342,
    "Ġpattering": 18651,
    "Ġmelting": 24288,
    "Ġklux": 22192,
    "Ġinv": 2223,
    "Ġbackground": 18637,
    "Ġdinah": 9453,
    "Ġextend": 18682,
    "Ġsher": 3763,
    "Ġstair": 8455,
    "Ġhalf": 1672,
    "Ġformerly": 7493,
    "leagues": 21371,
    "Ġobligations": 12089,
    "Ġvac": 5025,
    "preading": 18491,
    "reputation": 15514,
    "attended": 8952,
    "Ġdeser": 3884,
    "Ġmetropolitan": 17275,
    "der": 469,
    "our": 534,
    "industrious": 26239,
    "Ġbesee": 19241,
    "opp": 6963,
    "Ġchose": 7413,
    "cond": 1669,
    "Ġsimpler": 2048,
    "Ġmercenary": 17193,
    "Ġnosegay": 24192,
    "Ġapprehensiveness": 16877,
    "mmet": 10988,
    "Ġeucl": 24709,
    "Ġambiguous": 20163,
    "Ġspr": 4025,
    "confined": 24332,
    "rap": 21625,
    "seized": 14034,
    "rison": 13778,
    "Ġhissed": 15786,
    "Ġneeded": 7717,
    "footed": 19688,
    "olog": 1082,
    "dreams": 12335,
    "Ġmultiple": 1186,
    "fast": 3071,
    "Ġsolitude": 6877,
    "Ġranging": 8478,
    "fork": 20856,
    "vast": 10736,
    "Ġprodu": 1203,
    "Ġhertfordshire": 5377,
    "atever": 3079,
    "ateur": 22003,
    "Ġgleamed": 17077,
    "Ġlongbourn": 3506,
    "Ġimpregn": 26022,
    "Ġearlier": 9086,
    "Ġunwaning": 25170,
    "plan": 15812,
    "9": 29,
    "remembered": 17350,
    "inform": 10143,
    "word": 2489,
    "Ġlabourers": 23328,
    "Ġlogical": 14486,
    "Ġfall": 2990,
    "Ġhaws": 21948,
    "ounder": 11742,
    "Ġtip": 15470,
    "Ġblushed": 12999,
    "Ġbraw": 23832,
    "choice": 21688,
    "Ġproducts": 5198,
    "Ġsurpass": 13582,
    "tained": 4405,
    "Ġhumiliation": 16198,
    "Ġpretended": 19313,
    "Ġblankness": 24610,
    "ggy": 13112,
    "soon": 4028,
    "holland": 24038,
    "Ġflip": 11911,
    "Ġdocuments": 10022,
    "Ġawaiting": 11390,
    "l": 80,
    "Ġlurid": 19680,
    "seated": 11671,
    "Ġpenetrating": 17011,
    "Ġmix": 7576,
    "Ġhunters": 6300,
    "ission": 6457,
    "Ġresounds": 22539,
    "Ġspite": 4155,
    "erns": 8777,
    "Ġey": 8134,
    "Ġcares": 9366,
    "Ġstrive": 23691,
    "onds": 12993,
    "Ġtools": 11608,
    "choose": 23671,
    "Ġdetermines": 2367,
    "Ġhome": 2029,
    "Ġphase": 14470,
    "ched": 1544,
    "Ġdistinctions": 18532,
    "Ġdl": 3376,
    "fainting": 20471,
    "Ġ199": 3011,
    "Ġcivilised": 24244,
    "iousness": 4899,
    "sorts": 21059,
    "dered": 2475,
    "Ġladyship": 5046,
    "Ġlees": 18075,
    "Ġyarns": 15194,
    "pequod": 7052,
    "zealand": 26050,
    "shrugged": 22459,
    "Ġimpending": 22383,
    "Ġdolphin": 17311,
    "ferent": 4192,
    "Ġchests": 19670,
    "rail": 10204,
    "manner": 6170,
    "Ġcollege": 11424,
    "Ġgomorrah": 21612,
    "ck": 436,
    "ram": 13971,
    "Ġwallowed": 24039,
    "stepfather": 19189,
    "Ġrick": 21967,
    "Ġsqu": 1036,
    "Ġhoisting": 9861,
    "Ġearliest": 9829,
    "inting": 9813,
    "Ġrheum": 18214,
    "Ġperils": 6273,
    "inement": 11557,
    "Ġwarmest": 16483,
    "Ġestim": 3348,
    "Ġdynam": 3329,
    "Ġperseus": 10603,
    "Ġimmemorially": 25383,
    "Ġepicurean": 20554,
    "Ġlives": 4826,
    "clouded": 20330,
    "circled": 24187,
    "Ġinclination": 6623,
    "magistrate": 19862,
    "Ġcanterbury": 22162,
    "Ġsuccessful": 9922,
    "Ġrept": 13982,
    "Ġconf": 1816,
    "Ġlamb": 8812,
    "Ġcher": 6129,
    "Ġemploys": 19429,
    "about": 3586,
    "pres": 16022,
    "disc": 4729,
    "Ġcompiled": 22567,
    "Ġaccepted": 7750,
    "Ġhamp": 12627,
    "Ġdifference": 1491,
    "Ġbowlines": 19321,
    "belais": 24035,
    "Ġlads": 8596,
    "Ġfronted": 25854,
    "erest": 10697,
    "Ġgills": 17992,
    "irms": 18168,
    "Ġbestowed": 6593,
    "ius": 5789,
    "Ġcommencement": 12236,
    "grace": 5846,
    "Ġfeedback": 23431,
    "vent": 682,
    "pleasure": 5977,
    "Ġconfirming": 25321,
    "Ĳ": 243,
    "dri": 5887,
    "Ġcircumnavigating": 25614,
    "Ġ4": 3985,
    "Ġur": 5540,
    "county": 25396,
    "Ġcir": 21339,
    "crowded": 20189,
    "resting": 23234,
    "Ġflint": 23008,
    "Ġphysiognomy": 25610,
    "Ġpolice": 4674,
    "Ġsmacking": 20164,
    "Ġdet": 513,
    "dee": 11731,
    "Ġtigers": 25758,
    "Ġcharacteristics": 8609,
    "ille": 9219,
    "Ġimpatiently": 8337,
    "inexplicable": 25809,
    "Ġwriggling": 15256,
    "Ġtormented": 8674,
    "Ġcynicism": 25771,
    "ondon": 2704,
    "bre": 3978,
    "Ġquadru": 16001,
    "Ġtester": 21171,
    "Ġshillings": 15833,
    "walk": 5523,
    "dinner": 11406,
    "Ġdeaths": 14537,
    "foreseen": 14253,
    "Ġmagnified": 23200,
    "Ġrol": 3554,
    "Ġgilt": 21603,
    "Ġshr": 4223,
    "protection": 19919,
    "Ġcontaining": 2232,
    "Ġqueen": 3210,
    "py": 17624,
    "Ġresearch": 3349,
    "office": 16393,
    "Ġensure": 23686,
    "bol": 8717,
    "irresistible": 18173,
    "89": 20758,
    "Ġdenominated": 15227,
    "Ġflash": 8229,
    "Ġdormouse": 4925,
    "Ġowen": 15093,
    "romang": 22002,
    "punishment": 15144,
    "Ġwilson": 6629,
    "standard": 22433,
    "Ġdivine": 6921,
    "Ġrespite": 13153,
    "Ġoust": 21322,
    "Ġhom": 9186,
    "completely": 12418,
    "hammer": 14489,
    "hval": 20897,
    "Ġannihilation": 15164,
    "apprehension": 26114,
    "Ġmight": 964,
    "Ġorgies": 18285,
    "._)": 10480,
    "royal": 11393,
    "Ġdarted": 4758,
    "Ġmal": 5221,
    "Ġreservo": 16831,
    "Ġtattooed": 11378,
    "Ġthought": 1097,
    "Ġstart": 3259,
    "Ġarmada": 23578,
    "odhead": 18118,
    "Ġchill": 11750,
    "Ġcam": 10161,
    "Ġsuspend": 14608,
    "smallest": 23909,
    "recurrent": 4994,
    "â": 163,
    "Ġstone": 4645,
    "blades": 24131,
    "conditional": 9078,
    "ivened": 22967,
    "rie": 2785,
    "ful": 673,
    "Ġworking": 5574,
    "Ġquies": 18464,
    "stalls": 26473,
    "leaving": 10791,
    "Ġsecuring": 11990,
    "Ġdoubtfully": 23476,
    "Ġtimely": 19593,
    "nour": 20987,
    "Ġgeorgiana": 8625,
    "daughters": 13465,
    "Ġsnows": 14725,
    "stad": 7597,
    "Ġinconceivable": 17937,
    "rah": 8136,
    "icity": 2540,
    "noo": 9788,
    "Ġkills": 15904,
    "Ġlances": 6984,
    "Ġdaniel": 15110,
    "loops": 12880,
    "Ġclapping": 14202,
    "felix": 10653,
    "Ġlurch": 21552,
    "Ġstoper": 14462,
    "connection": 18868,
    "arians": 18523,
    "Ġtwitch": 22673,
    "Ġv": 399,
    "education": 20300,
    "Ġlift": 8810,
    "irresist": 21909,
    "Ġcannot": 1668,
    "Ġmor": 1248,
    ".]": 15297,
    "invest": 11559,
    "Ġjealous": 9468,
    "Ġstudies": 7955,
    "humoredly": 26324,
    "Ġlovely": 4709,
    "Ġreturns": 11924,
    "Ġhunter": 5401,
    "hyme": 19608,
    "Ġarrangement": 2655,
    "re": 266,
    "Ġboots": 5942,
    "Ġuses": 1208,
    "Ġdiscovering": 13356,
    "pass": 4290,
    "Ġchalk": 15931,
    "arle": 21438,
    "entary": 21564,
    "Ġafric": 8905,
    "Ġcontents": 7210,
    "cious": 6643,
    "Ġdictionary": 15111,
    "avery": 13682,
    "Ġminut": 2202,
    "Ġdamps": 23473,
    "france": 24282,
    "imately": 12685,
    "urmount": 13995,
    "Ġpunish": 12157,
    "Ġstrings": 11827,
    "eked": 16400,
    "Ġborn": 5224,
    "Ġgoble": 14229,
    "shaken": 16024,
    "Ġtiny": 11552,
    "travel": 24316,
    "Ġsystematically": 4713,
    "Ġmundane": 26429,
    "Ġyelled": 9693,
    "Ġcontracted": 12857,
    "rect": 1600,
    "Ġhoarse": 14526,
    "Ġmorbidness": 20627,
    "Ġtwelfth": 22675,
    "constit": 24604,
    "Ġhairy": 23863,
    "Ġalone": 2567,
    "Ġabode": 7899,
    "glad": 9007,
    "Ġvesture": 20060,
    "study": 15116,
    "Ġstruggles": 16578,
    "Ġspine": 7407,
    "Ġproof": 6153,
    "gard": 7339,
    "bald": 16446,
    "neighboring": 20615,
    "Ġunexampled": 20358,
    "elastic": 17980,
    "Ġexp": 780,
    "Ġsutherland": 10148,
    "Ġgermany": 25785,
    "disagreeable": 11163,
    "tolerably": 21094,
    "Ġglance": 4230,
    "Ġintegrated": 13530,
    "Ġderive": 10394,
    "Ġperceive": 6699,
    "walked": 10570,
    "Ġsinusoid": 4781,
    "machines": 8384,
    "Ġverdict": 13474,
    "ainted": 3657,
    "Ġutensils": 23512,
    "Ġample": 11796,
    "despatched": 19800,
    "Ġfootsteps": 16572,
    "Ġinterlude": 16068,
    "Ġfiver": 22777,
    "Ġvigilant": 20183,
    "define": 1525,
    "yth": 983,
    "Ġmice": 13858,
    "bucket": 17493,
    "Ġestimation": 11218,
    "Ġmaritime": 23037,
    "Ġforeseeing": 23449,
    "Ġmrs": 1469,
    "ĠmanÅĵuv": 18417,
    "osed": 1961,
    "avating": 18605,
    "raltar": 24233,
    "Ġcrystall": 20225,
    "Ġnut": 12643,
    "Ġshuddered": 11300,
    "commission": 22807,
    "Ġjune": 10288,
    "Ġintending": 11702,
    "Ġadvantages": 9805,
    "Ġdrenched": 12600,
    "Ġsharks": 4497,
    "Ġlargely": 14284,
    "dwell": 15340,
    "Ġparr": 22116,
    "Ġplayful": 19235,
    "amplified": 26494,
    "Ġgl": 1255,
    "uity": 12515,
    "Ġgardiner": 3236,
    "Ġallurements": 22006,
    "Ġcoolness": 16886,
    "separated": 20158,
    "Ġlaudanum": 20689,
    "Ġcircumnav": 12424,
    "Ġpenet": 6888,
    "Ġdetective": 14419,
    "Ġaback": 22263,
    "property": 19998,
    "Ġcop": 7579,
    "Ġpassive": 22838,
    "Ġuncle": 3191,
    "Ġbags": 24537,
    "Ġshrinking": 14804,
    "Ġcrowding": 13278,
    "Ġeaves": 15673,
    "nib": 5214,
    "ë": 172,
    "rages": 15678,
    "itatingly": 25277,
    "enjoyment": 17257,
    "Ġmour": 6973,
    "Ġmach": 13856,
    "rical": 11518,
    "Ġsails": 5256,
    "armon": 23057,
    "Ġexeget": 24086,
    "Ġadvantage": 4315,
    "hedge": 22495,
    "custom": 15332,
    "Ġpepper": 9780,
    "Ġespecial": 26410,
    "Ġtomb": 8807,
    "Ġaroused": 15892,
    "Ġanger": 5442,
    "Ġcommercial": 22671,
    "Ġvisual": 5741,
    "Ġconnectivity": 3665,
    "Ġfem": 6134,
    "awing": 18915,
    "Ġglove": 14491,
    "Ġlashed": 9198,
    "Ġmoisture": 12357,
    "midnight": 14901,
    "Ġvaried": 11846,
    "subjects": 19875,
    "Ġsuper": 2154,
    "stretched": 10207,
    "Ġsingular": 4424,
    "Ġuninter": 18246,
    "pr": 3174,
    "este": 15919,
    "seeing": 7078,
    "Ġfile": 13902,
    "Ġloose": 4648,
    "Ġ40": 14768,
    "Ġnewcom": 16220,
    "Ġ70": 11276,
    "solving": 3101,
    "Ġappertaining": 26533,
    "Ġxlix": 25860,
    "velope": 17701,
    "Ġentrances": 25834,
    "Ġmonotonous": 13261,
    "Ġlouisiana": 25076,
    "Ġhumorousness": 25377,
    "Ġscold": 10950,
    "physiogn": 26264,
    "Ġactions": 6278,
    "silver": 19689,
    "down": 3468,
    "possible": 5743,
    "Ġscrawled": 24580,
    "Ġdiffered": 22708,
    "Ġacquiesce": 20328,
    "Ġstrainings": 24627,
    "Ġrobots": 11079,
    "Ġdented": 17891,
    "Ġfullest": 14813,
    "wood": 5897,
    "Ġceiling": 7996,
    "sust": 15421,
    "Ġlies": 5295,
    "Ġupright": 8493,
    "Ġejaculation": 20253,
    "Ġregain": 22583,
    "Ġtiles": 17726,
    "Ġamerican": 5061,
    "Ġethere": 23948,
    "Ġjoys": 13218,
    "Ġsolemnly": 8023,
    "collected": 13212,
    "Ġexcite": 11963,
    "amb": 5723,
    "coll": 23778,
    "misrepresented": 24211,
    "violent": 14580,
    "Ġwrenched": 12555,
    "conjecture": 15121,
    "oft": 3590,
    "Ġsituated": 9446,
    "Ġmonotonically": 3831,
    "Ġhorses": 6385,
    "insanity": 23066,
    "Ġpalpit": 16691,
    "possesses": 24616,
    "Ġcommanders": 23866,
    "civilities": 24971,
    "Ġhazard": 20430,
    "scr": 16239,
    "Ġabundantly": 17156,
    "Ġrepel": 23357,
    "Ġwallow": 19464,
    "permitted": 18343,
    "Ġdiscussing": 5202,
    "loud": 11500,
    "Ġconstruct": 23340,
    "Ġwiping": 25765,
    "lined": 12481,
    "projecting": 26073,
    "Ġnautical": 17385,
    "sincerely": 24584,
    "Ġtil": 12521,
    "chant": 4256,
    "glo": 8737,
    "Ġfunctions": 1341,
    "Ġsweatings": 25710,
    "Ġovertaken": 18429,
    "Ġ83": 24459,
    "Ġdonkey": 23228,
    "belief": 13280,
    "Ġcuvier": 9165,
    "offended": 16394,
    "committed": 18738,
    "september": 14035,
    "saved": 15430,
    "Ġontario": 26204,
    "tacit": 21097,
    "Ġeludes": 26554,
    "ĠcÃ¦sar": 20578,
    "task": 13792,
    "superstitiousness": 25508,
    ",âĢĿ": 578,
    "fiend": 13660,
    "'": 11,
    "Ġrepute": 18034,
    "Ġopt": 774,
    "Ġinsinuating": 19270,
    "leton": 5148,
    "ivory": 10269,
    "Ġblush": 14401,
    "Ġqu": 604,
    "protruding": 24816,
    "clusion": 16304,
    "Ġhurst": 5582,
    "Ġfleshy": 24614,
    "housekeeper": 24102,
    "Ġinf": 1754,
    "Ġbound": 3516,
    "Ġannealing": 1551,
    "Ġbestowing": 16971,
    "Ġimmortal": 8017,
    "nyder": 16686,
    "Ġfaire": 13363,
    "scheme": 15253,
    "below": 12119,
    "higher": 20405,
    "Ġbashee": 19848,
    "feeders": 25235,
    "Ġsovereign": 10061,
    "Ġinvented": 17037,
    "Ġretained": 7173,
    "Ġfearful": 6197,
    "Ġtre": 2537,
    "nine": 13760,
    "Ġmajority": 13291,
    "Ġalex": 15132,
    "Ġtestament": 23225,
    "attered": 4019,
    "Ġvastly": 23858,
    "Ġlane": 5627,
    "Ġmonica": 22980,
    "igating": 21696,
    "Ġmethodic": 23132,
    "pine": 13768,
    "sure": 5522,
    "Ġfurlongs": 20722,
    "Ġleaning": 5228,
    "grie": 12468,
    "Ġpenetration": 19916,
    "retired": 11934,
    "Ġtipped": 17728,
    "Ġexpression": 4515,
    "Ġeyebrows": 23513,
    "Ġimpotently": 22389,
    "Ġnavigators": 19762,
    "rogress": 21533,
    "Ġtutored": 20126,
    "varied": 23182,
    "Ġnurtured": 19748,
    "shiver": 16025,
    "cowardly": 25749,
    "Ġmedit": 8018,
    "Ġnick": 21520,
    "Ġberkshire": 16884,
    "Ġinsurance": 23680,
    "Ġscaled": 2106,
    "globe": 25142,
    "pleased": 8853,
    "Ġmerryweather": 9521,
    "Ġhimself": 1351,
    "Ġanatomy": 12318,
    "ĵ": 246,
    "Ġstronger": 8578,
    "Ġguineas": 16270,
    "yard": 5899,
    "Ġassail": 13060,
    "rub": 15897,
    "muring": 17601,
    "allions": 22195,
    "Ġmagician": 25058,
    "Ġsash": 17754,
    "ricade": 13036,
    "Ġponderous": 8354,
    "blasted": 20188,
    "stories": 18023,
    "Ġrever": 6536,
    "ĠĠĠĠĠĠĠĠĠĠĠĠĠĠĠĠĠĠĠĠĠĠĠĠĠĠĠĠĠĠĠĠĠĠĠĠĠĠĠĠĠĠĠĠĠĠ": 9952,
    "cruise": 24841,
    "Ġfloundered": 18861,
    "Ġtarpaul": 17730,
    "Ġheightened": 8648,
    "Ġgraces": 18225,
    "station": 10844,
    "Ġworried": 22923,
    "Ġeternal": 5975,
    "Í": 142,
    "Ġfaster": 3196,
    "Ġinsip": 19266,
    "intellect": 18821,
    "pered": 4195,
    "Ġbreezes": 14868,
    "Ġswells": 9826,
    "Ġparticular": 2451,
    "Ġhandsom": 11124,
    "warmth": 20051,
    "Ġjavelins": 26105,
    "Ġgriefs": 16771,
    "tha": 15821,
    "olera": 21830,
    "third": 8167,
    "Ġmirth": 15542,
    "Ġpositions": 2057,
    "tempt": 21078,
    "Ġfront": 3450,
    "brows": 17496,
    "rennial": 22338,
    "Ġjumping": 13340,
    "Ġlime": 13947,
    "Ġdeserted": 8636,
    "zwilliam": 5074,
    "Ġapplied": 6186,
    "Ġgard": 2189,
    "Ġbod": 4580,
    "Ġfruitless": 25605,
    "fortun": 3537,
    "iber": 6506,
    "Ġbeholding": 8668,
    "shad": 10982,
    "va": 4743,
    "baggage": 24926,
    "unities": 15768,
    "Ġegypt": 9678,
    "allows": 15905,
    "allied": 7410,
    "Ġshroud": 6483,
    "longer": 8612,
    "ught": 2750,
    ".--": 20745,
    "Ġunfold": 8022,
    "Ġvineyard": 12328,
    "Ġstruct": 2782,
    "Ġtrait": 23072,
    "lig": 3172,
    "h": 76,
    "Ġadapt": 1031,
    "inates": 21179,
    "Ġlewis": 15722,
    "Ġbloodshot": 23798,
    "Ġquickly": 4238,
    "less": 929,
    "Ġclassical": 22629,
    "Ġfeigned": 22204,
    "Ġcarter": 18900,
    "scor": 13017,
    "Ġglitter": 25122,
    "Ġpond": 13915,
    "Ġamours": 22478,
    "contain": 18504,
    "rederick": 14079,
    "Ġlatitude": 8328,
    "Ġbutter": 6842,
    "den": 938,
    "face": 3677,
    "Ġaccomplishments": 13378,
    "Ġpigeon": 9515,
    "Ġadduced": 26524,
    "Ġrele": 2920,
    "Ġpap": 8797,
    "thunder": 10262,
    "Ġlanyard": 26461,
    "Ġhatchet": 16528,
    "Ġbecoming": 4397,
    "Ġkeener": 22912,
    "Ġnature": 2539,
    "Ġuntouched": 16465,
    "Ġsewing": 21958,
    "Ġpaws": 13920,
    "Ġinc": 703,
    "ctor": 13959,
    "Ġupheld": 22149,
    "Ġxl": 11988,
    "Ġtapering": 8770,
    "lording": 24047,
    "venge": 4658,
    "Ġforgery": 25977,
    "Ġexhilarating": 26337,
    "Ġknot": 7011,
    "Ġself": 1779,
    "Ġslates": 11107,
    "Ġdissip": 10992,
    "Ġhack": 12753,
    "ounced": 4954,
    "Ġparallelization": 3430,
    "Ġincantation": 26257,
    "Ġincurable": 22549,
    "Ġjav": 7901,
    "responsible": 25763,
    "Ġfamine": 16327,
    "Ġsacrilege": 26228,
    "Ġseething": 18203,
    "Ġvine": 8471,
    "mot": 17596,
    "period": 15895,
    "Ġsoul": 2723,
    "ixed": 4851,
    "Ġowns": 22821,
    "Ġweld": 8111,
    "Ġtint": 13816,
    "Ġstir": 5823,
    "Ġsomnambul": 26576,
    "Ġ121": 24466,
    "¨": 106,
    "Ġfoam": 6891,
    "sery": 17661,
    "Ġpatient": 6895,
    "Ġunharmed": 15138,
    "Ġtimes": 2303,
    "maj": 18805,
    "Ġstrategies": 1840,
    "Ġlabor": 10418,
    "Ġbelow": 4062,
    "Ġdropt": 23674,
    "Ġtermination": 16460,
    "discovered": 8324,
    "Ġminuteness": 19138,
    "Ġpositives": 4316,
    "Ġinvaluable": 10182,
    "relatively": 24011,
    "Ġsallies": 21228,
    "Ġaval": 15492,
    "astrop": 3315,
    "ints": 3417,
    "edged": 15628,
    "Ġsands": 14947,
    "Ġcobbler": 25829,
    "Ġdates": 6693,
    "Ġpitiful": 13237,
    "calmly": 20138,
    "pile": 17629,
    "anesc": 21358,
    "nez": 22444,
    "Ġrelieve": 8223,
    "Ġrepenting": 25322,
    "Ġpar": 456,
    "Ġhill": 5626,
    "Ġhag": 12622,
    "repe": 8775,
    "Ġchaldee": 26234,
    "beryls": 25309,
    "Ġsolemn": 4100,
    "Ġautom": 3670,
    "Ġglorious": 11075,
    "Ġmarbank": 23036,
    "Ġinterconnected": 1339,
    "unt": 2044,
    "rely": 6123,
    "Ġthrone": 12211,
    "Ġsideboard": 10385,
    "fur": 6355,
    "ace": 713,
    "Ġple": 1471,
    "Ġzeal": 9097,
    "Ġestimable": 23870,
    "Ġdolphins": 20394,
    "pent": 3491,
    "Ġenterprise": 8641,
    "Ġdetails": 6565,
    "Ġattached": 5392,
    "ellig": 521,
    "Ġsymptom": 13482,
    "Ġcoopers": 20520,
    "battle": 12440,
    "vate": 21108,
    "denial": 18716,
    "Ġsleek": 23382,
    "Ġhum": 1102,
    "Ġaugmentation": 20114,
    "Ġprince": 18973,
    "s": 87,
    "Ġboth": 1658,
    "tr": 3579,
    "Ġhoof": 23351,
    "Ġprudence": 13919,
    "Ġneighbor": 25803,
    "Ġfrequencies": 4789,
    "delight": 5344,
    "Ġbed": 2145,
    "fat": 8078,
    "hess": 4747,
    "Ġproprietors": 20185,
    "Ġnewspaper": 12362,
    "Ġcru": 2823,
    "Ġpoor": 1711,
    "Ġuncomfortable": 8485,
    "Ġawait": 17073,
    "disappointed": 25191,
    "indust": 18435,
    "Ġaccordance": 19496,
    "kinson": 10025,
    "elze": 21570,
    "Ġimproper": 22745,
    "absence": 12705,
    "Ġtheoretically": 3566,
    "Ġdenied": 9000,
    "faint": 17545,
    "doubt": 6782,
    "Ġsway": 7571,
    "Ġidle": 8252,
    "Ġsandwiched": 26610,
    "Ġii": 7385,
    "Ġbenevol": 5961,
    "intentions": 22936,
    "Ġbarrier": 16569,
    "Ġnavies": 16900,
    "Ġsurviving": 24637,
    "Ġswim": 3818,
    "hroom": 12474,
    "Ġresult": 4460,
    "Ġramadans": 25119,
    "isions": 6130,
    "Ġan": 286,
    "Ġpoignant": 22590,
    "en": 271,
    "Ġcomputers": 2643,
    "Ġcircumspect": 15083,
    "Ġendeavour": 4677,
    "esty": 4305,
    "Ġdispelling": 23878,
    "Ġexplained": 5935,
    "irts": 9237,
    "Ġestimate": 19371,
    "Ġphysiognomically": 25612,
    "Ġsaddest": 16662,
    "atra": 17771,
    "Ġspangled": 22132,
    "enorm": 17781,
    "Ġshudderings": 25200,
    "Ġlodger": 24092,
    "Ġreveries": 11347,
    "delirium": 14784,
    "Ġconstitutional": 25125,
    "slowly": 9088,
    "Ġunderstanding": 1818,
    "Ġphenomenon": 17916,
    "Ġpubl": 3938,
    "Ġelegant": 7532,
    "Ġdrawback": 23987,
    "Ġreveren": 13196,
    "adieu": 26200,
    "Ġstreat": 15718,
    "berg": 11857,
    "fresh": 13391,
    "Ġtreated": 7080,
    "Ġbordered": 24563,
    "Ġimparts": 18446,
    "play": 5099,
    "Ġchicha": 15934,
    "¤": 102,
    "Ġdungeon": 16996,
    "Ġplace": 1656,
    "Ġmob": 16015,
    "Ġbolts": 16943,
    "Ġdisappoint": 24205,
    "believe": 8303,
    "necess": 4896,
    "Ġdiffers": 23780,
    "Ġadmiring": 16479,
    "Ġrefreshing": 20263,
    "Ġoctavo": 15162,
    "Ġemergency": 25731,
    "Ġterribly": 10425,
    "é": 170,
    "unders": 13309,
    "rusted": 16505,
    "Ġfallen": 5967,
    "bene": 6112,
    "Ġspan": 11726,
    "detained": 24382,
    "deal": 12796,
    "Ġsubt": 11866,
    "quickly": 14961,
    "Ġimages": 1602,
    "Ġnom": 21516,
    "ored": 3893,
    "Ġsociety": 3976,
    "after": 2899,
    "commanding": 24752,
    "Ġbargain": 23791,
    "Ġinfle": 16361,
    "sne": 10124,
    "Ġcretan": 22725,
    "answ": 15882,
    "Ġknocked": 9499,
    "Ġblind": 3715,
    "Ġnerve": 16339,
    "Ġhurling": 19110,
    "Ġarmchair": 8270,
    "Ġjeroboam": 10600,
    "Ġtied": 7357,
    "Ġbull": 7839,
    "Ġreefed": 20301,
    "ales": 3316,
    "Ġaccurate": 13251,
    "arily": 4126,
    "Ġevolved": 9890,
    "Ġvelvet": 12396,
    "itate": 6667,
    "action": 3726,
    "Ġmace": 21308,
    "Ġwidow": 8662,
    "Ġresponses": 23647,
    "fanc": 20863,
    "Ġproperty": 6450,
    "Ġjulia": 22299,
    "Ġconcealing": 23900,
    "Ġsurm": 7476,
    "upp": 10130,
    "alyards": 18780,
    "imaux": 21709,
    "hampshire": 23262,
    "benevol": 12224,
    "ernal": 4311,
    "Ġattempt": 3485,
    "opinion": 10984,
    "Ġtusked": 25426,
    "Ġhuge": 4699,
    "Ġnor": 1549,
    "Ġfonder": 17880,
    "Ġcor": 1323,
    "bles": 7017,
    "Ġniece": 5712,
    "ass": 540,
    "Ġcetacean": 25878,
    "Ġunsophisticated": 25992,
    "Ġtal": 7564,
    "sl": 5794,
    "Ġclue": 7019,
    "Ġcedar": 15187,
    "Ġblinded": 13269,
    "ld": 385,
    "ipper": 13739,
    "Ġsentinel": 26065,
    "the": 334,
    "Ġcow": 13875,
    "nep": 20985,
    "atural": 935,
    "Ġdev": 875,
    "Ġtremendous": 8352,
    "Ġsealed": 15816,
    "Ġsat": 1133,
    "Ġostr": 21323,
    "Ġstraits": 7993,
    "Ġcontract": 18475,
    "Ġraise": 6166,
    "ra": 314,
    "lone": 11499,
    "Ġtoken": 2039,
    "Ġslipped": 6492,
    "Ġcumulative": 4208,
    "Ġflorida": 20658,
    "motives": 26137,
    "Ġunprinciple": 18254,
    "Ġstiffly": 15005,
    "Åĵ": 10744,
    "sit": 13779,
    "Ġdeceased": 15006,
    "Ġabuse": 18392,
    "Ġdiscoverer": 26035,
    "Ġsledge": 8110,
    "Ġclinging": 10291,
    "Ġsqualls": 17020,
    "pul": 8753,
    "Ġbelongs": 8014,
    "Ġtugged": 17288,
    "Ġstilly": 25973,
    "Ġfaith": 5350,
    "roded": 17955,
    "Ġusefulness": 19406,
    "Ġausten": 5880,
    "Ġmaj": 3925,
    "cousin": 10652,
    "confidential": 25876,
    "overs": 17621,
    "har": 20889,
    "Ġhospitable": 17059,
    "Ġdrowsy": 26444,
    "Ġlove": 2054,
    "Ġcritically": 23444,
    "Ġprofessors": 14724,
    "Ġfresh": 3668,
    "queens": 22889,
    "Ġblessed": 6931,
    "Ġaz": 9629,
    "Ġhumans": 8929,
    "Ġducking": 17146,
    "unicorn": 21886,
    "âĢ": 294,
    "Ġbark": 10798,
    "abhorred": 17335,
    "```": 25893,
    "Ġfel": 1518,
    "Ġpostscript": 14807,
    "Ġspitz": 14148,
    "cats": 17512,
    "Ġclimes": 12837,
    "Ġpreparation": 13528,
    "Ġsubs": 2131,
    "ection": 4948,
    "ray": 2438,
    "swaying": 25910,
    "eastward": 15128,
    "Ġx": 2074,
    "el": 306,
    "Ġsagacity": 16974,
    "Ġraging": 14304,
    "Ġsorting": 3232,
    "Ġbeheaded": 11655,
    "Ġhorror": 3772,
    "Ġpaints": 23521,
    "ġ": 226,
    "Ġskirts": 14352,
    "Ġorder": 1688,
    "Ġstraightway": 9016,
    "Ġfill": 5701,
    "grown": 10099,
    "deemed": 18315,
    "aves": 3598,
    "Ġgamb": 17997,
    "Ġrevered": 23733,
    "tain": 559,
    "Ġscriptures": 26235,
    "remed": 18952,
    "Ġcaravan": 26290,
    "breaths": 25336,
    "render": 10290,
    "Ġexpands": 25237,
    "riving": 21923,
    "Ġsn": 2953,
    "Ġstalked": 20427,
    "Ġturner": 7049,
    "Ġhaunted": 10253,
    "Ġtowering": 16739,
    "ĠĠĠĠĠĠĠĠĠĠĠĠĠĠĠĠĠĠĠĠĠĠĠĠĠĠĠĠĠĠĠĠĠĠĠĠĠĠĠĠĠĠĠ": 12152,
    "Ġpeaking": 22687,
    "Ġvanish": 8927,
    "leaves": 12575,
    "above": 8147,
    "Ġtro": 7356,
    "Ġemployments": 12100,
    "startled": 24941,
    "Ġcomfor": 14053,
    "Ġsmiling": 5474,
    "Ġonce": 1493,
    "effort": 19213,
    "Ġbeneath": 3235,
    "._": 3217,
    "Ġaltogether": 4831,
    "mai": 22911,
    "delightful": 12194,
    "ole": 9613,
    "Ġsentence": 6187,
    "hro": 20890,
    "Ġfountain": 7365,
    "Ġtendons": 19807,
    "dance": 17519,
    "blacksmith": 17001,
    "Ġinevitably": 17230,
    "ensibility": 22544,
    "remote": 23187,
    "Ġaccompan": 5513,
    "ren": 550,
    "Ġaddition": 1147,
    "oon": 6364,
    "Ġcalhoun": 23042,
    "Ġscorch": 20065,
    "Ġbrook": 13045,
    "bulk": 19923,
    "Ġdeceitfulness": 25734,
    "Ġprobably": 4313,
    "Ġspind": 18307,
    "astrous": 15884,
    "Ġbiscuit": 12586,
    "Ġjest": 18403,
    "Ġphara": 23196,
    "peril": 18340,
    "charles": 14698,
    "Ġpay": 3962,
    "Ġantagonist": 26328,
    "Ġuneasy": 8661,
    "elect": 20845,
    "Ġburly": 19249,
    "Ġexterior": 19986,
    "gledy": 25403,
    "unctuous": 21879,
    "Ġmouths": 7491,
    "Ġrenowned": 26193,
    "Ġfleetness": 20178,
    "Ġcollapsed": 15080,
    "gpt": 5355,
    "still": 4216,
    "jewell": 25523,
    "Ġstillness": 12992,
    "whilst": 18371,
    "Ġneedlessly": 23628,
    "lungs": 26135,
    "Ġunprovided": 18260,
    "Ġinconsiderable": 21492,
    "Ġviolet": 19088,
    "Ġpunctilious": 26352,
    "Ġgenerous": 6271,
    "Ġslippers": 19614,
    "Ġreciproc": 20620,
    "apart": 15959,
    "ufact": 10733,
    "Ġcitations": 25437,
    "Ġtrumpet": 9573,
    "Ġinterment": 22571,
    "Ġhumming": 12985,
    "derest": 18314,
    "flatter": 23964,
    "Ġtoast": 21509,
    "incidentally": 20538,
    "Ġbuilded": 24719,
    "Ġgodfre": 14529,
    "Ġtepid": 26412,
    "Ġmanor": 14196,
    "Ġdebar": 24271,
    "Ġturbulence": 26597,
    "il": 329,
    "Ġcreation": 6439,
    "Ġclose": 3037,
    "Ġarticles": 7108,
    "Ġswam": 6448,
    "lier": 20948,
    "etence": 21574,
    "abling": 1079,
    "continuing": 24479,
    "distraction": 24200,
    "Ġlined": 15647,
    "Ġbachelors": 24860,
    "Ġforlorn": 14014,
    "otic": 15742,
    "Ġgriev": 16634,
    "ivates": 18280,
    "eat": 11482,
    "sue": 2077,
    "Ġclaws": 15964,
    "Ġengland": 3854,
    "suspect": 9539,
    "Ġminded": 23230,
    "Ġet": 3580,
    "Ġtreasures": 17047,
    "Ġminutely": 14561,
    "asion": 5714,
    "favourite": 15142,
    "ong": 537,
    "beheld": 11799,
    "otence": 14022,
    "thee": 9689,
    "Ġben": 1111,
    "Ġstrokes": 16769,
    "Ġforbearing": 25098,
    "Ġbur": 2696,
    "sig": 2877,
    "Ġthumb": 6981,
    "Ġcopse": 17067,
    "Ġliberties": 19666,
    "Ġoutfits": 22318,
    "Ġpreventing": 884,
    "dy": 3859,
    "Ġopera": 23424,
    "persuaded": 15072,
    "Ġmark": 2331,
    "Ġpresume": 8037,
    "âĢĻâĢĶ": 12733,
    "gradient": 2275,
    "Ġtrinity": 22353,
    "Ġbent": 5149,
    "Ġallude": 12768,
    "opening": 10312,
    "Ġtap": 12523,
    "Ġcetace": 14987,
    "anke": 15558,
    "Ġpregn": 22229,
    "Ġcontribut": 12856,
    "Ġscotland": 6639,
    ":--": 5784,
    "Ġdragged": 6889,
    "Ġforth": 3461,
    "Ġwall": 3840,
    "Ġindolence": 16226,
    "Ġ550": 19640,
    "Ġyelling": 18096,
    "):": 11461,
    "Ġinclu": 1103,
    "Ġforgetfulness": 14606,
    "Ġwillingly": 8884,
    "Ġpounds": 5368,
    "Ġconfines": 23300,
    "pl": 401,
    "provid": 11149,
    "Ġarabian": 9089,
    "Ġthirst": 7589,
    "Ġcoloss": 11046,
    "Ġexpress": 2194,
    "Ġape": 21195,
    "clam": 13052,
    "olent": 8154,
    "professional": 20274,
    "Ġcollection": 8221,
    "Ġsteward": 6584,
    "Ġslippery": 12164,
    "Ġsupre": 10268,
    "Ġassumpt": 5415,
    "crossing": 19409,
    "harpoon": 9490,
    "arches": 10816,
    "Ġweaving": 12737,
    "Ġenforced": 21935,
    "illes": 12691,
    "ĠĠĠĠĠĠĠĠĠĠĠĠĠĠĠĠĠĠĠĠĠĠĠĠĠĠĠĠĠĠĠĠĠĠĠĠĠĠĠĠĠĠĠĠĠĠĠĠĠ": 20036,
    "ists": 4000,
    "Ġsubdued": 11030,
    "younger": 11312,
    "excitement": 19668,
    "hob": 20899,
    "niest": 18969,
    "abond": 15738,
    "Ġundersampling": 19517,
    "befall": 22491,
    "raising": 21629,
    "Ġwhispering": 14944,
    "properly": 24918,
    "Ġsnatches": 16544,
    "Ġhearty": 9845,
    "dling": 9111,
    "Ġexpecting": 10436,
    "Ġfrenz": 25446,
    "Ġdispleasure": 16050,
    "Ġresided": 11809,
    "emed": 3381,
    "Ġconfining": 23301,
    "Ġchip": 12821,
    "etian": 13958,
    "Ġbought": 8415,
    "till": 6965,
    "Ġmingled": 12375,
    "Ġbee": 21746,
    "Ġwarned": 16880,
    "Ġsympathies": 14860,
    "Ġsubur": 12953,
    "Ġcrotch": 9962,
    "ribbed": 16410,
    "fine": 10090,
    "ject": 874,
    "Ġsounds": 5190,
    "Ġgame": 3627,
    "Ġgenerations": 10964,
    "Ġrealise": 16336,
    "affold": 16562,
    "isbury": 21375,
    "axing": 18547,
    "aste": 4600,
    "Ġhan": 15615,
    "âĢľâĢĻ": 10221,
    "Ġimpreg": 15986,
    "Ġrelatives": 12979,
    "Ġalders": 21781,
    "Ġoun": 13862,
    "Ġhammered": 13238,
    "Ġbenjamin": 26567,
    "antingly": 22095,
    "persu": 8027,
    "Ġimitate": 14157,
    "precious": 12070,
    "Ġseized": 4833,
    "Ġscrape": 14917,
    "Ġunscrew": 22037,
    "Ġvessels": 6755,
    "Ġcommissionaire": 17000,
    "Ġcolour": 4461,
    "Ġstrangest": 14795,
    "chemical": 23807,
    "Ġlump": 21549,
    "Ġmutinous": 23955,
    "Ġpalaces": 24091,
    "Ġsternly": 16715,
    "particular": 5757,
    "Ġhostile": 19938,
    "Ġfundamental": 3015,
    "windibank": 24161,
    "aract": 17894,
    "mblance": 7323,
    "Ġcurds": 22959,
    "ł": 259,
    "Ġinst": 911,
    "decided": 13214,
    "Ġnoses": 18372,
    "Ġsailor": 3534,
    "Ġrepelled": 19083,
    "Ġloosed": 22109,
    "cheap": 23803,
    "resolution": 17766,
    "Ġverify": 12085,
    "Ġcommission": 6712,
    "Ġundergo": 23236,
    "Ġpeaked": 2297,
    "Ġmarking": 16468,
    "Ġhorrible": 4905,
    "mb": 913,
    "Ġbased": 3339,
    "Ġrevealed": 6751,
    "strils": 10458,
    "ifting": 6545,
    "Ġexceptional": 19369,
    "later": 20952,
    "Ġgirdled": 19157,
    "Ġcitadel": 25438,
    "Ġkin": 15902,
    "Ġwarped": 25035,
    "Ġmich": 21304,
    "Ġbanish": 15567,
    "Ġcasualties": 25512,
    "tubes": 25211,
    "asingly": 17960,
    "pity": 17627,
    "lic": 17587,
    "Ġaustrian": 24300,
    "Ġtanning": 17729,
    "Ġfi": 939,
    "Ġegyptian": 13585,
    "Ġunce": 11709,
    "aternity": 21264,
    "Ġarg": 4766,
    "eler": 1572,
    "Ġmercy": 8998,
    "ocation": 14626,
    "Ġpile": 8423,
    "Ġintervened": 25481,
    "Ġwindibank": 7257,
    "arman": 11594,
    "Ġeaster": 15672,
    "Ġcommenting": 25228,
    "Ġsupposed": 4557,
    "Ġfreer": 23206,
    "sperm": 5203,
    "Ġhealthy": 10851,
    "Ġmaybe": 12946,
    "ential": 826,
    "Ġmicrosc": 20675,
    "Ġdeliver": 9847,
    "finger": 10093,
    "Ġcheetah": 14502,
    "Ġunfolding": 17086,
    "Ġexpensive": 12915,
    "Ġmaketh": 15186,
    "hours": 9124,
    "Ġdoubts": 8579,
    "Ġven": 4647,
    "Ġencodings": 4775,
    "Ġfurthest": 22813,
    "comfortable": 7320,
    "Ġentrapped": 26262,
    "Ġmomentous": 16170,
    "Ġvalu": 5039,
    "Ġsparing": 22126,
    "Ġjung": 12833,
    "Ġabandonment": 25603,
    "Ġcab": 2632,
    "Ġvaguely": 17365,
    "strongly": 24684,
    "Ġtestified": 16331,
    "haps": 1673,
    "Ġbrain": 2088,
    "Ġacross": 1330,
    "Ġprinted": 11947,
    "value": 18803,
    "Ġtraining": 529,
    "Ġmartyr": 26360,
    "Ġscornful": 24996,
    "Ġscraps": 16902,
    "ouble": 2659,
    "Ġperchance": 15989,
    "poky": 17644,
    "Ġunderstand": 835,
    "Ġacquaintances": 17349,
    "Ġallev": 18100,
    "building": 17308,
    "Ġforget": 2633,
    "\":": 9581,
    "Ġmatters": 4974,
    "Ġeste": 6084,
    "heric": 15909,
    "adventurous": 25361,
    "honorable": 19900,
    "Ġarguing": 25470,
    "Ġthro": 5817,
    "Ġgenerates": 3662,
    "rary": 4574,
    "oors": 17620,
    "Ġabund": 8864,
    "mansion": 20982,
    "elf": 565,
    "Ġfry": 17879,
    "Ġsurf": 19131,
    "Ġuseful": 3557,
    "Ġfilthy": 13246,
    "Ġlass": 15645,
    "Ġcage": 17825,
    "extra": 8218,
    "Ġsurpassed": 25267,
    "springing": 24889,
    "Ġpossessing": 16575,
    "Ġcheapside": 23285,
    "Ġrecorded": 11293,
    "âĢĿ;": 11669,
    "Ġprocedural": 12029,
    "utes": 5913,
    "Ġhun": 1498,
    "Ġfetched": 24567,
    "Ġdoesn": 7438,
    "Ġendwise": 23142,
    "depths": 25663,
    "Ġtol": 6675,
    "Ġtot": 4184,
    "Ġoffending": 22740,
    "cstasy": 11445,
    "Ġlandlord": 5581,
    "Ġcant": 17824,
    "Ġresolves": 23646,
    "Ġdoct": 4455,
    "arus": 13911,
    "chamber": 13624,
    "Ġsnoo": 21227,
    "ultaneously": 4191,
    "Ġgobern": 22422,
    "Ġreconciled": 13586,
    "lines": 6959,
    "ĠĠĠĠĠĠĠĠ": 711,
    "Ġunpardonable": 22059,
    "Ġpersu": 3563,
    "Ġpartners": 11851,
    "Ġassented": 17337,
    "mp": 3727,
    "Ġwelfare": 12556,
    "Ġfetching": 16896,
    "etrics": 21582,
    "Ġostentatious": 25736,
    "verb": 10216,
    "Ġriveted": 13617,
    "aired": 8368,
    "Ġvalid": 1756,
    "grieved": 17316,
    "-------": 20387,
    "Ġparlour": 12319,
    "Ġhideousness": 16915,
    "Ġunintellig": 22023,
    "vedale": 22707,
    "Ġknees": 6928,
    "alization": 732,
    "idered": 4552,
    "Ġdeclaring": 19418,
    "Ġsnugness": 20075,
    "Ġart": 748,
    "Ġslight": 3120,
    "Ġdismast": 12885,
    "acific": 4960,
    "Ġemper": 9860,
    "passing": 14811,
    "endous": 6850,
    "compose": 24029,
    "feelings": 5674,
    "Ġreasoning": 1984,
    "Ġvillanous": 24051,
    "Ġconstant": 6309,
    "canallers": 22966,
    "Ġ12": 5483,
    "Ġcyp": 21343,
    "prisoner": 20542,
    "unerative": 21893,
    "Ġphysiognomical": 25611,
    "paid": 15413,
    "Ġexagger": 12716,
    "Ġknob": 24407,
    "enth": 6680,
    "Ġconvince": 14642,
    "prospect": 23394,
    "igation": 5917,
    "Ġsits": 10768,
    "myself": 5113,
    "accountable": 7109,
    "Ġdesolate": 10012,
    "dick": 11479,
    "Ġclaimed": 14201,
    "Ġrudimental": 25108,
    "Ġpushing": 10819,
    "desolation": 20448,
    "dropped": 12260,
    "Ġsickened": 16775,
    "dor": 12449,
    "Ġcompliments": 8632,
    "ribution": 14305,
    "ellest": 21571,
    "fish": 3513,
    "Ġlately": 6387,
    "Ġgrego": 18962,
    "Ġabound": 8863,
    "eration": 10772,
    "arctic": 12607,
    "err": 1142,
    "bad": 12434,
    "Ġgeese": 7693,
    "Ġvib": 8164,
    "Ġconscientious": 16727,
    "iments": 4945,
    "bennet": 5352,
    "Ġpred": 681,
    "Ġflock": 21409,
    "Ġunden": 22010,
    "aft": 9583,
    "learning": 2739,
    "shoes": 14241,
    "ublic": 11227,
    "icle": 10834,
    "whaler": 20308,
    "Ġruffled": 25835,
    "Ġbelonged": 6922,
    "Ġdanced": 7842,
    "Ġpaternal": 16389,
    "arrow": 4178,
    "Ġhighland": 18713,
    "Ġpassenger": 14369,
    "Ġimbec": 14156,
    "Ġfierceness": 26265,
    "Ġresponded": 13637,
    "Ġxi": 16428,
    "Ġunrolled": 22035,
    "Ġidentity": 2525,
    "erie": 21270,
    "aurs": 20768,
    "Ġoccasions": 7987,
    "london": 9609,
    "Ġhistorical": 3644,
    "fisher": 7547,
    "though": 2116,
    "ierce": 14391,
    "Ġsteals": 23082,
    "odox": 21808,
    "Ġcou": 5286,
    "Ġfigures": 8629,
    "tossing": 18580,
    "regret": 16450,
    "estim": 14169,
    "plied": 10254,
    "Ġpack": 5444,
    "x": 92,
    "Ġbind": 12579,
    "Ġchamounix": 14863,
    "derness": 11735,
    "oney": 3051,
    "Ġnoting": 18221,
    "arks": 2845,
    "Ġunchanging": 22042,
    "ga": 17550,
    "Ġtwice": 4661,
    "Ġascent": 19617,
    "Ġsax": 10929,
    "Ġcommun": 1708,
    "Ġnone": 3220,
    "Ġastronomy": 25926,
    "infant": 19826,
    "Ġwield": 21289,
    "Ġdistrust": 8204,
    "Ġinsp": 2101,
    "perils": 22179,
    "wonderful": 16960,
    "account": 5329,
    "Ġwaylaid": 22872,
    "uzza": 11270,
    "Ġshrieked": 9547,
    "Ġexercised": 24803,
    "Ġsnapping": 19300,
    "Ġcanoe": 9722,
    "Ġmathemat": 3201,
    "urpation": 16300,
    "Ġvarieties": 14309,
    "Ġacres": 14312,
    "Ġimbedded": 18332,
    "Ġexactly": 2766,
    "attentive": 17189,
    "Ġdistinguished": 8272,
    "Ġcup": 5697,
    "examined": 17266,
    "Ġcommenced": 8531,
    "Ġbadly": 12129,
    "Ġkeep": 2356,
    "Ġinsignificance": 20456,
    "rab": 7596,
    "ony": 3030,
    "Ġexceedingly": 4613,
    "Ġnote": 4261,
    "?âĢĿâĢĶ": 12892,
    "Ġunfl": 22017,
    "amore": 21840,
    "Ġshoulders": 5566,
    "Ġdesperate": 7776,
    "bouton": 17501,
    "Ġeggs": 12340,
    "Ġdusky": 13548,
    "Ġaddu": 22098,
    "Ġplu": 8798,
    "onement": 21255,
    "Ġrhine": 12354,
    "shark": 14239,
    "Ġsolely": 9909,
    "Ġbearded": 15724,
    "Ġdisappointment": 6626,
    "Ġinequal": 21494,
    "Ġmystery": 5509,
    "rive": 9706,
    "Ġcetus": 19884,
    "Ġrelied": 16193,
    "rawling": 21633,
    "gage": 13722,
    "Ġcommunic": 5751,
    "Ġimputation": 22169,
    "Ġdisguises": 25055,
    "strangely": 17276,
    "myst": 9821,
    "Ġfanc": 6743,
    "Ġperuvian": 18453,
    "Ġanalytical": 22905,
    "<SOS>": 1,
    "Ġcarelessly": 11120,
    "keeping": 8634,
    "Ġpractical": 3164,
    "grateful": 10428,
    "Ġduplicity": 25331,
    "opy": 4458,
    "ariously": 18524,
    "Ġmasts": 6465,
    "Ġconc": 1842,
    "Ġchronicler": 20228,
    "Ġtore": 6530,
    "Ġquarters": 8619,
    "vial": 17697,
    "cocks": 23559,
    "farmer": 25899,
    "actually": 14296,
    "Ġscattered": 6856,
    "Ġpurring": 23474,
    "Ġshield": 21996,
    "Ġdolph": 12378,
    "Ġinstant": 2702,
    "ize": 763,
    "Ĭ": 237,
    "itous": 13866,
    "Ġrises": 9712,
    "oak": 21002,
    "ibly": 2998,
    "Ġexclam": 6757,
    "d": 72,
    "pad": 13767,
    "Ġwhat": 598,
    "maritime": 24173,
    "Ġriverside": 25247,
    "Ġcompress": 21846,
    "Ġuntutored": 19165,
    "Ġheave": 7599,
    "Ġflail": 23006,
    "Ġhoneymoon": 25645,
    "ent": 305,
    "Ġhowling": 8509,
    "Ġsoc": 3523,
    "Ġstraggling": 23750,
    "metic": 14983,
    "Ġwow": 15527,
    "Ġtune": 17725,
    "lynes": 15701,
    "local": 22507,
    "enstein": 5799,
    "Ġinjustice": 9190,
    "umbers": 10918,
    "Ġcleaned": 23180,
    "beat": 10986,
    "Ġthroes": 24574,
    "Ġmur": 2490,
    "ately": 1697,
    "vig": 15445,
    "gave": 7799,
    "Ġrecall": 3853,
    "roofed": 26183,
    "Ġprepare": 8646,
    "emic": 18184,
    "order": 1960,
    "stubb": 6017,
    "imod": 15707,
    "Ġmaker": 15540,
    "Ġthin": 4347,
    "destroyed": 15259,
    "Ġapril": 13661,
    "Ġstaves": 21737,
    "cou": 13694,
    "Ġabstra": 22268,
    "Ġsoften": 23121,
    "coloured": 7291,
    "Ġpet": 4585,
    "Ġtobacc": 7852,
    "Ġswallows": 18882,
    "ouses": 5163,
    "Ġzealand": 12348,
    "abulary": 4800,
    "Ġspears": 12923,
    "utherland": 9578,
    "woe": 21134,
    "!âĢĿ": 847,
    "Ġconcil": 23318,
    "specim": 23941,
    "dripping": 16905,
    "sails": 7497,
    "Ġanecd": 20153,
    "pursued": 17281,
    "Ġbracelets": 25502,
    "Ġlungless": 24863,
    "Ġcour": 1767,
    "Ġadvantageously": 19544,
    "Ġinspired": 2518,
    "ship": 1392,
    "Ġwhiskers": 10492,
    "Ġsleepless": 14582,
    "Ġragged": 11842,
    "Ġfurious": 10354,
    "write": 14647,
    "solid": 16376,
    "capital": 15087,
    "Ġiv": 4044,
    "retrie": 18922,
    "Ġchecked": 9375,
    "beating": 22485,
    "Ġestablish": 9542,
    "orial": 8416,
    "Ġenter": 4030,
    "Ġsplitting": 4382,
    "Ġentertain": 6053,
    "Ġundec": 22016,
    "consent": 18505,
    "Ġeasy": 3451,
    "iem": 20916,
    "Ġclasses": 4054,
    "Ġhideous": 5982,
    "es": 288,
    "Ġmess": 7831,
    "Ġchambers": 16799,
    "pha": 22769,
    "Ò": 147,
    "Ġpythag": 26448,
    "Ġjove": 9267,
    "capting": 24036,
    "ount": 1115,
    "trunk": 23945,
    "Ġinfinity": 23279,
    "moil": 22700,
    "impul": 16556,
    "Ġcongeal": 25980,
    "Ġepic": 15029,
    "preserve": 25303,
    "Ġsatisf": 2805,
    "Ġtalent": 12295,
    "Ġattractions": 12914,
    "Ġnot": 413,
    "Ġstay": 3096,
    "Ġdiff": 3116,
    "Ġsomebody": 7912,
    "Ġcrime": 4615,
    "stranger": 9882,
    "charitable": 23930,
    "icates": 11616,
    "Ġblame": 6446,
    "Ġgiver": 21602,
    "sembled": 7263,
    "sphere": 22731,
    "larger": 24202,
    "Ġingrat": 16840,
    "Ġunst": 18238,
    "Ġdodo": 9072,
    "Ġsockets": 22085,
    "Ġchord": 22242,
    "Ġyawning": 12298,
    "Ġhorrify": 23816,
    "fearing": 18526,
    "cob": 10086,
    "Ġbuttoned": 25368,
    "traces": 24315,
    "Ġdong": 17887,
    "fever": 22497,
    "Ġunimag": 12772,
    "Ġhearers": 15700,
    "emberley": 4170,
    "sought": 15426,
    "Ġcalcul": 3636,
    "Ġcra": 2332,
    "Ġdistracted": 11802,
    "twill": 21073,
    "acious": 5562,
    "mers": 9610,
    "Ġalbino": 20501,
    "Ġbuffaloes": 25217,
    "Ġviolates": 3165,
    "Ġcasually": 25093,
    "Ġcondition": 6764,
    "======": 9832,
    "Ġinstance": 2545,
    "Ġremonstr": 16159,
    "Ġworry": 18815,
    "Ġstaggering": 20272,
    "Ġattention": 1173,
    "Ġopinions": 9414,
    "Ġbenignity": 18782,
    "Ġclass": 790,
    "oregressive": 3424,
    "itching": 21333,
    "happiest": 19331,
    "Ġrece": 11637,
    "Ġgait": 13329,
    "Ġshops": 21998,
    "fes": 20850,
    "Ġreptile": 15276,
    ".": 18,
    "Ġdreadfully": 7725,
    "simon": 16973,
    "Ġundue": 25993,
    "Ġru": 947,
    "Ġbuoyed": 20039,
    "Ġjoke": 8868,
    "sch": 21049,
    "iscient": 17851,
    "igen": 4829,
    "Ġminority": 18755,
    "Ġclearness": 23181,
    "Ġeyelashes": 26106,
    "Ġcomparing": 14264,
    "Ġunderground": 18985,
    "Ġaccustomed": 6861,
    "ink": 755,
    "Ġvial": 10248,
    "Ġgloomy": 7504,
    "Ġmannish": 26237,
    "Ġshrimp": 24157,
    "nesday": 8702,
    "icket": 22665,
    "Ġsailed": 4889,
    "Ġmidnight": 5265,
    "Ġdisturb": 7107,
    "Ġwee": 21916,
    "mangled": 20980,
    "Ġsm": 705,
    "ports": 13773,
    "insulting": 26055,
    "Ġstarbuck": 2193,
    "Ġentertainment": 12220,
    "Ġchanged": 5243,
    "Ġbreeds": 23346,
    "av": 740,
    "Ġwonderland": 23423,
    "Ġsuggestion": 19706,
    "Ġsaves": 18324,
    "Ġdescend": 7427,
    "respective": 19845,
    "Ġbarbarously": 24819,
    "elter": 21568,
    "hor": 2571,
    "eed": 20840,
    "sink": 11521,
    "patient": 25342,
    "Ġpistol": 7846,
    "Ġobserver": 11987,
    "ĠĠĠĠĠĠĠĠĠĠ": 18577,
    "Ġcut": 2640,
    "Ġsemicirc": 16391,
    "erland": 9640,
    "Ġunrest": 11712,
    "Ġhumble": 8551,
    "Ġstript": 23692,
    "find": 6954,
    "Ġunappe": 22015,
    "Ġingen": 9049,
    "Ġtrained": 8502,
    "Ġshallow": 14394,
    "Ġpursu": 3237,
    "Ġpressing": 9260,
    "enthus": 17977,
    "Ġjiff": 22293,
    "popular": 26140,
    "keeper": 5597,
    "Ġreeled": 13985,
    "Ġparish": 8854,
    "Ġassurances": 9999,
    "Ġproposal": 10018,
    "Ġdrank": 16535,
    "Ġappalled": 22216,
    "interred": 23736,
    "numbers": 17616,
    "Ġfooting": 14482,
    "observing": 25494,
    "Ġincredulous": 9986,
    "brought": 7285,
    "Ġunwelcome": 12777,
    "uncle": 8158,
    "Ġpoland": 23616,
    "Ġreddening": 25970,
    "Ġcreep": 22723,
    "Ġtrace": 6181,
    "Ġsunshine": 14494,
    "Ġphantom": 8706,
    "Ġtooks": 23323,
    "pless": 6260,
    "straw": 24095,
    "shunned": 22464,
    "Ġhyper": 19738,
    "Ġsometimes": 2166,
    "Ġtables": 9877,
    "Ġbri": 21376,
    "Ġeasiness": 23535,
    "met": 6652,
    "Ĉ": 201,
    "rons": 21038,
    "Ġawkwardness": 13486,
    "Ġnotwithstanding": 9713,
    "Ġaccuracy": 1091,
    "imin": 1768,
    "Ġcapstan": 9098,
    "wishing": 21127,
    "Ġappal": 18359,
    "despond": 19799,
    "laid": 10109,
    "caterpillar": 26383,
    "smiles": 14692,
    "Ġtubs": 11370,
    "iverse": 13114,
    "Ġdive": 10172,
    "Ġvariation": 22662,
    "comm": 7440,
    "Ġmand": 21303,
    "dig": 4929,
    "Ġshipmate": 8928,
    "Ġintolerably": 15827,
    "Ġdiscove": 16153,
    "days": 7687,
    "Ġguide": 3213,
    "Ġcrab": 13143,
    "Ġcounter": 6481,
    "blu": 12438,
    "Ġwalk": 1825,
    "Ġlistened": 4469,
    "Ġpsal": 15613,
    "Ġdeem": 18133,
    "Ġcomforts": 14693,
    "Ġbecause": 2209,
    "ostentatious": 20651,
    "Ġevidence": 5269,
    "sequ": 2399,
    "Ġforbe": 8457,
    "Ġdesperado": 19818,
    "Ġsophisticated": 1606,
    "Ġmerciless": 25246,
    "Ġwoe": 4793,
    "melancholy": 12351,
    "Ġlance": 4879,
    "Ġele": 1964,
    "Ġartfully": 22608,
    "ispensable": 9095,
    "Ġessential": 7523,
    "Ġsprout": 24088,
    "Ġstifle": 18073,
    "Ġrot": 10967,
    "Ġfishing": 9662,
    "Ġled": 3519,
    "ods": 8834,
    "une": 2784,
    "Ġdistribut": 843,
    "Ġheads": 3740,
    "ville": 6087,
    "Ġcomprehending": 24445,
    "Ġborder": 10169,
    "Ġconstit": 8583,
    "Ġvestige": 20061,
    "Ġdemonstrate": 24994,
    "Ġdetached": 10280,
    "Ġcharges": 23266,
    "Ġlogits": 3449,
    "Ġmassacre": 20546,
    "binary": 20783,
    "scornful": 26575,
    "Ġproduces": 2093,
    "shipmates": 11926,
    "Ġthreatened": 8329,
    "expect": 4769,
    "Ġwayward": 22871,
    "Ġlivelong": 25511,
    "announced": 19758,
    "Ġcondensed": 24049,
    "lose": 12879,
    "Ġestate": 6316,
    "porary": 14553,
    "buck": 17490,
    "Ġejaculated": 15168,
    "incredible": 16497,
    "chants": 21689,
    "ription": 5676,
    "Ġweighing": 20014,
    "Ġid": 1907,
    "Ġassuredly": 14821,
    "Ġgetting": 4066,
    "Ġselfishness": 12287,
    "neath": 12863,
    "Ġcrosswise": 18887,
    "Ġdisquiet": 18552,
    "Ġexult": 10229,
    "Ġungenerous": 18266,
    "Ġfour": 2214,
    "Ġemir": 23348,
    "Ġartist": 12909,
    "Ġbarely": 16936,
    "Ġalgorithm": 762,
    "bourne": 19102,
    "Ġfamiliarly": 11303,
    "Ġwithdrawing": 11340,
    "Ġottoman": 17377,
    "macy": 18806,
    "continual": 20643,
    "Ġdeficiency": 14402,
    "aby": 18106,
    "Ġaccept": 4410,
    "Ġenthus": 7232,
    "Ġstig": 14001,
    "Ġasc": 4765,
    "neglect": 25668,
    "Ġalways": 1699,
    "Ġflies": 13022,
    "Ġremarkable": 4915,
    "alley": 23023,
    "Ġcorresponding": 13437,
    "Ġappear": 2486,
    "proposal": 18746,
    "Ġdromedary": 17438,
    "Ġinteraction": 7424,
    "Ġsiam": 13837,
    "itioned": 22476,
    "Ġflowing": 14410,
    "spent": 12940,
    "congenial": 25399,
    "Ġtranquill": 6630,
    "Ġguardianship": 17419,
    "Ġdanes": 25156,
    "Ġuneasily": 24230,
    "Ġdevil": 3612,
    "Ġsche": 1707,
    "laug": 10707,
    "Ġevinced": 7100,
    "why": 2828,
    "Ġabusing": 18393,
    "Ġload": 14145,
    "Ġconsciousness": 9947,
    "Ġrested": 9378,
    "bb": 2798,
    "insufferable": 21191,
    "Ġsloping": 11937,
    "Ġjustify": 11072,
    "Ġarm": 2493,
    "Ġdeftly": 26493,
    "Ġplease": 4723,
    "Ġheroine": 24543,
    "Ġbuild": 6474,
    "Ġprevented": 5941,
    "Ġincident": 6280,
    "Ġwrapping": 19774,
    "ress": 931,
    "Ġglades": 19370,
    "directly": 13708,
    "cceed": 4142,
    "Ġbabies": 19691,
    "Ġpleasantly": 14520,
    "Ġovers": 14205,
    "ateful": 5926,
    "Ġsar": 21212,
    "snapping": 24849,
    "yesterday": 10353,
    "Ġped": 6817,
    "Ġtemporal": 2612,
    "Ġagatha": 6866,
    "bit": 3930,
    "Ġvag": 9707,
    "Ġdidn": 4362,
    "orns": 12589,
    "Ġhussey": 7724,
    "Ġaside": 5234,
    "Ġfifty": 4623,
    "Ġoutwardly": 24998,
    "Ġruggedness": 26268,
    "admitted": 18091,
    "Ġfalling": 6915,
    "Ġmaintained": 12931,
    "Ġwidower": 24235,
    "bestowed": 12223,
    "Ġdrifted": 14625,
    "Ġinstructive": 19284,
    "Ġdav": 15587,
    "Ġtorrid": 25032,
    "Ġstump": 7602,
    "Ġstain": 18064,
    "gradu": 18616,
    "Ġwides": 17788,
    "des": 1565,
    "Ġreduces": 2343,
    "Ġcourtesy": 9944,
    "ses": 3028,
    "Ġtoy": 15631,
    "71": 20755,
    "Ġnorth": 4318,
    "Ġscare": 18397,
    "begged": 18517,
    "Ġthyself": 6602,
    "Ġpacifics": 24373,
    "Ġfortnight": 6200,
    "super": 5943,
    "Ġjetted": 24431,
    "Ġknown": 1645,
    "Ġflukes": 5266,
    "ouncement": 11743,
    "Ġlabeled": 3717,
    "enary": 12548,
    "hunters": 16833,
    "Ġwat": 1287,
    "tempestuous": 26097,
    "Ġnineveh": 13388,
    "advance": 12154,
    "of": 769,
    "Ġgall": 4351,
    "Ġscant": 22282,
    "warp": 17706,
    "aration": 12604,
    "Ġcomposedly": 25183,
    "Ġbowsman": 11255,
    "Ġrelentless": 26277,
    "Ġprophe": 13077,
    "Ġjustinian": 22969,
    "Ġobjectionable": 16991,
    "ridden": 24362,
    "rence": 5555,
    "concerning": 9067,
    "bask": 20775,
    "Ġbelieve": 2148,
    "fits": 13717,
    "Ġcrazy": 8592,
    "Ġknife": 7309,
    "Ġchis": 11748,
    "neat": 22445,
    "Ġemotions": 8969,
    "abez": 10222,
    "Ġinsolence": 20252,
    "lutions": 20949,
    "phil": 7924,
    "wrath": 23755,
    "Ġportraits": 20141,
    "Ġmerrily": 23731,
    "atmosphere": 21263,
    "Ġreside": 22536,
    "fain": 13714,
    "Ġchiselled": 25559,
    "oriented": 2951,
    "Ġdoubling": 23316,
    "og": 865,
    "pig": 8752,
    "Ġtragedy": 10667,
    "Ġnlp": 3063,
    "desire": 14473,
    "homage": 25616,
    "Ġinterrupt": 4359,
    "lu": 596,
    "Ġopine": 19226,
    "Ġincisive": 18571,
    "sized": 15427,
    "owe": 15705,
    "Ġreversed": 15694,
    "witted": 17707,
    "wide": 10137,
    "Ġunw": 8849,
    "Ġopportunities": 19248,
    "Ġissued": 10599,
    "accustomed": 13156,
    "Ġhilarious": 20297,
    "Ġlandsc": 11146,
    "Ġsou": 1885,
    "Ġseparation": 11247,
    "Ġgreatly": 5849,
    "Ġheadlong": 11886,
    "alog": 8804,
    "Ġramble": 9312,
    "Ġcod": 8411,
    "andering": 21864,
    "Ġeyeing": 6460,
    "Ġtheme": 16016,
    "Ġdead": 2170,
    "dinah": 20079,
    "Ġambition": 11432,
    "Ġdoubted": 7965,
    "rudent": 6482,
    "arab": 21439,
    ").âĢĿ": 20740,
    "Ġingenious": 12346,
    "column": 19328,
    "Ġcrushing": 20175,
    "inable": 11555,
    "Ġbourgh": 5069,
    "unwillingly": 21881,
    "Ġmighty": 4227,
    "Ġirreparable": 19997,
    "Ġpanic": 11286,
    "Ġweave": 21918,
    "||": 4869,
    "iage": 17573,
    "Ġpreliminary": 10056,
    "õ": 182,
    "Ġchaps": 14177,
    "{": 95,
    "loat": 8886,
    "Ġdispute": 16054,
    "ignominious": 26587,
    "Ġanalyzing": 18799,
    "Ġdictating": 20151,
    "Ġzeros": 3324,
    "Ġsomething": 1794,
    "Ġlikewise": 5386,
    "linearity": 1653,
    "bulkington": 19924,
    "Ġrosy": 18457,
    "Ġdipped": 15592,
    "vol": 720,
    "nment": 20989,
    "Ġ132": 19895,
    "limping": 26393,
    "correspond": 13397,
    "bar": 7541,
    "Ġcomposition": 1690,
    "Ġthunders": 15635,
    "Ġunlimited": 26222,
    "oro": 21393,
    "Ġpreserving": 19795,
    "iza": 6255,
    "Ġdelicately": 24126,
    "Ġbroods": 23100,
    "Ġstatue": 23147,
    "Ġhip": 17920,
    "Ġterrific": 6754,
    "ivities": 22077,
    "Ġdedication": 3288,
    "boo": 16349,
    "etw": 408,
    "Ġshed": 8180,
    "Ġunequal": 14841,
    "Ġmachinations": 25767,
    "gang": 17553,
    "Ã¦us": 14816,
    "Ġwindings": 18909,
    "Ġalternating": 15030,
    "ications": 4445,
    "mency": 18925,
    "Đ": 209,
    "hunsford": 24386,
    "Ġanything": 2186,
    "Ġold": 1057,
    "leisure": 21369,
    "Ġcoats": 16072,
    "Ġformality": 22828,
    "haz": 17564,
    "Ġsquaw": 22836,
    "Ġconveys": 16855,
    "Ġregal": 16074,
    "Ġcompassionate": 24723,
    "churning": 21694,
    "Ġseems": 2483,
    "Ġafrica": 12343,
    "Ġgaily": 16748,
    "composure": 24031,
    "Ġmansfield": 25938,
    "Ġchaplain": 19911,
    "loveliness": 26549,
    "Ġought": 3419,
    "Ġtelegram": 15222,
    "Ġdiscovered": 4412,
    "Ġsuspicious": 9479,
    "afforded": 25865,
    "Ġjohnson": 18409,
    "Ġburton": 23651,
    "Ġbleeds": 24397,
    "Ġseethings": 26503,
    "Ġescaping": 13133,
    "exagger": 22425,
    "indul": 22367,
    "Ġfut": 15572,
    "longbourn": 9895,
    "mmar": 952,
    "Ġsequences": 1749,
    "Ġprofound": 5497,
    "Ġmarling": 23033,
    "idious": 11661,
    "au": 779,
    "Ġyork": 11664,
    "Ġreserves": 19669,
    "quaker": 15760,
    "Ġskulls": 12957,
    "ull": 1432,
    "Ġfuel": 13903,
    "geese": 22364,
    "Ġdisobedience": 22532,
    "wh": 508,
    "Ġpreparing": 8647,
    "stationed": 25453,
    "ascal": 10192,
    "Ġvariants": 1791,
    "Ġopposed": 11189,
    "Ġpreprocess": 22230,
    "Ġrejoined": 14926,
    "Ġstand": 1734,
    "hour": 7340,
    "Ġcontracting": 16009,
    "!_": 7329,
    "Ġtracing": 18890,
    "ician": 21562,
    "illed": 2623,
    "Ġbountiful": 25944,
    "Ġconcepts": 4550,
    "Ġunfolded": 10638,
    "recollected": 25347,
    "ittarius": 22374,
    "Ġsermons": 20193,
    "Ġwid": 4632,
    "als": 2042,
    "stamp": 21651,
    "Ġshiny": 14105,
    "Ġcross": 1375,
    "aried": 10987,
    "oot": 13764,
    "Ġprinc": 4197,
    "Ġthickets": 24020,
    "grass": 23411,
    "Ġwearer": 21920,
    "Ġwand": 4341,
    "kin": 7131,
    "n": 82,
    "Ġendeared": 26498,
    "Ġhair": 3313,
    "joined": 13274,
    "Ġstratag": 26028,
    "confess": 12173,
    "Ġbowsprit": 16560,
    "Ġinattention": 17931,
    "Ġcomplexion": 8208,
    "petulance": 24299,
    "Ġfiled": 15577,
    "elop": 1439,
    "principle": 10650,
    "latin": 25258,
    "Ġunguarded": 15848,
    "aky": 18411,
    "Ġcoffin": 4429,
    "slight": 10727,
    "Ġclothing": 18423,
    "Ġentertained": 9997,
    "Ġmuhammad": 26169,
    "adow": 18087,
    "icha": 11736,
    "urged": 18048,
    "Ġbuttons": 12778,
    "puted": 8845,
    "Ġont": 18116,
    "fortunate": 4792,
    "pointing": 12222,
    "Ġimpatience": 7509,
    "Ġvisibly": 22870,
    "Ġbingleys": 18995,
    "Ġislands": 6766,
    "Ġemails": 13105,
    "luck": 5733,
    "Ġparticip": 16129,
    "anned": 17839,
    "alions": 21498,
    "inions": 8401,
    "pires": 13774,
    "Ġimmedi": 2908,
    "Ġprivilege": 11419,
    "Ġsec": 2076,
    "Ġbetter": 1175,
    "Ġshared": 10263,
    "Ġdispositions": 13231,
    "Ġchimneys": 16972,
    "tell": 1381,
    "Ġdur": 11591,
    "ities": 1826,
    "Ġregion": 2273,
    "Ġreceived": 2955,
    "tro": 15432,
    "Ġcaliforn": 14430,
    "Ġsidelong": 11438,
    "trial": 20349,
    "Ġchiefly": 5766,
    "Ġrepose": 6741,
    "Ġcontain": 1550,
    "attentions": 13573,
    "resemblance": 25933,
    "Ġcaused": 5048,
    "christmas": 20254,
    "Ġbingley": 1677,
    "Ġimpenet": 14221,
    "concerns": 24065,
    "Ġfare": 5809,
    "Ġmurmured": 7480,
    "Ġcogn": 11002,
    "Ġabominate": 20063,
    "Ġtremor": 24768,
    "Ġacting": 10991,
    "irable": 5776,
    "health": 13832,
    "being": 3911,
    "thole": 21983,
    "Ġtropical": 17065,
    "Ġpian": 13916,
    "ifers": 15779,
    "allest": 5485,
    "Ġinterp": 16067,
    "det": 5207,
    "Ġuncl": 22013,
    "Ġfreemason": 23208,
    "jac": 8381,
    "^": 66,
    "dawson": 26128,
    "Ġcharged": 9853,
    "forehead": 8515,
    "Ġwretchedly": 19505,
    "arrived": 12606,
    "Ġheartless": 13071,
    "osop": 4404,
    "ougher": 18275,
    "Ġreaction": 15692,
    "wheel": 22866,
    "Ġpang": 15602,
    "waiter": 24586,
    "Ġharpooned": 13260,
    "tattoo": 21086,
    "names": 16538,
    "Ġprotracted": 19467,
    "Ġchains": 8250,
    "Ġbolivia": 24667,
    "Ġruins": 16156,
    "Ġquestioning": 10464,
    "Ġstocks": 23174,
    "Ġhisself": 21911,
    "Ġthirteen": 15273,
    "huzza": 20912,
    "Ġloved": 4598,
    "Ġmerc": 9425,
    "Ġoctober": 17226,
    "umbered": 22114,
    "broke": 14776,
    "hunting": 24385,
    "memory": 13616,
    "Ġgiddy": 20495,
    "Ġsuspending": 19242,
    "tallied": 21088,
    "Ġrehearsed": 25971,
    "Ġnocturnal": 20714,
    "Ġdisent": 22520,
    "ivering": 7697,
    "Ġsummits": 14683,
    "Ġevaporate": 26332,
    "Ġwaved": 9644,
    "Ġpushed": 5909,
    "Ġsuppression": 22997,
    "akeman": 6267,
    "Ġinquiring": 8999,
    "Ġdeceive": 12719,
    "X": 60,
    "Ġmyth": 18220,
    "Ġcravat": 26307,
    "augment": 18828,
    "Ġfra": 1827,
    "æ": 167,
    "och": 21000,
    "oured": 2670,
    "Ġtwin": 12925,
    "Ġinsufficient": 9672,
    "acup": 14277,
    "declare": 25173,
    "day": 1858,
    "Ġing": 5283,
    "otions": 7180,
    "Ġbishop": 13901,
    "horr": 14599,
    "Ġaccompanying": 11304,
    "furthermore": 20002,
    "interrupt": 8615,
    "Ġeleg": 6192,
    "ues": 2080,
    "bitts": 26122,
    "horses": 17567,
    "Ġgrimes": 11034,
    "Ġresulting": 24198,
    "Ġsupreme": 13606,
    "Ġmeant": 3548,
    "watch": 6118,
    "ö": 183,
    "nest": 10113,
    "Ġadmit": 7710,
    "Ġsulk": 15045,
    "itors": 2917,
    "Ġoverwhelm": 25052,
    "Ġnewfoundland": 26569,
    "Ġtrack": 7450,
    "Ġsibbald": 21229,
    "glasses": 11215,
    "supp": 4161,
    "Ġarid": 22173,
    "Ġgreyish": 24208,
    "Ġtemperature": 1005,
    "Ġbanners": 24858,
    "Ġbinding": 20417,
    "Ġcigars": 12250,
    "Ġcusack": 26433,
    "illar": 5101,
    "considerable": 10548,
    "antled": 18287,
    "Ġgiven": 1628,
    "ence": 394,
    "Ġaversion": 18865,
    "Ġblackness": 9392,
    "Ġplump": 14281,
    "Ġpanelled": 19653,
    "mon": 2309,
    "arpening": 21441,
    "Ġinns": 17929,
    "crimin": 17508,
    "Ġdick": 3495,
    "tray": 21076,
    "onym": 14649,
    "inois": 17738,
    "mense": 4780,
    "Ġswe": 2291,
    "ounts": 4651,
    "Ġstruggling": 12072,
    "Ġgoney": 14546,
    "Ġlink": 8129,
    "Ġaltar": 9228,
    "unimportant": 18159,
    "Ġstock": 7455,
    "Ġtrust": 4080,
    "cred": 9107,
    "ç": 168,
    "imperturbable": 25790,
    "Ġthrusting": 10552,
    "Ġinsc": 7585,
    "Ġworsh": 12997,
    "Ġinsurmountable": 16531,
    "recursion": 13327,
    "ular": 716,
    "athered": 6972,
    "dreaded": 25138,
    "Ġbigness": 19759,
    "Ġessays": 19743,
    "Ġindian": 4131,
    "Ġtrif": 6269,
    "hint": 12473,
    "Ġamel": 18510,
    "Ġunreasonable": 12774,
    "enthusiastic": 20691,
    "Ġwhich": 502,
    "Ġcompens": 14263,
    "Ġsettles": 22917,
    "Ġanticipation": 17057,
    "iance": 5279,
    "Ġtease": 18795,
    "cong": 10687,
    "Ġsuav": 22073,
    "corpse": 24486,
    "ins": 1379,
    "Ġsavannah": 17415,
    "Ġreckoned": 24744,
    "Ġprints": 16330,
    "etics": 21578,
    "Ġobviously": 16810,
    "scar": 9815,
    "Ġwalrus": 14972,
    "!âĢĿâĢĶ": 8532,
    "Ġconfident": 11138,
    "Ġcomplaints": 12262,
    "Ġmoist": 9284,
    "Ġpredictions": 1457,
    "arch": 1127,
    "Ġdisturbance": 15012,
    "Ġhandkerchief": 8913,
    "Ġlicense": 20089,
    "Ġcopper": 7425,
    "Ġshaved": 21999,
    "Ġdistributes": 4193,
    "dient": 440,
    "greater": 13249,
    "dam": 7797,
    "Ġfamiliarity": 16729,
    "enes": 5218,
    "Ġurgent": 16869,
    "odiac": 14028,
    "ago": 14064,
    "Ġfocuses": 8649,
    "idean": 14262,
    "Ġwick": 2007,
    "Ġtransitory": 16017,
    "Ġsepulchral": 25892,
    "sand": 21051,
    "Ġprofession": 6207,
    "Ġcemet": 20679,
    "Ġdecks": 6900,
    "Ġpossibilities": 18977,
    "Ġpatroness": 13509,
    "Ġburke": 19250,
    "Ġdispersed": 16597,
    "Ġchick": 22244,
    "Ġconcernment": 23643,
    "Ġbrig": 11047,
    "Ġ60": 14874,
    "rest": 1633,
    "âĢĶâĢľ_": 13203,
    "modern": 1154,
    "Ġajar": 21201,
    "gardiner": 12289,
    "achines": 1723,
    "lady": 4433,
    "Ġoperated": 14548,
    "Ġsubmission": 22787,
    "Ġsmilingly": 22557,
    "car": 4209,
    "Ġbiological": 1933,
    "Ġtraveller": 8048,
    "Ġgrappling": 25812,
    "verdict": 21726,
    "command": 6576,
    "Ġglittering": 10052,
    "preser": 9758,
    "Ġboil": 16102,
    "Ġstriding": 16091,
    "iment": 2815,
    "Ġgid": 13961,
    "Ġhelper": 24023,
    "wall": 10136,
    "Ġpistols": 17328,
    "Ġbugs": 13647,
    "Ġrepent": 9862,
    "Ġparm": 15875,
    "Ġbride": 6291,
    "Ġfoundations": 11073,
    "score": 18854,
    "furthest": 19840,
    "lass": 5992,
    "Ġgorge": 13565,
    "Ġtu": 6968,
    "gathered": 13731,
    "bott": 9105,
    "bone": 5612,
    "Ġwashes": 21858,
    "Ġpush": 9184,
    "prosperity": 20734,
    "disapprobation": 19155,
    "pinn": 21025,
    "Ġenables": 725,
    "Ġcorrectly": 9403,
    "situation": 11437,
    "dishon": 20402,
    "supervised": 1926,
    "Ġbeaches": 18084,
    "ouder": 17900,
    "Ġinmost": 17930,
    "Ġbye": 12735,
    "Ġscrewed": 15119,
    "Ġpattered": 19051,
    "Ġparade": 18301,
    "Ġregiment": 6432,
    "Ġexploration": 2336,
    "Ġabated": 18390,
    "Ġthanking": 18602,
    "Ġreject": 7386,
    "Ġsuppose": 2866,
    "resc": 21237,
    "Ġadmitting": 19182,
    "Ġlif": 10195,
    "ĕ": 214,
    "Ġpouring": 12621,
    "Ġmacro": 25939,
    "Ġgenerator": 3383,
    "flies": 19422,
    "porpoise": 16437,
    "inese": 12877,
    "Ġswear": 6461,
    "Ġcinque": 20484,
    "Ġiroquois": 26472,
    "Ġcabs": 23639,
    "eternal": 17982,
    "Ġunfrequent": 24110,
    "Ġdeadly": 5405,
    "Ġaright": 11738,
    "Ġcircumn": 11982,
    "®": 111,
    "Ġdisposition": 5409,
    "ario": 14247,
    "stone": 5089,
    "flow": 2096,
    "Ġconclusion": 5985,
    "Ġchili": 25561,
    "goldsmith": 20146,
    "restoration": 23235,
    "ever": 1077,
    "ination": 2916,
    "Ġaverred": 18864,
    "Ġyounge": 16286,
    "entered": 8814,
    "meditation": 19066,
    "Ġcontrivances": 12355,
    "Ġst": 332,
    "Ġheap": 12675,
    "Ġprairie": 8712,
    "Ġcomfortable": 6094,
    "estation": 15920,
    "Ġlacepede": 20493,
    "Ġsacrific": 15017,
    "Ġass": 1505,
    "Ġaggreg": 12881,
    "Ġwa": 1751,
    "Ġavert": 14424,
    "ow": 325,
    "rossed": 11013,
    "danish": 20832,
    "Ġmerged": 19296,
    "Ġdimens": 3149,
    "Ġuntoward": 19164,
    "Ġswap": 23050,
    "very": 498,
    "ondescript": 22914,
    "rinted": 21042,
    "Ġjob": 7015,
    "woods": 13418,
    "treatment": 20410,
    "couldn": 23716,
    "mayhew": 23989,
    "Ġsimplicity": 2926,
    "suffered": 24334,
    "redit": 3874,
    "Ġtuning": 3073,
    "uded": 6286,
    "Ġportcullis": 26603,
    "exceeded": 24999,
    "inex": 14095,
    "cig": 17503,
    "oided": 11508,
    "Ġdeveloped": 16321,
    "Ġsurprise": 3827,
    "Ġrobbery": 11910,
    "Ġspiced": 22130,
    "flesh": 13489,
    "Ġcushion": 17833,
    "Ġcouns": 10520,
    "Ġquadr": 8199,
    "Ġtasselled": 25921,
    "Ġirregularly": 25323,
    "Ġcommit": 18655,
    "Ġanticipating": 17058,
    "onden": 13843,
    "Ġmisery": 3812,
    "presented": 12990,
    "dear": 6555,
    "Ġappellation": 22217,
    "sect": 8152,
    "Ġplacid": 11824,
    "bree": 15313,
    "Ġattributed": 11831,
    "Ġpip": 1639,
    "Ġindolent": 13002,
    "Ġblood": 3168,
    "armed": 7252,
    "Ġcapacious": 19175,
    "Ġspaniard": 20361,
    "warnings": 20350,
    "Ġlunacy": 20026,
    "Ġferule": 24499,
    "heim": 17746,
    "Ġmaterially": 12189,
    "Ġcollect": 7237,
    "Ġjoists": 19231,
    "Ġfanatic": 23390,
    "Ġbankers": 24302,
    "fow": 20852,
    "Ġagitates": 22514,
    "Ġunlikely": 10908,
    "Ġsettled": 3741,
    "ñ": 178,
    "iantly": 13738,
    "Ġcruel": 5121,
    "mast": 3601,
    "Ġlull": 15648,
    "Ġoutbreak": 22314,
    "Ġscuff": 15941,
    "anter": 9166,
    "spir": 5738,
    "Ġnois": 4265,
    "Ġinward": 11606,
    "precip": 14664,
    "utions": 1888,
    "Ġhovers": 19076,
    "puzzling": 26143,
    "Ġproblem": 1272,
    "dogs": 25402,
    "Ġtry": 3134,
    "Ġinert": 15619,
    "lished": 8382,
    "Ġdirector": 18920,
    "Ġamuse": 5939,
    "Ġfails": 13312,
    "Ġmary": 3841,
    "discovery": 12015,
    "oology": 21005,
    "Ġirresolute": 24916,
    "Ġgeneral": 1861,
    "Ġcountless": 16378,
    "Ġindoors": 18835,
    "Ġwilt": 9643,
    "Ġinterruptions": 24186,
    "Ġpursuits": 12074,
    "purposes": 25021,
    "ĠĠĠĠĠĠĠĠĠĠĠĠĠĠĠĠĠĠĠĠĠĠĠĠĠĠĠ": 14885,
    "as": 302,
    "Ġgor": 9206,
    "impenetrable": 26196,
    "Ġmorals": 22972,
    "uger": 21102,
    "Ġabhorred": 9507,
    "Ġaudio": 24772,
    "Ġassertions": 19945,
    "Ġexpressions": 7705,
    "Ġpraying": 19553,
    "pot": 10117,
    "Ġoutlast": 22310,
    "ateg": 1364,
    "Ġprying": 15606,
    "Ġgoverning": 2793,
    "idated": 11660,
    "Ġnibbling": 17384,
    "Ġsculpture": 26016,
    "Ġchambermaid": 24304,
    "ruding": 9723,
    "worthy": 7732,
    "Ġpromontory": 11939,
    "Ġlosing": 10916,
    "commer": 22806,
    "earliest": 20118,
    "Ġcelestial": 10066,
    "gle": 20868,
    "needles": 20310,
    "Ġmales": 17805,
    "vice": 15448,
    "Ġhollow": 5648,
    "Ġhurts": 19111,
    "overhearing": 19050,
    "±": 114,
    "base": 20776,
    "Ġvindict": 13604,
    "Ġresearches": 13138,
    "owner": 18611,
    "hauled": 20667,
    "flo": 6114,
    "conjectured": 25181,
    "Ġravings": 18644,
    "fold": 7546,
    "Ġreco": 9789,
    "--âĢĺ": 22845,
    "Ġdistant": 5387,
    "Ġbrew": 23342,
    "Ġtransition": 14233,
    "com": 980,
    "Ġcoarse": 14273,
    "Ġrustling": 24715,
    "Ġlapl": 19776,
    "upset": 23016,
    "Ġbleached": 24396,
    "Ġword": 1051,
    "indisc": 22370,
    "Ġmessages": 24981,
    "rib": 1946,
    "Ġejac": 10203,
    "encoun": 12296,
    "ried": 926,
    "Ġunkindness": 22039,
    "Ġhyperborean": 26339,
    "Ġobstructed": 24677,
    "Ġregimentals": 19857,
    "Ġenduring": 16302,
    "Ġnapoleon": 20556,
    "Ġstage": 7389,
    "Ġalert": 18101,
    "Ġreally": 2159,
    "Ġdinner": 4241,
    "get": 1021,
    "id": 338,
    "omuch": 21637,
    "secret": 12234,
    "Ġplanisp": 24054,
    "Ġpiling": 17910,
    "urp": 1476,
    "Ġcont": 619,
    "Ġclosely": 6488,
    "hit": 20888,
    "appearing": 14637,
    "lun": 20945,
    "Ġgracious": 8846,
    "Ġexempl": 21827,
    "Ġlaid": 3939,
    "Ġdesignated": 19520,
    "Ġrallied": 14094,
    "Ġwarbling": 26168,
    "Ġsteeple": 19286,
    "Ġrecovery": 11441,
    "girls": 12317,
    "Ġcherished": 10590,
    "Ġon": 350,
    "hilar": 25081,
    "Ġcombat": 16184,
    "case": 5206,
    "Ġinclemency": 22552,
    "Ġdetestation": 17127,
    "Ġanim": 2113,
    "prit": 19340,
    "Ġarve": 15891,
    "Ġmarsh": 9820,
    "wis": 12516,
    "nal": 1900,
    "Ġsingle": 1694,
    "chop": 21685,
    "Ġenglishman": 11229,
    "Ġfresher": 23207,
    "comple": 7441,
    "Ġnowhere": 12883,
    "perquis": 22182,
    "Ġloading": 15872,
    "Ġdirect": 1474,
    "Ġflu": 3277,
    "Ġdisput": 14255,
    "Ġrefer": 18704,
    "Ġlikeness": 11179,
    "Ġfireside": 23528,
    "gather": 20874,
    "mult": 8747,
    "Ġsatirical": 26279,
    "antucket": 2642,
    "lung": 17591,
    "Ġadvertise": 25388,
    "Ġcongratulations": 10580,
    "Ġcocks": 18593,
    "Ġstiffness": 24830,
    "am": 367,
    "Ġaffectionately": 13167,
    "txt": 12513,
    "fed": 11487,
    "moored": 22701,
    "Ġresistance": 13529,
    "Ġobstinate": 11336,
    "Ġmaw": 15537,
    "appre": 14370,
    "Ġsgd": 3130,
    "mat": 2198,
    "Ġtum": 5692,
    "Ġobliged": 4285,
    "Ġanswers": 7070,
    "in": 262,
    "Ġmissing": 6175,
    "Ġpad": 8124,
    "calling": 12447,
    "Ġpyth": 21459,
    "Ġcalifornian": 25851,
    "acit": 16078,
    "Ġharvard": 24573,
    "Ġcobbling": 20521,
    "Ġstages": 14003,
    "leep": 4634,
    "recollect": 17223,
    "marest": 20979,
    "Ġaccosted": 13671,
    "R": 54,
    "rr": 17650,
    "lust": 15378,
    "Ġreplying": 19580,
    "elly": 17979,
    "iminished": 19020,
    "Ġsystems": 797,
    "Ġsustenance": 19932,
    "Ġphaet": 16316,
    "Ġprot": 3845,
    "Ġbengal": 18783,
    "Ġmodel": 509,
    "Ġow": 8407,
    "Ġframed": 19036,
    "Ġfilters": 3926,
    "belt": 24032,
    "cific": 10085,
    "Ġsnugly": 17111,
    "dispute": 23497,
    "Ġack": 5622,
    "Ġwaiting": 4322,
    "Ġdurst": 20351,
    "Ġlighten": 23256,
    "Ġslices": 23163,
    "Ġseams": 12122,
    "ilities": 6991,
    "Ġeddying": 16434,
    ");": 7330,
    "Ġbrute": 8926,
    "nals": 16397,
    "Ġgoodness": 6058,
    "hest": 3369,
    "Ġunmolested": 15244,
    "Ġxiii": 25591,
    "Ġflower": 16231,
    "orphans": 26440,
    "Ġsilent": 3411,
    "Ġsangu": 15503,
    "Ġspoilt": 24807,
    "Ġvictor": 5125,
    "Ġsurvivors": 25732,
    "Ġphilosopher": 12181,
    "Ġyouth": 4259,
    "Ġopen": 1548,
    "Ġcurric": 22958,
    "Ġslapped": 23169,
    "cat": 15323,
    "Ġallusions": 10906,
    "ocations": 23705,
    "tinted": 17683,
    "can": 1234,
    "Ġclifford": 22350,
    "eagerly": 17315,
    "Ġ56": 24324,
    "leo": 21362,
    "ourney": 3552,
    "Ġtags": 20570,
    "Ġunerringly": 18265,
    "greenland": 10020,
    "Ġjoining": 13163,
    "beyond": 8882,
    "alot": 15623,
    "Ġblemish": 19678,
    "batt": 20777,
    "Ġcalamities": 25699,
    "Ġimposing": 11779,
    "oward": 6020,
    "Ġstalls": 25647,
    "Ġeat": 4643,
    "clothes": 9057,
    "Ġcons": 953,
    "Ġfidel": 12593,
    "solution": 14686,
    "dislike": 23492,
    "folding": 24927,
    "Ġimpetuously": 20370,
    "Ġquant": 6424,
    "Ġbrimming": 22863,
    "Ġagonized": 25372,
    "Ġbland": 11064,
    "Ġsuffers": 2976,
    "Ġunwarrant": 20132,
    "Ġslew": 23381,
    "icirc": 15653,
    "Ġstaying": 8283,
    "Ġtrad": 9827,
    "Ġclient": 5556,
    "Ġmoves": 14231,
    "ulatory": 15765,
    "Ġincarnate": 20373,
    "guard": 12126,
    "Ġvehicle": 20137,
    "Ġopposing": 12038,
    "addressed": 13384,
    "castles": 14636,
    "ree": 873,
    "Ġproficiency": 19191,
    "classes": 12133,
    "Ġconsolation": 6208,
    "afford": 14654,
    "Ġprime": 10404,
    "Ġproving": 15749,
    "doctor": 19095,
    "Ġconnecting": 18630,
    "Ġtrivial": 10142,
    "icating": 15652,
    "treasures": 26152,
    "Ġtrailing": 23077,
    "ham": 1704,
    "Ġare": 527,
    "gentlemen": 9503,
    "barn": 17482,
    "Ġslipping": 13359,
    "benefact": 24641,
    "owers": 12681,
    "Ġmemorand": 23403,
    "Ġgrampus": 21990,
    "Ġsoliloqu": 11883,
    "Ġashen": 21896,
    "Ġconvert": 11844,
    "proper": 7471,
    "Ġcredited": 25153,
    "Ġjacket": 6489,
    "Ġdownst": 3558,
    "bud": 10682,
    "Ġrespectful": 16344,
    "Ġsite": 17753,
    "acrity": 14278,
    "Ġblanched": 26282,
    "Ġegyptians": 25289,
    "Ġapplication": 2174,
    "Ġarrow": 10931,
    "Ġhabits": 6926,
    "Ġexpl": 487,
    "interview": 19298,
    "rimsh": 17027,
    "atches": 13845,
    "oned": 4630,
    "Ġadmitted": 8986,
    "Ġspectacles": 12095,
    "Ġrecollect": 8309,
    "aples": 20767,
    "hoped": 20909,
    "Ġproved": 4884,
    "Ġbells": 19600,
    "Ġmorrow": 9342,
    "cheon": 23802,
    "shipping": 10308,
    "rict": 8092,
    "Ġedge": 5188,
    "Ġcens": 8412,
    "ignific": 11954,
    "Ġaltern": 7394,
    "Ġinex": 6528,
    "Ġdistraction": 22503,
    "Ġskipper": 22795,
    "Ġblossom": 26312,
    "Ġincl": 4268,
    "ate": 421,
    "Ġdreams": 7496,
    "spending": 18691,
    "header": 11931,
    "factories": 19842,
    "know": 2319,
    "cloud": 11106,
    "agra": 14065,
    "Ġcasks": 7521,
    "Ġparac": 12792,
    "Ġrag": 18639,
    "tout": 21064,
    "Ġaged": 10321,
    "Ġformless": 22827,
    "whosoever": 22237,
    "Ġwaits": 23276,
    "Ġsulky": 13514,
    "Ġ9": 5900,
    "Ġperemptorily": 17366,
    "Ġgreenwich": 19320,
    "dle": 3247,
    "abs": 11666,
    "silent": 9973,
    "Ġluggage": 25957,
    "Ġjesty": 18405,
    "Ġconfirmed": 11139,
    "Ġcords": 14878,
    "Ġinterrupting": 19556,
    "Ġjustified": 11902,
    "liable": 3816,
    "Ġmermaid": 17813,
    "ohog": 9842,
    "Ġwronged": 24247,
    "Ġaccusation": 22377,
    "Ġindeed": 1681,
    "presumption": 20440,
    "Ġwapping": 21293,
    "Ġspilling": 22134,
    "ump": 2284,
    "Ġfang": 21401,
    "father": 3775,
    "Ġuprising": 12799,
    "Ġuplifted": 11646,
    "impressed": 12688,
    "decan": 22139,
    "actor": 11835,
    "Ġrevel": 9214,
    "Ġtame": 17722,
    "zing": 7820,
    "Ġlines": 4533,
    ",âĢĿâĢĶ": 14214,
    "ically": 864,
    "Ġequatorial": 13508,
    "Ġimplement": 2949,
    "Ġbes": 2658,
    "Ġfac": 6381,
    "Ġsignificance": 13279,
    "Ġassuming": 16693,
    "Ġhands": 1666,
    "?âĢĻ": 2639,
    "Ġhinting": 19648,
    "Ġencouraging": 2264,
    "Ġrespectable": 6736,
    "uit": 8392,
    "Ġunheard": 22022,
    "Ġhence": 4989,
    "gee": 15975,
    "Ġmodes": 22210,
    "utterly": 20010,
    "Ġpensive": 21473,
    "ps": 4573,
    "Ġmoul": 15541,
    "Ġetern": 7085,
    "Ġvariance": 1167,
    "Ġspotted": 12136,
    "Ġfearless": 9874,
    "Ġunusual": 6553,
    "catherine": 7127,
    "Ġchoice": 2165,
    "aited": 12433,
    "Ġtrials": 16789,
    "Ġsavesoul": 26227,
    "Ġornaments": 17451,
    "Ġlimited": 23543,
    "Ġsuperstition": 15054,
    "Ġalow": 18099,
    "Ġremnants": 22790,
    "umbent": 12093,
    "eminently": 25105,
    "Ġnameless": 7699,
    "overlooked": 23320,
    "Ġbegged": 8230,
    "ccarthy": 4888,
    "Ġouter": 6859,
    "Ġheedfully": 24521,
    "Ġweaver": 11686,
    "Ġelbow": 12918,
    "Ġscript": 18399,
    "vanity": 24974,
    "Ġdecorum": 16019,
    "dread": 8728,
    "Ġknee": 7093,
    "Ġembodied": 25848,
    "visitor": 15057,
    "bell": 7332,
    "hel": 4814,
    "pushed": 21022,
    "Ġfield": 1257,
    "Ġbedside": 19121,
    "Ġproperly": 7944,
    "forgot": 11033,
    "hypothe": 25905,
    "Ġpledged": 20686,
    "Ġwonderful": 4562,
    "Ġfamiliar": 5511,
    "kles": 17584,
    "Ġacts": 2296,
    "Ġident": 2241,
    "conf": 4957,
    "Ġwasted": 9703,
    "Ġphrenologist": 25607,
    "Ġoccasioned": 13225,
    "Ġobserved": 3539,
    "ek": 1905,
    "Ġreaches": 18031,
    "Ġphilipses": 24452,
    "Ġprogram": 12991,
    "Ġpipes": 9849,
    "Ġblackest": 19098,
    "Ġsend": 4107,
    "Ġelopement": 10329,
    "else": 6533,
    "asy": 5294,
    "Ġfrog": 23918,
    "Ġsongs": 13419,
    "resembling": 25932,
    "Ġmenaces": 23104,
    "bub": 15315,
    "method": 17284,
    "Ġdivergence": 2725,
    "Ġminimizes": 2047,
    "Ġlets": 18076,
    "Ġsurgeons": 23463,
    "Ġrode": 15995,
    "Ġvainly": 9923,
    "Ġcarving": 14442,
    "ucket": 2485,
    "Ġfervour": 19725,
    "revenge": 13841,
    "itzerland": 9994,
    "Ġstreamed": 14547,
    "ous": 477,
    "buried": 14848,
    "unned": 21875,
    "Ġdict": 9175,
    "Ġallowed": 4059,
    "Ġcatching": 9477,
    "granting": 23412,
    "manifested": 20524,
    "E": 41,
    "Ġknew": 2055,
    "Ġneighbourhood": 5126,
    "parable": 16381,
    "Ġcruis": 14624,
    "Ġmaz": 15539,
    "a": 69,
    "sea": 4763,
    "degrees": 22147,
    "Ġmonitors": 3156,
    "getic": 12963,
    "opence": 18499,
    "Ġdying": 2137,
    "strangers": 20335,
    "ckles": 22086,
    "and": 372,
    "islanders": 25442,
    "Ġcanted": 17831,
    "Ġeffects": 7236,
    "Ġhav": 12751,
    "Ġexert": 5722,
    "Ġic": 9625,
    "bye": 5949,
    "Ġramad": 8528,
    "pivot": 21030,
    "Ġtattoo": 7359,
    "Ġignorantly": 19494,
    "Ġfundament": 2929,
    "ist": 449,
    "boots": 11126,
    "Ġcomely": 21845,
    "Ġtopic": 9405,
    "direful": 25896,
    "Ġrud": 8477,
    "apt": 731,
    "Ġathe": 17741,
    "income": 15485,
    "Ġintercept": 14268,
    "Ġrecur": 1623,
    "Ġperplexed": 23657,
    "Ġner": 1648,
    "lingering": 18601,
    "accompan": 11452,
    "ospel": 17010,
    "inea": 7623,
    "cur": 3270,
    "idled": 21765,
    "Ġmoney": 3418,
    "Ġrattle": 10899,
    "pervised": 1569,
    "Ġdissu": 18550,
    "Ġcate": 4109,
    "Ġhints": 8429,
    "Ġincreasing": 8247,
    "Ġassertion": 13488,
    "Ġspiral": 14584,
    "Ġjealously": 24125,
    "Ġcur": 1223,
    "Ġpersecut": 16952,
    "Ġgreenness": 23766,
    "Ġjewell": 19519,
    "family": 7324,
    "ald": 15622,
    "Ġforgive": 8009,
    "ally": 531,
    "surprising": 16919,
    "feeder": 12359,
    "aws": 8236,
    "anche": 10788,
    "idel": 5299,
    "bern": 20774,
    "Ġnigh": 4878,
    "sive": 4143,
    "Ġshipwrecked": 25687,
    "Ġdetestable": 15097,
    "Ġbunch": 11326,
    "Ġstren": 15717,
    "pronouncing": 25193,
    "ds": 4687,
    "Ġpoverty": 9303,
    "Ġsharpen": 13568,
    "deserving": 17241,
    "Ġpresented": 5183,
    "Ġduplicate": 17215,
    "Ġcleared": 6074,
    "Ġreadily": 5253,
    "quickness": 19850,
    "Ġsummary": 19401,
    "Ġanxiety": 5408,
    "Ġflea": 23772,
    "Ġdocumentation": 20553,
    "Ġglo": 1715,
    "Ġchange": 1996,
    "kill": 13743,
    "ductive": 23933,
    "dden": 1803,
    "Ġauthor": 4374,
    "Ġfought": 12590,
    "ython": 1030,
    "answered": 10273,
    "biscuit": 17500,
    "ock": 15401,
    "bro": 4034,
    "Ġfeel": 1262,
    "watson": 12241,
    "repeat": 25151,
    "parted": 21015,
    "Ġattitude": 8903,
    "Ġpeep": 6870,
    "Ġthoughtfulness": 18773,
    "Ġgoest": 22420,
    "Ġberries": 13406,
    "Ġwreck": 7314,
    "Ġwasn": 6997,
    "eg": 17529,
    "Ġpolynesian": 26026,
    "Ġexcluded": 16383,
    "erate": 7149,
    "Ġsuperstitions": 17072,
    "Ġbales": 21387,
    "contr": 12055,
    "³": 116,
    "Ġlapse": 17120,
    "Ġgrooves": 16741,
    "Ġdecrease": 4198,
    "Ġfinery": 23123,
    "Ġobjecting": 18896,
    "Ġindic": 2889,
    "Ġacute": 16121,
    "Ġremember": 2677,
    "Ġseconds": 16396,
    "how": 1646,
    "Ġcoffee": 6760,
    "Ġyellow": 5300,
    "Ġbravest": 23838,
    "desired": 8956,
    "Ġincline": 18570,
    "Ġaims": 15495,
    "Ġpens": 21458,
    "Ġtiara": 26415,
    "Ġessex": 20125,
    "inferiors": 25346,
    "Ġmartha": 16262,
    "Ġgod": 1937,
    "Ġcondem": 6338,
    "received": 9638,
    "shine": 9288,
    "Ġbalmy": 22902,
    "Ġeyes": 1334,
    "Ġropes": 10748,
    "Ġbusks": 23337,
    "Ġwarb": 17787,
    "iles": 2861,
    "ilies": 18056,
    "rough": 590,
    "actions": 8906,
    "Ġsegment": 12754,
    "Ġwaste": 9233,
    "Ġwond": 3937,
    "seam": 10874,
    "Ġpronounced": 8350,
    "Ġconfound": 23299,
    "ĠvertebrÃ¦": 11435,
    "Ġfetch": 7769,
    "Ġane": 9181,
    "dishonourable": 26365,
    "chet": 13216,
    "ops": 5247,
    "Ĵ": 245,
    "Ġjustice": 5111,
    "Ġking": 2305,
    "hies": 17560,
    "Ġsense": 3250,
    "Ġlodged": 11251,
    "Ġbecher": 18879,
    "Ġwindigate": 18910,
    "Ġcalculates": 13263,
    "Ġdismissed": 12889,
    "invari": 21183,
    "Ġcivil": 4678,
    "Ġslate": 11936,
    "mouthful": 25208,
    "Ġmysteriously": 24601,
    "«": 109,
    "collect": 16563,
    "Ġrib": 4936,
    "ordingly": 18515,
    "assertion": 22308,
    "iries": 18169,
    "ourable": 4967,
    "Ġtophet": 23571,
    "Ġincreas": 1695,
    "Ġsimple": 1622,
    "Ġplaying": 6909,
    "Ġstructure": 834,
    "springs": 24911,
    "vitality": 20477,
    "Ġstyle": 6946,
    "agatha": 21905,
    "copyright": 5277,
    "behold": 12874,
    "geor": 15976,
    "Ġpulling": 5862,
    "Ġthinker": 22808,
    "false": 15353,
    "uguese": 20731,
    "Ġgallon": 24184,
    "desper": 13067,
    "Ġfame": 21404,
    "Ġwarehouses": 20416,
    "Ġtawn": 13822,
    "Ġdireful": 11018,
    "Ġpicturesque": 14893,
    "Ġstudious": 23210,
    "talking": 10006,
    ").": 1273,
    "magnetic": 20551,
    "riors": 18182,
    "attend": 11101,
    "Ġtrifled": 24674,
    "Ġbethinking": 25279,
    "Ġbeat": 4491,
    "pect": 1254,
    "Ġmumbled": 17807,
    "gd": 3125,
    "jabez": 20932,
    "Ġselecting": 16684,
    "Ġinhabitants": 7524,
    "gon": 17552,
    "Ġominous": 12422,
    "hand": 2756,
    "Ġexcellence": 11451,
    "consol": 9761,
    "Ġsabbath": 17254,
    "nay": 7135,
    "dra": 3413,
    "listened": 15043,
    "Ġmisled": 22758,
    "Ġpreside": 18365,
    "Ġcomforters": 25800,
    "Ġvect": 1226,
    "Ġconceit": 7295,
    "vell": 3957,
    "Ġchink": 15930,
    "Ġcoppers": 22580,
    "Ġworkmen": 23019,
    "Ġblu": 2685,
    "Ġbrisk": 9802,
    "meanwhile": 10609,
    "ð": 177,
    "Ġambergris": 8705,
    "mber": 7803,
    "Ġaccompaniments": 24482,
    "Ġhyster": 16873,
    "Ġlondon": 2840,
    "Ġservox": 23868,
    "Ġtainted": 21169,
    "Ġforgot": 4683,
    "Ġimpediments": 26240,
    "knew": 9126,
    "Ġplays": 12035,
    "Ġencamped": 22798,
    "imble": 10858,
    "Ġrefinement": 18707,
    "Ġdiligent": 25075,
    "Ġalternately": 15031,
    "ory": 1081,
    "Ġperplex": 2713,
    "Ġdaint": 15590,
    "Ġnovels": 15927,
    "Ġproofs": 19813,
    "Ġomn": 8409,
    "Ġshifted": 14106,
    "Ġwan": 15526,
    "consc": 4840,
    "unable": 14058,
    "oftener": 23962,
    "Ġtolerably": 8067,
    "Ġlabour": 7274,
    "Ġdry": 5624,
    "Ġintelligent": 1406,
    "ulations": 6028,
    "Ġboisterous": 20441,
    "Ġgaining": 9491,
    "Ġcistern": 17380,
    "Ġbattering": 13900,
    "Ġabomin": 8188,
    "ander": 6401,
    "ilogue": 21721,
    "reflection": 13454,
    "ishe": 13890,
    "ê": 171,
    "offered": 14518,
    "Ġdrifting": 19278,
    "beaten": 20314,
    "aits": 20765,
    "Ġintensity": 10015,
    "speech": 10666,
    "inkle": 22611,
    "uch": 877,
    "Ġshel": 6847,
    "Ġglac": 9345,
    "majesty": 26280,
    "Ġstirring": 10579,
    "Ġcallest": 17832,
    "journey": 8744,
    "Ġblacksmiths": 19872,
    "rossing": 18649,
    "avenza": 17104,
    "pure": 17626,
    "Ġsenior": 17171,
    "Ġoverhead": 11771,
    "]": 65,
    "Ġnugent": 26457,
    "ĉ": 202,
    "serious": 14447,
    "icant": 21559,
    "iveness": 2470,
    "Ġmizen": 17258,
    "sol": 1790,
    "threat": 10900,
    "Ġown": 1007,
    "Ġcomb": 1065,
    "Ġledge": 19399,
    "Ġshop": 9251,
    "Ġshaking": 6551,
    "ļ": 253,
    "Ġsouthwards": 19632,
    "Ġsides": 4578,
    "acency": 12905,
    "Ġharpooning": 23976,
    "Ġungover": 18255,
    "Ġearthly": 7989,
    "educ": 10828,
    "Ġfiner": 13050,
    "`": 68,
    "conviction": 19963,
    "circuit": 24188,
    "unpardonable": 21887,
    "Ġdecaying": 2247,
    "Ġsmothered": 20719,
    "Ġsoot": 14132,
    "Ġcouch": 12568,
    "anum": 17835,
    "imson": 12686,
    "erred": 6376,
    "Ġvalues": 2649,
    "rift": 11519,
    "eskye": 21448,
    "Ġfeasts": 25369,
    "Ġmann": 18416,
    "Ġ41": 24080,
    "Ġgovernesses": 25127,
    "Ġbeating": 8144,
    "Ġbatch": 890,
    "Ġspots": 11727,
    "Ġpatron": 7465,
    "depart": 12263,
    "Ġballs": 9014,
    "&": 10,
    "eric": 3469,
    "cases": 12445,
    "Ġblameless": 19858,
    "Ġay": 15490,
    "Ġnimble": 21525,
    "Ġoverhanging": 22358,
    "Ġdip": 13906,
    "Ġhoe": 23349,
    "Ġdecipher": 22443,
    "Ġthoroughfare": 16944,
    "otle": 21794,
    "rist": 10122,
    "Ġsho": 2245,
    "izon": 18141,
    "Ġdisasters": 16052,
    "Ġperusal": 14224,
    "circle": 16736,
    "û": 188,
    "Ġovercame": 9745,
    "Ġchemical": 10410,
    "dozen": 23376,
    "antage": 3876,
    "Ġprofessor": 11230,
    "arnel": 18124,
    "agery": 21904,
    "trad": 21075,
    "Ġpoem": 22586,
    "Ġnods": 19062,
    "Ġalighted": 18103,
    "Ġfamil": 4319,
    "hued": 20910,
    "science": 11906,
    "Ġthrowing": 6335,
    "Ġtreatment": 12069,
    "tawny": 26404,
    "Ġpiqu": 21475,
    "Ġincul": 22546,
    "Ġcarbuncle": 14444,
    "Ġnomin": 10190,
    "Ġoff": 902,
    "yramid": 8367,
    "Ġcister": 13881,
    "benefit": 24642,
    "Ġcrying": 10786,
    "information": 12391,
    "Ġenlivened": 26207,
    "user": 5105,
    "Ġvillas": 24050,
    "Ġpreacher": 18369,
    "Ġcents": 17828,
    "Ġconn": 9229,
    "vity": 7815,
    "Ġfalsely": 20580,
    "Ġ5": 4935,
    "Ġconductor": 24004,
    "Ġcoarsely": 25828,
    "Ġ131": 24782,
    "Ġprop": 1682,
    "Ġclumsy": 9579,
    "Ġsafie": 6617,
    "painter": 24896,
    "ival": 4224,
    "inisc": 15487,
    "Ġsimul": 1805,
    "Ġyarman": 12702,
    "Ġpiratical": 24801,
    "Ġunlike": 7004,
    "thouse": 21979,
    "Ġafrican": 20136,
    "Ġuniformly": 19147,
    "Ġoverladen": 22359,
    "omically": 13975,
    "Ġslaughtered": 26584,
    "morrow": 4571,
    "Ġunluck": 8484,
    "Ġrucastle": 5176,
    "Ġriot": 14688,
    "Ġarrang": 2471,
    "Ġinitial": 821,
    "paused": 17373,
    "calculating": 25689,
    "Ġpeaceable": 14722,
    "Ġtalker": 23369,
    "Ġexcused": 23309,
    "Ġsanta": 26420,
    "only": 3307,
    "Ġtempted": 9056,
    "meaning": 2911,
    "flukes": 25205,
    "Ġvengeful": 14889,
    "unlike": 18156,
    "Ġdate": 7841,
    "Ġdelayed": 9517,
    "inking": 6709,
    "iscreet": 20681,
    "angle": 22101,
    "Ġbumpkins": 25281,
    "Ġshocks": 16457,
    "Ġbedford": 7473,
    "$": 8,
    "Ġfinished": 5044,
    "Ġinvective": 26181,
    "vers": 1327,
    "Ġcoals": 16071,
    "ished": 1428,
    "handle": 11191,
    "Ġsaintly": 25931,
    "Ġnormal": 1201,
    "danced": 20827,
    "helm": 12169,
    "ullen": 8234,
    "Ġremaining": 6188,
    "preserver": 20212,
    "Ġstung": 21735,
    ",âĢĻâĢĶ": 23524,
    "Ġirksome": 13110,
    "Ġcountry": 2533,
    "Ġtongue": 6347,
    "Ġmarble": 7668,
    "ignity": 4373,
    "Ġcritic": 19124,
    "Ġfanciful": 24788,
    "thrust": 10261,
    "Ġmitt": 21306,
    "knowledge": 7478,
    "recol": 10150,
    "Ġpreyed": 18366,
    "Ġrack": 9311,
    "lad": 5991,
    "Ġaccordingly": 6619,
    "Ġimpertinence": 11366,
    "Ġrising": 4355,
    "jub": 20928,
    "Ġupon": 719,
    "Ġmodified": 14166,
    "Ġinner": 9670,
    "Ġxxv": 19716,
    "Ġgleams": 17309,
    "Ġinj": 4760,
    "Ġball": 3622,
    "whence": 23213,
    "Ġlux": 8813,
    "Ġappo": 8498,
    "sir": 5001,
    "Ġinvention": 19951,
    "Ġreply": 4514,
    "shabb": 18498,
    "Ġhorseman": 19606,
    "Ġhides": 16264,
    "lin": 9603,
    "Ġlastly": 16204,
    "slackened": 26094,
    "Ġsto": 1501,
    "Ġattendance": 12179,
    "Ġembell": 14418,
    "Ġleaf": 15720,
    "explain": 1483,
    "Ġdusting": 24596,
    "eld": 973,
    "itations": 17817,
    "Ġbob": 22633,
    "ckled": 9256,
    "Ġstupid": 7603,
    "Ġanimate": 23421,
    "stir": 12670,
    "consum": 12869,
    "tum": 11531,
    "Ġamaz": 5385,
    "listen": 13513,
    "hurrying": 14982,
    "Ġbowels": 9429,
    "Ġflitting": 13023,
    "Ġcenturies": 8622,
    "speaks": 19718,
    "Ġdisputing": 25824,
    "âĢĻ,": 14069,
    "resolved": 9639,
    "Ġoccupations": 9457,
    "his": 1412,
    "human": 7088,
    "Ġum": 10211,
    "Ġstabbing": 20302,
    "Ġelder": 7223,
    "ulged": 12727,
    "Ġlungs": 8361,
    "support": 9469,
    "Ġ1869": 19382,
    "crum": 17511,
    "Ġhaggerston": 26452,
    "Ġluff": 15650,
    "Ġmadly": 16484,
    "Ġbeget": 9225,
    "Ġexamples": 2604,
    "Ġte": 1135,
    "Ġswims": 12117,
    "Ġplaited": 14282,
    "Ġob": 860,
    "Ġbespeaking": 26310,
    "ý": 190,
    "entrance": 12654,
    "Ġdawned": 14993,
    "confid": 14866,
    "fell": 6953,
    "Ġlivel": 11355,
    "expense": 22426,
    "Ġdwelt": 12602,
    "Ġuniversal": 2235,
    "Ġaccumulates": 2892,
    "Ġbeauty": 3769,
    "Ġorph": 9716,
    "Ġbounding": 19398,
    "Ġbrandy": 11049,
    "mate": 5358,
    "Ġprair": 7746,
    "Ġscar": 3209,
    "omical": 9679,
    "Ġsought": 5010,
    "Ġtranslations": 12050,
    "Ġharry": 24571,
    "Ġwon": 1667,
    "Ġimmens": 9938,
    "Ġglimpses": 13431,
    "Ġpressure": 13421,
    "ener": 562,
    "Ġdoctors": 12149,
    "abern": 21786,
    "mightily": 24104,
    "destruction": 11256,
    "oul": 4698,
    "Ġcredulous": 17144,
    "fearfully": 25116,
    "Ġaddressed": 5262,
    "seamen": 13625,
    "Ġfits": 8790,
    "Ġelig": 9777,
    "blast": 9587,
    "rels": 6664,
    "Ġlandlessness": 23378,
    "miseries": 16757,
    "Ġdrag": 6184,
    "Ġlydia": 2374,
    "Ġfeatures": 1433,
    "ulls": 8837,
    "Ġwhimsical": 20426,
    "Ġwarp": 8112,
    "Ġdegenerating": 25799,
    "Ġdistinction": 8885,
    "Ġeagerly": 4990,
    "shells": 26056,
    "Ġwoody": 23516,
    "gazing": 12469,
    "Ġmilliner": 19883,
    "Ġtranquillity": 7536,
    "Ġtrag": 13037,
    "Ġrafters": 22654,
    "bbing": 6323,
    "barbar": 20237,
    "dipped": 20836,
    "Ġacted": 7422,
    "Ġwag": 10775,
    "gun": 10096,
    "Ġsurrey": 14559,
    "provoke": 26071,
    "Ġcommerce": 11015,
    "Ġballarat": 14718,
    "streets": 13394,
    "Ġlaw": 3653,
    "Ġexpiring": 16096,
    "Ġhigh": 932,
    "creature": 5346,
    "Ġadieus": 25110,
    "Ġfoster": 18991,
    "Ġsecurely": 16802,
    "orn": 2243,
    "Ġdol": 9664,
    "/`)": 13659,
    "performances": 26006,
    "mn": 3576,
    "Ġpolar": 9410,
    "times": 8098,
    "Ġostens": 25275,
    "garden": 15025,
    "Ġrelative": 11881,
    "Ġhovering": 10178,
    "Ġillustration": 19135,
    "punctual": 26355,
    "Ġcompre": 4449,
    "Ġ1839": 20458,
    "Ġinsights": 13178,
    "orrowed": 19289,
    "Ġschoolmasters": 19719,
    "acceler": 23597,
    "Ġowned": 11874,
    "Ġbored": 16103,
    "Ġso": 434,
    "stump": 21650,
    "Ġinflamed": 13472,
    "Ġdescried": 7918,
    "Ġlug": 15649,
    "Ġunicorn": 22054,
    "Ġbasement": 24702,
    "/*": 10070,
    "walton": 20248,
    "usually": 10284,
    "Ġsled": 21217,
    "Ġrosings": 4606,
    "Ġchapel": 9522,
    "Ġhitting": 21485,
    "Â": 131,
    "Ġpuffs": 14975,
    "express": 4895,
    "Ġpresence": 5031,
    "Ġgreece": 17069,
    "consternation": 16912,
    "Ġprolonged": 8357,
    "figure": 13554,
    "Ġfrighten": 13277,
    "Ġpassages": 12967,
    "Ġunfailing": 24112,
    "Ġdiadem": 24741,
    "Ġconjugal": 25101,
    "andish": 18153,
    "Ġthames": 13937,
    "Ġfrogs": 23920,
    "Ġtranquillize": 24757,
    "Ġunchanged": 22028,
    "appetite": 22844,
    "explaining": 23139,
    "Ġpatience": 3042,
    "fill": 15349,
    "Ġshoals": 13132,
    "Ġremem": 4312,
    "Ġforged": 12701,
    "ÿ": 192,
    "supplied": 10519,
    "Ġboat": 1278,
    "cheerful": 13574,
    "Ġdeceiving": 21834,
    "Ġbottomless": 12104,
    "Ġagreed": 7028,
    "algorithms": 8292,
    "vard": 21109,
    "Ġinvader": 23477,
    "I": 45,
    "Ġportable": 19368,
    "ancial": 21360,
    "Ġunjust": 8483,
    "enge": 21279,
    "ornamented": 26595,
    "gentle": 5356,
    "fro": 8732,
    "ool": 17618,
    "Ġreiter": 21663,
    "Ġcontraction": 16006,
    "Ġvesuvius": 26501,
    "Ġcalmness": 12090,
    "Ġsung": 23270,
    "indignation": 18438,
    "bride": 19198,
    "Ġgracechurch": 12196,
    "Ġhereford": 22876,
    "pencil": 18827,
    "Ġrolling": 5974,
    "Ġvoy": 2619,
    "itten": 3440,
    "Ġclub": 8873,
    "considerably": 13444,
    "Ġfolds": 12204,
    "irs": 14070,
    "boy": 4738,
    "Ġsturgeon": 20590,
    "Ġmortally": 23914,
    "Ġscimet": 22290,
    "Ġgouge": 26188,
    "Ġmetal": 9388,
    "prov": 16421,
    "Ġreliance": 14384,
    "Ġconcoct": 19043,
    "Ġcommunication": 1869,
    "Ġmilk": 6485,
    "sincere": 16907,
    "Ġmaledictions": 26428,
    "onged": 18410,
    "Ġhook": 6453,
    "Ġstun": 11649,
    "ror": 7351,
    "imodal": 17446,
    "publ": 17638,
    "Ġpenalty": 1841,
    "Ġengineer": 11973,
    "Ġgentlemen": 3641,
    "Ġdevelopments": 23202,
    "Ġcumul": 4177,
    "Ġquiescent": 26242,
    "Ġattics": 22618,
    "Ġstarting": 7728,
    "Ġjamming": 17264,
    "Ġindel": 13001,
    "Ġappertain": 22214,
    "machine": 972,
    "welcomed": 24644,
    "Ġcase": 1941,
    "chronicle": 26480,
    "ho": 2858,
    "Ġpell": 21454,
    "voyages": 24855,
    "neighbour": 7211,
    "sentimental": 25681,
    "result": 12042,
    "Ġcigarette": 20655,
    "Ġeffectually": 16164,
    "Ġork": 18284,
    "Ġjogged": 26236,
    "Ġdescribes": 3122,
    "recklessly": 25269,
    "illings": 14142,
    "Ġrenewed": 9537,
    "Ġprophets": 20449,
    "Ġgaz": 4043,
    "Ġra": 805,
    "Ġpence": 17905,
    "jet": 13741,
    "Ġretreated": 13432,
    "Ġfrequent": 3286,
    "Ġdid": 837,
    "Ġlast": 1125,
    "Ġwore": 6377,
    "Ġoverpowering": 15248,
    "vapor": 25755,
    "Ġmerited": 23730,
    "Ġbehaviour": 4384,
    "Ġdeclines": 23960,
    "toss": 22563,
    "Ġreasonably": 11086,
    "nant": 17609,
    "Ġnearly": 3363,
    "ommod": 13976,
    "sitting": 8386,
    "practised": 20246,
    "Ġconsidering": 4614,
    "Ġhypocr": 19470,
    "Ġservants": 6610,
    "inctions": 17732,
    "ologies": 18771,
    "wart": 17705,
    "Ġapparently": 6778,
    "Ġhadn": 9718,
    "Ġborders": 15569,
    "mar": 4335,
    "Ġtrusted": 10517,
    "Ġgladly": 14681,
    "Ġrefers": 1563,
    "Ġimagined": 8606,
    "Ġsingers": 23770,
    "Ġscent": 10285,
    "Ġoffend": 16142,
    "Ġgather": 6534,
    "Ġblue": 3453,
    "Ġbamboo": 17436,
    "utely": 8131,
    "mine": 5618,
    "Ġpersuas": 23944,
    "Ġhandling": 8912,
    "Ġcabman": 14605,
    "Ġtrotting": 19974,
    "abby": 14020,
    "jer": 12478,
    "prints": 23810,
    "other": 1316,
    "Ġdesponding": 25868,
    "enty": 2919,
    "<EOS>": 2,
    "Ġpremature": 3725,
    "Ġsights": 7472,
    "Ġwild": 2601,
    "Ġimmeas": 18330,
    "Ġgrated": 22801,
    "Ġref": 918,
    "Ġpleasantest": 24138,
    "bird": 9585,
    "Ġcrimes": 8588,
    "Ġflask": 3040,
    "Ġagony": 5388,
    "Ġtransformations": 3483,
    "oct": 7554,
    "Ġtalents": 15044,
    "Ġseizure": 21961,
    "Ġevangelical": 25506,
    "umberland": 16837,
    "iv": 432,
    "Ġfilial": 16620,
    "Ġdutch": 6327,
    "totally": 25417,
    "Ġpalms": 8643,
    "declined": 25174,
    "rically": 15416,
    "Ġstriving": 8996,
    "Ġgreen": 3054,
    "Ġasylum": 13665,
    "seemingly": 25362,
    "Ġabruptness": 25299,
    "Ġrepositories": 23362,
    "glances": 23851,
    "willingness": 24755,
    "rigging": 20004,
    "ention": 854,
    "Ġsurest": 19054,
    "Ġveneration": 25044,
    "horror": 13158,
    "source": 11525,
    "Ġdep": 745,
    "follows": 24528,
    "scream": 11076,
    "Ġgossip": 18470,
    "Ġoverthrow": 18431,
    "Ġdumbly": 24985,
    "eyeing": 14945,
    "isles": 15561,
    "Ġ93": 24591,
    "ulgences": 21862,
    "Ġsentimental": 24754,
    "sutherland": 21061,
    "ferences": 10326,
    "Ġscalding": 16322,
    "ivia": 22076,
    "Ġentit": 22741,
    "ascar": 8434,
    "illustration": 2283,
    "shott": 11794,
    "Ġapolog": 9043,
    "Ġdella": 21437,
    "Ġalche": 21780,
    "Ġarrog": 18337,
    "Ġencourage": 10380,
    "Ġcumbrous": 26432,
    "speckled": 23942,
    "romising": 18233,
    "Ġshouts": 19536,
    "Ġach": 2620,
    "Ġmethodology": 2403,
    "Ġiceland": 15145,
    "Ġaven": 10759,
    "killer": 20474,
    "arising": 17895,
    "matters": 14873,
    "swells": 26148,
    "Ġbeech": 18082,
    "Ġsystemat": 18442,
    "Ġchinese": 14181,
    "Ġworker": 23018,
    "social": 11023,
    "cursed": 23841,
    "Ġoftentimes": 20154,
    "Ġ1": 1015,
    "Ġgreek": 10630,
    "divers": 15341,
    "Ġo": 275,
    "Ġnobly": 22238,
    "icking": 8910,
    "Ġindulgence": 11319,
    "Ġwished": 3729,
    "Ġarrives": 23606,
    "Ġyoungster": 23177,
    "_.âĢĶ": 23471,
    "lover": 18536,
    "Ġencoura": 1367,
    "Ġmanaging": 22322,
    "ibid": 18845,
    "Ġwade": 17784,
    "ding": 1233,
    "dragged": 16608,
    "Ġpots": 9427,
    "running": 6797,
    "Ġabstained": 25231,
    "Ġshown": 5159,
    "elab": 21567,
    "Ġpositively": 13028,
    "claim": 9834,
    "Ġceasing": 23756,
    "Ġalterations": 19870,
    "Ġdelusion": 18975,
    "promise": 12248,
    "Ġdeceitful": 25733,
    "Ġhospitals": 24923,
    "Ġover": 554,
    "truth": 9918,
    "Ġpainting": 13140,
    "Ġchimer": 24602,
    "pred": 2800,
    "gallery": 24693,
    "Ġtransom": 22435,
    "Ġuncertain": 4068,
    "Ġlifting": 10196,
    "đ": 210,
    "Ġtranquilly": 12288,
    "Ġtested": 23224,
    "privilege": 25263,
    "Ġeu": 6390,
    "ub": 1227,
    "orrow": 2918,
    "watching": 16930,
    "Ġprovides": 1929,
    "Ġbringing": 5869,
    "angible": 22102,
    "Ġarranged": 9876,
    "prevent": 11791,
    "Ġmeditation": 16680,
    "cor": 5520,
    "Ġstopping": 2749,
    "ĠĠĠĠĠĠĠĠĠĠĠĠĠĠĠĠĠĠĠĠĠĠĠĠ": 5321,
    "Ġinsens": 8276,
    "Ġfailed": 6671,
    "says": 13298,
    "keen": 12779,
    "Ġannouncement": 14832,
    "Ġgerman": 6141,
    "Ġswearing": 16464,
    "Ġexquisite": 12380,
    "Ġdoth": 13907,
    "Ġcarpenter": 4684,
    "attracted": 13048,
    "oice": 1385,
    "Ġrepeat": 7999,
    "ì": 173,
    "Ġbanished": 10616,
    "Ġhumour": 7932,
    "Ġcows": 15550,
    "esc": 616,
    "Ġallow": 1129,
    "ersburgh": 18215,
    "avoiding": 25236,
    "Ġices": 21153,
    "Ġawoke": 7286,
    "Ġscarcely": 4009,
    "permission": 15896,
    "Ġscotch": 12207,
    "perhaps": 4122,
    "Ġalternative": 19985,
    "Ġirreproachable": 24917,
    "95": 17477,
    "atter": 652,
    "Ġforeman": 23446,
    "Ġforg": 3786,
    "Ġrecurred": 18978,
    "Ġgroans": 14823,
    "ronted": 14876,
    "liber": 18813,
    "much": 3705,
    "oved": 5215,
    "leeward": 15209,
    "Ġpasture": 14544,
    "Ġblackstone": 23387,
    "igns": 8447,
    "Ġcommunion": 19007,
    "Ġdoubloon": 6945,
    "oard": 4809,
    "Ġmocking": 24000,
    "Ġassistants": 9451,
    "civilized": 17075,
    "Ġinvestigated": 25386,
    "Ġdecoyed": 18486,
    "yielded": 25756,
    "Ġprescribed": 26010,
    "Ġsubsets": 2345,
    "crane": 24099,
    "led": 579,
    "âĢĶ.âĢĿ": 22252,
    "Ġ110": 24435,
    "Ġswiftness": 9926,
    "Ġslanting": 23170,
    "dried": 20826,
    "Ġowe": 8114,
    "Ġdataset": 12818,
    "Ġincognita": 26551,
    "Ġprejudices": 13468,
    "sensible": 20050,
    "Ġfreshets": 25705,
    "rut": 8091,
    "âĢĶâĢĺ": 7013,
    "antly": 1991,
    "Ġboy": 3024,
    "Ġepid": 18004,
    "withstanding": 8945,
    "Ġmisunderstand": 18702,
    "Ġundeviating": 15216,
    "Ġdevoting": 22711,
    "right": 2767,
    "Ġsublim": 19965,
    "urer": 18121,
    "Ġjollity": 25566,
    "shone": 22452,
    "Ġrisks": 9963,
    "Ġleviathan": 3289,
    "bation": 9102,
    "widely": 25343,
    "Ġloop": 14146,
    "Ġ81": 24457,
    "Ġarrowy": 25469,
    "ural": 506,
    "Ã¦st": 24175,
    "Ġheinous": 18038,
    "newsp": 23131,
    "osure": 5306,
    "floor": 14935,
    "Ġdivision": 19442,
    "thousands": 16872,
    "Ġprompt": 3188,
    "Ġwriter": 11943,
    "evening": 7089,
    "noted": 22748,
    "inquiries": 13576,
    "yards": 9623,
    "Ġbritish": 11337,
    "Ġlaughing": 5338,
    "Ġmitigates": 3053,
    "Ġinfall": 7959,
    "Ġacquainted": 5179,
    "Ġwoke": 21288,
    "ounted": 5030,
    "stupid": 12673,
    "Ġray": 18640,
    "Ġsatisfactory": 11193,
    "Ġ179": 19753,
    "ribut": 815,
    "Ġfastening": 16355,
    "flex": 24843,
    "occasionally": 13520,
    "retreat": 23134,
    "pride": 11210,
    "Ġblight": 18817,
    "indulged": 22372,
    "Ġsplashed": 23747,
    "Ġcapering": 21352,
    "Ġignorance": 6618,
    "Ġunde": 11710,
    "iet": 1774,
    "Ġretire": 10381,
    "pooh": 18802,
    "Ġslipper": 24265,
    "Ġanalyze": 1552,
    "Ġsettle": 6293,
    "Ġexact": 2543,
    "Ġminiature": 11040,
    "Ġsatire": 22898,
    "zek": 16257,
    "guest": 19480,
    "anting": 6412,
    "Ġexpert": 18867,
    "Ġconvenience": 11331,
    "Ġcrutch": 23445,
    "Ġbeg": 1283,
    "Ġobscure": 9553,
    "Ġinnumerable": 13350,
    "Ġfelony": 18951,
    "accident": 11181,
    "Ġluc": 3310,
    "bethink": 25744,
    "Ġstubbs": 23292,
    "rever": 21234,
    "umbrance": 22115,
    "Ġlikely": 3597,
    "Ġunremitting": 26217,
    "Ġloathed": 15873,
    "masculine": 24387,
    "Ġseeming": 8539,
    "Ġevap": 19622,
    "Ġtumbled": 13405,
    "Ġdespite": 19351,
    "coil": 23557,
    "Ġentered": 2846,
    "formation": 22218,
    "icting": 12853,
    "tubs": 15129,
    "cock": 12024,
    "Ġrequ": 822,
    "worth": 8626,
    "Ġtranced": 18426,
    "Ġbare": 6132,
    "Ġgir": 2256,
    "Ġteasing": 11887,
    "loss": 22505,
    "Ġbeggars": 20628,
    "ais": 8070,
    "Ġstreet": 2961,
    "etch": 9204,
    "Ġunlocking": 20705,
    "intercourse": 14638,
    "Ġrewarding": 13436,
    "telling": 14439,
    "Ġhot": 4255,
    "opard": 9289,
    "Ġhoping": 11104,
    "Ġarc": 14158,
    "osely": 9264,
    "Ġassu": 21894,
    "iant": 5427,
    "sun": 7139,
    "Ġsom": 1276,
    "oblig": 16289,
    "send": 15422,
    "grave": 16092,
    "announce": 24560,
    "Ġexclamation": 8698,
    "Ġdeprec": 15755,
    "Ġbaker": 4695,
    "Ġtwig": 11848,
    "Ġundeniable": 26510,
    "vels": 5432,
    "lemag": 21370,
    "Ġwing": 6665,
    "Ġunfit": 14786,
    "hideous": 25407,
    "proceeded": 25190,
    "Ġexercising": 19906,
    "Ġexe": 3994,
    "ms": 541,
    "low": 650,
    "Ġtransmit": 10304,
    "Ġobsequ": 14319,
    "Ġclimax": 25051,
    "Ġtuck": 10140,
    "Ġsect": 17751,
    "Ġazores": 20192,
    "abounding": 25979,
    "Ġkramm": 26233,
    "Ġprov": 4400,
    "fancy": 7337,
    "Ġsince": 1795,
    "Ġinconsistency": 26182,
    "catch": 17506,
    "Ġsatisfying": 23695,
    "Ġdetested": 14183,
    "Ġarch": 925,
    "et": 307,
    "Ġplains": 14623,
    "bowl": 14890,
    "Ġhabit": 6771,
    "Ġrazors": 22655,
    "Ġlamp": 4114,
    "Ġgrope": 17994,
    "Ġaimed": 20249,
    "Ġsul": 7570,
    "Ġrandomly": 1917,
    "Ġelias": 18634,
    "Ġxiv": 23406,
    "Ġfaithfulness": 24446,
    "activation": 3229,
    "Ġroar": 9751,
    "across": 10324,
    "Ġparents": 6752,
    "Ġbeacon": 21753,
    "Ġgroping": 13664,
    "unwholesome": 26497,
    "Ġtribute": 15474,
    "bonnet": 25742,
    "Ġemboldened": 22993,
    "Ġseemingly": 9317,
    "Ġdorm": 4821,
    "reme": 2425,
    "Ġmillar": 13860,
    "masters": 16834,
    "Ġheightens": 24154,
    "Ġrocky": 13386,
    "deacon": 22144,
    "Ġconverse": 11845,
    "Ġmastery": 23990,
    "Ġoutskirts": 17456,
    "Ġperfections": 23607,
    "aken": 1868,
    "Ġbreakfast": 3974,
    "Ġacquired": 13041,
    "Ġexchanged": 10878,
    "Ġcosmetic": 23470,
    "which": 1710,
    "tackles": 25624,
    "Ġheaped": 18037,
    "rier": 9241,
    "roof": 17953,
    "Ġmistakes": 16541,
    "Ġcomprehensiveness": 25072,
    "Ġnarrated": 14870,
    "handed": 7482,
    "Ġapologized": 25198,
    "uccas": 21105,
    "Ġjurors": 17343,
    "Ġreassure": 21669,
    "uteness": 17985,
    "Ġabroad": 8865,
    "Ġcrown": 5287,
    "fitting": 1511,
    "Ġdevouring": 11853,
    "phants": 9319,
    "Ġinsol": 10180,
    "forbid": 14350,
    "Ġaudacious": 13459,
    "Ġerroneous": 17408,
    "Ġfur": 993,
    "Ġreckoning": 14978,
    "Ġ108": 19683,
    "Ġbreath": 4791,
    "gris": 8259,
    "deserts": 25379,
    "Ġforesee": 19125,
    "entreat": 17975,
    "Ġtesting": 23223,
    "Ġswelled": 11088,
    "hoisted": 19281,
    "Ġsemicircular": 26068,
    "Ġbalancing": 2431,
    "Ġunreserved": 19395,
    "Ġinvestigation": 9042,
    "Ġdestined": 7973,
    "Ġcreative": 9830,
    "Ġvilest": 20099,
    "Ġarrive": 6907,
    "Ġdel": 1616,
    "Ġcheck": 7271,
    "Ġtech": 1624,
    "gment": 4390,
    "mouse": 15391,
    "Ġsolve": 4194,
    "Ġtwilight": 16119,
    "darker": 24516,
    "surrounded": 26088,
    "ifle": 10891,
    "Ġsoda": 25534,
    "Ġinflict": 15001,
    "Ġuninhabited": 22048,
    "rollable": 13944,
    "lacings": 26134,
    "Ġslugg": 15267,
    "Ġwhether": 2002,
    "Ġimperial": 9480,
    "passion": 11260,
    "nose": 17610,
    "commencement": 26347,
    "topp": 22562,
    "ifted": 4494,
    "despairing": 25074,
    "tone": 8762,
    "Ġsynthe": 26007,
    "Ġsen": 9156,
    "ai": 2527,
    "Ġblooming": 17212,
    "Ġgap": 21596,
    "Ġfood": 5080,
    "Ġdocile": 19957,
    "Ġperceived": 4714,
    "Ġqueer": 4478,
    "establish": 17392,
    "Ó": 148,
    "ean": 20839,
    "vital": 17700,
    "Ġreposing": 23359,
    "adamite": 20591,
    "mist": 5686,
    "Ġdiscredit": 22779,
    "Ġlaugh": 4113,
    "agre": 18164,
    "Ġdat": 503,
    "dispositions": 25011,
    "Ġgot": 2280,
    "chari": 21686,
    "Ġpeeling": 22689,
    "Ġdivers": 9665,
    "Ġdistress": 5844,
    "cul": 1898,
    "profound": 16424,
    "Ġstranger": 3484,
    "towing": 17689,
    "ertips": 23638,
    "Ġbodiless": 24226,
    "Ġchurches": 12824,
    "Ġgent": 7383,
    "Ġsoothing": 8172,
    "Ġfolk": 10375,
    "Ġshadows": 8012,
    "Ġfert": 15579,
    "expressed": 9041,
    "Ġcharms": 11130,
    "Ġsobs": 14135,
    "Ġwretch": 6378,
    "Ġmultimodal": 18748,
    "Ġtrim": 15966,
    "Ġplot": 14279,
    "astic": 1867,
    "Ġexcepting": 14680,
    "Ġol": 17814,
    "zers": 21145,
    "Ġdistension": 22502,
    "Ġpublicly": 13321,
    "vous": 2252,
    "jeroboam": 25619,
    "Ġdot": 4820,
    "Ġvineyarder": 25606,
    "twice": 14621,
    "tic": 8390,
    "resol": 17760,
    "Ġcognitive": 13633,
    "Ġobser": 2071,
    "accept": 8897,
    "Ġassembled": 9235,
    "Ġcrammed": 16470,
    "ah": 1833,
    "Ġsteak": 9828,
    "Ġavowal": 19413,
    "Ġmixed": 6974,
    "Ġpugnacious": 26451,
    "beneath": 9534,
    "ilated": 18057,
    "Ġvertically": 19378,
    "Ġadjust": 2155,
    "Ġunwilling": 7885,
    "Ġwearied": 15791,
    "Ġreasonable": 7251,
    "ouement": 21446,
    "Ġcreates": 2011,
    "Ġcurrent": 13003,
    "Ġmalice": 7152,
    "olds": 9310,
    "Ġprodigious": 8056,
    "Ġrise": 5637,
    "Ġscheming": 23268,
    "Ġmince": 22830,
    "Ġledgers": 23935,
    "dies": 15337,
    "Ġwaist": 6892,
    "Ġintensely": 17017,
    "Ġmayhew": 12947,
    "ars": 905,
    "Ġunrem": 18244,
    "Ġca": 21337,
    "Ġcheerfully": 12132,
    "0": 20,
    "Ġadopted": 15177,
    "Ġmeasurement": 19421,
    "Ġtroubling": 26547,
    "Ġroyal": 5602,
    "aver": 6785,
    "Ġinterpre": 1588,
    "Ġaggregated": 25678,
    "Ġequ": 1733,
    "forbearance": 22792,
    "Ġglass": 4368,
    "degree": 12798,
    "phenomenon": 17648,
    "merged": 11194,
    "nigh": 13762,
    "cottage": 9569,
    "Ġmazes": 25940,
    "Ġcoverage": 4287,
    "Ġsubset": 9869,
    "databases": 3026,
    "Ġloss": 823,
    "Ġlooks": 4165,
    "Ġreminisc": 18725,
    "Ġcollins": 2180,
    "Ġsires": 21225,
    "Ġprocure": 9509,
    "4": 24,
    "Ġcleansed": 26293,
    "Ġmystical": 12130,
    "ivorous": 22079,
    "Ġnapkins": 25161,
    "Ġbald": 16205,
    "row": 1066,
    "Ġmerits": 13195,
    "u": 89,
    "Ġmilky": 9946,
    "Ġcomes": 3423,
    "mpus": 13756,
    "Ġcharitable": 23267,
    "Ġlordly": 23743,
    "pair": 21011,
    "fitzwilliam": 11352,
    "Ġtradeoff": 2656,
    "Ġtransl": 2830,
    "Ġstore": 8453,
    "Ġpromote": 23190,
    "dest": 4103,
    "ieved": 3228,
    "Ġlard": 13946,
    "poling": 12217,
    "Ġfirmest": 16664,
    "Ġtrustworthy": 24107,
    "Ġpitiable": 9913,
    "elsewhere": 19867,
    "Ġdragon": 14943,
    "letons": 14612,
    "Ġwrought": 11942,
    "Ġbenediction": 18784,
    "Ġdreading": 23797,
    "Ġblaming": 22927,
    "Ġexcellent": 4234,
    "ahead": 12432,
    "Ġhaul": 11690,
    "creation": 14805,
    "Ġamerica": 6763,
    "Ġvocabulary": 4995,
    "Ġrecalled": 8537,
    "Ġlizzie": 26462,
    "Ġfinanc": 23125,
    "Ġsudden": 2001,
    "maged": 15392,
    "Ġdiameter": 19866,
    "Ġfrequ": 3327,
    "Ġfoliage": 18866,
    "Ġamongst": 8959,
    "appalled": 18762,
    "itates": 13868,
    "arbuck": 2026,
    "Ġwaistcoat": 12268,
    "itud": 2934,
    "flaming": 23967,
    "fere": 10989,
    "Ġcherub": 23284,
    "bitter": 11240,
    "engine": 18926,
    "mons": 17600,
    "Ġxii": 11989,
    "Ġoceans": 7995,
    "Ġupset": 22150,
    "Ġfringe": 17271,
    "Ġregarding": 13209,
    "Ġpleases": 16297,
    "Ġideal": 13119,
    "Ġcet": 6669,
    "Ġdelicacy": 6340,
    "Ġcrop": 10162,
    "Ġformer": 3322,
    "introduced": 15123,
    "iers": 5990,
    "oked": 4307,
    "Ġa": 263,
    "ifference": 5632,
    "Ġgull": 15667,
    "uts": 8815,
    "Ġguest": 7249,
    "Ġages": 7027,
    "Ġexertions": 13409,
    "Ġreplacing": 3448,
    "Ġcandelab": 23846,
    "effectually": 25128,
    "missed": 11209,
    "Ġwoeful": 19618,
    "reached": 13840,
    "sk": 5521,
    "Ġtransf": 22434,
    "Ġflanks": 11913,
    "reast": 17758,
    "Ġsalary": 13292,
    "\"": 6,
    "Ġ65": 24368,
    "whisper": 17083,
    "Ġwolfish": 25935,
    "Ġconsist": 1934,
    "Ġwoods": 5406,
    "Ġimmured": 24071,
    "Ġbuck": 7157,
    "levi": 7047,
    "condite": 23245,
    "Ġsustained": 13481,
    "Ġdin": 3624,
    "Ġroll": 5381,
    "Ġpleated": 16296,
    "Ġinstantaneous": 14611,
    "into": 3680,
    "Ġnearest": 8469,
    "Ġcastors": 23973,
    "Ġsqualidness": 25842,
    "Ġrussian": 14349,
    "Ġshud": 5461,
    "probability": 17022,
    "Ġclearer": 16311,
    "Ġevangelists": 20338,
    "Ġsallied": 12534,
    "Ġwarsaw": 26167,
    "Ġindulge": 10582,
    "Ġincidents": 9298,
    "Ġexpectantly": 23522,
    "Ġgener": 586,
    "Ġclassify": 1651,
    "context": 3404,
    "Ġshilling": 18228,
    "Ġkiller": 19567,
    "Ġed": 2144,
    "putting": 14099,
    "wig": 17704,
    "Ġer": 8104,
    "valley": 16212,
    "Ġabhorrent": 16856,
    "ghan": 19453,
    "Ġcorresponds": 19820,
    "ted": 792,
    "Ġwaifing": 25243,
    "discharging": 26305,
    "Ġalleg": 14016,
    "Ġperry": 22394,
    "Ġerudite": 26350,
    "snatched": 24850,
    "barbaric": 26358,
    "Ġladies": 3192,
    "limbs": 20190,
    "Ġrevolver": 14899,
    "specimen": 26605,
    "Ġverd": 6919,
    "Ġresource": 10993,
    "corners": 17367,
    "yn": 7819,
    "Ġsuddenness": 23380,
    "Ġconquered": 14025,
    "Ġnash": 5819,
    "unfearing": 21889,
    "Ġrout": 7402,
    "Ġdecomp": 3809,
    "Ġperiod": 4003,
    "Ġfraud": 19035,
    "Ġbilliard": 16689,
    "Ġproud": 5654,
    "inspect": 11558,
    "Ġdespond": 14667,
    "Ġchrysalis": 26538,
    "Ġexultation": 15170,
    "Ġheadsman": 13273,
    "Ġgravesend": 15215,
    "Ġbeheld": 4492,
    "Ġjourneying": 25565,
    "Ġjabbering": 22300,
    "Ġkindly": 6077,
    "Ġdro": 2769,
    "Ġreckon": 19869,
    "Ġphrases": 2795,
    "Ġrestless": 10413,
    "Ġcondescending": 24868,
    "vain": 15446,
    "igators": 18044,
    "Ġretrogression": 26581,
    "val": 1143,
    "inkles": 7426,
    "Ġheavily": 6740,
    "Ġconfusion": 7273,
    "photograph": 16150,
    "Ġhysterics": 26093,
    "Ġe": 311,
    "âĢĶâĢĻ": 8187,
    "Ġreeds": 15693,
    "Ġfiltering": 23923,
    "acing": 2715,
    "Ġsecondary": 23334,
    "Ġspeed": 2450,
    "Ġstrip": 9420,
    "Ġwert": 12553,
    "ology": 1564,
    "Ġharmony": 16814,
    "warn": 11542,
    "monsters": 19170,
    "condition": 7059,
    "lestrade": 9656,
    "kindled": 16660,
    "uesday": 8587,
    "vess": 7354,
    "Ġfishermen": 5970,
    "Ġperu": 14222,
    "Ġoil": 3373,
    "Ġterrible": 5327,
    "clouds": 25496,
    "ided": 2783,
    "Ġaft": 5737,
    "unted": 6998,
    "nikin": 23216,
    "eline": 2437,
    "steering": 16635,
    "anish": 2616,
    "Ġhundred": 2692,
    "Ġbarbs": 10531,
    "accomplishment": 20222,
    "Ġfrancisco": 26064,
    "Ġfaultless": 24540,
    "Ġswallow": 8950,
    "wise": 2574,
    "Ġblessing": 11263,
    "ravity": 21632,
    "Ġstack": 21730,
    "Ġsmells": 8889,
    "Ġresid": 22535,
    "Ġpractice": 2868,
    "andy": 8157,
    "Ġpersonified": 19177,
    "Ġstrung": 22616,
    "continuance": 19717,
    "Ġjud": 3358,
    "Ġheadlands": 22894,
    "Ġblanc": 11065,
    "turner": 19540,
    "ipelagoes": 13670,
    "Ġgaieties": 24195,
    "quite": 4646,
    "Ġquietude": 19358,
    "Ġwager": 17792,
    "shazz": 14242,
    "Ġtowing": 9193,
    "asleep": 21541,
    "Ġrelated": 3714,
    "Ġimprecate": 20516,
    "Ġviol": 2072,
    "Ġmultiplied": 23688,
    "Ġpurposes": 11168,
    "Ġdug": 21428,
    "coff": 9108,
    "bordered": 17498,
    "Ġmortals": 9915,
    "ge": 560,
    "Ġmist": 2879,
    "Ġadmirals": 20383,
    "Ġcleans": 18947,
    "Ġadvert": 10571,
    "rested": 13073,
    "Ġexpanding": 25238,
    "drop": 15336,
    "Ġsum": 2698,
    "stumps": 21656,
    "gressive": 2753,
    "hither": 11492,
    "myster": 16263,
    "03": 20747,
    "cracy": 24690,
    "march": 13754,
    "got": 6955,
    "Ġgentlemanly": 19315,
    "Ġstained": 11651,
    "ri": 389,
    "having": 5211,
    "Ġgrows": 4985,
    "Ġdundee": 16997,
    "ox": 9133,
    "these": 3239,
    "ption": 7398,
    "alcul": 15625,
    "audible": 17132,
    "Ġnooks": 26011,
    "adequate": 15202,
    "Ġhar": 5814,
    "Ġconjoined": 21803,
    "Ġabsolute": 6765,
    "us": 530,
    "Ġmaintain": 856,
    "Ġbonnet": 10655,
    "gu": 3955,
    "Ġ95": 19772,
    "Ġdisease": 14257,
    "Ġknocking": 10559,
    "Ġtests": 8957,
    "ernation": 8211,
    "Ġsteam": 9352,
    "contracting": 19293,
    "perceived": 8858,
    "aging": 2239,
    "Ġjuggl": 20436,
    "Ġtyros": 26101,
    "Ġvincent": 15282,
    "Ġsquatted": 25841,
    "Ġplunge": 13442,
    "Ġspeaking": 4027,
    "Ġbarmaid": 19334,
    "ituted": 13872,
    "Ġul": 6828,
    "Ġrenounce": 19466,
    "prehend": 14235,
    "Ġdistricts": 20262,
    "Ġdrives": 14578,
    "aye": 3658,
    "Ġworshipped": 25691,
    "Ġcoroner": 7510,
    "quently": 9701,
    "Ġsquee": 7928,
    "Ġoft": 9194,
    "Ġwalker": 23305,
    "vocabulary": 25085,
    "Ġstanders": 19013,
    "Ġornam": 15862,
    "Ġfatal": 5871,
    "Ġlitter": 19828,
    "Ġquitting": 7645,
    "Ġn": 300,
    "Ġdependence": 18627,
    "Ġenormity": 19694,
    "oura": 1060,
    "coast": 10449,
    "engagement": 14458,
    "Ġinjection": 3465,
    "Ġrevealing": 3923,
    "frankly": 20020,
    "Ġtaurus": 21177,
    "Ġmind": 1621,
    "Ġinvests": 14867,
    "thick": 10260,
    "ras": 21035,
    "Ġreser": 5170,
    "Ġconsecrated": 26488,
    "ete": 9203,
    "Ġshifting": 12765,
    "Ġdais": 24372,
    "Ġpers": 1369,
    "Ġhoars": 19075,
    "----âĢĻ": 24097,
    "occasional": 19575,
    "eting": 7169,
    "Ġfocused": 16340,
    "Ġfeeding": 7971,
    "Ġstumble": 26482,
    "words": 7982,
    "Ġomnipotent": 13547,
    "Ġalthough": 4150,
    "Ġstarlight": 24626,
    "Ġtangle": 25760,
    "nav": 17611,
    "Ġeavesdroppers": 25963,
    "Ġbestow": 6455,
    "Ġpanegyric": 26449,
    "Ġdisagreeable": 9297,
    "clings": 23150,
    "Ġdance": 4442,
    "iac": 6225,
    "henomena": 20271,
    "Ġforswe": 21771,
    "Ġrules": 1915,
    "Ġbaboon": 19692,
    "Ġfeasible": 22205,
    "Ġbut": 424,
    "sheet": 16284,
    "Ġinclined": 6622,
    "sterns": 23366,
    "Ġinnocence": 6477,
    "Ġhammers": 13239,
    "aware": 16293,
    "Ġprotecting": 24686,
    "Ġfelix": 4848,
    "rep": 5525,
    "Ġsymmetrical": 20365,
    "Ġwe": 388,
    "Ġcultivation": 17145,
    "Ġrenew": 6145,
    "Ġcontortions": 18476,
    "oo": 7553,
    "Ġounce": 15271,
    "remarked": 12286,
    "nervous": 16276,
    "prehens": 9287,
    "Ġcrater": 16438,
    "Ġrequest": 6050,
    "speeches": 25239,
    "inations": 7567,
    "Ġreigning": 15698,
    "Ġparmacetti": 20603,
    "obed": 14445,
    "atmospheric": 17776,
    "ability": 717,
    "Ġfug": 12592,
    "y": 93,
    "Ġflirt": 14422,
    "Ġgliding": 8559,
    "houn": 20892,
    "Ġgaunt": 11268,
    "Ġposterity": 17401,
    "Ġwondrous": 4735,
    "Ġclenched": 14203,
    "blubber": 15235,
    "Ġlim": 2380,
    "Ġloungers": 24862,
    "Ġgri": 17987,
    "Ġstate": 1808,
    "Ġwidespread": 20674,
    "disinterested": 23499,
    "Ġcrack": 7709,
    "smart": 23904,
    "mits": 13755,
    "constant": 11324,
    "bec": 4052,
    "Ġpil": 5014,
    "ĥ": 230,
    "Ġfright": 3795,
    "abated": 14019,
    "Ġsufficient": 2005,
    "Ġwashed": 15762,
    "Ġjew": 9467,
    "Ġchiswick": 25560,
    "du": 603,
    "Ġglowing": 12280,
    "mentioned": 10623,
    "fulfilment": 26025,
    "Ġalman": 21778,
    "Ġinserted": 8355,
    "Ġprivate": 5345,
    "ty": 1002,
    "member": 20974,
    "Ġvort": 18193,
    "Ġforeshad": 23451,
    "measured": 19988,
    "suitableness": 26260,
    "carb": 20809,
    "Ġfle": 3093,
    "Ġfaint": 5811,
    "Ġsuperhuman": 23452,
    "Ġpredicts": 2594,
    "wish": 8099,
    "Ġpur": 2216,
    "Ġcaulking": 20292,
    "enormous": 26166,
    "Ġquarter": 3975,
    "Ġtemptations": 24508,
    "Ġexhibited": 9543,
    "ficial": 17548,
    "omit": 13973,
    "qual": 8156,
    "Ġdi": 6525,
    "Ġbenevolence": 9526,
    "##": 2317,
    "erne": 21268,
    "consult": 24169,
    "vision": 5620,
    "ugn": 9377,
    "Ġrenow": 18027,
    "yden": 21142,
    "illating": 22104,
    "ornament": 23486,
    "fastened": 19324,
    "alvan": 21501,
    "Ġleaky": 2346,
    "Ġeloquent": 16109,
    "Ġcomposed": 8891,
    "ulnerable": 18150,
    "forced": 11031,
    "Ġantichron": 24181,
    "lesome": 12962,
    "bble": 17484,
    "six": 7141,
    "parts": 14601,
    "Ġter": 2051,
    "Ġsolicited": 20035,
    "Ġfemin": 13435,
    "pleas": 3849,
    "Ġhonest": 7287,
    "apers": 3480,
    "Ġrucastles": 18721,
    "Ġsums": 2906,
    "Ġbeing": 1164,
    "Ġgrizz": 10352,
    "inent": 9628,
    "fordshire": 4676,
    "mccarthy": 15394,
    "Ġmates": 4872,
    "Ġenvironmental": 24073,
    "ĠĠĠĠĠĠĠĠĠĠĠĠĠĠĠĠĠĠĠĠĠĠĠĠĠĠĠĠĠĠĠĠĠĠĠĠĠĠĠĠĠĠĠĠ": 12151,
    "Ġbrighter": 16186,
    "uned": 21868,
    "amous": 15758,
    "ire": 492,
    "mechanical": 25578,
    "peddling": 24696,
    "Ġarchly": 22766,
    "Ġrover": 18454,
    "Ġassailed": 23175,
    "Ġroused": 7622,
    "zas": 17712,
    "ws": 7355,
    "hee": 10760,
    "splice": 17170,
    "urs": 6989,
    "apes": 9740,
    "Ġfulfilled": 11362,
    "reds": 12747,
    "Ġodorous": 19565,
    "Ġconceivable": 16613,
    "Ġrake": 18641,
    "izes": 886,
    "Ġprovide": 7749,
    "agon": 7870,
    "enderby": 25215,
    "overed": 2854,
    "Ġbricks": 13561,
    "Ġamends": 14245,
    "Ġopening": 5045,
    "Ġskil": 14351,
    "Ġheadland": 22893,
    "races": 21627,
    "Ġcorners": 18874,
    "meant": 7920,
    "Ġarab": 7823,
    "want": 8765,
    "Ġdevoured": 16132,
    "exe": 11787,
    "condemned": 26060,
    "Ġf": 283,
    "Ġautonom": 10416,
    "Ġnovelty": 13462,
    "Ġploughing": 26259,
    "Ġfangs": 12594,
    "Ġunknown": 4453,
    "Ġexh": 5232,
    "Ġgates": 10200,
    "fixed": 7548,
    "Ġuncork": 23428,
    "Ġ90": 24588,
    "white": 4601,
    "Ġsurveying": 25325,
    "fit": 6645,
    "Ġquest": 2003,
    "Ġstories": 10865,
    "hack": 20895,
    "Ġeyel": 17096,
    "Ġformal": 2945,
    "dilig": 17282,
    "Ġprofile": 16487,
    "Ġgr": 978,
    "tomb": 21092,
    "ac": 742,
    "Ġunav": 18240,
    "drown": 13703,
    "quely": 10231,
    "Ġstam": 18065,
    "Ġnarwhale": 12291,
    "Ġcontinued": 2925,
    "Ġintend": 12761,
    "indifference": 15980,
    "Ġworm": 9162,
    "Ġloaded": 8490,
    "Ġsupplement": 22999,
    "Ġunusually": 15844,
    "performed": 18342,
    "former": 11746,
    "gunwale": 20662,
    "Ġdames": 23472,
    "prof": 7698,
    "Ġoccasionally": 5590,
    "Ġsweep": 8265,
    "Ġwretchedness": 9026,
    "it": 276,
    "Ġincorporated": 25711,
    "impatient": 13639,
    "previous": 9759,
    "dl": 20822,
    "Ġstorms": 11262,
    "Ġirons": 7695,
    "Ġchips": 14179,
    "Ġmental": 21318,
    "Ġturtles": 19219,
    "Ġoffered": 5816,
    "Ġwanderings": 20142,
    "Ġendangered": 16303,
    "iture": 5696,
    "Ġmamma": 10047,
    "afer": 17481,
    "Ġpleasures": 11142,
    "apparatus": 26563,
    "Ġshort": 2224,
    "headsman": 16700,
    "Ġcalms": 23040,
    "Ġsnow": 3706,
    "Ġkeeled": 18808,
    "apsed": 6295,
    "Ġpane": 21461,
    "quit": 15759,
    "Ġadmeasurements": 26225,
    "Ġ127": 24472,
    "foundered": 20866,
    "Ġarsacides": 17293,
    "Ġphant": 7055,
    "Ġaverted": 16253,
    "flame": 16637,
    "Ġvertical": 16604,
    "Ġsodden": 25535,
    "Ġpredefined": 20717,
    "Ġplans": 7917,
    "Ġfergus": 16867,
    "Ġsuperst": 7703,
    "Ġdraught": 9844,
    "Ġpettiness": 24229,
    "idelburgh": 10560,
    "ma": 1151,
    "Ġmasks": 23324,
    "Ġembarrassed": 11384,
    "coal": 12023,
    "arance": 4697,
    "Ġsplendour": 20223,
    "answer": 11730,
    "Ġpunctil": 20112,
    "Ġcask": 5527,
    "Ġbutton": 10267,
    "hereabouts": 23605,
    "Ġteacher": 22903,
    "Ġvale": 14081,
    "Ġsummar": 3522,
    "Ġsuns": 23271,
    "dut": 10087,
    "rel": 3754,
    "Ġeffusions": 18529,
    "Ġlearns": 2641,
    "Ġcensus": 15095,
    "Ġaffect": 1387,
    "Ġholiest": 18812,
    "Ġerecting": 24652,
    "Ġforesaw": 19127,
    "Ġhell": 5019,
    "Ġbenchmarks": 15021,
    "Ġ51": 24320,
    "vib": 21114,
    "pleasing": 14741,
    "Ġmushroom": 13234,
    "Ġdeaf": 12718,
    "ened": 1389,
    "ingham": 21299,
    "Ġmarines": 16261,
    "inn": 5363,
    "Ġpoised": 22587,
    "Ġsublime": 8065,
    "ap": 547,
    "Ġsanctioned": 26349,
    "Ġsyn": 15911,
    "Ġvess": 3296,
    "ructive": 18544,
    "Ġscroll": 14191,
    "Ġmug": 21311,
    "Ġstrang": 4160,
    "Ġgreas": 17991,
    "ening": 3106,
    "Ġprotruding": 16658,
    "Ġliveliest": 24775,
    "_?âĢĿ": 15304,
    "Ġxviii": 23408,
    ".,": 5987,
    "ø": 185,
    "Ġslay": 16305,
    "Ġnarrowed": 24355,
    "Ġyer": 15731,
    "Ġboarding": 12084,
    "apolog": 22330,
    "assist": 11766,
    "Ġattacking": 24465,
    "months": 9071,
    "Ġdevoted": 6573,
    "deceptive": 22146,
    "hoist": 23711,
    "scuttle": 11907,
    "Ġfascinated": 25635,
    "Ġlatterly": 24085,
    "Ġfingertips": 24014,
    "Ġresolved": 3796,
    "contrivance": 26316,
    "Ġattaining": 15801,
    "Ġxxxiv": 24967,
    "Ġworrying": 22924,
    "Ġlinen": 12405,
    "rendering": 22337,
    "Ġanyways": 22517,
    "making": 2572,
    "Ġloth": 17965,
    "Ġeligible": 10670,
    "Ġtossing": 8125,
    "Ġprinciple": 6770,
    "crier": 20819,
    "Ġprynne": 25540,
    "urmountable": 15278,
    "Ġgasps": 24865,
    "dimly": 15345,
    "iety": 2818,
    "mannered": 22848,
    "Ġimmense": 4952,
    "Ġfoe": 7679,
    "Ġsyntax": 958,
    "brim": 23573,
    "Ġthrusts": 24350,
    "ringle": 21039,
    "Ġpresumption": 10545,
    "Ġnailed": 10189,
    "ones": 2742,
    "Ġpetticoat": 15294,
    "stirring": 20424,
    "Ġjava": 12310,
    "pets": 17636,
    "Ġfable": 15574,
    "itan": 10159,
    "streamed": 25966,
    "Ġshot": 4543,
    "Ġcompan": 2172,
    "Ġcaulk": 25440,
    "asburgh": 15644,
    "Ġdeer": 12717,
    "Ġincalculable": 17460,
    "Ġcomputing": 2219,
    "ends": 6038,
    "increased": 20269,
    "Ġarmitage": 23579,
    "Ġmaking": 1780,
    "Ġprediction": 2312,
    "Ġproposition": 23247,
    "add": 5229,
    "ificant": 22206,
    "ĠĠĠĠĠĠĠĠĠĠĠĠĠĠĠĠĠĠĠĠĠĠĠĠĠĠĠĠĠĠĠĠĠĠ": 14613,
    "thirds": 25046,
    "Ġpot": 2993,
    "Ġcotton": 17378,
    "Ġpaling": 21460,
    "oarsman": 25261,
    "Ġmogul": 12859,
    "Ġdecreasing": 2444,
    "Ġreserve": 9970,
    "Ġindex": 17049,
    "Ġparametric": 2394,
    "Ġbrid": 6290,
    "mankind": 14373,
    "observed": 7674,
    "acknowledging": 25476,
    "liberal": 26281,
    "Ġspoiled": 11363,
    "Ġ183": 13236,
    "sharpening": 22463,
    "Ġpointed": 4773,
    "Ġshocking": 10435,
    "Ġconsummation": 17424,
    "Ġgoose": 5937,
    "acqu": 4842,
    "Ġgrammar": 1061,
    "Ġchowder": 10279,
    "Ġknitting": 24218,
    "abroad": 18108,
    "Ġwarn": 5695,
    "Ġeffaced": 18528,
    "Ġjonah": 3479,
    "loving": 18537,
    "Ġdarkness": 4277,
    "Ġcolon": 18764,
    "Ġprogen": 14038,
    "velled": 9875,
    "idav": 18092,
    "Ġcircumspection": 25884,
    "Ġtambourine": 9564,
    "Ġbrand": 16185,
    "Ġsphere": 15880,
    "repugnance": 16864,
    "Ġbounce": 21391,
    "Ġtur": 2565,
    "Ġbund": 17863,
    "Ġsw": 1356,
    "Ġspire": 18306,
    "Ġcounteracted": 19861,
    "m": 81,
    "Ġstagger": 10591,
    "antic": 1607,
    "Ġorthodox": 22092,
    "Ġwrig": 13065,
    "Ġfavourites": 16644,
    "Ġgrasshopper": 24380,
    "glory": 23850,
    "Ġve": 1110,
    "Ġofficio": 23813,
    "Ġ>": 21150,
    "Ġaux": 21198,
    "ways": 1444,
    "oundered": 14164,
    "paus": 13772,
    "Ġsunlight": 13083,
    "Ġbrighton": 6470,
    "chairs": 21690,
    "peculiarity": 23107,
    "Ġdefendants": 15139,
    "brevi": 24074,
    "Ġfished": 21408,
    "Ġreminded": 9998,
    "Ġfates": 15575,
    "Ġberyls": 25775,
    "ispens": 8335,
    "ellations": 21941,
    "izzy": 3097,
    "Ġpurposely": 10444,
    "might": 4079,
    "Ġantiquities": 25598,
    "ulance": 15764,
    "Ġdoubloons": 13433,
    "Ġgulp": 20027,
    "fatality": 25019,
    "Ġcontributed": 16007,
    "Ġmachines": 1776,
    "quitted": 21854,
    "Ġdistantly": 18531,
    "Ġachieve": 3673,
    "Ġrevolutions": 23839,
    "Ġindirectly": 8939,
    "collecting": 26081,
    "fil": 12460,
    "ropol": 10952,
    "circumstances": 8046,
    "Ġnorton": 12646,
    "flowing": 14543,
    "venor": 16098,
    "Ġundertaking": 8573,
    "Ġdesol": 6881,
    "oking": 4605,
    "Ġparched": 11725,
    "Ġaffright": 9331,
    "americ": 8155,
    "Ġlamps": 14790,
    "anim": 6522,
    "conject": 8880,
    "Ġendeavoured": 4918,
    "Ġintimidated": 24805,
    "Ġassisting": 13256,
    "gradually": 12912,
    "Ġcalifornia": 20528,
    "Ġjun": 8505,
    "iors": 9125,
    "Ġbomb": 17867,
    "Ġbat": 10795,
    "congratulations": 20278,
    "shook": 19855,
    "Ġapprove": 12870,
    "Ġoverlooking": 22354,
    "mission": 5969,
    "ables": 7889,
    "Ġinherent": 4590,
    "arial": 5532,
    "[_": 5131,
    "Ġcouldn": 7648,
    "Ġcomplexity": 1696,
    "Ġaccess": 9746,
    "port": 10719,
    "Ġreported": 11978,
    "Ġcrazed": 19174,
    "Ġgrinned": 16857,
    "Ġdropped": 4471,
    "acquaintance": 6938,
    "shelf": 20379,
    "Ġseren": 7401,
    "aceti": 7111,
    "Ġslink": 23161,
    "answering": 26004,
    "Ġderiv": 1735,
    "Ġsatisfy": 6912,
    "Ġmate": 3707,
    "Ġbreak": 2869,
    "Ġwhims": 12689,
    "Ġbrad": 8786,
    "Ġpillar": 21471,
    "spond": 5567,
    "%": 9,
    "Ġwhereof": 16100,
    "Ġspiracle": 14149,
    "Ġnast": 15636,
    "Ġlit": 6246,
    "Ġdut": 2991,
    "Ġregularization": 1194,
    "Ġdownright": 16116,
    "keel": 14128,
    "tribute": 21087,
    "compliments": 24810,
    "Ġlonely": 6823,
    "oughed": 22072,
    "Ġpersons": 6180,
    "Ġdesirable": 8941,
    "Ġseparate": 5778,
    "din": 8373,
    "establishment": 26113,
    "Ġlounged": 19952,
    "Ġbouton": 17868,
    "Ġshirr": 18231,
    "Ġadmirably": 16480,
    "Ġdelic": 4134,
    "Ġeh": 6987,
    "ifiable": 18163,
    "Ġleaving": 3902,
    "Ġdancing": 5703,
    "rell": 11563,
    "hung": 8380,
    "Ġdiana": 21434,
    "suppose": 8644,
    "Ġforce": 5092,
    "umbling": 6758,
    "Ġwines": 21286,
    "Ġautumn": 14511,
    "Ġmisgiv": 14342,
    "Ġreplace": 14476,
    "Ġlaughs": 24117,
    "dman": 10088,
    "antediluvian": 24346,
    "specul": 23940,
    "def": 1454,
    "Ġ}": 21152,
    "sail": 3602,
    "ientiously": 21938,
    "stra": 4045,
    "Ġprizes": 13072,
    "rant": 11516,
    "Ġstacked": 21740,
    "Ġtunes": 24619,
    "Ġsore": 10764,
    "Ġspoon": 22131,
    "Ġprofoundly": 16859,
    "Ġascend": 9959,
    "Ġmargaret": 10376,
    "Ġmerit": 9426,
    "Ġrestoration": 19024,
    "Ġarrant": 23294,
    "Ġwit": 3839,
    "Ġmien": 17808,
    "Ġcomponents": 8892,
    "enses": 10994,
    "romeda": 17262,
    "ē": 212,
    "Ġbluff": 16516,
    "Ġjonas": 20608,
    "Ġperpetual": 12301,
    "Ġconjured": 25099,
    "Ġcorridor": 10671,
    "Ġcompelled": 14265,
    "pen": 1202,
    "177": 20751,
    "Ġevangelist": 20337,
    "Ġliterary": 25162,
    "Ġthickly": 12113,
    "Ġcomplained": 16998,
    "Ġspanish": 2827,
    "centred": 25017,
    "Ġdun": 6673,
    "parm": 21013,
    "nut": 12492,
    "Ġbowing": 10475,
    "Ġcha": 6853,
    "angry": 18294,
    "irited": 15784,
    "dr": 6221,
    "ark": 849,
    "destro": 13308,
    "Ġadviser": 25312,
    "Ġjunks": 25113,
    "Ġdiscontented": 16057,
    "astonished": 15032,
    "Ġembellished": 25850,
    "nearer": 22447,
    "Ġeaglet": 19304,
    "acy": 3953,
    "Ġproposed": 7460,
    "discover": 10539,
    "Ġaloft": 4302,
    "sombre": 23852,
    "Ġenquired": 21937,
    "Ġabst": 9265,
    "Ġsentences": 2681,
    "idirectional": 2421,
    "ashed": 3783,
    "Ġade": 22097,
    "Ġcomrade": 12281,
    "Ġhappiest": 11880,
    "laugh": 10108,
    "Ġinexplicable": 12254,
    "insurance": 18889,
    "clifford": 23155,
    "ĠĠĠĠĠĠ": 6414,
    "come": 2377,
    "Ġassume": 10515,
    "Ġwarm": 2426,
    "spee": 9316,
    "Ġquick": 2581,
    "Ġexisted": 15750,
    "Ġsubtle": 6716,
    "magnificent": 20273,
    "eer": 15346,
    "Ġskirting": 22794,
    "Ġconcise": 23319,
    "Ġbestir": 13108,
    "Ġlead": 3520,
    "Ġgild": 15666,
    "Ġranged": 10257,
    "Ġapo": 9630,
    "credit": 12446,
    "robber": 21534,
    "ividually": 22080,
    "reputable": 15516,
    "Ġgregarious": 18964,
    "acher": 6868,
    "Ġdodge": 19885,
    "bringing": 17166,
    "Ġwaiter": 16358,
    "eag": 20841,
    "Ġrecent": 7436,
    "Ġredress": 23751,
    "distinct": 13334,
    "shooting": 16965,
    "Ġrejoicing": 13420,
    "Ġmethinks": 10390,
    "Ġbegins": 7244,
    "Ġforenoon": 19126,
    "Ġsaints": 20673,
    "Ġmeas": 1100,
    "Ġpromising": 10399,
    "Ġlittle": 867,
    "Ġjane": 1755,
    "Ġconsolidation": 5060,
    "staff": 21653,
    "Ġequinox": 25855,
    "Ġreminiscences": 26269,
    "Ġseventy": 7879,
    "Ġsuicide": 12783,
    "pede": 19843,
    "bless": 22309,
    "Ġrepast": 16409,
    "Ġremorselessly": 16967,
    "ze": 1296,
    "Ġstove": 6733,
    "Ġgag": 21590,
    "vil": 2729,
    "iarity": 8743,
    "Ġagreeable": 4551,
    "Ġrobes": 16244,
    "Ġspit": 22121,
    "acknowledge": 18468,
    "Ġliber": 5168,
    "mant": 20964,
    "----": 4057,
    "fts": 18696,
    "?--": 15302,
    "Ġintellect": 8169,
    "chair": 5916,
    "Ġrealising": 18983,
    "therly": 18346,
    "Ġphiladel": 23883,
    "Ġab": 528,
    "Ġform": 1025,
    "Ġarmed": 9259,
    "Ġmasterly": 23991,
    "tormented": 13644,
    "Ġchristmas": 6924,
    "Ġswan": 23049,
    "away": 4625,
    "rained": 5162,
    "Ġaccidentally": 9504,
    "Ġmainten": 16115,
    "licted": 20955,
    "Ġdismally": 20213,
    "Ġforeb": 12002,
    "Ġbrut": 18767,
    "Ġtick": 8108,
    "guilt": 24068,
    "ant": 439,
    "unc": 15766,
    "threshold": 21984,
    "Ġintellectual": 11401,
    "Ġconceive": 8461,
    "Ġvacancies": 24345,
    "Ġcalculating": 9924,
    "Ġwondering": 7970,
    "Ġdisgu": 8205,
    "Ġstrands": 25574,
    "ricity": 23061,
    "Ġdone": 1814,
    "Ġcrusad": 23704,
    "mpt": 6653,
    "pled": 7891,
    "Ġpurp": 2391,
    "Ġspoke": 2747,
    "pher": 11511,
    "Ġfaulty": 14906,
    "iger": 8446,
    "Ġle": 333,
    "Ġchivalrous": 20513,
    "inction": 6660,
    "many": 5250,
    "gings": 7549,
    "agonies": 21906,
    "Ġwinc": 9642,
    "Ġadversarial": 5607,
    "Ġcontour": 18474,
    "devils": 20031,
    "Ġpleasing": 6190,
    "Ġaccording": 5508,
    "Ġunlab": 3787,
    "Ġpalpitated": 26085,
    "bearings": 25371,
    "airs": 2220,
    "handsome": 13175,
    "lement": 10166,
    "erce": 6126,
    "ounders": 22392,
    "Ġoverpowered": 15287,
    "atum": 21258,
    "Ġdominion": 16523,
    "âĢĿ--": 21813,
    "inferences": 17739,
    "Ġitalian": 12408,
    "Ġrespectively": 23246,
    "Ġisinglass": 21799,
    "lamp": 9608,
    "uiperai": 10663,
    "step": 2459,
    "Ġapprehended": 26091,
    "Ġunanswerable": 26521,
    "securer": 25602,
    "Ġstudents": 23211,
    "Ġintrodu": 1922,
    "Ġbundle": 13425,
    "izings": 14050,
    "Ġenvelope": 7319,
    "nel": 11504,
    "Ġthomas": 17947,
    "Ġunsupp": 22018,
    "Ġvictory": 16653,
    "Ġwithered": 19463,
    "none": 6962,
    "Ġcategor": 4139,
    "Ġdischarge": 18556,
    "Ġrods": 9752,
    "iline": 21718,
    "Ġmartial": 20290,
    "hastening": 24448,
    "Ġpennies": 17270,
    "Ġchivalry": 25818,
    "Ġcontrolled": 23248,
    "Ġtumult": 7114,
    "xes": 21139,
    "smitten": 23906,
    "Ġeyford": 10641,
    "bergs": 18684,
    "igms": 3048,
    "Ġthough": 994,
    "ince": 4339,
    "Ġinscrutable": 10672,
    "sat": 4810,
    "particulars": 11315,
    "Ġunthink": 18247,
    "Ġminim": 1324,
    "Ġrepresents": 4902,
    "Ġincrust": 22547,
    "Ġshreds": 12767,
    "asse": 15642,
    "Ġsalutations": 25382,
    "enough": 6809,
    "Ġupwards": 7633,
    "Ġris": 4886,
    "was": 1421,
    "ually": 2768,
    "Ġtells": 9361,
    "Ġbreaking": 6310,
    "Ġneatly": 17016,
    "V": 58,
    "Ġimmort": 19482,
    "Ġrobbed": 23000,
    "Ġnin": 10187,
    "Ġjet": 5307,
    "Ġserm": 9633,
    "aution": 9386,
    "msgate": 18412,
    "Ġcopied": 20006,
    "Ġcoldly": 14650,
    "kinder": 24845,
    "Ġprized": 23219,
    "Ġpew": 9314,
    "Ġinsensibly": 20074,
    "mid": 5617,
    "tanh": 5204,
    "Ġexile": 12714,
    "Ġconversation": 3330,
    "Ġre": 317,
    "Ġfreshly": 23984,
    "Ġtenderly": 11314,
    "tables": 19756,
    "Ġbefitting": 15723,
    "Ġcred": 8780,
    "gale": 13723,
    "Ġbarbed": 14834,
    "Ġsim": 734,
    "coronet": 16863,
    "Ġtrains": 10947,
    "secut": 7866,
    "urity": 8142,
    "Ġgigantic": 5914,
    "Ġus": 494,
    "ample": 1363,
    "Ġpaying": 9937,
    "Ġshaped": 15832,
    "various": 10397,
    "Ġstaggered": 9538,
    "ral": 4627,
    "Ġdashed": 6009,
    "Ġwin": 9641,
    "assistant": 25567,
    "rig": 7556,
    "Ġstumbling": 21739,
    "whether": 5319,
    "Ġskeletons": 16791,
    "Ġlace": 13948,
    "Ġaut": 1834,
    "Ġprecise": 7075,
    "sey": 5543,
    "be": 667,
    "Ġprehensile": 26534,
    "Ġforty": 5719,
    "ipl": 20917,
    "Ġexpired": 18624,
    "Ġbildad": 3780,
    "bel": 3833,
    "Ġjenkinson": 11431,
    "Ġissuing": 16948,
    "Ġanchors": 12610,
    "Ġimpenetrable": 17397,
    "Ġcruellest": 19657,
    "somers": 19366,
    "Ġcoronation": 13332,
    "obser": 11099,
    "thinking": 9013,
    "Ġankles": 17899,
    "Ġassaults": 15155,
    "Ġsow": 17749,
    "Ġemphasis": 20535,
    "fowl": 17549,
    "¹": 122,
    "Ġexcuses": 19039,
    "Ġlived": 3990,
    "Ġpronouncing": 16969,
    "Ġrep": 1938,
    "impud": 23759,
    "groom": 8739,
    "Ġincredible": 9514,
    "Ġmounttop": 19976,
    "Ġwhoever": 10975,
    "question": 5418,
    "Ġstooped": 14463,
    "dreadful": 11421,
    "Ġsickbed": 24246,
    "terdam": 18129,
    "Ġpatter": 828,
    "Ġvice": 6548,
    "Ġintim": 6838,
    "Ġreveal": 11200,
    ")âĢĶâĢľ": 20742,
    "Ġpencils": 23192,
    "Ġperpendicular": 7209,
    "murderer": 13392,
    "Ġfasten": 11132,
    "Ġfeels": 6882,
    "Ġblueprints": 13170,
    "Ġselling": 21223,
    "Ġunob": 22012,
    "Ġcrushed": 9422,
    "Ġbottled": 23794,
    "Ġromantic": 8030,
    "itters": 10781,
    "mr": 1899,
    "Ġgratification": 24096,
    "Ġcoco": 11000,
    "inquiry": 15141,
    "Ġexpected": 3696,
    "luyt": 18459,
    ";âĢĻ": 15301,
    "touch": 8391,
    "blo": 6353,
    "Ġant": 4345,
    "deav": 2673,
    "Ġpoising": 22588,
    "Ġvalidate": 3244,
    "ulent": 21859,
    "Ġflights": 24753,
    "Ġimputable": 22170,
    "total": 17250,
    "Ġgiant": 13967,
    "mal": 6794,
    "Ġupper": 5090,
    "fering": 17542,
    "obey": 11509,
    "Ġstave": 11650,
    "Ġheathen": 10565,
    "Ġunmindful": 22063,
    "ailing": 7021,
    "Ġheadway": 18791,
    "Ġkidnapping": 26356,
    "avings": 12021,
    "Ġminimax": 5858,
    "road": 6677,
    "commendation": 26348,
    "Ġguards": 16268,
    "Ġsinful": 18948,
    "eringly": 23002,
    "Ġdiscreet": 16481,
    "Ġhardship": 18913,
    "Ġsmoked": 10322,
    "erable": 1913,
    "Ġparsonage": 7123,
    "mou": 10708,
    "Ġbodies": 8031,
    "Ġcaged": 21350,
    "Ġphotography": 24683,
    "Ġalcoves": 26486,
    "Ġgar": 10838,
    "Ġinev": 10181,
    "âĢĺ": 940,
    "embedding": 20703,
    "Ġsighs": 22706,
    "Ġbun": 6006,
    "Ġvolcanoes": 24146,
    "wander": 17709,
    "Ġpluck": 15611,
    "jack": 7344,
    "Ġstreatham": 17448,
    "Ġdeath": 2043,
    "Ġimpression": 5732,
    "Ġunaccount": 22024,
    "Ġoccupy": 14730,
    "turbable": 24531,
    "Ġcachalot": 17834,
    "rimin": 2424,
    "Ġfantastic": 10058,
    "Ġvaulted": 25167,
    "gir": 8082,
    "Ġforever": 14554,
    "hear": 10146,
    "Ġsneezes": 24698,
    "Ġphilosop": 5057,
    "Ġken": 22188,
    "Ġdisciple": 22780,
    "Ġexcursion": 26589,
    "thumb": 18218,
    "Ġfathoms": 9083,
    "Ġshows": 8482,
    "already": 6980,
    "bowed": 10683,
    "rods": 21535,
    "Ġvoice": 2190,
    "Ġcringed": 25942,
    "ignomin": 23264,
    "Ġchurning": 15935,
    "Ġslips": 23164,
    "talk": 6656,
    "Ġbuttoning": 17235,
    "Ġbitterly": 8314,
    "Ġgiants": 25960,
    "Ġpaw": 12617,
    "Ġarter": 22174,
    "asht": 4085,
    "Ġbag": 5699,
    "vicinity": 20478,
    "Ġrifts": 21972,
    "Ġfabulous": 25948,
    "polar": 24583,
    "ov": 15399,
    "hence": 16624,
    "Ġdignified": 15595,
    "Ġidleness": 11143,
    "Ġvan": 1090,
    "Ġberm": 21381,
    "ic": 304,
    "Ġbirds": 5873,
    "Ġactivity": 7919,
    "est": 501,
    "Ġsundry": 20072,
    "Ġstops": 3166,
    "articulate": 17394,
    "Ġdust": 5908,
    "Ġhimmale": 18334,
    "umb": 3477,
    "amouch": 21842,
    "Ġafter": 870,
    "Ġdragg": 23214,
    "Ġmodular": 12813,
    "Ġwhitt": 18054,
    "extremely": 26263,
    "Ġdissipate": 13632,
    "Ġgardeners": 12118,
    "Ġmont": 8557,
    "Ġdependency": 3486,
    "Ġaffability": 14386,
    "teak": 22814,
    "pit": 3982,
    "icorn": 15654,
    "Ġstarts": 16582,
    "whatever": 6694,
    "abriel": 6950,
    "spouting": 25000,
    "Ġberth": 8679,
    "penetrating": 25490,
    "Ġarduous": 26529,
    "Ġeber": 18003,
    "Ġcounterpane": 11343,
    "Ġconsequently": 8059,
    "Ġs": 265,
    "Ġswimmer": 19457,
    "Ġcoming": 2617,
    "represent": 9637,
    "bted": 7793,
    "Ġdied": 4111,
    "vation": 4744,
    "Ġindepend": 3666,
    "Ġmere": 2711,
    "Ġgene": 15669,
    "Ġwearisome": 19794,
    "Ġpersuade": 5872,
    "Ġoct": 10158,
    "Ġafresh": 18628,
    "Ġcloudy": 19475,
    "tland": 21072,
    "Ġdimmed": 24267,
    "Ġoverflowed": 20261,
    "Ġorganically": 3013,
    "adm": 7608,
    "Ġhunch": 18934,
    "Ġcentury": 8290,
    "Ġwhose": 2010,
    "tles": 10730,
    "residual": 19261,
    "Ġcompressed": 21847,
    "Ġjewel": 9941,
    "Ġdrunkard": 20176,
    "ost": 5360,
    "Ġagree": 7646,
    "aire": 10680,
    "hic": 3248,
    "Ġthings": 1963,
    "Ġmidway": 14604,
    "Ġinspirited": 23419,
    "Ġemaciated": 20637,
    "ulence": 15763,
    "Ġnonsensical": 21526,
    "Ġchilian": 25563,
    "Ġfretfulness": 25448,
    ",*": 17471,
    "Ö": 151,
    "Ġdelineate": 26057,
    "Ġinterval": 4053,
    "mend": 20965,
    "Ġcreditor": 24290,
    "Ġconstruction": 9384,
    "rose": 6013,
    "Ġscarlet": 13221,
    "ceive": 3065,
    "Ġbehaves": 23296,
    "Ġdenomin": 12065,
    "Ġmeditate": 16682,
    "here": 2549,
    "Ġgleam": 12306,
    "engagements": 25853,
    "drifting": 19823,
    "olstadt": 7788,
    "lev": 1237,
    "became": 10514,
    "Ġvoyagings": 19234,
    "disappointment": 11425,
    "Ġtennessee": 26596,
    "ravelled": 18014,
    "throt": 25659,
    "Ġspecies": 5112,
    "Ġexplaining": 15958,
    "Ġdeduce": 8336,
    "Ġruined": 12951,
    "pattern": 4334,
    "Ġstaff": 14005,
    "Ġest": 2266,
    "Ġdilatory": 24705,
    "Ġchr": 3688,
    "Ġsupplies": 20325,
    "ready": 2360,
    "Ġflap": 14421,
    "ion": 296,
    "Ġtow": 4395,
    "Ġgood": 1001,
    "Ġdrowsiness": 26445,
    "Ġtrampled": 20327,
    "Ġknowest": 12860,
    "boom": 18998,
    "atics": 15521,
    "ff": 461,
    "Ġbery": 13897,
    "pan": 10716,
    "Ġsumm": 3356,
    "wondered": 17029,
    "erting": 17777,
    "idents": 6150,
    "Ġsigh": 10336,
    "igned": 5656,
    "regiment": 16451,
    "ositories": 22261,
    "expl": 9282,
    "place": 4153,
    "Ġrespectability": 14484,
    "Ġscandinavian": 26344,
    "points": 14393,
    "eastern": 17533,
    "rudential": 16709,
    "Ġindec": 13927,
[...]
