{
  "metadata": {
    "vocab_size": 26616,
    "algorithm": "BPE",
    "created_at": "2026-08-20 02:53:45",
    "special_tokens": [
      "<PAD>",
      "<SOS>",
      "<EOS>",
      "<UNK>",
      "<MASK>"
    ]
  },
  "vocab": {
    "Ġhatch": 7848,
    "Ġgrasshopper": 24380,
    "Ġwriting": 4669,
    "Ġjoin": 4855,
    "Ġthird": 4188,
    "arer": 3971,
    "Ġobey": 9522,
    "Ġsubsisting": 23437,
    "Ġjustified": 11909,
    "Ġderick": 9367,
    "Ġcompelled": 14268,
    "Ġven": 4648,
    "Ġgardeners": 12125,
    "Ġguiding": 19243,
    "Ġchin": 4892,
    "egyptians": 25899,
    "Ġimbu": 15896,
    "mou": 10710,
    "waiter": 24587,
    "Ġfeature": 748,
    "gue": 12472,
    "Ġserpents": 13080,
    "ate": 422,
    "mounting": 25208,
    "Ġlatterly": 24086,
    "Ġsetting": 7048,
    "Ġmicroscopic": 26375,
    "Ġnieces": 8434,
    "aways": 15314,
    "Ġhempen": 13553,
    "anque": 13891,
    "Ġorganizations": 12318,
    "Ġaerial": 21201,
    "Ġroanoke": 22411,
    "Ġmiser": 18704,
    "Ġwires": 21298,
    "Ġrally": 21975,
    "Ġbroiled": 18910,
    "Ġconverse": 11850,
    "Ġunassuming": 20512,
    "Ġsing": 3072,
    "create": 24162,
    "ak": 537,
    "Ġcathed": 14549,
    "Ġsteep": 2886,
    "ies": 582,
    "ulated": 6031,
    "bethinking": 25746,
    "Ġgam": 11627,
    "Ġopal": 23627,
    "Ġsallies": 21232,
    "Ġfatally": 19397,
    "machine": 973,
    "Ġimitation": 22175,
    "Ġnimble": 21531,
    "Ġsabbath": 17257,
    "Ġcomparable": 24281,
    "Ġmen": 1439,
    "sutherland": 21065,
    "income": 15490,
    "Ġovertaken": 18430,
    "clay": 18933,
    "Ġmills": 21314,
    "tumultuous": 20402,
    "orting": 9738,
    "Ġtruck": 19514,
    "reluct": 26164,
    "Ġprospect": 4707,
    "tical": 10131,
    "accepting": 20138,
    "Ġactively": 18655,
    "tie": 21071,
    "Ġresembling": 4100,
    "Ġplainly": 4381,
    "Ġender": 11694,
    "oing": 15405,
    "ikes": 8087,
    "reserved": 13846,
    "dogs": 25403,
    "Ġlawyers": 25249,
    "Ġanalysis": 1959,
    "Ġtipt": 21176,
    "Ġretention": 23074,
    "Ġoblivion": 26032,
    "whisper": 17084,
    "Ġeuroclydon": 15300,
    "Ġgenerator": 3382,
    "Ġriver": 5411,
    "Ġimaginative": 19249,
    "Ġpattering": 18652,
    "Ġ95": 19776,
    "Ġcho": 4547,
    "expectant": 24278,
    "Ġdictate": 20154,
    "Ġheathen": 10568,
    "maybe": 23994,
    "flaming": 23973,
    "Ġmuffled": 10643,
    "inger": 6813,
    "ledge": 1328,
    "Ġsheep": 10928,
    "umphed": 23520,
    "silenced": 24423,
    "<SOS>": 1,
    "Ġbermud": 26441,
    "Ġspouted": 14677,
    "Ġcrazy": 8596,
    "separ": 9233,
    "Ġarticulate": 24432,
    "Ġschedules": 3386,
    "Ġsufficiently": 8976,
    "Ġbrush": 17866,
    "Ġunsav": 18255,
    "Ġperpendicularly": 11376,
    "Ġwomanly": 23553,
    "wam": 10138,
    "imodal": 17450,
    "Ġwaits": 23281,
    "Ġinspect": 5965,
    "puted": 8850,
    "Ġnooks": 26012,
    "Ġfairest": 20466,
    "lo": 681,
    "parameter": 2956,
    "Ġsingled": 23775,
    "Ġmarines": 16264,
    "Ġattending": 3284,
    "Ġgaieties": 24198,
    "Ġbalmoral": 16211,
    "Ġrecourse": 22737,
    "Ġfemin": 13439,
    "Ġbreaking": 6312,
    "Ġwithheld": 18117,
    "Ġcountry": 2530,
    "oul": 4700,
    "Ġincorruption": 26310,
    "Ġcigaret": 16978,
    "Ġsolemnity": 9944,
    "otion": 4946,
    "distinct": 13339,
    "ulty": 22571,
    "oology": 21008,
    "Ġrepent": 9866,
    "ascending": 24706,
    "trimmed": 23952,
    "Ġfinish": 7949,
    "Ġfreemason": 23211,
    "Ġrendered": 5773,
    "ide": 721,
    "eel": 11486,
    "wholly": 10943,
    "omuch": 21643,
    "Ġblasp": 14404,
    "weed": 14318,
    "Ġboys": 5194,
    "Ġliberality": 24377,
    "iece": 3230,
    "Ġinconveniences": 24942,
    "Ġcleans": 18950,
    "Ġrifled": 21983,
    "Ġslu": 13839,
    "Ġsubl": 7235,
    "embarr": 17295,
    "Ġcommitted": 7431,
    "Ġaright": 11744,
    "Ġsof": 18282,
    "secret": 12241,
    "Ġtruthful": 23870,
    "Ġalco": 21786,
    "Ġangels": 11180,
    "Ġpil": 5014,
    "Ġsnake": 12065,
    "<MASK>": 4,
    "ners": 3271,
    "your": 1981,
    "Ġmatrimonial": 25490,
    "Ġsurpl": 19134,
    "port": 10721,
    "Ġtutored": 20131,
    "Ġuninterrupted": 22050,
    "Ġnorm": 764,
    "Ġrec": 895,
    "Ġreef": 10851,
    "Ġbutton": 10269,
    "Ġdigress": 24649,
    "Ġbright": 3215,
    "Ġjerking": 12250,
    "herfield": 3633,
    "Ġgirdled": 19161,
    "Ġopulence": 23629,
    "Ġinquiry": 6485,
    "ctive": 11626,
    "Ġperils": 6274,
    "Ġsavor": 23878,
    "boom": 18999,
    "Ġarbitrary": 4737,
    "Ġpractically": 13109,
    "north": 14617,
    "clim": 18932,
    "Ġdie": 3965,
    "Ġhelper": 24031,
    "crimson": 24090,
    "Ġmockery": 12112,
    "roof": 17956,
    "Ġtruly": 4797,
    "Ġenthr": 22746,
    "Ġbuttoning": 17237,
    "keepers": 16662,
    "Ġpresence": 5031,
    "Ġforcibly": 10064,
    "Ġrecommendation": 17027,
    "Ġopine": 19229,
    "Ġrecommended": 8671,
    "Ġuncommonly": 7760,
    "Ġbeacon": 21760,
    "Ġrefreshment": 17242,
    "Ġtrial": 6637,
    "Ġfear": 2278,
    "Ġlestrade": 5826,
    "county": 25397,
    "Ġabsolutely": 4859,
    "curious": 10485,
    "do": 1992,
    "ky": 4520,
    "Ġsavoury": 23880,
    "Ġsullen": 9160,
    "Ġengine": 1917,
    "Ġvast": 3296,
    "linearity": 1648,
    "Ġflow": 1240,
    "Ġencomp": 12968,
    "conscientious": 19629,
    "shone": 22447,
    "widows": 25345,
    "<": 32,
    "Ġfeatureless": 22613,
    "persons": 24177,
    "89": 20761,
    "innocence": 15187,
    "stones": 11639,
    "Ġexempl": 21834,
    "Ġdevote": 10344,
    "Ġawake": 8272,
    "Ġorthodox": 22099,
    "Ġentail": 9795,
    "rus": 5931,
    "Ġfat": 3463,
    "Ġfog": 9664,
    "Ġjollies": 20373,
    "Ġnewcom": 16227,
    "neighboring": 20620,
    "asing": 5913,
    "Ġdatasets": 2388,
    "Ġgills": 17995,
    "Ġdescent": 1028,
    "Ġscenari": 22277,
    "Ġpreparing": 8651,
    "Ġtreatise": 19348,
    "Ġforeshadowing": 26594,
    "masculine": 24387,
    "Ġhandspikes": 12944,
    "utarch": 15667,
    "oning": 7572,
    "esteem": 26009,
    "failed": 20865,
    "Ġes": 8773,
    "Ġsought": 5010,
    "Ġstall": 12702,
    "Ġcollins": 2182,
    "Ġexquisitely": 20205,
    "Ġflitting": 13031,
    "secut": 7867,
    "Ġfled": 6673,
    "heredit": 21212,
    "Ġdimensions": 16574,
    "eternal": 17985,
    "vour": 17701,
    "Ġcrippled": 25279,
    "Ġdisagree": 22536,
    "Ġsuspects": 16892,
    "Ġfortun": 4982,
    "istan": 22112,
    "Ġsire": 15505,
    "Ġtry": 3134,
    "Ġusually": 6265,
    "ified": 3227,
    "cottagers": 20051,
    "by": 1155,
    "whatsoever": 18494,
    "Ġdare": 3546,
    "Ġinclined": 6625,
    "Ġhatred": 8612,
    "stretched": 10210,
    "vell": 3962,
    "Ġreduces": 2342,
    "ill": 447,
    "Ġhistor": 3390,
    "Ġsubstituting": 26328,
    "Ġsacrificial": 24872,
    "Ġthumb": 6982,
    "Ġhertfordshire": 5377,
    "kov": 17588,
    "Ġseek": 4508,
    "izar": 14046,
    "eral": 9162,
    "Ġpondered": 15170,
    "ĸ": 249,
    "Ġfidget": 15193,
    "mountain": 10715,
    "Ġuncivilized": 25499,
    "wealth": 22691,
    "Ġranging": 8481,
    "Ġblocked": 19224,
    "Ġdinn": 23984,
    "Ġmurder": 4281,
    "ogrand": 26263,
    "Ġknown": 1641,
    "Ġexpands": 25238,
    "Ġxi": 16433,
    "Ġhoped": 5488,
    "culiar": 2817,
    "ignorant": 13566,
    "Ġ[": 6968,
    "Ġsorely": 17259,
    "Ġunquestionable": 26223,
    "readiness": 19366,
    "rugg": 15901,
    "cks": 3078,
    "Ġglanced": 5953,
    "Ġconcussion": 26301,
    "uts": 8820,
    "§": 105,
    "comprehens": 16183,
    "oration": 2208,
    "order": 1957,
    "Ġquestion": 2774,
    "Ġreserved": 7515,
    "Ġaud": 6664,
    "Ġgroaned": 11268,
    "Ġstorms": 11264,
    "Ġsoliloqu": 11889,
    "lacings": 26135,
    "Ġoptimizer": 5035,
    "Ġhabit": 6772,
    "Ġbeck": 14012,
    "forgive": 18731,
    "Ġmodesty": 12823,
    "Ġoperations": 2299,
    "Ġperfection": 19220,
    "Ġgrey": 4512,
    "Ġbath": 9661,
    "discrimin": 19611,
    "skeleton": 17379,
    "Ġpersuasion": 10501,
    "Ġrapture": 13498,
    "philosop": 9570,
    "Ġfright": 3800,
    "oes": 4433,
    "Ġcorners": 18876,
    "Ġalgorith": 560,
    "Ġ10": 5250,
    "Ġconfided": 19037,
    "Ġnomine": 26458,
    "Ġanne": 1531,
    "Ġcrush": 9425,
    "Ġconclusions": 10556,
    "Ġcompromising": 22577,
    "Ġunequal": 14845,
    "Ġrenegades": 26478,
    "expedition": 26079,
    "Ġproposition": 23250,
    "inent": 9631,
    "Ġstandards": 19017,
    "þ": 191,
    "Ġsultan": 15188,
    "whose": 6852,
    "_).âĢĶ": 8685,
    "gentle": 5357,
    "Ġtroubles": 19442,
    "Ġtar": 2560,
    "Ġdiscoverer": 26036,
    "theories": 18081,
    "Ġdiscerning": 25005,
    "war": 6803,
    "Ġrever": 6538,
    "Ġhaving": 1878,
    "rack": 18013,
    "Ġtries": 9153,
    "inities": 21188,
    "Ġfil": 3475,
    "fatal": 17089,
    "ayed": 12718,
    "leaving": 10793,
    "Ġobsolete": 26560,
    "Ġflame": 7448,
    "Ġcomposedly": 25184,
    "Ġonto": 14031,
    "Ġwebster": 20164,
    "killing": 20944,
    "Ġconfronted": 23310,
    "Ġwont": 9854,
    "notches": 22753,
    "Ġseverest": 14093,
    "Ġbravest": 23844,
    "Ġsneezes": 24697,
    "ouncement": 11749,
    "Ġinventing": 24862,
    "Ġattacked": 10570,
    "Ġnursery": 19753,
    "ield": 2406,
    "Ġalfred": 21790,
    "Ġcorporeally": 25729,
    "Ġwisest": 11234,
    "brated": 12031,
    "ify": 1486,
    "Ġsands": 14951,
    "Ġafresh": 18628,
    "Ġleadenhall": 16631,
    "ester": 11606,
    "Ġthou": 1809,
    "Ġminutest": 14561,
    "Ġbathed": 17867,
    "Ġneedn": 19231,
    "Ġprices": 15617,
    "Ġsnow": 3708,
    "Ġbarbarians": 19590,
    "Ġshri": 5375,
    "Ġdance": 4441,
    "Ġcharacteristics": 8613,
    "pped": 1995,
    "rival": 12748,
    "Ġeffect": 972,
    "derest": 18315,
    "osure": 5308,
    "Ġnoiselessly": 22862,
    "Ġpuzzled": 7317,
    "Ġ116": 24440,
    "Ġtheirs": 7026,
    "iles": 2857,
    "Ġimproving": 1213,
    "class": 4098,
    "Ġslighted": 16570,
    ".âĢĶâĢľ": 20749,
    "Ġcoron": 4463,
    "newsp": 23138,
    "Ġflu": 3277,
    "punishment": 15149,
    "Ġdiscoverers": 26037,
    "Ġbrilliancy": 20110,
    "Ġfleecy": 17025,
    "icant": 21565,
    "Ġ94": 17719,
    "Ġcompar": 4772,
    "conducted": 25573,
    "injury": 25214,
    "Ġdeportment": 22594,
    "Ġmim": 3103,
    "Ġweaver": 11691,
    "Ġbewildered": 15217,
    "isely": 4488,
    "rooms": 10434,
    "marvell": 24175,
    "))": 1517,
    "Ġpossesses": 19355,
    "Ġconsideration": 5191,
    "Ġrefreshing": 20267,
    "Ġimbalanced": 18335,
    "Ġfreighted": 16328,
    "Ġdiffusion": 23785,
    "Ġvivacious": 19818,
    "Ġf": 283,
    "prepared": 13593,
    "Ġwal": 6518,
    "Ġproceedings": 9910,
    "avering": 24792,
    "wonders": 17146,
    "destro": 13313,
    "effect": 8607,
    "Ġresounded": 22548,
    "Ġasked": 2279,
    "corn": 13703,
    "Ġrestore": 9383,
    "Ġproficiency": 19195,
    "Ġlucerne": 23867,
    "Ġcushion": 17835,
    "Ġfanning": 23393,
    "Ġenabling": 1080,
    "Ġdeigned": 18144,
    "hatred": 24818,
    "ideas": 18582,
    "Ġ-": 1942,
    "Ġmysterious": 7527,
    "apart": 15966,
    "Ġdetermines": 2366,
    "Ġrugged": 18721,
    "Ġgree": 7595,
    "Ġdiving": 12607,
    "rolling": 9063,
    "Ġexpert": 18862,
    "Ġbonnet": 10658,
    "Ġride": 12764,
    "Ġdisturbance": 15015,
    "abern": 21794,
    "Ġbreeze": 5681,
    "Ġretain": 7863,
    "Ġdang": 9177,
    "bol": 8721,
    "hauled": 20671,
    "rador": 19129,
    "Ġhers": 7889,
    "iluvian": 18063,
    "Ġmagical": 23102,
    "Ġcult": 8786,
    "Ě": 219,
    "Ġheedful": 19743,
    "Ġwax": 10778,
    "Ġinfiltrated": 23285,
    "guinea": 16675,
    "Ġware": 12559,
    "Ġhollowly": 24526,
    "Ġtoward": 17949,
    "Ġwhelmed": 26000,
    "Ġgarn": 13966,
    "Ġunfair": 19510,
    "Ġstillness": 12998,
    "Ġprocessions": 18434,
    "Ġglowing": 12287,
    "Ġsituations": 10494,
    "Ġexploding": 2108,
    "¦": 104,
    "eight": 9594,
    "ivorous": 22083,
    "sailors": 9925,
    "Ġsolicitude": 10043,
    "amid": 12730,
    "Ġcornelius": 13576,
    "lamp": 9611,
    "Ġvault": 8845,
    "Ġregard": 3066,
    "Ġclam": 7416,
    "Ġwhisker": 23938,
    "blown": 25202,
    "Ġcetace": 14991,
    "gn": 8082,
    "Ġorlop": 22097,
    "heum": 17749,
    "sli": 11525,
    "Ġdundee": 16999,
    "Ġsplendidly": 25328,
    "Ġsworn": 14438,
    "til": 17673,
    "pier": 17637,
    "Ġsqu": 1036,
    "Ġhistories": 14689,
    "Ġsuicide": 12793,
    "aft": 9586,
    "Ġalong": 1976,
    "Ġpeevish": 26559,
    "winding": 16722,
    "Ġmutters": 23959,
    "umbling": 6614,
    "Ġbreak": 2864,
    "Ġdistracted": 11808,
    "Ġvarieties": 14313,
    "Ġshivering": 10268,
    "aved": 5475,
    "spark": 18688,
    "ousand": 2428,
    "an": 278,
    "Ġtrip": 16790,
    "girdling": 26391,
    "Ġunpardonable": 22066,
    "village": 25423,
    "Ġinserting": 19908,
    "flitted": 23972,
    "Ġdisastrous": 16065,
    "detached": 19677,
    "Ġcompasses": 11269,
    "Ġsquat": 14370,
    "exerc": 16020,
    "dropping": 14985,
    "Ġvex": 5949,
    "Ġperish": 8878,
    "Ġ132": 19898,
    "arted": 2201,
    "Ġiroqu": 21627,
    "Ġsublime": 8066,
    "chair": 5918,
    "Ġsignificant": 8637,
    "izing": 1070,
    "nour": 20990,
    "Ġste": 1391,
    "paint": 21020,
    "ity": 415,
    "Ġregularization": 1179,
    "Ġcynical": 25771,
    "Ġtouches": 20573,
    "Ġdevoutly": 25834,
    "them": 3017,
    "Ġscript": 18393,
    "deep": 1004,
    "fetch": 12469,
    "Ġlurks": 11292,
    "Ġclimax": 25054,
    "atious": 10154,
    "ropes": 7903,
    "unable": 14062,
    "ang": 443,
    "Ġexquis": 9702,
    "Ġkink": 22197,
    "Ġdives": 17892,
    "itigated": 23050,
    "ically": 846,
    "summer": 11998,
    "Ġblinded": 13274,
    "quely": 10234,
    "Ġadvantages": 9814,
    "Ġextracted": 16318,
    "showed": 16028,
    "Ġtossed": 5816,
    "on": 267,
    "slept": 17172,
    "Ġquiet": 3261,
    "Ġbegg": 16256,
    "Ġbeheaded": 11659,
    "ambition": 13414,
    "alterable": 13627,
    "tempest": 16961,
    "Ġpoured": 8805,
    "ezing": 10576,
    "tedious": 22636,
    "Ġbroadened": 23988,
    "Ġturn": 1296,
    "Ġrestricted": 19027,
    "Ġcircling": 19094,
    "Ġconsider": 2565,
    "Ġrather": 1495,
    "Ġprehensile": 26536,
    "Ġreiterating": 26476,
    "Ġpassing": 4315,
    "Ġvor": 15811,
    "Ġkettle": 26234,
    "happy": 4424,
    "utch": 21589,
    "Ġslew": 23386,
    "rant": 11519,
    "ocratic": 17247,
    "hav": 20899,
    "Ġwisdom": 11235,
    "Ġdenote": 19335,
    "Ġdevout": 14339,
    "Ġdisappears": 18561,
    "Ġmoisture": 12363,
    "aust": 15313,
    "Ġseemed": 1276,
    "pton": 15797,
    "iated": 5891,
    "Ġconse": 21808,
    "lasting": 8011,
    "Ġhermit": 15862,
    "Ġbeam": 2876,
    "office": 16400,
    "Ġskirts": 14355,
    "Ġbathing": 20202,
    "Ġbubbling": 17329,
    "Ġtarred": 23611,
    "constit": 24605,
    "Ġ52": 24317,
    "Ġmoist": 9288,
    "Ġhapless": 15817,
    "Ġdestro": 3723,
    "tarpaulins": 26407,
    "Ġappet": 9734,
    "mits": 13759,
    "akened": 7415,
    "contrad": 19294,
    "Ġactor": 16054,
    "Ġovers": 14208,
    "deserted": 19344,
    "vex": 21705,
    "Ġseedy": 21959,
    "began": 6427,
    "Ġchiselled": 25560,
    "Ġnations": 8814,
    "Ġhemp": 9218,
    "Ġerred": 21159,
    "Ġpromethe": 14470,
    "Ġtechnique": 2507,
    "Ġdamned": 13134,
    "Ġglobules": 26590,
    "igned": 5656,
    "Ġsaved": 6692,
    "Ġakin": 15499,
    "thankful": 16808,
    "Ġsnows": 14729,
    "erred": 6377,
    "pshire": 21026,
    "attain": 21264,
    "Ġitself": 2520,
    "Ġturbulence": 26599,
    "Ġtrumpet": 9576,
    "Ġcountryside": 23598,
    "/`)": 13663,
    "Ġencourages": 2060,
    "supportable": 12374,
    "Ġdesperation": 19821,
    "Ġchain": 1843,
    "Ġfault": 5702,
    "Ġadmirals": 20388,
    "Ġishmael": 7395,
    "Ġ64": 24367,
    "Ġunde": 11716,
    "cannibals": 25585,
    "judged": 14834,
    "Ġwander": 9034,
    "ost": 5361,
    "Ġ79": 24267,
    "mechanical": 25579,
    "Ġduring": 872,
    "Ġnich": 21523,
    "ĥ": 230,
    "Ġalpine": 18108,
    "70": 17478,
    "ainty": 21791,
    "Ġaccidentally": 9508,
    "isles": 15569,
    "Ġelbows": 18634,
    "Ġtask": 1309,
    "bast": 10080,
    "Ġtophet": 23574,
    "Ġtobacc": 7853,
    "Ġdecayed": 22827,
    "Ġdinah": 9457,
    "Ġsides": 4580,
    "omn": 15687,
    "ckets": 6843,
    "Ġconfess": 3768,
    "Ġfinery": 23130,
    "ĠĠĠĠĠĠĠ": 7633,
    "Ġunfathomable": 20551,
    "shake": 22449,
    "news": 23137,
    "Ġsugg": 4499,
    "Ġprice": 10405,
    "Ġhus": 3090,
    "Ġraging": 14307,
    "Ġ27": 8618,
    "plate": 18208,
    "lined": 12488,
    "Ġarrest": 7409,
    "Ġpopulous": 16828,
    "Ġbetokened": 18796,
    "Ġspoken": 4838,
    "Ġunchanging": 22049,
    "brace": 16944,
    "Ġalone": 2563,
    "asleep": 21547,
    "hurt": 19880,
    "Ġcity": 4530,
    "Ġfettered": 24569,
    "Ġparagraph": 17457,
    "Ġcrisis": 13129,
    "ishness": 22346,
    "ampl": 21846,
    "Ġabsurdly": 19964,
    "ou": 287,
    "lydia": 6826,
    "Ġmaze": 23834,
    "Ġluff": 15658,
    "Ġsail": 1671,
    "mblies": 24609,
    "Ġpartially": 13126,
    "Ġquebec": 24135,
    "stirred": 20428,
    "lee": 11588,
    "absurd": 21799,
    "Ġarrows": 18345,
    "zors": 21150,
    "Ġanswering": 7477,
    "sander": 11529,
    "Ġbowels": 9433,
    "Ġfatigue": 8701,
    "omeness": 18018,
    "usually": 10288,
    "grasp": 16434,
    "Ġplate": 8902,
    "Ġnast": 15644,
    "Ġrefuse": 5739,
    "urpation": 16306,
    "ructive": 18545,
    "Ġloos": 15876,
    "requiem": 24857,
    "mystery": 15159,
    "ung": 2743,
    "resolutions": 26165,
    "Ġbushes": 16404,
    "hangs": 15372,
    "Ġuncommon": 5026,
    "Ġknave": 11274,
    "grammar": 6436,
    "Ġgallons": 14821,
    "Ġthrows": 14740,
    "Ġint": 409,
    "Ġsurm": 7476,
    "Ġcruises": 23707,
    "Ġchaise": 9079,
    "Ġcreated": 2705,
    "Ġarabian": 9093,
    "poles": 16213,
    "Ġalready": 2710,
    "rece": 21237,
    "Ġtrees": 4203,
    "thorough": 21989,
    "embedding": 20360,
    "splash": 25210,
    "caused": 25520,
    "Ġendeavouring": 8035,
    "Ġflying": 5413,
    "Ġare": 528,
    "across": 10327,
    "Ġeve": 13973,
    "Ġinternal": 2247,
    "Ġwafted": 14500,
    "Ġfactor": 19014,
    "rabb": 15685,
    "advance": 12161,
    "Ġprepared": 5878,
    "Ġapart": 4747,
    "Ġmagnific": 16324,
    "tales": 17688,
    "circum": 16739,
    "abil": 2004,
    "penet": 11072,
    "obey": 11512,
    "orough": 5700,
    "Ġresides": 22544,
    "Ġbaker": 4697,
    "Ġmanhood": 22330,
    "Ġtie": 10752,
    "laug": 10709,
    "Ġwonders": 7500,
    "ackled": 22428,
    "Ġlower": 2661,
    "Ġmenaces": 23112,
    "Ġtropical": 17066,
    "Ġapproved": 16038,
    "Ġitaly": 10869,
    "theless": 4261,
    "adventures": 20259,
    "Ġbale": 7838,
    "Ġolder": 9330,
    "Ġexertions": 13413,
    "eds": 6531,
    "Ġupbraided": 26530,
    "elzebub": 26466,
    "Ġmarried": 3410,
    "Ġfunere": 22261,
    "dening": 22783,
    "Ġsearching": 13165,
    "laden": 14932,
    "Q": 53,
    "pon": 17627,
    "Ġtass": 15474,
    "Ġengaged": 3431,
    "Ġnames": 4533,
    "Ġlicence": 25099,
    "Ġviewed": 10465,
    "ia": 1255,
    "Ġconfidence": 6592,
    "Ġscott": 22271,
    "meditated": 19072,
    "Ġearls": 18905,
    "Ġfurled": 22815,
    "igantic": 5539,
    "Ġcurse": 7667,
    "Ġspectrum": 4474,
    "ĠĠĠĠĠĠĠĠĠĠĠĠĠĠĠĠĠĠĠĠĠĠĠĠĠĠĠĠĠĠĠĠĠĠĠ": 19260,
    "Ġreduced": 11928,
    "particularly": 8340,
    "Ġaffidavit": 20726,
    "Ġhotels": 19539,
    "Ġconc": 1841,
    "ostent": 16848,
    "daughters": 13469,
    "tribute": 21091,
    "Ġconjured": 25102,
    "warning": 25532,
    "Ġconstitutes": 13555,
    "hot": 8084,
    "ensive": 6281,
    "print": 23815,
    "ithing": 11652,
    "Ġcolonial": 22860,
    "Ġeager": 3572,
    "Ġdejection": 15200,
    "Ġproportion": 7281,
    "hung": 8381,
    "Ġdeaths": 14539,
    "Ġperceive": 6701,
    "Ġbol": 6243,
    "prevailed": 17348,
    "ys": 3963,
    "toss": 22570,
    "ried": 927,
    "superiority": 20188,
    "landed": 18957,
    "Ġoffensive": 18693,
    "ougher": 18281,
    "ario": 14250,
    "Ġoft": 9197,
    "Ġmushroom": 13239,
    "geor": 15983,
    "frantic": 24285,
    "Ġfountains": 13505,
    "Ġtrod": 15029,
    "Ġlocations": 12417,
    "Ġjudgment": 5765,
    "Ġaffecting": 2323,
    "Ġpave": 8804,
    "Ġcategories": 4477,
    "unvarying": 21891,
    "pract": 10122,
    "Ġhedges": 19988,
    "Ġbench": 7238,
    "Ġensemble": 1609,
    "bounded": 13442,
    "Ġgems": 9211,
    "neighbourhood": 10028,
    "Ġconsequently": 8060,
    "rud": 4191,
    "Ġpredecess": 18519,
    "tent": 21067,
    "Ġspeaker": 19150,
    "ot": 346,
    "redible": 15809,
    "Ġhasten": 10480,
    "Ġmercenary": 17196,
    "emic": 18187,
    "mccarthy": 15398,
    "Ġaunts": 21203,
    "Ġequal": 4137,
    "ame": 646,
    "Ġimbecile": 17395,
    "iner": 2669,
    "ittingly": 18804,
    "Ġcooper": 16080,
    "Ġassented": 17341,
    "upset": 23021,
    "Ġcovariate": 2349,
    "Ġup": 463,
    "Ġnevertheless": 5040,
    "Ġpersecut": 16954,
    "Ġindividually": 22967,
    "Ġconvulsive": 19309,
    "isition": 11589,
    "Ġcompat": 2936,
    "Ġrope": 4338,
    "princip": 17139,
    "harpooneer": 8692,
    "Ġfleetness": 20182,
    "Ġpassions": 7930,
    "_âĢĶâĢĻ": 13686,
    "Ġswallowed": 7944,
    "onde": 21254,
    "ocity": 8278,
    "dreadful": 11423,
    "distance": 12157,
    "Ġshavings": 14113,
    "appeared": 4282,
    "Ġwoods": 5406,
    "Ġpagoda": 19791,
    "Ġrepresentation": 14410,
    "Ġbrisk": 9806,
    "soever": 11862,
    "meal": 22716,
    "Ġspect": 3553,
    "Ġintruding": 21995,
    "_--": 20764,
    "Ġgrassy": 24379,
    "Ġfool": 4235,
    "Ġgrip": 11630,
    "ccess": 3185,
    "high": 6652,
    "Ġextant": 18685,
    "Ġsooty": 25816,
    "civil": 7797,
    "¸": 121,
    "Ġdestroyer": 13416,
    "Ġscrupled": 25052,
    "Ġankles": 17901,
    "Ġundertaken": 18987,
    "gy": 2096,
    "Ġlest": 6396,
    "Ġstoried": 18075,
    "Ġhearties": 18966,
    "Ġimplore": 24873,
    "anqu": 4112,
    "Ġaut": 1794,
    "Ġcreations": 18681,
    "eldom": 4413,
    "onness": 21257,
    "Ġimputable": 22177,
    "unction": 10237,
    "Ġaffrighted": 13575,
    "Ġvoids": 25808,
    "Ġmermaid": 17815,
    "intosh": 22948,
    "accuracy": 9882,
    "hors": 9601,
    "Ġpredomin": 16041,
    "Ġsufferer": 16261,
    "Ġsits": 10770,
    "ixed": 4853,
    "Ġtangle": 25761,
    "rents": 5310,
    "Ġminimum": 23045,
    "Ġspile": 22131,
    "Ġsoftly": 7948,
    "represent": 9640,
    "Ġlips": 3994,
    "hib": 15371,
    "Ġjur": 12840,
    "cles": 8729,
    "Ġeleg": 6194,
    "Ġboasted": 16111,
    "Ġensuring": 11193,
    "osop": 4403,
    "scene": 14423,
    "splice": 17173,
    "Ġadmission": 23557,
    "Ġjudging": 16597,
    "Ġmachine": 785,
    "Ġreflect": 6577,
    "ĠĠĠĠĠĠĠĠĠĠĠĠĠĠĠĠĠĠĠĠĠĠĠĠĠĠĠĠĠĠĠĠĠĠĠĠĠĠĠĠĠĠĠĠ": 12158,
    "Ġdigest": 24648,
    "fifty": 12356,
    "Ġmonkey": 8227,
    "Ġbaby": 6639,
    "Ġloosened": 26003,
    "Ġlambton": 10660,
    "Ġnois": 4268,
    "Ġspoil": 17009,
    "lig": 3174,
    "ters": 1573,
    "Ġpittance": 15622,
    "Ġlangu": 574,
    "engine": 18929,
    "Ġscents": 22272,
    "ree": 873,
    "Ġsocietal": 11438,
    "Ġelevating": 19732,
    "Ġrevive": 13482,
    "cutting": 23787,
    "Ġenchanting": 17040,
    "Ġspectacles": 12102,
    "opened": 7913,
    "cest": 12449,
    "shavings": 22457,
    "Ġaltogether": 4833,
    "dred": 2525,
    "Ġfors": 21775,
    "m": 81,
    "industrious": 26241,
    "Ġadm": 2400,
    "Ġlethargy": 26485,
    ".âĢĻâĢĿ": 6741,
    "glorious": 19370,
    "rob": 5534,
    "Ġbillow": 14783,
    "Ġdaboll": 25951,
    "Ġcertainty": 6736,
    "Ġneighbouring": 12123,
    "fain": 13718,
    "Ġscho": 4435,
    "aration": 12613,
    "Ġcontract": 18475,
    "vener": 21114,
    "india": 22375,
    "Ġpronounce": 16970,
    "emper": 18188,
    "Ġcolouring": 16753,
    "Ġhumorous": 10362,
    "conced": 22474,
    "Ġchowder": 10283,
    "Ġbottles": 16573,
    "Ġunobserved": 18253,
    "pots": 11516,
    "Ġsimpl": 1579,
    "Ġendurance": 23141,
    "beth": 13692,
    "Ġsobbed": 14139,
    "Ġwhar": 7388,
    "Ġstout": 6026,
    "Ġrambled": 20171,
    "Ġwidow": 8666,
    "Ġpump": 12627,
    "Ġjumbled": 22301,
    "de": 459,
    "Ġrouted": 24908,
    "Ġseats": 14091,
    "zz": 4293,
    "Ġother": 760,
    "Ġcalculate": 13268,
    "Ġboundary": 11224,
    "13": 20752,
    "Ġblot": 9815,
    "Ġwrought": 11948,
    "Ġsalut": 10512,
    "Ġeuroc": 14962,
    "Ġproceeds": 12082,
    "Ġwrest": 11574,
    "onents": 8781,
    "igation": 5919,
    "Ġcrust": 21354,
    "condem": 16347,
    "Ġporpoise": 7108,
    "ech": 4389,
    "Ġinspired": 2517,
    "house": 4079,
    "Ġdanced": 7842,
    "tears": 11038,
    "Ġfrigid": 17355,
    "Ġastonishment": 4795,
    "Ġuncle": 3194,
    "idly": 12706,
    "nature": 5360,
    "Ġcoldly": 14652,
    "Ġspake": 18309,
    "Ġdiscomposure": 20382,
    "Ġapproached": 5844,
    "Ġpulse": 13118,
    "Ġbutchers": 18240,
    "rope": 3187,
    "unken": 10239,
    "Ġterrible": 5328,
    "ercial": 21277,
    "Ġdesolate": 10016,
    "Ġlost": 2634,
    "Ġparched": 11731,
    "noise": 14329,
    "Ġfilling": 13411,
    "descending": 16288,
    "Ġorgies": 18286,
    "Ġfreely": 7058,
    "Ġ56": 24320,
    "Ġpersian": 11097,
    "Ġceiling": 7997,
    "Ġrecording": 24434,
    "Ġlonging": 14302,
    "Ġred": 3004,
    "Ġupheld": 22156,
    "Ġexploration": 2335,
    "Ġtransport": 11280,
    "Ġav": 3583,
    "izzy": 3093,
    "Ġinvestigated": 25387,
    "Ġmounts": 17808,
    "helmsman": 24289,
    "Ġconsequence": 5542,
    "Ġintric": 9249,
    "thoughtfully": 24049,
    "Ġsoaring": 22090,
    "narrative": 17322,
    "Ġheavy": 3745,
    "Ġoutward": 7904,
    "uation": 17696,
    "trying": 15442,
    "Ġano": 11599,
    "zas": 17714,
    "Ġconsiderable": 4009,
    "Ġfisher": 3223,
    "Ġignominy": 15089,
    "brave": 19826,
    "ization": 484,
    "Ġchief": 3381,
    "Ġsilence": 3268,
    "Ġpicture": 4858,
    "Ġpest": 13916,
    "takes": 21079,
    "Ġcurtain": 14407,
    "Ġindividuals": 24546,
    "Ġdivergence": 2725,
    "Ġanointing": 25540,
    "Ġframework": 2023,
    "Ġwatched": 6299,
    "Ġhopeful": 19030,
    "Ġoutrages": 18416,
    "Ġpocket": 4899,
    "Ġcollege": 11426,
    "Ġhindoo": 17178,
    "english": 2771,
    "tese": 21086,
    "Ġrequires": 1027,
    "Ġdreading": 23801,
    "Ġsallied": 12542,
    "Ġguests": 12291,
    "Ġdishonoured": 20394,
    "instruct": 19545,
    "Ġthunder": 4825,
    "Ġstings": 21738,
    "making": 2569,
    "Ġunwell": 22021,
    "Ġsincerely": 7963,
    "Ġexhale": 24402,
    "cord": 8727,
    "accident": 11183,
    "Ġslee": 8977,
    "Í": 142,
    "quar": 7616,
    "Ġselfishness": 12293,
    "everybody": 8614,
    "luding": 6702,
    "mark": 5282,
    "Ġmeal": 9700,
    "pretend": 24883,
    "rodden": 21538,
    "necessary": 5883,
    "kes": 3680,
    "itled": 7578,
    "pid": 1367,
    "Ġbingleys": 18995,
    "Ġ6": 5141,
    "Ġwaylaid": 22871,
    "Ġpeculiar": 3153,
    "locked": 7678,
    "Ġalmost": 1655,
    "Ġate": 8844,
    "Ġmin": 1022,
    "Ġprendergast": 26539,
    "Ġexordium": 26494,
    "chiefly": 14849,
    "enter": 7858,
    "Ġselves": 21225,
    "adding": 21765,
    "flagged": 23975,
    "Ġempty": 5354,
    "Ġhumaneval": 25583,
    "Ġribbons": 24325,
    "Ġtempor": 2364,
    "Ġstair": 8457,
    "Ġ59": 24323,
    "ressed": 3021,
    "Ġsuspended": 5665,
    "Ġsymb": 2587,
    "Ġbrothers": 13178,
    "Ġbiological": 1929,
    "frau": 15093,
    "Ġentit": 22743,
    "ostentatious": 20654,
    "Ġriotous": 20547,
    "pard": 9621,
    "rust": 2577,
    "Ġoptimization": 1371,
    "Ġundertake": 14482,
    "tra": 5002,
    "Ġconstantly": 11977,
    "Ġprinciple": 6771,
    "Ġillustrative": 25069,
    "Ġhideousness": 16917,
    "Ġsuffoc": 18872,
    "Ġrequ": 808,
    "Ġexactly": 2765,
    "Ġinconsiderable": 21498,
    "Ġwasting": 12734,
    "wall": 10139,
    "spee": 9320,
    "Ġagain": 812,
    "Ġinf": 1755,
    "Ġexh": 5232,
    "Ġsensibly": 14517,
    "Ġaround": 3613,
    "Ġunprotected": 22071,
    "Ġnathan": 21529,
    "uff": 2728,
    "Ġpref": 14174,
    "Ġmischie": 22763,
    "meant": 7921,
    "Ġboarders": 16602,
    "Ġtrim": 15967,
    "prick": 19346,
    "insupportable": 21196,
    "Ġcivility": 4789,
    "Ġresurrection": 12900,
    "Ġshaded": 14108,
    "Ġpowdered": 24240,
    "Ġconstruct": 23344,
    "Ġboisterously": 25683,
    "Ġbrigandish": 25488,
    "Ġintegral": 25011,
    "elf": 565,
    "Ġquee": 1977,
    "Ġslumber": 13064,
    "Ġpardon": 5727,
    "pherd": 13647,
    "Ġconsisting": 8974,
    "attery": 18498,
    "ann": 5803,
    "Ġcoiled": 11824,
    "olent": 8155,
    "python": 4693,
    "security": 26208,
    "ugging": 23292,
    "Ġkicking": 16903,
    "member": 20977,
    "aders": 21762,
    "Ġder": 1499,
    "Ġsurgeon": 8984,
    "asional": 17962,
    "Ġtortures": 14926,
    "Ġcorresponding": 13441,
    "Ġbreathing": 9449,
    "Ġspeak": 2230,
    "Ġsuffered": 5649,
    "Ġcorpora": 26582,
    "Ġblended": 16223,
    "rity": 13779,
    "Ġclad": 12846,
    "hears": 12538,
    "supplement": 14800,
    "Ġmorrow": 9346,
    "image": 9689,
    "Ġhorizontal": 7783,
    "lift": 15388,
    "Ġturnpike": 23030,
    "shish": 11797,
    "track": 24335,
    "romising": 18234,
    "shortened": 24747,
    "Ġsymphony": 26534,
    "Ġcontent": 5034,
    "Ġbask": 8117,
    "urons": 3130,
    "paradise": 20639,
    "orm": 425,
    "welcome": 10004,
    "headed": 4318,
    "isation": 13896,
    "Ġindic": 2884,
    "Ġgamming": 25543,
    "Ġobjections": 8568,
    "deser": 10481,
    "asion": 5714,
    "Ġfiled": 15585,
    "Ġselected": 9713,
    "Ġenorm": 5304,
    "prolong": 23398,
    "aked": 2012,
    "ometer": 19328,
    "Ġheroism": 24544,
    "Ġorphans": 20207,
    "geons": 15984,
    "Ġmostly": 7663,
    "Ġ117": 19700,
    "Ġrewards": 10850,
    "heart": 4526,
    "Ġtreacherous": 13557,
    "oned": 4631,
    "Ġclass": 790,
    "Ġfee": 7198,
    "meat": 18679,
    "Ġmoritz": 11910,
    "rushing": 10021,
    "Ġtambourine": 9567,
    "Ġspasmodically": 17317,
    "Ġincreasing": 8247,
    "Ġferule": 24499,
    "Ġunfaltering": 24114,
    "natural": 2266,
    "Ġpositional": 2593,
    "congenial": 25400,
    "allowance": 16826,
    "isms": 12586,
    "Ġadroit": 26001,
    "oblivious": 26584,
    "Ġreciprocating": 26371,
    "returns": 23143,
    "swear": 16920,
    "ifers": 15787,
    "Ġpity": 4941,
    "Ġcrab": 13147,
    "Ġdetached": 10282,
    "Ġcake": 12575,
    "stricken": 9887,
    "Ġsmart": 11819,
    "Ġbare": 6134,
    "Ġsoften": 23128,
    "hos": 15367,
    "wed": 5796,
    "Ġtwos": 18658,
    "Ġpurch": 6601,
    "/": 19,
    "Ġfinger": 5274,
    "Ġtet": 21160,
    "ahit": 9385,
    "Ġpaddled": 20204,
    "Ġestimates": 3749,
    "ream": 2707,
    "C": 39,
    "Ġlizzie": 26464,
    "ifle": 10893,
    "finger": 10096,
    "Ġbass": 17857,
    "Ġpractice": 2889,
    "Ġrubbed": 12960,
    "Ġshan": 9252,
    "Ġrequirements": 9797,
    "Ġwood": 2292,
    "ellations": 21948,
    "Ġimagine": 3927,
    "Ġunrelieved": 20548,
    "onden": 13847,
    "explanation": 12362,
    "smiles": 14695,
    "henry": 16628,
    "Ġoutrid": 22319,
    "Ġmiriam": 25274,
    "romeda": 17265,
    "pen": 1207,
    "ory": 1081,
    "Ġharshly": 25250,
    "Ġbowditch": 19325,
    "Ġparson": 6689,
    "Ġwitnessing": 19601,
    "disaster": 23495,
    "Ġrippling": 17280,
    "Ġslip": 8957,
    "Ġjacobian": 2890,
    "Ġcoast": 4656,
    "Ġwhat": 599,
    "Ġbackstays": 22666,
    "worshipping": 16612,
    "limbs": 20194,
    "Ġprotracted": 19472,
    "Ġbarrels": 9439,
    "isons": 17851,
    "perseus": 26006,
    "necess": 4897,
    "Ġignorantly": 19498,
    "ene": 2170,
    "Ġcommunicated": 9064,
    "Ġgreatness": 12949,
    "Ġori": 8410,
    "given": 8377,
    "Ġsettle": 6295,
    "/`": 12433,
    "Ġintolerable": 8484,
    "Ġunreasonably": 17454,
    "proper": 7471,
    "uzzle": 19586,
    "Ġannealing": 1555,
    "impress": 18054,
    "Ġmodeling": 2094,
    "Ġcherish": 10592,
    "chron": 21697,
    "Ġmisled": 22759,
    "slow": 7810,
    "refusal": 24735,
    "Ġassaults": 15160,
    "Ġgriefs": 16773,
    "whaling": 7899,
    "Ġlevi": 3032,
    "Ġracket": 22651,
    "Ġcrest": 12946,
    "Ġconscious": 7744,
    "Ġseaward": 22955,
    "Ġtickets": 17095,
    "objections": 19918,
    "==": 945,
    "Ġillustrious": 17110,
    "Ġdiab": 10614,
    "Ġpowers": 5419,
    "Ġthickest": 16657,
    "Ġhistorically": 19381,
    "Ġlowered": 6737,
    ").": 1270,
    "Ġimply": 18445,
    "Ġsnuffed": 15076,
    "Ġurged": 6782,
    "30": 20756,
    "Ġabandon": 12262,
    "Ġgap": 21602,
    "colnett": 19332,
    "<EOS>": 2,
    "Ġsympath": 4862,
    "Ġsilvery": 13097,
    "pires": 13778,
    "Ġsteeply": 23726,
    "âĢĶâĢĺ_": 24832,
    "Ġsable": 15504,
    "Ġpol": 2573,
    "eting": 7170,
    "tland": 21076,
    "arn": 357,
    "Ġepoch": 26473,
    "Ġevidence": 5270,
    "Ġcaptivating": 26050,
    "oors": 17622,
    "indul": 22374,
    "f": 74,
    "Ġfolds": 12211,
    "bey": 10316,
    "Ġswallows": 18883,
    "Ġdisplayed": 10611,
    "Ġdexterity": 25295,
    "Ġirregular": 9868,
    "information": 12397,
    "mare": 17601,
    "Ġmarrying": 6179,
    "hunter": 10558,
    "Ġdissolved": 18555,
    "Ġbrooks": 25701,
    "Ġessays": 19747,
    "Ġsaf": 4004,
    "Ġinstituted": 18698,
    "pol": 5894,
    "Ġaffording": 14824,
    "inite": 6003,
    "Ġceaseless": 13491,
    "Ġefficient": 1031,
    "consider": 6350,
    "Ġoxford": 11373,
    "ough": 472,
    "Ġomnipotent": 13551,
    "Ġmanner": 2196,
    "Ġmaintenance": 17464,
    "Ġmelbourne": 24291,
    "Ġscotland": 6642,
    "eastward": 15133,
    "uttle": 6249,
    "nd": 11506,
    "Ġimagination": 5759,
    "Ġobserv": 8589,
    "Ġembrace": 16992,
    "marks": 7346,
    "lested": 14886,
    "stern": 8446,
    "Ġdeaden": 23462,
    "Ġspiritual": 9933,
    "Ġsanctified": 25883,
    "Ġindian": 4133,
    "Ġ102": 24410,
    "Ġliveliest": 24774,
    "Ġheightens": 24157,
    "Ġtoad": 21513,
    "him": 1936,
    "problems": 11436,
    "Ġprender": 22239,
    "turn": 4292,
    "Ġrigged": 16719,
    "Ġsquire": 16184,
    "speptic": 23949,
    "Ġminded": 23232,
    "Ġeluded": 12927,
    "biting": 20783,
    "mortals": 25410,
    "Ġimmediate": 6090,
    "Ġduplicity": 25332,
    "coiled": 16489,
    "Ġmanxman": 9568,
    "Ġpand": 21457,
    "Ġpine": 8801,
    "Ġpaved": 17913,
    "lan": 15381,
    "Ġire": 12675,
    "these": 3242,
    "Ġprepar": 7897,
    "Ġpure": 6139,
    "orrowed": 19292,
    "Ġvisible": 4778,
    "lives": 12490,
    "Ġpedd": 17910,
    "glasses": 11217,
    "Ġcoquet": 22585,
    "Ġlengths": 19208,
    "hau": 17564,
    "Ġstreaming": 19676,
    "owders": 18053,
    "Ġthomson": 26456,
    "Ġfails": 13317,
    "Ġaccurately": 3865,
    "Ġif": 698,
    "Ġpupp": 10822,
    "Ġtyphoon": 12393,
    "Ġrudeness": 17127,
    "Ġchrist": 4075,
    "removed": 15520,
    "bour": 2070,
    "countenance": 6925,
    "Ġdirty": 9181,
    "Ġtoller": 9094,
    "Ġdiscu": 4363,
    "Ġrepented": 23365,
    "Ġstubb": 1786,
    "mill": 13757,
    "Ġcrouching": 23443,
    "bent": 15315,
    "harm": 13738,
    "Ġsimon": 5172,
    "ootiful": 17376,
    "g": 75,
    "Ġdeck": 2139,
    "Ġstretch": 6994,
    "Ġdrag": 6186,
    "estate": 12827,
    "Ġconsummate": 25311,
    "um": 453,
    "iour": 4040,
    "Ġsinews": 20290,
    "Ġpondering": 17007,
    "Ġintrig": 21994,
    "subtle": 24246,
    "gloomy": 25147,
    "ribute": 7227,
    "Ġ16": 7927,
    "Ġparc": 10922,
    "Ġovertake": 15977,
    "Ġscience": 1605,
    "Ġply": 21455,
    "disgrace": 16461,
    "romang": 22009,
    "rified": 15423,
    "hon": 6794,
    "ping": 9618,
    "Ġhilarious": 20301,
    "Ġmethods": 3160,
    "adventure": 17236,
    "Ġfragrant": 13098,
    "Ġgentleman": 3040,
    "beds": 16624,
    "bergs": 18696,
    "Ġindec": 13931,
    "Ġtiller": 8968,
    "iet": 1774,
    "ļ": 253,
    "ċ": 204,
    "hall": 8085,
    "Ġballs": 9018,
    "Ġthrills": 24542,
    "Ġans": 1643,
    "garious": 17560,
    "Ġbeds": 14553,
    "rising": 7557,
    "Ġviciss": 11294,
    "ored": 3899,
    "Ġabundance": 17158,
    "Ġpredicting": 2413,
    "Ġtrunk": 7205,
    "Ġstooping": 13066,
    "Ġcoop": 14273,
    "officers": 10630,
    "Ġtendency": 11331,
    "Ġgazed": 6479,
    "Ġrounded": 14441,
    "motion": 17608,
    "Ġexclamations": 11363,
    "Ġteacup": 16219,
    "Ġpalmed": 24094,
    "Ġsubsc": 22793,
    "assure": 9272,
    "Ġjolly": 6858,
    "Ġdirect": 1473,
    "gences": 20879,
    "Ġfairer": 20465,
    "Ġwhirling": 12253,
    "Ġfisheries": 17441,
    "Ġneeded": 7718,
    "there": 1428,
    "def": 1455,
    "itty": 3555,
    "ognit": 19187,
    "Ġpresented": 5183,
    "Ġsleeping": 6321,
    "Ġinterchange": 16076,
    "sy": 2820,
    "gon": 17554,
    "Ġlightning": 5750,
    "happiest": 19334,
    "Ġrav": 14306,
    "obtained": 23099,
    "ichever": 13960,
    "ography": 13366,
    "Ġconspicuous": 13606,
    "Ġmeaning": 1419,
    "lur": 13750,
    "itable": 5437,
    "Ġresumed": 11816,
    "clothed": 19741,
    "Ġstingy": 25456,
    "bennet": 5353,
    "usual": 5842,
    "Ġcolle": 8928,
    "lucases": 20213,
    "Ġpeak": 16131,
    "possibly": 10546,
    "Ġcommenced": 8534,
    "Ġsparing": 22133,
    "Ġaccelerate": 23229,
    "Ġarmies": 16495,
    "Ġelated": 18632,
    "Ġblind": 3717,
    "tree": 11536,
    "Ġske": 4816,
    "Ġbumps": 21395,
    "unnecessary": 21884,
    "asant": 17961,
    "concl": 12875,
    "Ġastronomy": 25927,
    "Ġfearless": 9878,
    "Ġtranquillity": 7536,
    "Ġthrob": 21521,
    "love": 9297,
    "arious": 10319,
    "Ġwhistling": 19793,
    "Ġmotions": 8281,
    "Ġwaifing": 25244,
    "Ġspout": 3282,
    "Ġdespise": 14668,
    "Ġgriff": 22809,
    "successful": 11360,
    "Ġkrempe": 10672,
    "Ġcabal": 23646,
    "Ġthinking": 4033,
    "Ġconsult": 6058,
    "Ġparameters": 992,
    "gates": 20874,
    "Ġemboldened": 22958,
    "Ġboister": 12925,
    "Ġbedrooms": 19973,
    "Ġregression": 4409,
    "bly": 6112,
    "Ġscandalous": 24879,
    "details": 19678,
    "ref": 6516,
    "hilar": 25084,
    "Ġrock": 5311,
    "tinted": 17685,
    "Ġcolours": 12979,
    "Ġspir": 2427,
    "Ġundecided": 22052,
    "Ġtinkling": 25213,
    "arming": 8954,
    "Ġjohnson": 18410,
    "Ġmccarthys": 19665,
    "dy": 4077,
    "impenet": 18056,
    "strongly": 24685,
    "Ġwanted": 4968,
    "blog": 19842,
    "Ġglimmered": 20174,
    "Ġsuperb": 16445,
    "Ġlee": 4223,
    "composure": 24039,
    "committed": 18754,
    "violets": 23546,
    "iliar": 15719,
    "ureau": 10229,
    "inde": 17733,
    "Ġchanced": 8187,
    "lled": 10110,
    "Ġhopes": 4234,
    "Ġfriday": 14490,
    "riot": 18183,
    "Ġwhis": 3506,
    "fol": 4863,
    "Ġthyself": 6604,
    "Ġbenjam": 22892,
    "Ġthundering": 24293,
    "ivered": 7007,
    "ricane": 16282,
    "include": 23591,
    "Ġpleasant": 4171,
    "Ġjoker": 22302,
    "Ġapprehending": 26092,
    "Ġattracted": 8907,
    "Ġchoking": 15939,
    "assembled": 21548,
    "Ġsolicit": 22889,
    "kine": 15379,
    "Ġeff": 674,
    "prepar": 22470,
    "estruct": 22231,
    "Ġindestructible": 26574,
    "Ġpope": 11604,
    "Ġjac": 1896,
    "venth": 9298,
    "Ġcousin": 3706,
    "Ġrule": 1535,
    "Ġenriched": 26501,
    "Ġgeneric": 18454,
    "ampton": 18147,
    "glance": 16589,
    "haust": 5777,
    "Ġheath": 15707,
    "Ġflattened": 26048,
    "Ġwithered": 19468,
    "Ġhundreds": 4328,
    "rown": 2192,
    "Ġimbec": 14159,
    "Ġconsoling": 19460,
    "principal": 20662,
    "remental": 21250,
    "irc": 1730,
    "seven": 8466,
    "jacket": 12296,
    "Ġdit": 21423,
    "humoured": 11238,
    "Ġspread": 5161,
    "Ġniece": 5712,
    "stamp": 21657,
    "Ġmeant": 3551,
    "Ġanat": 8124,
    "Ġgout": 21599,
    "Ġwarbling": 26169,
    "Ġtestified": 16331,
    "rael": 21632,
    "Ġlassitude": 20590,
    "avenue": 25060,
    "are": 638,
    "algorithms": 8301,
    "cloth": 11941,
    "Ġplacing": 8904,
    "Ġlow": 1645,
    "orers": 14106,
    "able": 450,
    "Ġdeficiency": 14408,
    "Ġperfume": 25666,
    "Ġdishonor": 25602,
    "Ġenclosure": 20627,
    "Ġsideways": 6183,
    "Ġsupremacy": 20263,
    "Ġloadstone": 25817,
    "Ġbrilliant": 11416,
    "antique": 18289,
    "Ġimputed": 12814,
    "Ġseparating": 16684,
    "Ġexchanged": 10880,
    "Ġdismasted": 15255,
    "Ġarchy": 14350,
    "Ġchestnuts": 24381,
    "inj": 9154,
    "skull": 24488,
    "iguous": 18046,
    "Ġbeckoned": 25794,
    "yth": 981,
    "Ġindicates": 3196,
    "Ġdizzy": 21435,
    "Ġpulled": 5660,
    "Ġprevention": 16098,
    "Ġinsulted": 14995,
    "otic": 15750,
    "Ġpeaked": 2296,
    "Ġenglish": 3616,
    "ks": 3145,
    "Ġmetrics": 19089,
    "Ġquit": 5247,
    "Ġcliffs": 15975,
    "Ġwarring": 16867,
    "Ġexplo": 2286,
    "mews": 22717,
    "Ġmountainous": 16601,
    "explaining": 23147,
    "Ġyounge": 16291,
    "Ġfossil": 12391,
    "Ġtruest": 16702,
    "feed": 9296,
    "Ġless": 1935,
    "?": 35,
    "crow": 9593,
    "Ġscorching": 20069,
    "Ġcommun": 1705,
    "sir": 5001,
    "Ġforms": 6398,
    "Ġbusy": 6191,
    "Ġunabated": 15858,
    "Ġthousands": 6750,
    "Ġcounty": 9033,
    "Ġfilled": 4394,
    "Ġ1778": 25730,
    "putting": 14103,
    "numbers": 17618,
    "Ġ131": 24781,
    "ports": 13777,
    "specim": 23947,
    "Ġfailing": 12142,
    "Ġcosy": 13133,
    "Ġrecommend": 7104,
    "Ġtuileries": 24824,
    "question": 5418,
    "ive": 427,
    "Ġlounging": 10025,
    "Ġgag": 21596,
    "Ġplied": 22603,
    "Ġspur": 18304,
    "den": 939,
    "Ġmonosyllable": 20728,
    "Ġvanquished": 22874,
    "Ġforbe": 8459,
    "upright": 23020,
    "owe": 15714,
    "Ġdeal": 3610,
    "Ġporing": 21469,
    "Ġfocuses": 8653,
    "glo": 8741,
    "Ġyawned": 15054,
    "Ġsnodhead": 19304,
    "Ġbeneficial": 23934,
    "Ġpaper": 4283,
    "Ġrooted": 13172,
    "Ġperfidious": 25667,
    "Ġdissect": 16058,
    "ships": 5486,
    "artic": 14218,
    "Ġforgo": 21777,
    "yet": 3754,
    "Ġrates": 1404,
    "Ġmanaging": 22329,
    "Ġpresto": 22234,
    "Ġisle": 8837,
    "Ġamazement": 7765,
    "ara": 12612,
    "Ġrapidly": 3117,
    "goose": 19103,
    "ollen": 11300,
    "aunted": 20772,
    "ivering": 7698,
    "Ġantique": 19554,
    "Ġterra": 13120,
    "Ġ{": 21155,
    "umul": 1288,
    "Ġtokens": 1771,
    "Ġyawn": 7610,
    "Ġsubmit": 11874,
    "Ġempt": 5051,
    "general": 7489,
    "Ġmisunderstand": 18705,
    "Ġdisadvantages": 18559,
    "Ġbird": 3757,
    "Ġpreferment": 19855,
    "Ġtoilette": 20496,
    "Ġstruggle": 3677,
    "into": 3682,
    "matic": 4619,
    "erated": 21273,
    "Ġnaturalist": 22893,
    "Ġpiled": 8426,
    "Ġmorbidness": 20631,
    "ugnance": 12371,
    "ered": 1681,
    "Ġmum": 13861,
    "Ġtyros": 26102,
    "offer": 19060,
    "Ġexpressing": 12013,
    "watery": 19829,
    "suited": 22659,
    "heav": 5694,
    "Ġchurning": 15942,
    "Ġflames": 7940,
    "atherine": 2591,
    "embers": 21933,
    "luckily": 19755,
    "Ġmainten": 16121,
    "relig": 15516,
    "mercenary": 26316,
    "Ġseventeen": 26212,
    "mit": 4934,
    "Ġaffect": 1388,
    "Ġproductions": 22954,
    "Ġlisten": 4675,
    "Ġrevolt": 24504,
    "Ġclinging": 10294,
    "Ġsurprised": 3833,
    "Ġberths": 20118,
    "Ġintrusion": 12771,
    "Ġstable": 2697,
    "incl": 8110,
    "witted": 17709,
    "Ġsavory": 23879,
    "Ġcasc": 15561,
    "gree": 10703,
    "Ġsubset": 9873,
    "nades": 20999,
    "Ġboisterous": 20446,
    "Ġrobert": 10972,
    "Ġwasted": 9707,
    "Ġade": 22108,
    "Ġsalesman": 13672,
    "Ġson": 2982,
    "compassion": 12372,
    "Ġoccurred": 4461,
    "Ġrustling": 24714,
    "opposition": 24820,
    "wandered": 20288,
    "gish": 20875,
    "arch": 1121,
    "some": 2235,
    "\":": 9584,
    "Ġbehaved": 13258,
    "bable": 8722,
    "Ġconvalescence": 23748,
    "Ġparting": 9787,
    "ouble": 2660,
    "sou": 12510,
    "Ġrely": 8825,
    "shooting": 16967,
    "Ġcondesc": 7182,
    "Ġprovoked": 13329,
    "wearing": 22690,
    "Ġmedical": 9473,
    "slanting": 24558,
    "ised": 1100,
    "Ġmouth": 3181,
    "Ġadmitting": 19185,
    "Ġchal": 18379,
    "Ġimages": 1600,
    "Ġlearning": 386,
    "alcul": 15633,
    "Ġaspects": 4175,
    "kers": 7134,
    "Ġpleas": 1904,
    "themselves": 6542,
    "sweetly": 25137,
    "Ġyears": 1889,
    "Ġcall": 2072,
    "onial": 11569,
    "Ġmach": 13860,
    "Ġdestroying": 14732,
    "Ġconstable": 19068,
    "Ġpeas": 8536,
    "Ġslim": 18939,
    "Ġravings": 18641,
    "Ġsixth": 16561,
    "sake": 13786,
    "Ġentrances": 25836,
    "Ġimpat": 4455,
    "cet": 15328,
    "heard": 5009,
    "Ġ90": 24589,
    "Ġmiracle": 15097,
    "ounced": 4954,
    "Ġgives": 5018,
    "Ġpractical": 3164,
    "Ġbrahma": 26321,
    "lilies": 20963,
    "Ġpitiful": 13242,
    "Ġwrists": 11115,
    "appears": 12064,
    "Ġteneriffe": 26416,
    "doesn": 19823,
    "vill": 10737,
    "Ġreced": 15697,
    "cracy": 24691,
    "aye": 3662,
    "Ġtowers": 16740,
    "Ġvacancies": 24345,
    "ting": 1332,
    "elder": 21575,
    "Ġodd": 6627,
    "signed": 21064,
    "Ġmess": 7831,
    "ism": 4875,
    "Ġdevils": 7231,
    "Ġmoran": 9345,
    "injustice": 17739,
    "Ġcaroline": 7255,
    "geneva": 13733,
    "crawling": 16960,
    "Ġhorsham": 10408,
    "Ġlory": 12658,
    "71": 20758,
    "ourage": 2449,
    "Ġbenediction": 18784,
    "Ġclasping": 20212,
    "Ġscaramouch": 23831,
    "ogue": 9785,
    "Ġand": 295,
    "zetts": 17716,
    "Ġdisease": 14260,
    "Ġsp": 457,
    "Ġstatue": 23152,
    "aunt": 8370,
    "Ġheight": 4220,
    "orum": 12596,
    "Ġvehemence": 26568,
    "Ġinscriptions": 20012,
    "Ġsingers": 23774,
    "Ġorgan": 2501,
    "op": 659,
    "Ġwhoever": 10975,
    "avenza": 17105,
    "Ġpent": 17903,
    "Ġfond": 4756,
    "Ġdisadvantage": 12896,
    "Ġacquiescence": 20333,
    "Ġsect": 17753,
    "Ġdiscoloured": 15256,
    "Ġclinch": 18426,
    "Ġfaster": 3200,
    "Ġcoherent": 3263,
    "na": 13763,
    "firm": 10700,
    "Ġisrael": 21807,
    "Ġambergris": 8709,
    "reported": 24493,
    "period": 15905,
    "mindful": 19602,
    "Ġmurmuring": 23581,
    "der": 470,
    "ullo": 12735,
    "Ġretains": 20033,
    "ricted": 15424,
    "Ġtok": 1245,
    "Ġcastaways": 19431,
    "proved": 11991,
    "mem": 10711,
    "swept": 19789,
    "another": 5439,
    "abs": 11670,
    "Ġro": 600,
    "Ġthinner": 24185,
    "verbally": 25361,
    "Ġhelter": 24030,
    "irth": 5634,
    "Ġinhale": 20303,
    "irs": 14073,
    "osely": 9268,
    "uend": 21104,
    "Ġobserved": 3542,
    "Ġportent": 12086,
    "Ġphysiology": 25333,
    "Ġblessing": 11265,
    "stocks": 23824,
    "Ġbleached": 24396,
    "popular": 26141,
    "naught": 20996,
    "catch": 17509,
    "Ġprobable": 5570,
    "Ġinvari": 6530,
    "Ġskul": 22799,
    "Ġbonds": 17871,
    "Ġchoked": 9267,
    "judge": 13340,
    "Ġcounted": 12144,
    ".}": 20747,
    "Ġseriously": 7062,
    "Ġsubsided": 14551,
    "accurately": 25862,
    "attentive": 17192,
    "Ġbrick": 8929,
    "Ġcordiality": 24395,
    "Ġisolated": 13562,
    "Ġplat": 8523,
    "ohn": 4561,
    "rubbed": 22184,
    "Ġdeep": 798,
    "magistrate": 19865,
    "published": 26143,
    "anguish": 15988,
    "Ġsaturn": 22904,
    "Ġcheetah": 14504,
    "Ġrecall": 3858,
    "Ġarom": 15496,
    "Ġtantamount": 25626,
    "Ġforegoing": 23450,
    "congratulations": 20282,
    "Ġangel": 4854,
    "Ġsweep": 8266,
    "Ġpatagon": 14515,
    "questioning": 16852,
    "Ý": 158,
    "smile": 23909,
    "reckoning": 25271,
    "Ġbeside": 5192,
    "disappeared": 14572,
    "Ġpawn": 12067,
    "Ġtemptations": 24508,
    "Ġtout": 17721,
    "Ġprom": 1528,
    "Ġket": 18348,
    "Ġachieve": 3675,
    "elze": 21576,
    "Ġsolely": 9913,
    "Ġdin": 3628,
    "Ġdisgusting": 19896,
    "Ġretreated": 13436,
    "Ġmerryweather": 9525,
    "promote": 24726,
    "vings": 9754,
    "Ġebony": 18011,
    "astrop": 3315,
    "ĺ": 251,
    "illar": 5101,
    "absent": 21793,
    "Ġtailed": 21171,
    "Ġlacepede": 20498,
    "adequ": 11022,
    "Ġimpediments": 26242,
    "Ġbriefly": 11369,
    "tap": 17678,
    "Ġoust": 21327,
    "Ġskiff": 16168,
    "Ġmanor": 14199,
    "Ġzones": 22820,
    "superstitiousness": 25509,
    "Ġforecastle": 5495,
    "Ġimmutable": 17361,
    "Ġimpunity": 14221,
    "hint": 12480,
    "rets": 12546,
    "ez": 5683,
    "everywhere": 23700,
    "acency": 12914,
    "Ġflee": 7081,
    "Ġwashing": 9708,
    "Ġentreaty": 10532,
    "ower": 1046,
    "Ġfatigued": 13468,
    "Ġpersisted": 13047,
    "ument": 5240,
    "Ġbirch": 26175,
    "Ġflourishing": 25188,
    "eray": 21269,
    "Ġroylott": 7305,
    "Ġparcel": 15203,
    "Ġmet": 1943,
    "Ġunc": 2125,
    "clifford": 23160,
    "Ġrazors": 22654,
    "clings": 23155,
    "eline": 2442,
    "Ġkne": 4267,
    "listener": 24931,
    "Ġintrospective": 20603,
    "Ġinvolving": 18764,
    "cated": 20805,
    "Ġprompt": 3191,
    "Ġphilist": 16603,
    "Ġinadequate": 17939,
    "Ġserviceable": 24717,
    "nonsense": 17617,
    "Ġfatality": 12100,
    "flag": 14714,
    "Ġers": 15464,
    "Ġbloody": 9891,
    "uberance": 25917,
    "farewell": 12310,
    "bles": 7019,
    "Ġinitialized": 3952,
    "Ġforgot": 4685,
    "Ġsuperfluous": 17417,
    "arius": 14251,
    "icha": 11742,
    "Ġjust": 1241,
    "Ġeddystone": 25736,
    "Ġmasters": 11578,
    "Ġprodigious": 8057,
    "ama": 11680,
    "sword": 10728,
    "legged": 10468,
    "wig": 17706,
    "shott": 11798,
    "articulate": 17398,
    "Ġcircle": 4977,
    "entreaties": 26187,
    "Ġjanuary": 13656,
    "astrous": 15891,
    "tained": 4405,
    "Ġflask": 3037,
    "F": 42,
    "when": 1591,
    "Ġcomprises": 22576,
    "Ġtusks": 17256,
    "Ġjoppa": 12040,
    "Ġteased": 18808,
    "fly": 13717,
    "Ġfaithful": 9506,
    "Ġlovers": 9723,
    "confined": 24328,
    "tstone": 21087,
    "ouch": 2776,
    "pron": 9009,
    "poky": 17646,
    "feel": 3815,
    "Ġcathedral": 17416,
    "arrival": 15605,
    "Ġmemories": 14557,
    "Ġroughs": 19960,
    "machines": 8385,
    "living": 7135,
    "Ġstock": 7455,
    "Ġgladness": 16593,
    "Ġdependence": 18620,
    "Ġgravely": 7883,
    "Ġenglishman": 11231,
    "Ġascertaining": 17206,
    "connection": 18870,
    "hard": 4691,
    "small": 6473,
    "Ġrelief": 6061,
    "oding": 1464,
    "comple": 7441,
    "Ġsoph": 1588,
    "Ġinconsistency": 26184,
    "Ġguar": 23049,
    "Ġconcerns": 11971,
    "Ġunmanufactured": 20437,
    "Ġcoffin": 4428,
    "Ġhon": 2535,
    "Ġhesitating": 16949,
    "®": 111,
    "oubled": 23650,
    "success": 6712,
    "can": 1234,
    "Ġdespondence": 25870,
    "quarrel": 20018,
    "Ġstrangers": 8314,
    "Ġloath": 7891,
    "mel": 9130,
    "Ġmankind": 6700,
    "impression": 15716,
    "very": 501,
    "unerative": 21900,
    "Ġtexel": 25924,
    "Ġconditions": 8307,
    "Ġplenty": 6710,
    "acing": 2715,
    "values": 4973,
    "Ġmarlings": 23039,
    "hatches": 19930,
    "gradually": 12921,
    "Ġhanover": 20589,
    "Ġcirc": 1982,
    "Ġunfrequent": 24111,
    "Ġcheck": 7271,
    "Ġepit": 18009,
    "steam": 23963,
    "puff": 21024,
    "Ġlanyard": 26463,
    "Ġorchard": 22098,
    "agery": 21911,
    "Ġeffusions": 18530,
    "Ġvaluable": 5608,
    "Ġsunk": 5752,
    "Ġsequ": 982,
    "Ġstrictest": 17043,
    "Ġelastic": 4361,
    "Ġastr": 15498,
    "Ġverily": 16605,
    "Ġimpetuous": 25571,
    "Ġtimber": 13353,
    "earthquakes": 24724,
    "indeed": 4487,
    "phia": 22770,
    "Ġxiv": 23410,
    "walls": 25346,
    "itations": 17819,
    "Ġcommodore": 12399,
    "Ġuninhabited": 22055,
    "Ġinde": 7371,
    "mates": 5073,
    "Ġ200": 19298,
    "pe": 1441,
    "Ġventil": 8019,
    "Ġknows": 4161,
    "amuse": 14055,
    "Ġcanall": 10930,
    "Ġpaddock": 25040,
    "Ġwarmer": 19188,
    "Ġpersuade": 5874,
    "Ġweights": 898,
    "himself": 3974,
    "Ġinsol": 10183,
    "generative": 4330,
    "iors": 9128,
    "oft": 3592,
    "Ġriveted": 13621,
    "800": 17479,
    "Ġsketch": 16169,
    "Ġdevious": 22739,
    "Ġloite": 22115,
    "Ġtug": 11553,
    "tis": 4107,
    "Ġtuck": 10143,
    "Ġtasted": 12534,
    "deserts": 25382,
    "Ġscratches": 22276,
    "Ġwhirlwinds": 20468,
    "Ġsuccour": 20438,
    "Ġminister": 18751,
    "user": 5105,
    "ö": 183,
    "Ġagreeable": 4552,
    "Ġoverhanging": 22365,
    "ides": 2162,
    "Ġdoctors": 12156,
    "ilations": 21725,
    "Ġopportunity": 4787,
    "Ġpledge": 11603,
    "Ġprincipal": 6497,
    "Ġdependent": 14291,
    "eyeing": 14949,
    "actually": 14300,
    "Ġsmiting": 12904,
    "Ġ75": 19615,
    "Ġunperceived": 22041,
    "stars": 18022,
    "Ġcourtiers": 24139,
    "Ġdearest": 5457,
    "Ġilliter": 23470,
    "beg": 22490,
    "Ġmarbank": 23040,
    "occupations": 24967,
    "tooth": 18580,
    "evening": 7091,
    "Ġsinking": 7307,
    "oyed": 14368,
    "squall": 13524,
    "olerable": 7183,
    "Ġspecks": 14311,
    "Ġhypocritical": 20740,
    "Ġallies": 18235,
    "Ġensures": 3055,
    "Ġimplac": 24875,
    "Ġsacri": 18329,
    "Ġcrocod": 19631,
    "Ġveritable": 19384,
    "Ġwhalers": 8048,
    "fanning": 20868,
    "oy": 1032,
    "Ġhighness": 22778,
    "Ġprofundities": 20456,
    "Ġbetake": 22908,
    "Ġsorrows": 13358,
    "Ġoarsmen": 7738,
    "Ġabusive": 22287,
    "umberland": 16839,
    "owder": 8451,
    "Ġpolitics": 19226,
    "Ġcastle": 14720,
    "Ġlull": 15656,
    "hearth": 15503,
    "oons": 12503,
    "Ġcapting": 23023,
    "epilogue": 22104,
    "Ġward": 10158,
    "Ġtremble": 6906,
    "Ġimpression": 5732,
    "any": 3337,
    "Ġreaders": 18916,
    "sympathy": 20545,
    "dependence": 17170,
    "Ġungrateful": 14125,
    "Ġlargest": 6284,
    "Ġherds": 9719,
    "Ġextrem": 2473,
    "ship": 1393,
    "Ġexquisite": 12386,
    "enances": 10156,
    "longing": 23728,
    "wished": 13808,
    "Ġpossibly": 4513,
    "Ġrending": 19470,
    "Ġcontinuously": 23208,
    "arthy": 4824,
    "nered": 18495,
    "oms": 4594,
    "Ġhauling": 14090,
    "kily": 20939,
    "Ġirresolute": 24917,
    "Ġthan": 739,
    "ber": 904,
    "Ġshifted": 14110,
    "Ġtables": 9881,
    "jammed": 25907,
    "back": 2013,
    "Ġdivined": 19446,
    "Ġhyper": 19742,
    "Ġtrop": 7565,
    "Ġbuild": 6475,
    "invariably": 26418,
    "Ġinches": 5846,
    "Ġbraces": 14672,
    "ature": 520,
    "ķ": 248,
    "Ġbids": 24646,
    "twist": 23703,
    "Ġencircling": 26273,
    "Ġworrying": 22930,
    "Ġblows": 5974,
    "lux": 14229,
    "Ġgibraltar": 25788,
    "phur": 16156,
    "Ġsuffers": 2973,
    "Ġpence": 17905,
    "Ġdeparture": 6491,
    "Ġpewter": 17188,
    "Ġincarn": 11818,
    "utral": 12669,
    "ralian": 19603,
    "gings": 7549,
    "solute": 16600,
    "armon": 23062,
    "Ġ115": 24439,
    "elstrom": 17984,
    "Ġtent": 15471,
    "Ġquivering": 12864,
    "speps": 14338,
    "Ġbeast": 7180,
    "ssed": 3736,
    "masters": 16836,
    "lung": 17593,
    "Ġdesirous": 8945,
    "lleg": 20953,
    "Ġicicles": 25265,
    "Ġkick": 5838,
    "ercely": 12555,
    "Ġswitching": 23060,
    "Ġcracks": 12024,
    "Ġgreeting": 18963,
    "plish": 18209,
    "prec": 3204,
    "Ġsucked": 14133,
    "Ġreducing": 1955,
    "Ġmatters": 4974,
    "ational": 5716,
    "Ġexpressions": 7706,
    "Ġpatched": 16394,
    "Ġdinners": 23985,
    "Ġse": 401,
    "oughed": 22087,
    "science": 11913,
    "acute": 22601,
    "herald": 22209,
    "Ġfull": 2179,
    "pat": 10119,
    "Ġmo": 628,
    "arking": 16130,
    "Ġdeactivates": 20706,
    "âĢľâĢĺ": 1485,
    "Ġsnapped": 9899,
    "ley": 1815,
    "Ġadie": 8491,
    "Ġpattered": 19053,
    "grant": 10429,
    "Ġopens": 23628,
    "Ġanybody": 5314,
    "ieve": 1657,
    "imental": 16536,
    "roused": 16655,
    "Ġdangers": 12358,
    "Ġpl": 745,
    "itime": 15553,
    "Ġmissing": 6177,
    "Ġturtles": 19222,
    "Ġardour": 8043,
    "fortnight": 13090,
    "Ġwickedness": 9529,
    "Ġlandlady": 10424,
    "](": 11468,
    "rigging": 20009,
    "Ġwrinkles": 8574,
    "encies": 4082,
    "Ġcharacteristic": 12052,
    "Ġoakum": 16936,
    "cannon": 22972,
    "downward": 16621,
    "ell": 397,
    "Ġquestioning": 10466,
    "Ġflutter": 16251,
    "Ġprick": 14480,
    "iard": 9604,
    "Ġboards": 14303,
    "Ġdeformed": 14052,
    "Ġgleam": 12312,
    "Ġ134": 24783,
    "Ġrider": 24188,
    "feature": 4094,
    "Ġcocks": 18592,
    "Ġaccidental": 16850,
    "suitable": 18649,
    "Ġcotton": 17382,
    "Ġbitterness": 8024,
    "turner": 19544,
    "counterpart": 26361,
    "Ġblunder": 18820,
    "Ġpotency": 14648,
    "Ġmaker": 15548,
    "Ġinflict": 15003,
    "desponding": 26343,
    "obli": 23098,
    "Ġdissipate": 13636,
    "Ġrattle": 10901,
    "probability": 17024,
    "ris": 9140,
    "Ġjen": 9270,
    "Ġhark": 8429,
    "Ġpaid": 5015,
    "Ġconcepts": 4551,
    "Ġdissimilar": 22535,
    "Ġadventures": 7748,
    "Ġrepaid": 19082,
    "Ġprobabilities": 4966,
    "Ġexhilarating": 26339,
    "cary": 10693,
    "ront": 15422,
    "Ġchoicest": 24223,
    "drovand": 24759,
    "Ġgaining": 9495,
    "Ġbathe": 25444,
    "Ġairy": 23319,
    "oner": 6126,
    "Ġrecognised": 8998,
    "Ġfins": 9666,
    "ĠĠĠĠĠĠĠĠĠĠĠĠĠĠ": 22567,
    "enial": 17782,
    "Ġmind": 1619,
    "Ġrelations": 5854,
    "Ġchuck": 8504,
    "Ġdelights": 14598,
    "Ġtrades": 8232,
    "unavoid": 14065,
    "Ġlashing": 11619,
    "Ġgorge": 13569,
    "various": 10400,
    "Ġpal": 4044,
    "Ġpract": 1892,
    "pertaining": 22188,
    "Ġaloysius": 15743,
    "urre": 10858,
    "steady": 14712,
    "octial": 20008,
    "Ġjot": 11767,
    "Ġinterrupt": 4359,
    "missing": 13223,
    "Ġworshipped": 25692,
    "Ġerad": 25031,
    "Ġeel": 18004,
    "Ġdesirable": 8944,
    "Ġgibe": 25960,
    "letters": 13177,
    "tea": 18741,
    "Ġconsuming": 22796,
    "Ġlabors": 23330,
    "Ġext": 892,
    "iron": 3400,
    "Ġcrib": 21351,
    "riages": 10245,
    "Ġke": 1153,
    "Ġdolphins": 20399,
    "Ġprimal": 17108,
    "cially": 3491,
    "roman": 22008,
    "ented": 4348,
    "hval": 20900,
    "03": 20750,
    "desol": 13221,
    "Ġabused": 22283,
    "itchen": 7788,
    "Ġtearing": 14399,
    "Ġcallest": 17834,
    "Ġscheme": 7066,
    "sick": 13787,
    "range": 3496,
    "Ġassizes": 11110,
    "Ġinsignificant": 20459,
    "Ġprofessional": 7299,
    "Ġbutt": 14117,
    "Ġforb": 11666,
    "Ġstructural": 2795,
    "Ġfootsteps": 16575,
    "fins": 13722,
    "ody": 1480,
    "Ġmagnetic": 17243,
    "Ġsimpler": 2046,
    "Ġfrequencies": 4790,
    "Ġrapid": 1425,
    "Ġstow": 21734,
    "batim": 25019,
    "Ġemploys": 19434,
    "Ġglue": 15679,
    "Ġpacing": 8427,
    "Ġbound": 3520,
    "Ġhereditary": 10667,
    "Ġpacked": 9983,
    "Ġsquall": 7045,
    "Ġnovember": 11753,
    "asiness": 8129,
    "Ġtravels": 11931,
    "wood": 5899,
    "twelve": 14623,
    "Ġdint": 15596,
    "ino": 15483,
    "not": 908,
    "Ġworkflow": 2418,
    "Ġtw": 841,
    "Ġweeks": 4565,
    "Ġwhether": 1997,
    "Ġboon": 22640,
    "Ġdining": 6978,
    "Ġastonished": 7089,
    "Ġtreated": 7082,
    "Ġflea": 23776,
    "Ġmodest": 15919,
    "Ġobtruded": 20724,
    "orphans": 26442,
    "Ġarve": 15907,
    "Ġhast": 3151,
    "Ġcommis": 22674,
    "Ġapprehen": 16831,
    "every": 2807,
    "Ġintellect": 8170,
    "sho": 6426,
    "doors": 19096,
    "pent": 3495,
    "Ġtrad": 9831,
    "Ġcyn": 13889,
    "Ġwester": 25156,
    "Ġgradually": 3402,
    "myself": 5113,
    "Ġanswer": 2594,
    "Ġshowers": 16607,
    "========": 2312,
    "Ġinsect": 12642,
    "itively": 21334,
    "Ġsymmet": 11751,
    "Ġdisengaged": 12895,
    "Ġcrusad": 23708,
    "umnal": 18301,
    "Ġallen": 5160,
    "ender": 9163,
    "stige": 21664,
    "Ġinte": 2064,
    "Ġcandle": 8292,
    "Ġspear": 9317,
    "Ġsiam": 13841,
    "Ġtech": 1713,
    "rants": 13781,
    "whims": 22243,
    "Ġdirectors": 18923,
    "Ġensuing": 12313,
    "Ġawaited": 17075,
    "Ġhart": 17924,
    "Ġumbrella": 15269,
    "Ġpaths": 2566,
    "Ġdemoniacal": 20559,
    "Ġcover": 3558,
    "ior": 2038,
    "Ġoffence": 12950,
    "Ġhogshead": 26369,
    "Ġsmiled": 5942,
    "masts": 19428,
    "astron": 22173,
    "Ġsurpassing": 20471,
    "Ġswell": 8952,
    "Ġwept": 7184,
    "Ġsurprise": 3832,
    "umer": 9261,
    "sar": 12509,
    "Ġamazed": 14892,
    "muttered": 13762,
    "Ġmannish": 26239,
    "trad": 21078,
    "Ġsix": 3043,
    "Ġalders": 21788,
    "Ġwaiter": 16364,
    "Ġoccupied": 5273,
    "religion": 20578,
    "Ġoffended": 7042,
    "Ġeddying": 17119,
    "Ġinstinctively": 13462,
    "Ġ**": 4722,
    "Ġconflagration": 26366,
    "Ġunf": 4091,
    "ination": 2911,
    "fedallah": 25523,
    "tempt": 21082,
    "Ġdictating": 20155,
    "Ġethics": 15466,
    "Ġfeelingly": 23000,
    "Ġtypewriting": 16425,
    "Ġdisinterested": 16062,
    "Ġstables": 23659,
    "sens": 8096,
    "Ġswept": 7978,
    "ditch": 17530,
    "Ġfirmness": 11239,
    "represented": 20198,
    "Ġsubst": 4274,
    "qualified": 17099,
    "Ġbra": 3255,
    "Ġsuperstition": 15057,
    "Ġapologized": 25199,
    "below": 12126,
    "Ġinferred": 14502,
    "olerably": 11676,
    "Ġsky": 3972,
    "Ġpatience": 3039,
    "xic": 9148,
    "ieties": 19024,
    "Ġgreatest": 4095,
    "Ġarising": 10935,
    "Ġwaited": 4909,
    "Ġrumpled": 24601,
    "Ġrespons": 2683,
    "lot": 3209,
    "nostril": 26561,
    "Ġgre": 1583,
    "ictions": 14228,
    "Ġbrilliantly": 25123,
    "acher": 6868,
    "Ġnic": 7376,
    "Ġfolly": 7941,
    "Ġchinese": 14186,
    "hogs": 20085,
    "allions": 22202,
    "Ġgretna": 26470,
    "Ġdeaf": 12727,
    "Ġactionable": 24560,
    "Ġimmersed": 19488,
    "Ġornaments": 17455,
    "Ġantiqu": 12149,
    "frequent": 15357,
    "vous": 2252,
    "Ġwashed": 15770,
    "Ġont": 18119,
    "burned": 25082,
    "aurs": 20771,
    "sequently": 14585,
    "Ġdependencies": 2314,
    "Ġinform": 996,
    "fth": 20858,
    "Ġwondering": 7971,
    "te": 993,
    "rades": 8592,
    "Ġallures": 22010,
    "gentlemanlike": 20005,
    "Ġwondered": 11127,
    ",âĢĶâĢĺ": 23805,
    "Ġmummy": 25769,
    "degrees": 22154,
    "suddenly": 6494,
    "Ġ14": 9326,
    "ifully": 13189,
    "Ġdusting": 24597,
    "Ġplowdon": 26449,
    "relu": 17761,
    "Ġwindibank": 7257,
    "Ġ96": 24593,
    "Ġindeed": 1678,
    "ĠâĢľâĢĻ": 22258,
    "instr": 12536,
    "Ġton": 15468,
    "Ġopium": 8997,
    "Ġpomp": 12628,
    "Ġblooming": 17215,
    "Ġsummers": 23876,
    "buncle": 13696,
    "iation": 7343,
    "Ġharm": 5017,
    "dri": 5889,
    "Ġcabin": 3302,
    "Ġromish": 19587,
    "ortion": 11763,
    "Ġthoroughly": 8348,
    "library": 13003,
    "Ġunfrequently": 20741,
    "Ġconstitutional": 25128,
    "Ġqu": 606,
    "Ġjealous": 9471,
    "Ġjacket": 6490,
    "Ġblood": 3169,
    "rifice": 12508,
    "ation": 320,
    "Ġsus": 18277,
    "need": 10985,
    "Ġregulations": 18600,
    "lantern": 17431,
    "Ġlam": 21552,
    "Ġboone": 11844,
    "Ġtwain": 16124,
    "osen": 6855,
    "tum": 11534,
    "bore": 13690,
    "Ġphilosopher": 12188,
    "putable": 10903,
    "narrated": 25622,
    "advise": 24220,
    "non": 9614,
    "Ġventilator": 8717,
    "Ġglens": 18856,
    "Ġdropout": 1560,
    "Ġdisturbing": 19949,
    "ĠâĢĶâĢľ_": 17720,
    "Ġdistinguishing": 16499,
    "Ġmontan": 22986,
    "Ġanything": 2187,
    "Ġembatt": 18840,
    "Ġfragmentary": 25858,
    "Ġtrans": 639,
    "Ġproble": 1108,
    "ouching": 13180,
    "Ġcommend": 10337,
    "Ġenter": 4032,
    "Ġribbed": 16806,
    "nib": 5214,
    "Ġmanx": 7905,
    "Ġbeg": 1281,
    "Ġpepper": 9784,
    "Ġstirs": 14920,
    "Ġmagic": 8233,
    "osite": 4894,
    "opening": 10315,
    "heedful": 20576,
    "langu": 4808,
    "Ġregained": 18599,
    "inno": 10758,
    "Ġimpulse": 10027,
    "Ġhysterical": 26093,
    "Ġchronicler": 20232,
    "ferred": 16421,
    "arance": 4699,
    "Ġits": 707,
    "roots": 15648,
    "hidden": 17374,
    "Ġreefed": 20305,
    "umps": 6319,
    "Ġpassengers": 13679,
    "Ġtomorrow": 21516,
    "Ġwarehouse": 20420,
    "amiable": 14056,
    "Ġfab": 15581,
    "oub": 1632,
    "Ġsuspect": 5758,
    "wheels": 14384,
    "shr": 10980,
    "Ġ106": 24414,
    "Ġeffected": 14357,
    "Ġcharacter": 2791,
    "Ġcontributed": 16013,
    "Ġmemb": 14033,
    "Ġsleek": 23387,
    "amp": 2603,
    "Ġoughts": 23904,
    "hatch": 15368,
    "conversations": 24748,
    "Ġoutline": 15959,
    "Ġstumble": 26484,
    "attached": 11939,
    "Ġfleet": 9435,
    "Ġsan": 7824,
    "home": 7341,
    "Ġgallop": 19558,
    "Ġshot": 4544,
    "fier": 9596,
    "Ġsponge": 26004,
    "miseries": 16759,
    "Ġpikes": 21480,
    "Ġinter": 727,
    "shoulders": 16587,
    "ht": 375,
    "ppered": 15796,
    "cur": 3270,
    "Ġwond": 3943,
    "dawson": 26129,
    "opement": 10314,
    "bted": 7794,
    "Ġque": 4160,
    "Ġmasks": 23329,
    "Ġboiling": 8528,
    "Ġnext": 2140,
    "Ġnurtured": 19752,
    "Ġweapon": 7776,
    "Ġcamp": 9167,
    "Ġcompressed": 21854,
    "iations": 11497,
    "striking": 13443,
    "Ġincantation": 26259,
    "Ġleghorn": 13149,
    ");": 7330,
    "Ġquitting": 7646,
    "Ġmot": 2984,
    "Ġevangelist": 20341,
    "rudent": 6483,
    "Ġpartake": 18674,
    "Ġcakes": 13887,
    "Ġcatholic": 20684,
    "ras": 21039,
    "Ġstigma": 25792,
    "..": 5783,
    "Ġimm": 3968,
    "designated": 26320,
    "compass": 9463,
    "Ġtranslates": 12055,
    "Ġmaria": 7126,
    "Ġball": 3626,
    "ir": 378,
    "Ġ46": 19494,
    "Ġbracelets": 25503,
    "dington": 12070,
    "worn": 13809,
    "Ġappro": 658,
    "ruding": 9727,
    "Ġclaret": 22357,
    "Ġpreposter": 12828,
    "Ġsecuring": 11996,
    "Ġexec": 19495,
    "Ġspeedily": 7712,
    "Ġsphynx": 20714,
    "Ġengagement": 5397,
    "Ġhorses": 6386,
    "ardy": 22160,
    "exercise": 17462,
    "Ġroofs": 16987,
    "uled": 11539,
    "uger": 21106,
    "Ġbatch": 889,
    "Ġyesterday": 5333,
    "Ġevenness": 22835,
    "Ġdinnertime": 16721,
    "Ġunfold": 8022,
    "Ġungenerous": 18270,
    "Ġrepay": 19081,
    "boscombe": 26122,
    "Ġpersevering": 20236,
    "Ġbountiful": 25945,
    "Ġwip": 13856,
    "Ġmargaret": 10379,
    "Ġrepel": 23362,
    "ioneer": 15637,
    "Ġtak": 15473,
    "Ġbroken": 3450,
    "mouthful": 25209,
    "Ġcol": 1068,
    "those": 4495,
    "Ġdown": 830,
    "Ġbarred": 9005,
    "freely": 16856,
    "heavily": 24534,
    "Ġmonogram": 26576,
    "Ġchap": 5935,
    "countenances": 24154,
    "Ġderiv": 1736,
    "ances": 1336,
    "Ġunch": 18243,
    "Ġtypewriter": 19099,
    "Ġwretchedly": 19509,
    "Ġconfine": 14511,
    "Ġcongratulations": 10583,
    "Ġfacility": 19852,
    "ckles": 22093,
    "Ġscent": 10287,
    "Ġchilled": 18383,
    "Ġplum": 11826,
    "jol": 20927,
    "interred": 23739,
    "confid": 14870,
    "Ġtunes": 24620,
    "arest": 4007,
    "Ġunlike": 7006,
    "Ġshaft": 18230,
    "Ġsprain": 18306,
    "william": 4562,
    "itia": 11582,
    "regret": 16452,
    "rol": 5713,
    "Ġgathering": 14981,
    "unguarded": 23671,
    "Ġcontrol": 13083,
    "Ġfish": 2708,
    "ordered": 8794,
    "Ġtelling": 5747,
    "Ġmislead": 22760,
    "hued": 20913,
    "weave": 22688,
    "Ġnamed": 6141,
    "Ġprize": 11952,
    "stood": 4118,
    "gold": 9123,
    "Ġundisturbed": 19522,
    "bonnet": 25743,
    "Ġoblig": 3447,
    "Ġesq": 15112,
    "Ġpray": 3903,
    "Ġrowing": 10303,
    "Ġmccarthy": 5145,
    "/*": 10074,
    "Ġ81": 24457,
    "stun": 18021,
    "Ġth": 299,
    "Ġterrors": 6918,
    "Ġlustrous": 20159,
    "usions": 6161,
    "Ġcondescend": 19958,
    "Ġcascade": 20584,
    "answered": 10276,
    "Ġpreference": 9736,
    "charming": 15711,
    "Ġherein": 16193,
    "Ġdeterminate": 23007,
    "Ġdisregard": 22532,
    "ð": 177,
    "Ġconference": 15752,
    "Ġdiscrimination": 23607,
    "Ġhorseman": 19610,
    "place": 4155,
    "temper": 10007,
    "Ġmultiplication": 2867,
    "Ġcuba": 25098,
    "Ġruinous": 24634,
    "Ġdear": 1540,
    "Ġfringe": 17274,
    "Ġflog": 23624,
    "Ġcarpenters": 16754,
    "Ġadver": 5641,
    "Ġending": 18924,
    "Ġpreach": 14175,
    "Ġpreprocess": 22237,
    "Ġdeference": 10884,
    "Ġnut": 12652,
    "Ġdesires": 9460,
    "loved": 14253,
    "Ġutterance": 14766,
    "Ġpeddler": 26181,
    "Ġreadiness": 13054,
    "Ġforgiveness": 16659,
    "Ġdesiring": 14418,
    "Ġspec": 1259,
    "Ġbrazen": 23843,
    "Ġ7": 4746,
    "Ġinex": 6529,
    "endom": 15925,
    "Ġbroad": 3642,
    "kindred": 24054,
    "Ġhospitality": 13515,
    "Ġlonely": 6823,
    "Ġintu": 12769,
    "itically": 21333,
    "ady": 994,
    "plain": 1357,
    "resist": 8276,
    "voyages": 24856,
    "trucks": 25420,
    "Ġprizes": 13077,
    "triumph": 15444,
    "uel": 6967,
    "rossed": 11015,
    "Ġcities": 17829,
    "sweeping": 24619,
    "iod": 3842,
    "Ġhurt": 7701,
    "produce": 20285,
    "nikin": 23251,
    "Ġundu": 15843,
    "Ġsubmitted": 11875,
    "Ġindefinitely": 25222,
    "Ġyelled": 9697,
    "occurred": 13341,
    "Ġclergyman": 8715,
    "nights": 16450,
    "ui": 9147,
    "Ġbending": 12591,
    "Ġgracefully": 13394,
    "suspicious": 25391,
    "Ġwere": 556,
    "simon": 16975,
    "Ġmoderate": 10940,
    "Ġadjusts": 8983,
    "Ġcapture": 3384,
    "Ġslates": 11108,
    "Ġting": 8399,
    "Ġgang": 9210,
    "Ġremonstr": 16166,
    "Ġresented": 22547,
    "Ġsubsisted": 19119,
    "Ġunst": 18242,
    "Ġcompletely": 4861,
    "Ġprocess": 562,
    "Ġparmacetti": 20607,
    "abated": 14023,
    "iscre": 17852,
    "etymology": 14704,
    "oky": 8198,
    "Ġfantastic": 10062,
    "Ġsimplest": 16338,
    "Ġslewed": 23388,
    "Ġdeclared": 5595,
    "lott": 6653,
    "erce": 6128,
    "Ê": 139,
    "Ġaback": 22280,
    "Ġgranted": 22810,
    "Ġchas": 18380,
    "Ġrevolver": 14903,
    "recovered": 19790,
    "ance": 478,
    "Ġmidst": 7986,
    "Ġrevered": 23736,
    "Ġloaf": 15877,
    "Ġwhiskers": 10495,
    "Ġcalendar": 18878,
    "happ": 3101,
    "ling": 737,
    "Ġworry": 18817,
    "affection": 7487,
    "Ġabominably": 20072,
    "Ġarri": 2550,
    "a": 69,
    "buried": 14852,
    "Ġcontroverted": 23253,
    "jure": 20926,
    "Ġwardrobe": 17228,
    "Ġrake": 18638,
    "Ġbilliard": 16690,
    "Ġsegmentation": 17343,
    "Ġforeseeing": 23451,
    "Ġdetective": 14406,
    "continual": 20646,
    "Ġbrown": 6300,
    "agings": 18168,
    "several": 5544,
    "Ġnorton": 12655,
    "southern": 20412,
    "Ġinclude": 1872,
    "sales": 17669,
    "anybody": 12087,
    "justice": 7958,
    "Ġevince": 24295,
    "Ġprophes": 16352,
    "Ġab": 529,
    "Ġpistols": 17332,
    "dz": 4740,
    "miserably": 24213,
    "Ġrio": 23894,
    "voyage": 7786,
    "warn": 11545,
    "Ġdetermination": 9822,
    "whal": 10942,
    "Ġcourage": 4634,
    "Ġaust": 4872,
    "Ġfurrow": 22816,
    "intelligence": 5884,
    "lob": 22511,
    "ork": 417,
    "Ġtransf": 22441,
    "Ġassociated": 12254,
    "lean": 21368,
    "Ġeffectual": 18734,
    "varied": 23187,
    "Ġintensity": 10019,
    "prep": 9762,
    "Ġgenerously": 22405,
    "increased": 20273,
    "Ġfreezing": 23886,
    "fe": 677,
    "Ġindustry": 18846,
    "Ġwinding": 8236,
    "Ġdataset": 12826,
    "Ġwrecked": 9969,
    "Ġglued": 20592,
    "Ġsame": 1341,
    "Ġfishe": 15591,
    "Ġexercise": 8359,
    "adequate": 15207,
    "Ġdeadliest": 14558,
    "Ġperman": 10966,
    "rumours": 23924,
    "Ġdimly": 9491,
    "unpardonable": 21894,
    "Ġgulp": 20032,
    "Ġmutiny": 13264,
    "Ġency": 21937,
    "bler": 11474,
    "Ġclerical": 25569,
    "Ġhousings": 21496,
    "ufact": 10735,
    "Ġcoronation": 13337,
    "Ġclouded": 13294,
    "particular": 5757,
    "clever": 20815,
    "breaths": 25337,
    "ston": 15688,
    "justine": 7683,
    "Ġamidst": 9497,
    "apside": 22970,
    "dinner": 11408,
    "painter": 24897,
    "ouses": 5163,
    "Ġunquestion": 18252,
    "Ġbig": 5806,
    "Ġseeming": 8543,
    "irt": 3075,
    "circumst": 5349,
    "Ġcash": 9655,
    "Ġaccompl": 5167,
    "george": 26020,
    "kind": 3867,
    "Ġunderstand": 836,
    "unwillingly": 21888,
    "nder": 20989,
    "Ġbelie": 14411,
    "Ġunstructure": 2993,
    "Ġdeliberation": 19972,
    "savage": 15079,
    "uity": 12522,
    "voices": 21120,
    "friend": 3866,
    "brous": 19201,
    "archangel": 18791,
    "tem": 6370,
    "ha": 3984,
    "Ġtru": 4108,
    "achel": 7034,
    "Ġrumours": 24599,
    "Ġsubordinate": 18723,
    "delightful": 12201,
    "iverse": 13119,
    "Ġpurse": 12015,
    "isk": 9170,
    "declaration": 25176,
    "walked": 10573,
    "chants": 21695,
    "Ġreus": 8826,
    "Ġcharms": 11132,
    "torm": 11533,
    "Ġmaled": 21317,
    "Ġlydia": 2372,
    "access": 11182,
    "Ġpoetic": 17104,
    "games": 20882,
    "Ġdial": 10812,
    "Ġcauses": 2558,
    "Ġgovern": 10452,
    "disappointment": 11427,
    "Ġfam": 1586,
    "tural": 21069,
    "edding": 4366,
    "Ġhairs": 13234,
    "osis": 18390,
    "Ġantics": 24181,
    "handedness": 24921,
    "Ġprogno": 14043,
    "mbles": 23092,
    "haired": 14769,
    "Ġtradesman": 20076,
    "hers": 7636,
    "rigged": 17063,
    "Ġloitered": 26527,
    "Ġneither": 3688,
    "Ġfishy": 16527,
    "Ġhemis": 21687,
    "Ġaffectionate": 5585,
    "Ġleaned": 7608,
    "Ġtroubled": 6618,
    "Ġlistening": 6320,
    "Ġmurdered": 6465,
    "ructure": 762,
    "Ġnecks": 18186,
    "Ġhookah": 16972,
    "Ġjest": 18404,
    "Ġwealthy": 18181,
    "pleasures": 24051,
    "Ġclo": 6044,
    "rained": 5162,
    "Ġrival": 10488,
    "Ġremorse": 6442,
    "ctuous": 9208,
    "Ġerskine": 17435,
    "inev": 21969,
    "writhed": 26081,
    "convinced": 10625,
    "Ġespecially": 3940,
    "Ġblew": 9048,
    "Ġdistinctly": 7311,
    "yp": 1044,
    "Ġoutput": 931,
    "Ġbeloved": 5572,
    "Ġcottages": 14730,
    "Ġvinc": 14088,
    "Ġconcise": 23324,
    "Ġnorthward": 13325,
    "Ġliberal": 12195,
    "Ġfabulous": 25949,
    "Ġislanders": 19505,
    "Ġunavailing": 26217,
    "oun": 483,
    "hair": 9125,
    "joke": 20932,
    "Ġsurmount": 20004,
    "torn": 17684,
    "immed": 9220,
    "Ġcorporeal": 17363,
    "Ġemigrant": 25860,
    "Ġasking": 5651,
    "Ġnewfoundland": 26571,
    "dressed": 10697,
    "Ġclearer": 16317,
    "Ġsupport": 6730,
    "Ġdynamic": 5124,
    "metal": 24764,
    "ulls": 8842,
    "vels": 5432,
    "Ġtumult": 7116,
    "Ġsoda": 25535,
    "Ġcav": 13883,
    "bolt": 25138,
    "atus": 21263,
    "Ġanalyze": 1660,
    "Ġevangelical": 25507,
    "towards": 5003,
    "Ġchests": 19674,
    "stumps": 21662,
    "reinforcement": 7826,
    "Ġassures": 14468,
    "Ġrose": 3445,
    "Ġqualified": 14953,
    "Ġrecorded": 11295,
    "avor": 14280,
    "Ġstairs": 5541,
    "Ġparagra": 15884,
    "Ġhealthcare": 8016,
    "yes": 984,
    "Ġsprang": 5064,
    "marked": 9051,
    "Ġsundering": 23277,
    "Ġcouldn": 7649,
    "Ġbos": 4876,
    "Ġwonderland": 23427,
    "enes": 5218,
    "Ġsymbolize": 24963,
    "urmount": 13998,
    "Ġcandles": 9911,
    "Ġexpeditions": 24957,
    "izarre": 17392,
    "arising": 17897,
    "Ġscar": 3213,
    "Ġclosing": 11776,
    "chose": 18043,
    "ological": 1882,
    "Ġfoolish": 5981,
    "abhor": 12713,
    "Ġunidirectional": 3426,
    "Ġsixteen": 8283,
    "altern": 17944,
    "Ġvisitor": 5331,
    "Ġassistance": 6335,
    "Ġfigure": 4207,
    "Ġcriminals": 19924,
    "Ġarsacidean": 20368,
    "Ġoverwhel": 8197,
    "Ġnin": 10190,
    "Ġentertained": 10001,
    "Ġoverwhelm": 25055,
    "pain": 7350,
    "shoals": 24716,
    "Ġrucastles": 18722,
    "Ġstrong": 1787,
    "Ġsaintly": 25932,
    "Ġrains": 24340,
    "Ġvehicles": 10662,
    "Ġinflex": 20637,
    "ump": 2285,
    "Ġhysterics": 26094,
    "Ġfainter": 14917,
    "Ġscuttle": 7414,
    "Ġnobly": 22245,
    "Ġhaws": 21955,
    "Ġmist": 2873,
    "Ġhonour": 3926,
    "Ġbowls": 23773,
    "Ġmedic": 11258,
    "Ġpos": 1008,
    "Ġfood": 5080,
    "gently": 13732,
    "Ġrenounce": 19471,
    "reader": 23850,
    "strangers": 20339,
    "Ġwaist": 6892,
    "anish": 2614,
    "professional": 20278,
    "Ġbanquet": 15244,
    "apter": 1193,
    "Ġfront": 3453,
    "Ġco": 729,
    "Ġconversations": 9428,
    "cup": 10694,
    "rom": 420,
    "Ġthursday": 12650,
    "Ġver": 3394,
    "moored": 22709,
    "Ġanimation": 11154,
    "Ġdistrustful": 25057,
    "Ġinsp": 2100,
    "Ġcomprising": 16073,
    "mult": 8751,
    "Ġstaggers": 24654,
    "icions": 21566,
    "wonder": 6372,
    "Ġanswers": 7072,
    "Ġanticipation": 17058,
    "Ġbrit": 6291,
    "Ġshutting": 14762,
    "felt": 5890,
    "Ġplanets": 24061,
    "billiard": 25335,
    "Ġtufted": 17016,
    "Ġyoungster": 23182,
    "Ġob": 862,
    "Ġlandlessness": 23383,
    "atical": 10773,
    "asters": 8435,
    "Ġgrant": 11877,
    "Ġmusky": 19385,
    "sad": 11523,
    "size": 15428,
    "Ġadditional": 7935,
    "foremost": 14255,
    "Ġhedge": 8364,
    "Ġattributed": 11839,
    "Ġotherwise": 4658,
    "Ġoppressed": 11191,
    "Ġtemporal": 2611,
    "Ġvexation": 10589,
    "cher": 5786,
    "helpless": 16792,
    "Ġtraversed": 18894,
    "duty": 20242,
    "Ġwatch": 2741,
    "Ġbeef": 6830,
    "Ġcomplain": 6687,
    "slee": 17171,
    "Ġbrightness": 16579,
    "Ġfoster": 18991,
    "Ġshattered": 7884,
    "Ġlobster": 11391,
    "Ġconcentration": 25065,
    "Ġstroke": 6936,
    "Ġstrained": 10221,
    "Ġforg": 3791,
    "Ġaffected": 5577,
    "asmuch": 10197,
    "shipmates": 11932,
    "Ġentry": 11028,
    "Ġgeneralize": 3098,
    "Ġpouch": 21471,
    "Ġcau": 13884,
    "Ġbraced": 16582,
    "Ġmock": 3693,
    "bos": 17486,
    "Ġproving": 15757,
    "Ġbuff": 9175,
    "lust": 15383,
    "Ġbordered": 24564,
    "opic": 22480,
    "Ġadapted": 11042,
    "Ġbadge": 16682,
    "glad": 9011,
    "Ġ166": 25007,
    "Ġbowing": 10477,
    "Ġtwelfth": 22681,
    "Ġrestrained": 16377,
    "sail": 3605,
    "Ġmurmured": 7480,
    "itoring": 21335,
    "things": 6034,
    "Ġattended": 5391,
    "Ġgardens": 16454,
    "vable": 10135,
    "Ġquicker": 16510,
    "Ġaug": 6236,
    "lovel": 22515,
    "Ġclut": 7642,
    "Ġbows": 4085,
    "Ġarisen": 11747,
    "Ġarrangements": 16519,
    "la": 10707,
    "distinctive": 25726,
    "letter": 6203,
    "scrape": 25699,
    "Ġcomforters": 25801,
    "Ġtowering": 16741,
    "Ġcontemptuous": 24677,
    "Ġspasmodic": 20401,
    "Ġsun": 1720,
    "Ġy": 341,
    "Ġpolynesian": 26027,
    "rogress": 21539,
    "Ġfootpath": 19340,
    "itute": 9654,
    "Ġgemin": 21613,
    "Ġdilated": 24703,
    "Ġapiece": 16815,
    "Ġgent": 7383,
    "Ġregion": 2274,
    "Ġfancy": 3747,
    "dut": 10090,
    "Ġpositively": 13035,
    "ĠâĢľâĢĶ": 9737,
    "ival": 4227,
    "Ġgould": 17992,
    "obtain": 23097,
    "Ġhe": 318,
    "meaning": 2906,
    "unching": 18161,
    "thunder": 10265,
    "Ġdetested": 14177,
    "Ġneatness": 19935,
    "decl": 8860,
    "knot": 13748,
    "Ġrats": 21980,
    "power": 7138,
    "handsome": 13179,
    "idelburgh": 10564,
    "Ġve": 1106,
    "Ġoriental": 9100,
    "Ġcleaning": 23183,
    "Ġimpass": 15991,
    "reng": 4005,
    "Ġtrough": 15968,
    "Ġjoyful": 13225,
    "awake": 14455,
    "ative": 738,
    "Ġbethink": 12383,
    "Ġlaughing": 5339,
    "days": 7688,
    "boilers": 26298,
    "andering": 21871,
    "Ġmythologies": 26215,
    "iff": 3909,
    "Ġdeliver": 9850,
    "Ġdomains": 6612,
    "closing": 23159,
    "door": 6195,
    "unders": 13314,
    "vation": 4745,
    "manif": 14376,
    "cturn": 17989,
    "crucible": 24843,
    "ch": 321,
    "zar": 11550,
    "coming": 3563,
    "Ġomin": 11580,
    "Ġappalling": 8502,
    "Ġwhe": 438,
    "throw": 14101,
    "Ġdel": 1614,
    "Ġspe": 820,
    "Ġquarrels": 16569,
    "Ġemptied": 24347,
    "ott": 1870,
    "Ġvacuous": 24344,
    "Ġspinal": 12306,
    "mention": 7214,
    "!--": 10680,
    "Ġpresentiment": 18989,
    "Ġdais": 24372,
    "Ġaquiline": 26160,
    "mannered": 22852,
    "Ġgenealogies": 25962,
    "aret": 7417,
    "swallow": 24260,
    "ru": 479,
    "wooden": 24588,
    "Ġbehaviour": 4384,
    "Ġpack": 5444,
    "lessness": 5318,
    "probable": 17023,
    "sentence": 2937,
    "Ġcheerfulness": 10519,
    "edged": 15636,
    "Ġaband": 6563,
    "Ġinterven": 10999,
    "Ġnantucket": 2835,
    "Ġgroups": 3720,
    "Ġspan": 11732,
    "Ġcolleague": 17162,
    "Ġrust": 6409,
    "ooped": 17625,
    "Ġah": 5075,
    "Ġspeaking": 4029,
    "Ġdemi": 25549,
    "Ġlooking": 2472,
    "ī": 236,
    "Ġclerval": 4654,
    "Ġdepose": 22592,
    "Ġexclusiveness": 23931,
    "Ġconceal": 5975,
    "Ġdiscomposed": 25581,
    "Ġirene": 8445,
    "owed": 2271,
    "utional": 17986,
    "Ġbluff": 16521,
    "vess": 7354,
    "compl": 6873,
    "Ġcausing": 16362,
    "Ġalleys": 25979,
    "indignation": 18439,
    "Ġheads": 3742,
    "al": 292,
    "Ġmcc": 21308,
    "honey": 20907,
    "Ġide": 2123,
    "Ġbenevol": 5963,
    "Ġsult": 10769,
    "course": 6106,
    "itably": 10784,
    "Ġmatrim": 11061,
    "abode": 21795,
    "empt": 2616,
    "Ġbreathlessly": 24283,
    "Ġbrink": 18772,
    "ipper": 13743,
    "Ġhumiliation": 16202,
    "Ġinfat": 14501,
    "age": 504,
    "Ġancles": 21449,
    "whiteness": 18371,
    "tit": 11530,
    "fright": 9598,
    "going": 6315,
    "Ġcontribut": 12865,
    "Ġprosperous": 15174,
    "Ġviol": 2069,
    "Ġgaiters": 20464,
    "heaven": 8053,
    "Ġunnearable": 26518,
    "ï": 176,
    "Ġdisaster": 12893,
    "Ġcircumnavigating": 25615,
    "Ġbaff": 10801,
    "Ġgrim": 7439,
    "Ġvon": 14084,
    "atha": 6574,
    "copper": 19191,
    "gener": 3125,
    "Ġjoy": 3186,
    "ash": 1989,
    "atived": 21265,
    "tering": 3810,
    "third": 8168,
    "Ġofficers": 4425,
    "Ġknitting": 24221,
    "crown": 13702,
    "anation": 5804,
    "practised": 20250,
    "mankind": 14377,
    "due": 22414,
    "Ġhappens": 2189,
    "Ġspices": 22134,
    "Ġcharged": 9857,
    "Ġresource": 10995,
    "Ġactivations": 2717,
    "Ġrejo": 5917,
    "Ġrow": 5246,
    "abetical": 15748,
    "Ġmiscellaneous": 17465,
    "Ġluxurious": 17314,
    "estab": 14173,
    "ie": 728,
    "Ġhook": 6454,
    "arctic": 12616,
    "dis": 2251,
    "chain": 18042,
    "Ġbody": 2434,
    "Ġpleasanter": 19067,
    "nelson": 25621,
    "Ġsuggestive": 11299,
    "Ġoctavo": 15167,
    "Ġdiana": 21439,
    "lant": 20949,
    "Ġaberde": 22291,
    "boys": 13363,
    "aract": 17896,
    "Ġencoder": 3638,
    "Ġmarlingspike": 26581,
    "Ġslighter": 18942,
    "Ġgolden": 5337,
    "Ġusher": 22219,
    "objects": 13473,
    "Ġcumberland": 21358,
    "mme": 22504,
    "Ġrespective": 16348,
    "Ġdraw": 3673,
    "Ġslime": 23164,
    "ists": 4003,
    "ounding": 22387,
    "weaving": 18667,
    "Ġj": 533,
    "Ġbefell": 14013,
    "Ġdes": 1249,
    "Ġinterrupting": 19560,
    "Ġbaffled": 12407,
    "phil": 7925,
    "ondon": 2704,
    "unw": 14060,
    "Ġmulti": 1043,
    "Ġaccounts": 7207,
    "ulged": 12736,
    "made": 4809,
    "×": 152,
    "Ġtrophy": 20010,
    "Ġbumpkins": 25282,
    "consuming": 25675,
    "Ġchatting": 24746,
    "happiness": 6470,
    "Ġpreceding": 7528,
    "excuse": 13384,
    "Ġnonsense": 6983,
    "reas": 988,
    "Ġramad": 8530,
    "Ġappetites": 20209,
    "Ġframed": 19035,
    "Ġentries": 22744,
    "Ġlanterns": 24578,
    "fortunately": 9454,
    "Ġbackwoods": 22665,
    "Ġmechanisms": 1576,
    "Ġremedy": 18725,
    "jerked": 25619,
    "idea": 9304,
    "deav": 2672,
    "cible": 20808,
    "gratification": 24348,
    "Ġatt": 782,
    "mbling": 3344,
    "inside": 23068,
    "Ġbade": 9174,
    "Ġconsole": 8151,
    "Ġhomely": 25220,
    "Ġgrampus": 21998,
    "Ġbernard": 20687,
    "Ġdying": 2137,
    "photograph": 16157,
    "minute": 11276,
    "Ġhag": 12631,
    "sombre": 23857,
    "Ġdears": 18142,
    "Ġhowever": 1304,
    "Ġproblem": 1269,
    "Ġlove": 2052,
    "Ġlakes": 8131,
    "footman": 17165,
    "rospect": 11615,
    "Ġgrown": 5628,
    "Ġstash": 18070,
    "forth": 9325,
    "Ġspasmod": 12418,
    "Ġexceptional": 19374,
    "Ġshipped": 9718,
    "Ġinheritance": 25356,
    "treas": 17681,
    "Ġrealise": 16341,
    "Ġbounding": 19403,
    "Ġclams": 19992,
    "riving": 21930,
    "Ġaccost": 12851,
    "Ġerror": 1765,
    "Ġshouted": 5348,
    "Ġpsal": 15621,
    "furthermore": 20007,
    "presence": 18499,
    "Ġcareless": 11121,
    "largely": 19577,
    "Ġobstetrics": 24679,
    "laugh": 10111,
    "Ġerecting": 24653,
    "Ġslang": 23162,
    "Ġbenef": 3490,
    "Ġbackground": 18650,
    "cigar": 26125,
    "front": 12175,
    "Ġnurse": 9520,
    "Ġenabled": 9299,
    "Ġvii": 13112,
    "Ġrecollect": 8310,
    "Ġcame": 1298,
    "Ġuprising": 12808,
    "Ġfloat": 12036,
    "raise": 18014,
    "Ġpronouncing": 16971,
    "Ġpul": 2039,
    "perceive": 12816,
    "goldsmith": 20150,
    "Ġinterpreted": 1710,
    "Ġbeseeching": 26312,
    "glit": 23853,
    "quarters": 24949,
    "Ġpreprocessing": 26538,
    "swiftly": 20554,
    "Ġduchess": 4800,
    "Ġstreet": 2957,
    "Ġroods": 22408,
    "lier": 20951,
    "Ġostent": 13587,
    "Ġsings": 15509,
    "Ġstartling": 14673,
    "adm": 7609,
    "barrels": 15044,
    "Ġjavel": 17085,
    "Ġcountless": 16384,
    "Ġirreparable": 20002,
    "attended": 8955,
    "Ġhousekeeper": 7456,
    "ional": 1083,
    "Ġhung": 4560,
    "illuminated": 17456,
    "Ġulster": 14999,
    "Ġtranquilly": 12294,
    "Ġliked": 5265,
    "interrupt": 8619,
    "xi": 17712,
    "ppery": 10894,
    "Ġsociet": 9453,
    "ern": 766,
    "strom": 15689,
    "Ġwrinkled": 7264,
    "americ": 8156,
    "gentleness": 24845,
    "Ġprematurely": 24010,
    "retched": 3067,
    "Ġdrugged": 12608,
    "Ġwill": 678,
    "adv": 4537,
    "balls": 12309,
    "Ġinspection": 14545,
    "Ġcondescended": 19959,
    "Ġeternity": 12283,
    "Ġcrowds": 14742,
    "wins": 21132,
    "Ġminima": 3466,
    "Ġround": 1370,
    "heavy": 10577,
    "Ġabsurd": 7203,
    "Ġluxur": 12345,
    "elius": 13291,
    "Ġoffending": 22742,
    "Ġforget": 2633,
    "hundred": 8331,
    "Ġinsignificance": 20460,
    "Ġartist": 12918,
    "Ġadvis": 9813,
    "lose": 12887,
    "neglected": 25670,
    "Ġbattalions": 25777,
    "Ġsnugness": 20080,
    "Ġapply": 1778,
    "Ġreads": 23118,
    "Ġcolony": 18768,
    "Ġpea": 14320,
    "Ġgladly": 14683,
    "Ġgrasp": 4664,
    "enger": 10775,
    "encoun": 12302,
    "mangled": 20983,
    "Ġtim": 4579,
    "elson": 16375,
    "fill": 15354,
    "animal": 16980,
    "Ġspecial": 2102,
    "Ġobserver": 11993,
    "Ġstore": 8455,
    "Ġfeast": 10280,
    "Ġgreedy": 3053,
    "Ġdisenc": 22530,
    "inlaid": 21193,
    "Ġfollowing": 4065,
    "Ġreplen": 11116,
    "ique": 8746,
    "Ġingrat": 16842,
    "Ġgouldings": 26189,
    "Ġobjectionable": 16993,
    "Ġthousand": 2778,
    "achusetts": 20712,
    "iced": 3904,
    "Ġprivileged": 20116,
    "Ġbarber": 23792,
    "Ġunguarded": 15856,
    "Ġassuming": 16694,
    "remains": 10401,
    "Ġgurg": 15678,
    "owl": 12690,
    "loving": 18541,
    "Ġevalu": 3045,
    "bare": 12445,
    "Ġsounded": 8594,
    "attle": 4465,
    "big": 13689,
    "Ġfingers": 5672,
    "Ġsearched": 15821,
    "Ġdropping": 7483,
    "Ġshrouded": 14972,
    "abominable": 20597,
    "Ġforefinger": 16444,
    "Ġpods": 17915,
    "Ġmuscle": 14691,
    "Ġabsorb": 25115,
    "Ġq": 1084,
    "repeating": 20132,
    "tha": 15828,
    "spread": 8389,
    "notice": 16152,
    "Ġtoll": 7852,
    "pression": 10409,
    ".;": 20746,
    "fabulous": 20477,
    "Ġpartners": 11857,
    "wife": 8101,
    "Ġimagined": 8610,
    "Ġconvers": 2905,
    "Ġdays": 2075,
    "Ò": 147,
    "Ġprob": 968,
    "author": 9863,
    "acious": 5563,
    "kempt": 20943,
    "ering": 1265,
    "ider": 21769,
    "enth": 6682,
    "outer": 9671,
    "Ġdrove": 4984,
    "inioned": 19289,
    "brilliancy": 26078,
    "Ġpensive": 21477,
    "braid": 17497,
    "anse": 12581,
    "Ġharry": 24572,
    "Ġcontribute": 12867,
    "Ġrepute": 18037,
    "Ġpretended": 19316,
    "Ġfowl": 11332,
    "Ġcontraction": 16012,
    "Ġmutual": 8296,
    "fitzwilliam": 11354,
    "ading": 5091,
    "Ġcontaining": 2232,
    "anks": 3920,
    "ize": 759,
    "Ġpigs": 19750,
    "Ġmarching": 16698,
    "Ġpathways": 11155,
    "doubted": 17528,
    "aton": 21261,
    "resp": 13842,
    "Ġrepl": 1594,
    "ernally": 22622,
    "Ġfathom": 17049,
    "blades": 24133,
    "Ġsoc": 3527,
    "number": 10117,
    "Ġparallel": 1418,
    "content": 11199,
    "Ġassured": 4372,
    "Ġkilburn": 18352,
    "tremendous": 20676,
    "Ġvales": 21950,
    "ener": 564,
    "Ġreceive": 4705,
    "Ġbutterfly": 19911,
    "Ġadversary": 12178,
    "Ġreprehensible": 15704,
    "Ġinsignific": 13183,
    "Ġstoutest": 24629,
    "Ġnailing": 21530,
    "Ġdramat": 23219,
    "Ġtrepidation": 19217,
    "Ġtheory": 5799,
    "maul": 11894,
    "Ġitalian": 12414,
    "plicable": 10259,
    "wanted": 10745,
    "Ġcarried": 3695,
    "aution": 9390,
    "rix": 1574,
    "M": 49,
    "Ġul": 6828,
    "Ġencoun": 4511,
    "Ġloathing": 15071,
    "Ġconfounded": 16385,
    "Ġsequential": 2133,
    "Ġpersons": 6184,
    "Ġshocks": 16460,
    "Ġcombines": 1198,
    "Ġpurchased": 12265,
    "Ġgrate": 12969,
    "Ġprejud": 6851,
    "Ġdeceitfulness": 25734,
    "hens": 3941,
    "ader": 14015,
    "swe": 5997,
    "Ġcome": 1242,
    "Ġinve": 17931,
    "Ġsimilarly": 24310,
    "Ġpercept": 14226,
    "Ġamid": 4959,
    "wise": 2571,
    "Ġclapham": 17268,
    "Ġpendulous": 25956,
    "Ġsombre": 18861,
    "Ġprivileges": 25135,
    "ĠmanÅĵuv": 18418,
    "proble": 9397,
    "Ġencouraging": 2263,
    "Ġexclude": 19041,
    "Ġescaped": 6460,
    "Ġelect": 10844,
    "omet": 3074,
    "dishonourable": 26367,
    "dread": 8732,
    "Ġwapping": 21297,
    "Ġforger": 15738,
    "Ġmessages": 24984,
    "kington": 11204,
    "Ġtenderly": 11316,
    "Ġtold": 2186,
    "atig": 13848,
    "ductive": 23939,
    "Ĺ": 250,
    "Ġusurpation": 18358,
    "eg": 17531,
    "haps": 1669,
    "Ġgot": 2281,
    "jah": 17583,
    "Ġflank": 8229,
    "Ġmagnanimous": 17414,
    "erde": 21271,
    "Ġsprawling": 22143,
    "Ġhindrance": 25221,
    "Ġhangs": 11609,
    "Ġkill": 4453,
    "Ġdreamed": 16632,
    "Ġbeeches": 9229,
    "Ġheadsmen": 14735,
    "greek": 25405,
    "Ġfeed": 2128,
    "Ġripp": 11221,
    "shazz": 14243,
    "Ġhercules": 14130,
    "ledyard": 22386,
    "completely": 12424,
    "ilib": 4119,
    "Ġugl": 12688,
    "Ġsqualls": 17022,
    "Ġenslaved": 26315,
    "resolution": 17768,
    "nose": 17612,
    "scor": 13024,
    "robber": 21540,
    "Ġrights": 10399,
    "Ġdarted": 4759,
    "Ġabout": 633,
    "Ġpuffs": 14979,
    "Ġlightness": 23263,
    "aster": 1865,
    "olet": 13769,
    "Ġenterprise": 8645,
    "Ġinvader": 23480,
    "ary": 986,
    "trifling": 19417,
    "Ġsize": 1220,
    "recursion": 13332,
    "unk": 4539,
    "edily": 17946,
    "]": 65,
    "spite": 16142,
    "woof": 21142,
    "3": 23,
    "Ġseeth": 21957,
    "Ġheeds": 24520,
    "Ġenlist": 21940,
    "Ġwherein": 14298,
    "69": 17477,
    "Ġpregnant": 26537,
    "Ġsuppression": 23003,
    "Ġshadowed": 24050,
    "Ġbaronial": 23796,
    "azing": 7705,
    "Ġabstract": 17184,
    "Ġstig": 14005,
    "Ġfell": 1974,
    "Ġfossils": 20225,
    "Ķ": 247,
    "Ġrevers": 21667,
    "Ġimpl": 7195,
    "Ġlirra": 21563,
    "Ġjustice": 5111,
    "Ġswelling": 11929,
    "Ġfringed": 17275,
    "Ġdevotees": 25377,
    "behaviour": 11303,
    "requent": 3652,
    "Ġahoy": 12189,
    "Ġshel": 6847,
    "Ġbloom": 9890,
    "Ġfatal": 5873,
    "Ġdeveloped": 16354,
    "Ġsand": 6237,
    "project": 16429,
    "Ġmanage": 7641,
    "Ġsuperior": 2750,
    "Ġtallow": 14782,
    "Ġpitches": 23905,
    "Ġscot": 5643,
    "Ġsignification": 19205,
    "emorial": 10246,
    "mouse": 15396,
    "Ġalbino": 20506,
    "Ġcentrally": 23835,
    "Ġprocuring": 16872,
    "taining": 7206,
    "agger": 7872,
    "Ġhudson": 15195,
    "Ġlike": 667,
    "Ġadequ": 10915,
    "Ġfight": 5366,
    "quently": 9705,
    "ament": 2437,
    "Ġconcoct": 19045,
    "Ġrespectability": 14487,
    "Ġinnocently": 24033,
    "Ġha": 400,
    "Ġwag": 10777,
    "withdrawn": 23029,
    "Ġresearches": 13135,
    "Ġbales": 21392,
    "Ġalleged": 17293,
    "Ġinvade": 19144,
    "Ġevenings": 18753,
    "oof": 15409,
    "ids": 21767,
    "ceed": 1076,
    "Ġrepul": 16412,
    "entering": 17979,
    "Ġtrembling": 7481,
    "Ġmarble": 7669,
    "Ġturbid": 23613,
    "Ġdardanelles": 26445,
    "Ġantichronical": 26611,
    "Ġunable": 4951,
    "Ġwhisper": 6207,
    "amount": 10886,
    "Ġunparalleled": 15859,
    "pos": 15414,
    "Ġalabama": 14022,
    "Ġresemblance": 7975,
    "Ġswims": 12124,
    "Ġlowers": 23242,
    "Ġtarget": 2818,
    "Ġcand": 3276,
    "Ġsilver": 7463,
    "Ġprocured": 8680,
    "Ġincredulous": 9990,
    "ousness": 10277,
    "Ġunwritten": 22038,
    "Ġhinting": 19652,
    "Ġcollection": 8222,
    "Ġcharacteristically": 23693,
    "Ġeloquence": 11845,
    "lynes": 15709,
    "Ġremarks": 7473,
    "wantonly": 25153,
    "ounce": 6559,
    "Ġimpossibility": 20649,
    "Ġnot": 413,
    "itive": 6671,
    "Ġthreading": 23405,
    "Ġplaguy": 22610,
    "attacked": 23126,
    "remaining": 20223,
    "Ġhes": 6252,
    "Ġsadly": 7302,
    "Ġunaccountable": 7887,
    "Ġexacted": 23605,
    "'m": 9585,
    "Ġdoctor": 5067,
    "united": 14063,
    "Ġpresenting": 18988,
    "Ġexpression": 4515,
    "Ġcurly": 18824,
    "Ġpatent": 11972,
    "acknowledging": 25477,
    "Ġcoloss": 11048,
    "quickness": 19853,
    "ility": 623,
    "horrible": 14602,
    "Ġwages": 13857,
    "simply": 20673,
    "Ġjaw": 3318,
    "Ġquiescent": 26244,
    "Ġtort": 5903,
    "ickering": 22673,
    "modesty": 22876,
    "Ġexample": 5096,
    "Ġdey": 11678,
    "Ġapr": 12537,
    "]]": 5205,
    "ook": 21006,
    "Ġsavann": 14686,
    "âĢĿâĢĶ": 5721,
    "obliv": 23100,
    "Ġacting": 10993,
    "poise": 6173,
    "Ġmolasses": 25629,
    "additional": 20467,
    "ught": 2748,
    "speed": 19412,
    "Ġreflected": 2907,
    "Ġpasses": 2677,
    "gabriel": 15364,
    "Ġstarted": 4151,
    "false": 15358,
    "caterpillar": 26385,
    "Ġexpectantly": 23528,
    "romised": 14115,
    "instances": 13323,
    "Ġallured": 14116,
    "arding": 22161,
    "sloop": 26146,
    "key": 5462,
    "followed": 8339,
    "Ġafrica": 12349,
    "through": 4026,
    "Ġranged": 10260,
    "endured": 22229,
    "Ġtiny": 11555,
    "floated": 24644,
    "Ġengaging": 9339,
    "Ġcaptured": 7245,
    "Ġradiance": 13374,
    "Ġforging": 18096,
    "stately": 18024,
    "frisco": 16789,
    "lege": 17843,
    "itig": 1330,
    "Ġdet": 510,
    "'(": 2978,
    "Ġwinchester": 10069,
    "Ġpuzzle": 11307,
    "Ġmixed": 6975,
    "Ġalas": 5923,
    "ause": 1312,
    "Ġstars": 6151,
    "liberal": 26283,
    "daring": 20831,
    "alescence": 15929,
    "rollable": 13948,
    "Ġadvert": 10574,
    "guess": 14764,
    "Ġrecklessness": 24744,
    "Ġcease": 7078,
    "Ġgreenland": 5761,
    "idled": 21772,
    "Ġaudacity": 19884,
    "connect": 1291,
    "ifer": 11688,
    "Ġmake": 1284,
    "Ġcetus": 19887,
    "paid": 15418,
    "Ġseating": 18200,
    "intentions": 22947,
    "characteristic": 24686,
    "Ġsplin": 8622,
    "oriental": 23723,
    "ter": 359,
    "Ġbranch": 8332,
    "oric": 21399,
    "Ġregularizer": 2338,
    "yset": 21148,
    "Ġbuilt": 8300,
    "Ġflinging": 13588,
    "Ġjapanese": 10635,
    "blind": 16704,
    "Ġviolence": 5964,
    "Ġuncontrollable": 25815,
    "doc": 23379,
    "Ġjenkinson": 11433,
    "@": 36,
    "Ġcommon": 1417,
    "Ġtid": 8107,
    "Ġrequisition": 22658,
    "Ġhaste": 9006,
    "Ġbru": 13898,
    "Ġphantom": 8710,
    "conclude": 24071,
    "Ġactually": 5389,
    "according": 12032,
    "Ġmountains": 4426,
    "ees": 13714,
    "Ġvestige": 20066,
    "Ġmexic": 14035,
    "midnight": 14905,
    "Ġcompleted": 9000,
    "Ġdisguise": 10049,
    "oce": 10716,
    "silence": 8045,
    "cart": 10692,
    "Ġstrata": 26028,
    "abashed": 21796,
    "Ġretrieval": 10677,
    "chard": 21690,
    "Ġ": 225,
    "Ġheedless": 14906,
    "Ġoscillations": 2896,
    "exactly": 10639,
    "gale": 13727,
    "Ġnursing": 12219,
    "Ġbended": 21388,
    "besides": 8699,
    "Ġinstruct": 2860,
    "Ġexamination": 8005,
    "Ġbeak": 18082,
    "Ġelizabeth": 1128,
    "as": 302,
    "Ġdair": 17891,
    "Ġpaunch": 23751,
    "Ġtottenham": 24145,
    "Ġcalmer": 23047,
    "repro": 10772,
    "Ġvigorous": 10569,
    "Ġlong": 794,
    "Ġperception": 9753,
    "Ġens": 2784,
    "undant": 14795,
    "satisfy": 16894,
    "mn": 3578,
    "Ġsledge": 8111,
    "iliation": 10862,
    "Ġplains": 14624,
    "Ġwooden": 4731,
    "Ġshin": 18228,
    "Ġinterposed": 20622,
    "Ġsighs": 22712,
    "rule": 15899,
    "Ġamusements": 16915,
    "Ġdeadly": 5405,
    "Ġhimmale": 18330,
    "4": 24,
    "icket": 22671,
    "Ġinsensibly": 20079,
    "jack": 7344,
    "ornamented": 26597,
    "Ġsatisfy": 6912,
    "Ġwindows": 4971,
    "Ġhoisted": 5961,
    "too": 4507,
    "wit": 7817,
    "Ġstrategy": 2306,
    "Ġhovered": 12637,
    "Ġduties": 6611,
    "berg": 11868,
    "Ĉ": 201,
    "Ġstrang": 4162,
    "post": 6063,
    "Ġ33": 16678,
    "meas": 7434,
    "Ġsickened": 16777,
    "Ġincapable": 7423,
    "asse": 15650,
    "Ġimprovements": 14521,
    "visible": 10536,
    "Ġdaring": 8121,
    "ryder": 18645,
    "century": 20050,
    "Ġconvention": 25547,
    "Ġblasphemy": 26116,
    "cadence": 26126,
    "Ġnarwhales": 24903,
    "Ġjewel": 9945,
    "Ġchival": 14185,
    "sus": 6230,
    "Ġangrily": 9410,
    "Ġturing": 7566,
    "Ġoffices": 14340,
    "Ġarrives": 23609,
    "Ġsunken": 14495,
    "Ġseveral": 2671,
    "elling": 5831,
    "Ġfollow": 1397,
    "older": 15761,
    "Ġblotting": 25314,
    "espe": 3501,
    "Ġnose": 4402,
    "snapping": 24850,
    "tan": 4743,
    "Ġwaistcoat": 12275,
    "Ġhonest": 7287,
    "Ġdistant": 5387,
    "Ġbell": 4636,
    "bank": 10082,
    "irmed": 9242,
    "ividually": 22084,
    "cheerfulness": 20183,
    "Ġassociate": 13453,
    "Ġwinged": 16997,
    "Ġmeadows": 11424,
    "Ġpainting": 13144,
    "activation": 3232,
    "Ġimpropriety": 17399,
    "Ġjoint": 12038,
    "Ġpersuas": 23950,
    "Ġgloom": 4202,
    "forbid": 14356,
    "Ġdevoted": 6575,
    "treacle": 25151,
    "least": 8789,
    "Ġsatisf": 2803,
    "Ġbedroom": 7277,
    "Ġtang": 13817,
    "crowded": 20193,
    "Ġselfish": 7272,
    "ony": 3027,
    "Ġenhancement": 23719,
    "regulated": 23469,
    "Ġmorocc": 22982,
    "Ġsickening": 19607,
    "Ġdirected": 5579,
    "'": 11,
    "Ġcontrived": 10306,
    "Ġstaggered": 9542,
    "Ġquakers": 22420,
    "ornament": 23490,
    "roofed": 26185,
    "Ġascertained": 25297,
    "barrow": 15324,
    "Ġentranced": 25835,
    "omb": 10208,
    "Ġextravagant": 17281,
    "Ġcruising": 6913,
    "Ġspoon": 22138,
    "Ġscraps": 16904,
    "Ġdifferences": 18715,
    "Ġsurrounded": 5880,
    "Ġspurn": 18310,
    "rid": 5137,
    "Ġpenny": 16319,
    "ments": 1401,
    "Ġnuts": 17954,
    "gone": 6505,
    "Ġchristianity": 19863,
    "Ġneighb": 14077,
    "ons": 709,
    "shadows": 25480,
    "Ġrise": 5637,
    "sub": 4661,
    "Ġberyl": 20493,
    "solid": 16382,
    "Ġyarns": 15199,
    "Ġbolted": 12249,
    "Ġhear": 1963,
    "scornful": 26577,
    "eur": 7545,
    "preced": 10312,
    "Ġchildhood": 13141,
    "vig": 15450,
    "Ġaggregated": 25679,
    "Ġanonym": 17899,
    "Ġskulls": 12964,
    "eches": 8078,
    "ingu": 2120,
    "Ġcruelly": 13378,
    "Ġweld": 8112,
    "game": 11493,
    "Ġjealously": 24127,
    "Ġsurmis": 23465,
    "vitality": 20482,
    "Ġident": 2241,
    "Ġdriving": 3619,
    "feeling": 6619,
    "borrowed": 20794,
    "merely": 16139,
    "Ġamong": 1666,
    "Ġcaval": 25770,
    "Ġbusied": 19066,
    "Ġresidence": 8207,
    "alled": 5912,
    "Ġissued": 10602,
    "Ġalternate": 19989,
    "ilight": 12699,
    "Ġund": 4121,
    "oquent": 12504,
    "Ġgiant": 13971,
    "Ġfrost": 6097,
    "Ġcaresses": 26060,
    "Ġshrunk": 16720,
    "Ġkidn": 20208,
    "rigible": 24932,
    "ulatory": 15773,
    "irection": 2387,
    "Ġproced": 2576,
    "subjects": 19878,
    "Ġstaff": 14009,
    "smoking": 23914,
    "Ġshyness": 20309,
    "Ġmemory": 2277,
    "Ġpresume": 8038,
    "deficient": 23122,
    "Ġwouldn": 6047,
    "Ġestate": 6318,
    "Ġrepeating": 11215,
    "Ġshift": 2283,
    "Ġbigness": 19763,
    "istical": 8492,
    "Ġrequire": 910,
    "Ġstanzas": 21748,
    "Ġemployer": 19435,
    "Ġstared": 8456,
    "whatever": 6696,
    "dare": 12458,
    "Ġhatty": 19267,
    "Ġberg": 24536,
    "Ġshoal": 12020,
    "Ġsteak": 9832,
    "Ġoccurring": 2789,
    "Ġrested": 9382,
    "Ġexclamation": 8702,
    "ication": 987,
    "Ġbland": 11066,
    "Ġcrucifix": 26080,
    "Ġmanufactured": 22334,
    "Ġvishnoo": 12759,
    "Ġfashion": 4298,
    "Ġbought": 8417,
    "Ġhath": 12634,
    "Ġhedgehog": 10647,
    "Ġemployment": 8632,
    "Ġobligations": 12097,
    "Ġlip": 6534,
    "murderers": 25728,
    "Ġvibrating": 13540,
    "Ġenormousness": 24515,
    "Ġfrocks": 23926,
    "sided": 17666,
    "Ġextremities": 19198,
    "Ġfloor": 4378,
    "utted": 15666,
    "Ġdestination": 19151,
    "Ġranges": 2880,
    "Ġacc": 568,
    "Ġcandour": 14675,
    "Ġhazard": 20435,
    "Ġlegal": 10441,
    "Ġfaultless": 24540,
    "Ġwrath": 16322,
    "asted": 4650,
    "does": 6196,
    "87": 20759,
    "Ġenergetic": 15201,
    "provid": 11151,
    "reading": 12084,
    "Ġvalley": 5852,
    "unfearing": 21896,
    "absolutely": 10648,
    "Ġawful": 6201,
    "Ġsizes": 1522,
    "Ġtwisting": 18659,
    "Ġporpoises": 13385,
    "animation": 16981,
    "Ġcomm": 838,
    "Ġupset": 22157,
    "inqu": 6123,
    "lections": 4753,
    "chan": 1167,
    "oriously": 17876,
    "Ġdelicacy": 6342,
    "ales": 3316,
    "Ġcompl": 3760,
    "ittered": 18440,
    "apse": 14201,
    "ignorance": 17164,
    "Ġsubmission": 22794,
    "Ġdisconsolate": 20721,
    "orously": 8420,
    "Ġseries": 7061,
    "Ġoftentimes": 20158,
    "Ġborder": 10172,
    "Ġelementary": 24811,
    "Ġshoes": 7073,
    "Ġuse": 833,
    "Ġraising": 8913,
    "considering": 12179,
    "Ġjamming": 17267,
    "carried": 16713,
    "Ġlocker": 16913,
    "fts": 18697,
    "cceed": 4144,
    "headers": 23114,
    "emberley": 4172,
    "new": 1468,
    "bitt": 17488,
    "inions": 8403,
    "Ġuncomfortable": 8488,
    "Ġcontinued": 2920,
    "Ġwishing": 7830,
    "but": 591,
    "Ġfishery": 4176,
    "seek": 8841,
    "eringly": 23006,
    "Ġforeb": 12008,
    "ince": 4339,
    "ll": 1137,
    "Ġfulfil": 9554,
    "loath": 22513,
    "Ġjeopardized": 20233,
    "elag": 12664,
    "Ġfling": 9663,
    "Ġlime": 13951,
    "Ġdisliked": 12897,
    "fulfil": 16046,
    "Ġcauldron": 25442,
    "farintosh": 24553,
    "escape": 16017,
    "higher": 20410,
    "Ġprank": 23220,
    "uncle": 8159,
    "ari": 671,
    "secondly": 16986,
    "Ġroaring": 10970,
    "Ġdisd": 7032,
    "Ġfet": 5808,
    "Ġmacro": 25940,
    "Ġchronicled": 25329,
    "entiating": 3440,
    "Ġscream": 5936,
    "pronounced": 12350,
    "Ġmustard": 12936,
    "Ġ1890": 23900,
    "Ġgoes": 3855,
    "dra": 3415,
    "Ġhappy": 2463,
    "Ġeighty": 19479,
    "ĠâĢľâĢĺ_": 25114,
    "Ġjoyous": 14666,
    "oars": 9617,
    "previous": 9764,
    "Ġestab": 6317,
    "Ġflamingo": 15104,
    "Ġwalking": 4324,
    "Ġeyeing": 6461,
    "Ġsweating": 16465,
    "Ġwhale": 627,
    "Ġtongs": 9964,
    "Ġdesigned": 7741,
    "houses": 9602,
    "Ġparad": 2839,
    "Ġbrutality": 26278,
    "decor": 23783,
    "Ġincline": 18571,
    "Ġrevealed": 6753,
    "kshire": 13749,
    "wound": 21129,
    "Ġall": 421,
    "Ġsuns": 23276,
    "immediate": 20097,
    "Ġlatter": 3992,
    "nuts": 15402,
    "perv": 1610,
    "Ġanswered": 2848,
    "Ġsuffer": 4723,
    "hastening": 24448,
    "Ġexcitement": 9384,
    "met": 6655,
    "Ġpop": 5151,
    "worthy": 7733,
    "Ġjoll": 11769,
    "Ġmut": 3584,
    "Ġmurderous": 8316,
    "Ġwer": 12557,
    "keys": 15863,
    "farmer": 25900,
    "Ġscholar": 26112,
    "invite": 25091,
    "raint": 18317,
    "ivities": 22081,
    "reduc": 5459,
    "Ġtreble": 16506,
    "complained": 25840,
    "Ġrag": 18636,
    "Ġpumping": 25644,
    "Ġfinishing": 23129,
    "Ġunholy": 26220,
    "Ġunappe": 22022,
    "wn": 720,
    "Ġtaught": 6804,
    "script": 11079,
    "iers": 5992,
    "Ġprehens": 22235,
    "resistible": 10646,
    "Ġintellectual": 11403,
    "preference": 22471,
    "Ġimprove": 1890,
    "Ġcoincid": 20320,
    "zes": 11551,
    "counter": 20281,
    "ivial": 15864,
    "ror": 7351,
    "picture": 11409,
    "Ġprettier": 23768,
    "Ġglobular": 19011,
    "Ġbidden": 24647,
    "Ġfruits": 17121,
    "pot": 10120,
    "Ġhypothe": 4076,
    "Ġprosecution": 12385,
    "Ġmule": 13865,
    "Ġtack": 5621,
    "etween": 776,
    "Ġrot": 10969,
    "Ġgrotesque": 26331,
    "Ġcontrad": 9758,
    "Ġunseasonable": 26522,
    "Ġprim": 8244,
    "Ġassurance": 7775,
    "abst": 21792,
    "Ġthroughout": 8880,
    "still": 4219,
    "Ġimplies": 24874,
    "Ġbillows": 7502,
    "Ġprairie": 8716,
    "Ġslaves": 23172,
    "assemblies": 25957,
    "Ġmentioning": 9901,
    "Ġduck": 8798,
    "nx": 17609,
    "gratitude": 16818,
    "Ġgomorrah": 21618,
    "Ġsherlock": 3897,
    "Ġcalling": 5662,
    "grateful": 10430,
    "mble": 1410,
    "estone": 18365,
    "portent": 25413,
    "Ġsharpened": 17368,
    "Ġportcullis": 26605,
    "Ġunprofitable": 18271,
    "Ġagainst": 1697,
    "18": 20753,
    "ksome": 10107,
    "Ġconfirms": 23311,
    "intment": 4721,
    "Ġplan": 3885,
    "Ġcircumnavigation": 20403,
    "Ġthreats": 13380,
    "ittance": 12852,
    "Ġhundred": 2692,
    "raved": 18015,
    "Ġbr": 1073,
    "threatened": 25463,
    "Ġsc": 527,
    "Ġhun": 1496,
    "Ġrecovered": 5481,
    "smoke": 17225,
    "desper": 13222,
    "Ġpebbles": 16134,
    "Ġslacked": 25189,
    "Ġstreat": 15726,
    "Ġsighed": 10340,
    "Ġemploy": 3617,
    "Ġbewil": 11660,
    "Ġswan": 23054,
    "ermaid": 14301,
    "Ġ38": 24082,
    "Ġpist": 12621,
    "Ġunsafe": 22045,
    "Ġadro": 15872,
    "Ġmace": 21312,
    "Ġgrammar": 1064,
    "Ġadoption": 24951,
    "Ġnewcomer": 26041,
    "Ġaveraging": 2417,
    "Ġsatisfactory": 11194,
    "Ġtime": 690,
    "Ġsubdivisions": 26038,
    "Ġlists": 11168,
    "garity": 17556,
    "Ġdocuments": 10026,
    "Ġpounds": 5368,
    "final": 19679,
    "bu": 5132,
    "Ġted": 13815,
    "o": 83,
    "Ġhalting": 16278,
    "Ġmonsieur": 12425,
    "Ġburning": 5978,
    "Ġsphy": 18312,
    "civilized": 17076,
    "Ġclimates": 25053,
    "Ġincant": 18570,
    "Ġmira": 8408,
    "Ġadmon": 15873,
    "Ġbuoy": 8004,
    "Ġpell": 21458,
    "Ġdared": 5440,
    "beat": 10988,
    "observation": 17272,
    "Ġstrove": 9960,
    "splinter": 25211,
    "Ġfirmest": 16667,
    "Ġdefray": 22949,
    "haw": 6363,
    "Ġigniting": 25073,
    "athy": 14326,
    "Ġding": 12605,
    "gravel": 22623,
    "Ġell": 17717,
    "cousin": 10655,
    "Ġgrievous": 13265,
    "Ġheaded": 11056,
    "Ġromans": 16761,
    "Ġrepe": 3280,
    "Ġevanesc": 24296,
    "deed": 1520,
    "Ġdiscount": 22785,
    "Ġrad": 4961,
    "Ġagricultural": 26552,
    "Ġavail": 11228,
    "Ġannotations": 25955,
    "prodig": 16431,
    "Ġloom": 7629,
    "Ġinsular": 19270,
    "Ġfearing": 12821,
    "Ġretirement": 25379,
    "depend": 9115,
    "Ġexposure": 16101,
    "Ġinit": 816,
    "Ġbleak": 10561,
    "Ġcable": 11583,
    "ugal": 19021,
    "Ġhandsomer": 20336,
    "Ġdegener": 14053,
    "arter": 17895,
    "Ġemblematical": 25789,
    "Ġproportions": 16470,
    "method": 17287,
    "originally": 24940,
    "Ġcats": 8982,
    "Ġthreatened": 8330,
    "Ġwicked": 5962,
    "Ġtease": 18807,
    "unhesitatingly": 26498,
    "Ġbeings": 2489,
    "Ġdrug": 11412,
    "tain": 558,
    "endous": 6850,
    "dripping": 16907,
    "Ġgothic": 18002,
    "fishery": 10035,
    "reputable": 15521,
    "northern": 23669,
    "Ġintegrity": 12317,
    "utterly": 20015,
    "Ġreven": 18031,
    "recognised": 15266,
    "Ġbordeaux": 24565,
    "overcoat": 19051,
    "pour": 17632,
    "Ġstood": 2548,
    "iners": 4937,
    "endent": 15924,
    "Ġlads": 8600,
    "Ġdisordered": 16060,
    "D": 40,
    "sal": 8761,
    "Ġlod": 4045,
    "stopping": 19353,
    "derick": 22171,
    "hear": 10149,
    "cules": 12395,
    "Ġpreservative": 24630,
    "stalk": 21653,
    "Ġtaurus": 21181,
    "Ġindoors": 18845,
    "Ġdeliciousness": 24129,
    "Ġflashing": 13033,
    "ospel": 17012,
    "craft": 12251,
    "Ġmaddened": 17246,
    "Ġadvertised": 17250,
    "hoisting": 23718,
    "Ġbour": 4877,
    "angry": 18290,
    "Ġpurses": 23478,
    "Ġthirst": 7590,
    "Ġfairy": 14629,
    "Ġsir": 1570,
    "hecy": 21209,
    "isa": 17847,
    "Ġdepartment": 24244,
    "Ġpatriot": 23326,
    "cast": 2926,
    "Ġaspired": 25985,
    "ulence": 15771,
    "Ġfuture": 1057,
    "crane": 24089,
    "try": 7812,
    "disp": 7977,
    "acific": 4960,
    "Ġjib": 14196,
    "Ġencoding": 4775,
    "rious": 11692,
    "Ġvelvets": 25394,
    "Ġmort": 3461,
    "Ġdenny": 9004,
    "app": 1040,
    "unted": 6999,
    "Ġmisanthrop": 22762,
    "breat": 10081,
    "Ġunwarrantable": 26346,
    "Ġabstraction": 26542,
    "Ġ92": 24591,
    "Ġobserving": 6081,
    "Ġenthus": 7232,
    "christian": 17235,
    "rie": 2783,
    "dead": 8180,
    "Ġmurmur": 14591,
    "unctions": 18158,
    "Ġsaleve": 17394,
    "Ġdisguises": 25058,
    "Ġformerly": 7493,
    "Ġstudents": 23227,
    "Ġincommod": 25308,
    "accomplishments": 25327,
    "accounted": 16504,
    "Ġpicturesqueness": 24480,
    "Ġcurric": 22938,
    "inition": 11559,
    "Ã": 132,
    "Ġsummer": 4791,
    "igger": 21703,
    "Ġexter": 7397,
    "render": 10293,
    "Ġresulting": 24201,
    "Ġri": 3395,
    "Ġgans": 5822,
    "Ġlanguages": 1569,
    "Ġreport": 6193,
    "mo": 864,
    "Ġklux": 22199,
    "saw": 5895,
    "Ġinsane": 19271,
    "Ġmajesty": 5201,
    "Ġdissol": 18552,
    "attending": 18918,
    "brain": 13691,
    "Ġpermanently": 25474,
    "shop": 14239,
    "Ġprinces": 23224,
    "Ġtreating": 4284,
    "ameter": 2903,
    "Ġdanes": 25160,
    "Ġdissuade": 26258,
    "Ġforged": 12710,
    "adem": 21761,
    "Ġdegenerating": 25800,
    "Ġtongues": 14866,
    "Ġtender": 5753,
    "Ġdesmarest": 22984,
    "Ġgenerate": 1556,
    "Ġthrusts": 24350,
    "Ġbrotherly": 16531,
    "Ġmixture": 9565,
    "Ġsaluted": 14761,
    "Ģ": 227,
    "departed": 24793,
    "Ġpreliminaries": 25177,
    "cely": 3576,
    "Ġancient": 5443,
    "am": 367,
    "cu": 10086,
    "ectual": 21919,
    "Ġrestoration": 19026,
    "Ġsquee": 7929,
    "Ġfervent": 14899,
    "Ġilluminating": 25246,
    "Ġobjects": 5578,
    "Į": 239,
    "ren": 549,
    "Ġnights": 7258,
    "Ġluc": 3310,
    "horrors": 20544,
    "uteronomy": 15669,
    "darkness": 9515,
    "Ġcalmly": 7734,
    "illity": 18297,
    "Ġthem": 640,
    "Ġassociates": 24711,
    "Ġembell": 14414,
    "Ġreeds": 15701,
    "Ġagitated": 7648,
    "y": 93,
    "cific": 10088,
    "pointing": 12229,
    "ifies": 6688,
    "Ġfullest": 14817,
    "birth": 15325,
    "Ġbestowed": 6595,
    "awe": 20767,
    "Ġsensitivity": 3068,
    "Ġbusiness": 2233,
    "Ġrome": 12160,
    "probably": 10023,
    "Ġsiber": 17757,
    "âĢĶâĢĶâĢĿ": 15944,
    "Ġlondon": 2836,
    "Ġprobability": 1125,
    "violently": 23545,
    "Ġslavish": 23176,
    "Ġunearthly": 9039,
    "father": 3779,
    "Ġbenefited": 19401,
    "revolver": 25628,
    "Ġlot": 6680,
    "mil": 13755,
    "Ġyork": 11668,
    "Ġupbraid": 18319,
    "uten": 11625,
    "Ġpirates": 9076,
    "Ġdepressions": 25799,
    "inea": 7623,
    "Ġnaked": 8127,
    "Ġruins": 16163,
    "Ġendeavour": 4679,
    "writ": 16555,
    "Ġsilken": 16383,
    "Ġoutdone": 22322,
    "Ġgradient": 451,
    "Ġintercepted": 25828,
    "sway": 15429,
    "Ġinev": 10184,
    "Ġalps": 10872,
    "plings": 11701,
    "nnight": 20995,
    "Ġenglishmen": 19433,
    "Ġcorn": 9353,
    "storm": 9685,
    "Ġlug": 15657,
    "arity": 1300,
    "Ġstain": 18067,
    "Ġbrightest": 13229,
    "Ġconceits": 19393,
    "Ġsunny": 13089,
    "Ġpoky": 21481,
    "Ġtravelled": 7772,
    "Ġregularity": 22784,
    "avers": 17483,
    "Ġtorn": 6001,
    "oles": 21007,
    "Ġnar": 7375,
    "nor": 2739,
    "consent": 18504,
    "evidence": 25522,
    "Ġblossom": 26313,
    "arers": 12134,
    "Ġtwinkled": 14315,
    "Ġwoof": 14724,
    "mechan": 11861,
    "Ġunconditional": 15850,
    "Ġexhibition": 14960,
    "Ġvastly": 23863,
    "Ġentity": 10345,
    "Ġhed": 7387,
    "Ġ1": 1013,
    "fen": 20852,
    "Ġconstit": 8587,
    "Ġshipw": 12982,
    "Ġgrievances": 20650,
    "Ġfaire": 13368,
    "Ġprognostics": 20561,
    "Ġblending": 14403,
    "Ġrogue": 22409,
    "hog": 8380,
    "Ġslackened": 15130,
    "Ġtrapped": 23079,
    "Ġphysi": 9991,
    "Ġpartial": 2129,
    "aintance": 3571,
    "halloa": 17091,
    "Ġimaginations": 16520,
    "Ġcorridor": 10674,
    "hend": 13257,
    "presume": 25671,
    "gin": 4931,
    "alarmed": 21506,
    "Ġvial": 10251,
    "Ġlaw": 3657,
    "Ġmethodically": 23110,
    "believing": 19465,
    "gi": 17553,
    "Ġmoved": 4841,
    "Ġdisagreeable": 9301,
    "shark": 14240,
    "ased": 1266,
    "surrounded": 26089,
    "Ġfilthy": 13253,
    "diff": 9116,
    "Ġlikeness": 11181,
    "Ġnon": 1625,
    "bular": 15317,
    "Ġlandau": 16424,
    "Ġcapacious": 19178,
    "Ġprivile": 8649,
    "planted": 11702,
    "Ġpenetration": 19919,
    "Â£": 4813,
    "justified": 19004,
    "Ġxl": 11994,
    "Ġhog": 13927,
    "Ġburden": 8611,
    "Ġmic": 17799,
    "Ġyarn": 10870,
    "âĢĶâĢĺ": 7015,
    "fig": 8738,
    "uther": 8821,
    "dish": 12457,
    "Ġconceive": 8463,
    "Ġstudious": 23226,
    "Ġappre": 5165,
    "Ġaven": 10761,
    "ume": 4837,
    "Ġtight": 8108,
    "Ġinstructed": 19287,
    "Ġalgorithms": 855,
    "Ġawed": 23587,
    "smo": 10128,
    "Ġumb": 11649,
    "Ġyore": 21782,
    "izers": 18137,
    "Ġgrove": 12151,
    "Ġhandle": 3137,
    "Ġshouldn": 14328,
    "presbyter": 20621,
    "Ġdegrad": 2585,
    "Ġpolite": 9885,
    "Ġpanic": 11288,
    "Ġgreas": 17994,
    "Ġbreaches": 14523,
    "matter": 5136,
    "Ġposture": 24167,
    "urously": 18052,
    "icial": 12661,
    "ex": 624,
    "Ġapplies": 11962,
    "gaffman": 26392,
    "Ġministers": 22834,
    "Ġburst": 4380,
    "Ġsemantics": 2892,
    "Ġcalls": 6746,
    "Ġelephants": 9867,
    "Ġuniversity": 13125,
    "giv": 13725,
    "Ġoblong": 14324,
    "Ġperceived": 4715,
    "veral": 2352,
    "Ġstanding": 2997,
    "._]]": 5335,
    "Ġabominate": 20071,
    "Ġhitherto": 5881,
    "Ġmam": 8406,
    "Ġcared": 8787,
    "determine": 19947,
    "Ġminimax": 5860,
    "Ġconsist": 1930,
    "orte": 14188,
    "portuguese": 25414,
    "d": 72,
    "¥": 103,
    "okingly": 22385,
    "Ġpeaks": 16133,
    "kick": 20938,
    "Ġfootfall": 14663,
    "Ġviv": 6158,
    "Ġunmindful": 22070,
    "Ġdeploy": 3131,
    "Ġblotted": 20220,
    "Ġentreat": 4509,
    "precaution": 23826,
    "Ġbennets": 9809,
    "Ġjinglers": 26019,
    "touched": 15443,
    "rench": 3970,
    "orified": 21405,
    "Ġtheories": 13852,
    "Ġzeal": 9101,
    "burning": 25081,
    "Ġreside": 22543,
    "ail": 566,
    "ves": 696,
    "Ġsulkily": 25882,
    "onet": 12550,
    "Ġcarrying": 6073,
    "spirit": 11315,
    "pick": 17636,
    "rative": 17654,
    "ante": 11725,
    "fab": 13719,
    "Ġvillains": 14752,
    "best": 6113,
    "Ġunderstanding": 1836,
    "dition": 15342,
    "Ġmiserable": 3637,
    "iver": 2047,
    "Ġproducts": 5198,
    "Ġrecover": 9794,
    "Ġcrimin": 6901,
    "Ġsplendour": 20227,
    "ges": 2870,
    "Ġhaughty": 11451,
    "Ġcheered": 16373,
    "uction": 15447,
    "reeling": 21247,
    "94": 4804,
    "Ġcorroborated": 26054,
    "Ġscre": 9739,
    "Ġscope": 15948,
    "!âĢĻâĢĿ": 16594,
    "police": 10586,
    "Ġingenious": 12352,
    "Ġtechniques": 2863,
    "Ġmaketh": 15191,
    "luyt": 18455,
    "Ġdo": 512,
    "silent": 9977,
    "Ġfrancisco": 26065,
    "Ġstrengthen": 20703,
    "Ġmadness": 6603,
    "Ġinquire": 7720,
    "Ġtransports": 24280,
    "queer": 10366,
    "pursued": 17284,
    "Ġmistress": 8615,
    "monsters": 19173,
    "Ġterrified": 14674,
    "rarely": 21637,
    "Ġstretched": 5921,
    "ribes": 23369,
    "Ġhope": 1789,
    "Ġexplanatory": 22206,
    "Ġwonder": 2118,
    "ik": 17573,
    "length": 7136,
    "Ġapproximate": 2341,
    "surface": 10533,
    "arling": 10816,
    "consequence": 9766,
    "ella": 12754,
    "Ġnantucketer": 6914,
    "Ġlouder": 13471,
    "Ġwhile": 607,
    "surprised": 9534,
    "Ġjiff": 22300,
    "embra": 14079,
    "Ġalliance": 18236,
    "Ġvagu": 13592,
    "Ġrelieved": 7666,
    "Ġmoreover": 6165,
    "drop": 15340,
    "Ġdiffused": 12073,
    "mm": 673,
    "Ġwhaling": 2779,
    "comprehend": 14366,
    "Ġbackbone": 22663,
    "Ġcent": 3254,
    "Ġadmire": 5264,
    "Ġmoney": 3419,
    "Ġaugment": 8695,
    "Ġtype": 2016,
    "Ġgallantry": 15107,
    "instinct": 19546,
    "orative": 21401,
    "Ġdistension": 22509,
    "concluding": 19484,
    "studied": 17152,
    "Ġlinked": 15081,
    "Ġincred": 5646,
    "Ġcapable": 5054,
    "ney": 2492,
    "Ġsatire": 22903,
    "Ġbut": 423,
    "ald": 15630,
    "exc": 5169,
    "Ġcheek": 8581,
    "Ġrun": 2353,
    "Ġmultitudinous": 26275,
    "Ġallusions": 10908,
    "Ġcompunction": 18586,
    "joint": 24013,
    "ploy": 2141,
    "Ġphrenologists": 25609,
    "Ġreplied": 2265,
    "Ġfrankness": 16748,
    "remediable": 26296,
    "Ġvenge": 5420,
    "Ġbewit": 15733,
    "Ġlumber": 13955,
    "Ġmartyr": 26362,
    "france": 24284,
    "Ġtimidly": 11340,
    "!_âĢĶ": 19976,
    "ors": 856,
    "ded": 2754,
    "Ġdawned": 14997,
    "Ġelixir": 26557,
    "led": 580,
    "Ġdistrusting": 25056,
    "Ġdiscovers": 4427,
    "linging": 16084,
    "Ġph": 1548,
    "transformer": 25018,
    "Ġgreen": 3052,
    "Ġtwin": 12934,
    "Ġprofess": 3700,
    "proud": 9907,
    "unimportant": 18162,
    "arth": 4442,
    "Ġshouting": 10525,
    "erately": 21276,
    "arnel": 18127,
    "Ġfemale": 8345,
    "Ġpear": 11856,
    "Ġforfeit": 21779,
    "elop": 1536,
    "Ġcomplacency": 19451,
    "Ġtechnically": 12370,
    "Ġmerc": 9429,
    "Ġlongitude": 11013,
    "Ġaffliction": 25846,
    "Ġantiquity": 15234,
    "rell": 11566,
    "act": 787,
    "tempted": 26405,
    "Ġenthusiasm": 8065,
    "reeable": 3614,
    "Ġforbade": 15218,
    "Ġfabric": 25948,
    "stating": 21650,
    "Ġbachelors": 24861,
    "Ġhorror": 3774,
    "con": 654,
    "Ġsituation": 4074,
    ",âĢĶ": 3171,
    "Ġimpressive": 15001,
    "ientious": 11695,
    "Ġdot": 4822,
    "Ġwedge": 24935,
    "Ġcanted": 17833,
    "resolved": 9642,
    "alley": 23025,
    "ote": 4597,
    "Ġtend": 6122,
    "Ġarctic": 12818,
    "Ġthr": 5709,
    "ckinridge": 11723,
    "Ġmurderer": 4980,
    "Ġagric": 22519,
    "Ġsurpr": 2547,
    "Ġgranite": 22811,
    "Ġbald": 16210,
    "Ġhumour": 7932,
    "Ġmel": 4818,
    "impatiently": 20474,
    "aggra": 21910,
    "Ġconsisted": 10421,
    "Ġconn": 9232,
    "Ġlistless": 16478,
    "Ġchambermaid": 24306,
    "Ġicy": 10749,
    "Ġwhiting": 10861,
    "Ġaffl": 14389,
    "Ġxxx": 7767,
    "Ġjerk": 16952,
    "Ġadvanced": 1530,
    "Ġfreshets": 25705,
    "pigs": 17143,
    "Ġrough": 7187,
    "Ġaccelerating": 1618,
    "Ġex": 361,
    "Ġsound": 2243,
    "Ġdrawback": 23993,
    "Ġremembrance": 8318,
    "larger": 24205,
    "Ġafforded": 8029,
    "Ġhither": 4760,
    "Ġregular": 941,
    "Ġsentinel": 26066,
    "Ġplays": 12042,
    "Ġpoliceman": 15262,
    "Ġconcentrate": 25066,
    "Ġcountries": 13100,
    "Ġbeau": 9227,
    "Ġworkman": 16268,
    "Ġstud": 1607,
    "vi": 2373,
    "Ġperfect": 2553,
    "affect": 13215,
    "cabin": 8363,
    "Ġancest": 12620,
    "Ġidler": 16408,
    "Ġsalvation": 14760,
    "thank": 4950,
    "Ġtemple": 7654,
    "draught": 12095,
    "Ġpurest": 14942,
    "Ġvibrated": 25048,
    "stonecraft": 24356,
    "tery": 14040,
    "Ġarist": 14164,
    "Ġkeener": 22916,
    "Ġhears": 8139,
    "ingly": 2136,
    "Ġapril": 13665,
    "Ġstoner": 7179,
    "Ġgene": 15677,
    "altering": 12646,
    "Ġunallied": 22036,
    "riety": 12749,
    "Ġderivatives": 2369,
    "tranqu": 14709,
    "Ġuttering": 16464,
    "Ġsinusoidal": 4802,
    "Ġmax": 2003,
    "Ġhues": 21492,
    "flowing": 14564,
    "Ġmovements": 24359,
    "Ġhansom": 13668,
    "Ġfoliage": 18869,
    "nine": 13764,
    "Ġreally": 2160,
    "ibility": 2389,
    "Ġcle": 1510,
    "atement": 17775,
    "Ġshort": 2226,
    "etuous": 21586,
    "book": 4671,
    "asked": 8915,
    "wat": 6233,
    "Ġbackwater": 18651,
    "Ġrecumbent": 22738,
    "completed": 19997,
    "use": 2533,
    "Ġnotions": 14102,
    "Ġmisfortune": 5569,
    "venor": 16102,
    "Ġclank": 15972,
    "indirect": 22376,
    "Ġsluggish": 25891,
    "Ġgard": 2190,
    "Ġcommanded": 6332,
    "Ġlargely": 14288,
    "Ġfuriously": 9805,
    "ized": 1529,
    "Ġrecovering": 11865,
    "Ġreplacing": 3451,
    "Ġreckoning": 14982,
    "Ġindelicacy": 25696,
    "shall": 4550,
    "Ġbills": 17862,
    "ently": 1615,
    "looks": 12022,
    "strang": 11185,
    "Ġfierce": 7437,
    "Ġsteel": 3893,
    "head": 1440,
    "Ġroll": 5381,
    "Ġencounters": 19583,
    "Ġambitious": 18515,
    "Ġanguish": 5583,
    "sleepy": 24728,
    "Ġwashington": 17205,
    "bott": 9109,
    "recurring": 24197,
    "Ġaddressed": 5263,
    "because": 4924,
    "lik": 3919,
    "bacc": 7795,
    "Ġcrushing": 20179,
    "Ġcontradictory": 20400,
    "Ġsecluded": 11997,
    "xible": 13811,
    "Ġimperial": 9484,
    "wards": 1274,
    "Ġbuying": 23999,
    "Ġcivilised": 24247,
    "Č": 205,
    "attered": 4021,
    "wherever": 13122,
    "Ġlack": 17966,
    "ript": 4154,
    "Ġcurled": 8225,
    "insensibility": 23072,
    "Ġthoughtlessness": 16197,
    "hills": 13739,
    "Ġguido": 2976,
    "Ġheavier": 13105,
    "ver": 331,
    "Ġcompanions": 5867,
    "Ġchaos": 17011,
    "Ġsublimity": 26348,
    "Ġearl": 7676,
    "Ġcheerfully": 12139,
    "Ġhip": 17923,
    "Ġappearances": 10453,
    "Ġbarnacled": 25537,
    "Ġintervene": 25481,
    "Ġstilly": 25974,
    "Ġpre": 507,
    "tern": 4224,
    "Ġcorrect": 2430,
    "Ġlosing": 10918,
    "forgotten": 12420,
    "Ġworsh": 13004,
    "Ġn": 300,
    "thy": 2932,
    "Ġacknowledged": 7534,
    "Ġemblazonings": 26044,
    "Ġtaffrail": 15480,
    "isome": 17850,
    "Ġkings": 7197,
    "Ġsneeze": 24698,
    "breakfast": 8691,
    "Ġvigil": 9510,
    "Ġendwise": 23140,
    "Ġshuddered": 11302,
    "Ġtattered": 21174,
    "sent": 761,
    "Ġcounteracted": 19864,
    "Ġsuccession": 12106,
    "got": 6955,
    "Ġnur": 5710,
    "ear": 8734,
    "desp": 6094,
    "ĠĠĠ": 2115,
    "Ġlullaby": 20591,
    "Ġexc": 1830,
    "devilish": 17083,
    "omination": 21645,
    "icious": 7380,
    "Ġcontempl": 6703,
    "deception": 22149,
    "Ġviolin": 16432,
    "Ġsailor": 3537,
    "appalled": 18761,
    "Ġanyways": 22524,
    "danger": 10092,
    "Ġmitig": 1335,
    "Ġregardless": 19326,
    "che": 3172,
    "Ġcontinental": 19708,
    "Ġcompact": 2262,
    "Ġsuburban": 17349,
    "Ġrecently": 11864,
    "Ġcured": 21350,
    "Ġeh": 6988,
    "screw": 9350,
    "Ġhipp": 21495,
    "Ġsympathising": 24299,
    "sadly": 25527,
    "loose": 11809,
    "Ġgreater": 3035,
    "death": 6263,
    "Ġworldly": 16335,
    "Ġsubtile": 20383,
    "Ġexaggerate": 25650,
    "humoredly": 26326,
    "ental": 7169,
    "Ġbridle": 24682,
    "Ġcondescension": 10621,
    "Ġcaps": 8416,
    "Ġadaptively": 3889,
    "Ġforetold": 23452,
    "Ġdisclosed": 15157,
    "rot": 21535,
    "screwed": 17190,
    "Ġrail": 7224,
    "ible": 1113,
    "commanded": 16990,
    "Ġshepherd": 14155,
    "Ġunass": 14118,
    "ward": 706,
    "Ġmimic": 3143,
    "estations": 22232,
    "Ġfrantically": 23261,
    "they": 1877,
    "oid": 3126,
    "Ġrational": 8482,
    "Ġepaulets": 24906,
    "Ġrationally": 18214,
    "shriek": 20523,
    "mag": 6509,
    "Ġroses": 11790,
    "Ġcont": 620,
    "circumamb": 26088,
    "Ġdescrib": 2716,
    "around": 12614,
    "enterprise": 24995,
    "Ġparticularly": 5056,
    "Ġdru": 8423,
    "Ġhammock": 5768,
    "Ġnetwork": 454,
    "mal": 6795,
    "gg": 1993,
    "Ġparac": 12801,
    "childhood": 16870,
    "Ġmeditating": 20046,
    "Ġascertain": 9709,
    "ig": 322,
    "Ġimprudently": 22394,
    "Ġprayed": 16670,
    "Ġacid": 22685,
    "Ġtist": 21165,
    "Ġsembl": 19059,
    "Ġdimmed": 24270,
    "akness": 14197,
    "Ġbehaves": 23302,
    "pray": 5429,
    "engines": 18930,
    "Ġdelirium": 10407,
    "impressed": 12697,
    "Ġterti": 14540,
    "Ġhunt": 6185,
    "case": 5206,
    "Ġvess": 3295,
    "Ġsneering": 24696,
    "Ġexposed": 8525,
    "usages": 22294,
    "Ġsagaciously": 24730,
    "Ġdepended": 9780,
    "Ġefficiently": 3595,
    "Ġvigilant": 20187,
    "Ġalleg": 14020,
    "culine": 19065,
    "Ġernest": 8720,
    "Ġacceptable": 16746,
    "watching": 16932,
    "Ġpain": 2303,
    "Ġfiendish": 13331,
    "uendoes": 26409,
    "Ġdecide": 9290,
    "zek": 16276,
    "ĠĠĠĠĠĠĠĠĠĠĠĠĠĠĠĠĠĠĠ": 22960,
    "Ġcrimson": 16440,
    "cursed": 23847,
    "Ġripe": 13238,
    "ridden": 24362,
    "mir": 20965,
    "Ġcopied": 20011,
    "Ġsmoky": 22562,
    "Ġsubur": 12961,
    "Ġparts": 4166,
    "lings": 8749,
    "inous": 8776,
    "Ġphenomena": 21486,
    "blu": 12444,
    "Ġoct": 10161,
    "quit": 15767,
    "Ġbackward": 7655,
    "Ġpark": 5465,
    "houn": 20895,
    "Ġhooded": 12410,
    "Ġhereby": 10360,
    "Ġkingdom": 12023,
    "Ġshow": 3403,
    "Ġcrotch": 9966,
    "orient": 2875,
    "ĠâĢĶ": 13814,
    "Ġpublicly": 13326,
    "Ġmonotonous": 13267,
    "Ġlowly": 11123,
    "ó": 180,
    "Ġsubsets": 2344,
    "Ġidentify": 12018,
    "Ġtrifles": 16953,
    "inf": 6234,
    "stalls": 26475,
    "event": 8077,
    "ken": 2798,
    "Ġlain": 17964,
    "Ġdishes": 16055,
    "Ġminutely": 14562,
    "allied": 7410,
    "killed": 15380,
    "sensible": 20055,
    "aud": 8524,
    "cence": 9591,
    "Ġmanual": 14200,
    "Ġmau": 21313,
    "Ġhier": 1893,
    "cater": 20817,
    "Ġannouncement": 14836,
    "Ġthankful": 14741,
    "Ġniagara": 26460,
    "stirring": 20429,
    "Ġescapes": 23509,
    "cad": 17507,
    "eties": 10839,
    "grey": 14915,
    "Ġrepeatedly": 9024,
    "fed": 11490,
    "lessly": 4556,
    "Ġordinary": 6098,
    "Ġlies": 5297,
    "iffe": 21906,
    "Ġdesisted": 22983,
    "Ġvindict": 13608,
    "ker": 5792,
    "Ġarches": 14165,
    "Ġprophe": 13082,
    "Ġboldness": 24428,
    "Ġrecalled": 8540,
    "Ġpleased": 4066,
    "Ġabatement": 22290,
    "Ġmarriage": 3190,
    "Ġsane": 21224,
    "Ġlengthen": 15659,
    "onement": 21259,
    "middle": 11312,
    "anges": 1673,
    "Ġabrupt": 9741,
    "Ġcatching": 9481,
    "Ġblankets": 24612,
    "Ġserved": 8246,
    "Ġ221": 25071,
    "harpooned": 24288,
    "oded": 11672,
    "Ġwh": 328,
    "causes": 20346,
    "imag": 6991,
    "till": 6966,
    "Ġsweet": 3468,
    "Ġausten": 5882,
    "Ġsimilitude": 19212,
    "Ġ119": 24441,
    "Ġmothers": 14542,
    "Ġfads": 21419,
    "Ġovercame": 9749,
    "nlp": 8754,
    "Ġensigns": 23691,
    "Ġenl": 18190,
    "Ġsagittarius": 24731,
    "Ġlin": 10835,
    "Ġlighten": 23262,
    "Ġtarpaul": 17732,
    "maged": 15397,
    "Ġcrony": 23440,
    "Ġmun": 12567,
    "Ġundone": 24120,
    "presents": 18797,
    "grow": 10101,
    "ses": 3025,
    "impotence": 23764,
    "Ġphilosophy": 7105,
    "Ġcorrespond": 6211,
    "Ġuneasy": 8665,
    "Ġswears": 16466,
    "Ġprofessions": 11233,
    "Ġendure": 5957,
    "blocks": 25518,
    "Ġfoam": 6891,
    "Ġreynolds": 10212,
    "Ġbounce": 21396,
    "Ġunaware": 22063,
    "atches": 13849,
    "minded": 9040,
    "pedest": 24823,
    "dum": 17520,
    "Ġweighed": 8714,
    "il": 329,
    "described": 18896,
    "Ġrattling": 11397,
    "Ġslavery": 16312,
    "Ġroyalty": 19739,
    "Ġnight": 1467,
    "Ġsimple": 1620,
    "Ġrand": 1584,
    "ourselves": 9014,
    "ired": 1449,
    "introduced": 15128,
    "ab": 345,
    "Ġbedside": 19125,
    "Ġmantelpiece": 15211,
    "Ġdepartments": 24245,
    "Ġthank": 3795,
    "Ġnervously": 19186,
    "improve": 15717,
    "willing": 6594,
    "Ġimpregnable": 26024,
    "Ġforenoon": 19127,
    "som": 3291,
    "Ġwhichever": 14003,
    "Ġfreckled": 18960,
    "Ġfob": 21412,
    "Ġdelicate": 6481,
    "uary": 11540,
    "Ġnumber": 1978,
    "Ġbridegroom": 10607,
    "stooped": 23825,
    "Ġvillain": 8639,
    "Ġmors": 17803,
    "Ġrocking": 10971,
    "islanders": 25443,
    "Ġfer": 5529,
    "painting": 17047,
    "9": 29,
    "Ġdivers": 9668,
    "personal": 24966,
    "Ġ105": 24413,
    "Ġsouthampton": 24309,
    "ga": 17552,
    "pening": 2829,
    "Ġ120": 16860,
    "Ġchalk": 15938,
    "leisure": 21374,
    "Ġshelves": 15000,
    "Ġquenched": 22421,
    "U": 57,
    "ates": 519,
    "Ġgun": 4703,
    "Ġcomposed": 8895,
    "Ġchemistry": 11462,
    "ning": 949,
    "apsed": 6297,
    "Ġwives": 12560,
    "rossing": 18646,
    "since": 5896,
    "Ġcombining": 22885,
    "irr": 12742,
    "Ġrestraint": 15131,
    "Ġswinging": 7449,
    "Ġbye": 12744,
    "bearings": 25372,
    "Ġshortened": 23484,
    "Ġprecipitate": 19945,
    "Ġexhaled": 19685,
    "Ġshone": 7404,
    "Ġyawning": 12304,
    "Ġtouched": 6002,
    "impud": 23763,
    "Ġcommunicate": 10580,
    "allen": 22200,
    "Ġtheatre": 21281,
    "Ġdeprec": 15763,
    "Ġmultiplicity": 19278,
    "Ġplun": 6283,
    "Ġexperience": 1356,
    "Ġbob": 22639,
    "gracechurch": 24582,
    "ignor": 8964,
    "Ġath": 15806,
    "Ġeast": 5370,
    "Ġrecord": 5317,
    "Ġcadiz": 17328,
    "Ġtapering": 8775,
    "stript": 21660,
    "Ġcheerily": 13311,
    "Ġrevenue": 26196,
    "andam": 10890,
    "Ġacquiesced": 25494,
    "Ġabridged": 26543,
    "ient": 393,
    "¼": 125,
    "Ġlodges": 19503,
    "Ġsatisfied": 4173,
    "Ġcoupled": 16853,
    "Ġlayer": 1009,
    "ague": 3910,
    "so": 890,
    "Ġrobins": 16263,
    "Ġbend": 9173,
    "ssip": 14082,
    "han": 12477,
    "incible": 16500,
    "conjectures": 25181,
    "row": 1069,
    "camp": 15333,
    "impulse": 20647,
    "ishments": 9276,
    "Ġseal": 10257,
    "Ġbrood": 23104,
    "Ġjustly": 11908,
    "Ġunworth": 22040,
    "Ġaperture": 26161,
    "Ġlearnedly": 23389,
    "Ġglim": 9347,
    "Ġdifferen": 936,
    "vere": 4884,
    "Ġkeys": 12001,
    "Ġhide": 4590,
    "Ġliter": 8816,
    "cal": 1119,
    "Ġprofoundly": 16861,
    "Ġdevil": 3615,
    "Ġdrowned": 9555,
    "Ġheaths": 25973,
    "Ġstum": 21735,
    ";âĢĻ": 15306,
    "castle": 3348,
    "Ġtong": 4871,
    "aset": 10834,
    "Ġtriumphant": 12194,
    "aven": 8211,
    "sweet": 8689,
    "renched": 7907,
    "ahawk": 23318,
    "isance": 17849,
    "Ġutilize": 4799,
    ",_": 11464,
    "Ġeats": 15682,
    "Ġdescending": 8909,
    "hospit": 25904,
    "assertion": 22315,
    "Ġmamma": 10051,
    "Ġmark": 2330,
    "inence": 15485,
    "isco": 12587,
    "Ġpaces": 13922,
    "cures": 20807,
    "Ġded": 2599,
    "Ġconsumed": 10352,
    "Ġexpost": 18624,
    "Ġdropt": 23678,
    "Ġtranquil": 7310,
    "Ġseasonable": 24406,
    "Ġdisgraceful": 15022,
    "prodigious": 17469,
    "representativeness": 25273,
    "waist": 13421,
    "Ġcar": 1422,
    "Ġtoken": 2037,
    "razor": 21640,
    "Ġpun": 4588,
    "Ġwhither": 10217,
    "decan": 22145,
    "Ġdissu": 18551,
    "Ġcompre": 4448,
    "Ġdislike": 6049,
    "Ġbrightly": 13228,
    "oat": 13767,
    "Ġimproper": 22755,
    "Ġresolute": 19247,
    "confl": 22475,
    "Ġspecialized": 3924,
    "rers": 14721,
    "Ġconcealment": 16916,
    "Ġlumps": 21559,
    "ascertaining": 26462,
    "Ġupbra": 22158,
    "Ġthousandth": 23686,
    "Ġtorments": 13397,
    "mell": 20966,
    "fixed": 7548,
    "chorus": 19814,
    "Ġsunbeam": 23278,
    "Ġreigning": 15706,
    "Ġenraptured": 26502,
    "Ġparasol": 22125,
    "securing": 19816,
    "neighbouring": 19967,
    "denial": 18718,
    "homely": 25618,
    "Ġvers": 7563,
    "Ġmisgivings": 15295,
    "Ġbumpkin": 20203,
    "ipotent": 10962,
    "outside": 12810,
    "dick": 11481,
    "af": 2374,
    "Ġcustoms": 19655,
    "Ġpike": 12629,
    "thirst": 15830,
    "acetti": 13399,
    "Ġhoard": 23355,
    "Ġleaves": 5021,
    "ā": 194,
    "relatively": 24018,
    "Ġmarshal": 20222,
    "Ġunav": 18244,
    "Ġlieutenant": 15265,
    "chapter": 1403,
    "my": 1314,
    "Ġdeductions": 19736,
    "dle": 3305,
    "Ġentrapped": 26264,
    "ishly": 14202,
    "plexy": 18568,
    "Ġportcull": 23866,
    "onds": 12999,
    "Ġmilan": 19538,
    "distinction": 19574,
    "cream": 15334,
    "Ġidolator": 20001,
    "Ġfundamentals": 14637,
    "Ġsunrise": 9376,
    "Ġtoes": 10831,
    "cele": 21628,
    "Ġblush": 14405,
    "jaw": 13746,
    "commence": 19995,
    "Ġtreats": 19347,
    "Ġoutright": 18414,
    "Ġconcluded": 5658,
    "Ġoffice": 4965,
    "Ġplata": 25120,
    "pervading": 18974,
    "flesh": 13493,
    "Ġlanded": 7469,
    "Ġsoapstone": 20514,
    "schoolmaster": 15165,
    "Ġreflections": 5948,
    "irresist": 21916,
    "Ġgrenadier": 21619,
    "Ġdeemed": 7615,
    "Ġestates": 16462,
    "Ġknotted": 17021,
    "Ġ150": 22828,
    "critters": 14778,
    "Ġexchanging": 18134,
    "Ġcases": 3964,
    "osc": 18388,
    "Ġcannon": 14156,
    "Ġnarration": 13506,
    "Ġdrawers": 12110,
    "Ġcomprised": 14270,
    "running": 6798,
    "phenomenon": 17650,
    "Ġstaple": 26200,
    "aceti": 7113,
    "Ġshower": 11714,
    "Ġnormal": 1206,
    "Ġconducting": 16652,
    "imony": 12696,
    "Ġfogs": 25283,
    "penetrating": 25491,
    "Ġmeasureless": 14713,
    "Ġbetween": 792,
    "Ġatom": 18193,
    "Ġmistaken": 4986,
    "ravelled": 18017,
    "Ġworth": 4416,
    "Ġsag": 6515,
    "gers": 8376,
    "Ġgrowing": 6752,
    "Ġmilitary": 11260,
    "hastily": 19705,
    "acit": 16086,
    "Ġsuccessive": 10503,
    "Ġshar": 9253,
    "&": 10,
    "Ġchanging": 11757,
    "Ġsmith": 16069,
    "antucket": 2642,
    "remember": 7262,
    "azz": 8262,
    "Ġdiabolism": 25515,
    "Ġroast": 18458,
    "Ġchamounix": 14867,
    "stranded": 19227,
    "Ġclust": 9277,
    "Ġsystem": 586,
    "imen": 12692,
    "appre": 14373,
    "frozen": 25142,
    "Ġenumerating": 15248,
    "Ġdro": 2768,
    "oriented": 2946,
    "Ġrepair": 11983,
    "uries": 6149,
    "ountain": 2916,
    "Ġlord": 2965,
    "Ġdomineer": 23632,
    "Ġsilent": 3413,
    "powerful": 24848,
    "Ġgovernor": 16493,
    "Ġresponded": 13641,
    "Ġaccordingly": 6622,
    "quietude": 24656,
    "teeth": 10357,
    "Ġwaterward": 23370,
    "Ġtag": 15472,
    "Ġsedentary": 25431,
    "Ġuntamed": 19166,
    "Ġexempt": 21832,
    "itate": 6670,
    "Ġhimself": 1351,
    "Ġinvisible": 7327,
    "Ġlodgings": 8312,
    "data": 2210,
    "Ġpropriety": 10013,
    "Ġmonuments": 22987,
    "Ġfaculties": 14961,
    "Ġunw": 7005,
    "roqu": 21537,
    "Ġseventy": 7878,
    "Ġlodger": 24096,
    "empl": 5724,
    "dep": 6787,
    "Ġknitted": 19592,
    "Ġtem": 803,
    "gered": 9279,
    "Ġresolve": 13173,
    "cocks": 23562,
    "Ġacquaintances": 17353,
    "Ġaccord": 4028,
    "dom": 6224,
    "Ġfaded": 10811,
    "Ġunfulfilled": 26511,
    "Ġdate": 7841,
    "Ġii": 7385,
    "ezes": 9994,
    "Ġhelen": 16658,
    "Ġed": 2242,
    "Ġrevenge": 5452,
    "Ġdecanter": 22462,
    "Ġimpertin": 6933,
    "seamen": 13629,
    "liament": 16222,
    "Ġtransported": 11281,
    "Ġnecess": 3478,
    "Ġamounted": 18514,
    "Ġsupported": 9821,
    "\"],": 26121,
    "Ġcalm": 3449,
    "added": 11662,
    "Ġlet": 1110,
    "Ġamel": 18511,
    "inexplicable": 25809,
    "pless": 6262,
    "Ġwines": 21290,
    "supplied": 10522,
    "Ġcompletion": 12152,
    "Ġimmediately": 3366,
    "Ġtrous": 10958,
    "perquisites": 26532,
    "hello": 13367,
    "past": 8090,
    "ny": 4018,
    "seem": 10230,
    "Ġaqu": 17744,
    "send": 15427,
    "Ġveiled": 16205,
    "Ġgrew": 5182,
    "Ġidentity": 2522,
    "Ġdominant": 12400,
    "reflection": 13458,
    "horn": 8086,
    "amaz": 21848,
    "ine": 404,
    "Ġtoils": 10188,
    "Ġduplicate": 17218,
    "Ġgrandfather": 19425,
    "Ġgripping": 26188,
    "Ġgoblets": 20522,
    "Ġgaiety": 16751,
    "flies": 19427,
    "Ġattentive": 9036,
    "Ġill": 2193,
    "Ġinvariable": 13459,
    "Ġembellish": 25849,
    "fluke": 25205,
    "property": 20003,
    "Ġman": 544,
    "Ġbohem": 8529,
    "Ġremove": 7499,
    "Ġpertin": 18450,
    "Ġunconnected": 18246,
    "Ġticking": 25036,
    "Ġpro": 360,
    ",âĢĻ": 2327,
    "Ġlegit": 16475,
    "Ġguilt": 6181,
    "Ġbritain": 16958,
    "Ġapproximation": 2340,
    "Ġpretext": 22233,
    "Ġeluc": 16114,
    "grief": 13734,
    "Ġmere": 2711,
    "Ġbidirectional": 3756,
    "Ġpur": 2216,
    "Ġlysander": 13142,
    "Ġcheat": 19020,
    "Ġleagues": 9226,
    "Ġremorselessly": 16969,
    "twelvemonth": 25863,
    "Ġcamel": 25350,
    "seated": 11675,
    "Ġheredit": 9219,
    "wal": 10136,
    "uttering": 12668,
    "Ġunderneath": 16342,
    "Ġlogic": 13081,
    "wickham": 5885,
    "Ġclanking": 20614,
    "rints": 12507,
    "Ġdiffer": 18678,
    "Ġdungeon": 16998,
    "Ġrejected": 12298,
    "Ġmisty": 16542,
    "aph": 10956,
    "Ġwondrous": 4736,
    "Ġworms": 25217,
    "uber": 15449,
    "des": 3173,
    "Ġvolume": 6770,
    "Ġweal": 21924,
    "hetically": 21211,
    "Ġlacey": 10200,
    "Ġadmits": 23556,
    "Ġrede": 13987,
    "Ġreasoned": 23091,
    "Ġvisited": 5950,
    "deeply": 16180,
    "Ġchannel": 26013,
    "Ġclouds": 5775,
    "Ġfol": 1287,
    "Ġostentatious": 25737,
    "shud": 18484,
    "uns": 21874,
    "Ġattendant": 11287,
    "Ġconsume": 12963,
    "Ġtale": 5142,
    "Ġfrank": 4419,
    "Ġesteemed": 10591,
    "Ġexpecting": 10438,
    "erring": 11058,
    "Ġcele": 9903,
    "----âĢĻ": 24101,
    "chet": 13220,
    "Ġquickly": 4241,
    "Ġteeth": 4168,
    "Ġinwards": 15626,
    "attracted": 13055,
    "Ġstandpoint": 23280,
    "Ġpulley": 2975,
    "Ġresources": 2935,
    "Ġprecautions": 23729,
    "rior": 12747,
    "baden": 25616,
    "ents": 1895,
    "Ġdevouring": 11866,
    "Ġprivacy": 19527,
    "brÃ¦": 11177,
    "Ġthickets": 24028,
    "pie": 21013,
    "gorge": 22341,
    "Ġwigwam": 11430,
    "Ġunfathomably": 25874,
    "Ġsoil": 9258,
    "Ġmiz": 10779,
    "Ġcelebrate": 26359,
    "ifford": 15789,
    "satisf": 5781,
    "ultaneous": 18583,
    "Ġstuck": 9223,
    "Ġmaz": 15547,
    "sculptured": 26047,
    "Ġlob": 7628,
    "Ġtrem": 6662,
    "Ġcolog": 12576,
    "contracting": 19296,
    "Ġstory": 2899,
    "Ġsculpture": 26017,
    "Ġmagistrate": 8234,
    "nett": 16226,
    "?_": 8070,
    "relapse": 24020,
    "treat": 12518,
    "iii": 14779,
    "Ġcanals": 22166,
    "Ġtiles": 17728,
    "Ġpalp": 11252,
    "Ġlegend": 14577,
    "pping": 1429,
    "Ġcrowder": 19459,
    "Ġpersonified": 19180,
    "Ġhappier": 10361,
    "Ġmanagement": 8193,
    "Ġsanguinary": 25930,
    "Ġnoticing": 18225,
    "Ġdented": 17893,
    "contain": 18503,
    "6": 26,
    "Ġclient": 5556,
    "approbation": 11460,
    "aging": 2239,
    "Ġdisposed": 7085,
    "held": 3843,
    "Ġemm": 18005,
    "Ġconfl": 11139,
    "orse": 5807,
    "Ġchinks": 22255,
    "Ġinestim": 15629,
    "Ġcluster": 13574,
    "cus": 3983,
    "Ġfiends": 14831,
    "Ġstoke": 10398,
    "Ġnoisy": 13322,
    "Ġinsupportable": 13935,
    "Ġsar": 21216,
    "Ġshr": 4226,
    "ane": 1175,
    "Ġbone": 4696,
    "Ġunimaginable": 15250,
    "eping": 5834,
    "Ġclaps": 22353,
    "Ġdescription": 7429,
    "Ġinflicted": 11367,
    "Ġinsolence": 20256,
    "Ġwilling": 7421,
    "oise": 15408,
    "writing": 7721,
    "Ġterm": 2268,
    "Ġinst": 911,
    "Ġwhom": 1829,
    "Ġpettiness": 24232,
    "Ġdemo": 10882,
    "Ġmajest": 24065,
    "Ġproc": 5545,
    "olera": 21837,
    "Ġcorpus": 13036,
    "save": 13788,
    "Ġpequod": 2322,
    "square": 15062,
    "Ġast": 2960,
    "Ġxxxi": 24969,
    "Ġshowed": 4496,
    "important": 7114,
    "Ġstabilizing": 3659,
    "insist": 23067,
    "Ġpennies": 17273,
    "Ġgunwales": 12245,
    "Ġlangs": 13957,
    "och": 21003,
    "fresh": 13395,
    "Ġtransc": 12870,
    "omnipotent": 25965,
    "Ġ1807": 26084,
    "Ġ32": 19492,
    "eous": 13715,
    ",": 16,
    "adler": 21766,
    "Ġw": 272,
    "band": 3058,
    "queequeg": 4334,
    "Ġskilful": 25838,
    "Ġsepulchral": 25893,
    "Ġrode": 16003,
    "aneously": 4062,
    "Ġhyperborean": 26341,
    "Ġai": 3127,
    "male": 15392,
    "meryton": 10114,
    "Ġjelly": 22304,
    "Ġpermission": 9282,
    "chancing": 22921,
    "Ġascribe": 16784,
    "Ġscaling": 3634,
    "itance": 13871,
    "Ġabusing": 18399,
    "lance": 12486,
    "hemat": 3128,
    "Ġafric": 8908,
    "oran": 8793,
    "devoted": 20020,
    "Ġkrus": 18350,
    "iences": 6957,
    "Ġforeheads": 23449,
    "Ġcalmed": 16271,
    "grees": 20888,
    "Ġdisplays": 19859,
    "Ġglare": 13021,
    "Ġlegitimate": 20644,
    "clear": 9027,
    "medi": 2628,
    "Ġchagrin": 20610,
    "Ġtragic": 15259,
    "sust": 15426,
    "Ġvery": 636,
    "Ġbore": 5079,
    "neys": 23584,
    "Ġgossip": 18470,
    "Ġdents": 13914,
    "rann": 21047,
    "must": 3579,
    "Ġrevolutionized": 3367,
    "concluded": 11244,
    "buck": 17493,
    "Ġgain": 4829,
    "Ġdisregarded": 22534,
    "Ġdrawled": 23992,
    "Ġfought": 12599,
    "nants": 17615,
    "Ġtelegra": 11896,
    "Ġtumble": 16881,
    "unalterable": 21890,
    "Ġcollecting": 12290,
    "Ġpantry": 20298,
    "Ġtheology": 21279,
    "Ġrussia": 26269,
    "Ġauxiliary": 26420,
    "embarrassed": 20667,
    "Ġmarks": 6748,
    "Ġmoss": 9287,
    "Ġminute": 4279,
    "pred": 2799,
    "aste": 4602,
    "Ġelevates": 24503,
    "Ġshaggy": 13573,
    "consciousness": 13369,
    "Ġdenying": 14660,
    "Ġsalutation": 12401,
    "Ġdived": 9180,
    "entary": 21570,
    "ivery": 17574,
    "alike": 17945,
    "Ġzig": 18743,
    "Ġdesper": 6178,
    "Ġmonarch": 14419,
    "Ġen": 392,
    "Ġinco": 14263,
    "Ġpaddles": 15151,
    "Ġblanched": 26284,
    "Ġimmort": 19487,
    "Ġhall": 4185,
    "Ġenergies": 25460,
    "ppa": 10242,
    "Ġsque": 18757,
    "Ġpiqu": 21479,
    "Ġlabyrin": 13107,
    "niest": 18997,
    "Ġgrammars": 11404,
    "hies": 17562,
    "Ġshrimp": 24160,
    "Ġfact": 1728,
    "asets": 2310,
    "born": 7543,
    "Ġswearing": 16467,
    "Ġalan": 10871,
    "Ġfriends": 2653,
    "Ġpolynes": 16085,
    "cherries": 19759,
    "Ġblan": 18818,
    "lass": 5994,
    "were": 2555,
    "bordered": 17501,
    "Ġlangsdorff": 15280,
    "Ġdragged": 6889,
    "Ġsharks": 4497,
    "Ġ103": 24411,
    "Ġvindictiveness": 25739,
    "Ġquestionable": 19268,
    "speech": 10669,
    "Ġenjoyed": 8008,
    "Ġsuavely": 26525,
    "charles": 14702,
    "Ġcravat": 26308,
    "bench": 16805,
    "Ġpilot": 5986,
    "sisters": 13379,
    "labours": 16619,
    "Ġlifting": 10199,
    "Ġprecisely": 6467,
    "Ġpilgrimage": 17311,
    "thing": 1481,
    "mpus": 13760,
    "Ġiceberg": 14719,
    "shipped": 18487,
    "Ġcaulk": 25441,
    "Ġcogent": 14276,
    "Ġpotential": 3621,
    "Ġenjoyment": 7300,
    "Ġevangelists": 20342,
    "ording": 9767,
    "Ġreturns": 11930,
    "Ġgreedily": 18965,
    "ensation": 22549,
    "add": 5229,
    "Ġsheeted": 19834,
    "bidden": 19740,
    "Ġsoul": 2723,
    "odecimoes": 25319,
    "unwittingly": 25802,
    "Ġsurvivor": 17366,
    "Ġgloves": 8578,
    "blunder": 24132,
    "cooper": 19192,
    "Ġrefreshed": 15294,
    "Ġcre": 888,
    "anity": 9657,
    "Ġhumph": 22881,
    "Ġdreamt": 23942,
    "Ġqueen": 3214,
    "Ġwashes": 21865,
    "Ġremoter": 20109,
    "sullen": 17671,
    "for": 965,
    "hetic": 12208,
    "Ġprofane": 13155,
    "cain": 15329,
    "Ġamsterdam": 22488,
    "Ġago": 3136,
    "cheeked": 19342,
    "Ġtilted": 20416,
    "Ġfant": 9176,
    "Ġcloud": 3915,
    "Ġconsequences": 11337,
    "Ġrhone": 25231,
    "Ġboyhood": 23758,
    "----": 4060,
    "accepted": 20139,
    "market": 16841,
    "Ľ": 254,
    "networks": 2403,
    "Ġclump": 15973,
    "Ġcowardice": 17033,
    "Ġsitting": 3607,
    "Ġresigned": 9771,
    "Ġinfallibly": 10044,
    "Ġmonotonically": 3836,
    "agitation": 14071,
    "shel": 11934,
    "ascertain": 21546,
    "Ġhappening": 14386,
    "Ġcontour": 18474,
    "Ġmumbling": 11577,
    "Ġavoid": 5199,
    "ined": 1257,
    "bes": 6644,
    "Ġflights": 24752,
    "Ġhatchet": 16532,
    "Ġstaring": 8829,
    "iom": 20917,
    "Ġwithdrew": 9699,
    "Ġvarying": 15815,
    "Ġhandsom": 11126,
    "Ġamends": 14248,
    "Ġspiral": 14586,
    "Ġfruit": 12330,
    "Ġmetropolis": 17277,
    "Ġounce": 15276,
    "Ġretribution": 16285,
    "combined": 20324,
    "84": 15305,
    "subst": 12169,
    "herent": 2527,
    "Ġindiam": 22963,
    "expressive": 24307,
    "Ġfashioned": 13324,
    "ze": 1360,
    "interchange": 23741,
    "Ġlub": 15654,
    "Ġcomb": 1099,
    "fancy": 7337,
    "mere": 11859,
    "calabash": 22897,
    "principle": 10653,
    "erity": 21270,
    "Ġgreeted": 23215,
    "Ġimmovable": 15897,
    "Ġbarrowful": 25596,
    "Ġasiatic": 20433,
    "combe": 7664,
    "despicable": 24638,
    "Ġhis": 380,
    "Ġmutinous": 23961,
    "Ġpoles": 11006,
    "Ġapparelled": 20440,
    "Ġhaven": 8476,
    "inspect": 11561,
    "embraces": 25806,
    "Ġfancied": 7326,
    "Ġfocused": 16345,
    "agon": 7871,
    "Ġsteer": 10389,
    "Ġsteps": 2859,
    "Ġparadise": 11196,
    "ü": 189,
    "Ġrelated": 3716,
    "Ġprojecting": 9988,
    "Ġfired": 16155,
    "Ġstumbling": 21746,
    ".*": 7331,
    "Ġblades": 11899,
    "Ġretarded": 23075,
    "Ġoutlined": 22324,
    "Ġnumerical": 4245,
    "men": 1487,
    "Ġhousemaid": 14467,
    "expectations": 24279,
    "Ġliber": 5168,
    "Ġshuttle": 12131,
    "ĠĠĠĠĠĠĠĠĠĠĠĠĠĠĠĠĠĠĠĠĠĠĠĠĠĠĠĠĠĠĠĠ": 2736,
    "Ġarranged": 9880,
    "V": 58,
    "Ġexclaimed": 4684,
    "Ġimpro": 913,
    "Ġgloomily": 14804,
    "engineer": 23151,
    "view": 5897,
    "Ġcorp": 5575,
    "hob": 20902,
    "Ġnantucketers": 9897,
    "Ġgrimes": 11036,
    "Ġskewer": 19623,
    "measured": 19993,
    "Ġharness": 17930,
    "Ġoy": 15551,
    "throwing": 11707,
    "Ġhardy": 8569,
    "Ġmonsters": 11076,
    "necessities": 24308,
    "Ġaccept": 4410,
    "rubbery": 17345,
    "ersburgh": 18216,
    "Ġbubbles": 11400,
    "Ġchron": 19441,
    "hmael": 7342,
    "Ġfootmarks": 19339,
    "eyed": 11489,
    "nameless": 19905,
    "utmost": 21591,
    "ernal": 4312,
    "german": 11494,
    "Ġvalidation": 2355,
    "cannibal": 15228,
    "button": 10967,
    "ators": 7829,
    "udg": 22757,
    "remed": 18955,
    "initions": 21190,
    "hes": 1399,
    "Ġvehemently": 26040,
    "Ġtransplanted": 22445,
    "warmth": 20056,
    "Ġlens": 8439,
    "Ġsolomon": 11054,
    "indisc": 22377,
    "james": 15376,
    "Ġdominion": 16513,
    "innocent": 20289,
    "Ġseas": 3076,
    "cable": 20799,
    "Ġdressing": 7092,
    "Ġplow": 21461,
    "eks": 4729,
    "insula": 23069,
    "Ġgenial": 12199,
    "horr": 14601,
    "Ġdivide": 12115,
    "Ġattention": 1178,
    "Ġparameter": 876,
    "Ġassault": 9840,
    "Ġfortune": 4240,
    "att": 1459,
    "Ġpromising": 10402,
    "Ġboarded": 13237,
    "Ġgrief": 4621,
    "Ġbakers": 17868,
    "sequence": 2852,
    "banked": 25338,
    "Ġdromed": 15602,
    "Ġagree": 7647,
    "Ġdash": 8122,
    "Ġep": 7384,
    "Ġdemanding": 16807,
    "Ġfelix": 4850,
    "Ġobjective": 3767,
    "scho": 8763,
    "Ġliver": 14230,
    "Ġignor": 4014,
    "Ġcos": 2207,
    "Ġciv": 3308,
    "Ġflapp": 23012,
    "deceiving": 22148,
    "erland": 9643,
    "Ġvic": 5237,
    "lev": 1237,
    "Ġpropag": 16351,
    "Ġcave": 10787,
    "Ġcrosswise": 18887,
    "Ġfi": 922,
    "duchess": 18464,
    "asper": 7855,
    "Ġclothing": 18425,
    "Ġenters": 11027,
    "Ġvoid": 14089,
    "enet": 10155,
    "iality": 8848,
    "measureless": 20238,
    "orses": 6053,
    "Ġbu": 3684,
    "Ó": 148,
    "bun": 12442,
    "topp": 22569,
    "Ġmourn": 8707,
    "Ġsurrender": 16451,
    "foundered": 20869,
    "Ġazores": 20196,
    "injured": 15136,
    "Ġlectures": 17181,
    "Ġsuperiority": 14618,
    "oting": 2742,
    "roy": 7854,
    "Ġestimated": 16596,
    "Ġsust": 7008,
    "intments": 18829,
    "Ġday": 957,
    "Ġrecommence": 16814,
    "Ġbaling": 17861,
    "Ġl": 303,
    "arched": 10817,
    "shell": 16290,
    "decided": 13218,
    "prejudice": 25572,
    "reception": 15518,
    "purse": 20028,
    "Ġdepressed": 10885,
    "Ġslippery": 12171,
    "pshaw": 21030,
    "Ġcheshire": 13093,
    "Ġgrass": 5177,
    "Ġshaped": 15839,
    "Ġstamping": 20034,
    "Ġbehold": 5049,
    "name": 6796,
    "Ġmagg": 18907,
    "uling": 2257,
    "Ġspont": 22135,
    "Ġsupreme": 13610,
    "Ġslips": 23169,
    "Ġce": 3029,
    "Ġoriginally": 7304,
    "Ġsympt": 7014,
    "Ġwhir": 6394,
    "pips": 21022,
    "Ġdemonstrate": 24997,
    "Ġlightnings": 16357,
    "Ġdecapitated": 20619,
    "Ġcorpore": 13404,
    "Ġconj": 8462,
    "Ġcoun": 4179,
    "Ġacre": 22684,
    "scruple": 26046,
    "Ġoutstanding": 22320,
    "ma": 1148,
    "Ġcrows": 24036,
    "Ġbatt": 13902,
    "lake": 13752,
    "Ġoffend": 16149,
    "Ġcurses": 13009,
    "Ġprudent": 9187,
    "Ġnoises": 18375,
    "Ġliberally": 16832,
    "Ġgable": 15672,
    "Ġchewing": 23287,
    "Ġelijah": 9103,
    "Ġbooks": 4677,
    "Ġunspeakable": 10059,
    "Ġwelded": 9574,
    "Ġactuated": 18546,
    "Ġautomation": 13246,
    "Ġconfeder": 25708,
    "Ġsmite": 22561,
    "Ġsim": 734,
    "called": 6294,
    "prob": 7071,
    "Ġseverity": 15822,
    "Ġpointing": 5661,
    "Ġpetty": 19598,
    "Ġsnatches": 16546,
    ":âĢĶ": 4431,
    "Ġ78": 19616,
    "Ġquietude": 19363,
    "ateg": 1339,
    "magnifying": 25393,
    "ivil": 6412,
    "accusations": 23601,
    "Ġhigher": 1819,
    "Ġhourly": 23304,
    "snowy": 20286,
    "Ġbulkington": 14679,
    "Ġcomplement": 23711,
    "Ġremoval": 12122,
    "dirty": 20836,
    "pper": 3211,
    "concent": 19483,
    "successively": 24778,
    "Ġadvertising": 25390,
    "Ġpatiently": 19920,
    "Ġtribute": 15479,
    "chronicle": 26482,
    "Ġpermanent": 13634,
    "figure": 13558,
    "Ġdetermined": 2222,
    "Ġannihilated": 20255,
    "Ġhighland": 18714,
    "iloqu": 11651,
    "Ġplantation": 11425,
    "Ġ66": 24369,
    "offic": 7466,
    "Ġunmo": 12780,
    "Ġgrap": 11711,
    "ave": 978,
    "Ġnupt": 13946,
    "Ġphysiogn": 12392,
    "afterwards": 7484,
    "Ġheiress": 20700,
    "pacing": 21023,
    "Ġvictor": 5125,
    "finer": 17548,
    "Ġwalk": 1824,
    "oftentimes": 19424,
    "ape": 1903,
    "Ġsunda": 13546,
    "Ġsteamer": 17191,
    "Ġbrimming": 22865,
    "Ġespecial": 26412,
    "Ġdismissed": 12898,
    "Ġspoils": 24805,
    "Ġfortresses": 23623,
    "iter": 4391,
    "Ġfattened": 25950,
    "Ġpore": 21460,
    "Ġbanking": 19633,
    "Ġruined": 12959,
    "Ġsmaller": 1881,
    "Ġninetieth": 25358,
    "Ġreserves": 19673,
    "beneath": 9538,
    "Ġeas": 2351,
    "Ġsaviour": 20715,
    "Ġsenses": 8252,
    "Ġfewer": 16225,
    "Ġnook": 15933,
    "Ġrefine": 3113,
    "Ġsparkling": 11358,
    "crack": 19843,
    "Ġsoles": 22089,
    "unt": 2042,
    "speaking": 12103,
    "lances": 15387,
    "Ġquestions": 3975,
    "Ġum": 10214,
    "Ġact": 691,
    "Ġcovari": 2337,
    "Ġripple": 25505,
    "Ġillustrations": 17109,
    "Ġnearer": 5303,
    "Ġsocial": 7009,
    "olds": 9314,
    "noticed": 14344,
    "beaut": 8515,
    "Ġcapital": 7980,
    "Ġhammer": 6095,
    "carefully": 13372,
    "Ġglittering": 10056,
    "direful": 25897,
    "Ġharder": 14452,
    "ripp": 6405,
    "dued": 7909,
    "Ġsystematic": 5245,
    "Ġcoral": 11926,
    "Ġbel": 1218,
    "Ġinsc": 7586,
    "Ġge": 1975,
    "apan": 6860,
    "Ġlima": 10444,
    "Ġcanaan": 22168,
    "fortun": 3540,
    "Ġcolt": 11046,
    "athans": 7433,
    "Ġrebellion": 26477,
    "Ġslope": 14463,
    "classification": 4387,
    "Ġconfessed": 8009,
    "powers": 25411,
    "vain": 15451,
    "whispered": 20037,
    "Ġdetestation": 17130,
    "Ġthieves": 15641,
    "great": 3518,
    "Ġembark": 8559,
    "Ġknots": 15011,
    "Ġtakes": 5007,
    "Ġskrimshander": 22802,
    "Ġcarpet": 9359,
    "spirited": 19756,
    "Ġwheeling": 18287,
    "perse": 15903,
    "imble": 10860,
    "Ġabund": 8869,
    "drove": 16995,
    "pass": 4291,
    "elter": 21574,
    "Ġvicinity": 7315,
    "Ġtu": 6969,
    "Ġretreating": 19802,
    "grass": 23415,
    "Ġextravag": 11255,
    "Ġdisappoint": 24208,
    "rously": 17656,
    "iew": 2445,
    "aciously": 12913,
    "Ġendangered": 16308,
    "Ġalbertus": 25649,
    "Ġlancaster": 26342,
    "against": 5872,
    "okes": 9280,
    "enched": 10157,
    "Ġden": 3104,
    "Ġterr": 3273,
    "Ġgoug": 17993,
    "less": 929,
    "lording": 24055,
    "Ġprime": 10406,
    "Ġobstinate": 11338,
    "bit": 3935,
    "str": 2574,
    "cripp": 20821,
    "recollection": 25349,
    "Ġempires": 19075,
    "consequ": 18507,
    "jo": 3752,
    "**": 4687,
    "Ġdream": 3539,
    "Ġlim": 2378,
    "ruction": 4357,
    "tru": 10731,
    "Ġearnestness": 12130,
    "sheets": 14444,
    "Ġhighway": 14349,
    "Ġm": 274,
    "Ġgranting": 18737,
    "icher": 9205,
    "honour": 13470,
    "Ġnonce": 23235,
    "Ġpassenger": 14372,
    "Ġwalrus": 14976,
    "pire": 9138,
    "should": 3262,
    "chariot": 26481,
    "Ġopenly": 8576,
    "measure": 10034,
    "crazy": 24692,
    "itself": 7834,
    "Ġunlikely": 10910,
    "clo": 5613,
    "ĠĠĠĠĠĠĠĠĠĠĠĠĠĠĠĠĠĠĠĠĠĠĠĠĠĠĠĠĠ": 19702,
    "Ġverses": 17064,
    "Ġcognitive": 13637,
    "Ġadjust": 2156,
    "ildad": 3533,
    "Ġanyone": 4458,
    "Ġsnatched": 10473,
    "Ġunreliable": 3932,
    "Ġdilatory": 24704,
    "Ġadviser": 25313,
    "Ġlashings": 25100,
    "Ġonset": 12716,
    "Ġhydraulic": 10067,
    "Ġlooks": 4167,
    "pride": 11212,
    "subs": 14309,
    "Ġchase": 3949,
    "Ġwindings": 18911,
    "Ġmassacre": 20550,
    "Ġjoining": 13167,
    "fri": 20856,
    "Ġcharts": 12833,
    "unhappy": 10240,
    "Ġtherefore": 2240,
    "Ġknob": 24407,
    "Ġdidst": 11853,
    "Ġtemples": 18644,
    "pervised": 1624,
    "swells": 26149,
    "Ġportents": 14681,
    "usations": 15952,
    "Ġringed": 16752,
    "Ġlive": 2732,
    "gh": 3804,
    "trans": 5594,
    "Ġnature": 2536,
    "Ġhamp": 12636,
    "https": 11687,
    "gement": 13731,
    "ĠĠĠĠĠĠĠĠĠĠĠĠĠĠĠĠĠĠĠĠĠĠĠĠĠĠĠĠĠĠĠĠĠĠĠĠĠĠĠĠĠ": 19585,
    "Ġyourself": 2589,
    "unlike": 18159,
    "hab": 1078,
    "rowed": 22861,
    "Ġrent": 11642,
    "Ġlabor": 10420,
    "darkened": 24517,
    "Ġcalculus": 23986,
    "Ġnavy": 14919,
    "Ġspray": 7894,
    "Ġharvard": 24574,
    "Ġhonoured": 9884,
    "Ġaccumul": 1414,
    "Ġaw": 2509,
    "tiest": 21084,
    "Ġunfathom": 14791,
    "abases": 3005,
    "Ġportraits": 20145,
    "Ġthreshold": 2805,
    "somebody": 14567,
    "Ġsal": 3942,
    "Ġskirt": 18729,
    "Ġnephew": 6406,
    "Ġwhaler": 7520,
    "Ġoily": 13867,
    "Ġnobody": 6160,
    "Ġcord": 5222,
    "striving": 24670,
    "Ġsupplement": 23005,
    "Ġplucked": 15117,
    "Ġmortified": 14697,
    "Ġhigh": 933,
    "Ġgod": 1933,
    "Ġpeddling": 21484,
    "Ġprosperity": 20260,
    "itatingly": 25278,
    "Ġarchipelagoes": 14351,
    "Ġsubstantial": 14813,
    "ucket": 2483,
    "Ġagreeing": 20022,
    "ighb": 10425,
    "sig": 2871,
    "Ġrests": 13096,
    "guilty": 19486,
    "Ġfidel": 12602,
    "Ġleakage": 23460,
    "mort": 10712,
    "Ġlabours": 8586,
    "Ġmeetings": 16535,
    "osh": 18389,
    "ertips": 23644,
    "Ġsurvived": 14937,
    "asible": 21545,
    "Ġspence": 22130,
    "Ġcur": 1197,
    "Ġsen": 9159,
    "pounds": 21027,
    "Ġbarque": 23793,
    "Ġenables": 725,
    "Ġapolog": 9046,
    "^{": 15308,
    "Ġobscurely": 20191,
    "Ġinjure": 16783,
    "rushed": 10587,
    "Ġdispose": 23882,
    "Ġcannib": 6037,
    "itudes": 3013,
    "Ġfaintest": 24570,
    "Ġfiss": 21415,
    "hew": 5286,
    "Ġbroke": 5323,
    "hereabouts": 23608,
    "Ġprov": 4400,
    "unworthy": 18164,
    "Ġdistricts": 20266,
    "stead": 10848,
    "Ġpoverty": 9307,
    "therly": 18344,
    "gar": 5615,
    "ture": 7558,
    "Ġcomputers": 2643,
    "gammon": 20246,
    "Ġsurrey": 14560,
    "Ġwitness": 4622,
    "Ġsublim": 19970,
    "ula": 2823,
    "Ġcanterbury": 22169,
    "okened": 15989,
    "Ġmanhandle": 22333,
    "sounded": 12271,
    "Ġmurderers": 16813,
    "shaw": 6864,
    "shipping": 10310,
    "Ġphilosophers": 10554,
    "Ġcommit": 18656,
    "conditionally": 24835,
    "isure": 6242,
    "Ġsaucer": 20608,
    "Ġdiffered": 22714,
    "int": 1200,
    "wor": 3417,
    "Ġemac": 16410,
    "_âĢĶâĢĿ": 20765,
    "ron": 5216,
    "ridge": 9500,
    "reck": 9639,
    "Ġsurpass": 13586,
    "Ġmeet": 2801,
    "desirable": 23813,
    "apprehens": 17409,
    "Ġtransl": 2827,
    "Ġcocoa": 25483,
    "announced": 19762,
    "Ġvictory": 16656,
    "propriety": 14375,
    "Ġairth": 23320,
    "kovoko": 20672,
    "Ġcouple": 5423,
    "Ġmour": 6974,
    "Ġwholly": 4446,
    "thrust": 10264,
    "Ġperpendicular": 7209,
    "Ġimprobable": 9798,
    "Ġdashed": 6011,
    "Ġpad": 8125,
    "Ġcopy": 10166,
    "rels": 6667,
    "Ġsagacious": 14974,
    "conside": 9293,
    "Ġexecut": 4248,
    "G": 43,
    "watson": 12248,
    "Ġcheers": 16370,
    "Ġboy": 3020,
    "rimshander": 20659,
    "Ġberm": 21386,
    "iantly": 13742,
    "hoisted": 19285,
    "Ġunreserved": 19400,
    "Ġcloudless": 16671,
    "Ġmajor": 13295,
    "Ġhorn": 6187,
    "Ġdense": 8123,
    "aw": 1452,
    "caus": 11478,
    "Ġcrawl": 11377,
    "Ġwant": 1117,
    "Ġspecific": 1999,
    "ĠĠĠĠĠĠĠĠĠĠĠĠĠĠĠĠĠĠĠĠĠĠĠĠĠĠĠĠĠĠĠĠĠĠĠĠĠĠĠĠĠĠĠĠĠĠĠĠĠ": 20041,
    "Ġappeased": 23200,
    "agonies": 21913,
    "Ġlanding": 11989,
    "lesome": 12970,
    "Ġadmires": 19688,
    "Ġbankrupt": 16798,
    "Ġgrapes": 15219,
    "inclined": 10642,
    "boxes": 16890,
    "comm": 7440,
    "uerus": 26408,
    "Ġbaron": 19336,
    "Ġgem": 21597,
    "Ġran": 3342,
    "ures": 837,
    "Ġuntimely": 16469,
    "dro": 6647,
    "per": 480,
    "Ġlabrador": 23332,
    "Ġembeddings": 2059,
    "Ġarthur": 7196,
    "rane": 17655,
    "fearfully": 25119,
    "intervals": 10640,
    "Ġended": 7950,
    "Ġsod": 11564,
    "herds": 22207,
    "Ġ13": 6720,
    "Ġcommunicating": 16891,
    "Ġhyp": 3876,
    "Ġbaboon": 19696,
    "Ġready": 3398,
    "Ġeldest": 6573,
    "strade": 5065,
    "Ġboomer": 20170,
    "Ĳ": 243,
    "Ġmonth": 2845,
    "Ġsolemn": 4102,
    "Ġattitude": 8906,
    "Ġwhites": 21720,
    "ather": 742,
    "binder": 17502,
    "Ġcoolly": 9775,
    "Ġanatomy": 12324,
    "changed": 7176,
    "sc": 1256,
    "Ġbuilded": 24718,
    "Ġincrust": 22554,
    "osed": 1958,
    "Ġproducing": 11904,
    "different": 6502,
    "ĭ": 238,
    "halfway": 24313,
    "Ġclutching": 24954,
    "Ġshiver": 12773,
    "Ġholy": 6593,
    "Ġresentful": 24632,
    "ade": 882,
    "Ġpricking": 23223,
    "Ġrejection": 19987,
    "Ġcovering": 13260,
    "keenest": 25662,
    "Ġreasoner": 14445,
    "Ġgratitude": 5599,
    "Ġquarter": 3979,
    "desolate": 25717,
    "Ġamaz": 5385,
    "Ġoath": 7833,
    "quished": 21858,
    "Ġfur": 990,
    "Ġcrimes": 8591,
    "Ġfamiliarly": 11305,
    "Ġspurred": 22142,
    "Ġinexplicable": 12261,
    "rippling": 24712,
    "example": 16018,
    "Ġobservable": 25129,
    "Ġunnecessary": 8855,
    "Ġresolves": 23652,
    "Ġcoco": 11002,
    "pardon": 10068,
    "Ġledge": 19404,
    "form": 495,
    "niece": 20997,
    "Ċ": 203,
    "Ġsurv": 6082,
    "iature": 8745,
    "although": 8810,
    "walton": 20252,
    "Ġpillow": 10041,
    "consideration": 14958,
    "Ġgate": 6825,
    "phr": 18710,
    "Ġfacet": 15590,
    "Ġbraved": 23841,
    "Ġlibr": 16005,
    "Ġrepugnance": 19086,
    "Ġaccomplish": 14879,
    "Ġinflamed": 13476,
    "ecess": 17534,
    "concealed": 25118,
    "mentioning": 24886,
    "Ġnone": 3224,
    "Ġdir": 21424,
    "Ġindef": 9192,
    "Ġpenet": 6888,
    "Ġfeathers": 15123,
    "conclusive": 25674,
    "Ġwidely": 8033,
    "Ġice": 3606,
    "Ġdispelling": 23883,
    "Ġunited": 6841,
    "Ġlose": 5028,
    "Ġcarpent": 4464,
    "pede": 19932,
    "Ġwounding": 19589,
    "Ġexe": 3997,
    "Ġconnivance": 25226,
    "earnestly": 17316,
    "Ġchallenges": 13633,
    "Ġlanc": 19767,
    "Ġslaught": 23170,
    "Ġineffable": 17335,
    "Ġ133": 24782,
    "ution": 4349,
    "likelihood": 4992,
    "Ġenvironments": 24009,
    "ensity": 11817,
    "Ġpinioned": 21485,
    "nearer": 22468,
    "iem": 20919,
    "apparat": 22847,
    "Ġoverall": 4358,
    "prom": 6510,
    "Ġfrog": 23925,
    "centred": 25020,
    "Ġcommunication": 1868,
    "Ġpuzz": 5533,
    "fail": 17542,
    "Ġpossible": 2581,
    "Ġrob": 1303,
    "generous": 16571,
    "Ġalexander": 17427,
    "Ġawoke": 7286,
    "Ġcontemptuously": 19836,
    "Ġclearly": 6897,
    "Ġundivided": 24123,
    "itz": 6007,
    "ceptive": 15981,
    "ression": 3407,
    "Ġdetestable": 15102,
    "Ġbarren": 11208,
    "Ġpenetrate": 12274,
    "Ġfaltering": 17886,
    "ositories": 22266,
    "Ġpenetrated": 13475,
    "Ġbreaths": 14860,
    "immediately": 10052,
    "darker": 24516,
    "Ġentr": 14341,
    "Ġpipeline": 2466,
    "Ġmoonshine": 19600,
    "insulting": 26056,
    "Ġopening": 5045,
    "Ġasp": 15786,
    "gracious": 11835,
    "enges": 13058,
    "Ġoff": 902,
    "strils": 10460,
    "precisely": 6917,
    "Ġseldom": 4630,
    "Ġdood": 22246,
    "Ġcrescentic": 20624,
    "Ġscor": 8189,
    "Ġburnished": 24001,
    "Ġwhiff": 21721,
    "Ġnewcastle": 16228,
    "Ġcosmopol": 16456,
    "Ġimprisonment": 22395,
    "venty": 6428,
    "Ġabsorbed": 12335,
    "dough": 15338,
    "urs": 6990,
    "Ġfort": 2575,
    "Ġobjection": 6587,
    "Ġfathoms": 9086,
    "Ġhanged": 17927,
    "Ġlaughter": 9030,
    "Ġhaggerston": 26454,
    "Ġoverflow": 10295,
    "trial": 20353,
    "Ġoriginal": 6104,
    "Ġbrill": 8551,
    "Ġmaintainable": 12941,
    "Ġunnaturally": 24871,
    "Ġwaves": 3922,
    "computer": 2132,
    "Ġjunior": 15103,
    "germans": 20568,
    "ings": 631,
    "open": 7027,
    "Ġowl": 20087,
    "operations": 19978,
    "vis": 4578,
    "Ġwhip": 8453,
    "Ġpostpone": 17310,
    "Ġrealised": 18981,
    "Ġboundless": 10498,
    "Ġstrings": 11833,
    "Ġcoiling": 12911,
    "buckets": 26124,
    "Ġstrike": 4857,
    "Ġbohemian": 17136,
    "Ġmyst": 4053,
    "Ġmadman": 13154,
    "Ġunspeakably": 25173,
    "dire": 15339,
    "fishermen": 17062,
    "Ġslopes": 18943,
    "Ġfairly": 6327,
    "Ġgraze": 18227,
    "Ġprocesses": 3636,
    "Ġguards": 16272,
    "Ġslowly": 3620,
    "Ġspermacetti": 19049,
    "joined": 13279,
    "Ġac": 845,
    "Ġsepar": 4002,
    "Ġeul": 21621,
    "others": 7670,
    "inte": 5144,
    "leave": 7837,
    "Ġadored": 18294,
    "Ġample": 11802,
    "sherlock": 5422,
    "Ġsymbols": 2793,
    "cig": 17506,
    "Ġbirth": 6525,
    "wheel": 22868,
    "inarticulate": 21198,
    "received": 9641,
    "Ġaboard": 6699,
    "Ġprairies": 20024,
    "Ġdevoting": 22740,
    "Ġfills": 12600,
    "ribbed": 16416,
    "Ġcarries": 7674,
    "racted": 4777,
    "Ġsubdiv": 16164,
    "uting": 15665,
    "Ġwindigate": 18912,
    "inuating": 16207,
    "amy": 8470,
    "Ġrese": 2238,
    "mason": 17604,
    "arks": 2841,
    "eyes": 5684,
    "Ġblasphemer": 26117,
    "Ġneurons": 974,
    "whale": 2142,
    "asc": 6387,
    "Ġbri": 21381,
    "Ġverge": 23890,
    "Ġforty": 5719,
    "Ġopportunities": 19251,
    "thinks": 16644,
    "art": 585,
    "blo": 6355,
    "Ġafraid": 3531,
    "Ġrefinement": 18703,
    "urance": 10859,
    "âĢĿ--": 21820,
    "Ġsullenly": 17175,
    "gard": 7339,
    "har": 20892,
    "meetings": 20381,
    "hearse": 17750,
    "Ġcaved": 21356,
    "Ġfaithfulness": 24446,
    "Ġwithstand": 10228,
    "roylott": 20030,
    "Ġlac": 17967,
    "Ġdivided": 8635,
    "cies": 1813,
    "Ġheedfulness": 24522,
    "iary": 15374,
    "porpoise": 16438,
    "entire": 6824,
    "woes": 21136,
    "Ġupp": 13995,
    "Ġpurely": 12236,
    "arson": 22751,
    "alvan": 21507,
    "iable": 3333,
    "Ġfashionable": 19547,
    "Ġdiscriminator": 3391,
    "Ġcorruption": 15229,
    "friendship": 24053,
    "backward": 2681,
    "Ġspans": 18305,
    "Ġcister": 13885,
    "Ġnegatived": 23051,
    "Ġindividuality": 14912,
    "Ġcasket": 19727,
    "cod": 12448,
    "ogra": 4574,
    "Ġconce": 3423,
    "Ġworshippers": 25694,
    "Ġlighting": 13086,
    "_.,": 14563,
    "sex": 12719,
    "stee": 21654,
    "Ġpursuing": 9441,
    "screaming": 20328,
    "Ġslept": 8259,
    "Ġearnest": 3933,
    "Ġdocumentation": 20557,
    "Ġconjugal": 25104,
    "Ġvirtues": 9939,
    "Ġboard": 3383,
    "ondency": 15273,
    "morland": 24156,
    "ications": 4444,
    "Ġlomb": 21562,
    "Ġdrifted": 14627,
    "Ġmaggie": 26293,
    "Ġfidelity": 15245,
    "Ă": 195,
    "dramatic": 19388,
    "Ġchaps": 14182,
    "hement": 13835,
    "Ġbetrayed": 9564,
    "Ġbuy": 8299,
    "Ġsch": 13838,
    "kered": 18275,
    "Ġcran": 12005,
    "Ġwants": 5741,
    "arranted": 19322,
    "Ġ15": 9327,
    "pered": 4198,
    "Ġconversed": 13191,
    "Ġglobe": 6077,
    "Ġprevailed": 7778,
    "Ġpatients": 24810,
    "Ġpersonal": 7479,
    "Ġinflexibly": 26372,
    "Ġincoherent": 17403,
    "Åĵuvre": 25888,
    "okers": 18442,
    "Ġundulated": 19519,
    "Ġstup": 14008,
    "Ġpoll": 12034,
    "Ġbus": 1902,
    "Ġfisherman": 12080,
    "Ġarg": 4767,
    "Ġsour": 21219,
    "Ġmealy": 18123,
    "Ġplaying": 6910,
    "lighter": 20961,
    "Ġweek": 2824,
    "beards": 22494,
    "Ġfishermen": 5972,
    "Ġgive": 1711,
    "pooh": 18799,
    "bethink": 25745,
    "itical": 5802,
    "Ġbroker": 23105,
    "Ġineff": 12640,
    "Ġwr": 1544,
    "Ġindomitableness": 26573,
    "Ġcritical": 7474,
    "Ġg": 310,
    "Ġtell": 1470,
    "Ġtroubling": 26548,
    "Ġpolar": 9414,
    "beer": 22491,
    "Ġcandidate": 16700,
    "Ġgo": 613,
    "Ġsabbee": 17258,
    "lightened": 12069,
    "ladyship": 14832,
    "inkled": 5477,
    "Ġagreed": 7030,
    "Ġchaff": 18384,
    "Ġformless": 22829,
    "x": 92,
    "Ġcorpulence": 24509,
    "Ġdeprived": 8208,
    "Ġvi": 1951,
    "ties": 2756,
    "aimed": 3956,
    "Ġplayful": 19239,
    "anesc": 21363,
    "Ġhatchways": 24990,
    "Ġamber": 7028,
    "nineteenth": 26139,
    "Ġportable": 19373,
    "Ġinmost": 17933,
    "Ġinteractions": 12909,
    "immense": 18055,
    "Ġcal": 1324,
    "Ġsuspense": 9421,
    "Ġworm": 9165,
    "madly": 24420,
    "moon": 10338,
    "ckled": 9260,
    "Ġlombardy": 26465,
    "Ġasylum": 13670,
    "alid": 13938,
    "Ġdoll": 10815,
    "Ġmowers": 17814,
    "rest": 1631,
    "Ġpretence": 13210,
    "Ġarmy": 11745,
    "vert": 15720,
    "Ġbullion": 24986,
    "Ġjobs": 24833,
    "indulged": 22379,
    "belief": 13285,
    "attempts": 17193,
    "plentiful": 21966,
    "Ġfiner": 13057,
    "Ġdocks": 14180,
    "Ġdum": 10813,
    "Ġknowledge": 1450,
    "Ġsaddest": 16665,
    "Ġto": 297,
    "ain": 343,
    "Ġcass": 13882,
    "Ġsoothe": 7405,
    "Ġpreserved": 9265,
    "Ġcig": 6521,
    "nosed": 20994,
    "Ġlun": 7856,
    "Ġsuggested": 8321,
    "Ġwrapping": 19778,
    "Ġbewitching": 25977,
    "eliest": 14749,
    "Ġstrive": 23695,
    "develop": 13520,
    "Ġquaff": 22418,
    "Ġceti": 24772,
    "Ġsoar": 18283,
    "osoever": 17346,
    "Ġjeopard": 9946,
    "Ġdoxology": 22248,
    "Ġrampart": 20321,
    "Ġable": 3079,
    "Ġimpact": 10299,
    "Ġhospitable": 17060,
    "Ġedition": 16458,
    "Ġconstantinople": 19840,
    "acked": 10976,
    "Ġabiding": 22284,
    "Ġanalog": 12618,
    "umst": 2502,
    "Ġeffects": 7236,
    "Ġandes": 12647,
    "contempt": 13193,
    "Ġprep": 4192,
    "Ġfries": 21418,
    "Ġslave": 7454,
    "Ġhelplessness": 25074,
    "Ġbordering": 17231,
    "axed": 8892,
    "racting": 10358,
    "fitting": 1509,
    "Ġcens": 8414,
    "flatter": 23970,
    "Ġtuesday": 9629,
    "helm": 12176,
    "enchanted": 26426,
    "gre": 5788,
    "oubtedly": 6943,
    "arus": 13915,
    "Ġsevered": 18204,
    "fearing": 18533,
    "ial": 411,
    "Ġprobed": 18733,
    "Ġcomprehensive": 15091,
    "ifling": 15788,
    "Ġusing": 716,
    "Ġcurrents": 13010,
    "Ġright": 1505,
    "air": 1001,
    "Ġroute": 11383,
    "Ġcaution": 11348,
    "Ġmott": 17805,
    "Ġprofited": 19194,
    "Ġprocedural": 12035,
    "protested": 13477,
    "enty": 2914,
    "Ġfilial": 16622,
    "crimin": 17511,
    "Ġnarrations": 24352,
    "Ġupd": 947,
    "Ġsighing": 18677,
    "stream": 15692,
    "begging": 22500,
    "Ġoptimize": 1515,
    "Ġfragments": 19036,
    "Ġbohemia": 10652,
    "izer": 2028,
    "Ġdeb": 4765,
    "shows": 22450,
    "Ġghastly": 10063,
    "Ġglancing": 5399,
    "Ġbeadle": 26486,
    "anxious": 15113,
    "Ġdispleased": 18556,
    "Ġobst": 6286,
    "Ġinstances": 5568,
    "Ġcoefficient": 2881,
    "Ġfastened": 7067,
    "Ġexposing": 11836,
    "Ġgurgling": 17449,
    "Ġrole": 16002,
    "bolts": 11422,
    "Ġvile": 8475,
    "Ġhistorical": 3648,
    "expound": 23665,
    "Ġloathed": 15880,
    "Ġgidd": 25784,
    "Ġalbatross": 10873,
    "her": 488,
    "Ġundiscernible": 22072,
    "red": 398,
    "Ġug": 8141,
    "Ġpond": 13919,
    "Ġalt": 18101,
    "Ġtwitched": 20447,
    "Ġmisery": 3817,
    "ubl": 3597,
    "eted": 7592,
    "ails": 6162,
    "Ġhosmer": 6775,
    "Ġrolls": 8334,
    "Ġtemperate": 16167,
    "dilig": 17285,
    "confusion": 13373,
    "pulous": 15420,
    "á": 162,
    "Ġbars": 13900,
    "Ġthirty": 4944,
    "friends": 8306,
    "Ġcurves": 18825,
    "Ġbid": 6133,
    "Ġmatrimony": 13638,
    "Ġendeavors": 16548,
    "pictures": 15094,
    "Ġcreation": 6440,
    "Ġcreating": 2995,
    "uding": 16153,
    "Ġmud": 11576,
    "Ġwound": 4528,
    "Ġnumerous": 6920,
    "esy": 9188,
    "Ġenem": 4709,
    "Ġprograms": 7239,
    "Ġsoftmax": 1688,
    "Ġannesley": 19580,
    "Ġorganization": 7984,
    "Ġadmir": 12026,
    "Ġtumb": 21172,
    "Ġdirest": 22710,
    "Ġmarked": 4620,
    "Ġgeneralization": 983,
    "I": 45,
    "Ġindisc": 16236,
    "Ġimport": 1055,
    "Ġbetter": 1172,
    "Ġventure": 7740,
    "inity": 5693,
    "Ġissue": 2311,
    "Ġrascal": 11705,
    "proportion": 16187,
    "swing": 15433,
    "Ġunfailing": 24113,
    "lorn": 12492,
    "¢": 100,
    "un": 373,
    "abbering": 21800,
    "cottage": 9572,
    "Ġtrue": 1338,
    "Ġdedication": 3168,
    "dest": 4105,
    "Ġobliterated": 17408,
    "www": 17254,
    "Ġsails": 5257,
    "sively": 13789,
    "Ġunostentatious": 22073,
    "Ġslain": 8956,
    "Ġlashed": 9201,
    "Ġeaten": 14848,
    "erranean": 9337,
    "Ġcruise": 12053,
    "Ġrobbery": 11924,
    "Ġpanting": 11605,
    "Ġconfiding": 19038,
    "Ġtolland": 24991,
    "Ġopenshaw": 7955,
    "kings": 17585,
    "Ġpetersburgh": 24231,
    "understand": 1132,
    "pse": 21011,
    "play": 5099,
    "Ġinsertion": 26345,
    "Ġindication": 22962,
    "Ġdefile": 18832,
    "Ġpenetrating": 17013,
    "Ġprofusion": 23569,
    "ones": 2740,
    "sprang": 19994,
    "ose": 718,
    "Ġsinners": 18952,
    "shed": 8095,
    "Ġcounterpart": 24720,
    "thed": 8831,
    "Ġstrikes": 13186,
    "also": 7851,
    "visited": 13351,
    "worth": 8630,
    "v": 90,
    "Ġbelted": 22956,
    "actions": 8910,
    "feet": 6570,
    "pled": 7892,
    "Ġdied": 4113,
    "poke": 18798,
    "bene": 6114,
    "Ġconcer": 23322,
    "versed": 9828,
    "symp": 14625,
    "Ġhereford": 22875,
    "Ġlingu": 11617,
    "Ġtending": 17726,
    "Ġfates": 15583,
    "Ġstated": 9692,
    "boots": 11128,
    "Ġinnocence": 6478,
    "asis": 12656,
    "Ġplight": 14285,
    "unsuitable": 21897,
    "Ġdismally": 20217,
    "Ġexpl": 487,
    "ithmetic": 18064,
    "ep": 440,
    "breeding": 16677,
    "Ġconsum": 9802,
    "ense": 2050,
    "Ġbestow": 6456,
    "acle": 4717,
    "Ġremarkably": 7703,
    "Ġcaprice": 14579,
    "Ġmons": 10159,
    "Ġforswe": 21778,
    "Ġcomrade": 11682,
    "Ġtransformed": 22612,
    "Ġinfamous": 16369,
    "Ġpleasures": 11144,
    "despatched": 19804,
    "Ġwon": 1664,
    "que": 1145,
    "iquette": 26133,
    "Ġstagnant": 24655,
    "Ġaddresses": 3770,
    "Ġaint": 17746,
    "Ġingolstadt": 8333,
    "freighted": 14895,
    "osy": 11760,
    "elaborate": 21579,
    "such": 3081,
    "Ġpry": 11602,
    "Ġpettic": 14844,
    "habit": 16192,
    "Ġdrama": 16334,
    "Ġirresistible": 13116,
    "Ġvalu": 5039,
    "disc": 4730,
    "Ġpeered": 18669,
    "Ġmungo": 25632,
    "bo": 1689,
    "Ġstru": 2171,
    "Ġscrib": 22273,
    "Ġcir": 21344,
    "Ġinterruptions": 24189,
    "Ġwarmup": 3925,
    "Ġsavannah": 17419,
    "appl": 9329,
    "Ġdespaired": 14671,
    "Ġempire": 11146,
    "Ġdemeanour": 17340,
    "servants": 15040,
    "Ġquench": 22423,
    "Ġheartily": 6890,
    "hollow": 24045,
    "interview": 19301,
    "Ġoverwhelming": 17103,
    "Ġprotruding": 16661,
    "voc": 8394,
    "happen": 19333,
    "start": 7599,
    "Ġ101": 24409,
    "Ġtransom": 22442,
    "Ġinvolves": 1105,
    "Ġconfession": 11237,
    "Ġambition": 11434,
    "#": 7,
    "Ġcontinue": 5398,
    "Ġswelled": 11089,
    "Ġfugitives": 25635,
    "Ġalive": 4398,
    "Ġankers": 21448,
    "ooping": 21009,
    "ieving": 7033,
    "Ġwhereof": 16107,
    "berish": 22747,
    "Ġsinusoid": 4782,
    "Ġdeified": 18143,
    "Ġeasiest": 23540,
    "Ġskylight": 24076,
    "Ġaccumulation": 2691,
    "Ġfren": 10807,
    "Ġpurchase": 12264,
    "becomes": 22499,
    "join": 12118,
    "Ġelegance": 11334,
    "Ġmisanthropic": 26562,
    "Ġburying": 19254,
    "Ġstir": 5824,
    "indian": 11782,
    "Ġstand": 1735,
    "Ġdivision": 19447,
    "Ġdisown": 22528,
    "Ġengland": 3859,
    "Ġpropensity": 18996,
    "Ġcleanse": 24527,
    "Ġmemoirs": 26207,
    "Ġswords": 19899,
    "Ġinto": 649,
    "Ġrnns": 2393,
    "Ġfasc": 12604,
    "Ġmovement": 9971,
    "Ġgamb": 18000,
    "ctions": 952,
    "spears": 23945,
    "Ġguessed": 11284,
    "uplifted": 17697,
    "Ġvinegar": 20103,
    "Ġcase": 1937,
    "Ġglance": 4233,
    "eh": 13713,
    "Ġheighten": 19532,
    "Ġresolutely": 14611,
    "fisher": 7547,
    "Ġmon": 1250,
    "Ġinitialization": 1251,
    "abounding": 25980,
    "ocris": 23710,
    "Ġledgers": 23941,
    "covenant": 23563,
    "iza": 6257,
    "Ġobliged": 4286,
    "Ġirons": 7696,
    "Ġsnatching": 10474,
    "Ġwrecks": 16820,
    "Ġmalicious": 10560,
    "Ġpurposely": 10446,
    "Ġviolent": 5117,
    "Ġirre": 7468,
    "eridge": 15530,
    "desperate": 17360,
    "Ã¦": 4337,
    "Ġprodigies": 19796,
    "Ġcaravan": 26292,
    "Ġscarcity": 23830,
    "Ġblend": 14402,
    "oring": 1859,
    "ining": 3222,
    "Ġpublisher": 24070,
    "sil": 5283,
    "ight": 403,
    "Ġcrumbs": 19124,
    "Ġleak": 2161,
    "intention": 10370,
    "Ġmessage": 13525,
    "Ġrover": 18457,
    "Ġfrayed": 23303,
    "Ġstates": 1851,
    "Ġsharkish": 24506,
    "Ġaccountability": 10440,
    "whence": 23217,
    "Ġbreathed": 11222,
    "disciple": 16780,
    "Ġrifle": 18213,
    "Ġliberties": 19670,
    "Ġprimitive": 25064,
    "Ġshutter": 16673,
    "Ġforlorn": 14018,
    "Ġpeter": 10538,
    "gan": 2198,
    "Ġslapped": 23174,
    "Ġgroans": 14827,
    "Ġtypewritten": 16426,
    "clearer": 24073,
    "Ġrhine": 12360,
    "Ġcrushed": 9426,
    "Ġinexorable": 12260,
    "occur": 19578,
    "py": 17626,
    "Ġbloodshed": 23803,
    "Ġunex": 11717,
    "Ġbelt": 13011,
    "Ġfreer": 23209,
    "Ġthickly": 12120,
    "Ġgoing": 2065,
    "slackened": 26095,
    "Ġscotch": 12214,
    "Ġnarrative": 6217,
    "Ġdirecting": 16305,
    "Ġcrests": 25686,
    "affrail": 11206,
    ")âĢĶ": 20744,
    "ieged": 22581,
    "leaves": 12584,
    "Ġnorthwards": 19549,
    "chel": 11209,
    "jump": 10106,
    "Ġtumbled": 13409,
    "S": 55,
    "Ġtouch": 3396,
    "Ġcalmness": 12098,
    "Ġeber": 18006,
    "Ġnapoleons": 25886,
    "Ġsyrian": 18355,
    "Ġtranscend": 25668,
    "Ġgateway": 24799,
    "Ġdisquis": 22531,
    "Ġserving": 14488,
    "Ġaccepted": 7751,
    "Ġrighteous": 18948,
    "Ġlav": 13953,
    "ĠĊ": 12528,
    "iro": 20916,
    "myst": 9825,
    "vious": 1784,
    "Ġstirring": 10582,
    "ÿ": 192,
    "Ġtoo": 1163,
    "rically": 15421,
    "Ġbroom": 18908,
    "Ġpostmark": 16727,
    "advancing": 14839,
    "ially": 9250,
    "Ġhappiness": 2943,
    "Ġstrand": 11832,
    "Ġveil": 7934,
    "Ġ1000": 3115,
    "Ġassid": 18947,
    "Ġhuge": 4701,
    "Ġshakes": 10906,
    "Ġboot": 11843,
    "Ġbored": 16110,
    "Ġextract": 1511,
    "Ġtails": 9905,
    "Ġinhabit": 5782,
    "Ġsliding": 9366,
    "<UNK>": 3,
    "refuge": 24733,
    "bern": 20777,
    "Ġubiqu": 18049,
    "royal": 11395,
    "during": 6788,
    "crimes": 16686,
    "Ġcruisers": 25864,
    "Ġexplain": 545,
    "Ġjourney": 3883,
    "Ġappals": 22224,
    "afer": 17484,
    "L": 48,
    "skelter": 24490,
    "Ġaver": 1285,
    "Ġsignific": 3831,
    "Ġchart": 10947,
    "Ġquies": 18465,
    "surv": 24216,
    "ish": 550,
    "Ġjonas": 20612,
    "means": 9789,
    "Ġflirting": 16253,
    "tranquil": 25871,
    "Ġrefers": 1567,
    "barbar": 20241,
    "Ġrascally": 26509,
    "Ġsuitable": 18280,
    "enge": 21283,
    "em": 391,
    "Ġwhistled": 24624,
    "Ġcowards": 12579,
    "awk": 23119,
    "ignantly": 23268,
    "Ġdine": 7366,
    "Ġceremonies": 24837,
    "projecting": 26074,
    "ĠâĢľ": 516,
    "Ġexhibit": 14959,
    "Ġindisp": 18843,
    "Ġret": 1382,
    "Ġexamine": 7735,
    "Ġascendency": 20235,
    "irms": 18169,
    "ylon": 24978,
    "Ġanom": 12617,
    "Ġargemone": 24277,
    "Ġjustification": 22976,
    "Ġexultation": 15175,
    "Ġdodge": 19888,
    "Ġspin": 7630,
    "Ġflower": 16239,
    "Ġwarrant": 17796,
    "rian": 10244,
    "Ġpleasing": 6192,
    "Ġvelvet": 12402,
    "Ġchill": 11756,
    "Ġuser": 15921,
    "Ġrephr": 21682,
    "Ġevid": 3502,
    "ton": 1727,
    "Ġbear": 3660,
    "Ġmiraculous": 13550,
    "Ġpsychology": 11450,
    "Ġoverlapping": 26240,
    "Ġprincipally": 11311,
    "Ġinstantaneously": 23662,
    "Ġmilk": 6486,
    "Ġdesc": 784,
    "Ġnile": 21524,
    "Ġt": 261,
    "Ġscrewed": 15124,
    "Ġimpatience": 7509,
    "suff": 4962,
    "ils": 3183,
    "Ġmy": 412,
    "flight": 15356,
    "par": 1840,
    "Ġmassa": 19457,
    "Ġsprout": 24092,
    "Ġstiffness": 24828,
    "faint": 17547,
    "oura": 1063,
    "ned": 3494,
    "erer": 8735,
    "Ġfulfilled": 11364,
    "health": 13836,
    "Ġdestructive": 23488,
    "Ġwreat": 15535,
    "Ġhieroglyphics": 17306,
    "Ġusefulness": 19411,
    "Ġ28": 19297,
    "Ġinjunction": 19620,
    "Ġsaid": 576,
    "Ġmaintained": 12940,
    "Ġconcernment": 23649,
    "iriously": 18172,
    "Ġinstead": 2787,
    "Ġmoon": 4609,
    "ipelag": 12850,
    "Ġtremendous": 8353,
    "cellar": 20280,
    "Ġwes": 8783,
    "Ġli": 601,
    "Ġinclement": 22557,
    "limin": 8384,
    "Ġfirst": 937,
    "Ġliterature": 17151,
    "Ġstrugg": 3218,
    "Ġrides": 21978,
    "Ġvow": 10249,
    "Ġtropic": 17065,
    "widely": 25344,
    "Ġsemblance": 20736,
    "consolatory": 25307,
    "Ġmethod": 1437,
    "Ġabhorred": 9511,
    "ultaneously": 4194,
    "acknowledge": 18471,
    "Ġphysical": 7522,
    "Ġnormalizing": 1820,
    "Ġshade": 6552,
    "Ġeduc": 4786,
    "travellers": 24339,
    "Ġspiteful": 19525,
    "Ġincorrect": 2726,
    "Ġgilt": 21609,
    "Ġslugg": 15272,
    "Ġcommunity": 19010,
    "Ġlic": 8437,
    "repe": 8780,
    "Ġhereabouts": 12981,
    "iscient": 17853,
    "Ġbuttoned": 25369,
    "manifested": 20529,
    "Ġtalks": 23373,
    "macy": 18803,
    "clergy": 18936,
    "ared": 772,
    "Ġdishon": 12235,
    "ushed": 2971,
    "Ġoverflowed": 20265,
    "ipagos": 22369,
    "Ġdre": 1743,
    "formation": 22220,
    "aths": 22704,
    "unc": 15774,
    "Ġmilky": 9950,
    "prince": 23818,
    "Ġinsanity": 12051,
    "custom": 15336,
    "entropy": 1443,
    "Ġproperties": 3116,
    "way": 765,
    "Ġcocain": 18593,
    "Ġsee": 801,
    "oried": 10804,
    "dropout": 3199,
    "Ġfeeble": 12288,
    "ortment": 22267,
    "Ġagon": 10323,
    "eneva": 5118,
    "ke": 429,
    "pict": 8386,
    "onah": 3336,
    "Ġpail": 15612,
    "Ġhogshe": 20495,
    "Ġcoffee": 6761,
    "Ġshudderings": 25201,
    "resemblance": 25934,
    "Ġmoody": 8201,
    "mouthed": 12404,
    "Ġcomes": 3424,
    "frankenstein": 11393,
    "Ġabruptness": 25301,
    "Ġincomp": 12903,
    "Ġfrancis": 26064,
    "Ġscarce": 8625,
    "Ġtig": 13816,
    "nect": 662,
    "Ġbreezes": 14872,
    "Ġloft": 5642,
    "earth": 6503,
    "Ġcrockery": 24303,
    "Ġattack": 5478,
    "Ġutil": 4674,
    "Ġlasting": 18792,
    "Ġstrateg": 1345,
    "Ġye": 900,
    "Ġcomputation": 964,
    "Ġbolivia": 24668,
    "resembled": 21249,
    "Ġthigh": 10189,
    "Ġbed": 2152,
    "Ġcracked": 8597,
    "bows": 10084,
    "ancy": 4393,
    "ordinate": 12881,
    "Ġcensure": 15099,
    "getting": 12972,
    "Ġentra": 18694,
    "Ġproperty": 6451,
    "Ġunwe": 15844,
    "eminently": 25108,
    "tal": 17672,
    "Ġzeros": 3324,
    "Ġmabel": 17327,
    "Ġirregularity": 25325,
    "Ġpolice": 4676,
    "itiously": 13874,
    "Ġinexhaustible": 16983,
    "first": 3937,
    "umns": 14150,
    "Ġsystemat": 18443,
    "ule": 6801,
    "Ġsurvive": 9069,
    "Ġbehave": 23301,
    "Ġscriptures": 26237,
    "Ġegyptian": 13589,
    "Ġdepart": 4657,
    "couldn": 23720,
    "Ġblacksmith": 6597,
    "venison": 22629,
    "acles": 8522,
    "black": 6769,
    "Ġagonies": 14254,
    "Ġair": 1833,
    "erest": 10699,
    "Ġbad": 3990,
    "arily": 4128,
    "Ġuniverse": 14128,
    "Ġoutlaws": 22327,
    "itarian": 21340,
    "Ġhelping": 3267,
    "Ġomit": 17817,
    "Ġplanet": 14753,
    "Ġweig": 7619,
    "Ġblinds": 8007,
    "protest": 24812,
    "breckinridge": 24078,
    "alously": 15634,
    "Ġstores": 18071,
    "Ġsmokes": 22563,
    "contempl": 13194,
    "Ġcontemporary": 16016,
    "Ġvest": 8163,
    "Ġtoss": 10187,
    "Ġdue": 3847,
    "Ġarrogance": 26233,
    "Ġintelligently": 3860,
    "Ġpeterson": 9486,
    "Ġquivered": 18468,
    "Ġturban": 23615,
    "Ġthat": 335,
    "Ġform": 1020,
    "design": 19343,
    "Ġrequired": 7226,
    "Ġbenchmarks": 15024,
    "labour": 23918,
    "Ġdigesting": 19812,
    "Ġplug": 17150,
    "usiveness": 22297,
    "Ġtener": 21166,
    "Ġgibberish": 25787,
    "achalot": 15868,
    "Ġtranslations": 12056,
    "Ġchose": 7413,
    "Ġwithdrawing": 11342,
    "Ġsideboard": 10388,
    "Ġresembles": 25970,
    "Ġgames": 11629,
    "boo": 16355,
    "scru": 16247,
    "bottom": 11428,
    "Ġparade": 18302,
    "Ġpatagonia": 25859,
    "Ġmoby": 3667,
    "Ġevangel": 11282,
    "feared": 11807,
    "agree": 14070,
    "Ġcrow": 3808,
    "Ġincidentally": 16956,
    "Ġadroop": 26002,
    "bies": 15316,
    "recurrent": 4994,
    "Ġrim": 21972,
    "exertion": 16021,
    "Ġdistrict": 10321,
    "Ġvirtuous": 14758,
    "Ġstript": 23696,
    "fect": 2300,
    "Ġspilled": 10926,
    "Ġscramble": 24579,
    "Ġanimals": 8981,
    "Ġleaping": 8341,
    "Ġdescribed": 6608,
    "Ġbeaufort": 13571,
    "Ġforemast": 12010,
    "Ġupdate": 2461,
    "off": 1884,
    "Ġhaggard": 17333,
    "rugged": 6849,
    "Ġfidgeted": 25890,
    "dling": 15343,
    "Ġbanker": 8670,
    "Ġsleepy": 8268,
    "Ġdipping": 15597,
    "Ġwa": 1752,
    "Ġcheery": 16372,
    "Ġastern": 6091,
    "brown": 15321,
    "Ġsunlight": 13088,
    "Ġ128": 24473,
    "rium": 3133,
    "Ġquick": 2578,
    "Ġpetrified": 19599,
    "Ġaye": 3351,
    "sincerely": 24585,
    "Ġlatitude": 8329,
    "Ġhelpless": 8302,
    "Ġple": 1471,
    "Ġblo": 2731,
    "Ġtranslation": 3085,
    "contains": 16035,
    "Ġglassy": 19563,
    "anced": 1325,
    "Ġiceland": 15150,
    "Ġpall": 7583,
    "sand": 21055,
    "fears": 18532,
    "cook": 8270,
    "Ġendeavours": 8621,
    "Ġcoincidences": 26365,
    "Ġsaxe": 13631,
    "captain": 3957,
    "sense": 11526,
    "Ġcreative": 9833,
    "enit": 17781,
    "Ġape": 21199,
    "Ġcheating": 16371,
    "sch": 21053,
    "Ġbelrive": 18839,
    "whips": 22242,
    "crews": 15045,
    "irably": 13299,
    "agers": 5633,
    "ounted": 5030,
    "Ġsupre": 10272,
    "degrad": 22147,
    "Ġfulfilment": 20190,
    "Ġhaze": 18197,
    "Ġdormouse": 4926,
    "relative": 24017,
    "solemn": 19820,
    "Ġwash": 9706,
    "Ġparted": 5930,
    "gallery": 24694,
    "Ġcoals": 16078,
    "Ġexult": 10232,
    "ever": 1077,
    "instead": 14816,
    "Ġconceals": 23907,
    "Ġhoars": 19077,
    "ceived": 1962,
    "Ġtrouble": 3692,
    "Ġparsonage": 7125,
    "Ġwaving": 8579,
    "Ġrestlessness": 23294,
    "context": 3406,
    "mens": 20971,
    "vative": 1550,
    "Ġsobbing": 14138,
    "Ġhealed": 21686,
    "mology": 12496,
    "meth": 11505,
    "Ġdownst": 3559,
    "Ġundec": 22023,
    "employ": 10897,
    "evidently": 20348,
    "Ġpouring": 12630,
    "Ġgentlemanlike": 12071,
    "Ġaid": 6124,
    "Ġprediction": 2273,
    "tailed": 17687,
    "Ġnovel": 6697,
    "Ġgods": 6455,
    "Ġflesh": 5970,
    "Ġparties": 7040,
    "icing": 9203,
    "Ġsav": 3355,
    "Ġinvaluable": 10185,
    "ĠĠĠĠĠĠĠĠĠĠĠĠ": 12906,
    "Ġsharper": 17182,
    "Ġwing": 6668,
    "linen": 25258,
    "Ġazure": 12378,
    "frightened": 17198,
    "impossible": 8828,
    "Ġessential": 7523,
    "respectively": 24699,
    "fuller": 22502,
    "drew": 7334,
    "delivered": 24102,
    "Ġfools": 14484,
    "dock": 16423,
    "Ġpicked": 6343,
    "Ġbequeathed": 20704,
    "specul": 23946,
    "ensities": 22550,
    "ox": 9136,
    "pet": 4868,
    "Ġrotation": 25475,
    "etime": 12665,
    "Ġappertain": 22223,
    "Ġoutermost": 22323,
    "public": 17648,
    "Ġinsurg": 23683,
    "Ġhovering": 10181,
    "Ġyale": 21783,
    "rated": 6229,
    "Ġguise": 14435,
    "sigma": 3001,
    "sme": 17660,
    "brance": 7284,
    "Ġidiot": 11976,
    "Ġshameful": 19854,
    "isp": 5528,
    "ortal": 6267,
    "Ġpe": 851,
    "hideous": 25408,
    "Ġbloodless": 19341,
    "apable": 6423,
    "assured": 10954,
    "pity": 17629,
    "Ġmusic": 5269,
    "Ġsixpence": 19319,
    "bulwarks": 12277,
    "Ġunthink": 18251,
    "Ġchivalry": 25820,
    "Ġhardened": 14453,
    "Ġren": 3848,
    "Ġpatentee": 25587,
    "Ġlocks": 11728,
    "vanity": 24977,
    "Ġthirt": 13942,
    "Ġassailed": 23180,
    "Ġofficially": 24839,
    "Ġregimentals": 19860,
    "plifted": 9714,
    "Ġincognita": 26553,
    "Ġdrow": 21429,
    "string": 15691,
    "ugues": 19022,
    "iag": 20918,
    "Ġprolong": 6832,
    "Ġcardboard": 19982,
    "Ġtempted": 9059,
    "Ġsil": 1797,
    "Ġenraged": 10247,
    "Ġrich": 2992,
    "makers": 20984,
    "Ġdaughter": 2865,
    "onomy": 12552,
    "glow": 20876,
    "Ġmistakes": 16543,
    "Ġtended": 21169,
    "Ġability": 2761,
    "Ġgoethe": 22426,
    "oso": 12836,
    "Ġauthentic": 20537,
    "tawn": 21083,
    "Ġang": 2510,
    "Ġpreacher": 18370,
    "âĢĶ_": 3203,
    "Ġidiotic": 25589,
    "Ġreeling": 18035,
    "Ġsacrificed": 17425,
    "impatience": 25501,
    "transom": 19738,
    "Ġattend": 5036,
    "stranger": 9886,
    "Ġtwinkle": 12327,
    "Ġcraggy": 23532,
    "ness": 852,
    "Ġobsc": 7041,
    "Ġinexper": 16982,
    "Ġposted": 16726,
    "foundation": 16716,
    "prison": 14665,
    "ĠĠĠĠĠĠĠĠĠĠĠĠĠĠĠĠĠĠĠĠĠĠĠĠĠĠĠĠĠĠĠĠĠĠĠĠĠĠĠ": 19261,
    "Ġwandered": 6930,
    "Ġirr": 10423,
    "Ġelectric": 15198,
    "removing": 17766,
    "prehend": 14245,
    "iments": 4945,
    "etah": 12667,
    "pale": 13775,
    "Ġenig": 15804,
    "Ġmexico": 15284,
    "Ġsafe": 5103,
    "alloyed": 22205,
    "Ġendured": 6074,
    "Ġcanopy": 18322,
    "heeded": 13837,
    "tranquillity": 20549,
    "publ": 17640,
    "Ġfeasible": 22212,
    "writes": 4988,
    ".]": 15302,
    "Ġpermitting": 22403,
    "Ġdrinks": 24282,
    "afforded": 25866,
    "ilege": 22260,
    "leton": 5148,
    "Ġdivert": 23595,
    "Ġinsensible": 12329,
    "Ġurgent": 16871,
    "fluttering": 23976,
    "Ġdandy": 17894,
    "dog": 10696,
    "astic": 1866,
    "help": 1479,
    "anx": 8788,
    "cc": 469,
    "Ġscornful": 24999,
    "Ġphotography": 24684,
    "Ġrenowned": 26195,
    "wondering": 19847,
    "Ġliberty": 7762,
    "Ġhandwriting": 14322,
    "Ġconcealing": 23906,
    "Ġrep": 1934,
    "tale": 10130,
    "other": 1313,
    "Ġunsupervised": 2648,
    "oices": 7348,
    "Ġgust": 21600,
    "ellation": 12755,
    "Ġfibres": 12954,
    "Ġhid": 1317,
    "Ġfeet": 2258,
    "inking": 6711,
    "car": 4212,
    "Ġoutside": 5554,
    "pine": 13772,
    "suspected": 12376,
    "Ġproduces": 2092,
    "ences": 1260,
    "dor": 12456,
    "Ġropes": 10750,
    "Ġstrenuously": 17451,
    "heads": 4097,
    "vering": 15721,
    "Ġofficious": 19351,
    "Ġpier": 7163,
    "Ġ124": 24469,
    "ascar": 8436,
    "Ġunhappiness": 14122,
    "hill": 15366,
    "comrade": 18755,
    "Ġends": 8238,
    "Ġavenue": 13624,
    "ounded": 9751,
    "Ġlevels": 12704,
    "Ġloud": 4702,
    "spersed": 22733,
    "Ġshirt": 8853,
    "Ġricher": 12765,
    "Ġdegenerated": 20509,
    "Ġsemicirc": 16397,
    "Ġvivacity": 14944,
    "Ġmiles": 3807,
    "Ġvexations": 24610,
    "Ġwilful": 10537,
    "ow": 326,
    "54": 15303,
    "Ġclimb": 15083,
    "common": 4131,
    "Ġsuperglue": 23458,
    "Ġadult": 18292,
    "persuasion": 20047,
    "verd": 21731,
    "Ġattain": 12753,
    "Ġdu": 4585,
    "Ġrevolving": 9986,
    "Ġgoble": 14232,
    "Ġlabelled": 23331,
    "reward": 15513,
    "elastic": 17983,
    "Ĝ": 221,
    "interval": 7991,
    "glory": 23855,
    "Ġsinister": 8572,
    "Ġbased": 3338,
    "ommod": 13980,
    "usation": 18402,
    "Ġconsciousness": 9951,
    "Ġridge": 14822,
    "Ġillum": 9403,
    "ilogue": 21728,
    "Ġold": 1061,
    "Ġfishing": 9665,
    "Ġsafer": 22174,
    "language": 5129,
    "Ġprisoner": 8676,
    "Ġsurround": 4618,
    "Ġsynd": 22214,
    "Ġceasing": 23760,
    "Ġchatbots": 11351,
    "Ġsupposition": 9820,
    "Ġwhereon": 16106,
    "majesty": 26282,
    "Ġcooped": 22584,
    "aying": 15755,
    "taste": 10132,
    "abomin": 15747,
    "ĠĠĠĠĠĠĠĠĠĠĠĠĠĠĠĠĠĠĠĠĠĠĠĠĠĠĠĠĠĠĠĠĠĠĠĠĠĠĠĠĠĠĠĠĠĠĠĠ": 7989,
    "Ġperhaps": 1909,
    "ĠâĢľâĢĺ": 8506,
    "Ġchristians": 13312,
    "Ð": 145,
    "tier": 12519,
    "Ġimpute": 18333,
    "Ġrhyme": 21985,
    "Ġmart": 10781,
    "Ġconjure": 17126,
    "itu": 1230,
    "Ġfrance": 7682,
    "Ġcrav": 19175,
    "Ġpasture": 14544,
    "uated": 10134,
    "Ġfloundered": 18864,
    "Ġstraps": 19312,
    "Ġhesitate": 16948,
    "singular": 12193,
    "Ġalow": 18102,
    "Ġsuspic": 4469,
    "Ġyielding": 12191,
    "waited": 24586,
    "Ġimprudent": 12854,
    "Ġharpo": 1939,
    "Ġvancou": 22873,
    "Ġrigger": 19533,
    "Ġchiswick": 25561,
    "Ġscientific": 6857,
    "Ġpod": 15609,
    "lemag": 21375,
    "Ġoutweigh": 22326,
    "urous": 10215,
    "Ġspiracle": 14152,
    "pan": 10718,
    "aped": 3765,
    "coburg": 13601,
    "Ġcrawford": 24894,
    "process": 11150,
    "Ġprair": 7747,
    "Ġlife": 1352,
    "gra": 770,
    "passenger": 24169,
    "Ġfailure": 13318,
    "swift": 14855,
    "Ġbedfellow": 16442,
    "poured": 17639,
    "Ġrmsprop": 3353,
    "tered": 2231,
    "Ġmaximizing": 3170,
    "Ġinfrequent": 3827,
    "capital": 15092,
    "under": 3132,
    "Ġclubb": 22355,
    "hypothe": 25906,
    "causing": 25519,
    "thodox": 21992,
    "within": 6732,
    "Ġpickle": 16724,
    "Ġwar": 5526,
    "Ġordained": 19448,
    "Ġjustify": 11074,
    "artificial": 995,
    "embow": 21935,
    "oblig": 16295,
    "Ġunit": 1848,
    "Ġmoluccas": 25630,
    "Ġagile": 22517,
    "folding": 24928,
    "shout": 22446,
    "gris": 8260,
    "Ġgather": 6536,
    "holes": 12058,
    "Ġdairy": 20689,
    "cases": 12452,
    "Ġportions": 19372,
    "engagement": 14461,
    "Ġcontinual": 6778,
    "Ġhish": 21917,
    "bohem": 19002,
    "nerable": 16280,
    "Ġord": 3737,
    "Ġfireboard": 23535,
    "Ġnlp": 3061,
    "flask": 12104,
    "Ġbelow": 4064,
    "person": 7746,
    "Ġwhitt": 18057,
    "Ġaccurate": 13245,
    "Ġcorrespondent": 19825,
    "Ġsat": 1130,
    "secure": 12240,
    "whereby": 23420,
    "ulia": 18151,
    "Ġabutted": 22289,
    "passed": 8026,
    "Ġscrupulous": 20070,
    "Ġtear": 6725,
    "pretty": 10624,
    "Ġunexampled": 20363,
    "Ġbil": 15570,
    "biqu": 17500,
    "Ġcracking": 14576,
    "Ġsounding": 8265,
    "Ġcrime": 4617,
    "Ġexistence": 4708,
    "Ġscan": 22269,
    "hammered": 19005,
    "Ġreminded": 10002,
    "Ġ*/": 10376,
    "Ġkrem": 9729,
    "Ġvirtual": 11241,
    "Ġpriority": 19765,
    "Ġrefusing": 11030,
    "Ġtour": 9150,
    "Ġcurls": 22937,
    "Ġdiddled": 22670,
    "ither": 1547,
    "aken": 1867,
    "Ġconge": 15751,
    "oup": 2011,
    "Ġmarred": 23035,
    "Ġjulia": 22306,
    "dared": 13706,
    "educ": 10830,
    "easily": 17536,
    "Ġgathers": 24742,
    "admitted": 18094,
    "Ġclassical": 22635,
    "Ġcontextual": 3744,
    "Ġbasket": 9575,
    "attention": 2110,
    "ilent": 21723,
    "Ġneed": 2605,
    "gloves": 25146,
    "Ġastonishing": 10504,
    "Ġbluish": 23654,
    "unusually": 15785,
    "Ġisolation": 17153,
    "N": 50,
    "Ġtam": 7821,
    "Ġembodiment": 20531,
    "Ġcharging": 23270,
    "resembling": 25933,
    "Ġclin": 14204,
    "Ġexceptions": 13233,
    "Ġsong": 5904,
    "ivates": 18276,
    "Ġjew": 9470,
    "companies": 24895,
    "Ġrefrain": 12952,
    "Ġshortness": 23483,
    "Ġgreek": 10633,
    "Ġwalled": 15539,
    "Ġliving": 3062,
    "Ġimprinted": 22397,
    "ials": 11710,
    "Ġdup": 21430,
    "mortar": 25409,
    "Ġdivinest": 25722,
    "Ġmuse": 13863,
    "Ġexord": 21831,
    "Ġroving": 22407,
    "Ġknock": 9976,
    "Ġoxen": 19954,
    "Ġsenor": 20153,
    "Ġsoundings": 13136,
    "Ġjuncture": 17132,
    "Ġdisembow": 22541,
    "Ġindirect": 18844,
    "Ġcottagers": 6762,
    "Ġnum": 1348,
    "Ġpartly": 6715,
    "Ġbrittle": 22863,
    "apt": 733,
    "mand": 3898,
    "adagrad": 9694,
    "Ġhumble": 8553,
    "snow": 10726,
    "client": 18934,
    "went": 6513,
    "olence": 10233,
    "Ġdiscriminative": 4327,
    "while": 2933,
    "Ġresolved": 3801,
    "Ġconcrete": 20640,
    "Ġthere": 563,
    "Ġcalcul": 3640,
    "Ġfrozen": 9016,
    "oam": 8755,
    "Ġunfelt": 24112,
    "dec": 3109,
    "Ġmiss": 1233,
    "Ġoccas": 2701,
    "Ġsteered": 11093,
    "Ġpitched": 9447,
    "considerably": 13448,
    "Ġpostscript": 14811,
    "eling": 6683,
    "Ġwick": 2002,
    "Ġreckoned": 24743,
    "Ġfountain": 7365,
    "Ġcrop": 10165,
    "imes": 1299,
    "âĢĶ.": 11759,
    "Ġsweeter": 23921,
    "Ġbase": 5013,
    "Ġ60": 14878,
    "Ġblanche": 18821,
    "lorious": 17594,
    "nui": 21002,
    "mond": 20976,
    "mouth": 9133,
    "Ġexpedite": 24956,
    "Ġcounsell": 25385,
    "Ġmagnitude": 1940,
    "Ġclubbed": 26549,
    "Ġoccasional": 7289,
    "ansion": 10927,
    "condition": 7060,
    "Ġinjection": 3469,
    "ighter": 7968,
    "Ġrind": 21976,
    "Ġnovelty": 13466,
    "âĢĿ]": 21819,
    "Ġtendons": 19811,
    "Ġnarwhale": 12297,
    "Ġliquid": 22413,
    "outh": 2686,
    "Ġnigh": 4879,
    "Ġbuck": 7158,
    "Î": 143,
    "z": 94,
    "Ġunluckily": 20105,
    "Ġtremor": 24767,
    "Ġarduous": 26533,
    "Ġidentifies": 12019,
    "leman": 21371,
    "Ġpit": 3421,
    "Ġalarmed": 6923,
    "broken": 8020,
    "Ġrewarded": 14943,
    "Ġworshipping": 22931,
    "Ġpanthe": 19656,
    "Ġegg": 8823,
    "Ġpage": 6979,
    "mother": 5480,
    "Ġcompares": 20169,
    "Ġmary": 3846,
    "Ġcatches": 23429,
    "governed": 25406,
    "Ġtide": 6661,
    "Ġcousins": 9918,
    "Ġladies": 3195,
    "Ġacknowledgment": 16959,
    "admirably": 24947,
    "Ġviolently": 6457,
    "ades": 5631,
    "months": 9074,
    "Ġpencils": 23197,
    "perpendicular": 14162,
    "luc": 9755,
    "ask": 858,
    "Ġappropriate": 2250,
    "Ġsteelkilt": 5675,
    "Ġuniversally": 12004,
    "utions": 1887,
    "description": 11094,
    "Ġadvertisement": 6941,
    "Ġassoc": 6403,
    "co": 2432,
    "Ġconveying": 19717,
    "Ġwretchedness": 9029,
    "Ġostrich": 26432,
    "Ā": 193,
    "Ġparticulars": 5754,
    "Ġpacific": 5153,
    "chance": 6827,
    "Ġposter": 14279,
    "Ġtomahawk": 7539,
    "Ġperceiving": 8879,
    "Ġslightly": 7293,
    "hide": 10705,
    "Ġ62": 24365,
    "Ġgravel": 14105,
    "meeting": 11021,
    "Ġhorsey": 24252,
    "Ġlamps": 14794,
    "betrayed": 24641,
    "Ġshipmates": 6722,
    "andes": 18154,
    "ensils": 22552,
    "itely": 5365,
    "Ġcontrivance": 17186,
    "purp": 8091,
    "Ł": 258,
    "elephant": 12355,
    "Ġcustomary": 8673,
    "Ġbeliefs": 24583,
    "Ġxxxiv": 24970,
    "Ġunctuous": 10270,
    "Ġburns": 16526,
    "Ġkeels": 11063,
    "ames": 2878,
    "Ġindebted": 8711,
    "Ġassembl": 20064,
    "Ġimpart": 11784,
    "Ġimperfect": 13343,
    "Ġkindred": 16379,
    "doublo": 24661,
    "Ġforests": 13595,
    "Ġwhirled": 14963,
    "Ġdick": 3499,
    "Ġfac": 6382,
    "Ġjabez": 11770,
    "aco": 12912,
    "acid": 11008,
    "Ġapparel": 20439,
    "ura": 1033,
    "Ġgra": 416,
    "Ġwife": 2583,
    "Ġwool": 19436,
    "Ġfacilitate": 26099,
    "accustomed": 13160,
    "Ġnavigators": 19766,
    "Ġgarden": 3828,
    "Ġequator": 7461,
    "irons": 10241,
    "Ġgaunt": 11270,
    "Ġbrand": 16189,
    "Ġandrew": 21510,
    "Ġcomplex": 736,
    "agation": 1262,
    "Ġminuteness": 19140,
    "Ġtwilight": 16126,
    "Ġassail": 13067,
    "Ġcheeks": 5959,
    "Ġvaliant": 9803,
    "Ġtrib": 13822,
    "Ġheh": 21683,
    "Ġperusal": 14227,
    "arent": 4250,
    "Ġinsolent": 13603,
    "satisfactory": 16895,
    "Ġsurviving": 24637,
    "Ġcondensed": 24057,
    "Ġtreachery": 15105,
    "matical": 13131,
    "Ġunwaning": 24830,
    "Ġ97": 19777,
    "Ġpremature": 3727,
    "keen": 12788,
    "Ġreproof": 24891,
    "Ġgenerative": 5644,
    "us": 532,
    "Ġlives": 4828,
    ".--": 20748,
    "Ġunlocking": 20708,
    "Ġappalled": 22225,
    "darcy": 5208,
    "Ġyields": 19659,
    "Ġmeanest": 12916,
    "pend": 6368,
    "Ġconjoined": 21810,
    "relations": 14736,
    "Ġwake": 4750,
    "arrested": 15606,
    "liking": 22927,
    "anting": 6413,
    "afternoon": 13190,
    "perth": 22185,
    "Ġtriumphantly": 11289,
    "Ġpor": 5225,
    "reproof": 25433,
    "Ġgoal": 10304,
    "Ġallev": 18103,
    "Ġop": 2598,
    "sor": 7352,
    "pling": 8477,
    "Ġpours": 17912,
    "Ġairs": 14512,
    "Ġcommentators": 25230,
    "Ġmetaphysical": 26071,
    "avish": 22600,
    "Ġturner": 7051,
    "pag": 11513,
    "iance": 5280,
    "Ġperformer": 18756,
    "Ġpath": 2114,
    "Ġphiladel": 23888,
    "Ġdrunk": 9427,
    "Ġviolates": 3165,
    "Ġmethodic": 23109,
    "Ġdecently": 22460,
    "shock": 19857,
    "Ġbrave": 6331,
    "Ġknives": 14840,
    "Ġnom": 21522,
    "scand": 18857,
    "Ġflo": 2584,
    "Ġadorn": 12798,
    "Ġcentury": 8291,
    "Ġwarp": 8113,
    "hr": 20890,
    "eprints": 12797,
    "breast": 11247,
    "neglect": 25669,
    "ful": 669,
    "Ġhearse": 10422,
    "liest": 6296,
    "cano": 18848,
    "Ġheard": 1400,
    "ertain": 1210,
    "Ġrush": 5926,
    "Ġpunctual": 17140,
    "sideways": 14574,
    "Ġhelmeted": 19691,
    "Ġfamous": 5256,
    "Ġstages": 14007,
    "Ġampl": 22484,
    "Ġvegetables": 15225,
    "neying": 22467,
    "prosperity": 20737,
    "commanders": 16991,
    "Ġchambers": 16801,
    "Ġdesigns": 13020,
    "Ġdoublo": 6079,
    "arpaul": 14538,
    "Ġno": 511,
    "Ġstrives": 23697,
    "kitty": 10108,
    "Ġ235": 25712,
    "diver": 20833,
    "apologizing": 26546,
    "mind": 4627,
    "Ġdiffidence": 14661,
    "thole": 21990,
    "ains": 5094,
    "Ġslit": 13061,
    "volume": 18597,
    "mant": 20967,
    "Ġdaylight": 10353,
    "Ġvision": 1695,
    "following": 10575,
    "orted": 4604,
    "Ġcommercial": 22677,
    "ucumber": 19058,
    "tattoo": 21090,
    "Ġfig": 3627,
    "andy": 8158,
    "judges": 19576,
    "Ġthemselves": 3252,
    "Ġvestibule": 13539,
    "Ġpiny": 21472,
    "asingly": 17963,
    "clad": 14462,
    "Ġcrescent": 16141,
    "Ġreg": 731,
    "Ġpreternatural": 12829,
    "Ġjackets": 19605,
    "Ġbreath": 4792,
    "Ġadapts": 3820,
    "Ġuniform": 2227,
    "Ġmig": 13859,
    "Ġbennet": 1575,
    "umblings": 23897,
    "organ": 15579,
    "watch": 6120,
    "geese": 22371,
    "Ġinvent": 7165,
    "ult": 722,
    "acled": 16087,
    "Ġshoe": 14569,
    "Ġwides": 17790,
    "Ġhonor": 5664,
    "Ġseaman": 8642,
    "Ġsomeone": 6705,
    "mission": 5971,
    "Ġdiv": 3733,
    "fine": 10093,
    "esteemed": 26010,
    "Ġstress": 18069,
    "convenient": 12242,
    "ne": 647,
    "Ġspouter": 12804,
    "ompl": 4536,
    "Ġmornings": 16242,
    "plete": 10921,
    "Ġwig": 9164,
    "Ġprevents": 2554,
    "Ġireland": 17338,
    "iancy": 13017,
    "Ġmonday": 6129,
    "ground": 4673,
    "conceivable": 17133,
    "Ġgradual": 20604,
    "Ġunder": 1634,
    "Ġsensible": 4976,
    "Ġtraditions": 11445,
    "Ġunheeded": 18265,
    "greatest": 10496,
    "Ġeyed": 12673,
    "Ġlaurel": 20656,
    "Ġcyp": 21348,
    "calmly": 20142,
    "Ġbehavior": 8002,
    "Ġdrily": 23542,
    "fireside": 24693,
    "Ġhare": 5157,
    "Ġar": 482,
    "inian": 21185,
    "Ġexhibited": 9547,
    "introduce": 25187,
    "Ġbeautifully": 13271,
    "Ġquest": 1998,
    "Ġgrounded": 23713,
    "Ġcream": 22720,
    "Ġpled": 17907,
    "Ġpint": 17909,
    "Ġdisinclined": 22533,
    "conceive": 16034,
    "Ġbaptized": 25775,
    "Ġdemanded": 8327,
    "Ġic": 9628,
    "Ġfamil": 4320,
    "atum": 21262,
    "_.)": 7278,
    "âĢĶâĢĻâĢĿ": 20067,
    "Ġfuneral": 10285,
    "plague": 21963,
    "itancy": 21336,
    "Ġcompliance": 12119,
    "fear": 8516,
    "Ġsebastian": 11700,
    "Ġanyhow": 14257,
    "Ġemployed": 5200,
    "Ġcalves": 13039,
    "bru": 12443,
    "Ġmarvel": 23038,
    "terror": 18131,
[...]
