{
  "metadata": {
    "vocab_size": 26615,
    "algorithm": "BPE",
    "created_at": "2026-06-03 06:51:50",
    "special_tokens": [
      "<PAD>",
      "<SOS>",
      "<EOS>",
      "<UNK>",
      "<MASK>"
    ]
  },
  "vocab": {
    "comes": 5394,
    "Ġrebounds": 25968,
    "Ġsubdued": 11031,
    "Ġcoroner": 7510,
    "Ġhedgehog": 10646,
    "Ġcouldn": 7649,
    "ue": 1179,
    "Ġconcise": 23326,
    "Ġassurances": 10002,
    "0": 20,
    "ease": 12461,
    "inging": 5908,
    "Ġlevelled": 11285,
    "Ġphrenologists": 25609,
    "large": 6627,
    "Ġif": 698,
    "Ġhalloa": 13320,
    "decoder": 3645,
    "Ġincalculable": 17462,
    "Ġhovering": 10180,
    "Ġpreparations": 12313,
    "Ġclusters": 25233,
    "Ġtrepidation": 19217,
    "Ġasi": 12736,
    "Ġperch": 10300,
    "Ġintermix": 25827,
    "helmsman": 24288,
    "Ġshipmates": 6721,
    "Ġengravings": 15070,
    "profess": 10630,
    "Ġrecklessly": 16984,
    "oology": 21008,
    "Ġwelfare": 12563,
    "spouting": 25005,
    "miserable": 8660,
    "Ġgrat": 4055,
    "Ġlxi": 21565,
    "Ġdenoted": 16567,
    "greatly": 16625,
    "Ġhalyards": 21498,
    "Ġwhereof": 16106,
    "Ġsuppressing": 23005,
    "Ġvel": 7185,
    "Ġslouched": 13063,
    "hunted": 16833,
    "Ġabode": 7902,
    "geor": 15981,
    "Ġamazement": 7765,
    "hatchet": 24819,
    "Ġsweep": 8267,
    "Ġrud": 8479,
    "Ġincluding": 2846,
    "orrowed": 19291,
    "Ġoctober": 17228,
    "Ġslewed": 23388,
    "Ġsummits": 14684,
    "Ġcoron": 4464,
    "Ġsaturn": 22906,
    "Ġwaterloo": 11983,
    "Ġconvulsive": 19308,
    "Ġmembrane": 20507,
    "igh": 2031,
    "Ġplayed": 9418,
    "Ġbedrooms": 19973,
    "Ġwhiff": 21722,
    "expanded": 23664,
    "Ġneedles": 11185,
    "Ġceler": 15554,
    "Ġsimon": 5172,
    "Ġpens": 21464,
    "Ġcongratulations": 10582,
    "deficient": 23121,
    "Ġtuples": 13480,
    "dor": 12455,
    "orous": 5294,
    "fly": 13716,
    "Ġmet": 1890,
    "feeling": 6618,
    "traced": 19648,
    "custom": 15335,
    "fing": 13715,
    "Ġfagged": 17884,
    "taken": 7560,
    "Ġresisted": 22546,
    "istle": 15873,
    "Ġtant": 12529,
    "Ġdecreases": 3409,
    "Ġdismember": 20218,
    "paying": 25412,
    "cracy": 24691,
    "ips": 2593,
    "fainting": 20476,
    "Ġwoodlands": 23524,
    "Ġwidow": 8666,
    "Ġswimmer": 19462,
    "Ġwer": 12556,
    "engine": 18929,
    "strongly": 24685,
    "ruded": 15900,
    "remained": 8572,
    "Ġsurtout": 23467,
    "igned": 5656,
    "jah": 17582,
    "Ġindolent": 13009,
    "Ġlaz": 7377,
    "Ġrefresh": 10347,
    "Ġcontemptuous": 24677,
    "Ġbegrim": 23021,
    "etics": 21585,
    "william": 4562,
    "ellation": 12754,
    "Ġted": 13814,
    "Ġchances": 9265,
    "glo": 8741,
    "_).âĢĶ": 8685,
    "Ġrenew": 6146,
    "matter": 5136,
    "birds": 15147,
    "pity": 17628,
    "coronet": 16864,
    "Ġvoices": 7878,
    "consciousness": 13369,
    "enth": 6681,
    "Ġfloating": 6605,
    "Ġwilt": 9645,
    "deep": 1019,
    "Ġwalking": 4324,
    "Ġappeared": 2771,
    "Ġbreaching": 23351,
    "Ġvastly": 23863,
    "nature": 5360,
    "Ġissue": 2311,
    "Ġerected": 12237,
    "previously": 17209,
    "rack": 18013,
    "expression": 10549,
    "Ġsnatches": 16546,
    "Ġstepmother": 16093,
    "ignorantly": 25190,
    "Ġmine": 3177,
    "Ġloftiest": 16875,
    "Ġramad": 8529,
    "Ġvehemently": 26040,
    "relative": 24016,
    "superiority": 20188,
    "Ġprovincial": 20652,
    "Ġthreshold": 2805,
    "Ġfollowed": 1793,
    "Ġbrine": 18770,
    "gings": 7549,
    "Ġlun": 7857,
    "girls": 12322,
    "Ġboarded": 13237,
    "Ġminor": 12972,
    "Ġmuteness": 19420,
    "Ġsprawling": 22144,
    "Ġshun": 11712,
    "Ġalle": 11668,
    "Ġintercepted": 25828,
    "Ġgrasp": 4663,
    "alterable": 13627,
    "Ġminimum": 23044,
    "Ġapplications": 4783,
    "Ġfalling": 6914,
    "Ġassign": 11110,
    "Ġfleetness": 20182,
    "Ġdriving": 3618,
    "terogene": 21830,
    "turns": 14908,
    "Ġhasty": 10478,
    "Ġquies": 18465,
    "Ġpatagonia": 25859,
    "Ġburton": 23654,
    "¬": 110,
    "Ġinterconnected": 1341,
    "Ġgladstone": 23872,
    "Ġstruck": 3389,
    "Ġarist": 14161,
    "Ġrelent": 18775,
    "holland": 24045,
    "Ġmu": 17797,
    "Ġtint": 13819,
    "Ġpadd": 9671,
    "Ġstairs": 5540,
    "histicated": 20903,
    "au": 776,
    "Ġgallantry": 15106,
    "Ġeels": 21624,
    "Ġje": 4122,
    "tha": 15826,
    "Ġcomplaint": 24775,
    "Ġprovides": 1928,
    "Ġac": 846,
    "grand": 7971,
    "Ġepicurean": 20558,
    "strade": 5065,
    "Ġparch": 11729,
    "Ġ108": 19687,
    "Ġrepeatedly": 9023,
    "Ġforger": 15736,
    "Ġdress": 4019,
    "rebellum": 26166,
    "Ġopenness": 18958,
    "Ġcul": 17824,
    "Ġreader": 11937,
    "Ġtumb": 21172,
    "stript": 21655,
    "Ġbeeches": 9228,
    "anum": 17837,
    "Ġsnoo": 21231,
    "atious": 10153,
    "Ġtimorous": 24227,
    "retrie": 18926,
    "Ġbranches": 6776,
    "Ġprophes": 16351,
    "Ġcrowded": 8013,
    "Ġsty": 6252,
    "Ġindiam": 22957,
    "enes": 5218,
    "persecutor": 26531,
    "numerous": 17433,
    "Ġoccupation": 9933,
    "Ġid": 1908,
    "ļ": 253,
    "on": 267,
    "Ġsoles": 22084,
    "Ġdoesn": 7437,
    "hogs": 20085,
    "vil": 2728,
    "anted": 5027,
    "Ġfortifications": 23622,
    "Ġabased": 22273,
    "Ġprobably": 4314,
    "rily": 7622,
    "Ġmystery": 5509,
    "Ġencounters": 19583,
    "perfectly": 9088,
    "itable": 5437,
    "empt": 2619,
    "aunt": 8371,
    "Ġfisher": 3222,
    "Ġclasses": 4053,
    "soo": 18686,
    "Ġwandering": 8657,
    "Ġconnected": 5393,
    "Ġadaptively": 4127,
    "Ġarose": 7359,
    "Ġhorrid": 8000,
    "owed": 2272,
    "Ġcarve": 23096,
    "cart": 10691,
    "Ġtreat": 3174,
    "Ġwatches": 11083,
    "luck": 5733,
    "oko": 18442,
    "ogn": 2400,
    "İ": 241,
    "fell": 6952,
    "Ġdisease": 14259,
    "rope": 3183,
    "Ġcalling": 5662,
    "onze": 21258,
    "Ġtackle": 9515,
    "Ġtrod": 15028,
    "Ġesc": 2256,
    "Ġcoding": 8117,
    "Ġthoughtlessness": 16196,
    "Ġane": 9183,
    "Ġbricks": 13565,
    "benevolent": 15236,
    "Ġgraze": 18227,
    "ront": 15420,
    "Ġgros": 14825,
    "ot": 346,
    "approach": 24834,
    "Ġauxiliary": 26419,
    "Ġshot": 4544,
    "orange": 21403,
    "Ġhymn": 24517,
    "Ġleft": 1761,
    "Ġbehind": 2804,
    "Ġimitated": 18331,
    "Ġyawning": 12303,
    "medi": 2629,
    "Ġdistinct": 4609,
    "nuts": 15400,
    "wrapped": 15212,
    "Ġconstraints": 2736,
    "Ġsuns": 23277,
    "Ġassuring": 13068,
    "Ġwat": 1287,
    "wit": 7818,
    "Ġrefine": 3201,
    "Ġstirring": 10581,
    "Ġeverlasting": 9339,
    "Ġelab": 22646,
    "tot": 10729,
    "Ġtown": 2458,
    "augment": 18831,
    "Ġcity": 4530,
    "Ġfinancier": 26584,
    "Ġdisobey": 18560,
    "Ġherbage": 25997,
    "Ġbefell": 14012,
    ";âĢĿ": 7791,
    "Ġamours": 22486,
    "Ġcavity": 20491,
    "discovered": 8326,
    "acetti": 13399,
    "gely": 10701,
    "Ġirene": 8446,
    "Ġappear": 2486,
    "Ġwant": 1118,
    "Ġlord": 2963,
    "Ġemotions": 8971,
    "Ġlevels": 12702,
    "shold": 2769,
    "Ġtouching": 4681,
    "Ġtranspired": 16785,
    "Ġcombines": 1161,
    "Ġwaxed": 21300,
    "tuning": 1580,
    "Ġdisengaged": 12893,
    "Ġvarious": 3508,
    "gard": 7338,
    "Ġship": 1092,
    "Ġhip": 17923,
    "Ġunassuming": 20512,
    "Ġpossible": 2585,
    "wild": 8771,
    "Ġslow": 2380,
    "Ġmemo": 18122,
    "Ġgood": 999,
    "Ġbert": 4582,
    "Ġindomitableness": 26572,
    "Ġemploys": 19434,
    "Ġtail": 3084,
    "Ġbri": 21381,
    "rece": 21237,
    "Ġpersuas": 23950,
    "Ġpieces": 7368,
    "Ġshalt": 18231,
    "aet": 15310,
    "Ġcontrari": 23353,
    "Ġarmy": 11744,
    "Ġwis": 3728,
    "aded": 3548,
    "Ġuttermost": 19491,
    "Ġhos": 4942,
    "Ġbeliefs": 24582,
    "itics": 13874,
    "âĢ": 294,
    "levelled": 23646,
    "Ġasking": 5651,
    "Ġbel": 1216,
    "Ġextinguished": 10343,
    "Ġseeth": 21965,
    "Ġoptim": 802,
    "Ġineff": 12638,
    "insanity": 23072,
    "venth": 9297,
    "Ġdesper": 6177,
    "Ġaboriginal": 14190,
    "Ġimpulsively": 24881,
    "Ġrevellers": 21682,
    "oun": 483,
    "Ġjovial": 19235,
    "Ã¦us": 14819,
    "Ġglow": 7170,
    "Ġjavelin": 26105,
    "Ġdiscovered": 4413,
    "Ġillustrations": 17108,
    "regular": 3038,
    "Ġmurky": 19204,
    "kill": 13746,
    "Ġheroines": 19754,
    "care": 4929,
    "inno": 10757,
    "Ġfountains": 13505,
    "Ġbowing": 10476,
    "bil": 20773,
    "Ġdiscove": 16158,
    "represented": 20198,
    "Ġserve": 9371,
    "Ġshrieked": 9550,
    "Ġbubb": 12588,
    "Ġdesolated": 24809,
    "Ġrapidly": 3301,
    "Ġspitzbergen": 15290,
    "Ġunwillingness": 20035,
    "Ġbestir": 13113,
    "aged": 2608,
    "Ġmeasures": 1206,
    "Ġincess": 8433,
    "ssed": 3734,
    "Ġlurked": 11292,
    "mechanical": 25579,
    "Ġadrift": 11725,
    "Ġdestined": 7976,
    "ieged": 22582,
    "Ġslippers": 19618,
    "waves": 10743,
    "Ġsolace": 16202,
    "welcome": 10003,
    "telling": 14442,
    "sphere": 22740,
    "en": 271,
    "obliged": 20634,
    "stones": 11637,
    "best": 6112,
    "po": 1139,
    "Ġnoiseless": 10358,
    "Ġwaters": 3596,
    "iday": 8833,
    "erted": 7360,
    "Ġprairie": 8716,
    "stamp": 21652,
    "usions": 6160,
    "vib": 21118,
    "rep": 5525,
    "Ġsmelt": 16068,
    "Ġbrooks": 25701,
    "fier": 9595,
    "manned": 18765,
    "\"],": 26121,
    "command": 6577,
    "advancing": 14838,
    "Ġblasphe": 17409,
    "erity": 21270,
    "Ġwherefore": 8526,
    "Ġincapable": 7422,
    "yesterday": 10354,
    "illings": 14144,
    "achel": 7033,
    "Ġep": 7383,
    "Ġungrateful": 14122,
    "Ġplaguy": 22608,
    "Ġdeep": 784,
    "'s": 2472,
    "Ġbreaking": 6311,
    "winter": 10741,
    "Ġmornings": 16240,
    "Ġreputed": 18038,
    "Ġuniversally": 12002,
    "Ġvol": 4190,
    "Ġclumsy": 9581,
    "Ġrank": 6259,
    "._)": 10482,
    "Đ": 209,
    "Ġvehement": 16204,
    "Ġeagerness": 6609,
    "inf": 6233,
    "conjecture": 15125,
    "Ġacross": 1331,
    "project": 16427,
    "duchess": 18464,
    "Ġ26": 10471,
    "cavity": 26127,
    "Ġgo": 614,
    "verty": 8454,
    "cooee": 12421,
    "Ġentrapped": 26264,
    "consult": 24170,
    "ressing": 8921,
    "Ġalcoves": 26487,
    "Ġloads": 22119,
    "Ġsagaciously": 24730,
    "Ġcrad": 21352,
    "Ġsympath": 4862,
    "Ġhesitating": 16948,
    "allows": 15911,
    "í": 174,
    "Ġblessing": 11264,
    "Ġforgotten": 5679,
    "Ġpon": 10177,
    "really": 6971,
    "Ġremonstrance": 20626,
    "Ġinches": 5846,
    "Ġbetter": 1175,
    "Ġreddening": 25971,
    "Ġunderstanding": 1748,
    "agatha": 21913,
    "Ġcertainly": 2498,
    "Ġstrands": 25575,
    "Ġaudibly": 24770,
    "Ġoccasional": 7288,
    "Ġgraves": 11711,
    "Ġpanegyric": 26450,
    "john": 11499,
    "Ġdid": 836,
    "Ġimprobable": 9797,
    "Ġpolitic": 23620,
    "reasonable": 7752,
    "Ġfervour": 19741,
    "Ġice": 3604,
    "Ġresults": 7307,
    "Ġrevolved": 9986,
    "Ġnimble": 21532,
    "Ġclifford": 22358,
    "Ġtrue": 1342,
    "provid": 11150,
    "Ġkinds": 14504,
    "Ġlawyer": 10670,
    "Ġchemical": 10411,
    "Ġharmony": 16815,
    "aul": 6353,
    "Ġstrateg": 1321,
    "Ġsharp": 2418,
    "Ġtumultuous": 10617,
    "Ġver": 3393,
    "slowly": 9091,
    "Ġincome": 7919,
    "Ġartic": 5315,
    "ople": 2319,
    "those": 4496,
    "Ġtruest": 16701,
    "Ġpotential": 3620,
    "Ġdictating": 20155,
    "clopÃ¦": 13060,
    "ires": 6039,
    "Ġwhiskers": 10494,
    "injustice": 17738,
    "roads": 17960,
    "Ġmccarthys": 19665,
    "inguish": 9399,
    "Ġcordage": 19681,
    "conjectured": 25182,
    "Ġtemporary": 7982,
    "Ġgurg": 15676,
    "Ġsincer": 13070,
    "Ġcontrivances": 12360,
    "Ġruled": 22789,
    "imly": 12691,
    "Ġdetest": 8502,
    "_:": 17480,
    "march": 13757,
    "Ġragged": 11849,
    "indul": 22375,
    "//": 11464,
    "inent": 9630,
    "µ": 118,
    "tanh": 5204,
    "fowl": 17550,
    "ratulations": 20129,
    "Ġcontrol": 13083,
    "Ġenclosure": 20627,
    "Ġres": 696,
    "Ġheat": 5453,
    "parted": 21018,
    "harpooned": 24287,
    "Ġign": 8296,
    "Ġundergo": 23241,
    "Ġkeel": 6444,
    "Ġcircumstances": 3927,
    "Ġunwritten": 22035,
    "rades": 8592,
    "Ġtaste": 5524,
    "brevi": 24075,
    "Ġiterate": 13202,
    "Ġdetermine": 3245,
    "Ġtedious": 15270,
    "retrospect": 23145,
    "Ġglassy": 19563,
    "Ġtapped": 11555,
    "Ġflit": 23012,
    "roofed": 26185,
    "Ġbaronial": 23796,
    "took": 6165,
    "Ġharvest": 13418,
    "Ġbonds": 17871,
    "Ġrecol": 4028,
    "mber": 7804,
    "isely": 4489,
    "Ġsubtile": 20383,
    "comparison": 25842,
    "Ġupward": 9723,
    "Ġnecessarily": 13252,
    "ĥ": 230,
    "Ġtriumph": 5143,
    "years": 6882,
    "Ġhave": 444,
    "Ġcurric": 22974,
    "define": 1526,
    "Ġfix": 2508,
    "V": 58,
    "consequential": 26251,
    "Ġwhisper": 6206,
    "Ġtweed": 22681,
    "Ġmir": 9648,
    "ior": 2042,
    "received": 9640,
    "Ġstiffest": 24827,
    "Ġheaving": 7601,
    "trip": 21094,
    "Ġdisinclined": 22534,
    "blocks": 25518,
    "Ġchallenges": 13633,
    "Ġbashee": 19851,
    "osity": 14187,
    "orm": 425,
    "Ġdexterity": 25295,
    "Ġqualities": 7533,
    "exclaimed": 11793,
    "village": 25423,
    "Ġpathetic": 19042,
    "Ġrubbing": 9323,
    "Ġmeditation": 16706,
    "Ġthese": 821,
    "Ġthing": 1639,
    "blister": 24127,
    "Ġqu": 604,
    "Ġtot": 4186,
    "Ġinstructive": 19287,
    "Ġtingling": 15095,
    "Ġghostly": 24651,
    "weary": 22690,
    "Ġinvite": 14563,
    "Ġdomineering": 23679,
    "Ġfang": 21406,
    "Ġcommunicates": 24546,
    "hmael": 7341,
    "Ġprofound": 5497,
    "Ġconvergence": 972,
    "Ġoccas": 2700,
    "irations": 18173,
    "Ġespecial": 26411,
    "Ġexcessive": 3894,
    "Ġnobler": 14177,
    "Ġpredecess": 18526,
    "Ġprotecting": 24687,
    "Ġduplicity": 25332,
    "Ġeuropean": 20049,
    "Ġmainz": 22651,
    "Ġrecommended": 8671,
    "stout": 21643,
    "Ġregulate": 22591,
    "Ġprairies": 20024,
    "securing": 19816,
    "Ġdre": 1743,
    "Ġsized": 11564,
    "Ġechoed": 20427,
    "Ġaveraging": 2422,
    "Ġseam": 3910,
    "read": 3276,
    "Ġtunnels": 24622,
    "sof": 17658,
    "icity": 2540,
    "depth": 12804,
    "Ġhesitate": 16947,
    "Ġregardless": 19325,
    "Ġworks": 5859,
    "Ġnautical": 17388,
    "Ġrecovered": 5481,
    "shot": 2019,
    "Ġsketch": 16167,
    "Ġcentrally": 23835,
    "connections": 14430,
    "Ġcomplaints": 12268,
    "Ġcedars": 20295,
    "Ġoccasioned": 13231,
    "Ġintricacies": 15141,
    "+": 15,
    "pleasing": 14745,
    "Ġsymptoms": 8708,
    "Ġskulls": 12963,
    "Ġtoward": 17949,
    "Ġcalms": 23045,
    "Ġreasonable": 7251,
    "lur": 13749,
    "Ġscarcely": 4006,
    "Ġcrust": 21354,
    "Ġcelebrate": 26359,
    "ribs": 23369,
    "rier": 9244,
    "notwithstanding": 22755,
    "Ġblemish": 19682,
    "Ġfronts": 19003,
    "Ġextending": 11025,
    "Ġimpregn": 26023,
    "Ġmiscell": 16151,
    "Ġcurved": 18848,
    "ė": 216,
    "prints": 23816,
    "Ġmorrow": 9345,
    "Ġspend": 5306,
    "Ġinterven": 10998,
    "overcoat": 19053,
    "hap": 17560,
    "bat": 8073,
    "Ġspr": 4024,
    "ferences": 10328,
    "Ġcloudy": 19480,
    "Ġwholly": 4447,
    "Ġoverflowed": 20265,
    "injury": 25214,
    "Ġindifferent": 6175,
    "band": 3054,
    "pieces": 8758,
    "deck": 4501,
    "ologist": 22872,
    "Ġemerge": 14930,
    "Ġgoodge": 22825,
    "Ġprobability": 1128,
    "Ġwhim": 14001,
    "Ġperfume": 25666,
    "sideways": 14573,
    "hurrying": 14985,
    "Ġcomputes": 4768,
    "Ġleak": 2161,
    "Ġpawn": 12066,
    "glad": 9010,
    "Ġsummit": 7731,
    "Ġguided": 10461,
    "rock": 15644,
    "Ġfuriously": 9804,
    "tracks": 19649,
    "Ġcabaco": 13170,
    "aching": 5832,
    "Ġsank": 5076,
    "Ġbureau": 11592,
    "Ġtin": 15465,
    "asable": 21545,
    "Ġphenomenon": 17919,
    "antucket": 2643,
    "Ġincludes": 2011,
    "formed": 2555,
    "Ġsober": 10911,
    "saturday": 14860,
    "Ġunsupp": 22022,
    "nui": 21002,
    "ele": 9116,
    "Ġsim": 734,
    "Ġclient": 5555,
    "replied": 11567,
    "nor": 2737,
    "apan": 6859,
    "Ġinhabitant": 19758,
    "ys": 3960,
    "arer": 3968,
    "tahit": 17693,
    "Ġmenaces": 23110,
    "aneous": 7239,
    "caps": 20809,
    "Ġarguing": 25471,
    "doc": 23379,
    "mansion": 20985,
    "Ġrep": 1936,
    "faced": 8081,
    "Ġtease": 18797,
    "Ġinheritance": 25356,
    "Ġactively": 18655,
    "Ġrational": 8481,
    "lord": 3867,
    "Ġperuvian": 18454,
    "passed": 8027,
    "rained": 5162,
    "Ġpoetic": 17103,
    "threat": 10901,
    "inced": 3337,
    "Ġfour": 2216,
    "Ġshoot": 11162,
    "blacksmith": 17002,
    "Ġrelation": 2143,
    "Ġindolence": 16231,
    "urean": 18125,
    "Ġepis": 19985,
    "Ġhopeless": 7461,
    "Ġbison": 21391,
    "cigar": 26125,
    "Ġbass": 17857,
    "foot": 9048,
    "restored": 18980,
    "Î": 143,
    "Ġavail": 11227,
    "mason": 17603,
    "Ġcleaned": 23186,
    "ineer": 11702,
    "ok": 574,
    "Ġcompressed": 21855,
    "shabbily": 26248,
    "inu": 1116,
    "arken": 18668,
    "Ġportcull": 23866,
    "Ġoutside": 5553,
    "Ġspanish": 2824,
    "!âĢĶâĢĻ": 23567,
    "ro": 301,
    "Ġinvariable": 13459,
    "Ġsponge": 26004,
    "Ġslime": 23165,
    "taste": 10131,
    "Ġ73": 24262,
    "Ġannealing": 1554,
    "lively": 12488,
    "Ġfog": 9663,
    "icacy": 15661,
    "Ġfile": 13905,
    "Ġwreak": 16818,
    "Ġmercifully": 20181,
    "vicinity": 20483,
    "Ġthimble": 15640,
    "Ġcapting": 23025,
    "Ġskip": 1844,
    ".}": 20747,
    "Ġungovernable": 20711,
    "slight": 10728,
    "Ġchag": 15934,
    "little": 3352,
    "Ġfunction": 584,
    "superstitiousness": 25509,
    "hurry": 24762,
    "Ġdisrespect": 18554,
    "Ġnomin": 10192,
    "Ġhell": 5019,
    "habit": 16192,
    "Ġtamely": 24982,
    "Ġdumbly": 24990,
    "Ġdispersed": 16598,
    "Ġ125": 24469,
    "uning": 1312,
    "ail": 566,
    "Ġstorm": 4301,
    "anelles": 26435,
    "Ġwhy": 1760,
    "recklessly": 25270,
    "Ġadvis": 9809,
    "zeal": 16263,
    "embraced": 25805,
    "Ġprivileged": 20116,
    "Ġdrifting": 19281,
    "Ġtide": 6660,
    "Ġdug": 21434,
    "Ġextraordinary": 5414,
    "Ġaccustomed": 6860,
    "Ġavoid": 5199,
    "ognit": 19185,
    "Ġborder": 10171,
    "Ġmountainous": 16600,
    "Ġcaptivating": 26050,
    "tt": 13792,
    "Ġdined": 9178,
    "Ġmortally": 23920,
    "provoke": 26072,
    "untarily": 6313,
    "pread": 7417,
    "Ġunseason": 22053,
    "Ġpitiable": 9916,
    "Ġsto": 1498,
    "Ġclicked": 22357,
    "Ġdecomposition": 5343,
    "Ġincognit": 22559,
    "into": 3680,
    "frankenstein": 11392,
    "Ġdemeanour": 17339,
    "Ġoverwhelmed": 11404,
    "usages": 22295,
    "Ġwooded": 23523,
    "Ġemptied": 24346,
    "deployment": 26528,
    "Ġinch": 7851,
    "Ġunderstand": 828,
    "Ġevangelists": 20342,
    "Ġprivilege": 11420,
    "Ġan": 286,
    "remes": 21240,
    "Ġroods": 22409,
    "Ġjust": 1241,
    "Ġdisorder": 16053,
    "Ġeloquence": 11845,
    "Ġpromising": 10401,
    "assist": 11770,
    "Ġmultitude": 9327,
    "Ġchart": 10946,
    "Ġ67": 19663,
    "y": 93,
    "Ġdisposing": 19378,
    "Ġstation": 5299,
    "ĸ": 249,
    "ollen": 11299,
    "Ġtopic": 9408,
    "meetings": 20381,
    "osque": 22267,
    "feature": 3792,
    "Ġbalmoral": 16210,
    "right": 2765,
    "Ġjoke": 8871,
    "shows": 22446,
    "Ġfathom": 17048,
    "Ġmechan": 1166,
    "ts": 960,
    "spin": 22738,
    "Ġmead": 8839,
    "Ġremarkable": 4916,
    "characteristic": 24686,
    "Ġbier": 22763,
    "Ġask": 1492,
    "Ġaddress": 2273,
    "Ġarg": 4766,
    "Ġdodge": 19888,
    "accepting": 20138,
    "killer": 20479,
    "Ġber": 5698,
    "Ġhowling": 8511,
    "Ġbath": 9660,
    "bow": 5424,
    "ĠĠĠĠĠĠĠĠĠĠĠĠĠĠĠĠĠĠĠĠĠĠĠĠĠĠĠĠ": 9977,
    "Ġbravery": 23840,
    "Ġernest": 8720,
    "Ġapp": 496,
    "Ġbackstays": 22664,
    "Ġarriving": 19219,
    "paid": 15416,
    "Ġbamboo": 17439,
    "towards": 5003,
    "Ġseclusion": 18209,
    "Ġadam": 2128,
    "Ġtobacco": 8368,
    "Ġswinging": 7448,
    "ieces": 4772,
    "knows": 19174,
    "Ġensuing": 12312,
    "Ġawed": 23587,
    "Ġsimply": 7217,
    "Ġabaft": 22279,
    "Ġpleated": 16299,
    "Ġexhilarating": 26339,
    "Ġhereditarily": 25225,
    "Ġmeet": 2801,
    "murdered": 12206,
    "Ġcomforted": 19394,
    "ruff": 15898,
    "oo": 7553,
    "Ġacquit": 18899,
    "Ġannihilation": 15168,
    "couldn": 23721,
    "cery": 20810,
    "Ġprimal": 17107,
    "Ġformless": 22834,
    "Ġgasfitters": 25041,
    "Ġaudits": 24769,
    "driven": 19774,
    "Ġinclement": 22558,
    "boom": 18999,
    "Ġmerchantmen": 19862,
    "Ġabandon": 12261,
    "Ġbrightest": 13229,
    "Ġepo": 21623,
    "ogany": 18673,
    "igning": 12685,
    "prejud": 11799,
    "Ġcoins": 11822,
    "Ġfalsely": 20585,
    "atigable": 15273,
    "Ġgiver": 21609,
    "united": 14062,
    "Ġhast": 3147,
    "Ġwithdraw": 16965,
    "Ġwhalemen": 3914,
    "Ġopt": 801,
    "achine": 605,
    "Ġfri": 17880,
    "Ġvictory": 16655,
    "Ġnigh": 4879,
    "Ġproper": 1378,
    "anth": 13889,
    "ica": 10200,
    "Ġnotion": 7884,
    "uttering": 12666,
    "greeting": 24553,
    "Ġgibraltar": 25788,
    "Ġtokens": 1772,
    "Ġanticipation": 17058,
    "fresh": 13395,
    "Ġcanoe": 9725,
    "Ġdaniel": 15114,
    "_âĢĶâĢĻ": 13685,
    "osen": 6854,
    "Ġflung": 8565,
    "Ġimpunity": 14219,
    "Ġbra": 3254,
    "Ġingolstadt": 8334,
    "Ġlose": 5028,
    "Ġaffidavit": 20726,
    "Ġfashionable": 19547,
    "Ġsickly": 16775,
    "governed": 25406,
    "Ġmock": 3691,
    "urs": 6989,
    "Ġsurplus": 26304,
    "Ġforbearing": 25101,
    "Ġremoter": 20109,
    "ian": 1238,
    "mannered": 22855,
    "thirty": 12766,
    "desire": 14663,
    "Ġsearch": 2591,
    "promising": 24725,
    "unvarying": 21892,
    "dirty": 20836,
    "Ġnam": 17951,
    "rough": 589,
    "Ġcandles": 9910,
    "Ġirresolution": 24916,
    "ezing": 10575,
    "/": 19,
    "Ġenglishman": 11230,
    "Ġgardiner": 3237,
    "Ġguilty": 7249,
    "ì": 173,
    "Ġturn": 1298,
    "live": 7550,
    "Ġprows": 19891,
    "Ġwines": 21290,
    "rics": 13041,
    "Ġtasted": 12533,
    "Ġanother": 1736,
    "Ġequivalent": 4803,
    "Ġforgo": 21778,
    "Ġ184": 16608,
    "Ġunrel": 14697,
    "Ġselected": 9713,
    "Ġtiger": 11556,
    "Ġtens": 17724,
    "Ġjapan": 7640,
    "Ġretrie": 10384,
    "Ġjar": 15953,
    "Ġcare": 1638,
    "ustomed": 6100,
    "previous": 9763,
    "Ġanimals": 8980,
    "Ġconnexion": 11455,
    "Ġhumour": 7933,
    "Ġexcellence": 11452,
    "uther": 8820,
    "charmed": 21700,
    "ß": 160,
    "endeav": 7150,
    "Ġpals": 13920,
    "Ġhence": 4989,
    "Ġparallelization": 3429,
    ".": 18,
    "Ġ56": 24319,
    "Ġbenef": 3487,
    "ountain": 2916,
    "usations": 15950,
    "Ġdom": 2775,
    "Ġlass": 15651,
    "Ġintimidated": 24802,
    "stretched": 10207,
    "putation": 7625,
    "Ġunbecoming": 22065,
    "Ġbacked": 12928,
    "Ġendangered": 16305,
    "ulates": 14057,
    "elephant": 12354,
    "buckets": 26124,
    "Ġliterary": 25166,
    "ropol": 10954,
    "moonlight": 25376,
    "Ġdare": 3544,
    "nobody": 16148,
    "Ġcomplaisance": 19452,
    "cro": 13699,
    "Ġderived": 8240,
    "Þ": 159,
    "Ġcap": 2362,
    "Ġplease": 4723,
    "Ġbaker": 4696,
    "limp": 20954,
    "Ġmonths": 3453,
    "coward": 13703,
    "Ġwindow": 2995,
    "Ġcovering": 13259,
    "Ġstir": 5824,
    "Ġaglow": 22518,
    "tor": 15434,
    "84": 15304,
    "Ġven": 4647,
    "pulous": 15418,
    "Ġsymmetry": 20369,
    "Ġgroves": 16741,
    "Ġvengeful": 14892,
    "Ġmildness": 9946,
    "Ġpublished": 11242,
    "Ġintellig": 527,
    "Ġdashed": 6011,
    "Ġknave": 11273,
    "bears": 22494,
    "Ġentertainment": 12226,
    "Ġbody": 2438,
    "Ġunfrequent": 24109,
    "value": 18810,
    "Ġdelicate": 6480,
    "Ġoutline": 15957,
    "akened": 7414,
    "Ġhopeful": 19030,
    "Ġsloping": 11942,
    "Ġhorizon": 6634,
    "naturally": 14572,
    "Ġwished": 3729,
    "Ġdoorway": 14498,
    "Ġlad": 2365,
    "Ġlips": 3990,
    "making": 2573,
    "Ġaccurate": 13265,
    "Ġacc": 573,
    "tallow": 21088,
    "volutions": 16325,
    "hs": 8379,
    "Ġgrief": 4620,
    "Ġturkey": 19221,
    "Ġheeds": 24519,
    "Ġirresolute": 24917,
    "Ġbrick": 8928,
    "Ġsust": 7007,
    "gems": 20886,
    "Ġruskin": 25810,
    "orers": 14105,
    "Ġhinting": 19652,
    "Ġaries": 21200,
    "second": 6544,
    "Ġfamil": 4320,
    "Ġdelirium": 10406,
    "Ġdeceitfulness": 25734,
    "Ġstory": 2899,
    "urns": 10215,
    "Ġdeserving": 14756,
    "aternity": 21268,
    "Ġsnug": 8281,
    "Ġcab": 2633,
    "Ġwarmth": 6904,
    "Ġgifted": 17999,
    "Ġ(âĢľ": 15998,
    "Ġdeterm": 1272,
    "crow": 9592,
    "float": 19808,
    "Ġpage": 6978,
    "Ġclad": 12843,
    "omy": 6250,
    "hospit": 25904,
    "ĠâĢľâĢĻ": 22259,
    "otherwise": 7672,
    "Ġestates": 16460,
    "unconquerable": 21896,
    "Ġhonorable": 16877,
    "alleled": 14431,
    "Ġbigot": 24565,
    "ernsey": 8904,
    "Ġenc": 966,
    "harpoone": 6108,
    "pers": 4336,
    "Ġtrusty": 24104,
    "idence": 4302,
    "Ġcontingency": 26246,
    "Ġdarkly": 19116,
    "Ġcontinent": 14890,
    "cc": 471,
    "Ġbrighton": 6470,
    "Ġdeformity": 11678,
    "Ġdismantled": 20219,
    "clock": 3934,
    "Ġapprobation": 10986,
    "party": 8994,
    "Ġaudience": 24768,
    "dishon": 20407,
    "Ġvap": 6836,
    "Ġstudied": 11117,
    "Ġbulb": 23858,
    "plendent": 21963,
    "Ġpipeline": 2344,
    "perhaps": 4121,
    "possessed": 9530,
    "Ġpuff": 6526,
    "downstairs": 23923,
    "Ġexalted": 12415,
    "Ġhaunted": 10255,
    "breeze": 20565,
    "Ġchr": 3688,
    "ougher": 18276,
    "Ġforster": 5230,
    "conquerable": 17401,
    "andering": 21872,
    "Ġunintermitted": 26221,
    "Ġimpropri": 14218,
    "burnt": 20083,
    "Ġ1894": 5196,
    "Ġclearer": 16314,
    "Ġcollateral": 20075,
    "Ġ275": 20114,
    "connection": 18869,
    "Ġproportion": 7280,
    "Ġ235": 25712,
    "Ġstepfather": 7221,
    "Ġtram": 11093,
    "nable": 13764,
    "narrow": 11509,
    "soup": 21061,
    "Ġexempt": 21841,
    "Ġmarvellous": 7538,
    "Ġabed": 22270,
    "Ġtong": 4871,
    "Ġsuit": 5725,
    "mccarthy": 15397,
    "Ġthickness": 13281,
    "Ġdemand": 4947,
    "quarter": 11389,
    "own": 744,
    "act": 786,
    "Ġalarmed": 6922,
    "iscuits": 24667,
    "Ġcomposing": 16070,
    "Ġsavagely": 26325,
    "shirt": 22448,
    "Ġhunch": 18937,
    "Ġtraverse": 18893,
    "abil": 2006,
    "Ġnum": 1350,
    "Ġendurance": 23142,
    "bulwarks": 12276,
    "Ġcompany": 3720,
    "accountable": 7110,
    "Ġcreativity": 3264,
    "Ġponies": 21480,
    "preserver": 20216,
    "Ġsold": 6004,
    "Ġinward": 11609,
    "Ġco": 731,
    "mare": 17600,
    "Ġcatastrophic": 3541,
    "Ġdimin": 3874,
    "Ġclock": 9535,
    "pop": 17632,
    "elev": 12462,
    "Ġsiamese": 20486,
    "elstrom": 17984,
    "Ġsymmetrical": 20370,
    "Ġviciously": 24403,
    "Ġsundry": 20077,
    "Ġeng": 1163,
    "Ġparmacetti": 20607,
    "Ġequals": 4727,
    "aborate": 14024,
    "Ġsits": 10769,
    "Ġneedless": 19231,
    "Ġbeings": 2491,
    "umber": 5240,
    "Ġusually": 6264,
    "Ġnorthward": 13325,
    "Ġency": 21938,
    "Ġloved": 4599,
    "Ġgoat": 16009,
    "Ġstolen": 14009,
    "Ġbeckoning": 20505,
    "Ġdisturbance": 15014,
    "Ġtenderly": 11315,
    "Ġharris": 13929,
    "kinson": 10028,
    "Ġproviding": 1362,
    "devilish": 17082,
    "Ġtry": 3130,
    "backpropagation": 11988,
    "Ġfearless": 9877,
    "cheer": 9439,
    "Ġname": 2085,
    "Ġoptimizer": 5036,
    "Ġcanv": 7010,
    "Ġbegun": 7242,
    "isp": 5528,
    "times": 8100,
    "shavings": 22453,
    "sn": 7139,
    "Ġexamined": 6335,
    "Ġaccost": 12850,
    "Ġsemantic": 1955,
    "Ġgould": 17992,
    "ah": 1833,
    "Ġopposed": 11189,
    "incible": 16498,
    "Ġcargo": 16292,
    "too": 4508,
    "station": 10845,
    "aired": 8370,
    "form": 498,
    "agne": 21910,
    "Ġbuildings": 24719,
    "Ġdrows": 21439,
    "Ġovercame": 9748,
    "Ġrecede": 25969,
    "extensive": 18711,
    "Ġtheatre": 21281,
    "Ġimprudent": 12852,
    "greenland": 10023,
    "extending": 22773,
    "cap": 8374,
    "ugues": 19022,
    "Ġcharity": 8865,
    "ray": 2439,
    "sunlight": 24852,
    "Ġ106": 24413,
    "orate": 10801,
    "Ġdespair": 4007,
    "Ġcompre": 4449,
    "Ġlap": 8439,
    "Ġears": 4491,
    "?--": 15306,
    "Ġsucceeding": 16762,
    "Ġchased": 8864,
    "Ġrejoiced": 8687,
    "Ġdiscomp": 11869,
    "Ġpostscript": 14810,
    "Ġdoes": 942,
    "Ġvessels": 6756,
    "supernatural": 19782,
    "Ġomens": 21331,
    "client": 18934,
    "Ġemboldened": 22970,
    "Ġmultiplication": 2866,
    "schoolmaster": 15164,
    "Ġsociety": 3977,
    "Ġtells": 9363,
    "Ġburned": 8634,
    "riage": 2125,
    "Ġunwarrant": 19936,
    "Ġdist": 680,
    "empty": 23637,
    "Ġwaved": 9646,
    "Ġshuddered": 11301,
    "Ġhardware": 4905,
    "Ġus": 494,
    "civilized": 17075,
    "Ġappropriate": 2252,
    "Ġcirc": 1982,
    "Ġay": 15493,
    "Ġremoved": 5275,
    "itect": 976,
    "Ġpacket": 14895,
    "Ġeventually": 8620,
    "Ĕ": 213,
    "Ġvineyard": 12333,
    "Ġsuperficial": 23458,
    "Ġtok": 1246,
    "Ġwardrobe": 17227,
    "Ġmiz": 10778,
    "Ġprovision": 14827,
    "Ġcolumn": 9330,
    "Ġcharmed": 16763,
    "rael": 21633,
    "Ġrural": 21975,
    "Ġfaire": 13368,
    "Ġrejoinder": 24599,
    "moral": 14804,
    "Ġargue": 16784,
    "Ġcorp": 5573,
    "Ġcalf": 16269,
    "Ġbrown": 6299,
    "ired": 1444,
    "ack": 611,
    "Ġslave": 7453,
    "Ġprudential": 17922,
    "Ġmira": 8409,
    "pt": 387,
    "Ġfanned": 19101,
    "Ġstru": 2170,
    "icirc": 15659,
    "separately": 25228,
    "Ġdraw": 3671,
    "Ġschoolboys": 24480,
    "plac": 15819,
    "ax": 692,
    "Ġhandsome": 4907,
    "Ġbeholding": 8672,
    "Ġamerica": 6763,
    "manner": 6171,
    "Ġstave": 11653,
    "Ġconfidential": 9090,
    "sho": 6425,
    "Ġbundles": 26176,
    "un": 373,
    "Ġentit": 22748,
    "Ġsutherland": 10150,
    "Ġnatur": 17336,
    "ric": 1376,
    "Ġparlour": 12324,
    "Ġshorter": 4499,
    "Ġvoice": 2190,
    "Ġexcess": 3343,
    "pus": 3414,
    "onian": 17768,
    "Ġending": 18924,
    "Ġuttered": 7279,
    "Ġsternly": 16710,
    "Ġinspired": 2519,
    "Ġrash": 10899,
    "jaws": 20934,
    "Ġmunro": 25631,
    "frozen": 25142,
    "destiny": 16700,
    "Ġcrown": 5289,
    "lude": 6162,
    "Ġdiscretion": 10349,
    "counters": 25398,
    "familiar": 19786,
    "Ġinquiry": 6484,
    "ripp": 6404,
    "Ġoperations": 2300,
    "Ġmovements": 24358,
    "Ġconsume": 12962,
    "Ġentertaining": 16927,
    "Ġprovoke": 14828,
    "Ġarrowy": 25470,
    "Ġanvil": 11599,
    "Ġcherry": 16936,
    "recognised": 15265,
    "Ġlethargy": 26484,
    "Ġwithheld": 18117,
    "_âĢĿ": 20763,
    "threshold": 21992,
    "watson": 12247,
    "ville": 6088,
    "Ġuse": 800,
    "Ġmemory": 2277,
    "Ġjoyously": 19350,
    "upon": 2718,
    "Ġdecanting": 22457,
    "Ġpursued": 6329,
    "Ġbal": 1134,
    "groom": 8743,
    "Ġtropic": 17065,
    "Ġwhoever": 10976,
    "Ġdisput": 14257,
    "Ġplumber": 16087,
    "im": 327,
    "Ġscrewed": 15123,
    "start": 7599,
    "got": 6954,
    "Ġbagging": 24538,
    "unct": 18157,
    "Ġparticip": 16134,
    "Ġfervent": 14903,
    "Ġphenomena": 21488,
    "Ġapparatus": 24909,
    "Ġintervened": 25482,
    "Ġmast": 2897,
    "Ġnevertheless": 5040,
    "Ġhuggins": 24826,
    "Ġsatisfy": 6911,
    "Ġegg": 8822,
    "iners": 4937,
    "alid": 13937,
    "Ġevidence": 5270,
    "bowing": 24453,
    "Ġentered": 2841,
    "Ġtowing": 9195,
    "cher": 5786,
    "Ġoutrageous": 20613,
    "forth": 9324,
    "Ġentreaty": 10531,
    "Ġentrances": 25836,
    "Ġconcl": 5095,
    "Ġdemands": 19641,
    "Ġcuriously": 13016,
    "Ġunt": 2295,
    "Ġgor": 9208,
    "Ġproblem": 1273,
    "Ġstupid": 7604,
    "ourselves": 9013,
    "Ġadapted": 11035,
    "Ġscrutin": 26015,
    "Ġunreason": 15845,
    "Ġspirits": 3697,
    "Ġshortness": 23483,
    "Ġunpleasant": 7190,
    "Ġencouraged": 9357,
    "ots": 3294,
    "Ġmeanness": 22600,
    "Ġrecesses": 17262,
    "Ġgradient": 450,
    "Ġsang": 12539,
    "Ġbackbones": 22662,
    "Ġglut": 18855,
    "green": 7116,
    "banish": 20784,
    "Ġunfortunate": 5376,
    "ized": 1528,
    "Ġtold": 2184,
    "Ġangels": 11179,
    "Ġdeserved": 7737,
    "nihil": 9848,
    "Ġruggedness": 26270,
    "Ġflower": 16235,
    "Ġexperiments": 23042,
    "Ġsucked": 14132,
    "Ġhenceforth": 19645,
    "afer": 17483,
    "Ġdifferent": 1426,
    "secut": 7869,
    "Ġdiscuss": 9476,
    "Ġtranced": 18433,
    "Ġsuccession": 12105,
    "Ġmediterranean": 12318,
    "Ġomen": 11578,
    "address": 14883,
    "Ġwarped": 25038,
    "Ġrepented": 23366,
    "Ġspiracle": 14151,
    "Ġrestoration": 19026,
    "Ġpaved": 17915,
    "rights": 23674,
    "Ġrobust": 1338,
    "Ġintruding": 21996,
    "itself": 7835,
    "blunder": 24129,
    "neville": 22470,
    "jaw": 13745,
    "gul": 12469,
    "Ġslope": 14462,
    "proachable": 23401,
    "Ġwollstonecraft": 26426,
    "ouring": 6420,
    "greater": 13255,
    "ashtego": 4102,
    "N": 50,
    "Ġprognostics": 20561,
    "Ġhandling": 8915,
    "Ġadmiral": 17307,
    "Ġpleasant": 4169,
    "Ġconsisting": 8973,
    "Ġfashions": 17887,
    "Ġchancery": 20718,
    "theories": 18081,
    "Ġsingularly": 12152,
    "Ġdistrusted": 13544,
    "erred": 6376,
    "ientific": 6548,
    "Ġobeying": 13417,
    "Ġflavor": 16255,
    "shuff": 18483,
    "Ġappl": 1701,
    "Ġconf": 1819,
    "Ġenlar": 15803,
    "insensibility": 23073,
    "useless": 14595,
    "Ġfins": 9665,
    "Ġbow": 3056,
    "Ġhaul": 11695,
    "Ġinstrument": 7119,
    "Ġenderby": 13654,
    "Ġidolator": 20001,
    "rese": 15510,
    "Ġpound": 12620,
    "Ġrivals": 20274,
    "Ġresolves": 23649,
    "Ġunconsc": 6553,
    "Ġcam": 10163,
    "Ġbequeathed": 20704,
    "sad": 11522,
    "Ġnovelist": 24776,
    "Ġtemperate": 16165,
    "Ġbeggar": 9351,
    "Ġsuperstition": 15058,
    "paused": 17376,
    "Ġastonished": 7088,
    "======": 9835,
    "eh": 13712,
    "Ġcried": 1487,
    "enched": 10156,
    "bar": 7541,
    "Ġsepul": 14092,
    "vous": 2255,
    "Ġcalculate": 13268,
    "Ġsurvey": 13596,
    "somewhere": 12015,
    "ela": 21573,
    "france": 24283,
    "Ġmischie": 22761,
    "Ġwad": 13853,
    "Ġadm": 2406,
    "Ġfoolish": 5981,
    "dress": 17521,
    "made": 4809,
    "Ġchuckled": 10649,
    "Ġforlorn": 14017,
    "ries": 3354,
    "Ġslay": 16308,
    "Ġfamous": 5256,
    "Ġbattalions": 25777,
    "Ġlieuten": 13330,
    "establish": 17395,
    "Ġnaturalists": 10365,
    "Ġclattering": 22356,
    "Ġrejoined": 14929,
    "Ġobst": 6285,
    "Ġskirts": 14354,
    "Ġuprising": 12806,
    "Ġangrily": 9409,
    "Ġfail": 4148,
    "Ġveter": 15814,
    "cheeks": 23810,
    "Ġcruisings": 25865,
    "Ġfixing": 13159,
    "Ġoffers": 12949,
    "Ġmoods": 14953,
    "Ġwon": 1666,
    "Ġjove": 9270,
    "noticed": 14343,
    "note": 14342,
    "Ġepic": 15031,
    "Ġundressed": 19516,
    "asol": 21544,
    "Ġanomaly": 25637,
    "jewell": 25524,
    "ě": 220,
    "Ġdoomed": 11343,
    "Ġale": 9156,
    "pointed": 9812,
    "engineer": 23152,
    "Ġflashing": 13032,
    "preserving": 25305,
    "Ġembarked": 17136,
    "18": 20753,
    "dued": 7911,
    "Ġ16": 7928,
    "cottagers": 20051,
    "Ġroad": 3883,
    "successfully": 14993,
    "Ġresented": 22548,
    "Ġsundering": 23278,
    "sub": 4659,
    "Ġalacrity": 15740,
    "Ġopal": 23628,
    "Ġgrecian": 26297,
    "moon": 10337,
    "Ġpatagon": 14511,
    "Ġrings": 11703,
    "Ġaccursed": 9455,
    "Ġconsec": 21810,
    "Ġicelandic": 25887,
    "Ġdiscern": 7658,
    "scot": 14420,
    "Ġstung": 21743,
    "tained": 4406,
    "ham": 1702,
    "cry": 12449,
    "invisible": 17741,
    "ate": 422,
    "henomenon": 13617,
    "Ġbrawn": 10483,
    "Ġfern": 21410,
    "ince": 4339,
    "mile": 17598,
    "Ġfattened": 25950,
    "Ġsorry": 4210,
    "Ġimpet": 11782,
    "omuch": 21664,
    "Ġjoll": 11768,
    "Ġgroans": 14826,
    "Ġheroine": 24542,
    "Ġamazed": 14891,
    "cases": 12451,
    "Ġadvertisement": 6940,
    "Ġbar": 3144,
    "stave": 21647,
    "gd": 3121,
    "Ġmyster": 5927,
    "Ġnames": 4533,
    "Ġtom": 15636,
    "Ġembod": 14413,
    "Ġinferiority": 17115,
    "clouded": 20334,
    "Ġpack": 5444,
    "Ġbaffled": 12406,
    "tempestuous": 26098,
    "argue": 21448,
    "Ġcapacious": 19178,
    "Ġportent": 12085,
    "Ġbats": 13902,
    "Ġsow": 17750,
    "Ġassailed": 23181,
    "Ġswash": 23059,
    "Ġgranted": 22811,
    "advantages": 11272,
    "Ġstanding": 2997,
    "county": 25397,
    "whereby": 23421,
    "Ġpalm": 10515,
    "Ġhag": 12629,
    "Ġsigned": 11178,
    "Ġseek": 4509,
    "itary": 4751,
    "respective": 19848,
    "hailed": 17566,
    "Ġgiants": 25961,
    "Ġinmost": 17933,
    "Ġphrase": 11188,
    "ructed": 7030,
    "Ġrepeated": 3833,
    "Ġswell": 8951,
    "izard": 10884,
    "cely": 3575,
    "Ġhungry": 10534,
    "Ġsteer": 10388,
    "ie": 729,
    "doublo": 24661,
    "housekeeping": 24102,
    "Ġcour": 1768,
    "Ġcasket": 19727,
    "Ġfads": 21420,
    "Ġflurry": 18862,
    "bitious": 16671,
    "conditional": 9080,
    "Ġscar": 3212,
    "Ġisn": 7868,
    "Ġexpense": 7652,
    "Ġbless": 4342,
    "failed": 20865,
    "Ġsuperseded": 26225,
    "Ġcompanies": 14558,
    "unhappy": 10239,
    "Ġscales": 4851,
    "hopper": 23717,
    "Ġorchard": 22099,
    "Ġsafe": 5103,
    "Ġknot": 7013,
    "Ġcast": 3606,
    "Ġam": 659,
    "ched": 1544,
    "Ġinterchange": 16074,
    "Ġgerm": 13966,
    "southern": 20412,
    "Ġdescried": 7921,
    "sometimes": 5973,
    "Ġinstigated": 18699,
    "axed": 8891,
    "Ġmin": 1027,
    "ootiful": 17375,
    "comfortableness": 24524,
    "hit": 20891,
    "Ġcloudless": 16670,
    "nect": 662,
    "Ġvoc": 4451,
    "Ġbubbles": 11399,
    "Ġjudiciously": 23881,
    "Ġcandle": 8293,
    "shudder": 26247,
    "Ġaw": 2510,
    "congratulations": 20282,
    "contrasted": 17308,
    "initely": 7568,
    "sed": 4176,
    "Ġberry": 19749,
    "Ġcaught": 3730,
    "Ġweaving": 12744,
    "Ġobvious": 4964,
    "avating": 18606,
    "gerine": 22891,
    "Ġvictor": 5125,
    "orient": 2874,
    "Ġweeds": 21929,
    "ctive": 11625,
    "Ġlone": 11615,
    "imony": 12694,
    "Ġharem": 9711,
    "specimen": 26606,
    "Ġauger": 21206,
    "Ġcanvas": 7784,
    "arrang": 14653,
    "Ġdong": 17889,
    "Ġhorr": 3188,
    "Ġinspect": 5965,
    "Ġcivilities": 14850,
    "Ġfore": 2153,
    "Ġspasmodic": 20401,
    "keep": 3853,
    "accept": 8900,
    "Ġgrimesby": 11458,
    "Ġnumber": 1978,
    "comparatively": 25841,
    "Ġdifficulties": 11226,
    "Ġunsub": 22024,
    "wester": 21141,
    "Ġcontinual": 6777,
    "Ġradiant": 16810,
    "gorith": 551,
    "Ġenviron": 4283,
    "floating": 12231,
    "Ġhotel": 8654,
    "neighboring": 20620,
    "Ġdepend": 781,
    "granting": 23417,
    "Ġ0": 1901,
    "ellig": 525,
    "Ġclass": 780,
    "fins": 13721,
    "Ġbawling": 25946,
    "sorts": 21063,
    "ĠâĢĶ": 13813,
    "Ġaccomplice": 24375,
    "Ġorganisation": 23585,
    "Ġjewell": 19523,
    "Ġwast": 21865,
    "Ġeliza": 6437,
    "yrin": 12526,
    "infall": 21191,
    "Ġprophecy": 25706,
    "Ġbelieving": 8226,
    "facts": 19845,
    "arpaul": 14537,
    "Ġlucas": 3834,
    "Ġspleen": 26422,
    "Ġcontribute": 12865,
    "Ġmorphology": 3008,
    "Ġuniform": 2227,
    "Ġexpand": 9309,
    "Ġell": 17716,
    "Ġangular": 19209,
    "Ġtissu": 25921,
    "Ġobservation": 6598,
    "takes": 21079,
    "Ġattacks": 12208,
    "Ġtranqu": 4605,
    "suspended": 15180,
    "Ġcakes": 13886,
    "volut": 1560,
    "Ġstands": 5259,
    "Ġineffect": 13932,
    "Ġsheaves": 22163,
    "Ġshank": 22002,
    "rer": 3623,
    "Ġobeisance": 19761,
    "Ġhan": 15621,
    "Ġlazarus": 15030,
    "Ġdated": 10939,
    "ignation": 11129,
    "Ġrecurred": 18979,
    "Ġsurpassing": 20471,
    "Ġwildly": 9416,
    "Ġumbrella": 15268,
    "speeches": 25240,
    "Ġwould": 652,
    "clam": 13059,
    "Ġleviathanic": 12084,
    "Ġvan": 1089,
    "grim": 19108,
    "Ġandes": 12645,
    "Ġintended": 5547,
    "alley": 23027,
    "Ġpoverty": 9306,
    "Ġdinah": 9456,
    "Ġwedding": 4817,
    "Ġbordered": 24563,
    "Ġans": 1644,
    "remains": 10400,
    "Ġtiller": 8967,
    "Ġbur": 2695,
    "barbaric": 26360,
    "Ġpraises": 16731,
    "Ġ1828": 25720,
    "Ġsleeps": 10447,
    "neither": 9760,
    "Ġequ": 1733,
    "Ġisland": 4047,
    "Ġdark": 2113,
    "Ġdistillation": 16048,
    "Ġknitted": 19592,
    "Ġdominion": 16530,
    "Ġhull": 5446,
    "Ġrepute": 18037,
    "tier": 12518,
    "Ġheels": 10851,
    "Ġbrilliantly": 25123,
    "Ġunspeak": 8853,
    "Ġarsac": 11745,
    "Ġbenjamin": 26568,
    "Ġevery": 924,
    "Ġsecured": 6746,
    "inkles": 7425,
    "Ġtashtego": 4487,
    "repeated": 12342,
    "Ġbreeding": 14522,
    "Ġunwe": 15841,
    "Ġgain": 4829,
    "proceed": 8978,
    "ange": 1018,
    "Ġcomposedly": 25184,
    "Ġvolcanoes": 24146,
    "ino": 15481,
    "Ġbegged": 8232,
    "sery": 17662,
    "Ğ": 223,
    "anyth": 5438,
    "shipmates": 11931,
    "Ġarc": 14160,
    "xim": 1094,
    "Ġnathan": 21530,
    "sample": 12510,
    "pping": 1423,
    "ividual": 5464,
    "frisco": 16788,
    "Ġmar": 1311,
    "watery": 19829,
    "Ġcathed": 14549,
    "bid": 5610,
    "tan": 4742,
    "Ġadopted": 15181,
    "Ġsignature": 16494,
    "achus": 18283,
    "Ġpenetration": 19919,
    "Ġsalutations": 25383,
    "utherland": 9580,
    "fitzwilliam": 11353,
    "boone": 23257,
    "Ġwink": 11571,
    "Ġties": 12531,
    "neural": 3061,
    "Ġbeaver": 18088,
    "posted": 24637,
    "iousness": 4900,
    "Ġplaced": 3442,
    "kempt": 20943,
    "Ġlazy": 17050,
    "problem": 25245,
    "addressing": 24400,
    "Ġtepid": 26413,
    "Ġuncouth": 14550,
    "iced": 3902,
    "Ġhyp": 3875,
    "quite": 4646,
    "Ġrevolt": 24500,
    "Ġtumbled": 13409,
    "mor": 4216,
    "accusations": 23601,
    "Ġimprudence": 10299,
    "tons": 7559,
    "Ġderive": 10396,
    "Ġcivility": 4788,
    "Ġbench": 7237,
    "unknown": 10891,
    "hauteur": 26392,
    "regularly": 13209,
    "never": 3148,
    "biqu": 17499,
    "respectable": 19849,
    "countless": 24150,
    "Ġgive": 1713,
    "igns": 8449,
    "Ġmantel": 11440,
    "Ġadjusts": 8982,
    "Ġworked": 6584,
    "execution": 20475,
    "Ġthence": 8884,
    "Ġcrabs": 19176,
    "grinder": 23418,
    "Ġsil": 1796,
    "latter": 15385,
    "ructure": 760,
    "Ġclaws": 15969,
    "Ġbounded": 16628,
    "Ġstrokes": 16770,
    "Ġsoundings": 13136,
    "Ġren": 3847,
    "comfortable": 7319,
    "Ġspit": 22129,
    "catherine": 7128,
    "cerem": 15681,
    "rocket": 13946,
    "Ġlayer": 1012,
    "Ġomitted": 12568,
    "Ġcords": 14881,
    "Ġventilator": 8717,
    "most": 1257,
    "Ġrenowned": 26195,
    "³": 116,
    "Ġambition": 11433,
    "Ġfishes": 11593,
    "Ġarrives": 23609,
    "Ġ53": 19638,
    "Ġhanged": 17927,
    "Ġoccasion": 3246,
    "Ġhieroglyphic": 25588,
    "Ġjost": 23633,
    "yours": 7696,
    "Ġinherited": 25354,
    "Ġeasiness": 23539,
    "animate": 12581,
    "Ġinference": 9673,
    "miles": 10713,
    "Ġsquare": 2401,
    "Ġcared": 8786,
    "akes": 2220,
    "Ġbarber": 23792,
    "darkened": 24513,
    "Ġshaken": 10266,
    "Ġgleam": 12311,
    "Ġspan": 11731,
    "Ġscruple": 25051,
    "Ġspiritual": 9932,
    "Ġconsider": 2569,
    "typewritten": 26039,
    "accepted": 20139,
    "Ġtomb": 8811,
    "Ġwrithing": 11949,
    "Ġpreach": 14174,
    "allow": 5104,
    "Ġletters": 3794,
    "Ġrouse": 15825,
    "Ġghostliness": 24652,
    "scoured": 22997,
    "Ġdenied": 9002,
    "gn": 8083,
    "entimes": 12660,
    "Ġdrama": 16332,
    "toss": 22571,
    "line": 1439,
    "Ġcomforter": 20510,
    "Ġpitches": 23905,
    "Ġalmighty": 18107,
    "Ġreduces": 2343,
    "Ġassault": 9839,
    "Ġinclude": 1871,
    "clergyman": 20731,
    "Ġessential": 7523,
    "skill": 24486,
    "Ġhomely": 25220,
    "venerable": 26409,
    "Ġchowders": 18387,
    "Ġfemales": 14939,
    "Ġ30": 10513,
    "Ġpopularly": 12245,
    "Ġabilities": 8869,
    "mysteries": 26052,
    "Ġbook": 2699,
    "rosc": 17957,
    "Ġfireside": 23534,
    "Ġclose": 3033,
    "ems": 5235,
    "travel": 24336,
    "Ġvehem": 22892,
    "Ġbrisk": 9805,
    "laying": 19775,
    "wis": 12522,
    "favourite": 15146,
    "Ġglistening": 12368,
    "Ġrepetition": 8974,
    "Ġming": 9647,
    "Ġbounds": 9920,
    "Ġmorass": 22980,
    "Ġproxim": 3198,
    "dart": 20828,
    "japan": 15377,
    "east": 9117,
    "arpo": 1756,
    "Ġscrib": 22288,
    "Ġrecogn": 2597,
    "Ġpossessing": 16577,
    "Ġchilled": 18383,
    "Ġconnectivity": 3667,
    "Ġusages": 15918,
    "Ġenjoyments": 24021,
    "sacred": 17029,
    "umul": 1289,
    "/`": 12432,
    "Ġbillows": 7502,
    "Ġpermanently": 25474,
    "separated": 20162,
    "apothe": 22340,
    "Ġmetropolitan": 17277,
    "Ġshouted": 5348,
    "Ġpreservation": 24632,
    "Ġliquid": 22414,
    "Ġshops": 22006,
    "Ġindicates": 3192,
    "Ġconsecrate": 26490,
    "Ġsurmised": 24920,
    "rength": 4101,
    "Ġfastidious": 14493,
    "lue": 8510,
    "stolen": 13979,
    "Ġcoleridge": 18768,
    "Ġbecame": 2689,
    "Ġvoy": 2620,
    "Ġsitt": 21220,
    "Ġto": 297,
    "Ġfundamentals": 14636,
    "feelings": 5674,
    "Ġblotches": 25315,
    "Ġpend": 15609,
    "Ġpapered": 20134,
    "Ġsprout": 24090,
    "oted": 4597,
    "Ġsyntax": 959,
    "Ġim": 476,
    "Ġaffectionately": 13171,
    "Ġeffusion": 22524,
    "Ġcommitting": 22677,
    "ptic": 21923,
    "Ġsharper": 17181,
    "Ġbriefly": 11368,
    "Ġacquirement": 19257,
    "Ġcoal": 18592,
    "illar": 5101,
    "gy": 2098,
    "Ġdanced": 7843,
    "vice": 15451,
    "convalescence": 24885,
    "Ġbrides": 22869,
    "Ġsuspended": 5665,
    "Ġsimil": 2532,
    "Ġbark": 10799,
    "wreck": 21139,
    "footed": 19692,
    "oof": 15407,
    "Ġreading": 5114,
    "Ġtaking": 3249,
    "hand": 2753,
    "humoredly": 26326,
    "outs": 7009,
    "hairs": 20906,
    "»": 124,
    "Ġlashing": 11618,
    "batim": 25019,
    "Ġborders": 15575,
    "Ġmethodology": 2388,
    "Ġlearning": 386,
    "sweet": 8689,
    "Ġadjust": 2156,
    "Ġgreek": 10633,
    "Ġrestrain": 8966,
    "crimson": 24088,
    "Ġnick": 21527,
    "side": 2302,
    "uced": 13802,
    "Ġlowers": 23245,
    "Ġfunny": 7638,
    "Ġincessantly": 11412,
    "Ġunembarrassed": 22072,
    "Ġcanaan": 22171,
    "Ġpencil": 11946,
    "hereafter": 19218,
    "howling": 18991,
    "Ġchair": 3662,
    "Ġwhip": 8453,
    "ges": 2869,
    "Ġdefend": 9342,
    "Ġpermanent": 13634,
    "musket": 25342,
    "Ġhartshorn": 26182,
    "Ġwhittingham": 26199,
    "Ġattendant": 11286,
    "fortun": 3538,
    "Ġcredited": 25157,
    "Ġcetacean": 25879,
    "Ġslept": 8260,
    "resol": 17761,
    "unching": 18161,
    "Ġhoarse": 14526,
    "convinced": 10624,
    "itory": 12571,
    "oin": 17618,
    "Ġpand": 21459,
    "Ġkindling": 19029,
    "existence": 16017,
    "insist": 23068,
    "apparat": 22852,
    "ette": 15662,
    "Ā": 193,
    "angered": 16181,
    "Ġvoid": 14088,
    "Ġhelplessness": 25074,
    "corn": 13702,
    "sleepy": 24728,
    "elizabeth": 1983,
    "Ġobstin": 14955,
    "skull": 24487,
    "draul": 9445,
    "full": 7419,
    "Ġstroke": 6935,
    "Ġfavoured": 16363,
    "Ġamazing": 9979,
    "Ġfelix": 4850,
    "Ġwinding": 8237,
    "Ġinterpreter": 23217,
    "Ġvoluntary": 14801,
    "meaning": 2905,
    "abounding": 25980,
    "iloquent": 21730,
    "Ġaltitude": 26204,
    "Ġfaintest": 24569,
    "specific": 10499,
    "Ġsoar": 18282,
    "caves": 20818,
    "Ġtoilings": 24741,
    "Ġnarwhales": 24903,
    "Ġdiabolism": 25515,
    "Ġinvested": 7278,
    "Ġbingleys": 18996,
    "Ġsacred": 10931,
    "Ġchoke": 22254,
    "Ġcompletely": 4861,
    "ospel": 17011,
    "amidst": 25653,
    "hors": 9600,
    "evenings": 19466,
    "kitchen": 17586,
    "Ġabhorrence": 9054,
    "tomahawk": 25916,
    "aiian": 23594,
    "Ġgib": 13967,
    "Ġconsort": 18724,
    "Ġdragging": 14477,
    "pents": 11514,
    "Ġviews": 7289,
    "Ġpossibilities": 18978,
    "Ġreconsidered": 21677,
    "smiled": 16615,
    "Ġape": 21199,
    "Ġdece": 6996,
    "Ġwheeling": 18289,
    "Ġinjection": 3465,
    "dry": 13706,
    "Ġspecies": 5112,
    "divided": 25021,
    "Ġclosely": 6488,
    "swaying": 25911,
    "fif": 9118,
    "boilers": 26298,
    "Ġastonishing": 10503,
    "sake": 13785,
    "Ġire": 12673,
    "through": 4023,
    "isons": 17851,
    "richard": 17288,
    "sided": 17665,
    "hew": 5286,
    "pleasanter": 24051,
    "Ġadro": 15870,
    "majesty": 26282,
    "Ġpavement": 9579,
    "Ġbegat": 18864,
    "Ġultimately": 17166,
    "Ġconjectures": 16926,
    "Ġkentuckian": 26344,
    "uish": 5431,
    "Ġtumble": 16880,
    "ensical": 18568,
    "Ġquery": 2481,
    "Ġtemples": 18638,
    "Ġcollectively": 19971,
    "Ġpeninsula": 23203,
    "gar": 5614,
    "Ġsaloon": 24066,
    "accessory": 25500,
    "Ġdiscount": 22785,
    "hoping": 17567,
    "Ġvindictive": 20473,
    "Ġpouring": 12628,
    "Ġoutrage": 15961,
    "iger": 8448,
    "along": 6014,
    "igen": 4832,
    "Ġweeps": 24950,
    "Ġpump": 12625,
    "Ġhints": 8432,
    "blot": 20785,
    "Ġgordon": 26468,
    "Ġlingu": 11616,
    "iquette": 26133,
    "reposed": 24491,
    "Ġdefile": 18825,
    "Ġfears": 5729,
    "Ġuncommonly": 7760,
    "Ġwrecks": 16819,
    "Ġeddy": 13549,
    "Ġpreceded": 13431,
    "Ġfrogs": 23927,
    "hest": 3369,
    "Ġord": 3735,
    "tempest": 16960,
    "Ġaper": 17744,
    "S": 55,
    "Ġfinancial": 23134,
    "Ġderiv": 1735,
    "Ġadjusted": 23460,
    "Ġvari": 833,
    "Ġcold": 3029,
    "Ġdelivered": 11116,
    "Ġmaintained": 12938,
    "Ġprefers": 20517,
    "Ġmodest": 15920,
    "Ġafternoon": 6054,
    "Ġmisgiv": 14347,
    "Ġactual": 3738,
    "Ġswim": 3822,
    "Ġlandlessness": 23383,
    "Ġtouched": 6002,
    "Ġarithmetic": 18342,
    "Ġpredictions": 1456,
    "Ġintensely": 17018,
    "Ġprudent": 9187,
    "Ġornamented": 20365,
    "reproach": 15189,
    "Ġglimpses": 13435,
    "Ġweeks": 4565,
    "Ġraiment": 22655,
    "âĢĶ.": 11758,
    "Ġflame": 7447,
    "berwell": 22722,
    "Ġgenerations": 10965,
    "Ġch": 512,
    "recovered": 19790,
    "Ġfather": 1451,
    "liked": 10510,
    "leap": 21370,
    "Ġreceived": 2948,
    "Ġold": 1057,
    "mong": 15392,
    "Ġvigilance": 12374,
    "hering": 12818,
    "Ġarchitects": 18737,
    "keys": 15861,
    "iline": 21725,
    "disguise": 26307,
    "Ġunqualified": 22062,
    "Ġcomplete": 4382,
    "Ġchamois": 16801,
    "Ġknob": 24406,
    "Ġrooted": 13172,
    "entials": 22667,
    "Ġcomparatively": 9492,
    "Ġstuck": 9222,
    "accompanied": 12425,
    "aments": 12729,
    "especially": 3573,
    "reply": 19725,
    "Ġweedy": 15796,
    "Ġasylum": 13669,
    "Ġscrewing": 20211,
    "Ġstil": 15721,
    "compasses": 19461,
    "purposes": 25024,
    "Ġconciliating": 19049,
    "Ġthinnest": 24184,
    "Ġwheelbarrow": 17206,
    "race": 11633,
    "Ġwave": 7576,
    "reproof": 25433,
    "stripped": 16946,
    "suitableness": 26262,
    "Ġdireful": 11019,
    "?_": 8071,
    "Ġpuppy": 12408,
    "Ġvaulted": 25171,
    "Ġgun": 4702,
    "Ġfolks": 14428,
    "covery": 11172,
    "](": 11467,
    "Ġkeeping": 7282,
    "Ġunpleasing": 22056,
    "Ġcivilized": 8668,
    "Ġleeward": 6211,
    "Ġattribute": 16100,
    "uncomfortable": 18163,
    "Í": 142,
    "Ġecstasy": 11632,
    "otam": 21803,
    "pagans": 25526,
    "Ġfools": 14483,
    "pier": 17636,
    "Ġfibres": 12955,
    "Ġmat": 1149,
    "Ġsullenly": 17174,
    "false": 15357,
    "ithing": 11651,
    "Ġfoiled": 23248,
    "glim": 19368,
    "berries": 22723,
    "Ġobeyed": 12220,
    "Ġgamy": 18001,
    "Ġours": 4612,
    "Ġagonized": 25373,
    "Ġdut": 2987,
    "suitable": 18630,
    "Ġvigil": 9509,
    "ctu": 5088,
    "Ġstrike": 4857,
    "Ġentreaties": 9037,
    "Ġ19": 6720,
    "english": 2770,
    "Ġignorance": 6620,
    "Ġvirgin": 7327,
    "wind": 4252,
    "Ġfebruary": 15916,
    "opy": 4458,
    "Ġindefinitely": 25222,
    "Ġoppressive": 20458,
    "Ġtoilette": 20496,
    "Ġtranquillity": 7536,
    "Ġvestibule": 13539,
    "runs": 25416,
    "ste": 3585,
    "fal": 17537,
    "Ġal": 342,
    "Ġproduct": 3533,
    "Ġsafety": 6340,
    "Ġstandpoint": 23281,
    "Ġprepar": 7899,
    "Ġreserve": 9973,
    "alyards": 18787,
    "Ġobserver": 11991,
    "Ġfrosted": 19806,
    "meeting": 11020,
    "Ġhidden": 1375,
    "Ġwrote": 5011,
    "Ġworsh": 13004,
    "Ġsepulchral": 25893,
    "Ġoverfitting": 1541,
    "Ġexpedite": 24956,
    "Ġsacrificial": 24872,
    "Ġunprepared": 22051,
    "Ġpowdered": 24239,
    "Ġwearing": 12743,
    "Ġriot": 14689,
    "contin": 16544,
    "Ġequin": 14496,
    "Ġhates": 21490,
    "Ġsupplement": 23006,
    "arbuck": 2027,
    "dire": 15338,
    "ction": 500,
    "Ġblandly": 20326,
    "actually": 14299,
    "Ġunc": 2126,
    "Ġpresided": 20210,
    "Ġimpro": 925,
    "Ġstripping": 23699,
    "Ġfre": 1569,
    "Ġprison": 5403,
    "Ġgarments": 15196,
    "Ġjoking": 12841,
    "Ġladies": 3191,
    "Ġphase": 14474,
    "subtle": 24245,
    "Ġbristles": 25845,
    "osoever": 17345,
    "fanning": 20868,
    "striving": 24670,
    "Ġvectors": 1771,
    "Ġmeadows": 11423,
    "Ġblu": 2684,
    "Ġobstacles": 19838,
    "Ġyoked": 15738,
    "Ġflushed": 13031,
    "Ġinferred": 14501,
    "roman": 22009,
    "rimshander": 20659,
    "Ġcontinuing": 14400,
    "Ġalliance": 18269,
    "Ġlik": 2523,
    "ure": 356,
    "Ġcongratulate": 9065,
    "hamlet": 23266,
    "inence": 15483,
    "rising": 7557,
    "Ġuniformly": 19149,
    "Ġcompose": 12906,
    "Ġdefer": 18824,
    "Ġrefreshed": 15293,
    "Ġvexation": 10588,
    "Ġremark": 2146,
    "Ġadditional": 7937,
    "mention": 7214,
    "Ġunluckily": 20105,
    "prove": 11148,
    "whims": 22244,
    "roqu": 21538,
    "Ġyarns": 15198,
    "sebastian": 21825,
    "Ġbremen": 23349,
    "Ġcrater": 16438,
    "Ġconcussion": 26301,
    "inguished": 6599,
    "Ġtempor": 2367,
    "Ġdistant": 5387,
    "Ġeyelids": 26108,
    "backward": 2681,
    "Ġindel": 13008,
    "ilies": 18059,
    "Ġgour": 21602,
    "violence": 16478,
    "compliments": 24807,
    "etymology": 14703,
    "Ġcassock": 20490,
    "sudden": 5316,
    "Ġgetting": 4064,
    "Ġmaster": 3681,
    "astonishment": 10032,
    "Ġintelligently": 4465,
    "haustible": 16892,
    "Ġroll": 5381,
    "itch": 10162,
    "Ġamsterdam": 22489,
    "Ġspouting": 9441,
    "Ġcall": 2077,
    "Ġorganization": 7985,
    "Ġnaked": 8128,
    "painted": 17640,
    "Ġbedfellow": 16441,
    "Ġneville": 7398,
    "Ġvener": 8165,
    "Ġbewitched": 25976,
    "Ġaccumulating": 2719,
    "Ġcommanded": 6331,
    "Ġterr": 3274,
    "Ġsevent": 18203,
    "ades": 5631,
    "conclude": 24070,
    "Ġwork": 1332,
    "Ġweap": 6156,
    "Ġcoloss": 11047,
    "anche": 10789,
    "berish": 22720,
    "Ġla": 5914,
    "Ġsalutation": 12400,
    "shark": 14238,
    "Ġclimates": 25053,
    "Ġjon": 15951,
    "Ġcombine": 4416,
    "nered": 18495,
    "Ġgener": 587,
    "âĢĻ,": 14072,
    "Ġrevenue": 26196,
    "Ġcraw": 7281,
    "Ġconfirms": 23312,
    "pudding": 17648,
    "degree": 12805,
    "showed": 16024,
    "Ġinjurious": 24272,
    "Ġpersecut": 16953,
    "Ġremnants": 22797,
    "Ġhowl": 12859,
    "eddling": 11904,
    "properly": 24919,
    "forced": 11032,
    "possibly": 10545,
    "Ġjustinian": 22978,
    "enances": 10155,
    "Ġstoried": 18075,
    "Ġunshored": 25814,
    "Ġhauled": 11697,
    "Ġsibbald": 21233,
    "Ġgossip": 18471,
    "Ġstacks": 18077,
    "Ġallusions": 10910,
    "Ġrelig": 8552,
    "orney": 17875,
    "Ġdesiring": 14417,
    "Ġnapkins": 25165,
    "Ġcurvature": 3574,
    "justice": 7959,
    "Ġresidence": 8208,
    "phur": 16156,
    "Ġobsc": 7040,
    "gunpowder": 25340,
    "looking": 4032,
    "Â": 131,
    "Ġ2": 2926,
    "Ġfruitless": 25606,
    "Ġraises": 11848,
    "eter": 11623,
    "Ġwatched": 6298,
    "Ġcoff": 3506,
    "Ġtalent": 12300,
    "anks": 3918,
    "Ġfewer": 16218,
    "venant": 22631,
    "fel": 8737,
    "haul": 14768,
    "ustom": 3790,
    "Ġinferior": 8367,
    "igated": 15710,
    "Ġassent": 12737,
    "sust": 15424,
    "Ġoverl": 18428,
    "Ġoblig": 3443,
    "Ġglobu": 23275,
    "Ġbird": 3757,
    "st": 315,
    "Ġsoaked": 15864,
    "och": 21003,
    "Ġdislike": 6049,
    "Ġfurnishes": 19444,
    "etent": 10201,
    "trop": 15438,
    "Ġdirecting": 16302,
    "Ġbristling": 20530,
    "aisance": 15077,
    "Ġthre": 2061,
    "Ġblocks": 6322,
    "Ġstowed": 21741,
    "Ġpuzz": 5532,
    "umerable": 11728,
    "Ġleaking": 21750,
    "Ġincisive": 18571,
    "Ġmonomaniac": 9570,
    "near": 5843,
    "Ġempty": 5354,
    "Ġunacquainted": 12779,
    "Ġphysiognomy": 25611,
    "Ġjetted": 24430,
    "Ġmagical": 23102,
    "Ġmetropol": 11141,
    "Ġdiscovery": 5412,
    "quet": 6834,
    "Ġstore": 8455,
    "bitter": 11241,
    "Ġdaugh": 2294,
    "Ġpoetry": 15083,
    "Ġdaft": 19666,
    "Ġfell": 1974,
    "ĕ": 214,
    "ran": 11517,
    "Ġgpt": 4350,
    "Ġreducing": 1954,
    "Ġmeek": 21817,
    "Ġbuttons": 12785,
    "Ġverses": 17064,
    "Ġmisconduct": 22759,
    "Ġcries": 7154,
    "Ġdivision": 19447,
    "interests": 19711,
    "cellar": 20280,
    "Ġimpulse": 10026,
    "Ġhairy": 23868,
    "Ġconsiderable": 4004,
    "pacing": 21023,
    "ints": 3416,
    "Ġunwillingly": 15851,
    "Ġhospital": 15041,
    "whom": 8186,
    "Ġtum": 5692,
    "ering": 1269,
    "Ġnext": 2141,
    "Ġpip": 1608,
    "Ġwhirl": 13452,
    "Ġmiles": 3805,
    "Ġpettic": 14843,
    "Ġallegor": 25546,
    "Ġaddu": 22106,
    "Ġamusement": 8057,
    "angel": 5726,
    "ð": 177,
    "Ġrelations": 5853,
    "twist": 23704,
    "Ġmanage": 7641,
    "deed": 1520,
    "Ġicicles": 25265,
    "knife": 6941,
    "learn": 2363,
    "Ġstrong": 1786,
    "Ġfrequ": 3329,
    "Ġhire": 21489,
    "tumultuously": 25614,
    "Ġrequires": 1059,
    "blog": 19842,
    "Ġheeded": 13406,
    "rog": 15643,
    "G": 43,
    "Ġframe": 1925,
    "newsp": 23139,
    "Ġtransactions": 18494,
    "mystical": 25318,
    "Ġtattoo": 7358,
    "icherry": 15138,
    "Ġplains": 14623,
    "stood": 4116,
    "Ġsystem": 568,
    "Ġsuccor": 25663,
    "Ġcloset": 19594,
    "rive": 9709,
    "Ġwarm": 2428,
    "formation": 22226,
    "Ġabatement": 22281,
    "barn": 17484,
    "cost": 19189,
    "Ġforeseeing": 23452,
    "Ġtelegra": 11893,
    "arrant": 10475,
    "naturedly": 24841,
    "izar": 14052,
    "Ġperches": 18450,
    "Ġimpartial": 15222,
    "softened": 20413,
    "withdrawn": 23031,
    "Ġsuav": 22081,
    "Ġaustralia": 15235,
    "Ġboa": 22641,
    "Ġdiffidence": 14660,
    "ied": 941,
    "Ġcrazy": 8596,
    "Ġclassify": 1573,
    "Ġeasterly": 25963,
    "Ġelimin": 16111,
    "Ġalas": 5923,
    "mph": 20974,
    "Ġcommod": 10335,
    "Ġsanta": 26421,
    "Ġinjunctions": 24271,
    "Ġrotterdam": 25476,
    "waters": 11334,
    "Ġjava": 12315,
    "Ġevol": 2811,
    "Ġcoer": 22583,
    "gee": 15980,
    "Ġfamiliarity": 16730,
    "Ġfire": 2333,
    "anger": 2172,
    "cil": 8724,
    "Ġxerxes": 23414,
    "rods": 21542,
    "Ġprecise": 7076,
    "otion": 4946,
    "Ġunwonted": 15009,
    "Ġwelcomed": 9484,
    "Ġrigid": 16717,
    "Ġemploying": 23981,
    "Ġai": 3124,
    "Ġyellowish": 24429,
    "quar": 7616,
    "Ġfreezing": 23886,
    "offing": 23336,
    "onsible": 22566,
    "Ġagile": 22517,
    "Ġfronted": 23261,
    "ieve": 1658,
    "eted": 7592,
    "Ġnorth": 4319,
    "Ġclump": 15968,
    "Ġwall": 3844,
    "Ġbearing": 5300,
    "Ġengaged": 3428,
    "Ġarticulated": 24432,
    "whaling": 7901,
    "Ġsailing": 5324,
    "Ġkramm": 26235,
    "Ġaccording": 5508,
    "Ġstool": 14463,
    "ladies": 9531,
    "Ġtie": 10751,
    "Ġunlock": 18241,
    "lording": 24054,
    "Ġshol": 22000,
    "attentive": 17191,
    "Ġalphabetical": 17203,
    "Ġstationary": 19697,
    "possesses": 24618,
    "Ġsy": 484,
    "has": 4011,
    "Ġtarred": 23611,
    "Ġfe": 490,
    "menced": 23150,
    "Ġcit": 10784,
    "events": 12320,
    "exagger": 22433,
    "Ġforcibly": 10063,
    "ĠĠĠĠĠĠĠĠĠĠĠĠĠĠĠĠĠĠĠĠĠĠĠĠĠĠĠĠĠĠĠĠĠĠĠĠĠĠĠĠ": 4517,
    "Ġdefray": 22945,
    "Ġtoll": 7853,
    "Ġreversed": 15700,
    "Ġ82": 24457,
    "Ġimmediate": 6090,
    "Ġconnivance": 25226,
    "Ġcosmetic": 23473,
    "Ġlaying": 7910,
    "Ġdrooping": 9422,
    "supers": 22639,
    "police": 10585,
    "Ġdraughts": 20224,
    "Ġwisdom": 11234,
    "Ġumb": 11648,
    "Ġyours": 4123,
    "â": 163,
    "introduced": 15127,
    "Ġexpiring": 16101,
    "Ġabsolute": 6765,
    "Ġfulfilled": 11363,
    "Ġexploitation": 2348,
    "Ġmerely": 3771,
    "ġ": 226,
    "Ġcondensed": 24056,
    "oring": 1858,
    "Ġwithstand": 10227,
    "Ġinteresting": 4325,
    "Ġlaws": 8004,
    "Ġinattention": 17934,
    "Ġequatorial": 13511,
    "iding": 3848,
    "Ġaffliction": 25846,
    "Ġirreparable": 20002,
    "perseus": 26006,
    "relu": 17760,
    "Ġeyelashes": 26107,
    "Ġmirror": 12381,
    "Ġquar": 3110,
    "Ġpope": 11604,
    "spass": 18689,
    "Ġgnawed": 25168,
    "Ġpolynesian": 26027,
    "worse": 14692,
    "Ġcheer": 4065,
    "racts": 14367,
    "Ġmildly": 9031,
    "reasoning": 9478,
    "Ġearls": 18905,
    "Ġseap": 15820,
    "Ġor": 437,
    "Ġdwelling": 7321,
    "Ġmostly": 7665,
    "absent": 21795,
    "pth": 2382,
    "Ġgrooves": 16742,
    "bring": 9107,
    "Ġnarwhale": 12296,
    "Ġdistributions": 1052,
    "istry": 22114,
    "tom": 15437,
    "gle": 20871,
    "Ġwalrus": 14975,
    "Ġcus": 21346,
    "Ġtwisted": 7227,
    "Ġross": 2761,
    "Ġtops": 14587,
    "Ġwhitish": 24867,
    "Ġsmilingly": 22565,
    "Ġgloried": 22991,
    "therly": 18339,
    "mult": 8751,
    "ential": 826,
    "Ġenergies": 25460,
    "Ġtwopence": 18661,
    "ethics": 8880,
    "Ġubiqu": 18049,
    "Ġplain": 2814,
    "Ġcontextually": 11962,
    "Ġintrepidity": 25551,
    "et": 307,
    "elsewhere": 19870,
    "withstanding": 8947,
    "commun": 15035,
    "unctions": 18158,
    "Ġunderwent": 23242,
    "Ġchall": 10945,
    "cousin": 10654,
    "Ġvicinity": 7314,
    "gird": 20881,
    ",)": 9103,
    "Ġfeatures": 1430,
    "foundered": 20869,
    "Ġpay": 3963,
    "Ġdecoyed": 18491,
    "Ġseeing": 2880,
    "Ġair": 1835,
    "Ġexistence": 4707,
    "\\": 64,
    "Ġnods": 19062,
    "Ġrepublic": 14531,
    "Ġphysiology": 25333,
    "Ġbits": 11590,
    "wic": 21123,
    "hes": 1398,
    "ication": 986,
    "Ġblasp": 14403,
    "Ġrod": 9282,
    "orse": 5807,
    "Ġfiery": 6870,
    "Ġviolates": 3163,
    "direct": 12460,
    "Ġvery": 636,
    "Ġdecorated": 22459,
    "abular": 4762,
    "Ġremedy": 18725,
    "Ġconstitutional": 25128,
    "ildad": 3531,
    "leaving": 10792,
    "grasp": 16433,
    "usage": 12837,
    "Ġsovereign": 10064,
    "causes": 20346,
    "ĠĠĠĠĠĠĠĠĠĠĠĠĠĠĠĠĠĠĠĠĠĠĠĠĠĠĠĠĠĠĠĠĠĠĠĠ": 23665,
    "calculating": 25690,
    "hood": 2657,
    "Ġbob": 22642,
    "Ġinsince": 23681,
    "outside": 12808,
    "bench": 16804,
    "Ġdifficulty": 5770,
    "âĢĶ(": 15941,
    "Ġretreating": 19802,
    "Ġfeeling": 3079,
    "Ġhistorical": 3646,
    "Ġplenty": 6709,
    "reflections": 24734,
    "sion": 8095,
    "Ġforegoing": 23451,
    "Ġfits": 8794,
    "Ġcryst": 9919,
    "Ġelasticity": 19561,
    "Ġneglected": 10379,
    "Ġcommodores": 25375,
    "ivory": 10272,
    "Ġwild": 2603,
    "Ġtrait": 23078,
    "Ġesquimaux": 25154,
    "olds": 9313,
    "aviour": 11005,
    "Ġtinted": 13824,
    "fields": 14654,
    "Ġforesee": 19126,
    "Ġoverdone": 22365,
    "Ġmournful": 12339,
    "qual": 8158,
    "gether": 1593,
    "Ġspots": 11732,
    "ander": 6401,
    "Ġslu": 13838,
    "Ġostlers": 25277,
    "Ġaffirm": 11890,
    "ulsive": 10235,
    "german": 11493,
    "Ġconsol": 3816,
    "Ġstacked": 21748,
    "Ġcolony": 18767,
    "prises": 23817,
    "Ļ": 252,
    "Ġchallenge": 25472,
    "observed": 7676,
    "Ġp": 289,
    "atic": 4016,
    "Ġcooped": 22585,
    "distant": 13338,
    "odiac": 14030,
    "Ġcharger": 19007,
    "chard": 21691,
    "Ġrods": 9755,
    "Ġreb": 15694,
    "Ġearnestness": 12129,
    "Ġconstit": 8586,
    "hush": 20908,
    "Ġcolder": 22860,
    "insurance": 18889,
    "approbation": 11459,
    "gies": 13728,
    "Ġrepining": 23364,
    "Ġryder": 10260,
    "Ġiron": 3234,
    "Ġscents": 22287,
    "kindness": 10507,
    "Ġbranch": 8333,
    "boil": 19000,
    "Ġsquee": 7930,
    "Ġdivinest": 25722,
    "cool": 19190,
    "Ġclanking": 20614,
    "Ġcage": 17827,
    "symp": 14633,
    "complexion": 14363,
    "Ġspeaker": 19150,
    "langu": 4808,
    "Ġeight": 3903,
    "Ġtight": 8109,
    "Ġincul": 22554,
    "Ġinsp": 2102,
    "Ġcrucifix": 26080,
    "garden": 15027,
    "Ġprinciples": 10013,
    "organ": 15577,
    "adequately": 20322,
    "impatient": 13643,
    "Ġbulwarks": 5591,
    "ky": 4520,
    "Ġcherish": 10591,
    "completely": 12423,
    "shad": 10981,
    "oton": 3607,
    "Ġinfat": 14500,
    "baggage": 24927,
    "Ġejac": 10205,
    "Ġoverthrown": 18431,
    "Ġasse": 8161,
    "Ġsubsets": 2346,
    "Ġgri": 17990,
    "author": 9862,
    "Ġferocious": 17421,
    "ackled": 22425,
    "Ġtract": 21168,
    "Ġvoids": 25808,
    "avery": 13686,
    "ufactured": 15184,
    "urons": 3127,
    "Ġstraining": 11328,
    "ars": 905,
    "ina": 21182,
    "meanwhile": 10611,
    "scent": 13025,
    "Ġrely": 8824,
    "Ġbingley": 1677,
    "Ġdazzling": 15214,
    "ornamented": 26596,
    "derer": 4600,
    "Ġquarrels": 16568,
    "Ġdiabolically": 25514,
    "Ġstartled": 7083,
    "Ġring": 4452,
    "til": 17672,
    "Ġreigns": 21675,
    "Ġtaught": 6803,
    "Ġmach": 13859,
    "Ġthee": 2623,
    "circle": 16737,
    "iffe": 21907,
    "Ġoust": 21327,
    "Ġpetrified": 19599,
    "Ġshuttle": 12130,
    "Ġdevouring": 11862,
    "_.": 2214,
    "Ġcompletion": 12151,
    "Ġunsc": 22015,
    "Ġ42": 16679,
    "Ġearly": 2081,
    "Ġtortoise": 16909,
    "eded": 9675,
    "Ġclothing": 18424,
    "Ġorganically": 3009,
    "-": 17,
    "ssible": 2991,
    "utch": 21590,
    "icient": 788,
    "Ġcucumber": 21359,
    "Ġroman": 8324,
    "incl": 8111,
    "commer": 22828,
    "Ġoil": 3373,
    "Ġlan": 5821,
    "Ġarrangement": 2655,
    "Ġincomp": 12901,
    "Ġexchanged": 10883,
    "Ġsuppressed": 11914,
    "Ġfondness": 16781,
    "Ġsymp": 4503,
    "Ġdates": 6694,
    "Ġethere": 23954,
    "cele": 21629,
    "queg": 1770,
    "Ġsending": 8779,
    "Ġcoll": 8222,
    "Ġactor": 16051,
    "Ġaccosted": 13675,
    "kshire": 13748,
    "Ġhair": 3315,
    "Ġunceasingly": 20362,
    "Ġalone": 2567,
    "Ġpride": 3825,
    "xt": 2083,
    "ably": 1846,
    "easy": 9594,
    "arabian": 26447,
    "ectual": 21920,
    "Ġlabeled": 3717,
    "ises": 3654,
    "someone": 14564,
    "Ġmouldy": 14976,
    "Ġthomson": 26455,
    "Ġpangs": 15618,
    "medical": 23347,
    "deemed": 18316,
    "Ġnoble": 3438,
    "coil": 23561,
    "supplied": 10521,
    "Ġwisest": 11233,
    "ª": 108,
    "Ġmariners": 6069,
    "Ġquivering": 12862,
    "\":": 9583,
    "Ġsagacious": 14973,
    "Ġcovers": 18593,
    "manners": 16187,
    "ss": 396,
    "Ġoverhear": 15976,
    "Ġconcluding": 9859,
    "Ġplight": 14283,
    "Ġlabourers": 23334,
    "Ġlunging": 24994,
    "acc": 2534,
    "connect": 1293,
    "Ġgent": 7382,
    "Ġpathways": 11154,
    "Ġqueer": 4479,
    "Ġperturbation": 20444,
    "mews": 22717,
    "Ġrestrict": 16376,
    "Ġinsist": 9891,
    "Ġyer": 15737,
    "Ġholidays": 22926,
    "wid": 10136,
    "Ġoughts": 23904,
    "Ġsmiles": 6707,
    "crews": 15044,
    "Ġbosom": 6938,
    "inclination": 20061,
    "Ġsquared": 1382,
    "Ġpork": 21462,
    "Ġsubproblems": 12961,
    "turbaned": 24531,
    "Ġroundabout": 23065,
    "Ġreduced": 11927,
    "Ġjoists": 19234,
    "romang": 22010,
    "Ġ109": 24415,
    "Ġparl": 8179,
    "isive": 10794,
    "Ġmagg": 18907,
    "mayhew": 23995,
    "Ġpo": 737,
    "Ġunguarded": 15853,
    "Ġshame": 6410,
    "Ġreview": 18033,
    "ĠĠĠĠĠĠĠĠ": 711,
    "Ġaccomp": 4713,
    "nearest": 16029,
    "Ġtarquin": 23612,
    "leaning": 10791,
    "Ġtech": 1621,
    "disgu": 19157,
    "anxiety": 25159,
    "Ġbuilding": 8064,
    "support": 9471,
    "Ġnibbling": 17387,
    "Ġblackness": 9395,
    "borrowed": 20794,
    "Ġfragment": 14506,
    "Ġsubt": 11871,
    "Ġcaulk": 25441,
    "Ġsteelkilt": 5675,
    "itarian": 21340,
    "Ġpairs": 4182,
    "related": 24015,
    "Ġmodels": 759,
    "Ġcostly": 23586,
    "Ġrecover": 9791,
    "51": 12434,
    "Ġattentions": 5879,
    "Ġrays": 10332,
    "Ġminister": 18753,
    "ibles": 18786,
    "Ġspread": 5161,
    "gin": 4931,
    "Ġsevered": 18206,
    "Ġhatchways": 24992,
    "Ġmedit": 8026,
    "endom": 15926,
    "noo": 9793,
    "Ġmaintainable": 12939,
    "plate": 18200,
    "Ġweighty": 16035,
    "mountain": 10714,
    "Ġopening": 5045,
    "Ġstark": 7389,
    "ergy": 2361,
    "Ġactions": 6279,
    "Ġcivil": 4679,
    "Ġteacup": 16211,
    "Ġfreckled": 18960,
    "neighbouring": 19967,
    "Ġperched": 10301,
    "Ġcircle": 4977,
    "Ġcolleague": 17161,
    "Ġremo": 3786,
    "Ġceleb": 20228,
    "Ġmichigan": 26427,
    "Ġpatron": 7464,
    "eternal": 17985,
    "Ġindistinctly": 26118,
    "Ġsatir": 18795,
    "Ġdissatisfied": 14258,
    "aren": 10076,
    "Ġfrequently": 4680,
    "Ġstile": 21737,
    "visible": 10535,
    "Ġscaling": 3632,
    "Ġoutlined": 22325,
    "Ġcardboard": 19982,
    "Ġvanishing": 1348,
    "rann": 21047,
    "overed": 2849,
    "Ġrenounce": 19471,
    "Ġwere": 557,
    "Ġhierarchical": 1926,
    "Ġextrem": 2477,
    "Ġdint": 15594,
    "sence": 3308,
    "gentleness": 24845,
    "acing": 2714,
    "shine": 9288,
    "Ġsash": 17755,
    "arians": 18527,
    "rador": 19129,
    "Ġloops": 8855,
    "Ġdisabled": 18562,
    "Ġfocuses": 8653,
    "Ġwhims": 12696,
    "Ġluff": 15656,
    "âĢĿ]": 21820,
    "Ġbeaten": 10530,
    "achable": 14139,
    "Ġbell": 4635,
    "saf": 11526,
    "created": 12454,
    "close": 9988,
    "Ġtablets": 13158,
    "Ġrabbit": 4289,
    "Ġcapabilities": 4377,
    "Ġqueequeg": 2012,
    "lid": 20947,
    "Ġauthor": 4375,
    "Ġcurt": 18845,
    "Ġmabel": 17326,
    "ographical": 16787,
    "goodness": 19290,
    "Ġequinoctial": 20535,
    "Ġmeetings": 16534,
    "Ġunheeded": 18259,
    "Ġraved": 22654,
    "Ġtraces": 7947,
    "Ġedinburgh": 16457,
    "quiet": 6155,
    "Ġamphitheat": 26253,
    "edily": 17946,
    "jumping": 20248,
    "erial": 4631,
    "Ġbarriers": 23797,
    "Ġarrangements": 16516,
    "although": 8809,
    "Ġpeev": 22697,
    "Ġcourse": 2132,
    "Ġchancing": 22253,
    "Ġ15": 9326,
    "opinion": 10985,
    "worshipping": 16611,
    "Ġpewter": 17187,
    "Ġflows": 13014,
    "irium": 8163,
    "Ġsly": 9634,
    "Ġlids": 12279,
    "Ġchaff": 18384,
    "Ġeconomy": 17202,
    "spanish": 14333,
    "Ġdomineer": 23678,
    "poles": 16213,
    "Ġupdate": 2466,
    "Ġstrove": 9959,
    "Ġhieroglyphics": 17305,
    "Ġcrawl": 11376,
    "Ġdivineness": 25724,
    "88": 20760,
    "accomp": 10456,
    "Ġpurchased": 12264,
    "Ġbolivia": 24668,
    "acquired": 24297,
    "Ġenvelope": 7318,
    "apprec": 22850,
    "Ġreg": 733,
    "Ġsports": 18311,
    "iard": 9603,
    "Ġplunging": 14954,
    "Ġcarcase": 14446,
    "Ġotherwise": 4657,
    "Ġcontact": 9283,
    "Ġsky": 3969,
    "allowance": 16825,
    "Ġelevation": 14899,
    "tra": 5002,
    "Ġbulge": 23860,
    "Ġscound": 12836,
    "Ġcorpus": 13036,
    "marest": 20982,
    "Ġdeparted": 5563,
    "Ġri": 3394,
    "Ġopened": 3511,
    "magnificent": 20277,
    "lu": 597,
    "Ġintroduces": 3269,
    "Ġgans": 5822,
    "Ġsatisf": 2803,
    "Ġpale": 4532,
    "twig": 23702,
    "Ġheidelburgh": 11645,
    "sharpening": 22454,
    "Ġsince": 1795,
    "Ġgives": 5018,
    "Ġpointing": 5661,
    "Ġeconomically": 25289,
    "Ġ112": 24436,
    "Ġpot": 2989,
    "Ġmorsel": 20680,
    "row": 1065,
    "iamond": 14591,
    "dron": 17526,
    "bene": 6113,
    "Ġtouches": 20573,
    "shroud": 20313,
    "points": 14396,
    "Ġincline": 18570,
    "ribe": 1223,
    "Ġhabitations": 24788,
    "ilent": 21724,
    "sperm": 5203,
    "Ġhoisting": 9864,
    "ouched": 4636,
    "Ġseethings": 26504,
    "Ġamounted": 18513,
    "Ġgardeners": 12124,
    "Ġcape": 5146,
    "Ġundiscernible": 22069,
    "etch": 9206,
    "Ġunharmed": 15142,
    "Ġmarch": 4081,
    "Ġu": 324,
    "Ġforecastle": 5495,
    "Ġearliest": 9832,
    "Ġaromatic": 25926,
    "Ġpatted": 16384,
    "Ġroy": 4228,
    "Ġbeds": 14553,
    "dwelling": 20567,
    "?": 35,
    "elope": 14468,
    "Ġquebec": 24132,
    "Ġrushes": 20511,
    "Ġpresto": 22235,
    "Ġbatt": 13901,
    "infant": 19830,
    "dman": 10090,
    "Ġgettest": 23237,
    "Ġsquatted": 25843,
    "Ġcliffs": 15970,
    "chased": 18044,
    "Ġboundary": 11223,
    "Ġgrieve": 14709,
    "ahawk": 23320,
    "sus": 6229,
    "Ġbasement": 24701,
    "Ġmaximizing": 3167,
    "Ġadvocate": 13679,
    "Ġvanish": 8930,
    "Ġupheld": 22156,
    "Ġwade": 17786,
    "ieved": 3229,
    "Ġhare": 5157,
    "aggoo": 5130,
    "proportions": 22841,
    "raid": 3280,
    "Ġrevolution": 3306,
    "Ġorganize": 8993,
    "ence": 394,
    "Ġtwins": 16123,
    "ĠĠĠĠĠĠĠĠĠĠĠĠĠ": 22567,
    "particular": 5757,
    "Ġway": 1088,
    "dear": 6556,
    "rubbed": 22185,
    "Ġuncovered": 23435,
    "bots": 10084,
    "Ġrick": 21978,
    "belated": 24041,
    "Ġvisiting": 10364,
    "Ġarchipelagoes": 14350,
    "Ġpatch": 4181,
    "scho": 8763,
    "mastod": 23977,
    "kinder": 24846,
    "allingly": 22206,
    "Ġembedding": 2105,
    "Ġlaughter": 9029,
    "Ġtand": 21163,
    "yourselves": 24961,
    "Ġstays": 16563,
    "Ġsophisticated": 1630,
    "Ġchairs": 12830,
    "Ġpul": 2043,
    "remote": 23194,
    "Ġprov": 4401,
    "Ġmot": 2984,
    "unfearing": 21897,
    "sugg": 11842,
    "aid": 1920,
    "Ġmassac": 14738,
    "Ġsuspect": 5758,
    "Ġcunning": 6239,
    "laz": 15388,
    "Ġcascade": 20584,
    "Ġlecture": 13570,
    "ay": 355,
    "Ġimpenitent": 26549,
    "Ġsideways": 6183,
    "gods": 13370,
    "tarpaulins": 26406,
    "Ġjeopard": 9945,
    "Ġaccord": 4025,
    "Ġgrammars": 11403,
    "Ġpursuit": 4733,
    "oses": 3947,
    "dataset": 23244,
    "Ġcrawled": 17044,
    "Ġunfrequ": 19511,
    "Ġlustrous": 20159,
    "Ġyelling": 18099,
    "Ġbiographical": 22765,
    "alescence": 15927,
    "Ġincreas": 1694,
    "antique": 18288,
    "Ġsaratoga": 26424,
    "Ġskies": 8923,
    "Ġrounding": 16277,
    "occ": 4485,
    "Ġdispose": 23882,
    "Ġplaint": 10327,
    "tish": 17678,
    "Ġmoulded": 16976,
    "Ġscolding": 15203,
    "Ġlucerne": 23867,
    "~": 98,
    "):": 11462,
    "Ġoutriders": 26544,
    "Ġsocks": 14135,
    "Ġmorals": 22981,
    "Ġthickets": 24026,
    "Ġbelong": 3888,
    "Ġdiscoveries": 13362,
    "txt": 12519,
    "Ġimplement": 3097,
    "Ġadmiration": 5329,
    "Ġtriumphant": 12193,
    "Ġobstinate": 11337,
    "odings": 4400,
    "Ġswearing": 16465,
    "Ġsufficiently": 8975,
    "âĢĶâĢĿ": 3299,
    "Ġexasper": 8468,
    "Ġstrange": 2275,
    "Ġflatt": 16250,
    "Ġconfusion": 7272,
    "might": 4077,
    "affect": 13215,
    "Ġplantation": 11424,
    "mission": 5971,
    "Ġpractices": 19065,
    "Ġpair": 5706,
    "Ġremembering": 14611,
    "Ġhappen": 5570,
    "conclusion": 25672,
    "Ġslightly": 7292,
    "ord": 666,
    "Ġunexpectedly": 19911,
    "ters": 1571,
    "decease": 25558,
    "ú": 187,
    "comrade": 18745,
    "Ġbildad": 3782,
    "ific": 491,
    "inery": 17734,
    "believe": 8305,
    "Ġallen": 5160,
    "embers": 21932,
    "sink": 11523,
    "el": 306,
    "Ġdriven": 6199,
    "beth": 13691,
    "Ġsees": 8846,
    "Ġvision": 1683,
    "althy": 8434,
    "Ġpur": 2218,
    "fifty": 12355,
    "Ġarsacides": 17296,
    "person": 7746,
    "Ġspermaceti": 8969,
    "Ġintermission": 18590,
    "swells": 26149,
    "Ġappearances": 10452,
    "Ġhorizontally": 17013,
    "lets": 7837,
    "chers": 11318,
    "Ġwanderings": 20146,
    "Ġfuneral": 10284,
    "Ġhairs": 13234,
    "Ġajar": 21205,
    "Ġdeck": 2140,
    "Ġbutter": 6841,
    "Ġforc": 9229,
    "manif": 14375,
    "Ġpantry": 20298,
    "Ġclimax": 25054,
    "uble": 21105,
    "Ġscreen": 17207,
    "omb": 10208,
    "lean": 21368,
    "Ġansw": 2205,
    "Ġeber": 18006,
    "arse": 7160,
    "learning": 2549,
    "fleece": 19951,
    "Ġthe": 270,
    "Ġdeficiencies": 26571,
    "construction": 19781,
    "Ġtiles": 17727,
    "Ġworshipping": 22932,
    "ocean": 12404,
    "Ġ98": 24595,
    "Ġfurniture": 6476,
    "Ġdavy": 25952,
    "Ġmaw": 15543,
    "aspect": 10195,
    "Ġfixedly": 19250,
    "Ġgranting": 18736,
    "will": 1966,
    "Ġconfidence": 6591,
    "Ġdeposited": 25485,
    "Ġlory": 12656,
    "Ġimagine": 3925,
    "isen": 10793,
    "afflicted": 23781,
    "Ġbarred": 9004,
    "marriage": 7745,
    "Ġprep": 4192,
    "trucks": 25420,
    "Ġpregnant": 26536,
    "removed": 15518,
    "rarely": 21638,
    "circumst": 5349,
    "Ġhellish": 10552,
    "Ġcheating": 16369,
    "Ġbands": 14886,
    "Ġfancies": 10425,
    "Ġsolid": 6443,
    "Ġprot": 3849,
    "Ġshocking": 10436,
    "disinterested": 23503,
    "att": 1457,
    "tur": 5688,
    "Ġomit": 17817,
    "Ġcandelabra": 26603,
    "Ġinvent": 7164,
    "jected": 22718,
    "request": 21244,
    "Ġpallidness": 25605,
    "disgraceful": 26077,
    "Ġaimed": 20253,
    "Ġimpressions": 9555,
    "Ġsquaring": 22846,
    "Ġmole": 11794,
    "Ġencodings": 4775,
    "Ġaffrighted": 13575,
    "Ġbelieves": 14410,
    "rah": 8138,
    "Ġhum": 1101,
    "Ġmassacre": 20550,
    "elve": 4641,
    "Ġgpus": 3732,
    "icates": 11619,
    "Ġpostp": 12147,
    "Ġcondense": 21813,
    "Ġcontribut": 12863,
    "Ġholiday": 13002,
    "onstrate": 17769,
    "yden": 21146,
    "Ġdrawled": 23992,
    "Ġstains": 21746,
    "Ġprompt": 3187,
    "Ġgush": 10204,
    "Ġbuckskin": 19955,
    "rum": 3468,
    "95": 17479,
    "Ġchas": 18380,
    "Ġcombinations": 22859,
    "arches": 10817,
    "Ġfriendly": 9822,
    "Ġarray": 12814,
    "Ġsays": 3561,
    "reated": 10304,
    "Ġdrought": 19280,
    "Ġsummons": 13235,
    "Ġtechni": 1662,
    "Ġverd": 6918,
    "ifford": 15787,
    "Ġimp": 583,
    "olly": 3225,
    "Ġunfelt": 24110,
    "Ġtrusted": 10519,
    "spot": 9792,
    "fight": 17539,
    "ssian": 3399,
    "800": 17478,
    "om": 316,
    "Ġprogram": 12998,
    "said": 4104,
    "peleg": 16296,
    "Ġflattering": 13033,
    "Ġprovocation": 24193,
    "acceler": 23600,
    "Ġsickening": 19607,
    "Ġundet": 16702,
    "Ġrio": 23894,
    "enari": 21284,
    "slouched": 24556,
    "Ġlightnings": 16355,
    "Ġcasts": 19429,
    "one": 615,
    "fle": 7129,
    "Ġresembles": 25970,
    "Ġportly": 14679,
    "Ġsurely": 6308,
    "mish": 17599,
    "hue": 20901,
    "rogress": 21540,
    "Ġpartake": 18674,
    "Ġhovel": 8255,
    "Ġemble": 13973,
    "aried": 10988,
    "Ġencoura": 1368,
    "Ġsublim": 19970,
    "wreat": 21130,
    "steps": 9407,
    "erxes": 21278,
    "cur": 3271,
    "Ġferule": 24515,
    "descried": 11932,
    "Ġpauses": 14817,
    "Ĭ": 237,
    "Ġstove": 6734,
    "ancies": 11586,
    "Ġhumane": 11887,
    "aths": 22705,
    "Ġwerter": 15242,
    "Ð": 145,
    "Ġattending": 3285,
    "Ġjones": 7203,
    "Ġoccup": 3740,
    "Ġabsolut": 3912,
    "Ġcollinses": 19131,
    "Ġpraised": 19556,
    "set": 3868,
    "Ġsubsequently": 16163,
    "Ġbowed": 6243,
    "Ġabounding": 12347,
    "Ġslighter": 18942,
    "Ġjumping": 13345,
    "missed": 11210,
    "Ġdiversity": 25285,
    "meal": 22716,
    "59": 17475,
    "Ġpace": 9185,
    "Ġpane": 21467,
    "Ġwilfully": 16767,
    "Ġtechn": 9368,
    "trivial": 21095,
    "Ġstash": 18070,
    "Ġdeath": 2045,
    "ga": 17551,
    "Ġnoticing": 18225,
    "Ġsecond": 1878,
    "Ġspas": 10923,
    "Ġcommence": 6168,
    "yes": 983,
    "Ġdiscipl": 22788,
    "Ġnooks": 26012,
    "jeroboam": 25620,
    "Ġbit": 2961,
    "cd": 15325,
    "Ġfulfilment": 20190,
    "provided": 13640,
    "Ġdisappearing": 22538,
    "Ġmeagre": 21818,
    "Ġshaft": 18230,
    "Ġdiadem": 24740,
    "diff": 9115,
    "Ġinfamous": 16367,
    "Ġtout": 17720,
    "elfare": 11780,
    "bidden": 19739,
    "probably": 10022,
    "Ġpassionate": 11274,
    "Ġascend": 9962,
    "countryman": 24640,
    "Ġtrous": 10962,
    "Ġconversing": 14634,
    "ivorous": 22092,
    "Ġmystic": 7503,
    "Ġjelly": 22305,
    "Ġdistracted": 11806,
    "mortals": 25410,
    "Ġroot": 2649,
    "Ġcannibal": 7774,
    "Ġfurthest": 22818,
    "way": 764,
    "_--": 20764,
    "Ġphil": 3385,
    "llable": 6878,
    "Ġpigs": 19750,
    "urmountable": 15282,
    "comprehend": 14362,
    "extric": 22772,
    "Ġreplied": 2267,
    "Ġninety": 13604,
    "bran": 23576,
    "Ġconversed": 13189,
    "ently": 1613,
    "down": 3467,
    "Ġconstraint": 16514,
    "otently": 21805,
    "Ġspasmod": 12417,
    "insufferable": 21195,
    "Ġcasualties": 25513,
    "quadr": 15767,
    "examined": 17268,
    "Ġmist": 2872,
    "Ġpassionately": 16765,
    "Ġpremium": 23908,
    "Ġmetal": 9386,
    "progress": 11990,
    "belonged": 25598,
    "Ġreliance": 14387,
    "Ġpenny": 16316,
    "Ġiii": 7862,
    "oftener": 23968,
    "level": 2652,
    "Ġavalanche": 17435,
    "stache": 15692,
    "Ġprophesy": 26062,
    "Ġeffemin": 18545,
    "hro": 20893,
    "ellations": 21949,
    "lances": 15386,
    "leo": 21367,
    "day": 1856,
    "Ġgospel": 18003,
    "Ġspo": 6845,
    "Ġbleeds": 24396,
    "Ġpartial": 2130,
    "ered": 1685,
    "Ġprice": 10404,
    "albatross": 15633,
    "Ġperilously": 24503,
    "Ġequally": 5258,
    "across": 10326,
    "Ġbehooves": 20735,
    "Ġunrecord": 16622,
    "Ġflank": 8230,
    "Ġlandsmen": 11352,
    "Ġnovels": 15932,
    "Ġbarely": 16937,
    "æ": 167,
    "Ġseams": 12128,
    "È": 137,
    "Ġreckoning": 14981,
    "shall": 4550,
    "streamed": 25966,
    "maintained": 25023,
    "Ġfever": 6559,
    "abama": 12713,
    "Ġdarts": 16769,
    "Ġmasses": 10505,
    "Ġglimmering": 25241,
    "Ġmasked": 3694,
    "eel": 11485,
    "negro": 18496,
    "bearer": 18519,
    "Ġregent": 18598,
    "umnal": 18301,
    "Ġtranslations": 12055,
    "Ġheartily": 6889,
    "Ġchapter": 2952,
    "Ġhab": 4219,
    "Ġnursery": 19753,
    "Ġanxiety": 5408,
    "Ġderives": 16310,
    "Ġlend": 17965,
    "Ġbetrayed": 9563,
    "nets": 9134,
    "Ġadvantageously": 19548,
    "hyena": 24254,
    "view": 5897,
    "Ġbulkhead": 24507,
    "Ġmassa": 19457,
    "Ġpreparing": 8651,
    "Ġapproximate": 2342,
    "likewise": 13108,
    "Ġconfid": 7688,
    "Ġperhaps": 1910,
    "Ġdominant": 12399,
    "Ġcoldness": 23762,
    "arrangement": 17417,
    "alluring": 18354,
    "rugged": 6848,
    "Ġpolluted": 25594,
    "Ġfringed": 17274,
    "Ġshakespeare": 20310,
    "Ġmuch": 920,
    "una": 21874,
    "Ġobligation": 13247,
    "Ġsuits": 22082,
    "Ġbold": 5293,
    "Ġrelieve": 8224,
    "Ġproposition": 23253,
    "Ġworth": 4417,
    "owards": 4594,
    "Ġxxxiv": 24972,
    "]]": 5205,
    "Ġorbs": 22097,
    "usable": 22294,
    "Ġmummy": 25769,
    "igantic": 5538,
    "tempt": 21082,
    "subs": 14301,
    "apidated": 22342,
    "Ġpull": 5152,
    "Ġscuff": 15945,
    "Ġexpon": 967,
    "ittance": 12849,
    "Ġfloats": 9415,
    "Ġadmit": 7711,
    "steaks": 23964,
    "Ġmanip": 8874,
    "lier": 20951,
    "icked": 10334,
    "Ġargument": 7099,
    "Ġtests": 8959,
    "Ġwicked": 5962,
    "Ġdivined": 19446,
    "discharging": 26306,
    "charm": 13992,
    "¨": 106,
    "T": 56,
    "========": 2312,
    "gallant": 7781,
    "figure": 13558,
    "Ġmodel": 514,
    "co": 2436,
    "ender": 9162,
    "Ġshe": 466,
    "Ġagreement": 18540,
    "Ġtheoretic": 23315,
    "Ġmans": 15539,
    "conveyed": 20524,
    "visitor": 15061,
    "&": 10,
    "Ġnatives": 17953,
    "intend": 16227,
    "Ġscr": 11763,
    "Ġalong": 1976,
    "inctions": 17733,
    "Ě": 219,
    "absolut": 8460,
    "exact": 7912,
    "far": 5787,
    "Ġhumbly": 16200,
    "Ġadaptive": 1266,
    "ager": 6547,
    "meat": 18679,
    "errand": 22914,
    "Ġboasting": 19939,
    "rule": 15897,
    "ibilities": 13012,
    "Ġphantom": 8710,
    "relieved": 13280,
    "residence": 19265,
    "transform": 8051,
    "quest": 4538,
    "Ġdefy": 11900,
    "Ġunful": 22012,
    "Ġadieu": 10053,
    "ream": 2706,
    "Ġoccasionally": 5589,
    "courage": 17511,
    "Ġmature": 17801,
    "Ġeats": 15680,
    "ć": 200,
    "Ġcrew": 2497,
    "Ġreality": 7058,
    "Ġalley": 15739,
    "Ġexpans": 18623,
    "Ġdev": 886,
    "Ġhighness": 22776,
    "Ġouthouse": 22319,
    "Ġshoved": 23492,
    "Ġinsignificant": 20459,
    "same": 5362,
    "oran": 8792,
    "vast": 10737,
    "Ġeaten": 14847,
    "stalk": 21648,
    "ency": 3871,
    "bud": 10685,
    "desper": 13222,
    "prim": 23814,
    "ulations": 6030,
    "Ġselect": 3996,
    "gunw": 17222,
    "delighted": 10564,
    "Ġkra": 18350,
    "omitted": 18026,
    "reserve": 17766,
    "Ġyell": 21782,
    "Ġprocure": 9512,
    "ians": 2359,
    "Ġbalancing": 2433,
    "icable": 6388,
    "Ġinterruption": 9475,
    "iz": 365,
    "rings": 10723,
    "Ġindispensable": 11903,
    "dread": 8732,
    "block": 11471,
    "Ġsqu": 1037,
    "tures": 21072,
    "Ġtri": 4814,
    "ority": 8420,
    "Ġdetested": 14176,
    "itting": 1152,
    "Ġharbour": 19983,
    "furnish": 25339,
    "Ġmanipulated": 25179,
    "Ġscolded": 25473,
    "Ġaccidentally": 9507,
    "Ġkicking": 16902,
    "results": 20390,
    "Ġaccomplish": 14878,
    "mid": 5616,
    "Ġwhole": 1663,
    "Ġfainting": 16898,
    "Ġgravesend": 15219,
    "head": 1433,
    "elihood": 4622,
    "agers": 5633,
    "isance": 17849,
    "Ġshoreless": 24296,
    "Ġwood": 2293,
    "Ġdespairing": 14776,
    "Ġpoliteness": 8275,
    "Ġlately": 6387,
    "Ġegress": 21625,
    "fearing": 18530,
    "Ġlimited": 23548,
    "Ġarrows": 18340,
    "gang": 17554,
    "Ġwol": 15532,
    "possible": 5743,
    "frightened": 17197,
    "Ġcommanders": 23871,
    "Ġeul": 21622,
    "Ġender": 11693,
    "Ġinfer": 7685,
    "getting": 12971,
    "Ġpubl": 3941,
    "Ġpelt": 15613,
    "pat": 10118,
    "icating": 15658,
    "Ġweig": 7619,
    "Ġexplored": 23521,
    "Ġchristian": 6479,
    "Ġequilib": 4136,
    "gence": 877,
    "aulets": 18620,
    "Ġsweetness": 9448,
    "Ġdifficult": 3572,
    "Ġtoma": 7372,
    "Ġ86": 24460,
    "Ġconc": 1841,
    "Ġharpo": 1941,
    "adler": 21767,
    "Ġsensitiveness": 23738,
    "Ġinsists": 23680,
    "luc": 9756,
    "esc": 617,
    "Ġdec": 641,
    "Ġesteemed": 10590,
    "Ġhiding": 9825,
    "sford": 5999,
    "lives": 12489,
    "Ġportrait": 10663,
    "reference": 13842,
    "Ġexhausted": 8697,
    "joint": 24012,
    "Ġfootman": 8289,
    "epilogue": 22108,
    "Ġmending": 17806,
    "whew": 22874,
    "iron": 3850,
    "Ġabused": 22274,
    "Ġinside": 5448,
    "Ġremorselessly": 16968,
    "Ġrequiring": 2919,
    "Ġpist": 12619,
    "Ġgiant": 13970,
    "Ġmr": 660,
    "Ġpaths": 2570,
    "Ġforemast": 12008,
    "Ġdav": 15593,
    "Ġcate": 4109,
    "Ġepaulets": 24906,
    "Ġsigning": 22712,
    "Ġminers": 22838,
    "Ġsemblance": 20736,
    "kine": 15378,
    "Ġdownstream": 3775,
    "Ġpost": 4272,
    "Ġautomatically": 3725,
    "Ġparamore": 22127,
    "public": 17647,
    "Ġpoisonous": 24888,
    "lar": 4484,
    "Ġmatrimony": 13638,
    "endure": 22230,
    "ells": 5305,
    "Ġpreternatural": 12827,
    "wrath": 23759,
    "ĠĠĠĠĠĠĠĠĠĠĠĠĠĠĠĠĠĠĠĠĠĠĠĠĠĠĠ": 14888,
    "Ġdisk": 22527,
    "Ġsuckling": 25998,
    "Ġlogger": 11957,
    "Ġrequisite": 18651,
    "Ġrecollecting": 17113,
    "Ġformed": 3886,
    "Ġbowditch": 19324,
    "Ġheedless": 14905,
    "Ġpreacher": 18370,
    "suspicions": 25392,
    "Ġunass": 14115,
    "Ġ**": 4721,
    "Ġkne": 4266,
    "Ġlights": 8962,
    "Ġperseus": 10605,
    "Ġemphasis": 20539,
    "sim": 6510,
    "year": 11096,
    "Ġweight": 657,
    "enthusiastic": 20695,
    "Ġaudible": 19883,
    "Ġmotives": 7486,
    "rior": 12745,
    "Ġfettered": 24568,
    "jur": 17579,
    "Ġbrilliant": 11415,
    "Ġindulge": 10584,
    "Ġreadily": 5254,
    "introduce": 25187,
    "correct": 24482,
    "ability": 718,
    "nar": 12497,
    "Ġsacrifice": 9557,
    "Ġcoil": 11821,
    "Ġcolonnades": 26277,
    "clean": 14763,
    "3": 23,
    "clerval": 7952,
    "Ġborrowed": 17231,
    "Ġdoors": 6418,
    "fed": 11489,
    "Ġassu": 21902,
    "¼": 125,
    "charles": 14701,
    "Ġstiffness": 24828,
    "club": 26381,
    "agon": 7873,
    "goes": 10427,
    "Ġexploring": 4305,
    "ocation": 14626,
    "Ġarbit": 4650,
    "opposition": 24820,
    "Ġintimate": 6550,
    "Ġdull": 6384,
    "lucifer": 25303,
    "!_": 7328,
    "Ġlovely": 4710,
    "Ġfamiliarly": 11304,
    "Ġviolent": 5117,
    "ain": 343,
    "chess": 16575,
    "Ġdepressions": 25799,
    "etus": 21582,
    "Ġbeating": 8146,
    "Ġlaud": 17970,
    "culine": 19067,
    "Ġremove": 7499,
    "Ġaxe": 15065,
    "towing": 17690,
    "Ġenig": 15802,
    "ect": 381,
    "steep": 19422,
    "Ġairth": 23322,
    "ostent": 16847,
    "Ġrecompense": 14840,
    "urches": 12689,
    "Ġparagraph": 17456,
    "Ġfolded": 7768,
    "Ġstrait": 23753,
    "aze": 10077,
    "Ġrumors": 11322,
    "Ġsustain": 10019,
    "comfortably": 16876,
    "Ġtaffrail": 15478,
    "wled": 15456,
    "lott": 6652,
    "evident": 25521,
    "Ġprofund": 13156,
    "sequence": 2851,
    "disciple": 16779,
    "Ġlodging": 24095,
    "Ġmislead": 22758,
    "Ġjewels": 12372,
    "ident": 3379,
    "Ġparamount": 15881,
    "Ġpolic": 13164,
    "Ġcosine": 2373,
    "Ġacceptable": 16745,
    "Ġstar": 6024,
    "fancy": 7336,
    "hanging": 10102,
    "Ġaver": 1286,
    "visits": 24225,
    "breckinridge": 24076,
    "Ġimperson": 14221,
    "Ġacted": 7421,
    "Ġneur": 813,
    "Ġtarts": 10754,
    "Ġwilful": 10536,
    "Ġdust": 5910,
    "Ġsettling": 11063,
    "rob": 5533,
    "garity": 17555,
    "Ġlabor": 10419,
    "Ġthreatens": 24374,
    "past": 8091,
    "mill": 13756,
    "Ġ95": 19776,
    "Ġchecking": 23289,
    "Ġfantastic": 10061,
    "Ġcurrent": 13015,
    "Ġformerly": 7493,
    "Ġgracechurch": 12202,
    "humour": 7498,
    "Ġstum": 21736,
    "lacing": 17591,
    "gno": 13729,
    "Ġembraced": 10008,
    "Ġmeanwhile": 5736,
    "Ġsprang": 5064,
    "honor": 19902,
    "Ġvic": 5236,
    "Ġresource": 10994,
    "Ġancestors": 25643,
    "Ġvag": 9710,
    "Ġdl": 3376,
    "despond": 19803,
    "helpless": 16791,
    "vener": 21114,
    "resh": 8406,
    ",âĢĿâĢĶ": 14216,
    "Ġinfancy": 10410,
    "needle": 20316,
    "Ġtet": 21160,
    "Ġcompasses": 11268,
    "fic": 20854,
    "hateful": 20911,
    "onious": 15520,
    "Ġreplete": 15701,
    "crowd": 25255,
    "Ġvisits": 8225,
    "Ġ59": 24322,
    "Ġmarshal": 20222,
    "Ġduc": 4697,
    "Ġimmortal": 8019,
    "Ġderision": 16311,
    "Ġpeep": 6869,
    "confirm": 16808,
    "Ġblade": 11896,
    "beside": 19879,
    "Ġexperiment": 11924,
    "Ġcharged": 9856,
    "Ġcandidate": 16699,
    "azine": 19132,
    "Ġmetrics": 19064,
    "Ġsurrounding": 12166,
    "squeezing": 25914,
    "gorge": 22337,
    "ern": 746,
    "itters": 10782,
    "extra": 8220,
    "Ġapartment": 6635,
    "ply": 6366,
    "Ġtu": 6968,
    "Ġaroused": 15902,
    "ceiling": 21631,
    "Ġhook": 6453,
    "Ġblades": 11898,
    "stonecraft": 24355,
    "Ġsolemnly": 8024,
    "Ġsakes": 18327,
    "su": 792,
    "mblance": 7322,
    "Ġcells": 13887,
    "Ġaffection": 2639,
    "ounted": 5030,
    "bolt": 25138,
    "ulated": 6031,
    "Ġapproving": 18515,
    "Ġappals": 22221,
    "Ġdiffusion": 23785,
    "olets": 21010,
    "Ġmer": 2927,
    "erson": 7002,
    "Ġphrenologist": 25608,
    "Ġunprofitable": 18265,
    "Ġshadow": 5595,
    "fashion": 8082,
    "Ġxl": 11992,
    "Ġurgent": 16868,
    "Ġcontrols": 1731,
    "Ġtradeoff": 2656,
    "principal": 20662,
    "Ġlean": 7606,
    "harbors": 20151,
    "Ġmotion": 4566,
    "Ġencirc": 18732,
    "Ġlbs": 11617,
    "Ġgreenhorn": 23771,
    "Ġrestrained": 16375,
    "Ġvariations": 22670,
    "Ġlimits": 3451,
    "whales": 5187,
    "Ġgeneva": 5450,
    "abst": 21793,
    "Ġalexander": 17426,
    "feren": 767,
    "Ġgroups": 3718,
    "Ġreservo": 16832,
    "Ġexhibited": 9546,
    "Ġeastern": 11631,
    "Ġaxis": 12310,
    "book": 4669,
    "Ġdrow": 21430,
    "eries": 6808,
    "Ġhyper": 19742,
    "Ġgayer": 24497,
    "specul": 23946,
    "Ġrecall": 3858,
    "Ġplacing": 8903,
    "Ġsec": 2078,
    "Ġbite": 10798,
    "gypt": 8262,
    "Ġsiberia": 26162,
    "perform": 15904,
    "Ġconversations": 9427,
    "Ġupper": 5090,
    "awful": 23118,
    "Ġimplore": 24873,
    "Ġunhappiness": 14119,
    "ju": 13743,
    "Ġunmindful": 22067,
    "Ġliberties": 19670,
    "Ġunnecessary": 8854,
    "Ġpetty": 19598,
    "rown": 2192,
    "%": 9,
    "Ô": 149,
    "rd": 17650,
    "94": 4804,
    "thumb": 18219,
    "Ġwreat": 15533,
    "Ġruin": 6057,
    "oc": 2830,
    "/`)": 13663,
    "Ġmechanis": 1192,
    "perpet": 14163,
    "intense": 22940,
    "gently": 13731,
    "Ġalternative": 19990,
    "Ġglac": 9348,
    "Ġhissed": 15792,
    "mingled": 14715,
    "advantage": 8662,
    "gi": 17552,
    "Ġsend": 4107,
    "Ġvect": 1224,
    "K": 47,
    "Ġcomprises": 22577,
    "ulnerable": 18153,
    "Ġexploit": 19164,
    "virt": 15453,
    "grees": 20888,
    "Ġmem": 2072,
    "digger": 24311,
    "entire": 6823,
    "ö": 183,
    "Ġscruples": 15081,
    "Ã¦mon": 7095,
    "por": 2150,
    "Ġremoval": 12121,
    "Ġartful": 22619,
    "Ġaston": 3701,
    "impregn": 21718,
    "vitality": 20482,
    "anders": 18155,
    "swed": 24255,
    "Ġperfectly": 3700,
    "Ġorph": 9719,
    "Ġperformer": 18756,
    "Ġincidents": 9301,
    "whiskers": 12314,
    "Ġthereupon": 18435,
    "jackets": 24896,
    "Ġpreventing": 882,
    "heart": 4526,
    "dangerous": 20243,
    "Ġazure": 12377,
    "Ġmerits": 13197,
    "Ġpersistence": 3095,
    "angu": 571,
    "Ġfrolic": 23928,
    "postp": 24636,
    "Ġclergy": 7643,
    "ster": 1957,
    "Ġoffending": 22744,
    "roses": 17959,
    "Ġrudimental": 25111,
    "Ġloathing": 15072,
    "ceived": 1961,
    "pinn": 21028,
    "cannib": 11905,
    "Ġfinish": 7950,
    "Ġcornelius": 13576,
    "Ġ28": 19296,
    "Ġcarved": 7948,
    "Ġmeadow": 17153,
    "Ġgesture": 11400,
    "Ġarthur": 7195,
    "Ġdeposit": 17270,
    "Ġcynicism": 25772,
    "Ġsire": 15503,
    "Ġcrush": 9424,
    "Ġarchy": 14349,
    "hid": 13736,
    "Ġscener": 10950,
    "Ġnoblest": 13245,
    "Ġhoky": 17929,
    "utely": 8133,
    "fulness": 4310,
    "diver": 20833,
    "Ġbec": 1351,
    "Ġspeakest": 23487,
    "Ġscorn": 7903,
    "staring": 18020,
    "Ġreward": 6145,
    "ifle": 10892,
    "Ġsuperhuman": 23455,
    "Ġattack": 5478,
    "Ġdegraded": 19228,
    "isher": 2873,
    "forecastle": 10991,
    "Ġingratitude": 17470,
    "Ġfade": 21411,
    "night": 2168,
    "Ġweapon": 7776,
    "missionary": 24617,
    "limbs": 20194,
    "Ġemployment": 8632,
    "Ġirons": 7697,
    "utmost": 21592,
    "Ġmourn": 8707,
    "Ġrun": 2355,
    "aceti": 7112,
    "lorn": 12491,
    "Ġarts": 11009,
    "Ġmusky": 19385,
    "Ġsets": 8778,
    "impart": 21713,
    "Ġbulky": 13232,
    "presbyter": 20621,
    "Ġ94": 17718,
    "Ġrider": 24186,
    "Ġembattled": 26290,
    "Ġmorning": 1749,
    "Ġages": 7028,
    "Ġfishe": 15589,
    "Ġtenement": 23551,
    "Ġhousings": 21497,
    "ish": 550,
    "stretching": 20502,
    "grandfather": 25012,
    "mechan": 11860,
    "Ġplanks": 5562,
    "Ġmelbourne": 24290,
    "Ġtwo": 1042,
    "Ġmistakes": 16542,
    "aust": 15312,
    "ourage": 2453,
    "pret": 7211,
    "aret": 7416,
    "shone": 22443,
    "vis": 4577,
    "covenant": 23564,
    "Ġvisual": 5741,
    "Ġslappin": 18945,
    "uncontrollable": 20599,
    "Ġbakers": 17868,
    "Ġtheore": 1830,
    "Ġinferences": 17937,
    "biting": 20783,
    "possess": 5985,
    "Ġnat": 12649,
    "Ġforgiveness": 16658,
    "Ġrecently": 11864,
    "Ġsperma": 19050,
    "Ġboister": 12924,
    "Ġblasted": 7939,
    "promised": 12255,
    "clay": 18933,
    "Ġj": 533,
    "Ġdonkey": 23231,
    "ricane": 16280,
    "mical": 9130,
    "Ġearthquake": 14628,
    "Ġgradual": 20604,
    "utility": 21591,
    "Ġlo": 452,
    "Ġthread": 14540,
    "Ġloudly": 7311,
    "Ġowner": 8924,
    "cy": 639,
    "Ġglim": 9346,
    "Ġwinc": 9644,
    "Ġemer": 5960,
    "eskye": 21454,
    "tawny": 26405,
    "chester": 23809,
    "Ġpom": 21456,
    "Ġperse": 6273,
    "Ġostentatious": 25737,
    "Ġmou": 13857,
    "Ġcens": 8415,
    "Ġoutright": 18414,
    "Ġsubstant": 14811,
    "Ġduncan": 13464,
    "Ġpursu": 3239,
    "Ġescapes": 23509,
    "cats": 17513,
    "days": 7689,
    "ilities": 6991,
    "Ġsailors": 4276,
    "dish": 12456,
    "Ġbefriend": 18084,
    "Ġwheeled": 14140,
    "lever": 2929,
    "Ġproprietor": 12376,
    "Ġiroquois": 26473,
    "Ġbuffaloes": 25218,
    "Ġdocument": 15020,
    "Ġgirdled": 19161,
    "Ġoffered": 5817,
    "racting": 10357,
    "Ġprophesied": 26063,
    "chastic": 2334,
    "Ġdistinguishing": 16497,
    "Ġfretfulness": 25449,
    "Ġimitate": 14159,
    "Ġeaglet": 19306,
    "lengths": 24847,
    "seized": 14037,
    "Ġinsatiable": 19274,
    "Ġeveryone": 8920,
    "Ġcha": 6852,
    "husband": 8043,
    "Ġestimation": 11219,
    "sche": 13023,
    "court": 7511,
    "Ġmillion": 14989,
    "Ġfunctions": 1343,
    "Ġindirectly": 8941,
    "Ġunfor": 15842,
    "Ġspot": 4154,
    "Ġspar": 10922,
    "rested": 13078,
    "ension": 6570,
    "bery": 9789,
    "apable": 6422,
    "Ġwelded": 9573,
    "fur": 6356,
    "Ġcastaway": 16642,
    "Ġlye": 21555,
    "serv": 7450,
    "gor": 546,
    "sive": 4143,
    "Ġwid": 4632,
    "Ġoscill": 2852,
    "Ġquarrelling": 13501,
    "Ġensuring": 11193,
    "Ġsch": 13837,
    "stationed": 25454,
    "Ġinvincible": 23481,
    "gate": 12470,
    "ishly": 14201,
    "pans": 13772,
    "Ġhorses": 6385,
    "Ġextravagance": 17281,
    "sat": 4811,
    "Ġnotions": 14101,
    "ik": 17572,
    "Ġdesired": 4664,
    "Ġtwit": 12933,
    "Ġkind": 1784,
    "{": 95,
    "should": 3261,
    "Ġarranging": 11175,
    "anch": 15563,
    "asible": 21546,
    "Ġpeddling": 21486,
    "Ġobjecting": 18898,
    "popular": 26141,
    "Ġpestilent": 25778,
    "Ġindomit": 22959,
    "Ġcool": 5734,
    "Ġinqu": 2962,
    "Ġframework": 2016,
    "Ġenabling": 1080,
    "trick": 19416,
    "contrast": 25595,
    "Ġsufferer": 16261,
    "cl": 1493,
    "linearity": 1649,
    "Ġinflict": 15002,
    "pequod": 7053,
    "Ġtremble": 6905,
    "Ġhoot": 19078,
    "Ġmamm": 25093,
    "Ġcheese": 9379,
    "Ġdoc": 7199,
    "akeman": 6268,
    "Ġclothed": 19609,
    "Ġaccepted": 7751,
    "Ġoutstretched": 14197,
    "bethink": 25745,
    "Ġungracious": 18256,
    "interred": 23740,
    "Ġstern": 4188,
    "hawk": 7122,
    "Ġmiraculous": 13550,
    "Ġlong": 794,
    "Ġpremature": 3724,
    "Ġdisregarded": 22535,
    "speak": 5504,
    "ulgences": 21870,
    "Ġhill": 5626,
    "Ġgaieties": 24197,
    "Ġdistribut": 843,
    "Ġobjects": 5577,
    "countenance": 6924,
    "quietly": 10594,
    "opence": 18508,
    "Ġ122": 24466,
    "glanced": 19369,
    "Ġexplo": 2287,
    "Ġrel": 1098,
    "Ġfrayed": 23300,
    "onent": 21251,
    "Ġrains": 24339,
    "ius": 5789,
    "dep": 6786,
    "market": 16840,
    "low": 656,
    "mbling": 3346,
    "stars": 18019,
    "scheme": 15257,
    "Ġlamentations": 17076,
    "Ġgreeted": 23216,
    "[": 63,
    "nne": 20991,
    "Ġmuhammad": 26170,
    "awed": 10393,
    "eon": 8733,
    "Ġannouncing": 16755,
    "Ġsubdiv": 16162,
    "health": 13835,
    "ă": 196,
    "Ġesq": 15111,
    "Ġits": 706,
    "Ġfry": 17881,
    "Ġclams": 19992,
    "animal": 16979,
    "Ġwhir": 6393,
    "Ġride": 12762,
    "ubb": 1648,
    "Ġaloud": 6253,
    "Ġrever": 6537,
    "Ġcontest": 18474,
    "instantly": 7506,
    "Ė": 215,
    "usiveness": 22298,
    "gia": 20878,
    "afterwards": 7484,
    "delights": 19704,
    "Ġwindsor": 16888,
    "bound": 6221,
    "Ġcondition": 6764,
    "Ġassumptions": 5517,
    "Ġgrew": 5182,
    "Ġendowed": 18925,
    "Ġannesley": 19580,
    "calculation": 25689,
    "certainly": 5340,
    "Ġdecoding": 3077,
    "Ġsleeper": 8604,
    "plish": 18201,
    "Ġtomorrow": 21517,
    "Ġcham": 4893,
    "agitation": 14070,
    "Ġfirmest": 16666,
    "Ġislanders": 19505,
    "iocr": 20925,
    "iation": 7342,
    "Ġbehold": 5049,
    "Ġw": 272,
    "Ġline": 1848,
    "wear": 22687,
    "Ġlibraries": 20617,
    "Ġfurthermore": 1170,
    "Ġhuge": 4700,
    "Ġorphan": 12386,
    "Ġmightiest": 12964,
    "bedded": 12446,
    "Ġvigorous": 10568,
    "attest": 23123,
    "ester": 11600,
    "finding": 17014,
    "Ġenvelopes": 24506,
    "Ġrosings": 4607,
    "Ġhere": 1090,
    "mis": 4521,
    "Ġcasually": 25096,
    "aders": 21763,
    "Ġmales": 17807,
    "F": 42,
    "Ġguernsey": 9353,
    "Ġmechanisms": 1575,
    "unavoid": 14064,
    "Ġyore": 21783,
    "easily": 17535,
    "Ġbelike": 18832,
    "Ġstamp": 7866,
    "tend": 17675,
    "Ġgrosvenor": 17420,
    "whel": 7666,
    "Ġhempen": 13553,
    "Ġassuming": 16693,
    "althily": 19362,
    "arrested": 15604,
    "impl": 21711,
    "Ġunnaturally": 24871,
    "Ġca": 21342,
    "madness": 14884,
    "sprang": 19994,
    "Ġghosts": 12236,
    "absurd": 21800,
    "Ġpersuasion": 10500,
    "Ġpretext": 22234,
    "5": 25,
    "pin": 13769,
    "swept": 19789,
    "caut": 20814,
    "Ġsidel": 9637,
    "Ġspurned": 12801,
    "closing": 23160,
    "Ġfiftieth": 24702,
    "Ġfactor": 19014,
    "Ġlid": 6983,
    "floor": 14938,
    "urg": 8143,
    "Ġdifference": 1489,
    "Ġfidgeted": 25890,
    "suspected": 12375,
    "intosh": 22944,
    "Ġtuesday": 9628,
    "Ġgrapple": 25812,
    "eld": 958,
    "ript": 4152,
    "free": 8739,
    "Ġimpass": 15989,
    "minutes": 7512,
    "arks": 2840,
    "Ġaffectation": 14443,
    "Ġlordly": 23747,
    "latitudes": 17198,
    "folly": 20864,
    "wishing": 21131,
    "itives": 17821,
    "Ġancest": 12618,
    "Ġdeb": 4764,
    "ivities": 22090,
    "wont": 21135,
    "Ġcircumn": 11986,
    "unforeseen": 21893,
    "Ġhorizont": 6936,
    "obstructed": 15229,
    "worth": 8630,
    "Ġfretfully": 25448,
    "passion": 11261,
    "entreat": 17978,
    "spouter": 22741,
    "Ġunwound": 24829,
    "Ġbesides": 3513,
    "Ġcoats": 16077,
    "ses": 3024,
    "Ġbig": 5806,
    "Ġmbpp": 21325,
    "Ġconventional": 25548,
    "Ġdeft": 21834,
    "Ġuncles": 23434,
    "Ġafrica": 12348,
    "Ġtune": 17726,
    "Ġweave": 21926,
    "Ġsuspects": 16891,
    "Ġwhipcord": 20098,
    "Ġbanners": 24859,
    "irty": 4048,
    "Ġthousands": 6749,
    "Ġfer": 5623,
    "P": 52,
    "Ġunscrew": 22041,
    "their": 2541,
    "Ġinstruments": 12227,
    "Ġaccountability": 10439,
    "Ġinquir": 4242,
    "Ġbrewed": 23350,
    "nment": 20992,
    "arat": 9182,
    "Ġcobb": 14274,
    "Ġtows": 19565,
    "Ġchecked": 9378,
    "Ġrickety": 26507,
    "Ġded": 2659,
    "Ġprofess": 3698,
    "Ġresolutely": 14610,
    "Ġpoorly": 9857,
    "Ġrefusing": 11029,
    "Ġconfusing": 23310,
    "Ġschooner": 16748,
    "Ġforever": 14554,
    "Ġstocks": 23180,
    "Ġesteem": 7531,
    "Ġshamefully": 24715,
    "Ġwomanly": 23554,
    "waste": 21137,
    "ĠâĢĻ": 3039,
    "Ġrevelry": 15139,
    "sway": 15426,
    "inde": 17732,
    "amplified": 26495,
    "Ġdiamond": 15602,
    "Ġencl": 16169,
    "tain": 558,
    "fluke": 25205,
    "parsee": 14519,
    "Ġdynam": 3240,
    "cest": 12448,
    "Ġscuffle": 20611,
    "grie": 12474,
    "Ġcommunicated": 9063,
    "Ġsemicirc": 16392,
    "Ġknow": 632,
    "Ġformidable": 8221,
    "anxiously": 15113,
    "Ġdescription": 7428,
    "Ġ/*": 10141,
    "entiating": 3436,
    "Ġchannels": 26014,
    "Ġtweezers": 26557,
    "lish": 1949,
    "Ġannounce": 13342,
    "Ġknight": 9730,
    "Ġstanzas": 21749,
    "Ġbetween": 791,
    "puzz": 17641,
    "Ġlistless": 16476,
    "alice": 3208,
    "ishes": 6523,
    "Ġrise": 5637,
    "Ġlandlord": 5580,
    "derbyshire": 18322,
    "uarded": 21108,
    "spent": 12946,
    "Ġsuitable": 18280,
    "consid": 4925,
    "Ġexpressions": 7706,
    "precipitance": 25868,
    "Ġprophets": 20453,
    "Ġadded": 2713,
    "swiftly": 20554,
    "Ġpencils": 23202,
    "Ġchick": 22252,
    "Ġhinge": 25542,
    "Ġvir": 7001,
    "Ġfellow": 2772,
    "Ġballasted": 23983,
    "listener": 24931,
    "tails": 21089,
    "Ġgu": 1329,
    "lance": 12485,
    "Ġsickened": 16776,
    "Ġclum": 8875,
    "Ġinstinctively": 13462,
    "Ġ23": 13193,
    "Ġsparks": 22137,
    "sm": 3434,
    "ricted": 15422,
    "abiding": 21798,
    "Ġsleep": 2404,
    "Ġcenturies": 8626,
    "Ġleader": 14704,
    "oid": 3123,
    "Ġburke": 19253,
    "Ġrevolutionized": 3367,
    "Ġlegible": 23536,
    "Ġgestures": 13538,
    "iration": 4540,
    "Ġminiature": 11041,
    "ones": 2738,
    "Ġmonument": 16242,
    "Ġinestimable": 17444,
    "Ġsnoring": 23743,
    "Ġb": 281,
    "discoveries": 25386,
    "ality": 2513,
    "Ġnoses": 18374,
    "Ġdishes": 16052,
    "Ġsuperglue": 23459,
    "elves": 2159,
    "Ġsaviour": 20715,
    "immediately": 10051,
    "ut": 308,
    "Ġexpectantly": 23528,
    "disputed": 23502,
    "Ġsomnambul": 26577,
    "Ġlay": 582,
    "Ġgregarious": 18964,
    "cred": 9110,
    "beards": 22495,
    "Ġowes": 20088,
    "Ġintegr": 7970,
    "Ġtus": 10750,
    "interesting": 12205,
    "various": 10399,
    "Ġgets": 10840,
    "Ġannoyance": 20664,
    "Ġpy": 21455,
    "Ġcoarse": 14276,
    "Ġsupremacy": 20263,
    "names": 16533,
    "Ġrooms": 5180,
    "Ġlurks": 11291,
    "Ġunlike": 7005,
    "Ġsphynx": 20714,
    "undertaking": 23790,
    "Ġdormouse": 4926,
    "gen": 6503,
    "Ġshouting": 10524,
    "Ġdetermining": 14423,
    "perpendicular": 14164,
    "Ġflorid": 17137,
    "umps": 6318,
    "Ġpipes": 9850,
    "beef": 18521,
    "Ġgout": 21600,
    "Ġpaddles": 15150,
    "Ġsatin": 12994,
    "Ġbashful": 20423,
    "ul": 371,
    "Ġpersu": 3563,
    "Ġunprovided": 18258,
    "tornadoes": 26154,
    "Ġcountrymen": 23597,
    "Ġadmeasure": 18294,
    "shortened": 24747,
    "aur": 15311,
    "sy": 2896,
    "Ġ270": 25133,
    "Ġoutcast": 18415,
    "Ġpromise": 4199,
    "lemency": 21377,
    "Ġwolves": 25935,
    "Ġdeclines": 23966,
    "Ġdilated": 24703,
    "Ġ*": 1275,
    "ato": 17770,
    "000": 2561,
    "ertion": 12043,
    "Ġoriginal": 6103,
    "aloons": 20014,
    "lessly": 4556,
    "path": 10120,
    "Ġthoroughly": 8349,
    "âĢĿ;": 11672,
    "ival": 4227,
    "Ġunfinished": 19512,
    "Ġdrives": 14579,
    "bloom": 24690,
    "final": 19679,
    "struck": 7864,
    "recover": 24624,
    "Ġnay": 5711,
    "Ġmoving": 1679,
    "ivity": 1723,
    "Ġwrath": 16319,
    "Ġadvancing": 6877,
    "Ġchip": 12829,
    "Ġfavoring": 2345,
    "Ġtherefore": 2240,
    "Ġpast": 2100,
    "Ġbetray": 7441,
    "agings": 18168,
    "fugitive": 26132,
    "Ġsqualls": 17021,
    "Ġpeople": 2544,
    "Ġbasic": 24700,
    "âĢĶâĢĺ": 7014,
    "chiefly": 14848,
    "Ġlanterns": 24577,
    "Ġguineas": 16273,
    "Ġmut": 3583,
    "acled": 16084,
    "Ġ60": 14877,
    "Ġlittle": 867,
    "Ġnegro": 6447,
    "persuasion": 20047,
    "Ġhammer": 6095,
    "Ġvariety": 8532,
    "Ġcupboard": 16884,
    "bennet": 5353,
    "Ġem": 1922,
    "e": 73,
    "Ġchoose": 5983,
    "Ġtusks": 17255,
    "talking": 10009,
    "cen": 17504,
    "Ġtipt": 21176,
    "avings": 12025,
    "Ġacres": 14315,
    "Ġvows": 15811,
    "aloes": 21506,
    "Ġunfathom": 14792,
    "Ġcharacters": 9374,
    "Ġunaccountable": 7888,
    "zek": 16262,
    "accordingly": 19215,
    "hoisting": 23719,
    "Ġquestions": 3972,
    "reck": 9638,
    "Ġcommodore": 12398,
    "Ġembedd": 1406,
    "Ġstill": 1157,
    "Ġaddresses": 3769,
    "Ġcigarette": 20658,
    "carries": 19530,
    "Ġme": 352,
    "henry": 16627,
    "Ġtransparen": 10543,
    "Ġexaggerate": 25651,
    "Ġprofession": 6208,
    "surf": 24214,
    "Ġmentioning": 9901,
    "..": 5783,
    "Ġreserves": 19673,
    "Ġwre": 5077,
    "Ġfonder": 17882,
    "it": 276,
    "aky": 18412,
    "shed": 8096,
    "ause": 1313,
    "exactly": 10638,
    "Ġreminded": 10001,
    "Ġblotting": 25314,
    "worm": 15455,
    "Ġtarpaulin": 26158,
    "Ġbohemian": 17135,
    "ates": 519,
    "'d": 12430,
    "Ġgas": 8134,
    "Ġmajority": 13296,
    "Ġdismast": 12892,
    "Ġnodes": 1965,
    "Ġharsh": 9523,
    "Ġtink": 9150,
    "organic": 25947,
    "Ġanticipated": 13513,
    "Ġlug": 15655,
    "mistak": 16879,
    "Ġdischar": 11811,
    "Ġovertake": 15973,
    ",âĢĶâĢľ": 10072,
    "comple": 7440,
    "Ġahead": 6664,
    "Ġclosed": 4604,
    "Ġingen": 9051,
    "dient": 442,
    "Ġread": 1446,
    "Ġheightened": 8652,
    "Ġcontraction": 16011,
    "wished": 13807,
    "endeavour": 17031,
    "Ġreservoir": 20653,
    "Ġdart": 4585,
    "Ġmagnetic": 17242,
    "Ġfolly": 7942,
    "Ġfluctu": 5268,
    "Ġdu": 4584,
    "Ġmultitudinous": 26275,
    "Ġfant": 9175,
    "Ġchiswick": 25561,
    "Ġsires": 21229,
    "Ġwards": 17791,
    "Ġsumm": 3356,
    "Ġsmells": 8892,
    "Ġresist": 7918,
    "Ġshave": 22001,
    "Ġmajesty": 5201,
    "Ġratt": 7883,
    "Ġofficers": 4426,
    "Ġfainted": 8795,
    "rying": 3184,
    "answer": 11735,
    "wants": 21133,
    "loving": 18538,
    "Ġmaria": 7125,
    "Ġpractical": 3161,
    "riety": 12747,
    "breaths": 25337,
    "Ġphrensy": 25127,
    "Ġrow": 5245,
    "Ġvacuous": 24343,
    "Ġafresh": 18628,
    "Ġpolite": 9884,
    "meryton": 10113,
    "onet": 12549,
    "Ġirreduc": 5491,
    "Ġarm": 2493,
    "famous": 16917,
    "thanking": 24325,
    "mysterious": 26053,
    "Ġleast": 2066,
    "Ġgrievous": 13264,
    "Ġpermit": 9751,
    "Ġintrospect": 15831,
    "Ġhideous": 5984,
    "seas": 14035,
    "Ġcister": 13884,
    "Ġblo": 2730,
    "Ġallegro": 25795,
    "Ġprotect": 6338,
    "nlp": 8754,
    "Ġoverflow": 10294,
    "ĠĠĠĠĠĠĠĠĠĠĠĠĠĠĠĠĠĠĠ": 22954,
    "Ġnoiselessly": 22867,
    "led": 580,
    "val": 1153,
    "Ġsubfield": 11872,
    "Ġhousekeeping": 18946,
    "feeder": 12364,
    "Ġsubjected": 23574,
    "Ġtackles": 8052,
    "allowed": 5728,
    "Ġimpassable": 20615,
    "Ġparty": 3509,
    "inconsiderable": 21194,
    "theirs": 23604,
    "Ġsteak": 9831,
    "Ġeasier": 11166,
    "Ġfrank": 4420,
    "Ġpattern": 1337,
    "Ġhilarity": 20300,
    "Ġze": 8546,
    "hour": 7339,
    "Ġexter": 7396,
    "Ġder": 1497,
    "scure": 22992,
    "Ġelder": 7222,
    "Ġdecent": 10983,
    "Ġfulfil": 9553,
    "baked": 20781,
    "describe": 1515,
    "Ġasia": 11685,
    "Ġeagerly": 4990,
    "Ġsnake": 12064,
    "icip": 6389,
    "Ġdetain": 14175,
    "during": 6787,
    "Ġmounting": 19980,
    "Ġvisible": 4777,
    "Ġinfinity": 23285,
    "Ġsloop": 25931,
    "assembled": 21549,
    "Ġagencies": 18539,
    "acies": 14279,
    "Ġen": 392,
    "Ġincumbent": 16065,
    "Ġheaded": 11056,
    "representing": 25272,
    "collins": 6915,
    "Ġchristendom": 16695,
    "mense": 4780,
    "Ġdegree": 3703,
    "Ġduke": 7756,
    "wling": 11546,
    "Ġfurnaces": 24008,
    "Ø": 153,
    "Ġdisliked": 12895,
    "Ġbargain": 23795,
    "inct": 3292,
    "Ġcountenances": 11967,
    "copper": 19191,
    "Ġunfold": 8023,
    "Ġserved": 8248,
    "Ġgod": 1935,
    "Ġamelia": 26252,
    "arrival": 15603,
    "announced": 19762,
    "choice": 21695,
    "nowhere": 18419,
    "Ġundeviating": 15220,
    "Ġaversion": 18867,
    "agger": 7874,
    "Ġhealthy": 10852,
    "output": 4402,
    "Ġdaggoo": 5441,
    "Ġdamp": 8265,
    "Ġsupers": 18279,
    "Ġcoburg": 18596,
    "ulus": 21869,
    "Ġconsistent": 14528,
    "Ġsweetheart": 19398,
    "mouthed": 12403,
    "Ġsentinel": 26066,
    "Ġpowers": 5419,
    "Ġwaking": 11572,
    "laid": 10111,
    "Ġhandspike": 22702,
    "committed": 18744,
    "Ġserpents": 13080,
    "Ġflo": 2589,
    "Ġxlix": 25861,
    "Ġskilful": 25838,
    "Ġrevolutions": 23845,
    "Ġdevoured": 16138,
    "memory": 13620,
    "Ġimpediments": 26242,
    "Ġcoars": 14273,
    "Ġexhilar": 19686,
    "Ġvor": 15809,
    "Ġefforts": 11810,
    "Â·": 21152,
    "tch": 9143,
    "Ġdard": 21426,
    "thrasher": 25659,
    "Ġdash": 8123,
    "Ġcushion": 17835,
    "Ġtraveller": 8050,
    "shrouded": 26363,
    "ilder": 15716,
    "oved": 5215,
    "Ġyards": 5371,
    "Ġbowls": 23773,
    "Ġcamberwell": 25351,
    "====": 1482,
    "Ġfinishing": 23130,
    "Ġmanagement": 8194,
    "Ġartist": 12916,
    "Ē": 211,
    "rief": 6203,
    "Ġjuggling": 20442,
    "interview": 19300,
    "ub": 1227,
    "Ġgreyish": 24210,
    "anges": 1676,
    "regard": 7974,
    "exped": 16525,
    "abern": 21794,
    "Ġsuperlative": 26075,
    "Ġignoble": 19402,
    "ignor": 8963,
    "bellies": 19977,
    "Ġincredulous": 9989,
    "ascal": 10194,
    "expectations": 24278,
    "Ġadvoc": 12993,
    "Ġshelves": 14999,
    "Ġeff": 687,
    "Ġwhimsical": 20431,
    "Ġwasn": 6997,
    "Ġsadly": 7301,
    "how": 1643,
    "Ġobjections": 8567,
    "Ġcontempt": 6276,
    "Ġwoven": 9928,
    "Ò": 147,
    "Ġobtain": 8917,
    "Ġslightest": 6093,
    "commence": 19995,
    "Ġscore": 9740,
    "Ġcomprehensiveness": 25075,
    "rippling": 24712,
    "Ġunlikely": 10908,
    "Ġsings": 15507,
    "Ġcustoms": 19655,
    "Ġfrighted": 24033,
    "yellow": 9626,
    "Ġrevived": 11369,
    "ccess": 3181,
    "lad": 5993,
    "Ġdived": 9179,
    "Ġspires": 11733,
    "Ġrhine": 12359,
    "Ġpoignant": 22597,
    "ories": 4753,
    "Ġclank": 15967,
    "Ġnamed": 6140,
    "Ġmortal": 4682,
    "Ġgasp": 7172,
    "Ġcreature": 2386,
    "Ġinterval": 4052,
    "Ġparcels": 25466,
    "modern": 1121,
    "lins": 2028,
    "Ġgreedy": 3049,
    "doub": 6224,
    "ier": 1137,
    "Ġbreathless": 12173,
    "Ġload": 14147,
    "dee": 11736,
    "Ġ-": 1943,
    "Ġfeasible": 22215,
    "Ġundo": 15843,
    "declare": 25174,
    "Ġamount": 8513,
    "Ġbizarre": 17873,
    "izings": 14053,
    "Ġcordiality": 24394,
    "Ġtist": 21165,
    "Ġvisions": 12990,
    "Ġtoast": 21516,
    "Ġheavy": 3745,
    "ments": 1400,
    "Ġobliged": 4286,
    "despairing": 25077,
    "Ġvirtue": 4923,
    "perplex": 18345,
    "Ġelbowed": 16113,
    "Ġlife": 1355,
    "exercise": 17461,
    "Ġsupplying": 19801,
    "Ġbusier": 23342,
    "drawn": 9915,
    "Ġpliny": 11828,
    "Ġelaborate": 18637,
    "Ġreplay": 5047,
    "Ġcollins": 2180,
    "Ġcuriosity": 2387,
    "Ġconvinced": 4206,
    "Ġsqueezed": 20039,
    "vously": 23506,
    "chants": 21696,
    "Ġbraced": 16581,
    "Ġhieroglyph": 11973,
    "Ġenchanting": 17039,
    "Ġaffinity": 18788,
    "ateg": 1320,
    "Ġrequ": 829,
    "Ġaverages": 2403,
    "Ġdinner": 4244,
    "Ġbas": 6380,
    "Ġmuster": 16125,
    "Ġwindows": 4971,
    "Ġanonym": 17899,
    "chains": 9687,
    "Ġmartin": 25437,
    "trans": 5593,
    "sin": 21051,
    "slow": 7811,
    "Ġlives": 4827,
    "Ġcosmopolitan": 20643,
    "stead": 10847,
    "quarters": 24949,
    "Ġduchess": 4800,
    "lane": 10707,
    "recollected": 25348,
    "sloop": 26146,
    "Ġmoderate": 10940,
    "Ġprey": 6415,
    "Ġhawsers": 26503,
    "Ġfollow": 1396,
    "attacks": 23126,
    "Ġcopse": 17068,
    "Ġbathe": 25444,
    "Ġ177": 13415,
    "Ġspeechless": 13357,
    "Ġstudents": 23234,
    "Ġexpose": 10329,
    "answered": 10275,
    "expedition": 26079,
    "Ġcapricious": 20541,
    "Ġchoicest": 24222,
    "Ġamusements": 16914,
    "to": 713,
    "Ġnephew": 6405,
    "Ġcust": 11584,
    "Ġnarrated": 14873,
    "sick": 13786,
    "between": 5071,
    "posterity": 25489,
    "slightest": 25417,
    "Ġletter": 2197,
    "Ġkidnapping": 26358,
    "Ġferrule": 24516,
    "Ġrent": 11641,
    "Ġrudder": 25110,
    "Ġhopelessly": 16378,
    "Ġchaldee": 26236,
    "thoughts": 9937,
    "Ġpills": 21470,
    "Ġ118": 19701,
    "Ġcarving": 14445,
    "sies": 21057,
    "Ġquiver": 16005,
    "Ġgoblet": 25824,
    ");": 7329,
    "Ġquantity": 6947,
    "Ġbolted": 12248,
    "Ġmothers": 14541,
    "vation": 4744,
    "Ġlater": 6018,
    "Ġgrounds": 6750,
    "Ġrather": 1494,
    "Ġcharges": 23272,
    "Ġrejoice": 10210,
    "evening": 7090,
    "Ġwarmer": 19188,
    "Ġarctic": 12815,
    "thodox": 21993,
    "acknowled": 10975,
    "Ġprejud": 6850,
    "Ġwillingly": 8887,
    "Ġwag": 10776,
    "Ġgripping": 26188,
    "general": 7489,
    "Ġchronicler": 20232,
    "dug": 18463,
    "Ġoaken": 13867,
    "lucas": 15154,
    "oided": 11510,
    "Ġspurred": 22143,
    "Ġmansion": 17811,
    "Ġdeser": 3889,
    "Ġcastors": 23979,
    "Ġprec": 2917,
    "Ġtickets": 17094,
    "Ġmag": 1427,
    "Ġchimer": 24604,
    "Ġquarto": 17298,
    "Ġcrab": 13147,
    "arm": 1358,
    "Ġmalacca": 24392,
    "Ġpower": 1265,
    "ores": 2417,
    "Ġvindication": 25365,
    "hard": 4690,
    "feather": 16046,
    "Ġpromptly": 23821,
    "hunt": 20905,
    "meantime": 9094,
    "Ġimmeasurable": 26232,
    "Ġelud": 22647,
    "Ġitems": 9694,
    "spoutings": 25006,
    "Ġsoo": 15863,
    "oes": 4434,
    "Ġdiff": 3112,
    "Ġtorture": 9067,
    "emed": 3380,
    "Ġpanted": 21476,
    "Ġraven": 16118,
    "Ġrecumbent": 22737,
    "Ġdestroyer": 13416,
    "Ġfrankenstein": 7096,
    "Ġconvent": 11670,
    "Ġbible": 9321,
    "Ġnovelty": 13466,
    "ulpt": 10886,
    "Ġpenetrating": 17012,
    "Ġprojects": 9513,
    "Ġheap": 12682,
    "Ġimprinted": 22395,
    "ipl": 20920,
    "Ġchaos": 17010,
    "fright": 9597,
    "Ġamaz": 5385,
    "mud": 20973,
    "Ġindependently": 4246,
    "Ġinsensibly": 20079,
    "rabbit": 20594,
    "Ġdivinely": 25723,
    "usation": 18402,
    "oforte": 14288,
    "Ġabout": 633,
    "Ġsung": 23276,
    "Ġrelentless": 26279,
    "uss": 8767,
    "Ġfab": 15579,
    "Ġinsisted": 12049,
    "Ġprofundity": 20455,
    "belong": 12126,
    "Ġsatisfying": 23700,
    "Ġimperfect": 13343,
    "Ġresolving": 9421,
    "Ġtore": 6531,
    "which": 1709,
    "Ġaskance": 23154,
    "Ġexpenses": 11838,
    "solving": 3096,
    "eli": 3876,
    "Ġcomputational": 1624,
    "scores": 22996,
    "counter": 20281,
    "Ġfallen": 5969,
    "fishery": 10034,
    "winds": 10523,
    "Ġshooting": 11163,
    "Ġlar": 766,
    "scar": 9818,
    "Ġbathing": 20202,
    "Ġhistory": 4005,
    "ails": 6161,
    "Ġig": 3500,
    "Ġhandsomely": 25498,
    "osite": 4894,
    "apprehens": 17408,
    "Ġtorn": 6001,
    "Ġeverywhere": 9796,
    "Ġembarks": 22969,
    "Ġflitting": 13030,
    "Ġprelimin": 8863,
    "scr": 16244,
    "Ġshri": 5375,
    "Ġapparently": 6778,
    "Ġilliterate": 26595,
    "Ġdescribed": 6607,
    "Ġvocabulary": 4995,
    "volous": 18587,
    "Ġstress": 18069,
    "umed": 6555,
    "Ġsignals": 10587,
    "bey": 10316,
    "Ġbursting": 8659,
    "Ġunfair": 19510,
    "Ġpa": 2988,
    "Ġpaste": 23422,
    "å": 166,
    "traces": 24335,
    "hook": 12056,
    "Ġ29": 23733,
    "Ġdep": 743,
    "batch": 1979,
    "ached": 2322,
    "Ġelig": 9780,
    "Ġwars": 17787,
    "Ġterm": 2269,
    "Ġbeech": 18085,
    "ter": 359,
    "Ġasks": 5115,
    "Ġcubic": 20091,
    "Ġcomprehend": 6494,
    "flow": 2254,
    "Ġnonsensical": 21533,
    "Ġoffended": 7041,
    "Ġtransplanted": 22465,
    "Ġspe": 822,
    "Ġwhich": 503,
    "Ġunprotected": 22068,
    "Ġhears": 8140,
    "endured": 22232,
    "Ġdisent": 22528,
    "Ġweal": 21925,
    "Ġflock": 21415,
    "Ġreplen": 11115,
    "Ġste": 1388,
    "occup": 7753,
    "fil": 12466,
    "separ": 9232,
    "hither": 11494,
    "Ġspecial": 2104,
    "itching": 21338,
    "andes": 18154,
    "Ġaspired": 25985,
    ")âĢĶâĢľ": 20745,
    "Ġinspector": 6498,
    "Ġmississ": 18840,
    "Ġgateway": 24799,
    "tinted": 17684,
    "urrection": 12412,
    "Ġlin": 10834,
    "Ġnervous": 2408,
    "Ġsheeted": 19834,
    "Ġowns": 22830,
    "«": 109,
    "Ġreckon": 19872,
    "Ġ$": 21153,
    "asingly": 17963,
    "polar": 24585,
    "supplementary": 20552,
    "Ġvolition": 14800,
    "continu": 5501,
    "Ġel": 803,
    "acit": 16083,
    "Ġcontempl": 6702,
    "incing": 15487,
    "Ġtheology": 21279,
    "Ġbandaged": 16843,
    "Ġelement": 6897,
    "Ġoppressively": 25711,
    "Ġqualified": 14952,
    "Ġferoc": 14904,
    "ivened": 22971,
    "yard": 5901,
    "Ġbye": 12742,
    "assistant": 25568,
    "Ġcountries": 13100,
    "noble": 7926,
    "Ġvalley": 5851,
    "Ġobject": 1395,
    "Ġvacant": 9497,
    "heavy": 10576,
    "wall": 10138,
    "Ġfestival": 25446,
    "Ġclear": 1947,
    "itig": 1333,
    "sing": 5138,
    "Ġsom": 1277,
    "ĠvertebrÃ¦": 11436,
    "soever": 11863,
    "prophet": 16183,
    "Ġstole": 7954,
    "going": 6314,
    "Ġup": 462,
    "Ġhissing": 15793,
    "sailors": 9924,
    "Ġultimate": 12352,
    "Ġgracious": 8850,
    "Ġyaw": 18097,
    "awake": 14454,
    "repid": 11566,
    "Ġsimulation": 2747,
    "mentioned": 10625,
    "Ġdummy": 25450,
    "Ġparted": 5930,
    "meadow": 18680,
    "neys": 23584,
    "ologically": 22873,
    "flung": 16640,
    "Ġbes": 2658,
    "joke": 20932,
    "Ġtinker": 15134,
    "Ġreap": 18029,
    "Ġenraged": 10246,
    "ios": 2188,
    "Ġindeed": 1681,
    "knight": 20942,
    "news": 23138,
    "giana": 7801,
    "thine": 15827,
    ").âĢĿ": 20743,
    "aloud": 17943,
    "vocation": 25087,
    "hatherley": 17569,
    "westward": 25425,
    "dra": 3413,
    "dition": 15341,
    "spee": 9319,
    "alization": 732,
    "including": 23592,
    "quitted": 21862,
    "Ġshield": 22004,
    "Ġdil": 6383,
    "Ġmourning": 13481,
    "Ġinseparable": 20691,
    "Ġdair": 17891,
    "whispered": 20037,
    "Ġnational": 13944,
    "mar": 4335,
    "Ġcounterpart": 24720,
    "||": 4870,
    "cull": 20811,
    "started": 10846,
    "Ġunaccount": 22028,
    "crossing": 19414,
    "Ġblaze": 16223,
    "Ġlandsc": 11147,
    "Ġsoliloqu": 11888,
    "Ġapprove": 12877,
    "Ġmoral": 6580,
    "Ġpistols": 17331,
    "Ġhappening": 14385,
    "hies": 17561,
    "Ġforge": 8458,
    "Ġanatomy": 12323,
    "Ġont": 18121,
    "Ġblanched": 26284,
    "Ġinterference": 8896,
    "Ġardent": 9972,
    "edged": 15634,
    "strils": 10459,
    "cules": 12394,
    "Ġvertebra": 20184,
    "Ġthoughtful": 16194,
    "Ġwidower": 24237,
    "ab": 345,
    "Ġjing": 15952,
    "Ġvillages": 14751,
    "Ġmethods": 3157,
    "Ġstooping": 13066,
    "Ġago": 3132,
    "speechless": 25396,
    "Ġwithdrawn": 10608,
    "Ġproperties": 3115,
    "Ġclink": 22350,
    "Ġfare": 5810,
    "semble": 1525,
    "Ġfelony": 18954,
    "Ġsituations": 10493,
    "Ġcringing": 25942,
    "fat": 8080,
    "thin": 14099,
    "Ġgaiters": 20464,
    "idirectional": 2424,
    "count": 4213,
    "Ġcheeks": 5959,
    "ending": 1986,
    "Ġlastly": 16207,
    "int": 1199,
    "Ġices": 21157,
    "Ġcrows": 24035,
    "ounders": 22398,
    "mits": 13758,
    "Ġarchbishop": 18718,
    "Ġcomm": 839,
    "Ġcoefficient": 2879,
    "epend": 3316,
    "aken": 1866,
    "writhed": 26081,
    "Ġcrippled": 25279,
    "Ġdate": 7842,
    "beaten": 20318,
    "Ġcomputing": 2221,
    "Ġholds": 7977,
    "resist": 8277,
    "Ġdyspepsia": 20645,
    "Ġdeliberately": 10626,
    "Ġeloquent": 16114,
    "Ġmah": 15544,
    "Ġkilled": 4955,
    "whaleman": 23439,
    "ceremony": 20593,
    "breaking": 14767,
    "malicious": 19904,
    "comed": 8547,
    "str": 2578,
    "peddling": 21034,
    "opening": 10314,
    "Ġxxx": 7767,
    "Ġnarrating": 24350,
    "Ġmanhat": 22332,
    "Ġgallied": 19559,
    "Ġflail": 23013,
    "Ġpennies": 17272,
    "critters": 14778,
    "Ġoverhanging": 22367,
    "Ġsauce": 15893,
    "passage": 11262,
    "l": 80,
    "Ġcumbrous": 26433,
    "Ġgazette": 19504,
    "Ġpleasantest": 24137,
    "Ġpoints": 5248,
    "Ġcatherine": 2809,
    "Ġthinkings": 22814,
    "concerned": 24584,
    "Ġmonday": 6128,
    "Ġgroping": 13668,
    "Ġrounded": 14441,
    "aphys": 15204,
    "mers": 9612,
    "reas": 987,
    "Ġcondesc": 7181,
    "ruction": 4357,
    "isco": 12585,
    "Ġfake": 5811,
    "gazed": 15364,
    "Ġhoped": 5488,
    "Ġmam": 8407,
    "Ġcarr": 23094,
    "Ġheroes": 10578,
    "Ġunpardonable": 22063,
    "esley": 17904,
    "Ġsign": 2496,
    "Ġalfred": 21791,
    "Ġshivering": 10267,
    "Ġpickle": 16723,
    "Ġpier": 7162,
    "Ġenvironment": 4388,
    "Ġsandwic": 24665,
    "Ġvort": 18194,
    "Ġsignify": 16495,
    "Ġdoubting": 13103,
    "Ġcomrades": 9235,
    "Ġblaming": 22934,
    "Ġviewing": 19266,
    "Ġpeered": 18669,
    "Ġbackwoods": 22663,
    "Ġhis": 380,
    "Ġaltern": 7393,
    "cing": 1014,
    "whalemen": 10432,
    "agrad": 2742,
    "Ġwarsaw": 26168,
    "Ġfortune": 4240,
    "coiled": 16487,
    "enchant": 21286,
    "genteel": 19952,
    "Ġfut": 15578,
    "umblings": 23897,
    "Ġpredef": 18524,
    "Ġlet": 1110,
    "hor": 2572,
    "Ġfrigates": 25707,
    "nantucketer": 24977,
    "independent": 26022,
    "Ġtrustees": 24107,
    "instrument": 15241,
    "Ġadversarial": 5606,
    "olidity": 18134,
    "Ġthrills": 24541,
    "Ġguess": 4904,
    "Ġdispositions": 13236,
    "barb": 10082,
    "Ġlimping": 23549,
    "Ġmab": 12564,
    "Ġlatent": 19658,
    "Ġthanks": 6708,
    "stubb": 6019,
    "Ġtendency": 11330,
    "olog": 1073,
    "Ġrosy": 18458,
    "Ġsinking": 7306,
    "Ġaval": 15495,
    "sively": 13788,
    "Ġapex": 24341,
    "downward": 16620,
    "Ġseething": 18204,
    "aff": 3099,
    "object": 6883,
    "Ġcapering": 21357,
    "heard": 5009,
    "attle": 4467,
    "Ġsisters": 3641,
    "fort": 1750,
    "Ġphrenolog": 12337,
    "Ġjungfrau": 15251,
    "k": 79,
    "utional": 17986,
    "ift": 1606,
    "ascertaining": 26461,
    "Ġbended": 21388,
    "Ġcurb": 16237,
    "Ġbasket": 9574,
    "big": 13688,
    "arthy": 4824,
    "Ġexpands": 25238,
    "Ġrhyme": 21986,
    "Ġreasons": 6021,
    "Ġcrushed": 9425,
    "Ġdoublo": 6079,
    "Ê": 139,
    "Ġvacancies": 24344,
    "dimly": 15349,
    "eat": 11484,
    "Ġevent": 2947,
    "deser": 10480,
    "Ġholiest": 18814,
    "yonder": 21147,
    "Ġrefusal": 10346,
    "Ġlighted": 7064,
    "acon": 10683,
    "Ġers": 15462,
    "Ġslippery": 12170,
    "definition": 23122,
    "Ġsatirical": 26281,
    "Ġlaug": 3628,
    "leeward": 15213,
    "Ġdisappointing": 19582,
    "Ġprogramming": 1183,
    "something": 4285,
    "myself": 5113,
    "Ġmisty": 16541,
    "Ġcomely": 21853,
    "Ġsuperst": 7704,
    "Ġrehearsed": 25972,
    "keenest": 25662,
    "experienced": 15124,
    "Ġunconsciously": 10007,
    "tru": 10730,
    "Ġrasc": 21982,
    "Ġadroit": 26001,
    "Ġremonstrate": 22798,
    "ardy": 22161,
    "earthly": 24723,
    "science": 11912,
    "Ġembark": 8559,
    "Ġstrife": 18614,
    "Ġsake": 4091,
    "Ġstrict": 7220,
    "ct": 309,
    "Ġbutton": 10269,
    "Ġvortex": 26210,
    "Ġsustaining": 25334,
    "Ġcurv": 3510,
    "punishment": 15148,
    "×": 152,
    "Ġexamining": 8007,
    "Ġrails": 22656,
    "bowsprit": 16854,
    "Ġ1950": 11360,
    "Ġshower": 11713,
    "Ġsilken": 16381,
    "Ġspaniard": 20366,
    "irect": 5552,
    "representation": 20199,
    "Ġelegance": 11333,
    "loved": 14252,
    "gainst": 25144,
    "discoloured": 23500,
    "Ġpods": 17917,
    "go": 2065,
    "Ġvolat": 24144,
    "Ġsense": 3250,
    "Ġthrust": 5084,
    "Ġinput": 609,
    "Ġnic": 7375,
    "U": 57,
    "Ġrecollections": 10514,
    "Ġmerit": 9429,
    "Ġstudded": 18977,
    "Ġwhar": 7387,
    "admiration": 11388,
    "Ġscared": 14191,
    "itically": 21333,
    "Ġsavages": 9914,
    "ppa": 10241,
    "Ġappal": 18360,
    "Ġunlucky": 10052,
    "lonely": 20959,
    "Ġcrescent": 16139,
    "Ġric": 18210,
    "gathered": 13734,
    "magistrate": 19865,
    "protest": 24812,
    "our": 534,
    "Ġautumnal": 19036,
    "xic": 9147,
    "Ġability": 2760,
    "Ġtransparent": 9491,
    "Ġshaster": 22003,
    "ilst": 8145,
    "Ġhaze": 18197,
    "Ġsilk": 11965,
    "Ġagent": 6278,
    "Ġscud": 14192,
    "buck": 17492,
    "indebted": 26159,
    "omist": 21662,
    "access": 11181,
    "jud": 4482,
    "Ġboats": 2637,
    "Ġmanhood": 22331,
    "Ġafar": 14296,
    "sorrows": 17322,
    "Ġilluminate": 17194,
    "adel": 15732,
    "Ġgratify": 19506,
    "Ġrelationship": 2315,
    "stee": 21649,
    "collecting": 26082,
    "Ġsched": 2337,
    "Ġdiabolical": 20345,
    "ousness": 10276,
    "Ġfest": 10805,
    "Ġruffled": 25837,
    "Ġslipped": 6492,
    "aper": 4999,
    "rusion": 11324,
    "Ġnumer": 3639,
    "Ġineffable": 17334,
    "Ġdangerous": 6614,
    "chapter": 1402,
    "Ġtiara": 26416,
    "Ġspeeding": 23566,
    "brimmed": 14589,
    "agree": 14069,
    "han": 12476,
    "Ġdreamed": 16631,
    "Ġposit": 1305,
    "Ġimprecate": 20521,
    "Ġfowl": 11331,
    "Ġpeeled": 14320,
    "Ġuninhabited": 22052,
    "Ġcranes": 20386,
    "Ġcrusad": 23709,
    "surd": 6933,
    "acle": 4716,
    "Ġchest": 5185,
    "Ġpeaceable": 14725,
    "Ġmixing": 24937,
    "Ġlodge": 5779,
    "Ġexceptions": 13233,
    "Ġashamed": 6403,
    "Ġmissing": 6176,
    "Ġmankind": 6699,
    "Ġmoored": 11795,
    "Ġhorrify": 23822,
    "msgate": 18413,
    "smooth": 20251,
    "pig": 8756,
    "Ġissues": 9544,
    "Ġreliability": 22884,
    "Ġpompous": 20426,
    "dimensional": 2349,
    "Ġconcerning": 4067,
    "Ġunstructured": 3002,
    "Ġut": 2281,
    "Ġsallied": 12541,
    "Ġrevelation": 25223,
    "dl": 20825,
    "Ġanalogical": 25641,
    "Ġ40": 14771,
    "Ġweighing": 20019,
    "Ġweakened": 16824,
    "asy": 5296,
    "Ġcreamy": 14331,
    "eks": 4728,
    "Ġfigured": 16645,
    "Ġcertain": 1557,
    "cried": 8728,
    "cupboards": 25402,
    "Ġbaked": 21389,
    "Ġacquaint": 13049,
    "Ġcachalot": 17836,
    "Ġreflected": 2906,
    "Ġinnocence": 6477,
    "Ġnetworks": 598,
    "Ġchivalrous": 20518,
    "Ġfitzwilliam": 5771,
    "claps": 23157,
    "Ġsof": 18281,
    "Ġspiteful": 19525,
    "Ġvoyages": 6907,
    "Ġoccur": 1084,
    "Ġrespectability": 14486,
    "Ġdif": 871,
    "quee": 4130,
    "dismay": 19156,
    "mmed": 7916,
    "aring": 1477,
    "odd": 21814,
    "aws": 8238,
    "Ġvillagers": 19477,
    "Ġhurts": 19113,
    "imprudent": 14652,
    "Ġirretrie": 23377,
    "Ġsteered": 11094,
    "renched": 7909,
    "lantern": 17430,
    "teeth": 10356,
    "Ġcommon": 1413,
    "Ġerad": 25031,
    "conven": 6163,
    "ix": 1800,
    ",--âĢľ": 19199,
    "Ġcuba": 25098,
    "Ġisles": 8461,
    "inav": 15485,
    "Ġmainly": 22652,
    "Ġindividuality": 14911,
    "Ġnowadays": 18547,
    "Ġresulting": 24200,
    "incom": 21184,
    "iles": 2856,
    "Ġoppression": 23652,
    "Ġsta": 18065,
    "Ġfug": 12599,
    "nns": 1889,
    "Ġextreme": 2516,
    "Ġpaddle": 20062,
    "alty": 17941,
    "Ġdismay": 11812,
    "Ġhatty": 19267,
    "¶": 119,
    "Ġmargin": 11923,
    "Ġknew": 2057,
    "acknowledging": 25477,
    "Ġcomp": 724,
    "sight": 5996,
    "Ġalbertus": 25649,
    "tal": 17671,
    "Ġassociates": 24711,
    "Ġdied": 4111,
    "Ġsal": 3939,
    "Ġherein": 16193,
    "Ġconsc": 4274,
    "Ġenlightened": 12750,
    "olerably": 11675,
    "Ġscornful": 25001,
    "Ġadjac": 18293,
    "Ġchocks": 13349,
    "Ġcaps": 8417,
    "Ġhosts": 19942,
    "exceeded": 25004,
    "Ġflap": 14424,
    "orily": 15576,
    "Ġcrozetts": 19632,
    "Ġbecomes": 6396,
    "Ġgarn": 13965,
    "Ġcrystals": 20230,
    "pra": 15409,
    "Ġnerves": 2627,
    "Ġdem": 11676,
    "historical": 20469,
    "ples": 6844,
    "ginger": 13166,
    "believing": 19465,
    "Ġcovered": 5171,
    "Ġmalays": 19680,
    "Ġresearches": 13134,
    "Ġyou": 366,
    "Ġfruit": 12329,
    "Ġpattered": 19041,
    "Ġriotous": 20547,
    "Ġguise": 14434,
    "Ġimpudence": 26243,
    "Ġrepel": 23363,
    "Ġendeavored": 19304,
    "Ġreappearance": 21671,
    "Ġplainly": 4381,
    "Ġbarbs": 10533,
    "poled": 22912,
    "Ġunravel": 26216,
    "barbar": 20241,
    "gration": 9123,
    "¾": 127,
    "Ġhospitality": 13515,
    "welcomed": 24645,
    "lob": 22511,
    "oury": 22309,
    "enjoyments": 25434,
    "hever": 13833,
    "âĢĻ": 378,
    "hastening": 24447,
    "terrific": 25043,
    "Ġobscure": 9556,
    "Ġundertake": 14481,
    "Ġwonder": 2119,
    "carried": 16713,
    "ying": 1449,
    "Ġlinguistic": 12428,
    "Ġperempt": 13676,
    "ċ": 204,
    "afraid": 10442,
    "Ġpreprocessing": 26537,
    "Ġbasics": 13451,
    "nels": 12499,
    "buffalo": 20566,
    "Ġhedges": 19988,
    "Ġkingdom": 12021,
    "Ġacqu": 1416,
    "condescended": 26250,
    "Ġint": 410,
    "plague": 21958,
    "Ġpeeling": 22696,
    "ais": 8072,
    "Ġplainpalais": 20739,
    "itled": 7578,
    "jolly": 20933,
    "fatal": 17088,
    "Ġsugg": 4500,
    "Ġinsincere": 26600,
    "Ġlinn": 13955,
    "?âĢĻ": 2640,
    "Ġimparts": 18447,
    "perpetually": 20516,
    "Ġlees": 18078,
    "likely": 9025,
    "Ġarrant": 23301,
    "chain": 18042,
    "rank": 21044,
    "jury": 15376,
    "Ġhans": 12630,
    "Ġgord": 21604,
    "Ġstrangers": 8315,
    "Ġexecute": 7505,
    "Ġorb": 22096,
    "Ġhither": 4759,
    "gone": 6504,
    "rinted": 21046,
    "Ġpondering": 17006,
    "Ġlurking": 11290,
    "Ġprincess": 23227,
    "isk": 9169,
    "Ġdelight": 2548,
    "Ġspecks": 14309,
    "Ġbeware": 8831,
    "hastily": 19705,
    "cept": 553,
    "Ġconference": 15750,
    "Ġspreading": 13381,
    "binder": 17501,
    "omon": 10209,
    "Ġemployer": 19435,
    "Ġagitated": 7648,
    "Ġcelestial": 10069,
    "lines": 6958,
    "Ġadv": 1127,
    "crowning": 25749,
    "mot": 17597,
    "ertain": 1207,
    "Ġfitness": 24003,
    "Ġbeaks": 21760,
    "leep": 4634,
    "Ġbeen": 625,
    "Ġcoiling": 12909,
    "Ġdiscover": 4718,
    "anke": 15564,
    "fallen": 19662,
    "Ġselves": 21225,
    "Ġwaylaid": 22878,
    "Ġembellished": 25850,
    "itute": 9653,
    "Ġforeman": 23449,
    "unaffected": 21888,
    "Ġsubsided": 14551,
    "Ġtopsails": 19196,
    "Ġconvenience": 11332,
    "idity": 8834,
    "comp": 3819,
    "Ġalbino": 20506,
    "Ġshaded": 14107,
    "Ġpince": 21475,
    "world": 5058,
    "effort": 19216,
    "Ġsmokes": 22564,
    "olet": 13768,
    "feet": 6569,
    "Ġhearing": 4761,
    "Ġscraggy": 24579,
    "least": 8788,
    "Ġimpression": 5732,
    "Ġconfluent": 19040,
    "Ġtyros": 26102,
    "Ġencounter": 6629,
    "Ġwitty": 21295,
    "Ġphilips": 5410,
    "Ġfelicity": 7259,
    "Ġtransform": 749,
    "Ġbenches": 18781,
    "Ġdisinclination": 22541,
    "Ġstatistical": 11105,
    "Ġmeditating": 20046,
    "drop": 15339,
    "Ġparaphrasing": 26527,
    "âĢĶâĢľ_": 13205,
    "ï": 176,
    "Ġperf": 12854,
    "ney": 2494,
    "Ġprosperity": 20260,
    "_)": 9104,
    "Ġcaroline": 7253,
    "Ġdra": 1590,
    "Ġoverpow": 14208,
    "85": 13684,
    "Ġcoco": 11001,
    "explaining": 23148,
    "Ġtear": 6723,
    "arris": 13210,
    "Ġfairest": 20466,
    "ai": 2526,
    "Ġmyself": 1455,
    "Ġcaress": 16341,
    "conjecturing": 20137,
    "onomy": 12551,
    "Ġchanges": 2288,
    "Ġdespondency": 16579,
    "tit": 11529,
    "merchant": 10468,
    "Ġinconvenience": 9565,
    "Ġdisembow": 22542,
    "Ġsp": 457,
    "Ġproflig": 23569,
    "inations": 7567,
    "inexplicable": 25809,
    "ower": 1047,
    "Ġadds": 1807,
    "Ġcaval": 25770,
    "knot": 13747,
    "Ġbreezes": 14871,
    "imprudence": 16559,
    "Ġbreaths": 14859,
    "fate": 17540,
    "illing": 8176,
    "exerc": 16018,
    "Ġsurmise": 12298,
    "beneath": 9537,
    "Ġtents": 13820,
    "Ġork": 18285,
    "Ġcommotion": 9782,
    "Ġpreferred": 14968,
    "Ġswelling": 11928,
    "Ġbespe": 19243,
    "iant": 5427,
    "_,âĢĻ": 12436,
    "Ġawait": 17073,
    "ould": 428,
    "accidents": 19214,
    "Ġcommunicative": 24547,
    "90": 12435,
    "Ġascertaining": 17205,
    "Ġcities": 17829,
    "Ġnearly": 3363,
    "Ġneurons": 974,
    "Ġappar": 7410,
    "fitted": 17545,
    "Ġwarehouses": 20421,
    "Ġleaf": 15726,
    "Ġhapp": 1091,
    "Ġcaptured": 7244,
    "Ġrobert": 10971,
    "Ġgenerally": 4157,
    "Ġtipped": 17729,
    "apply": 18761,
    "thanked": 24326,
    "Ġmessage": 13525,
    "scrape": 25699,
    "impud": 23763,
    "Ġsuperior": 2748,
    "kitty": 10107,
    "gaffman": 26391,
    "Ġadopt": 10634,
    "Ġscrews": 25178,
    "ui": 9146,
    "Ġresources": 2934,
    "ateness": 15522,
    "ington": 21304,
    "town": 7143,
    "Ġdoing": 3661,
    "rist": 10124,
    "Ġprediction": 2247,
    "Ġoverwhelm": 25055,
    "usual": 5842,
    "Ġencourage": 10382,
    "Ġsaxon": 25469,
    "Ġstaves": 21745,
    "Ġworship": 10368,
    "Ġmortified": 14696,
    "Ġnorris": 23208,
    "Ġbree": 5012,
    "del": 4075,
    "anations": 12580,
    "Ġdrowned": 9554,
    "Ġmund": 21320,
    "Ġmurder": 4280,
    "Ġtennessee": 26597,
    "hend": 13256,
    "Ġjealousy": 13579,
    "Ġtambourine": 9566,
    "Ġrecomm": 4996,
    "Ġnaturalist": 22900,
    "fl": 3600,
    "Ġdevelopments": 23249,
    "Ġgips": 10842,
    "d": 72,
    "conqu": 14246,
    "Ġsymbol": 7717,
    "lose": 12886,
    "Ġimpreg": 15991,
    "Ġlambton": 10659,
    "Ġcrowd": 6337,
    "Ġtrespass": 23602,
    "Ġhose": 12631,
    "Ġexultation": 15174,
    "Ġbe": 336,
    "Ġglittering": 10055,
    "Ġswayed": 15049,
    "ensity": 11816,
    "Ġjabbering": 22308,
    "bantering": 25254,
    "Ġdawned": 14996,
    "ivance": 22088,
    "Ġstartling": 14672,
    "Ġberkshire": 16885,
    "Ġbutts": 15858,
    "Ġcontentment": 14872,
    "rifice": 12507,
    "augmented": 26288,
    "Ġmoderation": 12824,
    "dispute": 23501,
    "satisf": 5781,
    "Ġantiquities": 25599,
    "etition": 7381,
    "hed": 671,
    "Ġsped": 22130,
    "Ġlithe": 24669,
    "Ġunhinged": 26218,
    "hitherto": 17285,
    "Ġoffering": 3005,
    "Ġowners": 7664,
    "pal": 9618,
    "Ġpunchbowl": 20234,
    "Ġtwelfth": 22682,
    "Ġloom": 7629,
    "Ġdiscussing": 5202,
    "sensibility": 25026,
    "meant": 7923,
    "Ġyellow": 5302,
    "Ġrates": 1403,
    "Ġstarted": 4149,
    "Ġmassachusetts": 24025,
    "Ġdelighted": 5499,
    "Ġgover": 2464,
    "Ġfine": 1317,
    "being": 3915,
    "relig": 15514,
    "Ġdimmed": 24269,
    "egyptians": 25899,
    "Ġamidst": 9496,
    "Ġinterest": 2250,
    "Ġproced": 2580,
    "Ġringing": 13335,
    "Ġdividing": 12115,
    "Ġinfiltrated": 23286,
    "Ġwrong": 4724,
    "Ġdenny": 9003,
    "Ġtempestuous": 20074,
    "Ġrunning": 3952,
    "Ġsong": 5904,
    "uvier": 9070,
    "Ġblight": 18819,
    "colonel": 8286,
    "ouri": 21451,
    "Ġpredicts": 2595,
    "Ġencountered": 8323,
    "Ġdisconsol": 18558,
    "Ġintervals": 5597,
    "chamber": 13628,
    "Ġrabb": 4163,
    "title": 17289,
    "Ġbul": 3293,
    "Ġcalmer": 23046,
    "Ġsayest": 22778,
    "Ġfrederick": 15590,
    "Ġarabian": 9092,
    "Ġinterests": 14569,
    "Ġoath": 7834,
    "Ġrevisit": 21674,
    "Ġviolet": 19091,
    "Ġshavings": 14112,
    "cater": 20817,
    "bel": 3837,
    "Ġvariation": 22669,
    "belais": 24042,
    "Ġdefe": 21833,
    "power": 7137,
    "data": 2191,
    "dock": 16421,
    "Ġtiny": 11554,
    "Ġmarred": 23035,
    "Ġhousehold": 8570,
    "itance": 13870,
    "retched": 3063,
    "Ġnose": 4403,
    "Ġthrown": 4639,
    "haz": 17565,
    "Ġdevelop": 1654,
    "Ġconv": 2967,
    "tenderly": 20534,
    "Ġtechnical": 17193,
    "Ġabruptness": 25300,
    "Ġanxiously": 8291,
    "freely": 16855,
    "Ġsimpler": 2050,
    "Ġlouder": 13471,
    "Ġpassion": 4557,
    "Ġwrithed": 17106,
    "Ġseer": 21964,
    "expressed": 9043,
    "Ġintroducing": 11978,
    "mology": 12495,
    "Ġcottage": 4734,
    "Ġvertically": 19383,
    "ckery": 22095,
    "Ġsoothe": 7404,
    "nur": 11507,
    "Ġantip": 24178,
    "Ġbrow": 3987,
    "seeking": 17154,
    "Ġpour": 13916,
    "gryphon": 15361,
    "Ġconfirming": 25322,
    "satisfy": 16893,
    "Ġkn": 4546,
    "Ġinstances": 5567,
    "Ġdeliciousness": 24126,
    "Ġobsolete": 26559,
    "Ġvapors": 19910,
    "Ġunjust": 8485,
    "Ġattaining": 15806,
    "aven": 8210,
    "izure": 21846,
    "Ġapprehended": 26091,
    "crimin": 17510,
    "Ġcustom": 5078,
    "Ġaerial": 21201,
    "thyself": 19299,
    "Ġstem": 15722,
    "Ġfulf": 6772,
    "Ġimputed": 12812,
    "ple": 455,
    "Ġge": 1975,
    "Ġwester": 25156,
    "lings": 8749,
    "admire": 24946,
    "Ġexpecting": 10437,
    "Ġdesirable": 8943,
    "urious": 21707,
    "tting": 17681,
    "Ġswap": 23056,
    "Ġinterpretation": 19719,
    "Ġlungs": 8363,
    "Ġdairy": 20689,
    "anybody": 12086,
    "either": 6791,
    "itudes": 3012,
    "Ġbenignity": 18782,
    "lev": 1236,
    "Ġfury": 7662,
    "ffic": 22160,
    "Ġampl": 22485,
    "begged": 18518,
    "eur": 7545,
    "ruct": 685,
    "writing": 7721,
    "Ġbattle": 5909,
    "Ġforked": 11666,
    "Ġearthy": 23715,
    "Ġgabriel": 7596,
    "Ġrambled": 20171,
    "Ġinher": 10181,
    "Ġfir": 17879,
    "generations": 23788,
    "cong": 10690,
    "Ġvii": 13112,
    "Ġproverb": 12720,
    "source": 11527,
    "Ġsubsiding": 23437,
    "Ġwondered": 11126,
    "Ġbefall": 8832,
    "Ġunobserved": 18247,
    "Ġsomeone": 6704,
    "Ġprecaution": 11198,
    "rim": 7138,
    "ression": 3405,
    "arranged": 19320,
    "allions": 22205,
    "Ġcrimin": 6900,
    "ĠĠĠĠĠĠĠĠĠĠĠĠĠĠĠĠĠĠĠĠĠĠĠĠĠĠĠĠĠĠĠĠĠĠĠ": 19260,
    "onings": 21255,
    "Ġyonder": 7391,
    "Ġstones": 9223,
    "Ġwaif": 9377,
    "Ġineffectual": 17386,
    "raltar": 24235,
    "Ġhumiliation": 16201,
    "ram": 13974,
    "Ġthin": 4347,
    "Ġcrash": 12004,
    "leman": 21371,
    "Ġtidings": 11398,
    "declared": 15121,
    "Ġnarrow": 5086,
    "Ġcod": 8414,
    "dog": 10695,
    "Ġconnecting": 18632,
    "Ġmystical": 12136,
    "Ġbrah": 19360,
    "Ġmerry": 5869,
    "stating": 21645,
    "distinctive": 25726,
    "def": 1453,
    "Ġfrom": 433,
    "Ġyawn": 7610,
    "Ġinformation": 1048,
    "apering": 8042,
    "Ġboarders": 16601,
    "estruct": 22228,
    "irresistible": 18176,
    "Ġsociable": 19407,
    "ulous": 4450,
    "oro": 21398,
    "oon": 6365,
    "reat": 619,
    "Ġfrock": 10491,
    "coff": 9111,
    "ten": 1556,
    "exceed": 7913,
    "Ġdisco": 3427,
    "Ġsurp": 9636,
    "Ġstay": 3089,
    "ploy": 1992,
    "hast": 5358,
    "Ġimpertin": 6932,
    "Ġturing": 7566,
    "isl": 21378,
    "Ġfling": 9662,
    "Ġvis": 1113,
    "Ġlivelihood": 24773,
    "Ġostent": 13587,
    "Ġseems": 2483,
    "Ġharpooneers": 4732,
    "Ġguiltless": 16941,
    "then": 2055,
    "Ġjewelled": 20186,
    "artificial": 1016,
    "Ġpent": 17905,
    "Ġeverybody": 4511,
    "Ġsensations": 5260,
    "jane": 4483,
    "Ġfloundered": 18863,
    "ications": 4445,
    "counterpart": 26361,
    "gences": 20879,
    "Ġ33": 16677,
    "converse": 22480,
    "Ġclasping": 20212,
    "Ġbigness": 19763,
    "Ġrealism": 18985,
    "concent": 19483,
    "Ġmerciless": 25247,
    "Ġ117": 19700,
    "Ġconvalescence": 23749,
    "Ġreusability": 13561,
    "Ġunrival": 22048,
    "Ġcircumstance": 4987,
    "Ġoverlooked": 15974,
    "Ġthrilling": 19751,
    "education": 20304,
    "be": 668,
    "ature": 520,
    "seam": 10875,
    "Ġleisurely": 24745,
    "web": 18665,
    "Ġelapsed": 7653,
    "Ġfreed": 7266,
    "bearers": 18522,
    "Ġvelvet": 12401,
    "Ġsympathised": 14864,
    "ifiable": 18166,
    "Ġlegend": 14576,
    "Ġpeculiarities": 12074,
    "Ġsubstantial": 14812,
    "Ġworkman": 16274,
    "Ġpre": 507,
    "Ġglimp": 6067,
    "Ġrespite": 13157,
    "Ġabundantly": 17158,
    "Ġeigenvalues": 4998,
    "Ġhovered": 12635,
    "Ġinscribed": 24941,
    "Ġcongeal": 25981,
    "crew": 7544,
    "Ġbutcher": 18272,
    "Ġlead": 3522,
    "Ġpicture": 4858,
    "Ġamateur": 22490,
    "Ġthough": 990,
    "rec": 6005,
    "Ġengineering": 3022,
    "ispensable": 9098,
    "Ġtestified": 16315,
    "ropri": 2179,
    "ondon": 2703,
    "position": 15415,
    "Ġfigure": 4207,
    "Ī": 235,
    "Ġdoubling": 23323,
    "Ġunclad": 22055,
    "Ġserving": 14487,
    "mbly": 9795,
    "enstern": 17783,
    "we": 848,
    "enc": 7574,
    "harpo": 4806,
    "Ġsteward": 6585,
    "distance": 12156,
    "ft": 909,
    "Ġobstinacy": 17423,
    "Ġglossy": 15230,
    "<SOS>": 1,
    "arle": 21444,
    "Ġjokes": 18409,
    "cadence": 26126,
    "Ġpossession": 5588,
    "brow": 15318,
    "Ġcolt": 11045,
    "Ġseizing": 7881,
    "embra": 14076,
    "Ġfumes": 21422,
    "Ġhug": 6979,
    "themselves": 6541,
    "Ġchurning": 15940,
    "Ġcontriv": 9284,
    "Ġstreat": 15724,
    "glorious": 19370,
    "Ġrecalled": 8539,
    "hamed": 6306,
    "Ġtaller": 16688,
    "alarm": 15630,
    "intern": 23739,
    "Ġregal": 16079,
    "wam": 10137,
    "Ġthirty": 4944,
    "Ġawoke": 7285,
    "interchange": 23742,
    "Ġhenry": 5197,
    "Ġmappings": 2148,
    "acute": 22599,
    "Ġrattle": 10900,
    "aver": 6785,
    "Ġraised": 4660,
    "Ġvillainous": 25134,
    "Ġpos": 1010,
    "Ġof": 298,
    "Ġsymb": 2592,
    "Ġtrampling": 25493,
    "âĢľ": 344,
    "Ġbellies": 13359,
    "capitals": 25083,
    "lik": 3917,
    "Ġce": 3028,
    "ropout": 1322,
    "hate": 20894,
    "Ġliveliness": 13646,
    "Ġrainbows": 19651,
    "omically": 13982,
    "Ġfing": 3758,
    "fig": 8738,
    "Ġkrempe": 10671,
    "yset": 21148,
    "moby": 8538,
    "Ġsurmises": 17056,
    "Ġregions": 10325,
    "_).": 5888,
    "avenza": 17104,
    "âĢĶâĢĺ_": 24832,
    "Ġoffic": 3185,
    "profound": 16428,
    "Ġscattered": 6855,
    "Ġniag": 21534,
    "Ġwert": 12560,
    "Ġfill": 5701,
    "shook": 19858,
    "Ġthrice": 10577,
    "Ġcriminals": 19924,
    "Ġdavis": 25953,
    "Ġmalicious": 10559,
    "Ġyale": 21784,
    "abhor": 12711,
    "ipotent": 10960,
    "Ġgle": 7860,
    "arious": 10319,
    "iah": 14419,
    "Ġplant": 8902,
    "Ġmoonshine": 19600,
    "subst": 12168,
    "mil": 13754,
    "Ą": 197,
    "con": 653,
    "dial": 20827,
    "Ġacid": 22686,
    "ignominious": 26588,
    "Ġvictim": 6099,
    "Ġcoat": 4554,
    "Ġfollowing": 4061,
    "links": 20960,
    "notice": 16150,
    "mush": 20979,
    "ras": 21039,
    "Ġregarding": 13211,
    "Ġbenevol": 5963,
    "ersed": 10261,
    "Ġfascinating": 17330,
    "Ġturks": 14599,
    "giv": 13724,
    "Ġimmens": 9941,
    "ahead": 12437,
    "Ġlust": 9199,
    "Ġbare": 6133,
    "Ġtyrant": 24766,
    "Ġscreamed": 9526,
    "Ġundoubted": 19517,
    "Ġhundred": 2691,
    "Ġdazz": 11596,
    "wow": 21124,
    "Ġland": 1996,
    "Ġbeer": 10221,
    "Ġstables": 23656,
    "Ġsheepfold": 25467,
    "Ġwhence": 5840,
    "Ġeddying": 17118,
    "Ġmaty": 22917,
    "Ġgamesome": 17291,
    "Ġraving": 16117,
    "Ġunb": 10907,
    "Ġbabies": 19695,
    "Ġcompromised": 22576,
    "etw": 408,
    "giving": 8742,
    "pie": 21013,
    "Ġunseen": 3523,
    "Ġsequence": 1973,
    "Ġfowls": 8694,
    "Ġflour": 8946,
    "Ġboisterously": 25683,
    "emptied": 23638,
    "nings": 9133,
    "Ġmo": 628,
    "wantonly": 25153,
    "Ġhereford": 22882,
    "Ġsolve": 4197,
    "engthen": 14459,
    "Ġpausing": 8656,
    "bber": 4568,
    "Ġhearth": 11984,
    "Ġerrand": 11086,
    "Ġbirth": 6524,
    "Ġspectators": 19410,
    "Ġexactness": 23606,
    "Ġunp": 12775,
    "atory": 6126,
    "Ġnormalization": 1244,
    "Ġspool": 24803,
    "ross": 808,
    "scotland": 20532,
    "friendship": 24052,
    "estab": 14172,
    "Ġredu": 1356,
    "Ġdenying": 14659,
    "Ġsteepest": 3083,
    "Ġswimming": 5507,
    "Ġpreced": 6041,
    "tack": 12516,
    "month": 6463,
    "nades": 20999,
    "Ġnonsense": 6982,
    "few": 8203,
    "pigs": 17142,
    "_.âĢĻâĢĿ": 17481,
    "Ġstream": 5186,
    "itu": 1228,
    "Ġcaresses": 26060,
    "Ġcedar": 15191,
    "Ġthou": 1810,
    "Ġcotton": 17381,
    "jep": 20928,
    "Ġincorruption": 26310,
    "Ġillustrious": 17109,
    "seated": 11674,
    "orified": 21405,
    "Ġleathern": 15052,
    "Ġ>": 21154,
    "ibank": 6879,
    "Ġcovari": 2338,
    "Ġ39": 19493,
    "Ġ100": 14366,
    "Ġjerked": 19835,
    "uity": 12521,
    "Ġburying": 19254,
    "Ġcaucus": 17382,
    "upp": 10132,
    "Ġhilarious": 20301,
    "enses": 10995,
    "berg": 11861,
    "who": 2448,
    "ructive": 18541,
    "sequently": 14584,
    "Ġdumplings": 15193,
    "Ġburg": 23653,
    "athies": 22706,
    "Ġmultitud": 18748,
    "Ġreasonably": 11091,
    "humor": 19455,
    "Ġwreck": 7313,
    "Ġauthority": 7749,
    "Ġthickening": 24027,
    "Ġprojecting": 9987,
    "Ġstaving": 21742,
    "Ġer": 8106,
    "Ġattitude": 8906,
    "swe": 5997,
    "term": 3759,
    "Ġstopping": 2745,
    "Ġrelates": 12984,
    "Ġbolts": 16944,
    "Ġeyeing": 6460,
    "Ġburnwell": 13272,
    "00": 1610,
    "Ġfrozen": 9015,
    "spect": 3231,
    "Ġhush": 13214,
    "Ġresurrection": 12898,
    "Ġsaintsbury": 26374,
    "Ġmysticetus": 24923,
    "rel": 3755,
    "Ġlying": 4828,
    "Ġpropont": 16352,
    "clim": 18932,
    "sherlock": 5422,
    "fere": 10989,
    "Ġminimax": 5858,
    "Ġcocoan": 20319,
    "ribed": 7694,
    "isbury": 21380,
    "propagation": 1247,
    "Ġbreathlessly": 24282,
    "Ġfavourite": 5271,
    "bular": 15316,
    "Ġgrasping": 12169,
    "Ġdost": 7637,
    "acher": 6867,
    "Ġcurds": 22975,
    "Ġshin": 18228,
    "chose": 18043,
    "Ġcannibals": 10589,
    "Ġbuoyant": 13534,
    "Ġexcl": 3474,
    "undoubtedly": 13314,
    "Ġgrievances": 20650,
    "Ġsunrise": 9375,
    "completed": 19997,
    "Ġcomplying": 18585,
    "Ġones": 3017,
    "Ġlawless": 19438,
    "Ġsubtle": 6717,
    "osures": 22266,
    "bishop": 13697,
    "Ġcommunic": 5751,
    "Ġwithhold": 18118,
    "preserve": 25304,
    "Ġinvoluntarily": 8549,
    "breathing": 25336,
    "Ġrocky": 13390,
    "Ġperv": 15993,
    "Ġindefinite": 17178,
    "Ġroused": 7624,
    "Ġfelt": 1745,
    "Ġescort": 23507,
    "mat": 2200,
    "Ġsubmerged": 11875,
    "Ġtowns": 11174,
    "Ġtemper": 956,
    "eprints": 12796,
    "rin": 10123,
    "Ġindec": 13930,
    "widows": 25345,
    "Ġundoing": 22036,
    "Ġinvoking": 19147,
    "oms": 4593,
    "surprising": 16920,
    "Ġdirectly": 2106,
    "riers": 18187,
    "Ġtestimony": 14471,
    "endeavouring": 15017,
    "commotion": 24914,
    "Ġascribed": 14857,
    "Ġmrs": 1468,
    "Ġchin": 4892,
    "Ġinflex": 20637,
    "Ġmass": 3781,
    "token": 21085,
    "Ġcoin": 9773,
    "Ġcarpets": 18904,
    "Ġvicious": 24402,
    "Ġsanity": 24984,
    "Ġvalu": 5039,
    "becomes": 22500,
    "Ġdearest": 5457,
    "Ġbrougham": 17872,
    "iew": 2449,
    "Ġgather": 6535,
    "Ġdenote": 19335,
    "Ġ1883": 23901,
    "_.)": 7277,
    "Ġintermediate": 18591,
    "Ġverge": 23890,
    "Ġreser": 5170,
    "old": 798,
    "elson": 16373,
    "indifference": 15985,
    "quality": 10234,
    "Ġseparated": 9466,
    "aloft": 8810,
    "shoulder": 16585,
    "H": 44,
    "Ġthreaten": 24373,
    "Ġunobstructed": 18262,
    "Ġfabulous": 25949,
    "Ġregularization": 1195,
    "ĠarchÃ¦": 22784,
    "rie": 2783,
    "Ġfordham": 21781,
    "Ġprobable": 5569,
    "Ġcleared": 6076,
    "somebody": 14565,
    "Ġguidance": 9419,
    "Ġdrunken": 12053,
    "Ġvernal": 23891,
    "Ġtriumphal": 24370,
    "disgrace": 16459,
    "Ġquohog": 10973,
    "Ġuncommon": 5026,
    "asmuch": 10196,
    "derest": 18315,
    "Ġresult": 4460,
    "Ġapples": 22219,
    "Ġjonas": 20612,
    "Ġjavan": 25002,
    "Ġso": 432,
    "Ġguardsmen": 20633,
    "impotence": 23764,
    "supposed": 13319,
    "Ġeffaced": 18543,
    "queer": 10363,
    "Ġinforming": 18742,
    "owder": 8450,
    "oy": 1005,
    "Ġtemporarily": 11168,
    "Ġbuoy": 8005,
    "wherever": 13122,
    "meth": 11504,
    "Ġcopying": 17069,
    "moments": 19415,
    "izabeth": 907,
    "Ġpinioned": 21487,
    "Ġrequired": 7226,
    "Ġgoes": 3855,
    "erick": 13850,
    "ving": 593,
    "heav": 5694,
    "Ġridic": 7508,
    "regulated": 23469,
    "Ġhailed": 6407,
    "Ġchurch": 4711,
    "Ġstretching": 10017,
    "utterly": 20015,
    "Ġindignation": 8348,
    "Ġmich": 21308,
    "Ġpromote": 23197,
    "Ġbott": 3145,
    "tumbled": 21093,
    "ault": 2307,
    "Ġrepairs": 19085,
    "bunger": 20405,
    "arance": 4698,
    "Ć": 199,
    "Ġdiscoverer": 26036,
    "orated": 12595,
    "Ġvincent": 15286,
    "Ġtent": 15469,
    "Ġtusk": 25426,
    "careful": 14868,
    "Ġweather": 3994,
    "sails": 7497,
    "Ġsan": 7825,
    "Ġcalves": 13039,
    "Ġstriding": 16092,
    "Ġgamb": 18000,
    "Ġkindred": 16377,
    "Ġlick": 21554,
    "Ġ35": 24078,
    "Ġsplashed": 23751,
    "Ġdilig": 8351,
    "overcome": 19052,
    "Ġmodular": 12822,
    "Ġsixteen": 8284,
    "Ġflannel": 26578,
    "Ġglimpse": 6943,
    "riumph": 4920,
    "Ġescape": 2646,
    "pool": 16212,
    "resistible": 10645,
    "Ġwoeful": 19622,
    "Ġstubbornness": 25380,
    "Ġforefinger": 16443,
    "Ġclipping": 2442,
    "obser": 11100,
    "abled": 12798,
    "rose": 6015,
    "Ġbefitting": 15729,
    "Ġinquire": 7720,
    "Ġswear": 6461,
    "consp": 18505,
    "Ġexhib": 6350,
    "fect": 2301,
    "Ġcommerce": 11016,
    "henomena": 20275,
    "apart": 15964,
    "flames": 14714,
    "Ġinsulted": 14994,
    "plexy": 18576,
    "b": 70,
    "Ġgarnery": 17389,
    "Ġlonging": 14302,
    "Ġparametric": 2399,
    "Ġlaw": 3655,
    "Ġcomprehensive": 15090,
    "Ġsplend": 9900,
    "ichron": 22173,
    "Ġintent": 6409,
    "advanced": 19591,
    "matters": 14876,
    "Ġacknowledge": 13405,
    "nut": 12498,
    "Ġreceipt": 20358,
    "bill": 10078,
    "Ġdwelt": 12609,
    "Ġlords": 14642,
    "osely": 9267,
    "Ġwriggling": 15260,
    "Ġcollection": 8223,
    "ingley": 1543,
    "Ġnotes": 7188,
    "impressed": 12695,
    "gon": 17553,
    "Ġexh": 5232,
    "Ġmaterial": 5178,
    "displayed": 20738,
    "Ġconsulting": 13432,
    "Ġmonitors": 3154,
    "mate": 5359,
    "Ġdisaster": 12891,
    "athom": 12944,
    "Ġcarry": 4779,
    "Ġelevating": 19731,
    "Ġsettle": 6294,
    "Ġploughed": 22609,
    "Ġmaker": 15546,
    "Ġarchitect": 982,
    "Ġconscious": 7744,
    "Ġchains": 8252,
    "needles": 20317,
    "Ġeggs": 12345,
    "Ġaye": 3353,
    "turned": 7305,
    "Ġplu": 8802,
    "Ġsufferable": 16260,
    "raved": 18015,
    "restrained": 16338,
    "Ġcoinc": 11002,
    "Ġsn": 2946,
    "Ġelevates": 24499,
    "ately": 1703,
    "Ġeagle": 13203,
    "excepting": 19709,
    "dwell": 15344,
    "Ġchips": 14183,
    "arts": 6564,
    "Ġamerican": 5061,
    "Ġencamp": 22805,
    "igate": 8826,
    "Ġexal": 10882,
    "Ġchewing": 23288,
    "Ġcar": 1418,
    "Ġconflagration": 26366,
    "game": 11492,
    "Ġinfle": 16365,
    "Ġoceans": 7997,
    "ulls": 8841,
    "Ġfriday": 14489,
    "Ġrestraint": 15130,
    "produ": 10721,
    "Ġpalms": 8647,
    "Ġparched": 11730,
    "visual": 24224,
    "settled": 10508,
    "chop": 21692,
    "Ġintensified": 17019,
    "Ġraft": 16119,
    "Ġplutarch": 22607,
    "fifth": 20149,
    "whilst": 18372,
    "į": 240,
    "attending": 18918,
    "Ġcart": 11585,
    "Ġunbending": 25465,
    "Ġabst": 9268,
    "Ġfold": 5530,
    "Ġearnestly": 5980,
    "Ġchoking": 15937,
    "Ġcurios": 18849,
    "Ġpiled": 8427,
    "Ġrejection": 19987,
    "Ġinser": 6819,
    "ante": 11724,
    "Ġchambermaid": 24305,
    "Ġmultimodal": 18749,
    "Ġvirtues": 9938,
    "Ġcasting": 12104,
    "finish": 24383,
    "compass": 9462,
    "Ġcountless": 16382,
    "Ġdarkness": 4277,
    "remind": 23192,
    "Ġlapse": 17122,
    "chemical": 23811,
    "Ġtracing": 18891,
    "Ġstrenuously": 17450,
    "Ġtamer": 24981,
    "Ġdipped": 15598,
    "Ġempt": 5051,
    "Ġmaking": 1779,
    "Ġtarget": 2818,
    "surround": 16759,
    "Ġimparted": 15992,
    "Ġintens": 7003,
    "Ġshag": 9253,
    "lightning": 16554,
    "acles": 8521,
    "Ġhall": 4184,
    "wherefore": 19110,
    "Ġpatterns": 1214,
    "joined": 13279,
    "adm": 7609,
    "conversations": 24748,
    "Ġpredicting": 2419,
    "Ġcomple": 2836,
    "Ġgums": 21615,
    "Ġjung": 12840,
    "games": 20882,
    "nostr": 22747,
    "Ġcriminal": 7537,
    "Ġpil": 5014,
    "Ġerskine": 17434,
    "Ġviolin": 16431,
    "Ġsilver": 7462,
    "Ġxxxix": 24973,
    "anter": 9168,
    "rages": 15684,
    "Ġluxuriant": 20398,
    "Ü": 157,
    "Ġberm": 21386,
    "wr": 3025,
    "cano": 18841,
    "cons": 4309,
    "Ġmantle": 25275,
    "Ġcanaller": 25468,
    "spark": 18690,
    "white": 4602,
    "Ġplatonian": 25121,
    "hopeless": 16918,
    "ā": 194,
    "destined": 24114,
    "Ġishmael": 7394,
    "gs": 7337,
    "boys": 13363,
    "Ġbroadway": 23987,
    "Ġgrotes": 19566,
    "Ġsoothed": 10031,
    "otions": 7180,
    "cho": 2756,
    "Ġquestioning": 10464,
    "Ġspear": 9316,
    "Ġinfirm": 19019,
    "Ġapt": 9157,
    "dance": 17520,
    "Ġque": 4158,
    "deformity": 22151,
    "Ġingrat": 16841,
    "Ġreveal": 11201,
    "Ġghastly": 10062,
    "Ġreflecting": 24750,
    "Ġscandal": 9083,
    "zen": 5140,
    "Ġdeliberate": 15024,
    "Ġgro": 4397,
    "Ġdestructive": 23488,
    "Ġextant": 18694,
    "Ġsaves": 18325,
    "Ġabomin": 8190,
    "solid": 16380,
    "Ġstandards": 19017,
    "Ġtreats": 19347,
    "reward": 15511,
    "felicity": 25143,
    "Ġcurtain": 14416,
    "Ġsqueaking": 26276,
    "ements": 11108,
    "Ġknowing": 4457,
    "cular": 15330,
    "aped": 3765,
    "sentiment": 12918,
    "Ġse": 402,
    "Ġcondescend": 19958,
    "lead": 10167,
    "Ġnearest": 8472,
    "lizzy": 6653,
    "Ġsteam": 9355,
    "enchanted": 26425,
    "Ġlooking": 2476,
    "Ġsegmentation": 17342,
    "Ġoverladen": 22368,
    "Ġdents": 13913,
    "Ġ88": 19714,
    "Ġdistinction": 8888,
    "Ġcoral": 11925,
    "Ġfow": 6134,
    "Ġmastery": 23996,
    "Ġdiscrimination": 23607,
    "Ġwhereon": 16105,
    "Ġswung": 6449,
    "influ": 9543,
    "Ġsuperfluous": 17416,
    "educ": 10829,
    "Ġfounder": 17885,
    "Ġlooked": 1802,
    "Ġprogen": 14041,
    "Ġsimpleton": 16337,
    "Ġcorpora": 26581,
    "Ġbeh": 1801,
    "Ġcontemplative": 19895,
    "Ġfossiliferous": 25610,
    "Ġturkish": 12265,
    "Ġrelease": 19292,
    "atherine": 2596,
    "rail": 10206,
    "Ġnois": 4267,
    "encouragement": 17425,
    "Ġlanguor": 12851,
    "Ġcomputation": 964,
    "Ġhighest": 3528,
    "Ġincred": 5646,
    "Ġpaddling": 25286,
    "particulars": 11316,
    "Ġmicrosc": 20679,
    "Ġseats": 14091,
    "Ġfighting": 12201,
    "istic": 998,
    "Ġexposed": 8524,
    "Ġdeterminate": 23010,
    "better": 7120,
    "Ġfaced": 10809,
    "Ġking": 2305,
    "ient": 393,
    "Ġregion": 2274,
    "Ġstared": 8456,
    "Ġwalked": 3136,
    "wel": 6118,
    "Ġsporty": 19892,
    "perils": 22192,
    "Ġgolden": 5337,
    "Ġchill": 11755,
    "Ġkissed": 10047,
    "reduced": 15808,
    "Ġturbul": 23614,
    "Ġwhistles": 24626,
    "Ġdragon": 14946,
    "Ġbeget": 9227,
    "purpose": 10046,
    "prise": 7727,
    "Ġdears": 18138,
    "Ġextravag": 11253,
    "Ġgreedily": 18965,
    "troubled": 17112,
    ";âĢĿâĢĶ": 20762,
    "Ġpolitely": 8995,
    "Ġ179": 19757,
    "Ġpin": 7161,
    "Ġboards": 14303,
    ":--": 5784,
    "Ġwhereupon": 14298,
    "Ġtimely": 19597,
    "Ġacknowledgment": 16958,
    "olently": 15757,
    "Ġpleasantly": 14518,
    "earnestly": 17315,
    "Ġcontro": 1688,
    "Ġsupposition": 9819,
    "Ġglen": 18854,
    "²": 115,
    "don": 3543,
    "Ġsins": 13839,
    "Ġceiling": 7998,
    "Ġmoist": 9287,
    "Ġperfections": 23610,
    "Ġdoubtfully": 23479,
    "Ġwho": 612,
    "Ġgrip": 11629,
    "idents": 6151,
    "hangs": 15371,
    "Ġoptimal": 1854,
    "Ġmalignant": 14880,
    "Ġmari": 6813,
    "Ġsemi": 11971,
    "bag": 7542,
    "Ġbillow": 14783,
    "Ġregain": 22590,
    "Ġstoutest": 24630,
    "Ġyelled": 9696,
    "Ġeighty": 19479,
    "Ġconcoct": 19047,
    "Ġqueerest": 16416,
    "Ġkidn": 20208,
    "Ġcope": 17832,
    "coarse": 16488,
    "receiving": 12547,
    "Ġexecutioner": 12275,
    "Ġquarters": 8623,
    "Ġever": 1181,
    "Ġextremities": 19198,
    "grieved": 17319,
    "lads": 20957,
    "som": 3291,
    "Ġnewcastle": 16226,
    "Ġcondescending": 24869,
    "aning": 2257,
    "Ġstories": 10866,
    "rally": 17652,
    "nantucket": 7805,
    "Ġunder": 1635,
    "Ġrights": 10398,
    "ĠĠĠĠĠĠĠĠĠĠĠĠĠĠĠĠĠĠĠĠĠĠ": 16229,
    "Ġvirt": 3909,
    "Ġorphans": 20207,
    "Ġastronomy": 25927,
    "Ġjavel": 17084,
    "oll": 5456,
    "ography": 13366,
    "Ġdetermines": 2368,
    "Ġpunish": 12163,
    "Ġsluggish": 25891,
    "Ġangel": 4854,
    "Ġteaches": 18799,
    "peculiarities": 13474,
    "Ġgorge": 13569,
    "nals": 16399,
    "Ġbrazier": 26322,
    "Ġprom": 1527,
    "Ġperform": 1035,
    "Ġconvince": 14643,
    "Ġpads": 21478,
    "appearing": 14638,
    "ĠĠ": 353,
    "Ġstiggs": 25793,
    "swift": 14854,
    "continued": 8679,
    "Ġwallow": 19469,
    "Ġspoiled": 11364,
    "Ġwhoa": 22427,
    "Ġrang": 9247,
    "Ġignorantly": 19498,
    "Ġcost": 2506,
    "ermost": 7429,
    "abond": 15744,
    "Ġeh": 6987,
    "Ġquit": 5246,
    "germ": 15359,
    "Ġaccounting": 14574,
    "Ġarri": 2554,
    "ittle": 811,
    "Ġlobster": 11390,
    "Ġrubber": 22790,
    "Ġimpatient": 5602,
    "Ġdardanelles": 26444,
    "mun": 20964,
    "Ġsomewhat": 4898,
    "Ġcler": 11773,
    "Ġusing": 715,
    "armed": 7250,
    "prejudice": 25572,
    "Ġottoman": 17380,
    "Ġhoping": 11104,
    "affording": 23780,
    "vely": 3869,
    "Ġdamning": 19141,
    "similar": 13456,
    "Ġcomo": 21852,
    "Ġslugg": 15271,
    "Ġentering": 6286,
    "Ġgret": 21605,
    "Ġtreatise": 19348,
    "Ġabsurdly": 19963,
    "more": 1033,
    "#": 7,
    "Ġnewsp": 9341,
    "Ġbu": 3682,
    "Ġmish": 15540,
    "actorily": 25577,
    "unexpected": 15781,
    "Ġforbear": 17123,
    "Ġprocesses": 3634,
    "Ġsuffoc": 18871,
    "Ġhemp": 9217,
    "Ġlifts": 25359,
    "Ġconstantinople": 19840,
    "Ġgenerate": 1514,
    "Ġinexhaustible": 16982,
    "Ġhaving": 1877,
    "Ġenables": 725,
    "Ġbriony": 9331,
    "Ġdesponding": 25869,
    "Ġgenuine": 14887,
    "Ġbells": 19604,
    "Ġgreenwich": 19322,
    "Ġlip": 6533,
    "Ġbarbarous": 13479,
    "Ġdescribe": 2762,
    "Ġflowed": 10373,
    "Ġanswer": 2600,
    "french": 9121,
    "Ġuninterrupted": 22047,
    "Ġpiqu": 21481,
    "ising": 2258,
    "Ġandrew": 21511,
    "rasing": 21048,
    "Ġcrack": 7710,
    "become": 14248,
    "wrinkled": 16556,
    "Ġforeboding": 20387,
    "Ġcheetah": 14503,
    "Ġbee": 21754,
    "ineff": 21971,
    "Ġutility": 23517,
    "bird": 9587,
    "Ġattractive": 25576,
    "beheaded": 22497,
    "hearted": 6970,
    "Ġdeployment": 11192,
    "Ġintervening": 17269,
    "Ġfairness": 9895,
    "A": 37,
    "queens": 22894,
    "Ġgash": 15674,
    "Ġruthless": 15288,
    "due": 22415,
    "Ġfearlessness": 19163,
    "Ġduly": 13354,
    "Ġrazors": 22660,
    "readily": 19365,
    "Ġdeliriously": 23232,
    "Ġeconomical": 25288,
    "utting": 17987,
    "brave": 19826,
    "Ġcandour": 14674,
    "an": 278,
    "Ġplayfulness": 23639,
    "strike": 14951,
    "lit": 9607,
    "poling": 12223,
    "Ġcountess": 11966,
    "brim": 23577,
    "Ġbars": 13899,
    "ullen": 8236,
    "iece": 3228,
    "pleas": 3854,
    "Ġdarcy": 1345,
    "judged": 14833,
    "Ġscowl": 22290,
    "garn": 20872,
    "Ġblindly": 12113,
    ")(": 2980,
    "ullo": 12733,
    "Ġgrow": 2855,
    "Ġfaults": 12216,
    "Ġcivilly": 19606,
    "Ġlunch": 13528,
    "eteenth": 20160,
    "arman": 11597,
    "Ġvain": 3630,
    "Ġsons": 10767,
    "Ġfo": 1651,
    "ternatural": 12719,
    "Ġmichael": 20682,
    "Ġincantation": 26259,
    "Ġclothes": 4997,
    "ilt": 2966,
    "Ġmult": 1024,
    "Ġone": 570,
    "za": 13812,
    "Ġlanc": 19767,
    "Ġbrushed": 15574,
    "Ġheated": 21686,
    "Ġpulpit": 7469,
    "Ġreally": 2160,
    "poverty": 22913,
    "Ġgin": 13963,
    "Ġformal": 2939,
    "Ġword": 1053,
    "piled": 21017,
    "surpr": 5998,
    "tar": 8099,
    "hammered": 19006,
    "necessary": 5883,
    "waving": 21134,
    "beware": 16041,
    "Ġimpart": 11783,
    "ieves": 4003,
    "Ġunfl": 22021,
    "Ġrose": 3441,
    "Ġfaster": 3196,
    "Ġrecurrent": 1803,
    "Ġapologize": 15131,
    "Ġslyness": 25267,
    "<UNK>": 3,
    "odecimo": 11445,
    "snap": 24849,
    "Ġtotally": 9473,
    "Ġimperilled": 19581,
    "avo": 8519,
    "Ġnarrowly": 16821,
    "Ġfireplace": 13148,
    "Ġkno": 5241,
    "Ġlengths": 19208,
    "Ġcarted": 21353,
    "bohem": 19002,
    "Ġshutting": 14762,
    "Ġhav": 12758,
    "Ġlongitude": 11012,
    "Ġmild": 4146,
    "Ġoverspread": 14207,
    "Ġpoll": 12032,
    "Ġvigilant": 20187,
    "Ġtrowsers": 9629,
    "confidential": 25877,
    "Ġchaps": 14181,
    "encyclopÃ¦dia": 16665,
    "Ġreflection": 6440,
    "Ġseated": 4541,
    "Ġacceptance": 14829,
    "Ġ]": 15461,
    "dozen": 23381,
    "Ġscreaming": 13426,
    "Ġdramatic": 4852,
    "Ġlifting": 10198,
    "Ġdozen": 8187,
    "Ġdisc": 943,
    "performances": 26007,
    "othe": 2615,
    "Ġprehensile": 26535,
    "ass": 536,
    "Ġthinking": 4030,
    "istrate": 7405,
    "Ġboot": 11843,
    "Ġconvolutions": 21812,
    "Ġagitates": 22521,
    "Ġsighs": 22713,
    "Ġincurable": 22557,
    "lips": 13752,
    "Ġencoding": 4774,
    "rid": 5137,
    "Ġhow": 599,
    "Ġink": 8806,
    "longbourn": 9898,
    "exp": 2733,
    "subject": 6633,
    "Ġfitly": 24002,
    "wal": 10135,
    "Ġshrouds": 11345,
    "Ġscraped": 16904,
    "Ġforeshad": 23454,
    "ental": 7168,
    "Ġtorments": 13397,
    "sure": 5522,
    "creature": 5347,
    "Ġrephrased": 26478,
    "humored": 19456,
    "Ġvaluable": 5607,
    "Ġthunder": 4825,
    "childhood": 16867,
    "Ġflattered": 10376,
    "Ġhandles": 22701,
    "Ġnotable": 18223,
    "Ġsacri": 18329,
    "Ġnight": 1466,
    "uled": 11538,
    "Ġblocked": 19224,
    "Ġ1": 1015,
    "Ġ1000": 3114,
    "Ġcomrade": 11681,
    "Ġspeckled": 14310,
    "heading": 5487,
    "interrupted": 11418,
    "Ġexp": 778,
    "Ġplaintiffs": 13612,
    "fered": 5559,
    "bale": 20776,
    "gown": 9598,
    "abez": 10224,
    "truth": 9921,
    "Ġsymphony": 26533,
    "Ġstricken": 9778,
    "Ġpassed": 2009,
    "Ġinanimate": 13935,
    "Ġcarefully": 6305,
    "spoke": 11024,
    "heedful": 20576,
    "Ġremembrance": 8319,
    "Ġretreated": 13436,
    "ething": 1600,
    "anqu": 4110,
    "Ġwhistling": 19793,
    "cod": 12447,
    "Ġwinking": 17795,
    "Ġcheshire": 13093,
    "Ġbraided": 16583,
    "Ġencouraging": 2266,
    "Ġrack": 9314,
    "Ġspeeches": 22666,
    "indeed": 4488,
    "Ġstoper": 14464,
    "Ġsi": 21215,
    "decided": 13218,
    "Ġcoffin": 4429,
    "Ġcompliments": 8636,
    "Ġblanc": 11066,
    "mean": 6438,
    "part": 2574,
    "Ġresembling": 4097,
    "Ġpoison": 7218,
    "Ġmeddle": 20580,
    "Ġexploding": 2110,
    "lege": 17843,
    "Ġthereof": 22373,
    "Ġ90": 24590,
    "hens": 3938,
    "alloyed": 22208,
    "Ġcheerless": 16694,
    "rollable": 13947,
    "beam": 16040,
    "Ġbil": 15568,
    "Ġaccelerate": 23230,
    "Ġwel": 4527,
    "imper": 13999,
    "ciousness": 20819,
    "Ġschedu": 1823,
    "entering": 17979,
    "ernation": 8212,
    "christian": 17234,
    "Ġcaptioning": 23026,
    "Ġtexel": 25924,
    "Ġcompare": 9304,
    "Ġresearch": 3238,
    "Ġdiscipline": 26562,
    "Ġwhine": 21719,
    "cles": 8729,
    "Ġprecipices": 12281,
    "Ġjoy": 3182,
    "chors": 11646,
    "rate": 2425,
    "Ġdirection": 1792,
    "Ġlamb": 8816,
    "Ġoperation": 12001,
    "narrative": 17321,
    "teous": 16173,
    "Ġreco": 9790,
    "nowled": 5470,
    "dan": 17516,
    "Ġviol": 2074,
    "over": 1845,
    "Ġmons": 10158,
    "Ġservant": 5764,
    "contriv": 19294,
    "Ġsorting": 3233,
    "Ġimpenit": 22394,
    "ograph": 4798,
    "Ġstri": 2800,
    "bast": 10079,
    "icken": 6712,
    "Ġteach": 8554,
    "Ġedward": 19153,
    "Ġactivations": 2716,
    "period": 15905,
    "reckoning": 25271,
    "Ġenvy": 13212,
    "Ġpresently": 5116,
    "intended": 11067,
    "Ġactuated": 18546,
    "wra": 11543,
    "sank": 17663,
    "kington": 11204,
    "Ġinvaluable": 10184,
    "Ġtemple": 7654,
    "Ġpiratical": 24798,
    "rederick": 14082,
    "Ġunsuccessful": 18255,
    "Ġrect": 18028,
    "Ġstarlight": 24628,
    "iated": 5891,
    "Ġglobe": 6077,
    "ivering": 7699,
    "Ġboldness": 24427,
    "Ġdissipate": 13636,
    "Ġvacancy": 9046,
    "Ġcatastrop": 3348,
    "Ġevangel": 11281,
    "neck": 14243,
    "Ġtreacle": 14596,
    "Ġnavel": 24576,
    "Ġhappened": 3712,
    "aurs": 20771,
    "Ġpresuming": 16794,
    "Ġgrappling": 25813,
    "perfect": 7635,
    "99": 1892,
    "Ġcripp": 9655,
    "Ġdogs": 7742,
    "Ġsax": 10930,
    "Ġemb": 1234,
    "Ġontario": 26206,
    "verdict": 21734,
    "eyeing": 14948,
    "Ġarmitage": 23583,
    "iteous": 14263,
    "Ġsolicited": 20040,
    "altering": 12644,
    "Ġblameless": 19861,
    "Ġharpooning": 23982,
    "Ġgorgeous": 20470,
    "Ġrecess": 10848,
    "elze": 21577,
    "analysis": 26174,
    "Ġbed": 2152,
    "Ġbleak": 10560,
    "Ġrevolut": 3257,
    "join": 12117,
    "Ġreproof": 24891,
    "Ġly": 2271,
    "attentions": 13577,
    "Ġdraws": 19439,
    "hills": 13738,
    "Ġdivide": 12114,
    "Ġgaff": 17996,
    "Ġwoe": 4793,
    "Ġdante": 21442,
    "Ġriverside": 25248,
    "sequent": 6830,
    "Ġguardianship": 17422,
    "ary": 985,
    "Ġimminent": 11245,
    "ĠĠĠĠĠĠĠĠĠĠĠĠ": 12904,
    "Ġarches": 14162,
    "Ġsoaring": 22085,
    "Ġdick": 3496,
    "Ġsquire": 16185,
    "young": 7320,
    "pendicular": 6499,
    "sory": 17660,
    "Ġvillas": 24057,
    "bod": 12440,
    "venison": 22632,
    "ushing": 5731,
    "intments": 18822,
    "Ġunre": 3477,
    "Ġdistorted": 14251,
    "jet": 13744,
    "Ġapologizing": 25198,
    "Ġharpoone": 2909,
    "idable": 8147,
    "Ġsensation": 6895,
    "Ġrare": 7038,
    "Ġgates": 10202,
    "Ġbraz": 19361,
    "ribbed": 16414,
    "Ġproble": 1109,
    "Ġgrunted": 16170,
    "Ġsuffers": 2972,
    "Ġsubst": 4273,
    "arial": 5531,
    "Ġenrapt": 21944,
    "Ġgentlemanly": 19317,
    "Ġsunlight": 13088,
    "Ġstretched": 5921,
    "written": 7996,
    "Ġwallowing": 24047,
    "Ġocean": 3305,
    "Ġdesire": 3716,
    "naught": 20996,
    "Ġmccauley": 26428,
    "Ġ41": 24081,
    "Ġsickle": 24247,
    "Ġconsciousness": 9950,
    "Ġcombination": 22857,
    "Ġmail": 17802,
    "Ġdevelopment": 7059,
    "bath": 13692,
    "founded": 16715,
    "Ġrecognise": 12036,
    "Ġcalculus": 23986,
    "erer": 8735,
    "Ġforesight": 13130,
    "experience": 17160,
    "inform": 10145,
    "nurs": 21001,
    "Ġoriginally": 7303,
    "Ġlands": 6595,
    "Ġeyed": 12671,
    "compliment": 11365,
    "lynes": 15707,
    "Ġcensure": 15098,
    "Ġbritish": 11338,
    "Ġsubmit": 11873,
    "plied": 10256,
    "happy": 4425,
    "condesc": 18506,
    "tenham": 16324,
    "give": 4689,
    "Ġhonor": 5664,
    "Ġcalam": 13038,
    "riving": 21936,
    "Ġtragedy": 10669,
    "seamen": 13629,
    "Ġgeneralize": 3098,
    "pall": 17629,
    "Ġanomalously": 25639,
    "equally": 19901,
    "abouts": 9454,
    "cav": 17509,
    "Ġwhales": 1828,
    "Ġcompared": 2229,
    "Ġcuff": 17831,
    "prov": 16425,
    "Ġsentence": 6188,
    "Ġschemes": 11132,
    "Ġguest": 7248,
    "Ġperem": 12936,
    "Ġhitting": 21491,
    "Ġunrestingly": 20364,
    "jee": 17580,
    "broken": 8021,
    "image": 9688,
    "Ġreligions": 20111,
    "Ġgazing": 5877,
    "Ġham": 3420,
    "Ġdistrust": 8205,
    "Ġpoultry": 17443,
    "Ġcath": 17828,
    "up": 1284,
    "Ġsable": 15502,
    "afforded": 25866,
    "Ġanointing": 25540,
    "machines": 8386,
    "Ġfully": 6343,
    "every": 2807,
    "Ġinstability": 3814,
    "croquet": 25748,
    "Ġbegin": 3094,
    "Ġmonsieur": 12424,
    "influences": 25251,
    "Ġcrags": 23531,
    "condemned": 26061,
    "Ġindependence": 12108,
    "Ġomnipotent": 13551,
    "Ġpine": 8800,
    "prot": 6898,
    "Ġherds": 9718,
    "urn": 775,
    "Ġsignification": 19205,
    "Ġsimulates": 2735,
    "Ġdiligence": 17114,
    "ume": 4837,
    "Ġdesign": 4132,
    "dick": 11480,
    "Ġquestionable": 19268,
    "Ġjudge": 5502,
    "Ġconquered": 14028,
    "Ġhel": 3787,
    "Ġcomstock": 21856,
    "several": 5543,
    "Ġexamples": 2606,
    "Ġcontinents": 16850,
    "Ġfootfalls": 25867,
    "Ġmatted": 22918,
    "Ġhanding": 16133,
    "erval": 4018,
    "distinct": 13339,
    "Ġcurses": 13017,
    "Ġmarshy": 20221,
    "Ġconst": 1909,
    "Ġscott": 22286,
    "observation": 17271,
    "Ġnavigators": 19766,
    "Ġnortheast": 23209,
    "Ġcaul": 10788,
    "Ġrepublican": 17414,
    "belt": 24039,
    "lacings": 26135,
    "Ġcovariate": 2351,
    "Ġexpatiate": 18626,
    "Ġgasps": 24866,
    "ryder": 18639,
    "doesn": 19823,
    "rary": 4575,
    "Ġsweating": 16463,
    "Ġalps": 10871,
    "Ġaffair": 4463,
    "very": 501,
    "Ġcharacteristics": 8613,
    "Ġglowed": 24865,
    "Ġstilly": 25974,
    "clinging": 20824,
    "Ġcitations": 25438,
    "Ġsprinkled": 19500,
    "Ġpreside": 18366,
    "Ġdear": 1538,
    "affections": 17358,
    "Ġhind": 9190,
    "Ġinscrutable": 10674,
    "Ġextremest": 19197,
    "Ġlot": 6679,
    "necess": 4897,
    "Ġlabel": 14515,
    "Ġnotorious": 18224,
    "Ġcurving": 16238,
    "Ġlofty": 6218,
    "Ġwhitney": 11374,
    "Ġlatin": 16822,
    "Ġmagistrate": 8235,
    "ural": 505,
    "Ġwhirlwinds": 20468,
    "================================================================": 9992,
    "Ġsecrecy": 7315,
    "Ġvinegar": 20103,
    "Ġlibr": 16003,
    "Ġliter": 8815,
    "Ġflounders": 23019,
    "Ġpersuade": 5873,
    "Ġsermons": 20197,
    "anoke": 21364,
    "rated": 6228,
    "Ġdeficient": 18826,
    "Ġconstrued": 26302,
    "Ġclapping": 14204,
    "Ġshaking": 6552,
    "Ġbale": 7839,
    "Ġphilist": 16602,
    "Ġsoldiers": 8690,
    "expect": 4769,
    "Ġhammock": 5768,
    "embow": 21934,
    "lesome": 12969,
    "Ġwhit": 7177,
    "Ġaugust": 10599,
    "Ġdecide": 9289,
    "Ġexploded": 15913,
    "hemat": 3125,
    "excited": 13383,
    "Ġfle": 3086,
    "Ġrazor": 22658,
    "ef": 5134,
    "sofa": 26147,
    "Ġsavor": 23878,
    "Ġcasement": 25095,
    "sigma": 3001,
    "Ġsympt": 7012,
    "Ġtwitch": 22680,
    "Ġradney": 6775,
    "sir": 5001,
    "Ġplying": 17916,
    "Ġburning": 5978,
    "Ġavowal": 19418,
    "izz": 7615,
    "erative": 21275,
    "Ġuniverse": 14125,
    "Ġdepart": 4656,
    "contained": 22477,
    "bearing": 9767,
    "edy": 2854,
    "Ġnever": 1021,
    "Ġphilosophers": 10553,
    "americ": 8157,
    "Ġconclusions": 10555,
    "Ġreveries": 11348,
    "Ġassemblage": 26354,
    "longer": 8616,
    "Ġvinc": 14087,
    "gradually": 12919,
    "wart": 17706,
    "Ġgentlemanlike": 12070,
    "Ġunlocking": 20708,
    "Ġwails": 21299,
    "Ġvagu": 13592,
    "draw": 23903,
    "Ġeyes": 1336,
    "cont": 2918,
    "Ġspong": 15884,
    "Ġcontemplate": 19894,
    "Ġjura": 14194,
    "hooked": 23718,
    "Ġbud": 10170,
    "Ġdiscriminator": 3391,
    "Ġyielding": 12190,
    "peaceful": 20450,
    "Ġincoherent": 17402,
    "Ġbuckets": 17034,
    "Ġnib": 13942,
    "Ġfoe": 7681,
    "Ġalarm": 4046,
    "Ġhorns": 11124,
    "Ġunwilling": 7887,
    "Ġfamily": 1964,
    "ceiving": 3904,
    "Ġcontradictory": 20400,
    "Ġcomplexity": 1695,
    "Ġrealistic": 5861,
    "Ġdiscovers": 4428,
    "Ġdiggings": 24650,
    "Ġoutbreak": 22322,
    "Ġdaily": 5988,
    "heaven": 8054,
    "Ġmatches": 14398,
    "Ġquite": 1739,
    "Ġ114": 24437,
    "ry": 807,
    "Ġprecautions": 23730,
    "excuse": 13384,
    "overhearing": 19054,
    "Ġdisreputable": 22539,
    "unhesitatingly": 26497,
    "seaman": 25458,
    "Ġwaits": 23282,
    "Ġejaculation": 20257,
    "susp": 10598,
    "pan": 10717,
    "Ġstruggle": 3675,
    "Ġstat": 1490,
    "Ġinserted": 8357,
    "Ġjib": 14195,
    "plumed": 21960,
    "Ġporus": 24397,
    "Ġprosecuted": 25294,
    "glasses": 11216,
    "Ġtons": 11551,
    "Ġoccasions": 7989,
    "Ġpainter": 19170,
    "©": 107,
    "Ġbus": 1902,
    "Ġdreaming": 11224,
    "Ġpaw": 12624,
    "Ġlog": 1678,
    "Ġwarmest": 16485,
    "Ġbeaut": 2397,
    "Ġcheerful": 6623,
    "scap": 22994,
    "Ġwalled": 15537,
    "Ġundiscovered": 18250,
    "Ġcosmopol": 16454,
    "Ã¦st": 24176,
    "ins": 1377,
    "as": 302,
    "innocent": 20289,
    "airing": 16177,
    "Ġlinked": 15080,
    "Ġdz": 4756,
    "ta": 13791,
    "Ġcot": 13879,
    "Ġaccomplishment": 19668,
    "Ġforenoon": 19127,
    "Ġwhirlp": 16964,
    "oward": 6022,
    "Ġlingering": 11380,
    "Ġlima": 10443,
    "Ġdreadfully": 7726,
    "Ġoar": 6237,
    "prevent": 11798,
    "nd": 11505,
    "Ġguinea": 8949,
    "Ġdripping": 13150,
    "Ġhide": 4589,
    "myst": 9824,
    "Ġinnocent": 4922,
    "immedi": 8452,
    "Ġcollar": 11882,
    "Ġfull": 2177,
    "adamite": 20596,
    "Ġsaying": 3244,
    "borean": 25744,
    "Ġcav": 13882,
    "Ġrepentance": 15163,
    "street": 6495,
    "Ġglances": 10374,
    "america": 17097,
    "wail": 21128,
    "tea": 18740,
    "rations": 10724,
    "Ġpumps": 8429,
    "rifled": 21050,
    "Ġtides": 13823,
    "ifies": 6687,
    "Ġactiv": 834,
    "Ġventing": 19496,
    "confid": 14869,
    "Ġinstruct": 2859,
    "Ġterti": 14539,
    "Ġrepl": 1591,
    "Ġsaf": 3999,
    "etieth": 21588,
    "Ġgreatly": 5850,
    "succeed": 10330,
    "Ġbough": 13896,
    "Ġwretch": 6378,
    "Ġtrag": 13044,
    "rooms": 10433,
    "lan": 15380,
    "Ġsummary": 19406,
    "Ġsanctioned": 26352,
    "Ġgermans": 25785,
    "atively": 2693,
    "bing": 7792,
    "companions": 15025,
    "Ġguarded": 9828,
    "Ġconfiding": 19038,
    "Ġheadstrong": 14390,
    "assemblies": 25957,
    "irements": 22218,
    "rip": 9243,
    "abilities": 3235,
    "Ġbrings": 11883,
    "Ġaristotle": 25818,
    "Ġpunctilious": 26355,
    "Ġ34": 16678,
    "ustration": 2262,
    "uff": 2727,
    "Ġlogits": 3448,
    "Ġdesk": 11910,
    "Ġmansfield": 25939,
    "scence": 14421,
    "Ġest": 2268,
    "prehens": 9291,
    "Ġstraps": 19311,
    "Ġterra": 13120,
    "Ġextinguish": 14339,
    "Ġinsufferable": 13933,
    "Ġcruelly": 13378,
    "Ġinvestig": 10551,
    "Ġcir": 21344,
    "Ġenjoys": 19453,
    "Ġtottenham": 24142,
    "Ġ127": 24471,
    "Ġbreaches": 14521,
    "Ġlookest": 22719,
    "Ġmaids": 19694,
    "Ġsink": 4340,
    "Ġrecent": 7434,
    "Ġwhelmed": 26000,
    "jabez": 20935,
    "spears": 23945,
    "Ġeduc": 4785,
    "Ġscre": 9739,
    "front": 12174,
    "Ġobliter": 14324,
    "sprit": 11383,
    "ung": 2741,
    "cri": 17507,
    "hope": 5991,
    "Ġstumbling": 21747,
    "lo": 681,
    "Ġconceit": 7294,
    "Ġbarbarians": 19590,
    "Ġincompatible": 25681,
    "xible": 13810,
    "ĠĠĠĠĠĠĠĠĠĠĠĠĠĠĠĠĠĠĠĠĠĠĠĠĠĠĠĠĠĠĠĠĠĠĠĠĠ": 14615,
    "Ġnightmare": 18921,
    "nineteenth": 26139,
    "Ġcoincidences": 26365,
    "uous": 4144,
    "Ġbest": 1972,
    "matlock": 23471,
    "weight": 2937,
    "Ġcondu": 18112,
    "Ġbidirectional": 3756,
    "Ġenem": 4708,
    "eenth": 12464,
    "branch": 23580,
    "terns": 21827,
    "Ġmod": 497,
    "Ġacquiescence": 20333,
    "Ġhumorousness": 25378,
    "ultaneous": 18583,
    "Ġopportunities": 19251,
    "Ġlighter": 12657,
    "Ġtartar": 17324,
    "Ġtook": 1853,
    "Ġflames": 7941,
    "soled": 14332,
    "Ġprinc": 4200,
    "otic": 15748,
    "Ġconsequence": 5541,
    "Ġamuse": 5941,
    "Ġobliging": 13246,
    "Ġforth": 3461,
    "la": 10706,
    "arled": 21446,
    "Ġinterpre": 1588,
    "Ġcobbler": 25831,
    "ellent": 3762,
    "Ġpapa": 10658,
    "Ġjagged": 18408,
    "ve": 322,
    "Ġunrecorded": 17469,
    "profitable": 17055,
    "thest": 11656,
    "Ġdisse": 18549,
    "Ġworrying": 22931,
    "Ġwaiting": 4323,
    "ella": 12753,
    "Ġscratches": 22291,
    "Ġmovement": 9970,
    "Ġcherub": 23290,
    "turner": 19544,
    "hom": 12477,
    "bore": 13689,
    "orrah": 17877,
    "Ġtyro": 16995,
    "icated": 7591,
    "educated": 17261,
    "Ġhoard": 23356,
    "Ġblew": 9047,
    "forest": 22522,
    "Ġgeometric": 3218,
    "Ġexecut": 4247,
    "Ġbanished": 10618,
    "Ġfriesland": 26443,
    "ty": 1000,
    "Ġpanelled": 19657,
    "Ġploughing": 26261,
    "Ġribs": 7102,
    "gg": 1995,
    "ippers": 17577,
    "peare": 18913,
    "alo": 7588,
    "Ġfowler": 16938,
    "Ġhedgehogs": 25395,
    "illes": 12698,
    "Ġvouch": 15812,
    "claims": 25320,
    "erness": 6434,
    "farmer": 25900,
    "Ġpupils": 20424,
    "Ġroughly": 17040,
    "Ġchatting": 24746,
    "Ġfurther": 1056,
    "humoured": 11237,
    "arrange": 23769,
    "Ġdies": 11595,
    "Ġdevils": 7229,
    "Ġrascal": 11704,
    "stopping": 19353,
    "Ġimplac": 24875,
    "Ġberg": 24535,
    "Ġstone": 4645,
    "olen": 9701,
    "historian": 25735,
    "Ġpermission": 9281,
    "Ġstruggling": 12078,
    "unaccountable": 15782,
    "âĢĶ.âĢĿ": 22260,
    "Ġdelicately": 24125,
    "Ġespecially": 3937,
    "Ġ27": 8618,
    "oysius": 14365,
    "Ġdetection": 3153,
    "lab": 3454,
    "Ġphilosophy": 7104,
    "Ġimpul": 7207,
    "Ġoppress": 13175,
    "Ġexchange": 15762,
    "painful": 13504,
    "Ġconvul": 13204,
    "proud": 9906,
    "centre": 17087,
    "Ġhero": 5715,
    "Ġresol": 2664,
    "roylott": 20030,
    "Ġbasis": 16962,
    "Ġsubstituting": 26328,
    "Ġpursuing": 9440,
    "Ġkneel": 14809,
    "Ġurged": 6781,
    "Ġupdating": 2688,
    "Ġfeedforward": 2327,
    "Ġanatomical": 15079,
    "Ġdes": 1251,
    "Ġfetching": 16897,
    "Ġconstables": 19072,
    "Ġex": 364,
    "ought": 831,
    "impossible": 8827,
    "Ġfatally": 19397,
    "Ġrelated": 3714,
    "Ġchrysalis": 26539,
    "Ġproduced": 2454,
    "ighb": 10424,
    "sec": 6153,
    "Ġethiopian": 26614,
    "Ġdeceived": 6545,
    "Ġsepulch": 15287,
    "Ġnoise": 1070,
    "Ġposter": 14277,
    "affold": 16564,
    "tempted": 26404,
    "Ġdetermined": 2223,
    "t": 88,
    "Ġcoronet": 6345,
    "Ġpass": 1039,
    "Ġverdure": 10614,
    "Ġsickness": 10540,
    "Ġdog": 4193,
    "Ġreappeared": 21669,
    "younger": 11313,
    "parable": 16404,
    "Ġreferences": 21678,
    "Ġcurve": 22972,
    "causing": 25519,
    "Ġpitch": 5767,
    "Ñ": 146,
    "rolling": 9062,
    "Ġhanded": 8218,
    "aint": 2542,
    "ylon": 24980,
    "Ġtap": 12530,
    "Ġcreatures": 4137,
    "rench": 3967,
    "culiar": 2817,
    "pretty": 10623,
    "ralian": 19603,
    "cell": 10688,
    "Ġasleep": 6835,
    "Ġoutlines": 15960,
    "aced": 2411,
    "Ġsplin": 8622,
    "assment": 9741,
    "Ġlivelong": 25512,
    "Ġhandspikes": 12943,
    "flu": 9119,
    "Ġacquitted": 18900,
    "Ġreconciled": 13590,
    "urday": 13997,
    "Ġbabes": 24424,
    "Ġlack": 17966,
    "Ġshadows": 8014,
    "Ġsolar": 22888,
    "ancy": 4394,
    "Ġes": 8773,
    "Ġderanged": 23178,
    "natural": 2278,
    "Ġconver": 806,
    "embraces": 25804,
    "dropping": 14984,
    "Ġlike": 667,
    "Ġdesperation": 19821,
    "Ġfloundering": 16254,
    "Ġstow": 21735,
    "presence": 18497,
    "Ġhermit": 15860,
    "Ġserm": 9635,
    "estic": 4956,
    "think": 3609,
    "flies": 19427,
    "Ġboundless": 10497,
    "Ġamend": 16037,
    "dles": 11482,
    "queness": 18150,
    "mon": 2309,
    "Ġcase": 1939,
    "inkle": 22622,
    "Ġrationally": 18214,
    "hair": 9124,
    "Ġabsor": 8506,
    "dancing": 12458,
    "recurrent": 4994,
    "Ġvibration": 17099,
    "carte": 25401,
    "Ġcruise": 12052,
    "nx": 17608,
    "Ġstout": 6026,
    "ops": 5247,
    "arcy": 1276,
    "overlooked": 23327,
    "Ù": 154,
    "sailor": 14717,
    "Ġpartiality": 9400,
    "Ġassociation": 24710,
    "compar": 14361,
    "Ġhackluyt": 25656,
    "Ġnewcomers": 26042,
    "Ġadvantage": 4316,
    "Ġpockets": 8898,
    "quod": 2165,
    "Ġroyalty": 19738,
    "Ġbatch": 889,
    "Ġarsacidean": 20368,
    "Ġlaunched": 14928,
    "Ġfrenz": 25447,
    "spread": 8390,
    "Ġgoble": 14231,
    "Ġsuspected": 9064,
    "earliest": 20123,
    "Ġtr": 556,
    "ksome": 10106,
    "ittered": 18441,
    "Ġelements": 2665,
    "dragged": 16609,
    "pen": 1204,
    "Ġedge": 5189,
    "aging": 2239,
    "Ġgloss": 11961,
    "Ġinserting": 19908,
    "aut": 1911,
    "Ġperpendicular": 7208,
    "Ġapproximation": 2341,
    "dle": 3307,
    "Ġsho": 2246,
    "Ġdisplayed": 10610,
    "Ġfrancis": 26064,
    "Ġmainland": 22653,
    "dun": 17517,
    "Ġdimly": 9490,
    "Ġexist": 9233,
    "Ġtra": 1384,
    "Ġrecoil": 18688,
    "grew": 17556,
    "Ġsphy": 18312,
    "hibited": 17429,
    "Ġcreases": 22729,
    "Ġcard": 7362,
    "bull": 13693,
    "sent": 762,
    "Ġprogno": 14042,
    "Ġdine": 7365,
    "bordered": 17500,
    "Ġcollege": 11425,
    "atre": 17771,
    "rified": 15421,
    "Ġlaughs": 24116,
    "Ġevangelical": 25507,
    "_.âĢĶ": 23474,
    "soft": 12513,
    "repent": 15515,
    "Ġsuspend": 14609,
    "Ġbennets": 9808,
    "scale": 3534,
    "azz": 8263,
    "Ġpalmy": 19502,
    "Ġfeebly": 24878,
    "Ġstyled": 24672,
    "ractions": 11635,
    "holes": 12057,
    "Ġdecayed": 22831,
    "Ġpersonal": 7479,
    "watch": 6119,
    "Ġirrevoc": 15040,
    "Ġpor": 5225,
    "ccarthy": 4889,
    "underneath": 23791,
    "Ġexcurs": 23318,
    "Ġanswering": 7477,
    "Ġruinous": 24635,
    "fired": 20862,
    "zy": 2668,
    "Ġstatement": 5255,
    "Ġret": 1381,
    "Ġfarmhouse": 24989,
    "Ġattached": 5392,
    "Ġfollies": 16258,
    "Ġlake": 5227,
    "loo": 10321,
    "Ġpattering": 18652,
    "Ġsteady": 4849,
    "ears": 20847,
    "Ġitalian": 12413,
    "ø": 185,
    "Ġscarcity": 23830,
    "Ġloun": 7166,
    "amp": 2607,
    "Ġstraightened": 12112,
    "Ġpence": 17907,
    "Ġseeming": 8541,
    "Ġeasily": 3893,
    "Ġhost": 7069,
    "Ġparc": 10921,
    "drink": 10597,
    "Ġbuying": 23999,
    "Ġ17": 5740,
    "Ġtattooings": 24901,
    "Ġoce": 3027,
    "denial": 18717,
    "Ġlacepede": 20498,
    "Ġverily": 16604,
    "Ġcategorization": 12140,
    "Ġencomp": 12967,
    "Ġstake": 14005,
    "bur": 4687,
    "Ġmac": 15541,
    "Ġdeceiving": 21835,
    "Ġdistantly": 18532,
    "Ġcrossing": 7252,
    "Ġgrin": 5482,
    "Ġlovers": 9722,
    "Ġordained": 19448,
    "Ġsuppress": 13028,
    "alogies": 25162,
    "Ġ1836": 25721,
    "Ġinclinations": 19542,
    "Ġinv": 2225,
    "Ġdoubloons": 13437,
    "Ġsqueeze": 10041,
    "Ġrecording": 24433,
    "Ġshowing": 7732,
    "scarcely": 12389,
    "uation": 17695,
    ".âĢĻ": 1718,
    "Ġspat": 2663,
    "uded": 6287,
    "Ġseized": 4835,
    "valu": 1671,
    "reader": 23850,
    "Ġsensational": 16391,
    "har": 20892,
    "Ġmanx": 7907,
    "at": 268,
    "Ġsenior": 17173,
    "shortly": 12262,
    "chariot": 26480,
    "Ġjoint": 12038,
    "Ġpeaceful": 9458,
    "slackened": 26095,
    "Ġshow": 3401,
    "Ġhighly": 4846,
    "rival": 12746,
    "Ġshiver": 12771,
    "inquir": 9538,
    "Ġmysterious": 7527,
    "Ġhunter": 5401,
    "sl": 5794,
    "Ġsynd": 22196,
    "Ġforging": 18096,
    "Ġcan": 469,
    "Ġmazes": 25941,
    "ledyard": 22387,
    "Ġplucked": 15116,
    "ouses": 5163,
    "Ġleaping": 8342,
    "cruise": 24842,
    "Ġinstant": 2701,
    "Ġalternating": 15032,
    "Ġupd": 946,
    "barrels": 15043,
    "Ġsooty": 25816,
    "include": 23591,
    "evid": 11486,
    "Ġforming": 7043,
    "Ġrelatives": 12985,
    "Ġruined": 12958,
    "Ġreigning": 15704,
    "executed": 25740,
    "brated": 12029,
    "breakfast": 8691,
    "official": 24915,
    "sword": 10727,
    "Ġphaet": 16320,
    "uber": 15447,
    "do": 1994,
    "Ġfurnishing": 16647,
    "ĠĠĠĠĠĠĠĠĠĠĠĠĠĠĠĠĠĠĠĠĠĠĠĠĠĠĠĠĠĠĠĠĠĠĠĠĠĠĠĠĠĠĠĠĠĠĠĠ": 7990,
    "Ġcondem": 6339,
    "Ġrepeating": 11214,
    "is": 280,
    "Ġfavourites": 16646,
    "Ġhearts": 4972,
    "develop": 13520,
    "limin": 8385,
    "ĠâĢľ_": 6697,
    "Ġwrongfully": 24250,
    "Ġday": 957,
    "Ġhardship": 18915,
    "amy": 8469,
    "Ġsummarization": 3647,
    "wondering": 19847,
    "Ġfriendless": 23029,
    "Ġmount": 7361,
    "Ġunsupplied": 22044,
    "Ġmapple": 11151,
    "Ġpurport": 14582,
    "Ġarab": 7824,
    "Ġwarden": 17226,
    "etah": 12665,
    "Ġpersuasions": 16633,
    "Ġdispel": 16597,
    "starbuck": 6020,
    "rigible": 24932,
    "unw": 14059,
    "Ġancestry": 25642,
    "Ġwhelm": 25999,
    "Ġpossessions": 23828,
    "Ġwhiting": 10860,
    "Ġlikelihood": 16501,
    "Ġsegment": 12761,
    "Ġjustify": 11073,
    "Ġblushed": 13006,
    "arter": 17895,
    "attached": 11938,
    "ds": 4688,
    "gaff": 20884,
    "Ġmic": 17799,
    "Ġsurface": 5119,
    "prolong": 23398,
    "icted": 5938,
    "Ġlatitudes": 9498,
    "Ġinsurance": 23684,
    "aution": 9390,
    "earn": 10697,
    "Ġmajest": 24064,
    "sooner": 14780,
    "os": 524,
    "suff": 4961,
    "Ġranks": 21980,
    "Ġunearthly": 9038,
    "cking": 4265,
    "ubbub": 23247,
    "Ġbapt": 13898,
    "dinner": 11407,
    "Ġbond": 21387,
    "Ġfatality": 12099,
    "Ġcoherent": 3262,
    "Ġdoctrine": 24199,
    "Ġ20": 8617,
    "remental": 21250,
    "acetty": 24463,
    "etical": 13960,
    "Ġfist": 21407,
    "Ġlivel": 11356,
    "Ġrheum": 18215,
    "gain": 8740,
    "Ġenticing": 22750,
    "Ġcottagers": 6761,
    "Ġlightness": 23264,
    "Ġfirst": 937,
    "ellest": 21578,
    "Ġneat": 6999,
    "emone": 21930,
    "cence": 9590,
    "Ġbattering": 13903,
    "Ġtherein": 11779,
    "mary": 8752,
    "tim": 13793,
    "Ġinvisible": 7326,
    "itage": 17818,
    "Ġnut": 12650,
    "indust": 18437,
    "Ġprincip": 5599,
    "Ġheedfulness": 24521,
    "Ġbrix": 12587,
    "bru": 12442,
    "Ġwantonly": 22897,
    "Ġhelping": 3267,
    "assure": 9271,
    "Ġens": 2784,
    "mmar": 952,
    "singing": 24362,
    "precious": 12076,
    "Ġchisel": 20371,
    "Ġinclusive": 24163,
    "Ġdesperately": 24657,
    "Ġ2026": 12338,
    "mistaken": 12214,
    "soc": 5175,
    "frank": 7758,
    "Ġsynthe": 26008,
    "entirely": 7782,
    "Ġknife": 7308,
    "hroom": 12480,
    "Ġceased": 6468,
    "Ġjacob": 1897,
    "favourable": 12267,
    "Ġfat": 3459,
    "century": 20050,
    "Ġholder": 6725,
    "Ġcapsized": 20093,
    "athered": 6972,
    "Ġunquestionable": 26223,
    "aset": 10833,
    "Ġparading": 23713,
    "Ġcalmly": 7734,
    "Ġstur": 15720,
    "Ġremarked": 3695,
    "bethinking": 25746,
    "Ġperfidious": 25667,
    "Ġneg": 1334,
    "Ġbaggy": 24537,
    "Ġbrain": 2090,
    "Ġearth": 2845,
    "Ġdiscoverers": 26037,
    "Ġcommentators": 25230,
    "Ġsolving": 2484,
    "Ġvales": 21951,
    "imson": 12693,
    "irectly": 6939,
    "fav": 6648,
    "hero": 21207,
    "Ġoutstanding": 22321,
    "sense": 11525,
    "Ġrepine": 16412,
    "algorith": 3472,
    "Ġassailants": 20452,
    "brew": 11474,
    "ilar": 10217,
    "size": 15427,
    "Ġearthly": 7991,
    "Ġstroll": 13356,
    "Ġjohnson": 18410,
    "Ġhad": 443,
    "ą": 198,
    "ical": 754,
    "Ġclaim": 5106,
    "ropes": 7905,
    "Ġepisode": 26349,
    "Ġpenet": 6887,
    "Ġtigers": 25759,
    "Ġrainy": 24340,
    "Ġplague": 11827,
    "Ġsettee": 22925,
    "Ġrace": 5848,
    "Ġarticulate": 24431,
    "Ġcultivated": 17366,
    "¯": 112,
    "Ġfleece": 10616,
    "answ": 15887,
    "Ġspatial": 2726,
    "told": 7812,
    "bestow": 16930,
    "Ġbeauties": 10446,
    "owners": 16090,
    "Ġgathering": 14980,
    "Ġwarn": 5695,
    "Ġnumerous": 6919,
    "Ġshepherd": 14154,
    "Ġinjustice": 9192,
    "prec": 3200,
    "sil": 5283,
    "reporting": 24493,
    "Ġbloodless": 19341,
    "does": 6195,
    "anim": 6522,
    "Ġmantelpiece": 15210,
    "Ġmagnanimous": 17413,
    "Ġnets": 21528,
    "Ġsymbolize": 24965,
    "£": 101,
    "Ġdevices": 2938,
    "total": 17252,
    "Ġpreviously": 3921,
    "evidence": 25522,
    "erranean": 9336,
    "Ġpraying": 19557,
    "vision": 5619,
    "Ġfin": 1461,
    "Ġcetology": 10011,
    "fo": 5279,
    "oping": 5558,
    "Ġparac": 12799,
    "recollect": 17225,
    "Ġloite": 22116,
    "Ġdiagon": 24739,
    "Ġhired": 10179,
    "atmosphere": 21267,
    "activation": 3230,
    "Ġhardy": 8568,
    "Ġsliding": 9365,
    "achusetts": 20712,
    "Ġemergencies": 17364,
    "first": 3935,
    "Ġapril": 13665,
    "Ġbeginning": 4243,
    "erce": 6127,
    "Ġheroism": 24543,
    "Ġcarried": 3693,
    "class": 4095,
    "Ġpurpose": 2705,
    "uctive": 17697,
    "Ġpup": 12623,
    "gale": 13726,
    "Ġtransitory": 16028,
    "suffer": 24328,
    "!--": 10679,
    "apes": 9743,
    "Ġthy": 2514,
    "objects": 13473,
    "Ġtimor": 24226,
    "Ġintelligences": 12835,
    "Ġmurderer": 4980,
    "Ġcrow": 3806,
    "skelter": 24489,
    "requiem": 24857,
    "Ġunintelligible": 26515,
    "Ġnaut": 13943,
    "Ġpall": 7583,
    "Ġoutfits": 22326,
    "oons": 12502,
    "Ġshutters": 9939,
    "Ġjoyfully": 19349,
    "Ġmemoirs": 26207,
    "lutions": 20952,
    "ĠâĢĶâĢĶ": 25758,
    "Ġshameful": 19854,
    "Ġadjacent": 20713,
    "Ġnapoleons": 25886,
    "Ġreaders": 18916,
    "Ġpistol": 7848,
    "Ġsli": 4748,
    "âĢĺ": 940,
    "Ġtempted": 9058,
    "Ġgay": 5534,
    "olic": 14043,
    "Ġfisheries": 17440,
    "Ġcheered": 16371,
    "ath": 863,
    "ov": 15402,
    "Ġturbulence": 26598,
    "Ġlink": 8131,
    "Ġantichron": 24182,
    "Ġdow": 17888,
    "pay": 10719,
    "Ġbrought": 2517,
    "Ġverdant": 15003,
    "Ġlatitude": 8330,
    "Ġadoration": 18291,
    "Ġflu": 3278,
    "Ġaut": 1805,
    "Ġwhist": 6023,
    "Ġtrotting": 19979,
    "Ġsleeping": 6320,
    "Ġdecorum": 16027,
    "Ġnour": 10831,
    "Ġsomehow": 4843,
    "blazing": 24131,
    "Ġbrutality": 26278,
    "acious": 5561,
    "Ġgermany": 25786,
    "Ġveneration": 25047,
    "proved": 11989,
    "orously": 8421,
    "Ġbloss": 19258,
    "Ġmaledictions": 26429,
    "Ġunrest": 11717,
    "rigged": 17063,
    "Ġtur": 2565,
    "that": 850,
    "spirit": 11314,
    "Ġspine": 7406,
    "Ġcreates": 2008,
    "Ġsatur": 1929,
    "encing": 21285,
    "Ġconsp": 10226,
    "Ġneighbours": 8304,
    "daugh": 6788,
    "mp": 3727,
    "culous": 11142,
    "Ġpolynes": 16082,
    "Ġcreeping": 18685,
    "ffy": 18319,
    "Ġpartner": 6715,
    "gigantic": 15362,
    "inders": 15983,
    "Ġsurprise": 3831,
    "hic": 3248,
    "Ġdisciple": 22787,
    "calcul": 12991,
    "loose": 11807,
    "Ġharb": 7369,
    "Ġconstrained": 19241,
    "Ġplaning": 22605,
    "Ġsuperlatively": 26076,
    "Ġcabinet": 23864,
    "Ġreturns": 11929,
    "Ġcircumstantial": 14644,
    "Ġ1807": 26084,
    "Ġda": 5150,
    "Ġpalmed": 24092,
    "Ġblackstone": 23392,
    "Ġhoops": 9391,
    "Ġloos": 15874,
    "petulance": 24300,
    "Ġwisely": 13276,
    "Ġseaman": 8642,
    "Ġmidday": 23635,
    "Ġlining": 13953,
    "Ġum": 10213,
    "joining": 19449,
    "Ġconveys": 16856,
    "Ġunmanufactured": 20437,
    "Ġturtle": 4204,
    "king": 3055,
    "Ġblasphemy": 26116,
    "Ġessence": 13408,
    "deserts": 25382,
    "cked": 2759,
    "Ġchron": 19441,
    "Ġcircles": 7968,
    "Ġoppose": 16520,
    "Ġconception": 10315,
    "opard": 9293,
    "alleging": 23028,
    "Ġofficially": 24839,
    "Ġbrawny": 13616,
    "Ġintercourse": 10999,
    "Ġtypically": 1535,
    "Ġphysiognomically": 25613,
    "Ġequator": 7460,
    "Ġbackpropagation": 1256,
    "Ġswe": 2291,
    "Ġreplace": 14478,
    "Ġbaby": 6638,
    "Ġserenely": 13509,
    "Ġsurrey": 14559,
    "Ġmathemat": 3202,
    "Ġunidirectional": 3424,
    "Ġfancying": 12116,
    "Ġindisc": 16230,
    "Ġilliter": 23470,
    "illating": 22112,
    "Ġoun": 13865,
    "onder": 3780,
    "Ġneuron": 1809,
    "Ġinfrequent": 3826,
    "ublic": 11228,
    "Ġpeddler": 26181,
    "Ġfeed": 2129,
    "fulfil": 16044,
    "artic": 14226,
    "Ġfring": 11128,
    "Ġdesp": 3215,
    "Ġimpertinence": 11367,
    "Ġtrop": 7565,
    "Ġbask": 8118,
    "Ġincorrupt": 19236,
    "owe": 15711,
    "Ġmallet": 17812,
    "pipe": 8700,
    "Ġanimal": 2499,
    "aus": 1499,
    "arned": 21822,
    "Ġparent": 14646,
    "endering": 21287,
    "Ġcontented": 9758,
    "hurt": 19880,
    "Ġcellars": 24666,
    "Ġnative": 4640,
    "Ġpetticoat": 15298,
    "Ġupbra": 22158,
    "Ġunman": 12777,
    "tree": 11535,
    "bed": 3489,
    "brother": 7092,
    "Ġharry": 24571,
    "irous": 8842,
    "Ġelev": 5535,
    "Ġagony": 5388,
    "war": 6802,
    "Ġsob": 12791,
    "Ġinasmuch": 10826,
    "Ġbod": 4581,
    "Ġvibrated": 25048,
    "Ġwarrior": 24495,
    "Ġatrocious": 21948,
    "Ġdesertion": 24786,
    "Ġwithal": 18116,
    "Ġsmack": 9302,
    "igner": 21706,
    "rot": 21536,
    "umbered": 22122,
    "ificant": 22216,
    "Ġcharles": 11960,
    "warmth": 20056,
    "Ġwoes": 23989,
    "ror": 7350,
    "braces": 24659,
    "Ġduration": 20356,
    "distinguish": 19575,
    "Ġstopped": 5958,
    "coloured": 7290,
    "mankind": 14376,
    "rised": 10125,
    "Ġestablish": 9545,
    "ute": 4642,
    "osal": 11762,
    "purse": 20028,
    "Ġwond": 3940,
    "Ġune": 4598,
    "Ġthreatening": 16829,
    "ets": 1160,
    "dden": 1804,
    "Ġswiftly": 5670,
    "passenger": 24167,
    "Ġadvertising": 25390,
    "Ġsuperstitions": 17072,
    "Ġvillanous": 24058,
    "atlantic": 15526,
    "Ġloathsome": 13530,
    "Ġmay": 921,
    "Ġoutdone": 22323,
    "Ġagreeably": 24955,
    "Ġprop": 1682,
    "Ġwraps": 19779,
    "van": 7815,
    "forbid": 14355,
    "Ġfitting": 21412,
    "thick": 10262,
    "Ġrevol": 5536,
    "Ġinexper": 16981,
    "Ġhappiest": 11885,
    "Ġactive": 7917,
    "Ġpipe": 4321,
    "sav": 8098,
    "ban": 9586,
    ",_": 11463,
    "vable": 10134,
    "Ġturnkeys": 23033,
    "Ġunwarranted": 24831,
    "harpooneer": 8692,
    "Ġlivers": 18462,
    "Ġplate": 8901,
    "Ġexpress": 2195,
    "based": 2957,
    "Ġpaternal": 16386,
    "Ġpracticable": 19066,
    "ling": 735,
    "ip": 554,
    "enter": 7859,
    "Ġfranc": 16354,
    "Ġglist": 9347,
    "Ġpatchwork": 24141,
    "ships": 5486,
    "ason": 1258,
    "arising": 17897,
    "Ġhalts": 3156,
    "danced": 20830,
    "Ġbeheaded": 11658,
    "beds": 16623,
    "torm": 11532,
    "lust": 15382,
    "Ġencircling": 26273,
    "Ġfortunes": 12182,
    "Ġincrust": 22555,
    "Ġcoloured": 11046,
    "Ġexplanatory": 22209,
    "Ġchemist": 11135,
    "Ġharpoon": 3617,
    "Ġprofoundest": 16861,
    "architect": 22898,
    "Ġrelapses": 26280,
    "Ġprank": 23222,
    "Ġbade": 9173,
    "Ġsoph": 1627,
    "result": 12047,
    "Ġportion": 7492,
    "inable": 11557,
    "consent": 18504,
    "reigned": 21245,
    "burgh": 6773,
    "Ġindignant": 12243,
    "Ġbenevolent": 7773,
    "Ġmelancholy": 5605,
    "Ġexplained": 5937,
    "Ġvind": 10251,
    "Ġtropics": 17067,
    "Ġgardens": 16452,
    "Ġtempt": 5564,
    "whis": 7900,
    "Ġdescending": 8905,
    "Ġwidows": 24238,
    "Ġarrive": 6906,
    "zor": 15460,
    "Ġfidget": 15192,
    "Ġnoah": 10943,
    "Ġtrout": 22369,
    "Ġincarnation": 25574,
    "Ġstaring": 8828,
    "Ġhabit": 6771,
    "Ġvarying": 15813,
    "âĢĿ)": 21819,
    "Ġreligion": 11416,
    "Ġcommercial": 22678,
    "principle": 10652,
    "##": 2316,
    "Ġtrifled": 24675,
    "Ġwomen": 4750,
    "Ġarchitectures": 2907,
    "Ġdecl": 3590,
    "Ġbarbar": 6934,
    "Ġgul": 7861,
    "advance": 12160,
    "wish": 8101,
    "Ġpropensity": 18997,
    "stige": 21659,
    "Ġmagician": 25061,
    "Ġcursed": 6727,
    "Ġfid": 10804,
    "calm": 8936,
    "motion": 17607,
    "Ġalpine": 18108,
    "Ġpossess": 3203,
    "Ġ71": 24261,
    "Ġtrifles": 16952,
    "Ġcarries": 7675,
    "nerable": 16278,
    "wake": 11547,
    "Ġcoincidence": 25484,
    "Ġideas": 5494,
    "Ġairs": 14512,
    "Ġexasperated": 11413,
    "Ġdive": 10174,
    "istan": 22113,
    "Ġselling": 21227,
    "shapes": 22452,
    "Ġbid": 6132,
    "Ġaccompanying": 11305,
    "can": 1232,
    "situation": 11438,
    "Ġimprudently": 22392,
    "Ġcitadel": 25439,
    "oves": 15405,
    "Ġoften": 1952,
    "Ġprecipitate": 19945,
    "Ġtranslation": 3082,
    "consist": 14818,
    "ible": 1114,
    "tumult": 12426,
    "cr": 4010,
    "Ġaltogether": 4833,
    "ad": 337,
    "oned": 4630,
    "Ġswan": 23055,
    "Ġbankers": 24303,
    "Ġswitzerland": 10381,
    "ython": 1031,
    "Ġowen": 15097,
    "Ġfashion": 4298,
    "Ġcolonel": 3407,
    "Ġmincing": 18752,
    "Ġstayed": 7999,
    "leisure": 21374,
    "Ġpacked": 9982,
    "Ġtol": 6676,
    "frequently": 9981,
    "Ġvacantly": 16816,
    "cares": 24310,
    "india": 22376,
    "Ġbarb": 4531,
    "Ġbroken": 3446,
    "Ġarrest": 7408,
    "Ġoverpowered": 15291,
    "ulgent": 18152,
    "Ġeffectual": 18741,
    "itical": 5802,
    "uncont": 15777,
    "Ġsocket": 12792,
    "Ġflattening": 26049,
    "õ": 182,
    "parad": 16403,
    "birth": 15324,
    "Ġk": 485,
    "Ġbitten": 21393,
    "Ġxiii": 25592,
    "Ġdeg": 3282,
    "osc": 18388,
    "Ġinfatuation": 25857,
    ",": 16,
    "Ġabated": 18391,
    "Ġsituated": 9449,
    "kye": 20940,
    "Ġphr": 2679,
    "itoring": 21335,
    "Ġforbidden": 17078,
    "Ġtrinity": 22371,
    "Ġrossum": 3010,
    "Ġstings": 21739,
    "ntax": 934,
    "Ġsingers": 23774,
    "algorithms": 8294,
    "Ġparcel": 15202,
    "Ġmile": 7151,
    "Ġbrigandish": 25488,
    "Ġshows": 8484,
    "Ġcommonly": 3263,
    "Ġphotography": 24684,
    "Ġlvi": 21557,
    "Ġfamilies": 8028,
    "Ġjeopardized": 20233,
    "bowed": 10686,
    "ria": 15800,
    "Ġ=": 1075,
    "tashtego": 9624,
    "Ġblinds": 8008,
    "Ġvillains": 14752,
    "asper": 7856,
    "Ġlexicon": 25975,
    "ama": 11679,
    "Ġplan": 3884,
    "Ġobser": 2073,
    "Ġmorbidness": 20631,
    "oper": 7346,
    "Ġurging": 24501,
    "Ġreasoned": 23064,
    "ent": 305,
    "carefully": 13372,
    "Ġclamped": 18426,
    "Ġcombat": 16188,
    "Ġcovent": 16075,
    "jephro": 26393,
    "Ġconsiderably": 7715,
    "employed": 17263,
    "Ġvilest": 20104,
    "Ġexamine": 7735,
    "whiteness": 18371,
    "Ġdamned": 13135,
    "renewed": 19707,
    "Ġhurricane": 16434,
    "Ġhar": 5815,
    "Ġfocus": 4236,
    "Ġworshipper": 25693,
    "Ġensemble": 1607,
    "Ġexecutors": 19536,
    "distinction": 19574,
    "Ġheinous": 18041,
    "pardon": 10067,
    "Ġlie": 4407,
[...]
