{
  "metadata": {
    "vocab_size": 26616,
    "algorithm": "BPE",
    "created_at": "2026-06-01 06:53:28",
    "special_tokens": [
      "<PAD>",
      "<SOS>",
      "<EOS>",
      "<UNK>",
      "<MASK>"
    ]
  },
  "vocab": {
    "Ġdrank": 16537,
    "Ġplu": 8803,
    "photograph": 16158,
    "hairs": 20906,
    "Ġtranspointed": 22444,
    "oves": 15406,
    "saying": 8644,
    "Ġobser": 2070,
    "Ġcanes": 22165,
    "Ġphilosopher": 12188,
    "born": 7542,
    "regular": 3046,
    "Ġrescued": 24208,
    "Ġimpunity": 14221,
    "Ġsleet": 8978,
    "Ġlonger": 3361,
    "Ġjumbled": 22291,
    "Ġattempt": 3486,
    "Ġexisted": 15757,
    "Ġfishery": 4173,
    "yset": 21148,
    "Ġpatronage": 17054,
    "Ġsummoning": 23877,
    "formality": 22218,
    "herself": 4890,
    "Ġadvertised": 17250,
    "Ġpeev": 22696,
    "herds": 22208,
    "Ġimmemorial": 10513,
    "forth": 9325,
    "deser": 10481,
    "Ġeloquent": 16114,
    "Ġinhuman": 13932,
    "Ġworse": 4718,
    "acqu": 4843,
    "Ġguests": 12291,
    "Ġblunt": 11898,
    "Ġclay": 7020,
    "Ġruss": 18720,
    "Ġra": 823,
    "laz": 15389,
    "lucifer": 25302,
    "Ġoutlast": 22317,
    "confl": 22475,
    "Ġpeculiarly": 8287,
    "Ġolfactories": 26172,
    "addressing": 24401,
    "Ġfairy": 14628,
    "Ġbrilliant": 11416,
    "Ġwrinkles": 8573,
    "next": 5892,
    "spr": 7434,
    "ercely": 12555,
    "pursuit": 20343,
    "Q": 53,
    "stir": 12678,
    "Ġostentatious": 25737,
    "uneven": 23685,
    "Ġvol": 4187,
    "Ġaccumulating": 2721,
    "Ġshipwreck": 20449,
    "Ġcondensed": 24057,
    "Ġequalled": 13317,
    "tenham": 16324,
    "Ġ179": 19757,
    "best": 6112,
    "gallantry": 15061,
    "Ġmontan": 22981,
    "jac": 8382,
    "wound": 21129,
    "Ġenrapt": 21943,
    "Ġanalytical": 22920,
    "Ġbrittle": 22867,
    "Ġsolemnisation": 24115,
    "Ġsinew": 25432,
    "Ġeyeing": 6460,
    "footsteps": 25200,
    "Ġmexic": 14034,
    "Ġdog": 4190,
    "itself": 7834,
    "Ġwholly": 4445,
    "Ġtrump": 8195,
    "ife": 1025,
    "overcoat": 19052,
    "Ġdit": 21423,
    "fer": 1934,
    "Ġwhole": 1660,
    "Ġfalsely": 20585,
    "marrying": 19550,
    "Ġsyllables": 25299,
    "ee": 1657,
    "Ġvane": 22877,
    "Ġsuspicion": 6212,
    "matters": 14877,
    "Ġfac": 6381,
    "Ġgrudge": 20696,
    "Ġflamingo": 15104,
    "respectively": 24699,
    "ceive": 3068,
    "Ġexists": 14044,
    "Ġreporting": 24658,
    "Ġminutes": 3003,
    "uated": 10134,
    "tables": 19760,
    "Ġspeech": 4608,
    "Ġlodging": 24097,
    "ancing": 1757,
    "Ġwedge": 24935,
    "Ġdreamy": 14706,
    "Ġleech": 24157,
    "corners": 17371,
    "Ġglared": 13019,
    "Ġextend": 18697,
    "Ġloomings": 24952,
    "em": 391,
    "avo": 8519,
    "Ġhilarity": 20300,
    "geneva": 13733,
    "ese": 4442,
    "Ġbored": 16109,
    "Ġshift": 2281,
    "Ġinflicted": 11367,
    "iet": 1774,
    "Ġprince": 18972,
    "ains": 5093,
    "mo": 863,
    "Ġhath": 12633,
    "Ġforgive": 8010,
    "ware": 3935,
    "Ġthackeray": 26457,
    "Ġans": 1641,
    "®": 111,
    "syntax": 5868,
    "bildad": 9589,
    "Ġruined": 12959,
    "Ġlizzie": 26464,
    "Ġsubstit": 19543,
    "violent": 14581,
    "piling": 15418,
    "Ġgnarled": 25169,
    "Ġinv": 2221,
    "flood": 19809,
    "Ġcaptive": 14430,
    "Ġhalts": 3162,
    "Ġconfeder": 25708,
    "Ġstair": 8457,
    "Ġperched": 10302,
    "Ġmatches": 14398,
    "Ġfeels": 6881,
    "Ġwaste": 9237,
    "ignation": 11130,
    "Ġfed": 5530,
    "Ġtowering": 16741,
    "Ġmansion": 17811,
    "ensions": 14261,
    "beloved": 19464,
    "Ġkins": 22198,
    "stre": 5451,
    "Ġapex": 24342,
    "Ġproperty": 6450,
    "escript": 18472,
    "track": 24335,
    "Ġrounded": 14441,
    "Ġtimes": 2300,
    "Ġhonourable": 10458,
    "Ġdefinitions": 22947,
    "estinated": 15925,
    "Ġdiadem": 24740,
    "Ġcongratulatory": 19770,
    "Ġgem": 21597,
    "greenland": 10024,
    "Ġerecting": 24653,
    "poky": 17646,
    "regarded": 12012,
    "Ġjupiter": 17459,
    "inclination": 20061,
    "rum": 3470,
    "Ġvic": 5237,
    "Ġ51": 24316,
    "Ġsomething": 1795,
    "aggra": 21910,
    "laughing": 15183,
    "ulence": 15770,
    "ĠĠĠĠĠĠĠĠĠĠĠĠĠĠĠĠĠĠĠĠĠĠĠĠĠĠĠĠĠĠĠĠĠĠĠĠ": 23665,
    "complete": 15037,
    "etency": 21585,
    "Ġmarvel": 23038,
    "Ġdropout": 1555,
    "orton": 11760,
    "Ġopulent": 23630,
    "onds": 13000,
    "Ġunkindness": 22046,
    "Ġwreck": 7313,
    "Ġuncivilized": 25499,
    "echo": 15352,
    "Ġhover": 15624,
    "sake": 13786,
    "Ġdiscovers": 4426,
    "Ġparting": 9786,
    "Ġemptied": 24347,
    "Ġcondesc": 7181,
    "Ġballasted": 23985,
    "fierce": 25256,
    "fishermen": 17062,
    "Ġ1846": 26085,
    "Ġworn": 6445,
    "Ġenjoy": 3761,
    "Ġrept": 13986,
    "Ġmate": 3710,
    "Ġstumble": 26485,
    "Ġpaste": 23422,
    "Ġvineyard": 12334,
    "Ġsmokes": 22563,
    "ufact": 10735,
    "kingly": 20941,
    "shroud": 20315,
    "ode": 1451,
    "Ġdisplay": 6428,
    "Ġlot": 6679,
    "smoke": 17225,
    "queens": 22912,
    "Ġsuffusing": 23034,
    "Ġavert": 14428,
    "subtle": 24246,
    "Ġescapes": 23509,
    "Ġcouldn": 7648,
    "Ġstat": 1489,
    "Ġpunch": 9958,
    "Ġabsence": 4894,
    "Ġdoth": 13911,
    "Ġrepulses": 26071,
    "inity": 5693,
    "mouse": 15396,
    "imprisonment": 23765,
    "Ġroods": 22408,
    "Ġwhim": 14002,
    "os": 526,
    "exercise": 17462,
    "lucases": 20213,
    "consternation": 16914,
    "Ġsmart": 11819,
    "Ġdeclaring": 19423,
    "Ġgolden": 5337,
    "Ġofficial": 7082,
    "umn": 5836,
    "Ġinterpret": 5490,
    "Ġcareful": 2610,
    "Ġcircumstantial": 14645,
    "¥": 103,
    "Ġassume": 10518,
    "riage": 2122,
    "Ġpint": 17909,
    "Ġsucked": 14133,
    "Ġwaist": 6891,
    "Ġpers": 1359,
    "Ġperhaps": 1911,
    "be": 670,
    "Ġsociety": 3976,
    "Ġtowing": 9196,
    "Ġtemples": 18637,
    "intending": 22938,
    "acc": 2531,
    "whereby": 23421,
    "Ġmemorand": 23408,
    "J": 46,
    "tree": 11536,
    "Ġcobbling": 20526,
    "Ġaltering": 18105,
    "pour": 17632,
    "Ġpunctilious": 26355,
    "Ġgodly": 19082,
    "Ġgreek": 10633,
    "grammar": 6435,
    "Ġbark": 10800,
    "Ġsituation": 4070,
    "Ġstrenuously": 17451,
    "Ġsnuff": 7992,
    "Ġsize": 1217,
    "Ġlearnedly": 23389,
    "father": 3778,
    "Ġparent": 14647,
    "Ġincessant": 15101,
    "rid": 5137,
    "Ġboneless": 19608,
    "Ġpractised": 23329,
    "Ġestablish": 9546,
    "certain": 3679,
    "calmed": 16207,
    "Ġsenses": 8252,
    "Ġprofounder": 23571,
    "Ġburg": 23653,
    "jub": 20931,
    "Ġsurprise": 3830,
    "Ġunaware": 22063,
    "Ġcautiousness": 19868,
    "capting": 24044,
    "Ġearnestness": 12130,
    "spee": 9320,
    "Ġlive": 2734,
    "Ġsinks": 19552,
    "Ġfeasts": 25370,
    "Ġdefault": 3043,
    "eps": 12795,
    "daughters": 13470,
    "Ġlost": 2633,
    "Ġspouting": 9442,
    "meeting": 11021,
    "Ġcommenced": 8533,
    "collinses": 19925,
    "condescended": 26250,
    "Ġtail": 3095,
    "Ġ1807": 26084,
    "Ġbarnacled": 25537,
    "here": 2547,
    "Ġilleg": 21626,
    "Ġintelligently": 4225,
    "Ġdeformed": 14052,
    "bows": 10084,
    "compose": 24037,
    "Ġthirteen": 15278,
    "Ġwould": 651,
    "Ġsphy": 18312,
    "ĠĠĠĠĠĠĠĠĠĠĠĠĠĠĠĠĠĠĠĠĠĠĠĠĠĠĠĠĠĠĠĠĠĠĠĠĠĠĠĠĠĠĠĠĠĠĠĠĠĠĠĠĠĠĠĠĠĠĠĠ": 19263,
    "Ġgenerously": 22405,
    "ping": 9618,
    "Ġcul": 17824,
    "Ġsublime": 8066,
    "Ġringleader": 26214,
    "Ġrevered": 23736,
    "Ġpun": 4585,
    "Ġroaring": 10970,
    "sofa": 26147,
    "Ġgoring": 21607,
    "Ġtiara": 26417,
    "Ġdistinctions": 18535,
    "Ġdiab": 10614,
    "cases": 12452,
    "queg": 1770,
    "Ġnorthern": 7264,
    "Ġpotent": 12068,
    "Ġrubbing": 9324,
    "ager": 6547,
    "ission": 6457,
    "Ġspectre": 16633,
    "Ġcorpora": 26582,
    "romeda": 17265,
    "bular": 15317,
    "Ġmungo": 25632,
    "Ġsmallest": 6430,
    "Ġtidings": 11399,
    "strom": 15688,
    "Ġprosecution": 12385,
    "Ġtalker": 23374,
    "Ġpagans": 16924,
    "Ġshown": 5159,
    "susceptible": 24662,
    "speeches": 25240,
    "english": 2775,
    "sit": 13783,
    "elag": 12663,
    "Ġpermitting": 22403,
    "etime": 12664,
    "Ġdid": 836,
    "Ġwhiff": 21721,
    "Ġsavesoul": 26229,
    "ek": 1908,
    "slowly": 9092,
    "ome": 536,
    "teness": 23207,
    "cription": 20820,
    "Ġfainter": 14917,
    "Ġgamesome": 17292,
    "Ġassent": 12738,
    "Ġtelling": 5747,
    "Ġinte": 2065,
    "Ġpersistence": 3014,
    "Ġdesp": 3218,
    "Ġfull": 2176,
    "netherfield": 9816,
    "Ġrelate": 6874,
    "accidents": 19214,
    "inridge": 11563,
    "vapor": 25756,
    "james": 15376,
    "hung": 8381,
    "Ġnast": 15643,
    "influence": 13582,
    "Ġtwinkling": 12328,
    "jected": 22715,
    "Ġrelated": 3717,
    "Ġgag": 21596,
    "rucastle": 22182,
    "Ġteaches": 18809,
    "Ġpraying": 19557,
    "ided": 2785,
    "Ġballs": 9018,
    "abode": 21795,
    "Ġbony": 12592,
    "ii": 4014,
    "imod": 15714,
    "Ġadmired": 7982,
    "club": 26382,
    "Ġphysical": 7521,
    "rest": 1629,
    "apers": 3481,
    "ials": 11708,
    "sol": 1790,
    "Ġlegal": 10441,
    "bony": 15323,
    "filled": 9597,
    "Ġcomplexion": 8211,
    "Ġbudge": 15168,
    "medi": 2627,
    "Ġentreated": 9954,
    "Ġconfirming": 25322,
    "ath": 862,
    "whom": 8185,
    "Ġoverboard": 6045,
    "Ġhogarth": 25781,
    "bohemia": 20733,
    "tea": 18741,
    "Ġrevelations": 25224,
    "quee": 4129,
    "Ġsphere": 15886,
    "Ġabominably": 20069,
    "Ġproved": 4884,
    "collar": 19330,
    "Ġacceler": 1608,
    "Ġstrongly": 5657,
    "Ġdraw": 3674,
    "coming": 3563,
    "Ġnod": 1888,
    "ir": 378,
    "Ġtransitory": 16022,
    "continual": 20646,
    "Ġthoroughfare": 16946,
    "Ġmisanthrop": 22762,
    "Ġcomplaints": 12269,
    "Ġthemselves": 3256,
    "Ġfalling": 6914,
    "heidelburgh": 21214,
    "apparatus": 26565,
    "Ġsemantic": 1958,
    "rendered": 22343,
    "Ġwat": 1286,
    "Ġtight": 8108,
    "Ġcommencement": 12243,
    "Ġsatan": 14393,
    "ille": 9222,
    "Ġpo": 737,
    "Ġprepare": 8650,
    "Ġnail": 9198,
    "Ġhorr": 3193,
    "Ġresponsible": 9889,
    "Ġbald": 16209,
    "Ġrecomm": 4995,
    "oms": 4591,
    "Ġpot": 2992,
    "plifted": 9714,
    "reproof": 25433,
    "Ġadvantages": 9814,
    "Ġfrolic": 23928,
    "Ġcategor": 4138,
    "inioned": 19289,
    "Ġown": 1007,
    "Ġkne": 4265,
    "ten": 1553,
    "Ġstep": 753,
    "ctor": 13963,
    "Ġquit": 5247,
    "Ġboisterously": 25683,
    "accessory": 25500,
    "Ġhydraul": 9517,
    "Ġswiftly": 5670,
    "Ġimputable": 22177,
    "Ġyellowish": 24430,
    "children": 9058,
    "Ġpitiless": 19391,
    "Ġclient": 5556,
    "sis": 1893,
    "Ġshavings": 14113,
    "housekeeper": 24103,
    "cast": 2927,
    "inative": 15486,
    "these": 3246,
    "Ġplausible": 26555,
    "Ġbanners": 24859,
    "might": 4076,
    "denial": 18716,
    "Ġwalton": 14975,
    "Ġirr": 10423,
    "instance": 24170,
    "belt": 24040,
    "*": 14,
    "Ġiii": 7861,
    "Ġnupt": 13946,
    "affection": 7486,
    "Ġjam": 10951,
    "Ġbestir": 13114,
    "Ġindependence": 12109,
    "Ġspecially": 12002,
    "Ġcoop": 14273,
    "Ġbrilliantly": 25123,
    "Ġvigorously": 11301,
    "Ġgraceful": 11298,
    "ames": 2954,
    "twilight": 23702,
    "touching": 15095,
    "Ġgrasped": 8034,
    "irous": 8843,
    "aging": 2236,
    "Ġancestry": 25642,
    "Ġawoke": 7285,
    "ara": 12611,
    "woe": 21138,
    "umed": 6555,
    "Ġantagon": 19553,
    "Ġunivers": 2124,
    "la": 10707,
    "Ġexam": 3713,
    "atlantic": 15527,
    "Ġhauling": 14090,
    "Ġpedest": 15067,
    "Ġswish": 23054,
    "Ġtwitching": 25684,
    "Ġstrengthen": 20703,
    "py": 17626,
    "chronicle": 26482,
    "Ġhurtling": 24960,
    "bowed": 10687,
    "Ġbreathless": 12174,
    "Ġenvironmental": 23952,
    "Ġgrasshopper": 24380,
    "whaling": 7899,
    "Ġ85": 24460,
    "Ġdiscourage": 3121,
    "long": 2911,
    "ructive": 18532,
    "Ġinclemency": 22559,
    "Ġcalf": 16268,
    "Ġdefer": 18825,
    "Ġbab": 5291,
    "tremble": 17144,
    "ĠĠĠĠĠĠĠĠĠĠĠĠĠĠĠĠĠĠĠĠĠĠĠĠĠĠĠ": 14889,
    "Ġmountainous": 16601,
    "ound": 586,
    "Ġceremonious": 24838,
    "ferred": 16412,
    "Ġindu": 5295,
    "Ġhears": 8139,
    "Ġscraggy": 24580,
    "======": 9836,
    "Ġlowers": 23243,
    "volut": 1558,
    "wrapped": 15213,
    "Ġexplanatory": 22207,
    "Ġspecimens": 18854,
    "Ġrep": 1936,
    "Ġinterm": 14271,
    "wes": 17705,
    "goodbye": 12060,
    "favour": 9552,
    "Ġtribes": 20484,
    "Ġdoubted": 7965,
    "Ġfaith": 5351,
    "arboard": 7265,
    "Ġenglish": 3616,
    "Ġrecord": 5317,
    "Ġresting": 7962,
    "ocratic": 17247,
    "Ġinstructive": 19288,
    "angles": 18296,
    "olerable": 7182,
    "probably": 10023,
    "Ġconspicuous": 13607,
    "saddest": 25528,
    "Ġfleeting": 19329,
    "horrible": 14602,
    "!âĢĻ": 3334,
    "Ġdragg": 23219,
    "Ġtugged": 17291,
    "Ġstand": 1734,
    "enes": 5218,
    "Ġabominate": 20068,
    "Ġseap": 15818,
    "quished": 21858,
    "Ġapiece": 16815,
    "Ġding": 12604,
    "claimed": 9839,
    "Ġheight": 4217,
    "ceptibly": 22370,
    "Ġconverted": 16115,
    "entimes": 12661,
    "furthest": 19844,
    "Ġleaped": 8829,
    "oped": 6047,
    "**": 4685,
    "ef": 5134,
    "odious": 21819,
    "served": 5042,
    "disc": 4728,
    "Ġmace": 21312,
    "Ġnewton": 3534,
    "Ġinflu": 4909,
    "pay": 10720,
    "ounders": 22389,
    "Ġcluster": 13575,
    "ela": 21572,
    "Ġcard": 7362,
    "events": 12321,
    "projecting": 26074,
    "thousand": 5547,
    "ribut": 813,
    "Ġterrified": 14674,
    "Ġfleet": 9435,
    "shuff": 18492,
    "Ġwarbling": 26169,
    "Ġdisembow": 22541,
    "preservation": 25306,
    "entirely": 7781,
    "aired": 8369,
    "Ġtar": 2561,
    "Ġmy": 412,
    "uberance": 25917,
    "grin": 19107,
    "no": 886,
    "Ġmeditative": 25017,
    "Ġdrag": 6185,
    "vil": 2731,
    "Ġincognit": 22558,
    "Ġembarks": 22971,
    "Ġdevoting": 22720,
    "wrath": 23759,
    "pha": 22782,
    "Ġbloody": 9891,
    "proportions": 22850,
    ".)": 6783,
    "Ġvalued": 12187,
    "Ġliberated": 19669,
    "Ġalow": 18102,
    "eridge": 15529,
    "hon": 6793,
    "apt": 729,
    "author": 9863,
    "Ġprovinc": 16744,
    "Ġfall": 2989,
    "Ġlifelessly": 23051,
    "Ġforgot": 4683,
    "Ġreflecting": 24750,
    "Ġter": 2049,
    "Ġacquaintances": 17353,
    "Ġir": 1993,
    "Ġnieces": 8434,
    "Ġcounsell": 25385,
    "Ġcircumstances": 3925,
    "Ġinfernal": 11965,
    "expectation": 14859,
    "Ġdair": 17891,
    "aint": 2540,
    "Ġmarling": 23037,
    "ther": 482,
    "Ġspitz": 14151,
    "anct": 21361,
    "Ġmore": 676,
    "affected": 10478,
    "Ġcontrive": 16014,
    "Ġpreviously": 3919,
    "exped": 16526,
    "maritime": 24175,
    "ting": 1331,
    "fortunate": 4792,
    "thrasher": 25659,
    "Ġaboriginal": 14191,
    "Ġtranslation": 3093,
    "angible": 22109,
    "brary": 5755,
    "Ġsafe": 5102,
    "pride": 11211,
    "Ġruefully": 17304,
    "accompan": 11454,
    "Ġbalances": 2338,
    "plunging": 25988,
    "assuming": 22314,
    "evidently": 20348,
    "Ġvirtues": 9939,
    "tisement": 6767,
    "Ġhazarded": 25655,
    "scarcely": 12390,
    "manif": 14376,
    "Ġalone": 2564,
    "Ġsurvivor": 17366,
    "el": 306,
    "Ġcaresses": 26060,
    "dwell": 15345,
    "Ġgoodge": 22827,
    "by": 1156,
    "ve": 322,
    "Ġsnorting": 23743,
    "Ġshank": 22001,
    "www": 17254,
    "Ġlaw": 3657,
    "Ġrelaxed": 12989,
    "stun": 18021,
    "Ġmisconduct": 22761,
    "Ġcumberland": 21358,
    "fiercely": 25257,
    "Ġimprecate": 20521,
    "Ġbowled": 23772,
    "Ġruff": 14352,
    "Ġevangelist": 20341,
    "Ġtranced": 18422,
    "Ġpeople": 2542,
    "Ġrefusal": 10344,
    "Ġground": 2847,
    "chest": 11209,
    "×": 152,
    "Ġnewcom": 16225,
    "Ġrese": 2151,
    "stayed": 25291,
    "Ġtrip": 16790,
    "Ġpatches": 4236,
    "Ġsund": 8249,
    "Ġhumor": 11053,
    "Ġinsertion": 26345,
    "Ġrattler": 24998,
    "half": 4931,
    "Ġdrawer": 13270,
    "Ġcircus": 19093,
    "ino": 15482,
    "Ġscorching": 20071,
    "Ġappeared": 2776,
    "Ġcondescending": 24869,
    "congenial": 25400,
    "isis": 12584,
    "Ġmysterious": 7526,
    "Ġfeminine": 15267,
    "Ġeyed": 12672,
    "aries": 6245,
    "sleeves": 26110,
    "Ġgerman": 6142,
    "mastod": 23979,
    "imaux": 21715,
    "danish": 20835,
    "noticed": 14346,
    "boy": 4738,
    "ret": 1476,
    "dition": 15342,
    "Ġamazing": 9980,
    "ableness": 8149,
    "Ġlargest": 6283,
    "Ġdistressing": 12223,
    "Ġyon": 9696,
    "elizabeth": 1986,
    "Ġpigs": 19750,
    "Ġhatherley": 7849,
    "Ġemboldened": 22972,
    "city": 15330,
    "Ġsli": 4748,
    "Ġfrosts": 19805,
    "hole": 5587,
    "Ġcanterbury": 22169,
    "Ġmeat": 8152,
    "Ġlightly": 13088,
    "pan": 10718,
    "Ġobedience": 11415,
    "Ġsufficiently": 8976,
    "berwell": 22724,
    "Ġdictionaries": 12344,
    "Ġwaterloo": 11985,
    "Ġfearlessness": 19163,
    "Ġdrown": 6815,
    "Ġwas": 370,
    "Ġounce": 15276,
    "Ġcivility": 4788,
    "icacy": 15662,
    "smart": 23910,
    "Ġconjured": 25102,
    "Ġstool": 14465,
    "Ġgangway": 20161,
    "Ġdick": 3498,
    "stating": 21650,
    "Ġgriefs": 16773,
    "Ġshunned": 17296,
    "Ġbrought": 2514,
    "Ġhoping": 11104,
    "Ġowing": 6005,
    "board": 3566,
    "gling": 10100,
    "Ġ184": 16609,
    "hampshire": 23267,
    "Ġobviously": 16812,
    "remarked": 12292,
    "Ġpail": 15611,
    "Ġstrat": 16096,
    "streets": 13399,
    "Ġgrotes": 19566,
    "ork": 417,
    "rough": 590,
    "Ġpiqu": 21479,
    "Ġsne": 6372,
    "ego": 4034,
    "Ġwines": 21290,
    "vert": 15719,
    "Ġroots": 11187,
    "Ġcomfortable": 6095,
    "Ġturbid": 23613,
    "ailed": 3252,
    "Ġhardest": 18914,
    "Ġobservable": 25129,
    "ull": 1431,
    "Ġbressed": 21390,
    "cc": 470,
    "Ġjury": 5378,
    "Ġdeliciousness": 24128,
    "Ġgills": 17995,
    "Ġones": 3023,
    "carefully": 13373,
    "Ġmitig": 1334,
    "Ġperished": 11788,
    "science": 11913,
    "Ġprevented": 5942,
    "Ġdetached": 10282,
    "quimaux": 21863,
    "collected": 13217,
    "Ġfasc": 12603,
    "hopes": 15373,
    "Ġmanx": 7905,
    "Ġhip": 17923,
    "order": 1959,
    "torm": 11533,
    "numbers": 17618,
    "Ġviolent": 5117,
    "merc": 19283,
    "Ġdisconsol": 18558,
    "Ġty": 6659,
    "Ġhints": 8431,
    "ric": 1375,
    "Ġcomposure": 7216,
    "pure": 17628,
    "incl": 8110,
    "Ġphysiognomically": 25613,
    "Ġactually": 5389,
    "Ġfaithfulness": 24446,
    "fee": 12888,
    "ix": 1800,
    "Ġplan": 3881,
    "Ġremark": 2142,
    "Ġcomplied": 14737,
    "vess": 7353,
    "Ġapartments": 19617,
    "Ġrossum": 3016,
    "carries": 19530,
    "Ġobliquely": 12366,
    "Ġwhoever": 10975,
    "Ġsubjected": 23574,
    "Ġahab": 1214,
    "Ġmccarthy": 5145,
    "sleeping": 13458,
    "Ġmail": 17802,
    "Ġremonstrate": 22798,
    "Ġsuperficial": 23458,
    "Ġfurnaces": 24010,
    "Ġsubstantial": 14812,
    "weary": 22689,
    "Ġbreath": 4791,
    "Ġspreading": 13382,
    "Ġevangelists": 20342,
    "ã": 164,
    "owal": 13996,
    "Ġliking": 23593,
    "Ġcranial": 25593,
    "Ġclanging": 18425,
    "Ġvoc": 4449,
    "reat": 615,
    "Ġends": 8238,
    "attracted": 13056,
    "Ġaback": 22270,
    "Ġjing": 15948,
    "readers": 23851,
    "large": 6627,
    "ond": 1160,
    "Ġdom": 2826,
    "accomplished": 17214,
    "Ġalmighty": 18107,
    "Ġjolly": 6855,
    "brown": 15321,
    "search": 8466,
    "Ġepicures": 25880,
    "neglect": 25669,
    "perai": 10279,
    "broker": 13309,
    "Ġcruel": 5121,
    "....": 11318,
    "========": 2310,
    "Ġroof": 6565,
    "Ġtipt": 21176,
    "Ġappar": 7410,
    "Ġoaks": 16935,
    "sac": 7141,
    "í": 174,
    "Ġtin": 15466,
    "Ġyankees": 26203,
    "direct": 12461,
    "Ġwarned": 16882,
    "Ġwag": 10777,
    "Ġbrothers": 13181,
    "grown": 10102,
    "Ġexplained": 5936,
    "idity": 8835,
    "Ġsocially": 22091,
    "Ġconsequence": 5542,
    "Ġforeshad": 23454,
    "eries": 6808,
    "Ġqueen": 3216,
    "gard": 7338,
    "Ġveil": 7934,
    "Ġprot": 3848,
    "Ġagain": 812,
    "Ġiteratively": 3061,
    "Ġunsuccessful": 18261,
    "agra": 14069,
    "Ġecon": 9680,
    "hurt": 19880,
    "Ġdeparture": 6490,
    "Ġvulgar": 13608,
    "Ġdirectly": 2103,
    "hump": 12482,
    "Ġwished": 3731,
    "ifications": 9731,
    "ariously": 18528,
    "move": 11858,
    "Ġcask": 5527,
    "Ġmenaces": 23110,
    "Ġpoured": 8805,
    "dread": 8732,
    "Ġrumours": 24599,
    "Ġgamy": 18001,
    "thoroughly": 26510,
    "Ġproduct": 3535,
    "Ġmining": 22833,
    "Ġwherever": 8525,
    "heaved": 21213,
    "Ġspat": 2663,
    "should": 3266,
    "priv": 9622,
    "Ġlandless": 23382,
    "portent": 25413,
    "ken": 2801,
    "Ġoften": 1955,
    "Ġfingers": 5672,
    "Ġgrip": 11630,
    "Ġly": 2267,
    "Ġpersons": 6181,
    "iliary": 21730,
    "Ġsleeves": 10663,
    "hob": 20902,
    "Ġextras": 22745,
    "Ġgemin": 21613,
    "Ġphrensy": 25127,
    "Ġrigger": 19533,
    "Ġdefection": 22945,
    "Ġcurve": 23003,
    "entered": 8819,
    "Ġentr": 14344,
    "Ġhappen": 5571,
    "richard": 17289,
    "Ġkrusenstern": 26379,
    "Ġfleets": 23777,
    "rust": 2579,
    "avern": 24791,
    "Ġeavesdroppers": 25964,
    "philosophy": 13584,
    "Ġrec": 896,
    "itates": 13872,
    "Ġsamuel": 10036,
    "refuge": 24733,
    "Ġseeing": 2884,
    "Ġtruthful": 23870,
    "anchor": 13892,
    "Ġappropri": 2224,
    "Ġencirc": 18732,
    "Ġdocumentation": 20557,
    "Ġinclination": 6625,
    "Ġmoved": 4840,
    "makes": 10713,
    "Ġinfer": 7683,
    "Ġpublic": 4331,
    "Ġlullaby": 20591,
    "Ġoutcast": 18415,
    "arpo": 1753,
    "Ġspile": 22131,
    "Ġleyden": 21736,
    "Ġmightiest": 12966,
    "Æ": 135,
    "studies": 25170,
    "Ġtrophy": 20010,
    "Ġsting": 10863,
    "Ġdispute": 16060,
    "flag": 14714,
    "ittleness": 22383,
    "Ġ6": 5141,
    "ighb": 10425,
    "birds": 15148,
    "Ġclimates": 25053,
    "Ġexperiences": 13035,
    "tailed": 17687,
    "Ĵ": 245,
    "arness": 11674,
    "Ġcapital": 7980,
    "Ġyoke": 18098,
    "Ġnation": 12652,
    "Ġtoiled": 12647,
    "Ġtrade": 2545,
    "sum": 2086,
    "smith": 5669,
    "itage": 17818,
    "age": 505,
    "Ġpromoting": 3164,
    "Ġnets": 21527,
    "Ġdriven": 6199,
    "Ġthither": 6820,
    "carried": 16713,
    "Ġseventh": 18205,
    "Ġconditions": 8307,
    "directed": 20408,
    "used": 3264,
    ",âĢĶ": 3173,
    "Ġfurther": 1056,
    "Ġaccomplished": 7105,
    "Ġpaddles": 15151,
    "Ġreverie": 13461,
    "Ġpersisted": 13042,
    "neglected": 25670,
    "Ġhem": 8447,
    "tal": 17672,
    "Ġaggregated": 25679,
    "Ġtul": 21162,
    "able": 454,
    "Ġromish": 19587,
    "quietly": 10595,
    "cun": 20797,
    "hy": 4740,
    "Ġspinal": 12306,
    "Ġofficially": 24839,
    "lesome": 12970,
    "Ġrhone": 25231,
    "Ġpreparing": 8651,
    "Ġacute": 16127,
    "inois": 17740,
    "Ġvision": 1611,
    "ps": 4572,
    "Ġsally": 15505,
    "Ġbloodthirst": 23804,
    "Ġestimates": 3749,
    "Ġbolts": 16945,
    "Ġforward": 1835,
    "Ġxxxiv": 24970,
    "appropri": 22844,
    "itancy": 21336,
    "rennial": 22345,
    "resting": 23238,
    "Ġhushed": 13928,
    "trained": 4238,
    "Ġrelied": 16198,
    "Ġwisely": 13276,
    "Ġtandem": 26413,
    "Ġchewed": 16373,
    "Ġexclaiming": 13645,
    "Ġbeamed": 23724,
    "veh": 12684,
    "Ġfurnishing": 16648,
    "Ġturk": 6604,
    "Ġneeds": 6606,
    "Ġgreatness": 12949,
    "Ġrandom": 1586,
    "Ġslips": 23170,
    "Ġmajority": 13297,
    "settle": 16664,
    "Ġj": 532,
    "aited": 12439,
    "Ġtort": 5902,
    "Ġsavann": 14686,
    "Ġshriek": 6639,
    "Ġenem": 4707,
    "Ġdiscovered": 4411,
    "Ġsyntax": 958,
    "Ġsincerity": 13682,
    "Ġservants": 6611,
    "Ġencircling": 26273,
    "Ġplaything": 19240,
    "Ġunusually": 15851,
    "edding": 4367,
    "ub": 1225,
    "Ġcalamity": 17352,
    "attacks": 23125,
    "Ġadversity": 24305,
    "Ġoptimal": 1854,
    "Ġenable": 686,
    "discrimin": 19611,
    "anybody": 12087,
    "captain": 3953,
    "Ġblotches": 25315,
    "Ġtreatise": 19348,
    "Ġsolely": 9913,
    "otion": 4945,
    "Ġcarpets": 18904,
    "Ġcondescend": 19958,
    "Ġmonomania": 17086,
    "ocations": 23710,
    "Ġsa": 474,
    "Ġmistakes": 16543,
    "sledge": 21060,
    "kye": 20940,
    "Ġpretending": 19317,
    "Ġhung": 4558,
    "Ġcurtain": 14424,
    "nd": 11506,
    "Ġdig": 6136,
    "accident": 11183,
    "hunting": 24385,
    "Ġdiabolically": 25514,
    "fill": 15354,
    "sought": 15430,
    "imprudent": 14653,
    "Ġresignation": 18567,
    "Ġconcer": 23322,
    "brandy": 19203,
    "Ġhaunts": 18199,
    "Ġagonies": 14254,
    "Ġbrig": 11049,
    "Ġforbearance": 12332,
    "sailed": 17668,
    "fair": 10095,
    "Ġnotions": 14102,
    "Ġplug": 17150,
    "angling": 14143,
    "Ġdetect": 1196,
    "Ġlunatic": 24993,
    "Ġtatters": 21180,
    "rief": 6203,
    "circuit": 24190,
    "Ġinflamed": 13477,
    "inders": 15984,
    "Ġtrampling": 25493,
    "Ġbehavioral": 11398,
    "Ġrevolt": 24504,
    "Ġdozing": 22247,
    "Ġutterly": 6101,
    "darkened": 24517,
    "Ġpocket": 4898,
    "icing": 9203,
    "humor": 19455,
    "bantering": 25254,
    "consolation": 15156,
    "Ġhappy": 2462,
    "rier": 9245,
    "ralian": 19603,
    "nikin": 23251,
    "Ġproportionate": 17044,
    "Ġbeef": 6829,
    "Ġpedestrian": 25884,
    "gaze": 17559,
    "Ġacknowledges": 24689,
    "inguish": 9400,
    "estim": 14172,
    "beat": 10988,
    "who": 2441,
    "brevi": 24077,
    "Ġweave": 21924,
    "Ġseeming": 8542,
    "mme": 22505,
    "ender": 9163,
    "Ġrake": 18644,
    "Ġfoiled": 23246,
    "!)": 10072,
    "aking": 976,
    "Ė": 215,
    "circum": 16739,
    "allowed": 5728,
    "Ġillustrative": 25069,
    "Ġenclosure": 20627,
    "solic": 16383,
    "ush": 3633,
    "dressed": 10697,
    "Ġunnecessary": 8855,
    "Ġclout": 22353,
    "Ġinsignificant": 20459,
    "onies": 6806,
    "Ġconcepts": 4548,
    "Ġbehavior": 8002,
    "Ġclung": 10961,
    "Ġillust": 8263,
    "Ġglistened": 20175,
    "flow": 2418,
    "cure": 11476,
    "pistol": 17644,
    "atch": 674,
    "inates": 21183,
    "Ġrestrain": 8967,
    "Ġveter": 15815,
    "otently": 21804,
    "Ġsurpassed": 25268,
    "Ġriverside": 25248,
    "ctuous": 9208,
    "unfearing": 21896,
    "Ġrenegades": 26478,
    "wind": 4251,
    "meditation": 19073,
    "ike": 4999,
    "Ġperf": 12854,
    "Ġmel": 4817,
    "rious": 11692,
    "pick": 17636,
    "Ġbod": 4579,
    "Ġannouncing": 16756,
    "visited": 13352,
    "Ġdepos": 11007,
    "Ġredeemed": 25790,
    "Ġcalling": 5662,
    "Ġ83": 24459,
    "Ġmeridian": 25713,
    "Ġgrunted": 16172,
    "opÃ¦": 12877,
    "Ġintensity": 10019,
    "Ġmeryton": 4436,
    "enough": 6809,
    "treatment": 20415,
    "ie": 727,
    "Ġabide": 14190,
    "Ġprudence": 13923,
    "Ġmarvels": 11086,
    "precaution": 23826,
    "Ġpurse": 12015,
    "Ġchosen": 7200,
    "gue": 12472,
    "Ġcubic": 20091,
    "Ġbolted": 12249,
    "Ġtears": 4230,
    "permitted": 18346,
    "Ġspool": 24803,
    "Ġexceeding": 1578,
    "verb": 10219,
    "Ġsympathise": 16796,
    "Ġobsolete": 26560,
    "Ġwoollen": 12108,
    "absent": 21793,
    "Ġhessian": 3549,
    "iliation": 10862,
    "Ġemblazonings": 26043,
    "Ġshaping": 22007,
    "Ġfearing": 12820,
    "libr": 22926,
    "Ġsent": 1776,
    "abound": 15744,
    "Ġnecess": 3476,
    "Ġwithdra": 6398,
    "Ġfanny": 23394,
    "Ġrazor": 22659,
    "Ġimplements": 2481,
    "antial": 8489,
    "Ġcharging": 23270,
    "Ġdilatory": 24704,
    "prince": 23818,
    "rue": 1127,
    "Ġbashaw": 25634,
    "Ġbran": 5252,
    "factories": 19846,
    "Ġsplendidly": 25328,
    "Ġplacid": 11830,
    "Ġfoe": 7679,
    "Ġtart": 12532,
    "Ġcommonplaces": 16292,
    "hever": 13834,
    "Ġomn": 8411,
    "ato": 17771,
    "Ġgeography": 23375,
    "stop": 11638,
    "other": 1312,
    "insurance": 18890,
    "oner": 6125,
    "Ġadorn": 12797,
    "Ġconnexion": 11456,
    "Ġgaiters": 20464,
    "Ġchast": 18381,
    "Ġdictate": 20154,
    "entary": 21570,
    "ur": 326,
    "Ġdent": 13909,
    "Ġphotography": 24684,
    "Ġcheerful": 6623,
    "Ġjot": 11766,
    "staff": 21659,
    "Ġtumb": 21172,
    "ived": 1531,
    "Ġmediocr": 24141,
    "Ġprecision": 13193,
    "reeling": 21247,
    "zwilliam": 5073,
    "Ġtot": 4184,
    "uary": 11540,
    "lays": 14925,
    "Ġdipping": 15596,
    "Ġmuscles": 12093,
    "Ġbraces": 14672,
    "magn": 10613,
    "isk": 9170,
    "Ġanimating": 23427,
    "Ġ113": 19699,
    "Ġharbor": 10030,
    "intolerable": 22941,
    "droppers": 24758,
    "spermaceti": 12198,
    "wealth": 22691,
    "chief": 4643,
    "Ġwintry": 17437,
    "haw": 6362,
    "Ġunprejudiced": 18273,
    "Ġtem": 802,
    "seem": 10230,
    "Ġhandsomer": 20336,
    "Ġexpedite": 24956,
    "Ġplowdon": 26449,
    "Ġmimic": 3147,
    "13": 20752,
    "Ġwilled": 21294,
    "Ġrepressed": 21671,
    "Ġabound": 8867,
    "Ġreciprocating": 26371,
    "Ġsecondly": 14519,
    "tps": 11537,
    "¤": 102,
    "Ġvial": 10251,
    "fatig": 17090,
    "Ġnormalizes": 1862,
    "Ġdisse": 18549,
    "Ġweapon": 7775,
    "wandering": 20287,
    "nearer": 22454,
    "Ġhighly": 4845,
    "Ġdardanelles": 26445,
    "Ġclapping": 14206,
    "spot": 9792,
    "M": 49,
    "Ġfatigue": 8701,
    "ampling": 12731,
    "Ġpoker": 13925,
    "Ġcolouring": 16753,
    "Ġlistener": 16477,
    "super": 5944,
    "occasional": 19579,
    "seals": 21822,
    "Ġgreatly": 5850,
    "tar": 8098,
    "Ġtok": 1245,
    "Ġcastors": 23981,
    "Ġstarted": 4148,
    "Ġlarge": 1064,
    "Ġconvincing": 19310,
    "tide": 11535,
    "Ġtransferred": 16461,
    "Ġhatches": 12049,
    "Ġpowder": 11277,
    "Ġcooper": 16081,
    "ancholy": 5069,
    "Ġnowadays": 18547,
    "Ġsympath": 4861,
    "encoura": 15051,
    "folding": 24928,
    "over": 1843,
    "Ġadmeasure": 18294,
    "oters": 21803,
    "Ġunfaltering": 24114,
    "Ġlabelled": 23333,
    "field": 3076,
    "cked": 2761,
    "wide": 10140,
    "Ġexplored": 23521,
    "planks": 21964,
    "Ġshrink": 14806,
    "Ġnearly": 3364,
    "Ġstriking": 6088,
    "iquette": 26133,
    "aculate": 16087,
    "Ġmaterially": 12196,
    "umphed": 23520,
    "Ġuntamed": 19166,
    "Ġbeach": 6542,
    "Ġrats": 21980,
    "Ġstream": 5186,
    "Ġdoubtless": 6196,
    "elt": 4114,
    "known": 3569,
    "Ġriddle": 14822,
    "Ġvengeance": 5885,
    "Ġsoundings": 13137,
    "Ġret": 1379,
    "borean": 25744,
    "Ġmont": 8561,
    "Ġyourselves": 9031,
    "ignominious": 26589,
    "Ġluxuries": 25167,
    "Ġtables": 9881,
    "elijah": 19476,
    "disgu": 19157,
    "Ġmicha": 17813,
    "Ġimages": 1597,
    "Ġmerchants": 23735,
    "Ġpillow": 10041,
    "Ġfountains": 13506,
    "algorithm": 4010,
    "Ġuprising": 12807,
    "Ġasylum": 13670,
    "Ġdates": 6694,
    "Ġtusks": 17256,
    "ird": 2424,
    "Ġdeject": 10883,
    "Ġsound": 2241,
    "Ġbeginning": 4242,
    "hear": 10149,
    "Ġcobweb": 22589,
    "illation": 14144,
    "Ġdare": 3546,
    "countenances": 24153,
    "Ġacquiesced": 25494,
    "ready": 2357,
    "abhor": 12712,
    "qu": 369,
    "merchant": 10469,
    "Ġnice": 6677,
    "rist": 10125,
    "Ġuncles": 23434,
    "ribbed": 16416,
    "umber": 5241,
    "Ġ40": 14771,
    "Ġcoils": 9306,
    "advanced": 19591,
    "Ġlory": 12657,
    "Ġrecess": 10849,
    "Ġdiscontented": 16063,
    "Ġjoined": 4562,
    "Ġthings": 1961,
    "Ġcalhoun": 23046,
    "Ġzoology": 22825,
    "Ġfidgeted": 25890,
    "Ġsubsided": 14552,
    "Ġregularizer": 2337,
    "assemblies": 25957,
    "Ġuncont": 14120,
    "Ġaspects": 4172,
    "conscientious": 19629,
    "qualities": 25046,
    "Ġentering": 6286,
    "ouring": 6420,
    "Ġadjusting": 3413,
    "Ġfrom": 434,
    "Ġrev": 6988,
    "unvarying": 21891,
    "Ġalleviated": 26205,
    "Ġbare": 6133,
    "Ġvisit": 2582,
    "else": 6534,
    "Ġincorporated": 25710,
    "Ġproportions": 16470,
    "revenge": 13845,
    "Ġinfant": 11964,
    "Ġchanced": 8187,
    "Ġmusky": 19385,
    "Ġslipped": 6492,
    "Ġunidirectional": 3425,
    "Ġreceived": 2952,
    "Ġnuptials": 20497,
    "Ġaustrian": 24302,
    "Ġnile": 21524,
    "Ġfit": 3687,
    "Ġcountrymen": 23597,
    "narrow": 11510,
    "danger": 10092,
    "ricity": 23066,
    "Ġhundredth": 16520,
    "Ġsteeply": 23726,
    "ool": 17620,
    "Ġladder": 8602,
    "Ġtwenty": 3949,
    "Ġsunken": 14495,
    "Ġago": 3140,
    "problems": 11436,
    "Ġdisappointed": 7098,
    "ctions": 951,
    "cond": 1661,
    "Ġchimney": 6497,
    "Ġcontrivance": 17186,
    "Ġlead": 3524,
    "Ġmidships": 23635,
    "ued": 7560,
    "Ġsundial": 15086,
    "previously": 17210,
    "Ġsudden": 1999,
    "Ġdiscrimin": 2544,
    "europe": 20668,
    "Ġmotioned": 19595,
    "Ġproprietor": 12377,
    "mond": 20976,
    "Ġpays": 13301,
    "spears": 23946,
    "Ġcapric": 14577,
    "ram": 13975,
    "Ġunconquerable": 22067,
    "Ġwildness": 14605,
    "Ġfluctuations": 5516,
    "spark": 18689,
    "declaration": 25176,
    "master": 5687,
    "Ġsentry": 19027,
    "Ġsar": 21216,
    "Ġbe": 336,
    "Ġproud": 5654,
    "Ġunrecord": 16623,
    "venison": 22629,
    "ú": 187,
    "Ġinviting": 19145,
    "Ġforb": 11666,
    "Ġcy": 13877,
    "Ġune": 4596,
    "Ġgazette": 19504,
    "Ġvale": 14085,
    "teak": 22819,
    "Ġdared": 5440,
    "Ġskirt": 18730,
    "Ġadmirably": 16483,
    "aits": 20768,
    "Ġeasy": 3452,
    "Ġcoral": 11926,
    "Ġrespite": 13158,
    "Ġthinnest": 24185,
    "Ġpuffed": 14980,
    "Ġanom": 12616,
    "oquent": 12504,
    "Ġmethod": 1494,
    "eneva": 5118,
    "Ġtransparen": 10544,
    "Ġtobacc": 7853,
    "fitzwilliam": 11354,
    "etw": 408,
    "Ġdodo": 9075,
    "Ġcharts": 12832,
    "Ġspoiled": 11365,
    "Ġpretext": 22233,
    "Ġadviser": 25313,
    "page": 13774,
    "rossing": 18641,
    "repent": 15516,
    "successfully": 14994,
    "arpaul": 14538,
    "absurd": 21799,
    "Ġhydraulic": 10067,
    "Ġunfathom": 14791,
    "Ġbee": 21753,
    "osity": 14188,
    "Ġeverlasting": 9340,
    "Ġhurrah": 9872,
    "Ġtenderest": 23553,
    "Ġpeaceful": 9459,
    "curiosity": 8627,
    "child": 5538,
    "once": 5904,
    "robustness": 26340,
    "Ġtet": 21160,
    "Ġwrong": 4723,
    "accusations": 23601,
    "Ġvigilant": 20187,
    "Ġmasonry": 13603,
    "ĥ": 230,
    "Ġunprincipled": 20710,
    "Ġrecesses": 17263,
    "epend": 3317,
    "mouth": 9133,
    "Ġcontinents": 16851,
    "continuance": 19721,
    "Ġblooming": 17215,
    "Ġmultitude": 9328,
    "treasures": 26153,
    "ediction": 17947,
    "Ġtit": 8400,
    "Ġbale": 7838,
    "rying": 3189,
    "dischar": 19155,
    "Ġfrequented": 16588,
    "Ġloc": 10916,
    "Ġbewitched": 25976,
    "Ġzer": 1096,
    "Ġwithered": 19468,
    "Ġfacil": 16964,
    "relapse": 24021,
    "beneath": 9538,
    "attle": 4464,
    "Ġasser": 6258,
    "vis": 4575,
    "Ġshocking": 10437,
    "Ġutil": 4671,
    "Ġwavering": 23282,
    "Ġsuperiority": 14618,
    "Ġpersuasions": 16634,
    "Ġ1894": 5196,
    "ph": 941,
    "Ġ96": 24593,
    "Ġslaugh": 18940,
    "Ġhumble": 8553,
    "greatly": 16626,
    "Ġprodigiously": 14935,
    "oriented": 2947,
    "Ġsmile": 4270,
    "Ġserpent": 6738,
    "Ġwearer": 21926,
    "Ġvinegar": 20103,
    "pondicherry": 26402,
    "Ġfaded": 10811,
    "Ġjabbering": 22297,
    "Ġunappalled": 22069,
    "lion": 20946,
    "unched": 10238,
    "ativeness": 15524,
    "Ġcomprehension": 15090,
    "Ġexpected": 3699,
    "Ġcompre": 4447,
    "Ġgordon": 26469,
    "Ġcomplying": 18585,
    "Ġphenomenon": 17917,
    "mistak": 16880,
    "Ġcondu": 18115,
    "Ġpalpable": 15209,
    "Ġindulged": 13421,
    "amused": 21850,
    "Ġapproximate": 2340,
    "bunger": 20405,
    "cross": 3577,
    "mer": 2834,
    "Ġslee": 8977,
    "jure": 20926,
    "Ġstaggers": 24654,
    "abeth": 907,
    "Ġcells": 13888,
    "Ġpost": 4271,
    "Ġfavoured": 16364,
    "Ġfab": 15580,
    "Ġsymmet": 11751,
    "oc": 2835,
    "isome": 17850,
    "Ġautomatically": 4011,
    "Ġquivering": 12863,
    "Ġunclad": 22058,
    "Ġemployment": 8632,
    "log": 18537,
    "Ġdisclose": 16160,
    "Ġtumbled": 13410,
    "Ġguardians": 14946,
    "ceived": 1963,
    "Ġwhilst": 9221,
    "Ġconsumm": 15158,
    "taught": 17686,
    "piece": 6657,
    "Ġtrepidation": 19217,
    "Ġpersonality": 16479,
    "Ġchisel": 20371,
    "borough": 20787,
    "Ġheard": 1400,
    "Ġtransform": 740,
    "Ġital": 10868,
    "Ġphilosophers": 10554,
    "admirably": 24947,
    "Ġcocaine": 20723,
    "Ġallowed": 4057,
    "Ġfrontispiece": 23917,
    "Ġpostmark": 16727,
    "Ġpea": 14320,
    "Ġdominant": 12400,
    "Ġinequal": 21500,
    "edd": 1231,
    "wonder": 6371,
    "nt": 921,
    "Ġoffspring": 16149,
    "Ġmagnific": 16322,
    "Ġlecture": 13571,
    "Ġwhenever": 5166,
    "asy": 5296,
    "Ġtickled": 20060,
    "Ġscolding": 15204,
    "Ġmiser": 18704,
    "Ġintricate": 15141,
    "cape": 13701,
    "Ġnumerous": 6919,
    "recover": 24623,
    "Ġrefrained": 14339,
    "Ġafric": 8909,
    "Ġemph": 14527,
    "dropped": 12267,
    "Ġshells": 20367,
    "unforeseen": 21892,
    "Ġanswering": 7476,
    "savagery": 25028,
    "Ġack": 5622,
    "Ġmonotonous": 13267,
    "enses": 10996,
    "usiveness": 22287,
    "Ġtid": 8107,
    "Ġevaporate": 26334,
    "liter": 11504,
    "linearity": 1646,
    "vate": 21112,
    "bern": 20777,
    "Ġcruc": 16536,
    "Ġfootfalls": 25867,
    "Ġfattened": 25950,
    "Ġbir": 17855,
    "Ġreprehensible": 15703,
    "Ġcand": 3280,
    "Ġsouls": 6309,
    "Ġconvers": 2906,
    "Ġdecreases": 3410,
    "Ġdistrusting": 25056,
    "Ġexacted": 23605,
    "Ġtower": 8319,
    "wrong": 13210,
    "Ġdetestable": 15102,
    "ren": 550,
    "Ġkiss": 8183,
    "earth": 6502,
    "lady": 4431,
    "Ġaccur": 3463,
    "orum": 12595,
    "ings": 633,
    "Ġlicence": 25099,
    "Ġplantation": 11425,
    "Ġoverseeing": 22367,
    "prolong": 23398,
    "iantly": 13742,
    "Ġbread": 5404,
    "luent": 16000,
    "Ġscal": 1659,
    "Ġtax": 13819,
    "door": 6194,
    "Ġimproper": 22756,
    "Ġnoble": 3440,
    "Ġ500": 24324,
    "jee": 17581,
    "quarter": 11390,
    "Ġpleas": 1907,
    "T": 56,
    "feature": 4549,
    "shop": 14240,
    "Ġcring": 15556,
    "Ġlanc": 19767,
    "âĢĿ)": 21815,
    "Ġimple": 1791,
    "Ġmarsh": 9824,
    "Ġcirc": 1985,
    "intervals": 10640,
    "imate": 4218,
    "Ġdyspepsia": 20645,
    "Ġmaster": 3684,
    "investigations": 25534,
    "Ġbarbary": 24218,
    "atched": 6375,
    "Ġget": 1620,
    "Ġdeputation": 21844,
    "ang": 446,
    "Ġequatorial": 13512,
    "Ġspeckled": 14309,
    "Ġtypewritten": 16425,
    "lucas": 15155,
    "bishop": 13698,
    "Ġhanging": 5447,
    "Ġche": 1762,
    "supper": 12928,
    "Ġladies": 3196,
    "Ġahead": 6664,
    "abled": 12799,
    "ologies": 18781,
    "likelihood": 4991,
    "Ġflowed": 10374,
    "Ġreigned": 13990,
    "?âĢĿâĢĶ": 12900,
    "doesn": 19823,
    "ution": 4348,
    "Ġlittle": 866,
    "Ġdecipher": 22450,
    "Ġcommod": 10336,
    "Ġbeing": 1163,
    "Ġbonds": 17871,
    "Ġaccess": 9750,
    "Ġhidden": 1374,
    "Ġparm": 15881,
    "fe": 683,
    "antages": 7191,
    "Ġconstitutes": 13556,
    "Ġglim": 9346,
    "eleg": 20851,
    "Ġforgery": 25978,
    "Ġunmethodically": 22074,
    "dining": 13709,
    "Ġhack": 12761,
    "Ġtale": 5142,
    "Ġhood": 10825,
    "tacit": 21101,
    "display": 19158,
    "Ě": 219,
    "scratch": 26044,
    "Ġequin": 14497,
    "Ġsandwiched": 26612,
    "ined": 1259,
    "Ġnecessarily": 13254,
    "nowadays": 22342,
    "Ġtrunks": 15968,
    "tranquil": 25871,
    "Ġrecept": 1523,
    "degrad": 22147,
    "reputation": 15518,
    ",": 16,
    "publ": 17640,
    "ited": 1747,
    "Ġprettier": 23768,
    "Ġjetted": 24431,
    "tastes": 21099,
    "ulatory": 15772,
    "Ġgall": 4350,
    "Ġgrin": 5482,
    "istically": 14146,
    "Ġcongreg": 8464,
    "Ġbreathed": 11222,
    "Ġshouting": 10525,
    "Ġtacit": 21177,
    "Ġinoffensive": 21501,
    "pursued": 17284,
    "sphere": 22736,
    "Ġlodges": 19503,
    "Ġfreed": 7266,
    "Ġabhor": 5467,
    "people": 7676,
    "valu": 1688,
    "Ġcave": 10787,
    "bles": 7018,
    "Ġprofits": 16491,
    "event": 8077,
    "Ġhumaneval": 25583,
    "classes": 12140,
    "Ġkeener": 22916,
    "alled": 5911,
    "Ġincom": 9772,
    "ffy": 18317,
    "spikes": 10343,
    "Ġseize": 8166,
    "umnal": 18301,
    "Ġpangs": 15619,
    "Ġprocure": 9513,
    "Ġany": 689,
    "Ġassur": 6074,
    "Ġapologizing": 25198,
    "Ġassuring": 13069,
    "supervised": 1979,
    "Ġmagnifying": 16323,
    "Ġgret": 21604,
    "Ġandromeda": 21511,
    "Ġdispersed": 16599,
    "Ġplow": 21461,
    "Ġcrust": 21354,
    "Ġfiftieth": 24702,
    "Ġexpress": 2193,
    "eler": 1569,
    "winds": 10524,
    "Ġtattooings": 24901,
    "Ġcontinually": 5041,
    "mews": 22717,
    "wor": 3416,
    "Ġcharmingly": 24223,
    "Ġgarnery": 17390,
    "Ġcries": 7154,
    "apidated": 22341,
    "Ġgleaming": 24996,
    "Ġmuchness": 18707,
    "urre": 10858,
    "Ġxii": 11995,
    "ral": 4626,
    "Ġtoil": 6532,
    "Ġundeviating": 15221,
    "Ġcity": 4527,
    "Ġniagara": 26460,
    "Ġtastes": 15480,
    "Ġraises": 11849,
    "ĠĠĠ": 2114,
    "Ġunduly": 25995,
    "Ġtongue": 6348,
    "con": 653,
    "Ġcrush": 9425,
    "oga": 22709,
    "Ġindelicacy": 25696,
    "Ġstyle": 6945,
    "Ġabstraction": 26541,
    "sweeping": 24619,
    "Ġbelonging": 8308,
    "Ġcatches": 23430,
    "duodecimo": 16006,
    "kine": 15379,
    "bath": 13693,
    "whosoever": 22244,
    "swallow": 24260,
    "Ġcalifornian": 25853,
    "Ġdisagree": 22536,
    "apparent": 11043,
    "gangway": 20670,
    "Ġamelia": 26253,
    "Ġsulk": 15048,
    "cheer": 9440,
    "Ġbite": 10799,
    "Ġspent": 3963,
    "tremendous": 20676,
    "ute": 4641,
    "iality": 8848,
    "Ġwantest": 18791,
    "abbering": 21800,
    "Ġunpleasing": 22059,
    "Ġfamine": 16331,
    "vered": 4830,
    "though": 2115,
    "Ġfertile": 20586,
    "Ġafghan": 22632,
    "Ġbulkhead": 24511,
    "cares": 24311,
    "Ġendeavour": 4677,
    "Ġtough": 13818,
    "Ġgrandfather": 19425,
    "Ġaccelerating": 1616,
    "Ġslighted": 16570,
    "establishment": 26114,
    "Ġdesire": 3719,
    "Ġresnet": 5473,
    "foam": 24418,
    "Ġadvocate": 13680,
    "breeding": 16677,
    "Ġembarked": 17137,
    "foundered": 20869,
    "honour": 13471,
    "Ġdeed": 7868,
    "Ġinterview": 9773,
    "rem": 1521,
    "Ġashes": 7616,
    "forecastle": 10992,
    "lur": 13750,
    "Ġbegun": 7242,
    "Ġelab": 22644,
    "Ġattribute": 16104,
    "relu": 17761,
    "mat": 2197,
    "Ġplough": 18610,
    "Ġdesist": 16240,
    "Ġreceives": 20357,
    "y": 93,
    "ture": 7557,
    "cheeked": 19342,
    "Ġisol": 8838,
    "Ġengagement": 5397,
    "Ġwoman": 2384,
    "antically": 22100,
    "dispute": 23501,
    "bout": 20775,
    "Ġrevellers": 21681,
    "Ġasks": 5115,
    "courageous": 26128,
    "Ġjewelled": 20186,
    "Ġsweetheart": 19398,
    "farintosh": 24553,
    "Ġnut": 12651,
    "amuse": 14055,
    "plete": 10921,
    "rot": 21535,
    "Ġaspired": 25985,
    "Ġexasperated": 11414,
    "resum": 17763,
    "Ġheedfulness": 24522,
    "Ġheeds": 24520,
    "Ġcomputer": 1197,
    "wedged": 24559,
    "visual": 24225,
    "Ġboth": 1652,
    ">": 34,
    "waste": 21137,
    "howling": 18990,
    "power": 7137,
    "Ġwolfish": 25936,
    "Ġparasol": 22125,
    "offices": 19065,
    "Ġethiopian": 26615,
    "Ġmim": 3111,
    "Ġinfirmity": 26299,
    "hval": 20900,
    "Ġappe": 1538,
    "Ġsell": 7825,
    "merit": 19284,
    "Ġblasphemy": 26116,
    "venor": 16101,
    "Ġadmits": 23557,
    "Ġsagittarius": 24731,
    "Ġungodly": 26515,
    "compl": 6872,
    "Ġmalignant": 14881,
    "Ġlivers": 18462,
    "Ġfarthing": 14457,
    "Ġprincely": 24150,
    "Ġforesee": 19126,
    "Ġvoy": 2617,
    "Ġchurning": 15941,
    "Ġswerve": 14440,
    "Ġye": 901,
    "myself": 5113,
    "Ġrepublican": 17415,
    "Ġfloundering": 16253,
    "ean": 20842,
    "Ġlee": 4219,
    "don": 3545,
    "Ġobserv": 8589,
    "Ġbower": 15571,
    "unquiet": 21885,
    "Ġunjustly": 17129,
    "approach": 24834,
    "weakness": 16128,
    "Ġmarried": 3409,
    "Ġcocked": 12909,
    "yellow": 9627,
    "abated": 14023,
    "Ġcolon": 18766,
    "belais": 24043,
    "Ġharpooning": 23984,
    "wishes": 13810,
    "irably": 13300,
    "Ġoverladen": 22369,
    "Ġfrivolous": 26177,
    "provoke": 26072,
    "promontory": 24727,
    "Ġhanover": 20589,
    "err": 1139,
    "Ġwol": 15533,
    "Ġcry": 3497,
    "bres": 11473,
    "stolidity": 21666,
    "alous": 7371,
    "occurred": 13342,
    "heedful": 20576,
    "Ġfeeble": 12288,
    "Ġinsip": 19270,
    "Ġsustain": 10020,
    "Ġelias": 18634,
    "discovery": 12021,
    "iferous": 17294,
    "Ġdesired": 4663,
    "Ġsammy": 24933,
    "Ġresign": 18565,
    "laws": 19810,
    "Ġxxxii": 24973,
    "island": 10796,
    "Ġhandspike": 22699,
    "shaw": 6863,
    "Ġunaccount": 22031,
    "vol": 731,
    "Ġexperiments": 23024,
    "Ġcompar": 4771,
    "gon": 17554,
    "Ġsidel": 9638,
    "Ġlives": 4827,
    "Ġthread": 14541,
    "Ġedges": 3827,
    "thorough": 21989,
    "Ġha": 400,
    "ĠlinnÃ¦us": 15279,
    "voyages": 24856,
    "Ġaltogether": 4832,
    "Ġvalidation": 2354,
    "story": 9215,
    "Ġseas": 3082,
    "anations": 12581,
    "Ġperpendicularly": 11376,
    "ison": 3079,
    "Ġintegr": 7969,
    "Ġunrestingly": 20364,
    "moments": 19415,
    "idious": 11665,
    "Ġexpanded": 14292,
    "Ġunpleasant": 7190,
    "Ġunite": 9257,
    "Ġchestnut": 19675,
    "10": 17475,
    "contrast": 25595,
    "iding": 3847,
    "uther": 8821,
    "isle": 13895,
    "madam": 24421,
    "Ġcaroline": 7254,
    "plague": 21963,
    "Ġhimmale": 18330,
    "Ġpaddled": 20204,
    "Ġcentre": 5123,
    "Ġgliding": 8563,
    "Ġdepartments": 24245,
    "Ġcontingency": 26246,
    "Ġbatch": 889,
    "Ġimpertinence": 11368,
    "----": 4056,
    "Ġscare": 18406,
    "Ġpry": 11602,
    "entreaties": 26187,
    "Ġrepentance": 15164,
    "Ġassiduous": 26294,
    "ables": 7891,
    "Ġeber": 18006,
    "erable": 1916,
    "vib": 21118,
    "icting": 12858,
    "ception": 6563,
    "Ġfourth": 7706,
    "sar": 12509,
    "K": 47,
    "Ġpulpit": 7469,
    "ă": 196,
    "Ġperfume": 25666,
    "Ġguards": 16270,
    "Ġsideways": 6183,
    "Ġryder": 10262,
    "days": 7687,
    "Ġlayer": 1013,
    "Ġsakes": 18327,
    "pur": 7806,
    "Ġpassed": 2010,
    "Ġaver": 1285,
    "Ġselves": 21225,
    "Ġaunts": 21203,
    "increased": 20273,
    "Ġmad": 2423,
    "ble": 542,
    "leads": 21373,
    "âĢĶâĢĻ": 8188,
    "Ġunfair": 19510,
    "Ġfavour": 3643,
    "herfield": 3632,
    "rog": 15644,
    "omin": 4702,
    "Ġwooden": 4729,
    "Ġpolished": 11184,
    "Ġimpelled": 11786,
    "Ġspark": 6690,
    "onian": 17769,
    "iza": 6256,
    "Ġrector": 21679,
    "eded": 9676,
    "Ġdivide": 12115,
    "eks": 4727,
    "Ġbatt": 13902,
    "prow": 15414,
    "persuade": 13536,
    "brill": 16493,
    "lig": 3176,
    "Ġbear": 3660,
    "erne": 21272,
    "course": 6105,
    "full": 7419,
    "Ġsymptom": 13487,
    "Ġstate": 1809,
    "Ġowning": 18746,
    "Ġmor": 1248,
    "Ġsuppression": 22998,
    "Ġsurvive": 9069,
    "feeder": 12365,
    "pregn": 18499,
    "Ġdebility": 24275,
    "interference": 23740,
    "_.": 2209,
    "general": 7488,
    "Ġmultimodal": 18749,
    "Ġjur": 12838,
    "Ġadvanced": 1520,
    "Ġvowed": 14087,
    "Ġrealism": 18984,
    "Ġraiment": 22656,
    "shells": 26057,
    "tinted": 17685,
    "sinking": 17670,
    "Ġperpet": 7644,
    "Ġsimilitude": 19212,
    "Ġisinglass": 21806,
    "Ġfatally": 19397,
    "whenever": 11885,
    "gener": 3130,
    "Ġungracious": 18262,
    "Ġdra": 1589,
    "powder": 17647,
    "Ġcuba": 25098,
    "Ġrickety": 26508,
    "Ġcreeping": 18685,
    "Ġprospects": 9962,
    "Ġparticular": 2444,
    "ker": 5792,
    "rised": 10126,
    "Ġhail": 7399,
    "Ġshakes": 10906,
    "Ġdevils": 7229,
    "illed": 2622,
    "expected": 5780,
    "Ġcoiled": 11824,
    "few": 8205,
    "activation": 3236,
    "Ġgrind": 18736,
    "lat": 9607,
    "planted": 11702,
    "rance": 5994,
    "walking": 9985,
    "isms": 12585,
    "aw": 1446,
    "!âĢĻâĢĿ": 16594,
    "zes": 11551,
    "Ġfunction": 582,
    "Ġceiling": 7997,
    "earnest": 12403,
    "Ġshut": 3942,
    "Ġnind": 17952,
    "stood": 4115,
    "trampled": 26335,
    "Ġobserve": 4669,
    "ums": 10275,
    "Ġdemonstrate": 24997,
    "augmented": 26288,
    "ampton": 18147,
    "Ġadjust": 2153,
    "Ġcot": 13880,
    "Ġbefallen": 12347,
    "upp": 10133,
    "Ġrocky": 13391,
    "Ġbal": 1131,
    "Ġpope": 11604,
    "Ġadored": 18292,
    "Ġdescribed": 6607,
    "Ġstuffed": 13413,
    "cannon": 22965,
    "Ġsending": 8779,
    "aggoo": 5130,
    "oology": 21008,
    "Ġsayest": 22773,
    "Ġtolerably": 8068,
    "Ġconsiderable": 4004,
    "Ġoily": 13867,
    "Ġsom": 1275,
    "Ġtestimony": 14477,
    "hic": 3253,
    "ithing": 11652,
    "arius": 14251,
    "recurring": 24196,
    "Ġbolt": 11336,
    "Ġvillagers": 19477,
    "besides": 8699,
    "Ġglancing": 5399,
    "Ġeat": 4642,
    "harpoon": 9494,
    "Ġbales": 21392,
    "Ġsisterly": 16307,
    "leaped": 17845,
    "Ġmockery": 12112,
    "deliver": 19507,
    "neys": 23584,
    "Ġwarehouse": 20420,
    "Ġknives": 14839,
    "Ġrecurred": 18978,
    "Ġvide": 10253,
    "cousin": 10655,
    "Ġodd": 6626,
    "Ġsec": 2075,
    "ual": 945,
    "Ġfurnace": 19443,
    "Ġthrew": 3972,
    "play": 5098,
    "adequately": 20322,
    "mitting": 20975,
    "Ġinvested": 7278,
    "Ġforbid": 7865,
    "Ġkind": 1785,
    "Ġ18": 3407,
    "Ġcynicism": 25772,
    "asible": 21545,
    "Ġsank": 5075,
    "odes": 18122,
    "Ġwounded": 8661,
    "Ġpronouncing": 16971,
    "Ġ79": 24267,
    "Ġdashed": 6010,
    "Ġendowed": 18925,
    "Ġtumultuous": 10618,
    "'(": 2981,
    "ĠĠĠĠĠĠĠĠĠĠĠĠĠĠĠĠĠĠĠĠĠĠĠĠĠĠĠĠĠĠ": 24443,
    "sens": 8096,
    "Ġheaped": 18040,
    "Ġparch": 11730,
    "aching": 5832,
    "Ġmisunderstand": 18705,
    "Ġtheore": 1828,
    "forster": 16165,
    "onday": 6064,
    "header": 11937,
    "ĠĠĠĠĠĠĠĠĠĠĠĠĠĠĠĠĠĠĠĠĠĠĠĠĠĠĠĠĠĠĠĠĠĠĠĠĠĠĠĠĠĠĠĠĠĠĠĠĠĠĠ": 20042,
    "Ġmeasureless": 14713,
    "Ġcad": 12573,
    "structure": 2331,
    "Ġgi": 15670,
    "im": 327,
    "Ġcross": 1371,
    "Ġconcealment": 16916,
    "Ġfriendship": 7245,
    "Ġern": 8397,
    "Ġapartment": 6635,
    "progress": 11992,
    "showing": 22465,
    "Ġchord": 22249,
    "Ġneighbor": 25804,
    "Ġdiscredit": 22786,
    "definition": 23121,
    "gress": 2210,
    "Ġinto": 647,
    "Ġhinted": 6012,
    "Ġhear": 1964,
    "Ġweighted": 2089,
    "deemed": 18316,
    "Ġbearing": 5300,
    "Ġcongregated": 20100,
    "ructure": 750,
    "abular": 4762,
    "fun": 3893,
    "Ġagonized": 25373,
    "bee": 16041,
    "ler": 3492,
    "Ġhartshorn": 26182,
    "Ġfring": 11129,
    "Ġimprovement": 7966,
    "announce": 24561,
    "Ġjerked": 19835,
    "Ġtie": 10752,
    "Ġoccasion": 3251,
    "Ġtoilings": 24741,
    "lleg": 20953,
    "Ġtraced": 10386,
    "Ġmounting": 19980,
    "strike": 14952,
    "Ġgenius": 8046,
    "\"]": 17473,
    "Ġbewildered": 15217,
    "Ġafforded": 8029,
    "¯": 112,
    "Ġanger": 5442,
    "Ġcommunicated": 9064,
    "Ġcontr": 1915,
    "Ġworaciousness": 22932,
    "Ġjog": 18400,
    "Ġcombined": 8549,
    "Ġintimidated": 24802,
    "Ġfronted": 23260,
    "Ġsailor": 3537,
    "Ġsnaky": 23744,
    "Ġbent": 5149,
    "Ġirretrie": 23377,
    "Ġsob": 12793,
    "ifer": 11687,
    "Ġjonas": 20611,
    "Ġacknowledged": 7533,
    "opposing": 24822,
    "bel": 3836,
    "Ġdedu": 5584,
    "Ġascribe": 16784,
    "acetti": 13400,
    "Ġexample": 5095,
    "Ġdeveloped": 16335,
    "Ġgallied": 19559,
    "Ġwhalebone": 10979,
    "putation": 7624,
    "hester": 9634,
    "arying": 9804,
    "profess": 10637,
    "Ġcords": 14882,
    "employ": 10897,
    "urp": 1472,
    "variance": 2654,
    "Ġcompliance": 12119,
    "Ġd": 284,
    "inde": 17733,
    "Ġmem": 2069,
    "Ġpowerful": 1495,
    "Ġroll": 5381,
    "ahab": 4288,
    "Ġwrapt": 24596,
    "Ġshore": 4835,
    "words": 7983,
    "Ġinsist": 9893,
    "Ġghosts": 12237,
    "horn": 8086,
    "Ġbasket": 9575,
    "answer": 11736,
    "Ġarthur": 7195,
    "Ġdeb": 4764,
    "why": 2830,
    "á": 162,
    "Ġcharcoal": 19008,
    "Ġcommunicative": 24548,
    "les": 1017,
    "comparatively": 25841,
    "iar": 2375,
    "porary": 14553,
    "Ġcompute": 2905,
    "Ġmutters": 23961,
    "Ġpassions": 7930,
    "Ġpantheistic": 26337,
    "mpt": 6655,
    "Ġnailing": 21530,
    "lengths": 24847,
    "Ġincommod": 25308,
    "lyph": 10854,
    "mechanical": 25579,
    "moored": 22707,
    "Ġglasses": 9478,
    "Ġhungry": 10535,
    "Ġnumer": 3640,
    "Ġcash": 9655,
    "heaving": 21210,
    "luc": 9755,
    "asserted": 22313,
    "ognit": 19195,
    "deacon": 22151,
    "Ġlearn": 361,
    "Ġpoints": 5249,
    "repairing": 24495,
    "exposure": 19260,
    "Ġreside": 22543,
    "Ġnewsp": 9342,
    "Ġmountain": 3373,
    "Ġmilan": 19538,
    "rated": 6228,
    "ylon": 24978,
    "Ġaccursed": 9449,
    "Ġroused": 7623,
    "Ġunworth": 22040,
    "Ġlords": 14643,
    "onsible": 22565,
    "Ġblackest": 19100,
    "Ġstature": 10865,
    "Ġvicinity": 7314,
    "Ġregretted": 13404,
    "early": 20122,
    "sharpening": 22468,
    "Ġgrammatical": 13542,
    "Ġfaultless": 24540,
    "Ġbecame": 2690,
    "Ġ275": 20114,
    "lessly": 4554,
    "Ġmean": 744,
    "Ġbrandy": 11051,
    "Ġiterate": 13205,
    "Ġtarts": 10755,
    "Ġcomparative": 10545,
    "Ġmortals": 9919,
    "Ġflor": 8564,
    "Ġupbraided": 26530,
    "Ġcongratulate": 9066,
    "atra": 17773,
    "particularly": 8340,
    "Ġjug": 12839,
    "bow": 5424,
    "Ġmish": 15541,
    "Ġsprained": 15887,
    "Ġstoven": 23179,
    "bidden": 19740,
    "Ġapparelled": 20440,
    "Ġarray": 12815,
    "Ġobliv": 16137,
    "deserted": 19344,
    "Ġomens": 21331,
    "Ġesq": 15112,
    "mist": 5686,
    "Ġtraversed": 18894,
    "istic": 1012,
    "Ġmainland": 22653,
    "uiperai": 10666,
    "Ġfaculties": 14961,
    "Ġrogue": 22409,
    "asingly": 17963,
    "Ġscorn": 7902,
    "Ġtrappers": 23085,
    "ssing": 3810,
    "Ġ0": 1904,
    "Ġcareer": 11120,
    "Ġimprudence": 10300,
    "Ġpred": 673,
    "either": 6791,
    "Ġsimpl": 1577,
    "Ġreligion": 11417,
    "Ġthanking": 18603,
    "Ġforged": 12709,
    "benefact": 24642,
    "Ġtorch": 25033,
    "Ķ": 247,
    "Ġbeaten": 10531,
    "Ġincorporate": 20457,
    "Ġapplications": 4783,
    "Ġdestroyer": 13417,
    "Ġmarry": 4416,
    "Ġexception": 11218,
    "disgust": 23498,
    "Ġfisheries": 17441,
    "Ġocean": 3306,
    "farmer": 25900,
    "returned": 7765,
    "iant": 5427,
    "afternoon": 13191,
    "card": 11477,
    "Ġpushing": 10821,
    "abriel": 6949,
    "Ġmatrix": 1604,
    "Ġmadam": 5663,
    "third": 8168,
    "iot": 9603,
    "Ġlothario": 26186,
    "idirection": 2408,
    "Ġutensils": 23518,
    "Ġpartners": 11857,
    "iform": 2198,
    "mole": 22704,
    "Ġsea": 1208,
    "Ġreproof": 24891,
    "Ġcontest": 18474,
    "imental": 16535,
    "scure": 22986,
    "Ġgasps": 24866,
    "Ġbuilt": 8301,
    "presence": 18497,
    "Ġcons": 954,
    "prints": 23816,
    "Ġindies": 22954,
    "Ġdress": 4020,
    "asons": 6015,
    "Ġfootsteps": 16575,
    "Ġtread": 9412,
    "knife": 6941,
    "Ġsevent": 18201,
    "Ġcommunicates": 24547,
    "Ġawaiting": 11392,
    "beh": 5472,
    "Ġsu": 430,
    "sorrows": 17323,
    "Ġinspiring": 19114,
    "estab": 14173,
    "ske": 13785,
    "superiority": 20188,
    "Ġcontradictory": 20400,
    "Ġspot": 4153,
    "placidity": 25989,
    "Ġcompleted": 9000,
    "Ġburden": 8611,
    "Ġrevealed": 6752,
    "Ġcrab": 13148,
    "Ġcontraction": 16012,
    "Ġtorment": 8677,
    "queer": 10366,
    "Ġsoothingly": 25050,
    "Ġdistillation": 16047,
    "Ġexplo": 2284,
    "terns": 21826,
    "resnet": 4068,
    "chant": 4257,
    "worked": 19026,
    "Ġcelebrated": 13598,
    "Ġslide": 10396,
    "Ġattain": 12752,
    "failed": 20865,
    "Ġmacy": 19358,
    "knows": 19174,
    "Ġpredicting": 2412,
    "Ġmoderately": 22226,
    "Ġgoverned": 23573,
    "aded": 3550,
    "Ġdenying": 14660,
    "Ġsmut": 22560,
    "mount": 9132,
    "Ġawakened": 10455,
    "Ġpolar": 9414,
    "Ġselecting": 16683,
    "Ġescaped": 6459,
    "Ġpatiently": 19920,
    "Ġrecover": 9794,
    "Ġmislead": 22760,
    "Ġchooses": 13351,
    "preced": 10312,
    "Ġdestroyed": 5272,
    "Ġever": 1180,
    "Ġimmensities": 25331,
    "sentence": 2938,
    "Ġsearch": 2588,
    "Ġbackgammon": 22666,
    "exciting": 19671,
    "Ġcaptivating": 26050,
    "Ï": 144,
    "Ġdecap": 16024,
    "osal": 11763,
    "N": 50,
    "Ġafloat": 9311,
    "iver": 2047,
    "hos": 15367,
    "terrors": 25044,
    "ailing": 7022,
    "Ġrescales": 5067,
    "Ġhell": 5018,
    "let": 2732,
    "tiest": 21084,
    "Ġproficiency": 19194,
    "Ġalluded": 7885,
    "iards": 17576,
    "Ġrapidity": 11105,
    "rons": 21042,
    "Ġjames": 6419,
    "twain": 23700,
    "Ġma": 3257,
    "Ġconsternation": 9862,
    "Ġcontinent": 14891,
    "Ġinquiries": 5678,
    "Ġunlock": 18247,
    "Ġgene": 15676,
    "alizing": 17942,
    "Ġwherein": 14298,
    "Ġvon": 14084,
    "Ġseparating": 16684,
    "canonical": 22966,
    "Ġimpelling": 22393,
    "phil": 7925,
    "Ġnominal": 15172,
    "Ġexhale": 24402,
    "imagination": 13484,
    "Ġglobal": 2366,
    "lonely": 20959,
    "Ġfut": 15579,
    "orand": 21400,
    "disapprobation": 19159,
    "Ġwedding": 4816,
    "Ġtwos": 18658,
    "tuning": 1580,
    "Ġconveyed": 8335,
    "harmony": 25751,
    "war": 6802,
    "anch": 15564,
    "Ġleaned": 7604,
    "import": 5668,
    "Ġmince": 22834,
    "Ġtottenham": 24144,
    "Ġyale": 21783,
    "Ġendeared": 26500,
    "attempt": 9363,
    "Ġpitied": 14694,
    "Ġmodified": 14171,
    "Ġslyness": 25267,
    "enances": 10156,
    "Ġcompress": 21853,
    "Ġheads": 3742,
    "tubes": 25212,
    "thanking": 24326,
    "Ġwr": 1541,
    "Ġeddies": 25089,
    "alcul": 15632,
    "fights": 20867,
    "painful": 13505,
    "creat": 20802,
    "Ġdiverse": 19211,
    "Ġconfessor": 24024,
    "Ġdecently": 22446,
    "burn": 8371,
    "Ġjavelins": 26106,
    "quality": 10235,
    "firmly": 20283,
    "Ġguise": 14435,
    "satisf": 5781,
    "Ġrelinquish": 17350,
    "Ġ33": 16678,
    "Ġpush": 9186,
    "Ġplunged": 8696,
    "knowing": 10439,
    "Ġbitter": 4171,
    "Ġfinancier": 26585,
    "Ġwounding": 19589,
    "Ġlaurel": 20656,
    "pton": 15798,
    "ells": 5305,
    "pardon": 10068,
    "enced": 4294,
    "Ġclos": 4546,
    "Ġswearing": 16467,
    "Ġwhere": 787,
    "Ġtransc": 12868,
    "Ġmovement": 9971,
    "bull": 13694,
    "norm": 20987,
    "Ġcleaning": 23184,
    "Ġbarbarians": 19590,
    "bird": 9588,
    "Ġresponded": 13642,
    "Ġwhipcord": 20098,
    "Ġdeserved": 7736,
    "reduced": 15809,
    "ropri": 2178,
    "Ġhatchet": 16531,
    "chop": 21691,
    "Ġbrigandish": 25488,
    "Ġfav": 1752,
    "Ġfates": 15582,
    "concluded": 11245,
    "Ġattach": 14296,
    "Ġpride": 3824,
    "Ġbedside": 19125,
    "Ġawfulness": 23589,
    "fleet": 15016,
    "Ġinformation": 1048,
    "Ġhere": 1090,
    "Ġouter": 6858,
    "another": 5439,
    "Ġhands": 1662,
    "omics": 21646,
    "Ġfishes": 11594,
    "Ġentangled": 10348,
    "Ġabraham": 18396,
    "lier": 20951,
    "Ġturned": 2131,
    "Ġstandards": 19017,
    "spersed": 22738,
    "tender": 14476,
    "Ġhopkins": 23132,
    "zealand": 26055,
    "**:": 4737,
    "Ġcommended": 18657,
    "Ġavail": 11228,
    "despatched": 19804,
    "jane": 4480,
    "Ġsquint": 22839,
    "contained": 22476,
    "Ġwhiteness": 5919,
    "olly": 3230,
    "tail": 8765,
    "Ġproposition": 23252,
    "Ġchronicler": 20232,
    "renched": 7907,
    "urs": 6989,
    "Ġhesitate": 16948,
    "Ġtablet": 19207,
    "reputable": 15520,
    "separated": 20162,
    "Ġsummits": 14685,
    "Ġrisen": 9496,
    "ð": 177,
    "Ġarduous": 26531,
    "Ġclad": 12846,
    "Ġtus": 10751,
    "Ġinns": 17932,
    "except": 5383,
    "Ġscalable": 1696,
    "Ġtheory": 5799,
    "Ġstiffly": 15007,
    "Ġinvitation": 5188,
    "Ġhalls": 19528,
    "04": 10682,
    "perseus": 26006,
    "Ġacknowled": 6351,
    "Ġstabbing": 20306,
    "crimes": 16686,
    "Ġporing": 21469,
    "Ġsinned": 18953,
    "Ġproc": 5545,
    "Ġturtle": 4201,
    "Ġwires": 21298,
    "Ġattorney": 18627,
    "continue": 16863,
    "Ġlaud": 17970,
    "Ġsaturn": 22903,
    "vable": 10135,
    "urons": 3135,
    "ě": 220,
    "Ġenveloping": 19737,
    "Ġconve": 5455,
    "ushing": 5730,
    "Ġpreliminary": 10060,
    "Ġjuggler": 26368,
    "aloft": 8811,
    "saw": 5894,
    "idence": 4300,
    "Ġsparing": 22133,
    "Ġsplintered": 11420,
    "Ġacknowledge": 13406,
    "Ġelement": 6897,
    "Ġquaker": 10973,
    "og": 867,
    "Ġcalves": 13040,
    "±": 114,
    "Ġfortun": 4981,
    "Ġadmiration": 5329,
    "Ġunlike": 7005,
    "Ġfootpaths": 26319,
    "Ġcompression": 18148,
    "existence": 16018,
    "Ġblurred": 22934,
    "Ġdeity": 18140,
    "Ġstone": 4644,
    "Ġrejecting": 17052,
    "Ġbulls": 23861,
    "Ġthickets": 24028,
    "come": 2374,
    "bler": 11474,
    "Ġward": 10158,
    "Ġvenerable": 9097,
    "Ġpreposter": 12827,
    "Ġdegree": 3706,
    "Ġparalle": 1410,
    "iscre": 17852,
    "published": 26143,
    "equ": 6790,
    "reshold": 21242,
    "Ġquality": 3529,
    "Ġthirst": 7589,
    "Ġilluminating": 25246,
    "crowning": 25749,
    "Ġvertu": 23893,
    "Ġfifteen": 6946,
    "Ġlord": 2966,
    "Ġvehicles": 10662,
    "Ġstring": 11831,
    "supers": 22650,
    "Ġdividing": 12116,
    "Ġrunning": 3951,
    "Ġlatterly": 24086,
    "burst": 10540,
    "ouncement": 11749,
    "Ġclapped": 9748,
    "Ġrepresenting": 4059,
    "Ġocc": 887,
    "Ġaust": 4871,
    "client": 18934,
    "Ġslightly": 7292,
    "Ġthorough": 6246,
    "Ġderick": 9367,
    "Ġfettered": 24569,
    "Ġcou": 5288,
    "Ġfraud": 19035,
    "sank": 17664,
    "Ġdeser": 3886,
    "Ġtrading": 23082,
    "nin": 17610,
    "Ġfists": 15587,
    "bits": 17491,
    "hamed": 6306,
    "Ġaudacity": 19884,
    "Ġcoil": 11822,
    "heads": 4093,
    "Ġfoster": 18991,
    "Ġinwards": 15625,
    "humored": 19456,
    "cop": 20803,
    "Ġannihil": 10177,
    "Ġmultiplication": 2871,
    "Ġlighting": 13087,
    "oura": 1061,
    "Ġcounterpane": 11345,
    "Ġ77": 24266,
    "Ġlow": 1643,
    "penet": 11072,
    "that": 850,
    "Ġnaught": 8128,
    "air": 1003,
    "Ġperseus": 10606,
    "conclusive": 25674,
    "Ġspeculations": 22996,
    "Ġregular": 935,
    "Ġporpoises": 13386,
    "Ġpopulation": 16829,
    "Ġbrawn": 10484,
    "Ġaisle": 21204,
    "culiarity": 11144,
    "ountain": 2917,
    "ispiece": 19728,
    "Ġforemost": 12009,
    "Ġy": 341,
    "brim": 23577,
    "Ġpagan": 7118,
    "incom": 21184,
    "Ġfriendless": 23029,
    "Ġsauntering": 18328,
    "Ġadvantage": 4314,
    "ushion": 14723,
    "Ġfar": 1447,
    "Ġoblong": 14324,
    "Ġexcuse": 5862,
    "Ġpencils": 23198,
    "romed": 10907,
    "anguish": 15987,
    "Ġpip": 1564,
    "ching": 5156,
    "Ġfrighted": 24034,
    "Ġperils": 6273,
    "Ġtop": 2467,
    "othic": 16219,
    "list": 7550,
    "Ġimp": 587,
    "Ġsucceeding": 16763,
    "Ġstays": 16564,
    "holes": 12058,
    "Ġcirclings": 26433,
    "Ġstacked": 21750,
    "Ġagreeing": 20022,
    "icular": 2022,
    "ale": 506,
    "Ġstarboard": 7607,
    "Ġspout": 3286,
    "chery": 24551,
    "vinegar": 25421,
    "rian": 10244,
    "Ġnursed": 16887,
    "aphs": 22340,
    "Ġfinally": 4665,
    "Ġvales": 21950,
    "Ġsummarization": 3649,
    "Ġdissol": 18552,
    "ifted": 4492,
    "Ġgaze": 6931,
    "itiousness": 21337,
    "boilers": 26298,
    "Ġduke": 7755,
    "Ġconcent": 8250,
    "smooth": 20251,
    "Ġnormalization": 1243,
    "Ġbedroom": 7276,
    "madness": 14885,
    "Ġgone": 2105,
    "Ġunch": 18243,
    "Ġheadsmen": 14735,
    "prick": 19346,
    "iracle": 11246,
    "commanding": 24751,
    "infor": 2949,
    "Ġhistory": 4005,
    "whalebone": 19120,
    "chastic": 2332,
    "Ġund": 4118,
    "Ġbottom": 3677,
    "bushes": 24447,
    "Ġunprofitable": 18271,
    "Ġobey": 9522,
    "Ġspilling": 22141,
    "Ġpressed": 6042,
    "telling": 14442,
    "Ġbase": 5012,
    "matical": 13133,
    "Ġbenjamin": 26569,
    "ha": 3979,
    "Ġclustered": 25234,
    "Ġstruggling": 12079,
    "illings": 14145,
    "Ġflukes": 5267,
    "mass": 12494,
    "Ġgradu": 15836,
    "Ġdons": 17890,
    "Ġfitly": 24004,
    "lection": 3655,
    "Ġspermaceti": 8970,
    "rat": 8759,
    "Ġthrills": 24542,
    "Ġairy": 23319,
    "provided": 13641,
    "Ġalan": 10871,
    "Ġrewarded": 14943,
    "separ": 9233,
    "Ġjago": 22293,
    "Ġchiselled": 25560,
    "accents": 19213,
    "Ġende": 21936,
    "razor": 21640,
    "Ġsash": 17756,
    "Ġlagged": 21561,
    "Ġpartake": 18671,
    "Ġtravelling": 11309,
    "Ġyounge": 16291,
    "tails": 21089,
    "iary": 15374,
    "Ġsufferings": 7512,
    "Ġrepugnance": 19088,
    "ellect": 7380,
    "persuasion": 20047,
    "Ġdisputes": 25826,
    "ied": 940,
    "Ġcrozetts": 19632,
    "Ġrepresented": 8941,
    "Ġunclasp": 26513,
    "Ġlate": 3378,
    "overhearing": 19053,
    "Ġconven": 6152,
    "Ġdistances": 22506,
    "Ġwrought": 11948,
    "Ġdistributions": 1051,
    "Ġoaths": 13527,
    "aborate": 14025,
    "Ġlobes": 22119,
    "Ġpian": 13920,
    "Ġunfav": 14790,
    "roofed": 26185,
    "Ġbrighter": 16191,
    "Ġcomprehended": 11296,
    "looks": 12022,
    "Ġdeceitful": 25733,
    "Ġhammer": 6094,
    "Ġparading": 23713,
    "Ġduly": 13355,
    "shaven": 18495,
    "Ġcathed": 14550,
    "Ġpondered": 15170,
    "Ġlashes": 17969,
    "Ġfaced": 10810,
    "Ġarranged": 9880,
    "Ġhackney": 20436,
    "Ġabstra": 22275,
    "Ġrestless": 10415,
    "Ġvindictive": 20473,
    "Ġdepose": 22599,
    "Ġlevels": 12701,
    "Ġwigwam": 11430,
    "awed": 10393,
    "Ġfinny": 23129,
    "Ġsteelkilt": 5675,
    "Ġmomentum": 1600,
    "loops": 12887,
    "cod": 12448,
    "bound": 6221,
    "Ġraft": 16120,
    "ative": 738,
    "Ġcomposition": 1687,
    "Ġseries": 7061,
    "id": 338,
    "Ġbordered": 24564,
    "endless": 22230,
    "Ġguns": 16778,
    "fifth": 20149,
    "repro": 10772,
    "Ġlikely": 3599,
    "Ġinstability": 3814,
    "Ġengineer": 11979,
    "Ġtruest": 16702,
    "Ġrifts": 21982,
    "tribute": 21091,
    "amed": 4446,
    "Ġproximity": 3223,
    "ining": 3225,
    "allows": 15911,
    "strang": 11185,
    "Ġfrosted": 19806,
    "Ġdeceitfulness": 25734,
    "Ġenticements": 26035,
    "Ġhint": 5015,
    "Ġapr": 12537,
    "nine": 13764,
    "Ġoffice": 4964,
    "disreputable": 23505,
    "Ġsutherland": 10151,
    "rant": 11519,
    "Ġcondescended": 19959,
    "feed": 9297,
    "Ġoffers": 12952,
    "Ġflapped": 23014,
    "frau": 15093,
    "critical": 19499,
    "it": 276,
    "Ġeclips": 20699,
    "Ġtyros": 26102,
    "Ġhor": 1658,
    "Ġdevoid": 18681,
    "Ġamb": 9295,
    "Ġgilded": 17448,
    "Ġshirt": 8853,
    "inno": 10758,
    "Ġwise": 6811,
    "Ġthews": 21280,
    "Ġcommunic": 5751,
    "extinguished": 16156,
    "beth": 13692,
    "Ġnegatived": 23049,
    "nostril": 26561,
    "alley": 23027,
    "đ": 210,
    "kes": 3681,
    "suspended": 15181,
    "Ġmatters": 4973,
    "Ġvexatious": 19784,
    "Ġrobberies": 23019,
    "Ġdomineering": 23709,
    "Ġpebbles": 16133,
    "Ġthomas": 17950,
    "sell": 13784,
    "ton": 1725,
    "Ġturnpike": 23032,
    "Ġassist": 3565,
    "Ġchanc": 18385,
    "Ġ102": 24410,
    "Ġneurons": 977,
    "_.âĢĻâĢĿ": 17482,
    "Ġnought": 21525,
    "Ġexcavating": 23317,
    "freighted": 14895,
    "Ġnook": 15932,
    "Ġponies": 21478,
    "wood": 5898,
    "Ġleague": 6539,
    "Ġbowing": 10477,
    "Ġmenaced": 16296,
    "Ġpale": 4529,
    "notches": 22753,
    "Ġcivilities": 14851,
    "furnished": 20244,
    "procure": 23400,
    "Ġtortured": 14927,
    "Ġ15": 9327,
    "Ġboarded": 13238,
    "Ġfork": 15736,
    "um": 452,
    "Ġwasting": 12733,
    "Ġcos": 2205,
    "Ġconcealed": 7494,
    "Ġchallenges": 13634,
    "U": 57,
    "sil": 5283,
    "anxiously": 15114,
    "iceland": 21569,
    "Ġbeck": 14012,
    "Ġgirth": 13140,
    "Ġdisconsolate": 20721,
    "ict": 596,
    "result": 12048,
    "Ċ": 203,
    "chess": 16576,
    "Ġfumbled": 17883,
    "Ġpled": 17907,
    "Ġdiameter": 19869,
    "Ġembedding": 2102,
    "Ġhospitals": 24924,
    "Ġquick": 2580,
    "Ġratio": 5065,
    "mission": 5970,
    "Ġinexper": 16982,
    "transp": 24512,
    "Ġnominally": 17234,
    "Ġinquir": 4241,
    "!": 5,
    "Ġstayed": 7998,
    "Ġbasin": 19850,
    "Ġmar": 1309,
    "Ġinserted": 8356,
    "week": 12936,
    "Ġbes": 2659,
    "Ġfloating": 6605,
    "perform": 15905,
    "Ġrefined": 18693,
    "Ġagainst": 1699,
    "offended": 16401,
    "Ġembarrassed": 11386,
    "there": 1424,
    "Ġabrid": 22276,
    "Ġlifeless": 8951,
    "Ġunrivalled": 26521,
    "byter": 16216,
    "Ġdigesting": 19812,
    "erer": 8735,
    "Ġvancou": 22878,
    "Ġprophes": 16352,
    "Ġhigher": 1819,
    "obliv": 23100,
    "Ġcomple": 2841,
    "Ġgentlemanly": 19318,
    "Ġfelony": 18954,
    "Ġinstincts": 16988,
    "succeed": 10332,
    "Ġdrawling": 19440,
    "Ġbelt": 13008,
    "Ġadmin": 23556,
    "Ġarguments": 8037,
    "Ġmodest": 15922,
    "disappearing": 23504,
    "idea": 9304,
    "Ġarms": 3965,
    "Ġhill": 5626,
    "Ġtrooped": 24900,
    "Ġdamps": 23476,
    "Ġperdition": 15996,
    "Ġarsacidean": 20368,
    "ifice": 7197,
    "Ġalle": 11669,
    "Ġbul": 3296,
    "raved": 18015,
    "Ġirrad": 19095,
    "Ġtist": 21165,
    "Ġmothers": 14542,
    "august": 11073,
    "Ġportra": 9012,
    "butt": 15998,
    "Ġblankness": 24611,
    "calcul": 12992,
    "dying": 15344,
    "Ġvague": 6406,
    "Ġthereupon": 18435,
    "Ġbestow": 6455,
    "Ġjust": 1240,
    "pens": 17634,
    "Ġwidest": 24237,
    "Ġhypocr": 19475,
    "Ġenveloped": 12213,
    "Ġlearning": 386,
    "crippled": 26386,
    "embraced": 25807,
    "Ġdashing": 8800,
    "exc": 5169,
    "rict": 8093,
    "aid": 1921,
    "Ġsneezing": 12252,
    "point": 6063,
    "Ġimputed": 12813,
    "Ġpromising": 10402,
    "Ġhyp": 3872,
    "abern": 21794,
    "mon": 2307,
    "Ġscrupulous": 20072,
    "Ġassented": 17341,
    "outer": 9671,
    "george": 26020,
    "Ġenthus": 7231,
    "Ġjew": 9470,
    "Ġdeduce": 8337,
    "icted": 5937,
    "sies": 21057,
    "Ġexpenses": 11837,
    "informed": 17738,
    "Ġsed": 10763,
    "Ġhowl": 12859,
    "Ġprincipal": 6496,
    "Ġlaughing": 5339,
    "Ġpop": 5151,
    "rah": 8137,
    "Ġelevation": 14902,
    "likeness": 19481,
    "Ġoct": 10161,
    "hollow": 24045,
    "lie": 12487,
    "ascribed": 24707,
    "Ġrocking": 10971,
    "circumst": 5349,
    "simon": 16975,
    "bur": 4686,
    "Ġstrateg": 1389,
    "Ġmassacre": 20550,
    "horrors": 20544,
    "willingly": 11987,
    "Ġthack": 21520,
    "Ġretains": 20033,
    "exper": 8882,
    "Ġcourting": 23294,
    "regret": 16451,
    "thur": 7187,
    "Ġlink": 8130,
    "dance": 17521,
    "Ġomit": 17817,
    "Ġpractical": 3167,
    "Ġactionable": 24560,
    "Ġopposition": 16522,
    "orph": 21402,
    "Ġim": 477,
    "Ġhazard": 20435,
    "usages": 22284,
    "Ġestimate": 19376,
    "ingham": 21303,
    "Ġvoices": 7876,
    "Ġblanche": 18821,
    "marked": 9051,
    "results": 20390,
    "Ġintegrity": 12317,
    "Ġhistories": 14689,
    "Ġpurporting": 19184,
    "Ġtechni": 1756,
    "tempest": 16961,
    "Ġspace": 1510,
    "impossible": 8828,
    "marching": 25753,
    "^": 66,
    "Ġperiods": 13308,
    "ezes": 9994,
    "whilst": 18372,
    "spl": 9142,
    "Ġhaze": 18197,
    "term": 3759,
    "Ġshutters": 9940,
    "connection": 18870,
    "Ġthreats": 13381,
    "Ġdownward": 10334,
    "Ġappare": 12821,
    "Ġtoward": 17949,
    "ortations": 22263,
    "Ġproportionably": 19974,
    "Ġinsect": 12641,
    "Ġhearse": 10422,
    "Ġmotives": 7485,
    "Ġindulgence": 11321,
    "Ġclo": 6043,
    "Ġchestnuts": 24381,
    "Ġtranquill": 6632,
    "Ġposture": 24166,
    "Ġpl": 745,
    "Ġopportunity": 4786,
    "Ġsoftened": 11103,
    "Ġarsacides": 17297,
    "achine": 605,
    "Ġdesigns": 13017,
    "Ġdisappearance": 9300,
    "itiously": 13874,
    "rocious": 21542,
    "Ġunfolding": 17087,
    "Ġawed": 23587,
    "%": 9,
    "raction": 8138,
    "Ġrequisition": 22643,
    "intern": 23738,
    "sea": 4763,
    "Ġstately": 9837,
    "Ġminimize": 7051,
    "displeasure": 23497,
    "trial": 20353,
    "Ġspect": 3553,
    "_âĢĶ": 11469,
    "avish": 22597,
    "description": 11096,
    "Ġtwelvemonth": 12182,
    "kee": 18274,
    "Ġinitials": 11015,
    "ologically": 22887,
    "tling": 9145,
    "mons": 17602,
    "Ġdeeply": 4716,
    "Ġden": 3112,
    "Ġparmacetti": 20607,
    "Ġaccepted": 7750,
    "Ġtheir": 643,
    "sho": 6425,
    "Ġpasture": 14545,
    "Ġfrown": 10809,
    "Ġfulfilled": 11364,
    "Ġcolumn": 9331,
    "Ġdiamond": 15603,
    "Ġcorn": 9353,
    "allest": 5485,
    "Ġjup": 15951,
    "gration": 9124,
    "Ġcordial": 16837,
    "Ġdead": 2169,
    "Ġcannib": 6036,
    "Ġalong": 1977,
    "Ġevalu": 2993,
    "Ġcelest": 9904,
    "Ġgnawed": 25168,
    "lic": 17589,
    "erity": 21270,
    "Ġplum": 11826,
    "Ġthrone": 12218,
    "Ġpatience": 2724,
    "Ġavowed": 16636,
    "Ġgratefully": 20448,
    "Ġet": 3582,
    "touch": 8392,
    "extensive": 18713,
    "ugl": 23292,
    "Ġfireplace": 13149,
    "Ġcharges": 23271,
    "buff": 15322,
    "Ġcompared": 2226,
    "scrape": 25699,
    "Ġwired": 17788,
    "scales": 22992,
    "inspect": 11561,
    "Ġtoast": 21515,
    "details": 19678,
    "Ġchann": 15939,
    "Ġsaving": 15891,
    "Ġboa": 22638,
    "athies": 22703,
    "ounce": 6558,
    "times": 8099,
    "omed": 13978,
    "Ġcare": 1635,
    "Ġtasted": 12534,
    "wheeler": 16192,
    "got": 6954,
    "###": 3828,
    "Ġsuperiors": 23457,
    "Ġproced": 2577,
    "missing": 13224,
    "Ġimperfect": 13344,
    "Ġprovide": 7749,
    "included": 19210,
    "Ġspade": 9262,
    "unimportant": 18162,
    "supplemental": 25875,
    "Ġliar": 22412,
    "Ġcrawford": 24894,
    "Ġcontents": 7209,
    "Ġchannel": 26013,
    "ribly": 8255,
    "Ġshy": 10905,
    "Ġunh": 9256,
    "pronouncing": 25194,
    "Ġlime": 13951,
    "Ġkindly": 6077,
    "hauteur": 26393,
    "bearing": 9768,
    "Ġascribed": 14858,
    "Ġintelligence": 555,
    "Ġmanufactured": 22334,
    "amy": 8469,
    "Ġtearing": 14399,
    "Ġferrule": 24500,
    "mortal": 10115,
    "pig": 8756,
    "Ġbucket": 8792,
    "Ġwor": 1189,
    "Ġalco": 21786,
    "Ġsubmit": 11874,
    "Ġwallowing": 24048,
    "Ġsucc": 12788,
    "Ġonto": 14031,
    "oda": 15754,
    "Ġyields": 19659,
    "Ġje": 4122,
    "Ġenvelopes": 24510,
    "Ġcalculates": 13269,
    "Ġpoetical": 25059,
    "charitable": 23936,
    "deep": 979,
    "back": 2016,
    "vessels": 10628,
    "question": 5418,
    "guilty": 19486,
    "coll": 23782,
    "foremost": 14255,
    "Ġchink": 15936,
    "Ġdated": 10940,
    "Ġfreshness": 23993,
    "sailors": 9925,
    "Ġhaunted": 10256,
    "sub": 4658,
    "Ġgush": 10205,
    "civilities": 24974,
    "Ġsurpasses": 25269,
    "Ġattics": 22630,
    "Ġpages": 15612,
    "racting": 10358,
    "Ġromantic": 8031,
    "Ġinn": 4588,
    "Ġpirates": 9076,
    "recollection": 25349,
    "eff": 2532,
    "Ġpunctual": 17140,
    "paddington": 20481,
    "rush": 7011,
    "ï": 176,
    "omon": 10209,
    "ortion": 11761,
    "Ġcrammed": 16473,
    "ollen": 11300,
    "Ġarchitecture": 1112,
    "het": 5435,
    "Ġviewed": 10464,
    "Ġshake": 6034,
    "peare": 18913,
    "flakes": 23973,
    "Ġrome": 12160,
    "Ġbrown": 6299,
    "valley": 16217,
    "Ġunqualified": 22065,
    "joined": 13279,
    "bies": 15316,
    "Ġinexpress": 12640,
    "subs": 14306,
    "shrouded": 26363,
    "bag": 7541,
    "Ġcraft": 4375,
    "car": 4209,
    "Ġfeatures": 1432,
    "Ġflow": 1239,
    "anger": 2171,
    "ryder": 18638,
    "Ġstock": 7454,
    "dripping": 16907,
    "Ġmurky": 19204,
    "Ġhunks": 18938,
    "leness": 4690,
    "oking": 4604,
    "Ġsenate": 25215,
    "Ġstartling": 14673,
    "Ġcurv": 3512,
    "struck": 7862,
    "imprudence": 16560,
    "Ġluckily": 16800,
    "Ġterti": 14540,
    "Ġemerging": 24613,
    "Ġspas": 10924,
    "ations": 710,
    "Ġhamp": 12635,
    "ricted": 15423,
    "Ġdusty": 14928,
    "Ġtu": 6968,
    "Ġsatisfying": 23697,
    "Ġdismantled": 20219,
    "ural": 504,
    "represent": 9640,
    "Ġsufferable": 16261,
    "Ġsubfield": 11873,
    "completely": 12424,
    "Ġjealously": 24126,
    "Ġconventional": 25548,
    "blog": 19842,
    "Ġdiscipline": 26563,
    "doubt": 6782,
    "Ġunhing": 18245,
    "Ġnoises": 18375,
    "prudently": 21037,
    "Ġcaw": 13886,
    "protested": 13478,
    "ernsey": 8905,
    "quet": 6834,
    "Ġimply": 18445,
    "Ġoverwhel": 8197,
    "Ġalready": 2710,
    "Ġesteemed": 10591,
    "Ġacres": 14316,
    "Ġscream": 5935,
    "Ġpleasing": 6191,
    "Ġlocket": 22117,
    "blu": 12444,
    "Ġanatomy": 12324,
    "Ġadvice": 4901,
    "Ġallusions": 10908,
    "Ġcheapside": 23290,
    "Ġchancery": 20718,
    "Ġdisgusting": 19896,
    "Ġdutch": 6328,
    "want": 8770,
    "Ġmacey": 12568,
    "Ġeducated": 16787,
    "fatality": 25022,
    "night": 2166,
    "Ġbrightened": 23832,
    "Ġflows": 13015,
    "usual": 5841,
    "note": 14345,
    "Ġvers": 7562,
    "vial": 17699,
    "Ġtongs": 9964,
    "oding": 1459,
    "plainly": 11091,
    "sius": 13791,
    "Ġbowed": 6243,
    "rather": 5430,
    "Ġcarpenters": 16754,
    "Ġ1671": 25008,
    "Ġinconsist": 17938,
    "recursion": 13333,
    "gentlemanlike": 20005,
    "Ġgalvan": 21620,
    "tically": 3393,
    "begone": 12884,
    "persons": 24176,
    "Ġformed": 3883,
    "Ġcusack": 26435,
    "heaven": 8053,
    "Ġslang": 23163,
    "Ġcontract": 18476,
    "Ġgravel": 14105,
    "impregnable": 26483,
    "Ġcrosses": 23065,
    "Ġspectator": 19409,
    "mary": 8752,
    "Ġterritories": 23849,
    "Ġstray": 18075,
    "Ġherself": 1565,
    "Ġnonce": 23237,
    "Ġforwarded": 19044,
    "Ġdream": 3539,
    "Ġglobe": 6076,
    "Ġmilitia": 13322,
    "account": 5330,
    "Ġeffusions": 18517,
    "Ġfren": 10807,
    "Ġtum": 5692,
    "Ġascendency": 20235,
    "breckinridge": 24078,
    "Ġmagic": 8233,
    "Ġalt": 18101,
    "akes": 2216,
    "unc": 15773,
    "ohn": 4559,
    "Ġnimble": 21531,
    "unconquerable": 21895,
    "vacancies": 25920,
    "shabb": 18496,
    "Ġchag": 15935,
    "Ġajar": 21205,
    "pie": 21013,
    "Ġmouldy": 14977,
    "Ġcurly": 18856,
    "C": 39,
    "phren": 22783,
    "Ġeffected": 14357,
    "Ġpractically": 13107,
    "stairs": 5155,
    "Ġsurgeon": 8984,
    "rical": 11521,
    "Ġprecipitate": 19945,
    "dict": 15341,
    "Ġlanguage": 650,
    "Ġbeautifully": 13271,
    "Ġinsanity": 12051,
    "Ġax": 7822,
    "girl": 12322,
    "Ġmerry": 5869,
    "writer": 14650,
    "Ġunscrew": 22044,
    "Ġaccustomed": 6860,
    "Ġcarry": 4779,
    "Ġbridegroom": 10607,
    "Ġlogger": 11958,
    "bbed": 6909,
    "gi": 17553,
    "Ġletters": 3794,
    "Ġsignific": 3829,
    "Ġminiature": 11041,
    "Â": 131,
    "moran": 24154,
    "Ġ38": 24082,
    "evinced": 19928,
    "Ġcurse": 7667,
    "consideration": 14958,
    "Ġsurp": 9637,
    "Ġspong": 15885,
    "Ġbachelor": 7786,
    "Ġkra": 18349,
    "Ġbacking": 16121,
    "month": 6463,
    "antly": 1988,
    "Ġdrug": 11412,
    "Ġkey": 2100,
    "akness": 14197,
    "rodu": 1817,
    "Ġur": 5540,
    "âĢĶ_": 3203,
    "Ġknowest": 12869,
    "iscient": 17853,
    "Ġuniversally": 12004,
    "Ġblunder": 18820,
    "Ġbingley": 1674,
    "Ġbarbs": 10534,
    "Ġwarehouses": 20421,
    "qual": 8157,
    "Ġeloped": 22647,
    "Ġreferences": 21677,
    "abond": 15745,
    "Ġlob": 7627,
    "Ġgraze": 18227,
    "stays": 15693,
    "Ġimpudence": 26243,
    "Ġhur": 2098,
    "time": 3150,
    "Ġkilling": 13337,
    "Ġearl": 7675,
    "elling": 5831,
    "Ġhoney": 12637,
    "Ġimpending": 22392,
    "tra": 5001,
    "clearer": 24073,
    "iration": 4537,
    "Ġthin": 4346,
    "Ġattend": 5034,
    "Ġempires": 19077,
    "Ġcollect": 7236,
    "Ġmonomaniac": 9571,
    "Ġillum": 9403,
    "impulse": 20647,
    "residence": 19266,
    "Ġeggs": 12346,
    "95": 17480,
    "Ġbroker": 23105,
    "ces": 578,
    "Ġremarked": 3698,
    "descend": 23089,
    "Ġdough": 8422,
    "Ġhel": 3788,
    "Ġcontrary": 5261,
    "Ġphrenologically": 20397,
    "unte": 21877,
    "ch": 321,
    "Ġsixpence": 19319,
    "Ġmiseries": 10349,
    "Ġmustering": 18663,
    "ball": 7792,
    "Ġbulkington": 14679,
    "quake": 11684,
    "performed": 18345,
    "Ġsanta": 26422,
    "Ġopposed": 11190,
    "Ġpiteous": 17918,
    "Ġmanhat": 22331,
    "solely": 19819,
    "Ġwait": 4907,
    "Ġ34": 16679,
    "Ġflatt": 16249,
    "ech": 4388,
    "coward": 13704,
    "Ġmould": 6519,
    "afterwards": 7483,
    "mical": 9131,
    "raise": 18014,
    "Ġstruggle": 3678,
    "raltar": 24236,
    "Ġsophisticated": 1656,
    "eze": 20849,
    "dÃ¦mon": 17529,
    "Ġsubproblems": 12962,
    "dignity": 15349,
    "Ġdepl": 14049,
    "Ġlikened": 16502,
    "Ġnations": 8814,
    "Ġincredulity": 11313,
    "witted": 17709,
    "Ġdealer": 23982,
    "Ġgather": 6535,
    "Ġforces": 12707,
    "llable": 6877,
    "house": 4075,
    "derment": 22170,
    "Ġepit": 18009,
    "Ġrattling": 11397,
    "Ġmaintenance": 17464,
    "Ġinternal": 2245,
    "devil": 7895,
    "Ġjon": 15947,
    "Ġclearer": 16315,
    "Ġpart": 860,
    "Ġscatter": 18407,
    "Ġprofanely": 23572,
    "idge": 14017,
    "Ġwallowed": 24047,
    "Ġstationary": 19697,
    "Ġappearances": 10453,
    "Ġprosecut": 9701,
    "Ġbl": 1190,
    "Ġwrapping": 19778,
    "shown": 22458,
    "itled": 7577,
    "Ġcoopman": 25829,
    "Ġpraise": 6486,
    "cooper": 19191,
    "Ġgoverness": 8605,
    "rosings": 15648,
    "rises": 17657,
    "Ġoppose": 16521,
    "Ľ": 254,
    "Ġcab": 2631,
    "haul": 14768,
    "Ġele": 1962,
    "absolutely": 10648,
    "ocation": 14627,
    "innocent": 20289,
    "Ġlens": 8439,
    "Ġunfortunate": 5376,
    "Ġextinct": 14340,
    "cous": 8725,
    "Ġcakes": 13887,
    "Ġimpress": 6861,
    "Ġdownwards": 8531,
    "Ġassociation": 24710,
    "analysis": 26174,
    "aker": 3665,
    "Ġequal": 4134,
    "orified": 21405,
    "str": 2575,
    "Ġheartless": 13077,
    "Ġredeem": 20503,
    "Ġnet": 3628,
    "poured": 17639,
    "Ġgable": 15671,
    "Ġself": 1779,
    "Ġpupella": 20425,
    "Ġphiladel": 23888,
    "Ġborder": 10172,
    "ainted": 3661,
    "ouement": 21451,
    "Ġrambles": 17187,
    "Ġpurchasing": 19877,
    "ledge": 1327,
    "dropout": 3199,
    "Ġsofa": 10273,
    "Ġugliness": 20430,
    "aught": 2679,
    ";âĢĿâĢĶ": 20762,
    "Ġcontribut": 12864,
    "Ġwhal": 5454,
    "ckled": 9260,
    "greeting": 24554,
    "Ġdip": 13910,
    "Ġeducation": 5128,
    "alo": 7587,
    "bro": 4033,
    "Ġdiscovering": 13362,
    "Ġseems": 2477,
    "Ġbetake": 22907,
    "unwillingness": 25803,
    "beings": 12882,
    "Ġproofs": 19817,
    "Ġrun": 2352,
    "epilogue": 22104,
    "Ġtossed": 5816,
    "Ġli": 602,
    "stone": 5088,
    "Ġsoldiers": 8690,
    "Ġfugitive": 17330,
    "woods": 13423,
    "Ġexcel": 3568,
    "Ġreplied": 2263,
    "caut": 20814,
    "Ġcomplaint": 24775,
    "remote": 23193,
    "idean": 14265,
    "Ġempty": 5354,
    "Ġprovincial": 20652,
    "idation": 5021,
    "Ġoccupations": 9461,
    "pron": 9009,
    "Ġlandlessness": 23383,
    "depth": 12805,
    "Ġindec": 13931,
    "Ġretarded": 23075,
    "uncle": 8159,
    "Ġzero": 1202,
    "Ġborders": 15576,
    "Ġpierce": 17037,
    "Ġharness": 17930,
    "oting": 2743,
    "Ġcomforted": 19394,
    "Ġbos": 4875,
    "ago": 14068,
    "eked": 16406,
    "Ġchamois": 16802,
    "mother": 5480,
    "adequate": 15207,
    "Ġfinishing": 23127,
    "aloes": 21505,
    "Ġclutching": 24954,
    "Ġtransient": 18481,
    "Ġsuperlative": 26075,
    "Ġoverhanging": 22368,
    "Ġsimulates": 2738,
    "Ġestimation": 11220,
    "ĠĠĠĠĠĠĠĠĠĠĠĠĠĠĠĠĠĠĠĠĠĠĠĠĠĠĠĠĠĠĠ": 19703,
    "iated": 5890,
    "gird": 20881,
    "Ġangels": 11180,
    "Ġther": 17780,
    "prodigious": 17469,
    "itive": 6670,
    "Ġgre": 1581,
    "Ġchin": 4891,
    "iloquent": 21729,
    "Ġresponses": 23650,
    "Ġpartaking": 22700,
    "iron": 3248,
    "apering": 8041,
    "Ġnext": 2137,
    "Ġdesisted": 22978,
    "hmael": 7341,
    "warrant": 21140,
    "Ġrehears": 15704,
    "Ġexc": 1830,
    "yards": 9626,
    "Ġblown": 12090,
    "Ġeyes": 1332,
    "enjoyments": 25434,
    "fixedly": 24930,
    "prevailed": 17348,
    "Ġinsatiate": 19273,
    "Ġmary": 3844,
    "Ġfonder": 17882,
    "Ġtell": 1465,
    "Ġfully": 6343,
    "Ġaccidentally": 9508,
    "Ġstudied": 11117,
    "Ġurging": 24505,
    "ady": 995,
    "clam": 13060,
    "uracy": 1057,
    "native": 17613,
    "Ġconfident": 11140,
    "inst": 4293,
    "Ġparties": 7039,
    "Ġabiding": 22274,
    "Ġsickened": 16777,
    "they": 1879,
    "yrin": 12527,
    "Ġstash": 18073,
    "Ġprehens": 22235,
    "Ġcrocodile": 20742,
    "Ġmutable": 23960,
    "Ġshakespeare": 20310,
    "Ġpledged": 20690,
    "Ġshirr": 18232,
    "Ġvolat": 24146,
    "Ġlaying": 7908,
    "Ġsurmise": 12299,
    "speech": 10669,
    "Ġbalm": 22905,
    "Ġ66": 24369,
    "Ġ55": 24319,
    "lies": 15385,
    "Ġmental": 21322,
    "Ġforetold": 23453,
    "Ġrejoice": 10211,
    "biqu": 17500,
    "Ġfoolishly": 19785,
    "Ġtechnical": 17194,
    "achment": 5463,
    "Ġfrosty": 14938,
    "orses": 6052,
    "Ġstamping": 20034,
    "Ġbulb": 23858,
    "contin": 16544,
    "rence": 5555,
    "Ġwarp": 8113,
    "Ġpenetrated": 13476,
    "Ġacc": 569,
    "Ġassisted": 11112,
    "Ġfortresses": 23623,
    "Ġperemptory": 25741,
    "pped": 1998,
    "mariners": 19551,
    "Ġdiscreet": 16484,
    "tom": 15438,
    "anke": 15565,
    "Ġ16": 7927,
    "Ġsage": 17754,
    "Ġprivileges": 25135,
    "typewritten": 26039,
    "apside": 22963,
    "Ġlo": 451,
    "esty": 4304,
    "contented": 14636,
    "Ġbene": 2031,
    "Ġmappings": 2144,
    "Ġfatt": 15583,
    "ĳ": 244,
    "Ġluggage": 25958,
    "Ġdecrease": 4198,
    "weeks": 14319,
    "scotch": 25852,
    "Ġpunct": 8664,
    "has": 4013,
    "spirited": 19756,
    "Ġprocopius": 19734,
    "Ġriv": 10748,
    "Ġinhabitant": 19758,
    "Ġamerican": 5060,
    "Ġimpulse": 10027,
    "lected": 1634,
    "Ġcet": 6671,
    "Ġattracted": 8908,
    "province": 26073,
    "Ġbuttoned": 25369,
    "rown": 2190,
    "Ġantagonist": 26330,
    "practical": 17224,
    "Ġweal": 21923,
    "Ġnumbers": 2887,
    "Ġpictured": 16625,
    "mph": 20974,
    "retion": 9365,
    "uting": 15664,
    "engagement": 14462,
    "Ġhilariously": 25451,
    "iamond": 14592,
    "Ġregulations": 18592,
    "Ġconvert": 11846,
    "Ġtyphoons": 20237,
    "Ġfinds": 6300,
    "Ġrudeness": 17127,
    "bitt": 17488,
    "tempered": 13450,
    "Ġinvestigation": 9045,
    "reflect": 19867,
    "apprehension": 26115,
    "Ġthan": 736,
    "Ġointment": 21329,
    "Ġmach": 13860,
    "Ġsimple": 1618,
    "sus": 6229,
    "Ġunprecedented": 15859,
    "Ġtresses": 21178,
    "rev": 17758,
    "seriously": 18906,
    "Ġsuffocated": 20730,
    "Ġfogs": 25283,
    "igin": 3658,
    "Ġextravag": 11255,
    "Ġteacup": 16218,
    "Ġstiggs": 25793,
    "Ġsuccessful": 9926,
    "Ġugl": 12687,
    "Ġsupported": 9821,
    "Ġquartered": 20376,
    "Ġshelter": 17010,
    "Ġsatur": 1929,
    "acca": 23599,
    "Ġaccounting": 14574,
    "osen": 6854,
    "Ġhoist": 11981,
    "Ġriveted": 13622,
    "Ġmixed": 6974,
    "Ġpensive": 21477,
    "Ġb": 281,
    "pend": 6367,
    "scent": 13022,
    "rr": 17652,
    "Ġgroping": 13669,
    "Ġscorched": 17102,
    "Ġgardiner": 3243,
    "hither": 11495,
    "Ġreverend": 15263,
    "odecimo": 11446,
    "Ġsolitary": 5855,
    "Ġimplement": 3028,
    "acquired": 24298,
    "Ġwonder": 2116,
    "frankly": 20025,
    "whar": 15931,
    "can": 1232,
    "Ġwharves": 13509,
    "Ġsinusoidal": 4801,
    "quar": 7615,
    "anely": 17838,
    "Ġincreases": 3797,
    "coun": 10690,
    "Ġelixir": 26557,
    "Ġshooting": 11164,
    "lod": 15382,
    "Ġlouder": 13472,
    "build": 12192,
    "stately": 18024,
    "Ġembarr": 7445,
    "Ġcoun": 4176,
    "plendent": 21968,
    "Ġdoings": 18377,
    "Ġmemoirs": 26207,
    "superstitiousness": 25509,
    "Ġreckon": 19872,
    "Ġnight": 1462,
    "Ġmixing": 24937,
    "Ġborne": 6352,
    "uguese": 20734,
    "Ġpolynes": 16083,
    "$": 8,
    "isting": 5551,
    "excuse": 13385,
    "pike": 11517,
    "Ġoccasional": 7288,
    "Ġbengal": 18784,
    "Ġvalues": 2650,
    "Ġindependent": 9019,
    "Ġinfamous": 16368,
    "inted": 2647,
    "Ġdost": 7636,
    "Ġglitter": 25126,
    "Ġuncovered": 23435,
    "Ġpott": 21470,
    "Ġunwearied": 20605,
    "fulfilment": 26026,
    "Ġalthough": 4149,
    "Ġwolves": 25935,
    "Ġstained": 11655,
    "performances": 26007,
    "Ġinstead": 2790,
    "Ġger": 21594,
    "Ġportent": 12086,
    "various": 10400,
    "Ġsaved": 6691,
    "aves": 3600,
    "Ġjoyous": 14666,
    "senses": 25025,
    "Ġtrace": 6182,
    "Ġtrous": 10958,
    "Ġ24": 13197,
    "ortal": 6266,
    "Ġjealousy": 13580,
    "Ġmasking": 2416,
    "conjectures": 25181,
    "÷": 184,
    "were": 2556,
    "salis": 25150,
    "Ġsoon": 1227,
    "extracts": 22779,
    "manifested": 20529,
    "Ġbuild": 6474,
    "expressive": 24307,
    "Ġgeomet": 3194,
    "confirmation": 26090,
    "Ġcalcul": 3639,
    "Ġconvent": 11671,
    "Ġcanv": 7010,
    "dispositions": 25014,
    "satisfaction": 9995,
    "Ġeternity": 12283,
    "Ġimport": 1055,
    "Ġpelt": 15614,
    "coal": 12029,
    "yesterday": 10355,
    "Ġplutarch": 22610,
    "Ġres": 695,
    "Ġassure": 4417,
    "Ġjournal": 15222,
    "Ġtigers": 25759,
    "enjoyment": 17260,
    "Ġflat": 8228,
    "Ġexceed": 1343,
    "Ġthunder": 4824,
    "ol": 363,
    "Ġcontained": 7678,
    "Ġdragging": 14478,
    "confirm": 16809,
    "Ġdetermination": 9822,
    "herent": 2527,
    "Ġuproar": 22159,
    "watch": 6119,
    "igated": 15711,
    "hors": 9601,
    "Ġdiminish": 14748,
    "Ġstaggering": 20276,
    "Ġindisp": 18836,
    "aunt": 8370,
    "Ġtinted": 13825,
    "Ġcats": 8982,
    "Ġbour": 4876,
    "Ġevents": 4470,
    "folio": 10549,
    "Ġarchbishop": 18709,
    "Ġcus": 21346,
    "Ġexultation": 15175,
    "Ġcrisp": 12007,
    "Ġgrievous": 13265,
    "Ġcharted": 22254,
    "ĠĠĠĠĠĠĠĠĠĠĠĠĠĠĠĠĠ": 22952,
    "rity": 13779,
    "ordingly": 18519,
    "rimshander": 20659,
    "windibank": 24163,
    "Ġincensed": 18572,
    "mits": 13759,
    "Ġspeed": 2443,
    "Ġorbs": 22096,
    "abez": 10225,
    "gladness": 25195,
    "Ġenjoined": 18192,
    "acey": 7649,
    "Ġwel": 4524,
    "Ġrejoicing": 13425,
    "Ġunwelcome": 12786,
    "Ġimplicit": 19961,
    "awe": 20767,
    "Ġconsult": 6057,
    "Ġattempts": 10493,
    "Ġdispirited": 23885,
    "osition": 1372,
    "Ġallowance": 14392,
    "Ġwaterward": 23370,
    "Ġcomp": 723,
    "Ġanybody": 5314,
    "bouton": 17504,
    "leviathans": 19941,
    "system": 4676,
    "causing": 25519,
    "sailing": 14717,
    "Ġcheap": 13093,
    "Ġberyl": 20493,
    "Ġunctuousness": 17238,
    "hideous": 25408,
    "rimin": 2420,
    "Ġcostly": 23586,
    "Ġunobserved": 18253,
    "Ġsqueaking": 26276,
    "Ġfortunate": 6215,
    "ersburgh": 18210,
    "Ġphrenologists": 25609,
    "Ġlydia": 2370,
    "isticated": 1649,
    "ensibility": 22551,
    "brave": 19826,
    "Ġideal": 13125,
    "osop": 4403,
    "Ġcomplete": 4381,
    "Ġfoolish": 5980,
    "ud": 913,
    "Ġconvinced": 4203,
    "Ġhuff": 21493,
    "Ġjub": 22289,
    "Ġpreservation": 24631,
    "harrow": 20910,
    "Ġrounding": 16279,
    "utes": 5914,
    "Ġforc": 9230,
    "Ġ(": 595,
    "Ġcinque": 20489,
    "Ġdisappearing": 22537,
    "brain": 13691,
    "Ġwearily": 18180,
    "Ġstiff": 6992,
    "hall": 8085,
    "albatross": 15634,
    "Ġmurmuring": 23581,
    "oke": 1857,
    "Ġpursu": 3244,
    "Ġribbons": 24325,
    "Ġaffability": 14390,
    "Ġartistic": 18612,
    "Ġontario": 26206,
    "ackinaw": 22426,
    "hopper": 23717,
    "Ġascended": 8669,
    "Ġaccordingly": 6621,
    "enborough": 21288,
    "Ġdepress": 14051,
    "allowing": 24358,
    "Ġmacro": 25940,
    "crack": 19843,
    "Ġprofuse": 23568,
    "attacked": 23124,
    "Ġsummit": 7730,
    "ished": 1427,
    "Ġshivered": 14111,
    "Ġstrength": 4258,
    "Ġgrasping": 12170,
    "Ġbench": 7237,
    "jabez": 20935,
    "conditionally": 24835,
    "asked": 8915,
    "stall": 21649,
    "Ġrevolve": 19733,
    "Ġwhaling": 2783,
    "Ġfigured": 16646,
    "Ġmarvell": 7247,
    "Ġwarning": 9061,
    "Ġhouse": 1502,
    "Ġunaccountable": 7887,
    "Ġreeling": 18035,
    "landlord": 9843,
    "Ġunappe": 22022,
    "Ġdemoniacal": 20559,
    "Ġbandages": 24427,
    "Ġexistence": 4706,
    "Ġwhalemen": 3912,
    "Ġhurriedly": 11251,
    "Ġdiversion": 17200,
    "Ġrobe": 18458,
    "Ġfix": 2504,
    "Ġpersonified": 19180,
    "Ġlevelled": 11286,
    "bted": 7793,
    "Ġsilly": 7685,
    "Ġarsac": 11746,
    "Ġsauce": 15894,
    "length": 7135,
    "bru": 12443,
    "atches": 13849,
    "Ġrobins": 16256,
    "constellation": 24608,
    "Ġgallantry": 15107,
    "Ġsultry": 20291,
    "esley": 17922,
    "dough": 15338,
    "Ġsimilarity": 3170,
    "Ġanyways": 22524,
    "congreg": 25399,
    "narrowly": 20350,
    "obscure": 23101,
    "study": 15121,
    "none": 6961,
    "Ġdrunkard": 20180,
    "Ġmounts": 17808,
    "Ġlying": 4826,
    "Ġ100": 14366,
    "Ġbalance": 2020,
    "ively": 1336,
    "Ġunwell": 22021,
    "Ġ73": 24263,
    "ry": 804,
    "Ġinverted": 12642,
    "Ġdifference": 1488,
    "partly": 14604,
    "Ġheidelburgh": 11646,
    "Ġconcentrated": 15087,
    "upset": 23022,
    "?_âĢĿ": 12320,
    "Ġornaments": 17455,
    "Ġmood": 6277,
    "tarpaulins": 26407,
    "Ġcheshire": 13094,
    "Ġcascade": 20584,
    "Ġjoyfully": 19349,
    "Ġcomforters": 25801,
    "attend": 11102,
    "Ġeasiest": 23541,
    "Ġgrowled": 19286,
    "rushed": 10587,
    "Ġcombines": 1148,
    "resolutions": 26165,
    "Ġ67": 19663,
    "Ġconveying": 19717,
    "prom": 6509,
    "onness": 21257,
    "Ġpenny": 16316,
    "Ġmethods": 3163,
    "Ġsung": 23275,
    "ignified": 14492,
    "carb": 20812,
    "Ġdoor": 1738,
    "Ġrig": 4222,
    "Ġhy": 5625,
    "Ġbarrel": 23794,
    "Ġraised": 4659,
    "Ġcruellest": 19661,
    "Ġtapping": 10754,
    "Ġhorrify": 23822,
    "Ġoverlapping": 26240,
    "lane": 10708,
    "Ġweigh": 10895,
    "now": 548,
    "ship": 1392,
    "Ġpoltroon": 26600,
    "Ġreconciliation": 25293,
    "affect": 13216,
    "Ġfills": 12599,
    "Ġnervously": 19186,
    "Ġworth": 4415,
    "Ġstatements": 7515,
    "soc": 5175,
    "Ġerudite": 26353,
    "Ġpurchased": 12265,
    "gracechurch": 24582,
    "Ġsy": 490,
    "tstone": 21087,
    "untarily": 6313,
    "Ġspirit": 3726,
    "Ġthro": 5818,
    "Ġpossess": 3206,
    "snapping": 24850,
    "Ġpersuasion": 10501,
    "poles": 16212,
    "Ġlessen": 14534,
    "Ġkeep": 2353,
    "Ġangle": 8606,
    "Ġmasked": 3697,
    "Ġindefinitely": 25222,
    "itively": 21334,
    "Ġshrunk": 16720,
    "aming": 5829,
    "latter": 15386,
    "further": 7534,
    "bert": 4661,
    "altern": 17944,
    "dramatic": 19388,
    "Ġstiffest": 24827,
    "plans": 21962,
    "Ġparaph": 22124,
    "Ġresolves": 23649,
    "Ġkettle": 26234,
    "Ġrepl": 1590,
    "Ġlamb": 8817,
    "Ġdogs": 7741,
    "Ġaccuse": 14214,
    "Ġostlers": 25277,
    "awful": 23118,
    "Ġtying": 15476,
    "Ġbor": 5805,
    "Ġplata": 25120,
    "Ġverdant": 15004,
    "o": 83,
    "Ġtoller": 9094,
    "attached": 11939,
    "servant": 15038,
    "Ġstreet": 2958,
    "kl": 4865,
    "nay": 7136,
    "vult": 21116,
    "Ġachieve": 3676,
    "Ġdire": 865,
    "sincere": 16909,
    "sloop": 26146,
    "Ġunlabeled": 3801,
    "Ġtremor": 24767,
    "ses": 3032,
    "ĩ": 234,
    "Ġnovelist": 24776,
    "gressive": 2752,
    "[_": 5131,
    "Ġsanity": 24982,
    "tale": 10130,
    "Ġcongenial": 12415,
    "Ġalive": 4397,
    "Ġcoll": 8221,
    "Ġevaluate": 3062,
    "Ġminimax": 5858,
    "Ġfurlong": 18740,
    "Ġaye": 3354,
    "Ġsufferer": 16262,
    "Ġstumped": 24945,
    "taste": 10132,
    "Ġelect": 10844,
    "endeavouring": 15018,
    "Ġrecommending": 24333,
    "ige": 12685,
    "Ġcowards": 12578,
    "Ġwho": 612,
    "Ġequality": 16362,
    "Ġepo": 21622,
    "acup": 14282,
    "Ġtrees": 4200,
    "Ġcachalot": 17836,
    "Ġhelper": 24031,
    "instances": 13324,
    "rayed": 23565,
    "Ġrespons": 2683,
    "Ġmanage": 7640,
    "Ġatlantic": 7000,
    "maged": 15397,
    "ezing": 10576,
    "Ġshrine": 19534,
    "tumultuous": 20402,
    "Ġperil": 5557,
    "Ġhosea": 17334,
    "soled": 14334,
    "Ġmo": 628,
    "Ġpotential": 3621,
    "wild": 8771,
    "Ġassured": 4371,
    "Ġduplicity": 25332,
    "Ġnewfound": 22935,
    "urch": 3991,
    "Ġrelinqu": 12988,
    "Ġsupplied": 8946,
    "Ġunited": 6840,
    "Ġadequ": 10915,
    "Ġvineyards": 25109,
    "Ġquies": 18465,
    "Ġvaulted": 25171,
    "labour": 23918,
    "oun": 483,
    "Ġsidelong": 11440,
    "bey": 10316,
    "forced": 11033,
    "truck": 15444,
    "staking": 21651,
    "devouring": 24953,
    "Ġbra": 3259,
    "magnitude": 17251,
    "increasing": 20272,
    "Ġdefendants": 15144,
    "Ġlifted": 6985,
    "Ġskeletons": 16793,
    "Ġjewels": 12373,
    "Ġsingers": 23774,
    "rador": 19129,
    "Ġloveliness": 13612,
    "Ġwhe": 438,
    "Ġethere": 23956,
    "nel": 11507,
    "igan": 21702,
    "in": 262,
    "Ġcrazy": 8597,
    "Ġincarn": 11818,
    "darker": 24516,
    "ples": 6844,
    "Ġspringing": 10521,
    "Ġway": 1088,
    "Ġath": 15805,
    "Ġtargets": 4202,
    "asing": 5912,
    "bald": 16447,
    "Ġlectures": 17181,
    "Ġhopelessly": 16382,
    "Ġshaped": 15838,
    "ieties": 19025,
    "aged": 2605,
    "Ġsavag": 19377,
    "Ġthreads": 13122,
    "Ġislands": 6766,
    "Ġheightened": 8652,
    "onah": 3339,
    "neighboring": 20620,
    "less": 926,
    "avor": 14279,
    "Ġlanded": 7468,
    "Ġbeggar": 9352,
    "crews": 15045,
    "Ġunhappy": 5640,
    "Ġapothecary": 13663,
    "Ġcarelessly": 11122,
    "4": 24,
    "iteness": 4391,
    "ilent": 21723,
    "Ġrashness": 25461,
    "Ġendangered": 16306,
    "Ġthen": 666,
    "linked": 17595,
    "cceed": 4141,
    "Ġpermanent": 13635,
    "Ġane": 9184,
    "twinkle": 23703,
    "ingolstadt": 21306,
    "Ġalien": 14021,
    "Ġgrazed": 15837,
    "sided": 17666,
    "Ġsomewhat": 4897,
    "Ġcountry": 2530,
    "Ġprovision": 14827,
    "Ġtrained": 8504,
    "Ġautomation": 13281,
    "Ġgen": 5298,
    "Ġchap": 5934,
    "answers": 22144,
    "footed": 19692,
    "Ġbristles": 25845,
    "fold": 7545,
    "lances": 15387,
    "Ġdusky": 13553,
    "arthly": 8030,
    "Ġbreak": 2868,
    "Ġincess": 8432,
    "Ġcapst": 8600,
    "Ġirreparable": 20002,
    "Ġregression": 4408,
    "Ġtrains": 10949,
    "spe": 3561,
    "Ġcivil": 4678,
    "Ġdiminished": 16668,
    "Ġswim": 3821,
    "ropol": 10955,
    "developed": 15268,
    "Ġprevail": 13446,
    "inced": 3338,
    "Ġfortune": 4239,
    "east": 9118,
    "saturday": 14861,
    "somebody": 14566,
    "sorting": 17006,
    "Ġpitiful": 13243,
    "forward": 2186,
    "shoe": 14970,
    "Ġdavis": 25953,
    "Ġunperceived": 22041,
    "Ġrates": 1405,
    "Ġangrily": 9410,
    "Ġhonor": 5664,
    "Ġblazing": 11900,
    "jar": 17579,
    "machines": 8385,
    "emph": 21932,
    "emb": 11693,
    "cing": 1015,
    "Ġought": 3419,
    "Ġpantaloons": 20299,
    "september": 14039,
    "Ġhatchways": 24990,
    "Ġjovial": 19236,
    "Ġbridal": 14957,
    "udding": 11869,
    "ĠĠĠĠĠĠĠĠĠĠĠĠĠĠĠĠĠĠĠĠĠĠĠĠĠĠĠĠĠĠĠĠĠĠĠĠĠĠĠĠĠĠĠĠ": 12158,
    "illuminated": 17456,
    "Ġ1869": 19387,
    "masts": 19428,
    "Ġgreater": 3042,
    "Ġeuroclydon": 15300,
    "Ġdyspeps": 16498,
    "hush": 20908,
    "from": 1991,
    "wag": 21126,
    "Ġtw": 841,
    "Ġbegat": 18864,
    "Ġstaircase": 20099,
    "Ġintrusion": 12770,
    "Ġrenowned": 26195,
    "maker": 12497,
    "Ġply": 21455,
    "Ġmarch": 4080,
    "Ġdedicated": 19218,
    "cavity": 26127,
    "faint": 17547,
    "itories": 15553,
    "Ġcucumber": 21359,
    "Ġusual": 3943,
    "proper": 7470,
    "Ġconsideration": 5191,
    "Ġpassenger": 14372,
    "Ġend": 1474,
    "Ġabandoned": 8352,
    "Ġsunshine": 14496,
    "Ġpeg": 22692,
    "osely": 9268,
    "Ġaccommod": 14215,
    "learnt": 23527,
    "raged": 9214,
    "flame": 16640,
    "Ġprodigious": 8057,
    "Ġamazed": 14892,
    "Ġcharley": 19007,
    "rever": 21238,
    "sham": 9761,
    "Ġseem": 914,
    "ifle": 10893,
    "Ġextremely": 2667,
    "icest": 21567,
    "Ġburst": 4379,
    "Ġwhereof": 16106,
    "caves": 20818,
    "Ġapo": 9633,
    "Ġexactly": 2766,
    "Ġputs": 19033,
    "Ġfortunes": 12183,
    "pul": 8757,
    "everywhere": 23698,
    "gloves": 25146,
    "Ġtre": 2534,
    "Ġspectacle": 10499,
    "Ġmosses": 20166,
    "clut": 23153,
    "Ġplat": 8522,
    "Ġsupple": 22997,
    "Ġtwist": 11855,
    "Ġlav": 13953,
    "Ġconnivance": 25226,
    "Ġmembrane": 20507,
    "Ġendeav": 2955,
    "Ē": 211,
    "Ġsaid": 577,
    "Ġbegrim": 23020,
    "Ġbag": 5699,
    "Ġcigarette": 20658,
    "artic": 14218,
    "Ġvindictiveness": 25739,
    "Ġadver": 5641,
    "Ġunctuous": 10270,
    "appeared": 4280,
    "Ġhampshire": 15246,
    "tish": 17679,
    "Ġresumed": 11816,
    "Ġunallied": 22036,
    "anders": 18155,
    "Ġpomp": 12627,
    "Ġhyena": 24519,
    "ich": 471,
    "spoke": 11025,
    "ex": 624,
    "ollion": 19718,
    "Ġcontinental": 19708,
    "fugitive": 26132,
    "tumbled": 21093,
    "Ġvirtual": 11242,
    "Ġendued": 14080,
    "unctions": 18158,
    "Ġomin": 11580,
    "ptember": 10896,
    "hogs": 20085,
    "Ġspar": 10923,
    "harm": 13738,
    "Ġenraptured": 26502,
    "Ġinsulated": 23680,
    "Ġstifle": 18079,
    "Ġfollowed": 1794,
    "Ġpres": 9735,
    "Ġsanct": 15065,
    "Ġaccomplish": 14879,
    "unsuitable": 21897,
    "domestic": 19828,
    "Ġenvironments": 23940,
    "Ġsickbed": 24249,
    "wilful": 25152,
    "Ġdimmed": 24270,
    "Ġplates": 11009,
    "Ġslewed": 23388,
    "Ġevil": 3807,
    "Ġexciting": 23314,
    "igating": 21703,
    "Ġinvisible": 7326,
    "Ġfluctu": 5268,
    "Ġespe": 21158,
    "arp": 2026,
    "Ġpatentee": 25587,
    "itty": 3555,
    "Ġincalculable": 17463,
    "Ġscrut": 15956,
    "Ġroanoke": 22411,
    "Ġbarbed": 14837,
    "Ġsurviv": 13439,
    "Ġinsupportable": 13935,
    "Ġforeman": 23449,
    "articulate": 17398,
    "Ġutility": 23517,
    "Ġdisadvantage": 12895,
    "Ġviewing": 19267,
    "Ġpaw": 12625,
    "Ġwhatsoever": 18461,
    "ety": 3522,
    "narrative": 17322,
    "erxes": 21278,
    "Ġvehicle": 20141,
    "Ġwhistles": 24625,
    "organic": 25947,
    "watches": 14950,
    "Ġtime": 690,
    "?âĢĶ": 3468,
    "comb": 11039,
    "peculiarities": 13475,
    "isely": 4486,
    "est": 501,
    "Ġflashes": 11919,
    "Ġbedfellows": 23448,
    "Ġvoyagings": 19238,
    "Ġtroubles": 19442,
    "Ġpurpose": 2706,
    "mblies": 24609,
    "ocity": 8278,
    "Ġunknown": 4451,
    "Ġidle": 8253,
    "Ġforget": 2632,
    "Ġstig": 14006,
    "exam": 10978,
    "Ġintrepid": 11710,
    "Ġinserting": 19908,
    "changed": 7175,
    "Ġpercept": 14226,
    "Ġcroquet": 9965,
    "source": 11528,
    "Ġperchance": 15995,
    "Ġsoften": 23126,
    "storied": 18027,
    "Ġ(_": 3738,
    "ĠĠĠĠĠĠĠĠĠĠĠĠĠĠĠĠĠĠĠĠĠĠĠĠĠĠĠĠĠĠĠĠĠĠĠĠĠĠĠ": 19262,
    "irresistible": 18174,
    "ĠĠĠĠĠĠĠĠĠĠĠĠĠĠĠĠĠĠĠĠĠĠĠĠĠĠĠĠĠĠĠĠĠĠĠĠĠĠĠĠĠĠĠĠĠĠĠĠĠ": 20041,
    "Ġputting": 5327,
    "Ġint": 411,
    "Ġappointed": 20106,
    "Ġlayers": 814,
    "Ġwarring": 16867,
    "Ġfunny": 7637,
    "Ġconsiderably": 7714,
    "fired": 20862,
    "Ġpremature": 3727,
    "ject": 874,
    "Ġdisc": 943,
    "Ġcoron": 4462,
    "Ġhabitations": 24788,
    "Ġunnearable": 26518,
    "Ġrace": 5848,
    "Ġreturned": 2890,
    "Ġerection": 24006,
    "Ġnarration": 13507,
    "Ġbreadth": 10566,
    "Ġhours": 2820,
    "grounds": 11153,
    "Ġpainting": 13145,
    "Ġchild": 2258,
    "pleasant": 5875,
    "Ġwinc": 9645,
    "Ġdecorum": 16025,
    "particip": 23618,
    "surround": 16760,
    "Ġoffer": 4844,
    "Ġmeasured": 9807,
    "isc": 6240,
    "advance": 12161,
    "Ġeating": 8136,
    "Ġextracted": 16317,
    "Ġglimmered": 20174,
    "Ġdoorway": 14499,
    "Ġweighed": 8714,
    "Ġindistinct": 17411,
    "worship": 19390,
    "Ġcomplexity": 1694,
    "behold": 12883,
    "Ġbert": 4580,
    "Ġglens": 18850,
    "dancing": 12459,
    "Ġprepar": 7897,
    "Ġrabb": 4162,
    "begged": 18521,
    "Ġvari": 833,
    "churning": 21700,
    "conce": 8512,
    "Ġmile": 7151,
    "glimmer": 26323,
    "allied": 7409,
    "Ġoutstanding": 22320,
    "Ġpursuits": 12081,
    "Ġasph": 21902,
    "Ġdis": 694,
    "Ġpurchas": 19876,
    "Ġfordham": 21780,
    "Ġriver": 5411,
    "Ġlim": 2378,
    "Ġreward": 6145,
    "uncomfortable": 18163,
    "Ġdances": 10814,
    "hopeless": 16919,
    "Ġpurest": 14942,
    "Ġscrupled": 25052,
    "Ġfell": 1975,
    "embarr": 17295,
    "Ġsupport": 6728,
    "Ġwant": 1119,
    "Ġcabaco": 13171,
    "overcome": 19051,
    "Ġmerrily": 23734,
    "Ġwinter": 5220,
    "kish": 20936,
    "Ġwhip": 8453,
    "Ġfrantically": 23261,
    "Ġadmires": 19688,
    "Ġdisd": 7031,
    "sacrifice": 13496,
    "iction": 4267,
    "Ġexecuted": 9475,
    "Ġbeggars": 20632,
    "Ġstretched": 5920,
    "Ġsto": 1499,
    "flex": 24844,
    "Ġreasonable": 7252,
    "kerchief": 7524,
    "Ġdining": 6977,
    "swept": 19789,
    "Ġunreasonably": 17454,
    "rinted": 21046,
    "Ġcursory": 18860,
    "knowledge": 7477,
    "Ġmaggie": 26293,
    "Ġplace": 1648,
    "Ġdarcy": 1341,
    "Ġforeshadowing": 26594,
    "Ġcl": 554,
    "Ġnature": 2537,
    "Ġarisen": 11747,
    "Ġinformed": 6718,
    "othing": 6995,
    "inexplicable": 25809,
    "drown": 13708,
    "Ġcr": 2147,
    "Ġpreternatural": 12828,
    "tolerably": 21098,
    "Ġ109": 24416,
    "Ġracket": 22658,
    "Ġobserver": 11993,
    "Ġscarce": 8625,
    "Ġlashings": 25100,
    "Ġeaves": 15680,
    "oriental": 23723,
    "Ġpreserve": 7528,
    "istence": 2385,
    "Ġvia": 2380,
    "lee": 11588,
    "Ġchoked": 9267,
    "Ġfainted": 8796,
    "Ġdrowned": 9555,
    "Ġbasics": 13452,
    "obstructed": 15230,
    "Ġincorruption": 26310,
    "Ġretribution": 16285,
    "Ġinvisibly": 24814,
    "Ġstr": 762,
    "Ġdismissed": 12897,
    "Ġarg": 4766,
    "turkish": 24533,
    "Ġconjecture": 9535,
    "deception": 22149,
    "condem": 16347,
    "orte": 14187,
    "Ġsherlock": 3892,
    "uring": 817,
    "pping": 1425,
    "Ġspinning": 15055,
    "Ġtransplanted": 22445,
    "oney": 3053,
    "shout": 22456,
    "Ġenemies": 9041,
    "Ġreminiscences": 26271,
    "Ġamongst": 8962,
    "Ġcompares": 20169,
    "Ġbuoy": 8004,
    "Ġactual": 3739,
    "sufficiently": 14984,
    "Ġrichest": 26213,
    "Ġbaby": 6638,
    "garet": 9600,
    "Ġjoky": 18402,
    "olence": 10233,
    "Ã¦us": 14819,
    "increase": 20271,
    "Ġalarming": 14784,
    "Ġtap": 12531,
    "conscience": 14863,
    "Ġjourneys": 19478,
    "Ġreturning": 5326,
    "Ġwer": 12557,
    "ishnoo": 10957,
    "Ġcaptains": 7456,
    "Ġacqu": 1417,
    "separation": 25227,
    "unusual": 21883,
    "pervading": 18960,
    "osque": 22266,
    "pull": 6796,
    "dw": 3335,
    "riages": 10245,
    "Ġintervene": 25481,
    "lour": 15384,
    "Ġsmell": 7215,
    "Ġfrance": 7681,
    "Ġstil": 15725,
    "Ġhideousness": 16917,
    "cracy": 24691,
    "uber": 15448,
    "Ġdone": 1816,
    "Ġdeparted": 5562,
    "ours": 3427,
    "ogr": 18674,
    "Ġice": 3605,
    "Ġprosperity": 20260,
    "Ġboarders": 16602,
    "Ġwicked": 5961,
    "empl": 5724,
    "discover": 10542,
    "sm": 3436,
    "Ġunconditional": 15849,
    "leo": 21367,
    "woof": 21142,
    "Ġey": 8135,
    "de": 459,
    "Ġtooks": 23328,
    "bit": 3932,
    "emin": 8472,
    "b": 70,
    "distraction": 24202,
    "Ġspecksnyder": 17406,
    "keeper": 5597,
    "Ġplaint": 10328,
    "endeavour": 17032,
    "Ġskil": 14355,
    "Ġratt": 7881,
    "Ġkindliness": 23297,
    "Ġtomahawk": 7538,
    "maj": 18802,
    "Ġvindict": 13609,
    "Ġintu": 12768,
    "Ġpig": 5705,
    "Ġconsisting": 8974,
    "iven": 1236,
    "Ġtouches": 20573,
    "Ġpaths": 2567,
    "proposal": 18762,
    "Ġhonestly": 19975,
    "ceased": 21629,
    "uded": 6287,
    "Ġwitty": 21295,
    "Ġmaw": 15544,
    "ica": 10201,
    "Ġkicked": 10584,
    "Ġbr": 1073,
    "perse": 15904,
    "foreign": 18545,
    "Ġreveal": 11201,
    "Ġduncan": 13465,
    "Ġrifled": 21983,
    "Ġinfinity": 23284,
    "Ġminister": 18753,
    "Ġeleg": 6193,
    "suggested": 17302,
    "Ġreddening": 25971,
    "Ġretrogress": 23076,
    "Ġabstract": 17184,
    "rove": 21536,
    "command": 6577,
    "Ġfigures": 8633,
    "dum": 17520,
    "ensing": 12901,
    "paralleled": 14513,
    "Ġdigest": 24648,
    "Ġrnns": 2392,
    "Ġswell": 8952,
    "Ġdangers": 12358,
    "lo": 682,
    "Ġtraverse": 18893,
    "Ġspare": 5101,
    "Ġferocious": 17422,
    "Ġpray": 3899,
    "Ġaddresses": 3770,
    "Ġargue": 16785,
    "ethe": 9679,
    "red": 398,
    "principle": 10653,
    "Ġrabbit": 4287,
    "desolation": 20462,
    "extric": 22776,
    "attending": 18918,
    "Ġintimately": 24801,
    "Ġstirring": 10582,
    "Ġmind": 1617,
    "Ġpet": 4584,
    "Ġhes": 6251,
    "Ġgoose": 5938,
    "Ġeng": 1161,
    "Ġdoubts": 8582,
    "Ġtreatment": 12076,
    "Ġsarat": 21230,
    "commander": 16989,
    "forest": 22522,
    "Ġcommission": 6713,
    "Ġeffusion": 22490,
    "Ġberth": 8683,
    "Ġunexpected": 6841,
    "Ġsch": 13838,
    "Ġcountenance": 3969,
    "ppers": 7617,
    "Ġstaggered": 9542,
    "Ġprojected": 16873,
    "Ġtested": 23214,
    "Ġdrinking": 12173,
    "Ġdelirium": 10407,
    "Ġlit": 6247,
    "Ġoutlandish": 12843,
    "Ġlifts": 25359,
    "Ġexpectations": 13147,
    "finally": 9502,
    "Ġthick": 3784,
    "Ġxliv": 23412,
    "Ġreception": 9842,
    "appalled": 18761,
    "Ġsucceed": 4542,
    "Ġperilously": 24507,
    "Ġseeking": 7036,
    "took": 6165,
    "q": 85,
    "buttons": 22404,
    "izz": 7613,
    "Ġassembly": 10645,
    "Ġunass": 14118,
    "Ġlinks": 13958,
    "Ġdeceiving": 21842,
    "Ġwill": 678,
    "viii": 12025,
    "Ġapprobation": 10987,
    "told": 7811,
    "Ġstairs": 5541,
    "ithmetic": 18064,
    "Ġblessings": 24178,
    "Ġgrotesque": 26331,
    "Ġtransparency": 10679,
    "steaks": 23966,
    "pile": 17631,
    "tall": 17675,
    "Ġsympathy": 6347,
    "Ġsanction": 20029,
    "Ġsoothing": 8173,
    "university": 25984,
    "Ġheading": 8938,
    "Ġreckoned": 24743,
    "ages": 828,
    "Ġrings": 11705,
    "Ġbitterest": 12406,
    "Ġloops": 8856,
    "Ġdegrad": 2587,
    "circled": 24189,
    "Ġorganize": 8994,
    "Ġmanor": 14199,
    "Ġregimentals": 19860,
    "Ġso": 435,
    "Ġchests": 19674,
    "arus": 13915,
    "Ġimpression": 5732,
    "avast": 8900,
    "Ġspouter": 12803,
    "Ġcrawled": 17045,
    "athered": 6972,
    "Ġhatch": 7848,
    "Ġaggregate": 25678,
    "atisf": 21266,
    "Ġamendment": 26025,
    "Ġpostpone": 17310,
    "Ġelijah": 9103,
    "Ġunseason": 22056,
    "Ġelimin": 16111,
    "Ġcolds": 23761,
    "enges": 13059,
    "Ġbay": 9171,
    "Ġhitherto": 5880,
    "Ġvict": 3763,
    "Ġforests": 13596,
    "Ġtrespass": 23602,
    "nephew": 26399,
    "imble": 10860,
    "Ġdeemed": 7614,
    "finer": 17548,
    "Ġcomfits": 21856,
    "impl": 21710,
    "Ġaccumulates": 2889,
    "Ġparad": 2843,
    "hour": 7339,
    "Ġnative": 4639,
    "Ġtogether": 1878,
    "Ġcrib": 21351,
    "Ġrapidly": 3487,
    "anywhere": 14684,
    "Ġsales": 12812,
    "Ġalgorithm": 760,
    "Ġart": 746,
    "Ġnervousness": 23559,
    "Ġaltered": 7392,
    "sounding": 24795,
    "jur": 17580,
    "Ġstranded": 9778,
    "Ġstands": 5259,
    "infl": 15490,
    "varied": 23188,
    "Ġpriv": 4181,
    "Ġdens": 21427,
    "Ġwake": 4749,
    "Ġappend": 18358,
    "spouter": 22737,
    "Ġinfirm": 19018,
    "serve": 13052,
    "Ġpassing": 4313,
    "Ġmagnanim": 14475,
    "Ġprodu": 1205,
    "Ġjack": 4651,
    "observed": 7674,
    "myster": 16265,
    "Ġresolve": 13174,
    "------": 12138,
    "silver": 19693,
    "atively": 2694,
    "orated": 12596,
    "Ġremoter": 20109,
    "pivot": 21033,
    "arrange": 23769,
    "Ġoutermost": 22323,
    "ĠĠĠĠĠĠĠĠĠĠĠĠĠĠĠĠĠĠĠĠĠĠĠĠĠĠĠĠĠĠĠĠĠĠĠĠĠĠĠĠĠĠĠĠĠ": 9955,
    "Ġsuicide": 12791,
    "Ġgabriel": 7595,
    "Ġundeserving": 18272,
    "Ġbenevol": 5962,
    "Ġturbulence": 26599,
    "Ġgul": 7860,
    "Ġcompose": 12907,
    "Ġunfitted": 24110,
    "Ġflag": 7241,
    "Ġsteamer": 17191,
    "Ġmusic": 5269,
    "Ġblasphe": 17410,
    "Ġensl": 19277,
    "Ġinjurious": 24273,
    "fortunately": 9454,
    "Ġpict": 3499,
    "pents": 11515,
    "Ġpromontory": 11945,
    "Ġprejud": 6850,
    "Ġunquestionable": 26223,
    "business": 5610,
    "image": 9689,
    "bered": 4502,
    "Ġgenerating": 12856,
    "Ġleagues": 9224,
    "hug": 17565,
    "Ġexecute": 7504,
    "disaster": 23495,
    "Ġancho": 15607,
    "mightily": 24105,
    "amples": 1821,
    "_;": 6642,
    "Ġpri": 5814,
    "Ġnavy": 14919,
    "cousins": 20121,
    "Ġshame": 6410,
    "Ġfrancis": 26064,
    "unlike": 18159,
    "cery": 20810,
    "Ġploughing": 26261,
    "usations": 15946,
    "Ġconver": 803,
    "Ġpom": 21454,
    "Ġunprinciple": 18258,
    "Ġheadache": 22901,
    "Ġallegro": 25795,
    "Ġpaternal": 16376,
    "Ġstrand": 11832,
    "hook": 12057,
    "bowing": 24454,
    "Ġliberally": 16832,
    "Ġsee": 801,
    "Ġravings": 18647,
    "Ġ31": 12135,
    "Ġboasting": 19939,
    "agatha": 21912,
    "carpet": 25203,
    "learn": 2301,
    "Ġcrown": 5289,
    "Ġdozen": 8186,
    "Ġintentions": 10610,
    "baggage": 24927,
    "Ġsatisfied": 4170,
    "excepting": 19709,
    "Ġcities": 17829,
    "Ġusage": 9734,
    "Ġhappening": 14386,
    "Ġsincer": 13071,
    "ę": 218,
    "Ġaromatic": 25926,
    "Ġconfidential": 9091,
    "Ġcele": 9903,
    "Ġbordering": 17231,
    "Ġmachinery": 20488,
    "consist": 14818,
    "Ġhoneymoon": 25646,
    "Ġbrim": 12981,
    "gu": 3956,
    "Ġhalting": 16277,
    "isters": 11924,
    "impenet": 18056,
    "'s": 2466,
    "Ġchick": 22251,
    "separately": 25228,
    "Ġhindrance": 25221,
    "Ġevidence": 5270,
    "Ġadagrad": 2903,
    "Ġelephant": 8256,
    "commanders": 16991,
    "Ġsymp": 4500,
    "Ġthenceforth": 25183,
    "whel": 7664,
    "Ġnewly": 9341,
    "Ġgentlemen": 3644,
    "wait": 11322,
    "Ġdistricts": 20266,
    "Ġdeath": 2041,
    "expectations": 24279,
    "Ġdreaminess": 23944,
    "pursue": 24976,
    "cob": 10089,
    "Ġconstitutional": 25128,
    "Ġnowhere": 12891,
    "tales": 17688,
    "ect": 380,
    "rugg": 15900,
    "Ġheels": 10852,
    "Ġrepresentation": 14409,
    "Ġnur": 5710,
    "Ġvillage": 5774,
    "Ġsadly": 7301,
    "Ġindication": 22955,
    "Ġbigness": 19763,
    "nurtured": 25525,
    "Ġjavan": 24999,
    "Ġ]": 15462,
    "opposite": 19931,
    "inv": 8402,
    "Ġargemone": 24277,
    "Ġcoal": 18594,
    "Ġinterested": 6458,
    "Ġinstantly": 3593,
    "Ġbrigs": 20325,
    "Ġnic": 7375,
    "Ġinert": 15626,
    "apsed": 6296,
    "ief": 2044,
    "Ġscept": 15506,
    "cely": 3576,
    "had": 1949,
    "Ġsect": 17753,
    "Ġsquared": 1381,
    "Ġornam": 15868,
    "Ġhateful": 19716,
    "Ġlandowner": 23384,
    "Ġmature": 17801,
    "Ġstruct": 2784,
    "Ġnodded": 11974,
    "Ġhearties": 18967,
    "cool": 19189,
    "Ġarchangel": 8544,
    "omited": 21644,
    "nns": 1892,
    "Ġcharacteristic": 12052,
    "Ġliter": 8816,
    "Ġbreaks": 13189,
    "Ġsum": 2698,
    "rigged": 17063,
    "Ġuser": 15920,
    "slave": 16897,
    "Ġsad": 3867,
    "front": 12175,
    "masters": 16836,
    "stories": 18026,
    "occurrences": 26333,
    "Ġguidance": 9420,
    "Ġstrainings": 24628,
    "orted": 4601,
    "connect": 1292,
    "ideas": 18582,
    "Ġalbert": 12711,
    "philosop": 9570,
    "Ġdecline": 9290,
    "Ġpovels": 22595,
    "Ġcorrespond": 6210,
    "Ġwails": 21299,
    "Ġrichness": 19313,
    "Ġflea": 23776,
    "Ġmarching": 16698,
    "Ġparticularly": 5055,
    "fairly": 17222,
    "Ġcanopy": 18322,
    "Ġconc": 1839,
    "pane": 10123,
    "Ġstreaked": 19115,
    "Ġdelivery": 18976,
    "name": 6795,
    "Ġbeards": 21755,
    "Ġwarden": 17227,
    "commission": 22822,
    "Ġpardon": 5727,
    "una": 21873,
    "alter": 10828,
    "fellows": 12278,
    "Ġtamely": 24980,
    "dun": 17518,
    "Ġnaked": 8127,
    "Ġgaol": 19570,
    "Ġassertions": 19950,
    "Ġcott": 3711,
    "//": 11465,
    "Ġpooh": 18604,
    "=": 33,
    "chosen": 21698,
    "Ġcombinations": 22855,
    "Ġpaused": 5416,
    "feather": 16050,
    "raid": 3283,
    "!âĢĿ": 847,
    "commence": 19995,
    "waistcoat": 17364,
    "Ġsacri": 18329,
    "Ġpens": 21462,
    "Ġstigma": 25792,
    "upper": 11541,
    "Ġabandon": 12262,
    "Ġclaims": 13377,
    "Ġclothing": 18426,
    "itting": 1151,
    "Ġoriginal": 6103,
    "ted": 792,
    "Ġpreser": 6041,
    "Ġdismay": 11813,
    "Ġeulogy": 26472,
    "Ġtimber": 13354,
    "Ġdebts": 8036,
    "Ġtinge": 25090,
    "Ġlosing": 10918,
    "begin": 8887,
    "Ġestab": 6316,
    "Ġmalacca": 24393,
    "ceremony": 20593,
    "together": 3557,
    "sleepy": 24728,
    "Ġdiabolism": 25515,
    "barrels": 15044,
    "Ġsatir": 18794,
    "Ġlun": 7856,
    "Ġfable": 15581,
    "Ġendurance": 23140,
    "cried": 8728,
    "Ġwomen": 4750,
    "Ġbottled": 23798,
    "fi": 12466,
    "Ġlaure": 16911,
    "Ġrefres": 14338,
    "Ġlegitimate": 20644,
    "Ġodious": 12155,
    "lested": 14886,
    "Ġirrespective": 23378,
    "Ġhailing": 11697,
    "Ġattained": 14081,
    "severe": 21823,
    "Ġdeclares": 16994,
    ";": 31,
    "Ġlandau": 16423,
    "Ġbefriend": 18084,
    "Ġevenings": 18755,
    "eyed": 11489,
    "self": 617,
    "Ġclosely": 6488,
    "Ġembatt": 18844,
    "Ġimprecations": 25821,
    "Ġlongbourn": 3509,
    "âĢĶ.": 11759,
    "Ġmaybe": 12954,
    "Ġyourself": 2591,
    "Ġincluded": 8959,
    "_âĢĶâĢĿ": 20765,
    "gl": 3293,
    "Ġruffled": 25837,
    "insult": 16283,
    "Ġapparently": 6778,
    "Ġmoccas": 22438,
    "Ġsponge": 26004,
    "Ġfish": 2708,
    "Ġmedd": 15543,
    "ending": 1989,
    "Ġmult": 1022,
    "comfortably": 16877,
    "Ġbrisk": 9806,
    "Ġabsolutely": 4858,
    "Ġfe": 491,
    "Ġbore": 5078,
    "Ġapp": 494,
    "baden": 25616,
    "Ġbreathlessly": 24283,
    "treated": 21097,
    "Ġrendered": 5773,
    "Ġsermons": 20197,
    "left": 6975,
    "castle": 3351,
    "Ġqu": 607,
    "Ġeaten": 14848,
    "Ġscr": 11770,
    "?--": 15307,
    "ially": 9249,
    "Ġlapl": 19780,
    "Ġnathan": 21529,
    "ouder": 17902,
    "pipe": 8700,
    "suffer": 24329,
    "Ġenables": 724,
    "ber": 884,
    "Ġmoving": 1676,
    "Ġsynthe": 26008,
    "Ġchaos": 17011,
    "bench": 16805,
    "Ġnapoleon": 20560,
    "asses": 7017,
    "delirious": 19508,
    "Ġfancies": 10426,
    "Ġhebrew": 13991,
    "Ġsignals": 10588,
    "friends": 8306,
    "nowledge": 10292,
    "Ġtub": 7146,
    "whose": 6851,
    "Ġfoot": 3165,
    "Ġremembered": 5277,
    "ulated": 6030,
    "Ġsmith": 16068,
    "Ġtreas": 7357,
    "Ġlastly": 16208,
    "Ġfaults": 12217,
    "Ġobeyed": 12221,
    "Ġfuller": 11158,
    "Ġage": 3896,
    "Ġdrags": 16943,
    "Ġbankers": 24304,
    "Ġextant": 18696,
    "Ġminim": 1322,
    "urpr": 2286,
    "Ġcaulk": 25441,
    "ditch": 17530,
    "Ġshrinking": 14807,
    "otam": 21802,
    "iger": 8448,
    "Ġrepresentations": 1875,
    "Ġencoding": 4774,
    "letters": 13180,
    "spass": 18688,
    "Ġsupper": 4664,
    "Ġceti": 24772,
    "Ġreliably": 22881,
    "Ġculprit": 26173,
    "espe": 3500,
    "Ġpresence": 5030,
    "rack": 18013,
    "former": 11752,
    "Ġtrample": 20330,
    "judges": 19576,
    "Ġmoves": 14234,
    "dilig": 17285,
    "imodal": 17450,
    "Ġefforts": 11805,
    "made": 4808,
    "Ġdives": 17892,
    "minds": 24235,
    "stand": 629,
    "Ġintend": 12769,
    "ardy": 22160,
    "perceived": 8862,
    "blue": 13697,
    "Ġeaglet": 19307,
    "Ġcarelessness": 13080,
    "Ġdegenerated": 20509,
    "toller": 20675,
    "Ġprosperous": 15174,
    "Ġquant": 6424,
    "cial": 2646,
    "thrusting": 20262,
    "stem": 570,
    "Ġvicious": 24403,
    "communication": 25881,
    "Ġsnail": 19302,
    "Ġcorrect": 2428,
    "8": 28,
    "Ġ{": 21155,
    "Ġbeside": 5192,
    "Ġimpenitent": 26550,
    "ureau": 10229,
    "Ġvarious": 3510,
    "rapid": 12675,
    "Ġcamel": 25350,
    "âĢĿ--": 21817,
    "Ġwaifing": 25244,
    "Ġfrock": 10492,
    "holmes": 4429,
    "Ġfreckled": 18961,
    "ors": 854,
    "Ġkith": 22196,
    "Ġcabman": 14607,
    "Ġdirection": 1793,
    "Ġdialogue": 12408,
    "spout": 7923,
    "Ġauto": 23326,
    "sequ": 2398,
    "Ġatonement": 21946,
    "Ġvortex": 26210,
    "Ġvult": 12757,
    "itute": 9654,
    "Ġforeb": 12008,
    "sively": 13789,
    "axing": 18548,
    "unbidden": 21898,
    "summoned": 26593,
    "Ġhumorousness": 25378,
    "ption": 7397,
    "Ġfifty": 4621,
    "Ġexceptional": 19374,
    "character": 6332,
    "ong": 537,
    "Ġcomprising": 16072,
    "Ġconceivable": 16615,
    "larking": 17596,
    "Ġenslaved": 26315,
    "Ġauthorized": 16737,
    "break": 6102,
    "confused": 19642,
    "Ġposs": 1614,
    "Ġcreep": 22728,
    "Ġdiffidence": 14661,
    "links": 20960,
    "Ġsailing": 5324,
    "Ġ65": 24368,
    "ports": 13777,
    "Ġbloss": 19259,
    "Ġhesitation": 13445,
    "ishop": 9745,
    "Ġprescribed": 26011,
    "Ġincludes": 2011,
    "ij": 7801,
    "Ġabout": 634,
    "Ġformidable": 8220,
    "Ġglove": 14493,
    "masterly": 24530,
    "stud": 8824,
    "catherine": 7128,
    "Ġdeprec": 15762,
    "Ġ61": 24364,
    "vest": 6231,
    "roc": 9677,
    "Ġleaky": 2344,
    "uneasy": 23686,
    "Ġslaught": 23171,
    "Ġearly": 2078,
    "Ġstation": 5299,
    "Ġblinded": 13274,
    "Ġperish": 8878,
    "thirty": 12767,
    "Ġpreface": 18368,
    "Ġmatter": 1732,
    "Ġsternly": 16717,
    "Ġintrusted": 21996,
    "desirable": 23813,
    "Ġgermany": 25786,
    "Ġarist": 14162,
    "itors": 2913,
    "Ġinscriptions": 20012,
    "Ġversion": 10632,
    "Ġsoftness": 18919,
    "charming": 15710,
    "Ġsimul": 1806,
    "stains": 11640,
    "Ġcook": 3714,
    "«": 109,
    "ill": 447,
    "Ġgover": 2457,
    "Ġentertained": 10001,
    "Ġtrotting": 19979,
    "Ġindignantly": 16941,
    "idered": 4551,
    "necess": 4896,
    "Ġreverse": 16984,
    "Ġagonizing": 17241,
    "change": 6392,
    "whips": 22242,
    "Ġfigure": 4204,
    "Ġgave": 2215,
    "Ġref": 894,
    "ac": 743,
    "Ġundiscernible": 22072,
    "Ġdrinks": 24282,
    "Ġconverse": 11847,
    "Ġaltitude": 26204,
    "Ġcharitable": 23272,
    "pard": 9621,
    "Ġnoted": 15834,
    "Ġicelandic": 25887,
    "Ġtraps": 23084,
    "Ġrefuge": 8539,
    "tain": 561,
    "Ġcreatures": 4136,
    "Ġnewfoundland": 26571,
    "engthen": 14461,
    "deduction": 23670,
    "accompanied": 12426,
    "Ġcomplacency": 19451,
    "Ġalph": 9698,
    "Ġcoronation": 13338,
    "money": 8753,
    "ders": 8075,
    "Ġinanimate": 13936,
    "Ġcable": 11583,
    "Ë": 140,
    "Ġclasping": 20212,
    "Ġconge": 15750,
    "uce": 11538,
    "earliest": 20123,
    "Ġconfederate": 17356,
    "retaining": 21248,
    "ĠâĢľ_": 6697,
    "Ġclutch": 15056,
    "Ġespecial": 26412,
    "apothe": 22339,
    "Ġpeaked": 2294,
    "Ġprop": 1681,
    "neighb": 16027,
    "Ġonset": 12715,
    "Ġroads": 13293,
    "Ġremained": 3145,
    "Ġshrimp": 24159,
    "Ġsnarled": 25715,
    "Ġordered": 5833,
    "adays": 14016,
    "Ġphase": 14474,
    "scra": 13023,
    "dick": 11481,
    "Ġfrantic": 7957,
    "remember": 7261,
    "Ġappearing": 9844,
    "Ġshoe": 14568,
    "varying": 13807,
    "Ġrail": 7225,
    "Ġcommanders": 23871,
    "understand": 1122,
    "test": 13795,
    "Ġstilly": 25975,
    "Ġusing": 715,
    "harb": 9126,
    "Ġers": 15463,
    "Ġblasted": 7938,
    "insufficient": 15492,
    "Ġparticip": 16135,
    "¡": 99,
    "Ġbery": 13901,
    "gar": 5615,
    "Ġinterven": 10999,
    "Ġtract": 21168,
    "erce": 6127,
    "eric": 3471,
    "Ġsanctified": 25883,
    "Ġgossiping": 26245,
    "lot": 3210,
    "sin": 21051,
    "Ġhoof": 23356,
    "Ġconvenience": 11333,
    "Ġmastery": 23998,
    "Ġcaulking": 20296,
    "pierced": 26142,
    "veil": 18045,
    "Ġ87": 19713,
    "melted": 25207,
    "gaining": 20127,
    "aper": 4998,
    "Ġdiscretion": 10350,
    "Ġbedford": 7474,
    "Ġwit": 3842,
    "constable": 24606,
    "Ġpurp": 2390,
    "towns": 24855,
    "backed": 9869,
    "Ġcoolly": 9775,
    "Ġperemptorily": 17370,
    "Ġformless": 22831,
    "Ġfierce": 7436,
    "Ġmerest": 14033,
    "Ġfreshet": 25704,
    "Ġperpetually": 17071,
    "liament": 16221,
    "bride": 19202,
    "Ġcurls": 23004,
    "Ġbold": 5293,
    "disappo": 8987,
    "cele": 21628,
    "Ġappointment": 10649,
    "ony": 3034,
    "heart": 4523,
    "Ġdepicted": 14280,
    "delighted": 10565,
    "Ġling": 7376,
    "Ġscound": 12842,
    "meetings": 20381,
    "allowance": 16826,
    "Ġruskin": 25810,
    "Ġgout": 21599,
    "ena": 11571,
    "Ġslime": 23165,
    "olog": 1100,
    "Ġant": 4344,
    "Ġconsisted": 10421,
    "impressed": 12696,
    "ont": 2620,
    "Ġovertake": 15976,
    "Ġprofit": 14587,
    "actions": 8910,
    "accurately": 25862,
    "Ġcliffs": 15974,
    "Ġripple": 25505,
    "Ġbanker": 8670,
    "chron": 21697,
    "buffalo": 20566,
    "Ġcommunicating": 16891,
    "waiting": 12225,
    "Ġoffering": 3010,
    "tered": 2228,
    "Ġflirt": 14426,
    "thank": 4949,
    "confidence": 16810,
    "otent": 8836,
    "Ġfishy": 16525,
    "ouched": 4635,
    "Ġcoffins": 13255,
    "duing": 22415,
    "transform": 8050,
    "sentimental": 25682,
    "Ġnoiseless": 10359,
    "becomes": 22501,
    "Ġresides": 22544,
    "guinea": 16675,
    "Ġguessed": 11284,
    "Ġvineyarder": 25607,
    "Ġdelicious": 14795,
    "Ġclapham": 17268,
    "Ġsuperstitions": 17073,
    "Ġunwonted": 15010,
    "inclined": 10642,
    "Ġguilty": 7249,
    "nature": 5360,
    "breadth": 20279,
    "Ġcrav": 19175,
    "loaded": 22514,
    "excited": 13384,
    "setting": 13290,
    "cture": 15669,
    "countenance": 6924,
    "g": 75,
    "atived": 21265,
    "Ġunravel": 26216,
    "Ġswarming": 16273,
    "Ġmisfortunes": 7042,
    "itheat": 21341,
    "Ġug": 8141,
    "Ġhired": 10180,
    ";âĢĶ": 3751,
    "Ġdeaf": 12726,
    "Ġhosts": 19942,
    "Ġfocus": 4235,
    "cating": 20804,
    "wants": 21133,
    "Ġdarkened": 16436,
    "Ġportcullis": 26605,
    "Ġconfirmation": 17213,
    "Ġveteran": 17453,
    "us": 531,
    "Ġadm": 2399,
    "Ġunlab": 3790,
    "Ġjuggling": 20442,
    "Ġmisgiv": 14348,
    "snap": 24849,
    "Ġegg": 8823,
    "Ġphysi": 9991,
    "vere": 4883,
    "Ġmoran": 9344,
    "fab": 13719,
    "gather": 20877,
    "Ġvictor": 5125,
    "ullen": 8235,
    "Ġlect": 9223,
    "Ġstandard": 14498,
    "Ġlurch": 21558,
    "Ġstole": 7953,
    "isturbed": 18298,
    "Ġtweezers": 26558,
    "erns": 8782,
    "Ġrecounted": 22741,
    "Ġdistrustful": 25057,
    "Ġlofty": 6218,
    "Ġinward": 11610,
    "Ġstrives": 23695,
    "Ġjabez": 11769,
    "crossed": 16635,
    "Ġproductions": 22949,
    "entering": 17979,
    "dish": 12457,
    "Ġlionel": 25287,
    "Ġconcentric": 20078,
    "Ġowen": 15098,
    "Ġoverwrites": 5032,
    "ice": 589,
    "lucky": 24545,
    "confess": 12180,
    "sticking": 21663,
    "Ġwondrous": 4734,
    "illar": 5100,
    "regularization": 3516,
    "Ġbottles": 16573,
    "Ġchallenge": 25472,
    "merged": 11195,
    "Ġfame": 21409,
    "Ġrequired": 7222,
    "Ġactivity": 7920,
    "Ġexpect": 2304,
    "dipped": 20839,
    "brimmed": 14590,
    "Ġxxiv": 24477,
    "sheet": 16289,
    "Ġgreatest": 4091,
    "oquence": 11388,
    "Ġdenote": 19335,
    "Ġweather": 3994,
    "Ġhospital": 15042,
    "Ġdav": 15594,
    "03": 20750,
    "Ġbun": 6007,
    "Ġrequiring": 2921,
    "stupid": 12681,
    "Ġblot": 9815,
    "tumultuously": 25614,
    "skill": 24487,
    "Ġcould": 703,
    "ulty": 22571,
    "Ġswing": 13041,
    "Ġmule": 13865,
    "baned": 17498,
    "felt": 5889,
    "Ġsalted": 14759,
    "Ġgourmand": 26468,
    "Ġbidden": 24647,
    "Ġclever": 7055,
    "Ġrecollections": 10515,
    "Ġquoted": 22419,
    "jug": 17582,
    "poss": 4778,
    "cannibals": 25585,
    "Ġsupernatural": 9876,
    "Ġhomeward": 9395,
    "Ġobliter": 14325,
    "Ġfeared": 5931,
    "surd": 6933,
    "Ġsupplying": 19801,
    "Ġslightest": 6092,
    "Ġobtaining": 16136,
    "Ġbubbling": 17329,
    "Ġepis": 19985,
    "Ġsupposition": 9820,
    "Ġsacrific": 15020,
    "tural": 21069,
    "Ġknowledge": 1444,
    "ĠâĢľâĢĺ": 8505,
    "Ġceasing": 23760,
    "Ġcontext": 1748,
    "Ġprotecting": 24687,
    "Ġknitted": 19592,
    "Ġtep": 21164,
    "Ġcherry": 16937,
    "amid": 12729,
    "Ġtangled": 13830,
    "Ġcomprises": 22576,
    "Ġbabies": 19695,
    "lungs": 26136,
    "overfitting": 13105,
    "laid": 10112,
    "Ġthis": 382,
    "inder": 9155,
    "Ġcrushed": 9426,
    "Ġsurpass": 13587,
    "Ġcrucial": 9895,
    "Ġphotograph": 6303,
    "shapes": 22466,
    "andy": 8158,
    "Ġfoundering": 21422,
    "Ġwilson": 6631,
    "Ġcrying": 10788,
    "games": 20882,
    "Ġresolute": 19247,
    "Ġchatbots": 11351,
    "Ġvagueness": 25738,
    "umbs": 14692,
    "Ġtore": 6531,
    "Ġsixth": 16562,
    "studied": 17152,
    "discovering": 24254,
    "oubled": 23647,
    "Ġcultivated": 17367,
    "strils": 10460,
    "Ġthoughtfulness": 18774,
    "Ġbuy": 8300,
    "Ġalighted": 18106,
    "Ġantichron": 24183,
    "Ġcompacted": 23510,
    "Ġuninter": 18250,
    "dening": 22781,
    "Ġreck": 6538,
    "Ġwindsor": 16889,
    "piteous": 21036,
    "Ġscho": 4434,
    "iasm": 8061,
    "Ġgangs": 21612,
    "suitable": 18640,
    "Ġunbending": 25465,
    "irst": 878,
    "befall": 22500,
    "Ġbrook": 13053,
    "based": 2960,
    "Ġenumer": 12750,
    "died": 11482,
    "Ġchace": 14181,
    "Ġpolynesian": 26027,
    "vi": 2371,
    "i": 77,
    "Ġlivery": 16003,
    "properly": 24919,
    "Ġaffected": 5577,
    "Ġanswered": 2852,
    "ounted": 5029,
    "bright": 8992,
    "Ġ10": 5250,
    "Ġcordon": 24394,
    "io": 3803,
    "Ġrelationships": 2925,
    "erpillar": 5798,
    "Ġmerc": 9429,
    "Ġfilthy": 13253,
    "remes": 21240,
    "addressed": 13389,
    "Ġplaus": 22606,
    "alvan": 21507,
    "ojo": 7348,
    "Ġaverage": 3143,
    "Ġmal": 5221,
    "bermaid": 20792,
    "Ġclaim": 5105,
    "chari": 21692,
    "Ġentries": 22748,
    "anges": 1673,
    "Ġmonths": 3455,
    "Ġleisure": 6540,
    "pense": 10371,
    "lines": 6958,
    "Ġic": 9628,
    "Ġfootfall": 14663,
    "Ġdism": 9770,
    "hist": 7131,
    "Ġspacious": 18313,
    "arabian": 26448,
    "savor": 25027,
    "Ġstings": 21741,
    "Ġmanilla": 15963,
    "Ġdesigned": 7740,
    "Ġgri": 17990,
    "Ġif": 698,
    "expressing": 16803,
    "Ġdanish": 21434,
    "Ġroad": 3880,
    "awn": 3835,
    "forks": 26389,
    "ck": 436,
    "Ġdisgust": 6706,
    "looking": 4032,
    "ä": 165,
    "Ġworms": 25217,
    "Ġhue": 8430,
    "unwilling": 14064,
    "ificant": 22206,
    "block": 11472,
    "Ġbildad": 3783,
    "Ġgold": 3282,
    "tw": 2812,
    "Ġcreditor": 24292,
    "na": 13763,
    "older": 15760,
    "elze": 21576,
    "extreme": 11031,
    "Ġunquestion": 18252,
    "Ġbrighton": 6470,
    "av": 739,
    "Ġrefine": 2719,
    "Ġsacrificial": 24872,
    "corner": 13401,
    "idents": 6151,
    "ince": 4338,
    "ifling": 15787,
    "Ġwrit": 8242,
    "pequod": 7053,
    "Ġsituated": 9451,
    "recol": 10153,
    "Ġtortoise": 16910,
    "Ġdebar": 24274,
    "Ġscener": 10952,
    "Ġredress": 23754,
    "Ġconcussion": 26301,
    "Ġapart": 4746,
    "accounted": 16504,
    "Ġmouthfuls": 20648,
    "od": 355,
    "Ġdisappears": 18561,
    "Ġwith": 348,
    "soul": 9143,
    "Ġgregarious": 18965,
    "warm": 8102,
    "Ġcontemporary": 16016,
    "join": 12118,
    "report": 13403,
    "Ġtraveller": 8049,
    "ibid": 18842,
    "Ġsuppress": 13025,
    "Ġimpet": 11783,
    "Ġsyrian": 18354,
    "Ġrokovoko": 22410,
    "Ġofficer": 6754,
    "Ġrisk": 8039,
    "interrupt": 8619,
    "Ġadaptation": 3159,
    "Ġsquares": 11171,
    "downstairs": 23923,
    "Ġcontrivances": 12361,
    "drab": 23902,
    "Ġgirdle": 19160,
    "hast": 5358,
    "walton": 20252,
    "Ġwhales": 1826,
    "Ġlounging": 10025,
    "Ġkilled": 4954,
    "Ġbaron": 19336,
    "Ġenlar": 15804,
    "Ġoh": 2174,
    "Ġlabour": 7273,
    "Ġyoungest": 7954,
    "didst": 19352,
    "Ġmatrim": 11062,
    "Ġmythologies": 26215,
    "Ġig": 3502,
    "greater": 13256,
    "rupt": 3214,
    "Ġensuring": 11193,
    "standing": 5558,
    "Ġsituations": 10494,
    "ris": 9140,
    "Ġdetermine": 3250,
    "Ġgpus": 3734,
    "Ġshr": 4223,
    "grateful": 10430,
    "Ġfear": 2275,
    "Ġwhisky": 23937,
    "Ġrash": 10900,
    "Ġsilvery": 13098,
    "Ġfiendish": 13332,
    "trouble": 8295,
    "Ġwidower": 24238,
    "om": 315,
    "osc": 18388,
    "drawn": 9916,
    "Ġexposed": 8524,
    "Ġforge": 8458,
    "Ġflail": 23010,
    "Ġlips": 3989,
    "passage": 11263,
    "Ġsighs": 22712,
    "operations": 19978,
    "Ġbasic": 24700,
    "Ġengage": 9338,
    "infernal": 24663,
    "Ġcha": 6852,
    "Ġboyhood": 23757,
    "Ġsignature": 16495,
    "Ġcatching": 9481,
    "sterdam": 19091,
    "Ġscrewing": 20211,
    "Ġdisapprobation": 16062,
    "Ġstudy": 1761,
    "Ġproceeding": 9909,
    "Ġcrescent": 16141,
    "Ġcheck": 7270,
    "Ġzig": 18745,
    "Ġsuperl": 16446,
    "Ġlady": 1584,
    "Ġyard": 5921,
    "iana": 7049,
    "Ġkissed": 10048,
    "Ġcurving": 16248,
    "because": 4923,
    "Ġcreature": 2381,
    "ah": 1831,
    "Ġreluctant": 20528,
    "<UNK>": 3,
    "Ġforecastle": 5495,
    "injury": 25214,
    "Ġexcess": 3344,
    "Ġlungs": 8362,
    "quid": 18149,
    "Ġarrowy": 25470,
    "Ġfair": 2838,
    "dam": 7797,
    "Ġgrated": 22807,
    "Ġfobbing": 26443,
    "mund": 13761,
    "Ġwarrant": 17796,
    "Ġscattered": 6856,
    "Ġledger": 19405,
    "Ġgenus": 24429,
    "Ġincreas": 1693,
    "Ġrelapses": 26280,
    "Ġefficient": 1004,
    "Ġconveys": 16857,
    "Ġarrives": 23609,
    "Ġmexico": 15284,
    "Ġbedrooms": 19973,
    "aviour": 11006,
    "Ġpredicted": 2043,
    "utting": 17987,
    "Ġunwaning": 24830,
    "white": 4600,
    "Ġhaz": 12760,
    "_âĢĶâĢĻ": 13686,
    "Ġhaggerston": 26454,
    "Ġwriggling": 15261,
    "Ġobsequious": 17407,
    "Ġhumorous": 10363,
    "ience": 822,
    "Ð": 145,
    "Ġcommunicate": 10580,
    "Ġfolded": 7767,
    "ilty": 6394,
    "Ġanonymous": 26179,
    "Ġlinguistic": 12429,
    "Ġacquainted": 5179,
    "Ġpemberley": 4586,
    "Ġsweating": 16465,
    "Ġarrant": 23300,
    "Ġbagging": 24539,
    "anxious": 15113,
    "Ġ68": 24370,
    "haut": 20904,
    "Ġtranspired": 16786,
    "Ġprogno": 14043,
    "judging": 24203,
    "inite": 6002,
    "mises": 20980,
    "Ġdiscover": 4717,
    "stay": 9684,
    "tube": 20414,
    "Ġshelf": 12272,
    "¿": 128,
    "Ġcrimson": 16440,
    "southern": 20412,
    "Ġobservation": 6598,
    "Ġagreeable": 4550,
    "Ġmortar": 19396,
    "Ġthre": 2059,
    "oring": 1859,
    "Ġturnkeys": 23033,
    "cart": 10692,
    "hitherto": 17286,
    "lan": 15381,
    "retirement": 23144,
    "Ġsolar": 22888,
    "hammad": 23266,
    "raised": 15683,
    "Ġrout": 7401,
    "ason": 1266,
    "eous": 13715,
    "Ġguiding": 19243,
    "Ġbanks": 6814,
    "Ġfrigate": 13086,
    "Ġglowed": 24865,
    "Ġnobleman": 19395,
    "Ġfamed": 16330,
    "Ġdeliver": 9852,
    "Ġobeisance": 19761,
    "inkers": 22618,
    "Ġobsc": 7040,
    "perpet": 14164,
    "inions": 8403,
    "Ġwhittling": 20702,
    "Ġsuperglue": 23459,
    "iverer": 11720,
    "Ġseclusion": 18207,
    "Ġsickness": 10541,
    "Ġchalk": 15937,
    "beheld": 11806,
    "doing": 8587,
    "Ġgibberish": 25787,
    "Ġneuron": 1807,
    "Ġintertw": 18587,
    "residual": 19265,
    "bet": 6110,
    "Ġpalaces": 24095,
    "before": 3119,
    "Ġvapory": 17008,
    "âĢĺ": 939,
    "terbury": 21828,
    "Ġhypotheses": 4385,
    "Ġconn": 9232,
    "Ġaloft": 4301,
    "Ġutterance": 14766,
    "Ġdestruction": 6601,
    "probable": 17023,
    "express": 4895,
    "Ġcoopers": 20525,
    "wore": 21127,
    "Ġburton": 23654,
    "head": 1435,
    "conclusion": 25672,
    "Ġcured": 21350,
    "Ġcedars": 20295,
    "empt": 2616,
    "cl": 1492,
    "Ġmeanwhile": 5736,
    "Ġpatients": 24810,
    "Ġcanoe": 9726,
    "Ġinterior": 8898,
    "ous": 476,
    "Ġescape": 2645,
    "Ġripe": 13239,
    "Ġundertake": 14482,
    "Ġclergyman": 8715,
    "Ġrelations": 5853,
    "infall": 21191,
    "Ġcollections": 22860,
    "covery": 11173,
    "Ġnovelty": 13467,
    "Ġhotel": 8654,
    "eight": 9594,
    "Ġgrimes": 11036,
    "fancy": 7336,
    "Ġlovel": 10274,
    "Ġprompt": 3192,
    "Ġcommodores": 25375,
    "Ġdisadvantages": 18559,
    "iters": 21332,
    "Ġgloom": 4199,
    "scotland": 20532,
    "Ġfem": 6135,
    "bethink": 25745,
    "Ġfrankness": 16748,
    "Ġarchitectures": 2909,
    "Ġhaste": 9006,
    "eu": 17532,
    "Ġbook": 2700,
    "duct": 3507,
    "entials": 22667,
    "type": 16180,
    "Ġshroud": 6483,
    "Ġdrawn": 4274,
    "Ġshortened": 23484,
    "Ġhot": 4256,
    "½": 126,
    "Ġrelent": 18775,
    "ildad": 3533,
    "latitudes": 17199,
    "Ġprevention": 16095,
    "Ġporthole": 24399,
    "Ġ121": 24466,
    "Ġscience": 1633,
    "ead": 2598,
    "ilar": 10218,
    "Ġcreamy": 14333,
    "Ġgilder": 21616,
    "Ġentailed": 11030,
    "cab": 7332,
    "Ġquadru": 16008,
    "Ġremind": 6058,
    "shutters": 20316,
    "Ġdock": 15934,
    "accustomed": 13161,
    "ivil": 6411,
    "Ġprocedures": 9415,
    "oky": 8198,
    "Ġezekiel": 26194,
    "Ġac": 845,
    "Ġswimmer": 19462,
    "Ġprocessions": 18434,
    "Ġcloset": 19594,
    "hailed": 17567,
    "Ġoriental": 9100,
    "bacc": 7794,
    "Ġchip": 12830,
    "Ġcrystall": 20229,
    "Ġrecre": 22740,
    "Ġpredecessor": 26255,
    "Ġdegenerating": 25800,
    "Ġpunctures": 25136,
    "Ġdeft": 21841,
    "ia": 1257,
    "horse": 8609,
    "water": 4868,
    "Ġnow": 692,
    "\\": 64,
    "everybody": 8614,
    "ague": 3906,
    "Ġunequal": 14845,
    "elzebub": 26466,
    "Ġmotionless": 8324,
    "Ġspilled": 10926,
    "tack": 12517,
    "Ġungover": 18259,
    "Ġdiscerning": 25005,
    "Ġpike": 12628,
    "shunned": 22469,
    "ged": 1512,
    "Ġthreading": 23405,
    "Ġpref": 14174,
    "pendicular": 6499,
    "Ġintercourse": 11000,
    "neighbour": 7210,
    "Ġcontinued": 2922,
    "oors": 17622,
    "Ġretort": 23073,
    "Ġentities": 11868,
    "Ġtorrent": 17093,
    "Ġsolemnly": 8023,
    "Ġcourt": 4167,
    "Ġstudying": 9851,
    "Ġblackness": 9396,
    "icirc": 15660,
    "Ġcope": 17832,
    "Ġadmission": 23558,
    "Ġsteals": 23088,
    "Ġmanifested": 17160,
    "Ġdearer": 14054,
    "Ġshouts": 19540,
    "Ġpanel": 13376,
    "Ġatom": 18193,
    "Ġuntouched": 16468,
    "organ": 15578,
    "Ġlabyrin": 13109,
    "Ġextinguished": 10346,
    "Ġgallows": 12150,
    "Ġgild": 15673,
    "Ġberm": 21386,
    "Ġpadd": 9672,
    "Ġclinched": 17397,
    "Ġhunter": 5401,
    "Ġchimneys": 16974,
    "des": 3175,
    "Ġmicroscopic": 26375,
    "aze": 10078,
    "Ġpill": 7846,
    "Ġquiver": 16007,
    "dimly": 15350,
    "restrained": 16339,
    "Ġhoard": 23355,
    "Ġchaff": 18384,
    "mercenary": 26316,
    "appre": 14373,
    "pip": 6656,
    "Ġdeserve": 8309,
    "Ġspeeches": 22654,
    "atement": 17775,
    "Ġoriginate": 24123,
    "Ġclam": 7415,
    "Ġdisliked": 12896,
    "Ġjoy": 3187,
    "safe": 10057,
    "Ġthroat": 7770,
    "bable": 8722,
    "Ġlakeman": 6986,
    "Ġnonsense": 6982,
    "urities": 18052,
    "thole": 21990,
    "banish": 20784,
    "Ġobjection": 6586,
    "Ġreserve": 9974,
    "Ġellenborough": 26155,
    "Ġthem": 640,
    "Ġcoars": 14274,
    "Ġregrets": 18593,
    "obviously": 25243,
    "Ġsense": 3255,
    "Ġpiled": 8426,
    "iocr": 20925,
    "Ġkindled": 19030,
    "Ġblo": 2733,
    "ards": 2501,
    "Ġimpressed": 8199,
    "Ġjan": 11765,
    "Ġevanesc": 24296,
    "Ġpreluding": 18369,
    "raising": 21635,
    "Ġtimorous": 24228,
    "Ġsplit": 7993,
    "ross": 806,
    "Ġextinguish": 14342,
    "present": 1134,
    "backpropagation": 11990,
    "Ġmoods": 14954,
    "Ġwickedness": 9529,
    "raint": 18318,
    "treacle": 25151,
    "unicorn": 21893,
    "Ġcrossed": 6069,
    "Ġprotesting": 14744,
    "Ġincidentally": 16956,
    "transferred": 24514,
    "remembrance": 25703,
    "vulgar": 25919,
    "unch": 14061,
    "Ġinfinite": 8579,
    "intim": 22937,
    "Ġsport": 6689,
    "Ġunsur": 22026,
    "Ġspecific": 2002,
    "negro": 18490,
    "Ġvib": 8165,
    "compass": 9463,
    "Ġresol": 2664,
    "Ġwood": 2290,
    "Ġwhom": 1829,
    "Ġafternoon": 6053,
    "sl": 5794,
    "Ġoffence": 12951,
    "Ġsubtle": 6717,
    "Ġintuitions": 17344,
    "Ġthought": 1094,
    "Ġetern": 7086,
    "Ġegypt": 9681,
    "aceti": 7112,
    "Ġloath": 7890,
    "Ġneighbouring": 12123,
    "Ġentire": 2557,
    "enjoy": 10776,
    "Ġgrimesby": 11459,
    "ser": 1426,
    "Ġne": 389,
    "Ġ}": 21156,
    "Ġmodeling": 2094,
    "Ġjokes": 18404,
    "Ġkirwin": 8498,
    "Ġestablishment": 13583,
    "alarm": 15631,
    "luck": 5733,
    "Ġstrides": 22620,
    "itten": 3441,
    "Ġdifferen": 936,
    "ece": 17533,
    "belongs": 25597,
    "cell": 10689,
    "lace": 13751,
    "Ġphrenolog": 12338,
    "Ġimpenetrable": 17401,
    "mindful": 19602,
    "lu": 597,
    "Ġbell": 4634,
    "oftentimes": 19424,
    "Ġprocedure": 2810,
    "Ġexplanation": 6693,
    "helping": 23145,
    "barrow": 15324,
    "turning": 8317,
    "Ġbi": 919,
    "ondescript": 22917,
    "Ġcorrupt": 11927,
    "Ġapply": 1778,
    "chanced": 18812,
    "unw": 14060,
    "ential": 826,
    "Ġearning": 23945,
    "Ġrefill": 18692,
    "Ġaut": 1847,
    "cig": 17506,
    "Ġindecision": 25782,
    "Ġstranger": 3485,
    "Ġbubb": 12589,
    "Ġrifle": 18215,
    "Ġdrive": 5054,
    "only": 3310,
    "resp": 13842,
    "Ġfellows": 8257,
    "claim": 9838,
    "Ġopposite": 5120,
    "wond": 8772,
    "Ġdeline": 16336,
    "agon": 7871,
    "isco": 12586,
    "Ġsurmisings": 26595,
    "questions": 16762,
    "Ġsurprised": 3831,
    "Ġrepugn": 23366,
    "clear": 9027,
    "Ġworlds": 11951,
    "although": 8810,
    "ientiously": 21945,
    "Ġmill": 6668,
    "enormous": 26167,
    "Ġyouth": 4260,
    "above": 8148,
    "Ġhappens": 2187,
    "supplement": 14799,
    "Ġaerial": 21201,
    "Ġallegor": 25546,
    "Ġhabitual": 24789,
    "Ġobtru": 18673,
    "Ġjacket": 6489,
    "Ġexcurs": 23316,
    "ists": 3998,
    "Ġtreacherously": 25132,
    "Ġmusical": 23896,
    "commer": 22821,
    "Ġunlim": 18257,
    "vel": 2382,
    "Ġroy": 4227,
    "Ġcuff": 17831,
    "izes": 885,
    "Ġconvince": 14644,
    "Ġfruit": 12330,
    "Ġchose": 7412,
    "Ġconference": 15751,
    "Ġmournfully": 20120,
    "Ġbrowne": 13306,
    "handkerchief": 14619,
    "thousands": 16874,
    "jam": 15375,
    "Ġprosecuted": 25294,
    "Ġdiddled": 22670,
    "Ġtempted": 9059,
    "hing": 981,
    "Ġspeechless": 13358,
    "serpent": 16295,
    "boiling": 19001,
    "Ġedward": 19153,
    "lev": 1235,
    "Ġlexicon": 25974,
    "Ġdistributes": 4193,
    "gate": 12471,
    "Ġrect": 18028,
    "Ġnoticed": 5549,
    "leep": 4633,
    "consp": 18503,
    "Ġlancaster": 26342,
    "Ġbarber": 23792,
    "Ġclasped": 17209,
    "Ġflashed": 11917,
    "Ġgoverning": 2795,
    "ē": 212,
    "compar": 14361,
    "bpp": 20774,
    "kind": 3863,
    "arab": 21444,
    "Ġexplanations": 15914,
    "Ġdang": 9177,
    "dued": 7909,
    "named": 9892,
    "Ġceleb": 20228,
    "lant": 20949,
    "comrade": 18743,
    "common": 4127,
    "Ġdarts": 16770,
    "disputed": 23502,
    "Ġrevolution": 3307,
    "ashing": 4825,
    "Ġrestricted": 19029,
    "fooled": 24419,
    "Ġchambermaid": 24306,
    "Ġsquall": 7044,
    "Ġperfection": 19221,
    "Ġsupers": 18278,
    "ga": 17552,
    "Ġtags": 20574,
    "Ġcriminals": 19924,
    "cheerfulness": 20183,
    "tempestuous": 26098,
    "txt": 12520,
    "Ġdrawled": 23994,
    "Ġwearisome": 19798,
    "deprived": 19900,
    "Ġbackground": 18650,
    "Ġprofoundly": 16861,
    "Ġdisregarded": 22534,
    "gardiner": 12295,
    "Ġexclam": 6758,
    "iscuits": 24667,
    "Ġmathematical": 3352,
    "education": 20304,
    "Ġdelicate": 6480,
    "Ġencomp": 12968,
    "Ġscru": 8192,
    "Ġimposs": 16618,
    "iest": 4035,
    "Ġhatred": 8612,
    "Ġconsolidation": 5059,
    "Ġdart": 4583,
    "Ġconclusions": 10556,
    "Ġvisions": 12982,
    "Ġnecessity": 7295,
    "prove": 11149,
    "Ġslink": 23167,
    "asily": 13949,
    "sequently": 14584,
    "ment": 687,
    "co": 2430,
    "oder": 2455,
    "Ġblades": 11899,
    "Ġloom": 7628,
    "Ġmer": 2929,
    "Ġclimate": 9278,
    "Ġconsol": 3816,
    "Ġmultiplicity": 19278,
    "Ġpaddock": 25040,
    "Ġheated": 21685,
    "Ġmaledictions": 26430,
    "Ġtrembled": 8705,
    "Ġhedges": 19988,
    "Ġcalmly": 7733,
    "Ġbackwoods": 22664,
    "penny": 22948,
    "been": 3346,
    "bree": 15318,
    "last": 3804,
    "approbation": 11460,
    "Ġcrossing": 7251,
    "ousings": 18331,
    "Ġdistribut": 842,
    "recollect": 17226,
    "agged": 9240,
    "Ġplanets": 24061,
    "wheels": 14384,
    "Ġkicks": 19771,
    "Ġwhirlp": 16965,
    "poison": 14395,
    "rained": 5162,
    "Ġphyseter": 26588,
    "Ġbrack": 23839,
    "Ġjo": 2607,
    "mpus": 13760,
    "Ġdomes": 23707,
    "uts": 8820,
    "Ġ1890": 23900,
    "Ġclatter": 22354,
    "Ġhearty": 9850,
    "itable": 5437,
    "Ġspitzbergen": 15291,
    "ippers": 17578,
    "very": 500,
    "cords": 25139,
    "Ġexpression": 4513,
    "Ġcontrasting": 11156,
    "Ġgrud": 17998,
    "Ġinfamy": 14503,
    "Ġmustard": 12935,
    "Ġnorthwards": 19549,
    "Ġspeaker": 19150,
    "abetical": 15747,
    "alid": 13938,
    "Ġprofane": 13156,
    "Ġpreparation": 13532,
    "Ġgrego": 18963,
    "profitable": 17072,
    "cause": 7795,
    "Ġresolved": 3799,
    "Ġloos": 15875,
    "arthy": 4823,
    "Ġdressing": 7091,
    "Ġhierarchical": 1926,
    "Ġultimate": 12353,
    "cater": 20817,
    "Ġcarter": 18902,
    "Ġannihilation": 15169,
    "Ġpolluted": 25594,
    "passenger": 24168,
    "poises": 11893,
    "ened": 1387,
    "coat": 5407,
    "Ġbelly": 10372,
    "Ġmisanthropic": 26562,
    "rin": 10124,
    "Ġsystem": 574,
    "Ġattempted": 8001,
    "asher": 15650,
    "ak": 538,
    "Ġplaned": 24060,
    "hoist": 23716,
    "contempt": 13194,
    "Ġ180": 16608,
    "beheaded": 22498,
    "inence": 15484,
    "sick": 13787,
    "Ġaccuracy": 1066,
    "Ġimpetus": 25570,
    "Ġchaldee": 26236,
    "Ġbased": 3341,
    "franch": 24286,
    "akened": 7414,
    "aul": 6353,
    "Ġignorantly": 19498,
    "Ġrestlessness": 23295,
    "Ġcongealed": 25982,
    "Ġdumb": 7843,
    "Ġprick": 14480,
    "Ġregarding": 13214,
    "Ġinference": 9674,
    "Ġscuttle": 7413,
    "hide": 10705,
    "Ġsolemn": 4099,
    "Ġcontribute": 12866,
    "Ġlogical": 14489,
    "lift": 15388,
    "Ġwes": 8783,
    "oforte": 14289,
    "regularly": 13212,
    "extending": 22777,
    "Ġcho": 4544,
    "chers": 11319,
    "Ġtransf": 22441,
    "Ġmagnanimous": 17414,
    "Ġmeets": 7395,
    "Ġpieces": 7368,
    "Ġsteeple": 19290,
    "Ġfrequent": 3290,
    "requ": 7148,
    "hind": 20896,
    "Ġrenders": 13288,
    "Ġ88": 19714,
    "grad": 2565,
    "onsensical": 18577,
    "Ġthousandth": 23684,
    "chiefly": 14849,
    "Ġalluding": 18237,
    "Ġbreat": 3460,
    "Åĵuvre": 25888,
    "Ġunfolded": 10641,
    "Ġwretch": 6378,
    "Ġhig": 756,
    "situation": 11439,
    "Ġsocieties": 20185,
    "Ġaudits": 24769,
    "swinging": 25913,
    "Ġvibrating": 13541,
    "affold": 16565,
    "Ġqualified": 14953,
    "ushes": 22285,
    "Ġtierce": 15481,
    "discredit": 24253,
    "fortun": 3540,
    "Ġaccountability": 10440,
    "gun": 10099,
    "Ġcomstock": 21855,
    "Ġanvil": 11600,
    "Ġdestroy": 5772,
    "Ġsimpler": 2046,
    "rent": 1170,
    "riot": 18184,
    "Ġabroad": 8869,
    "nes": 6960,
    "Ġunheeded": 18265,
    "Ġscroll": 14196,
    "Ġlookest": 22718,
    "ents": 1896,
    "Ġslung": 23172,
    "Ġanswers": 7071,
    "26": 10076,
    "Ġmoment": 990,
    "Ġfreshe": 13074,
    "Ġfitzwilliam": 5771,
    "Ġbills": 17862,
    "Ġoptimizer": 5035,
    "Ġfathoms": 9086,
    "Ġleg": 2333,
    "Ġmanager": 11773,
    "Ġcast": 3607,
    "Ġshaster": 22002,
    "sculptured": 26046,
    "Ġunable": 4950,
    "goodness": 19291,
    "thence": 23403,
    "ging": 2599,
    "Ġmechanis": 1220,
    "Ġimpersonal": 17400,
    "Ġfolding": 19730,
    "Ġwhelm": 25999,
    "È": 137,
    "killer": 20479,
    "bone": 5612,
    "Ġpod": 15608,
    "Ġventing": 19496,
    "Ġduchess": 4799,
    "antage": 3878,
    "elve": 4640,
    "Ġnarrowed": 24355,
    "Ġresolving": 9422,
    "Ġgap": 21602,
    "alluring": 18353,
    "Ġcorpore": 13405,
    "Ġexchanged": 10880,
    "Ġber": 5698,
    "penetrating": 25491,
    "assault": 22310,
    "Ġbelieves": 14411,
    "anning": 10167,
    "nails": 17616,
    "Ġmanned": 9274,
    "endom": 15927,
    "Ġdesolation": 12273,
    "Ġarrive": 6906,
    "Ġpenalizing": 13095,
    "Ġinherited": 25354,
    "shud": 18491,
    "Ġclifford": 22363,
    "Ġadjusts": 8983,
    "beaten": 20318,
    "Ġcoat": 4552,
    "ittingly": 18804,
    "Ġrepine": 16414,
    "Ġlegend": 14576,
    "Ġintegrated": 13534,
    "ording": 9767,
    "sion": 8094,
    "coronet": 16865,
    "readiness": 19366,
    "halfway": 24313,
    "Ġoverlooked": 15977,
    "Ġtriumph": 5143,
    "rically": 15420,
    "itional": 22472,
    "Ġottoman": 17381,
    "portuguese": 25414,
    "Ġspaulding": 11735,
    "Ġboundless": 10498,
    "iability": 20922,
    "cannibal": 15228,
    "amongst": 24673,
    "Ġshan": 9252,
    "Ġwhitened": 24868,
    "about": 3588,
    "Ġpigeon": 9519,
    "Ġswells": 9830,
    "inisc": 15491,
    "strangely": 17279,
    "Ġdevotion": 22721,
    "Ġrandomly": 1920,
    "odecim": 9835,
    "rably": 21636,
    "Ġwindows": 4970,
    "clim": 18932,
    "Ġosc": 2836,
    "Ġlodger": 24096,
    "Ġshop": 9255,
    "Ġgrat": 4055,
    "inished": 17736,
    "Ġbernard": 20687,
    "second": 6544,
    "gn": 8082,
    "Ġtom": 15637,
    "Ġorgans": 15869,
    "Ġejac": 10206,
    "natural": 2274,
    "Ġantarctic": 19555,
    "delight": 5345,
    "Ġlan": 5821,
    "resc": 21241,
    "tossing": 18581,
    "tor": 15435,
    "Ġspray": 7894,
    "Ġimpaling": 22391,
    "Ġadorned": 15251,
    "eminent": 25107,
    "lipped": 16220,
    "Ġclum": 8876,
    "Ġforster": 5230,
    "Ġvictory": 16656,
    "Ġelevates": 24503,
    "Ġcontented": 9759,
    "visits": 24226,
    "Ġcomprehens": 8320,
    "exe": 11793,
    "Ġobli": 9319,
    "Ġreconc": 9686,
    "Ġcemet": 20683,
    "frightened": 17198,
    "Ġhost": 7069,
    "Ġloss": 821,
    "Ġbump": 9662,
    "Ġcas": 8412,
    "concerns": 24072,
    "hurry": 24762,
    "Ġgroom": 13969,
    "solved": 7684,
    "Ġthimble": 15641,
    "anced": 1318,
    "Ġalgorith": 560,
    "Ġbed": 2148,
    "Ġgun": 4701,
    "Ġnarrowly": 16822,
    "Ġquestioning": 10465,
    "forehead": 8517,
    "Ġcaused": 5047,
    "ude": 7561,
    "Ġhieroglyphic": 25588,
    "Ġpaus": 4297,
    "Ġdepend": 779,
    "isson": 23463,
    "illum": 15873,
    "Ġbizarre": 17873,
    "Ġit": 339,
    "Ġmeas": 1098,
    "Ġobliging": 13247,
    "Ġmates": 4872,
    "Ġembellish": 25849,
    "much": 3708,
    "Ġangelic": 19630,
    "Ġprair": 7746,
    "grained": 20885,
    "Ġpainted": 7979,
    "Ġtunes": 24620,
    "painted": 17641,
    "Ġpubl": 3940,
    "Ġalmanac": 26487,
    "Ġplaying": 6908,
    "Ġtortures": 14926,
    "iop": 20921,
    "Ġprestige": 22240,
    "Ġmalays": 19680,
    "tooth": 18580,
    "Ġvaliantly": 22799,
    "Ġunfailing": 24113,
    "Ġroarings": 25303,
    "Ġsallow": 12541,
    "Ġlaz": 7377,
    "pred": 2802,
    "Ġparallelization": 3431,
    "Ġexceptions": 13234,
    "zek": 16274,
    "trust": 21081,
    "Ġunfl": 22024,
    "Ġsain": 17752,
    "Ġ129": 24474,
    "Ġpersisting": 18885,
    "Ġpresided": 20210,
    "Ġclams": 19992,
    "Ġplaited": 14287,
    "married": 9952,
    "sche": 13020,
    "Ġoccupation": 9934,
    "playful": 24357,
    "Ġ19": 6720,
    "Ġhad": 442,
    "Ġ17": 5740,
    "Ġtraditions": 11445,
    "Ġe": 311,
    "spread": 8389,
    "excitement": 19672,
    "Ġcircumstance": 4986,
    "Ġsuspending": 19246,
    "Ġretrie": 10385,
    "Ġbremen": 23348,
    "Ġproper": 1377,
    "Ġaquiline": 26160,
    "Ġsnake": 12065,
    "Ġfollow": 1397,
    "beginning": 13565,
    "Ġpredictions": 1453,
    "Ġduties": 6610,
    "Ġmccarthys": 19665,
    "cious": 6645,
    "Ġfirm": 3870,
    "Ġcompliments": 8636,
    "Ġupbraid": 18319,
    "Ġexhibiting": 19841,
    "acknowledge": 18469,
    "Ġprophecy": 25706,
    "elect": 20848,
    "Ġwhispered": 5338,
    "Ġbelrive": 18833,
    "Ġsave": 4050,
    "Ġdiscompose": 25580,
    "Ġabove": 2935,
    "Ġextensive": 12950,
    "Ġrecollecting": 17114,
    "covering": 15337,
    "Ġfears": 5729,
    "Ġprinc": 4197,
    "ib": 1234,
    "Ġstretching": 10018,
    "Ġbelike": 18832,
    "Ġpupils": 20424,
    "Ġtype": 2019,
    "wish": 8100,
    "Ġul": 6827,
    "Ġbumpkin": 20203,
    "Ġtempestuous": 20074,
    "Ġslavish": 23177,
    "indul": 22374,
    "Ġemperors": 15163,
    "Ġnarwhale": 12297,
    "console": 22477,
    "Ġunimpeachable": 26524,
    "Ġsiberia": 26162,
    "requent": 3652,
    "anned": 17841,
    "Ġceremonies": 24837,
    "Ġgeneva": 5450,
    "telescope": 26564,
    "Ġsteep": 2888,
    "Ġpon": 10178,
    "Ġprints": 16334,
    "Ġphr": 2680,
    "Ġasi": 12737,
    "Ġunfor": 15844,
    "bruary": 15239,
    "Ġshameful": 19854,
    "vic": 13805,
    "Ġdarkness": 4276,
    "rogress": 21539,
    "Ġturkey": 19222,
    "christ": 10213,
    "Ġlomb": 21562,
    "face": 3680,
    "Ġbottle": 7489,
    "define": 1525,
    "Ġconsummation": 17428,
    "Ġpasseng": 12976,
    "thr": 12765,
    "isol": 17848,
    "Ġquadrille": 13544,
    "Ġfries": 21418,
    "cour": 4477,
    "Ġrecursive": 4782,
    "Ġcarried": 3696,
    "hatchet": 24819,
    "careful": 14869,
    "Ġgeor": 3388,
    "Ġsurmount": 20004,
    "Ġfowls": 8694,
    "Ġglaciers": 20176,
    "Ġhams": 16614,
    "Ġbon": 8790,
    "lover": 18539,
    "iac": 6226,
    "Ġembarrassment": 10629,
    "tured": 13798,
    "ires": 6038,
    "Ġdetermining": 14423,
    "Ġschedu": 1822,
    "Ġunfinished": 19512,
    "Ġunansw": 22062,
    "ß": 160,
    "Ġinvader": 23480,
    "Ġseamen": 5062,
    "Ġalso": 1342,
    "Ġwhimsical": 20431,
    "Ġbalmy": 22906,
    "Ġintention": 5638,
    "letter": 6202,
    "Ġwealthy": 18181,
    "uge": 4016,
    "Ġas": 374,
    "ihood": 20924,
    "ers": 405,
    "Ġcompany": 3723,
    "comp": 3817,
    "ipped": 5790,
    "ulties": 12906,
    "apology": 22338,
    "Ġclink": 22355,
    "enched": 10157,
    "Ġdiscove": 16159,
    "Ġmission": 13011,
    "Ġmoreover": 6164,
    "aternity": 21268,
    "Ġpresumed": 10547,
    "Ġlawy": 9458,
    "Ġexpense": 7651,
    "oice": 1382,
    "rifled": 21050,
    "Ġbeaufort": 13572,
    "Ġunman": 12780,
    "scy": 21058,
    "Ġmercifully": 20181,
    "absolut": 8460,
    "Ġscrutin": 26017,
    "apped": 5395,
    "Ġwhitt": 18057,
    "Ġfee": 7198,
    "Ġgod": 1935,
    "Ġschedule": 2368,
    "Ġ*": 1272,
    "them": 3022,
    "Ġgallop": 19558,
    "Ġcarved": 7947,
    "Ġnavies": 16902,
    "quent": 2093,
    "Ġbears": 6828,
    "apologizing": 26546,
    "wretch": 17710,
    "94": 4803,
    "Ġunnear": 22032,
    "ument": 5240,
    "Ġpots": 9431,
    "ips": 2590,
    "Ġdry": 5624,
    "so": 890,
    "afraid": 10443,
    "gratitude": 16818,
    "Ġprecipice": 19944,
    "te": 994,
    "Ġperfectly": 3703,
    "ifford": 15788,
    "Ġnooks": 26012,
    "Ġmagnificent": 9845,
    "ortunity": 4402,
    "Ġsuperseded": 26225,
    "Ġpuffing": 12259,
    "Ġadhes": 22107,
    "Ġident": 2239,
    "Ġsocket": 12794,
    "Ġconv": 2969,
    "Ġswart": 14437,
    "Ġtragedies": 25242,
    "arms": 10176,
    "year": 11097,
    "rooms": 10434,
    "Ġfug": 12600,
    "Ġscra": 5842,
    "Ġstagnant": 24655,
    "Ġneedlessly": 23631,
    "Ġlongitudes": 22637,
    "Ġconviction": 6327,
    "rumours": 23924,
    "Ġnash": 5820,
    "Ġrio": 23894,
    "ele": 9117,
    "irations": 18171,
    "Ġportrait": 10664,
    "world": 5057,
    "hill": 15366,
    "Ġpetty": 19598,
    "loving": 18540,
    "ustom": 3791,
    "Ġ50": 24315,
    "Ġhurricane": 16435,
    "ered": 1683,
    "Ġsax": 10931,
    "Ġvirtuous": 14758,
    ";âĢĿ": 7790,
    "july": 20478,
    "fect": 2298,
    "anded": 5923,
    "Ġenough": 1760,
    "Ġmaps": 2963,
    "Ġprofessions": 11233,
    "Ġmunro": 25631,
    "Ġcontortions": 18477,
    "Ġloathsome": 13531,
    "Ġsettles": 22923,
    "Ġgas": 8133,
    "bingleys": 19637,
    "Ġdus": 8424,
    "innacle": 7518,
    "Ġwidespread": 20678,
    "Ġpeculiarities": 12075,
    "lightened": 12069,
    "onts": 15522,
    "Ġmorals": 22975,
    "followed": 8339,
    "Ġcopper": 7424,
    "resistible": 10646,
    "bun": 12442,
    "itely": 5365,
    "Ġfloundered": 18863,
    "Ġdais": 24372,
    "Ġcandidates": 4332,
    "watching": 16932,
    "Ġhorner": 8961,
    "Ġunflinching": 26514,
    "slide": 24556,
    "Ġsubtile": 20383,
    "Ġpallor": 13519,
    "ienced": 5685,
    "Ġfidget": 15193,
    "Ġfastidious": 14494,
    "Ġlazarus": 15031,
    "Ġbrush": 17866,
    "mistress": 14908,
    "Ġpained": 19169,
    "Ġtalking": 3858,
    "Ġblessed": 6930,
    "Ġturban": 23615,
    "tering": 3808,
    "Ġgeneralize": 3106,
    "yder": 10141,
    "Ġcorridor": 10674,
    "restraint": 18980,
    "Ġexclamation": 8702,
    "noon": 5036,
    "Ġinsufferable": 13934,
    "Ġmerciless": 25247,
    "Ġstony": 21746,
    "Ġastronomy": 25927,
    "Ġheadstrong": 14391,
    "Ġabsor": 8506,
    "ality": 2510,
    "ccarthy": 4888,
    "Ġtoken": 2037,
    "Ġaccumulated": 11935,
    "tery": 14040,
    "Ġdescent": 1000,
    "Ġinterlude": 16074,
    "Ġstupid": 7606,
    "Ġalgorithms": 853,
    "beyond": 8886,
    "Ġsunday": 7269,
    "Ġveins": 8935,
    "Ġorganically": 3015,
    "Ġwhosoever": 21722,
    "Ġhowled": 12860,
    "adam": 15734,
    "Ġ1778": 25730,
    "joy": 3337,
    "Ġinject": 2709,
    "Ġgrating": 14358,
    "learning": 2495,
    "Ġsparks": 22136,
    "Ġallures": 22010,
    "Ġhumming": 12991,
    "Ġwhitish": 24867,
    "Ġsaucer": 20608,
    "Ġmast": 2900,
    "Ġthunders": 15642,
    "hered": 5623,
    "Ġ105": 24413,
    "ma": 1150,
    "prof": 7698,
    "ensed": 10997,
    "mr": 1901,
    "Ġfilial": 16622,
    "ded": 2755,
    "Ġcampaign": 20663,
    "ign": 1703,
    "away": 4623,
    "dreams": 12341,
    "six": 7142,
    "Ġbulk": 5591,
    "Ġgib": 13968,
    "Ġtreated": 7081,
    "Ġanimals": 8981,
    "Ġinstruct": 2864,
    "singing": 24363,
    "Ġsc": 533,
    "div": 8076,
    "Ġlar": 766,
    "Ġvacantly": 16817,
    "Ġdominion": 16538,
    "ach": 432,
    "encountered": 20396,
    "Ġsharpened": 17368,
    "Ġhom": 9189,
    "produced": 25415,
    "Ġmcc": 21308,
    "Ġinstrument": 7119,
    "Ġannoyed": 17202,
    "Ġtahiti": 13623,
    "Ġcharles": 11960,
    "Ġshrill": 12146,
    "Ġpremeditated": 22238,
    "Ġeagerly": 4989,
    "Ġliterally": 15120,
    "Ġparaphrasing": 26528,
    "the": 334,
    "Ġmatrices": 4968,
    "800": 17479,
    "Ġfurniture": 6476,
    "playing": 19660,
    "Ġpolice": 4673,
    "Ġrepulsive": 14532,
    "Ġprocess": 559,
    "oft": 3592,
    "Ġaboard": 6698,
    "hoisted": 19285,
    "overed": 2854,
    "Ġtoy": 15638,
    "quarrel": 20018,
    "Ġtiller": 8968,
    "Ġtruck": 19514,
    "Ġbacks": 8530,
    "required": 17031,
    "row": 1067,
    "Ġfavourably": 16365,
    "mingled": 14716,
    "Ġdirector": 18922,
    "Ġbanqu": 12593,
    "Ġhorn": 6186,
    "recklessly": 25270,
    "Ġconsists": 11982,
    "Ġannotations": 25955,
    "Ġadversarial": 5607,
    "ici": 8441,
    "lets": 7836,
    "ĠĠĠĠĠ": 3528,
    "Ġchina": 8040,
    "armed": 7250,
    "Ġat": 395,
    "Ġcheeks": 5958,
    "Ġhighlands": 22772,
    "Ġpatroness": 13513,
    "Ġfreshly": 23992,
    "Ġboots": 5943,
    "Ġstem": 15726,
    "Ġshipping": 14107,
    "Ġschooner": 16749,
    "Ġliber": 5168,
    "Ġchiswick": 25561,
    "Ġremarking": 13128,
    "Ġgaieties": 24197,
    "omically": 13979,
    "Ġcome": 1241,
    "immense": 18055,
    "Ġlaboratory": 13616,
    "Ġcanallers": 13631,
    "resembled": 21249,
    "stache": 15694,
    "Ġparameter": 881,
    "raham": 18016,
    "Ġvoyager": 16514,
    "Ġbuying": 24001,
    "Ġdupl": 9957,
    "Ġenvirons": 13176,
    "concl": 12874,
    "Ġreconciled": 13591,
    "'d": 12431,
    "jeroboam": 25620,
    "Ġsymph": 22212,
    "Ġrequest": 6051,
    "Ġsomnam": 23008,
    "Ġshreds": 12775,
    "miserably": 24212,
    "Ġchry": 22250,
    "otherwise": 7670,
    "Ġfil": 3473,
    "itory": 12572,
    "ospit": 22267,
    "Ġohio": 19130,
    "mens": 20971,
    "Ġgrant": 11877,
    "Ġcleansed": 26295,
    "Ġisle": 8837,
    "Ġrose": 3443,
    "ectual": 21917,
    "everlasting": 18772,
    "Ġirregularly": 25324,
    "Ġhorsey": 24252,
    "zza": 24169,
    "agony": 14072,
    "Ġrises": 9716,
    "Ġsling": 21223,
    "unaffected": 21887,
    "riend": 1186,
    "ament": 2435,
    "Ġtrail": 16286,
    "puzzling": 26144,
    "Ġeffectually": 16171,
    "Ġfluctuating": 24417,
    "Ġwarm": 2422,
    "floated": 24644,
    "Ġnose": 4401,
    "Ġcoats": 16080,
    "atoes": 17777,
    "Ġfemin": 13440,
    "Ġoriginally": 7303,
    "Ġswear": 6461,
    "Ġ12": 5483,
    "thyself": 19300,
    "Ġarrange": 3125,
    "Ġmaker": 15547,
    "77": 15304,
    "Ġshoreless": 24297,
    "quohog": 21862,
    "Ġcircumnavigation": 20403,
    "mild": 15395,
    "Ġpreprocessing": 26538,
    "bohem": 19002,
    "Ú": 155,
    "Ġreflected": 2908,
    "exceedingly": 9569,
    "Ġazores": 20196,
    "Ġribs": 7102,
    "dwelt": 23874,
    "Ġdeepest": 8215,
    "virt": 15454,
    "never": 3155,
    "==": 944,
    "Ġrenewal": 12239,
    "Ġperiodically": 19497,
    "urity": 8143,
    "lance": 12486,
    "Ġcistern": 17384,
    "Ġblotted": 20220,
    "uger": 21106,
    "hawks": 24695,
    "Ġdubious": 17386,
    "ignific": 11959,
    "Ġdrow": 21429,
    "Ġvelvet": 12402,
    "Ġvac": 5024,
    "Ġgleamed": 17078,
    "Ġtorments": 13398,
    "ads": 5718,
    "Ġdial": 10812,
    "Ġus": 495,
    "Ġpantry": 20298,
    "supportable": 12374,
    "Ġcoals": 16079,
    "Ġcoming": 2615,
    "Ġelegance": 11334,
    "Ġdust": 5909,
    "Ġmassac": 14739,
    "Ġcultivation": 17148,
    "Ġcondition": 6764,
    "Ġresentful": 24632,
    "close": 9989,
    "Ġwhite": 1536,
    "whisper": 17084,
    "istical": 8491,
    "Ġ53": 19638,
    "Ġdisdained": 15012,
    "Ġfatal": 5872,
    "Ġfemale": 8345,
    "secur": 18129,
    "Ġhuzza": 12638,
    "Ġorganisation": 23585,
    "Ġincreasing": 8248,
    "late": 11501,
    "asmuch": 10197,
    "riptions": 14797,
    "Ġnautical": 17389,
    "Ġimitate": 14160,
    "Ġmuteness": 19420,
    "Ġf": 283,
    "Ġtroubling": 26548,
    "Ġwarrior": 24496,
    "distinguish": 19575,
    "Ġundeniable": 26512,
    "Ġplane": 11827,
    "slack": 16896,
    "Ġrecent": 7435,
    "mody": 16189,
    "Ġrushing": 7402,
    "Ġhowever": 1303,
    "Ġcountess": 11968,
    "Ġknocked": 9503,
    "dog": 10696,
    "Ġcorrob": 16267,
    "Ġrejoiced": 8687,
    "oso": 12836,
    "Ġlik": 2521,
    "omit": 13977,
    "Ġwarmer": 19187,
    "weep": 22687,
    "Ġpro": 360,
    "kindled": 16663,
    "west": 10741,
    "Ġchaps": 14182,
    "Ġadvancement": 24475,
    "seventh": 12719,
    "Ġfrequently": 4679,
    "Ġfatig": 6757,
    "Ġinitialization": 1252,
    "Ġintent": 6409,
    "Ġbam": 15570,
    "Ġlament": 7857,
    "disagreeable": 11165,
    "cabin": 8363,
    "abominable": 20597,
    "Ġinvaders": 23482,
    "Ġcopse": 17068,
    "Ġthousands": 6749,
    "Ġfrighten": 13283,
    "Ġunchanged": 22035,
    "Ġshoulders": 5566,
    "discoloured": 23500,
    "Ġintroduces": 3273,
    "concent": 19483,
    "ividually": 22087,
    "simultaneously": 19866,
    "Ġunob": 22019,
    "cle": 3955,
    "Ġadds": 1805,
    "Ġessence": 13409,
    "Ġshol": 21999,
    "Ġbar": 3151,
    "Ġtuck": 10143,
    "Ġbrawny": 13617,
    "Ġemploys": 19434,
    "things": 6033,
    "Ġpetersburgh": 24231,
    "Ġterror": 5124,
    "Ġstir": 5826,
    "see": 3051,
    "Ġramad": 8529,
    "Ġascertain": 9709,
    "church": 8140,
    "Ġrooted": 13173,
    "Ġbulky": 13233,
    "belong": 12127,
    "Ġfailing": 12142,
    "Ġagric": 22519,
    "Ġgour": 21601,
    "lux": 14229,
    "Ġnoteworthy": 24164,
    "whims": 22243,
    "Ġdiana": 21439,
    "Ġgrizz": 10354,
    "rock": 15645,
    "Ġglaring": 11912,
    "onent": 21251,
    "ones": 2741,
    "Ġfeebly": 24878,
    "Ġresults": 7307,
    "Ġhog": 13927,
    "relative": 24018,
    "Ġdarling": 12609,
    "Ġslow": 2377,
    "Ġunsatisfied": 22048,
    "arman": 11598,
    "Ġgratification": 24100,
    "Ġdesertion": 24786,
    "Ġdull": 6384,
    "Ġsquaw": 22840,
    "Ġexercised": 24800,
    "Ġtiny": 11555,
    "Ġoccurs": 1855,
    "Ġinvesting": 19644,
    "written": 7995,
    "Ġdome": 15593,
    "Ġconstantinople": 19840,
    "ckinridge": 11723,
    "Ġarranging": 11176,
    "assed": 6421,
    "Ġguernsey": 9354,
    "Ġdefence": 11069,
    "Ġfrigid": 17355,
    "Ġsho": 2244,
    "Ġminor": 12973,
    "Ġstanzas": 21751,
    "Ġhumanity": 6732,
    "Ġindepend": 3671,
    "deployment": 26529,
    "Ġfreshets": 25705,
    "frisco": 16789,
    "Ġcoaxing": 18599,
    "Ġvirginia": 13503,
    "Ġdisturbance": 15015,
    "Ġpink": 12623,
    "Ġinhabitants": 7523,
    "Ġbass": 17857,
    "Ġwhistling": 19793,
    "nesday": 8706,
    "Ġfine": 1314,
    "placed": 7880,
    "bots": 10085,
    "lively": 12489,
    "minutes": 7511,
    "float": 19808,
    "iancy": 13014,
    "levelled": 23645,
    "u": 89,
    "Ġunthink": 18251,
    "Ġkrempe": 10672,
    "Ġinsists": 23678,
    "Ġintricacies": 15142,
    "rates": 21041,
    "Ġhurried": 4031,
    "Ġsporting": 17001,
    "wholly": 10943,
    "Ġreplay": 5046,
    "biting": 20783,
    "Ġsequence": 1974,
    "Ġautumn": 14514,
    "Ġunrest": 11718,
    "itan": 10162,
    "vigorous": 25918,
    "eng": 1487,
    "Ġlapse": 17123,
    "Ò": 147,
    "invite": 25091,
    "Ġsunrise": 9376,
    "mentioning": 24886,
    "Ġrealistic": 5861,
    "enorm": 17783,
    "women": 15459,
    "unreasonable": 18165,
    "Ġmouths": 7490,
    "Ġhour": 1810,
    "lesson": 22768,
    "local": 22512,
    "ributed": 8214,
    "rimsh": 17029,
    "unken": 10239,
    "Ġnumberless": 16419,
    "presbyter": 20621,
    "unalterable": 21890,
    "fury": 17549,
    "Ġprelimin": 8864,
    "Ġsay": 931,
    "Ġdurst": 20355,
    "incible": 16500,
    "odiac": 14035,
    "Ġdance": 4440,
    "gradually": 12920,
    "mechanically": 17303,
    "Ġovertook": 18430,
    "Ġingrat": 16842,
    "ructed": 7028,
    "whatever": 6695,
    "Ġconcl": 5094,
    "Ġpin": 7161,
    "ifully": 13190,
    "Ġflowing": 14414,
    "Ġassuredly": 14824,
    "met": 6654,
    "Ġinquiry": 6484,
    "adie": 18091,
    "Ġreceiving": 4882,
    "abounding": 25980,
    "ograph": 4797,
    "Ġaddison": 14235,
    "alt": 12643,
    "Ġcoffin": 4427,
    "unning": 4491,
    "Ġimpreg": 15992,
    "affairs": 14658,
    "Ġempt": 5050,
    "Ġwalk": 1824,
    "Ġrange": 9715,
    "Ġbody": 2432,
    "torture": 26152,
    "poverty": 22909,
    "Ġblacksmiths": 19875,
    "Ġintellig": 525,
    "Ġclouded": 13295,
    "Ġload": 14148,
    "akin": 11771,
    "Ġtimidly": 11340,
    "Ġvirtue": 4922,
    "Ġtrials": 16791,
    "ave": 980,
    "Ġaccusations": 22381,
    "Ġinsipid": 26314,
    "Ġcleaving": 23185,
    "aulding": 11341,
    "Ġhudson": 15195,
    "shish": 11797,
    "Ġadvertise": 25389,
    "anque": 13891,
    "ulgent": 18152,
    "Ġlike": 669,
    "bones": 8372,
    "opening": 10315,
    "ulged": 12735,
    "Ġprobability": 1125,
    "Ġdines": 21426,
    "Ġcran": 12005,
    "ceiving": 3902,
    "ignity": 4373,
    "attachment": 13057,
    "Ġobserving": 6080,
    "preserving": 25305,
    "Ġhusbands": 16645,
    "handle": 11192,
    "Ġhold": 2243,
    "¢": 100,
    "chancing": 22921,
    "Ġraving": 16118,
    "Ġperforming": 7928,
    "Ġdisposed": 7084,
    "Ġdispleased": 18556,
    "lads": 20957,
    "Ġcoroner": 7509,
    "spin": 22734,
    "Ġjost": 23632,
    "Ġtour": 9150,
    "Ġhastened": 9007,
    "spending": 18690,
    "uity": 12522,
    "dared": 13706,
    "fact": 6359,
    "Ã¦st": 24177,
    "Ġquadrant": 11406,
    "Ġtrumpet": 9576,
    "Ġplant": 8903,
    "https": 11688,
    "Ġnoise": 1071,
    "Ġpastures": 23423,
    "Ġpan": 5081,
    "runs": 25416,
    "Ġcrest": 12946,
    "Ġmaking": 1780,
    "Ġsides": 4577,
    "Ġrepose": 6742,
    "Ġbankrupt": 16798,
    "Ġriggers": 24158,
    "ate": 422,
    "Ġwilds": 16511,
    "Ġgallons": 14820,
    "Ġ550": 19639,
    "eur": 7544,
    "Ġresiding": 16065,
    "Ġupd": 947,
    "Ġstruck": 3390,
    "Ġdamning": 19141,
    "Ġjuncture": 17132,
    "Ġsupremacy": 20263,
    "worn": 13809,
    "Ġsickly": 16776,
    "iour": 4036,
    "sc": 1258,
    "Ġeyelashes": 26107,
    "Ġpent": 17903,
    "Ġclients": 19735,
    "Ġvishnoo": 12758,
    "Ġtumbling": 13828,
    "Ġbridle": 24682,
    "oved": 5215,
    "iff": 3905,
    "Ġhellaswag": 24343,
    "nantucketer": 24975,
    "consider": 6349,
    "Ġencounter": 6629,
    "pede": 19932,
    "Ġtant": 12530,
    "ruin": 22180,
    "wered": 2688,
    "Ġshudderings": 25201,
    "nar": 12498,
    "Ġinf": 1754,
    "Ġdescrib": 2716,
    "oned": 4629,
    "mystery": 15159,
    "Ġsingularly": 12153,
    "Ġch": 512,
    "Ġtrif": 6269,
    "Ġabated": 18391,
    "Ġswarm": 23055,
    "loom": 18538,
    "intu": 22936,
    "Ġdoll": 10815,
    "respectable": 19849,
    "Ġtreasures": 17048,
    "black": 6768,
    "Ġparallel": 1414,
    "Ġconjure": 17126,
    "Ġinterpretation": 19719,
    "entropy": 1437,
    "Ġsuavely": 26525,
    "Ġenergetic": 15201,
    "Ġrequisite": 18632,
    "ierce": 14394,
    "Ġdeceit": 13485,
    "australian": 20564,
    "Ġ2026": 12339,
    "quadrille": 20598,
    "chambers": 25455,
    "Ġpadded": 25039,
    "Ġpresum": 4838,
    "Ġacre": 22684,
    "Ġpruning": 18971,
    "Ġpetulance": 24230,
    "Ġtranquillize": 24756,
    "Ġpacific": 5153,
    "georgiana": 26021,
    "ascal": 10195,
    "desire": 14664,
    "pursu": 11394,
    "Ġcourtship": 24137,
    "Ġbuffaloes": 25218,
    "Ġale": 9157,
    "Ġflurry": 18862,
    "athed": 7828,
    "formal": 14169,
    "Ġunanswerable": 26523,
    "aved": 5475,
    "Ġausten": 5881,
    "Ġbel": 1215,
    "Ġtwit": 12934,
    "Ġcommitting": 22676,
    "Ġunfulfilled": 26511,
    "Ġhandle": 3141,
    "Ġconception": 10321,
    "Ġworthy": 7240,
    "Ġwreaths": 25938,
    "Ġtarpaul": 17732,
    "Ġbast": 21382,
    "chants": 21695,
    "Ġissue": 2309,
    "Ġsubsequent": 7658,
    "Ġtangles": 25762,
    "Ġcuvier": 9168,
    "Ġbended": 21388,
    "Ġjenkinson": 11433,
    "Ġrequ": 799,
    "farm": 15355,
    "Ġgradually": 3401,
    "Ġstrait": 23752,
    "thrust": 10264,
    "Ġprolong": 6831,
    "complain": 14360,
    "Ġinterval": 4052,
    "/": 19,
    "Ġsaying": 3249,
    "Ġtormenting": 15108,
    "Ġinquirers": 24965,
    "Ġdisgrace": 7214,
    "oup": 2014,
    "Ġshipw": 12984,
    "Ġgiving": 4083,
    "grow": 10101,
    "Ġjudging": 16597,
    "fig": 8738,
    "Ġsubmerged": 11876,
    "Ġaloysius": 15742,
    "Ġcasting": 12105,
    "Ġthr": 5709,
    "Ġimpatient": 5603,
    "blocks": 25518,
    "Ġrigging": 5601,
    "Ġallows": 3238,
    "divers": 15346,
    "Ġruminated": 24600,
    "lakeman": 13754,
    "Ġlabels": 3291,
    "Ġmax": 2006,
    "Ġawful": 6200,
    "Ġadvance": 5484,
    "exception": 9979,
    "appalling": 22846,
    "Ġrevolver": 14903,
    "Ġalarm": 4046,
    "Ġmedic": 11258,
    "Ġdemeanour": 17340,
    "Ġq": 1087,
    "Ġeigen": 4881,
    "evenings": 19466,
    "Ġsomnambul": 26578,
    "Ġhapp": 1091,
    "encyclopÃ¦dia": 16666,
    "Ġfolds": 12211,
    "son": 2326,
    "Ġboard": 3384,
    "flutterings": 26608,
    "Ġsustenance": 19937,
    "ental": 7168,
    "Ġopenness": 18958,
    "empty": 23636,
    "lotts": 23829,
    "Ġpeeling": 22695,
    "ht": 376,
    "Ġwa": 1751,
    "Ġdella": 21442,
    "jumping": 20248,
    "Ġ110": 24435,
    "olet": 13769,
    "Ġmanagement": 8193,
    "Ġconnecting": 18631,
    "ror": 7350,
    "backs": 9394,
    "Ġpractises": 23330,
    "reported": 24493,
    "Ġsullen": 9160,
    "zz": 4291,
    "Ġquee": 1978,
    "Ġbelfry": 26440,
    "Ġcredulous": 17147,
    "sings": 4250,
    "Ġloop": 14149,
    "Ġdeny": 7487,
    "Ġstup": 14009,
    "Ġgilt": 21609,
    "reader": 23850,
    "Ġconstables": 19072,
    "Ġaccidents": 10298,
    "nib": 5214,
    "Ġinclosed": 19541,
    "Ġengra": 7874,
    "Ġcaptain": 1601,
    "Ġcalifornia": 20533,
    "Ġwand": 4340,
    "idel": 5301,
    "Ġbuffalo": 11431,
    "rom": 420,
    "Ġunfathomably": 25874,
    "ellow": 3875,
    "likewise": 13110,
    "encies": 4078,
    "Ġhorrid": 7999,
    "gall": 6360,
    "Ġcoupled": 16853,
    "Ġcovers": 18595,
    "said": 4103,
    "itz": 6006,
    "onents": 8781,
    "Ġsetbacks": 11065,
    "Ġmoustache": 20487,
    "Ġdies": 11596,
    "intelligence": 5883,
    "Ġsuccessfully": 19432,
    "arking": 16129,
    ":": 30,
    "Ġtolland": 24991,
    "frank": 7757,
    "Ġimposed": 14219,
    "tottenham": 25419,
    "Ġrapturously": 24889,
    "Ġansw": 2202,
    "ines": 668,
    "shirt": 22462,
    "irth": 5634,
    "Ġhusband": 3622,
    "Ġmeditate": 16709,
    "Ġced": 10786,
    "Ġtidy": 17094,
    "Ġpurring": 23477,
    "Ġtremulous": 14989,
    "Ġuncompromised": 20606,
    "Ġdeck": 2136,
    "Ġpalsy": 25779,
    "Ġsulkily": 25882,
    "accessible": 13643,
    "rail": 10207,
    "Ġunhe": 22014,
    "Ġconscious": 7743,
    "antucket": 2642,
    "reflections": 24734,
    "ere": 6789,
    "intention": 10370,
    "requiem": 24857,
    "Ġshrugged": 12774,
    "Ġunf": 4087,
    "Ġtask": 1308,
    "Ġwithin": 2161,
    "Ġbelieve": 2143,
    "leman": 21371,
    "Ġdeclare": 6615,
    "Ġtechniques": 2867,
    "tland": 21076,
    "Ġirreduc": 5491,
    "allic": 12818,
    "Ġfelix": 4849,
    "inordinate": 21197,
    "Ġeve": 13973,
    "Ġcate": 4108,
    "ļ": 253,
    "parts": 14603,
    "Ġeste": 6084,
    "Ġaristotle": 25818,
    "Ġloud": 4700,
    "Ġbow": 3065,
    "sole": 6169,
    "annica": 24562,
    "Ġexhibited": 9547,
    "Ġforbearing": 25101,
    "ascertaining": 26462,
    "forgot": 11035,
    "Ġfrench": 4938,
    "Ġmiscell": 16153,
    "wing": 2518,
    "tattoo": 21090,
    "houn": 20895,
    "Ġmistifying": 23722,
    "function": 4330,
    "Ġsignify": 16496,
    "ĠĠĠĠĠĠĠĠĠĠĠĠĠĠĠĠĠĠĠĠĠĠ": 16230,
    "Ġhurled": 10431,
    "speckled": 23949,
    "Ġto": 297,
    "Ġade": 22105,
    "Ġdiscoveries": 13363,
    "uns": 21874,
    "similar": 13457,
    "Ġcomplement": 23712,
    "ctic": 8443,
    "umpled": 15880,
    "street": 6495,
    "thumb": 18219,
    "Ġbutts": 15840,
    "Ġsaintly": 25932,
    "Ġstrongest": 11137,
    "Ġsallied": 12542,
    "quently": 9705,
    "didn": 9010,
    "Ġbachel": 7158,
    "Ġpersonal": 7478,
    "Ġric": 18212,
    "surv": 24215,
    "globe": 25145,
    "Ġforger": 15737,
    "Ġcreate": 2090,
    "Ġwhirl": 13453,
    "Ġjest": 18399,
    "aton": 21261,
    "Ġvote": 21951,
    "Ġnugent": 26459,
    "ersed": 10260,
    "Ġporter": 15615,
    "neurons": 3139,
    "Ġshrouded": 14972,
    "Ġfond": 4755,
    "Ġpregn": 22236,
    "Ġdreaming": 11225,
    "Ġgrowing": 6751,
    "Ġlambton": 10660,
    "pain": 7349,
    "Ġexcl": 3475,
    "elius": 13292,
    "tornadoes": 26154,
    "Ġwilful": 10537,
    "Ġconcise": 23324,
    "Ġbarbarous": 13480,
    "Ġrustling": 24714,
    "armon": 23060,
    "Ġash": 4833,
    "Ġinform": 997,
    "eternal": 17985,
    "ittarius": 22384,
    "Ġworsh": 13005,
    "Ġguid": 2636,
    "Ġintrepidity": 25551,
    "sn": 7139,
    "Ġrevisit": 21673,
    "iage": 17575,
    "Ġreply": 4512,
    "Ġme": 351,
    "Ġshin": 18228,
    "task": 13796,
    "acters": 9312,
    "Ġinterrupted": 6344,
    "Ġdepth": 2434,
    "Ġschemes": 11133,
    "Ġstagger": 10594,
    "Ġmercenary": 17196,
    "Ġmapple": 11152,
    "Ġsloop": 25931,
    "Ġinde": 7370,
    "lest": 5290,
    "introduced": 15128,
    "Ġparts": 4163,
    "Ġunresting": 25554,
    "Ġactions": 6279,
    "Ġvoice": 2189,
    "Ġcaptured": 7244,
    "prevented": 20377,
    "Ġtrack": 7449,
    "affrail": 11206,
    "persecut": 22193,
    "beaut": 8514,
    "Ġdiscoursing": 26268,
    "alogies": 25162,
    "Ġskrimshander": 22803,
    "Ġbronze": 22870,
    "Ġface": 1721,
    "/*": 10074,
    "Ġamateur": 22489,
    "ibule": 13012,
    "Ġpeas": 8535,
    "edded": 8558,
    "Ġdict": 9178,
    "Ġperennial": 22697,
    "Ġtransp": 4770,
    "grace": 5847,
    "Ġshrouds": 11346,
    "Ġtusk": 25426,
    "Ġfur": 991,
    "imin": 1769,
    "Ġfurious": 10356,
    "contents": 12062,
    "Ġserene": 8167,
    "ste": 3586,
    "hend": 13257,
    "Ġdauntless": 26338,
    "Ġdeclines": 23968,
    "Ġtreasure": 9561,
    "adventures": 20259,
    "aneously": 4058,
    "bitious": 16672,
    "Ġagrippa": 11811,
    "Ġrusty": 14967,
    "Ġneither": 3689,
    "glances": 23856,
    "Ġenhance": 3030,
    "Ġepoch": 26473,
    "Ġboxed": 24360,
    "Ġsecuring": 11996,
    "Ġtrough": 15967,
    "Ġshri": 5375,
    "Ġscan": 22298,
    "Ġhorrible": 4905,
    "Ġmarine": 23036,
    "Ġdeuteronomy": 15764,
    "oise": 15407,
    "Ġdescends": 14290,
    "worthy": 7732,
    "tu": 12516,
    "Ġitalian": 12414,
    "warn": 11545,
    "conceive": 16033,
    "Ġrepugnant": 26592,
    "Ġintrude": 25991,
    "Ġindomitableness": 26573,
    "Ġjoining": 13168,
    "shake": 22459,
    "aly": 1136,
    "Ġcetus": 19887,
    "Ġlock": 5928,
    "assure": 9272,
    "Ġdeserves": 13294,
    "Ġtheme": 16023,
    "Ġnlp": 3066,
    "kered": 18275,
    "Ġdirt": 15598,
    "Ġjoppa": 12040,
    "Ġadmire": 5264,
    "Ġsword": 6733,
    "Ġlightness": 23263,
    "Ġsold": 6003,
    "uction": 15446,
    "Ġforlorn": 14018,
    "Ġspind": 18308,
    "vill": 10737,
    "feet": 6569,
    "Ġabundant": 17157,
    "Ġinclude": 1874,
    "kins": 7344,
    "Ġgrizzled": 11452,
    "rowed": 22865,
    "Ġascertained": 25297,
    "lacings": 26135,
    "Ġegotistical": 26193,
    "Ġabused": 22273,
    "Ġowl": 20087,
    "Ġunwilling": 7886,
    "Ġauthor": 4374,
    "Ġtasks": 1788,
    "Ġglare": 13018,
    "Ġfishing": 9665,
    "j": 78,
    "cher": 5786,
    "ays": 6684,
    "Ġdark": 2111,
    "Ġaudio": 24771,
    "Ġspleen": 26423,
    "Ġmarchant": 14788,
    "Ġ4": 3984,
    "consciousness": 13370,
    "Ġstraighten": 24009,
    "Ġexertion": 8054,
    "Ġmalice": 7152,
    "otograph": 5827,
    "Ġhysterical": 26093,
    "spiracle": 22739,
    "Ġspeak": 2227,
    "Ġescorted": 23508,
    "mil": 13755,
    "Ġbrid": 6291,
    "Ġthanks": 6708,
    "its": 1149,
    "Ġrear": 6536,
    "Ġbrit": 6290,
    "Ġtapering": 8775,
    "Ġatt": 782,
    "Ġguido": 2978,
    "garious": 17560,
    "Ġcond": 3874,
    "idol": 21770,
    "Ġlaughs": 24118,
    "Ġremainder": 9861,
    "Ġshades": 9466,
    "Ġimpetuously": 20375,
    "Ġparlour": 12325,
    "Ġelaborate": 18636,
    "Ġhowling": 8511,
    "Ġdistribution": 2018,
    "Ġislanders": 19505,
    "Ġcoach": 6866,
    "Ġcordage": 19681,
    "enial": 17782,
    "loveliness": 26551,
    "Ġdireful": 11019,
    "Ġzeal": 9101,
    "Ġafar": 14297,
    "Ġlakes": 8131,
    "Ġheiress": 20700,
    "execution": 20475,
    "Ġfriesland": 26444,
    "ag": 377,
    "Ġrestore": 9383,
    "Ġensures": 3059,
    "accepting": 20138,
    "Ġubiqu": 18049,
    "Ġthee": 2621,
    "commendation": 26351,
    "Ġprecisely": 6466,
    "Ġridge": 14821,
    "urous": 10215,
    "Ġabundantly": 17159,
    "ks": 3149,
    "Ġplunge": 13447,
    "Ġconcert": 11971,
    "Ġreads": 23116,
    "Ġimprisonment": 22395,
    "sue": 2076,
    "Ġpickle": 16724,
    "warks": 5003,
    "Ġkrusen": 20716,
    "soundest": 24796,
    "ind": 567,
    "Ġsinusoid": 4781,
    "taken": 7559,
    "midnight": 14905,
    "Ġmedium": 16708,
    "Ġdiabolical": 20345,
    "Ġtheories": 13852,
    "Ġmistake": 6204,
    "Ġclattered": 22359,
    "ppa": 10242,
    "400": 20757,
    "Ġallev": 18103,
    "Ġfiled": 15584,
    "Ġiceberg": 14719,
    "Ġevening": 2651,
    "Ġcranes": 20386,
    "Ġkingdom": 12023,
    "Ġcheerily": 13312,
    "preserver": 20216,
    "Ġbaggy": 24538,
    "Ġapprehensions": 13408,
    "unusually": 15784,
    "animation": 16981,
    "Ġrestoration": 19028,
    "Ġabsolute": 6765,
    "learned": 8595,
    "anatory": 21366,
    "lob": 22509,
    "Ġw": 272,
    "ugues": 19023,
    "speptic": 23950,
    "Ġassailants": 20452,
    "Ġperpetual": 12307,
    "Ġribbed": 16806,
    "fred": 20857,
    "facts": 19845,
    "bitts": 26123,
    "anging": 3552,
    "Ġfragrant": 13101,
    "Ġdidn": 4361,
    "thee": 9693,
    "Ġexped": 7650,
    "Ġlin": 10835,
    "Ġbrow": 3986,
    "Ġwilliam": 3482,
    "ort": 524,
    "Ġilliter": 23470,
    "ruction": 4356,
    "Ġbillow": 14783,
    "skin": 10571,
    "possible": 5743,
    "nihil": 9855,
    "Ġwants": 5742,
    "Ġoblig": 3445,
    "stolen": 13985,
    "Ġthree": 1369,
    "bber": 4566,
    "Ġdescending": 8906,
    "Ġsurrounding": 12167,
    "Ġpiercing": 13497,
    "covered": 11479,
    "Ġlamentations": 17077,
    "Ġprinces": 23225,
    "Ġnewspaper": 12368,
    "Ġunrolled": 22042,
    "Ġwashed": 15769,
    "assembled": 21548,
    "lished": 8383,
    "Ġmonarch": 14418,
    "promising": 24725,
    "accomplishments": 25327,
    "Ġcruise": 12053,
    "Ġflip": 11916,
    "Ġcass": 13882,
    "dragged": 16610,
    "Ġorb": 22095,
    "Ġscales": 4850,
    "Ġexplaining": 15964,
    "ana": 15563,
    "_.)": 7277,
    "cain": 15329,
    "too": 4505,
    "Ġrigid": 16718,
    "Ġstoop": 16313,
    "rebell": 17765,
    "Ġregardless": 19326,
    "Ġpockets": 8899,
    "eers": 20845,
    "attendants": 25496,
    "Ġfilled": 4393,
    "Ġcritical": 7473,
    "Ġimaginations": 16518,
    "Ġsqualidness": 25844,
    "Ġapproving": 18510,
    "Ġserv": 3331,
    "Ġsynd": 22211,
    "Ġlunacy": 20031,
    "Ġformal": 2941,
    "Ġdesk": 11911,
    "Ġagent": 6278,
    "Ġthoughtfully": 12985,
    "between": 5070,
    "Ġembodiment": 20531,
    "ouraged": 22862,
    "Ġrule": 1533,
    "Ġsurvivors": 25732,
    "âĢľ": 344,
    "Ġopera": 23429,
    "Ġtarget": 2822,
    "Ġsailors": 4275,
    "Ġtransaction": 22443,
    "Ġperformed": 8548,
    "india": 22375,
    "Ġstave": 11654,
    "Ġprofessional": 7298,
    "mile": 17599,
    "Ġfight": 5366,
    "Ġ14": 9326,
    "lue": 8510,
    "perils": 22191,
    "Ġmild": 4145,
    "vag": 8768,
    "Ġrevolutions": 23845,
    "Ġimbalanced": 18336,
    "Ġcanaller": 25468,
    "threw": 21988,
    "pretend": 24883,
    "Ġpettiness": 24232,
    "soo": 18686,
    "ugn": 9381,
    "Ġtemporary": 7981,
    "Ġmic": 17799,
    "carrying": 16714,
    "zar": 11550,
    "Ġhealed": 21686,
    "reply": 19725,
    "Ġshortness": 23483,
    "Ġfragmentary": 25859,
    "Ġdaughter": 2869,
    "furniture": 20245,
    "Ġconf": 1818,
    "Ġscorch": 20070,
    "etuous": 21586,
    "Ġcausal": 3411,
    "ove": 1741,
    "clings": 23154,
    "Ġunprovided": 18264,
    "Ġrug": 16161,
    "Ġinvest": 4977,
    "Ġaffronted": 22896,
    "roylott": 20030,
    "Ġevap": 19626,
    "Ġoutput": 927,
    "ique": 8746,
    "Ġtune": 17727,
    "Ġunimaginable": 15250,
    "Ġswift": 3672,
    "diff": 9116,
    "Ġconqueror": 25797,
    "Ġpanelled": 19657,
    "Ĭ": 237,
    "cap": 8373,
    "Ġenormousness": 24515,
    "Ġanalyze": 1663,
    "Ġmoles": 22436,
    "created": 12455,
    "spoutings": 25004,
    "Ġcommun": 1706,
    "blind": 16704,
    "bbings": 19279,
    "Ġcynical": 25771,
    "Ġsmiled": 5941,
    "thunder": 10265,
    "Ġabode": 7900,
    "Ġcollected": 2609,
    "Ġarmed": 9263,
    "Ġt": 261,
    "Ġhuge": 4699,
    "Ġslacked": 25189,
    "ornamented": 26597,
    "nailed": 20998,
    "Ġsecure": 4912,
    "ence": 393,
    "Ġinvaluable": 10185,
    "û": 188,
    "cadence": 26126,
    "Ġunceasingly": 20362,
    "Ġjones": 7202,
    "Ġseeth": 21957,
    "unities": 15775,
    "Ī": 235,
    "years": 6882,
    "please": 8177,
    "Ġequival": 4784,
    "Ġinducement": 16845,
    "Ġ95": 19776,
    "taking": 5689,
    "Ġep": 7383,
    "Ġback": 825,
    "Ġhardened": 14453,
    "Ġcastaways": 19431,
    "ª": 108,
    "Ġeconomically": 25289,
    "Ġperplexed": 23660,
    "Ġveneration": 25047,
    "Ġmurmur": 14591,
    "Ġunreason": 15847,
    "Ġenvironment": 3575,
    "fashioned": 9573,
    "Ġenterprise": 8645,
    "haired": 14769,
    "ĠĠĠĠĠĠĠĠĠĠĠĠĠĠĠĠĠĠĠĠĠĠĠĠĠĠĠĠĠĠĠĠĠĠĠ": 19261,
    "Ġreconsidered": 21676,
    "agonies": 21913,
    "Ġimplies": 24874,
    "altering": 12645,
    "Ġ(âĢľ": 15999,
    "oment": 920,
    "Ġloaded": 8492,
    "Ġdews": 21843,
    "edmund": 17948,
    "Ġsw": 1353,
    "Ġfoaming": 18992,
    "Ġpracticable": 19059,
    "Ġproduce": 4365,
    "Ġknotted": 17021,
    "Ġheroes": 10579,
    "Ġshocked": 9404,
    "Ġsuffering": 8949,
    "Ġfreer": 23210,
    "wins": 21132,
    "Ġcrockery": 24303,
    "rage": 10845,
    "doc": 23379,
    "Ġrounds": 18887,
    "Ġstates": 1850,
    "arance": 4697,
    "Ġpinched": 17036,
    "Ġunderstanding": 1869,
    "Ġbeth": 9660,
    "Ġbrazen": 23843,
    "regulated": 23469,
    "Ġassemblage": 26354,
    "Ġworkflow": 2637,
    "Ġtons": 11552,
    "suited": 22649,
    "Ġcontinuing": 14400,
    "Ġdisconcerted": 18563,
    "Ġire": 12674,
    "running": 6797,
    "calling": 12454,
    "Ġlevi": 3039,
    "olidity": 18135,
    "Ġtrib": 13822,
    "Ġbesee": 19245,
    "inter": 2948,
    "Ġconvenient": 8346,
    "ta": 13792,
    "Ġpunctil": 20117,
    "Ġofficers": 4424,
    "Ġminimizes": 2045,
    "Ġearlier": 9090,
    "Ġsnatch": 14641,
    "Ġseeks": 14305,
    "Ġcherish": 10592,
    "Ġinch": 7850,
    "you": 1006,
    "Ġkiller": 19571,
    "lighted": 23756,
    "Ġpacing": 8427,
    "Ġdissuade": 26258,
    "Ġsincerely": 7963,
    "asted": 4648,
    "metallic": 19882,
    "Ġkrus": 18350,
    "Ġpleaded": 16302,
    "Ġovercame": 9749,
    "out": 467,
    "Ġchron": 19441,
    "Ġungod": 22028,
    "ingu": 2118,
    "absolute": 17125,
    "Ġdu": 4582,
    "Ġsaturation": 2062,
    "hurriedly": 25511,
    "every": 2811,
    "ceiling": 21630,
    "Ġpropont": 16353,
    "Ġincalcul": 16067,
    "Ġstowed": 21743,
    "Ġsymmetrical": 20370,
    "Ġantiquities": 25599,
    "ĠĠĠĠĠĠĠĠĠĠĠĠĠĠĠĠĠĠĠĠĠĠĠĠĠĠĠĠĠĠĠĠĠĠ": 14615,
    "Ġhospitality": 13516,
    "glue": 17558,
    "Ġtool": 21514,
    "scruple": 26045,
    "Ġchatting": 24746,
    "scale": 3536,
    "mean": 6438,
    "5": 25,
    "aggo": 5096,
    "mant": 20967,
    "elastic": 17983,
    "Ġsuperior": 2751,
    "corpse": 24486,
    "Ġaround": 3613,
    "reached": 13844,
    "peter": 24300,
    "Ġ25": 13198,
    "Ġdevil": 3615,
    "Ġcongeal": 25981,
    "Ġblan": 18818,
    "Ġmumbled": 17809,
    "Ġsleeper": 8604,
    "lives": 12490,
    "Ġdut": 2990,
    "Ġrenew": 6146,
    "Ġsweetness": 9450,
    "Ġgracious": 8851,
    "Ġcarr": 23094,
    "Ġsat": 1130,
    "ity": 416,
    "Ġmystic": 7502,
    "contracting": 19296,
    "Ġspire": 18307,
    "ineer": 11703,
    "Ġgeneration": 2238,
    "Ġyoung": 1505,
    "Ġfiddle": 25445,
    "Ġslept": 8259,
    "Ġserenely": 13510,
    "hab": 1079,
    "Ġreeds": 15700,
    "thirds": 25049,
    "Ġbas": 6380,
    "Ġsauc": 15892,
    "Ġwriters": 13546,
    "Ġmaid": 5287,
    "verbally": 25361,
    "mar": 4334,
    "Ġdispositions": 13237,
    "icant": 21565,
    "Ġsple": 21218,
    "Ġinsensibility": 17111,
    "Ġpresuming": 16795,
    "mason": 17604,
    "Ġmadly": 16487,
    "Ġclinging": 10294,
    "Ġaffectionate": 5585,
    "ogn": 2458,
    "ended": 1832,
    "Ġhissing": 15794,
    "Ġoperation": 12003,
    "endar": 18365,
    "being": 3913,
    "everything": 6325,
    "Ġfearful": 6198,
    "Ġshoal": 12020,
    "contrasted": 17309,
    "shavings": 22467,
    "tee": 16175,
    "Ġfamilies": 8027,
    "derer": 4598,
    "Ġfearless": 9878,
    "building": 17312,
    "Ġnigh": 4878,
    "Ġviciously": 24404,
    "Ġschedules": 3387,
    "undoubtedly": 13316,
    "oth": 1185,
    "Ġcircumference": 13548,
    "ositories": 22268,
    "pemberley": 9623,
    "camp": 15333,
    "Ġimage": 3404,
    "Ġrevel": 9217,
    "Ġabstracted": 17185,
    "Ġevian": 24294,
    "bodily": 17318,
    "Ġexig": 21830,
    "ose": 718,
    "speechless": 25396,
    "Ġuninhabited": 22055,
    "_.âĢĿ": 5886,
    "broke": 14781,
    "stooped": 23825,
    "teous": 16176,
    "Ġdependen": 1827,
    "Ġneedn": 19231,
    "Ġvelvets": 25394,
    "Ġstro": 4593,
    "Ġmoderate": 10941,
    "Ġproflig": 23569,
    "consolatory": 25307,
    "Ġheave": 7599,
    "Ġseethings": 26505,
    "nearest": 16026,
    "acher": 6867,
    "Ġsundry": 20077,
    "antique": 18289,
    "ract": 1002,
    "spirit": 11315,
    "valued": 2853,
    "arian": 10318,
    "Ġcountless": 16386,
    "dist": 4478,
    "date": 17519,
    "Ġwindpipe": 23109,
    "Ġgrapple": 25812,
    "Ġgrunt": 18737,
    "Ġtwentieth": 18660,
    "Ġdifficult": 3572,
    "quarters": 24949,
    "Ġcasually": 25096,
    "acted": 11012,
    "elstrom": 17984,
    "lad": 5992,
    "Ġpreliminaries": 25177,
    "Ġeag": 2967,
    "Ġchowders": 18387,
    "Ġtracing": 18891,
    "Ġsneer": 13451,
    "Ġslice": 23164,
    "Ġsoar": 18284,
    "edy": 2859,
    "Ġnewspapers": 17189,
    "Ġmonotonically": 3834,
    "cannib": 11906,
    "Ġlysander": 13143,
    "oid": 3131,
    "Ġwalled": 15538,
    "resent": 10771,
    "ide": 721,
    "Ġ76": 24265,
    "Ġangry": 5498,
    "Ġhereford": 22880,
    "Ġcabinet": 23864,
    "Ġcolumbus": 26566,
    "Ġdistant": 5387,
    "Ġindefatigable": 17180,
    "ugging": 23293,
    "Ġintently": 8169,
    "Ġbalanced": 12994,
    "oregressive": 3424,
    "Ġfrenz": 25447,
    "amped": 12037,
    "Ġnavel": 24577,
    "c": 71,
    "stein": 5505,
    "Ġferguson": 17472,
    "exp": 2736,
    "Ġemblematical": 25789,
    "Ġshocks": 16459,
    "Ġlong": 795,
    "Ġdisput": 14258,
    "tray": 21080,
    "Ġdam": 2212,
    "Ġdisabled": 18562,
    "Ġenlivened": 26209,
    "Ġxerxes": 23414,
    "Ġanyhow": 14257,
    "hess": 4747,
    "Ġrob": 1280,
    "places": 7879,
    "Ġpract": 1860,
    "asant": 17961,
    "Ġpursuit": 4732,
    "Ġprimary": 25063,
    "Ġunexpl": 22043,
    "Ġmallet": 17812,
    "ried": 924,
    "Ġarea": 14189,
    "Ġaverred": 18866,
    "crossing": 19414,
    "arson": 22751,
    "Ġyaw": 18097,
    "Ġdetaining": 25819,
    "endure": 22229,
    "picture": 11409,
    "Ġunrem": 18248,
    "Ġforg": 3789,
    "Ġlizz": 21560,
    "Ġdro": 2771,
    "road": 6678,
    "ert": 2630,
    "Ġuncomfortable": 8487,
    "._)": 10483,
    "extremely": 26266,
    "dering": 5307,
    "Ġflush": 14427,
    "Ġsecret": 3722,
    "measureless": 20238,
    "Ġunc": 2123,
    "desperate": 17360,
    "examined": 17269,
    "Ġsolace": 16203,
    "Ġingenious": 12352,
    "Ġark": 10278,
    "Ġloading": 15878,
    "Ġsolution": 9808,
    "Ġtenement": 23551,
    "Ġhawaiian": 25367,
    "ulnerable": 18153,
    "Ġinsure": 13184,
    "Ġbristol": 14383,
    "itous": 13870,
    "Ġmurder": 4279,
    "Ġmoose": 22435,
    "Ġmeasure": 3595,
    "hammer": 14491,
    "Ġchamp": 18382,
    "Ġhates": 21489,
    "Ġages": 7029,
    "Ġclerks": 17298,
    "Ġtransom": 22442,
    "Ġcivilised": 24247,
    "Ġsuspect": 5758,
    "chorus": 19814,
    "inquiry": 15146,
    "access": 11182,
    "Ġquiet": 3265,
    "Ġexhilarating": 26339,
    "accept": 8901,
    "Ġhelp": 1637,
    "Ġsuckling": 25998,
    "lemagne": 26438,
    "Ġquieted": 23846,
    "angled": 6843,
    "Ġvehement": 16205,
    "reasoning": 9479,
    "mospheric": 17092,
    "Ġlingering": 11381,
    "Ġentreaties": 9038,
    "inhab": 10759,
    "Ġnormal": 1203,
    "rote": 4590,
    "Ġgeese": 7693,
    "jol": 20927,
    "Ġre": 317,
    "respect": 6374,
    "Ġrecoil": 18695,
    "Ġstepped": 7052,
    "Ġball": 3625,
    "dreaded": 25141,
    "Ġkills": 15910,
    "Ġhipp": 21495,
    "Ġscandalous": 24880,
    "immortal": 21713,
    "Ġcutting": 4982,
    "izer": 2029,
    "Ġavoid": 5199,
    "Ġreplenished": 13640,
    "Ġcleans": 18950,
    "Ġengraved": 17082,
    "wake": 11548,
    "Ġprincess": 23226,
    "Ġsorrow": 4627,
    "Ġintermix": 25827,
    "Ġpolicy": 10459,
    "also": 7851,
    "Ġaston": 3704,
    "Ġboys": 5194,
    "ĺ": 251,
    "Ġseam": 3908,
    "servants": 15040,
    "laden": 14932,
    "Ġstre": 2106,
    "Ġopium": 8997,
    "Ġplanisp": 24062,
    "Ġmeagre": 21814,
    "Ġatmosphere": 10899,
    "barb": 10083,
    "Ġmes": 17798,
    "Ġbund": 17865,
    "Ġinvis": 6901,
    "Ġcalculate": 13268,
    "Ġplied": 22604,
    "Ġmorbid": 16238,
    "Ġledgers": 23942,
    "Ġgallery": 10527,
    "Ġrude": 7233,
    "Ġvisits": 8223,
    "cheered": 23808,
    "bring": 9108,
    "Ġstraight": 3705,
    "Ġugly": 8719,
    "Ġcitations": 25438,
    "lege": 17843,
    "Ġimpious": 15991,
    "Ġsilken": 16385,
    "uvier": 9071,
    "Ġdistended": 16046,
    "tot": 10730,
    "Õ": 150,
    "Ġinsufficient": 9675,
    "Ġsuspects": 16892,
    "sch": 21053,
    "reason": 4413,
    "Ġexasperate": 20101,
    "Ġvariance": 1167,
    "Ġtube": 15005,
    "explaining": 23146,
    "Ġhotels": 19539,
    "Ġwreak": 16819,
    "eskye": 21487,
    "Ġarchipelagoes": 14350,
    "Ġdew": 14048,
    "Ġworthless": 19568,
    "Ġcornelius": 13577,
    "fright": 9598,
    "ness": 852,
    "independent": 26022,
    "Ġpaid": 5014,
    "Ġsolving": 2478,
    "Ġ[_": 15464,
    "aped": 3765,
    "ourage": 2446,
    "Ġdisguises": 25058,
    "ootiful": 17376,
    "future": 13720,
    "william": 4560,
    "season": 14037,
    "Ġpencil": 11947,
    "theless": 4259,
    "Ġbrother": 2747,
    "multiple": 15111,
    "Ġperseverance": 13601,
    "Ġpedro": 15066,
    "dra": 3414,
    "Ġblossom": 26313,
    "Ġdistressed": 8515,
    "Ġcowardice": 17033,
    "Ġmastiff": 23727,
    "omical": 9683,
    "security": 26208,
    "imens": 1744,
    "Ġconting": 18473,
    "Ġtender": 5753,
    "pitch": 13303,
    "Ġpositives": 4315,
    "Ġawaken": 23588,
    "objections": 19918,
    "Ġpistol": 7847,
    "Ġcumulative": 4208,
    "Ġrattled": 15070,
    "Ġprofessors": 14728,
    "neying": 22453,
    ")âĢĶâĢľ": 20745,
    "Ġvehemently": 26040,
    "decan": 22145,
    "little": 3353,
    "_": 67,
    "Ġaccost": 12850,
    "ape": 1906,
    "marvell": 24174,
    "turbaned": 24532,
    "Ġvessel": 3800,
    "Ġwoof": 14724,
    "Ġrecovering": 11867,
    "Ġvehem": 22892,
    "aft": 9586,
    "Ġstow": 21737,
    "nets": 9135,
    "Ġprivile": 8649,
    "Ġlogits": 3450,
    "Ġinvented": 17038,
    "icates": 11620,
    "Ġaverted": 16258,
    "Ġembalmed": 13660,
    "Ġsavages": 9915,
    "Ġ*/": 10376,
    "](": 11468,
    "guard": 12133,
    "constantly": 24607,
    "Ġfundament": 2926,
    "Ġhairs": 13235,
    "Ġdistraction": 22508,
    "aract": 17896,
    "Ġbleak": 10561,
    "Ġtarn": 21161,
    "Ġensue": 18191,
    "Ġminded": 23234,
    "ernity": 18616,
    "Ġcoiling": 12910,
    "promised": 12256,
    "Ġstirs": 14920,
    "Ġimpertinent": 9080,
    "Ġindividually": 22960,
    "Ġsake": 4089,
    "Ġreced": 15696,
    "Ġdespond": 14670,
    "Ġrally": 21975,
    "Ġdiversity": 25285,
    "otic": 15749,
    "customary": 25896,
    "Ġbirds": 5874,
    "Ġlight": 1701,
    "mystic": 25317,
    "Ġdestro": 3724,
    "Ġplot": 14284,
    "Ġcritically": 23446,
    "Ġbranded": 14382,
    "otions": 7180,
    "_).âĢĶ": 8685,
    "Ġblueprints": 13177,
    "Ġguided": 10462,
    "Ġluc": 3313,
    "Ġbeliefs": 24583,
    "letons": 14614,
    "unsupervised": 10891,
    "Ġopened": 3513,
    "Ġhats": 14620,
    "oric": 21399,
    "č": 206,
    "Ġdrowning": 19906,
    "Ġchristians": 13313,
    "Ġlewis": 15723,
    "Ġadie": 8490,
    "manned": 18763,
    "Ġconstantly": 11977,
    "Ġsurf": 19133,
    "Ġuninjured": 22060,
    "fug": 17545,
    "prejudice": 25572,
    "Ġmaria": 7125,
    "Ġhish": 21918,
    "icism": 13959,
    "Ġquiescent": 26244,
    "le": 279,
    "retreat": 23141,
    "Ġstingy": 25456,
    "Ġnoblest": 13246,
    "Ġinvestigations": 17249,
    "view": 5896,
    "Ġ177": 13416,
    "Ġbleeds": 24397,
    "myst": 9825,
    "ulent": 21866,
    "tick": 17680,
    "joice": 9605,
    "eaten": 20347,
    "Ġexploit": 19164,
    "Ġdoing": 3663,
    "Ġagrees": 22520,
    "national": 21000,
    "stochastic": 3775,
    "Ġankles": 17901,
    "deceptive": 22153,
    "Ġsod": 11564,
    "Ġholds": 7976,
    "mal": 6794,
    "Ġfacing": 10174,
    "Ġevermore": 18813,
    "matlock": 23471,
    "Ġfirmness": 11239,
    "com": 996,
    "Ġsheepfold": 25467,
    "Ġrecovery": 11443,
    "Ġwoodcock": 19165,
    "appin": 18759,
    "Ġcrisis": 13130,
    "man": 1053,
    "Ġswamp": 14439,
    "Ġselected": 9713,
    "privilege": 25264,
    "Ġluck": 4880,
    "&": 10,
    "Ġfuture": 1074,
    "frequently": 9982,
    "menced": 23148,
    "Ġdromedary": 17442,
    "Ġgot": 2279,
    "roman": 22008,
    "Ġindia": 10373,
    "Ġlou": 6821,
    "otics": 10226,
    "Ġmole": 11795,
    "eter": 11624,
    "Ġartful": 22613,
    "âĢľâĢĶ": 10874,
    "visitor": 15060,
    "Ġagitation": 6864,
    "Ġcalled": 1971,
    "volutions": 16325,
    "new": 1463,
    "remonstr": 23194,
    "Ġfris": 23258,
    "Ġdandy": 17894,
    "Ġlick": 21553,
    "Ġfields": 2140,
    "strong": 6323,
    "Ġunp": 12778,
    "Ġuseless": 7038,
    "Ġde": 365,
    "Ġcotton": 17382,
    "Ġindustry": 18839,
    "into": 3683,
    "Ġsubordinate": 18723,
    "Ġpenet": 6887,
    "ding": 3031,
    "wer": 8396,
    "Ġforeseen": 16443,
    "ys": 3959,
    "Ġmodes": 22225,
    "unted": 6998,
    "Ġtahit": 10756,
    "Ġwitnessed": 14847,
    "Ġanything": 2185,
    "Ġchronicled": 25329,
    "moil": 22706,
    "starbuck": 6019,
    "Ġcitizens": 25440,
    "Ġado": 7626,
    "Ġlongitude": 11013,
    "Ġfedallah": 6109,
    "Ġprogressive": 5023,
    "Ġstri": 2803,
    "Ġstript": 23694,
    "steady": 14712,
    "Ġprices": 15616,
    "movable": 14327,
    "Ġbunger": 9999,
    "around": 12613,
    "Ġclosed": 4603,
    "Ġupp": 13995,
    "cary": 10693,
    "Ġautoregressive": 3432,
    "Ġostentatiously": 20472,
    "Ġwhaleboats": 18479,
    "Ġnoah": 10944,
    "wards": 1276,
    "linging": 16082,
    "Ġoperated": 14549,
    "Ġrobert": 10972,
    "Ġdeficient": 18827,
    "Ġblocks": 6322,
    "maul": 11894,
    "warmly": 25029,
    "Ġothers": 2581,
    "msgate": 18413,
    "Ġtesting": 23213,
    "Ġfidel": 12601,
    "sleepers": 24729,
    "Ġsurplus": 26304,
    "ignomin": 23269,
    "Ġentrances": 25836,
    "Ġcautiously": 16979,
    "Ġsuited": 12789,
    "Ġost": 9652,
    "bitterly": 20340,
    "Ġst": 333,
    "Ġstore": 8455,
    "Ġengland": 3857,
    "Ġsmack": 9303,
    "fanning": 20868,
    "Ġbye": 12743,
    "ition": 652,
    "belief": 13286,
    "Ġdug": 21433,
    "Ġaverages": 2396,
    "Ġprizes": 13078,
    "Ġwax": 10778,
    "romised": 14115,
    "monkey": 19172,
    "Ġgiants": 25961,
    "Ġswitching": 23058,
    "Ġtens": 17725,
    "cleanliness": 25872,
    "months": 9074,
    "mont": 19171,
    "Ġcongrat": 5828,
    "Ġpile": 8425,
    "Ġobjective": 3766,
    "Ġfemales": 14940,
    "enari": 21284,
    "clock": 3933,
    "cong": 10691,
    "Ġmix": 7576,
    "Ġstarbuck": 2192,
    "Ġgenerate": 1550,
    "Ġcelebrate": 26359,
    "Ġrampart": 20321,
    "moreover": 12974,
    "Ġhappier": 10362,
    "boscombe": 26122,
    ".âĢĿ": 464,
    "Ġseals": 11699,
    "usal": 7638,
    "Ġimmured": 24075,
    "Ġallusion": 7625,
    "Ġalongside": 6312,
    "Ġconstrained": 19242,
    "Ġbounce": 21396,
    "elaborate": 21579,
    "Ġisles": 8461,
    "beating": 22494,
    "Ġparamet": 609,
    "recognised": 15266,
    "arers": 12134,
    "ĠĠĠĠĠĠĠĠĠĠĠĠĠĠĠĠĠĠĠĠĠĠĠĠ": 5322,
    "Ġeither": 2602,
    "Ġnormalizing": 1820,
    "posture": 16929,
    "Í": 142,
    "Ġdiscovery": 5412,
    "nelson": 25621,
    "ern": 763,
    "Ġungenerous": 18270,
    "skirted": 24489,
    "Ġexper": 1288,
    "Ġguar": 23047,
    "Ġdesponding": 25869,
    "trem": 17683,
    "Ġnavigators": 19766,
    "travellers": 24339,
    "Ġstudent": 14481,
    "Ġjamming": 17267,
    "terogene": 21829,
    "pag": 11513,
    "Ġdeceased": 15008,
    "yl": 7818,
    "Ġtinker": 15135,
    "Ġmr": 661,
    "vings": 9754,
    "Ġcapt": 1291,
    "ion": 296,
    "Ġgoal": 10304,
    "Ġintentionally": 24523,
    "pardonable": 17220,
    "effectually": 25131,
    "Ġmart": 10781,
    "Ġtrick": 7019,
    "owed": 2268,
    "heavens": 19748,
    "Ġsuperlatively": 26076,
    "freely": 16856,
    "authority": 13595,
    "Ġclose": 3041,
    "Ġerred": 21159,
    "Ġfearfully": 23515,
    "Ġfads": 21419,
    "Ġcontrols": 1731,
    "Ġassert": 7121,
    "Ġcoins": 11823,
    "ssip": 14082,
    "three": 5239,
    "Ġhap": 18196,
    "convul": 24884,
    "mature": 20969,
    "odd": 21818,
    "Ġcontains": 2793,
    "ibilities": 13013,
    "akeman": 6268,
    "Ġhumiliating": 22885,
    "Ġdrink": 4787,
    "including": 23592,
    "Ġbeheaded": 11659,
    "Ġdigress": 24649,
    "swimming": 24261,
    "Ġket": 18348,
    "Ġsphynx": 20714,
    "hullo": 17572,
    "amiable": 14056,
    "sych": 9898,
    "Ġdanes": 25160,
    "Ġtil": 12529,
    "Ġdawn": 6816,
    "Ġshouted": 5348,
    "Ġoarsmen": 7737,
    "arming": 8954,
    "Ġgardener": 19136,
    "Ġcuriosity": 2594,
    "Ġdevotedly": 24749,
    "Ġvirt": 3907,
    "carpenter": 11429,
    "amet": 585,
    "necessarily": 19634,
    "Ġsemicirc": 16397,
    "ivot": 11722,
[...]
