{
  "metadata": {
    "vocab_size": 26615,
    "algorithm": "BPE",
    "created_at": "2026-07-10 06:01:53",
    "special_tokens": [
      "<PAD>",
      "<SOS>",
      "<EOS>",
      "<UNK>",
      "<MASK>"
    ]
  },
  "vocab": {
    "ise": 707,
    "Ġsuavely": 26524,
    "icide": 11620,
    "Ġinex": 6529,
    "cats": 17513,
    "Ġtorture": 9067,
    "silence": 8046,
    "ignantly": 23269,
    "Ġpale": 4532,
    "Ġfemin": 13439,
    "Ġequinox": 25857,
    "telescope": 26563,
    "Ġsinners": 18952,
    "Ġclaim": 5106,
    "preserve": 25304,
    "darkness": 9514,
    "Ġsmokes": 22565,
    "motion": 17607,
    "Ġcrush": 9424,
    "Ġblind": 3715,
    "Ġenjoying": 11235,
    "Ġgaiters": 20464,
    "Ġenhancement": 23748,
    "duodecimo": 16005,
    "e": 73,
    "imp": 3038,
    "Ġuser": 15919,
    "Ġcostume": 16497,
    "inked": 12917,
    "particulars": 11316,
    "Ġlets": 18079,
    "Ġaveraging": 2421,
    "Ġniece": 5712,
    "draught": 12094,
    "Ġsavagely": 26325,
    "ran": 11517,
    "Ġbreadth": 10565,
    "Ġtwink": 8217,
    "charm": 13992,
    "eminence": 20102,
    "box": 5749,
    "frankly": 20025,
    "aulets": 18623,
    "Ġdistributed": 18662,
    "partly": 14603,
    "Ġne": 391,
    "vitiated": 25755,
    "Ġlegal": 10440,
    "ails": 6162,
    "Ġfestoon": 20297,
    "Ġ112": 24436,
    "pans": 13772,
    "semic": 21826,
    "factories": 19846,
    "roll": 9198,
    "Ġislets": 21806,
    "rown": 2190,
    "generative": 4327,
    "Ġmill": 6669,
    "Ġobliquely": 12365,
    "Ġ134": 24783,
    "ompl": 4536,
    "Ġwomen": 4750,
    "gin": 4930,
    "Ġaccorded": 24092,
    "Ġmend": 8408,
    "Ġknocking": 10561,
    "Ġbeget": 9227,
    "Ġlighted": 7065,
    "Ġeul": 21622,
    "created": 12454,
    "Ġsphere": 15886,
    "nosed": 20994,
    "atiate": 12552,
    "Ġgrease": 26191,
    "Ġdeclaration": 16638,
    "Ġconstructed": 9389,
    "Ġdepresses": 25798,
    "Ġclank": 15968,
    "Ġparting": 9786,
    "Ġpatriot": 23276,
    "asiness": 8130,
    "Ġboast": 7036,
    "hib": 15370,
    "Ġpagoda": 19791,
    "lances": 15386,
    "'m": 9584,
    "Ġwin": 9643,
    "Ġconstitutes": 13555,
    "lled": 10109,
    "ory": 1081,
    "weep": 22688,
    "ishes": 6524,
    "Ġunconcerned": 20513,
    "Ġsystem": 573,
    "Ġeleg": 6194,
    "arrow": 4175,
    "Ġscrutin": 26015,
    "anc": 6380,
    "interview": 19301,
    "Ġknows": 4155,
    "...": 24548,
    "Ġbaff": 10800,
    "cus": 3977,
    "rer": 3623,
    "irra": 15789,
    "Ġcomplaisance": 19452,
    "Ġausten": 5883,
    "Ġsaxon": 25469,
    "Ġarms": 3963,
    "Ġbranch": 8333,
    "lady": 4432,
    "Ġinsignificance": 20460,
    "Ġinner": 9672,
    "Ġin": 291,
    "aces": 2069,
    "supp": 4157,
    "iam": 2509,
    "Ġberkshire": 16885,
    "wreck": 21139,
    "Ġfundamentals": 14636,
    "prejud": 11799,
    "Ġfiltering": 23930,
    "ssian": 3399,
    "Ġallow": 1126,
    "flung": 16640,
    "Ġrecur": 1621,
    "through": 4021,
    "Ġwrenched": 12562,
    "Ġrepentance": 15163,
    "code": 15331,
    "farm": 15354,
    "Ġserenity": 10030,
    "emph": 21931,
    "conclusion": 25672,
    "disposition": 10044,
    "Ġdoom": 6418,
    "Ġvancou": 22880,
    "beside": 19879,
    "Ġdoing": 3661,
    "Ġcrept": 11022,
    "peculiarity": 23114,
    "Ġsavage": 4008,
    "judgment": 16754,
    "Ġinvaders": 23482,
    "detained": 24381,
    "Ġgull": 15674,
    "Ġrept": 13985,
    "Ġcutting": 4982,
    "ob": 1419,
    "orrow": 2918,
    "Ġsog": 22086,
    "summon": 23418,
    "lour": 15383,
    "Ġalbatross": 10872,
    "Ġmovements": 24358,
    "Ġfarmhouse": 24989,
    "Ġpurchases": 24755,
    "Ġanalog": 12616,
    "uvian": 12246,
    "thank": 4949,
    "Ġ85": 24459,
    "Ġbuilding": 8064,
    "orts": 2556,
    "suspicions": 25392,
    "ships": 5486,
    "Ġinjection": 3466,
    "Ġforeseeing": 23451,
    "Ġcolony": 18767,
    "Ġpains": 5967,
    "Ġboscombe": 8327,
    "00": 1610,
    "wester": 21141,
    "Ġbalances": 2341,
    "thoughtfully": 24047,
    "Ġruggedness": 26270,
    "Ġdistributions": 1051,
    "Ġtrif": 6271,
    "Ġphase": 14473,
    "ī": 236,
    "Ġmere": 2712,
    "oder": 2460,
    "Ġbags": 24536,
    "Ġexquisitely": 20205,
    "Ġdes": 1251,
    "Ġglen": 18853,
    "Ġraw": 3322,
    "Ġwebster": 20164,
    "Ġknew": 2055,
    "Ġbrixton": 13666,
    "Ġchoosing": 19593,
    "ĠâĢľâĢĺ": 8506,
    "Ġemblazonings": 26043,
    "Ġdifficulties": 11226,
    "uth": 3022,
    "Ġfurs": 18742,
    "onsense": 6432,
    "Ġtokens": 1772,
    "Ġgourmand": 26467,
    "Ġsob": 12788,
    "Ġgoal": 10303,
    "Ġdesolate": 10015,
    "rab": 7598,
    "umbrance": 22123,
    "Ġenvied": 19289,
    "aciously": 12900,
    "Ġwilling": 7421,
    "Ġcirclings": 26432,
    "recked": 17763,
    "Ġto": 297,
    "Ġspiced": 22138,
    "phant": 6289,
    "Ġ200": 19298,
    "Ġscriptures": 26237,
    "unusual": 21884,
    "will": 1968,
    "Ġtreading": 16506,
    "vard": 21113,
    "abez": 10224,
    "capt": 3834,
    "ý": 190,
    "avo": 8522,
    "Ġunaffected": 14124,
    "ggling": 19098,
    "transom": 19737,
    "anth": 13889,
    "Ġwhistles": 24626,
    "xic": 9147,
    "Ġsadder": 24054,
    "Ġsuffer": 4722,
    "Ġmant": 9649,
    "Ġwalk": 1826,
    "just": 1702,
    "Ġherds": 9718,
    "roof": 17956,
    "prom": 6510,
    "Ġrustic": 14967,
    "inisc": 15491,
    "inspect": 11560,
    "Ġseverest": 14093,
    "Ġcollectively": 19971,
    "Ġdescribed": 6608,
    "Ġoverlooking": 22362,
    "Ġlewis": 15729,
    "umpled": 15880,
    "Ġborrowed": 17231,
    "Ġcomposedly": 25186,
    "Ġswells": 9829,
    "dancing": 12458,
    "Ġshoals": 13137,
    "Ġabout": 633,
    "Ġsuffers": 2978,
    "abond": 15745,
    "cabinet": 25080,
    "Ġdescription": 7429,
    "persuaded": 15076,
    "Ġvegetables": 15224,
    "renewed": 19707,
    "shaw": 6864,
    "aff": 3103,
    "Ġimmersed": 19488,
    "Ġstrung": 22619,
    "despond": 19803,
    "aye": 3660,
    "Ġsacrifice": 9557,
    "Ġcalifornia": 20533,
    "Ġsleep": 2400,
    "Ġsuggestive": 11298,
    "Ġlacepede": 20498,
    "Ġdew": 14044,
    "trampled": 26335,
    "Ġsh": 419,
    "Ġnecks": 18189,
    "know": 2320,
    "Ġperfect": 2557,
    "Ġknowingly": 18481,
    "Ġposted": 16725,
    "mountain": 10714,
    "Ġrelaxed": 12988,
    "ho": 2860,
    "Ġsibbald": 21233,
    "appears": 12063,
    "Ġemperor": 15161,
    "shine": 9290,
    "Ġenchanted": 9082,
    "Ġinseparable": 20691,
    "lightning": 16554,
    "Ġdecay": 1014,
    "Ġunconsciously": 10007,
    "Ġgum": 21599,
    "Ġrec": 895,
    "Ġcords": 14881,
    "Ġpalpit": 16691,
    "Ġhull": 5446,
    "Ġanother": 1740,
    "Ġreward": 6146,
    "ĠĠĠĠĠĠĠĠĠĠĠĠĠĠĠĠĠĠĠĠĠĠĠĠĠĠĠĠĠĠĠĠĠĠĠĠĠĠĠĠĠĠĠĠĠĠĠĠĠ": 20041,
    "Ġalbino": 20506,
    "shunned": 22465,
    "Ġgodfre": 14530,
    "Ġforeman": 23448,
    "Ġmons": 10158,
    "vy": 21110,
    "Ġexceedingly": 4614,
    "roc": 9676,
    "Ġowl": 20087,
    "Ġinforming": 18746,
    "Ġsmiting": 12905,
    "liv": 9609,
    "Ġcounter": 6482,
    "Ġmartyr": 26362,
    "Ġjupiter": 17458,
    "Ġforever": 14553,
    "Ġpresent": 1646,
    "Ġwines": 21290,
    "Ġselecting": 16682,
    "connection": 18869,
    "believing": 19465,
    "urons": 3131,
    "oker": 10964,
    "stool": 23823,
    "Ġpint": 17911,
    "evade": 24817,
    "cell": 10688,
    "Ġtypically": 1535,
    "`": 68,
    "Ġlessons": 7694,
    "Ġrequirements": 9794,
    "Ġlondon": 2840,
    "Ġavalanche": 17435,
    "Ġglimpse": 6944,
    "movable": 14326,
    "lorious": 17593,
    "stretched": 10207,
    "moby": 8539,
    "enjoyment": 17259,
    "matlock": 23471,
    "Ġirksome": 13115,
    "Ġmoderately": 22233,
    "Ġaddress": 2270,
    "Ġeliza": 6438,
    "questioning": 16851,
    "society": 9974,
    "means": 9788,
    "Ġfuture": 1078,
    "Ġappearance": 3699,
    "sailing": 14716,
    "ifference": 5632,
    "Ġcharacteristics": 8613,
    "Ġtaller": 16688,
    "creatures": 7518,
    "Ġcompact": 2262,
    "Ġimbued": 17457,
    "Ġcurtain": 14415,
    "Ġcompliance": 12118,
    "Ġshowed": 4497,
    "musket": 25342,
    "Ġevaluate": 2833,
    "Ġhapp": 1090,
    "Ġlengthwise": 10453,
    "nailed": 20998,
    "Ġgre": 1583,
    "fail": 17541,
    "Ġnour": 10831,
    "sensibility": 25026,
    "Ġraved": 22662,
    "Ġfigure": 4202,
    "bitter": 11241,
    "Ġsolely": 9912,
    "Ġneglecting": 25010,
    "Ġpark": 5465,
    "Ġreasoned": 23054,
    "Ġpuffing": 12258,
    "continue": 16862,
    "Ġmarchant": 14787,
    "ahawk": 23318,
    "Ġinstrum": 6057,
    "Ġpatches": 4232,
    "sea": 4763,
    "susp": 10598,
    "embraces": 25804,
    "became": 10516,
    "Ġrepute": 18037,
    "Ġsenior": 17173,
    "Ġnarration": 13506,
    "Ġdrink": 4787,
    "walls": 25346,
    "hence": 16626,
    "ipelagoes": 13674,
    "b": 70,
    "ishment": 3506,
    "Ġderision": 16312,
    "Ġwishes": 4795,
    "Ġblurred": 22935,
    "moment": 3580,
    "arily": 4121,
    "Ġaim": 10147,
    "Ġsplitting": 4380,
    "Ġsecuring": 11994,
    "Ġpalpitated": 26086,
    "Ġadversity": 24304,
    "Ġdeject": 10879,
    "Ġsemicirc": 16397,
    "Ġcovering": 13259,
    "Ġjollies": 20373,
    "Ġcastors": 23979,
    "Ġmedium": 16707,
    "Ġyour": 634,
    "Ġaccumulating": 2721,
    "Ġbreast": 8970,
    "Ġcrying": 10787,
    "Ġtore": 6532,
    "tumultuously": 25614,
    "perils": 22188,
    "Ġhurricane": 16434,
    "starbuck": 6021,
    "Ġpoured": 8804,
    "objection": 19917,
    "species": 13260,
    "Ġintrepidity": 25551,
    "Ġnewcomers": 26042,
    "Ġelij": 8911,
    "red": 396,
    "Ġflinging": 13588,
    "Ġintrospect": 15832,
    "Ġdraws": 19439,
    "12": 20751,
    "ould": 428,
    "usal": 7640,
    "Ġargument": 7100,
    "Ġcru": 2823,
    "Ġindecision": 25782,
    "ffy": 18315,
    "Ġintently": 8170,
    "daughter": 8355,
    "Ġprophes": 16352,
    "udding": 11868,
    "england": 18931,
    "Ġsubstit": 19543,
    "Ġchronicle": 20231,
    "Ġherein": 16194,
    "conc": 3943,
    "20": 20755,
    "squee": 15433,
    "Ġsund": 8250,
    "ą": 198,
    "Ġkl": 2734,
    "acup": 14261,
    "Ġcelestial": 10069,
    "landsmen": 25062,
    "Ġdomestic": 6910,
    "Ġnobody": 6160,
    "eur": 7546,
    "incident": 14592,
    "Ġrevol": 5536,
    "Ġfee": 7199,
    "Ġpatched": 16362,
    "Ġmounted": 7833,
    "Ġincident": 6282,
    "Ġappropri": 2226,
    "Ġvoid": 14088,
    "clu": 20801,
    "Ġgeometric": 3220,
    "Ġinscriptions": 20012,
    "Ġharp": 17926,
    "neying": 22449,
    "ples": 6845,
    "azed": 9401,
    "Ġreturns": 11929,
    "acetty": 24463,
    "mult": 8751,
    "stone": 5089,
    "ield": 2409,
    "banked": 25338,
    "john": 11499,
    "Ġimmemorially": 25384,
    "Ġtum": 5692,
    "ps": 4574,
    "Ġostentatious": 25737,
    "Ġdowncast": 18653,
    "Ġparts": 4160,
    "Ġintegration": 9870,
    "vic": 13804,
    "Ġfidget": 15192,
    "Ġvap": 6837,
    "Ġjinglers": 26019,
    "Ġtoken": 2039,
    "Ġslaugh": 18940,
    "Ġlive": 2733,
    "alloyed": 22206,
    "ile": 520,
    "utional": 17986,
    "Ġdispose": 23882,
    "ht": 375,
    "Ġpract": 1862,
    "pair": 21014,
    "bos": 17485,
    "Ġuninhabited": 22056,
    "Ġopp": 2696,
    "Ġaverage": 3139,
    "Ġtattoo": 7359,
    "waiting": 12224,
    "not": 911,
    "ips": 2595,
    "hes": 1397,
    "Ġrejoined": 14929,
    "Ġdoct": 4454,
    "Ġimperial": 9483,
    "Ġchurches": 12831,
    "Ġinterp": 16076,
    "Ġarbit": 4651,
    "Ġconfronted": 23310,
    "confess": 12179,
    "ella": 12753,
    "bourine": 9398,
    "brim": 23577,
    "atural": 935,
    "Ġsuccessive": 10502,
    "Ġsocial": 7008,
    "Ġvictoria": 14875,
    "Ġdiscredit": 22785,
    "reposed": 24491,
    "resist": 8277,
    "Ġname": 2082,
    "Ġfantastic": 10061,
    "Ġnothing": 1360,
    "Ġrefreshment": 17241,
    "ke": 431,
    "viating": 14579,
    "Ġcalm": 3447,
    "Ġelevation": 14899,
    "Ġcat": 2121,
    "Ġwalled": 15538,
    "cas": 20796,
    "Ġpill": 7847,
    "Ġpoltroon": 26599,
    "Ġverse": 16603,
    "endured": 22226,
    "Ġprobably": 4311,
    "Ġcast": 3607,
    "stains": 11638,
    "maul": 11895,
    "methodically": 20666,
    "Ġconfederate": 17355,
    "Ġglare": 13021,
    "apers": 3480,
    "lucas": 15154,
    "Ġswings": 11088,
    "Ġlimb": 9404,
    "Ġdefault": 3043,
    "Ġbasin": 19850,
    "Ġold": 1056,
    "Ġevolve": 3006,
    "Ġassisting": 13261,
    "Ġascribe": 16783,
    "Ġparacelsus": 15269,
    "ogany": 18673,
    "rodden": 21539,
    "assist": 11771,
    "Ġabating": 22272,
    "Ġlikewise": 5386,
    "whaleman": 23438,
    "bol": 8721,
    "vener": 21114,
    "accordingly": 19215,
    "Ġdisengaged": 12893,
    "Ġundersampling": 19521,
    "Ġbrain": 2087,
    "Ġtow": 4394,
    "li": 1188,
    "Ġproud": 5654,
    "Ġquitted": 5312,
    "Ġgrunt": 18738,
    "Ġdeduced": 12211,
    "crime": 14776,
    "Ġate": 8843,
    "Ġcour": 1768,
    "entric": 11621,
    "Ġpapered": 20134,
    "Ġrecognised": 8997,
    "Ġfilthy": 13251,
    "forth": 9324,
    "helpless": 16791,
    "igan": 21703,
    "actions": 8909,
    "Ġperfection": 19220,
    "rapid": 12674,
    "Ġscar": 3214,
    "untering": 15780,
    "Ħ": 231,
    "sometimes": 5974,
    "Ġprinces": 23227,
    "ivering": 7700,
    "Ġbroadened": 23988,
    "ari": 674,
    "undertaking": 23790,
    "Ġblameless": 19861,
    "outs": 7010,
    "Ġsultan": 15187,
    "Ġvehicles": 10661,
    "Ġam": 660,
    "Ġlowers": 23245,
    "Ġartist": 12916,
    "sculpt": 16248,
    "window": 7744,
    "Ġaspect": 3098,
    "Ġfurthermore": 1171,
    "Ġfame": 21409,
    "probable": 17022,
    "Ġnormalizing": 1820,
    "Ġconvers": 2910,
    "Ġlaid": 3937,
    "Ġsympathies": 14863,
    "belais": 24041,
    "Ġpert": 22400,
    "Ġanalyze": 1587,
    "grant": 10428,
    "Ġwink": 11571,
    "creation": 14807,
    "Ġforger": 15737,
    "Ġlapse": 17122,
    "Ġassembl": 20064,
    "Ġdecap": 16024,
    "_.,": 14562,
    "covenant": 23564,
    "onomy": 12551,
    "desper": 13222,
    "Ġrever": 6538,
    "Ġpatted": 16361,
    "Ġbronze": 22873,
    "Ġflurry": 18862,
    "Ġbox": 5109,
    "Ġstrategies": 1840,
    "az": 2181,
    "ays": 6685,
    "Ġmystery": 5509,
    "Ġimpelled": 11785,
    "Ġjoky": 18407,
    "presently": 9809,
    "Ġinterpreter": 23216,
    "Ġhans": 12630,
    "Ġproductions": 22950,
    "Ġlover": 7193,
    "Ġentering": 6287,
    "Ġmacro": 25940,
    "ousings": 18331,
    "Ġmassac": 14738,
    "ounding": 22389,
    "Ġpickle": 16723,
    "ists": 3997,
    "Ġerror": 1766,
    "Ġpilgrimage": 17310,
    "bud": 10685,
    "Ġvaliantly": 22797,
    "Ġoblige": 10490,
    "Ġgreenland": 5761,
    "Ġclean": 5652,
    "ffic": 22145,
    "judges": 19576,
    "Ġnovelist": 24776,
    "profitable": 17055,
    "itors": 2917,
    "better": 7121,
    "Ġfrosty": 14937,
    "Ġblack": 2034,
    "Ġhabitation": 14804,
    "anyth": 5438,
    ".âĢĻâĢĿ": 6741,
    "Ġdil": 6384,
    "Ġwires": 21298,
    "rawling": 21640,
    "tum": 11533,
    "Ġsepulchral": 25893,
    "Ġsuggestions": 24452,
    "Ġlife": 1355,
    "acles": 8521,
    "bourn": 3302,
    "Ġverbal": 19382,
    "sin": 21051,
    "Ġsil": 1796,
    "Ġceases": 19315,
    "ourage": 2451,
    "crews": 15044,
    "ailing": 7023,
    "anxious": 15112,
    "Ġkings": 7197,
    "Ġgrandeur": 8631,
    "oting": 2743,
    "Ġsteak": 9831,
    "Ġbuckets": 17034,
    "sensations": 20054,
    "morrow": 4572,
    "akness": 14196,
    "possibly": 10545,
    "Ġsensitiveness": 23736,
    "Ġsciences": 15949,
    "Ġguess": 4903,
    "tales": 17687,
    "Ġrasc": 21982,
    "Ġsaved": 6692,
    "Ġdangling": 17176,
    "Ġsystematic": 5245,
    "Ġnumberless": 16419,
    "Ġremark": 2143,
    "approbation": 11459,
    "Ġfrankenstein": 7097,
    "sacrifice": 13495,
    "Ġarguing": 25471,
    "Ġutterly": 6102,
    "bat": 8073,
    "Ġprob": 969,
    "anything": 5518,
    "philosop": 9569,
    "Ġbunger": 9998,
    "advanced": 19591,
    "ricade": 13042,
    "Ġland": 1999,
    "Ġspotted": 12142,
    "Ġlazy": 17050,
    "Ġallurements": 22014,
    "Ġsighs": 22713,
    "pursue": 24978,
    "Ġsweeter": 23921,
    "Ġbundle": 13429,
    "Ġaided": 17746,
    "rested": 13078,
    "Ġcakes": 13886,
    "Ġmagnet": 10391,
    "Ġnoticing": 18225,
    "Ġcomputations": 16008,
    "Ġeternity": 12282,
    "Ġirre": 7468,
    "Ġmamma": 10050,
    "Ġfervour": 19741,
    "baggage": 24927,
    "remes": 21240,
    "Ġforfeit": 21780,
    "extra": 8220,
    "nered": 18488,
    "illustration": 2283,
    "reas": 991,
    "violent": 14580,
    "Ġclanking": 20614,
    "neck": 14235,
    "comm": 7439,
    "Ġwilderness": 14842,
    "Ġmechanism": 2297,
    "Ġlingo": 24904,
    "Ġsense": 3252,
    "Ġinclement": 22559,
    "visits": 24225,
    "quadrille": 20598,
    "sec": 6154,
    "Ġscorched": 17101,
    "Ġprimitive": 25064,
    "shadow": 20317,
    "Ġseveral": 2673,
    "Ġarticle": 9504,
    "ong": 537,
    "angu": 570,
    "phia": 22761,
    "Ġintact": 21994,
    "Ġwarmed": 12026,
    "Ġmanage": 7642,
    "Ġaccusation": 22386,
    "icken": 6713,
    "Ġmoist": 9287,
    "Ġembedd": 1401,
    "Ġdoors": 6419,
    "ploy": 1906,
    "Ġadmirable": 8270,
    "Ġwhalemen": 3909,
    "Ġconflict": 17275,
    "iltrated": 19308,
    "ill": 447,
    "Ġlordly": 23745,
    "Ġchival": 14182,
    "sincere": 16908,
    "Ġgrizzled": 11451,
    "Ġdormouse": 4925,
    "ouncing": 8497,
    "Ġexperienced": 6584,
    "inder": 9154,
    "den": 938,
    "Ġstool": 14464,
    "Ġexplicit": 3590,
    "Ġsauc": 15891,
    "Ġgild": 15673,
    "grass": 23415,
    "Ġphantoms": 13489,
    "ni": 1612,
    "Ġpolished": 11184,
    "ampled": 18884,
    "Ġhon": 2537,
    "Ġarrowy": 25470,
    "Ġgpt": 4347,
    "Ġillness": 8593,
    "Ġdeceitfulness": 25734,
    "Ġfringe": 17273,
    "Ġmachine": 791,
    "cordiality": 25140,
    "Ġrestless": 10414,
    "onical": 21256,
    "ester": 11600,
    "upwards": 18865,
    "Ġfastidious": 14493,
    "iful": 2884,
    "cost": 19189,
    "Ġsobs": 14135,
    "Ġspark": 6691,
    "Ġought": 3418,
    "Ġbliss": 13005,
    "Ġlayers": 818,
    "Ġtweezers": 26557,
    "Ġsummers": 23876,
    "bpp": 20774,
    "Ġhis": 380,
    "deepest": 22866,
    "Ġtitle": 11409,
    "Ġpaws": 13923,
    "ctu": 5088,
    "Ġopal": 23628,
    "Ġyouthful": 16724,
    "Ġaddresses": 3766,
    "consequence": 9765,
    "problems": 11435,
    "Ġbitt": 10797,
    "Ġasserted": 16950,
    "Ġdeclining": 23967,
    "hawks": 24695,
    "Ġpredicting": 2416,
    "lik": 3912,
    "Ġfreshe": 13073,
    "Ġeducated": 16786,
    "ĠĠĠĠĠĠĠĠĠĠĠĠĠĠĠĠĠĠĠĠĠĠĠĠĠĠĠĠĠĠĠĠĠĠĠĠĠĠĠĠĠĠĠĠĠĠĠĠĠĠĠ": 20042,
    "coffin": 10664,
    "Ġtex": 15475,
    "cad": 17506,
    "Ġcorps": 13037,
    "ben": 4926,
    "Ġpunishment": 9958,
    "thick": 10262,
    "Ġtanning": 17730,
    "compared": 24036,
    "canoes": 16234,
    "feared": 11806,
    "Ġbench": 7238,
    "Ġpassionately": 16765,
    "Ġpoultry": 17443,
    "Ġquestionable": 19268,
    "distrust": 19573,
    "Ġblooming": 17214,
    "cooee": 12421,
    "Ġuncommon": 5025,
    "ateful": 5929,
    "Ġeastern": 11631,
    "Ġsmilingly": 22566,
    "Ġimprecate": 20521,
    "Ġoar": 6238,
    "scene": 14421,
    "deacon": 22153,
    "Ġabusive": 22278,
    "arter": 17895,
    "Ġleaped": 8829,
    "Ġgriev": 16636,
    "sentiment": 12918,
    "Ġoverwhelming": 17102,
    "Ġbarricade": 14661,
    "osque": 22266,
    "hew": 5286,
    "Ġpals": 13920,
    "Ġapprove": 12868,
    "comparatively": 25841,
    "Ġpenet": 6888,
    "presbyter": 20621,
    "dilig": 17284,
    "ub": 1224,
    "Ġresolutely": 14610,
    "Ġpearl": 20380,
    "Ġshowers": 16606,
    "assment": 9742,
    "Ġhills": 6528,
    "continuance": 19721,
    "Ġexcepting": 14681,
    "bits": 17490,
    "Ġregrets": 18596,
    "Ġnor": 1552,
    "Ġislands": 6767,
    "commence": 19995,
    "Ġpassing": 4312,
    "Ġcounted": 12143,
    "Ġsorry": 4205,
    "consp": 18506,
    "Ġtossing": 8127,
    "revival": 26163,
    "gether": 1595,
    "Ġsatisfy": 6912,
    "_:": 17480,
    "Ġxl": 11992,
    "Ġostens": 25276,
    "Ġresult": 4459,
    "Ġlikely": 3599,
    "Ġperceiving": 8878,
    "Ġit": 339,
    "Ġtid": 8108,
    "Ġpassengers": 13678,
    "Ġexplained": 5938,
    "Ġhumbug": 18782,
    "Ġmed": 4172,
    "Ġdeception": 18141,
    "Ġanticip": 7508,
    "then": 2053,
    "Ġconditions": 8308,
    "Ġluxuries": 25167,
    "Ġcaptiv": 16258,
    "Ġconcentrated": 15086,
    "Ġastern": 6092,
    "Ġaerial": 21201,
    "lanterns": 17431,
    "Ġamazement": 7766,
    "never": 3153,
    "solution": 14687,
    "Ġcitations": 25438,
    "Ġresist": 7918,
    "Ġperseus": 10605,
    "annica": 24561,
    "Ġunjust": 8486,
    "emper": 18183,
    "Ġfulfil": 9553,
    "arms": 10175,
    "stand": 625,
    "alously": 15633,
    "Ġpunctilious": 26355,
    "Ġsought": 5009,
    "Ġoffended": 7042,
    "Ġripp": 11220,
    "che": 3172,
    "Ġinattention": 17934,
    "Ġsensational": 16396,
    "###": 3825,
    "hark": 15368,
    "Ġengaged": 3429,
    "Ġlived": 3987,
    "Ġwhelmed": 26000,
    "Ġextracting": 11113,
    "Ġinitial": 824,
    "contempt": 13193,
    "contemplated": 20461,
    "aract": 17896,
    "Ġinvested": 7279,
    "afford": 14655,
    "typewritten": 26039,
    "walking": 9984,
    "Ġvessels": 6757,
    "Ġottoman": 17380,
    "gener": 3126,
    "Ġclimbing": 20073,
    "izon": 18144,
    "alleging": 23026,
    "Ġshipw": 12983,
    "ca": 20795,
    "Ġdancing": 5703,
    "introdu": 8939,
    "wrote": 11548,
    "french": 9121,
    "tenham": 16324,
    "Ġenabled": 9298,
    "Ġsituation": 4068,
    "itation": 1780,
    "Ġburgled": 23655,
    "Ġassu": 21902,
    "Ġpython": 1067,
    "elzebub": 26465,
    "Ġpot": 2995,
    "Ġlun": 7857,
    "saving": 21062,
    "separ": 9232,
    "phere": 21021,
    "Ġmontan": 22987,
    "Ġbonnet": 10657,
    "ronted": 14879,
    "cules": 12394,
    "Ġstabbing": 20306,
    "Ġcable": 11582,
    "Ġtie": 10751,
    "arat": 9182,
    "enged": 23151,
    "Ġexpectantly": 23527,
    "Ġreliably": 22884,
    "unned": 21883,
    ",âĢĶ": 3171,
    "Ġabruptness": 25300,
    "continually": 11303,
    "evinced": 19928,
    "atic": 4015,
    "Ġugl": 12686,
    "narrow": 11509,
    "Ġroylott": 7305,
    "Ġtink": 9150,
    "Ġlany": 21558,
    "Ġefforts": 11804,
    "dom": 6224,
    "landish": 11945,
    "âĢĶâĢĶâĢĿ": 15943,
    "procure": 23400,
    "indignation": 18439,
    "lung": 17592,
    "accusations": 23601,
    "piteous": 21036,
    "onder": 3778,
    "Ġrejo": 5918,
    "Ġspoutings": 14677,
    "Ġremind": 6060,
    "Ġsobbing": 14136,
    "Ġperch": 10300,
    "Ġuncomp": 15845,
    "Ġdarker": 13123,
    "limping": 26394,
    "Ġsharing": 3476,
    "Ġconvent": 11670,
    "Ġspine": 7407,
    "ution": 4346,
    "Ġvolley": 24146,
    "Ġgallant": 8658,
    "Ġreader": 11937,
    "Ġslink": 23168,
    "crimin": 17510,
    "vap": 13805,
    "Ġnear": 1720,
    "caused": 25520,
    "Ġsuperiors": 23456,
    "arabian": 26447,
    "Ġdetained": 18387,
    "sto": 3201,
    "oping": 5558,
    "Ġpartially": 13126,
    "Ġcoinc": 11003,
    "unct": 18157,
    "beth": 13691,
    "iding": 3844,
    "howling": 18991,
    "Ġarticulated": 24432,
    "Ġsour": 21219,
    "Ġhappen": 5570,
    "Ġgoverness": 8605,
    "Ġconge": 15750,
    "gaffman": 26391,
    "Ġshakes": 10905,
    "Ġcachalot": 17836,
    "Ġoppose": 16521,
    "Ġstraighten": 24007,
    "Ġinsurance": 23684,
    "Ġvan": 1087,
    "io": 3800,
    "Ġpretension": 23767,
    "hullo": 17571,
    "Ġinh": 10825,
    "counter": 20281,
    "Ġintrospective": 20603,
    "concluded": 11243,
    "Ġautom": 4004,
    "misfortunes": 16757,
    "scor": 13024,
    "Ġcranes": 20386,
    "ĠĠĠĠĠĠĠĠĠĠĠĠĠĠĠĠĠĠĠĠĠĠĠĠĠĠĠ": 14888,
    "dug": 18463,
    "etency": 21586,
    "unity": 4147,
    "hours": 9126,
    "**": 4686,
    "Ġlic": 8438,
    "Ġcomprehending": 24444,
    "spot": 9791,
    "Ġsickening": 19607,
    "ide": 724,
    "Ġchim": 5935,
    "magnificent": 20277,
    "Ġfortune": 4235,
    "Ġupbraid": 18319,
    "Ġaffording": 14823,
    "atory": 6127,
    "hat": 6956,
    "ication": 980,
    "Ġclaret": 22355,
    ",--": 2478,
    "Ġindia": 10372,
    "Ġrush": 5927,
    "feeders": 25236,
    "drugg": 20840,
    "boone": 23257,
    "Ġlowered": 6737,
    "Ġpowerful": 1524,
    "Ġcommunity": 19011,
    "Ġklan": 23661,
    "ogra": 4573,
    "Ġstil": 15722,
    "Ġprotect": 6339,
    "Ġdescent": 1003,
    "Ġimproper": 22752,
    "Ġclerks": 17297,
    "hook": 12056,
    "Ġorigin": 4115,
    "shoe": 14969,
    "Ġsobbed": 14137,
    "Ġdispleasure": 16056,
    "Ġincreases": 3794,
    "Ġdistribution": 2020,
    "refuge": 24733,
    "Ġsavesoul": 26229,
    "Ġauto": 23340,
    "reflect": 19867,
    "Ġeuroclydon": 15299,
    "Ġlabelled": 23333,
    "Ġgrieve": 14709,
    "Ġharvard": 24573,
    "programming": 10065,
    "Ġanybody": 5314,
    "Ġflea": 23776,
    "Ġbeggar": 9351,
    "Ġopportunity": 4786,
    "Ġfaithfulness": 24445,
    "confidence": 16809,
    "Ġorb": 22096,
    "icirc": 15660,
    "Ġclumsy": 9581,
    "Ġfrosted": 19806,
    "Ġexasperate": 20101,
    "shish": 11796,
    "Ġexhale": 24401,
    "Ġinvariable": 13459,
    "Ġclothe": 4712,
    "Ġchoicest": 24222,
    "Ġcrystals": 20230,
    "Ġskylarking": 19490,
    "tooth": 18583,
    "even": 3835,
    "erity": 21270,
    "Ġdeserve": 8310,
    "iferous": 17293,
    "enched": 10156,
    "short": 6568,
    "Ġmanipulation": 10660,
    "Ġclamped": 18426,
    "Ġprogressive": 5023,
    "Ġresp": 2495,
    "Ġbraw": 23838,
    "Ġfilters": 3924,
    "Ġdocile": 19962,
    "Ġconcentration": 25065,
    "Ġconflagration": 26366,
    "Ġnoblest": 13245,
    "gies": 13728,
    "ineering": 21972,
    "Ġexpectation": 6904,
    "Ġcharger": 19007,
    "butter": 11788,
    "quickly": 14964,
    "pop": 17632,
    "dataset": 23253,
    "Ġmasonry": 13602,
    "ches": 2146,
    "Ġard": 5164,
    "Ġthames": 13940,
    "ccarthy": 4889,
    "exposure": 19259,
    "Ġcapering": 21357,
    "Ġopine": 19230,
    "Ġexam": 3710,
    "Ġrattle": 10900,
    "visible": 10535,
    "Ġvainly": 9926,
    "oken": 4304,
    "R": 54,
    "ĠâĢĶâĢĶ": 25758,
    "Ġproblems": 2848,
    "à": 161,
    "impetuous": 23766,
    "Ġma": 3254,
    "Ġanimals": 8980,
    "Ġpace": 9185,
    "Ġwaifing": 25244,
    "sufferable": 12180,
    "Ġtests": 8959,
    "indul": 22375,
    "Ġemm": 18005,
    "Ġdesperate": 7778,
    "Ġlay": 584,
    "Ġfell": 1979,
    "Ġgorgeous": 20470,
    "pard": 9620,
    "Ġinns": 17932,
    "etition": 7382,
    "Ġperformed": 8550,
    "Ġdaring": 8122,
    "remed": 18955,
    "ulous": 4449,
    "_,âĢĿ": 6220,
    "Ġrepaid": 19084,
    "nuee": 17432,
    "Ġintens": 7004,
    "Ġhighness": 22778,
    "Ġteacher": 22914,
    "Ġhay": 11607,
    "Ġflashes": 11918,
    "Ġthroughout": 8879,
    "Ġrecursive": 4782,
    "Ġhorses": 6386,
    "_).": 5889,
    "afterwards": 7485,
    "Ġwherefore": 8527,
    "mouth": 9132,
    "Ġunfold": 8023,
    "aire": 10682,
    "Ġelab": 22645,
    "Ġeverlasting": 9339,
    "Ġpalp": 11250,
    "was": 1421,
    "tanh": 5204,
    "Ġrenow": 18030,
    "Ġchry": 22251,
    "Ġmildness": 9946,
    "Ġequalled": 13316,
    "birth": 15324,
    "ains": 5094,
    "Ġevidently": 6760,
    "Ġexpon": 968,
    "Ġreason": 1353,
    "Ġshakespeare": 20310,
    "ety": 3521,
    "ell": 398,
    "Ġfrozen": 9015,
    "Ġchristmas": 6924,
    "Ġreminding": 19800,
    "Ġfortunes": 12182,
    "Ġunable": 4950,
    "vag": 8768,
    "Ġidentify": 12016,
    "Ġby": 384,
    "Ġcondescending": 24869,
    "Ġcondemn": 13447,
    "Ġemaciated": 20641,
    "Ġprocedure": 2810,
    "Ġactivation": 919,
    "onde": 21254,
    "Ġunembarrassed": 22076,
    "Ġolive": 12569,
    "Ġanaly": 1117,
    "corpse": 24485,
    "crew": 7545,
    "rob": 5533,
    "Ġrippling": 17279,
    "legra": 10790,
    "paralleled": 14510,
    "Ġsunken": 14495,
    "Ġused": 2060,
    "cork": 20798,
    "Ġhire": 21489,
    "Ġease": 5629,
    "Ġpanting": 11605,
    "bitterly": 20340,
    "Ġcorporeally": 25729,
    "idav": 18095,
    "papers": 12505,
    "Ġsuspend": 14609,
    "Ġcocoa": 25483,
    "Ġprepare": 8650,
    "Ġskirts": 14356,
    "arthy": 4823,
    "uncomfortable": 18163,
    "uncommonly": 25550,
    "redit": 3872,
    "Ġslay": 16309,
    "assed": 6422,
    "Ġarmitage": 23583,
    "turtle": 12215,
    "Ġseventh": 18207,
    "repent": 15516,
    "scra": 13026,
    "Ġsheets": 9724,
    "Ġthirteen": 15277,
    "altogether": 12643,
    "Ġheathenish": 13619,
    "cooks": 25070,
    "Ġeel": 18004,
    "Ġconvict": 23746,
    "Ġperennial": 22698,
    "Ġstarvation": 19794,
    "ê": 171,
    "usions": 6161,
    "attributed": 23126,
    "Ġlady": 1586,
    "Ġenforced": 21943,
    "Ġplane": 11826,
    "Ġheat": 5453,
    "squ": 7810,
    "Ġstyled": 24672,
    "icles": 17975,
    "soles": 18685,
    "history": 15016,
    "Ġspoon": 22139,
    "Ġpoetry": 15083,
    "mine": 5617,
    "Ġlift": 8814,
    "Ġtriumphal": 24370,
    "Ġxxxiv": 24972,
    "Ġamounts": 6706,
    "determine": 19947,
    "Ġix": 12672,
    "Ġindebted": 8711,
    "Ġfireside": 23533,
    "Ġspur": 18304,
    "itud": 2936,
    "venison": 22632,
    "Ġdeaths": 14538,
    "Ġhilarious": 20301,
    "anted": 5026,
    "Ġlulled": 17971,
    "estion": 18364,
    "Ġmark": 2332,
    "degrees": 22156,
    "Ġdetails": 6567,
    "Ġcomp": 726,
    "skull": 24487,
    "Ġports": 10819,
    "Ġgestic": 21612,
    "Ġplentiful": 12915,
    "inquiry": 15145,
    "Ġstart": 3260,
    "servants": 15039,
    "Ġferrule": 24516,
    "iment": 2816,
    "Ġreigned": 13989,
    "Ġcoleridge": 18768,
    "Ġsaturation": 2062,
    "âĢĻ!âĢĿ": 18170,
    "leag": 21369,
    "as": 302,
    "Ġmaddened": 17245,
    "Ġearned": 19408,
    "Ġbrah": 19360,
    "clean": 14762,
    "Ġgaped": 13969,
    "settle": 16663,
    "Ġassented": 17340,
    "Ġcapsizing": 20092,
    "Ġcasually": 25096,
    "Ġpratt": 23224,
    "idual": 1560,
    "ccess": 3184,
    "Ġforegoing": 23450,
    "Ġprivilege": 11420,
    "Ġdesperado": 19822,
    "oard": 4809,
    "springing": 24890,
    "Ġhimmalehs": 26231,
    "Ġrace": 5848,
    "shel": 11933,
    "claimed": 9838,
    "Ġpurchas": 19876,
    "teeth": 10356,
    "bred": 11470,
    "Ġstarlight": 24628,
    "hush": 20908,
    "Ġbreeding": 14523,
    "bank": 10081,
    "Ġincorporated": 25710,
    "softened": 20413,
    "pon": 17626,
    "Ġunreasoning": 15849,
    "Ġwearisome": 19798,
    "doctor": 19097,
    "ean": 20842,
    "Ġunsocial": 18257,
    "Ġunimportant": 22035,
    "Ġuncl": 22021,
    "Ġdepos": 11007,
    "Ġliberal": 12194,
    "Ġpoll": 12032,
    "Ġbrides": 22871,
    "conjectures": 25181,
    "Ġguiltless": 16941,
    "Ġjacob": 1900,
    "beer": 22494,
    "Ġcarr": 23095,
    "Ġintended": 5547,
    "nineteenth": 26139,
    "gratulation": 24348,
    "equal": 14995,
    "ung": 2744,
    "Ġrally": 21976,
    "Ġnavy": 14918,
    "Ġcounsel": 13618,
    "Ġdeposed": 16087,
    "showed": 16031,
    "Ġfabric": 25948,
    "Ġoblique": 20172,
    "Ġvouch": 15813,
    "alive": 10828,
    "Ġwolfish": 25936,
    "Ġinstantaneous": 14612,
    "van": 7815,
    "Ġforbearing": 25101,
    "Ġoutdone": 22323,
    "É": 138,
    "urry": 13996,
    "Ġpause": 5707,
    "Ġsurrender": 16450,
    "tch": 9143,
    "Ġwelfare": 12563,
    "Ġopinions": 9417,
    "Ġraven": 16120,
    "Ġgrievances": 20650,
    "Ġconfided": 19035,
    "Ġcalifornian": 25853,
    "Ġkidnapping": 26358,
    "Ġlieuten": 13330,
    "Ġadro": 15871,
    "ky": 4520,
    "Ġwalls": 6763,
    "Ġharsh": 9523,
    "ority": 8420,
    "Ġpres": 9734,
    "Ġinvader": 23480,
    "Ġshoe": 14568,
    "warks": 5003,
    "din": 8375,
    "onic": 7828,
    "rose": 6016,
    "ization": 486,
    "Ġpractice": 2808,
    "Ġcrowding": 13282,
    "Ġ----": 7146,
    "infl": 15490,
    "Ġwithdrawn": 10608,
    "comparison": 25842,
    "hed": 673,
    "Ġroaring": 10969,
    "dark": 5613,
    "deav": 2674,
    "Ġparadigms": 3060,
    "jur": 17579,
    "fore": 688,
    "marks": 7346,
    "inously": 21189,
    "catherine": 7129,
    "accomplished": 17213,
    "abases": 3011,
    "ensity": 11816,
    "Ġmiz": 10778,
    "palms": 25263,
    "Ġinadequate": 17939,
    "Ġprometheus": 15295,
    "described": 18894,
    "Ġmisunderstood": 18708,
    "nature": 5360,
    "Ġcounties": 23305,
    "Ġgaily": 16749,
    "sat": 4810,
    "igin": 3656,
    "Ġcommunication": 1871,
    "somebody": 14566,
    "Ġcryst": 9919,
    "Ġbarn": 11589,
    "line": 1440,
    "Ġsignific": 3826,
    "Ġshelf": 12271,
    "Ġfearless": 9877,
    "Ġuncivil": 11156,
    "Ġpeaking": 22694,
    "ignific": 11959,
    "why": 2828,
    "Ġbitter": 4168,
    "fered": 5559,
    "Ġridiculous": 10631,
    "Ġ27": 8618,
    "sicilian": 21066,
    "Ġsoftmax": 1693,
    "Ġvindication": 25365,
    "onent": 21251,
    "horrible": 14601,
    "Ġlack": 17966,
    "seems": 10876,
    "Ġaudacious": 13463,
    "Ġwidth": 16773,
    "Ġunprejudiced": 18270,
    "Ġsuspected": 9064,
    "Ġtext": 2267,
    "Ġfrenchman": 11284,
    "Ġforces": 12706,
    "Ġproudly": 19745,
    "Ġmich": 21308,
    "Ġdirection": 1791,
    "rences": 9274,
    "vels": 5432,
    "Ġaugmentation": 20119,
    "kles": 17585,
    "Ġconvulsively": 25716,
    "spin": 22731,
    "Ġconsort": 18724,
    "Ġgreyish": 24210,
    "Ġstepping": 9356,
    "Ġappeal": 16317,
    "Ġconstantly": 11975,
    "intending": 22939,
    "Ġtossings": 25357,
    "Ġkiller": 19571,
    "cri": 17507,
    "am": 367,
    "ption": 7398,
    "sex": 12717,
    "bohemia": 20733,
    "ady": 999,
    "precision": 4328,
    "Ġcocksure": 26260,
    "hideous": 25408,
    "Ġlight": 1703,
    "Ġreputed": 18038,
    "Ġmalignity": 10558,
    "fears": 18534,
    "Ġdejection": 15199,
    "Ġenem": 4708,
    "Ġexpanded": 14292,
    "Ġtawny": 20485,
    "Ġ29": 23731,
    "tick": 17679,
    "Ġsacr": 7194,
    "saw": 5896,
    "Ġarithmetic": 18347,
    "Ġrich": 2998,
    "ctors": 21594,
    "Ġretired": 6073,
    "waves": 10743,
    "hr": 20890,
    "Ô": 149,
    "ble": 542,
    "Ġstomach": 11655,
    "Ġtrappings": 23087,
    "Ġcod": 8414,
    "Ġphilosophers": 10553,
    "mm": 677,
    "hyp": 15369,
    "Ġwinds": 5746,
    "elius": 13290,
    "atered": 22012,
    "aisance": 15077,
    "Ġinsufficient": 9674,
    "main": 8089,
    "Ġguidance": 9419,
    "Ġbour": 4876,
    "Ġgoug": 17993,
    "impregn": 21718,
    "disgrace": 16461,
    "loved": 14252,
    "Ġrecourse": 22739,
    "herds": 22208,
    "Ġfreshet": 25704,
    "anel": 21360,
    "Ġcottage": 4734,
    "Ġsqualid": 14371,
    "Ġidly": 16407,
    "omorrah": 18027,
    "Ġmanaging": 22330,
    "Ġnast": 15643,
    "ackinaw": 22426,
    "Ġdistance": 3483,
    "Ġpitched": 9446,
    "Ġundone": 24118,
    "reserved": 13845,
    "Ġcarries": 7676,
    "Ġboiling": 8528,
    "fil": 12466,
    "Ġantagon": 19553,
    "milk": 20480,
    "Ġantagonist": 26330,
    "Ġyonder": 7392,
    "Ġsinking": 7307,
    "Ġk": 484,
    "Ġportly": 14679,
    "Ġannouncing": 16755,
    "Ġpersons": 6184,
    "Ġsumatra": 15289,
    "inv": 8403,
    "rief": 6204,
    "----âĢĿ": 13310,
    "Ġmidships": 23636,
    "itories": 15553,
    "gladness": 25195,
    "ruined": 18338,
    "Ġdrunkard": 20180,
    "Ġappre": 5165,
    "Ġdisput": 14257,
    "Ġcap": 2362,
    "Ġabsolutely": 4858,
    "Ġ91": 24591,
    "Ġrobert": 10971,
    "Ļ": 252,
    "etah": 12665,
    "humoured": 11237,
    "ñ": 178,
    "rels": 6667,
    "erial": 4632,
    "Ġ38": 24081,
    "Ġpedestrian": 25884,
    "Ġcre": 889,
    "Ġblandly": 20326,
    "Ġlimited": 23548,
    "Ġunprofitable": 18268,
    "Ġexcited": 5579,
    "Ġ59": 24322,
    "Ġwhip": 8453,
    "Ġdeliberately": 10626,
    "Ġattractive": 25576,
    "Ġgilder": 21617,
    "ieved": 3231,
    "Ġsymphony": 26533,
    "edmund": 17948,
    "Ġpilgrim": 25600,
    "Ġtarquin": 23612,
    "Ġprev": 6266,
    "Ġnam": 17951,
    "Ġfashioned": 13324,
    "dashed": 12459,
    "followed": 8340,
    "dum": 17519,
    "Ġ110": 24434,
    "nowhere": 18419,
    "Ġechoed": 20427,
    "Ġafric": 8908,
    "burg": 16774,
    "Ġwhich": 501,
    "omically": 13982,
    "Ġunansw": 22063,
    "Ġ123": 24467,
    "itary": 4751,
    "85": 13684,
    "slipped": 25530,
    "Ġtaste": 5524,
    "Ġbelongs": 8016,
    "Ġmince": 22834,
    "Ġactually": 5389,
    "Ġannesley": 19580,
    "Ġ111": 24435,
    "irious": 15790,
    "test": 13794,
    "Ġnuptials": 20497,
    "inf": 6234,
    "Ġdeformed": 14048,
    "rably": 21637,
    ".;": 20746,
    "Ġcommanded": 6332,
    "deeply": 16189,
    "F": 42,
    "Ġye": 900,
    "ters": 1573,
    "Ġfierce": 7437,
    "enorm": 17782,
    "concern": 5877,
    "Ġrecover": 9793,
    "soft": 12513,
    "convenient": 12241,
    "mast": 3603,
    "thunder": 10264,
    "buttoned": 13635,
    "Ġorgan": 2503,
    "Ġverdant": 15003,
    "Ġtra": 1382,
    "Ġcraft": 4373,
    "Ġappet": 9732,
    "butt": 15998,
    "sou": 12509,
    "name": 6796,
    "nails": 17615,
    "Ġcare": 1642,
    "Ġpredestinated": 18517,
    "Ġinferiority": 17115,
    "elev": 12462,
    "Ġreveries": 11348,
    "ulnerable": 18153,
    "Ġfollowing": 4059,
    "Ġenvelopes": 24506,
    "nlp": 8754,
    "backpropagation": 11988,
    "Ġadvanced": 1555,
    "Ġstuck": 9222,
    "men": 1485,
    "Ġsignify": 16496,
    "Ġinstantly": 3593,
    "bye": 5952,
    "Ġnum": 1350,
    "Ġloses": 15877,
    "keel": 14131,
    "perv": 1605,
    "pause": 12504,
    "social": 11023,
    "Ġsubmerged": 11875,
    "true": 2588,
    "arctic": 12614,
    "Ġendow": 23140,
    "Ġ>": 21154,
    "Ġlaughing": 5339,
    "Ġbarrowful": 25596,
    "Ġcoincidence": 25484,
    "Ġpromote": 23197,
    "amused": 21851,
    "Ġmeekly": 26491,
    "Ġanger": 5442,
    "ipt": 12482,
    "Ġcordial": 16836,
    "Ġunidirectional": 3425,
    "Ġimpunity": 14220,
    "Ġfow": 6135,
    "oblivious": 26583,
    "Ġsummons": 13235,
    "Ġgiant": 13970,
    "imony": 12694,
    "Ġburn": 3683,
    "Ġgod": 1938,
    "Ġexempl": 21843,
    "Ġbud": 10170,
    "ension": 6572,
    "oforte": 14288,
    "Ġseek": 4509,
    "Ġadult": 18290,
    "Ġinvoluntary": 18741,
    "goes": 10427,
    "Ġjem": 18403,
    "Ġstamp": 7866,
    "Ġprof": 2461,
    "pudding": 17648,
    "Ġladies": 3196,
    "Ġsaints": 20677,
    "twilight": 23704,
    "Ġprizes": 13077,
    "Ġencountered": 8323,
    "Ġabrid": 22277,
    "Ġintolerably": 15833,
    "Ġleaky": 2347,
    "madness": 14884,
    "Ġtrumpet": 9575,
    "Ġtin": 15466,
    "Ġalien": 14020,
    "Ġsane": 21224,
    "Ġbusiness": 2232,
    "Åĵ": 10745,
    "doom": 23380,
    "Ġworship": 10368,
    "Ġspit": 22129,
    "circum": 16738,
    "Ġrepro": 7275,
    "Ġthro": 5818,
    "justified": 19004,
    "thee": 9692,
    "Ġhermits": 22079,
    "startled": 24944,
    "Ġaffront": 18789,
    "lier": 20951,
    "Ġnooks": 26012,
    "alarmed": 21507,
    "Ġgeneva": 5450,
    "Ġimbalanced": 18336,
    "Ġpluck": 15618,
    "impe": 21712,
    "racting": 10357,
    "Ġdawn": 6817,
    "Ġhaw": 10255,
    "Ġorganize": 8993,
    "Ġpractices": 19057,
    "Ġyield": 5093,
    "ivory": 10270,
    "Ġsacrilege": 26230,
    "Ġ[_": 15464,
    "yourself": 6744,
    "Ġflag": 7242,
    "Ġmastery": 23996,
    "Ġslate": 11941,
    "Ġtoday": 12647,
    "Ġindustry": 18838,
    "conve": 14245,
    "umbers": 10919,
    "stationed": 25454,
    "Ġdemoniacal": 20559,
    "Ġvalid": 1676,
    "Ġforward": 1838,
    "Ġmortification": 12098,
    "Ġinsular": 19270,
    "Ġcamp": 9166,
    "omy": 6251,
    "expectations": 24278,
    "Ġexultation": 15174,
    "Ġmurderer": 4979,
    "Ġeff": 665,
    "asingly": 17963,
    "rity": 13778,
    "Ġmelted": 19624,
    "Ġ": 225,
    "Ġsomeone": 6705,
    "eli": 3870,
    "âĢĺ": 940,
    "isco": 12585,
    "Ġannoy": 17200,
    "hearty": 14836,
    "Ġchasing": 11757,
    "Ġinnocent": 4921,
    "Ġconfluent": 19038,
    "Ġelixir": 26556,
    "Ġcomplexion": 8213,
    "Ġlichen": 20095,
    "Ġenthus": 7232,
    "Ġwhaling": 2783,
    "Ġintric": 9249,
    "Ġlull": 15655,
    "Ġgri": 17990,
    "Ġhaste": 9005,
    "Ġrises": 9715,
    "impropriety": 21717,
    "Ġdistant": 5387,
    "Ġsinew": 25432,
    "Ġutil": 4673,
    "char": 3504,
    "Ñ": 146,
    "Ġlitter": 19832,
    "Ġclams": 19992,
    "ta": 13791,
    "Ġlanes": 19768,
    "abeth": 909,
    "Ġusing": 716,
    "Ġamounted": 18514,
    "splash": 25210,
    "ols": 2413,
    "creat": 20802,
    "promise": 12254,
    "Ġshare": 1661,
    "entered": 8818,
    "acious": 5560,
    "Ġtreachery": 15104,
    "onet": 12549,
    "Ġcomputational": 1627,
    "Ġgates": 10202,
    "distance": 12156,
    "mbles": 23093,
    "Ġvertically": 19383,
    "Ġindelible": 25695,
    "Ġimpat": 4455,
    "Ġpret": 3040,
    "Ġargemone": 24276,
    "Ġlord": 2971,
    "ciousness": 20819,
    "Ġpod": 15608,
    "Ġnimble": 21532,
    "Ġdespairing": 14775,
    "Ġbruised": 25773,
    "Ġatom": 18193,
    "Ġface": 1724,
    "Ġhalf": 1672,
    "Ġeach": 892,
    "Ġsupremacy": 20263,
    "Ġdines": 21427,
    "Ġallegor": 25546,
    "abled": 12798,
    "ders": 8076,
    "omited": 21665,
    "ceived": 1964,
    "la": 10706,
    "Ġwishing": 7831,
    "Ġschoolmaster": 16863,
    "Ġunceasing": 20361,
    "Ġxviii": 23412,
    "engine": 18929,
    "oss": 10117,
    "outh": 2687,
    "lux": 14228,
    "Ġzero": 1200,
    "isf": 2436,
    "Ġcaring": 23096,
    "Ġadventure": 5983,
    "Ġtapers": 11553,
    "decoder": 3645,
    "kinder": 24846,
    "watson": 12247,
    "Ġency": 21938,
    "et": 307,
    "umber": 5241,
    "Ġgryphon": 4297,
    "Ġfluctu": 5268,
    "Ġcabin": 3303,
    "Ġcause": 2411,
    "Ġpraise": 6487,
    "Ġevenings": 18757,
    "Ġapprehended": 26091,
    "blown": 25202,
    "Ġaccurately": 3949,
    "globe": 25145,
    "Ġslippery": 12170,
    "Ġhour": 1810,
    "fts": 18701,
    "Ġfa": 4820,
    "Ġthrees": 23404,
    "ime": 626,
    "Ġazure": 12377,
    "Ġunrem": 18245,
    "Ġattendant": 11286,
    "Ġmil": 4249,
    "Ġhos": 4941,
    "Ġgift": 10841,
    "direful": 25897,
    "ricted": 15423,
    "Ġjan": 11765,
    "Ġdisabled": 18562,
    "impression": 15715,
    "cousin": 10654,
    "recognised": 15265,
    "invite": 25091,
    "Ġtravelled": 7773,
    "Ġfeeble": 12287,
    "shorn": 22457,
    "quakes": 21855,
    "Ġauthentic": 20538,
    "ectual": 21920,
    "faces": 13722,
    "perform": 15903,
    "Ġsecretary": 19445,
    "Ġtahit": 10755,
    "Ġhedge": 8365,
    "Ġsprained": 15887,
    "Ġunthinkingly": 26222,
    "ises": 3654,
    "Ġpoisoned": 24887,
    "Ġunwillingness": 20035,
    "Ġsemblance": 20736,
    "Ġadroop": 26002,
    "Ġmeas": 1096,
    ").âĢĿ": 20743,
    "ifications": 9731,
    "Ġsatir": 18796,
    "Ġpet": 4586,
    "conceivable": 17132,
    "posted": 24637,
    "Ġelig": 9780,
    "hereabouts": 23608,
    "Ġdecayed": 22829,
    "Ġcurved": 18849,
    "Ġdogs": 7743,
    "Ġpoorly": 9857,
    "mar": 4332,
    "Ġinvolve": 11038,
    "Ġskewer": 19623,
    "Ġlodge": 5779,
    "Ġnoticed": 5548,
    "Ġwire": 13854,
    "Ġtelescopes": 25691,
    "Ġscruple": 25051,
    "Ġheld": 3587,
    "Ġanxiously": 8291,
    "sprang": 19994,
    "Ġ166": 25007,
    "computer": 1930,
    "Ġextremely": 2669,
    "Ġdevote": 10340,
    "rimsh": 17028,
    "zor": 15461,
    "Ġinteractions": 12910,
    "Ġcasual": 11410,
    "Ġbushes": 16404,
    "Ġghostliness": 24652,
    "living": 7135,
    "retion": 9364,
    "ired": 1445,
    "Ġpacket": 14895,
    "Ġlavenza": 17973,
    "Ġvir": 7002,
    "kish": 20936,
    "Ġconven": 6153,
    "Ġradiant": 16810,
    "Ġspeed": 2448,
    "likelihood": 4991,
    "Ġstandards": 19019,
    "Ġgrove": 12150,
    "pper": 3211,
    "Ġbeque": 18083,
    ")": 13,
    "Ġflogged": 23627,
    "Ġgradual": 20604,
    "Ġmasks": 23331,
    "oubtedly": 6943,
    "bation": 9105,
    "Ġinquiring": 9001,
    "Ġreveal": 11201,
    "dington": 12069,
    "iqu": 7804,
    "infidel": 24664,
    "Ġcolumn": 9330,
    "Ġcertainty": 6736,
    "Ġprocure": 9512,
    "Ġmiguel": 25767,
    "Ġsound": 2242,
    "Ġmitigates": 3055,
    "Ġcanv": 7011,
    "Ġicebergs": 23978,
    "Ġpropensity": 18997,
    "Ġpillows": 24991,
    "Ġinoffensive": 21502,
    "inctions": 17733,
    "Ġhandsom": 11125,
    "tout": 21068,
    "Ġbrush": 17866,
    "Ġmornings": 16238,
    "Ġmalays": 19680,
    "Ġtendency": 11330,
    "disciple": 16779,
    "examine": 25478,
    "Ġsphynx": 20714,
    "Ġalms": 21785,
    "ion": 296,
    "ccas": 15894,
    "bitts": 26123,
    "Ġrepugnance": 19088,
    "Ġthousand": 2781,
    "thoughts": 9937,
    "Ġmeddle": 20580,
    "Ġethiopian": 26614,
    "Ġnewspapers": 17188,
    "twig": 23701,
    "learnt": 23517,
    "Ġfunny": 7639,
    "respectable": 19849,
    "four": 6115,
    "Ġdelighted": 5499,
    "Ĵ": 245,
    ".âĢĿ": 464,
    "Ġprofessors": 14727,
    "ustomed": 6101,
    "Ġincognit": 22560,
    "hess": 4747,
    "Ġgave": 2216,
    "haps": 1673,
    "Ġridge": 14821,
    "Ġardently": 9500,
    "ph": 915,
    "Ġwealthy": 18181,
    "standing": 5557,
    "numer": 15402,
    "Ġsubsiding": 23436,
    "Ġbuzz": 24000,
    "honey": 20907,
    "hatred": 24818,
    "Ġmerged": 19299,
    "Ġcrosswise": 18886,
    "Ġrays": 10332,
    "Ġregent": 18593,
    "Ġspurn": 18310,
    "Ġpantheistic": 26337,
    "unaccountable": 15783,
    "Ġvirgin": 7328,
    "Ġtur": 2565,
    "een": 728,
    "Ġperils": 6274,
    "Ġsolomon": 11053,
    "Ġincorrupt": 19237,
    "Ġmbpp": 21325,
    "{": 95,
    "Ġhotel": 8654,
    "Ġincessant": 15100,
    "Ġtrampled": 20331,
    "Ġbillow": 14782,
    "Ġsleet": 8977,
    "Ġmeanings": 18608,
    "athered": 6973,
    "Ġpure": 6139,
    "uberance": 25917,
    "Ġexhibition": 14959,
    "Ġscrib": 22293,
    "Ġhazard": 20435,
    "Ġtongues": 14865,
    "Ġsailor": 3537,
    "inj": 9153,
    "Ġrenegades": 26477,
    "Ġdish": 6138,
    "humour": 7499,
    "Ġhowling": 8512,
    "paused": 17376,
    "ancient": 9657,
    "quished": 21853,
    "ĠâĢľâĢĻ": 22259,
    "Ġpersecutor": 26097,
    "Ġventilator": 8717,
    "Ġbraced": 16581,
    "gerine": 22892,
    "Ġpowder": 11276,
    "mate": 5359,
    "Ġclothed": 19609,
    "rom": 420,
    "dient": 442,
    "seventy": 10877,
    "Ġextras": 22742,
    "Ġsad": 3864,
    "Ġpound": 12620,
    "Ġlivers": 18462,
    "Ġunavailing": 26217,
    "Ġacceptance": 14829,
    "jonah": 11498,
    "Ġere": 3685,
    "Ġoffers": 12950,
    "rann": 21047,
    "Ġintent": 6410,
    "Ġstately": 9836,
    "Ġstung": 21743,
    "gor": 546,
    "Ġverses": 17064,
    "depth": 12804,
    "isher": 2879,
    "Ġutter": 3972,
    "whims": 22244,
    "Ġevince": 24294,
    "Ġinference": 9673,
    "mmed": 7916,
    "L": 48,
    "hearted": 6971,
    "ision": 1854,
    "Ġpell": 21460,
    "Ġspirits": 3697,
    "Ġhyena": 24518,
    "original": 9087,
    "Ġshock": 6084,
    "enses": 10996,
    "Ġindul": 5858,
    "Ġmarched": 18873,
    "idean": 14267,
    "Ġethics": 15465,
    "Ġdented": 17893,
    "verize": 21733,
    "Ġpestilent": 25778,
    "Ġdecaying": 2248,
    "others": 7672,
    "Ġduties": 6611,
    "Ġ108": 19687,
    "Ġgomorrah": 21619,
    "Ġint": 411,
    "attendants": 25496,
    "possessed": 9530,
    "Ġscal": 1626,
    "Ġecc": 11630,
    "con": 654,
    "Ġscents": 22292,
    "Ġuntidy": 23525,
    "Ġperemptorily": 17369,
    "Ġresides": 22545,
    "considered": 9582,
    "Ġmiracle": 15096,
    "Ġillustrate": 25068,
    "Ġdom": 2742,
    "Ġestablish": 9545,
    "Ġimpersonal": 17399,
    "Ġearnest": 3926,
    "delirious": 19508,
    "skylight": 25624,
    "achable": 14130,
    "Ġanomalous": 25638,
    "Ġinducements": 24970,
    "Ġbrighton": 6471,
    "zas": 17713,
    "Ġcongratulate": 9065,
    "Ġjudgment": 5765,
    "Ġsummer": 4790,
    "Ġcongen": 10874,
    "Ġshipwreck": 20449,
    "Ġhurrah": 9871,
    "Ġwre": 5077,
    "crimes": 16685,
    "thed": 8830,
    "Ġpremature": 3724,
    "ock": 15405,
    "abashed": 21797,
    "Ġtakings": 20575,
    "touched": 15442,
    "Ġxavier": 2857,
    "sample": 12510,
    "Ġextinguished": 10343,
    "Ġsaluted": 14760,
    "Ġdeterm": 1270,
    "Ġlevelled": 11285,
    "Ġcord": 5222,
    "º": 123,
    "Ġpervading": 20616,
    "murderers": 25728,
    "Ġspend": 5306,
    "izes": 885,
    "Ġsutherland": 10150,
    "Ġcapabilities": 4374,
    "inable": 11557,
    "Ġp": 289,
    "enemy": 15530,
    "Ġdevoutly": 25834,
    "Ġwhipcord": 20098,
    "hunters": 16834,
    "ch": 321,
    "Ġplays": 12041,
    "Ġplace": 1657,
    "expectant": 24277,
    "bones": 8373,
    "Ġhooked": 19081,
    "Ġembarkation": 25125,
    "Ġbanquet": 15243,
    "Ġchast": 18380,
    "irting": 11688,
    "Ġslain": 8955,
    "94": 4803,
    "tremendous": 20676,
    "Ġextravagance": 17281,
    "Ġfav": 1755,
    "Ġimpropri": 14219,
    "Ġbree": 5011,
    "tumbled": 21093,
    "flu": 9119,
    "Ġchann": 15939,
    "Ġemerge": 14930,
    "Ġswung": 6450,
    "knight": 20942,
    "Ġflour": 8946,
    "ichron": 22168,
    "wart": 17706,
    "Ġhospitable": 17060,
    "Ġstrands": 25575,
    "avoid": 9307,
    "affrail": 11206,
    "Ġomens": 21331,
    "Ġpeterson": 9485,
    "Ġslept": 8260,
    "Ġadvances": 12998,
    "cket": 3687,
    "abilizing": 2929,
    "unexpected": 15782,
    "Ġbloodshot": 23802,
    "Ġghostly": 24651,
    "many": 5251,
    "Ġbarrels": 9438,
    "mering": 12494,
    "occur": 19578,
    "Ġknitted": 19592,
    "fted": 9120,
    "Ġvess": 3296,
    "Ġpregn": 22237,
    "Ġconcrete": 20640,
    "uzza": 11271,
    "Ġjury": 5378,
    "Ġbottles": 16572,
    "Ġcot": 13879,
    "Ġencomp": 12967,
    "Ġcanallers": 13630,
    "Ġdynamic": 5124,
    "cour": 4480,
    "Ġgames": 11628,
    "warning": 25532,
    "mou": 10709,
    "Ġexpense": 7653,
    "asburgh": 15651,
    "accountable": 7111,
    "Ġdavis": 25953,
    "Ġcauldron": 25442,
    "hel": 4814,
    "Ġconsciousness": 9950,
    "Ġpubl": 3936,
    "spears": 23945,
    "leeward": 15213,
    "Ġperse": 6273,
    "ographical": 16787,
    "Ġdisembow": 22542,
    "Ġmazes": 25941,
    "Ġcommodore": 12398,
    "rote": 4592,
    "Ġfinger": 5274,
    "Ġfainter": 14916,
    "Ġgrain": 15835,
    "Ġgrapnels": 25552,
    "Ġtissu": 25921,
    "Ġcoins": 11822,
    "Ġcrammed": 16473,
    "Ġcoward": 7156,
    "med": 1914,
    "Ġinfants": 16370,
    "gates": 20874,
    "wered": 2689,
    "Ġseamen": 5062,
    "Ġrestrictions": 20638,
    "´": 117,
    "Ġswart": 14437,
    "Ġestimable": 23875,
    "Ġrecording": 24433,
    "sets": 17661,
    "ckinridge": 11722,
    "Ġgir": 2256,
    "Ġadmirers": 19689,
    "Ġwantest": 18791,
    "Ġslumbers": 18944,
    "trem": 17682,
    "anesc": 21363,
    "Ġsally": 15505,
    "Ġswashing": 23061,
    "oniously": 21260,
    "Ġprofound": 5497,
    "(-": 2985,
    "elfth": 22374,
    "Ġcruises": 23707,
    "Ġstrewed": 23424,
    "Ġapprehens": 5682,
    "cing": 1015,
    "Ġunscrew": 22045,
    "anous": 21362,
    "itar": 15551,
    "Ġtinted": 13824,
    "Ġnom": 21523,
    "Ġhunch": 18937,
    "embow": 21934,
    "previously": 17209,
    "Ġtrem": 6662,
    "hinting": 17570,
    "sticking": 21658,
    "independ": 15985,
    "airing": 16180,
    "helm": 12175,
    "Ġturnkeys": 23031,
    "Ġblend": 14401,
    "Ġsquaring": 22845,
    "Ġagonizing": 17240,
    "toes": 22570,
    "Ġsmoothed": 23658,
    "Ġsoles": 22087,
    "Ġwisely": 13275,
    "Ġtransitory": 16033,
    "Ġspoken": 4837,
    "sembled": 7263,
    "jam": 15374,
    "presents": 18799,
    "Ġawful": 6201,
    "provid": 11150,
    "weakness": 16128,
    "Ġcreature": 2384,
    "Ġlower": 2663,
    "Ġpeasant": 13554,
    "Ġthreatened": 8331,
    "aside": 10193,
    "Ġvirtue": 4922,
    "devoted": 20020,
    "Ġlearn": 365,
    "fier": 9595,
    "Ġfool": 4230,
    "[": 63,
    "onsensical": 18577,
    "Ġinterpre": 1589,
    "Ġcrackling": 24963,
    "\",": 10680,
    "Ġsnatches": 16546,
    "Ġtropic": 17065,
    "giana": 7802,
    "minutely": 19596,
    "prob": 7071,
    "Ġsufferer": 16260,
    "Ġvanishing": 1347,
    "hog": 8381,
    "ulpt": 10886,
    "attain": 21264,
    "Ġcastaways": 19431,
    "Ġmightier": 18732,
    "ild": 1155,
    "Ġnatur": 17336,
    "Ġdared": 5440,
    "Ġbas": 6381,
    "Ġarchitects": 18744,
    "Ġlinen": 12410,
    "injury": 25214,
    "Ġvolat": 24145,
    "Ġmem": 2162,
    "Ġattitude": 8905,
    "Ġcandles": 9910,
    "oons": 12502,
    "Ġreneg": 21679,
    "alvan": 21508,
    "blame": 14795,
    "¶": 119,
    "Ġwards": 17791,
    "Ġim": 477,
    "accept": 8892,
    "Ġelder": 7224,
    "consequ": 18508,
    "Ġnorms": 3666,
    "floated": 24644,
    "hies": 17561,
    "Ġpropontis": 17467,
    "Ġroving": 22408,
    "Ġumbrell": 13653,
    "Ġpronouncing": 16970,
    "Ġabject": 18392,
    "Ġbur": 2697,
    "tomb": 21096,
    "Ġstaggered": 9541,
    "Ġarr": 1798,
    "Ġdiscours": 18718,
    "Ġinde": 7371,
    "Ġwriting": 4668,
    "Ġmarried": 3408,
    "tall": 17674,
    "kill": 13746,
    "Ġmaritime": 23040,
    "Ġtied": 7357,
    "roylott": 20030,
    "verty": 8454,
    "Ġgrenadier": 21620,
    "Ġcanopy": 18323,
    "Ġuncont": 14118,
    "Ġdir": 21425,
    "angled": 6844,
    "Ġturn": 1297,
    "Ġminus": 18753,
    "Ġceased": 6469,
    "Ġmont": 8562,
    "Ġmodels": 779,
    "hamlet": 23266,
    "Ġsworn": 14438,
    "improve": 15716,
    "Ġincomp": 12904,
    "Ġ1778": 25730,
    "baby": 25516,
    "face": 3677,
    "ighbour": 3388,
    "jud": 4482,
    "spring": 7231,
    "Ġunimpeachable": 26523,
    "Ġgenerate": 1594,
    "Ġpince": 21475,
    "instinctively": 26329,
    "Ġundiscovered": 18253,
    "Ġcurious": 3361,
    "Ġindef": 9191,
    "Ġwindows": 4970,
    "iliar": 15718,
    "persons": 24176,
    "presented": 12994,
    "Ġsquatted": 25843,
    "ration": 2006,
    "Ġtreatise": 19348,
    "conversation": 7124,
    "vig": 15449,
    "province": 26073,
    "Ġerrone": 14432,
    "Ġtheories": 13851,
    "verdict": 21734,
    "Ġ3": 3982,
    "lads": 20957,
    "Ġdisreputable": 22539,
    "allow": 5104,
    "Ġnations": 8813,
    "Ġliberality": 24376,
    "Ġneighbours": 8304,
    "Ġthoughtless": 16196,
    "Ġpolite": 9884,
    "Ġsplintered": 11419,
    "Ġoverwrites": 5032,
    "Ġstout": 6027,
    "cloudless": 20335,
    "Ġredundant": 16553,
    "lleg": 20953,
    "Ġpretext": 22234,
    "ĠĠĠĠĠĠĠĠĠĠĠĠĠĠĠĠĠĠĠĠĠĠĠĠĠĠĠĠĠĠĠĠĠ": 12046,
    "Ġpassers": 18761,
    "cles": 8729,
    "offer": 19063,
    "ubb": 1653,
    "sect": 8154,
    "Ġduplicity": 25332,
    "rd": 17650,
    "Ġdismember": 20218,
    "honorable": 19903,
    "grandfather": 25012,
    "beware": 16044,
    "Ġunacquainted": 12780,
    "gloomy": 25147,
    "Ġdefray": 22945,
    "eping": 5835,
    "Ġwedded": 15539,
    "dearest": 11738,
    "rubbery": 17344,
    "angles": 18296,
    "Ġexordium": 26494,
    "bing": 7793,
    "Ġcordon": 24393,
    "atiable": 17775,
    "Ġentrapped": 26264,
    "painted": 17640,
    "Ġsucceeded": 6107,
    "torm": 11532,
    "177": 20754,
    "Ġdeprec": 15759,
    "Ġreputation": 11642,
    "Ġesquimaux": 25154,
    "simp": 17666,
    "Ġlose": 5027,
    "acknowled": 10975,
    "Ġsqualls": 17021,
    "ped": 6964,
    "hedge": 22505,
    "Ġdied": 4107,
    "ufactured": 15184,
    "Ġcasc": 15560,
    "Ġallies": 18235,
    "Ĕ": 213,
    "Ġeddies": 25089,
    "ify": 1472,
    "Ġlirra": 21564,
    "Ġvisiting": 10360,
    "Ë": 140,
    "empt": 2620,
    "Ġprofessed": 14726,
    "pute": 8848,
    "Ġcous": 3437,
    "Ġwaters": 3597,
    "Ġsullen": 9159,
    "Ġinventing": 24862,
    "Ġprevents": 2558,
    "Ġreproach": 9558,
    "Ġrecurrent": 1802,
    "Ġcrazed": 19177,
    "Ġalex": 15136,
    "Ġpreceding": 7529,
    "imson": 12693,
    "Ġperpetually": 17071,
    "Ġhelp": 1645,
    "Ġirr": 10422,
    "Ġgate": 6825,
    "Ġtying": 15476,
    "one": 615,
    "Ġstump": 7604,
    "coff": 9111,
    "sy": 2768,
    "grasp": 16433,
    "gun": 10098,
    "Ġservants": 6612,
    "expose": 23663,
    "increas": 10455,
    "Ġbreak": 2870,
    "Ġwretchedness": 9028,
    "veral": 2354,
    "Ġ81": 24456,
    "Ġcaut": 6522,
    "Ġork": 18285,
    "Ġtransparency": 10678,
    "uced": 13802,
    "Ġsuited": 12791,
    "Ġmaintenance": 17463,
    "sharks": 14240,
    "gl": 3291,
    "Ġhorse": 4725,
    "!âĢĻ": 3333,
    "Ġiceberg": 14718,
    "avish": 22599,
    "Ġscholar": 26112,
    "Ġtasted": 12533,
    "Ġcalcul": 3638,
    "hate": 20894,
    "Ġensl": 19276,
    "Ġprocession": 11778,
    "Ġsit": 4211,
    "Ġlips": 3988,
    "Ġfainted": 8795,
    "Ġrubber": 22791,
    "Ġmarked": 4619,
    "<": 32,
    "Ġvoc": 4450,
    "Ġconvinced": 4201,
    "Ġspoils": 24805,
    "C": 39,
    "Ġrapt": 7227,
    "Ġhun": 1496,
    "prise": 7728,
    "Ġbelf": 21384,
    "Ġberyl": 20493,
    "Ġhaught": 10256,
    "Ġresounds": 22547,
    "Ġunsophisticated": 25993,
    "taffrail": 15445,
    "antial": 8490,
    "Ġsalt": 8018,
    "Ġtistig": 26414,
    "head": 1436,
    "ö": 183,
    "urp": 1471,
    "coloured": 7291,
    "Ġarve": 15906,
    "Ġwardrobe": 17227,
    "Ġchristendom": 16695,
    "itoring": 21335,
    "Ġheed": 5630,
    "specific": 10499,
    "Ġfactor": 19016,
    "Ġse": 402,
    "happy": 4424,
    "footsteps": 25200,
    "Ġbecame": 2691,
    "Ġdisconcerted": 18563,
    "aited": 12438,
    "Ġmorbidness": 20631,
    "Ġselected": 9713,
    "Ġcrawled": 17044,
    "Ġweig": 7620,
    "Ġgestures": 13538,
    "Ġgrampus": 21998,
    "whal": 10941,
    "Ġcharnel": 22257,
    "culous": 11142,
    "Ġsnorting": 23742,
    "itations": 17819,
    "Ġspurned": 12801,
    "allic": 12817,
    "Ġbell": 4636,
    "Ġvect": 1223,
    "arrival": 15604,
    "Ġindiscreet": 22960,
    "cares": 24310,
    "Ġdecl": 3591,
    "Ġconsume": 12962,
    "Ġcorn": 9352,
    "Ġcham": 4892,
    "Ġmamm": 25093,
    "having": 5211,
    "Ġbenjamin": 26568,
    "Ġbring": 3325,
    "impenet": 18056,
    "affect": 13215,
    "been": 3345,
    "Ġshouted": 5348,
    "representativeness": 25273,
    "Ġcaress": 16343,
    "Ġvigilant": 20187,
    "Ġunlocked": 14122,
    "problem": 25245,
    "Ġconn": 9231,
    "anche": 10789,
    "Ġremarked": 3695,
    "Ġtol": 6677,
    "Ġgnashed": 20136,
    "Ġphysiognomically": 25613,
    "Ġevent": 2955,
    "Ġgleaming": 24998,
    "Ġ47": 14773,
    "ific": 490,
    "nuts": 15401,
    "opard": 9293,
    "Ġreaders": 18916,
    "distressed": 24201,
    "Ġtolland": 24993,
    "Ġapt": 9157,
    "Ġtender": 5753,
    "Ġvent": 3994,
    "Ġthrust": 5084,
    "hamed": 6307,
    "Ġsort": 1506,
    "Ġatmosphere": 10898,
    "Ġwhirlwinds": 20468,
    "Ġpressing": 9263,
    "bolts": 11421,
    "Ġimposs": 16617,
    "Ġsatisfying": 23699,
    "enth": 6682,
    "points": 14395,
    "Ġescaping": 13138,
    "Ġsupre": 10272,
    "Ġsurmis": 23465,
    "Ġvac": 5024,
    "Ġattic": 16099,
    "Ġprairies": 20024,
    "Ġsin": 1513,
    "cords": 25139,
    "Ġselection": 18205,
    "found": 4209,
    "oboam": 9360,
    "Ġinexpress": 12639,
    "paus": 13775,
    "Ġimagination": 5759,
    "mies": 20970,
    "Ġcaves": 15558,
    "Ġtraces": 7947,
    "incible": 16499,
    "timidity": 25754,
    "Ġidiotic": 25589,
    "advancing": 14838,
    "Ġscrew": 8870,
    "Ġhereafter": 9332,
    "Ġgaz": 4040,
    "Ġaut": 1897,
    "alf": 4639,
    "spout": 7925,
    "Ġmors": 17803,
    "ercial": 21277,
    "andering": 21872,
    "carb": 20812,
    "Ġreminiscences": 26271,
    "whips": 22243,
    "Ġchat": 6562,
    "Ġplunging": 14954,
    "play": 5099,
    "ensation": 22551,
    "Ġperpendicularly": 11375,
    "Ġproofs": 19817,
    "interchange": 23740,
    "prophet": 16183,
    "Ġpost": 4268,
    "Ġwheels": 10913,
    "Ġmemoirs": 26207,
    "Ġmove": 5107,
    "Ġdistur": 5313,
    "Ġsurf": 19133,
    "ordinary": 4406,
    "Ġcarted": 21353,
    "Ġobtain": 8917,
    "Ġmonuments": 22988,
    "Ġforc": 9229,
    "ifted": 4495,
    "Ġsquee": 7930,
    "fever": 22507,
    "lemency": 21377,
    "Ġjourneys": 19478,
    "Ġlysander": 13142,
    "Ġquantity": 6948,
    "Ġconscious": 7745,
    "chant": 4253,
    "kington": 11204,
    "beh": 5472,
    "Ġsympat": 13344,
    "itious": 8783,
    "acute": 22550,
    "Ġlungs": 8363,
    "Ġinsect": 12640,
    "Ġjames": 6420,
    "Ġsearching": 13165,
    "Ġbaby": 6639,
    "espe": 3499,
    "Ġconversations": 9427,
    "bride": 19202,
    "Ġsteam": 9355,
    "Ġpistol": 7848,
    "Ġthoughtlessness": 16197,
    "lowering": 16036,
    "Ġfloundering": 16253,
    "sper": 4434,
    "rades": 8592,
    "Ġfrosts": 19805,
    "irectly": 6940,
    "igen": 4831,
    "Ġopposite": 5120,
    "Ġaval": 15496,
    "Ġvulgarity": 25364,
    "Ġworm": 9164,
    "Ġchewed": 16376,
    "rr": 17651,
    "alarms": 21509,
    "Ġbursting": 8659,
    "Ġcreativity": 2850,
    "Ġgun": 4702,
    "Ġstile": 21737,
    "court": 7512,
    "Ġsquares": 11170,
    "Ġmethodically": 23124,
    "Ġdelightfully": 13161,
    "Ġjac": 1899,
    "Ġfern": 21410,
    "Ġpane": 21467,
    "dipped": 20839,
    "Ġflattening": 26049,
    "pag": 11512,
    "han": 12476,
    "Ġbutt": 14127,
    "Ġmish": 15541,
    "istol": 6261,
    "ar": 285,
    "Ġunprovided": 18261,
    "Ġfood": 5080,
    "priv": 9621,
    "Ġexpression": 4516,
    "island": 10795,
    "lob": 22512,
    "Ġsunset": 8964,
    "Ġgrud": 17998,
    "Ġleather": 7608,
    "Ġbanks": 6815,
    "baned": 17497,
    "known": 3570,
    "smeer": 26148,
    "Ġromans": 16760,
    "elsewhere": 19870,
    "Ġcursed": 6728,
    "treat": 12517,
    "irr": 12741,
    "Ġspangled": 22140,
    "proceeding": 20144,
    "Ġuntamed": 19166,
    "Ġchanced": 8188,
    "umps": 6319,
    "odox": 21821,
    "bottle": 20148,
    "Ġremember": 2678,
    ":âĢĶâĢĺ": 24195,
    "understanding": 1139,
    "ier": 1136,
    "comprehens": 16173,
    "@": 36,
    "pits": 15415,
    "stocks": 23824,
    "Ġcharms": 11131,
    "Ġbraz": 19361,
    "Ġverify": 12091,
    "Ġquietly": 4567,
    "remained": 8573,
    "Ġdynamically": 4620,
    "Ġwidely": 8034,
    "Ġbodily": 6108,
    "ogn": 2418,
    "itor": 12570,
    "Ġbled": 17858,
    "dam": 7799,
    "Ġclimes": 12844,
    "Ġcomprehended": 11295,
    "ĉ": 202,
    "Ġstrata": 26028,
    "Ġtrophy": 20010,
    "Ġexcellence": 11452,
    "insulting": 26056,
    "Ġcharacteristically": 23693,
    "ĠâĢĺ": 1634,
    "once": 5906,
    "Ġcalf": 16271,
    "assemblies": 25957,
    "Ġcircumstantial": 14644,
    "Ġrebounds": 25968,
    "Ġstri": 2803,
    "Ġprematurely": 24009,
    "kings": 17584,
    "torture": 26152,
    "vision": 5619,
    "Ġineffectual": 17386,
    "Ġmodular": 12823,
    "Ġowes": 20088,
    "Ġworldly": 16332,
    "vi": 2375,
    "Ġdefects": 12336,
    "ie": 730,
    "Ġviolates": 3166,
    "Ġdefined": 11901,
    "Ġporus": 24397,
    "Ġprofited": 19194,
    "Ġimmortal": 8019,
    "Ġvit": 10247,
    "Ġswelled": 11089,
    "ove": 1745,
    "Ġperches": 18449,
    "upper": 11540,
    "gris": 8261,
    "Ġtwist": 11854,
    "Ġnarr": 5085,
    "Ġheadland": 22903,
    "Ġrosings": 4607,
    "iline": 21725,
    "Ġdisenc": 22531,
    "Ġtribute": 15478,
    "kitty": 10107,
    "Ġunsavory": 20709,
    "Ġphysical": 7523,
    "Ġinscrut": 10036,
    "Ġoverpowered": 15291,
    "Ġreport": 6193,
    "Ġcolumb": 22861,
    "icious": 7380,
    "plex": 713,
    "Ġforged": 12708,
    "Ġhebrew": 13990,
    "rain": 461,
    "Ġencode": 4361,
    "fatig": 17089,
    "destroyed": 15263,
    "Ġliterature": 17150,
    "direction": 17525,
    "Ġunlimited": 26224,
    "indulged": 22380,
    "insupportable": 21196,
    "Ġconfess": 3764,
    "Ġgeneralization": 986,
    "Ġrevolver": 14900,
    "Ġprincipally": 11310,
    "expectation": 14858,
    "bl": 4137,
    "large": 6628,
    "speak": 5504,
    "Ġepicures": 25880,
    "waters": 11334,
    "opening": 10314,
    "Ġampl": 22485,
    "mist": 5686,
    "Ġelated": 18633,
    "Ġmead": 8838,
    "ondescript": 22920,
    "Ġself": 1778,
    "Ġcrusad": 23708,
    "gloves": 25146,
    "discover": 10541,
    "Ġfired": 16158,
    "Ġcircumstance": 4986,
    "Ġbeat": 4492,
    "repro": 10771,
    "harpooneer": 8692,
    "killer": 20479,
    "Ġdivin": 13276,
    "İ": 241,
    "Ġhonourable": 10457,
    "delirium": 14786,
    "sal": 8761,
    "Ġmeals": 12715,
    "Ġimitated": 18332,
    "Ġsqueezing": 25009,
    "iro": 20916,
    "Ġfath": 7364,
    "warrior": 24797,
    "Ġspir": 2430,
    "following": 10574,
    "Ġincapable": 7423,
    "Ġscript": 18400,
    "Ġprevailing": 24674,
    "welcome": 10003,
    "ert": 2634,
    "dri": 5890,
    "cely": 3576,
    "advance": 12160,
    "Ġsupple": 23003,
    "Ġconsistence": 23360,
    "Ġagencies": 18543,
    "Ġinconsist": 17938,
    "Ġpagan": 7119,
    "Ġrevolutions": 23845,
    "itatingly": 25278,
    "Ġspasmodic": 20401,
    "uce": 11537,
    "Ġportcull": 23866,
    "jaws": 20934,
    "Ġbedford": 7476,
    "Ġabstraction": 26540,
    "Ġinstant": 2703,
    "Ġsus": 18281,
    "Ġslit": 13061,
    "Ġdiscern": 7660,
    "Ġcastor": 19430,
    "Ġmassive": 9934,
    "Ġsod": 11563,
    "arming": 8953,
    "bergs": 18696,
    "âĢĿ]": 21817,
    "Ġdaft": 19666,
    "bid": 5610,
    "Ġstun": 11652,
    "Ġhelm": 5276,
    "Ġlucifers": 16589,
    "ado": 11660,
    "invol": 12534,
    "Ġstoutest": 24630,
    "Ġsweetly": 23922,
    "asions": 12655,
    "battle": 12445,
    "Ġtake": 1579,
    "hailed": 17566,
    "Ġstructures": 2718,
    "glings": 23854,
    "Ġlearnt": 7616,
    "enjoyments": 25434,
    "uss": 8767,
    "unwillingness": 25803,
    "Ġofficer": 6755,
    "ai": 2526,
    "Ġfattened": 25950,
    "Ġbended": 21388,
    "skelter": 24489,
    "accessible": 13642,
    "Ġroasted": 18461,
    "Ġmeeting": 5193,
    "Ġcreditors": 20133,
    "Ġgems": 9210,
    "servant": 15037,
    "Ġchannels": 26014,
    "iver": 2049,
    "Ġfict": 21408,
    "Ġunclad": 22059,
    "taken": 7561,
    "ply": 6367,
    "hent": 12538,
    "emotions": 15799,
    "terdam": 18132,
    "rib": 1947,
    "furniture": 20245,
    "worth": 8630,
    "Ġeddying": 17118,
    "Ġinglorious": 24423,
    "pet": 4867,
    "Ġaffinity": 18788,
    "unknown": 10891,
    "Ġ2026": 12338,
    "atching": 8204,
    "Ġalso": 1345,
    "Ġaddition": 1147,
    "dle": 3306,
    "Ġrate": 1062,
    "Ġheedful": 19743,
    "Ġfanciful": 24787,
    "igation": 5920,
    "Ġhumane": 11887,
    "irst": 878,
    "vol": 714,
    "rods": 21542,
    "_âĢĶâĢĿ": 20765,
    "ilet": 12833,
    "Ġstra": 2996,
    "Ġalgorithms": 854,
    "razor": 21641,
    "moil": 22709,
    "Ġstag": 6150,
    "ech": 4386,
    "Ġproceeded": 5336,
    "Ġcure": 21343,
    "Ġunaccountably": 26516,
    "eted": 7593,
    "Ġceasing": 23760,
    "turn": 4289,
    "versed": 9827,
    "Ġinstability": 3811,
    "arboard": 7266,
    "Ġfurnishes": 19444,
    "Ġshaster": 22003,
    "Ġconnect": 799,
    "reds": 12752,
    "Ġgovernor": 16492,
    "willingly": 11985,
    "germ": 15359,
    "biqu": 17499,
    "Ġresounded": 22549,
    "yond": 2331,
    "fun": 4387,
    "othic": 16219,
    "Ġmanif": 8873,
    "Ġintellect": 8171,
    "Ġidea": 2488,
    "Ġmeth": 1429,
    "Ġpretended": 19316,
    "Ġquoted": 22420,
    "Ġlurid": 19684,
    "ils": 3183,
    "Ġspokes": 18314,
    "Ġstoven": 23180,
    "Ġstroke": 6936,
    "Ġride": 12762,
    "Ġremnants": 22799,
    "Ġdelightful": 6322,
    "ashes": 6018,
    "Ġtigris": 25760,
    "Ġlaud": 17970,
    "Ġbroods": 23107,
    "Ġwritten": 4163,
    "ind": 568,
    "Ġpant": 10818,
    "Ġhats": 14620,
    "malicious": 19904,
    "Ġforgetting": 3434,
    "Ġtepid": 26413,
    "Ġnow": 693,
    "Ġphilipp": 23887,
    "Ġbrigs": 20325,
    "pulled": 25148,
    "ived": 1532,
    "Ġalterations": 19873,
    "Ġdilated": 24703,
    "epend": 3316,
    "Ġbelonging": 8309,
    "Ġintervene": 25481,
    "ren": 549,
    "Ġfiend": 4410,
    "Ġdisconsolate": 20721,
    "Ġprimary": 25063,
    "Ġelias": 18634,
    "Ġthreatening": 16829,
    "Ġminute": 4274,
    "nights": 16449,
    "Ġinser": 6820,
    "Ġscroll": 14193,
    "Ġpurpose": 2707,
    "Ġconquest": 15752,
    "Ġunspeakably": 25173,
    "leather": 13892,
    "Ġdelineate": 26058,
    "Ġdwelling": 7322,
    "Ġbackwoods": 22657,
    "networks": 2407,
    "Ġalgorith": 562,
    "giv": 13724,
    "Ġparm": 15881,
    "Ġcuba": 25098,
    "Ġpreluding": 18369,
    "prehens": 9291,
    "Ġseason": 5238,
    "Ġnod": 1889,
    "Ġwoeful": 19622,
    "Ġcontrived": 10305,
    "Ġinsulated": 23682,
    "Ġharpoons": 5659,
    "©": 107,
    "ognit": 19187,
    "Ġatt": 772,
    "Ġscraped": 16904,
    "Ġbacked": 12928,
    "Ġneglect": 7943,
    "Ġdaw": 21433,
    "india": 22376,
    "Ġinequal": 21501,
    "Ġfoaming": 18993,
    "weave": 22689,
    "hunter": 10557,
    "letter": 6203,
    "Ġcomes": 3423,
    "Ġfidel": 12600,
    "Ġfulfilment": 20190,
    "rever": 21238,
    "Ġcompromising": 22579,
    "Ġactual": 3736,
    "Ġauthors": 10419,
    "theast": 21753,
    "Ġbefriend": 18084,
    "eneva": 5118,
    "Ġinsists": 23680,
    "ift": 1607,
    "clusion": 16308,
    "isles": 15568,
    "Ġlegit": 16475,
    "Ġcatch": 4440,
    "Ġmorocco": 26574,
    "Ġ2": 2934,
    "Ġrenewed": 9540,
    "singular": 12192,
    "Ġcarn": 17823,
    "least": 8788,
    "Ġtheatre": 21281,
    "likeness": 19481,
    "ieth": 10705,
    "Ġthreshold": 2809,
    "quite": 4647,
    "Ġstrangeness": 16705,
    "Ġhappily": 9333,
    "duing": 22416,
    "Ġdubious": 17385,
    "Ġminded": 23234,
    "mechan": 11860,
    "Ġlevi": 3039,
    "Ġreprehensible": 15703,
    "cated": 20805,
    "boast": 23256,
    "whole": 6087,
    "iod": 3837,
    "magistrate": 19865,
    "Ġcontextually": 11963,
    "Ġmouthful": 16576,
    "Ġreflection": 6441,
    "Ġelix": 22647,
    "Ġtorpor": 25034,
    "fits": 13720,
    "Ġarchbishop": 18719,
    "Ġforth": 3462,
    "moving": 11018,
    "Ġlist": 2365,
    "diminished": 20841,
    "base": 20779,
    "Ġbanking": 19633,
    "trifling": 19417,
    "Ġdiabolical": 20345,
    "Ġfaithfully": 14889,
    "Ġstagger": 10593,
    "Ġflavor": 16254,
    "conveyed": 20524,
    "Ġcontained": 7681,
    "Ġgetting": 4062,
    "orrowed": 19292,
    "Ġdecreases": 3409,
    "Ġruin": 6058,
    "iated": 5892,
    "Ġknowledge": 1446,
    "Ġsparkled": 13465,
    "Ġdefinitions": 22948,
    "Ġmien": 17810,
    "gan": 2196,
    "Ġwindpipe": 23110,
    "Ġwrath": 16320,
    "Ġskeleton": 5514,
    "fleet": 15015,
    "steady": 14711,
    "iors": 9127,
    "Ġpl": 744,
    "Ġindication": 22956,
    "ilent": 21724,
    "Ġspending": 10924,
    "Ġtimid": 6347,
    "Ġfabulous": 25949,
    "Ġpreference": 9735,
    "Ġsom": 1275,
    "pressed": 6589,
    "Ġarch": 947,
    "spass": 18686,
    "Ġextravagant": 17280,
    "Ġparticular": 2449,
    "Ġkindliness": 23298,
    "Ġeaten": 14847,
    "oring": 1860,
    "Ġblacksmith": 6597,
    "mong": 15392,
    "terns": 21827,
    "saying": 8644,
    "stoke": 18022,
    "Ġpresently": 5116,
    "placidity": 25989,
    "tish": 17678,
    "Ġrelent": 18777,
    "seen": 2882,
    "Ġnantucketer": 6914,
    "unerative": 21901,
    "former": 11751,
    "Ġunspeak": 8853,
    "Ġenig": 15803,
    "aret": 7417,
    "imming": 9689,
    "Ġsuspending": 19246,
    "Ġhence": 4988,
    "Ġbedfellow": 16441,
    "Ġadmir": 12024,
    "Ġblessed": 6931,
    "Ġspain": 15884,
    "rooms": 10433,
    "Ġmounting": 19980,
    "filled": 9596,
    "apse": 14200,
    "Ġvial": 10250,
    "Ġfingers": 5672,
    "Ġentertaining": 16927,
    "Ġinaudible": 21503,
    "Ġhaughty": 11450,
    "Ġsombre": 18861,
    "children": 9057,
    "Ġreb": 15695,
    "Ě": 219,
    "Ġstraightway": 9019,
    "valued": 2853,
    "shone": 22453,
    "Ġfollow": 1395,
    "rive": 9709,
    "Ġaffection": 2641,
    "osal": 11762,
    "Ġdeemed": 7614,
    "quick": 6401,
    "Ġdisent": 22528,
    "Ġregions": 10326,
    "Ġdock": 15934,
    "anguish": 15987,
    "Ġindic": 2890,
    "Ġadorn": 12794,
    "shut": 10983,
    "august": 11072,
    "etymology": 14703,
    "emberley": 4166,
    "Ġgaunt": 11269,
    "Ġcastle": 14719,
    "Ġsuperstitious": 13522,
    "Ġenjoyed": 8009,
    "Ġjerked": 19835,
    "connections": 14430,
    "Ġfangs": 12601,
    "Ġwor": 1189,
    "Ġinfamous": 16371,
    "derness": 11740,
    "Ġhelplessly": 20081,
    "sentimental": 25682,
    "Ġfoundations": 11074,
    "way": 765,
    "ment": 692,
    "Ġreceive": 4704,
    "Ġscreams": 24605,
    "Ġgallop": 19558,
    "Ġperturbed": 20443,
    "Ġinjured": 9041,
    "Ġgurglings": 26466,
    "Ġside": 1384,
    "eryton": 4090,
    "Ġprosecution": 12384,
    "Ġhey": 11643,
    "backed": 9868,
    "Ġpacing": 8428,
    "Ġrats": 21981,
    "rary": 4575,
    "Ġrepulses": 26071,
    "ting": 1334,
    "Ġranged": 10259,
    "shad": 10984,
    "Ġshrimp": 24158,
    "Ġturns": 4980,
    "pre": 649,
    "pent": 3494,
    "Ġincor": 2612,
    "Ġcharitable": 23273,
    "Ġubiquitous": 26197,
    "Ġoriginated": 24123,
    "dimly": 15349,
    "ogne": 12940,
    "Ġeasy": 3452,
    "Ġder": 1498,
    "Ġdrawers": 12109,
    "Ġdrows": 21439,
    "Ġvaried": 11851,
    "ancial": 21365,
    "Ġcocoan": 20319,
    "Ġfootfall": 14662,
    "anch": 15564,
    "Ġpunctual": 17139,
    "Ġindisc": 16231,
    "Ġstiffest": 24827,
    "Ġserene": 8168,
    "Ġ1828": 25720,
    "higher": 20410,
    "Ġcommunicating": 16890,
    "arches": 10817,
    "Ġconstraint": 16514,
    "Ġlim": 2381,
    "Ġannihilated": 20255,
    "perseus": 26006,
    "Ġexpedition": 10636,
    "inting": 9816,
    "sculptured": 26047,
    "Ġmicroscopic": 26375,
    "ĠĠĠĠĠĠĠĠĠĠĠĠĠĠĠĠĠ": 22953,
    "cal": 1118,
    "Ġconcentric": 20078,
    "cheeks": 23810,
    "reject": 21239,
    "Ġbackwater": 18643,
    "Ġcharcoal": 19009,
    "Ġdefence": 11068,
    "shiver": 16030,
    "Ġfumbling": 21421,
    "asing": 5914,
    "Ġdams": 16456,
    "meantime": 9094,
    "Ġloftiest": 16875,
    "number": 10116,
    "Ġcouples": 16853,
    "reed": 6374,
    "Ġfamiliarity": 16730,
    "Ġquench": 22424,
    "Ġtort": 5904,
    "iza": 6257,
    "Ġodious": 12154,
    "Ġoutermost": 22324,
    "Ġchis": 11753,
    "Ġgleamed": 17077,
    "hopes": 15372,
    "Ġconcussion": 26301,
    "apparat": 22851,
    "Ġagreed": 7031,
    "Ġpersuasions": 16633,
    "told": 7812,
    "Ġmistake": 6205,
    "Ġrespect": 1671,
    "Ġointment": 21329,
    "Ġnought": 21526,
    "ys": 3957,
    "Ġrigid": 16717,
    "Ġblankness": 24612,
    "afternoon": 13190,
    "Ġpredictions": 1455,
    "Ġapprehensions": 13407,
    "Ġboun": 21383,
    "Ġstories": 10866,
    "ivates": 18275,
    "screwed": 17189,
    "Ġ1883": 23901,
    "simple": 13455,
    "Ġwrite": 3819,
    "doubted": 17527,
    "Ġkelson": 18351,
    "Ġunsatisfied": 22049,
    "rin": 10123,
    "Ġabased": 22273,
    "phr": 18704,
    "Ġsounds": 5190,
    "Ġcollecting": 12289,
    "Ġbackbones": 22656,
    "Ġcomprised": 14272,
    "reply": 19725,
    "Ġdestitute": 14567,
    "Ġstrikes": 13184,
    "Ġhideous": 5985,
    "strom": 15687,
    "belongs": 25597,
    "Ġbison": 21391,
    "elson": 16377,
    "Ġpardon": 5727,
    "Ġstock": 7455,
    "hack": 20898,
    "Ġtenement": 23551,
    "Ġspecially": 12000,
    "impl": 21711,
    "Ġwreak": 16818,
    "Ġloitered": 26526,
    "itancy": 21336,
    "Ġengraved": 17081,
    "Ġstab": 10863,
    "Ġeyes": 1335,
    "Ġlonging": 14301,
    "Ġvindict": 13608,
    "facts": 19845,
    "Ġhospital": 15041,
    "conceal": 25117,
    "Ġsinusoidal": 4801,
    "ff": 459,
    "feature": 4265,
    "Ġoakshott": 12233,
    "Ġxli": 14542,
    "Ġsulkily": 25882,
    "Ġprecisely": 6467,
    "Ġbreathing": 9447,
    "ignation": 11129,
    "Ġcriminals": 19924,
    "Ġaggregate": 25678,
    "discharging": 26306,
    "previous": 9763,
    "reflection": 13458,
    "Ġworker": 23041,
    "Ġleading": 7297,
    "Ġratt": 7883,
    "Ġfert": 15586,
    "Ġoakum": 16935,
    "Ġagree": 7648,
    "os": 524,
    "ied": 941,
    "Ġrepeat": 8001,
    "blacksmith": 17002,
    "Ġcheers": 16372,
    "Ġaffairs": 6877,
    "Ġgreen": 3056,
    "ister": 1294,
    "Ġstepmother": 16092,
    "Ġimpertinence": 11367,
    "Ġtents": 13820,
    "nevertheless": 8287,
    "ldog": 21922,
    "Ġoverjoy": 15972,
    "Ġtit": 8401,
    "Ġinfiltrated": 23287,
    "Ġdisgu": 8207,
    "Ġur": 5539,
    "Ġlouisiana": 25079,
    "consc": 4841,
    "Ġreasons": 6022,
    "Ġratio": 5065,
    "air": 1005,
    "Ġyards": 5371,
    "sized": 15431,
    "coun": 10689,
    "Ġsums": 2906,
    "Ġperil": 5556,
    "Ġexpressed": 4467,
    "Ġconcern": 2587,
    "Ġglue": 15678,
    "Ġchaplain": 19914,
    "Ġenormousness": 24511,
    "possible": 5743,
    "Ġfeedback": 23435,
    "certainly": 5340,
    "Ġprinciples": 10013,
    "lively": 12488,
    "Ġnorm": 763,
    "Ġhabitual": 24789,
    "Ġinverted": 12641,
    "Ġseethe": 21968,
    "Ġcircumference": 13547,
    "bowing": 24453,
    "Ġharder": 14451,
    "Ġinducement": 16844,
    "Ġinstincts": 16987,
    "idol": 21771,
    "Ġmotion": 4566,
    "Ġempty": 5354,
    "lu": 596,
    "Ġmansfield": 25939,
    "Ġsouthern": 7691,
    "ums": 10274,
    "Ġrepulsive": 14531,
    "Ġowning": 18748,
    "Ġsurrounded": 5881,
    "Ġlament": 7858,
    "Ġgaff": 17996,
    "rimin": 2425,
    "Ġremained": 3142,
    "Ġchosen": 7201,
    "Ġcheery": 16374,
    "Ġjo": 2611,
    "Ġclapped": 9747,
    "Ġrebell": 21673,
    "recover": 24624,
    "Ġz": 1001,
    "speaks": 19722,
    "Ġunderground": 18986,
    "Ġfitzwilliam": 5771,
    "Ġphrensy": 25127,
    "jewel": 20349,
    "Ġger": 21595,
    "ument": 5240,
    "Ġassembly": 10644,
    "Ġdangers": 12357,
    "resembled": 21249,
    "rices": 4559,
    "Ġdefines": 1744,
    "â": 163,
    "circle": 16737,
    "Ġeighteenth": 14756,
    "Ġthrough": 602,
    "----âĢĻ": 24100,
    "baked": 20781,
    "inois": 17739,
    "handkerchief": 14618,
    "Ġjurymen": 16848,
    "Ġbanished": 10618,
    "zers": 21149,
    "Ġdeclines": 23966,
    "Ġdistinctly": 7311,
    "burnt": 20083,
    "harm": 13737,
    "Ġlo": 452,
    "Ġpictures": 5503,
    "rador": 19129,
    "rushing": 10020,
    "Ġarom": 15495,
    "formality": 22231,
    "rippa": 11342,
    "Ġplying": 17916,
    "kindled": 16662,
    "Ġdisconsol": 18558,
    "orand": 21400,
    "Ġflo": 2590,
    "Ġimpending": 22393,
    "Ġloss": 825,
    "Ġmout": 17800,
    "Ġindignantly": 16940,
    "Ġwhaleman": 4655,
    "photograph": 16154,
    "insisted": 23072,
    "Ġobstructed": 24678,
    "Ġforked": 11666,
    "herfield": 3631,
    "Ġpaus": 4296,
    "Ġthick": 3781,
    "presbyterian": 26370,
    "Ġcarpets": 18903,
    "walk": 5523,
    "inks": 6869,
    "belong": 12126,
    "breaths": 25337,
    "Ġturban": 23615,
    "Ġespecial": 26411,
    "Ġear": 1422,
    "Ġwasn": 6998,
    "Ġtearless": 24785,
    "gressive": 2752,
    "Ġreck": 6539,
    "Ġsquint": 22843,
    "Ġjustly": 11907,
    "contempl": 13194,
    "ev": 6952,
    "Ġnon": 1625,
    "matical": 13131,
    "Ġvivid": 8059,
    "Ġinhabitants": 7525,
    "cain": 15328,
    "reluct": 26164,
    "usages": 22285,
    "Ġmisanthropic": 26561,
    "Ġbandaged": 16843,
    "Ġstep": 751,
    "Ġutmost": 5496,
    "Ġrecre": 22737,
    "Ġahoy": 12188,
    "Ġboth": 1659,
    "Ġwhalebone": 10978,
    "Ġpianoforte": 15276,
    "Ġbrine": 18771,
    "Ġchilly": 25563,
    "laugh": 10110,
    "Ġtearing": 14396,
    "achalot": 15862,
    "off": 1887,
    "Ġconsequ": 6256,
    "brill": 16493,
    "Ġsky": 3966,
    "marrying": 19550,
    "acific": 4959,
    "inform": 10145,
    "gra": 769,
    "Ġab": 528,
    "Ġano": 11598,
    "party": 8994,
    "alo": 7589,
    "Ġencoun": 4512,
    "Ġdistillation": 16049,
    "dreadful": 11422,
    "touch": 8393,
    "Ġcough": 11583,
    "Ġconsiderably": 7716,
    "Ġguardsmen": 20633,
    "bug": 17494,
    "Ġdanger": 3520,
    "Ġmerid": 13198,
    "û": 188,
    "Ġquickly": 4236,
    "Ġloosed": 22117,
    "ici": 8442,
    "compan": 7301,
    "Ġpolic": 13164,
    "Ġlothario": 26186,
    "Ġcarpenter": 4685,
    "bill": 10078,
    "allingly": 22204,
    "stalls": 26474,
    "Ġsweatings": 25709,
    "Ġmaz": 15546,
    "Ġprior": 11319,
    "inople": 13831,
    "oko": 18441,
    "squall": 13524,
    "Ġgratification": 24099,
    "Ġnaturalists": 10363,
    "recur": 4436,
    "Ġthack": 21521,
    "Ġchamber": 6215,
    "Ġhelmet": 19690,
    "Ġostent": 13587,
    "Ġsuicide": 12793,
    "Ġcharacters": 9374,
    "throt": 25660,
    "Ġcalculating": 9927,
    "structure": 2245,
    "Ġcompasses": 11268,
    "Ġemploy": 3616,
    "elect": 20848,
    "mes": 1196,
    "rug": 18337,
    "Ġnovember": 11752,
    "Ġhaws": 21963,
    "Ġbrushed": 15575,
    "exceed": 7913,
    "ieged": 22583,
    "Ġdrive": 5054,
    "travelling": 24337,
    "Ġ31": 12134,
    "inery": 17734,
    "spades": 14334,
    "ress": 930,
    "hammer": 14490,
    "Ġgently": 7172,
    "Ġshaping": 22008,
    "Ġunerring": 15851,
    "Ġasia": 11685,
    "Ġbands": 14886,
    "Ġgateway": 24799,
    "Ġi": 312,
    "about": 3588,
    "Ġshortened": 23484,
    "Ġbite": 10798,
    "Ġpsalmody": 20588,
    "Ġenraged": 10246,
    "onse": 21252,
    "Ġdecanting": 22443,
    "Ġconsists": 11980,
    "occup": 7754,
    "screaming": 20328,
    "chosen": 21699,
    "Ġrashly": 20308,
    "Ġmilliner": 19886,
    "Ġshoved": 23492,
    "Ġexcurs": 23316,
    "Ġprofundity": 20455,
    "Ġnamed": 6141,
    "Ġbitten": 21393,
    "Ġbroke": 5323,
    "Ġobliterated": 17407,
    "Ġthief": 11612,
    "Ġhoarse": 14527,
    "Ġfordham": 21781,
    "op": 657,
    "wag": 21126,
    "Ġfatt": 15583,
    "Ġmany": 1103,
    "iless": 10283,
    "ro": 301,
    "correspond": 13401,
    "Ġwelcomed": 9484,
    "Ġly": 2268,
    "pents": 11514,
    "Ġbeard": 11657,
    "youngest": 19746,
    "aping": 8195,
    "osity": 14187,
    "Ġcrumbs": 19124,
    "attoo": 6808,
    "Ġdut": 2993,
    "Ġpeter": 10537,
    "Ġjurors": 17346,
    "Ġgour": 21602,
    "Ġlanguage": 647,
    "Ġbackgammon": 22659,
    "Ă": 195,
    "Ġcommons": 22676,
    "Ġupwards": 7635,
    "heav": 5694,
    "Ġaimed": 20253,
    "lanter": 15390,
    "Ġnoises": 18374,
    "imitably": 21715,
    "Ġhyper": 19742,
    "Ġmaids": 19694,
    "Åĵuvre": 25888,
    "Ġdying": 2135,
    "Ġhoped": 5488,
    "Ġchuckled": 10649,
    "Ġfo": 1656,
    "Ġmum": 13860,
    "Ġslight": 3120,
    "watches": 14949,
    "Ġindelicacy": 25696,
    "omas": 12680,
    "otence": 14025,
    "Ġperforming": 7929,
    "aiian": 23594,
    "Ġfinancier": 26584,
    "Ġheadstrong": 14390,
    "iogn": 20923,
    "Ġsets": 8778,
    "```": 25894,
    "Ġ120": 16859,
    "entiful": 10837,
    "Ġhier": 1895,
    "Ġsolar": 22889,
    "intense": 22940,
    "Ġtiresome": 26157,
    "Ġangry": 5498,
    "Ġsetbacks": 11064,
    "Ġrafters": 22667,
    "Ġgush": 10204,
    "Ġtyrant": 24766,
    "Ġprogramming": 1184,
    "Ġdelivery": 18977,
    "invisible": 17741,
    "Ã¦": 4334,
    "Ġdiagon": 24739,
    "everything": 6326,
    "ordinate": 12879,
    "Ġweld": 8113,
    "Ġmim": 3107,
    "irs": 14073,
    "clergyman": 20731,
    "Ġtempor": 2366,
    "lydon": 13991,
    "phys": 18705,
    "decease": 25558,
    "Ġraiment": 22663,
    "concluding": 19484,
    "Ġfiles": 21417,
    "Ġlimits": 3453,
    "liked": 10510,
    "coach": 23562,
    "dance": 17520,
    "Ġcalled": 1972,
    "Ġunfavourable": 17419,
    "Ġdeterminate": 23008,
    "Ġhousekeeping": 18946,
    "Ġenjoined": 18192,
    "Ġamb": 9294,
    "Ġdegenerated": 20509,
    "Ġpeeled": 14320,
    "Ġxliv": 23411,
    "Ġmo": 629,
    "Ġbristling": 20530,
    "Ġinject": 2710,
    "Ġingen": 9051,
    "must": 3579,
    "lestrade": 9658,
    "||": 4869,
    "Ġrepent": 9865,
    "guinea": 16674,
    "Ġfinally": 4667,
    "pherd": 13647,
    "cap": 8374,
    "Ġfeast": 10279,
    "ii": 4012,
    "wild": 8771,
    "J": 46,
    "seat": 18128,
    "icle": 10835,
    "inished": 17735,
    "_,âĢĻâĢĿ": 20404,
    "Ġchip": 12828,
    "Ġscott": 22291,
    "Ġdesist": 16241,
    "aloons": 20014,
    "Ġ26": 10471,
    "rential": 22923,
    "Ġbegged": 8232,
    "Ġannum": 24205,
    "fitting": 1508,
    "jaw": 13745,
    "Ġbeaches": 18087,
    "Ġbattle": 5910,
    "tastes": 21099,
    "endent": 15921,
    "Ġpainting": 13144,
    "Ġrueful": 25582,
    "Ġul": 6828,
    "Ġinclud": 1511,
    "Ġoozy": 21330,
    "Ġenveloped": 12212,
    "Ġcomply": 8894,
    "depths": 25664,
    "oblig": 16294,
    "Ġhardened": 14452,
    "Ġobserver": 11991,
    "Ġstillness": 12997,
    "Ġinsure": 13181,
    "Ġmaledictions": 26429,
    "elve": 4642,
    "Ġevidence": 5270,
    "Ġconsist": 1936,
    "Ġrascally": 26508,
    "Ġbattered": 17864,
    "Ġunsupervised": 2553,
    "portent": 25413,
    "regards": 23468,
    "Ġusefulness": 19411,
    "desolate": 25717,
    "scr": 16245,
    "Ġcalmly": 7735,
    "Ġwooing": 19437,
    "parad": 16388,
    "Ġelsewhere": 7714,
    "worshipping": 16611,
    "Ġmyster": 5928,
    "Ġdifferent": 1427,
    "Ġfling": 9662,
    "rict": 8094,
    "Ġcasts": 19429,
    "Ġpinch": 15018,
    "hotel": 20053,
    "Ġuniformity": 23485,
    "Ġtroub": 22370,
    "Ġloomings": 24952,
    "elf": 564,
    "wra": 11543,
    "Ġprettier": 23768,
    "ghost": 20889,
    "Ġquestioned": 14621,
    "Ġendless": 7055,
    "fingers": 17372,
    "Ġstrainings": 24629,
    "Ġbasket": 9574,
    "Ġaunt": 3178,
    "perplex": 18342,
    "Ġpitches": 23905,
    "Ġinterpret": 5490,
    "Ġinheriting": 25355,
    "Ġceiling": 7998,
    "Ġfamine": 16330,
    "Ġstoried": 18075,
    "Ġconfirming": 25322,
    "Ġriveted": 13621,
    "Ġsending": 8779,
    "wondrous": 12341,
    "Ġsuspense": 9420,
    "Ġrighted": 23183,
    "Ġdecoyed": 18486,
    "Ġflattened": 26048,
    "Ġlawy": 9457,
    "Ġshowing": 7733,
    "Ġpoland": 23619,
    "Ġdealing": 14046,
    "Ġadmiral": 17307,
    "Ġsurround": 4617,
    "came": 4570,
    "avern": 24791,
    "Ġbowled": 23772,
    "stranded": 19227,
    "Ġfragments": 19056,
    "twill": 21077,
    "Ġargosy": 24275,
    "ickory": 22673,
    "Ġupward": 9723,
    "Ġbeale": 12703,
    "Ġhusbands": 16644,
    "staking": 21646,
    "Ġgenerous": 6275,
    "stirring": 20429,
    "ober": 15409,
    "fitzwilliam": 11353,
    "Ġspeaker": 19150,
    "alescing": 23869,
    "shire": 3025,
    "Ġcult": 8785,
    "other": 1314,
    "Ġvic": 5237,
    "Ġcapstan": 9101,
    "Ġbegat": 18864,
    "withstanding": 8947,
    "resolution": 17767,
    "chest": 11209,
    "Ġquarters": 8623,
    "Ġadd": 630,
    "Ġ12": 5483,
    "officer": 17054,
    "quarters": 24949,
    "Ġlowerings": 23648,
    "uteness": 17988,
    "Ġtogether": 1879,
    "Ġ135": 24784,
    "surpr": 5999,
    "weight": 2945,
    "Ġmaimed": 21319,
    "Ġastonished": 7089,
    "robber": 21541,
    "Ġstowed": 21741,
    "Ġdong": 17889,
    "Ġresided": 11814,
    "appalling": 22850,
    "Ġclubs": 25180,
    "scuttle": 11913,
    "Ġthinner": 24184,
    "Ġtasks": 1787,
    "Ġscant": 22290,
    "Ġillinois": 19138,
    "glo": 8741,
    "Ġconcuss": 19044,
    "artic": 14217,
    "Ġwag": 10776,
    "experience": 17160,
    "Ġune": 4598,
    "onym": 14650,
    "ilege": 22261,
    "Į": 239,
    "Ġengagements": 9980,
    "obed": 14448,
    "Ġpetersburgh": 24230,
    "Ġundertaken": 18988,
    "Ġgoethe": 22429,
    "Ġultimately": 17166,
    "Ġunwelcome": 12784,
    "Ġrevealing": 3921,
    "Ġdischarge": 18557,
    "Ġlunging": 24994,
    "Ġ}": 21156,
    "Ġ(`": 12856,
    "Ġdistances": 22509,
    "Ġstrugg": 3219,
    "Ġtierce": 15481,
    "Ġfashionable": 19547,
    "Ġrather": 1494,
    "Ġanswerable": 23472,
    "cular": 15330,
    "Ġcarriages": 11099,
    "Ġbidden": 24647,
    "Ġlinn": 13955,
    "Ġtot": 4181,
    "meditation": 19073,
    "Ġmoved": 4840,
    "Ġbecause": 2208,
    "Ġgabriel": 7597,
    "Ġhatherley": 7850,
    "ulls": 8841,
    "Ġswallowed": 7945,
    "Ġpredef": 18516,
    "Ġvapory": 17007,
    "Ġinfant": 11964,
    "Ġsmith": 16071,
    "Ġhind": 9190,
    "Ġensu": 7877,
    "Ġenumer": 12749,
    "Ġclustered": 25234,
    "å": 166,
    "Ġadmirals": 20388,
    "Ġluff": 15657,
    "Ġunaccount": 22032,
    "Ġbred": 9171,
    "Ġour": 1011,
    "gentleness": 24845,
    "limbs": 20194,
    "Ġtrain": 514,
    "you": 1007,
    "secut": 7869,
    "construction": 19781,
    "Ġfishers": 19357,
    "somewhat": 11161,
    "begins": 18529,
    "Ġalmanac": 26486,
    "Ġtrick": 7022,
    "Ġthirt": 13941,
    "Ġdiabol": 11454,
    "ribes": 23370,
    "neurons": 3135,
    "Ġdemanding": 16806,
    "Ġvale": 14084,
    "iences": 6957,
    "pleasure": 5980,
    "effectually": 25131,
    "Ġextreme": 2515,
    "Ġsallies": 21232,
    "Ġwretchedly": 19509,
    "hear": 10148,
    "Ġsty": 6253,
    "Ġspilling": 22142,
    "lips": 13752,
    "Ġsax": 10930,
    "Ġfairer": 20465,
    "Ġamaz": 5385,
    "Ġremaining": 6190,
    "Ġconversing": 14634,
    "kins": 7345,
    "ston": 15686,
    "ostent": 16847,
    "scissors": 20729,
    "Ġwallowed": 24045,
    "Ġoaken": 13867,
    "Ġtask": 1310,
    "Ġsor": 4141,
    "Ġimpatience": 7510,
    "Ġbird": 3754,
    "Ġmarines": 16263,
    "Ġsaves": 18325,
    "collins": 6916,
    "conscience": 14862,
    "blog": 19842,
    "Ġmerchants": 23734,
    "Ġyarn": 10869,
    "Ġcomponents": 8896,
    "Ġmoran": 9343,
    "!--": 10679,
    "Ġdrawings": 14724,
    "Ġtransformers": 1133,
    "_).âĢĶ": 8685,
    "he": 264,
    "master": 5687,
    "mas": 5212,
    "Ġnegatived": 23052,
    "guessed": 25873,
    "Ġwad": 13853,
    "Ġrake": 18646,
    "Ġnautical": 17388,
    "iousness": 4899,
    "Ġsandwiched": 26611,
    "Ġparac": 12799,
    "daw": 17523,
    "Ġbefore": 812,
    "Ġspermacetti": 19047,
    "Ġperadventure": 22403,
    "Ġsagaciously": 24730,
    "Ġeaster": 15679,
    "enance": 3371,
    "databases": 3028,
    "Ġdra": 1591,
    "Ġdiscourse": 9800,
    "Ġfond": 4755,
    "Ġsegmentation": 17342,
    "Ġdiligently": 11406,
    "ingu": 2119,
    "Ġquicker": 16509,
    "Ġsplinter": 23749,
    "inridge": 11562,
    "Ġdeaf": 12722,
    "Ġsou": 1888,
    "dually": 3285,
    "Ġcrash": 12004,
    "itt": 571,
    "ople": 2321,
    "stolidity": 21661,
    "helping": 23147,
    "Ġult": 9076,
    "Ġoversight": 22363,
    "Ġsufferable": 16259,
    "Ġvexatious": 19784,
    "Ġalabama": 14021,
    "chariot": 26480,
    "pequod": 7054,
    "âĢĶ.âĢĿ": 22260,
    "Ġstrangely": 5677,
    "Ġemployments": 12106,
    "Ġintelligence": 561,
    "Ġboon": 22641,
    "Ġreign": 13987,
    "Ġlub": 15653,
    "Ġbulb": 23858,
    "Ġspar": 10922,
    "uture": 1068,
    "Ġstiff": 6993,
    "Ġsecluded": 11995,
    "floor": 14938,
    "Ġunseason": 22057,
    "Ġfirmly": 8015,
    "ror": 7351,
    "aling": 1037,
    "irmed": 9241,
    "Ġdictated": 25219,
    "Ġgoing": 2067,
    "ias": 6364,
    "verd": 21732,
    "term": 3756,
    "share": 14237,
    "itement": 7836,
    "Ġphotograph": 6304,
    "ieving": 7034,
    "acled": 16067,
    "ourers": 21453,
    "ak": 538,
    "encoura": 15050,
    "Ġline": 1850,
    "Ġprejudiced": 24806,
    "raid": 3281,
    "Ġtowards": 1731,
    "Ġshallow": 14397,
    "vious": 1783,
    "port": 10720,
    "Ġpeaceful": 9458,
    "boilers": 26298,
    "Ġgenerator": 3382,
    "Ġlantern": 7118,
    "fer": 1917,
    "Ġdodging": 19889,
    "Ġexploration": 2337,
    "Ġ92": 24592,
    "Ġattics": 22625,
    "Ġcracked": 8598,
    "Ġexact": 2542,
    "Ġeccentric": 13652,
    "Ġpauses": 14817,
    "chorus": 19814,
    "aked": 2017,
    "Ġregretted": 13403,
    "angle": 22108,
    "Ġaccounts": 7207,
    "Ġfitness": 24003,
    "part": 2574,
    "fact": 6360,
    "Ġreappearance": 21671,
    "iterranean": 15554,
    "consolation": 15155,
    "Ġconvolutional": 2160,
    "Ġtransferred": 16457,
    "Ġnursing": 12218,
    "mency": 18928,
    "Ġprom": 1526,
    "Ġworried": 22930,
    "ugn": 9380,
    "Ġderived": 8240,
    "fam": 5991,
    "Ġstave": 11653,
    "pane": 10122,
    "altering": 12644,
    "vex": 21702,
    "eminent": 25107,
    "Ġdismast": 12892,
    "Ġoaths": 13526,
    "Ġlike": 670,
    "Ġtop": 2471,
    "Ġhyp": 3869,
    "erably": 7574,
    "Ġsleek": 23387,
    "Ġgarn": 13965,
    "Ġstall": 12700,
    "uguese": 20734,
    "Ġbrightness": 16578,
    "by": 1159,
    "wood": 5900,
    "Ġmoulded": 16976,
    "Ġlurch": 21559,
    "Ġpad": 8126,
    "Ġperceive": 6701,
    "Ġalders": 21789,
    "âĢĶâĢľ_": 13207,
    "orum": 12594,
    "Ġlandau": 16423,
    "Ġstopping": 2748,
    "cruet": 17027,
    "Ġcommunicate": 10579,
    "Ġbidirectional": 3753,
    "Ġgraves": 11711,
    "Ġsurgeons": 23466,
    "ittarius": 22382,
    "ours": 3427,
    "sulphur": 25910,
    "Ġfist": 21407,
    "crooked": 25747,
    "Ġsiber": 17756,
    "Ġpropos": 7064,
    "Ġvest": 8164,
    "perpendicular": 14161,
    "Ġloud": 4701,
    "Ġbarbara": 24815,
    "Ġage": 3893,
    "Ġworth": 4415,
    "blocks": 25518,
    "Ġapr": 12536,
    "oo": 7554,
    "usual": 5841,
    "Ġcarter": 18901,
    "oner": 6126,
    "Ġsubdued": 11031,
    "Ġemerged": 8688,
    "Ġunfaltering": 24113,
    "get": 1023,
    "pride": 11211,
    "Ġcorroborated": 26055,
    "thither": 21988,
    "Ġaffair": 4463,
    "Ġempt": 5050,
    "Ġsubur": 12960,
    "Ġrudimental": 25111,
    "hug": 17564,
    "Ġcollinses": 19131,
    "glad": 9010,
    "Ġlines": 4534,
    "Ġmonomaniac": 9570,
    "Ġbeer": 10221,
    "Ġcount": 1814,
    "fulfil": 16041,
    "middle": 11311,
    "activity": 22635,
    "Ġprofoundly": 16860,
    "osely": 9267,
    "Ġsweetheart": 19398,
    "ark": 850,
    "Ġforcing": 3226,
    "Ġloafer": 18300,
    "Ġcigars": 12256,
    "rail": 10206,
    "onement": 21259,
    "Ġobstacles": 19838,
    "Ġsaviour": 20715,
    "peril": 18341,
    "Ġspace": 1510,
    "Ġassurances": 10002,
    "Ġincreas": 1697,
    "Ġorganically": 3016,
    "mir": 20965,
    "Ġgreenhorn": 23771,
    "responsible": 25764,
    "Ġindolent": 13009,
    "Ġsteer": 10388,
    "Ġindicate": 23724,
    "shaven": 18494,
    "Ġtastes": 15480,
    "Ġeveryone": 8920,
    "Ġpole": 6434,
    "Ġthrills": 24541,
    "Ġtranspired": 16785,
    "sudden": 5316,
    "Ġnatives": 17953,
    "running": 6798,
    "Ġpersistence": 3265,
    "waistcoat": 17363,
    "Ġide": 2122,
    "comp": 3815,
    "tried": 13796,
    "function": 5066,
    "cous": 8725,
    "Ġmuff": 8115,
    "Ġgets": 10840,
    "Ġtruest": 16701,
    "Ġsurprised": 3828,
    "Ġservant": 5764,
    "keep": 3848,
    "Ġdevoted": 6575,
    "Ġdreamt": 23942,
    "Ġcorroded": 18877,
    "Ġnoble": 3440,
    "Ġwoody": 23521,
    "ered": 1687,
    "Ġcaw": 13885,
    "Ġpartners": 11856,
    "ery": 1269,
    "Ġswayed": 15049,
    "ots": 3295,
    "Ġforlorn": 14017,
    "swiftly": 20554,
    "Ġdais": 24371,
    "Ġdistribut": 844,
    "este": 15923,
    "beat": 10987,
    "Ġdawned": 14996,
    "Ġapproved": 16022,
    "Ġgord": 21604,
    "Ġlingering": 11380,
    "sleepers": 24729,
    "Ġminimum": 23046,
    "Ġcontinual": 6778,
    "Ġascended": 8669,
    "Ġengra": 7876,
    "Ġvehic": 8934,
    "Ġpian": 13919,
    "discredit": 24252,
    "Ġranges": 2886,
    "vast": 10737,
    "dignity": 15348,
    "opposite": 19931,
    "moored": 22710,
    "eff": 2534,
    "owner": 18612,
    "Ġunreasonably": 17453,
    "force": 12963,
    "Ġrh": 9246,
    "aby": 18109,
    "Ġskipper": 22803,
    "attent": 9361,
    "Ġnewfoundland": 26570,
    "playing": 19660,
    "Ġdefect": 8557,
    "henomenon": 13617,
    "urried": 21708,
    "continual": 20646,
    "Ġdashed": 6012,
    "ipl": 20920,
    "Ġnoiseless": 10358,
    "Ġprocessions": 18434,
    "Ġvanity": 7047,
    "Ġsemantics": 2898,
    "Ġcables": 15562,
    "Ġthirdly": 24144,
    "Ġpertur": 12854,
    "Ġedward": 19153,
    "Ġbeside": 5192,
    "dy": 4071,
    "rove": 21537,
    "commission": 22809,
    "Ġodd": 6627,
    "science": 11912,
    "Ġsw": 1357,
    "Ġexistence": 4707,
    "worn": 13808,
    "loving": 18542,
    "Ġconsequently": 8061,
    "forehead": 8518,
    "mission": 5972,
    "ishly": 14201,
    "Ġcomparable": 24280,
    "contriv": 19295,
    "eskye": 21454,
    "widely": 25344,
    "mble": 1407,
    "Ġscene": 3099,
    "Ġsentences": 2682,
    "althily": 19362,
    "Ġsources": 10149,
    "Ġhieroglyphic": 25588,
    "Ġpreser": 6043,
    "Ġjuggl": 20441,
    "yard": 5902,
    "Ġengine": 1922,
    "Ġsket": 18730,
    "interest": 5421,
    "itigated": 23051,
    "^": 66,
    "Ġtash": 13822,
    "witness": 10037,
    "Ġaspired": 25985,
    "Ġsustaining": 25334,
    "Ġcolour": 4461,
    "hampshire": 23268,
    "Ġcarry": 4779,
    "spanish": 14333,
    "these": 3244,
    "Ġpoliceman": 15261,
    "Ġcrystall": 20229,
    "mme": 22506,
    "Ġmonsieur": 12424,
    "Ġsweetest": 13250,
    "lections": 4752,
    "Ġauthorized": 16736,
    "Ġanyone": 4458,
    "Ġheight": 4215,
    "declaration": 25176,
    "Ġassert": 7122,
    "Ġern": 8398,
    "Ġmixture": 9564,
    "icted": 5939,
    "Ġbrave": 6331,
    "Ġstirring": 10581,
    "Ġinnocently": 24031,
    "Ġlandsc": 11147,
    "anxiety": 25159,
    "mn": 3578,
    "imprisonment": 23765,
    "Ġdiffusion": 23785,
    "Ġexhausted": 8697,
    "Ġpleasantly": 14521,
    "Ġmelancholy": 5605,
    "Ġjump": 4504,
    "Ġplank": 7035,
    "ins": 1376,
    "Ġsche": 1708,
    "Ġtears": 4226,
    "dun": 17517,
    "anywhere": 14683,
    "Ġbequeathed": 20704,
    "Ġcomputation": 965,
    "Ġgazed": 6479,
    "imag": 6991,
    "Ġagainst": 1701,
    "Ġdeliciousness": 24127,
    "rative": 17653,
    "boom": 18999,
    "Ġell": 17716,
    "Ġunrestrained": 25555,
    "Ġgrows": 4984,
    "Ġspec": 1264,
    "Ġmeasures": 1204,
    "cheerful": 13578,
    "Ġmoonlight": 9960,
    "Ġjun": 8508,
    "Ġengineer": 11977,
    "Ġhardihood": 23116,
    "Ġindoors": 18837,
    "ript": 4148,
    "suddenly": 6494,
    "ld": 385,
    "Ġsaucer": 20608,
    "idious": 11664,
    "Ġguid": 2640,
    "tubes": 25212,
    "Ġsuspicious": 9482,
    "Ġdisappeared": 5645,
    "Ġneed": 2610,
    "Ġinsip": 19269,
    "process": 11149,
    "Ġroast": 18458,
    "ativeness": 15524,
    "unforeseen": 21893,
    "Ġdece": 6997,
    "veh": 12683,
    "Ġthw": 21519,
    "Ġrecovering": 11865,
    "Ġconvalescence": 23747,
    "Ġslaught": 23172,
    "Ġtwinkled": 14314,
    "70": 17477,
    "urious": 21707,
    "fields": 14654,
    "Ġharriet": 24572,
    "Ġcircling": 19094,
    "Ġimmortality": 26327,
    "remonstr": 23195,
    "conven": 6164,
    "Ġ69": 19664,
    "seamen": 13629,
    "cannibals": 25585,
    "gd": 3125,
    "Ġwidespread": 20678,
    "avers": 17482,
    "Ġgroaned": 11267,
    "Ġalteration": 9548,
    "lantic": 6365,
    "Ġcalhoun": 23049,
    "ationally": 15709,
    "Ġprivately": 19526,
    "sli": 11524,
    "avor": 14281,
    "Ġgrapes": 15218,
    "narwhale": 17320,
    "Ġworshipping": 22932,
    "Ġspeak": 2229,
    "pie": 21013,
    "Ġrumors": 11322,
    "Ġpieces": 7369,
    "Ġaband": 6563,
    "Ġunprecedented": 15858,
    "Ġpurposed": 23555,
    "Ġmadden": 10448,
    "idate": 21772,
    "Ġpatent": 11962,
    "attending": 18918,
    "Ġfarthing": 14456,
    "Ġguardians": 14945,
    "Ġpyramid": 8805,
    "warn": 11544,
    "Ġcomprehend": 6495,
    "Ġexpansion": 22630,
    "Ġhark": 8430,
    "Ġdames": 23475,
    "Ġtouches": 20573,
    "Ġpond": 13918,
    "poured": 17638,
    "Ġdriving": 3618,
    "Ġstir": 5824,
    "abash": 18110,
    "Ġrib": 4935,
    "stones": 11637,
    "Ġwhirlpool": 20657,
    "calling": 12453,
    "Ġwillingness": 24911,
    "sinking": 17669,
    "shoulder": 16585,
    "Ġloaded": 8493,
    "Ġcraw": 7282,
    "condesc": 18507,
    "kn": 5791,
    "Ã¦mon": 7096,
    "diversity": 25898,
    "Ġschool": 5512,
    "Ġindestruct": 22962,
    "Ġ$": 21153,
    "Ġhospitality": 13515,
    "Ġsituated": 9450,
    "fine": 10092,
    "fif": 9118,
    "Ġconfirmation": 17212,
    "Ġmann": 18417,
    "Ġtroublesome": 24005,
    "Ġmuster": 16126,
    "harbors": 20151,
    "wholly": 10942,
    "melancholy": 12356,
    "answer": 11735,
    "principle": 10652,
    "Ġcripple": 11441,
    "Ġgarb": 21607,
    "presence": 18496,
    "Ġaverred": 18866,
    "Ġadaptive": 1279,
    "Ġcolours": 12978,
    "allest": 5485,
    "Ġprogeny": 17390,
    "Ġenquired": 21945,
    "Ġemma": 20697,
    "Ġunful": 22016,
    "Ġscru": 8193,
    "Ġoft": 9196,
    "Ġdetached": 10282,
    "Ġcommunic": 5751,
    "oses": 3942,
    "¬": 110,
    "Ġcognitive": 13637,
    "Ġrattling": 11396,
    "pips": 21022,
    "Ġestimate": 19376,
    "sil": 5283,
    "Ġfl": 1281,
    "Ġsocietal": 11437,
    "osh": 18389,
    "Ġunshored": 25814,
    "Ġlessened": 19089,
    "recogn": 13428,
    "flitted": 23972,
    "Ġprows": 19891,
    "Ġpun": 4587,
    "Ġmaggie": 26293,
    "?âĢĿ": 700,
    "Ġintensity": 10018,
    "Ġhair": 3314,
    "Ġtill": 1825,
    "Ġfilling": 13411,
    "Ġtorrid": 25035,
    "blows": 17167,
    "Ġnewspaper": 12367,
    "ivered": 7007,
    "whisper": 17083,
    "iah": 14418,
    "Ġclassification": 1099,
    "struck": 7864,
    "hard": 4690,
    "Ġlingu": 11616,
    "Ġplumage": 17300,
    "Ġdispirited": 23885,
    "crack": 19843,
    "can": 1231,
    "Ġreasoner": 14436,
    "Ġpine": 8800,
    "ppers": 7619,
    "Ġplu": 8802,
    "advise": 24219,
    "Ġparalle": 1410,
    "tranquillity": 20549,
    "Ġringbolts": 24198,
    "Ġincantation": 26259,
    "Ġvesuvius": 26502,
    "Ġassigned": 16314,
    "Ġmeets": 7396,
    "need": 10981,
    "Ġsnatched": 10472,
    "variety": 23190,
    "Ġthree": 1370,
    "unsuitable": 21898,
    "high": 6652,
    "Ġsodden": 25536,
    "Ġconve": 5455,
    "receiving": 12547,
    "atics": 15526,
    "Ġsold": 6005,
    "real": 10151,
    "places": 7879,
    "ented": 4345,
    "Ġspreading": 13381,
    "ard": 465,
    "greatest": 10495,
    "Ġtraps": 23085,
    "bewil": 22504,
    "Ġstim": 18066,
    "Ġmonoman": 7940,
    "Ġcontinuing": 14399,
    "Ġfoam": 6891,
    "Ġundoing": 22040,
    "Ġfonder": 17882,
    "athom": 12944,
    "Ġresurrection": 12898,
    "Ġhackluyt": 25656,
    "balanced": 14555,
    "repugnance": 16865,
    "hilar": 25084,
    "ceiving": 3899,
    "Ġpanegyric": 26450,
    "snatched": 24851,
    "Ġindomitableness": 26572,
    "ames": 2883,
    "intelligence": 5885,
    "painting": 17046,
    "Ġoutbreak": 22322,
    "nose": 17611,
    "Ġmethodic": 23123,
    "Ġpythag": 26449,
    "Ġspool": 24803,
    "stained": 21653,
    "reng": 3999,
    "Ġfinding": 3267,
    "ouri": 21451,
    "save": 13787,
    "tisement": 6768,
    "severe": 21824,
    "Ġtraffic": 23088,
    "Ġstre": 2108,
    "acted": 11011,
    "Ġview": 2760,
    "Ġstreng": 18073,
    "silenced": 24422,
    "Ġlashes": 17969,
    "reported": 24492,
    "Ġexcessively": 9442,
    "plans": 21955,
    "Ġdismally": 20217,
    "Ġphysiogn": 12391,
    "Ġlaz": 7378,
    "body": 2309,
    "Ġbully": 23859,
    "Ġsincerity": 13681,
    "Ġgreeted": 23215,
    "beam": 16043,
    "decan": 22147,
    "Ġplease": 4723,
    "Ġ1": 1017,
    "combined": 20323,
    "ä": 165,
    "Ġsteelkilt": 5675,
    "Ġend": 1473,
    "Ġbelrive": 18832,
    "Ġh": 290,
    "Ġcomfor": 14056,
    "Ġexeget": 24086,
    "Ġenv": 2885,
    "holmes": 4430,
    "ohn": 4561,
    "bre": 3976,
    "Ġpattering": 18652,
    "Ġ183": 13241,
    "natural": 2379,
    "Ġdarting": 7758,
    "Ġorganisation": 23585,
    "Ġundu": 15841,
    "Ġgentle": 1891,
    "akers": 9741,
    "Ġutterance": 14765,
    "ifts": 12739,
    "Ġsire": 15504,
    "cription": 20820,
    "beating": 22495,
    "olets": 21010,
    "Ġnight": 1464,
    "Ġsaw": 1352,
    "Ġsaintsbury": 26374,
    "uge": 4014,
    "satisfactory": 16894,
    "Ġforeshad": 23453,
    "boys": 13363,
    "Ġthroats": 24575,
    "arrangement": 17417,
    "ĠĠĠĠĠĠĠĠĠĠĠĠĠĠĠĠĠĠĠĠĠĠĠĠĠĠĠĠĠĠĠĠĠĠĠĠĠĠ": 16527,
    "directly": 13711,
    "grees": 20888,
    "Ġjetted": 24430,
    "surely": 10571,
    "Ġbillows": 7503,
    "ter": 359,
    "Ġconjoined": 21811,
    "ssip": 14082,
    "Ġresources": 2942,
    "Ġsubord": 22792,
    "Ġmund": 21320,
    "strang": 11185,
    "Ġsizes": 1519,
    "showing": 22461,
    "twain": 23702,
    "Ġdone": 1816,
    "Ġunwarrantable": 26346,
    "ustry": 18362,
    "valley": 16216,
    "Ġmeasuring": 22886,
    "Ġfreckled": 18960,
    "Ġginger": 9212,
    "Ġgazing": 5878,
    "veil": 18045,
    "Ġlurking": 11290,
    "Ġredness": 19314,
    "Ġthy": 2513,
    "Ġblinds": 8008,
    "Ġcharmingly": 24223,
    "_.": 2210,
    "impart": 21713,
    "Ġvenge": 5420,
    "stars": 18019,
    "Ġmodel": 516,
    "Ġmomentarily": 22817,
    "hmael": 7342,
    "forming": 15926,
    "Ġmetropolitan": 17277,
    "Ġnine": 5369,
    "elements": 25204,
    "raham": 18016,
    "Ġcourt": 4164,
    "Ġinher": 10181,
    "Ġarrang": 2469,
    "Ġshorter": 4499,
    "superstitiousness": 25509,
    "Ġoutrageous": 20613,
    "Ġdrew": 3538,
    "Ġsee": 804,
    "aulding": 11340,
    "Ġwreat": 15534,
    "Ġbible": 9322,
    "Ġimmediately": 3366,
    "Ġdesertion": 24786,
    "Ġcompare": 9304,
    "Ġ14": 9325,
    "Ġmatrimony": 13638,
    "Ġpaw": 12624,
    "Ġameric": 3851,
    "ivided": 22083,
    "vity": 7816,
    "Ġmicrosc": 20679,
    "urpation": 16304,
    "Ġparliament": 18303,
    "fatigue": 20660,
    "Ġsuddenly": 2648,
    "Ġmichigan": 26427,
    "Ġjoined": 4564,
    "Ġomn": 8412,
    "Ġgloried": 22991,
    "Ġmockery": 12111,
    "ley": 1815,
    "deliver": 19507,
    "ras": 21039,
    "recol": 10152,
    "ouraged": 22864,
    "Ġplough": 18610,
    "Ġimbecile": 17394,
    "rmsprop": 4522,
    "oso": 12834,
    "Ġrnns": 2395,
    "cottage": 9571,
    "Ġostrich": 26431,
    "Ġworking": 5573,
    "Ġmiriam": 25274,
    "waist": 13421,
    "Ġheroism": 24543,
    "otic": 15749,
    "iliary": 21731,
    "Ġ&": 6514,
    "mselves": 2864,
    "context": 3404,
    "enes": 5218,
    "Ġfurrow": 22819,
    "idity": 8834,
    "mariners": 19551,
    "ô": 181,
    "disagreeable": 11164,
    "civilities": 24976,
    "Ġchick": 22252,
    "Ġlog": 1679,
    "Ġundisturbed": 19522,
    "sig": 2876,
    "uting": 15664,
    "oration": 2206,
    "Ġmembrane": 20507,
    "Ġattribute": 16101,
    "Ġemotions": 8971,
    "Ġordained": 19448,
    "Ġpent": 17905,
    "Ġhasn": 12931,
    "Ġcreative": 9832,
    "Ġacted": 7422,
    "permission": 15905,
    "Ġjuly": 17238,
    "Ġeggs": 12345,
    "produce": 20285,
    "Ġmiss": 1228,
    "Ġespe": 21158,
    "Ġoctavo": 15166,
    "Ġmult": 1024,
    "script": 11078,
    "Ġwitt": 17785,
    "naturalist": 23546,
    "Ġhot": 4252,
    "Ġabruptly": 15153,
    "Ġaffirmative": 15225,
    "Ġawaited": 17074,
    "corner": 13400,
    "Ġemboldened": 22966,
    "Ġantiqu": 12148,
    "Ġsurtout": 23467,
    "Ġrede": 13986,
    "Ġfelony": 18954,
    "Ġimpetuous": 25571,
    "Ġfolks": 14428,
    "min": 4571,
    "Ġtight": 8109,
    "Ġtahitian": 25428,
    "nour": 20990,
    "Ġbolivia": 24668,
    "ught": 2749,
    "particular": 5757,
    "hol": 3836,
    "Ġembraced": 10008,
    "mary": 8752,
    "gy": 2096,
    "Ġbelong": 3882,
    "Ġweltering": 19588,
    "Ġsoundings": 13136,
    "brought": 7285,
    "Ġen": 392,
    "bott": 9108,
    "Ġblueprints": 13174,
    "Ġvoy": 2621,
    "thinness": 25811,
    "jo": 3749,
    "whose": 6852,
    "Ġcomplain": 6687,
    "okened": 15988,
    "Ġcrop": 10164,
    "published": 26143,
    "Ġeconomy": 17202,
    "Ġsalvation": 14759,
    "Ġremoving": 12120,
    "cun": 20797,
    "Ġdemig": 20359,
    "Ġsched": 2338,
    "Ġdisinclined": 22534,
    "urn": 777,
    "fourth": 11329,
    "qualities": 25046,
    "Ġsheet": 6264,
    "Ġgirdle": 19160,
    "Ġcovariate": 2351,
    "Ġundergone": 18987,
    "Ġcoronation": 13337,
    "Ġrough": 7187,
    "Ġendeavored": 19305,
    "Ġaskance": 23155,
    "Ġdinn": 23984,
    "Ġalpine": 18108,
    "shells": 26057,
    "Ġrose": 3443,
    "Ġpromotion": 23198,
    "Ġsensations": 5260,
    "december": 25559,
    "Ġscholars": 26113,
    "concent": 19483,
    "Ġmutually": 23960,
    "Ġhealth": 3900,
    "card": 11476,
    "Ġjoints": 12038,
    "Ġstruggled": 9907,
    "dron": 17526,
    "fred": 20857,
    "Ġtep": 21164,
    "Ġmessages": 24986,
    "ted": 792,
    "Ġmaker": 15547,
    "wishing": 21131,
    "Ġwit": 3839,
    "Ġslaughter": 20732,
    "Ġfootman": 8289,
    "discrimin": 19611,
    "Ġunex": 11716,
    "walked": 10572,
    "anque": 13890,
    "animation": 16980,
    "Ġoun": 13865,
    "Ġarter": 22193,
    "sorrows": 17322,
    "Ġglimmer": 15144,
    "oppressed": 24821,
    "Ġrmsprop": 3355,
    "voyage": 7787,
    "Ġroot": 2652,
    "Ġannealing": 1554,
    "spl": 9141,
    "Ġcrater": 16438,
    "Ġpockets": 8899,
    "Ġstars": 6151,
    "hetically": 21211,
    "pedest": 24823,
    "Ġtawn": 13825,
    "conv": 7213,
    "Ġbackground": 18642,
    "Ġpremium": 23908,
    "disappo": 8986,
    "Ġdefilements": 26286,
    "shri": 14236,
    "arse": 7161,
    "Ġdeft": 21834,
    "ential": 827,
    "dared": 13705,
    "Ġpaid": 5014,
    "Ġbecalmed": 18089,
    "Ġdeceive": 12723,
    "Ġstability": 1363,
    ".)": 6784,
    "Ġpeculiarities": 12074,
    "Ġpurse": 12013,
    "Ġincreased": 2209,
    "Ġeloquence": 11844,
    "Ġsituations": 10493,
    "Ġbuoy": 8005,
    "Ġshouting": 10524,
    "crossing": 19414,
    "did": 3198,
    "Ġderbyshire": 6588,
    "Ġdoleful": 18377,
    "Ġoccurs": 1857,
    "Ġdoubting": 13102,
    "Ġcalmed": 16272,
    "Ġsundial": 15085,
    "chery": 24550,
    "Ġmexic": 14033,
    "Ġsquad": 22842,
    "Ġapp": 491,
    "Ġfleece": 10616,
    "Ġbriskly": 25312,
    "Ġdriven": 6200,
    "garnished": 26389,
    "Ġimpulses": 19965,
    "Ġanticipatingly": 26103,
    "pain": 7350,
    "ª": 108,
    "Ġbuying": 23999,
    "Ġpossible": 2585,
    "ashtego": 4098,
    "Ġdamps": 23476,
    "Ġreached": 4020,
    "Ġdignified": 15602,
    "Ġsample": 3179,
    "Ġvideos": 13609,
    "Ġboarders": 16601,
    "Ġsofa": 10271,
    "Ġinterfere": 11820,
    "Ġest": 2265,
    "ection": 4947,
    "ifling": 15787,
    "close": 9988,
    "Ġglory": 6067,
    "Ġsluggishly": 25892,
    "Ġcumulative": 4206,
    "writes": 4987,
    "Ġemac": 16411,
    "Ġmomentum": 1602,
    "Ġbewit": 15732,
    "Ġhoars": 19079,
    "plain": 1359,
    "Ġfixed": 2685,
    "Ġprized": 23225,
    "iece": 3230,
    "Ġentry": 11027,
    "Ġmysteriously": 24603,
    "Ġimbec": 14158,
    "jewell": 25524,
    "Ġramsgate": 18651,
    "putable": 10902,
    "conceive": 16034,
    "enances": 10155,
    "appalled": 18764,
    "throughout": 24090,
    "Ġcoils": 9305,
    "Ġreef": 10850,
    "Ġming": 9647,
    "cries": 17512,
    "Ġhypotheses": 4383,
    "thus": 5158,
    "ighted": 8479,
    "Ġglobal": 2370,
    "wake": 11547,
    "Ġretention": 23076,
    "Ġalleghan": 25796,
    "Ġarrangements": 16517,
    "Ġsoaring": 22088,
    "rubber": 12813,
    "Ġpressed": 6044,
    "Ġwindlass": 7256,
    "Ġsple": 21218,
    "Ġdisposition": 5409,
    "Ġpermanent": 13634,
    "Ġfiddle": 25445,
    "Ē": 211,
    "respond": 12548,
    "Ġstriking": 6090,
    "10": 17474,
    "interests": 19711,
    "Ġannoyance": 20664,
    "Ġcher": 6131,
    "Ġpumps": 8429,
    "Ġsatisfaction": 5667,
    "Ġmonstr": 7670,
    "Ġchin": 4891,
    "Ġjones": 7204,
    "Ġsmiling": 5475,
    "aging": 2237,
    "itect": 992,
    "Ġmorning": 1749,
    "Ġoat": 21326,
    "oman": 2019,
    "ics": 3258,
    "Ġflames": 7941,
    "acit": 16066,
    "Ġfullest": 14816,
    "Ġbalmy": 22910,
    "Ġ(": 594,
    "Ġmaintainable": 12939,
    "Ġintentions": 10609,
    "teak": 22821,
    "dog": 10695,
    "Ġwhirled": 14962,
    "Ġcosy": 13133,
    "Ġrol": 3556,
    "sail": 3604,
    "Ġobliging": 13246,
    "Ġanticipation": 17058,
    "Ġconver": 808,
    "zwilliam": 5074,
    "Ġmeanest": 12914,
    "tasted": 17688,
    "Ġturtle": 4199,
    "Ġoccupations": 9460,
    "Ġsol": 1102,
    "Ġblindly": 12113,
    "Ġslew": 23386,
    "Ġreco": 9792,
    "Ġprognostics": 20561,
    "Ġmatters": 4973,
    "tolerably": 21098,
    "Ġdevoured": 16139,
    "barrel": 17061,
    "Ġunhappily": 18263,
    "minded": 9039,
    "Ġgrooves": 16742,
    "atherley": 7220,
    "ascending": 24706,
    "key": 5464,
    "Ġwhiting": 10860,
    "Ġcallest": 17834,
    "gallantry": 15062,
    "rec": 6006,
    "thing": 1480,
    "alk": 1154,
    "Ġrivers": 9444,
    "ophisticated": 22483,
    "Ġdischar": 11811,
    "Ġdimensions": 16573,
    "Ġpoints": 5249,
    "luent": 16000,
    "Ġshoreless": 24296,
    "Ġ500": 24323,
    "Ġbreeds": 23352,
    "Ġstarts": 16584,
    "Ġpractised": 23329,
    "Ġtroop": 24898,
    "Ġarrayed": 25665,
    "Ġdru": 8424,
    "Ġfasc": 12602,
    "Ġamong": 1670,
    "Ġconnivance": 25226,
    "fully": 2200,
    "Ġprime": 10405,
    "Ġassaulted": 25321,
    "nigh": 13765,
    "underneath": 23791,
    "Ġchildren": 3765,
    "generations": 23788,
    "ost": 5361,
    "Ġundecided": 22053,
    "Ġforbe": 8459,
    "Ġdozen": 8187,
    "touching": 15094,
    "Ġgallery": 10526,
    "ien": 10103,
    "Ġindu": 5295,
    "urns": 10215,
    "Ġconfident": 11139,
    "Ä": 133,
    "Ġbrown": 6300,
    "Ġbecome": 3159,
    "fthand": 26387,
    "zza": 24169,
    "scarcely": 12389,
    "ortations": 22263,
    "Ġgerm": 13966,
    "icial": 12659,
    "Ġcatholic": 20684,
    "Ġdeploy": 2522,
    "irably": 13298,
    "Ġfrighted": 24032,
    "command": 6578,
    "Ġreverie": 13460,
    "Ġbloodshed": 23803,
    "Ġunsuccessful": 18258,
    "whispering": 26104,
    "Ġgunw": 6214,
    "fair": 10094,
    "Ġboston": 22642,
    "Ġpavement": 9579,
    "Ġrocking": 10970,
    "cst": 10086,
    "Ġarsacidean": 20368,
    "patter": 4389,
    "Ġsurging": 19135,
    "ucumber": 19061,
    "Ġwiping": 25766,
    "Ġtranspointed": 22471,
    "rated": 6229,
    "bestowed": 12229,
    "Ġoutsk": 15960,
    "rop": 541,
    "Ġveritable": 19384,
    "Ġwade": 17786,
    "Ġarrant": 23301,
    "Ġwonderful": 4563,
    "Ġmasterless": 23998,
    "Ġtune": 17726,
    "pidation": 18904,
    "cold": 9591,
    "Ġsensibility": 14513,
    "Ġhue": 8431,
    "admon": 21765,
    "Ġchina": 8041,
    "Ġrocked": 12860,
    "adays": 14015,
    "Ġalexander": 17426,
    "ribution": 14306,
    "Ġdecidedly": 9511,
    "Ġdissimilar": 22536,
    "acters": 9311,
    "different": 6502,
    "Ġreflections": 5949,
    "arpaul": 14537,
    "hom": 12477,
    "Ġovercome": 6046,
    "ruded": 15901,
    "Ġmentioning": 9900,
    "murmured": 24454,
    "Ġxxv": 19720,
    "Ġanalogical": 25641,
    "words": 7984,
    "Ġhoe": 23355,
    "Ġtunnel": 14932,
    "pall": 17629,
    "has": 4011,
    "Ġsneer": 13450,
    "Ġpopulous": 16827,
    "Ġcheapside": 23292,
    "consumed": 25676,
    "Ġdevelop": 1631,
    "Ġcomstock": 21863,
    "Ġmanip": 8874,
    "surprise": 9532,
    "Ġscreening": 25301,
    "Ġcomprehensive": 15090,
    "Ġconfidently": 24960,
    "brow": 15318,
    "Ġmutable": 23958,
    "Ġbethinking": 25280,
    "Ġsimilarly": 24309,
    "Ġenlar": 15804,
    "peculiarities": 13474,
    "Ġsay": 932,
    "american": 11401,
    "Ġthereof": 22373,
    "Ġexertion": 8055,
    "Ġtiar": 21170,
    "hero": 21207,
    "Ġbery": 13900,
    "overing": 6308,
    "Ġdeactivates": 20706,
    "crowning": 25749,
    "Ġtongue": 6349,
    "Ġadequately": 15201,
    "Ġdisease": 14259,
    "Ġcou": 5288,
    "Ġinsens": 8278,
    "elter": 21575,
    "opence": 18509,
    "Ġcargo": 16293,
    "Ġedd": 8399,
    "Ġformations": 18752,
    "Ġspiracle": 14151,
    "Ġattack": 5478,
    "racing": 21635,
    "Ġtrusty": 24105,
    "Ġbasics": 13451,
    "Ġlooked": 1801,
    "possesses": 24618,
    "Ġstilly": 25974,
    "Ġvortex": 26210,
    "Ġadded": 2715,
    "Ġhorizontally": 17013,
    "Ġaud": 6664,
    "Ġhanged": 17927,
    "Ġenchant": 7185,
    "disinterested": 23503,
    "phur": 16153,
    "Ġchannel": 26013,
    "haust": 5777,
    "earth": 6503,
    "Ġtand": 21163,
    "Ġpads": 21478,
    "Ġrichness": 19313,
    "Ġdepended": 9779,
    "uish": 5431,
    "introduction": 15126,
    "Ġlast": 1122,
    "Ġventure": 7741,
    "iew": 2447,
    "partiality": 13163,
    "opatra": 22482,
    "Ġparade": 18302,
    "seldom": 13789,
    "Ġheidelburgh": 11645,
    "aboard": 21799,
    "Ġfair": 2838,
    "Ġacknowledged": 7535,
    "obtain": 23098,
    "happiness": 6470,
    "eronomy": 15528,
    "Ġunrolled": 22043,
    "ulated": 6032,
    "Ġdrawback": 23993,
    "urities": 18052,
    "chance": 6827,
    "any": 3339,
    "married": 9951,
    "Ġlinguistic": 12428,
    "Ġcrane": 23439,
    "laug": 10708,
    "Ġgnawed": 25168,
    "Ġtracks": 18890,
    "although": 8809,
    "Ġsystematically": 4222,
    "unciation": 25983,
    "Ġcontrasting": 11155,
    "Ġkent": 6693,
    "Ġattention": 1149,
    "Ġwashed": 15769,
    "Ġenvironments": 24061,
    "Ġfruits": 17120,
    "Ġwind": 1434,
    "riumph": 4919,
    "Ġscoundrel": 13673,
    "Ġcirculation": 16420,
    "agonies": 21914,
    "Ġunwarrant": 19936,
    "ifting": 6547,
    "more": 1034,
    "Ġlevels": 12702,
    "Ġwield": 21293,
    "collecting": 26082,
    "Ġrepresent": 1210,
    "Ġidleness": 11145,
    "glow": 20876,
    "Ġbusier": 23342,
    "Ġoughts": 23904,
    "Ġrelationship": 2316,
    "Ġputs": 19032,
    "eridge": 15529,
    "Ġcollateral": 20075,
    "Ġcrow": 3803,
    "Ġoutputs": 2889,
    "Ġcontribut": 12863,
    "Ġwhispers": 14702,
    "egyptians": 25899,
    "trimmed": 23952,
    "hroom": 12480,
    "Ġbang": 17856,
    "Ġbesides": 3514,
    "Ġadvers": 4887,
    "Ġthackeray": 26456,
    "Ġmadness": 6603,
    "Ġappointed": 20106,
    "Ġsafety": 6341,
    "fulfilment": 26026,
    "Ġfarther": 5957,
    "Ġshark": 5549,
    "reporting": 24493,
    "Ġtechnically": 12369,
    "gged": 3776,
    "club": 26381,
    "wl": 17703,
    "Ġhenry": 5197,
    "Ġtantamount": 25626,
    "Ġconvivial": 16550,
    "Ġnaut": 13943,
    "heads": 4091,
    "osy": 11761,
    "Ġserves": 4669,
    "Ġoust": 21327,
    "cont": 2924,
    "response": 25763,
    "Ġvehement": 16205,
    "cano": 18841,
    "exam": 10977,
    "Ġcemeteries": 26377,
    "shriek": 20523,
    "Ġstamped": 13529,
    "letters": 13177,
    "received": 9640,
    "Ġquadruped": 20618,
    "Ġcrunched": 19122,
    "Ġtwos": 18658,
    "orters": 21404,
    "Ġhumbly": 16201,
    "intellect": 18823,
    "Ġhab": 4213,
    "Ġtranquillity": 7537,
    "adopt": 25545,
    "ener": 566,
    "settled": 10508,
    "Ġtempted": 9058,
    "Ġdemand": 4946,
    "tural": 21069,
    "ident": 3379,
    "âĢĿâĢĶ": 5721,
    "Ġvomit": 21953,
    "Ġsusp": 2664,
    "Ġsurp": 9636,
    "Ġshutting": 14761,
    "eag": 20844,
    "Ġrefusal": 10346,
    "leman": 21371,
    "Ġes": 8773,
    "Ġlaborers": 19060,
    "gle": 20871,
    "recurrent": 4993,
    "Ġprovision": 14827,
    "Ġfoiled": 23248,
    "Ġsoftened": 11102,
    "Ġgodly": 19082,
    "Ġrespectable": 6738,
    "ĠĠĠĠĠĠĠĠĠĠĠĠĠĠĠĠĠĠĠĠĠĠĠĠĠĠĠĠĠĠĠĠĠĠĠĠĠĠĠĠĠĠĠĠĠĠ": 9955,
    "Ġcomo": 21859,
    "Ġhanging": 5447,
    "Ġperfume": 25666,
    "declared": 15121,
    "wantonly": 25153,
    "Ġprogress": 5022,
    "Ġbids": 24646,
    "commun": 15035,
    "Ġbeginning": 4238,
    "arian": 10317,
    "square": 15063,
    "Ġxvi": 19106,
    "Ġsof": 18278,
    "Ġintelligently": 4417,
    "ds": 4688,
    "Ġnose": 4401,
    "protected": 19923,
    "Ġtrial": 6637,
    "Ġabstract": 17183,
    "greenland": 10023,
    "uttural": 21593,
    "Ġlabrador": 23334,
    "Ġge": 1980,
    "Ġunrelieved": 20548,
    "Ġlethargy": 26484,
    "Ġmau": 21313,
    "Ġslightly": 7293,
    "adequ": 11021,
    "Ġdespised": 14668,
    "Ġonset": 12714,
    "Ġpall": 7584,
    "Ġreverse": 16983,
    "Ġprecaution": 11198,
    "Ġfriesland": 26443,
    "million": 25752,
    "uiperai": 10665,
    "Ġsubsequently": 16164,
    "Ġgloomy": 7505,
    "Ġdouble": 4939,
    "Ġforget": 2636,
    "respect": 6375,
    "attacks": 23128,
    "Ġaccidentally": 9507,
    "Ġmovable": 22440,
    "Ġmagnificence": 20635,
    "Ġrio": 23894,
    "Ġfritters": 23260,
    "Ġcompose": 12909,
    "Ġtrack": 7450,
    "Ġhearers": 15707,
    "weaknesses": 26031,
    "Ġrequested": 14303,
    "lan": 15380,
    "Ġawaiting": 11391,
    "Ġexamined": 6336,
    "removed": 15519,
    "Ġrecess": 10848,
    "Ġburnwell": 13271,
    "sub": 4660,
    "umbered": 22122,
    "Ġmanor": 14198,
    "Ġargue": 16784,
    "andish": 18156,
    "sl": 5794,
    "perpetually": 20515,
    "Ġstript": 23696,
    "Ġragged": 11849,
    "Ġbrings": 11883,
    "Ġshield": 22004,
    "Ġrepeatedly": 9023,
    "Ġjavel": 17084,
    "Ġunequal": 14844,
    "Ġfare": 5810,
    "âĢľ": 344,
    "Ġuncovered": 23434,
    "Ġalph": 9697,
    "Ġswinging": 7449,
    "Ġstrike": 4856,
    "Ġabode": 7902,
    "pt": 386,
    "ù": 186,
    "Ġtrading": 23083,
    "ances": 1339,
    "conduct": 11800,
    "ĠĠĠĠĠĠĠĠĠĠĠĠĠĠĠĠĠĠĠĠĠĠĠĠĠĠĠĠĠĠĠĠĠĠĠĠĠĠĠĠĠĠĠĠ": 12157,
    "burgh": 6774,
    "Ġcrumpled": 16440,
    "Ġenvelop": 5586,
    "Ġcautiously": 16978,
    "Ġdatasets": 2389,
    "ĠĠĠĠĠĠĠĠ": 710,
    "idel": 5301,
    "Ġunwell": 22022,
    "characteristic": 24686,
    "Ġattendance": 12185,
    "Ġswandam": 11090,
    "lesome": 12969,
    "!âĢĶâĢĻ": 23567,
    "dishon": 20407,
    "twinkle": 23705,
    "Ġseldom": 4630,
    "Ġwearing": 12743,
    "dering": 5307,
    "Ġcetacean": 25879,
    "supposing": 24135,
    "Ġkingdom": 12021,
    "Ġbale": 7839,
    "omet": 3078,
    "Ġtablets": 13158,
    "Ġtwelve": 4962,
    "inkers": 22621,
    "Ġsemantic": 1958,
    "Ġjonas": 20612,
    "fooled": 24418,
    "------": 12137,
    "Ġrecurring": 23235,
    "Ġsexes": 25172,
    "should": 3263,
    "quar": 7617,
    "ilst": 8145,
    "conside": 9292,
    "Ġthoroughly": 8349,
    "Ġdeclined": 9923,
    "ackled": 22425,
    "Ġsilently": 6895,
    "Ġfade": 21411,
    "cient": 4569,
    "59": 17475,
    "tails": 21089,
    "Ġupset": 22158,
    "Ġdependent": 14295,
    "Ġsymp": 4503,
    "gments": 12473,
    "Ġmeditating": 20046,
    "investments": 25533,
    "izzy": 3097,
    "iration": 4540,
    "Ġexpost": 18626,
    "Ġbelow": 4058,
    "Ġmachinations": 25768,
    "Ġfeeling": 3086,
    "Ġclaimed": 14203,
    "Ġthickest": 16656,
    "è": 169,
    "fins": 13721,
    "himself": 3969,
    "Ġetext": 23953,
    "Ġstood": 2551,
    "Ġcannot": 1669,
    "ignant": 11130,
    "Ġbirth": 6525,
    "mind": 4627,
    "Ġcomprehens": 8321,
    "Ġnetworks": 597,
    "========": 2313,
    "www": 17253,
    "pip": 6657,
    "Ġfourth": 7708,
    "Ġstarry": 16924,
    "Ġmodesty": 12824,
    "model": 4460,
    "prehensible": 12363,
    "Ġcistern": 17383,
    "itudes": 3019,
    "itions": 4143,
    "Ġwhittling": 20702,
    "ernity": 18613,
    "Ġcreation": 6440,
    "nav": 17613,
    "Ġvineyard": 12333,
    "obedience": 17412,
    "Ġeffect": 957,
    "Ġdest": 2236,
    "Ġtraveller": 8050,
    "sides": 12511,
    "civilized": 17075,
    "attacked": 23127,
    "Ġcomputers": 2647,
    "sphere": 22733,
    "Ġcommission": 6714,
    "Ġdissembling": 26256,
    "Ġtorrent": 17092,
    "Ġexclude": 19039,
    "Ġwip": 13855,
    "slanting": 24557,
    "admiration": 11388,
    "venth": 9297,
    "legged": 10467,
    "Ġresponded": 13641,
    "umul": 1289,
    "Ġalarm": 4044,
    "city": 15329,
    "shrugged": 22460,
    "unbidden": 21899,
    "Ġguinea": 8949,
    "ougher": 18280,
    "amiable": 14055,
    "izings": 14053,
    "Ġundertaking": 8577,
    "Ġpuppy": 12408,
    "arp": 2028,
    "iries": 18172,
    "Ġbreezes": 14871,
    "Ġco": 732,
    "fowl": 17550,
    "Ġjune": 10290,
    "Ġdull": 6385,
    "ato": 17770,
    "Ġkilburn": 18352,
    "Ġgoodge": 22827,
    "Ġrailway": 15022,
    "carp": 9112,
    "Ġdirty": 9180,
    "Ġyankees": 26203,
    "Ġyard": 5923,
    "oquent": 12503,
    "rest": 1635,
    "Ġcome": 1241,
    "decided": 13218,
    "Ġadding": 2403,
    "×": 152,
    "ivery": 17573,
    "Ġhooped": 23359,
    "Ġexpert": 18870,
    "<EOS>": 2,
    "Ġmagnified": 23207,
    "w": 91,
    "Ġdav": 15594,
    "aved": 5476,
    "dining": 13708,
    "Ġ90": 24590,
    "Ġswamp": 14439,
    "Ġairth": 23320,
    "Ġmoored": 11795,
    "camp": 15332,
    "parlour": 16390,
    "backward": 2683,
    "leaned": 21372,
    "folding": 24928,
    "Ġbowed": 6244,
    "Ġmovement": 9970,
    "Ġexquis": 9703,
    "spell": 22732,
    "Ġhuman": 1318,
    "Ġbressed": 21390,
    "Ġbelt": 13007,
    "Ġunnearable": 26517,
    "Ġgene": 15676,
    "laying": 19775,
    "Ġcorresponding": 13441,
    "Ġbott": 3150,
    "Ġplatform": 17133,
    "berg": 11867,
    "Ġliving": 3066,
    "Ġinterlacing": 22582,
    "Ġapparatus": 24909,
    "ign": 1706,
    "atum": 21262,
    "Ġbarbar": 6935,
    "mother": 5480,
    "Ġjane": 1758,
    "Ġheard": 1398,
    "'s": 2470,
    "Ġstair": 8457,
    "Ġneville": 7399,
    "rid": 5137,
    "rit": 21038,
    "Ġsaturn": 22907,
    "details": 19678,
    "ial": 410,
    "Ġmonument": 16242,
    "Ġstow": 21735,
    "Ġreads": 23117,
    "ort": 523,
    "islands": 21379,
    "entitled": 21572,
    "Ġstren": 15724,
    "Ġreasoning": 1973,
    "overcoat": 19049,
    "Ġschools": 9479,
    "Ġblue": 3454,
    "complacency": 19916,
    "Ġprovinces": 24192,
    "Ġterminating": 23512,
    "ampling": 12730,
    "Ġhow": 598,
    "omit": 13980,
    "Ġsorting": 3235,
    "leagues": 21376,
    "ims": 7177,
    "aus": 1500,
    "Ġseized": 4834,
    "maritime": 24175,
    "ids": 21768,
    "Ġsleepy": 8269,
    "divers": 15345,
    "Ġstoner": 7179,
    "Ġmetaphys": 16395,
    "Ġconsecutive": 20705,
    "Ġimproves": 22753,
    "Ġauxiliary": 26419,
    "Ġcopestone": 24939,
    "Ġincommun": 25309,
    "ļ": 253,
    "Ġentities": 11866,
    "aswag": 21550,
    "Ġpoetic": 17103,
    "mouthed": 12403,
    "Ġspeeches": 22660,
    "reated": 10304,
    "Ġho": 1934,
    "Ġbugs": 13651,
    "ems": 5236,
    "Ġthreat": 5154,
    "class": 4092,
    "Ġcadiz": 17327,
    "Ġseeth": 21965,
    "Ġprosecuted": 25294,
    "monsters": 19173,
    "Ġmarshy": 20221,
    "Ġimplements": 2487,
    "fishermen": 17062,
    "Ġpropriety": 10012,
    "phants": 9320,
    "Ġfif": 4212,
    "stript": 21655,
    "be": 671,
    "Ġcigarette": 20658,
    "entle": 1741,
    "Ġinevitably": 17232,
    "Ġadmitting": 19185,
    "Ġaudibly": 24770,
    "side": 2302,
    "Ġbalance": 2022,
    "Ġmaintaining": 1507,
    "Ġinve": 17931,
    "Ġgroves": 16741,
    "Ġharrow": 17928,
    "Ġjoppa": 12039,
    "Ġcelebrate": 26359,
    "Ġcalculate": 13267,
    "ode": 1453,
    "Ġappal": 18355,
    "cursed": 23847,
    "Ġshipping": 14106,
    "isms": 12584,
    "Ġvelvets": 25394,
    "turning": 8318,
    "Ġmace": 21312,
    "Ġthine": 7374,
    "Ġaccelerating": 1618,
    "Ġhovered": 12635,
    "Ġenlarge": 21940,
    "Ġsex": 8845,
    "Ġcontempl": 6703,
    "terrific": 25043,
    "osure": 5308,
    "Ġchaff": 18383,
    "chari": 21693,
    "Ġstruggle": 3675,
    "Ġunsupp": 22026,
    "america": 17097,
    "Ġpracticable": 19058,
    "parts": 14602,
    "Ġincommunicable": 26612,
    "executed": 25740,
    "Ú": 155,
    "Ġeighteen": 11239,
    "Ġdedu": 5583,
    "repeated": 12342,
    "Ġruined": 12958,
    "Ġprophecy": 25706,
    "Ġcanted": 17833,
    "Ġmoments": 4846,
    "Ġbuttoned": 25369,
    "Ġvirt": 3904,
    "Ġlowly": 11122,
    "Ġcock": 11001,
    "digger": 24311,
    "Ġmarlings": 23038,
    "Ġinfinite": 8580,
    "Ġapartments": 19617,
    "Ġopening": 5044,
    "Ġagatha": 6866,
    "Ġoverseeing": 22365,
    "Ġbackpropagation": 1252,
    "sleeping": 13457,
    "Ġweighted": 2089,
    "favourable": 12267,
    "longing": 23727,
    "free": 8739,
    "Ġhailed": 6408,
    "Ġtip": 15474,
    "horrors": 20544,
    "Ġloathed": 15879,
    "no": 886,
    "Ġhunger": 8570,
    "Ġflushed": 13031,
    "Ġmabel": 17326,
    "Ġmyst": 4047,
    "Ġtatters": 21180,
    "sharpening": 22464,
    "Ġcrossing": 7253,
    "Ġcontortions": 18477,
    "Ġhitherto": 5882,
    "itance": 13870,
    "Ġdominic": 25381,
    "h": 76,
    "Ġfest": 10805,
    "Ġships": 3713,
    "ď": 208,
    "Ġpumping": 25644,
    "pect": 1255,
    "retrie": 18926,
    "Ġstuffed": 13412,
    "Ġleg": 2336,
    "relate": 24014,
    "treacle": 25151,
    "Ġannot": 15606,
    "ief": 2046,
    "Ġhundredth": 16520,
    "Ġdetain": 14184,
    "Ġalbert": 12710,
    "money": 8753,
    "sc": 1260,
    "Ġsnatch": 14640,
    "Ġvinc": 14087,
    "Ġstreatham": 17451,
    "Ġliberated": 19669,
    "distraction": 24202,
    "Ġdressing": 7092,
    "Ġchart": 10946,
    "victim": 25531,
    "horse": 8609,
    "Ġtwain": 16123,
    "younger": 11313,
    "Ġ182": 13240,
    "Ġscent": 10287,
    "Ġcautious": 12257,
    "menced": 23150,
    "Ġbl": 1190,
    "bbed": 6911,
    "Ġbachel": 7159,
    "Ġscolded": 25473,
    "Ġdisorder": 16055,
    "izard": 10884,
    "Ġsitting": 3606,
    "Ġperemptory": 25741,
    "Ġhope": 1788,
    "Ġsucceed": 4545,
    "Ġ13": 6720,
    "Ġenormity": 19698,
    "mpt": 6656,
    "Ġstoutly": 16925,
    "Ġjacket": 6490,
    "mounting": 25208,
    "Ġfluid": 11213,
    "Ġthinks": 6171,
    "ogy": 22700,
    "Ġed": 2241,
    "Ġtortured": 14926,
    "Ġmultipl": 2791,
    "Ġboundless": 10497,
    "Ġadequate": 20311,
    "Ġadapt": 973,
    "Ġowners": 7665,
    "Ġbury": 12045,
    "cer": 6645,
    "V": 58,
    "sweep": 24619,
    "oried": 10803,
    "gh": 3799,
    "Ġsecondary": 23336,
    "Ġpeels": 22695,
    "Ġineffable": 17334,
    "Ġsupposition": 9819,
    "uous": 4140,
    "Ġpicking": 11259,
    "Ġmechanis": 1209,
    "unte": 21878,
    "rank": 21044,
    "pleasanter": 24050,
    "<PAD>": 0,
    "Ġdisappointed": 7099,
    "Ġswan": 23056,
    "Ġdaniel": 15114,
    "pervading": 18974,
    "mole": 22707,
    "soundest": 24796,
    "Ġtattooings": 24901,
    "Ġdemanded": 8328,
    "Ġdeaden": 23462,
    "utmost": 21592,
    "Ġaxe": 15065,
    "ought": 832,
    "Ġelasticity": 19561,
    "dressing": 11483,
    "inders": 15984,
    "ape": 1907,
    "Ġtyphoon": 12392,
    "Ġdesolated": 24809,
    "Ġwrongfully": 24250,
    "erer": 8735,
    "Ġbehaves": 23303,
    "tipt": 25086,
    "Ġaudacity": 19884,
    "Ġhopeless": 7463,
    "Ġexactly": 2766,
    "ured": 1658,
    "irons": 10240,
    "Ġcathed": 14548,
    "Ġwatchman": 23667,
    "Ġstalked": 20432,
    "Ġexperiences": 13034,
    "Ġchoking": 15938,
    "Ġvillainous": 25134,
    "Ġbaked": 21389,
    "Ġpunctually": 17140,
    "Ġcongealed": 25982,
    "Ġruefully": 17303,
    "Ġcareless": 11120,
    "plun": 15817,
    "two": 3857,
    "quee": 4126,
    "Ġrecognise": 12040,
    "Ġneighbour": 3806,
    "Ġemph": 14526,
    "awed": 10393,
    "ü": 189,
    "Ġ40": 14770,
    "united": 14062,
    "Ġdod": 6675,
    "Ġpollard": 20389,
    "picture": 11408,
    "nant": 17610,
    "Ġerrand": 11086,
    "Ġproduct": 3535,
    "overlooked": 23325,
    "Ġvol": 4185,
    "Ġattributed": 11836,
    "Ġpuffed": 14979,
    "Ġroots": 11187,
    "Ġburton": 23654,
    "Ġstray": 18072,
    "Ġilluminating": 25246,
    "etwork": 440,
    "Ġburtons": 19255,
    "Ġdecanter": 22444,
    "Ġclimate": 9277,
    "Ġrelish": 14386,
    "pilot": 25909,
    "Ġunreasonable": 12781,
    "Ġbrigandish": 25488,
    "Ġepidemic": 20698,
    "plifted": 9711,
    "Ġsurgeon": 8983,
    "bodily": 17317,
    "Ġhover": 15624,
    "leaves": 12582,
    "princ": 8624,
    "Ġpon": 10177,
    "quickness": 19853,
    "Ġattempted": 8002,
    "asible": 21546,
    "returning": 12209,
    "Ġamend": 16039,
    "Ġpreced": 6042,
    "friend": 3859,
    "arrived": 12613,
    "blister": 24128,
    "straw": 24098,
    "distinct": 13339,
    "hing": 983,
    "Ġmocking": 24006,
    "Ġembeddings": 2095,
    "Ġdisplayed": 10610,
    "scence": 14420,
    "richard": 17288,
    "uling": 2257,
    "Ġledger": 19405,
    "Ġplanning": 14753,
    "Ġimpenitent": 26549,
    "seemed": 4301,
    "lydia": 6826,
    "Ġturner": 7051,
    "Ġprow": 6686,
    "Ġdeck": 2137,
    "Ġrecommence": 16813,
    "Ġverdict": 13478,
    "pronounce": 25193,
    "jep": 20928,
    "Ġformation": 2948,
    "Ġpensive": 21479,
    "Ġtheoretic": 23313,
    "Ġmaterial": 5178,
    "multiple": 15110,
    "involved": 25627,
    "Ġtypewritten": 16425,
    "Ġunreliable": 3925,
    "Ġarri": 2554,
    "Ġreduced": 11927,
    "Ġch": 511,
    "dimens": 2319,
    "qual": 8158,
    "Ġwidow": 8666,
    "ierce": 14393,
    "Ġsource": 6806,
    "east": 9117,
    "Ġalphabetical": 17203,
    "attempt": 9362,
    "Ġhoary": 23358,
    "Ġpainfully": 13145,
    "Ġv": 399,
    "Ġsoc": 3526,
    "Ġzoology": 22825,
    "Ġfertile": 20586,
    "Ġstripped": 10466,
    "token": 21085,
    "Ġinterest": 2249,
    "Ġterror": 5123,
    "Ġcontrast": 2118,
    "gs": 7338,
    "Ġsleeper": 8604,
    "Ġbackstays": 22658,
    "Ġsuns": 23278,
    "visitor": 15061,
    "sheltered": 25586,
    "algorithm": 3772,
    "Ġbask": 8118,
    "Ġgnarled": 25169,
    "ning": 949,
    "inguished": 6600,
    "omnipotent": 25967,
    "eternal": 17985,
    "isome": 17850,
    "lesson": 22777,
    "cur": 3272,
    "arness": 11673,
    "Ġcrowd": 6338,
    "cheered": 23808,
    "cru": 7128,
    "Ġapparently": 6779,
    "Ġbaggy": 24537,
    "Ġstrain": 6026,
    "Ġmild": 4142,
    "Ġskil": 14355,
    "fed": 11489,
    "Ġjot": 11766,
    "Ġgurgling": 17448,
    "Ġrelated": 3714,
    "Ġfinancial": 23134,
    "idelburgh": 10563,
    "Ġcivilly": 19606,
    "Ġgorge": 13569,
    ":--âĢľ": 24549,
    "Ġdissipate": 13636,
    "Ġarrogance": 26233,
    "Ġoceans": 7997,
    "taining": 7206,
    "had": 1951,
    "apt": 718,
    "Ġsatisf": 2806,
    "Ġclosely": 6489,
    "Ġtomorrow": 21517,
    "Ġhorseback": 14852,
    "Ġgrope": 17997,
    "marest": 20982,
    "probably": 10022,
    "becomes": 22502,
    "Ġnewfound": 22936,
    "Ġyore": 21783,
    "Ġmam": 8407,
    "Ġriots": 23895,
    "Ġsister": 1475,
    "venant": 22631,
    "ifford": 15788,
    "đ": 210,
    "Ġmeditative": 25017,
    "Ġheel": 9686,
    "eprints": 12796,
    "Ġshrew": 22005,
    "Ġkink": 22198,
    "tashtego": 9624,
    "Ġfamous": 5256,
    "Ġflatter": 9350,
    "Ġmut": 3584,
    "Ġurgent": 16868,
    "ocris": 23710,
    "except": 5383,
    "continu": 5501,
    "Ġsto": 1499,
    "Ġplainly": 4378,
    "Ġmr": 661,
    "Ġjoy": 3185,
    "uncontrollable": 20599,
    "Ġop": 2605,
    "Ġindependence": 12108,
    "Ġsuspicion": 6213,
    "Ġorder": 1690,
    "Ġstairs": 5540,
    "Ġriver": 5411,
    "vac": 15453,
    "Ġdreaming": 11224,
    "Ġblinded": 13273,
    "Ġunallied": 22037,
    "Ġcracking": 14574,
    "whence": 23217,
    "hibited": 17429,
    "turbable": 24530,
    "ieces": 4772,
    "Ġbumpkin": 20203,
    "including": 23592,
    "Ġunreserved": 19400,
    "Ġascertaining": 17205,
    "Ġgalvan": 21621,
    "nest": 10115,
    "Ġbarren": 11207,
    "Ġplainpalais": 20739,
    "[_": 5131,
    "--âĢĺ": 22853,
    "contented": 14635,
    "Ġsulphur": 24934,
    "Ġties": 12532,
    "Ġscowl": 22295,
    "Ġjavelins": 26106,
    "Ġann": 4490,
    "Ġacquitted": 18899,
    "uc": 1877,
    "Ġpagans": 16923,
    "ondency": 15272,
    "Ġexcluded": 16391,
    "proper": 7472,
    "velope": 17702,
    "Ġ50": 24314,
    "abhor": 12711,
    "belief": 13284,
    "adequate": 15206,
    "Ġsavag": 19377,
    "gement": 13730,
    "Ġslavish": 23178,
    "choose": 23675,
    "Ġmerc": 9428,
    "Ġdeportment": 22603,
    "hello": 13367,
    "Ġber": 5698,
    "Ġhumor": 11052,
    "frozen": 25142,
    "Ġjuicy": 25371,
    "Ġbounds": 9920,
    "keeping": 8638,
    "clever": 20815,
    "jointed": 24013,
    "Ġ28": 19297,
    "Ġhang": 9189,
    "influences": 25251,
    "Ġcanoe": 9725,
    "sand": 21055,
    "Ġauthorities": 11264,
    "stiff": 12678,
    "Ġprevented": 5944,
    "becoming": 18523,
    "Ġwhis": 3505,
    "whel": 7667,
    "Ġearnestness": 12129,
    "Ġarchitect": 997,
    "Ġdict": 9177,
    "Ġunlabeled": 3798,
    "Ġobtained": 7432,
    "Ġassailed": 23182,
    "ences": 1265,
    "Ġsmo": 2700,
    "Ġmeagre": 21815,
    "Ġdomes": 23668,
    "rupt": 3212,
    "Ġready": 3397,
    "Ġoutlast": 22318,
    "unusually": 15784,
    "Ġsticks": 14933,
    "ollen": 11299,
    "Ġbrist": 14380,
    "Ġelect": 10843,
    "town": 7144,
    "Ġdemon": 7871,
    "Ġbloodthirsty": 26602,
    "Ġprevention": 16096,
    "Ġinterested": 6459,
    "waited": 24587,
    "Ġthickets": 24026,
    "Ġinspection": 14544,
    "vil": 2730,
    "Ġadmitted": 8988,
    "Ġu": 324,
    "_.âĢĿ": 5888,
    "Ġmissed": 8559,
    "Ġandromeda": 21512,
    "Ġfowl": 11331,
    "oward": 6023,
    "Ġclay": 7020,
    "Ġunwearied": 20605,
    "Ġglit": 8563,
    "Ġcatherine": 2813,
    "rusion": 11324,
    "Ġphys": 5653,
    "pinn": 21028,
    "Ġdismasted": 15254,
    "spir": 5738,
    "sol": 1789,
    "grin": 19107,
    "Ġsympathised": 14864,
    "strained": 21656,
    "Ġmanilla": 15963,
    "Ġstretch": 6994,
    "oton": 3608,
    "una": 21874,
    "miserable": 8660,
    "Ġengagement": 5397,
    "Ġsaloon": 24066,
    "Ġleyden": 21752,
    "Ġunwound": 24829,
    "Ġimprinted": 22398,
    "Ġebony": 18011,
    "Ġ35": 24079,
    "Ġfi": 939,
    "Ġ[": 6968,
    "Ġindividuality": 14911,
    "tured": 13797,
    "zing": 7821,
    "otograph": 5827,
    "displayed": 20738,
    "Ġenergetic": 15200,
    "Ġcirculating": 23376,
    "Ġdreaminess": 23943,
    "Ġspears": 12930,
    "agra": 14068,
    "fuller": 22492,
    "Ġworms": 25217,
    "hind": 20896,
    "Ġthirst": 7591,
    "Ġacknowledges": 24689,
    "Ġadditional": 7936,
    "Ġgossiping": 26245,
    "Ġhither": 4759,
    "Ġleisurely": 24745,
    "Ġbrag": 23837,
    "Ġballs": 9017,
    "Ġtherein": 11779,
    "iness": 1282,
    "ezes": 9993,
    "Ġincl": 4266,
    "Ġexamine": 7736,
    "Ġankles": 17901,
    "Ġted": 13814,
    "Ġrecognition": 2931,
    "ship": 1388,
    "Ġsank": 5076,
    "Ġdistantly": 18536,
    "Ġtread": 9411,
    "shame": 16028,
    "Ġbutts": 15859,
    "Ġtangled": 13829,
    "itating": 9652,
    "caterpillar": 26384,
    "Ġderick": 9366,
    "rasing": 21048,
    "planted": 11696,
    "slight": 10728,
    "iest": 4033,
    "neville": 22451,
    "bunger": 20405,
    "description": 11094,
    "sens": 8097,
    "Ġwhitney": 11374,
    "Ġfretfully": 25448,
    "Ġbeckoned": 25794,
    "ott": 1873,
    "Ġconcise": 23324,
    "Ġharness": 17930,
    "Ġlet": 1109,
    "Ġindistinct": 17410,
    "relu": 17760,
    "ug": 1767,
    "Ġdiffidence": 14660,
    "Ġseap": 15821,
    "backs": 9393,
    "Ġgreenness": 23770,
    "Ġunlikely": 10909,
    "Ġcannib": 6038,
    "disputed": 23502,
    "Ġheap": 12682,
    "Ġtear": 6724,
    "Ġmes": 17798,
    "Ġattaining": 15807,
    "cele": 21629,
    "Ġrealism": 18985,
    "Ġmoderation": 12825,
    "bent": 15314,
    "kin": 7133,
    "Ġtheoretically": 3568,
    "Ġoptimal": 1856,
    "cut": 3124,
    "Ġfatigue": 8701,
    "ospit": 22267,
    "atherine": 2598,
    "Ġfuneral": 10285,
    "Ġlamentations": 17076,
    "Ġweeks": 4565,
    "rene": 5379,
    "prick": 19346,
    "Ġreplen": 11116,
    "Ġsuffoc": 18872,
    "Ġvehem": 22893,
    "consult": 24171,
    "Ġestim": 3349,
    "sisters": 13379,
    "Ġexcessive": 3889,
    "ï": 176,
    "Ġcrews": 8992,
    "ently": 1615,
    "ik": 17572,
    "Ġfluctuations": 5516,
    "Ġintrusted": 21997,
    "Ġgradually": 3400,
    "wickham": 5886,
    "Ġgallows": 12149,
    "Ġconjectures": 16926,
    "Ġcircumstances": 3922,
    "vessels": 10627,
    "Ġpocket": 4898,
    "Ġconvenient": 8347,
    "rivial": 9436,
    "admitted": 18094,
    "Ġapproximates": 2420,
    "Ġdauntless": 26338,
    "bres": 11472,
    "tie": 21071,
    "band": 3062,
    "Ġitaly": 10868,
    "Ġreduces": 2344,
    "leful": 17844,
    "faced": 8081,
    "Ġdisputing": 25825,
    "Ġinhuman": 13931,
    "occasion": 7755,
    "Ġdilig": 8351,
    "cible": 20808,
    "ucket": 2485,
    "Ġsynd": 22211,
    "Ġknees": 6928,
    "lod": 15381,
    "pushed": 21025,
    "Ġexterm": 21842,
    "Ġstays": 16563,
    "Ġcate": 4105,
    "Ġmal": 5221,
    "phology": 3013,
    "Ġdost": 7638,
    "Ġenh": 2921,
    "Ġtomb": 8811,
    "Ġfrequented": 16587,
    "Ġreturned": 2894,
    "Ġbrimming": 22872,
    "Ġvib": 8166,
    "Ġun": 423,
    "bury": 9109,
    "whale": 2139,
    "Ġembarr": 7446,
    "Ġast": 2965,
    "transferred": 24510,
    "Ġappear": 2486,
    "passed": 8027,
    "Ġtimely": 19597,
    "Ġoriginal": 6104,
    "Ġdash": 8123,
    "benevolently": 25601,
    "Ġamelia": 26253,
    "Ġ17": 5740,
    "Ġmacy": 19358,
    "quid": 18148,
    "Ġambiguous": 20167,
    "ortment": 22262,
    "winding": 16721,
    "oe": 7553,
    "button": 10966,
    "Ġcrocod": 19631,
    "transform": 8051,
    "_âĢĶ": 11468,
    "field": 3074,
    "Ġlikeness": 11181,
    "reserve": 17766,
    "Ġjustified": 11908,
    "Ġprovid": 1010,
    "Ġdevilish": 11229,
    "invari": 21187,
    "Ġjumped": 7098,
    "Ġstriving": 8998,
    "condition": 7061,
    "Ġpanelled": 19657,
    "Ġregimentals": 19860,
    "Ġcopy": 10165,
    "Ġcategor": 4135,
    "Ġprecipitous": 24836,
    "Ġdub": 13911,
    "tes": 11530,
    "Ġclerical": 25569,
    "Ġvalue": 2084,
    "Ġobedient": 20108,
    "Ġwr": 1544,
    "Ġburg": 23653,
    "Ġpike": 12627,
    "Ġsurmised": 24920,
    "conjecture": 15125,
    "Ġadjusted": 23459,
    "Ġabsurdities": 24879,
    "Ġstrictly": 12288,
    "Ġunwritten": 22039,
    "vest": 6232,
    "ators": 7830,
    "Ġvigorously": 11300,
    "ĠmanÅĵuv": 18418,
    "Ġloth": 17968,
    "vice": 15452,
    "resnet": 4066,
    "compassion": 12371,
    "mighty": 9468,
    "figures": 20125,
    "garious": 17559,
    "Ġapproximate": 2343,
    "Ġbraces": 14671,
    "may": 3679,
    "Ġinvari": 6530,
    "Ġpurring": 23477,
    "Ġslid": 7953,
    "Ġissu": 6255,
    "Ġgreatness": 12947,
    "Ġfragment": 14515,
    "conclusive": 25674,
    "Ġbelieving": 8226,
    "Ġmorrow": 9344,
    "footed": 19692,
    "Ġformality": 22832,
    "Ġbeaks": 21760,
    "Ġapprised": 18357,
    "Ġyork": 11667,
    "meanwhile": 10611,
    "Ġweave": 21926,
    "Ġmood": 6278,
    "Ġrails": 22664,
    "Ġpurchased": 12264,
    "ø": 185,
    "owners": 16091,
    "shold": 2773,
    "horses": 17568,
    "staff": 21654,
    "Ġclinched": 17396,
    "proportions": 22840,
    "drovand": 24759,
    "so": 891,
    "Ġcocain": 18600,
    "Ġadvertisement": 6941,
    "worship": 19390,
    "Ġquies": 18465,
    "Ġstay": 3096,
    "Ġtransc": 12873,
    "Ġgeneric": 18454,
    "pe": 1437,
    "Ġencouraged": 9357,
    "800": 17478,
    "Ġprick": 14480,
    "endar": 18363,
    "Ġbod": 4581,
    "etch": 9206,
    "Ġvari": 835,
    "Ġsigned": 11178,
    "Ġtended": 21169,
    "orphans": 26441,
    "Ġhval": 21491,
    "ood": 963,
    "Ġabsorbing": 17130,
    "Ġwonderfully": 10431,
    "surd": 6934,
    "ended": 1835,
    "Ġdiscrimin": 2546,
    "Ġcoaxing": 18602,
    "Ġmultimodal": 18751,
    "Ġserpentine": 11361,
    "Ġuneasy": 8665,
    "Ġflight": 6582,
    "Ġcompensated": 17403,
    "Ġpennies": 17272,
    "Ġcampaign": 20663,
    "Ġcuriously": 13017,
    "lording": 24053,
    "Ġeat": 4644,
    "iracle": 11244,
    "pregn": 18498,
    "Ġrepressed": 21672,
    "Ġkitty": 3906,
    "ilogue": 21729,
    "Ġecon": 9679,
    "Ġfaculties": 14960,
    "Ġweather": 3993,
    "heedful": 20576,
    "Ġdiscover": 4718,
    "lotts": 23829,
    "Ġfix": 2508,
    "welcomed": 24645,
    "Ġparameters": 996,
    "beheaded": 22499,
    "istry": 22114,
    "Ġaggregated": 25679,
    "Ġerr": 1323,
    "zealand": 26051,
    "Ġinspector": 6499,
    "Ġinfernal": 11965,
    "holes": 12057,
    "gradually": 12919,
    "Ġprince": 18972,
    "powder": 17646,
    "Ġsoothing": 8174,
    "Ġends": 8239,
    "Ġqualifications": 24676,
    "Ġdisgra": 18550,
    "rarely": 21638,
    "fur": 6357,
    "Ġnotion": 7884,
    "Ġgleam": 12311,
    "Ġde": 362,
    "Ġoverall": 4355,
    "Ġgrounded": 23713,
    "exciting": 19671,
    "Ġ83": 24458,
    "ĠĠĠĠĠĠĠĠĠĠĠĠĠĠĠĠĠĠĠĠĠĠĠĠĠĠĠĠĠĠĠĠĠĠ": 14614,
    "ened": 1385,
    "exact": 7912,
    "ounds": 4152,
    "Ġrule": 1534,
    "Ġetern": 7087,
    "Ġprop": 1683,
    "ambition": 13414,
    "spiracle": 22736,
    "Ġrumbling": 18212,
    "armon": 23064,
    "arched": 10816,
    "Ġhealthful": 24062,
    "Ġvicissitudes": 12422,
    "Ġlecture": 13570,
    "Ġyourselves": 9030,
    "Ġmention": 2991,
    "Ġcontemptible": 16954,
    "Ġingolstadt": 8334,
    "ov": 15403,
    "Ġuses": 1207,
    "Ġbeliefs": 24582,
    "Ġprehensile": 26535,
    "Ġdignity": 5704,
    "Ġjavelin": 26105,
    "girls": 12322,
    "Ġshows": 8485,
    "see": 3051,
    "Ġfascinating": 17330,
    "Ġcold": 3037,
    "Ġplunder": 22609,
    "covered": 11478,
    "bless": 22317,
    "ago": 14067,
    "vital": 17701,
    "ich": 469,
    "Ġaccompaniments": 24481,
    "Ġanywhere": 8519,
    "aves": 3600,
    "Ġ199": 3014,
    "Ġbows": 4079,
    "co": 2435,
    "Ġpursuing": 9440,
    "Ġhumanity": 6733,
    "story": 9214,
    "destined": 24115,
    "Ġcrate": 19121,
    "Ó": 148,
    "uttered": 8443,
    "wig": 17705,
    "lun": 20948,
    "Ġilluminate": 17194,
    "Ġforeseen": 16442,
    "colonel": 8286,
    "Ġporthole": 24398,
    "mured": 6960,
    "dripping": 16906,
    "Ġdisinterested": 16061,
    "rived": 5373,
    "report": 13402,
    "Ġastr": 15497,
    "Ġens": 2788,
    "germans": 20568,
    "Ġharpoone": 2914,
    "ixed": 4852,
    "Ġcooked": 13272,
    "Ġprecip": 7076,
    "Ġbiting": 17863,
    "otle": 21802,
    "Ġresignation": 18567,
    "Ġheavily": 6742,
    "Ġyawning": 12303,
    "erie": 21274,
    "Ġdow": 17888,
    "Ġpromoting": 3162,
    "Ġalleys": 25979,
    "clinging": 20824,
    "Ġfitting": 21412,
    "Ġpear": 11855,
    "Ġtrustees": 24108,
    "parameter": 2895,
    "Ġale": 9156,
    "Ġencodings": 4775,
    "houses": 9601,
    "Ġcom": 369,
    "Ġdisk": 22527,
    "Ġdat": 496,
    "Ġgrip": 11629,
    "dense": 18715,
    "rable": 11634,
    "Ġembod": 14412,
    "ause": 1313,
    "Ġdozing": 22248,
    "Ġconciliating": 19045,
    "Ġke": 1157,
    "crat": 24087,
    "tiger": 13799,
    "tut": 15437,
    "Ġdispute": 16060,
    "Ġbars": 13899,
    "Ġindependently": 4241,
    "ban": 9586,
    "Ġrevolutionized": 3367,
    "Ġaccost": 12851,
    "begging": 22503,
    "adru": 15735,
    "monkey": 19172,
    "Ġrecollect": 8311,
    "Ġhousings": 21497,
    "without": 4847,
    "Ġcharm": 4548,
    "gravel": 22624,
    "Ġmurmur": 14590,
    "Ġcheer": 4063,
    "affections": 17358,
    "Ġwoollen": 12107,
    "ition": 652,
    "Ġrow": 5246,
    "cred": 9110,
    "ckled": 9259,
    "Ġprinciple": 6771,
    "Ġcyn": 13888,
    "Ġunsolved": 22038,
    "abriel": 6950,
    "Ġfortunate": 6216,
    "Ġstockings": 20000,
    "Ġscimet": 22298,
    "dances": 17522,
    "Ġnibbling": 17387,
    "insula": 23071,
    "leagued": 26436,
    "igned": 5656,
    "Ġfrighten": 13281,
    "Ġexord": 21840,
    "Ġfountain": 7365,
    "Ġparametric": 2396,
    "omed": 13981,
    "ificial": 609,
    "Ġmarshalled": 25316,
    "Ġprodu": 1203,
    "Ġcontribute": 12865,
    "Ġnaked": 8128,
    "Ġfriendless": 23027,
    "ulent": 21867,
    "Ġshoving": 23491,
    "!âĢĿ": 848,
    "Ġshamefully": 24715,
    "unfortunate": 15781,
    "sen": 21052,
    "objections": 19918,
    "Ġfluttered": 16251,
    "Ġsubstant": 14811,
    "Ġsail": 1675,
    "Ġtide": 6661,
    "heavenly": 20048,
    "nothing": 3155,
    "Ġstands": 5259,
    "tired": 21075,
    "offers": 16399,
    "Ġprecision": 13192,
    "Ġcomforters": 25801,
    "abbering": 21801,
    "Ġvictim": 6100,
    "Ġparamore": 22127,
    "Ġgrosvenor": 17420,
    "Ġsand": 6237,
    "Ġbat": 10796,
    "taking": 5689,
    "Ġvoyage": 3058,
    "Ġcontrari": 23353,
    "Ġcontemplated": 13467,
    "Ġcompre": 4448,
    "--------": 14784,
    "sheet": 16288,
    "sleep": 6512,
    "gorith": 551,
    "Ġferguson": 17471,
    "buck": 17492,
    "Ġshame": 6411,
    "Ġkicks": 19771,
    "Ġzeal": 9100,
    "Ġhand": 859,
    "Ġapproaching": 6285,
    "wise": 2575,
    "mund": 13760,
    "istence": 2543,
    "Ġcardboard": 19982,
    "Ġsuperficial": 23457,
    "Ġinduced": 8674,
    "Ġsteed": 13044,
    "ways": 1441,
    "Ġexcl": 3474,
    "Ġfrance": 7684,
    "Ġchristian": 6480,
    "Ġsubordinate": 18723,
    "Ġlifeless": 8950,
    "ario": 14249,
    "Ġoblivious": 26033,
    "Ġsouthwards": 19636,
    "Ġdiving": 12605,
    "Ġconfound": 23306,
    "Ġabandoned": 8353,
    "impul": 16558,
    "itheat": 21341,
    "Ġvancouver": 26566,
    "destiny": 16700,
    "Ġtoad": 21514,
    "Ġsociet": 9452,
    "Ġhumbled": 16200,
    "Ġrid": 4351,
    "ases": 1521,
    "Ġtrap": 7674,
    "Ġstranger": 3484,
    "conditional": 9080,
    "leading": 15566,
    "ifle": 10892,
    "winter": 10741,
    "arris": 13212,
    "ultural": 22574,
    "Ġbeaten": 10530,
    "Ġheath": 15706,
    "Ġevils": 9022,
    "estate": 12822,
    "Ġclattering": 22356,
    "Ġcarpet": 9358,
    "Ġfire": 2334,
    "Ġeffemin": 18521,
    "Ġdislike": 6050,
    "Ġcreditor": 24291,
    "beds": 16623,
    "create": 24160,
    "Ġ58": 24321,
    "eye": 6226,
    "lid": 20947,
    "Ġuseful": 3559,
    "studied": 17151,
    "Ġtrait": 23079,
    "Ġaries": 21200,
    "Ġpalsied": 25780,
    "Ġdiminish": 14747,
    "Ġintellectual": 11402,
    "Ġeyelids": 26108,
    "Ġrabbit": 4286,
    "Ġlassitude": 20590,
    "mess": 13755,
    "Ġenclosure": 20627,
    "icated": 7592,
    "consolatory": 25307,
    "Ġpartaking": 22703,
    "instinct": 19546,
    "max": 1688,
    "live": 7551,
    "Ġrepented": 23366,
    "libr": 22927,
    "text": 1974,
    "works": 6591,
    "warm": 8103,
    "unquiet": 21886,
    "Ġsongs": 13423,
    "fin": 5209,
    "cu": 10085,
    "ardy": 22161,
    "Ġhermit": 15861,
    "anct": 21361,
    "simultaneously": 19866,
    "fortunate": 4792,
    "Ġwhisker": 23938,
    "made": 4808,
    "oga": 22699,
    "asmuch": 10196,
    "okes": 9279,
    "ontory": 10460,
    "Ġforesaw": 19128,
    "Ġsedentary": 25431,
    "Ġamerica": 6764,
    "sterdam": 19092,
    "Ġdisagree": 22537,
    "sneezes": 11447,
    "agne": 21910,
    "Ġprairie": 8716,
    "eric": 3470,
    "heartedness": 24825,
    "Ġdiverted": 14593,
    "Ġdance": 4441,
    "orter": 4250,
    "Ġdepartment": 24243,
    "Ġdimension": 3242,
    "Ġmilitia": 13321,
    "kee": 18276,
    "Ġspeedy": 11173,
    "Ġplied": 22604,
    "Ġsoutherly": 23338,
    "Ġcuvier": 9167,
    "Ġbanqu": 12592,
    "Ġrud": 8480,
    "ivation": 3111,
    "anced": 1349,
    "Ġmediocrity": 26609,
    "Ġcetace": 14990,
    "Ġdocumentation": 20557,
    "Ġtapped": 11555,
    "isting": 5550,
    "Ġdire": 865,
    "Ġissue": 2312,
    "Ġtalking": 3855,
    "Ġsulky": 13517,
    "alizing": 17942,
    "absence": 12712,
    "oll": 5456,
    "Ġincludes": 2013,
    "Ġtorm": 5434,
    "į": 240,
    "._]]": 5335,
    "Ġtransient": 18501,
    "Ġunh": 9255,
    "Ġmonth": 2849,
    "Ġevenly": 4125,
    "barn": 17484,
    "Ġsoil": 9257,
    "Ġblan": 18818,
    "shape": 10985,
    "Ġcottages": 14729,
    "Ġgallantry": 15106,
    "Ġphiladelphia": 26605,
    "Ġunprepared": 22055,
    "Ġoffic": 3188,
    "Ġscorching": 20071,
    "admire": 24946,
    "Ġdown": 833,
    "Ġsage": 17753,
    "Ġwhine": 21719,
    "purse": 20028,
    "Ġattacks": 12208,
    "gn": 8083,
    "slave": 16896,
    "Ġxlix": 25861,
    "Ġrelentless": 26279,
    "Ġtumb": 21172,
    "iff": 3902,
    "lighter": 20961,
    "Ġbeak": 18082,
    "Ġfoolscap": 24159,
    "Ġwhither": 10216,
    "Ġrainy": 24340,
    "Ġundaunted": 24120,
    "icha": 11741,
    "Ġplans": 7920,
    "Ġevangelist": 20341,
    "Ġfoundation": 4227,
    "do": 1997,
    "Ġreplaced": 13075,
    "ective": 18177,
    "Ġoutlines": 15961,
    "Ġfrequently": 4680,
    "Ġbab": 5291,
    "Ġambergris": 8709,
    "ocity": 8279,
    "Ġqueequeg": 2014,
    "Ġbier": 22768,
    "Ġfir": 17879,
    "Ġunusual": 6555,
    "Ġenhance": 2983,
    "Ġcleanse": 24526,
    "-------": 20392,
    "Ġusages": 15920,
    "Ġthieves": 15640,
    "Ġbaronial": 23796,
    "Ġpleases": 16301,
    "utter": 7595,
    "Ġanimation": 11153,
    "Ġbag": 5699,
    "ander": 6402,
    "Ġarrest": 7409,
    "Ġgle": 7860,
    "pacing": 21023,
    "orous": 5294,
    "Ġsovere": 9258,
    "Ġmusty": 22684,
    "Ġattentive": 9035,
    "began": 6427,
    "Ġdomains": 6614,
    "Ġintensified": 17019,
    "itative": 13872,
    "Ġfrayed": 23328,
    "Ġhighlands": 22779,
    "Ġ177": 13415,
    "Ġscepticism": 25928,
    "Ġloves": 10916,
    "unwillingly": 21889,
    "study": 15120,
    "arts": 6565,
    "Ġweight": 658,
    "Ġpleasantness": 24139,
    "Ġfurnished": 6476,
    "Ġembark": 8560,
    "snow": 10725,
    "Ġwhitting": 18058,
    "new": 1465,
    "persecut": 22190,
    "na": 13762,
    "Ġfetching": 16897,
    "Ġcleaving": 23186,
    "Ġelevate": 24498,
    "attachment": 13056,
    "osen": 6855,
    "Ġinnermost": 12164,
    "Ġhorseman": 19610,
    "bald": 16446,
    "next": 5894,
    "Ġmorass": 22975,
    "Ġcolonnades": 26277,
    "Ġhumaneval": 25583,
    "Ġwas": 370,
    "Ġworlds": 11950,
    "Ġ22": 8280,
    "ence": 394,
    "mem": 10710,
    "Ġ1950": 11360,
    "Ġleviathan": 3290,
    "Ġpuzzling": 14898,
    "Ġd": 284,
    "Ġfundament": 2932,
    "Ġeag": 2972,
    "ĠĠĠĠĠĠĠĠĠĠ": 18578,
    "Ġslee": 8976,
    "Ġmournfully": 20120,
    "Ġpsal": 15620,
    "Ġsummoning": 23877,
    "Ġfiner": 13057,
    "Ġsoo": 15865,
    "Ġbuildings": 24719,
    "Ġshattered": 7886,
    "oms": 4593,
    "Ġlegs": 4916,
    "early": 20122,
    "Ġcombinations": 22857,
    "Ġequally": 5258,
    "skeleton": 17378,
    "Ġrecovery": 11442,
    "Ć": 199,
    "Ġsetting": 7048,
    "prodig": 16430,
    "Ġsuper": 2152,
    "Ġnantucket": 2839,
    "orm": 426,
    "come": 2377,
    "Ġhandspike": 22702,
    "attend": 11101,
    "Ġcoloured": 11046,
    "mp": 3726,
    "recollect": 17225,
    "princip": 17138,
    "pat": 10118,
    "Ġsoftness": 18919,
    "Ġsketches": 26272,
    "Ġ21": 11200,
    "Ġinquest": 16549,
    "Ġmadly": 16487,
    "Ġpositional": 2600,
    "hated": 17562,
    "Ġdecapitated": 20619,
    "intment": 4720,
    "Ġmetropol": 11141,
    "Ġdistinctions": 18537,
    "Ġsust": 7009,
    "Ġoverwhel": 8197,
    "Ġpublished": 11242,
    "Ġjewel": 9944,
    "(": 12,
    "succeeded": 15178,
    "Ġpractical": 3165,
    "Ġphrases": 2797,
    "success": 6712,
    "Ġsmall": 893,
    "shed": 8096,
    "ights": 8478,
    "brary": 5755,
    "Ġdropped": 4471,
    "ĠĠĠĠĠĠĠĠĠĠĠĠĠ": 22568,
    "Ġtickets": 17094,
    "Ġdecisions": 6704,
    "Ġdine": 7366,
    "Ġwilfully": 16767,
    "Ġdelineations": 26059,
    "pal": 9618,
    "Ġcredit": 4819,
    "Ġtired": 9151,
    "Ġlawn": 7379,
    "Ġcroquet": 9964,
    "Ġwrists": 11114,
    "Ġforgot": 4684,
    "oars": 9616,
    "Ġtremulous": 14988,
    "times": 8100,
    "pounds": 21027,
    "Ġwester": 25156,
    "Ġbulk": 5590,
    "ousness": 10276,
    "prevailed": 17347,
    "Ġholiday": 13002,
    "Ġsenor": 20153,
    "utherland": 9580,
    "upt": 13800,
    "Ġgermany": 25786,
    "forbid": 14353,
    "Ġlighten": 23263,
    "ruction": 4354,
    "copyright": 5278,
    "Ġinvade": 19144,
    "Ġstaircase": 20099,
    "nephew": 26398,
    "Ġglut": 18854,
    "southern": 20412,
    "Ġintricacies": 15141,
    "83": 13683,
    "operations": 19978,
    "prudently": 21037,
    "mits": 13758,
    "thinking": 9016,
    "bold": 17489,
    "uses": 11763,
    "Ġsouthampton": 24308,
    "rat": 8759,
    "ficial": 17549,
    "Ġunworthy": 11718,
    "Ġfew": 1212,
    "Ġchinks": 22256,
    "Ġcandidate": 16699,
    "fury": 17548,
    "mightily": 24104,
    "urpr": 2287,
    "Ġincreasingly": 9373,
    "infer": 10146,
    "Ġbritannica": 24681,
    "proportion": 16184,
    "erate": 7150,
    "Ġserve": 9371,
    "Ġstumble": 26483,
    "Ġknots": 15010,
    "dat": 1686,
    "Ġthese": 822,
    "Ġindulged": 13420,
    "ese": 4443,
    "impressions": 20701,
    "Ġsecurity": 8979,
    "Ġay": 15494,
    "elag": 12662,
    "Ġfinishing": 23130,
    "Ġgramm": 8172,
    "dinah": 20084,
    "Ġdevices": 2946,
    "Ġpronounced": 8352,
    "hercules": 22209,
    "su": 805,
    "Ġweights": 897,
    "Ġestab": 6317,
    "Ġencircling": 26273,
    "Ġfresher": 23211,
    "Ġsoul": 2724,
    "Ġfurious": 10355,
    "Ĝ": 221,
    "Ġgangs": 21613,
    "Ġrepresenting": 4057,
    "Ġsqueezed": 20039,
    "Ġarm": 2493,
    "Ġfearful": 6199,
    "bond": 17491,
    "pence": 15412,
    "))": 1515,
    "hast": 5358,
    "Ġmourn": 8707,
    "istic": 967,
    "Ġbe": 336,
    "eat": 11484,
    "Ġdaint": 15597,
    "induce": 22379,
    "quent": 2093,
    "mond": 20976,
    "Ġacquiesce": 20332,
    "castles": 14637,
    "Ġf": 283,
    "Ġunsav": 18252,
    "writ": 16555,
    "wharf": 20609,
    "Ġthrill": 24540,
    "Ġincomplete": 17210,
    "ason": 1246,
    "spikes": 10342,
    "Ġquant": 6425,
    "Ġran": 3344,
    "actorily": 25577,
    "thirst": 15829,
    "page": 13773,
    "Ġcalamity": 17351,
    "Ġcousins": 9917,
    "Ġbec": 1351,
    "ĸ": 249,
    "Ġseemingly": 9321,
    "varied": 23189,
    "Ġphilist": 16602,
    "Ġluxury": 20135,
    "Ġsinister": 8572,
    "Ġvibrated": 25048,
    "Ġfrequ": 3329,
    "Ġwarriors": 19726,
    "apside": 22964,
    "Ġluck": 4880,
    "user": 5105,
    "knowing": 10438,
    "Ġpowers": 5419,
    "Ġbanish": 15574,
    "Ġunfelt": 24111,
    "Ġwitness": 4622,
    "Ġarchy": 14349,
    "sigma": 3007,
    "Ġmand": 21307,
    "Ġringleader": 26214,
    "tenderly": 20534,
    "Ġhalting": 16277,
    "Ġbear": 3658,
    "curious": 10484,
    "Ġlaying": 7910,
    "volous": 18580,
    "Ġsnowy": 9020,
    "gypt": 8262,
    "Ġlandlord": 5580,
    "Ġconcluded": 5658,
    "Ġmelt": 21321,
    "Ġhagger": 21495,
    "Ġdrove": 4983,
    "Ġcommenting": 25229,
    "yet": 3751,
    "flow": 2211,
    "Ġoars": 3894,
    "Ġpenn": 11112,
    "Ġexecute": 7506,
    "Ġsentin": 16378,
    "Ġsimply": 7218,
    "hooked": 23717,
    "Ġgayer": 24497,
    "Ġsubstantial": 14812,
    "tempered": 13449,
    "Ġdrugg": 17121,
    "Ġrags": 18648,
    "Ġforbidden": 17078,
    "Ġfixedly": 19250,
    "Ġproposition": 23252,
    "what": 642,
    "agged": 9239,
    "riages": 10245,
    "send": 15426,
    "Ġstud": 1572,
    "alterable": 13627,
    "Ġforbade": 15217,
    "trying": 15441,
    "Ġheart": 1593,
    "heric": 15915,
    "Ġabsent": 7016,
    "Ġdishes": 16054,
    "avating": 18607,
    "Ġcondescend": 19958,
    "Ġsneezes": 24697,
    "dreams": 12340,
    "um": 454,
    "Ġcompany": 3720,
    "Ġxi": 16432,
    "Ġloungers": 24863,
    "rodu": 1817,
    "Ġmetallic": 19051,
    "Ġapologizing": 25198,
    "Ġdardanelles": 26444,
    "Ġawakened": 10454,
    "sle": 9140,
    "Ġhasty": 10478,
    "Ġdelay": 5748,
    "ternatural": 12719,
    "pro": 2050,
    "ites": 3895,
    "iancy": 13013,
    "zen": 5140,
    "Ġgross": 11627,
    "Ġsince": 1795,
    "Ġpeaked": 2296,
    "Ġboys": 5194,
    "Ġball": 3624,
    "Ġflickering": 23018,
    "christian": 17234,
    "figure": 13558,
    "Ġcaterpillar": 5866,
    "Ġrecogn": 2622,
    "Ġblown": 12089,
    "spoke": 11024,
    "abated": 14022,
    "collar": 19330,
    "Ġsnar": 13203,
    "Ġhierarchical": 1929,
    "pid": 1420,
    "Ġembodied": 25848,
    "ee": 1663,
    "avast": 8900,
    "runs": 25416,
    "year": 11096,
    "understand": 1112,
    "Ġdisquiet": 18553,
    "Ġbutchers": 18273,
    "kes": 3678,
    "Ġproceedings": 9909,
    "kye": 20940,
    "Ġexternal": 8366,
    "ressing": 8921,
    "Ġemploying": 23981,
    "Ġtyros": 26102,
    "excitement": 19672,
    "scru": 16246,
    "Ġtails": 9904,
    "Ġsabbee": 17257,
    "ateral": 19380,
    "Ġele": 1963,
    "larger": 24204,
    "appointment": 24063,
    "Ġbought": 8418,
    "liking": 22928,
    "Ġunprotected": 22072,
    "Ġscheming": 23274,
    "lilies": 20963,
    "Ġstrokes": 16770,
    "Ġholes": 16412,
    "Ġcerem": 7079,
    "varieties": 23191,
    "produced": 25415,
    "Ġsepulch": 15287,
    "Ġexponentiating": 3446,
    "igate": 8826,
    "ology": 1546,
    "em": 389,
    "hens": 3933,
    "Ġshave": 22001,
    "Ġfanny": 23394,
    "Ġpaint": 7709,
    "arising": 17897,
    "Ġproclaim": 18133,
    "myst": 9824,
    "Ġcongregational": 25105,
    "ounded": 9750,
    "have": 2058,
    "pocket": 9811,
    "Ġleft": 1761,
    "Ġsupper": 4666,
    "Ġjumping": 13345,
    "Ġperished": 11787,
    "gee": 15981,
    "warmly": 25029,
    "Ġheighten": 19532,
    "Ġconjure": 17125,
    "Ġsanity": 24984,
    "musical": 25341,
    "Ġundressed": 19516,
    "txt": 12519,
    "Ġindirectly": 8941,
    "Ġcomposed": 8895,
    "Ġhighly": 4845,
    "gone": 6505,
    "ĠĠĠĠĠĠĠĠĠĠĠĠĠĠĠĠĠĠĠĠĠĠĠĠĠĠĠĠ": 9977,
    "Ġoutright": 18414,
    "Ġhit": 7164,
    "Ġconnection": 5479,
    "aneous": 7240,
    "Ġintermediate": 18592,
    "Ġcontemplate": 19894,
    "Ġsailed": 4888,
    "Ġphilosopher": 12187,
    "Ġem": 1926,
    "Ġproprietors": 20189,
    "zy": 2670,
    "Ġpromises": 10402,
    "Ġliveliness": 13646,
    "blo": 6355,
    "publ": 17639,
    "Ġentries": 22745,
    "home": 7341,
    "note": 14344,
    "gue": 12471,
    "Ġtemperature": 1006,
    "Ġ1839": 20463,
    "Ġcontin": 5382,
    "cater": 20817,
    "Ġopposing": 12044,
    "Ġdiction": 8798,
    "Ġtreasures": 17047,
    "Ġwill": 679,
    "Ġstrangled": 24134,
    "flaming": 23973,
    "Ġwandered": 6930,
    "would": 2352,
    "case": 5206,
    "Ġremorselessly": 16968,
    "Ġcompelled": 14270,
    "greek": 25405,
    "compar": 14358,
    "putting": 14102,
    "urred": 8451,
    "Ġclubbed": 26547,
    "soup": 21061,
    "Ġtranslates": 12054,
    "omp": 2472,
    "Ġpor": 5225,
    "Ġbran": 5252,
    "Ġsensit": 2951,
    "Ġrefers": 1566,
    "Ġlocket": 22118,
    "posterity": 25489,
    "Ġdrifted": 14626,
    "Ġcurled": 8227,
    "clair": 18935,
    "unities": 15775,
    "where": 2091,
    "fain": 13717,
    "Ġdictate": 20154,
    "Ġgraces": 18226,
    "Ġatlantic": 7001,
    "Ġheaved": 9386,
    "swallow": 24259,
    "Ġsuperlative": 26075,
    "Ġgrammatical": 13541,
    "Ġshells": 20367,
    "kers": 7134,
    "breeding": 16676,
    "Ġoily": 13866,
    "Ġgamb": 18000,
    "ferred": 16410,
    "Ġclosest": 16764,
    "Ġhardships": 14453,
    "Ġmanner": 2194,
    "pres": 16032,
    "Ġhabitu": 19531,
    "hatches": 19930,
    "Ġinterchange": 16078,
    "Ġconvul": 13206,
    "slouched": 24556,
    "pay": 10719,
    "ctive": 11625,
    "ague": 3903,
    "Ġmystical": 12136,
    "Ġgenius": 8047,
    "entropy": 1438,
    "Ġcheever": 23288,
    "civil": 7798,
    "Ġalluded": 7887,
    "Ġanim": 2113,
    "amed": 4447,
    "Ġtowing": 9195,
    "ald": 15629,
    "Ġangle": 8606,
    "Ġpausing": 8656,
    "Ġpatients": 24810,
    "Ġnarrations": 24351,
    "critters": 14777,
    "Ġunlike": 7006,
    "sford": 6000,
    "utral": 12667,
    "god": 4863,
    "Ġcows": 15557,
    "Ġaqu": 17743,
    "Ġstrives": 23697,
    "Ġsnoo": 21231,
    "Ġenables": 727,
    "Ġmizzen": 20292,
    "omeness": 18025,
    "Ġspouted": 14676,
    "Õ": 150,
    "threshold": 21992,
    "Ġoptimizer": 5035,
    "Ġtapping": 10753,
    "best": 6113,
    "Ġfant": 9175,
    "Ġsow": 17750,
    "Ġleadenhall": 16630,
    "Ġcrouched": 23441,
    "Ġsomnambul": 26577,
    "sole": 6170,
    "Ġdesignated": 19524,
    "Ġlivel": 11356,
    "state": 13976,
    "Ġfeet": 2258,
    "Ġdisasters": 16058,
    "narrative": 17321,
    "Ġarmy": 11744,
    "Ġcomposition": 1692,
    "Ġshan": 9251,
    "Ġseparation": 11247,
    "Ġfusion": 21418,
    "Ġplaying": 6909,
    "tormented": 13648,
    "Ġassumpt": 5415,
    "Ġresearches": 13134,
    "Ġendurance": 23142,
    "Ġindolence": 16232,
    "absurd": 21800,
    "Ġhired": 10179,
    "simply": 20673,
    "Ġright": 1504,
    "Ġadjust": 2153,
    "Ġaway": 1243,
    "ores": 2414,
    "Ġjud": 3358,
    "Ġsymb": 2594,
    "brandy": 19203,
    "Ġcolleague": 17161,
    "iable": 3335,
    "hid": 13736,
    "Ġescape": 2649,
    "Ġpia": 21468,
    "Ġbaleen": 10039,
    "sink": 11523,
    "Ġstraining": 11328,
    "lest": 5290,
    "aped": 3762,
    "Ġbourgh": 5069,
    "Ġgums": 21615,
    "covery": 11172,
    "Ġimperfectly": 25727,
    "useful": 16504,
    "Ġunfor": 15843,
    "Ġpublisher": 24069,
    "Ġglared": 13022,
    "aug": 1211,
    "Ġtoils": 10187,
    "decor": 23783,
    "acked": 10974,
    "Ġformed": 3880,
    "conscientious": 19629,
    "Ġalready": 2711,
    "Ġarrives": 23609,
    "Ġrefined": 18699,
    "Ġkeel": 6445,
    "wife": 8102,
    "Ġvowed": 14086,
    "Ġslim": 18939,
    "Ġelbow": 12924,
    "countenances": 24152,
    "Ġflitting": 13030,
    "Ġdemonstrate": 24999,
    "Ġgentlemen": 3643,
    "difficult": 10060,
    "tube": 20414,
    "Ġsmothered": 20722,
    "Ġeloped": 22648,
    "Ġregulations": 18595,
    "Ġwhal": 5454,
    "Ġhandy": 12941,
    "Ġhansom": 13667,
    "Ġlimbs": 5968,
    "Ġdeceiving": 21835,
    "incom": 21184,
    "dropped": 12266,
    "axing": 18548,
    "Ġiv": 4041,
    "neural": 3069,
    "aunted": 20772,
    "Ġiroqu": 21628,
    "Ġindividuals": 24545,
    "resembling": 25933,
    "Ġtoiling": 15639,
    "Ġlasted": 11055,
    "Ġshortly": 6198,
    "Ġclamorous": 24910,
    "Ġarbitrary": 4736,
    "Ġpopularly": 12245,
    "eastern": 17534,
    "ibid": 18842,
    "Ġapparel": 20439,
    "Ġseemed": 1278,
    "Ġtass": 15473,
    "Ġlodged": 11251,
    "efficient": 2872,
    "Ġsympathetic": 17361,
    "90": 12435,
    "Ġtwenty": 3945,
    "Ġput": 1797,
    "formal": 14171,
    "Ġneck": 4885,
    "Ġpolar": 9413,
    "Ġcurb": 16239,
    "Ġsafe": 5103,
    "Ġlubber": 17446,
    "finished": 10556,
    "Ġoutcast": 18415,
    "Ġsport": 6690,
    "attle": 4466,
    "Ġhundreds": 4325,
    "days": 7690,
    "lic": 17588,
    "Ġresol": 2666,
    "Ġbalanced": 12993,
    "Ġspecks": 14307,
    "Ġgaol": 19570,
    "usations": 15946,
    "Ġsuitable": 18284,
    "Ġunlo": 22017,
    "listener": 24931,
    "bub": 15319,
    "Ġdumbly": 24990,
    "Ġcoachman": 15001,
    "Ġearn": 3548,
    "Ġjaw": 3320,
    "iscuit": 10600,
    "Ġdundee": 16998,
    "Ġwan": 15531,
    "ved": 869,
    "Ġextracted": 16319,
    "topp": 22571,
    "Ġintolerable": 8484,
    "Ġable": 3083,
    "Ġinterview": 9772,
    "Ġmarble": 7671,
    "Ġobliged": 4282,
    "yielded": 25757,
    "adding": 21766,
    "guarded": 13297,
    "Ġrealised": 18982,
    "Ġinterests": 14570,
    "moreover": 12973,
    "Ġendued": 14079,
    "hills": 13738,
    "Ġcomplying": 18588,
    "Ġduty": 4067,
    "hurst": 19881,
    "Ġwapping": 21297,
    "ave": 982,
    "fug": 17544,
    "ll": 1141,
    "eration": 10773,
    "Ġfanned": 19101,
    "Ġfifty": 4624,
    "eh": 13712,
    "enc": 7575,
    "Ġcouns": 10522,
    "Ġnathan": 21530,
    "Ġripple": 25505,
    "done": 6501,
    "al": 292,
    "Ġpurses": 23478,
    "Ġtroubled": 6618,
    "Ġislanders": 19505,
    "Ġobser": 2070,
    "Ġsurmount": 20004,
    "Ġmappings": 2145,
    "pers": 4333,
    "separation": 25227,
    "homely": 25618,
    "riers": 18187,
    "Ġbrief": 6977,
    "Ġconvergence": 975,
    "illa": 12797,
    "pl": 400,
    "Ġfirmness": 11238,
    "Ġrece": 11640,
    "Ġdistinguish": 2725,
    "Ġneat": 7000,
    "inion": 2877,
    "Ġsurpass": 13586,
    "Ġpie": 13917,
    "Ġbeeches": 9228,
    "Ġdiscl": 9799,
    "tre": 8764,
    "Ġplayful": 19239,
    "Ġilluminated": 20178,
    "Ġacre": 22685,
    "Ġporing": 21471,
    "Ġvalley": 5852,
    "Ġsoda": 25535,
    "grounds": 11152,
    "Ġcellar": 8060,
    "Ġwarb": 17789,
    "Ġlabeled": 3717,
    "Ġninety": 13604,
    "Ġinterruption": 9475,
    "Ġindependent": 9018,
    "71": 20758,
    "Ġphyset": 23204,
    "landed": 18957,
    "Ġmoreover": 6165,
    "Ġlakes": 8132,
    "ipagos": 22361,
    "Ġallowed": 4055,
    "indispensable": 14211,
    "Ġdif": 871,
    "imper": 13999,
    "hic": 3250,
    "Ġrage": 5110,
    "Ġcabaco": 13170,
    "Ġentr": 14340,
    "Ġcalculated": 4475,
    "Ġtooks": 23327,
    "axen": 22526,
    "dec": 3113,
    "Ġbounded": 16628,
    "_.âĢĻâĢĿ": 17481,
    "Ġiteratively": 3061,
    "Ġushered": 18360,
    "Ġroyal": 5601,
    "Ġhints": 8432,
    "Ġexploit": 19164,
    "Ġof": 298,
    "Ġpreliminaries": 25177,
    "Ġscrupled": 25052,
    "Ġobserve": 4671,
    "toed": 18582,
    "Ġsales": 12811,
    "Ġcreep": 22725,
    "Ġremem": 4310,
    "Ġmitt": 21310,
    "Ġwash": 9705,
    "Ġtarts": 10754,
    "Ġbeliever": 25847,
    "Ġseeming": 8543,
    "Ġplayers": 12042,
    "Ġeffectual": 18728,
    "dening": 22782,
    "Ġrecoil": 18689,
    "Ġbeseeching": 26312,
    "Ġimaginations": 16518,
    "arbuck": 2026,
    "Ġkindred": 16381,
    "ry": 809,
    "imes": 1300,
    "Ġupheld": 22157,
    "Ġreplay": 5046,
    "Ġhurriedly": 11249,
    "Ġsole": 3298,
    "Ġmischie": 22767,
    "attentive": 17191,
    "puted": 8849,
    "aver": 6786,
    "ears": 20847,
    "glory": 23855,
    "urch": 3990,
    "ĠâĢĶ_": 3458,
    "inced": 3337,
    "Ġoutweigh": 22327,
    "illum": 15873,
    "Ġguilt": 6181,
    "Ġworkmen": 23042,
    "grief": 13733,
    "Ġoftener": 13568,
    "Ġentirely": 3433,
    "Ġsheath": 14153,
    "return": 5489,
    "Ġaccusations": 22385,
    "Ġcem": 17825,
    "spe": 3561,
    "fere": 10990,
    "project": 16428,
    "================================": 5671,
    "streamed": 25966,
    "practised": 20250,
    "Ġwestern": 10656,
    "justine": 7685,
    "Ġmercy": 9000,
    "Ġproficiency": 19195,
    "Ġlodger": 24095,
    "few": 8205,
    "Ġinfle": 16369,
    "iner": 2671,
    "Ġchallenge": 25472,
    "Ġretains": 20033,
    "Ġmoss": 9286,
    "Ġrequire": 898,
    "Ġinflu": 4909,
    "derer": 4600,
    "Ġdragging": 14477,
    "Ġcommod": 10335,
    "Ġut": 2278,
    "Ġelement": 6898,
    "winds": 10523,
    "fee": 12884,
    "Ġrus": 14095,
    "Ġcommotion": 9782,
    "Ġlory": 12656,
    "Ġtelling": 5747,
    "ersburgh": 18216,
    "Ġpauper": 26180,
    "here": 2549,
    "outre": 18321,
    "Ġreligions": 20111,
    "Ġvinegar": 20103,
    "Ġunintelligible": 26515,
    "Ġprophesy": 26062,
    "Ġanoint": 25538,
    "solid": 16384,
    "Ġweep": 7621,
    "ruit": 22182,
    "Ġfads": 21420,
    "Ġgrounds": 6751,
    "currents": 23848,
    "Ġconcept": 683,
    "Ġcolouring": 16752,
    "sick": 13786,
    "ourably": 14379,
    "Ġsuck": 15867,
    "bethink": 25745,
    "Ġspy": 22128,
    "Ġmorose": 18844,
    "building": 17311,
    "Ġthistle": 21921,
    "chet": 13220,
    "sartain": 25623,
    "Ġposs": 1616,
    "shroud": 20315,
    "Ġsalutation": 12400,
    "vings": 9753,
    "ating": 664,
    "Ġboats": 2639,
    "harrow": 20910,
    "around": 12612,
    "Ġask": 1492,
    "englishman": 23679,
    "wooden": 24589,
    "extinguish": 22774,
    "ancho": 4937,
    "pless": 6262,
    "Ġadjusting": 3412,
    "Ġfuel": 13906,
    "Ġtreble": 16505,
    "Ġvirtuous": 14757,
    "Ġmole": 11794,
    "Ġnervously": 19186,
    "Ġpotent": 12067,
    "coil": 23561,
    "Ġallegro": 25795,
    "Ġquadrant": 11405,
    "Ġpointed": 4773,
    "Ġspeech": 4610,
    "Ġresolution": 5500,
    "\"]": 17472,
    "Ġcurv": 3512,
    "Ġsalutations": 25383,
    "possibility": 13365,
    "isure": 6242,
    "Ġhereby": 10359,
    "worse": 14692,
    "Ġdream": 3539,
    "Ġfiftieth": 24702,
    "Ġamericans": 14745,
    "Ġcasement": 25095,
    "market": 16840,
    "Ġverte": 9443,
    "osa": 22264,
    "Ġviciously": 24403,
    "Ġices": 21157,
    "scotland": 20532,
    "Ġfunctional": 3052,
    "Ġmorals": 22976,
    "Ġlovel": 10273,
    "jack": 7344,
    "Ġclub": 8876,
    "on": 267,
    "Ġplayfulness": 23639,
    "ont": 2624,
    "Ġexplanatory": 22207,
    "Ġdromedary": 17441,
    "Ġhummed": 18780,
    "Ġjet": 5309,
    "outon": 12807,
    "flying": 13723,
    "Ġgiving": 4081,
    "Ġunchanging": 22050,
    "pull": 6797,
    "Ġpron": 6452,
    "Ġelusive": 22649,
    "Ġvacantly": 16816,
    "Ġperv": 15994,
    "Ġbashaw": 25634,
    "bear": 10316,
    "ynolds": 10038,
    "mor": 4210,
    "Z": 62,
    "Ġbeck": 14011,
    "Ġequival": 4784,
    "Ġmomentous": 16175,
    "Ġabhorrence": 9054,
    "Ġpalms": 8647,
    "homage": 25617,
    "cabin": 8364,
    "Ġdoubt": 2222,
    "keenest": 25662,
    "Ġarrangement": 2658,
    "Ġflail": 23011,
    "wards": 1276,
    "Ġhaunted": 10257,
    "Ġ550": 19639,
    "Ġaugust": 10599,
    "flag": 14713,
    "Ġhighest": 3530,
    "Ġcurtains": 22983,
    "jub": 20931,
    "seas": 14035,
    "Ġbeloved": 5571,
    "repeating": 20132,
    "Ġvirtual": 11240,
    "Ġduodecimo": 16768,
    "Ġillust": 8264,
    "Ġfurnish": 9021,
    "Ġcholera": 22258,
    "Ġchr": 3688,
    "oking": 4606,
    "Ġagonized": 25373,
    "Ġfogs": 25283,
    "ump": 2284,
    "Ġjoining": 13167,
    "dream": 8731,
    "Ġorlop": 22098,
    "Ġmingling": 20200,
    "Ġvisions": 12982,
    "Ġsublime": 8067,
    "Ġhinted": 6014,
    "missionary": 24617,
    "esy": 9184,
    "mystic": 25317,
    "Ġforging": 18096,
    "lover": 18541,
    "Ġcommonest": 23094,
    "Ġexc": 1833,
    "Ġmales": 17807,
    "gings": 7550,
    "Ġhopkins": 23135,
    "Ġtor": 8107,
    "Ġmaintains": 2142,
    "Ġunstructure": 2999,
    "Ġwo": 3651,
    "Ġjungfrau": 15251,
    "Ġhurst": 5581,
    "itiousness": 21337,
    "Ġdesirous": 8944,
    "Ġconveys": 16856,
    "Ġshoots": 14569,
    "ivened": 22971,
    "ium": 4864,
    "hastily": 19705,
    "rers": 14720,
    "Ġcharley": 19008,
    "okingly": 22383,
    "Ġroutine": 13510,
    "Ġcust": 11584,
    "Ġrevolut": 3259,
    "Ġheredit": 9218,
    "Ġdon": 1613,
    "cils": 20816,
    "Ġfalsely": 20585,
    "glit": 23853,
    "inu": 1113,
    "Ġring": 4451,
    "industrious": 26241,
    "Ġgore": 17991,
    "quadr": 15768,
    "astes": 11742,
    "Ġdiscu": 4360,
    "Ġpromised": 5181,
    "uger": 21106,
    "banish": 20784,
    "ul": 371,
    "Ġtravels": 11930,
    "agatha": 21913,
    "jeroboam": 25620,
    "Ġliter": 8815,
    "special": 14707,
    "Ġ180": 16607,
    "illings": 14144,
    "icest": 21568,
    "Ġsurvivor": 17365,
    "laborers": 23919,
    "Ġfailure": 13318,
    "Ġjustification": 22972,
    "Ġsubset": 9872,
    "Ġdragged": 6889,
    "Ġsurvivors": 25732,
    "Ġday": 959,
    "Ġpanted": 21476,
    "crop": 20800,
    "arance": 4698,
    "bingley": 4927,
    "Ġremoval": 12121,
    "Ġtomahawk": 7540,
    "brink": 23578,
    "uously": 7353,
    "irt": 3079,
    "Ġsquared": 1380,
    "Ġfall": 2992,
    "Ġirreproachable": 24918,
    "Ġeth": 17717,
    "Ġtricks": 13487,
    "Ġblades": 11898,
    "impatiently": 20474,
    "awful": 23119,
    "Ġuttered": 7280,
    "Ġretain": 7865,
    "Ġbrotherhood": 23672,
    "uries": 6149,
    "Ġbeautifully": 13270,
    "girl": 12321,
    "enstern": 17783,
    "Ġsailors": 4272,
    "!âĢĶ": 2455,
    "Ġmacey": 12567,
    "Ġplaid": 22607,
    "fit": 6648,
    "Ġevery": 927,
    "Ġofficers": 4425,
    "ography": 13366,
    "Ġquiver": 16006,
    "inquir": 9538,
    "vour": 17700,
    "Ġpursuits": 12080,
    "Ġunfathom": 14791,
    "benevolent": 15236,
    "Ġinferior": 8367,
    "erve": 12553,
    "Ġunpardonable": 22067,
    "andam": 10889,
    "yp": 1047,
    "gno": 13729,
    "izabeth": 910,
    "prove": 11148,
    "neither": 9759,
    "Ġacid": 22686,
    "Ġsurface": 5119,
    "âĢ": 295,
    "bishop": 13697,
    "monograph": 23528,
    "ets": 1161,
    "Ġbackbone": 22655,
    "Ġviews": 7290,
    "Ġassociated": 12253,
    "Ġsignificantly": 4519,
    "powerful": 24848,
    "bull": 13693,
    "inspector": 13649,
    "back": 2018,
    "Ġdiscovering": 13361,
    "Ġensuring": 11193,
    "Ġstone": 4646,
    "Ġ116": 24439,
    "Ġstepdaughter": 22616,
    "Ġsuit": 5725,
    "Ġnext": 2138,
    "Ġignor": 4009,
    "Ġfading": 15588,
    "inquire": 16933,
    "Ġfront": 3451,
    "Ġawait": 17073,
    "Ġsung": 23277,
    "Ġdisobedience": 22540,
    "Ġcig": 6521,
    "Ġretire": 10383,
    "alone": 10185,
    "Ġplump": 14285,
    "Ġrobins": 16269,
    "arus": 13914,
    ".": 18,
    "Ġannounced": 9036,
    "desk": 23812,
    "Ġdies": 11595,
    "Ġfrank": 4419,
    "Ġfishy": 16525,
    "Ġmutter": 23957,
    "Ġlazarus": 15030,
    "scores": 22996,
    "Ġdrooping": 9422,
    "Ġbordeaux": 24564,
    "Ġconfinement": 19037,
    "nns": 1894,
    "exper": 8881,
    "Ġpurposes": 11169,
    "Ġexecut": 4242,
    "Ġhated": 7586,
    "barrels": 15043,
    "Ġinsepar": 17936,
    "histor": 13494,
    "mael": 6725,
    "uation": 17695,
    "Ġeddy": 13549,
    "Ġinterment": 22580,
    "Ġauthent": 14520,
    "Ġconveniently": 20082,
    "Ġobsolete": 26559,
    "andy": 8159,
    "Ġexerc": 6834,
    "Ġrevered": 23735,
    "Ġassizes": 11109,
    "everywhere": 23700,
    "##": 2318,
    "Ġeucl": 24708,
    "igger": 21705,
    "Ġsult": 10768,
    "Ġcanes": 22170,
    "Ġsord": 21222,
    "Ġ132": 19898,
    "Ġfretfulness": 25449,
    "Ġpresentiment": 18990,
    "Ġmysterious": 7528,
    "¤": 102,
    "Ġpants": 21469,
    "Ġsoldiers": 8690,
    "Ġblow": 3374,
    "Ġnail": 9197,
    "Ġstarting": 7730,
    "Ġhonorable": 16877,
    "Ġlod": 4039,
    "Ġenticing": 22746,
    "Ġoverwhelmed": 11404,
    "sticks": 25965,
    "huzza": 20915,
    "Ġbrood": 23105,
    "Ġunhappy": 5640,
    "Ġminister": 18755,
    "Ġcentrally": 23835,
    "harmony": 25751,
    "benefact": 24642,
    "supposed": 13319,
    "Ġsolve": 4192,
    "icable": 6389,
    "aph": 10955,
    "Ġenderby": 13654,
    "Ġheeded": 13406,
    "ippers": 17577,
    "Ġwhaleboats": 18480,
    "else": 6535,
    "Ġthere": 563,
    "wherever": 13122,
    "Ġlicense": 20094,
    "dinner": 11407,
    "detached": 19677,
    "Ġspasmodically": 17316,
    "Ġbefell": 14012,
    "Ġrider": 24187,
    "Ġcircumnavigation": 20403,
    "magnet": 14972,
    "Ġpowdered": 24239,
    "Ġbrowne": 13304,
    "Ġtempestuous": 20074,
    "Ġeavesdroppers": 25964,
    "ads": 5718,
    "maj": 18807,
    "ulgences": 21870,
    "Ġtuples": 13480,
    "Ġcad": 12572,
    "rush": 7012,
    "request": 21244,
    "Ġbrid": 6292,
    "Ġmoses": 21318,
    "Ġscatter": 18399,
    "sander": 11528,
    ".]": 15301,
    "Ġwanderings": 20146,
    "Ġforesee": 19126,
    "Ġsocket": 12789,
    "asher": 15650,
    "Ġsimulation": 2750,
    "Ġbusily": 9387,
    "Ġbowing": 10476,
    "Ġthemselves": 3253,
    "trad": 21078,
    "Ġnone": 3225,
    "block": 11471,
    "Ġwatson": 3598,
    "Ġdistinct": 4609,
    "Ġconcoct": 19043,
    "Ġcolle": 8926,
    "Ġcandour": 14674,
    "Ġbawling": 25946,
    "grow": 10100,
    "Ġbrink": 18772,
    "Ġintelligent": 1443,
    "Ġsimilar": 4917,
    "dreaded": 25141,
    "Ġalong": 1981,
    "ingly": 2134,
    "Ġpartly": 6715,
    "Ġsounding": 8266,
    "meas": 7434,
    "Ġhistorical": 3646,
    "Ġacquisition": 18900,
    "Ġwaits": 23283,
    "shott": 11797,
    "injured": 15135,
    "Ġresented": 22548,
    "Ġringing": 13335,
    "Ġexplored": 23520,
    "safie": 20351,
    "Ġuppermost": 15281,
    "Ġgliding": 8564,
    "Ġalpha": 13591,
    "Ġhandsomer": 20336,
    "Ġbachelors": 24861,
    "Ġclust": 9276,
    "iating": 3208,
    "Ġscaled": 2105,
    "despairing": 25077,
    "Ġgiddy": 20500,
    "Ġbrimstone": 25687,
    "Ġperf": 12853,
    "Ġ60": 14877,
    "azing": 7706,
    "Ġwhispered": 5338,
    "Ġloite": 22116,
    "Ġmanxman": 9567,
    "urbed": 15713,
    "hos": 15366,
    "Ġusually": 6265,
    "Ġbubble": 13537,
    "viii": 12023,
    "Ġdifferently": 10390,
    "Ġspiteful": 19525,
    "suspect": 9542,
    "ersed": 10261,
    "abetical": 15747,
    "Ġwoven": 9928,
    "rew": 3649,
    "vanity": 24979,
    "Ġinvective": 26183,
    "Ġlegend": 14575,
    "Ġdaughters": 4421,
    "eleg": 20851,
    "Ġenveloping": 19736,
    "alogue": 25163,
    "Ġshop": 9254,
    "Ġcitadel": 25439,
    "Ġallusion": 7627,
    "Ġsavor": 23878,
    "Ġsculpt": 15951,
    "Ġhorn": 6187,
    "geneva": 13732,
    "Ġleaping": 8342,
    "Ġtwelfth": 22682,
    "Ġunluckily": 20105,
    "Ġframe": 1996,
    "theories": 18081,
    "Ġ72": 19614,
    "Ġupon": 721,
    "owing": 7603,
    "amount": 10885,
    "Ġcorrob": 16270,
    "Ġunivers": 2125,
    "âĢĶâĢĺ": 7015,
    "dishonourable": 26367,
    "Ġexchanging": 18143,
    "Ġprovoking": 16744,
    "Ġexperience": 1391,
    "Ġalcoves": 26487,
    "Ġclump": 15969,
    "icular": 2024,
    "Ġafterwards": 3532,
    "beaten": 20318,
    "ĠĠĠĠĠĠĠĠĠĠĠĠĠĠĠĠĠĠĠĠĠĠĠĠĠ": 24441,
    "Ġglens": 18855,
    "herself": 4890,
    "Ġdivinely": 25723,
    "Ġacknowled": 6352,
    "Ġeasterly": 25963,
    "Ġinserted": 8357,
    "att": 1456,
    "Ġdangerously": 23940,
    "grieved": 17319,
    "Ġotherwise": 4658,
    "Ġinsult": 6749,
    "Ġallusions": 10907,
    "Ġcurling": 9345,
    "viv": 17699,
    "mel": 9129,
    "Ġblending": 14402,
    "Ġsucked": 14139,
    "Ġdetaining": 25820,
    "who": 2446,
    "atives": 2235,
    "Ġsocially": 22089,
    "remains": 10400,
    "Ġliked": 5265,
    "Ġgrind": 18737,
    "Ġdetection": 3189,
    "Ġrom": 4525,
    "learning": 2476,
    "axed": 8891,
    "reve": 12543,
    ";--": 8070,
    "origin": 7583,
    "ignorance": 17163,
    "Ġmisgivings": 15294,
    "accepting": 20138,
    "Ġfatig": 6758,
    "Ġphenomena": 21488,
    "bling": 10684,
    "Ġwert": 12560,
    "Ġsnugness": 20080,
    "Ġinvaluable": 10184,
    "Ġalternating": 15032,
    "Ġrank": 6260,
    "Ġcedars": 20295,
    "Ġsepul": 14092,
    "Ġinmates": 15627,
    "Ġfoe": 7682,
    "Ġbeaut": 2394,
    "Ġsaving": 15890,
    "Ġfruit": 12329,
    "Ġprevail": 13445,
    "Ġwarm": 2427,
    "Ġguardianship": 17422,
    "Ġjackets": 19605,
    "Ġfacet": 15589,
    "Ġcurls": 22980,
    "Ġmarshal": 20222,
    "Ġkills": 15910,
    "Ġkitchen": 8498,
    "Ġphilistines": 26083,
    "Ġhinting": 19652,
    "Ġlac": 17967,
    "Ġcanst": 8860,
    "Ġticklish": 25037,
    "Ġruins": 16162,
    "ced": 743,
    "unhes": 21880,
    "cure": 11475,
    "Ġequal": 4131,
    "Ġreservoir": 20653,
    "Ġbestow": 6456,
    "Ġmurdering": 14813,
    "Ġmeal": 9699,
    "Ġcork": 12573,
    "finding": 17014,
    "Ġcomposing": 16074,
    "Ġsuccor": 25663,
    "hatherley": 17569,
    "Ġaccommod": 14216,
    "farintosh": 24552,
    "Ġtreasure": 9560,
    "voyages": 24856,
    "Ġirritated": 17243,
    "Ġbagging": 24538,
    "Ġconstrained": 19242,
    "Ġpleaded": 16302,
    "aunt": 8371,
    "Ġdreaded": 8290,
    "Ġinvisible": 7327,
    "Ġeaglet": 19307,
    "Ġgroping": 13668,
    "Ġholding": 4978,
    "noise": 14329,
    "Ġsolutions": 1948,
    "Ġproportionate": 17043,
    "Ġimmort": 19487,
    "âĢĿ;": 11671,
    "Ġmillions": 11355,
    "comfortable": 7320,
    "dress": 17521,
    "ivil": 6412,
    "Ġnerves": 2629,
    "Ġarabic": 24983,
    "Ġregion": 2271,
    "£": 101,
    "Ġdons": 17890,
    "Ġdive": 10174,
    "Ġstalk": 12701,
    "Ġobeisance": 19761,
    "overfitting": 13103,
    "Ġprejudice": 9077,
    "Ġcalendar": 18878,
    "ased": 1268,
    "reckoning": 25271,
    "Ġunheard": 22030,
    "Ġartful": 22614,
    "Ġwarden": 17226,
    "Ġsilly": 7688,
    "Ġsuggests": 12204,
    "Ġhung": 4560,
    "chairs": 21697,
    "Ġcrescent": 16141,
    "hauteur": 26392,
    "Ġconcluding": 9859,
    "Ġreceptive": 1563,
    "jol": 20927,
    "acy": 3952,
    "Ġstrained": 10220,
    "Ġrespectfully": 18995,
    "resolutions": 26165,
    "Ġmariner": 7247,
    "Ġclergy": 7644,
    "mpus": 13759,
    "Ġspeeding": 23566,
    "Ġswiftness": 9929,
    "Ġforcibly": 10063,
    "Ġdespaired": 14670,
    "Ġforbid": 7867,
    "unwholesome": 26498,
    "prepared": 13593,
    "Ġshirr": 18232,
    "Ġeye": 2281,
    "ppa": 10241,
    "Ġsensitive": 13202,
    "Ġtakes": 5006,
    "Ġcanall": 10929,
    "Ġadmission": 23558,
    "Ġpref": 14173,
    "Ġlung": 7168,
    "Ġkindness": 4093,
    "Ġworaciousness": 22933,
    "Å": 134,
    "Ġpiled": 8427,
    "Ġnowadays": 18547,
    "itan": 10161,
    "Ġgiven": 1629,
    "nowled": 5470,
    "orus": 10802,
    "Ġunharmed": 15142,
    "Ġconsent": 5372,
    "aware": 16298,
    "Ġtrades": 8233,
    "Ġlatitudes": 9498,
    "Ġcontract": 18476,
    "Ġcucumber": 21359,
    "disappointment": 11426,
    "Ġshuttle": 12130,
    "swept": 19789,
    "Ġprevailed": 7779,
    "Ġcrouching": 23443,
    "Ġstunsail": 25544,
    "Ġconsiderations": 9412,
    "propriety": 14369,
    "interred": 23738,
    "equ": 6791,
    "Ġcorrespond": 6211,
    "Ġmayhew": 12954,
    "Ġreflected": 2912,
    "fare": 7800,
    "Ġwickham": 2203,
    "Ġfronted": 23261,
    "Ġsplinters": 15105,
    "haut": 20904,
    "alice": 3210,
    "Ġstaid": 21740,
    "eches": 8079,
    "Ġkissed": 10047,
    "Ġaspire": 21905,
    "stamp": 21652,
    "Ġfavourite": 5271,
    "henomena": 20275,
    "Ġexceeded": 14435,
    "Ġlucas": 3830,
    "Ġsincerely": 7964,
    "Ġdeplored": 20508,
    "Ġpiercing": 13496,
    "Ġremo": 3784,
    "Ġcapture": 3384,
    "Ġspermaceti": 8969,
    "Ġpersist": 16290,
    "right": 2767,
    "Ġmainly": 22653,
    "gledy": 25404,
    "Ġgroup": 2038,
    "Ġbul": 3294,
    "Ġtoll": 7853,
    ":--": 5784,
    "Ġpredicts": 2597,
    "therefore": 5956,
    "ubl": 3596,
    "Ġgenerally": 4153,
    "Ġsallied": 12541,
    "Ġstraw": 9431,
    "violently": 23544,
    "Ġtis": 15468,
    "Ġwooded": 23522,
    "Ġalarmed": 6923,
    "Ġdens": 21428,
    "Ġrespectability": 14486,
    "Ġseats": 14091,
    "Ġhood": 10824,
    "Ġappeared": 2775,
    "Ġinexperience": 26100,
    "Ġglasses": 9477,
    "Ġdearly": 10403,
    "÷": 184,
    "Ġclaims": 13376,
    "Ġjacobian": 2896,
    "Ġopenly": 8576,
    "Ġinform": 1000,
    "Ġcoming": 2619,
    "acey": 7651,
    "Ġisrael": 21808,
    "Ġalan": 10870,
    "Ġlatent": 19658,
    "conclusions": 25673,
    "Ġdiscriminator": 3391,
    "hollow": 24043,
    "Ġai": 3128,
    "Ġagonising": 25374,
    "rus": 5932,
    "Ġpotential": 3620,
    "imperturbable": 25791,
    "various": 10399,
    "bedstead": 23935,
    "Ġguar": 23050,
    "Ġaberde": 22282,
    "circumstantial": 24443,
    "Ġsignals": 10587,
    "Ġessential": 7524,
    "Ġyoung": 1505,
    "Ġideas": 5494,
    "Ġrange": 9714,
    "ilder": 15717,
    "blazing": 24132,
    "approach": 24834,
    "pos": 15413,
    "morland": 24154,
    "Ġfiery": 6871,
    "tot": 10729,
    "Ġensure": 23690,
    "Ġabsorbed": 12334,
    "Ġprotection": 9464,
    "uy": 21102,
    "tains": 10963,
    "Ġdecently": 22442,
    "Ġtwitching": 25684,
    "Ġdidst": 11852,
    "Ġrad": 4961,
    "ival": 4221,
    "Ġwise": 6812,
    "itters": 10782,
    "res": 2758,
    "Ġsafely": 9027,
    "Ġensures": 3059,
    "Ġrepose": 6743,
    "Ġaye": 3353,
    "Ġsoothe": 7405,
    "Ġwreath": 25937,
    "ively": 1280,
    "Ġundertone": 23244,
    "Ġfill": 5701,
    "Ġtestimony": 14479,
    "okers": 18442,
    "Ġrepetition": 8974,
    "Ġcritical": 7475,
    "Ġhangs": 11608,
    "Ġsubs": 2129,
    "ounted": 5029,
    "Ġdate": 7842,
    "Ġpoltro": 23621,
    "Ġinvol": 990,
    "Ġireland": 17337,
    "Ġelegance": 11333,
    "Ġfrigid": 17354,
    "Ġmun": 12566,
    "Ġhen": 3503,
    "security": 26208,
    "Ġinsects": 25647,
    "mense": 4780,
    "confusion": 13373,
    "Ġhilarity": 20300,
    "Ġclass": 789,
    "pret": 7212,
    "Ġdramat": 23219,
    "Ġsunk": 5752,
    "Ġsemicircular": 26070,
    "Ġdropping": 7484,
    "Ġchase": 3941,
    "Ġcensure": 15098,
    "Ġhuzza": 12637,
    "Ġuncivilized": 25499,
    "appetite": 22852,
    "Ġappetites": 20209,
    "--âĢľ": 12976,
    "irements": 22222,
    "O": 51,
    "Ġcelerity": 17438,
    "repaid": 24490,
    "Ġcontextual": 3741,
    "cock": 12028,
    "asons": 6017,
    "Ġrussia": 26269,
    "impatient": 13643,
    "ocr": 10469,
    "Ġgreenwich": 19323,
    "Ġadam": 2126,
    "Ġmarlingspike": 26580,
    "Ġflush": 14426,
    "governed": 25406,
    "Ġled": 3522,
    "Ġsimultaneous": 22593,
    "arians": 18530,
    "Ġanticipated": 13513,
    "Ġimprecations": 25821,
    "vens": 21115,
    "Ġstepped": 7053,
    "Ġimply": 18445,
    "Ġlingered": 13507,
    "Ġdella": 21443,
    "uracy": 1151,
    "Ġunforgiving": 25996,
    "Ġform": 1025,
    "neighboring": 20620,
    "Č": 205,
    "Ġholds": 7977,
    "Ġtouched": 6003,
    "Ġfrenzy": 13625,
    "tr": 3581,
    "Ġgulp": 20032,
    "Ġlethar": 21751,
    "Ġjoke": 8871,
    "Ġunderwent": 23243,
    "Ġmuseum": 15274,
    "Ġenchantment": 24870,
    ";âĢĶ": 3748,
    "orne": 17874,
    "Ġsafie": 6620,
    "Ġdamp": 8265,
    "Ġcommendation": 13613,
    "cused": 15334,
    "Ġelements": 2667,
    "Ġoxen": 19954,
    "tap": 17677,
    "Ġinterference": 8897,
    "Ġveiled": 16204,
    "Ġfortresses": 23623,
    "domestic": 19828,
    "superiority": 20188,
    "Ġbarbaric": 10016,
    "than": 4085,
    "Ġneatness": 19935,
    "Ġwhy": 1760,
    "Ġmagnitudes": 3820,
    "Ġpallidness": 25605,
    "Ġrollicking": 24450,
    "Ġsighed": 10339,
    "convul": 24884,
    "Ġjack": 4653,
    "coward": 13703,
    "Ġpump": 12625,
    "Ġlandlessness": 23383,
    "Ġtackles": 8052,
    "Ġdi": 6526,
    "ster": 1960,
    "Ġimperfect": 13343,
    "Ġexceptionable": 25504,
    "Ġcab": 2635,
    "plicable": 10254,
    "ĝ": 222,
    "Ġdampening": 2899,
    "chel": 11208,
    "Ġamerican": 5060,
    "ć": 200,
    "useness": 22287,
    "Ġwarmer": 19188,
    "Ġswelling": 11928,
    "Ġmelbourne": 24290,
    "esting": 7412,
    "Ġinto": 648,
    "Ġhaven": 8477,
    "Ġconsecut": 18114,
    "Ġmarvel": 23037,
    "customary": 25896,
    "Ġconcepts": 4551,
    "relations": 14735,
    "Ġmeantime": 6208,
    "Ġgrimes": 11037,
    "Ġalmost": 1660,
    "Ġstride": 22617,
    "icism": 13958,
    "Ġfactory": 23281,
    "dischar": 19155,
    "Ġceremonious": 24838,
    "Ġslouched": 13063,
    "Ġfurniture": 6477,
    "Ġdisapprobation": 16062,
    "Ġmutual": 8298,
    "Ġfootfalls": 25867,
    "Ġpinched": 17035,
    "companies": 24895,
    "Ġunpitying": 25661,
    "!âĢĿâĢĶ": 8535,
    "ve": 322,
    "Ġindulgence": 11320,
    "Ġanswers": 7072,
    "onstr": 12550,
    "ping": 9617,
    "Ġdevious": 22720,
    "Ġarchly": 22788,
    "Ġcanal": 8183,
    "Ġsails": 5257,
    "Ġinheritance": 25356,
    "Ġresults": 7308,
    "wrapped": 15212,
    "Ġfeasible": 22221,
    "Ġnoisy": 13322,
    "orously": 8421,
    "Ġquarrelling": 13501,
    "fro": 8736,
    "henry": 16627,
    "Ġcoach": 6868,
    "Ġcontinued": 2927,
    "Ġgreater": 3042,
    "Ġknow": 632,
    "glim": 19368,
    "Ġkn": 4546,
    "Ġsolemnisation": 24114,
    "Ġnumber": 1983,
    "Ġconfession": 11236,
    "Ġfascinated": 25636,
    "Ġmoisture": 12362,
    "rium": 3133,
    "Ġportions": 19372,
    "Ġleeward": 6212,
    "Ġstops": 3167,
    "ĠĠĠĠĠĠĠĠĠĠĠĠĠĠĠĠĠĠĠĠĠĠĠĠĠĠĠĠĠĠĠĠĠĠĠĠĠĠĠĠĠĠĠĠĠĠĠĠĠĠĠĠĠĠĠĠĠĠĠĠ": 19262,
    "Ġtinged": 20086,
    "Ġrifled": 21984,
    "Ġsingular": 4423,
    "ources": 2789,
    "Ġic": 9627,
    "Ġcoefficient": 2887,
    "Ġcondense": 21813,
    "Ġdocuments": 10025,
    "petulance": 24300,
    "historical": 20469,
    "Ġgrasshopper": 24379,
    "Ġban": 7157,
    "Ġscenery": 11457,
    "Ġlaure": 16910,
    "Ġreliance": 14387,
    "Ġped": 7846,
    "Ġdestroyed": 5272,
    "Ġassoc": 6403,
    "¸": 121,
    "Ġdownstairs": 11225,
    "Ġreported": 11982,
    "Ġ43": 14771,
    "Ġme": 351,
    "des": 3173,
    "Ġlaunched": 14928,
    "eld": 972,
    "Ġdetermining": 14423,
    "Ġboomer": 20170,
    "Ġprofits": 16491,
    "Ġbernard": 20687,
    "uing": 17694,
    "Ġzones": 22823,
    "Ġpittance": 15621,
    "Ġforemast": 12008,
    "Ġrefinement": 18700,
    "whalers": 17265,
    "Ġdived": 9179,
    "Ġwharves": 13508,
    "generous": 16570,
    "Ġbeth": 9659,
    "tor": 15435,
    "unhesitatingly": 26497,
    "Ġwear": 6033,
    "type": 16179,
    "stein": 5505,
    "Ġattentively": 9952,
    "Ġpersonality": 16479,
    "Ġliberty": 7763,
    "unnecessary": 21885,
    "Ġinvited": 6903,
    "Ġturbulence": 26598,
    "ounts": 4652,
    "Ġmaria": 7126,
    "instead": 14815,
    "Ġimpediments": 26242,
    "Ġamply": 22487,
    "Ġfears": 5729,
    "Ġerroneous": 17411,
    "encing": 21285,
    "inions": 8404,
    "Ġtesting": 23220,
    "Ġharbour": 19983,
    "ns": 758,
    "elaborate": 21580,
    "Ġdivers": 9667,
    "Ġjustify": 11073,
    "Ġornament": 11723,
    "mists": 17605,
    "Ġarmed": 9262,
    "riv": 3110,
    "Ġsuggest": 5417,
    "Ġsanctioned": 26352,
    "ignorant": 13566,
    "chancing": 22921,
    "Ġshr": 4220,
    "hend": 13256,
    "Ġoperated": 14547,
    "pow": 10718,
    "rah": 8138,
    "Ġmix": 7578,
    "Ġtoast": 21516,
    "Ġpitiable": 9916,
    "cheeked": 19342,
    "Ġprouder": 18973,
    "Ġethiop": 26156,
    "Ġpil": 5013,
    "Ġbound": 3519,
    "condem": 16347,
    "Ġemptied": 24346,
    "Ġprosperity": 20260,
    "slackened": 26095,
    "trowsers": 17692,
    "Ġnorton": 12653,
    "Ġpenetration": 19919,
    "Ġdivulged": 16650,
    "Ġdisguise": 10048,
    "Ġungodly": 26514,
    "Ġparadise": 11196,
    "Ġblotting": 25314,
    "Ġpatient": 6892,
    "Ġgenus": 24428,
    "Ġplunged": 8696,
    "Ġdeductions": 19735,
    "Ġselect": 3995,
    "philosophers": 25253,
    "Ġturnpike": 23030,
    "Ġairy": 23319,
    "Ġundulating": 19520,
    "carbuncle": 26383,
    "remarks": 23193,
    "behind": 6780,
    "gather": 20877,
    "Ġcivility": 4788,
    "Ġdeity": 18136,
    "Ġunconditional": 15848,
    "preading": 18497,
    "overed": 2856,
    "Ġclink": 22350,
    "Ġwhimsical": 20431,
    "entreaties": 26187,
    "Ġbet": 1135,
    "Ġaid": 6124,
    "length": 7136,
    "Ġboone": 11843,
    "Ġindist": 14410,
    "Ġste": 1386,
    "Ġcommodores": 25375,
    "Ġcliffs": 15971,
    "Ġwalrus": 14975,
    "univers": 15776,
    "Ġdigging": 14940,
    "Ġpurch": 6601,
    "Ġhabit": 6772,
    "Ġstream": 5186,
    "Ġimprudent": 12852,
    "Ġshalt": 18231,
    "Ġacquired": 13048,
    "iature": 8745,
    "Ġstanzas": 21749,
    "arpening": 21447,
    "Ġdey": 11677,
    "Ġcomputing": 2218,
    "Ġshin": 18228,
    "ceptive": 15977,
    "Ġcustomary": 8673,
    "satisfied": 10580,
    "Ġisles": 8461,
    "Ġheadache": 22905,
    "mrs": 3743,
    "sk": 5521,
    "Ġavail": 11227,
    "Ġdesperately": 24657,
    "neys": 23584,
    "intu": 22937,
    "Ġowns": 22828,
    "Ġdictating": 20155,
    "Ġdisciple": 22786,
    "gam": 10097,
    "Ġprudent": 9187,
    "Ġperfectly": 3700,
    "fresh": 13395,
    "trees": 10732,
    "particularly": 8341,
    "occupations": 24969,
    "iling": 3095,
    "stolen": 13979,
    "Ġbeaufort": 13571,
    "Ġshoulder": 5849,
    "Ġrecumbent": 22740,
    "Ġcharged": 9856,
    "wil": 8769,
    "ity": 417,
    "contrad": 19294,
    "Ġtowns": 11174,
    "iac": 6227,
    "Ġtenderly": 11315,
    "Ġhush": 13214,
    "Ġslice": 23165,
    "Ġgenerations": 10967,
    "edily": 17946,
    "Ġimproved": 7658,
    "anning": 10166,
    "constantinople": 25508,
    "Ġsurvive": 9069,
    "Ġsubproblems": 12961,
    "Ġrevers": 21668,
    "bestow": 16930,
    "Ġ104": 24411,
    "some": 2234,
    "imental": 16536,
    "Ġindignity": 18834,
    "doc": 23379,
    "Ġexpands": 25238,
    "pen": 1202,
    "Ġinclemency": 22561,
    "Ġpalace": 16690,
    "Ġdefinite": 11070,
    "commod": 16172,
    "vapor": 25756,
    "Ġattorney": 18620,
    "arious": 10318,
    "Ġdevice": 1931,
    "Ġcivilities": 14850,
    "totally": 25418,
    "Ġpublicly": 13326,
    "hastening": 24447,
    "matters": 14876,
    "Ġairs": 14512,
    "try": 7813,
    "Ġappo": 8500,
    "Ġbridle": 24682,
    "Ġflooring": 23626,
    "bble": 17486,
    "road": 6679,
    "Ġoutline": 15958,
    "itty": 3555,
    "Ġrelevant": 1865,
    "Ġtaken": 2528,
    "onial": 11568,
    "Ġoverflowing": 17239,
    "Ġmagn": 1556,
    "Ġdug": 21434,
    "Ġwinc": 9644,
    "Ġpriv": 4178,
    "Ġclapham": 17267,
    "Ġarctic": 12816,
    "Ġsquare": 2397,
    "U": 57,
    "Ġrelieve": 8225,
    "uendoes": 26408,
    "Ġtrespass": 23602,
    "Ġancestry": 25642,
    "igns": 8449,
    "Ġaverted": 16256,
    "Ġauger": 21206,
    "coarse": 16489,
    "Ġcommerce": 11016,
    "female": 20669,
    "Ġhousemaid": 14467,
    "Ġawoke": 7286,
    "Ġslang": 23164,
    "Ġunresting": 25554,
    "Ġdec": 640,
    "cong": 10690,
    "iverse": 13119,
    "float": 19808,
    "Ġmassachusetts": 24025,
    "inaw": 21186,
    "Ġconceit": 7295,
    "pur": 7807,
    "mat": 2197,
    "erce": 6128,
    "Ġded": 2591,
    "coiled": 16488,
    "marriage": 7746,
    "Ġprep": 4187,
    "pemberley": 9622,
    "born": 7544,
    "vously": 23506,
    "Ġenlightened": 12750,
    "exped": 16526,
    "Ġnav": 5819,
    "Ġvile": 8475,
    "Ġscarlet": 13227,
    "combination": 25487,
    "Ġloudly": 7312,
    "beef": 18527,
    "Ġsleepless": 14583,
    "Ġmoving": 1680,
    "chose": 18043,
    "Ġlengthen": 15658,
    "countenance": 6925,
    "Ġchronicler": 20232,
    "unken": 10238,
    "Ġfairness": 9895,
    "nur": 11507,
    "Ġarches": 14164,
    "Ġprone": 18969,
    "Ġnich": 21524,
    "Ġcosmopolitan": 20643,
    "Ġreproached": 24892,
    "Ġfarewell": 9522,
    "Ġperilous": 7770,
    "bruary": 15238,
    "Ġparcel": 15202,
    "hoist": 23715,
    "book": 4670,
    "Ġscheme": 7066,
    "Ġpower": 1247,
    "Ġinhab": 5083,
    "Ġswarm": 23059,
    "Ġshadow": 5595,
    "requirements": 24858,
    "very": 497,
    "compliment": 11365,
    "Ġunravel": 26216,
    "Ġocc": 888,
    "Ġdecisive": 18485,
    "vices": 21119,
    "Ġkrus": 18350,
    "Ġdependencies": 2315,
    "utch": 21590,
    "ishmael": 18421,
    "airs": 2220,
    "Ġstubborn": 10415,
    "arned": 21822,
    "Ġjoists": 19235,
    "Ġobst": 6286,
    "Ġraising": 8912,
    "Ġbountiful": 25945,
    "Ġlace": 13951,
    "ook": 21006,
    "Ġyoke": 18098,
    "Ġdoubted": 7967,
    "example": 16017,
    "Ġdiscussing": 5202,
    "isite": 15567,
    "ogue": 9784,
    "Ġunseasonable": 26521,
    "swe": 5998,
    "again": 3398,
    "]": 65,
    "Ġstory": 2905,
    "ċ": 204,
    "ested": 3478,
    "Ġchecked": 9378,
    "Ġrhine": 12359,
    "merc": 19282,
    "Ġcontemplation": 11358,
    "Ġexercise": 8360,
    "Ġadequ": 10914,
    "somewhere": 12015,
    "Ġlot": 6680,
    "zors": 21150,
    "negro": 18489,
    "cup": 10693,
    "together": 3557,
    "Ġwide": 4104,
    "Ġunwarranted": 24831,
    "unnatural": 15777,
    "yourselves": 24961,
    "concl": 12874,
    "mass": 12493,
    "Ġreducing": 1957,
    "Ġespecially": 3932,
    "Ġentreated": 9953,
    "zar": 11549,
    "ptember": 10894,
    "agues": 8162,
    "downstairs": 23923,
    "rip": 9243,
    "Ġhatch": 7849,
    "etimes": 1989,
    "Ġerskine": 17434,
    "Ġepistle": 24905,
    "Ġworsh": 13004,
    "Ġmagical": 23103,
    "Ġswimmer": 19462,
    "Ġwooden": 4730,
    "Ġnearer": 5303,
    "nel": 11506,
    "Ġaccordance": 19501,
    "hot": 8085,
    "Ġunkindness": 22047,
    "whaling": 7901,
    "Ġfrightens": 24033,
    "requiem": 24857,
    "Ġroom": 1462,
    "Ġuncontrollable": 25815,
    "Ġreproof": 24891,
    "Ġfamed": 16329,
    "Ġpray": 3896,
    "inter": 2953,
    "cc": 474,
    "ĠĠĠĠĠĠĠĠĠĠĠĠĠĠĠĠĠĠĠĠĠĠĠĠĠĠ": 13391,
    "comprehensive": 20629,
    "Ġalarming": 14783,
    "Ġgives": 5017,
    "Ġe": 311,
    "Ġsummar": 3527,
    "Ġcruc": 16537,
    "Ġrenders": 13286,
    "Ġknowest": 12867,
    "Ġbriefly": 11368,
    "Ġstruggling": 12078,
    "ath": 862,
    "itted": 2442,
    "Ġenabling": 1080,
    "Ġejaculation": 20257,
    "Ġimpulsively": 24881,
    "sive": 4139,
    "Ġcatastrop": 3348,
    "Ġcranial": 25593,
    "plunging": 25988,
    "though": 2116,
    "exc": 5169,
    "Ġpeddling": 21486,
    "Ġundesired": 12783,
    "âĢĶâĢĻ": 8189,
    "Ġwigwam": 11429,
    "planks": 21957,
    "Ġgrave": 5100,
    "Ġsteeple": 19290,
    "aternity": 21268,
    "Ġtemptation": 8681,
    "Ġinstances": 5567,
    "Ġsanguinary": 25930,
    "Ġheadway": 18795,
    "feather": 16047,
    "Ġexisting": 12726,
    "cen": 17504,
    "Ġheading": 8936,
    "Ġintu": 12767,
    "Ġboil": 16109,
    "feeling": 6619,
    "del": 4072,
    "Ġcrisp": 12005,
    "Ġsponge": 26004,
    "Ġdestructive": 23488,
    "eg": 17530,
    "Ġtrifle": 10603,
    "orable": 8121,
    "Ġsockets": 22090,
    "Ġtoo": 1168,
    "itous": 13869,
    "repeat": 25155,
    "lust": 15382,
    "Ġwhites": 21721,
    "considerably": 13448,
    "abhorred": 17338,
    "Ġseating": 18202,
    "Ġhint": 5015,
    "rapidly": 15246,
    "ugues": 19023,
    "Ġrealise": 16341,
    "Ġprudential": 17922,
    "Ġautomatically": 4285,
    "Ġmarvell": 7248,
    "ittle": 813,
    "Ġissues": 9544,
    "Ġwrites": 23202,
    "aned": 5147,
    "etts": 12664,
    "Ġalternative": 19990,
    "Ġcourtiers": 24137,
    "bouton": 17503,
    "Ġthousands": 6750,
    "Ġslips": 23171,
    "Ġcorp": 5574,
    "Ġdecided": 5471,
    "Ġstartled": 7084,
    "Ġdepicting": 22602,
    "Ġreus": 8825,
    "Ġvapor": 8703,
    "Ġreluctant": 20528,
    "inces": 13830,
    "incess": 15485,
    "engagement": 14460,
    "increased": 20273,
    "Ġmagazine": 23104,
    "Ġtech": 1641,
    "Ġparagraph": 17456,
    "Ġraise": 6168,
    "Ġunfit": 14789,
    "goldsmith": 20150,
    "omb": 10208,
    "cring": 20813,
    "Ġpled": 17909,
    "meaning": 2911,
    "liter": 11503,
    "Ġforehead": 5262,
    "Ġribs": 7103,
    "orte": 14186,
    "Ġenvirons": 13189,
    "Ġtrees": 4198,
    "Ġcubic": 20091,
    "examined": 17268,
    "Ġrecesses": 17262,
    "Ġmaternal": 11060,
    "ense": 2052,
    "icher": 9204,
    "Ġecstasy": 11632,
    "Ġdeprived": 8211,
    "tim": 13793,
    "Ġannotations": 25955,
    "pass": 4288,
    "Ġdispersed": 16598,
    "Ġshaken": 10266,
    "gallery": 24694,
    "Ġswitching": 23062,
    "Ġdrenched": 12607,
    "Ġseal": 10258,
    "inal": 15483,
    "Ġcurvature": 3575,
    "Ġrallied": 14098,
    "Ġsolitude": 6876,
    "Ġcandle": 8293,
    "Ġseriously": 7063,
    "kept": 11721,
    "Ġcylinders": 25944,
    "nearest": 16026,
    "fering": 17543,
    "Ġdefy": 11900,
    "Ġdaboll": 25951,
    "poverty": 22913,
    "Ġevian": 24293,
    "Ġflog": 23625,
    "Ġoce": 3035,
    "Ġlamb": 8816,
    "Ġquick": 2582,
    "natured": 7112,
    "bowl": 14893,
    "display": 19158,
    "Ġsupported": 9820,
    "Ġfrederick": 15591,
    "dressed": 10696,
    "Ġreverber": 19871,
    "idled": 21773,
    "Ġexclaiming": 13644,
    "Ġreceipt": 20358,
    "Ġmirror": 12381,
    "earnest": 12402,
    "Ġconstraints": 2738,
    "ifies": 6688,
    "ruck": 6848,
    "Ġindeed": 1682,
    "Ġspaniard": 20366,
    "Ġcorridor": 10673,
    "oused": 6558,
    "wes": 17704,
    "Ġexclaimed": 4683,
    "ullo": 12733,
    "Ġlimber": 16481,
    "Ġstraggling": 23753,
    "olstad": 7613,
    "Ġjiff": 22301,
    "Ġsubsisting": 23437,
    "Ġyours": 4119,
    "Ġcastaway": 16642,
    "Ġanswered": 2854,
    "mastod": 23977,
    "represent": 9639,
    "Ġbal": 1132,
    "Ġflora": 11417,
    "progra": 9397,
    "Ġ]": 15462,
    "Ġeligible": 10672,
    "Ġseasons": 9433,
    "Ġnursery": 19753,
    "boy": 4738,
    "Ġchose": 7413,
    "ju": 13743,
    "Ġwhom": 1832,
    "Ġsophisticated": 1536,
    "dragged": 16609,
    "horr": 14600,
    "Ġslender": 11943,
    "Ġverily": 16604,
    "Ġfriday": 14489,
    "Ġhappens": 2187,
    "Ġalive": 4397,
    "Ġunfrequent": 24110,
    "½": 126,
    "Ġliking": 23593,
    "marked": 9050,
    "yder": 10140,
    "Ġscor": 8192,
    "Ġsalary": 13296,
    "Ġhollow": 5648,
    "Ġdeadliest": 14557,
    "sentence": 2944,
    "Ġbones": 4583,
    "Ġpatentee": 25587,
    "Ġservox": 23873,
    "Ġsteward": 6586,
    "Ġlying": 4826,
    "Ġclum": 8875,
    "04": 10681,
    "pigs": 17142,
    "Ġserving": 14487,
    "wor": 3415,
    "Ġevolved": 9893,
    "_?âĢĿ": 15308,
    "Ġ129": 24473,
    "Ġfrantic": 7958,
    "Ġjets": 10289,
    "Ġlofty": 6219,
    "retrospect": 23145,
    "Ġdeclare": 6617,
    "Ġroods": 22409,
    "arle": 21444,
    "Ġteasing": 11893,
    "Ġlistened": 4469,
    "ĥ": 230,
    "ware": 3931,
    "Ġstingy": 25456,
    "Ġspanish": 2827,
    "shook": 19858,
    "Ġsorrowful": 10538,
    "Ġgothic": 18002,
    "Ġsharpen": 13572,
    "match": 15393,
    "captains": 12131,
    "untary": 9869,
    "amouch": 21850,
    "ulates": 14057,
    "Ġgl": 1256,
    "rough": 589,
    "painful": 13504,
    "degrad": 22149,
    "Ġsuspicions": 9481,
    "Ġrecently": 11864,
    "Ġlongitudes": 22638,
    "Ġbored": 16110,
    "Ġnetherfield": 3927,
    "Ġapplications": 4783,
    "spirited": 19756,
    "week": 12935,
    "liament": 16221,
    "Ġtour": 9149,
    "utility": 21591,
    "quin": 21852,
    "mantel": 26395,
    "Ġessays": 19747,
    "Ġlurked": 11292,
    "haz": 17565,
    "stubb": 6020,
    "Ġannouncement": 14835,
    "law": 6117,
    "enough": 6810,
    "thence": 23403,
    "Ġinhabitant": 19758,
    "Ġcombined": 8551,
    "medi": 2631,
    "Ġassurance": 7776,
[...]
