{
  "metadata": {
    "vocab_size": 26613,
    "algorithm": "BPE",
    "created_at": "2026-07-21 05:19:22",
    "special_tokens": [
      "<PAD>",
      "<SOS>",
      "<EOS>",
      "<UNK>",
      "<MASK>"
    ]
  },
  "vocab": {
    "Ġstreams": 12190,
    "Ġlieuten": 13323,
    "Ġplan": 3881,
    "Ġknelt": 12156,
    "fort": 1750,
    "Ġwoodlands": 23520,
    "Ġfilling": 13405,
    "hemat": 3127,
    "Ġmermaids": 26168,
    "Ġromans": 16756,
    "caps": 20804,
    "Ġbars": 13892,
    "ripp": 6405,
    "ament": 2438,
    "berg": 11855,
    "dw": 3333,
    "qu": 367,
    "Ġshavings": 14104,
    "Ġdiving": 12596,
    "travellers": 24321,
    "Ġmuffled": 10640,
    "Ġpool": 5174,
    "Ġchasing": 11751,
    "Ġhatchway": 13520,
    "Ġripe": 13230,
    "abiding": 21787,
    "legged": 10466,
    "Ġaffecting": 2326,
    "Ġjustly": 11900,
    "Ġmoderately": 22211,
    "Ġcloser": 8660,
    "Ġblacksmiths": 19870,
    "ieve": 1654,
    "Ġsolomon": 11052,
    "Ġimbalance": 22168,
    "Ġtents": 13813,
    "shabb": 18485,
    "bons": 17484,
    "imen": 12680,
    "ered": 1681,
    "osy": 11755,
    "avoid": 9303,
    "Ġstriding": 16088,
    "Ġdumb": 7845,
    "Ġsays": 3562,
    "Ġ74": 24264,
    "Ġstraight": 3702,
    "Ġconsisting": 8971,
    "avenza": 17103,
    "Ġquiver": 15997,
    "arken": 18664,
    "blu": 12437,
    "regulated": 23468,
    "Ġwoe": 4794,
    "Ġsliding": 9361,
    "strade": 5066,
    "Ġoh": 2178,
    "Ġsketches": 26268,
    "Ġpursuers": 13221,
    "alous": 7373,
    "Ġleap": 5824,
    "Ġwest": 5220,
    "Ġhangs": 11604,
    "Ġregent": 18585,
    "pread": 7418,
    "Ġunderground": 18981,
    "Ġblend": 14393,
    "parad": 16390,
    "acific": 4961,
    "Ġlig": 21541,
    "ition": 655,
    "Ġphren": 8572,
    "Ġshells": 20359,
    "erted": 7362,
    "aston": 7408,
    "¹": 122,
    "Ġgums": 21605,
    "Ġreve": 2934,
    "athy": 14317,
    "watch": 6117,
    "Ġabated": 18387,
    "Ġstore": 8454,
    "lever": 2933,
    "Ġcordial": 16832,
    "Ġslo": 15501,
    "Ġlithe": 24668,
    "13": 20747,
    "Ġendeavors": 16543,
    "Ġdented": 17889,
    "Ġenchanting": 17038,
    "app": 1041,
    "Ġamiss": 18509,
    "discoloured": 23498,
    "Ġregions": 10323,
    "Ġbread": 5405,
    "Ġphysiology": 25331,
    "Ġapprehending": 26088,
    "Ġphotograph": 6302,
    "endar": 18361,
    "Ġbat": 10795,
    "Ġtendons": 19805,
    "Ġspirits": 3697,
    "animate": 12572,
    "aying": 15744,
    "Ġdrown": 6816,
    "Ġbased": 3339,
    "Ġcling": 11770,
    "Ġsuperlatively": 26073,
    "strip": 19827,
    "soldiers": 25909,
    "ientious": 11688,
    "promised": 12249,
    "Ġvac": 5026,
    "Ġcautious": 12251,
    "ĠĠĠĠĠĠĠĠĠĠĠĠĠĠĠĠĠĠĠĠĠĠĠĠĠĠĠĠĠĠĠĠĠĠĠĠĠĠĠĠĠĠĠĠ": 12151,
    "Ġsteadily": 8052,
    "leag": 21361,
    "pid": 1359,
    "tempt": 21074,
    "prosperity": 20732,
    "Ġterr": 3273,
    "Ġtypewriting": 16416,
    "Ġsoil": 9253,
    "comfort": 5648,
    "Ġperiods": 13299,
    "Ġserving": 14479,
    "Ġweave": 21914,
    "Ġcollege": 11424,
    "ically": 858,
    "Ġtrue": 1339,
    "ratulations": 20122,
    "agonies": 21903,
    "Ġscream": 5933,
    "Ġcommenting": 25226,
    "Ġbuy": 8300,
    "Ġlinks": 13949,
    "Ġconsecutive": 20699,
    "Ġbegg": 16250,
    "istan": 22102,
    "Ġgrimesby": 11457,
    "ality": 2511,
    "Ġgot": 2280,
    "persuaded": 15068,
    "Ġhesitate": 16943,
    "Ġtenth": 13820,
    "Ġprecipitous": 24836,
    "Ġcobbling": 20519,
    "owl": 12677,
    "Ġdocile": 19955,
    "Ġinviting": 19141,
    "igations": 18040,
    "Ġvalley": 5850,
    "adow": 18084,
    "Ġplaything": 19235,
    "empty": 23635,
    "Ġplane": 11820,
    "Ġactual": 3736,
    "Ġaddition": 1146,
    "crated": 16693,
    "buttons": 22394,
    "Ġauthors": 10417,
    "Ġbedroom": 7278,
    "Ġdictator": 20149,
    "declared": 15114,
    "ĠĠĠĠĠĠĠĠĠĠĠĠĠĠĠĠĠĠĠĠĠĠĠĠĠĠĠĠĠĠĠĠĠĠĠĠĠĠĠĠĠĠĠĠĠĠĠĠ": 7989,
    "Ġoperate": 19113,
    "sphere": 22728,
    "pless": 6260,
    "itories": 15542,
    "exagger": 22424,
    "Ġinspired": 2517,
    "oon": 6364,
    "Ġextremest": 19191,
    "Ġbelike": 18833,
    "Ġhanging": 5448,
    "bag": 7542,
    "Ġlizz": 21550,
    "carpenter": 11427,
    "Ġshop": 9250,
    "Ġdu": 4585,
    "Ġstigma": 25789,
    "Ġgradu": 15827,
    "Ġwilson": 6629,
    "Ġaudience": 24770,
    "Ġexpected": 3696,
    "Ġharpooning": 23978,
    "driver": 14916,
    "Ġtenderly": 11314,
    "Ġencourag": 1394,
    "Ġpresto": 22224,
    "Ġobliterated": 17402,
    "sheets": 14436,
    "Ġmainz": 22649,
    "Ġlike": 668,
    "jaw": 13738,
    "Ġhumour": 7932,
    "Ġchace": 14173,
    "Ġfoiled": 23239,
    "Ġsearching": 13159,
    "seeing": 7079,
    "Ġpry": 11598,
    "ppers": 7618,
    "Ġbows": 4083,
    "Ġbands": 14879,
    "Ġwedged": 24072,
    "type": 16171,
    "Ġprofits": 16485,
    "Ġgaiety": 16746,
    "Ġdundee": 16994,
    "Ġregarded": 5763,
    "voyages": 24856,
    "Ġblushed": 12996,
    "ixed": 4851,
    "iguous": 18041,
    "Ġimpass": 15980,
    "Ġstrait": 23751,
    "Ġpitch": 5768,
    "cial": 2647,
    "ending": 1987,
    "plexion": 14255,
    "Ġcomfortless": 23912,
    "Ġintrig": 21984,
    "quickly": 14957,
    "favourite": 15139,
    "Ġpallet": 21475,
    "Ġpeep": 6871,
    "Ġstick": 6024,
    "kindness": 10505,
    "Ġstealing": 18891,
    "ribution": 14301,
    "Ĕ": 213,
    "Ġacts": 2296,
    "footman": 17161,
    "Ġfigured": 16640,
    "Ġhysterical": 26090,
    "Ġbrawn": 10481,
    "Ġcreature": 2385,
    "Ġprobable": 5571,
    "Ġtherefore": 2239,
    "listen": 13509,
    "Ġpalpit": 16688,
    "Ġob": 861,
    "writhed": 26078,
    "Ġimitate": 14152,
    "Ġre": 317,
    "Ġhull": 5447,
    "Ġjewelled": 20179,
    "vels": 5433,
    "Ġregularity": 22766,
    "oves": 15398,
    "Ġwield": 21286,
    "Ġunseason": 22044,
    "Ġpatroness": 13505,
    "Ġdoing": 3661,
    "owards": 4595,
    "Ġadmeasurements": 26223,
    "Ġchoosing": 19587,
    "Ġuser": 15911,
    "backed": 9865,
    "delay": 16695,
    "maybe": 23990,
    "Ġconstruction": 9384,
    "ple": 455,
    "Ġgermans": 25782,
    "Ġprofoundest": 16857,
    "Ġmastery": 23992,
    "Ġappropriate": 2249,
    "Ġ221": 25067,
    "Ġtyrant": 24768,
    "Ġshoes": 7072,
    "Ġsquall": 7044,
    "Ġmales": 17803,
    "rons": 21034,
    "solemn": 19814,
    "Ġcultiv": 13551,
    "Ġrejected": 12291,
    "Ġeloquent": 16109,
    "Ġnormalizes": 1862,
    "Ġcrowned": 16838,
    "mock": 5175,
    "ruit": 22171,
    "Ġshouts": 19534,
    "Ġmere": 2714,
    "summit": 23417,
    "itchen": 7788,
    "Ġinsens": 8277,
    "Ġevidence": 5270,
    "Ġindelible": 25692,
    "ordingly": 18512,
    "Ġvexations": 24609,
    "writer": 14644,
    "ancing": 1759,
    "Ġmoth": 17800,
    "Ġacceptable": 16741,
    "Ġmolasses": 25626,
    "Ġlastly": 16200,
    "gates": 20869,
    "disagreeable": 11163,
    "Ġprophecy": 25704,
    "Ġabating": 22261,
    "Ġdiscerned": 25002,
    "ishes": 6523,
    "unity": 4151,
    "osed": 1960,
    "Ġtrowsers": 9626,
    "unwilling": 14055,
    "Ġtouch": 3394,
    "Ġimbib": 22169,
    "Ġgarnery": 17384,
    "idence": 4303,
    "matic": 4619,
    "Ġstripping": 23697,
    "ifferent": 4264,
    "extinguish": 22753,
    "europe": 20662,
    "Ġdistinct": 4610,
    "rom": 420,
    "event": 8077,
    "find": 6955,
    "charge": 9447,
    "acceler": 23599,
    "Ġsheet": 6262,
    "Ġunrecord": 16618,
    "lleg": 20946,
    "rested": 13070,
    "Ġbounce": 21388,
    "borean": 25741,
    "Ġsta": 18059,
    "zek": 16253,
    "onom": 9157,
    "Ġinstead": 2790,
    "Ġdigging": 14933,
    "Ġkate": 15900,
    "Ġcommands": 16586,
    "calmly": 20135,
    "sher": 5218,
    "ayed": 12706,
    "capting": 24040,
    "Ġlanyard": 26459,
    "naturedly": 24841,
    "frankly": 20018,
    "Ġworry": 18812,
    "Ġreplen": 11115,
    "Ġneutral": 12735,
    "tt": 13785,
    "Ġdig": 6135,
    "Ġsegmentation": 17337,
    "Ġkindling": 19026,
    "Ġawaiting": 11390,
    "Ġleads": 12093,
    "ĠĠĠĠĠĠĠĠĠĠĠĠĠĠĠĠĠĠĠĠĠĠĠĠĠ": 24445,
    "Ġv": 399,
    "Ġsafe": 5103,
    "narrow": 12304,
    "strength": 13969,
    "Ġmince": 22825,
    "lig": 3172,
    "Ġdisappeared": 5646,
    "elopement": 23179,
    "Ġevap": 19620,
    "ĠĠĠĠĠ": 3525,
    "sisters": 13373,
    "Ġsummary": 19399,
    "Ġhitting": 21481,
    "Ġunclad": 22046,
    "Ġgirl": 3085,
    "Ġbottled": 23796,
    "Ġgenerate": 1611,
    "glance": 16584,
    "Ġbranches": 6777,
    "Ġglimp": 6064,
    "Ġholiday": 12992,
    "Ġprecision": 13186,
    "Ġfring": 11127,
    "Ġdesires": 9456,
    "+": 15,
    "Ġcrest": 12935,
    "skull": 24491,
    "Ġhues": 21482,
    "Ġken": 22185,
    "Ġrefuge": 8542,
    "Ġ1950": 11359,
    "Ġweal": 21913,
    "Ġresources": 2938,
    "Ġvariance": 1169,
    "Ġsorry": 4212,
    "destined": 24116,
    "Ġriddle": 14814,
    "Ġmagn": 1555,
    "Ġentrances": 25832,
    "Ġlinen": 12404,
    "Ġalms": 21774,
    "Ġsod": 11560,
    "Ġlover": 7194,
    "life": 4933,
    "oundered": 14159,
    "Ġcrowds": 14734,
    "popular": 26138,
    ")âĢĶ": 20739,
    "Ġquestionable": 19263,
    "alog": 8805,
    "Ġdetermine": 3245,
    "Ġespe": 21151,
    "recl": 15505,
    "Ġpad": 8125,
    "Ġdiscernment": 15063,
    "geese": 22361,
    "possessed": 9526,
    "Ġeldest": 6571,
    "Ġbids": 24645,
    "Ġconfusing": 23307,
    "Ġdeep": 801,
    "Ġreaching": 7304,
    "month": 6463,
    "Ġwilds": 16505,
    "described": 18892,
    "Ġmississ": 18841,
    "prev": 12861,
    "feit": 16040,
    "bs": 3749,
    "Ġreiterating": 26473,
    "Ġtastes": 15472,
    "Ġsmiling": 5475,
    "Ġroses": 11783,
    "tisement": 6768,
    "ography": 13359,
    "Ġenraged": 10244,
    "Ġcandour": 14668,
    "ices": 2140,
    "bber": 4569,
    "Ġwhom": 1830,
    "Ġsuperfluous": 17411,
    "Ġcell": 6237,
    "Ġinanimate": 13928,
    "Ġzodiac": 16170,
    "measured": 19986,
    "mons": 17598,
    "Ġimposs": 16613,
    "Ġwomen": 4751,
    "rowing": 7442,
    "Ġfocused": 16336,
    "heartily": 24218,
    "swells": 26146,
    "offices": 19056,
    "Ġappend": 18357,
    "Ġbuffaloes": 25215,
    "wolf": 26407,
    "Ġvigorously": 11299,
    "pur": 7808,
    "Ġcister": 13877,
    "o": 83,
    "Ġinexpress": 12629,
    "Ġhelper": 24026,
    "Ġfam": 1586,
    "Ġconsort": 18720,
    "Ġtransport": 11278,
    "Ġbreath": 4792,
    "pivot": 21026,
    "Ġconfused": 7965,
    "Ġperempt": 13668,
    "Ġ15": 9322,
    "Ġconsidered": 4612,
    "hammered": 19000,
    "Ġcanal": 8182,
    "lass": 5991,
    "Ġexploit": 19159,
    "Ġsens": 1852,
    "urer": 18118,
    "ister": 1296,
    "Ġcandidates": 4334,
    "Ġcables": 15551,
    "Ġmerged": 19294,
    "cal": 1124,
    "iana": 7049,
    "ik": 17569,
    "Ġdisasters": 16048,
    "Ġbasin": 19845,
    "Ġanticipatingly": 26100,
    "Ġeels": 21614,
    "Ġmallet": 17808,
    "entieth": 17975,
    "completely": 12417,
    "Ġcustody": 13642,
    "pans": 13765,
    "Ġextra": 4053,
    "Ġgets": 10839,
    "Ġplainpal": 19275,
    "Ġhessian": 3549,
    "Ġemaciated": 20635,
    "Ġsickle": 24248,
    "leads": 21365,
    "icious": 7380,
    "Ġthinnest": 24185,
    "Ġfragments": 19069,
    "Ġspirit": 3723,
    "alse": 4186,
    "ifting": 6545,
    "Ġlayer": 1009,
    "rowed": 22855,
    "Ġvestibule": 13532,
    "Ġsavory": 23876,
    "pursued": 17280,
    "Ġunfavourable": 17414,
    "archangel": 18777,
    "Ġappropriated": 23485,
    "Ġsurrounds": 24234,
    "Ġri": 3393,
    "Ġblame": 6446,
    "Ġprocedures": 9411,
    "Ġchristians": 13304,
    "looks": 12015,
    "Ġhistor": 3389,
    "b": 70,
    "Ġforbearing": 25097,
    "opes": 10310,
    "appl": 9324,
    "Ġtongues": 14858,
    "que": 1147,
    "Ġdeft": 21831,
    "Ġful": 4298,
    "beaten": 20312,
    "Ġconveys": 16852,
    "Ġretribution": 16277,
    "Ġconsecrated": 26487,
    "Ġsports": 18305,
    "Ġchival": 14177,
    "Ġinfrequent": 3822,
    "Ġmean": 743,
    "Ġsuccor": 25660,
    "Ġhorrible": 4906,
    "Ġchips": 14176,
    "Ġrealising": 18979,
    "Ġmanilla": 15954,
    "Ġrepel": 23359,
    "Ġdetail": 636,
    "Ġrejo": 5914,
    "accessible": 13634,
    "Ġmistifying": 23720,
    "heredit": 21205,
    "Ġdecapitated": 20612,
    "Ġlabels": 3288,
    "crippled": 26382,
    "Ġdominic": 25380,
    "Ġbour": 4877,
    "aited": 12432,
    "Ġpassers": 18755,
    "Ġropes": 10748,
    "urous": 10212,
    "grinder": 23415,
    "Ġgoodness": 6057,
    "Ġtackle": 9512,
    "influence": 13573,
    "bour": 2074,
    "Ġdecap": 16019,
    "Ġgoblets": 20515,
    "verty": 8453,
    "Ġbeing": 1165,
    "Ġphrases": 2797,
    "Ġmedium": 16678,
    "erie": 21266,
    "Ġhindrance": 25218,
    "cess": 538,
    "========": 2313,
    "Ġmonomaniac": 9567,
    "Ġhopkins": 23126,
    "Ġtwinkle": 12321,
    "comes": 5395,
    "quaker": 15756,
    "Ġclosed": 4606,
    "ctu": 5088,
    "tiness": 21066,
    "battle": 12439,
    "indispensable": 14204,
    "quet": 6836,
    "Ġprotesting": 14736,
    "Ġcase": 1939,
    "delighted": 10562,
    "pay": 10718,
    "Ġsemicircle": 26065,
    "fra": 8375,
    "allet": 11083,
    "Ġwounds": 17788,
    "speckled": 23944,
    "Ġchowders": 18383,
    "Ġimm": 3964,
    "Ġcleaving": 23176,
    "Ġanat": 8124,
    "Ġshade": 6550,
    "blood": 7780,
    "sister": 5140,
    "ousings": 18332,
    "Ġintellect": 8170,
    "Ġloitered": 26524,
    "Ġpervers": 11780,
    "goodbye": 12053,
    "Ġthirst": 7590,
    "inqu": 6121,
    "Ġberg": 24539,
    "Ġspoiled": 11363,
    "Ġke": 1156,
    "Ġexpecting": 10436,
    "Ġflail": 23006,
    "illa": 12787,
    "osures": 22254,
    "@": 36,
    "Ġhailing": 11690,
    "Ġtout": 17717,
    "Ġpluck": 15607,
    "pregn": 18495,
    "Ġmarshy": 20215,
    "Ġconducting": 16646,
    "separation": 25224,
    "Ġwreck": 7315,
    "Ġce": 3031,
    "mical": 9128,
    "Ġoverthrow": 18423,
    "masters": 16831,
    "Ġpalm": 10513,
    "Ġcommunicative": 24551,
    "rah": 8137,
    "Ġcraggy": 23530,
    "-": 17,
    "Ġsurplus": 26301,
    "Ġparac": 12792,
    "gh": 3799,
    "Ġinspector": 6498,
    "Ġwrists": 11113,
    "irts": 9236,
    "ix": 1798,
    "Ġlifts": 25357,
    "Ġwhen": 514,
    "Ġundersampling": 19515,
    "Ġjest": 18400,
    "Ġamber": 7027,
    "Ġstrive": 23694,
    "ctic": 8442,
    "Ġcomple": 2842,
    "res": 2760,
    "Ġbush": 23336,
    "Ġbub": 8118,
    "enderby": 25213,
    "Ġterms": 2563,
    "ural": 503,
    "admire": 24942,
    "Ġquite": 1740,
    "Ġlevi": 3034,
    "story": 9211,
    "Ġwaxed": 21293,
    "Ġpawn": 12060,
    "disappearing": 23502,
    "Ġimpo": 3441,
    "Ġimmersed": 19481,
    "Ġscholar": 26109,
    "wouldn": 23536,
    "Ġunlo": 22004,
    "thrasher": 25656,
    "aid": 1921,
    "Ġprognost": 15277,
    "square": 15055,
    "Ġpretended": 19311,
    "Ġoily": 13859,
    "Ġunlucky": 10049,
    "full": 7420,
    "irty": 4047,
    "prior": 21027,
    "Ġdiscre": 2416,
    "Ġtheories": 13844,
    "anywhere": 14678,
    "Ġsymbols": 2796,
    "would": 2353,
    "Ġt": 261,
    "Ġcity": 4531,
    "Ġsteed": 13035,
    "Ġspeaks": 11159,
    "abond": 15735,
    "swing": 15424,
    "uctive": 17694,
    "Ġfert": 15575,
    "Ġintolerably": 15824,
    "Ġthenceforth": 25180,
    "Ġkneel": 14801,
    "failed": 20860,
    "Ġmock": 3691,
    "Ġmicrosc": 20673,
    "Ġstructures": 2720,
    "Ġshark": 5551,
    "Ġinvestigation": 9042,
    "Ġmasking": 2419,
    "Ġtransc": 12857,
    "agre": 18161,
    "Ġbrief": 6977,
    "bun": 12435,
    "Ġemploys": 19427,
    "Ġfundamentals": 14631,
    "impregnable": 26480,
    "tumult": 12420,
    "Ġy": 341,
    "Ġaright": 11737,
    "gast": 20868,
    "iled": 1765,
    "Ġcate": 4108,
    "Ġseconds": 16393,
    "extraordinary": 9094,
    "broker": 13300,
    "Ġanno": 9666,
    "bowsprit": 16850,
    "anations": 12571,
    "sych": 9886,
    "Ġguardsmen": 20627,
    "Ġtuples": 13473,
    "Ġsignificantly": 4519,
    "offing": 23332,
    "iger": 8447,
    "Ġreminds": 13427,
    "Ġsprung": 11248,
    "Ġbooks": 4677,
    "Ġdeduced": 12205,
    "Ġwantonly": 22891,
    "Ġturn": 1299,
    "received": 9637,
    "Ġprivate": 5346,
    "smug": 23907,
    "Ġbol": 6241,
    "Ġshaded": 14099,
    "frame": 17115,
    "ted": 791,
    "Ġopenness": 18953,
    "zetts": 17712,
    "Ġwast": 21854,
    "bweb": 20788,
    "Ġaccent": 10293,
    "Ġbiggest": 24569,
    "etwork": 440,
    "Ġgolden": 5337,
    "Ġavoid": 5200,
    "Ġerad": 25027,
    "sweetly": 25134,
    "Ġcasts": 19422,
    "altern": 17938,
    "Ġunfolded": 10638,
    "obviously": 25240,
    "Ġearthquake": 14624,
    "Ġassociations": 14958,
    "Ġincisive": 18567,
    "Ġdirectly": 2106,
    "iour": 4035,
    "Ġinsp": 2102,
    "Ġ550": 19638,
    "10": 17470,
    "Ġexplicit": 3589,
    "riptions": 14789,
    "Ġfossil": 12384,
    "Ġsubdiv": 16152,
    "Ġlads": 8597,
    "verize": 21722,
    "ribed": 7693,
    "jar": 17575,
    "Ġhurled": 10429,
    "Ġartistic": 18609,
    "Ġtyp": 1132,
    "adagrad": 9690,
    "ader": 14006,
    "unw": 14051,
    "Ġheedfully": 24524,
    "Ġconjured": 25098,
    "Ġslaughter": 20727,
    "Ġpalaces": 24092,
    "Ġconsecrate": 26488,
    "Ġecc": 11626,
    "Ġtops": 14582,
    "Ġworker": 23000,
    "ench": 21275,
    "Ġrebell": 21663,
    "Ġcannibals": 10587,
    "Ġterror": 5124,
    "Ġgrudge": 20690,
    "Ġsarat": 21223,
    "Ġvolume": 6770,
    "Ġhypocr": 19468,
    "Ġdo": 512,
    "Ġdeceit": 13477,
    "ome": 535,
    "Ġsmite": 22551,
    "Ġnephew": 6404,
    "Ġquote": 18463,
    "Ġproposed": 7461,
    "Ġcoincidences": 26361,
    "Ġdeceived": 6544,
    "Ġshalt": 18227,
    "Ġspiritual": 9929,
    "Ġegyptian": 13581,
    "Ġinvoking": 19143,
    "mother": 5481,
    "Ġcarpets": 18899,
    "hunters": 16830,
    "Ġmixing": 24933,
    "ě": 220,
    "leaves": 12573,
    "ivided": 22072,
    "Ġquarto": 17294,
    "Ġimprecate": 20514,
    "taught": 17682,
    "Ġcattle": 12567,
    "Ġhast": 3149,
    "coll": 23779,
    "ece": 17529,
    "Ġapr": 12527,
    "Ġpurport": 14577,
    "Ġwil": 4581,
    "Ġbarrens": 25500,
    "violets": 23544,
    "prehend": 14237,
    "Ġduodecimo": 16764,
    "Ġcells": 13880,
    "Ġdisgrace": 7215,
    "Ġweighed": 8711,
    "apidated": 22330,
    "Ġearls": 18900,
    "Ġpassions": 7931,
    "Ġsurmised": 24919,
    "Ġglobular": 19006,
    "Ġincant": 18565,
    "Ġwis": 3727,
    "source": 11524,
    "scot": 14410,
    "books": 8664,
    "Ġglories": 16235,
    "Ġerroneous": 17406,
    "Ġwed": 3959,
    "Ġduplicate": 17214,
    "Ġmeasuring": 22874,
    "Ġinvaders": 23481,
    "Ġdrawing": 3916,
    "expected": 5781,
    "in": 262,
    "þ": 191,
    "Ġalco": 21776,
    "Ġheav": 1850,
    "Ġillustrious": 17108,
    "Ġunintellig": 22018,
    "ractions": 11631,
    "he": 264,
    "leaning": 10790,
    "al": 292,
    "Ġswallowed": 7944,
    "forced": 11031,
    "Ġwound": 4529,
    "Ġdepending": 14288,
    "electricity": 26383,
    "Ġargue": 16780,
    "Ġsocket": 12783,
    "Ġpilot": 5983,
    "tstone": 21079,
    "Ġknots": 15005,
    "Ġmiserable": 3635,
    "itics": 13867,
    "boom": 18995,
    "message": 17369,
    "happily": 14652,
    "Ġboldness": 24431,
    "neg": 12859,
    "Ġvinegar": 20096,
    "Ġmatrix": 1606,
    "Ġstud": 1522,
    "Ġsuns": 23269,
    "Ġfragrant": 13102,
    "itz": 6004,
    "Ġcomplimented": 14899,
    "bitious": 16666,
    "Ġpantaloons": 20293,
    "Ġlinked": 15072,
    "savor": 25023,
    "Ġbrisk": 9802,
    "Ġ98": 24593,
    "Ġoriginally": 7305,
    "Ġthinkings": 22805,
    "obliv": 23092,
    "Ġtending": 17722,
    "Ġsoundings": 13130,
    "Ġvanity": 7046,
    "loun": 17586,
    "Ġphaeton": 17462,
    "pardon": 10064,
    "Ġpossess": 3204,
    "poling": 12217,
    "incing": 15480,
    "explained": 23137,
    "Ġhoe": 23351,
    "connection": 18865,
    "Ġdism": 9766,
    "Ġfountains": 13499,
    "ileries": 18055,
    "dl": 20820,
    "Ġholidays": 22917,
    "Ġprocedure": 2810,
    "appropri": 22836,
    "Ġglim": 9342,
    "solic": 16375,
    "ork": 415,
    "Ġtreacherous": 13549,
    "Ġshorter": 4498,
    "rusion": 11323,
    "Ġapprehensiveness": 16874,
    "Ġthanking": 18599,
    "Ġbitt": 10796,
    "Ġeager": 3571,
    "Ġtamer": 24975,
    "Ġcredit": 4818,
    "Ġourselves": 5128,
    "dutch": 17217,
    "Ġglorious": 11075,
    "oing": 15396,
    "Ġincurable": 22546,
    "Ġimply": 18440,
    "Ġcas": 8411,
    "Ġhowling": 8510,
    "Ġnorthern": 7266,
    "scorn": 22984,
    "ĠlinnÃ¦us": 15271,
    "Ġspasmod": 12411,
    "ash": 1990,
    "Ġmarchant": 14780,
    "Ġphyseter": 26585,
    "Ġrealise": 16332,
    "Ġtailed": 21164,
    "really": 6972,
    "visitor": 15053,
    "remembrance": 25700,
    "Ġassizes": 11108,
    "asets": 2311,
    "retrie": 18919,
    "Ġaffect": 1388,
    "attend": 11101,
    "commotion": 24913,
    "Ġrode": 15993,
    "mix": 20969,
    "tures": 21064,
    "Ġgourmand": 26464,
    "Ġavocation": 23952,
    "Ġtremble": 6907,
    "Ġphase": 14465,
    "Ġevenness": 22828,
    "Ġwake": 4750,
    "Ġenric": 21928,
    "aven": 8209,
    "nosed": 20987,
    "ellest": 21567,
    "Ġchagrin": 20604,
    "Ġdisappearance": 9295,
    "Ġcass": 13874,
    "Ġfailure": 13310,
    "Ġharry": 23275,
    "Ġconcentrated": 15078,
    "Ġtinker": 15127,
    "frightened": 17194,
    "Ġconference": 15741,
    "repid": 11563,
    "unwillingly": 21878,
    "Ġduc": 4698,
    "edmund": 17942,
    "Ġscaling": 3632,
    "Ġrenew": 6145,
    "Ġcontinuation": 22913,
    "scythes": 26400,
    "Ġhunts": 23153,
    "Ġconcre": 16382,
    "Ġslopes": 18937,
    "Ġstructure": 828,
    "ways": 1442,
    "aguy": 21904,
    "icates": 11615,
    "Ġcatching": 9477,
    "Ġstrokes": 16766,
    "Ġpressure": 13418,
    "value": 18798,
    "Ġinequal": 21490,
    "table": 5796,
    "Ġthankful": 14733,
    "Ġmanhood": 22320,
    "Ġeverlasting": 9335,
    "circumstantial": 24447,
    "Ġchas": 18376,
    "irted": 14065,
    "Ġcontrivance": 17182,
    "Ġincred": 5647,
    "Ġredoubled": 23754,
    "Ġmorris": 18846,
    "Ġamusements": 16910,
    "Ġphysi": 9987,
    "Ġpapered": 20127,
    "Ġmourning": 13474,
    "fs": 17533,
    "Ġsund": 8249,
    "Ġdupl": 9953,
    "Ġfloating": 6604,
    "flood": 19803,
    "Ġunlabeled": 3798,
    "Ġland": 1996,
    "Ġvestige": 20059,
    "ivering": 7698,
    "Ġfade": 21402,
    "Ġlate": 3376,
    "Ġadieus": 25110,
    "Ġthat": 335,
    "ances": 1337,
    "ope": 4124,
    "finished": 10554,
    "Ġvales": 21940,
    "thro": 12755,
    "utes": 5912,
    "Ġgirth": 13133,
    "Ġfault": 5703,
    "servant": 15032,
    "Ġtools": 11607,
    "Ġdon": 1614,
    "Ġconfine": 14504,
    "Ġexclamation": 8699,
    "Ġrestlessness": 23292,
    "Ġsar": 21209,
    "Ġpagan": 7118,
    "Ġnin": 10187,
    "Ġgash": 15665,
    "Ġlamentations": 17075,
    "Ġsher": 3762,
    "9": 29,
    "chet": 13213,
    "Ġfresh": 3670,
    "Ġmouse": 4695,
    "ezing": 10573,
    "Ġgushed": 21600,
    "Ġpanting": 11601,
    "aren": 10073,
    "Ġgamming": 25541,
    "chastic": 2336,
    "hack": 20892,
    "Ġhissed": 15783,
    "Ġrobins": 16243,
    "Ġstepfather": 7222,
    "Ġbale": 7840,
    "Ġnewly": 9336,
    "instrument": 15234,
    "astern": 8582,
    "Ġceased": 6468,
    "Ġcigar": 9543,
    "Ġprobed": 18729,
    "Ġtimbers": 14834,
    "post": 6060,
    "urns": 10213,
    ")âĢĶâĢľ": 20740,
    "achel": 7033,
    "âĢĶâĢĺ": 7014,
    "Ġmomentous": 16164,
    "untary": 9866,
    "ituted": 13868,
    "Ġerecting": 24652,
    "Ġsensit": 2947,
    "Ġasked": 2278,
    "undoubtedly": 13307,
    "Ġanalysis": 1915,
    "values": 4974,
    "Ġeternal": 5974,
    "fitted": 17542,
    "Ġabridged": 26539,
    "says": 13295,
    "Ġscript": 18395,
    "Ġsymbolize": 24959,
    "Ġcommon": 1416,
    "Ġapothe": 12372,
    "lake": 13744,
    "Ġvictim": 6096,
    "verity": 13995,
    "roar": 17949,
    "Ġstrongest": 11135,
    "unbidden": 21888,
    "pride": 11210,
    "Ġvineyards": 25105,
    "Ġhumbug": 18776,
    "Ġsecurely": 16799,
    "Ġyouth": 4263,
    "°": 113,
    "Ġicebergs": 23974,
    "Ġult": 9074,
    "Ġbecame": 2692,
    "Ġqueen": 3212,
    "Ġingenious": 12345,
    "Ġdirt": 15587,
    "uit": 8393,
    "Ġcapacious": 19173,
    "pe": 1438,
    "Ġprove": 5232,
    "Ġconsiderably": 7715,
    "directly": 13704,
    "Ġprepared": 5876,
    "pertaining": 22178,
    "Ġsallied": 12532,
    "Ġunex": 11710,
    "iber": 6506,
    "Ġbelong": 3885,
    "inform": 10143,
    "Ġasking": 5652,
    "Ġit": 339,
    "motion": 17604,
    "Ġowns": 22819,
    "Ġgrounded": 23712,
    "whip": 22231,
    "wealth": 22682,
    "Ġeyeing": 6460,
    "rador": 19156,
    "repeated": 12336,
    "âĢĿâĢĶ": 5722,
    "slipped": 25528,
    "Ġanalyzing": 18782,
    "Ġev": 4828,
    "toss": 22560,
    "Ġmisanthropic": 26559,
    "Ġmultiplicity": 19272,
    "until": 6596,
    "Ġboomer": 20163,
    "Ġmoles": 22428,
    "bewil": 22492,
    "Ġseverely": 14928,
    "followed": 8339,
    "Ġgrievous": 13256,
    "violence": 16474,
    "Ġdrowning": 19901,
    "Ġrelics": 16190,
    "Ġsupposition": 9816,
    "Ġcomput": 607,
    "Ġannihilation": 15161,
    "Ġfifteen": 6948,
    "Ġrabb": 4162,
    "Ġengravings": 15060,
    "strang": 11183,
    "Ġsting": 10861,
    "itiousness": 21329,
    "ibly": 2996,
    "rix": 1575,
    "Ġincluding": 2848,
    "Ġrampart": 20315,
    "dream": 8728,
    "wearing": 22681,
    "ild": 1155,
    "Ġimagine": 3922,
    "intended": 11066,
    "Ġsobbing": 14131,
    "Ġobjective": 3764,
    "Ġembarkation": 25123,
    "cular": 15323,
    "altering": 12634,
    "Ġimpud": 18441,
    "Ġbald": 16201,
    "Ġrecollection": 6620,
    "ascending": 24707,
    "Ġsuspending": 19241,
    "umbers": 10918,
    "Ġdoings": 18373,
    "Ġsnoo": 21224,
    "stave": 21637,
    "Ġrods": 9753,
    "Ġhabitation": 14797,
    "Ġcost": 2505,
    "Ġinvoluntary": 18752,
    "grees": 20883,
    "umbling": 6759,
    "Ġthack": 21510,
    "threatened": 25461,
    "spirits": 8055,
    "Ġfurniture": 6476,
    "apothe": 22328,
    "Ġplaster": 16078,
    "shish": 11790,
    "Ġreefed": 20299,
    "Ġelbow": 12915,
    "twenty": 6607,
    "Ġclubb": 22355,
    "date": 17515,
    "far": 5788,
    "Ġforb": 11661,
    "Ġthro": 5817,
    "Ġsulphur": 24932,
    "Ġcalendar": 18873,
    "Ġimputable": 22167,
    "rences": 9270,
    "Ġunwillingly": 15843,
    "prodig": 16422,
    "Ġsenses": 8252,
    "Ġunworth": 22028,
    "oil": 7807,
    "Ġbun": 6005,
    "amed": 4448,
    "Ġchoking": 15929,
    "Ġrather": 1492,
    "Ġohio": 19126,
    "Ġraptures": 13492,
    "Ġ61": 24367,
    "Ġconfound": 23304,
    "Ġmichael": 20676,
    "Ġspermaceti": 8967,
    "irmed": 9237,
    "Ġlowerings": 23647,
    "ry": 808,
    "endent": 15917,
    "Ġworshipped": 25689,
    "fere": 10989,
    "oar": 12493,
    "Ġcrept": 11021,
    "Ġabject": 18388,
    "Ġhapp": 1091,
    "olera": 21820,
    "eks": 4729,
    "access": 11180,
    "Ġarmchair": 8271,
    "quently": 9701,
    "Ġsallies": 21225,
    "utherland": 9577,
    "fact": 6358,
    "_,": 2799,
    "Ġcinque": 20482,
    "brated": 12024,
    "Ġgeomet": 3190,
    "itive": 6669,
    "Ġconvenience": 11331,
    "Ġdepresses": 25795,
    "Ġknowingly": 18479,
    "âĢĶ.âĢĿ": 22249,
    "Ġinquir": 4244,
    "Ġsmiting": 12892,
    "ą": 198,
    "Ġreward": 6144,
    "Ġintricate": 15133,
    "Ġbitter": 4175,
    "greatly": 16620,
    "iature": 8742,
    "Ġeffect": 971,
    "standard": 22421,
    "Ġdesolation": 12266,
    "Ġcarved": 7947,
    "Ġknives": 14832,
    "Ġabreast": 18391,
    "entrance": 12651,
    "Ġrelationships": 2926,
    "fiercely": 25254,
    "puted": 8845,
    "affairs": 14651,
    "Ġwhirl": 13445,
    "wont": 21127,
    "Ġpictures": 5504,
    "conscientious": 19623,
    "ascar": 8435,
    "ounders": 22387,
    "Ġdistur": 5313,
    "anel": 21352,
    "Ġnuptial": 25780,
    "fluke": 25202,
    "Ġclothed": 19603,
    "Ġhoard": 23352,
    "ĠâĢĶâĢĶ": 25755,
    "near": 5842,
    "province": 26070,
    "Ġmalicious": 10557,
    "Ġsecrecy": 7317,
    "Ġsuperlative": 26072,
    "captains": 12124,
    "Ġperished": 11781,
    "Ġenormousness": 24518,
    "motives": 26135,
    "Ġsir": 1571,
    "Ġfaults": 12210,
    "Ġdevices": 2942,
    "behold": 12871,
    "Ġquakers": 22410,
    "Ġvag": 9707,
    "baron": 24795,
    "Ġsweetly": 23918,
    "pendicular": 6499,
    "Ġtrivial": 10142,
    "linked": 17591,
    "Ġguise": 14426,
    "Ġpaunch": 23750,
    "Ġlibrary": 6423,
    "Ġple": 1469,
    "Ġbuying": 23995,
    "safety": 20345,
    "Ġmand": 21300,
    "charlotte": 6473,
    "lested": 14878,
    "Ġvoids": 25805,
    "Ġsplice": 19306,
    "ogrand": 26259,
    "princip": 17135,
    "deliberated": 26116,
    "Ġloomed": 12298,
    "asiness": 8129,
    "Ġindirect": 18838,
    "ailing": 7022,
    "ceiving": 3901,
    "iii": 14769,
    "Ġpikes": 21472,
    "Ġexposing": 11831,
    "Ġcalms": 23038,
    "surv": 24216,
    "prehensible": 12357,
    "Ġannounced": 9034,
    "showing": 22445,
    "Ġunjustly": 17125,
    "pth": 2383,
    "Ġimpassable": 20609,
    "pen": 1203,
    "justice": 7958,
    "Ġdiscrete": 2474,
    "Ġsain": 17748,
    "Ġforenoon": 19124,
    "derness": 11733,
    "Ġredress": 23753,
    "Ġbatch": 890,
    "Ġcurric": 22945,
    "mysteries": 26049,
    "asc": 6386,
    "Ġapril": 13657,
    "wife": 8101,
    "tooth": 18576,
    "Ġbaling": 17857,
    "Ġseclusion": 18205,
    "Ġupd": 945,
    "opposing": 24826,
    "proceeded": 25188,
    "Ġwhistles": 24624,
    "bes": 6641,
    "otted": 14018,
    "Ġpunctil": 20110,
    "Ġwithhold": 18112,
    "Ġdromed": 15590,
    "Ġfoolscap": 24160,
    "forward": 2193,
    "Ġvine": 8472,
    "extent": 22750,
    "Ġheathen": 10565,
    "Ġinev": 10181,
    "Ġburnished": 23997,
    "fields": 14648,
    "Ġaltar": 9227,
    "lant": 20942,
    "Ġbrotherly": 16524,
    "arers": 12126,
    "Ġsummits": 14679,
    "Ġthreads": 13114,
    "ernsey": 8903,
    "Ġblasphemer": 26114,
    "companies": 24895,
    "Ġhumble": 8552,
    "parlour": 16392,
    "Ġ59": 24330,
    "Ġperiod": 4002,
    "Ġgovernment": 15172,
    "Ġforlorn": 14009,
    "Ġattraction": 18614,
    "Ġblades": 11892,
    "Ġhalls": 19522,
    "Ġmethodology": 2377,
    "J": 46,
    "Ġvigil": 9506,
    "ushing": 5732,
    "Ġcarving": 14437,
    "Ġcandidate": 16698,
    "usual": 5841,
    "desire": 14469,
    "iety": 2819,
    "Ġunfaltering": 24114,
    ".;": 20741,
    "wait": 11320,
    "Ġfab": 15569,
    "yth": 979,
    "Ġflood": 7716,
    "smoke": 17221,
    "Ġinnermost": 12158,
    "brothers": 17023,
    "Ġpals": 13914,
    "Ġtelegra": 11889,
    "Ġmethinks": 10390,
    "Ġdisembow": 22531,
    "uendoes": 26405,
    "Ġwilliam": 3480,
    "Ġafford": 4366,
    "arm": 1355,
    "gans": 11489,
    "Ġlowered": 6736,
    "Ġclaims": 13370,
    "Ġstreets": 5863,
    "lik": 3914,
    "iar": 2380,
    "Ġinstigated": 18695,
    "medical": 23340,
    "reclining": 20571,
    "Ġperseverance": 13592,
    "Ġgigantic": 5913,
    "inspect": 11557,
    "Ġwow": 15523,
    "Ġmillar": 13856,
    "Ġsm": 704,
    "Ġproceedings": 9906,
    "preference": 22460,
    "Ġdre": 1744,
    "Ġcl": 557,
    "Ġprocure": 9509,
    "bore": 13681,
    "Ġsolic": 7933,
    "aments": 12720,
    "Ġes": 8769,
    "childhood": 16865,
    "Ġexhibit": 14951,
    "streets": 13392,
    "Ġdimin": 3871,
    "reading": 12076,
    "collect": 16560,
    "Ġstarvation": 19788,
    "Ġtypically": 1534,
    "Ġeffaced": 18525,
    "Ġobsc": 7040,
    "Ġgruff": 21608,
    "Ġdecency": 18486,
    "bos": 17481,
    "Ġsust": 7007,
    "Ġtor": 8106,
    "Ġcaw": 13878,
    "gish": 20870,
    "Ġsledge": 8111,
    "Ġstrangeness": 16704,
    "legs": 13179,
    "Ġindignity": 18836,
    "Ġstile": 21726,
    "cring": 20808,
    "rin": 10121,
    "ern": 773,
    "dissatisf": 26127,
    "contents": 12055,
    "Ġconfeder": 25706,
    "atha": 6572,
    "Ġpropriet": 9548,
    "Ġclaim": 5106,
    "Ġsolemnly": 8024,
    "Ġcomposition": 1685,
    "Ġvalue": 2087,
    "Ġdiscovering": 13354,
    "won": 7145,
    "Ġrender": 8305,
    "overed": 2854,
    "âĢĶâĢľ": 2972,
    "Ġamendment": 26022,
    "ates": 519,
    "Ġcounterpane": 11343,
    "Ġmusket": 12293,
    "this": 1440,
    "Ġausten": 5880,
    "Ġscreaming": 13419,
    "Ġishmael": 7395,
    "Ġlieu": 19561,
    "Ġordin": 16647,
    "Ġphilosoph": 19648,
    "Ġoutlandish": 12832,
    "Ġforwards": 12697,
    "daggoo": 13702,
    "oth": 1185,
    "Ġcalves": 13029,
    "ld": 385,
    "Ġemblematical": 25786,
    "please": 8177,
    "Ġunwillingness": 20028,
    "oars": 9613,
    "lab": 3455,
    "arious": 10316,
    "Ġthank": 3790,
    "Ġflowed": 10371,
    "Ġmaiden": 13383,
    "Ġdrawled": 23988,
    "Ġhyp": 3872,
    "ather": 741,
    "gress": 2214,
    "ord": 666,
    "Ġfinding": 3265,
    "Ġcounteracted": 19859,
    "Ġfrighten": 13273,
    ");": 7331,
    "dor": 12448,
    "Ġsenseless": 12075,
    "Ġwharf": 9558,
    "Ġris": 4887,
    "mouse": 15387,
    "Ġpleasure": 2695,
    "change": 6392,
    "Ġwond": 3937,
    "impregn": 21708,
    "Ġ47": 14766,
    "Ġslammed": 20444,
    "gyric": 19107,
    "Ġfearfully": 23511,
    "Ġspurn": 18304,
    "Ġsympt": 7013,
    "Ġgrasshopper": 24383,
    "Ġcomplying": 18581,
    "Ġevangelical": 25505,
    "scornful": 26574,
    "Ġyields": 19653,
    "Ġgetting": 4063,
    "Ġseren": 7401,
    "Ġlight": 1701,
    "Ġprocured": 8677,
    "Ġabominable": 12320,
    "particular": 5758,
    "ulgent": 18146,
    "Ġimper": 4501,
    "gings": 7549,
    "der": 465,
    "Ġlandowner": 23381,
    "Ġdynamically": 4178,
    "Ġdives": 17888,
    "abulary": 4801,
    "willingness": 24755,
    "Ġhammered": 13235,
    "kish": 20929,
    "Ġlearned": 2022,
    "aviour": 11004,
    "Ġmaids": 19688,
    "decoder": 3645,
    "erve": 12544,
    "Ġwildest": 16506,
    "stands": 22420,
    "20": 20750,
    "sailors": 9921,
    "horrible": 14596,
    "Ġdegraded": 19223,
    "Ġthre": 2059,
    "irious": 15780,
    "interest": 5422,
    "Ġshank": 21991,
    "utmost": 21581,
    "Ġclaw": 22354,
    "Ġunrem": 18241,
    "claim": 9834,
    "Ġirreduc": 5492,
    "Ġax": 7824,
    "Ġolfactories": 26169,
    "Ġindefinite": 17175,
    "rule": 15889,
    "Ġparameters": 989,
    "Ġtests": 8956,
    "countless": 24152,
    "Ġanne": 1527,
    "Ġcub": 8414,
    "Ġembracing": 14975,
    "iastic": 12476,
    "contemplated": 20455,
    "Ġhaste": 9003,
    "ois": 9134,
    "Á": 130,
    "constable": 24605,
    "Ġcake": 12565,
    "Ġsend": 4106,
    "themselves": 6540,
    "impl": 21701,
    "Ġdisposing": 19371,
    "Ġoverlapping": 26236,
    "Ġfrosty": 14930,
    "azore": 23463,
    "Ġbrit": 6289,
    "cement": 3005,
    "Ġtawny": 20478,
    "Ġvengeance": 5884,
    "Ġbelieves": 14403,
    "Ġsolar": 22879,
    "Ġgross": 11623,
    "Ġburied": 7719,
    "oot": 13760,
    "Ġjoist": 19228,
    "Ġplunder": 22597,
    "egyptians": 25896,
    "myself": 5113,
    "Ġenabling": 1080,
    "Ġpresent": 1638,
    "Ġinnocence": 6477,
    "Ġball": 3624,
    "Ġwallowed": 24043,
    "Ġeyelids": 26105,
    "Ġauthentic": 20532,
    "obser": 11100,
    "Ġatlantic": 7001,
    "O": 51,
    "Ġoccurs": 1856,
    "Ġheel": 9683,
    "Ġphyset": 23197,
    "ï": 176,
    "Ġhurling": 19108,
    "Ġsisterly": 16297,
    "Ġsufficient": 2002,
    "orph": 21394,
    "given": 8377,
    "su": 800,
    "Ġunkindness": 22034,
    "Ġranks": 21966,
    "Ġretire": 10381,
    "cra": 6354,
    "Ġentered": 2846,
    "Ġacting": 10991,
    "coun": 10686,
    "Ġboa": 22629,
    "consider": 6348,
    "Ġoaks": 16930,
    "onde": 21247,
    "Ġkra": 18345,
    "uing": 17691,
    "les": 1014,
    "avering": 24794,
    "Ġnewcomers": 26039,
    "orious": 6006,
    "sleep": 6511,
    "Ġwhisky": 23933,
    "Ġbraved": 23837,
    "carp": 9109,
    "chariot": 26478,
    "quarrel": 20011,
    "Ġexter": 7397,
    "Ġmagnetic": 17239,
    "atives": 2236,
    "Ġthreatened": 8330,
    "Ġexasperated": 11412,
    "Ġtem": 806,
    "ignominious": 26586,
    "sole": 6168,
    "Ġbitterly": 8315,
    "descried": 11926,
    "Ġchanges": 2286,
    "chapter": 1405,
    "spout": 7924,
    "Ġfixedly": 19245,
    "twice": 14617,
    "idirectional": 2420,
    "Ġgardiner": 3238,
    "left": 6976,
    "ought": 830,
    "relu": 17757,
    "Ġthirdly": 24144,
    "Ġrighteous": 18942,
    "gentlemanlike": 19998,
    "Ġrug": 16150,
    "ificial": 613,
    "Ġinfallible": 15065,
    "factories": 19840,
    "true": 2585,
    "subst": 12162,
    "Ġstream": 5187,
    "ade": 880,
    "Ġopen": 1550,
    "Ġdolph": 12377,
    "Ġthousands": 6749,
    "Ġdelivered": 11116,
    "woods": 13415,
    "Ġfinanc": 23124,
    "lovely": 16039,
    "Ġenrolled": 21931,
    "Ġarguing": 25469,
    "Ġfactor": 19008,
    "Ġpossesses": 19348,
    "sust": 15417,
    "inferences": 17737,
    "Ġthreats": 13374,
    "Ġperpetual": 12300,
    "exped": 16520,
    "Ġoccup": 3738,
    ",âĢĻâĢĶ": 23528,
    "Ġunfortunately": 10909,
    "civilized": 17073,
    "Ġaugment": 8692,
    "Ġprair": 7747,
    "angs": 5834,
    "Ġwrapping": 19772,
    "Ġfallen": 5966,
    "Ġcitizens": 25438,
    "Ġmilan": 19532,
    "affection": 7488,
    "Ġgros": 14817,
    "ilet": 12823,
    "dued": 7910,
    "Ġreducing": 1957,
    "threshold": 21981,
    "Ġpleasantly": 14515,
    "i": 77,
    "Ġantiquity": 15226,
    "frequented": 25898,
    "Ġtablet": 19201,
    "circuit": 24190,
    "Ġsmoke": 4716,
    "Ġuncomp": 15836,
    "Ġiroqu": 21618,
    "Ġsmelt": 16060,
    "Ġcanoe": 9722,
    "Ġundertaking": 8574,
    "Ġbambooz": 26117,
    "entire": 6825,
    "Ġ106": 24417,
    "aton": 21254,
    "endeavoured": 12278,
    "Ġling": 7377,
    "Ġoverhear": 15964,
    "Ġpaw": 12614,
    "Ġassur": 6072,
    "contrad": 19289,
    "Ġconsole": 8151,
    "Ġfoundering": 21414,
    "Ġsaluted": 14753,
    "inent": 9627,
    "employed": 17260,
    "devouring": 24949,
    "enty": 2917,
    "Ġtawn": 13818,
    "Ġspine": 7407,
    "oy": 1015,
    "momentum": 4992,
    "Ġquadrant": 11404,
    "Ġredeemed": 25787,
    "Ġpencil": 11940,
    "ober": 15401,
    "hurt": 19875,
    "Ġunembarrassed": 22061,
    "Ġbishop": 13897,
    "vineyard": 25420,
    "Ġclinched": 17391,
    "Ġaffront": 18785,
    "Ġbleak": 10558,
    "Ġaglow": 22508,
    "iza": 6255,
    "Ġmechanisms": 1577,
    "Ġpicturesque": 14889,
    "plexy": 18572,
    "Ġcharming": 6628,
    "clu": 20796,
    "Ġanimation": 11152,
    "Ġmainly": 22650,
    "warning": 25530,
    "Ġrefrained": 14339,
    "Ġimprinted": 22383,
    "uniform": 18154,
    "Ġgentlemanly": 19313,
    "Ġpipes": 9850,
    "Ġregularly": 7658,
    "Ġrecovering": 11861,
    ")(": 2982,
    "lad": 5990,
    "Ġalter": 6542,
    "Ġverse": 16599,
    "Ġcommunic": 5752,
    "Ġexterm": 21824,
    "Ġrudder": 25107,
    "Ġchoose": 5980,
    "waves": 10742,
    "Ġvia": 2384,
    "Ġreplied": 2264,
    "Ġdisturb": 7108,
    "heum": 17745,
    "Ġunspeakable": 10055,
    "lover": 18534,
    "believing": 19458,
    "Ġunconditional": 15839,
    "Ġadmon": 15863,
    "Ġnecessary": 4473,
    "Ġmeddle": 19488,
    "vard": 21105,
    "Ġcoding": 8116,
    "Ġmeridians": 17353,
    "Ġsubstantial": 14804,
    "Ġheaths": 25970,
    "sensibility": 25022,
    "Ġlabours": 8583,
    "voyage": 7786,
    "Ġinterpreter": 23212,
    "Ġprovision": 14819,
    "Ġcomputing": 2220,
    "Ġvint": 18191,
    "tempest": 16956,
    "Ġforge": 8457,
    "sunlight": 24852,
    "chess": 16570,
    "kee": 18270,
    "sin": 21043,
    "dun": 17514,
    "Ġbewildered": 15209,
    "Ġstands": 5259,
    "naught": 20989,
    "relate": 24010,
    "(": 12,
    "Ġubiquitous": 26193,
    "ivened": 22965,
    "frequently": 9978,
    "Ġsloping": 11936,
    "retaining": 21241,
    "ĠĠ": 352,
    "breat": 10077,
    "Ġsatire": 22896,
    "Ġdigress": 24648,
    "loaded": 22504,
    "Ġwides": 17786,
    "Ġaud": 6662,
    "ing": 273,
    "down": 3467,
    "forbidding": 25835,
    "Ġrepelled": 19081,
    "intu": 22928,
    "Ġconsc": 4276,
    "Ġrays": 10329,
    "Ġtreating": 4285,
    "Ġcatastrophic": 3542,
    "Ġbethink": 12376,
    "Ġprotecting": 24686,
    "Ġoptimize": 1565,
    "regret": 16447,
    "D": 40,
    "confirmation": 26087,
    "Ġlain": 17958,
    "Ġdescending": 8904,
    "Ġradiance": 13367,
    "Ġexplanations": 15905,
    "Ġsensations": 5260,
    "Ġexist": 9230,
    "Ġempty": 5354,
    "Ġdefe": 21830,
    "Ġimpartial": 15215,
    "Ġsgd": 3128,
    "Ġweakened": 16819,
    "Ġfierc": 18708,
    "Ġfelicity": 7261,
    "Ġkrempe": 10669,
    "circumstance": 7764,
    "Ġserviceable": 24718,
    "Ġdistension": 22497,
    "Ġsighs": 22703,
    "served": 5044,
    "Ġbutter": 6843,
    "Ġascent": 19615,
    "ones": 2743,
    "Ġhailed": 6407,
    "sequence": 2856,
    "apes": 9740,
    "ama": 11677,
    "mess": 13748,
    "conc": 3945,
    "pires": 13770,
    "tan": 4743,
    "Ġhussey": 7725,
    "Ġirons": 7696,
    "Ġsucked": 14125,
    "ref": 6515,
    "ingale": 21295,
    "article": 22393,
    "Ġjealousy": 13571,
    "isticated": 1692,
    "Ġoccurrence": 14376,
    "Ġwhe": 439,
    "indisc": 22367,
    "Ġsurf": 19129,
    "houn": 20889,
    "ber": 883,
    "Ġstony": 21733,
    "Ġsepulchral": 25890,
    "ang": 445,
    "Ġunch": 18236,
    "milk": 20473,
    "wood": 5897,
    "soever": 11857,
    "bless": 22306,
    "Ġaim": 10145,
    "izarre": 17386,
    "Ġtoes": 10829,
    "Ġtrample": 20324,
    "steps": 9404,
    "business": 5611,
    "Ġfriendship": 7247,
    "Ġchambers": 16796,
    "bble": 17482,
    "isance": 17845,
    "formity": 10278,
    "Ġarrangement": 2656,
    "Ġcit": 10783,
    "Ġlatter": 3988,
    "stead": 10846,
    "warmly": 25025,
    "Ġwharves": 13501,
    "rd": 17647,
    "answered": 10273,
    "Ġprom": 1525,
    "irene": 15908,
    "Ġchuckled": 10647,
    "manifested": 20522,
    "remarks": 23184,
    "romising": 18230,
    "Ġcrying": 10786,
    "Ġbeams": 14627,
    "Ġdom": 2745,
    "Ġsooty": 25813,
    "Ġrelate": 6876,
    "Ġunmannerly": 26516,
    "Ġstum": 21725,
    "Ġisrael": 21797,
    "Ġlounging": 10021,
    "alvan": 21497,
    "jump": 10103,
    "Ġcompleted": 8997,
    "Ġpaint": 7708,
    "asleep": 21537,
    "perse": 15893,
    "Ġclimate": 9273,
    "Ġshag": 9249,
    "chanced": 18803,
    "autions": 20764,
    "ugging": 23290,
    "Ġeddy": 13121,
    "Ġsupercil": 23455,
    "Ġyork": 11663,
    "Ġscan": 22273,
    "Ġconvers": 2908,
    "Ġmasses": 10503,
    "dat": 1609,
    "Ġstranded": 9774,
    "ptic": 21918,
    "Ġescaping": 13132,
    "Ġequals": 4728,
    "Ġrealistic": 5860,
    "Ġpines": 12611,
    "Ġshillings": 15830,
    "Ġlamented": 24990,
    "Ġmainmast": 9778,
    "topp": 22559,
    "Ġcoaxing": 18597,
    "Ġpurchasing": 19872,
    "Ġinattention": 17928,
    "Ġsleet": 8975,
    "Ġpoorly": 9854,
    "Ġequin": 14489,
    "Ġwoll": 21289,
    "ract": 996,
    "Ġxiii": 25590,
    "jack": 7345,
    "Ġnumberless": 16411,
    "Ġadorn": 12786,
    "gradually": 12909,
    "urean": 18119,
    "Ġwalked": 3139,
    "Ġprosperity": 20254,
    "laughing": 15175,
    "Ġexempl": 21825,
    "Ġstirred": 12215,
    "alarmed": 21496,
    "Ġwinking": 17791,
    "Ġenjoined": 18188,
    "Ġwager": 17790,
    "Ġbeau": 9223,
    "Ġforeman": 23448,
    "lighted": 23755,
    "Ġparticulars": 5755,
    "Ġcharts": 12821,
    "Ġinterrupted": 6343,
    "consist": 14810,
    "Ġsaved": 6691,
    "Ġalman": 21775,
    "Ġsanity": 24978,
    "Ġmonotonically": 3832,
    "Ġdefinition": 14398,
    "izings": 14038,
    "jumped": 20243,
    "awakened": 14444,
    "elijah": 19469,
    "Ġamericans": 14738,
    "ableness": 8149,
    "stays": 15682,
    "Ġattributed": 11830,
    "Ġsnodhead": 19299,
    "Ġpasseng": 12965,
    "Ġincor": 2608,
    "Ġsingled": 23772,
    "Ġmoulded": 16972,
    "Ġtender": 5754,
    "question": 5419,
    "Ġreduces": 2345,
    "lyph": 10852,
    "Ġart": 748,
    "Ġbilliard": 16686,
    "Ġdescend": 7427,
    "usable": 22283,
    "Ġsur": 2186,
    "ave": 977,
    "buff": 15314,
    "Ġstraightway": 9016,
    "Ġobscured": 15007,
    "Ġlongitude": 11011,
    "Ġlament": 7858,
    "Ġappeals": 16311,
    "Ġbrigandish": 25486,
    "Ġrepeatedly": 9020,
    "bone": 5613,
    "Ġstatue": 23144,
    "Ġproceed": 3243,
    "caves": 20813,
    "kov": 17584,
    "Ġimaginations": 16512,
    "Ġbroadway": 23983,
    "Ġdescrib": 2719,
    "Ġdisregarded": 22524,
    "Ġrue": 11864,
    "Ġenduring": 16298,
    "bro": 4032,
    "Ġrage": 5110,
    "Ġjoin": 4853,
    "vint": 21109,
    "stepfather": 19187,
    "Ġleagues": 9222,
    "christmas": 20252,
    "Ġunsh": 14109,
    "Ġhateful": 19710,
    "Ġeddying": 16431,
    "Ġtaken": 2527,
    "Ġaffliction": 25842,
    "xim": 1093,
    "especially": 3573,
    "Ġpinioned": 21476,
    "Ġtechn": 9370,
    "Ġsettles": 22915,
    "Ġlet": 1116,
    "Ġmeets": 7396,
    "Ġblackness": 9392,
    "Ġbeasts": 10617,
    "Ġdecorated": 22453,
    "irra": 15779,
    "Ġcashier": 20194,
    "Ġinnovative": 1591,
    "Ġharem": 9708,
    "Ġbushes": 16395,
    "Ġplans": 7919,
    "Ġhood": 10823,
    "Ġseventeen": 26208,
    "surprised": 9529,
    "Ġwhichever": 13994,
    "riminately": 16479,
    "Ġghastly": 10059,
    "anelles": 26432,
    "Ġteaches": 18806,
    "Ġcomparative": 10542,
    "female": 20663,
    "Ġunthinkingly": 26218,
    "Ġwander": 9031,
    "Ġex": 362,
    "Ġinsincere": 26598,
    "Ġnecessity": 7297,
    "ĠĠĠĠĠĠĠĠĠĠĠĠĠĠĠĠĠĠĠ": 22950,
    "mansion": 20978,
    "Ġmanifold": 13555,
    "Ġtemporarily": 11167,
    "solely": 19813,
    "Ġchestnuts": 24384,
    "Ġstem": 15713,
    "ils": 3181,
    "Ġstrainings": 24627,
    "Ġcandelabra": 26601,
    "creat": 20797,
    "readily": 19358,
    "Ġexpress": 2197,
    "Ġshown": 5160,
    "Ġcomprehens": 8320,
    "_.)": 7279,
    "Ġcrossed": 6067,
    "Ġetc": 7085,
    "headed": 4319,
    "Ġexecuted": 9471,
    "30": 20751,
    "wandered": 20282,
    "present": 1137,
    "supposing": 24136,
    "Ġbreathed": 11220,
    "cies": 1812,
    "liv": 9606,
    "Ġstepmother": 16084,
    "Ġutter": 3973,
    "Ġspear": 9312,
    "Ġclipping": 2439,
    "msgate": 18409,
    "Ġfagged": 17880,
    "mot": 17594,
    "Ġcathed": 14545,
    "Ġdrunkard": 20173,
    "Ġendeavour": 4679,
    "Ġpoltroon": 26597,
    "Ġepit": 18003,
    "Ġshattered": 7885,
    "Ġabstraction": 26538,
    "Ġregular": 929,
    "Ġsauc": 15883,
    "Ġhark": 8428,
    "Ġscepticism": 25925,
    "mens": 20964,
    "Ġacquitted": 18895,
    "Ġval": 968,
    "Ġtube": 15000,
    "allic": 12807,
    "ties": 2759,
    "ia": 1257,
    "Ġremoved": 5275,
    "cod": 12440,
    "pilot": 25906,
    "rose": 6012,
    "Ġclaimed": 14200,
    "weekly": 25682,
    "Ġimbec": 14151,
    "Ġkidn": 20202,
    "Ġcle": 1506,
    "Ġwife": 2586,
    "Ġstoutest": 24628,
    "perfectly": 9085,
    "Ġchanced": 8187,
    "apparently": 15200,
    "Ġconstrued": 26299,
    "Ġahoy": 12182,
    "Ġfrayed": 23349,
    "Ġcontro": 1684,
    "Ġtowing": 9192,
    "useness": 22286,
    "rab": 7597,
    "Ġtorture": 9064,
    "Ġmin": 1023,
    "Ġsteps": 2865,
    "Ġunbroken": 18247,
    "Ġ20": 8614,
    "Ġwinchester": 10065,
    "Ġcrowd": 6336,
    "Ġtraits": 23070,
    "bec": 4050,
    "Ġrelationship": 2316,
    "natural": 2320,
    "Ġprimary": 25059,
    "Ġadvance": 5485,
    "Ġfond": 4756,
    "iven": 1235,
    "wishing": 21123,
    "even": 3837,
    "Ġdiv": 3730,
    "Ġbehind": 2808,
    "geor": 15973,
    "Ġcovering": 13251,
    "nowadays": 22332,
    "Ġintegrated": 13526,
    "Ġsweeping": 8985,
    "ustom": 3788,
    "whiteness": 18367,
    "Ġperform": 1036,
    "Ġbell": 4637,
    "inous": 8772,
    "Ġwhitened": 24868,
    "800": 17474,
    "ineffectual": 26506,
    "Ġchoicest": 24223,
    "ignorantly": 25187,
    "Ġbravely": 23838,
    "Ġencountered": 8322,
    "Ġundoubtedly": 8313,
    "Ġgifts": 21606,
    "further": 7536,
    "ipping": 2208,
    "Ġloses": 15868,
    "alescing": 23866,
    ").âĢĿ": 20738,
    "amid": 12719,
    "Ġwallet": 21294,
    "Ġworkmen": 23001,
    "bride": 19196,
    "comprehend": 14353,
    "Ġdecrease": 4203,
    "Ġconsid": 1811,
    "Ġdriving": 3618,
    "ieves": 4004,
    "Ġbaptized": 25772,
    "Ġhilariously": 25449,
    "Ġfate": 4755,
    "inquiry": 15138,
    "Ġpreceded": 13424,
    "Ġmir": 9645,
    "species": 13252,
    "impossible": 8823,
    "Ġonset": 12704,
    "dia": 2137,
    "disinterested": 23501,
    "closing": 23151,
    "Ġsuccour": 20431,
    "umbria": 23930,
    "ropol": 10952,
    "acies": 14271,
    "Ġlong": 796,
    "Ġexhilar": 19680,
    "ff": 462,
    "Ġclaret": 22357,
    "Ġancient": 5444,
    "accountable": 7110,
    "befall": 22489,
    "Ġrumours": 24598,
    "ahead": 12431,
    "Ġdinn": 23980,
    "Ġ11": 5319,
    "didn": 9006,
    "Ġimpet": 11776,
    "Ġcurb": 16221,
    "Ġsentiment": 6588,
    "wr": 3028,
    "Ġimport": 1049,
    "think": 3610,
    "hammock": 16349,
    "Ġrattle": 10899,
    "Ġrests": 13089,
    "endeavour": 17030,
    "insensibility": 23064,
    "beating": 22483,
    "pol": 5892,
    "Ġmarvels": 11084,
    "Ġguitar": 16266,
    "Ġarticulated": 24436,
    "Ġtidy": 17092,
    "Ġadjust": 2158,
    "Ġbloodthirsty": 26600,
    "inctions": 17730,
    "leman": 21363,
    "Ġworkflow": 2177,
    "Ġunnearable": 26515,
    "Ġhold": 2243,
    "Ġevolved": 9891,
    "Ġtissu": 25918,
    "anke": 15554,
    "Ġdates": 6694,
    "Ġpiling": 17909,
    "Ġdecks": 6901,
    "Ġbeaten": 10528,
    "Ġinjuries": 11277,
    "Ġbenjam": 22886,
    "onder": 3778,
    "Ġest": 2265,
    "Ġcuba": 25094,
    "prolong": 23395,
    "Ġwarehouse": 20413,
    "Ġcostume": 16491,
    "Ġtearing": 14390,
    "nered": 18491,
    "Ġselects": 4385,
    "Ġbrow": 3987,
    "Ġadmires": 19682,
    "quick": 6400,
    "brows": 17494,
    "Ġsnuff": 7992,
    "Ġ/*": 10139,
    "Ġenlist": 21930,
    "Ġsnuffed": 15067,
    "meanwhile": 10609,
    "fered": 5561,
    "Ġpleasurable": 23339,
    "Ġanoint": 25536,
    "acrity": 14273,
    "Ġluck": 4881,
    "Ġscore": 9737,
    "az": 2185,
    "Ġtraversed": 18890,
    "Ġbull": 7841,
    "Ġexcursion": 26588,
    "itying": 21987,
    "Ġwhoever": 10973,
    "Ġsung": 23268,
    "Ġdevelopment": 7059,
    "oubted": 5859,
    "Ġhatches": 12042,
    "Ġmoments": 4845,
    "Ġfished": 21405,
    "jewell": 25522,
    "Ġslighted": 16564,
    "latitude": 25257,
    "tallow": 21080,
    "Ġcoffee": 6761,
    "because": 4924,
    "Ġconsol": 3813,
    "Ġscorch": 20063,
    "rospect": 11610,
    "ounder": 11741,
    "Ġresounded": 22538,
    "Ġabout": 634,
    "Ġobstinacy": 17418,
    "lakeman": 13746,
    "Ġgreas": 17988,
    "rusted": 16503,
    "rubbed": 22174,
    "itted": 2440,
    "ened": 1390,
    "Ġbeast": 7180,
    "Ġenterprise": 8642,
    "Ġcubs": 20083,
    "Ġdoted": 21428,
    "Ġjollies": 20365,
    "Ġwindward": 6886,
    "acquired": 24297,
    "Ġ=": 1073,
    "Ġbedford": 7474,
    "enter": 7859,
    "Ġassum": 4062,
    "hurst": 19876,
    "Ġshortness": 23482,
    "securer": 25601,
    "Ġadro": 15862,
    "Ġbrighton": 6470,
    "Ġjohn": 5033,
    "Ġwashed": 15759,
    "Ġinvolved": 8922,
    "Ġimprovement": 7964,
    "marest": 20975,
    "Ġrebounds": 25965,
    "Ġimprudent": 12842,
    "Ġprogressive": 5025,
    "ĠĠĠĠ": 459,
    "Ġrefused": 6716,
    "Ġdisposal": 19372,
    "Ġhug": 6980,
    "Ġdeemed": 7615,
    "Ġdestroyer": 13410,
    "Ġvilla": 14742,
    "woof": 21134,
    "princ": 8621,
    "eli": 3873,
    "Ġlulled": 17965,
    "Ġmeagre": 21804,
    "Ġgoverning": 2795,
    "Ġextort": 22740,
    "Ġwaned": 17789,
    "Ġfears": 5730,
    "Ġcastor": 19423,
    "Ġdashing": 8796,
    "hauled": 20665,
    "Ġfilthy": 13243,
    "Ġcongen": 10873,
    "Ġchaos": 17008,
    "Ġgoring": 21597,
    "ople": 2321,
    "iscuits": 24666,
    "Ġfinancial": 23125,
    "Ġexpensive": 12912,
    "Ġbehoo": 19029,
    "Ġomitted": 12559,
    "Ġconveniences": 19809,
    "Ġbermud": 26437,
    "Ġsalted": 14751,
    "bidden": 19734,
    "Ġbrink": 18767,
    "worn": 13801,
    "ifled": 14057,
    "Ġenraptured": 26499,
    "sincerely": 24584,
    "Ġdissuade": 26254,
    "Ġcharacteristics": 8610,
    "Ġremembrance": 8318,
    "Ġrespectable": 6737,
    "ampl": 21843,
    "Ġeighteenth": 14749,
    "Ġenforced": 21932,
    "Ġopulence": 23628,
    "oin": 17615,
    "Ġsplashed": 23749,
    "Ġarve": 15897,
    "Ġblindly": 12106,
    "Ġmachinations": 25765,
    "hateful": 20904,
    "Ġinconvenience": 9562,
    "Ġhammer": 6092,
    "idered": 4554,
    "Ġinscriptions": 20005,
    "ame": 645,
    "neighbours": 24882,
    "manned": 18760,
    "Ġbottomless": 12103,
    "stove": 21640,
    "Ġunremitting": 26215,
    "Ġportraits": 20138,
    "ases": 1520,
    "atmosphere": 21260,
    "Ġmanor": 14191,
    "Ġembalmed": 13651,
    "en": 271,
    "Ġzoology": 22816,
    "Ġveiled": 16196,
    "pistol": 17640,
    "stood": 4115,
    "Ġwatching": 4854,
    "Ġindic": 2889,
    "Ġringed": 16747,
    "Ġrocky": 13384,
    "hel": 4814,
    "Ġbarbarously": 24820,
    "Ġhell": 5020,
    "Ġwhitish": 24867,
    "Ġhospitality": 13508,
    "stein": 5506,
    "Ġapp": 497,
    "Ġcrimson": 16437,
    "Ġanom": 12605,
    "Ġborn": 5225,
    "cannibals": 25583,
    "Ġvers": 7564,
    "Ġarisen": 11740,
    "Ġtottenham": 24143,
    "medium": 23639,
    "Ġjew": 9467,
    "Ġdiscriminative": 4328,
    "Ġplaned": 24056,
    "filled": 9593,
    "crowning": 25746,
    "Ġcoincidence": 25482,
    "remark": 7262,
    "Ġaverages": 2399,
    "Ġamateur": 22479,
    "Ġbearded": 15721,
    "ined": 1259,
    "iscre": 17848,
    "Ġ60": 14870,
    "Ġreplace": 14471,
    "bow": 5425,
    "Ġlivers": 18458,
    "Ġofficious": 19344,
    "Ġintolerable": 8482,
    "Ġopening": 5046,
    "Ġskilful": 25834,
    "Ġbeautiful": 3672,
    "Ġforcing": 3224,
    "Ġlung": 7168,
    "oned": 4632,
    "ively": 1318,
    "Ġdelightfully": 13155,
    "Ġassures": 14458,
    "Ġ55": 24326,
    "Ġminuteness": 19136,
    "Ġswarming": 16268,
    "ask": 857,
    "Ġadventurous": 16730,
    "ward": 705,
    "Ġseeing": 2887,
    "ulity": 10886,
    "Ġmeant": 3551,
    "Ġfreedom": 9082,
    "read": 3275,
    "Ġordinary": 6095,
    "Ġmau": 21306,
    "Ġimpression": 5733,
    "Ġvicissitudes": 12416,
    "Ġincludes": 2010,
    "Ġgiddy": 20493,
    "Ġplunged": 8693,
    "Ġsecrets": 9054,
    "burn": 8371,
    "asily": 13941,
    "ucy": 15439,
    "emptied": 23636,
    "ource": 5245,
    "displayed": 20733,
    "omb": 10206,
    "Ġscandalous": 24880,
    "Ġembarrassed": 11384,
    "Ġexcel": 3567,
    "Ġdeserted": 8637,
    "Ġsiam": 13833,
    "Ġlikened": 16495,
    "Ġattendant": 11285,
    "Ġfellows": 8257,
    "balls": 12302,
    "effect": 8604,
    "Ġlass": 15642,
    "Ġglory": 6063,
    "Ġproprietor": 12370,
    "Ġpuzz": 5534,
    "Ġem": 1923,
    "Ġgrizz": 10351,
    "Ġcluster": 13566,
    "Ġforwarded": 19038,
    "Ġlightnings": 16348,
    "nostr": 22714,
    "men": 1484,
    "Ġbird": 3755,
    "larger": 24204,
    "Ġmarvell": 7249,
    "Ġcontrary": 5261,
    "Ġvexed": 9993,
    "Ġaffl": 14380,
    "Ġpianoforte": 15269,
    "perpendicular": 14154,
    "smote": 23909,
    "wonderful": 16957,
    "Ġbon": 8786,
    "Ġlength": 2500,
    "Ġcrane": 23440,
    "Ġcharacteristically": 23691,
    "Ġdate": 7843,
    "Ġthickening": 24024,
    "sadly": 25525,
    "Ġknows": 4159,
    "Ġinhuman": 13924,
    "Ġdegra": 2588,
    "Ġaccomplish": 14871,
    "converse": 22467,
    "Ġsoot": 14127,
    "brad": 20778,
    "form": 493,
    "Ġprovincial": 20647,
    "Ġmillions": 11354,
    "pense": 10368,
    "Ġprudential": 17918,
    "Ġattentions": 5877,
    "attended": 8952,
    "Ġdarling": 12599,
    "Ġscaffold": 18397,
    "penn": 18823,
    "Ġargosy": 24276,
    "Ġhazard": 20428,
    "Ġignorantly": 19492,
    "Ġhorizontally": 17011,
    "console": 22465,
    "Ġankers": 21439,
    "Ġpie": 13911,
    "Ġlaughed": 5060,
    "Ġcautiously": 16974,
    "Ġlimber": 16475,
    "Ġinasmuch": 10825,
    "Ġpremises": 10487,
    "Ġpythag": 26446,
    "ires": 6036,
    "erity": 21263,
    "oglyph": 11017,
    "moment": 3579,
    "ashtego": 4101,
    "Ġlid": 6984,
    "elev": 12455,
    "Ġheadache": 22895,
    "I": 45,
    "Ġ25": 13191,
    "Ġuniversally": 11997,
    "sideways": 14567,
    "idate": 21761,
    "Ġobedient": 20101,
    "Ġnomine": 26454,
    "peculiarities": 13467,
    "Ġturbul": 23613,
    "Ġpan": 5083,
    "bled": 5470,
    "Ġaf": 784,
    "ensing": 12890,
    "ushion": 14715,
    "owers": 12678,
    "Ġasylum": 13661,
    "Ġpetrified": 19593,
    "Ġadrift": 11720,
    "Ġunrestingly": 20356,
    "Ġblankness": 24610,
    "Ġharm": 5018,
    "Ġchecked": 9375,
    "Ġsuccessful": 9922,
    "Ġpave": 8800,
    "Ġunsafe": 22033,
    "Ġblows": 5971,
    "arched": 10815,
    "ilar": 10215,
    "isturbed": 18294,
    "Ġmum": 13853,
    "Ġinhab": 5084,
    "mission": 5968,
    "mediterranean": 16398,
    "Ġdecreasing": 2442,
    "Ġlieutenant": 15257,
    "Ġfraud": 19067,
    "Ġstamp": 7865,
    "Ġperfectly": 3700,
    "Ġroving": 22396,
    "omitted": 18020,
    "ower": 1030,
    "Ġobservable": 25126,
    "Ġr": 405,
    "dered": 2470,
    "Ġfluke": 14669,
    "Ġstaving": 21731,
    "Ġofficer": 6754,
    "âĢĶ": 517,
    "inguish": 9396,
    "Ġconting": 18470,
    "Ġreceptacle": 23187,
    "âĢĺ": 939,
    "Ġnantucketer": 6915,
    "cked": 2763,
    "Ġrenewal": 12232,
    "Ġnumbers": 2890,
    "civilities": 24970,
    "Ġpulled": 5661,
    "Ġdecayed": 22820,
    "Ġsk": 959,
    "Ġfuture": 1088,
    "Ġagon": 10320,
    "Ġtrip": 16785,
    "Ġcents": 17826,
    "Ġtwos": 18654,
    "compliments": 24811,
    "ologically": 22858,
    "Ġwhiskers": 10492,
    "Ġsob": 12782,
    "Ġ133": 24784,
    "Ġreflection": 6440,
    "hangs": 15363,
    "Ġamused": 11796,
    "Ġsoul": 2726,
    "Ġcompassion": 6487,
    "degrees": 22144,
    "Ġjury": 5379,
    "dost": 14531,
    "Ġducking": 17145,
    "Ġcoins": 11816,
    "Ġbraced": 16576,
    "drawn": 9912,
    "public": 17644,
    "Ġezekiel": 26190,
    "Ġappear": 2483,
    "Ġcope": 17828,
    "sing": 5139,
    "Ġlimp": 19177,
    "K": 47,
    "Ġard": 5165,
    "Ġuseful": 3560,
    "Ġattempts": 10490,
    "Ġstretched": 5918,
    "Ġharpooneers": 4733,
    "Ġperils": 6272,
    "Ġwednesday": 9024,
    "cturn": 17983,
    "Ġmyself": 1453,
    "Ġspoil": 17006,
    "enced": 4297,
    "\"": 6,
    "honor": 19897,
    "Ġ64": 24370,
    "Ġtempted": 9056,
    "Ġboasting": 19932,
    "weigh": 18662,
    "Ġscar": 3211,
    "Ġdistrict": 10318,
    "hot": 8084,
    "Ġlingering": 11379,
    "icity": 2540,
    "Ġrestored": 7067,
    "Ġmemoirs": 26203,
    "Ġimpro": 900,
    "Ġsought": 5011,
    "Ġare": 526,
    "Ġexpert": 18864,
    "official": 24914,
    "Ġsperma": 19043,
    "Ġbirth": 6524,
    "Ġavenue": 13616,
    "Ġcrystals": 20224,
    "coburg": 13593,
    "playing": 19654,
    "ondescript": 22911,
    "monster": 8592,
    "Ġhigh": 931,
    "Ġgiants": 25958,
    "erringly": 16206,
    "Ġearth": 2851,
    "wives": 15450,
    "Ġinsipid": 26311,
    "Ġrepresentation": 14400,
    "brary": 5756,
    "Ġheredit": 9215,
    "ica": 10198,
    "tor": 15427,
    "Ġcedar": 15184,
    "Ġsucceeding": 16758,
    "Ġbattery": 21389,
    "Ġripp": 11219,
    "quakes": 21839,
    "urning": 12911,
    "end": 502,
    "Ġoftentimes": 20151,
    "formality": 22208,
    "Ġduties": 6609,
    "Ġxx": 5493,
    "Ġmodesty": 12811,
    "Ġkindred": 16373,
    "Ġasi": 12726,
    "Ġstepdaughter": 22606,
    "Ġproxim": 3200,
    "Ġroads": 13284,
    "Ġwhiting": 10859,
    "Ġproverb": 12710,
    "Ġstabbed": 25455,
    "Ġsubtlety": 24781,
    "isons": 17847,
    "Ġdistributes": 4198,
    "Ġabsolutely": 4857,
    "Ġordinarily": 20646,
    "horrors": 20538,
    "instances": 13316,
    "Ġtrampling": 25491,
    "Ġdispleasure": 16046,
    "rigible": 24930,
    "Ġchip": 12819,
    "dances": 17519,
    "Ġaccuse": 14206,
    "ri": 390,
    "knell": 24558,
    "acks": 11785,
    "Ġroyalty": 19733,
    "Ġcrosswise": 18884,
    "Ġappre": 5166,
    "plex": 708,
    "Ġemotions": 8969,
    "Ġwarrant": 17792,
    "Ġpointing": 5662,
    "Ġnomin": 10190,
    "Ġtattooings": 24901,
    "pin": 13762,
    "endure": 22219,
    "Ġbeck": 14003,
    "Ġtormented": 8675,
    "Ġparagraph": 17451,
    "Ġtwisting": 18655,
    "Ġcand": 3276,
    "osp": 6855,
    "swell": 17661,
    "Ġdoubted": 7966,
    "Ġtrying": 4838,
    "Ġprodig": 6026,
    "Ġthick": 3781,
    "Ġtort": 5900,
    "tick": 17676,
    "omon": 10207,
    "Ġtrusting": 24107,
    "Ġpoliceman": 15254,
    "Ġopera": 23426,
    "guinea": 16669,
    "Ġsaturation": 2064,
    "Ġmantel": 11439,
    "Ġservices": 11217,
    "Ġinvective": 26179,
    "Ġcash": 9651,
    "tin": 6115,
    "Ġounce": 15268,
    "Ġtokens": 1772,
    "Ġemblem": 20494,
    "Ġmorocco": 26572,
    "grin": 19103,
    "Ġclap": 10960,
    "Ġdeuteronomy": 15754,
    "Ġreceipt": 20351,
    "Ġjumping": 13338,
    "Ġfollow": 1397,
    "eh": 13705,
    "strate": 12667,
    "ĠvertebrÃ¦": 11435,
    "ufact": 10733,
    "cim": 8720,
    "Ġarrow": 10931,
    "hs": 8378,
    "brink": 23576,
    "Ġsteer": 10386,
    "osque": 22255,
    "Ġgroaned": 11266,
    "haul": 14760,
    "Ġpret": 3035,
    "Ġargument": 7099,
    "favourable": 12261,
    "Ġseeking": 7037,
    "Ġcond": 3874,
    "Ġsculpt": 15941,
    "Ġche": 1763,
    "Ġplight": 14275,
    "recollect": 17222,
    "cure": 11474,
    "Ġfeels": 6883,
    "honorable": 19898,
    "bene": 6111,
    "och": 20996,
    "Ġfaithfully": 14882,
    "Ġra": 802,
    "gunpowder": 25338,
    "Ġfattened": 25947,
    "mel": 9127,
    "Ġhaunt": 18194,
    "Ġeasterly": 25960,
    "Ġearlier": 9086,
    "Ġprotruded": 19466,
    "Ġire": 12663,
    "mospheric": 17090,
    "Ġalive": 4398,
    "duct": 3505,
    "Ġsurprising": 14593,
    "Ġconc": 1840,
    "100": 11464,
    "Ġflooded": 24958,
    "Ġperfections": 23609,
    "fordshire": 4678,
    "Ġbidirectional": 3754,
    "Ġheal": 21675,
    "Ġ135": 24786,
    "pious": 17631,
    "Ġpod": 15597,
    "pronouncing": 25191,
    "eye": 6224,
    "Ġmystic": 7504,
    "Ġmix": 7577,
    "Ġin": 291,
    "reement": 15506,
    "derer": 4601,
    "abases": 3007,
    "fixedly": 24928,
    "Ġhauling": 14081,
    "protruding": 24817,
    "Ġflog": 23623,
    "pshaw": 21023,
    "Ġcold": 3032,
    "regularization": 3513,
    "Ġsustenance": 19930,
    "Ġ103": 24414,
    "Ġreadiness": 13044,
    "Ġburned": 8631,
    "Ġforty": 5720,
    "Ġbacks": 8529,
    "Ġevenings": 18750,
    "Ġbowditch": 19317,
    "Ġerection": 24000,
    "Ġsour": 21212,
    "Ġpedest": 14992,
    "draught": 12086,
    "resolution": 17764,
    "Ġmon": 1252,
    "Ġtones": 8400,
    "method": 17283,
    "oker": 10963,
    "Ġdelic": 4133,
    "rifled": 21042,
    "Ġominous": 12421,
    "presents": 18794,
    "Ġabutted": 22269,
    "Ġcoronation": 13330,
    "Ġtertiary": 15290,
    "Ġchimneys": 16969,
    "stolidity": 21651,
    "Ġpinched": 17034,
    "sciss": 18853,
    "Ġparamount": 15878,
    "Ġthen": 665,
    "Ġur": 5541,
    "Ġsolving": 2481,
    "Ġinfinity": 23282,
    "obst": 11929,
    "Ġapproximates": 2417,
    "âĢĿ]": 21806,
    "Ġpredicts": 2593,
    "ondency": 15265,
    "Ġforgot": 4685,
    "distraction": 24202,
    "Ġpeddling": 24800,
    "Ġcargo": 16285,
    "Ġfrom": 434,
    "murdered": 12200,
    "aver": 6786,
    "Ġruggedness": 26265,
    "Ġgrasping": 12163,
    "Ġslowly": 3619,
    "gor": 547,
    "Ġcasual": 11409,
    "seemingly": 25361,
    "Ġpretty": 3860,
    "Ġcatholic": 20678,
    "ear": 8731,
    "anxiously": 15106,
    "adequ": 11019,
    "Ġostrich": 26428,
    "Ġafrican": 20133,
    "Ġtroubles": 19435,
    "securing": 19810,
    "attered": 4017,
    "Ġhyper": 19736,
    "hour": 7341,
    "his": 1414,
    "Ġend": 1483,
    "Ġundet": 16701,
    "nonsense": 17613,
    "hence": 16621,
    "does": 6194,
    "Ġcrystal": 17213,
    "Ġinfirm": 19016,
    "Ġimpersonal": 17393,
    "influences": 25248,
    "erial": 4633,
    "merely": 16129,
    "feren": 766,
    "Ġstings": 21728,
    "Ġthinks": 6169,
    "Ġcross": 1372,
    "vine": 10734,
    "Ġoaken": 13860,
    "Ġentic": 16142,
    "tar": 8098,
    "Ġrequ": 776,
    "Ġlionel": 25284,
    "Ġmightier": 18726,
    "ician": 21558,
    "Ġintermix": 22573,
    "beginning": 13556,
    "Ġscruple": 25047,
    "Ġnewspapers": 17185,
    "icest": 21557,
    "Ġmanaged": 7907,
    "Ġevaluate": 2948,
    "Ġdedicated": 19232,
    "amuse": 14046,
    "Ġsupper": 4667,
    "Ġpreparing": 8648,
    "Ġsurvive": 9066,
    "spar": 22726,
    "profitable": 17069,
    "Ġimaginary": 11186,
    "unwittingly": 25799,
    "Ġwearing": 12733,
    "phere": 21014,
    "Ġlips": 3990,
    "hab": 1077,
    "Ġpermitted": 9276,
    "Ġdemon": 7870,
    "orers": 14097,
    "abama": 12703,
    "ited": 1751,
    "reshold": 21235,
    "arder": 17892,
    "Ġlabelled": 23329,
    "Ġthirt": 13934,
    "Ġstubborn": 10414,
    "Ġperish": 8874,
    "Ġrenders": 13279,
    "Ġreceives": 20350,
    "Ġsource": 6806,
    "Ġdair": 17887,
    "vour": 17697,
    "utral": 12657,
    "Ġcompat": 2939,
    "ould": 428,
    "Ġautomatically": 4071,
    "asher": 15639,
    "track": 24317,
    "Ġpaddled": 20197,
    "lude": 6161,
    "71": 20753,
    "Ġcomplaisance": 19445,
    "Ġfrolic": 23923,
    "Ġtyphoons": 20231,
    "Ġdifferent": 1429,
    "Ġviol": 2073,
    "hunsford": 24389,
    "Ġextras": 22741,
    "Ġgeneric": 18456,
    "mystery": 15151,
    "Ġglassy": 19557,
    "Ġmilk": 6485,
    "Ġdeficiencies": 26569,
    "Ġcaulk": 25439,
    "shel": 11927,
    "killing": 20937,
    "Ġbed": 2147,
    "Ġunpleasant": 7192,
    "Ġbal": 1134,
    "Ġsuffer": 4723,
    "Ġtus": 10749,
    "imprudence": 16554,
    "Ġtidings": 11397,
    "Ġstarry": 16920,
    "antucket": 2643,
    "Ġgriev": 16631,
    "aps": 1228,
    "Ġfuller": 11156,
    "disposition": 10041,
    "prim": 23810,
    "ences": 1263,
    "treat": 12508,
    "Ġimmortal": 8018,
    "unwholesome": 26496,
    "Ġcreditor": 24291,
    "Ġhissing": 15784,
    "cruet": 17025,
    "Ġhot": 4259,
    "bred": 11469,
    "Ġcalmer": 23039,
    "Ĺ": 250,
    "nue": 15392,
    "Ġunreserved": 19393,
    "Ġillum": 9399,
    "Ġprayer": 16663,
    "Ġarchbishop": 18716,
    "county": 25395,
    "Ġphysical": 7523,
    "Ġsleepless": 14578,
    "ourney": 3554,
    "Ġcow": 13871,
    "Ġramsgate": 18638,
    "Ġbarbary": 24219,
    "Ġbeth": 9656,
    "Ġcomplain": 6686,
    "Ġmemorand": 23405,
    "Ġsoar": 18280,
    "bourne": 19100,
    "Ġapex": 24345,
    "zed": 8104,
    "Ġassumptions": 5518,
    "Ġgreyish": 24211,
    "Ġalterations": 19868,
    "Ġchronicle": 20225,
    "Ġhumped": 19766,
    "Ġhandling": 8912,
    "stocks": 23820,
    "Ġcarcase": 14438,
    "retired": 11933,
    "Ġcomely": 21849,
    "Ġdoorway": 14492,
    "Ġriverside": 25246,
    "Ġdistrusted": 13537,
    "Ġsquint": 22831,
    "Ġcharmed": 16759,
    "Ġtime": 689,
    "ici": 8440,
    "Ġimpetuous": 25569,
    "small": 6472,
    "action": 3725,
    "_.âĢĶ": 23473,
    "Ġrustling": 24715,
    "Ġassociate": 13446,
    "Ġfirmness": 11237,
    "urons": 3130,
    "Ġmannish": 26235,
    "Ġneared": 14067,
    "Ġpeleg": 3737,
    "Ġalways": 1697,
    "Ġyarns": 15191,
    "Ġjet": 5308,
    "Ġdoze": 14171,
    "Ġtracing": 18887,
    "Ġcordiality": 24398,
    "Ġwildness": 14599,
    "Ġlestrade": 5825,
    "Ġfamed": 16323,
    "Ġpurple": 10433,
    "tornadoes": 26151,
    "dark": 5615,
    "âĢ": 294,
    "Ġcottagers": 6762,
    "Ġbuilding": 8063,
    "habit": 16184,
    "Ġgentle": 1889,
    "Ġengaging": 9334,
    "ainty": 21781,
    "singular": 12186,
    "Ġspurned": 12790,
    "Ġnast": 15632,
    "inburgh": 15485,
    "Ġtahitian": 25426,
    "Ġwane": 21284,
    "N": 50,
    "Ġinsignificance": 20454,
    "blows": 17164,
    "ens": 701,
    "Ġliquid": 22403,
    "Ġfurnishing": 16642,
    "asis": 12644,
    "Ġequivalent": 4803,
    "Ġlicence": 25095,
    "Ġanonym": 17896,
    "ten": 1556,
    "cooks": 25066,
    "constellation": 24607,
    "Ġcamp": 9163,
    "Ġanswered": 2852,
    "Ġsoutherly": 23333,
    "interrupt": 8616,
    "anqu": 4109,
    "upp": 10130,
    "Ġconce": 3421,
    "Ġcetace": 14983,
    "Ġunpardonable": 22054,
    "Ġstart": 3259,
    "Ġcontribute": 12855,
    "Ġescapes": 23507,
    "Ġinexhaustible": 16978,
    "Ġclothe": 4713,
    "Ġram": 11012,
    "Ġchair": 3662,
    "Ġuninter": 18243,
    "progra": 9394,
    "tastes": 21091,
    "ifference": 5633,
    "Ġinclinations": 19536,
    "Ġenjoyment": 7301,
    "Ġfulfilled": 11362,
    "Ġaverse": 11081,
    "Ġtelling": 5748,
    "Ġfight": 5367,
    "sur": 4524,
    "nurse": 15204,
    "Ġsore": 10764,
    "Ġfetching": 16893,
    "Ġprouder": 18970,
    "define": 1524,
    "Ġskiff": 16158,
    "cav": 17505,
    "Ġbarrel": 23792,
    "inuating": 16198,
    "Ġcredited": 25153,
    "heaven": 8053,
    "landish": 11939,
    "germans": 20562,
    "Ġnovelist": 24778,
    "Ġdoubting": 13096,
    "acup": 14272,
    "umn": 5835,
    "Ġconvivial": 16545,
    "Ġdab": 15581,
    "Ġcry": 3494,
    "actually": 14292,
    "Ġcircumnavigation": 20396,
    "intelligence": 5882,
    "Ġessex": 20123,
    "Ġremember": 2676,
    "Ġsuddenly": 2645,
    "Ġfeel": 1260,
    "ishment": 3504,
    "Ġyounger": 5253,
    "ribbed": 16408,
    "Ġfelix": 4848,
    "._]]": 5335,
    "Ġdealer": 23976,
    "Ġslouched": 13053,
    "Ġmish": 15531,
    "gement": 13723,
    "Ġrelease": 19288,
    "Ġnich": 21513,
    "Ġrelent": 18771,
    "heads": 4094,
    "Ġch": 513,
    "Ġpal": 4039,
    "Ġunimportant": 22022,
    "professional": 20272,
    "digger": 24313,
    "Ġexcavating": 23315,
    "Ġfacetious": 20580,
    "Ġeff": 678,
    "Ġglobules": 26587,
    "cun": 20792,
    "Ġnosegay": 24194,
    "independent": 26019,
    "gossip": 23404,
    "commer": 22812,
    "Ġgrotes": 19560,
    "Ġchina": 8040,
    "Ġcapting": 23019,
    "Ġisolated": 13554,
    "bub": 15312,
    "Ġungodly": 26512,
    "temper": 10003,
    "ch": 321,
    "hoped": 20905,
    "Ġsquid": 11875,
    "ortions": 10948,
    "Ġwondrously": 24065,
    "Ġsplend": 9897,
    "Ġfrighted": 24029,
    "examination": 25477,
    "Ġlobster": 11389,
    "Ġcurling": 9339,
    "Ġleak": 2163,
    "inferiors": 25345,
    "alas": 8804,
    "Ġclouds": 5776,
    "Ġpaddock": 25036,
    "fo": 5279,
    "Ġdiet": 13905,
    "shad": 10980,
    "activation": 3231,
    "Ġtied": 7358,
    "both": 5786,
    "Ġlou": 6823,
    "Ġinfluences": 14860,
    "Ġhunted": 7454,
    "Ġcoupled": 16848,
    "curiosity": 8624,
    "Ġharriet": 23277,
    "solitude": 23296,
    "bular": 15309,
    "Ġhundredth": 16514,
    "Ġgates": 10200,
    "Ġbildad": 3780,
    "Ġobjecting": 18893,
    "ivory": 10268,
    "spir": 5739,
    "Ġsched": 2339,
    "bal": 2159,
    "Ġjig": 15946,
    "Ġsystemat": 18449,
    "olly": 3225,
    "foreseen": 14248,
    "Ġproport": 2299,
    "Ġserious": 4323,
    "teak": 22810,
    "Ġintimately": 24805,
    "Ġniece": 5713,
    "Ġheaps": 11640,
    "Ġevenly": 4128,
    "Ġconsec": 21799,
    "leaned": 21364,
    "inct": 3293,
    "Ġtug": 11549,
    "speeches": 25237,
    "Ġdestitute": 14562,
    "Ġphara": 23196,
    "Ġesteem": 7532,
    "Ġwhir": 6393,
    "ample": 1364,
    "crawling": 16955,
    "emotion": 21924,
    "Ġphiladel": 23885,
    "akin": 11764,
    "sim": 6510,
    "Ġponderous": 8355,
    "bran": 23574,
    "wound": 21121,
    "wil": 8396,
    "Ġcruisings": 25862,
    "Ġsplashing": 16547,
    "Ġbound": 3517,
    "Ġcolumbus": 26563,
    "anged": 3588,
    "suspicious": 25389,
    "Ġconflag": 20332,
    "inkled": 5478,
    "Ġsuffered": 5650,
    "iries": 18164,
    "Ġpenny": 16309,
    "reeling": 21240,
    "Ġoperation": 11996,
    "Ġvagueness": 25735,
    "Ġfury": 7661,
    "Ġcrocod": 19625,
    "Ġunansw": 22050,
    "mag": 6508,
    "Ġsixteen": 8283,
    "]": 65,
    "Ġaccept": 4410,
    "Ġdeliver": 9846,
    "Ġle": 333,
    "quis": 7871,
    "Ġrambles": 17183,
    "Ġcheerless": 16691,
    "&": 10,
    "Ġscramble": 24578,
    "Ġhey": 11639,
    "scans": 22982,
    "Ġpoints": 5249,
    "Ġmild": 4146,
    "Ġimminent": 11244,
    "Ġabove": 2937,
    "Ġasiatic": 20426,
    "Ġoverwhel": 8196,
    "family": 7325,
    "hanging": 10100,
    "why": 2829,
    "hinting": 17567,
    "Ġfoundling": 22968,
    "Ġretrie": 10382,
    "Ġderanged": 23169,
    "othed": 16507,
    "Ġp": 289,
    "university": 25981,
    "Ġsord": 21215,
    "scho": 8760,
    "Ġhealed": 21677,
    "Ġcourtiers": 24138,
    "1": 21,
    "Ġdisgusting": 19891,
    "Ġdecisions": 6703,
    "ades": 5632,
    "sorts": 21055,
    "mates": 5074,
    "fif": 9116,
    "Ġresuming": 12887,
    "orphans": 26438,
    "Ġrum": 5922,
    "Ġaccount": 2323,
    "Ġdistance": 3481,
    "Ġsqualls": 17019,
    "Ġhearty": 9845,
    "Ġweapons": 10593,
    "ize": 761,
    "conce": 8511,
    "Ġadapt": 1035,
    "Ġslung": 23163,
    "py": 17622,
    "wedded": 24342,
    "Ġretort": 23065,
    "Ġdrunken": 12047,
    "cousins": 20114,
    "Ġfries": 21410,
    "Ġmanhandle": 22323,
    "Ġinteraction": 7424,
    "Ġfinny": 23123,
    "lives": 12482,
    "Ġfloats": 9412,
    "Ġcountryside": 23597,
    "Ġlowest": 11122,
    "Ġsubt": 11865,
    "Ġterribly": 10425,
    "ĠĠĠĠĠĠĠĠĠĠĠĠĠĠĠĠĠ": 22949,
    "Ġdisadvantage": 12884,
    "Ġjourneying": 25564,
    "Ġfighting": 12195,
    "Ġundeniable": 26509,
    "elly": 17976,
    "rushed": 10584,
    "ib": 1233,
    "Ġkilled": 4956,
    "Ġmoody": 8201,
    "Ġginger": 9209,
    "Ġwith": 349,
    "Ġriots": 23892,
    "Ġmonotonous": 13258,
    "Ġvoid": 14080,
    "Ġcellar": 8059,
    "stretch": 13970,
    "placed": 7879,
    "Ġshyness": 20303,
    "soc": 5176,
    "Ġnod": 1887,
    "=": 33,
    ".âĢĿ": 464,
    "Ġsag": 6514,
    "Ġpertur": 12844,
    "Ġdepartments": 24245,
    "wanted": 10743,
    "Ġmoderation": 12812,
    "blog": 19836,
    "Ġfrost": 6094,
    "ieth": 10704,
    "Ġerud": 20051,
    "right": 2770,
    "Ġdegradation": 2630,
    "Ġintruder": 25989,
    "Ġhearing": 4762,
    "Ġrises": 9712,
    "Ġaddressing": 11164,
    "awned": 19456,
    "Ġauxiliary": 26416,
    "Ġpreliminaries": 25174,
    "getting": 12961,
    "angled": 6845,
    "Ġstandpoint": 23273,
    "Ġdoran": 9178,
    "Ġevid": 3498,
    "Ġrequiring": 2922,
    "perquis": 22180,
    "buck": 17488,
    "Ġrevolver": 14895,
    "Ġunacquainted": 12770,
    "Ġgenerally": 4157,
    "cific": 10085,
    "Ġcant": 17822,
    "extracts": 22754,
    "Ġinfall": 7960,
    "inative": 15478,
    "additional": 20460,
    "Ġindoors": 18839,
    "Ġsepulch": 15280,
    "Ġparamet": 615,
    "Ġjoking": 12831,
    "Ġtrotting": 19972,
    "Ġwarb": 17785,
    "accents": 19207,
    "Ġinvested": 7280,
    "Ġdeclining": 23963,
    "Ġgroans": 14818,
    "Ġfolks": 14420,
    "Ġoutput": 928,
    "Ġcoast": 4657,
    "confidence": 16805,
    "iting": 2160,
    "Ġconsoling": 19453,
    "Åĵuv": 15178,
    "vessel": 11377,
    "Ġsyn": 15909,
    "Ġnational": 13937,
    "conscience": 14855,
    "iliar": 15708,
    "persecutor": 26528,
    "Ġinexperience": 26097,
    "Ġkneeling": 12140,
    "Ġsharks": 4497,
    "Ġreceiving": 4883,
    "Ġsolace": 16195,
    "Ġsteam": 9351,
    "Ġnoiseless": 10356,
    "Ġlangu": 574,
    "Ġbearing": 5299,
    "taste": 10129,
    "Ġclass": 805,
    "Ġpurest": 14934,
    "Ġquivered": 18464,
    "approb": 11043,
    "mblance": 7324,
    "Ġconcoct": 19040,
    "Ġsuspic": 4470,
    "country": 6102,
    "sk": 5522,
    "Ġquestioned": 14616,
    "isters": 11917,
    "Ġnailing": 21520,
    "Ġmonkey": 8227,
    "simultaneously": 19861,
    "Ġanalogy": 25637,
    "Ġsanguine": 25926,
    "specim": 23943,
    "Ġcetus": 19882,
    "assuming": 22304,
    "Ġtranscend": 25665,
    "Ġcarpenters": 16749,
    "Ġembeddings": 2307,
    "machines": 8385,
    "Ġponder": 6820,
    "icherry": 15131,
    "Ġmahogany": 20574,
    "copy": 5134,
    "edily": 17940,
    "Ġindisposed": 26286,
    "Ġseasonable": 24409,
    "pond": 21008,
    "Ġsubstantiated": 25873,
    "Ġdisquiet": 18549,
    "Ġburgled": 23654,
    "Ġbr": 1070,
    "ulatory": 15762,
    "Ġbehaves": 23299,
    "Ġsly": 9631,
    "Ġmccarthy": 5146,
    "iogn": 20916,
    "Ġmysticetus": 24922,
    "Ġchron": 19434,
    "lee": 11583,
    "Ġsurvivor": 17360,
    "Ġdictionaries": 12337,
    "Ġaround": 3612,
    "uded": 6285,
    "Ġmentioned": 4330,
    "Ġdelighted": 5500,
    "paying": 25410,
    "Ġbench": 7239,
    "isle": 13887,
    "halloa": 17089,
    "Ġnam": 17945,
    "morn": 20971,
    "Ġimputed": 12802,
    "steel": 8299,
    "concerned": 24638,
    "Ġcontest": 18471,
    "Ġfolly": 7941,
    "Ġscraped": 16900,
    "j": 78,
    "Ġobtruded": 20719,
    "Ġgrave": 5100,
    "loved": 14245,
    "Ġprocesses": 3634,
    "Ġpresence": 5032,
    "ary": 984,
    "pumps": 21022,
    "inable": 11554,
    "Ġturtles": 19217,
    "Ġcolouring": 16748,
    "Ġlub": 15643,
    "Ġclimax": 25051,
    "establishment": 26111,
    "aces": 2070,
    "miserably": 24213,
    "uation": 17692,
    "Ġdraught": 9844,
    "sleeping": 13450,
    "Ġprodigies": 19790,
    "Ġincorrect": 2729,
    "Ġdev": 887,
    "wor": 3415,
    "overlooked": 23323,
    "Ġcopse": 17065,
    "Ġmisanthrop": 22759,
    "Ġboarders": 16597,
    "cil": 8721,
    "Ġbe": 336,
    "shroud": 20307,
    "inav": 15479,
    "Ġroom": 1462,
    "penetrating": 25489,
    "Ġphr": 2680,
    "Ġcrisp": 12000,
    "wretch": 17706,
    "Ġred": 3006,
    "Ġdescent": 1001,
    "secured": 16935,
    "ĠĠĠĠĠĠĠĠĠĠĠĠĠĠĠĠĠĠĠĠĠĠĠĠĠĠĠĠĠĠĠĠĠĠĠĠĠĠĠĠĠ": 19579,
    "ateness": 15514,
    "hide": 10703,
    "Ġgazes": 24095,
    "Ġknotted": 17018,
    "flies": 19420,
    "Ġcarried": 3693,
    "tering": 3805,
    "Ġund": 4118,
    "Ġfitness": 23999,
    "Ġharbor": 10026,
    "philips": 20031,
    "Ġemigrant": 25857,
    "Ġpossibility": 7459,
    "H": 44,
    "Ġveget": 11883,
    "Ġfestival": 25444,
    "irs": 14064,
    "oms": 4594,
    "ingle": 1038,
    "Ġelsewhere": 7713,
    "Ġvisitors": 7985,
    "ial": 412,
    "Ġfishermen": 5969,
    "dense": 18710,
    "loveliness": 26548,
    "contain": 18499,
    "win": 6803,
    "silly": 24425,
    "Ġrumors": 11321,
    "sounding": 24798,
    "lanter": 15382,
    "cro": 13691,
    "Ġhappiest": 11879,
    "Ġtwain": 16114,
    "val": 1150,
    "tumultuous": 20395,
    "Ġsusp": 2662,
    "iance": 5280,
    "aborate": 14016,
    "circumspect": 26084,
    "tables": 19754,
    "bearded": 18519,
    "Ġalacrity": 15731,
    "transition": 24516,
    "beds": 16583,
    "significant": 25081,
    "scor": 13014,
    "Ġfatig": 6757,
    "Ġdressed": 5082,
    "bur": 4688,
    "ease": 12454,
    "gre": 5789,
    "hold": 3980,
    "english": 2775,
    "hast": 5358,
    "possession": 12219,
    "U": 57,
    "Ġgrey": 4513,
    "isk": 9166,
    "lished": 8383,
    "insisted": 23062,
    "Ġthroat": 7771,
    "Ġmaz": 15535,
    "bo": 1687,
    "Ġfaded": 10809,
    "ignific": 11953,
    "ners": 3271,
    "Ġheath": 15696,
    "Ġseries": 7061,
    "Ġautonom": 10416,
    "Ġmead": 8834,
    "Ġsplendid": 17212,
    "Ġconjunction": 25099,
    "Ġwaterward": 23367,
    "Ġaccurate": 13248,
    "Ġeconomy": 17199,
    "Ġum": 10211,
    "Ġ13": 6719,
    "Ġfollows": 7673,
    "deed": 1516,
    "Ġdinnertime": 16716,
    "meryton": 10111,
    "mature": 20962,
    "Ġdeserved": 7737,
    "Ġnightmare": 18916,
    "domestic": 19822,
    "Ġpeaking": 22684,
    "importance": 9988,
    "assisted": 22301,
    "Ġimmortality": 26323,
    "Ġdrawer": 13261,
    "Ġadequate": 20305,
    "Ġringle": 18209,
    "Ġfantastic": 10058,
    "Ġcompens": 14258,
    "vision": 5621,
    "Ġlakeman": 6987,
    "Ġexponential": 1057,
    "ivation": 3108,
    "ead": 2598,
    "Ġwindpipe": 23101,
    "engthen": 14450,
    "Ġgallons": 14812,
    "Ġlively": 5450,
    "Ġcomponents": 8892,
    "Ġhired": 10177,
    "Ġlexic": 15718,
    "Ġexpectantly": 23524,
    "humorously": 24020,
    "drew": 7335,
    "Ġmanipulation": 10658,
    "lays": 14917,
    "enged": 23142,
    "Ġgoodge": 22818,
    "Ġrepairs": 19079,
    "Ġfearless": 9874,
    "Ġunfit": 14781,
    "Ġarray": 12805,
    "Ġimmediately": 3365,
    "Ġfloundering": 16248,
    "Ġshortly": 6196,
    "avoiding": 25234,
    "Ġscanning": 18396,
    "rol": 5714,
    "Ġdisconcerted": 18559,
    "overing": 6306,
    "falsehood": 25899,
    "uer": 21095,
    "Ġcetacean": 25876,
    "Ġinspect": 5962,
    ".*": 7332,
    "Ġfil": 3470,
    "Ġshutting": 14754,
    "Ġlamp": 4113,
    "Ġhowever": 1305,
    "Ġsparing": 22119,
    "Ġfestoon": 20291,
    "ou": 287,
    "Ġheard": 1400,
    "Ġwithal": 18110,
    "suffer": 24336,
    "torm": 11529,
    "Ġparade": 18309,
    "5": 25,
    "convers": 6567,
    "Ġvillas": 24054,
    "Ġ122": 24470,
    "Ġlandless": 23379,
    "Ġcasement": 25091,
    "Ü": 157,
    "Ġcompromising": 22567,
    "supportable": 12367,
    "Ġserenely": 13502,
    "Ġobsequ": 14314,
    "seized": 14029,
    "Ġsecre": 5494,
    "verbally": 25359,
    "erranean": 9332,
    "Ġfeature": 757,
    "Ġpaused": 5417,
    "Ġaffection": 2638,
    "Ġcomfor": 14048,
    "Ġdishonoured": 20386,
    "brous": 19195,
    "Ġprejudices": 13465,
    "buoy": 7761,
    "throw": 14092,
    "Ġefforts": 11799,
    "arance": 4699,
    "ioneer": 15625,
    "lung": 17589,
    "Ġ99": 10745,
    "Ġenjoying": 11234,
    "wished": 13800,
    "Ġparacels": 13662,
    "Ġheeds": 24523,
    "kinder": 24846,
    "Ġforgiveness": 16653,
    "Ġlearns": 2642,
    "Ġbritannica": 24680,
    "chery": 24554,
    "Ġdespairing": 14768,
    "Ġcoefficient": 2886,
    "Ġskilfully": 20520,
    "Ġdisgu": 8206,
    "Ġimagined": 8607,
    "Ġnorthwards": 19543,
    "Ġyears": 1891,
    "paradise": 20634,
    "deep": 1029,
    "Ġshall": 1143,
    "incl": 8110,
    "Ġsuits": 22077,
    "Ġupheld": 22146,
    "Ġprayed": 16664,
    "Ġintensity": 10015,
    "hing": 978,
    "Ġbizarre": 17869,
    "Ġaffirmative": 15218,
    "Ġargued": 13624,
    "ocations": 23708,
    "Ġwearer": 21916,
    "dington": 11898,
    "Ġemperor": 15154,
    "Ġunusual": 6553,
    "Ġadler": 8174,
    "formation": 22207,
    "ren": 549,
    "Ġstark": 7390,
    "Ġfiery": 6872,
    "Ġfearing": 12809,
    "Ġhide": 4590,
    "Ġspark": 6689,
    "steelkilt": 10046,
    "Ġprob": 969,
    "police": 10583,
    "Ġestimate": 19369,
    "Ġwedded": 16671,
    "agne": 21899,
    "Ġtruck": 19508,
    "Ġimprudently": 22380,
    "iate": 6505,
    "comm": 7440,
    "anean": 7444,
    "Ġbaby": 6636,
    "Ġstatistical": 11104,
    "Ġsubsc": 22781,
    "Ġuncont": 14110,
    "Ġfossils": 20219,
    "Ġbreeding": 14517,
    "Ġjupiter": 17453,
    "msman": 9267,
    "Ġdrow": 21421,
    "Ġperemptorily": 17364,
    "Ġwhich": 504,
    "lydia": 6827,
    "Ġmaps": 2965,
    "Ġchanged": 5244,
    "Ġgra": 417,
    "weed": 14309,
    "quod": 2167,
    "Ġidentifies": 12012,
    "Ġconstruct": 23341,
    "appalling": 22838,
    "Ġunallied": 22024,
    "Ġsystematically": 4195,
    "concerted": 16668,
    "Ġemma": 20691,
    "Ġduplicates": 17215,
    "Ġsavag": 19370,
    "Ġtiar": 21163,
    "Ġplatform": 17130,
    "condescended": 26246,
    "Ġpeev": 22687,
    "moonlight": 25374,
    "bohemia": 20728,
    "Ġspar": 10920,
    "Ġglistened": 20168,
    "Ġabsence": 4895,
    "calabash": 22892,
    "Ġspermacetti": 19044,
    "Ġhedgehogs": 25393,
    "Ġbuckskin": 19948,
    "becoming": 18516,
    "nature": 5360,
    "Ġdescrying": 18617,
    "Ġbreak": 2870,
    "Ĳ": 243,
    "Ġsect": 17749,
    "Ġconfirms": 23309,
    "Ġalexander": 17421,
    "Ġreynolds": 10209,
    "Ġdebts": 8036,
    "Ġgene": 15666,
    "account": 5330,
    "aders": 21752,
    "Ġtipt": 21169,
    "Ġhandle": 3136,
    "tw": 2812,
    "Ġnumerical": 4247,
    "Ġcomprise": 18580,
    "moored": 22698,
    "bery": 9787,
    "Ġcham": 4893,
    "mechan": 11854,
    "Ġrelinqu": 12976,
    "acquaintance": 6939,
    "him": 1938,
    "acle": 4717,
    "Ġlighting": 13078,
    "Ġbeseeching": 26309,
    "Ġconsumed": 10349,
    "north": 14612,
    "Ġaffronted": 22889,
    "Ġcategorization": 12133,
    "Ġconfiding": 19033,
    "Ġwhit": 7178,
    "Ġlucifers": 16585,
    "say": 3982,
    "Ġvii": 13105,
    "Ġhampshire": 15238,
    "cham": 10853,
    "Ġtimidity": 24687,
    "Ġoverseeing": 22343,
    "Ġunwinding": 22052,
    "audible": 17131,
    "Ġsteered": 11093,
    "Ġkill": 4454,
    "ription": 5677,
    "Ġscud": 14185,
    "Ġrelevant": 1863,
    "Ġcharged": 9853,
    "Ġbott": 3147,
    "Ġwon": 1660,
    "vious": 1783,
    "eked": 16397,
    "improve": 15706,
    "Ġgive": 1713,
    "Ġplaint": 10325,
    "Ġwhole": 1658,
    "Ġimperfect": 13336,
    "Ġinstruction": 14336,
    "Ġsimon": 5173,
    "Ġchemical": 10410,
    "lance": 12478,
    "Ġcontext": 1679,
    "enborough": 21281,
    "Ġrepeating": 11213,
    "based": 2962,
    "Ġfel": 1515,
    "Ġtre": 2537,
    "ect": 381,
    "good": 2901,
    "Ġhorrify": 23818,
    "Ġisn": 7867,
    "rers": 14713,
    "Ġpend": 15599,
    "Ġprime": 10404,
    "ving": 592,
    "yset": 21140,
    "Ġcan": 471,
    "Ġimpressions": 9551,
    "Ġasser": 6257,
    "tle": 2409,
    "ised": 1100,
    "gd": 3123,
    "Ġdraughts": 20218,
    "Ġgraph": 10902,
    "Ġproportion": 7282,
    "Ġtal": 7565,
    "arman": 11593,
    "osa": 22253,
    "Ġmain": 810,
    "Ġinterrupt": 4360,
    "aled": 3942,
    "Ġbeating": 8145,
    "bishop": 13689,
    "Ġvolley": 24147,
    "circumamb": 26085,
    "luckily": 19749,
    "Ġdotted": 16789,
    "Ġcollected": 2609,
    "Ġenlightened": 12740,
    "grate": 23412,
    "gled": 10699,
    "estab": 14165,
    "Ġindomitableness": 26570,
    "Ġremorselessly": 16964,
    "aming": 5828,
    "sence": 3307,
    "Ġprojecting": 9984,
    "drab": 23897,
    "Ġvisits": 8224,
    "Ġgazette": 19497,
    "plan": 15809,
    "osoever": 17340,
    "holder": 13278,
    "pursu": 11392,
    "modesty": 22877,
    "Ġfreighted": 16320,
    "joint": 24008,
    "Ġ9": 5899,
    "Ġsolicited": 20033,
    "emone": 21921,
    "asses": 7017,
    "Ġcurious": 3360,
    "Ġcalculated": 4475,
    "Ġpovelson": 26551,
    "quadrille": 20591,
    "Ġdepose": 22601,
    "unalterable": 21880,
    "madly": 24423,
    "mountains": 15176,
    "Ġhasten": 10478,
    "Ġblessing": 11263,
    "Ġhack": 12750,
    "Ġexceptional": 19367,
    "Ġphilosophical": 26332,
    "Ġdey": 11673,
    "Ġdrug": 11410,
    "Ġgur": 21585,
    "Ġcomical": 11678,
    "Ġdeserve": 8309,
    "regarding": 15066,
    "vul": 15443,
    "increased": 20267,
    "Ġvillainous": 25131,
    "allers": 22191,
    "Ġbehooves": 20730,
    "Ġgallows": 12143,
    "Ġderive": 10394,
    "Ġshivered": 14102,
    "mal": 6796,
    "Ġrouse": 15816,
    "sulphur": 25907,
    "vict": 11539,
    "Ġacquainted": 5180,
    "retirement": 23134,
    "pers": 4337,
    "duck": 22406,
    "Ġsimilarly": 24311,
    "Ġsnar": 13197,
    "Ġedge": 5189,
    "ĠĠĠĠĠĠĠĠĠĠĠĠĠĠĠĠĠĠĠĠĠĠĠĠĠĠĠĠĠĠ": 24446,
    "ulgences": 21859,
    "pursuit": 20337,
    "Ġgurglings": 26463,
    "striking": 13436,
    "hertfordshire": 10936,
    "Ġblocked": 19219,
    "Ġemerging": 24612,
    "Ġrelapses": 26276,
    "ain": 343,
    "Ġnarrative": 6215,
    "simple": 13448,
    "Ġbalmoral": 16202,
    "pane": 10120,
    "Ġtons": 11548,
    "Ġhanged": 17922,
    "Ġkrem": 9725,
    "american": 11400,
    "Ġdiffidence": 14654,
    "Ġanimal": 2498,
    "Ġquoin": 22412,
    "Ġreferred": 8916,
    "reached": 13836,
    "Ġpau": 17907,
    "Ġprincipally": 11309,
    "sprit": 11382,
    "Ġsunwards": 19007,
    "Ġblandly": 20320,
    "Ġhuman": 1317,
    "Ġglance": 4235,
    "Ġtossing": 8126,
    "hatch": 15359,
    "either": 6793,
    "Ġenlar": 15795,
    "Ġdiffident": 23783,
    "agon": 7872,
    "laws": 19804,
    "mand": 3893,
    "Ġallusion": 7626,
    "Ġelastic": 4362,
    "Ġrallied": 14089,
    "pattern": 4138,
    "Ġteeth": 4167,
    "Ġgunwales": 12238,
    "judging": 24203,
    "occasional": 19573,
    "Ġcrockery": 24304,
    "Ġvoice": 2192,
    "Ġinstituted": 18694,
    "Ġsubterranean": 13606,
    "Ġprop": 1678,
    "Ġarab": 7825,
    "eed": 20838,
    "Ġpatient": 6893,
    "scent": 13015,
    "usive": 8192,
    "Ġflower": 16228,
    "comfortableness": 24528,
    "Ġadroop": 25999,
    "idean": 14257,
    "Ġintelligently": 4168,
    "pate": 21005,
    "Ġclenched": 14202,
    "deav": 2672,
    "Ġcounsel": 13610,
    "Ġarrangements": 16511,
    "Ġisland": 4046,
    "Ġpred": 667,
    "Ġdegrees": 7295,
    "Ġremoval": 12114,
    "Ġfright": 3795,
    "qualities": 25041,
    "Ġeagle": 13199,
    "brave": 19820,
    "disgraceful": 26074,
    "displeasure": 23495,
    "ignorant": 13558,
    "apparatus": 26562,
    "Ġcomplied": 14729,
    "Ġqualifications": 24675,
    "Ġmisconduct": 22758,
    "Ġmiser": 18698,
    "drifting": 19821,
    "Ġdod": 6673,
    ".--": 20743,
    "Ġjuggler": 26364,
    "igators": 18042,
    "mixed": 15389,
    "Ġcurtain": 14401,
    "ĠĠĠĠĠĠĠĠĠĠĠĠĠĠĠĠĠĠĠĠĠĠĠĠĠĠĠĠĠĠĠĠĠĠ": 14610,
    "Ġconductor": 24006,
    "ets": 1160,
    "Ġmurmuring": 23580,
    "separ": 9229,
    "humour": 7499,
    "Ġalpha": 13583,
    "ying": 1367,
    "Ġtowards": 1728,
    "Ġyarn": 10868,
    "Ġembarks": 22998,
    "Ġhairs": 13226,
    "Ġreliable": 18773,
    "Ġtowed": 11265,
    "Ġannoyance": 20659,
    "Ġsunday": 7271,
    "Ġlabourers": 23331,
    "Ġdependence": 18626,
    "Ġpudding": 17914,
    "Ġbreaching": 23346,
    "Ġencirc": 18727,
    "Ġslightly": 7294,
    "Ġattained": 14072,
    "moreover": 12963,
    "Ġassertion": 13485,
    "introduction": 15119,
    "Ġembodied": 25846,
    "Ġkissed": 10044,
    "Ġprivileged": 20109,
    "Ġlistening": 6318,
    "doubtful": 24792,
    "Ġold": 1056,
    "chronicle": 26479,
    "Ġbud": 10168,
    "rential": 22914,
    "uture": 1078,
    "Ġvastly": 23860,
    "inexplicable": 25807,
    "moments": 19408,
    "ichever": 13951,
    "Ġmustard": 12924,
    "Ġmorocc": 22972,
    "Ġcaused": 5049,
    "Ġnumerous": 6921,
    "spent": 12936,
    "concl": 12863,
    "Ġwelfare": 12554,
    "Ġender": 11687,
    "Ġdog": 4194,
    "voc": 8394,
    "ants": 1392,
    "Ġhaggard": 17327,
    "ru": 479,
    "asp": 3340,
    "--âĢľ": 12966,
    "programming": 10062,
    "seals": 21812,
    "ograph": 4798,
    "ains": 5094,
    "ishments": 9271,
    "Ġbrine": 18766,
    "Ġapproached": 5843,
    "lemagne": 26434,
    "suit": 18629,
    "Ġhimmale": 18326,
    "Ġagreement": 18540,
    "Ġtravell": 5577,
    "Ġvirtue": 4923,
    "Ġcleat": 18943,
    "Ġagreeably": 24951,
    "Ġhill": 5627,
    "cig": 17501,
    "Ġiii": 7862,
    "iations": 11494,
    "Ġstockings": 19993,
    "Ġcreating": 2997,
    "characteristic": 24685,
    "pping": 1426,
    "Ġaddressed": 5263,
    "sun": 7140,
    "ross": 809,
    "iliating": 12689,
    "ureau": 10226,
    ";âĢĶ": 3748,
    "Ġhope": 1788,
    "Ġobliquely": 12359,
    "haust": 5778,
    "crooked": 25744,
    "Ġpenal": 1773,
    "Ġminima": 3462,
    "Ġjoyfully": 19342,
    "Ġtowns": 11173,
    "Ġfitzwilliam": 5772,
    "Ġlodger": 24093,
    "governed": 25404,
    "uberance": 25914,
    "Ġcrust": 21346,
    "Ġstaggers": 24653,
    "Ġcrackling": 24957,
    "Ġlacepede": 20491,
    "Ġbeef": 6831,
    "Ġquivers": 22407,
    "Ġmotioned": 19589,
    "Ġaccomplished": 7105,
    "Ġsupreme": 13602,
    "Ġhusband": 3621,
    "ained": 3063,
    "throt": 25657,
    "Ġtartar": 17319,
    "Ġinterven": 10997,
    "midnight": 14897,
    "Ġconceal": 5972,
    "Ġlest": 6395,
    "Ġpaul": 12059,
    "Ġgasfitters": 25037,
    "hoping": 17564,
    "passion": 11260,
    "Ġdoc": 7201,
    "exp": 2738,
    "Ġmar": 1311,
    "living": 7134,
    "Ġslee": 8974,
    "resembling": 25930,
    "Ġfund": 2844,
    "travel": 24319,
    "Ġjaws": 5594,
    "Ġplunging": 14947,
    "jewel": 20343,
    "Ġtransformer": 2635,
    "ersed": 10257,
    "grace": 5846,
    "Ġatonement": 21936,
    "pleasing": 14737,
    "begged": 18517,
    "Ġcoll": 8221,
    "ben": 4927,
    "Ġpatronage": 17052,
    "Ġgrasped": 8034,
    "Ġlone": 11611,
    "Ġloud": 4702,
    "where": 2094,
    "sounded": 12264,
    "Ġunwarranted": 25169,
    "Ġcoopman": 25825,
    "Ġdusting": 24596,
    "Ġsaws": 23044,
    "Ġlye": 21544,
    "compass": 9459,
    "Ġfiercely": 12946,
    "unched": 10235,
    "bulkington": 19922,
    "Ġbeholding": 8669,
    "Ġhereditary": 10664,
    "rity": 13771,
    "Ġflashing": 13022,
    "Ġwell": 903,
    "Ġhalf": 1666,
    "mond": 20968,
    "Ġprecautions": 23727,
    "steaks": 23960,
    "insist": 23059,
    "bond": 17487,
    "Ġgaping": 13963,
    "Ġimpatient": 5604,
    "make": 5794,
    "remind": 23183,
    "Ġsweatings": 25708,
    "Ġunmethodically": 22063,
    "Ġloosened": 26000,
    "Ġbalance": 2019,
    "inarticulate": 21191,
    "oided": 11507,
    "Ġlegit": 16469,
    "desk": 23206,
    "idious": 11660,
    "delirious": 19502,
    "dr": 6221,
    "Ġrings": 11697,
    "Ġdem": 11672,
    "Ġanointing": 25538,
    "ent": 305,
    "Ġexternal": 8365,
    "Ġparamore": 22134,
    "mean": 6438,
    "scand": 18851,
    "Ġsincerely": 7963,
    "itan": 10159,
    "Ġ113": 19693,
    "Ġmine": 3178,
    "merit": 19279,
    "Ġstrove": 9956,
    "million": 25749,
    "discovery": 12014,
    "Ġwor": 1189,
    "Ġalleged": 17289,
    "papers": 12497,
    "whaleman": 23436,
    "Ġterrors": 6919,
    "bedroom": 14672,
    "Ġrestrain": 8964,
    "Ġmowers": 17810,
    "Ġapparatus": 24908,
    "iction": 4270,
    "Ġguards": 16265,
    "esteemed": 26007,
    "Ġvariety": 8531,
    "Ġmundane": 26427,
    "Ġhit": 7164,
    "urpation": 16296,
    "astrous": 15880,
    "brance": 7285,
    "Ġowed": 10780,
    "Ġprudent": 9184,
    "onical": 21249,
    "Ġclung": 10961,
    "jets": 20923,
    "ells": 5304,
    "Ġchallenges": 13625,
    "slackened": 26092,
    "painter": 24897,
    "Ġhealthy": 10851,
    "Ġmounts": 17804,
    "Ġconcepts": 4552,
    "Ġwicked": 5959,
    "Ġuninjured": 22048,
    "Ġmiriam": 25271,
    "pondicherry": 26398,
    "revolver": 25625,
    "Ġswords": 19894,
    "Ġdelicacy": 6340,
    "Ġencourages": 2062,
    "â": 163,
    "Ġhag": 12619,
    "orte": 14179,
    "Ġele": 1962,
    "Ġunlock": 18240,
    "definition": 23112,
    "Ġcardboard": 19975,
    "Ø": 153,
    "Ġmove": 5107,
    "searching": 25102,
    "Ġshare": 1653,
    "Ġjustify": 11072,
    "Ġexpost": 18623,
    "for": 967,
    "Ġbenevolent": 7773,
    "reinforcement": 7828,
    "Ġfiver": 22770,
    "stop": 11632,
    "agger": 7873,
    "Ġaustral": 12170,
    "Ġsheets": 9721,
    "Ġstreng": 18067,
    "pitchpoling": 25723,
    "downstairs": 23919,
    "Ġduncan": 13457,
    "lungs": 26133,
    "did": 3195,
    "Ġuncommon": 5027,
    "ional": 1084,
    "Ġscaramouch": 23827,
    "orns": 12587,
    "diminished": 20836,
    "Ġdrawback": 23989,
    "illed": 2623,
    "Ġstrewed": 23422,
    "Ġorchard": 22088,
    "ceptibly": 22346,
    "condem": 16339,
    "breeze": 20559,
    "Ġdeliriously": 23226,
    "Ġjagged": 18404,
    "loving": 18535,
    "Ġpastures": 23420,
    "decl": 8856,
    "Ġtakes": 5008,
    "ĩ": 234,
    "elephant": 12348,
    "Ġswart": 14428,
    "acted": 11010,
    "Ġsatisfied": 4174,
    "Ġdischar": 11805,
    "Ġcaring": 23087,
    "Ġhorsey": 24252,
    "Ġenslaved": 26312,
    "Ġacquaint": 13039,
    "Ġejaculated": 15165,
    "Ġunlocked": 14114,
    "Ġignited": 25068,
    "Ġcontrol": 13075,
    "Ġmultiplication": 2873,
    "irms": 18163,
    "hies": 17558,
    "neighboring": 20613,
    "Ġbiscuit": 12584,
    "almost": 4944,
    "ster": 1952,
    "Ġunh": 9251,
    "Ġemployment": 8629,
    "Ġflash": 8230,
    "Ġsins": 13832,
    "Ġomnipotent": 13543,
    "Ġbodily": 6105,
    "vit": 13796,
    "ibule": 13005,
    "sal": 8758,
    "mis": 4522,
    "Ġnarratives": 24356,
    "narrative": 17316,
    "Ġsallow": 12531,
    "doub": 6223,
    "ipher": 18424,
    "leagued": 26433,
    "Ġpam": 21448,
    "planks": 21948,
    "Ġtingling": 15087,
    "Ġweaken": 21915,
    "Ġsite": 17751,
    "supervised": 1946,
    "avast": 8896,
    "Ġadvancement": 24478,
    "masculine": 24390,
    "Ġincommun": 25307,
    "Ġresults": 7309,
    "Ġdial": 10810,
    "Ġpir": 6819,
    "Ġknave": 11272,
    "Ġcraft": 4376,
    "Ġno": 511,
    "Ã": 132,
    "Ġconscientious": 16724,
    "Ġarticulate": 24435,
    "Ġpoison": 7220,
    "Ġusing": 715,
    "rifle": 21041,
    "Ġperv": 15985,
    "Ġpop": 5152,
    "illum": 15864,
    "ys": 3958,
    "Ġrepulses": 26067,
    "swear": 16915,
    "Ġ[": 6968,
    "forget": 11032,
    "dz": 4740,
    "Ġcabaco": 13164,
    "Ġas": 374,
    "Ġsneezes": 24698,
    "Ġgaunt": 11268,
    "Ġvillage": 5775,
    "Ġinjustice": 9189,
    "Ġshirr": 18228,
    "Ġinduced": 8671,
    "Ġnovel": 6696,
    "Ġhudson": 15187,
    "des": 1567,
    "Ġabomination": 22272,
    "dil": 11478,
    "cross": 3576,
    "Ġlivel": 11355,
    "Ġpeak": 16121,
    "Ġpuppy": 12402,
    "Ġzigzag": 26270,
    "Ġarchitects": 18738,
    "ohog": 9843,
    "!âĢĻâĢĿ": 16589,
    "Ġfloundered": 18858,
    "delight": 5345,
    "Ġcum": 21337,
    "Ġfurs": 18734,
    "Ġofficers": 4426,
    "Ġincom": 9768,
    "Ġfidgeted": 25887,
    "Ġtarpaul": 17728,
    "bpp": 20769,
    "Ġbags": 24540,
    "Ġprints": 16327,
    "Ġretarded": 23067,
    "ose": 718,
    "baggage": 24925,
    "Ġmortifying": 13240,
    "Ġdiscipl": 22775,
    "Ġcanv": 7010,
    "harm": 13730,
    "Ġfourth": 7707,
    "oline": 6834,
    "keys": 15853,
    "Ġfisher": 3222,
    "practised": 20244,
    "Ġopium": 8994,
    "Ġreciprocating": 26367,
    "stat": 21632,
    "fifty": 12349,
    "Ġbremen": 23344,
    "Ġoftener": 13560,
    "Ġsepar": 3998,
    "class": 4095,
    "Ġnooks": 26009,
    "Ġadvertisement": 6942,
    "Ġhaze": 18193,
    "Ġnearest": 8470,
    "Ġbowed": 6242,
    "deprived": 19895,
    "bolt": 25135,
    "Ġ6": 5142,
    "Ġrespected": 11950,
    "ety": 3519,
    "numer": 15394,
    "largely": 19571,
    "Ġcarpent": 4465,
    "Ġreb": 15685,
    "Ġashore": 5352,
    "Ġtreats": 19340,
    "Ġconcocted": 26297,
    "Ġrocked": 12849,
    "_": 67,
    "cheerful": 13570,
    "unfortunate": 15771,
    "piling": 15410,
    "Ġscorched": 17100,
    "Ġirritated": 17241,
    "sander": 11525,
    "structure": 2322,
    "prudently": 21029,
    "Ġcottage": 4735,
    "verdict": 21723,
    "Ġstiff": 6993,
    "Ġverses": 17061,
    "gging": 7697,
    "Ġdamp": 8264,
    "Ġsanely": 24979,
    "Ġroots": 11185,
    "chop": 21682,
    "imet": 21700,
    "Ė": 215,
    "correspond": 13395,
    "scoured": 22986,
    "Ġrelated": 3714,
    "Ġfertile": 20579,
    "Ġinduce": 7763,
    "?": 35,
    "cursed": 23843,
    "Ġappeal": 16310,
    "avail": 18601,
    "Ġclub": 8873,
    "Ġmoonshine": 19594,
    "staking": 21636,
    "quitted": 21840,
    "Ġ7": 4746,
    "Ġleast": 2066,
    "induce": 22368,
    "ce": 313,
    "Ġinvisibly": 24818,
    "Ġstudents": 23189,
    "Ġevian": 24293,
    "Ġparch": 11728,
    "Ġreign": 13979,
    "Ġkins": 22188,
    "propagation": 1251,
    "brushing": 20785,
    "involuntarily": 20411,
    "monsters": 19168,
    "Ġinstrum": 6053,
    "Ġfinery": 23122,
    "print": 23811,
    "happy": 4425,
    "Ġfanciful": 24789,
    "Ġinserting": 19903,
    "Ġalong": 1977,
    "itory": 12562,
    "Ġswear": 6461,
    "Ġinvoked": 19142,
    "Ġobserving": 6079,
    "Ġsolved": 8931,
    "Ġreasoned": 23079,
    "employ": 10895,
    "Ġabilities": 8866,
    "Ġdeterminate": 22997,
    "Ġmaimed": 21312,
    "Ġincome": 7918,
    "Ġmind": 1620,
    "imperturbable": 25788,
    "Ġhat": 2773,
    "Ġwhereby": 11833,
    "analy": 17836,
    "pect": 1254,
    "ourse": 8869,
    "ied": 940,
    "Ġeccentric": 13644,
    "paper": 9136,
    "Ġgar": 10838,
    "Ġpropose": 9852,
    "Ġreservoir": 20648,
    "Ġwere": 555,
    "garnished": 26386,
    "Ġcruelty": 9968,
    "desc": 1395,
    "?âĢĿ": 700,
    "Ġoper": 2122,
    "Ġsmall": 893,
    "Ġinvest": 4979,
    "Ġperpendicular": 7210,
    "ı": 242,
    "gunwale": 20660,
    "Ġinvited": 6904,
    "Ġtermination": 16457,
    "nor": 2742,
    "unusual": 21873,
    "Ġquito": 24411,
    "Ġvertebra": 20177,
    "Ġrand": 1585,
    "Ġmuscles": 12085,
    "omen": 4086,
    "Ġtransformers": 1108,
    "Ġpassengers": 13670,
    "preserving": 25303,
    "Ġtriumphal": 24374,
    "Ġexperiment": 11916,
    "Ġgossiping": 26241,
    "leviathans": 19934,
    "Ġcogn": 11002,
    "Ġshudder": 9050,
    "Ġinterlacing": 22572,
    "Ġrider": 24187,
    "Ġcomparison": 7100,
    "Ġtit": 8399,
    "Ġeddystone": 25707,
    "acled": 16076,
    "Ġrap": 14297,
    "Ġsilver": 7465,
    "arks": 2845,
    "Ġhorrid": 7999,
    "Ġfarewell": 9519,
    "Ġprospect": 4707,
    "omeness": 18019,
    "mystic": 25315,
    "olet": 13761,
    "sicilian": 21058,
    "Ġinvitation": 5190,
    "infernal": 24662,
    "Ġamount": 8512,
    "Ġaged": 10321,
    "huzza": 20908,
    "Ġunmanner": 22021,
    "Ġmapple": 11150,
    "Ġcoquet": 22578,
    "ich": 469,
    "vis": 4578,
    "Ġjealous": 9468,
    "esc": 620,
    "Ġinclu": 1101,
    "darcy": 5209,
    "Ġtwelvemonth": 12175,
    "talking": 10006,
    "Ġstubbs": 23295,
    "Ġcreations": 18680,
    "Ġinvent": 7165,
    "Ġdivined": 19439,
    "rut": 8092,
    "Ġdeserts": 10507,
    "Ġfordham": 21770,
    "Ġalighted": 18100,
    "satisfactory": 16890,
    "Ġspeedily": 7712,
    "Ġheron": 22067,
    "addressed": 13382,
    "Ġsaturday": 6452,
    "partly": 14598,
    "supers": 22635,
    "horses": 17565,
    "globe": 25142,
    "Ġmurky": 19198,
    "unknown": 10890,
    "Ġlooks": 4165,
    "snap": 24849,
    "fee": 12877,
    "herself": 4891,
    "Ġwrath": 16312,
    "Ġgordon": 26465,
    "Ġcatch": 4441,
    "Ġhollows": 19738,
    "Ġreasonably": 11092,
    "Ġconvinced": 4208,
    "Ġaccomplice": 24379,
    "sum": 2089,
    "Ġgranted": 22802,
    "Ġavoided": 13254,
    "corn": 13694,
    "Ġstruggles": 16575,
    "Ġchilled": 18379,
    "Ġsits": 10768,
    "Ġleaning": 5229,
    "atisf": 21259,
    "Ġbrains": 2629,
    "Ġoperated": 14544,
    "jury": 15368,
    "disappointment": 11425,
    "Ġexploring": 4306,
    "compared": 24033,
    "Ġbrag": 23833,
    "Ġtypes": 8936,
    "skeleton": 17373,
    "oquent": 12495,
    "pockets": 16205,
    "inging": 5905,
    "turbaned": 24535,
    "including": 23591,
    "Ġchances": 9261,
    "Ġfrank": 4420,
    "mysterious": 26050,
    "Ġmur": 2488,
    "conditionally": 24835,
    "Ġenlarge": 21929,
    "Ġnigh": 4879,
    "Ġwearisome": 19792,
    "Ġsitt": 21213,
    "ropri": 2182,
    "Ġseaport": 20596,
    "Ġsorrow": 4630,
    "Ġlocker": 16908,
    "Ġsedentary": 25429,
    "Ġcannot": 1662,
    "Ġbabel": 24429,
    "wat": 6231,
    "Ġ}": 21149,
    "avating": 18602,
    "liked": 10508,
    "erable": 1916,
    "Ġhonorable": 16873,
    "chari": 21683,
    "therefore": 5952,
    "painted": 17637,
    "sincere": 16904,
    "Ġdined": 9175,
    "Ġcath": 17824,
    "Ġincorporate": 20451,
    "Ġfict": 21400,
    "bolts": 11420,
    "Ġperched": 10299,
    "rain": 461,
    "struck": 7863,
    "Ġtrapped": 23072,
    "cripp": 20816,
    "Ġalabama": 14013,
    "Ġdidn": 4363,
    "Ġwire": 13847,
    "Ġchil": 11748,
    "inkle": 22607,
    "Ġbrazier": 26318,
    "Ġfir": 17875,
    "Ġmotives": 7487,
    "mount": 9129,
    "barbar": 20235,
    "buffalo": 20560,
    "deli": 15339,
    "numerous": 17428,
    "Ġborrow": 10170,
    "Ġenjoys": 19446,
    "lamps": 25258,
    "esy": 9181,
    "Ġdoctor": 5068,
    "Ġbut": 423,
    "dum": 17516,
    "mental": 16055,
    "Ġrequire": 874,
    "ieties": 19021,
    "ocris": 23709,
    "Ġadhes": 22100,
    "impressed": 12685,
    "Ġlaz": 7378,
    "Ġphys": 5654,
    "Ġway": 1086,
    "Ġinqu": 2967,
    "Ġsuperflu": 14551,
    "lock": 1470,
    "osing": 3689,
    "government": 25405,
    "uine": 13794,
    "Ġirresistible": 13109,
    "Ġpooh": 18600,
    "cheeks": 23808,
    "nay": 7136,
    "Ġsyllables": 25297,
    "Ġundergo": 23233,
    "Ġhunters": 6300,
    "mured": 6961,
    "Ġdishes": 16044,
    "consent": 18500,
    "cannon": 22962,
    "Ġwept": 7185,
    "Ġpenetration": 19914,
    "Ġshoving": 23489,
    "notice": 16143,
    "Ġdefined": 11895,
    "Ġklux": 22189,
    "âĢľ": 344,
    "Ġprotect": 6337,
    "Ġcounterpart": 24721,
    "Ġbriony": 9327,
    "Ġbeside": 5193,
    "okes": 9275,
    "Ġsexes": 25166,
    "Ġminute": 4280,
    "Ġplanks": 5564,
    "Ġwhar": 7388,
    "rating": 7810,
    "Ġmastiff": 23725,
    "Ġprogeny": 17385,
    "terrific": 25039,
    "Ġloadstone": 25814,
    "Ġninetieth": 25356,
    "summoned": 26590,
    "Ġnobleman": 19388,
    "Ġdangling": 17173,
    "Ġmasterless": 23994,
    "ods": 8835,
    "Ġweedy": 15786,
    "Ġjackets": 19599,
    "Ġdecomposition": 5343,
    "heard": 5010,
    "ese": 4444,
    "Ġreligious": 25121,
    "Ġcircular": 13107,
    "conversations": 24749,
    "ost": 5361,
    "oured": 2670,
    "ind": 566,
    "icy": 6140,
    "Ġsideways": 6182,
    "Ġsuggested": 8321,
    "Ġ28": 19292,
    "cept": 554,
    "Ġtens": 17721,
    "putting": 14094,
    "revival": 26160,
    "ursday": 12274,
    "Ġhammock": 5769,
    "slowly": 9088,
    "grow": 10098,
    "Ġbare": 6132,
    "Ġmicroscopic": 26371,
    "thread": 15821,
    "Ġneighbours": 8303,
    "iminished": 19020,
    "Ġbony": 12582,
    "izure": 21828,
    "urity": 8143,
    "Ġtreacher": 8605,
    "dict": 15334,
    "Ġopenly": 8573,
    "nearly": 8681,
    "Ġsense": 3251,
    "Ġconstant": 6309,
    "Ġgrapes": 15211,
    "Ġchecking": 23286,
    "week": 12925,
    "Ġwhence": 5839,
    "Ġfloat": 12029,
    "Ġjup": 15947,
    "subtle": 24246,
    "Ġfriendly": 9819,
    "ulated": 6028,
    "Ġlav": 13944,
    "ford": 2823,
    "Ġhapless": 15807,
    "Ġpalmy": 19495,
    "Ġcoiling": 12899,
    "Ġspell": 8854,
    "Ġaccordance": 19494,
    "oug": 431,
    "Ġdefects": 12330,
    "Ġseason": 5239,
    "Ġantilles": 24181,
    ",_": 11462,
    "Ġpersuas": 23946,
    "umns": 14142,
    "interval": 7991,
    "Ġaux": 21195,
    "Ġcontortions": 18474,
    "ĠĠĠĠĠĠĠĠĠĠĠĠĠĠĠĠĠĠĠĠĠĠĠĠĠĠ": 13385,
    "Ġplain": 2818,
    "Ġaggreg": 12878,
    "ricane": 16274,
    "rudence": 7093,
    "irous": 8838,
    "swam": 24257,
    "Ġmanaging": 22319,
    "Ġveteran": 17447,
    "Ġven": 4649,
    "Ġequatorial": 13504,
    "Ġbrimstone": 25684,
    "Ġstrategy": 2473,
    "Ġexcl": 3472,
    "Ġknowest": 12858,
    "fetch": 12461,
    "Ġdomineering": 23669,
    "Ġmoonlight": 9957,
    "Ġspecially": 11995,
    "Ġlurked": 11291,
    "Ġpenetrating": 17010,
    "Ġinnocent": 4922,
    ";": 31,
    "Ġplate": 8898,
    "appe": 2945,
    "iftings": 23222,
    "pitching": 24077,
    "Ġeste": 6083,
    "04": 10679,
    "Ġluggage": 25955,
    "Ġavailed": 23951,
    "tall": 17671,
    "chest": 11208,
    "Ġkeeled": 18802,
    "Ġglue": 15668,
    "Ġdiscovery": 5413,
    "Ġsounding": 8265,
    "Ġmatrimony": 13630,
    "Ġother": 758,
    "Ġevaporate": 26330,
    "Ġshowed": 4496,
    "uce": 11534,
    "Ġsavi": 18322,
    "Ġapprised": 18358,
    "Ġsenor": 20146,
    "Ġfools": 14475,
    "mentioning": 24886,
    "hibited": 17424,
    "ahawk": 23316,
    "Ġhartshorn": 26178,
    "Ġstrangely": 5678,
    "Ġemptied": 24350,
    "historian": 25733,
    "Ġcumulative": 4213,
    "wheeler": 16183,
    "Ġfronted": 25852,
    "scattered": 22988,
    "umst": 2503,
    "Ġfavourite": 5271,
    "Ġfreckled": 18957,
    "Ġperusal": 14218,
    "Ġunaccount": 22019,
    "ately": 1694,
    "Ġap": 5009,
    "Ġphilosopher": 12181,
    "fins": 13714,
    "Ġcosy": 13128,
    "Ġcleaning": 23175,
    "serve": 13041,
    "Ġstun": 11648,
    "Ġserpent": 6738,
    "Ġsafely": 9025,
    "head": 1437,
    "Ġdisgraceful": 15016,
    "Ġevol": 2815,
    "Ġunlike": 7005,
    "Ġbloodthirst": 23802,
    "fate": 17537,
    "Ġscuff": 15937,
    "Ġnormalizing": 1821,
    "erne": 21265,
    "astonished": 15029,
    "Ġoarsman": 8638,
    "`": 68,
    "Ġextremities": 19192,
    "ap": 546,
    "Ġwondering": 7971,
    "Ġfought": 12588,
    "Ġmulti": 1045,
    "Ġled": 3520,
    "Ġmaggie": 26289,
    "snatched": 24851,
    "Ġhuff": 21483,
    "untering": 15770,
    "Ġpewter": 17184,
    "Ġnoting": 18218,
    "Ġspent": 3963,
    "Ġlingu": 11612,
    "vac": 15445,
    "Ġopposition": 16516,
    "Ġsab": 10762,
    "Ġdispute": 16050,
    "Ġpercept": 14217,
    "Ġcaptains": 7458,
    "Ġninety": 13596,
    "Ġdisplay": 6428,
    "Ġcontributes": 15246,
    "aration": 12601,
    "Ġsalvation": 14752,
    "Ġsnatching": 10472,
    "Ġmarried": 3407,
    "Ġaromatic": 25923,
    "Ġdesolate": 10012,
    "dred": 2526,
    "tea": 18736,
    "Ġwade": 17782,
    "Ġblu": 2687,
    "Ġblotting": 25312,
    "Ġill": 2195,
    "Ġcommunity": 19005,
    "urred": 8450,
    "steak": 14703,
    "Ġcrashes": 13123,
    "Ġcoleman": 22581,
    "Ġdouble": 4941,
    "misfortunes": 16753,
    "Ġgenial": 12192,
    "Ġkrus": 18346,
    "Ġmoderate": 10938,
    "Ġports": 10818,
    "tales": 17684,
    "Ġmediocr": 24085,
    "Ġbash": 12581,
    "Ġsuperst": 7704,
    "holland": 24042,
    "recover": 24622,
    "Ġimprovements": 14503,
    "transformer": 25014,
    "disgu": 19151,
    "Ġinstruct": 2866,
    "many": 5251,
    "Ġdiabolism": 25513,
    "Ġmoustache": 20480,
    "Ġhypothe": 4072,
    "expressed": 9041,
    "Ġsundial": 15077,
    "Ġartic": 5315,
    "Ġhonors": 23602,
    "Ġglit": 8559,
    "belais": 24039,
    "Ġinsisted": 12043,
    "Ġcomputations": 15999,
    "Ġconcept": 675,
    "Ġprecious": 5761,
    "fly": 13709,
    "Ġcorpus": 13026,
    "Ġrepro": 7276,
    "Ġpurp": 2393,
    "Ġbottle": 7491,
    "Ġbenevolence": 9525,
    "Ġincul": 22543,
    "low": 648,
    "Ġhopeless": 7464,
    "Ġpartially": 13120,
    "renched": 7908,
    "Ġnocturn": 18372,
    "Ġxxxii": 24969,
    "Ġtarquin": 23611,
    "Ġpost": 4274,
    "Ġfinger": 5274,
    "isis": 12574,
    "varying": 13799,
    "Ġstir": 5823,
    "Ġwood": 2293,
    "iscient": 17849,
    "ò": 179,
    "Ġlashings": 25096,
    "atmospheric": 17774,
    "Ġkidnapping": 26354,
    "hosmer": 25900,
    "Ġhearts": 4973,
    "accuracy": 9878,
    "c": 71,
    "tumbled": 21085,
    "Ġ1846": 26082,
    "Ġworship": 10366,
    "connect": 1294,
    "ĠarchÃ¦": 22779,
    "Ġservant": 5765,
    "itud": 2932,
    "Ġcocoanuts": 26360,
    "Ġwhitewashed": 14463,
    "Ġpolite": 9881,
    "Ġpump": 12615,
    "Ġnocturnal": 20712,
    "Ġgild": 15663,
    "Ġintelligences": 12825,
    "Ġblaming": 22925,
    "Ġpurpose": 2709,
    "legra": 10789,
    "might": 4077,
    "Ġg": 310,
    "boilers": 26295,
    "Ġtransient": 18477,
    "transom": 19732,
    "Ġbattered": 17860,
    "began": 6426,
    "shiver": 16016,
    "Æ": 135,
    "impart": 21703,
    "Ġcontextual": 3741,
    "Ġindifferent": 6174,
    "Ġsound": 2241,
    "ceive": 3062,
    "Ġtrance": 12833,
    "Ġwisely": 13267,
    "Ġstill": 1157,
    "muring": 17599,
    "Ġcaroline": 7256,
    "Ġcord": 5223,
    "timidity": 25751,
    "Ġhollowly": 24529,
    "Ġsine": 10763,
    "Ġbegan": 2020,
    "ynolds": 10035,
    "Ġfringed": 17271,
    "Ġdiscompose": 25578,
    "Ġcovent": 16069,
    "lace": 13743,
    "stayed": 25289,
    "Ġintervening": 17266,
    "lust": 15374,
    "Ġice": 3605,
    "Ġprivile": 8646,
    "ommod": 13975,
    "here": 2550,
    "Ġnormal": 1202,
    "Ġrussia": 26264,
    "]]": 5206,
    "daughter": 8354,
    "Ġthanked": 9458,
    "blocks": 25516,
    "locks": 14449,
    "iff": 3904,
    "isions": 6130,
    "Ġdistantly": 18529,
    "Ġmoses": 21311,
    "Ġblot": 9811,
    "bar": 6787,
    "ssian": 3398,
    "forth": 9320,
    "prepar": 22461,
    "cupboards": 25400,
    "Ġinsolent": 13595,
    "Ġallen": 5161,
    "forgive": 18728,
    "Ġprank": 23216,
    "Ġlining": 13945,
    "detective": 24386,
    "Ġroanoke": 22400,
    "distinction": 19568,
    "Ġscandinavian": 26342,
    "sit": 13775,
    "Ġenveloped": 12206,
    "Ġachieved": 13163,
    "icions": 21556,
    "reputable": 15512,
    "Ġtipped": 17726,
    "Ġcompassionate": 24723,
    "Ġyards": 5372,
    "forecastle": 10990,
    "Ġnephews": 24713,
    "remediable": 26292,
    "Ġfluctuations": 5517,
    "bol": 8718,
    "agony": 14063,
    "Ġparc": 10925,
    "Ġdazed": 15589,
    "Ġcirculation": 16412,
    "Ġdeformed": 14043,
    "chance": 6828,
    "own": 746,
    "Ġdirectors": 18918,
    "Ġhumph": 22875,
    "stache": 15683,
    "rocious": 21532,
    "Ġendless": 7054,
    "Ġwait": 4908,
    "*": 14,
    "Ġresolved": 3796,
    ".}": 20742,
    "ays": 6684,
    "Ġeyel": 17095,
    "Ġcomment": 9231,
    "Ġtusk": 25424,
    "Ġhelter": 24025,
    "Ġbells": 19598,
    "omach": 11635,
    "ume": 4835,
    "Ġstray": 18066,
    "Ġdexterous": 15144,
    "Ġfumbled": 17879,
    "Ġalbert": 12700,
    "Ġwayward": 22866,
    "Ġspeaking": 4025,
    "income": 15481,
    "Ġconceivable": 16610,
    "fast": 3069,
    "Ġcompute": 2907,
    "Ġperilous": 7769,
    "ardy": 22154,
    "procure": 23397,
    "diff": 9113,
    "Ġpenetrate": 12267,
    "``": 15302,
    ".]": 15294,
    "io": 3800,
    "Ġquarrelling": 13495,
    "Ġworms": 25214,
    "Ġtestimony": 14468,
    "tern": 4226,
    "Ġbumpkin": 20196,
    "Ñ": 146,
    "Ġcontrols": 1731,
    "Ġcol": 1058,
    "Ġquivering": 12852,
    "Ġattend": 5036,
    "Ġindolent": 13003,
    "chor": 6146,
    "Ġmeanwhile": 5737,
    "Ġsprout": 24089,
    "Ġrivals": 20268,
    "Ġtainted": 21166,
    "sat": 4810,
    "Ġsevere": 6030,
    "Ġdepends": 1087,
    "ira": 3956,
    "sus": 6228,
    "imper": 13991,
    "ceiling": 21621,
    "immediately": 10048,
    "Ġgor": 9205,
    "Ġnoblest": 13237,
    "Ġrudimental": 25108,
    "tailed": 17683,
    "Ġhung": 4561,
    "Ġgouldings": 26185,
    "Ġinterment": 22570,
    "Ġapprobation": 10985,
    "ć": 200,
    "Ġcumul": 4181,
    "Ġcomforters": 25798,
    "Ġsubdivisions": 26035,
    "Ġep": 7384,
    "Ġis": 347,
    "leep": 4636,
    "Ġweltering": 19582,
    "nels": 12491,
    "advanced": 19585,
    "Ġpassed": 2009,
    "±": 114,
    "increase": 20265,
    "Ġlodged": 11251,
    "Ġhousehold": 8568,
    "Ġcruises": 23706,
    "Ġratio": 5067,
    "supplement": 14791,
    "Ġproofs": 19811,
    "Ġunanswerable": 26520,
    "Ġbegins": 7245,
    "Ġtaffrail": 15471,
    "Ġrevelry": 15132,
    "deser": 10402,
    "Ġleyden": 21741,
    "Ġsworn": 14429,
    "Ġfasting": 16351,
    "Ġphilips": 5411,
    "Ġfergus": 16864,
    "Ġopens": 23627,
    "Ġslices": 23160,
    "tomorrow": 25912,
    "chains": 9684,
    "consciously": 19622,
    "Ġconceived": 8150,
    "Ġvanquished": 22870,
    "Ġrigid": 16713,
    "Ġsped": 22115,
    "Ġlantern": 7117,
    "rage": 10843,
    "mies": 20963,
    "prepared": 13585,
    "Ġhere": 1090,
    "ladder": 19781,
    "Ġey": 8135,
    "bit": 3930,
    "Ġthis": 382,
    "Ġcarn": 17819,
    "poss": 4779,
    "mers": 9609,
    "Ġcommod": 10333,
    "Ġborders": 15565,
    "succeeded": 15171,
    "aye": 3660,
    "Ġtil": 12519,
    "grave": 16089,
    "arking": 16120,
    "wh": 508,
    "spell": 22727,
    "Ġrole": 15992,
    "Ġmistake": 6203,
    "Ġsnorting": 23742,
    "cur": 3270,
    "august": 11071,
    "Ġcem": 17821,
    "Ġpods": 17913,
    "Ġexchanged": 10878,
    "ked": 5617,
    "Ġtiny": 11551,
    "when": 1590,
    "Ġfirst": 937,
    "Ġcupidity": 24538,
    "Ġhuddled": 20296,
    "Ġoccupy": 14726,
    "Ġfires": 16468,
    "Ġtester": 21168,
    "dra": 3412,
    "sle": 9137,
    "orated": 12586,
    "Ġedges": 3824,
    "iner": 2669,
    "Ġpsychology": 11448,
    "Ġupward": 9720,
    "daylight": 19049,
    "Ġgrud": 17992,
    "smo": 10125,
    "eze": 20844,
    "Ġsacrifice": 9554,
    "Ġf": 283,
    "pos": 15405,
    "Ġinhale": 20297,
    "honest": 17002,
    "ville": 6086,
    "Ġdevotedly": 24750,
    "Ġanother": 1736,
    "Ġrebellion": 26474,
    "Ġnapoleon": 20554,
    "Ġwin": 9640,
    "Ġcharles": 11954,
    "Ġmonosy": 18847,
    "eted": 7592,
    "Ġgasped": 11372,
    "metals": 24766,
    "truck": 15436,
    "Ġjoker": 22292,
    "?--": 15299,
    "Ġpreviously": 3918,
    "Ġadvoc": 12987,
    "likelihood": 4993,
    "Ġapproving": 18506,
    "Ġarist": 14156,
    "Ġcurt": 18826,
    "sixteen": 24854,
    "minutely": 19590,
    "eagerly": 17314,
    "oken": 4308,
    "Ġunfrequ": 19505,
    "kingly": 20934,
    "Ġdisquis": 22521,
    "ians": 2360,
    "Ġnovember": 11746,
    "Ġparl": 8178,
    "Ġtrading": 23071,
    "Ġsuffering": 8946,
    "irited": 15781,
    "Ġushered": 18353,
    "Ġquietude": 19356,
    "itals": 17818,
    "Ġcasket": 19721,
    "shutters": 20308,
    "bye": 5948,
    "Ġreasonable": 7255,
    "fortunate": 4793,
    "Ġrele": 2918,
    "ĠĠĠĠĠĠĠĠĠĠĠĠĠĠĠĠ": 1220,
    "Ġbrig": 11047,
    "future": 13712,
    "Ġegypt": 9678,
    "Ġchests": 19668,
    "restoration": 23232,
    "Ġcommended": 18653,
    "Ġcommotion": 9779,
    "Ġflag": 7243,
    "found": 4216,
    "Ġkent": 6692,
    "Ġhatred": 8609,
    "Ġguest": 7250,
    "quadr": 15757,
    "paus": 13768,
    "Ġcourse": 2133,
    "Ġdy": 2529,
    "Ġfield": 1238,
    "doms": 20832,
    "Ġital": 10866,
    "club": 26378,
    "uff": 2732,
    "Ġ": 225,
    "gl": 3291,
    "Ġpeculiarities": 12067,
    "generous": 16565,
    "Ġpunctilious": 26350,
    "congenial": 25398,
    "Ġfascinated": 25633,
    "Ġed": 2146,
    "Ġunlikely": 10908,
    "conveyed": 20517,
    "Ġblank": 5949,
    "towing": 17687,
    "Ġtig": 13808,
    "Ġhorn": 6185,
    "Ġobsequious": 17401,
    "Ġrat": 4354,
    "asmuch": 10194,
    "entitled": 21561,
    "Ġunderneath": 16333,
    "Ġconquered": 14020,
    "Ġdisappointed": 7098,
    "teenth": 11871,
    "Ġlast": 1126,
    "Ġgener": 599,
    "Ġsickened": 16772,
    "mast": 3603,
    "Ġwaggish": 25433,
    "Ġflatter": 9346,
    "Ġforbidding": 17078,
    "Ġattaining": 15798,
    "Ġardour": 8043,
    "Ġgrap": 11704,
    "Ġtwitch": 22670,
    "ective": 18171,
    "Ġexactly": 2769,
    "Ġround": 1369,
    "atious": 10151,
    "Ġagreeable": 4553,
    "liking": 22919,
    "het": 5436,
    "Ġstaggering": 20270,
    "Ġresembling": 4097,
    "Ġdiscoverer": 26033,
    "james": 15367,
    "Ġdisappoint": 24208,
    "Ġscraping": 13412,
    "repent": 15508,
    "suspect": 9538,
    "Ġespecial": 26408,
    "Ġprotested": 9933,
    "Ġ30": 10511,
    "Ġclaws": 15970,
    "injustice": 17735,
    "probability": 17021,
    "lled": 10107,
    "jabez": 20928,
    "Ġdiverse": 19205,
    "Ġfiddle": 25443,
    "leness": 4692,
    "Ġdeceive": 12716,
    "Ġsav": 3356,
    "aging": 2238,
    "Ġproduced": 2450,
    "allow": 5104,
    "vember": 10855,
    "Ġretired": 6069,
    "evade": 24821,
    "opius": 18505,
    "asked": 8911,
    "Ġensuring": 11191,
    "ph": 952,
    "Ġembattled": 26287,
    "Ġbi": 918,
    "ures": 838,
    "Ġsympathy": 6346,
    "Ġgenerator": 3381,
    "fresh": 13389,
    "later": 20948,
    "Ġtrim": 15957,
    "rous": 3751,
    "burnt": 20076,
    "Ġlounged": 19950,
    "Ġtolland": 24987,
    "adding": 21753,
    "Ġgibberish": 25784,
    "bted": 7794,
    "absolutely": 10645,
    "retch": 4371,
    "Ġcurled": 8225,
    "Ġenig": 15794,
    "pacing": 21016,
    "efficient": 2872,
    "jointed": 24009,
    "Ġtwit": 12923,
    "Ġbee": 21743,
    "Ġaspect": 3095,
    "cd": 15318,
    "Ġknees": 6929,
    "tone": 8763,
    "Ġopenshaw": 7956,
    "ured": 1649,
    "presume": 25668,
    "Ġribs": 7102,
    "Ġrestoration": 19023,
    "tattoo": 21082,
    "constantinople": 25506,
    "Ġincreasing": 8248,
    "conversation": 7123,
    "requiem": 24857,
    "Ġq": 1085,
    "Ġreverber": 19866,
    "ape": 1904,
    "Ġbehav": 3540,
    "Ġcovers": 18593,
    "prob": 7070,
    "Ġmeanings": 18604,
    "Ġknowledge": 1445,
    "Ġdiscourse": 9797,
    "Ġprofessions": 11231,
    "Ġing": 5284,
    "Ġbelieving": 8226,
    "Ġsciences": 15939,
    "Ġsulk": 15041,
    "Ġinter": 728,
    "Ġpaces": 13915,
    "hark": 15360,
    "Ġbattering": 13896,
    "Ġposs": 1617,
    "Ġcollect": 7238,
    "veil": 18039,
    "Ġacquiesce": 20326,
    "kington": 11203,
    "gall": 6359,
    "Ġexisted": 15749,
    "etimes": 1985,
    "spl": 9138,
    "shook": 19853,
    "obscure": 23093,
    "easily": 17532,
    "Ġpoky": 21473,
    "anning": 10164,
    "_.âĢĻâĢĿ": 17477,
    "Ġsubsisting": 23435,
    "Ġmyst": 4048,
    "Ġassaults": 15152,
    "Ġfaced": 10808,
    "Ġconcealment": 16911,
    "ages": 827,
    "Ġoust": 21319,
    "Ġdau": 21420,
    "wharf": 20603,
    "rayed": 23563,
    "balance": 12004,
    "har": 4520,
    "signed": 21056,
    "Ġturned": 2136,
    "aky": 18408,
    "Ġtrifle": 10601,
    "Ġsa": 474,
    "ilder": 15707,
    "Ġguineas": 16267,
    "Ġreception": 9838,
    "odd": 21808,
    "re": 266,
    "Ġprofound": 5498,
    "Ġdecanter": 22452,
    "composure": 24034,
    "Ġmajest": 24061,
    "partner": 19218,
    "Ġxlvi": 25589,
    "Ġworsted": 19991,
    "Ġcharmingly": 24224,
    "Ġimprobable": 9790,
    "common": 4127,
    "shirt": 22442,
    "allest": 5486,
    "ards": 2504,
    "seam": 10874,
    "Ġcommonly": 3264,
    "urches": 12679,
    "Ġintermediate": 18591,
    "ines": 677,
    "Ġpr": 1599,
    "Ġcomputers": 2644,
    "plans": 21946,
    "Ġneat": 7000,
    "ss": 396,
    "Ġdismal": 11807,
    "Ġassuring": 13058,
    "perishing": 22176,
    "column": 19323,
    "Ġscoundrel": 13665,
    "Ġmaterial": 5179,
    "owe": 15702,
    "Ġdoubled": 19639,
    "Ġloose": 4650,
    "mrs": 3743,
    "composed": 14735,
    "avern": 24793,
    "Ġhypothesis": 14776,
    "Ġdrew": 3537,
    "swiss": 24258,
    "Ġflor": 8562,
    "Ġwedge": 24071,
    "icorn": 15651,
    "Ġlearnable": 3994,
    "Ġchili": 25560,
    "Ġnightgown": 23128,
    "hereafter": 19213,
    "Ġimpelling": 22379,
    "Ġfrantic": 7957,
    "Ġblasp": 14395,
    "utility": 21580,
    "Ġvainly": 9923,
    "tum": 11530,
    "tossing": 18577,
    "Ġlivelihood": 24775,
    "Ġjoosy": 23632,
    "Ġobstinate": 11336,
    "affa": 23776,
    "were": 2559,
    "reasoning": 9475,
    "Ġrust": 6408,
    "playful": 24358,
    "sed": 4179,
    "umb": 3476,
    "Ġtierce": 15473,
    "parts": 14597,
    "Ġbroiled": 18905,
    "hung": 8381,
    "garden": 15022,
    "endless": 22220,
    "Ġpin": 7162,
    "azine": 19128,
    "Ġ235": 25711,
    "Ġresearch": 3026,
    "aneously": 4057,
    "akeman": 6267,
    "gle": 20866,
    "18": 20748,
    "za": 13805,
    "teness": 23201,
    "Ġterminated": 23509,
    "Ġobe": 5801,
    "grasp": 16426,
    "Ġpresume": 8038,
    "Ġvivacity": 14936,
    "Ġshelves": 14995,
    "script": 11077,
    "leaving": 10791,
    "Ġfacing": 10171,
    "Ġslate": 11935,
    "Ġservox": 23870,
    "Ġmiseries": 10344,
    "Ġaccomplishment": 19662,
    "stumps": 21647,
    "Ġsurprise": 3828,
    "Ġaccumulates": 2892,
    "Ġwrithing": 11943,
    "ice": 584,
    "Ġheightens": 24156,
    "Ġgrosvenor": 17415,
    "Ġtechnically": 12363,
    "Ġstartling": 14666,
    "Ġsuddenness": 23382,
    "Ġcivility": 4789,
    "Ġbloss": 19253,
    "Ġendeavouring": 8035,
    "browed": 25892,
    "Ġcountless": 16378,
    "Ġamaz": 5386,
    "Ġinquiry": 6484,
    "Ġspecimens": 18854,
    "thunder": 10262,
    "Ġskip": 1843,
    "Ġunceasing": 20353,
    "gird": 20876,
    "Ġbridges": 24682,
    "ortunities": 15935,
    "Ġhoot": 19072,
    "innocence": 15179,
    "Ġdivinest": 25720,
    "Ġsee": 804,
    "Ġdeploy": 2883,
    "Ġash": 4832,
    "Ġmonster": 3792,
    "Ġnear": 1717,
    "Ġcenturies": 8623,
    "gris": 8260,
    "Ġknitting": 24221,
    "Ġcomprehend": 6494,
    "awe": 20762,
    "Ġdesign": 4131,
    "Ġannual": 14826,
    "Ġjamming": 17263,
    "Ġdash": 8122,
    "Ġreturned": 2893,
    "jer": 12477,
    "Ġspecks": 14302,
    "hall": 8085,
    "Ġcorruption": 15221,
    "Ġomniscient": 20082,
    "warrant": 21132,
    "precedented": 15170,
    "Ġbracelets": 25501,
    "Ġlives": 4826,
    "ouring": 6420,
    "Ġsuppressing": 22994,
    "Ġcaptioning": 23020,
    "Ġphilistines": 26080,
    "absolut": 8459,
    "Ġhempen": 13545,
    "Ġreceived": 2953,
    "Ġinfamous": 16363,
    "fron": 24284,
    "Ġcyl": 15550,
    "infant": 19824,
    "Ġmeas": 1097,
    "moid": 2448,
    "Ġhelps": 9365,
    "nantucketer": 24971,
    "asht": 4084,
    "idual": 1560,
    "Ġlaughs": 24118,
    "Ġpartners": 11850,
    "capital": 15083,
    "baboon": 25515,
    "rosc": 17951,
    "enges": 13048,
    "Ġjenkinson": 11431,
    "Ġcordially": 16833,
    "Ġneskye": 21524,
    "Ġcloudy": 19473,
    "Ġexpressing": 12006,
    "Ġwings": 9162,
    "Ġrecursive": 4783,
    "indust": 18432,
    "Ġscold": 10950,
    "Ġfi": 934,
    "removing": 17762,
    "Ġhasty": 10477,
    "Ġdiminish": 14740,
    "returning": 12203,
    "orough": 5701,
    "acetti": 13393,
    "bonnet": 25740,
    "Ġgangs": 21602,
    "Ġunguarded": 15845,
    "Ġhistories": 14683,
    "opatra": 22471,
    "eck": 20841,
    "Ġfootpaths": 26316,
    "Ġpounds": 5369,
    "love": 9291,
    "Ġapproximation": 2343,
    "Ġeloped": 22646,
    "bouton": 17499,
    "Ġsuavely": 26522,
    "Ġstyled": 24671,
    "avier": 2831,
    "footed": 19686,
    "face": 3677,
    "Ġexceptions": 13225,
    "mbl": 5945,
    "Ġtrunks": 15959,
    "mat": 2201,
    "ength": 2314,
    "Ġvacuous": 24347,
    "000": 2561,
    "Ġvirtual": 11239,
    "rics": 13032,
    "chers": 11317,
    "Ġcertainly": 2497,
    "Ġtransaction": 22433,
    "compose": 24032,
    "Ġpeas": 8534,
    "Ġbeings": 2489,
    "Ġwithheld": 18111,
    "shot": 2043,
    "Ġeve": 13964,
    "Ġfashioned": 13317,
    "Ġdecided": 5472,
    "vener": 21106,
    "Ġliable": 14223,
    "despair": 8344,
    "Ġholy": 6591,
    "Ġtables": 9877,
    "Ġungrateful": 14115,
    "flaming": 23969,
    "Ġstages": 13998,
    "Ġamelia": 26249,
    "Ġinner": 9669,
    "architect": 22882,
    "reserved": 13838,
    "hated": 17559,
    "Ġintelligible": 15936,
    "Ġaccomplishments": 13376,
    "mor": 4217,
    "Ġvaried": 11845,
    "Ġbeam": 2881,
    "Ġinsurgents": 26599,
    "Ġfid": 10803,
    "using": 5469,
    "Ġtub": 7147,
    "Ġknife": 7310,
    "Ġharp": 19014,
    "mighty": 9466,
    "Ġdecently": 22450,
    "flag": 14706,
    "contin": 16539,
    "hmael": 7343,
    "Ġfile": 13898,
    "Ġmealy": 18115,
    "Ġgradients": 609,
    "springs": 24911,
    "stun": 18012,
    "Ġslope": 14453,
    "Ġcomo": 21848,
    "Ġnuts": 17948,
    "plete": 10919,
    "listener": 24929,
    "Ġlux": 8814,
    "Ġselected": 9710,
    "Ġnoses": 18370,
    "Ġtun": 5997,
    "Ġexcurs": 23314,
    "tack": 12509,
    "Ġoutlined": 22314,
    "tier": 12510,
    "Ġstricken": 9775,
    "pointed": 9807,
    "Ġsuppl": 11078,
    "Ġdears": 18136,
    "bildad": 9585,
    "Ġrevellers": 21672,
    "Ġdorm": 4821,
    "Ġgenerously": 22401,
    "afford": 14649,
    "Ġkrusen": 20711,
    "Ġfocus": 4238,
    "rann": 21039,
    "Ġadult": 18288,
    "Ġassu": 21891,
    "venerable": 26406,
    "Ġtunnels": 24620,
    "Ġincorruption": 26307,
    "Ġtransl": 2830,
    "humor": 19448,
    "Ġcurly": 18827,
    "agings": 18162,
    "Ġvariations": 22660,
    "ington": 21297,
    "ouch": 2780,
    "Ġfluctuating": 24420,
    "Ġalfred": 21780,
    "Ġtie": 10750,
    "Ġtransparent": 9488,
    "condesc": 18502,
    "comrade": 20621,
    "Ġdaylight": 10350,
    "clopÃ¦": 13050,
    "Ġsum": 2700,
    "Ġscared": 14184,
    "Ġscrews": 25175,
    "Ġrecollections": 10512,
    "calcul": 12981,
    "Ġfearlessness": 19158,
    "Ġweigh": 10893,
    "Ġic": 9624,
    "Ġignorant": 5344,
    "Ġreneg": 21669,
    "achalot": 15856,
    "Ġpunch": 9954,
    "dwelling": 20561,
    "Ġhoneymoon": 25643,
    "Ġthirds": 16705,
    "terbury": 21818,
    "cient": 4570,
    "Ġincommod": 25306,
    "Ġvisitor": 5331,
    "Ġtyphoon": 12386,
    "Ġprodigious": 8057,
    "Ġtempestuous": 20067,
    "Ġbarque": 23791,
    "Ġgame": 3629,
    "Ġclut": 7642,
    "iard": 9600,
    "Ġbuckler": 24860,
    "Ġcanada": 22160,
    "Ġmethod": 1455,
    "Ġstrange": 2274,
    "Ġtolerably": 8068,
    "Ġestim": 3348,
    "Ġcasks": 7522,
    "iage": 17571,
    "Ġdeject": 10881,
    "bulk": 19921,
    "Ġsatisfy": 6913,
    "itation": 1780,
    "Ġcalling": 5663,
    "Ġret": 1383,
    "Ġfive": 2837,
    "shoulders": 16581,
    "hom": 12470,
    "Ġopine": 19224,
    "Ġplayfully": 19236,
    "gra": 768,
    "Ġswearing": 16461,
    "Ġ97": 19771,
    "Ġstorm": 4302,
    "oran": 8789,
    "Ġwalking": 4325,
    "Ġroll": 5382,
    "Ġhowled": 12848,
    "Ġwithered": 19461,
    "Ġshouted": 5348,
    "Ġrejecting": 17050,
    "Ġcrescentic": 20617,
    "Ġunwritten": 22026,
    "Ġinspection": 14541,
    "Ġupdates": 1300,
    "unavoid": 14056,
    "Ġdamps": 23475,
    "Ġslow": 2381,
    "imony": 12684,
    "Ġintelligent": 1410,
    "easy": 9591,
    "pair": 21007,
    "Ġloveliness": 13603,
    "friends": 8306,
    "Ġuneasiness": 9483,
    "Ġprediction": 2272,
    "Ġcloak": 9532,
    "Ġsub": 949,
    "doctor": 19093,
    "limbs": 20187,
    "Ġyellow": 5301,
    "Ġbrought": 2515,
    "Ġhelen": 16652,
    "escript": 18469,
    "poles": 16204,
    "Ġleeward": 6210,
    "want": 8766,
    "Ġepis": 19978,
    "Ġdreaming": 11223,
    "Ġdetective": 14399,
    "Ġanticipation": 17056,
    "sight": 5993,
    "Ġregards": 16065,
    "Ġpreyed": 18363,
    "iveness": 2465,
    "Ġdeduction": 14896,
    "Ġubiqu": 18043,
    "Ġpossessed": 5196,
    "Ġabstract": 17180,
    "Ġinfancy": 10409,
    "hed": 670,
    "walton": 20246,
    "Ġcamel": 25348,
    "towards": 5003,
    "Ġconcern": 2655,
    "Ġstare": 10864,
    "animals": 24738,
    "Ġjuggling": 20435,
    "fold": 7546,
    "Ġmadness": 6601,
    "50": 6785,
    "Ġrept": 13977,
    "Ġreasons": 6018,
    "Ú": 155,
    "uts": 8816,
    "Ġmainten": 16111,
    "somewhat": 11160,
    "alliance": 22194,
    "Ġpearl": 20372,
    "constantly": 24606,
    "you": 1004,
    "Ġprettier": 23766,
    "Ġperem": 12926,
    "Ġcoffins": 13245,
    "Ġdisput": 14250,
    "Ġsparsity": 4210,
    "Ġdigest": 24647,
    "ceptible": 10958,
    "ressing": 8918,
    "semicirc": 26490,
    "mbling": 3345,
    "Ġgoal": 10302,
    "illar": 5101,
    "dÃ¦mon": 17525,
    "Ġco": 730,
    "Ġkingdom": 12016,
    "Ġseer": 21953,
    "Ġhanover": 20582,
    "uary": 11536,
    "shavings": 22447,
    "Ġpouch": 21463,
    "Ġfuriously": 9801,
    "Ġstove": 6734,
    "Ġpocket": 4899,
    "uth": 3018,
    "accompanied": 12419,
    "Ġceasing": 23758,
    "hidden": 17368,
    "Ġobst": 6284,
    "Ġgurgling": 17443,
    "oney": 3048,
    "Ġhooked": 19075,
    "Ġdazz": 11592,
    "Ġperceived": 4715,
    "inserted": 18885,
    "Ġconsiderations": 9409,
    "rennial": 22335,
    "Ġplates": 11006,
    "Ġspecial": 2104,
    "Ġcopied": 20004,
    "ulance": 15761,
    "ish": 550,
    "Ġdefile": 18820,
    "Ġdry": 5625,
    "cy": 652,
    "eat": 11482,
    "magnifying": 25391,
    "Ġtwelfth": 22672,
    "ilogue": 21718,
    "posture": 16924,
    "Ġplanet": 14745,
    "26": 10072,
    "Ġclasping": 20206,
    "txt": 12511,
    "Ġ41": 24081,
    "changed": 7176,
    "directed": 20401,
    "ubb": 1645,
    "Ġpretend": 7722,
    "Ġfretfulness": 25447,
    "Ġincognita": 26550,
    "soles": 18683,
    "Ġmanner": 2198,
    "spouter": 22729,
    "Ġutterly": 6099,
    "enary": 12546,
    "spiracle": 22731,
    "Ġsuggestive": 11297,
    "Ġgaieties": 24197,
    "Ġpatted": 16355,
    "Ġdetermining": 14413,
    "another": 5440,
    "ateur": 22065,
    "Ġindex": 17048,
    "itia": 11577,
    "free": 8736,
    "âĢĶ_": 3201,
    "ort": 522,
    "ihood": 20917,
    "Ġminutes": 3001,
    "peasant": 23106,
    "Ġqualified": 14945,
    "Ġboone": 11836,
    "Ġintermission": 18590,
    "hearted": 6971,
    "gpt": 5356,
    "Ġmirth": 15538,
    "Ġcontent": 5035,
    "Ġgilt": 21599,
    "Ġstopped": 5955,
    "Ġalike": 8147,
    "sentence": 2940,
    "object": 6885,
    "ertain": 1208,
    "Ġamphitheat": 26250,
    "large": 6625,
    "inclination": 20054,
    "Ġdiscreet": 16478,
    "Ġottoman": 17375,
    "**": 4687,
    "Ġkick": 5837,
    "ographical": 16783,
    "Ġconnect": 798,
    "istence": 2367,
    "Ġleaky": 2348,
    "decease": 25556,
    "rable": 11630,
    "Ġfundament": 2927,
    "Ġunnatural": 7191,
    "Ġvesture": 20058,
    "Ġrector": 21670,
    "Ġepistle": 24904,
    "ĠâĢľâĢĶ": 9733,
    "Ġintensely": 17016,
    "Ġmodest": 15913,
    "Ġinstant": 2704,
    "Ġrefill": 18702,
    "Ġpers": 1356,
    "Ġsickening": 19601,
    "Ġineffectual": 17381,
    "Ġbitten": 21385,
    "boiling": 18997,
    "Ġdiabol": 11453,
    "opinion": 10984,
    "Ġcomposing": 16062,
    "chain": 18036,
    "lott": 6650,
    "Ġhiding": 9822,
    "Ġdealing": 14041,
    "deceit": 25555,
    "log": 18532,
    "rabbit": 20587,
    "blo": 6353,
    "Ġstruck": 3388,
    "Ġreassure": 21666,
    "Ġbeat": 4491,
    "Ġwines": 21283,
    "Ġproducing": 11896,
    "Ġheaving": 7601,
    "desolation": 20446,
    "Ġclasp": 9744,
    "Ġsailed": 4890,
    "Ġshreds": 12764,
    "inking": 6710,
    "Ġfort": 2578,
    "Ġpuzzling": 14893,
    "Ġdexterously": 25294,
    "Ġcalifornia": 20526,
    "secret": 12234,
    "Ġtorments": 13391,
    "Ġherein": 16185,
    "Ġfootmarks": 19334,
    "Ġensures": 3054,
    "gage": 13718,
    "Ġusually": 6263,
    "Ġsublim": 19963,
    "Ġboarded": 13229,
    "Ġow": 8408,
    "usages": 22284,
    "ivot": 11715,
    "Ġdelicious": 14787,
    "gard": 7340,
    "Ġdisdained": 15006,
    "Ġpainter": 19165,
    "fav": 6646,
    "educ": 10828,
    "ace": 716,
    "Ġthroes": 24574,
    "Ġmoods": 14946,
    "ire": 490,
    "Ġcourses": 10411,
    "yn": 7821,
    "inquiries": 13572,
    "waste": 21129,
    "Ġtenants": 23547,
    "Ġplumage": 17296,
    "Ġalert": 18098,
    "Ġinsect": 12630,
    "Ġphrenologist": 25605,
    "liter": 11501,
    "Ġtrembled": 8702,
    "Ġpink": 12612,
    "rossed": 11013,
    "Ġwarsaw": 26165,
    "arabian": 26444,
    "avo": 8518,
    "sac": 7141,
    "Ġprogramming": 1184,
    "ide": 721,
    "Ï": 144,
    "Ġprofessed": 14719,
    "Ġbefriend": 18078,
    "Ġtex": 15467,
    "Ġfather": 1449,
    "Ġswiftly": 5671,
    "Ġmodern": 3228,
    "Ġrepeat": 8000,
    "Ġglobal": 2371,
    "Ġmincing": 18747,
    "Ġglide": 22979,
    "ring": 1754,
    "ustomed": 6097,
    "wheel": 22864,
    "ti": 8390,
    "awed": 10391,
    "Ġcommencement": 12236,
    "dragged": 16605,
    "Ġrattling": 11395,
    "Ġveter": 15806,
    "Ġhermits": 22068,
    "approach": 24834,
    "Ġcurve": 22943,
    "Ġruled": 22776,
    "izing": 1065,
    "Ġbrighter": 16182,
    "rises": 17653,
    "Ġsoaring": 22080,
    "Ġtough": 13810,
    "Ġimbu": 15886,
    "Ġabsurd": 7203,
    "woman": 5898,
    "Ġtick": 8109,
    "Ġrepairing": 25588,
    "scale": 3535,
    "elop": 1507,
    "Ġwhiteness": 5917,
    "Ġhenry": 5198,
    "pine": 13764,
    "Ġvolcano": 24149,
    "Ġsullenly": 17171,
    "Ġrescue": 13339,
    "she": 1398,
    "lift": 15379,
    "door": 6193,
    "Ġstooping": 13056,
    "ppered": 15785,
    "Ġrecompense": 14833,
    "ials": 11703,
    "plun": 15810,
    "Ġtougher": 21172,
    "Ġaltered": 7393,
    "ifying": 5236,
    "Ġmoreover": 6163,
    "Ġtropics": 17064,
    "entions": 17971,
    "farintosh": 24556,
    "Ġter": 2050,
    "Ġsymb": 2590,
    "beyond": 8882,
    "village": 25421,
    "Ġsubproblems": 12951,
    "Ġdecidedly": 9508,
    "upid": 6582,
    "ĝ": 222,
    "Ġhandkerchief": 8913,
    "Ġaquiline": 26157,
    "Ġgales": 12659,
    "Ġbuoy": 8004,
    "Ġhorror": 3772,
    "isely": 4488,
    "Ġsed": 10761,
    "Ġbasic": 24701,
    "Ġlargest": 6282,
    "Ġsimplest": 16329,
    "Ġsemantics": 2896,
    "Ġneurons": 974,
    "Ġpleaded": 16294,
    "isp": 5529,
    "abominable": 20590,
    "Ġunhinged": 26214,
    "Ġpantry": 20292,
    "eldom": 4413,
    "trimmed": 23948,
    "city": 15322,
    "Ġsticks": 14926,
    "Ġparasol": 22133,
    "Ġtransformations": 3482,
    "Ġ21": 11199,
    "fulness": 4311,
    "Ġunconcerned": 20506,
    "Ġtwentieth": 18656,
    "Ġdiscu": 4364,
    "Ġadmirably": 16477,
    "Ġcedars": 20289,
    "Ġasleep": 6837,
    "Ġmurdered": 6464,
    "Ġskies": 8920,
    "Ġpostpone": 17305,
    "ourable": 4968,
    "magn": 10610,
    "creator": 26379,
    "Ġcasualties": 25511,
    "Ġheroines": 19748,
    "ju": 13736,
    "bb": 2800,
    "Ġunheeded": 18258,
    "Ġtransition": 14228,
    "¶": 119,
    "Ġwr": 1542,
    "Ġbest": 1973,
    "Ġkills": 15901,
    "somers": 19364,
    "tallied": 21084,
    "Ġrenow": 18024,
    "Ġterrier": 23399,
    "Ġsize": 1218,
    "Ġvegetables": 15217,
    "Ġbur": 2698,
    "neglect": 25666,
    "Ġrecklessly": 16980,
    "screw": 9345,
    "talked": 14980,
    "Ġgeneralize": 3099,
    "Ġwails": 21292,
    "Ġimp": 579,
    "thereby": 14441,
    "Ġwoof": 14716,
    "Ġhinge": 25540,
    "Ġsch": 13830,
    "Ġnautical": 17383,
    "attentive": 17188,
    "Ġsling": 21216,
    "ispens": 8336,
    "Ġpush": 9183,
    "Ġrachel": 11840,
    "crew": 7544,
    "Ġpagans": 16919,
    "Ġvoyages": 6909,
    "Ġgrove": 12144,
    "Ġrenewing": 19807,
    "glow": 20871,
    "Ġleaves": 5022,
    "Ġdearest": 5458,
    "Ġgush": 10202,
    "barn": 17480,
    "Ġsettlement": 19833,
    "Ġevalu": 2861,
    "Ġ8": 5434,
    "Ġder": 1495,
    "Ġwall": 3842,
    "Ġpay": 3962,
    "quietly": 10592,
    "seventh": 12708,
    "chant": 4260,
    "pedest": 24695,
    "Ġmab": 12555,
    "match": 15385,
    "Ġvi": 1953,
    "crimes": 16694,
    "Ġdeliverance": 15153,
    "airs": 2221,
    "Ġdashed": 6008,
    "Ġskin": 5039,
    "heading": 5488,
    "Ġaloysius": 15732,
    "Ġglimpse": 6945,
    "Ġforce": 5092,
    "Ġwra": 5904,
    "frank": 7758,
    "thouse": 21976,
    "Ġfor": 340,
    "Ġmore": 676,
    "dressing": 11481,
    "angles": 18287,
    "Ġsupports": 3049,
    "espe": 3496,
    "Ġswimming": 5508,
    "Ġalone": 2567,
    "wn": 720,
    "|": 96,
    "immedi": 8451,
    "proves": 23394,
    "ready": 2361,
    "and": 372,
    "rail": 10204,
    "ravelled": 18011,
    "leagues": 21368,
    "cabinet": 25076,
    "Ġork": 18281,
    "Ġdevil": 3614,
    "Ġsoftness": 18914,
    "pled": 7893,
    "Ġimagenet": 19243,
    "Ġriding": 14088,
    "ientific": 6547,
    "ĠĠĠĠĠĠĠĠĠĠĠĠĠĠĠĠĠĠĠĠĠĠĠĠĠĠĠĠĠĠĠĠĠĠĠĠĠĠĠĠĠĠĠĠĠĠĠĠĠĠĠ": 20035,
    "Ġsoftmax": 1686,
    "Ġinfallibly": 10040,
    "Ġfle": 3090,
    "Ġgrant": 11870,
    "Ġtuning": 3071,
    "sensations": 20047,
    "heedful": 20570,
    "Ġunconnected": 18239,
    "intern": 23737,
    "Ġchapter": 2957,
    "Ġmetaphysical": 26068,
    "Ġdisgusted": 14985,
    "Ġ82": 24461,
    "iards": 17572,
    "dimly": 15341,
    "Ġdepend": 785,
    "feelings": 5675,
    "allingly": 22193,
    "boil": 18996,
    "const": 5937,
    "Ġdefiance": 11068,
    "youn": 5691,
    "ulls": 8837,
    "Ġskipper": 22792,
    "Ġsteelkilt": 5676,
    "Ġreaped": 18026,
    "slight": 10727,
    "enances": 10153,
    "Ġincensed": 18568,
    "Ġcompanionship": 14915,
    "Ġshoe": 14563,
    "Ġilleg": 21617,
    "Ġtimes": 2303,
    "Ġexpiring": 16093,
    "Ġpreferred": 14961,
    "Ġnods": 19057,
    "classification": 4387,
    "Ġgreatly": 5849,
    "Ġcaterpillar": 5864,
    "cherish": 24555,
    "Ġedged": 23437,
    "ĠÂ£": 5007,
    "derment": 22150,
    "Ġwindibank": 7258,
    "cadence": 26123,
    "Ġuntimely": 16463,
    "journey": 8745,
    "Ġportcull": 23863,
    "Ġhears": 8139,
    "Ġprivacy": 19521,
    "Ġconciliating": 19042,
    "Ġbodings": 21386,
    "Ġplains": 14619,
    "Ġperception": 9749,
    "Ġdevils": 7231,
    "iteous": 14256,
    "ental": 7169,
    "Ġsayest": 22769,
    "Ġguns": 16773,
    "anging": 3552,
    "feature": 4505,
    "meetings": 20373,
    "âĢĻ!âĢĿ": 18170,
    "cooee": 12415,
    "Ġfrancis": 26061,
    "Ġnlp": 3060,
    "Ġluxuries": 25163,
    "unks": 15769,
    "bern": 20772,
    "ast": 472,
    "_:": 17476,
    "Ġproper": 1378,
    "mb": 922,
    "iceland": 21559,
    "widely": 25342,
    "Ġdusty": 14920,
    "Ġtumb": 21165,
    "Ġfancy": 3744,
    "Ġcowards": 12568,
    "ling": 735,
    "uend": 21096,
    "Ġtrace": 6181,
    "narrowly": 20389,
    "Ġresented": 22537,
    "Ġislets": 21795,
    "phenomenon": 17646,
    "hest": 3368,
    "Ġchisel": 20363,
    "mind": 4628,
    "Ġmakest": 25434,
    "leave": 7839,
    "Ġchocks": 13342,
    "Ġreptile": 15273,
    "Ġcruising": 6914,
    "Ġresurrection": 12888,
    "Ġadmitted": 8986,
    "Ġpendulous": 25953,
    "ping": 9614,
    "Ġcompact": 2262,
    "astes": 11736,
    "Ġmilitia": 13314,
    "Ġfreshly": 23986,
    "ness": 854,
    "Ġimpetuously": 20367,
    "brace": 16939,
    "flight": 15347,
    "uity": 12513,
    "Ġby": 383,
    "Ġsteepest": 3087,
    "hob": 20896,
    "Ġto": 297,
    "tumultuously": 25611,
    "urch": 3992,
    "ored": 3894,
    "Ġluckless": 16794,
    "Ġjo": 2607,
    "Ġpicked": 6341,
    "Ġlanc": 19761,
    "Ġseating": 18198,
    "Ġindependence": 12101,
    "Ġfinishing": 23121,
    "Ġfurnace": 19436,
    "yourselves": 24955,
    "infliction": 25922,
    "Ġocean": 3305,
    "henomena": 20269,
    "ina": 21175,
    "forehead": 8516,
    "rents": 5309,
    "justified": 18999,
    "final": 19673,
    "Ġpraying": 19551,
    "bee": 16033,
    "Ġluc": 3311,
    "Ġramadan": 9574,
    "Ġshadow": 5597,
    "Ġdaugh": 2294,
    "iquet": 17573,
    "Ġfoster": 18987,
    "Ġcaves": 15547,
    "Ġanxiety": 5409,
    "while": 2936,
    "oise": 15399,
    "Ġrushed": 4087,
    "eting": 7170,
    "Ġsearch": 2589,
    "Ġdang": 9173,
    "akened": 7415,
    "Ġchilly": 25561,
    "late": 11498,
    "Ġattractions": 12910,
    "Ġpelt": 15603,
    "unbe": 21866,
    "Ġundertake": 14473,
    "Ġdisadvantages": 18555,
    "alth": 3256,
    "Ġovertook": 18420,
    "Ġberyls": 25773,
    "Ġjogged": 26234,
    "Ġvulture": 17336,
    "tracks": 19635,
    "consequential": 26247,
    "sequently": 14579,
    "Ġglances": 10372,
    "Ġcologne": 12969,
    "Ġtravelled": 7772,
    "clerval": 7951,
    "Ġverbal": 19375,
    "Ġsituations": 10491,
    "Ġweeks": 4566,
    "Ġheeded": 13400,
    "canoes": 16227,
    "wid": 10134,
    "taining": 7207,
    "Ġeludes": 26553,
    "ernity": 18616,
    "Ġpigs": 19744,
    "Ġpickle": 16719,
    "Ġright": 1501,
    "Ġparticularly": 5057,
    "Ġaristocratic": 20509,
    "soo": 18682,
    "Ġexec": 19489,
    "ise": 707,
    "Ġspies": 22118,
    "Ġvapors": 19905,
    "iro": 20909,
    "Ġreference": 2566,
    "amiable": 14047,
    "Ġisolation": 17149,
    "Ġtou": 15461,
    "fore": 687,
    "archbishop": 22883,
    "Ġblanket": 8343,
    "dressed": 10695,
    "Ġwaiter": 16358,
    "restrained": 16331,
    "Ġremained": 3140,
    "apers": 3479,
    "Ġsuperstition": 15050,
    "underneath": 23789,
    "velope": 17699,
    "Ġsunk": 5753,
    "icil": 17968,
    "Ġinspiring": 19110,
    "Ġdecide": 9285,
    "bill": 10075,
    "Ġfalling": 6916,
    "Ġpractises": 23303,
    "Ġanxious": 4518,
    "Ġbeh": 1799,
    "irectly": 6941,
    "ization": 484,
    "Ġmuzzle": 21316,
    "Ġthrough": 602,
    "people": 7677,
    "Ġgladness": 16588,
    "coarse": 16483,
    "forster": 16161,
    "Ġdeal": 3609,
    "ites": 3897,
    "ā": 194,
    "Ġlined": 15644,
    "gold": 9120,
    "Ġminutely": 14557,
    "Ġpow": 4639,
    "Ġvelvets": 25392,
    "corrupt": 14890,
    "ieged": 22574,
    "Ġener": 10896,
    "Ġreading": 5114,
    "Ġremorse": 6441,
    "Ġstil": 15712,
    "Ġomin": 11575,
    "mingled": 14708,
    "Ġmor": 1249,
    "Ġderivatives": 2372,
    "gaining": 20120,
    "Ġwestern": 10654,
    "import": 5669,
    "Ġhistorically": 19374,
    "atum": 21255,
    "see": 3046,
    "Ġfurious": 10353,
    "glass": 9908,
    "pleasantness": 19767,
    "Ġfleece": 10614,
    "Ġinternal": 2246,
    "Ġbaleen": 10036,
    "Ġconsequent": 18107,
    "Ġseething": 18200,
    "Ġsons": 10766,
    "accursed": 20537,
    "crier": 20817,
    "Ġgleaming": 24992,
    "Ġfrog": 23920,
    "distinctive": 25724,
    "woe": 21130,
    "inquir": 9534,
    "Ġexpressive": 8982,
    "oko": 18437,
    "Ġimplicit": 19954,
    "Ġcrumbs": 20637,
    "Ġhang": 9186,
    "canst": 22961,
    "irement": 18351,
    "Ġpurchase": 12257,
    "Ġwashing": 9704,
    "confined": 24335,
    "Ġporter": 15604,
    "iers": 5989,
    "Ġcrocodile": 20737,
    "bench": 16800,
    "agues": 8161,
    "Ġbakers": 17864,
    "oding": 1461,
    "Ġplanets": 24057,
    "Ġeyebrows": 23515,
    "Ġsubset": 9869,
    "Ġach": 2620,
    "worthy": 7733,
    "Ġadding": 2403,
    "Ġinfirmity": 26296,
    "Ġ4": 3984,
    "tuning": 1582,
    "Ġhugest": 17014,
    "Ġpersu": 3564,
    "ses": 3027,
    "Ġnecessitates": 23928,
    "wondrous": 12335,
    "fortune": 4976,
    "fatig": 17088,
    "bles": 7018,
    "Ġresource": 10993,
    "Ġaccents": 14205,
    "Ġforest": 9870,
    "Ġexquisite": 12379,
    "ote": 4597,
    "Ġlanguages": 1570,
    "Ġcease": 7077,
    "Ġbordeaux": 24567,
    "Ġdogs": 7742,
    "Ġimpregnable": 26021,
    "Ġharvard": 23278,
    "pidation": 18881,
    "Ġlirra": 21553,
    "Ġhos": 4943,
    "Ġhandsom": 11124,
    "osis": 18386,
    "ust": 496,
    "Ġmonths": 3454,
    "Ġportly": 14674,
    "Ġdegree": 3703,
    "Ġsli": 4749,
    "Ġexpanse": 14286,
    "Ġmetropol": 11145,
    "Ġreleased": 2979,
    "isome": 17846,
    "icing": 9199,
    "spirit": 11313,
    "Ġreplenished": 13631,
    "Ġpermanently": 25472,
    "inished": 17732,
    "Ġjames": 6419,
    "Ġpersonal": 7480,
    "ested": 3477,
    "Ġcolours": 12968,
    "Ġsalut": 10509,
    "Ġcooked": 13264,
    "Ġslew": 23383,
    "Ġcondescended": 19952,
    "Ġdeposition": 18607,
    "Ġrepining": 23360,
    "Ġexclaiming": 13636,
    "Ġscratch": 25563,
    "Ġinterrupting": 19554,
    "Ġuncouth": 14546,
    "Ġcomplained": 16995,
    "favour": 9547,
    "Ġbri": 21373,
    "strugg": 21650,
    "Ġdare": 3545,
    "Ġclouded": 13286,
    "Ġpattered": 19012,
    "supplemental": 25872,
    "Ġadversity": 24306,
    "Ġfly": 3869,
    "Ġflea": 23773,
    "ught": 2752,
    "consolatory": 25305,
    "somebody": 14561,
    "Ġdistraction": 22498,
    "pleasure": 5976,
    "rength": 4100,
    "Ġcont": 622,
    "Ă": 195,
    "use": 2536,
    "inn": 5364,
    "Ġspecialized": 3919,
    "stige": 21649,
    "Ġstability": 1363,
    "Ġretiring": 16276,
    "Ġanticipated": 13506,
    "mun": 20957,
    "ishop": 9741,
    "ny": 4014,
    "Ġegyptians": 25288,
    "impenet": 18050,
    "Ġago": 3135,
    "Ġunhing": 18238,
    "agos": 21898,
    "Ġodious": 12148,
    "immense": 18049,
    "Ġunbending": 25463,
    "Ġmogul": 12856,
    "dataset": 23223,
    "Ġusurpation": 18354,
    "Ġdense": 8123,
    "ľ": 255,
    "generally": 9434,
    "Ġdreamy": 14698,
    "ins": 1377,
    "Ġpretension": 23765,
    "Ġimmensities": 25329,
    "Ġsailors": 4278,
    "ede": 21499,
    "charm": 13984,
    "Ġboth": 1651,
    "Ġhawk": 15169,
    "offensive": 16389,
    "ainted": 3659,
    "Ġjurors": 17341,
    "Ġswung": 6449,
    "Ġhaven": 8474,
    "Ġmeditations": 25012,
    "Ġsoliloquized": 17300,
    "irst": 878,
    "apply": 18757,
    "pleasant": 5874,
    "Ġbohemian": 17132,
    "Ġrevolved": 9983,
    "Ġsubdued": 11030,
    "affectionate": 24921,
    "bowed": 10683,
    "Ġblacksmith": 6595,
    "ana": 15552,
    "Ġfry": 17877,
    "remembered": 17348,
    "Ġseizing": 7880,
    "ples": 6846,
    "Ġspread": 5162,
    "dare": 12450,
    "beware": 16035,
    "imodal": 17444,
    "Ġseizure": 21958,
    "Ġgravel": 14096,
    "Ġprynne": 25539,
    "Ġtener": 21159,
    "Ġfog": 9660,
    "Ġturban": 23614,
    "Ġarid": 22181,
    "prep": 9758,
    "Ġwaifing": 25242,
    "Ġbag": 5700,
    "Ġplayfulness": 23637,
    "Ġcanted": 17829,
    "Ġunre": 3475,
    "Ġlashed": 9197,
    "Ġcrouched": 23442,
    "Ġsatur": 1929,
    "Ġcompetition": 14261,
    "Ġdazzling": 15207,
    "rapt": 13967,
    "Ġpist": 12609,
    "acked": 10974,
    "Ġbowled": 23769,
    "itions": 4147,
    "Ġhearken": 21679,
    "Ġfettered": 24571,
    "ioning": 21502,
    "Ġfrantically": 23254,
    "Ġnature": 2539,
    "Ġbeloved": 5573,
    "Ġcelebrated": 13589,
    "ouder": 17899,
    "lect": 1222,
    "Ġexecutors": 19530,
    "Ġpalmed": 24091,
    "painting": 17045,
    "Ġrecomm": 4997,
    "Ġwarmed": 12021,
    "Ġlived": 3989,
    "Ġ111": 24439,
    "atherine": 2594,
    "arest": 4003,
    "handkerchief": 14614,
    "onness": 21250,
    "Ġnowadays": 18543,
    "Ġwilling": 7421,
    "picture": 11407,
    "Ġaccidentally": 9504,
    "closed": 23149,
    "volut": 1561,
    "Ġindividuality": 14904,
    "Ġstarting": 7729,
    "Ŀ": 256,
    "Ġdow": 17884,
    "shold": 2774,
    "Ġhunting": 7260,
    "Ġstaff": 14000,
    "Ġinvulnerable": 19144,
    "an": 278,
    "Ġmidway": 14600,
    "Ġ0": 1902,
    "Ġgodfrey": 15289,
    "to": 714,
    "Ġtalent": 12294,
    "cou": 13690,
    "Ġkink": 22187,
    "ittleness": 22370,
    "ue": 1180,
    "visible": 10533,
    "embra": 14070,
    "Ġlocal": 1199,
    "phr": 18718,
    "tol": 17670,
    "opening": 10312,
    "Ġretain": 7864,
    "Ġproclaim": 18127,
    "Ġcontemplated": 13460,
    "Ġnaught": 8128,
    "Ġgriefs": 16768,
    "Ġinsensibility": 17109,
    "theless": 4262,
    "sively": 13781,
    "keenest": 25659,
    "Ġhandy": 12930,
    "Ġreported": 11977,
    "Ġav": 3582,
    "Ġsemicircular": 26066,
    "Ġseaward": 22942,
    "Ġwonderful": 4564,
    "terogene": 21819,
    "corrid": 24487,
    "ques": 2841,
    "Ġmonogram": 26573,
    "Ġconversations": 9424,
    "Ġbills": 17858,
    "Ġundulating": 19514,
    "Ġshrieking": 24758,
    "Ġdesperado": 19816,
    "owal": 13987,
    "Ġir": 1991,
    "Ġshrunk": 16715,
    "herfield": 3631,
    "stately": 18015,
    "enthusiastic": 20689,
    "Ġgenerating": 12850,
    "Ġjago": 22293,
    "Ġrepresent": 1212,
    "Ġryder": 10259,
    "Ġgreatest": 4092,
    "Ġapprovingly": 26248,
    "op": 658,
    "consol": 9761,
    "acqu": 4842,
    "tree": 11532,
    "Ġaudible": 19878,
    "Ġ1000": 3115,
    "connections": 14422,
    "Ġrud": 8478,
    "Ġirretrie": 23374,
    "sink": 11520,
    "Ġatom": 18189,
    "illing": 8175,
    "Ġpublished": 11241,
    "Ġpossessions": 23824,
    "Ġwarring": 16862,
    "itic": 11576,
    "tting": 17678,
    "inkles": 7426,
    "Ġk": 485,
    "tranquillity": 20543,
    "Ġwishes": 4796,
    "break": 6100,
    "orrow": 2916,
    "turning": 8317,
    "Ġasp": 15775,
    "barbaric": 26356,
    "Ġdrag": 6184,
    "Ġsulkily": 25880,
    "hunt": 20899,
    "Ġalbatross": 10871,
    "sighted": 19782,
    "Ġross": 2765,
    "Ġshortened": 23483,
    "istically": 14138,
    "guard": 12125,
    "Ġcastaway": 16637,
    "Ġdeductions": 19730,
    "Ġimpossible": 3543,
    "Ġtarshish": 12026,
    "Ġfishes": 11589,
    "vable": 10132,
    "Ġasc": 4766,
    "weight": 2941,
    "Ġholes": 16403,
    "Ġintently": 8169,
    "Ġnapoleons": 25883,
    "h": 76,
    "ez": 5684,
    "consult": 24171,
    "Ġdisease": 14252,
    "Ġsnatched": 10471,
    "Ġinquisitive": 26315,
    "Ġhunks": 18932,
    "holes": 12051,
    "ersman": 11696,
    "onds": 12989,
    "Ġeffectually": 16162,
    "Ġdistressing": 12216,
    "problem": 25243,
    "ckled": 9255,
    "Ġgracious": 8846,
    "Ġexpansion": 22621,
    "principal": 20657,
    "Ġconcealed": 7496,
    "looking": 4031,
    "Ġmoist": 9283,
    "Ġupbra": 22148,
    "Ġrelev": 1715,
    "Ġsou": 1886,
    "Ġgallop": 19552,
    "terms": 15745,
    "Ġassume": 10515,
    "Ġimproving": 1211,
    "Ġundeviating": 15213,
    "Ġhoarse": 14522,
    "Ġtwitched": 20440,
    "anzas": 17838,
    "rent": 1172,
    "sailing": 14709,
    "Ġmoritz": 11902,
    "Ġtranqu": 4605,
    "Ġsenior": 17170,
    "Ġovertake": 15961,
    "whales": 5188,
    "ampled": 18882,
    "Ġthought": 1094,
    "Ġate": 8839,
    "Ġpatent": 11956,
    "Ġinstincts": 16983,
    "abil": 2006,
    "Ġrenowned": 26191,
    "currents": 23844,
    "ears": 20842,
    "suddenly": 6493,
    "Ġdividing": 12108,
    "Ġimpediments": 26238,
    "Ġaudits": 24771,
    "Ġperishing": 22390,
    "usion": 3301,
    "orand": 21392,
    "float": 19802,
    "Ġfabulous": 25946,
    "missionary": 24615,
    "Ġvalleys": 14914,
    "Ġrelentless": 26275,
    "Ġbohemia": 10649,
    "Ġdexterity": 25293,
    "Ġalgorithm": 770,
    "isher": 2879,
    "Ġthundering": 24292,
    "Ġwheeling": 18285,
    "itable": 5438,
    "Ġpasses": 2677,
    "Ġripples": 25504,
    "Ġplay": 2625,
    "Ġtries": 9149,
    "half": 4932,
    "Ġproportionably": 19967,
    "ivable": 10910,
    "carefully": 13365,
    "Ġclasped": 17205,
    "Ġappertaining": 26532,
    "Ġdrifting": 19277,
    "Ġminor": 12962,
    "Ġworked": 6580,
    "Ġdrinks": 24282,
    "Ġcontinuing": 14391,
    "langu": 4807,
    "necessarily": 19628,
    "Ġtransparency": 10676,
    "tal": 17668,
    "Ġinferiority": 17114,
    "ojo": 7350,
    "Ġsquare": 2397,
    "Ġspire": 18301,
    "isl": 21370,
    "Ġbackwater": 18647,
    "Ġrecommendation": 17024,
    "Ġcombinations": 22854,
    "Ġamb": 9290,
    "Ġcustomary": 8670,
    "Ġdiscretion": 10347,
    "Ġepsom": 19979,
    "Ġpoising": 22585,
    "!âĢĻ": 3332,
    "ario": 14242,
    "except": 5384,
    "Ġoutrageous": 20607,
    "Ġcrawling": 17044,
    "Ġelusive": 22647,
    "resnet": 4067,
    "Ġbanqu": 12583,
    "Ġenergetic": 15193,
    "Ġfinished": 5045,
    "Ġsakes": 18323,
    "Ġsinned": 18947,
    "pronounce": 25190,
    "Ġguessed": 11282,
    "Ġthrow": 3782,
    "Ġdemo": 10880,
    "caterpillar": 26381,
    "hunter": 10555,
    "att": 1456,
    "dead": 8180,
    "Ġmarch": 4082,
    "experienced": 15117,
    "Ġ84": 19706,
    "Ġbounded": 16623,
    "Ġunostentatious": 22062,
    "Ġobserver": 11986,
    "kings": 17581,
    "Ġtwinkling": 12322,
    "Ġremo": 3784,
    "Ġdumbly": 24984,
    "Ġyouthful": 16720,
    "rised": 10123,
    "Ġspin": 7630,
    "Ġleague": 6538,
    "Ġundue": 25991,
    "Ġintroduced": 7691,
    "Ġpromethe": 14462,
    "Ġelopement": 10330,
    "Ġpince": 21465,
    "ĠĠĠĠĠĠĠĠ": 712,
    "Ġbutchers": 18269,
    "Ġcam": 10161,
    "Ġseated": 4542,
    "Ó": 148,
    "ashion": 3858,
    "orm": 425,
    "friendship": 24049,
    "disapprobation": 19153,
    "society": 9971,
    "Ġissues": 9540,
    "tale": 10127,
    "Ġgleamed": 17076,
    "Ġrecent": 7436,
    "ily": 1031,
    "hearing": 8403,
    "officers": 10627,
    "repressed": 21239,
    "Ġupset": 22147,
    "dashed": 12452,
    "Ġexquisitely": 20199,
    "tri": 11528,
    "ruck": 6849,
    "Ġmccarthys": 19659,
    "bath": 13684,
    "Ġsurpr": 2551,
    "Ġmountain": 3371,
    "Ġacute": 16118,
    "Ġrob": 1280,
    "arded": 5030,
    "ually": 2771,
    "Ġexciting": 23312,
    "Ġmysteriously": 24601,
    "Ġdetestable": 15094,
    "Ġseaman": 8639,
    "Ġgained": 4536,
    "Ġventure": 7740,
    "Ġrecovery": 11441,
    "Ġdirect": 1471,
    "Ġbark": 10798,
    "Ġinve": 17925,
    "Ġinert": 15615,
    "combe": 7662,
    "Ġaug": 6234,
    "Ġflee": 7080,
    "ributed": 8215,
    "ounced": 4955,
    "Ġnind": 17946,
    "idav": 18089,
    "Ġmons": 10156,
    "Ġblow": 3373,
    "Ġunshored": 25811,
    "Ġ93": 24591,
    "dragging": 16606,
    "Ġstraining": 11327,
    "Ġseparately": 13298,
    "Ġintim": 6839,
    "ruction": 4358,
    "marvell": 24174,
    "bingleys": 19631,
    "bounded": 13435,
    "phia": 22786,
    "Ġinjurious": 24273,
    "kers": 7133,
    "Ġreluct": 14366,
    "hil": 8379,
    "Ġsplit": 7993,
    "animation": 16976,
    "Ġwhy": 1760,
    "proceed": 8976,
    "Ġraised": 4662,
    "Ġirreducible": 5520,
    "Ġlatitudes": 9495,
    "Ġcivilly": 19600,
    "Ġcommonplaces": 16284,
    "rice": 13772,
    "Ġjudged": 12080,
    "ĠĠĠĠĠĠĠĠĠĠĠĠĠĠĠĠĠĠĠĠĠĠĠĠĠĠĠĠĠĠĠĠĠĠĠĠĠĠ": 16521,
    "Ġembatt": 18855,
    "Ġgrenadier": 21610,
    "Ġ31": 12127,
    "Ġobstructed": 24677,
    "frankenstein": 11391,
    "Ġoriginal": 6101,
    "Ġmeals": 12705,
    "Ġbenef": 3486,
    "ared": 771,
    "pip": 6654,
    "Ġstep": 752,
    "uzza": 11270,
    "incident": 14587,
    "Ġprofile": 16484,
    "Ġcontextually": 11952,
    "ock": 15397,
    "Ġresisted": 22535,
    "Ġungovernable": 20706,
    "Ġsp": 456,
    "Ġunbelief": 22041,
    "Ġexists": 14036,
    "Ġpensive": 21469,
    "scar": 9815,
    "Ġviolently": 6456,
    "features": 14828,
    "Ġmomentary": 11035,
    "Ġbarrier": 16566,
    "Ġcauses": 2562,
    "Ġconsequence": 5543,
    "Ġprejud": 6852,
    "Ġmizen": 17257,
    "Ġherb": 15851,
    "test": 13787,
    "ouncement": 11742,
    "Ġet": 3581,
    "Ġrepenting": 25321,
    "stubb": 6016,
    "term": 3757,
    "Ġ54": 24325,
    "oc": 2834,
    "proof": 16419,
    "Ġrepublican": 17409,
    "Ġonto": 14022,
    "eler": 1573,
    "Ġuncompromised": 20600,
    "arat": 9179,
    "Ġintense": 6157,
    "ned": 3490,
    "Ġshipwreck": 20442,
    "Ġworking": 5575,
    "Ġdilatory": 24705,
    "Ġmaria": 7125,
    "Ġintelligence": 565,
    "Ġreconciled": 13582,
    "Ġmonument": 16234,
    "known": 3569,
    "semble": 1523,
    ",--âĢľ": 19193,
    "Ġmitigates": 3050,
    "Ġscrutiny": 26013,
    "Ġmeasures": 1206,
    "Ġtrunk": 7206,
    "included": 19204,
    "clump": 23150,
    "Ġunduly": 25992,
    "turtle": 12209,
    "iferous": 17290,
    "Ġpaced": 7584,
    "Ġroot": 2649,
    "Ġmounted": 7834,
    "Ġemble": 13965,
    "Ġcover": 3558,
    "Ġthin": 4348,
    "misery": 13340,
    "Ġbaff": 10799,
    "Ġsmack": 9298,
    "Ġeven": 1024,
    "Ġjumped": 7097,
    "Ġsituation": 4069,
    "Ġrefinement": 18704,
    "Ġpitching": 16608,
    "olds": 9309,
    "swallow": 24260,
    "Ġgobern": 22419,
    "Ġomens": 21323,
    "ĠĠĠĠĠĠĠ": 7632,
    "Ġbenefit": 8293,
    "Ġprometheus": 15288,
    "Ġexplanation": 6693,
    "Ġfowler": 16934,
    "crazy": 24691,
    "Ġours": 4613,
    "learned": 8602,
    "Ġallude": 12765,
    "Ġharris": 14494,
    "Ġridge": 14813,
    "bushes": 24450,
    "courageous": 26125,
    "Ġcachalot": 17832,
    "pha": 22784,
    "Ġtotal": 4994,
    "Ġcor": 1322,
    "Ġwalks": 8966,
    "atiate": 12543,
    "Ġstash": 18064,
    "ĸ": 249,
    "Ġcreation": 6439,
    "Ġcaptured": 7246,
    "narwhale": 17074,
    "breadth": 20273,
    "Ġrelish": 14378,
    "Ġshining": 8172,
    "Ġlumps": 21549,
    "Ġrestless": 10413,
    "Ġmanip": 8871,
    "Ġcircle": 4978,
    "glim": 19361,
    "Ġrmsprop": 3354,
    "Ġproportions": 16464,
    "Ġmanoir": 22325,
    "presbyter": 20614,
    "Ġtrembling": 7482,
    "Ġnarrations": 24355,
    "Ġthem": 641,
    "uracy": 1109,
    "Ġhoof": 23353,
    "conjecturing": 20130,
    "ivities": 22071,
    "dry": 13698,
    "Ġmadam": 5664,
    "Ġdifficult": 3572,
    "Ġruined": 12948,
    "jol": 20920,
    "Ġvapory": 17005,
    "Ġhertfordshire": 5378,
    "Ġhatherley": 7850,
    "Ġcommissionaire": 16997,
    "ption": 7398,
    "Ġintend": 12758,
    "Ġadventures": 7748,
    "fearfully": 25116,
    "singing": 24366,
    "repugnance": 16861,
    "whar": 15922,
    "Ġfable": 15570,
    "Ġtalents": 15040,
    "Ġunass": 14108,
    "encoun": 12295,
    "uns": 21864,
    "Ġforget": 2633,
    "Ġprograms": 7240,
    "Ġinhabited": 12183,
    "uced": 13795,
    "uge": 4015,
    "Ġmaternal": 11059,
    "Ġflew": 5589,
    "Ġbeds": 14548,
    "Ġtucked": 12389,
    "Ġingolstadt": 8333,
    "ulty": 22561,
    "Ġrollicking": 24454,
    "ime": 626,
    "elastic": 17977,
    "Ġwoods": 5407,
    "Ġdiamond": 15592,
    "Ġincomp": 12891,
    "Ġcheat": 19017,
    "carb": 20807,
    "allah": 5838,
    "Ġleviathans": 8282,
    "Ġmeta": 3568,
    "Ġpittance": 15610,
    "Ġwindings": 18906,
    "keepers": 16656,
    "Ġconcil": 23321,
    "unreasonable": 18159,
    "Ġtrifled": 24674,
    "q": 85,
    "grim": 19104,
    "aving": 2406,
    "fork": 20854,
    "ression": 3404,
    "Ġpedestrian": 25877,
    "Ġpunctually": 17137,
    "Ġtwink": 8216,
    "Ġlowly": 11121,
    "Ġwhites": 21711,
    "Ġguard": 6178,
    "Ġlabrador": 23330,
    "Ġoutrages": 18412,
    "Ġcapstan": 9098,
    "Ġadventure": 5979,
    "Ġshelter": 17007,
    "Ġhaunts": 18195,
    "Ġremark": 2149,
    "visual": 24225,
    "azing": 7705,
    "Ġintru": 15822,
    "Ġsymph": 22206,
    "Ġassented": 17335,
    "Ġtraverse": 18889,
    "Ġenough": 1762,
    "rary": 4576,
    "Ġwhalemen": 3911,
    "Ġvibrating": 13533,
    "ushes": 22285,
    "fixed": 7548,
    "Ġfirmament": 19467,
    "like": 1883,
    "vitality": 20475,
    "ault": 2308,
    "Ġblew": 9045,
    "Ġpark": 5466,
    "usions": 6159,
    "invincible": 25088,
    "Ġhabitual": 24791,
    "Ġvapor": 8700,
    "Ġtreacle": 14591,
    "Ġfurther": 1055,
    "Ġworshipping": 22923,
    "Ġdetained": 18369,
    "emic": 18181,
    "Ġslipper": 24268,
    "0": 20,
    "le": 279,
    "Ġsporting": 16996,
    "Ġwhim": 13993,
    "umbrance": 22112,
    "Ġfaithful": 9502,
    "Ġpipe": 4322,
    "finer": 17544,
    "Ġlisten": 4675,
    "Ġwidespread": 20672,
    "Ġernest": 8717,
    "Ġdoomed": 11342,
    "Ġfringe": 17270,
    "Ġchristian": 6479,
    "avor": 14270,
    "Ġpecks": 18666,
    "Ġjug": 12829,
    "Ġcloudless": 16665,
    "Ġsultry": 20285,
    "oment": 919,
    "Ġmason": 10157,
    "Ġreadily": 5254,
    "Ġhanding": 16125,
    "Ġcurved": 18829,
    "Ġemploy": 3616,
    "^{": 15300,
    "Ġranges": 2885,
    "former": 11745,
    "Ġrick": 21964,
    "Ġunattended": 15838,
    "Ġplug": 17146,
    "mira": 20974,
    "admirably": 24943,
    "loops": 12876,
    "rad": 2256,
    "Ġindependent": 9015,
    "Ġthunders": 15631,
    "Ġcongreg": 8463,
    "Ġexplain": 545,
    "Ġbeque": 18077,
    "complaisance": 24812,
    "Ġaff": 1120,
    "Ġ120": 16855,
    "Ġinvention": 19949,
    "Ġmimic": 3142,
    "Ġannealing": 1554,
    "prot": 6900,
    "Ġduring": 872,
    "Ġbutt": 14120,
    "Ġscott": 22275,
    "85": 13676,
    "Ġinvari": 6529,
    "arcy": 1275,
    "Ġprophet": 7681,
    "Ġreached": 4021,
    "Ġaccumul": 1413,
    "Ġisle": 8832,
    "Ġsuperstitious": 13515,
    "Ġfabric": 25945,
    "Ġ68": 24373,
    "Ġexistence": 4708,
    "Ġmanners": 3789,
    "pall": 17626,
    "Ġshol": 21989,
    "none": 6963,
    "Ġwondered": 11125,
    "Ġ17": 5741,
    "Ġassure": 4419,
    "Ġbelonging": 8308,
    "Ġindistinctly": 26115,
    "Ġsprinkled": 19493,
    "cture": 15659,
    "orses": 6050,
    "Ġgoblet": 25821,
    "Ġloops": 8852,
    "Ġspeeding": 23564,
    "summer": 11991,
    "ricade": 13033,
    "Ġpromoting": 3159,
    "Ġdrily": 23540,
    "400": 20752,
    "Ġlock": 5926,
    "Ġembellish": 25847,
    "Ġassiduous": 26290,
    "Ġancestors": 25640,
    "Ġhunch": 18931,
    "Ġprovides": 1928,
    "Ġreliance": 14379,
    "Ġ126": 24474,
    "tically": 3391,
    "Ġcharge": 5325,
    "Ġproduce": 4367,
    "Ġenclosure": 20620,
    "thousands": 16869,
    "gone": 6504,
    "amet": 595,
    "Ġinscribed": 24937,
    "Ġdescribed": 6606,
    "Ġscholars": 26110,
    "bib": 17489,
    "dismal": 23497,
    "Ġcoils": 9301,
    "Ġampl": 22474,
    "Ġrecept": 1521,
    "Ġgettest": 23229,
    "Ġconstantinople": 19834,
    "possibly": 10543,
    "Ġregard": 3065,
    "Ġdetaining": 25816,
    "collecting": 26079,
    "Ġinducement": 16840,
    "rece": 21230,
    "iant": 5428,
    "Ġriddles": 16729,
    "Ġpack": 5445,
    "Ġforecastle": 5496,
    "Ġthereupon": 18431,
    "alice": 3208,
    "anyth": 5439,
    "argue": 21438,
    "at": 268,
    "Ġcheers": 16364,
    "ividually": 22074,
    "Ġdeliberation": 19965,
    "Ġdistinguished": 8273,
    "Ġwarmth": 6906,
    "Ġ105": 24416,
    "block": 11470,
    "athans": 7433,
    "Ġble": 5224,
    "ued": 7562,
    "Ġexisting": 12712,
    "oce": 10714,
    "Ġdwelt": 12600,
    "Ġ*/": 10373,
    "este": 15914,
    "conducted": 25571,
    "ĠâĢľâĢĺ": 8504,
    "Ġemerge": 14923,
    "beam": 16034,
    "voy": 7144,
    "Ġexquis": 9699,
    "Ġscaled": 2107,
    "Ġpurporting": 19179,
    "emason": 18183,
    "Ġcanals": 22159,
    "Ġstrip": 9420,
    "Ġadvancing": 6880,
    "clopÃ¦dia": 15252,
    "Ġdistinction": 8885,
    "Ġheaved": 9382,
    "ildad": 3532,
    "Ġprofounder": 23569,
    "Ġcentaurs": 23832,
    "shown": 22438,
    "¡": 99,
    "Ġdeified": 18137,
    "Ġsom": 1276,
    "Ġunsur": 22014,
    "Ġincredulous": 9986,
    "Ġthereof": 22362,
    "oric": 21391,
    "Ġapt": 9154,
    "Ġreced": 15686,
    "Ġcousins": 9914,
    "gledy": 25402,
    "kindly": 14739,
    "score": 18852,
    "nigh": 13758,
    "Ġinseparable": 20685,
    "Ġrelating": 2706,
    "nament": 11506,
    "Ġslang": 23154,
    "disgust": 23496,
    "Ġkettle": 26230,
    "ah": 1832,
    "Ġlongbourn": 3507,
    "anges": 1670,
    "conviction": 19961,
    "orney": 17871,
    "oved": 5216,
    "Ġschooner": 16744,
    "itively": 21326,
    "wheeling": 22865,
    "Ġburtons": 19250,
    "Ġqueequeg": 2011,
    "pull": 6798,
    "Ġunsettled": 14117,
    "Ġafter": 870,
    "Ġreturns": 11923,
    "Ġtea": 5042,
    "pire": 9135,
    "second": 6543,
    "Ġbespeaking": 26308,
    "Ġnamed": 6139,
    "feels": 22506,
    "led": 580,
    "Ġnervously": 19181,
    "Ġnarrating": 24354,
    "Ġproduct": 3534,
    "Ġovercome": 6041,
    "Ġenvirons": 13181,
    "gling": 10097,
    "erer": 8732,
    "Ġtreatment": 12068,
    "ferent": 4197,
    "Ġoxford": 11371,
    "Ġnought": 21515,
    "Ġupper": 5090,
    ".)": 6784,
    "Ġsuperficial": 23457,
    "sad": 11519,
    "Ġstro": 4596,
    "adieu": 26198,
    "likes": 18811,
    "Ġerred": 21152,
    "Ġwebster": 20157,
    "Ġparallel": 1417,
    "Ġcorroboration": 26051,
    "pard": 9617,
    "Ġyore": 21772,
    "scuttle": 11906,
    "Ġraving": 16103,
    "<SOS>": 1,
    "Ġreject": 7386,
    "Ġexhausted": 8694,
    "Ġvon": 14075,
    "iters": 21324,
    "justine": 7683,
    "Ġhoofs": 14523,
    "Ġimmort": 19480,
    "straw": 24096,
    "prevailed": 17342,
    "itche": 7579,
    "moor": 22696,
    "Ġheadstrong": 14382,
    "Ġrules": 1918,
    "abound": 15734,
    "Ġdevouring": 11856,
    "Ġcook": 3711,
    "Ġsuffusing": 23028,
    "chamber": 13620,
    "interrupted": 11417,
    "severe": 21813,
    "shop": 14231,
    "Ġmethods": 3158,
    "Ġappals": 22214,
    "iring": 1708,
    "Ġcin": 13870,
    "Ġindel": 13002,
    "claps": 23148,
    "Ġnarrow": 5127,
    "liament": 16214,
    "Ġowen": 15089,
    "Ġthomas": 17944,
    "(-": 2981,
    "alone": 10183,
    "Ġtalks": 23370,
    "Ġdown": 831,
    "Ġcemeteries": 26373,
    "Ġpot": 2991,
    "Ġawfulness": 23588,
    "Ġbecalmed": 18083,
    "Ġimprecations": 25818,
    "Ġcorre": 3887,
    "any": 3338,
    "taken": 7561,
    "Ġornaments": 17449,
    "Ġinvestment": 24339,
    "Ġtrappers": 23076,
    "keeping": 8635,
    "nearest": 16021,
    "Ġvaulted": 25165,
    "reluct": 26161,
    "Ġjanuary": 13648,
    "Ġfaintness": 24573,
    "_âĢĿ": 20758,
    "idation": 5023,
    "eaten": 20341,
    "Ġrumbling": 18210,
    "purp": 8091,
    "Ġere": 3685,
    "Ġtyro": 16991,
    "sory": 17657,
    "Ġpious": 11597,
    "queg": 1770,
    "Ġplace": 1648,
    "recognised": 15258,
    "Ġreck": 6537,
    "Ġallures": 22000,
    "Ġstanzas": 21738,
    "guarded": 13290,
    "shooting": 16962,
    "istrate": 7406,
    "utional": 17980,
    "Ġprot": 3847,
    "Ġunconsc": 6552,
    "Ġguiltless": 16937,
    "Ġforemost": 12002,
    "Ġlombardy": 26461,
    "Ġcircum": 8258,
    "Ġpertaining": 18446,
    "Ġenem": 4709,
    "Ġreverie": 13453,
    "other": 1314,
    "Ġsires": 21222,
    "xology": 21136,
    "Ġhumming": 12979,
    "Ġsilvery": 13090,
    "fury": 17545,
    "Ġlines": 4535,
    "sleeve": 26106,
    "Ġheavy": 3742,
    "Ġscotch": 12207,
    "perch": 18335,
    "Ġlawn": 7379,
    "band": 3057,
    "ino": 15474,
    "Ġsurmisings": 26592,
    "Ġdoct": 4455,
    "agged": 9235,
    "Ġinevitably": 17229,
    "dler": 13701,
    "Ġhart": 17920,
    "Ġfrogs": 23922,
    "Ġirreparable": 19995,
    "Ġhed": 7387,
    "Ġingrat": 16837,
    "Ġdepress": 14042,
    "imens": 1747,
    "Ġbackwoods": 22655,
    "Ġoccasionally": 5591,
    "branch": 23578,
    "Ġfills": 12589,
    "Ġproc": 5546,
    "Ġgurg": 15667,
    "teous": 16166,
    "Ġantique": 19548,
    "oubtedly": 6944,
    "Ġslates": 11106,
    "Ġpuzzle": 11305,
    "Ġzig": 18740,
    "Ġgratification": 24097,
    "Ġexpose": 10327,
    "ordered": 8790,
    "Ġdere": 21829,
    "Ġconstru": 19064,
    "Ġdaring": 8121,
    "idents": 6150,
    "entials": 22658,
    "urry": 13988,
    "favouring": 24762,
    "bourgh": 19101,
    "Ġtooth": 9191,
    "conclusions": 25670,
    "wit": 7819,
    "Ġsells": 21219,
    "aution": 9386,
    "enjoyment": 17256,
    "long": 2913,
    "Ġyours": 4123,
    "linen": 25255,
    "iem": 20912,
    "Ġwalled": 15529,
    "Ġproperly": 7945,
    "tu": 12507,
    "ision": 1853,
    "elaborate": 21569,
    "Ġpairs": 4183,
    "Ġinvestig": 10549,
    "Ġoriginated": 24124,
    "pause": 12496,
    "crime": 14777,
    "Ġweaving": 12734,
    "despatched": 19798,
    "stay": 9679,
    "irable": 5777,
    "Ġflames": 7940,
    "Ġconclusion": 5984,
    "Ġmiscell": 16145,
    "Ġperformed": 8548,
    "Ġtransfer": 2245,
    "Ġregiment": 6432,
    "nals": 16394,
    "Ġgem": 21587,
    "Ġforward": 1836,
    "Ġdelightful": 6320,
    "Ġblessings": 24178,
    "Ġpostscript": 14802,
    "Ġspot": 4154,
    "Ġmarling": 23031,
    "Ġsea": 1209,
    "Ġinsight": 16526,
    "Ġnotorious": 18220,
    "Ġumb": 11644,
    "Ġfinally": 4668,
    "alizing": 17936,
    "answering": 26002,
    "Ġinfant": 11958,
    "Ġjapanese": 10632,
    "Ġtread": 9408,
    "Ġowl": 20080,
    "gallant": 7781,
    "Ġarch": 947,
    "Ġsoften": 23120,
    "Ġpropontis": 17463,
    "Ġbrushed": 15564,
    "omuch": 21654,
    "shut": 10979,
    "Ġintegr": 7969,
    "Ġflour": 8944,
    "Ġplays": 12034,
    "Ġexecute": 7506,
    "duing": 22405,
    "Ġbrother": 2750,
    "Ġautonomous": 10675,
    "Ġsubur": 12950,
    "Ġsickly": 16771,
    "Ġtone": 4037,
    "Ġapprehens": 5683,
    "indebted": 26156,
    "Ġsket": 18724,
    "Ġblowing": 10484,
    "Ġcoiled": 11817,
    "Ġcourtship": 24137,
    "Ġrising": 4356,
    "abb": 15733,
    "Ġisa": 14019,
    "cloth": 11934,
    "Ġtot": 4187,
    "Ġrevolt": 24507,
    "respond": 12539,
    "Ġcommit": 18652,
    "Ġost": 9648,
    "iag": 20911,
    "obstructed": 15222,
    "Ġmiscellaneous": 17460,
    "Ġundeceive": 25551,
    "Ġpaintings": 15051,
    "quality": 10232,
    "gration": 9121,
    "Ġbreaths": 14852,
    "Ġrev": 6989,
    "skinned": 25386,
    "Ġpredef": 18513,
    "Ġoffered": 5816,
    "ience": 794,
    "highest": 20404,
    "Ġcontents": 7211,
    "Ġmeet": 2805,
    "Ġapplies": 11957,
    "irresist": 21906,
    "sli": 11521,
    "arrival": 15593,
    "Ġjerk": 16947,
    "doubt": 6783,
    "Ġreally": 2162,
    "elter": 21564,
    "Ġmagg": 18902,
    "beer": 22482,
    "nerable": 16272,
    "waters": 11333,
    "lads": 20950,
    "Ġdeceased": 15003,
    "Ġrelied": 16189,
    "Ġreckon": 19867,
    "oir": 20997,
    "Ġdiab": 10611,
    "ostent": 16843,
    "Ġroof": 6564,
    "rior": 12736,
    "Ġwithdrawn": 10606,
    "iss": 2179,
    "Ġfalse": 4344,
    "oury": 22298,
    "barbs": 20234,
    "mmed": 7915,
    "hauteur": 26389,
    "Ġcategor": 4139,
    "Ġplow": 21453,
    "Ġdesirous": 8942,
    "Ġ1778": 25728,
    "going": 6313,
    "majesty": 26278,
    "Ġpowdered": 24240,
    "correct": 24486,
    "embed": 18184,
    "gno": 13722,
    "Ġassemblage": 26349,
    "Ġinfer": 7684,
    "Ġreckoned": 24744,
    "wes": 17701,
    "Ġjen": 9265,
    "enge": 21276,
    "Ġenvironments": 24019,
    "Ġreclining": 26031,
    "Ġarrived": 3745,
    "Ġinsomuch": 23683,
    "iony": 9190,
    "Ġfondly": 19613,
    "Ġhills": 6527,
    "Ġruth": 14087,
    "Ġobtru": 18669,
    "Ġpossible": 2584,
    "Ġevince": 24294,
    "ca": 20790,
    "Ġdifficulty": 5771,
    "astron": 22163,
    "Ġrubber": 22777,
    "flask": 12096,
    "Ġfortifications": 23621,
    "aust": 15305,
    "Ġbrimming": 22861,
    "actor": 11834,
    "Ġclanking": 20608,
    "Ġmuttered": 7087,
    "Ġunreasonable": 12771,
    "ves": 691,
    "Ġfed": 5531,
    "Ġgratify": 19499,
    "anguish": 15978,
    "Ġsupers": 18276,
    "remem": 13061,
    "ariously": 18524,
    "Ġbenefactor": 14693,
    "Ġfervently": 25875,
    "eyes": 5685,
    "Ġmagician": 25057,
    "father": 3775,
    "Ġquiet": 3261,
    "book": 4671,
    "Ġslumbers": 18938,
    "pulling": 25146,
    "Ġschools": 9476,
    "Ġdocument": 15015,
    "Ġeither": 2602,
    "imately": 12682,
    "Ġfun": 524,
    "Ġmermaid": 17811,
    "Ġarchitectures": 2911,
    "volutional": 1934,
    "Ġdoubtfully": 23478,
    "Ġstrained": 10218,
    "Ġtist": 21158,
    "Ġejac": 10203,
    "Ġabsorbed": 12328,
    "shud": 18480,
    "Ġdrags": 16938,
    "Ġconfidential": 9087,
    "Ġlonger": 3359,
    "Ġadaptive": 1374,
    "Ġsacrilege": 26226,
    "Ġshoots": 14564,
    "ces": 577,
    "Ġclergy": 7643,
    "Ġmorphology": 3011,
    "bows": 10081,
    "patient": 25341,
    "Ġpunchbowl": 20228,
    "Ġlizard": 12648,
    "Ġboat": 1278,
    "Ġcommendation": 13605,
    "icilian": 20688,
    "Ġmists": 14626,
    "Ġresolution": 5501,
    "Ġalleghan": 25793,
    "Ġreeds": 15690,
    "Ġburly": 19247,
    "Ġrest": 1781,
    "Ġfur": 987,
    "Ġgramm": 8171,
    "Ġgnarled": 26467,
    "boots": 11126,
    "Ġresentful": 24631,
    "Ġridiculous": 10628,
    "Ġai": 3126,
    "Ġmay": 924,
    "Ġrepast": 16406,
    "Ġprudence": 13916,
    "Ġdespondence": 25867,
    "Ġrecourse": 22737,
    "Ġclassical": 22648,
    "Ġpower": 1242,
    "Ġinstance": 2546,
    "innocent": 20283,
    "Ġheavier": 13098,
    "Ġgives": 5019,
    "Ġabrupt": 9735,
    "Ġunp": 12766,
    "Ġrucastles": 18715,
    "ails": 6160,
    "Ġadorned": 15243,
    "opy": 4458,
    "Ġconcluded": 5659,
    "Ġscornful": 24995,
    "bold": 17485,
    "Ġcage": 17823,
    "Ġmassa": 19450,
    "Ġbraz": 19354,
    "vag": 8765,
    "liest": 6294,
    "Ġtropic": 17062,
    "Ġverge": 23887,
    "Ġdyspepsia": 20640,
    "bacc": 7795,
    "alions": 21494,
    "holmes": 4431,
    "Ġappertain": 22213,
    "fairly": 17218,
    "Ġconvert": 11843,
    "Ġtales": 10141,
    "useless": 14590,
    "Ġsuspicion": 6211,
    "Ġencamped": 22796,
    "broad": 8643,
    "Ġretreats": 16925,
    "torture": 26149,
    "bus": 5355,
    "Ġinitialized": 3946,
    "Ġvarious": 3508,
    "Ġallows": 3233,
    "Ġwee": 21912,
    "Ġward": 10155,
    "Ġcondescend": 19951,
    "Ġindecision": 25779,
    "Ġconsideration": 5192,
    "Ġporthole": 24402,
    "inked": 12907,
    "doom": 23377,
    "cheap": 23805,
    "Ġdoctrine": 24199,
    "Ġflaming": 8564,
    "hampshire": 23260,
    "Ġunseasonable": 26519,
    "rr": 17648,
    "oak": 20998,
    "Ġswim": 3818,
    "Ġlongitudes": 22628,
    "Ġleathern": 15046,
    "Ġblazing": 11893,
    "Ġbulkington": 14673,
    "Ġpossessing": 16572,
    "Ġlan": 5820,
    "Ġremnants": 22788,
    "Ġderiv": 1735,
    "Ġnarration": 13313,
    "Ġringleader": 26210,
    "odox": 21810,
    "Ġaddresses": 3767,
    "Ġbigger": 19758,
    "Ġyoked": 15729,
    "Ġmovement": 9967,
    "wishes": 13802,
    "tenderly": 20527,
    "Ġnic": 7376,
    "axen": 22515,
    "Ġhighly": 4844,
    "ouses": 5164,
    "Ġhouses": 6138,
    "iously": 2675,
    "lashed": 20949,
    "Ġinheritance": 25354,
    "Ġdiligently": 11405,
    "mounting": 25205,
    "persuasion": 20040,
    "Ġfron": 14481,
    "Ġpanted": 21466,
    "aus": 1497,
    "Ġinsertion": 26341,
    "clam": 13049,
    "Ġeffectively": 2705,
    "slow": 7812,
    "Ġsummarization": 3647,
    "Ġaccosted": 13667,
    "emper": 18182,
    "friend": 3862,
    "houses": 9598,
    "Ġrome": 12153,
    "therly": 18340,
    "Ġrepented": 23362,
    "Ġspray": 7895,
    "Ġbrings": 11877,
    "client": 18928,
    "standing": 5559,
    "ambition": 13408,
    "Ġjan": 11759,
    "Ġprotection": 9461,
    "Ġleisurely": 24746,
    "den": 938,
    "Ġtossings": 25355,
    "eskye": 21444,
    "encies": 4080,
    "ham": 1702,
    "Ġstuffed": 13406,
    "Ġexpressly": 16450,
    "Ġgpus": 3731,
    "Ġasks": 5115,
    "²": 115,
    "Ġprotruding": 16655,
    "arming": 8951,
    "Ġdespond": 14663,
    "ighted": 8477,
    "Ġpeasants": 12329,
    "Ġconstitutional": 25125,
    "poison": 14386,
    "Ġsurely": 6307,
    "crews": 15038,
    "carry": 19523,
    "Ġchapel": 9521,
    "necessities": 24309,
    "Ġrevelations": 25221,
    "Ġmartyr": 26358,
    "ggling": 19094,
    "Ġbackground": 18646,
    "wed": 5004,
    "Ġyellowish": 24433,
    "Ġconsented": 11295,
    "akers": 9738,
    "aet": 15303,
    "opened": 7914,
    "Ġbalmy": 22900,
    "deeply": 16174,
    "Ġimpulse": 10023,
    "ternatural": 12709,
    "lat": 9603,
    "diver": 20828,
    "Ġcruellest": 19655,
    "Ġguests": 12285,
    "ments": 1401,
    "Ġstiggs": 25790,
    "Ġgipsies": 12405,
    "Ġprofundities": 20450,
    "Ġlighter": 12647,
    "Ġsaintsbury": 26370,
    "ounding": 22386,
    "ersburgh": 18206,
    "Ġinher": 10179,
    "Ġgladly": 14677,
    "Ġpills": 21460,
    "Ġsafer": 22164,
    "Ġtheoretic": 23311,
    "Í": 142,
    "Ġunwarrantable": 26351,
    "Ġadmir": 12019,
    "Ġdiagon": 24740,
    "atches": 13841,
    "isition": 11584,
    "gods": 13363,
    "Ġupbraid": 18315,
    "calculating": 25687,
    "Ġhandsomer": 20330,
    "Ġcore": 13873,
    "Ġune": 4599,
    "laying": 19769,
    "Ġinexper": 16977,
    "Ġanomalously": 25636,
    "alarms": 21498,
    "Ġshadowed": 24046,
    "dish": 12449,
    "ernally": 22616,
    "Ġrol": 3556,
    "f": 74,
    "ampling": 12721,
    "abode": 21785,
    "Ġtreatise": 19341,
    "embow": 21925,
    "Ġtunes": 24619,
    "hard": 4691,
    "complete": 15031,
    "iasm": 8061,
    "Ġconqueror": 25794,
    "Ġmiles": 3802,
    "Ġpronounce": 16965,
    "Ġpondered": 15162,
    "Ġrealism": 18980,
    "Ġoccupation": 9930,
    "Ġproudly": 19739,
    "Ġfar": 1448,
    "Ġpreference": 9732,
    "Ġsleep": 2400,
    "Ġscheduling": 2351,
    "ciousness": 20814,
    "Ġgreat": 895,
    "Ġdissembling": 26252,
    "venty": 6427,
    "Ġmoran": 9340,
    "aped": 3763,
    "Ġjeroboam": 10600,
    "Ġmagical": 23094,
    "Ġshouldn": 14319,
    "Ġstab": 10862,
    "Ġpantheistic": 26333,
    "suspected": 12369,
    "Ġpretending": 19312,
    "Ġheaviest": 23324,
    "sufferable": 12174,
    "ĠĠĠĠĠĠĠĠĠĠĠĠĠĠĠĠĠĠĠĠĠĠĠĠĠĠĠĠĠĠĠĠĠĠĠ": 19255,
    "Ġlodges": 19496,
    "Ġhorseback": 14845,
    "quired": 21838,
    "proachable": 23398,
    "Ġknee": 7094,
    "Ġdyspeps": 16497,
    "respect": 6374,
    "Ġcabinet": 23861,
    "hilar": 25080,
    "itled": 7578,
    "Ġfrenchman": 11283,
    "Ġobviously": 16807,
    "Ġlanguor": 12841,
    "Ġpersonally": 8599,
    "Ġgod": 1935,
    "Ġfatigued": 13461,
    "Ġmaster": 3681,
    "Ġbubbles": 11398,
    "tiest": 21076,
    "Ġbusiness": 2233,
    "Ġglac": 9344,
    "zes": 11547,
    "alot": 15619,
    "Ġlungs": 8362,
    "Ġmu": 17793,
    "Ġinsignificant": 20453,
    "Ġbordering": 17227,
    "Ġnarwhales": 24145,
    "Ġcher": 6129,
    "ges": 2875,
    "Ġobser": 2072,
    "mar": 4336,
    "Ġphilosophy": 7104,
    "Ġestab": 6315,
    "ries": 3353,
    "zz": 4294,
    "Ġinterruption": 9472,
    "Ġchimney": 6497,
    "topic": 10527,
    "Ġsubmitted": 11868,
    "ius": 5790,
    "Ġtutored": 20124,
    "Ġunstructured": 3004,
    "greatest": 10493,
    "Ġconnectivity": 3667,
    "construction": 19775,
    "horner": 23615,
    "Ġwater": 1948,
    "ipelag": 12836,
    "derest": 18311,
    "Ġbirch": 26172,
    "Ġsurviving": 24637,
    "meat": 18675,
    "afflicted": 23778,
    "Ġoutermost": 22313,
    "Ġprophesy": 26059,
    "Ġorgans": 15860,
    "Ġspaces": 3109,
    "Ġnotions": 14093,
    "sof": 17655,
    "Ġelevation": 14894,
    "spect": 3232,
    "woes": 21128,
    "Ġabund": 8864,
    "danced": 20825,
    "Ġreverse": 16979,
    "em": 391,
    "Ġpregn": 22226,
    "welcome": 10000,
    "Ġcommerce": 11015,
    "Ġhaunted": 10253,
    "Ġunbecoming": 22056,
    "boast": 23249,
    "ellent": 3760,
    "Ġcrouching": 23444,
    "Ġmajority": 13288,
    "Ġerr": 1321,
    "Ġshould": 864,
    "Ġwitness": 4622,
    "Ġelement": 6899,
    "distinguish": 19569,
    "finally": 9498,
    "oring": 1860,
    "bling": 10078,
    "Ġcommunicates": 24550,
    "Ġjail": 22288,
    "Ġshel": 6848,
    "Ġhers": 7890,
    "Ġdistrusting": 25052,
    "pleasures": 24047,
    "flying": 13716,
    "Ġextend": 18691,
    "alty": 17935,
    "giv": 13717,
    "Ġnineveh": 13386,
    "circled": 24189,
    "Ġjoes": 19227,
    "Ġemerged": 8685,
    "lines": 6960,
    "Ġtree": 5285,
    "Ġdel": 1615,
    "Ġhogshe": 20488,
    "Ġbreathing": 9444,
    "Ġmuch": 923,
    "Ġrueful": 25580,
    "Ġturnpike": 23026,
    "Ġleave": 2455,
    "Ġgover": 2459,
    "Ġthief": 11608,
    "Ġnorris": 23198,
    "lev": 1234,
    "knows": 19169,
    "sn": 7139,
    "Ġspit": 22114,
    "Ġhereditarily": 25222,
    "Ġwisest": 11232,
    "Ġmag": 1430,
    "Ġpleasures": 11142,
    "activity": 22626,
    "Ġsynd": 22205,
    "Ġclink": 22352,
    "Ġcongealed": 25979,
    "Ġanalyze": 1544,
    "ffic": 22145,
    "owed": 2269,
    "Ġmistaking": 23719,
    "Ġarcher": 22184,
    "diss": 17521,
    "Ġindignation": 8347,
    "Ġdiversion": 17196,
    "occasionally": 13516,
    "Ġbandages": 24430,
    "igger": 21695,
    "althily": 19355,
    "reflection": 13451,
    "Ġstays": 16558,
    "Ġ119": 24444,
    "Ġ94": 17715,
    "Ġperman": 10964,
    "Ġpaddling": 25283,
    "Ġhams": 16609,
    "ishmael": 18417,
    "Ġfronts": 20528,
    "Ġaust": 4872,
    "Ġbrooded": 23099,
    "Ġpattern": 1335,
    "excellent": 8044,
    "Ġhelmet": 19684,
    "unwillingness": 25800,
    "lp": 898,
    "initions": 21183,
    "Ġengrossed": 12990,
    "Ġforegoing": 23450,
    "ram": 13966,
    "Ġconclude": 8581,
    "Ġbery": 13893,
    "Ġent": 906,
    "cain": 15321,
    "Ġimpending": 22378,
    "Ġattached": 5393,
    "osop": 4404,
    "det": 5208,
    "Ġpains": 5963,
    "Ġbeaver": 18082,
    "ermaid": 14293,
    "appear": 13195,
    "jour": 20922,
    "Ġawake": 8272,
    "Ġheat": 5454,
    "Ġnumer": 3639,
    "Ġdrifted": 14621,
    "ots": 3295,
    "Ġannesley": 19574,
    "Ġporpoise": 7107,
    "iners": 4938,
    "cus": 3978,
    "mindful": 19596,
    "Ġabst": 9264,
    "breaking": 14759,
    "uling": 2257,
    "Ġherd": 7889,
    "Ġslightest": 6091,
    "oked": 4309,
    "Ġvess": 3296,
    "Ġentangled": 10343,
    "Ġcharacters": 9369,
    "atible": 17770,
    "Ġterrify": 19357,
    "Ġagonized": 25371,
    "convolutional": 4959,
    "prick": 19339,
    "Ġhorrors": 10479,
    "Ġintimacy": 8701,
    "Ġfireboard": 23533,
    "pemberley": 9619,
    "eternal": 17979,
    "antique": 18284,
    "Ġtaurus": 21174,
    "lic": 17585,
    "Ġvertically": 19376,
    "ghan": 19451,
    "Ġpersevering": 20230,
    "ack": 612,
    "Ġsquee": 7930,
    "Ġjunk": 15948,
    "isson": 23462,
    "Ġundec": 22011,
    "Ġhilarity": 20294,
    "Ġpro": 360,
    "iamond": 14586,
    "Ġathe": 17739,
    "blunder": 24131,
    "Ġsilk": 11960,
    "Ġabruptly": 15146,
    "Ġhails": 21944,
    "Ġsitu": 3493,
    "ooped": 17621,
    "Ġportent": 12078,
    "Ġthom": 21509,
    "Ġglued": 20585,
    "Ġhop": 1460,
    "Ġchange": 1992,
    "Ġblinding": 14723,
    "convenient": 12235,
    "smitten": 23908,
    "athed": 7830,
    "wol": 21117,
    "aken": 1868,
    "scream": 11076,
    "happen": 19325,
    "Ġforbid": 7866,
    "Ġlaudanum": 20687,
    "Ġacknowled": 6350,
    "newsp": 23130,
    "Ġlard": 15641,
    "Ġcetacea": 20550,
    "recovered": 19784,
    "Ġalas": 5920,
    "cat": 15319,
    "Ġcrushing": 20172,
    "resemblance": 25931,
    "ok": 571,
    "ony": 3029,
    "Ġeyes": 1334,
    "Ġfamiliar": 5512,
    "Ġtrump": 8195,
    "Ġhogshead": 26365,
    "pump": 21012,
    "ĠĠĠĠĠĠĠĠĠĠ": 18574,
    "mistake": 24532,
    "Ġwoke": 21285,
    "Ġfee": 7199,
    "involved": 25624,
    "Ġexhale": 24405,
    "Ġdistant": 5388,
    "amore": 21844,
    "Ġthoughtlessness": 16188,
    "Ġsalesman": 13663,
    "Ġlaid": 3939,
    "exertion": 16011,
    "Ġcontemplate": 19889,
    "shoes": 14234,
    "Ġx": 2076,
    "Ġdaughter": 2871,
    "Ġvehement": 16197,
    "Ġapparition": 8067,
    "ificant": 22204,
    "Ġcrumpled": 16438,
    "Ġanyways": 22514,
    "Ġrandomly": 1920,
    "Ġrigged": 16714,
    "nable": 13757,
    "Ġnoon": 6559,
    "Ġagents": 9765,
    "Ġholland": 10365,
    "Ġincorpor": 13162,
    "Ġbay": 9167,
    "sav": 8097,
    "squall": 13517,
    "Ġmic": 17795,
    "Ġmouthful": 16571,
    "Ġleaps": 14002,
    "repro": 10770,
    "Ġgowns": 25358,
    "share": 14230,
    "Ġsax": 10929,
    "Ġsple": 21211,
    "nour": 20983,
    "Ġsouthwards": 19630,
    "alid": 13930,
    "lacing": 17588,
    "Ġprofund": 13150,
    "Ġgoug": 17987,
    "liberal": 26279,
    "Ġnow": 692,
    "Ġbefitting": 15720,
    "frost": 15102,
    "gaz": 20875,
    "Ġimag": 2673,
    "Ġaffrighted": 13567,
    "rank": 21036,
    "signs": 16536,
    "Ġwilt": 9642,
    "trial": 20346,
    "Ġpettic": 14836,
    "Ġchurned": 18382,
    "transform": 8050,
    "scru": 16237,
    "Ġimplies": 24874,
    "Ġlonged": 6436,
    "fugitive": 26129,
    "xter": 9145,
    "Ġmrs": 1467,
    "unt": 2041,
    "def": 1450,
    "vocation": 25083,
    "Ġinterposed": 20615,
    "Ġaccumulation": 2693,
    "Ġglowed": 24865,
    "Ġoverflowed": 20259,
    "Ġferocious": 17416,
    "Ġreserves": 19667,
    "bad": 12433,
    "Ġentirely": 3432,
    "comprehens": 16169,
    "Ġchamois": 16797,
    "Ġevaluation": 16535,
    "sold": 15421,
    "arising": 17894,
    "Ġtin": 15458,
    "Ġ37": 24079,
    "Ġfeasts": 25368,
    "whatsoever": 18490,
    "inary": 3274,
    "begging": 22491,
    "Ġslily": 23159,
    "cor": 5521,
    "Ġpattering": 18648,
    "ctuous": 9204,
    "iment": 2816,
    "air": 1002,
    "Ġsleek": 23384,
    "Ġlearnedly": 23386,
    "profound": 16421,
    "ğ": 224,
    "historical": 20462,
    "Ġincarn": 11811,
    "diversity": 25895,
    "Ġneeded": 7718,
    "Ġpassage": 3884,
    "investigations": 25532,
    "ip": 556,
    "Ġenemy": 5606,
    "Ġtopmost": 14583,
    "ë": 172,
    "musket": 25340,
    "fell": 6954,
    "Ġdoleful": 18374,
    "isation": 13888,
    "urg": 8142,
    "Ġmalignant": 14873,
    "causing": 25517,
    "Ġegress": 21615,
    "Ġfuss": 13900,
    "Ġpreprocess": 22227,
    "trees": 10731,
    "Ġflitting": 13020,
    "Ġthoughtfulness": 18770,
    "Ġinsult": 6748,
    "Ġkeenest": 12159,
    "Ġcolumns": 14370,
    "Ġstamping": 20027,
    "âĢĿ)": 21805,
    "Ġforeb": 12001,
    "mitting": 17600,
    "Ġaroused": 15898,
    "oquence": 11386,
    "Ġarri": 2554,
    "subjects": 19873,
    "?âĢĿâĢĶ": 12889,
    "etics": 21574,
    "informed": 17734,
    "Ġbaw": 15562,
    "Ġraft": 16105,
    "capitals": 25079,
    "og": 865,
    "Ġgretna": 26466,
    "er": 269,
    "unhesitatingly": 26495,
    "splash": 25207,
    "acet": 5477,
    "arians": 18523,
    "Ġeigenvalues": 4999,
    "figures": 20118,
    "Ġcorrectly": 9403,
    "Ġshabby": 14105,
    "Ġfirmest": 16661,
    "mutually": 26134,
    "Ġestablished": 9069,
    "sey": 5544,
    "lonely": 20952,
    "Ġelasticity": 19555,
    "fisher": 7547,
    "cocks": 23561,
    "Ġseasoned": 24408,
    "entropy": 1439,
    "breast": 11245,
    "Ġconfidently": 24954,
    "fail": 17538,
    "izer": 2027,
    "holding": 7739,
    "Ġwarmly": 8987,
    "serpent": 16287,
    "Ġwraps": 19773,
    "Ġeleven": 9389,
    "Ġroused": 7623,
    "rugged": 6850,
    "Ġrussian": 14342,
    "Ġnook": 15923,
    "attering": 7419,
    "spending": 18686,
    "Ġtired": 9148,
    "ignation": 11128,
    "Ġcomra": 7184,
    "Ġprophe": 13074,
    "Ġmajor": 13287,
    "Ġinscrut": 10033,
    "Ġdeeds": 15753,
    "corpse": 24489,
    "imag": 6991,
    "Ġwal": 6517,
    "ible": 1118,
    "wedged": 24341,
    "secur": 18123,
    "Ġsympathised": 14857,
    "sartain": 25620,
    "ilburn": 18056,
    "Ġflowers": 8940,
    "Ġoy": 15539,
    "Ġpressing": 9259,
    "Ġannouncement": 14827,
    "Ġscratches": 22280,
    "if": 376,
    "Ġexpon": 966,
    "ifications": 9727,
    "====": 1480,
    "'re": 12425,
    "bl": 4141,
    "Ġbarricade": 14656,
    "Ġproposals": 10613,
    "Ġreduced": 11921,
    "Ġimpact": 10296,
    "confess": 12173,
    "Ġprincip": 5601,
    "Ġvill": 3877,
    "Ġwishing": 7832,
    "Ġhoriz": 4727,
    "Ġ46": 19487,
    "Ġexcessively": 9439,
    "crimson": 24101,
    "Ġsurpassing": 20464,
    "gorith": 552,
    "Ġhard": 1451,
    "enit": 17777,
    "shipped": 18483,
    "mightily": 24105,
    "Ġunappe": 22010,
    "antled": 18283,
    "hundred": 8331,
    "Ġdecoyed": 18489,
    "Ġbefore": 811,
    "vitiated": 25752,
    "Ġinconven": 7587,
    "Ġcon": 348,
    "Ġjust": 1239,
    "Ġloitering": 22110,
    "Ġcons": 953,
    "Ġclubs": 25177,
    "Ġadvantageously": 19542,
    "Ġterminating": 23510,
    "Ġcheshire": 13086,
    "Ġmusic": 5269,
    "whe": 1072,
    "Ġpondicherry": 20487,
    "Ġrefine": 3286,
    "outs": 7009,
    "Ġcheerfulness": 10516,
    "Ġcorporeally": 25727,
    "rious": 11686,
    "Ġremaining": 6188,
    "conjecture": 15118,
    "Ġseas": 3076,
    "Ġrepentance": 15156,
    "Ġaverage": 3138,
    "Ġinhabitants": 7525,
    "Ġinheriting": 25353,
    "pounds": 21020,
    "gely": 10700,
    "Ġcontriv": 9280,
    "bert": 4664,
    "mention": 7216,
    "ogany": 18672,
    "joined": 13270,
    "Ġmelbourne": 24290,
    "anse": 12570,
    "circle": 16733,
    "affold": 16559,
    "Ġpond": 13912,
    "Ġdiscover": 4719,
    "thrusting": 20256,
    "repe": 8776,
    "Ġswamp": 14430,
    "Ġstartled": 7083,
    "Ġpalms": 8644,
    "Ġredu": 1353,
    "Ġenergy": 2553,
    "Ġnieces": 8433,
    "Ġusher": 22209,
    "Ġregarding": 13206,
    "Ġsalutations": 25381,
    "precaution": 23822,
    "==": 943,
    "ĠĠĠĠĠĠĠĠĠĠĠĠĠĠĠĠĠĠĠĠĠĠĠĠĠĠĠĠĠĠĠĠĠĠĠĠ": 23664,
    "Ġdint": 15584,
    "Ġearn": 3548,
    "Ġscra": 5840,
    "Ġbarely": 16933,
    "devilish": 17081,
    "Ġglut": 18849,
    "Ġintrusion": 12759,
    "hering": 12808,
    "Ġbeware": 8827,
    "aimed": 3950,
    "footsteps": 25197,
    "Ġb": 281,
    "Ġcordage": 19675,
    "Ġwedding": 4858,
    "Ġenglishmen": 19426,
    "Ġnodded": 11967,
    "Ġmercenary": 17192,
    "confirmed": 19642,
    "Ġalternate": 19982,
    "Ġwretchedness": 9026,
    "Ġinch": 7851,
    "Ġlaure": 16906,
    "Ġfortune": 4242,
    "Ġsemantic": 1958,
    "retched": 3067,
    "mes": 1197,
    "Ġneskyeuna": 26457,
    "Ġtracks": 18888,
    "Ġseventy": 7881,
    "Ġtake": 1579,
    "gang": 17551,
    "rods": 21531,
    "Ġadditional": 7935,
    "Ġagrees": 22510,
    "Ġunprinciple": 18251,
    "Ġtelegraph": 25582,
    "Ġhusbands": 16639,
    "disappointed": 25189,
    "Ġkrusenstern": 26375,
    "Ġillustrate": 25064,
    "ux": 7815,
    "Ġproviding": 1360,
    "Ġpetersburgh": 24231,
    "rison": 13774,
    "Ġconquest": 15742,
    "Ġadieu": 10050,
    "Ġanimate": 23423,
    "Ġlift": 8811,
    "Ġbroom": 18903,
    "Ġtol": 6676,
    "Ġcrystall": 20223,
    "Đ": 209,
    "now": 548,
    "Ġclue": 7021,
    "odecimo": 11444,
    "Ġstrand": 11825,
    "Ġfire": 2335,
    "dissemble": 23492,
    "Ġfairest": 20459,
    "library": 12993,
    "Ġstrategies": 1838,
    "Ġoccas": 2703,
    "ploy": 2042,
    "Ġgroves": 16737,
    "Ġbraided": 16578,
    "Ġcountenance": 3969,
    "Ġconve": 5456,
    "Ġdeeply": 4718,
    "Ġpand": 21449,
    "Ġhair": 3314,
    "Ġ78": 19610,
    "injury": 25211,
    "Ġgasps": 24866,
    "Ġbrut": 18765,
    "Ġpeculiarity": 12927,
    "bloom": 24689,
    "Ġinco": 14254,
    "Ġschool": 5513,
    "Ġdevoted": 6573,
    "kitchen": 17583,
    "dipped": 20834,
    "reigned": 21238,
    "promise": 12248,
    "adel": 15723,
    "Ġissuing": 16945,
    "Ġshriek": 6637,
    "Ġhierarchical": 1926,
    "Ġallowing": 2176,
    "Ġbarmaid": 19332,
    "fedallah": 25521,
    "Ġtuileries": 24827,
    "Ġearnestness": 12122,
    "Ġjoyously": 19343,
    "intercourse": 14634,
    "confid": 14862,
    "irons": 10238,
    "Ġmonarchs": 25844,
    "Ġmake": 1285,
    "Ġunintelligible": 26513,
    "anche": 10788,
    "plain": 1357,
    "Ġhunter": 5402,
    "Ġdecreed": 18487,
    "Ġapplied": 6186,
    "Ġsupp": 1264,
    "nt": 921,
    "irr": 12730,
    "hib": 15362,
    "Ġisinglass": 21796,
    "Ġshe": 466,
    "vered": 4829,
    "beth": 13683,
    "Ġinsupportable": 13927,
    "Ġpockets": 8895,
    "begone": 12872,
    "Ġflorida": 20656,
    "Ġunfair": 19504,
    "dually": 3283,
    "Ġdecember": 15004,
    "Ġdying": 2139,
    "Ġrendered": 5774,
    "Ġfill": 5702,
    "Ġsketch": 16159,
    "Ġcomputational": 1625,
    "furthermore": 20000,
    "Ġridges": 16728,
    "Ġsucking": 12780,
    "Ġsad": 3867,
    "ists": 3999,
    "Ġadopt": 10631,
    "Ġtantalizing": 20410,
    "https": 11681,
    "Â£": 4812,
    "hitherto": 17282,
    "Ġnervous": 2404,
    "Ġconvalescence": 23747,
    "Ġhil": 10821,
    "Ġuninterrupted": 22038,
    "Ġcorrespond": 6209,
    "icle": 10834,
    "Ġbeneficial": 23931,
    "Ġglass": 4369,
    "Ġbusks": 23338,
    "rably": 21627,
    "Ġcringing": 25939,
    "Ġvoyager": 16508,
    "bul": 6952,
    "Ġpallidness": 25603,
    "brimmed": 14584,
    "related": 24011,
    "Ġprejudice": 9075,
    "£": 101,
    "necessity": 13364,
    "Ġviews": 7291,
    "Ġstagnant": 24654,
    "Ġbenjamin": 26566,
    "crossing": 19407,
    "Ġwreat": 15525,
    "Ġsinking": 7308,
    "Ġnet": 3627,
    "Ġniag": 21523,
    "Ġnecessitated": 23927,
    "Ġorder": 1683,
    "Ġ92": 24590,
    "Ġthoroughfare": 16941,
    "Ġbackpropagation": 1262,
    "str": 2577,
    "Ġstruct": 2784,
    "Ġdurst": 20348,
    "Ġsnow": 3706,
    "recollected": 25346,
    "croquet": 25745,
    "treated": 21089,
    "Ġskull": 6288,
    "Ġ123": 24471,
    "Ġpurring": 23476,
    "Ġforts": 21766,
    "Ġscrawled": 24580,
    "Ġwindows": 4972,
    "Ġchristmas": 6925,
    "Ġviii": 16409,
    "Ġtravel": 5951,
    "counters": 25396,
    "tram": 19632,
    "Ġtackles": 8051,
    "complied": 19910,
    "biscuit": 17498,
    "Ġinsc": 7586,
    "Ġaid": 6122,
    "Ġfolk": 10375,
    "apsed": 6295,
    "Ġmarked": 4620,
    "floating": 12225,
    "key": 5463,
    "Ġ72": 19608,
    "Ġdimens": 3148,
    "Ġmoodily": 19831,
    "Ġdining": 6978,
    "Ġform": 1021,
    "henry": 16622,
    "Ġspilling": 22127,
    "Ġfavourable": 7959,
    "Ġgr": 975,
    "bulwarks": 12270,
    "Ġhydraulic": 10063,
    "clay": 18927,
    "wled": 15449,
    "Ġiv": 4042,
    "Ġapologies": 25194,
    "Ġexpanding": 25236,
    "lantern": 17425,
    "shattered": 22443,
    "Ġdistress": 5844,
    "Ġdam": 2216,
    "Ġbetokened": 18793,
    "painful": 13498,
    "Ġfreer": 23208,
    "resolved": 9638,
    "bearance": 22488,
    "Ġwaistcoat": 12268,
    "eliest": 14741,
    "Ġexcused": 23313,
    "Ġappar": 7411,
    "Ġeag": 2969,
    "Ġforesight": 13125,
    "Ġspeeches": 22652,
    "İ": 241,
    "Ġunhappiness": 14112,
    "Ġpresided": 20204,
    "Ġunprepared": 22042,
    "_?âĢĿ": 15301,
    "Ġsmart": 11812,
    "Ġdespised": 14662,
    "Ġcontinually": 5043,
    "Ġheap": 12672,
    "Ġeasiness": 23537,
    "Ġsetbacks": 11063,
    "Ġhopes": 4236,
    "Ġshocking": 10435,
    "tarpaulins": 26403,
    "Ġoppose": 16515,
    "derbyshire": 18316,
    "Ġacknowledges": 24688,
    "Ġcompl": 3758,
    "ĕ": 214,
    "L": 48,
    "Ġcable": 11578,
    "dden": 1802,
    "important": 7113,
    "passage": 11261,
    "Ġdecanting": 22451,
    "makes": 10711,
    "meaning": 2909,
    "Ġshiny": 14100,
    "Ġscores": 2715,
    "Ġwhaler": 7521,
    "Ġscalable": 1535,
    "ppo": 18172,
    "Ġprofuse": 23566,
    "Ġharpo": 1942,
    "Ġstress": 18063,
    "Ġaveraging": 2418,
    "Ġtouches": 20567,
    "nuee": 17427,
    "Ġshake": 6032,
    "prepare": 20209,
    "Ġminority": 18749,
    "Ġal": 342,
    "Ġfeigned": 22201,
    "Ġclerval": 4655,
    "Ġperformance": 1307,
    "Ġhoarsely": 26300,
    "Ġuses": 1210,
    "Ġmournfully": 20113,
    "stout": 21633,
    "Ġcoach": 6868,
    "Ġjourney": 3879,
    "Ġcontradictory": 20393,
    "Ġbecause": 2211,
    "atched": 6375,
    "Ġtranspointed": 22434,
    "Ġcaval": 25767,
    "Ġresent": 6047,
    "Ġslewed": 23385,
    "Ġshipwrecked": 25685,
    "Ġvalidate": 3161,
    "Ġreads": 23107,
    "Ġjenny": 20158,
    "Ġdestabilizing": 5054,
    "Ġstyle": 6947,
    "authority": 13586,
    "Ġballs": 9014,
    "elevating": 20402,
    "Ġhorizontal": 7783,
    "Ġ-": 1943,
    "Ġplu": 8799,
    "illity": 18293,
    "itig": 1331,
    "jep": 20921,
    "hun": 5211,
    "disciple": 16775,
    "cannib": 11899,
    "Ġbracing": 16577,
    "Ġcoffin": 4429,
    "Ġ80": 24459,
    "whose": 6853,
    "Ġcalf": 16263,
    "Ġabhor": 5468,
    "Ġassault": 9836,
    "esty": 4307,
    "binary": 20781,
    "Ġharness": 17924,
    "ĥ": 230,
    "Ġbugs": 13643,
    "Ġadvent": 4357,
    "treasures": 26150,
    "Ġgrapple": 25809,
    "doubted": 17524,
    "suited": 22634,
    "Ġpout": 17905,
    "Ġlife": 1352,
    "Ġillinois": 19134,
    "absurd": 21789,
    "port": 10719,
    "Ġglided": 7447,
    "Ġpleadings": 25850,
    "Ġfellow": 2777,
    "Ġexcluded": 16380,
    "Ġsqualid": 14362,
    "Ġfishing": 9661,
    "Ġungover": 18252,
    "gia": 20873,
    "gorge": 22331,
    "project": 16420,
    "Ġmoss": 9282,
    "Ġnorm": 762,
    "itudes": 3015,
    "giana": 7801,
    "cutting": 23784,
    "isol": 17844,
    "Ì": 141,
    "Ġ1828": 25718,
    "Ġglimpses": 13428,
    "exciting": 19665,
    "abri": 6683,
    "lord": 3864,
    "Ġarising": 10933,
    "Ġsuccessfully": 19425,
    "Ġshrouds": 11344,
    "Ġsult": 10767,
    "Ġmult": 1020,
    "Ġparalle": 1412,
    "Ġevangelists": 20336,
    "Ġpeering": 8535,
    "Ġlazily": 11380,
    "Ġbowsman": 11255,
    "Ġravine": 18637,
    "Ġfisheries": 17435,
    "Ġcontract": 18473,
    "gently": 13724,
    "Ġmates": 4873,
    "hearth": 15494,
    "Ġfrosts": 19799,
    "perhaps": 4121,
    "satisfied": 10578,
    "Ġcontinu": 1167,
    "Ġcelest": 9900,
    "Ġwaterloo": 11978,
    "Ġappellation": 22216,
    "Ġprec": 2920,
    "©": 107,
    "superiority": 20181,
    "Ġale": 9153,
    "Ġpangs": 15608,
    "Ġhe": 318,
    "rians": 21919,
    "discharging": 26303,
    "Ġautumnal": 19050,
    "Ġinterview": 9769,
    "Ġtable": 2499,
    "Ġreminiscences": 26267,
    "Ġorganizations": 12312,
    "Ġbucket": 8788,
    "Ġabuse": 18389,
    "Ġmagic": 8233,
    "announced": 19756,
    "«": 109,
    "Ġtriumphant": 12187,
    "Ġdishonor": 25600,
    "Ġlogic": 13073,
    "Ġbluff": 16513,
    "Ġexclusiveness": 23926,
    "đ": 210,
    "physiogn": 26266,
    "Ġdead": 2173,
    "rets": 12536,
    "Ġsinks": 19546,
    "antic": 1605,
    "Ġselling": 21220,
    "Ġsecretly": 13266,
    "redit": 3875,
    "Ġtren": 17719,
    "Ġinquis": 19301,
    "Ġkid": 9724,
    "Ġnewton": 3533,
    "hundreds": 25072,
    "Ġcab": 2632,
    "more": 1032,
    "touched": 15434,
    "Ġgrunted": 16163,
    "Ġdespise": 14661,
    "Ġxxx": 7767,
    "Ġgreenhorn": 23768,
    "remes": 21233,
    "Ġdivide": 12107,
    "Ġpanthe": 19650,
    "Ġembarrassment": 10626,
    "glasses": 11215,
    "Ġdollars": 11455,
    "ly": 319,
    "Ġseethings": 26502,
    "Ġprows": 19886,
    "renadier": 18416,
    "Ġavenues": 25428,
    "Ġhansom": 13659,
    "Ġtalker": 23371,
    "matical": 13126,
    "Ġtemple": 7654,
    "Ġmatrimonial": 25488,
    "ivorous": 22073,
    "Ġspr": 4023,
    "ds": 4689,
    "Ġrough": 7188,
    "Ġbelfry": 26436,
    "Ġmonsie": 11447,
    "prom": 6509,
    "Ġlouisiana": 25075,
    "âĢĿ;": 11667,
    "madam": 24424,
    "Ġdestroy": 5773,
    "jolly": 20926,
    "Ġcr": 2155,
    "Ġsuggestions": 24456,
    "Ġhow": 597,
    "headers": 23104,
    "destroy": 19507,
    "once": 5902,
    "Ġexamined": 6334,
    "Ġsermon": 12373,
    "Ġlabour": 7275,
    "Ġcotton": 17376,
    "Ġther": 17776,
    "spring": 7232,
    "Ġhousings": 21486,
    "Ġcot": 13872,
    "Ġembedding": 2105,
    "Ġawful": 6199,
    "Ġlogits": 3449,
    "situation": 11437,
    "Ġstoutly": 16921,
    "Ġwooden": 4731,
    "Ġcharm": 4549,
    "Ġsymptom": 13479,
    "Ġdrama": 16325,
    "whispered": 20030,
    "Ġstay": 3093,
    "downward": 16616,
    "Ġgangway": 20154,
    "assed": 6421,
    "althy": 8432,
    "wrinkled": 16551,
    "sax": 21051,
    "Ġphilosop": 5058,
    "roded": 17952,
    "Ġ69": 19658,
    "Ġwo": 3651,
    "Ġbestir": 13106,
    "Ġcheerily": 13303,
    "Ġmeadow": 17150,
    "oice": 1385,
    "Ġtore": 6530,
    "Ġever": 1181,
    "Ġrubbing": 9318,
    "Ġpalsied": 25777,
    "Ġdissimilar": 22525,
    "Ġtrod": 15023,
    "fuller": 22480,
    "ceremony": 20586,
    "igation": 5916,
    "Ġboyhood": 23756,
    "Ġglossy": 15223,
    "carpet": 25200,
    "knew": 9126,
    "Ġcountenances": 11962,
    "Ġchained": 16383,
    "Ġsands": 14943,
    "Ġlevers": 18074,
    "Ġgrappling": 25810,
    "Ġdutch": 6327,
    "amouch": 21846,
    "raged": 9210,
    "Ġ1807": 26081,
    "bald": 16443,
    "ļ": 253,
    "Ġperson": 2370,
    "property": 19996,
    "mpt": 6653,
    "iffs": 9021,
    "Ġcontemplation": 11357,
    "Ġdire": 866,
    "commanding": 24752,
    "rev": 17754,
    "goes": 10426,
    "Ġpiazza": 26448,
    "Ġencouragement": 13037,
    "Ġdol": 9663,
    "uding": 16135,
    "continued": 8676,
    "Ġexcited": 5581,
    "Ġyelled": 9693,
    "beg": 22481,
    "Ġdowncast": 18649,
    "Ġride": 12752,
    "Ġpag": 6009,
    "Ġglitter": 25122,
    "Ġrecovered": 5482,
    "Ġcabs": 23641,
    "tormented": 13640,
    "Ġmeridian": 25712,
    "erick": 13843,
    "Ġtow": 4395,
    "Ġcompanies": 14554,
    "Ġqual": 6274,
    "Ġcounter": 6481,
    "Ġoffended": 7041,
    "Ġ71": 24262,
    "rough": 588,
    "Ġimpetus": 25568,
    "Ġsubsequently": 16153,
    "Ġpreparations": 12308,
    "Ġaccur": 3526,
    "Ġneg": 1332,
    "angible": 22096,
    "Ġbureau": 11588,
    "Ġsearched": 15814,
    "town": 7143,
    "Ġembell": 14415,
    "Ġboun": 21375,
    "Ġpride": 3821,
    "Ġdull": 6384,
    "Ġjealously": 24126,
    "itters": 10781,
    "Ġnightfall": 23127,
    "Ġflights": 24753,
    "plied": 10254,
    "vig": 15441,
    "rip": 9239,
    "Ġcalled": 1971,
    "furnish": 25337,
    "Ġarms": 3965,
    "Ġmutiny": 13255,
    "Ġloathsome": 13523,
    "Ġunde": 11709,
    "Ġvivacious": 19812,
    "Ġcalm": 3446,
    "ĠâĢĶâĢľ_": 17716,
    "mild": 15386,
    "accepted": 20132,
    "alloyed": 22195,
    "Ġirresolute": 24916,
    "Ġexchanging": 18129,
    "hew": 5365,
    "Ġassent": 12727,
    "Ġspectrum": 4474,
    "Ġsluggish": 25888,
    "sweep": 24617,
    "Ġgunw": 6212,
    "ches": 2153,
    "Ġconvulsively": 25715,
    "seas": 14027,
    "Ġproposition": 23246,
    "Ġrooted": 13166,
    "Ġbackstays": 22656,
    "ro": 301,
    "withstand": 23024,
    "Ġmagnificence": 20629,
    "Ġensemble": 1608,
    "Ġbrightest": 13220,
    "histicated": 20897,
    "Ġentreat": 4510,
    "ulent": 21856,
    "Ġarrog": 18342,
    "Ġvacantly": 16812,
    "Ġpages": 15601,
    "Ġdynam": 3240,
    "Ġfiends": 14822,
    "yonder": 21139,
    "appin": 18756,
    "Ġirrad": 19091,
    "Ġfetched": 24570,
    "Ġswallows": 18879,
    "Ġchord": 22239,
    "teen": 6370,
    "Ġsoap": 14128,
    "Ġobjection": 6585,
    "conquerable": 17396,
    "Ġencounter": 6627,
    "Ġchaise": 9076,
    "proper": 7472,
    "lesc": 11038,
    "Ġinhospit": 25451,
    "Ġmeasure": 3594,
    "Ġcat": 2123,
    "Ġexerc": 6835,
    "Ġrucastle": 5177,
    "Ġconsuming": 22787,
    "okers": 18438,
    "obedience": 17407,
    "mong": 15384,
    "separated": 20155,
    "Ġploughing": 26257,
    "icit": 3377,
    "Ġvengeful": 14885,
    "Ġsincere": 11136,
    "Ġbasket": 9571,
    "so": 891,
    "Ġmadly": 16481,
    "divided": 25017,
    "Ġencounters": 19577,
    "Ġmovements": 24360,
    "onsensical": 18573,
    "same": 5362,
    "uning": 1312,
    "cart": 10688,
    "Ġresembled": 18030,
    "moderate": 22878,
    "insulting": 26053,
    "Ġthrew": 3972,
    "Ġconcerns": 11965,
    "sometimes": 5970,
    "Ġgreenland": 5762,
    "Ġconjugal": 25100,
    "Ġspasmodically": 17312,
    "Ġangels": 11178,
    "Ġhut": 15612,
    "Ġbride": 6291,
    "Ġcape": 5147,
    "Ġsimpler": 2047,
    "Ġillness": 8590,
    "Ġlbs": 11613,
    "Ġmajestic": 8640,
    "Ġbridge": 8349,
    "Ġcircumspect": 15079,
    "Ġug": 8141,
[...]
