{
  "metadata": {
    "vocab_size": 26614,
    "algorithm": "BPE",
    "created_at": "2026-08-01 05:25:35",
    "special_tokens": [
      "<PAD>",
      "<SOS>",
      "<EOS>",
      "<UNK>",
      "<MASK>"
    ]
  },
  "vocab": {
    "Ġpianoforte": 15272,
    "Ġsumat": 14136,
    "Ġgems": 9208,
    "Ġtout": 17719,
    "ituted": 13872,
    "Ġemerged": 8684,
    "Ġte": 1167,
    "lorn": 12485,
    "Ġterminated": 23507,
    "erative": 21270,
    "european": 26371,
    "Ġdeigned": 18141,
    "Ġtune": 17725,
    "Ġn": 300,
    "Ġdrinks": 24279,
    "Ġhorse": 4724,
    "istan": 22105,
    "steelkilt": 10046,
    "Ġunheeded": 18261,
    "Ġindefatigable": 17177,
    "rule": 15896,
    "Ġtowering": 16739,
    "manned": 18763,
    "Ġoar": 6236,
    "aceti": 7111,
    "Ġintervene": 25480,
    "Ġpatience": 2613,
    "Ġchivalrous": 20513,
    "Ġh": 290,
    "Ġem": 1925,
    "culiarity": 11142,
    "Ġsuperficial": 23455,
    "Ġpulverize": 23391,
    ":": 30,
    "running": 6797,
    "*": 14,
    "hog": 8379,
    "Ġcollins": 2183,
    "Ġbri": 21376,
    "favourable": 12261,
    "Ġhinting": 19648,
    "Ġrepentance": 15159,
    "Ġtries": 9150,
    "rocket": 13943,
    "itation": 1780,
    "ls": 1291,
    "Ġinquis": 19303,
    "Ġbeyond": 2460,
    "Ġpolic": 13160,
    "Ġdistinctions": 18532,
    "rown": 2194,
    "uary": 11537,
    "Ġgout": 21593,
    "Ġfrederick": 15584,
    "Ġsuperhuman": 23452,
    "Ġcommand": 3322,
    "Ġmincing": 18750,
    "hideous": 25407,
    "Ġwhite": 1536,
    "cap": 8372,
    "Ġ52": 24321,
    "bucket": 17493,
    "Ġhundreds": 4327,
    "tro": 15432,
    "turbaned": 24532,
    "naturalist": 23550,
    "Ġoffspring": 16143,
    "solut": 3364,
    "always": 5708,
    "exper": 8878,
    "pronouncing": 25193,
    "Ġcoins": 11817,
    "Ġir": 1995,
    "ross": 808,
    "iverer": 11714,
    "Ġdragged": 6889,
    "Ġbarque": 23789,
    "Ġimprinted": 22387,
    "Ġallowing": 2177,
    "Ġapologize": 15127,
    "Ġtepid": 26412,
    "Ġmour": 6973,
    "Ġconsecutive": 20701,
    "Ġhipp": 21489,
    "dropping": 14981,
    "helmsman": 24287,
    "Ġstraw": 9428,
    "Ġmoody": 8200,
    "informed": 17736,
    "Ġemphasis": 20535,
    "vard": 21109,
    "Ġcomple": 2841,
    "species": 13254,
    "Ġquarters": 8619,
    "Ġanyways": 22517,
    "Ġassizes": 11109,
    "Ġpeeling": 22689,
    "Ġemac": 16406,
    "either": 6791,
    "Ġenemy": 5605,
    "Ġacquirement": 19254,
    "Ġtougher": 21175,
    "ilies": 18056,
    "inger": 6812,
    "who": 2448,
    "Ġeddy": 13122,
    "ď": 208,
    "Ġlime": 13947,
    "Ġboats": 2639,
    "Ġtigers": 25758,
    "Ġscorn": 7900,
    "Ġwharf": 9559,
    "derstand": 637,
    "elag": 12655,
    "Ġresolved": 3794,
    "Ġseparately": 13301,
    "oul": 4698,
    "Ġpredecessor": 26253,
    "iosity": 2170,
    "rannical": 26401,
    "pur": 7806,
    "nurse": 15207,
    "athom": 12936,
    "Ġteach": 8553,
    "Ġ1828": 25720,
    "Ġvillanous": 24051,
    "direction": 17524,
    "Ġinst": 913,
    "based": 2962,
    "regularization": 3513,
    "Ġcandidate": 16701,
    "Ġbison": 21386,
    "Ġlo": 453,
    "Ġcode": 1718,
    "Ġopenshaw": 7954,
    "Ġquestions": 3970,
    "Ġpeasants": 12330,
    "Ġencomp": 12960,
    "application": 12361,
    "Ġembeddings": 2242,
    "uniform": 18157,
    "iz": 363,
    "Ġfetched": 24567,
    "ham": 1700,
    "nurs": 20998,
    "rot": 21529,
    "sensibility": 25023,
    "Ġintelligence": 563,
    "Ġrelation": 2145,
    "towing": 17689,
    "impression": 15708,
    "seaman": 25457,
    "Ġexpost": 18624,
    "Ġfluffy": 19362,
    "Ġmurmur": 14588,
    "Ġfiled": 15577,
    "rebellum": 26165,
    "Ġfeverish": 11348,
    "arking": 16123,
    "Ġeveryone": 8917,
    "Ġshort": 2226,
    "specul": 23940,
    "uture": 1104,
    "Ġaltered": 7394,
    "Ġmonarchs": 25846,
    "Ġdimmed": 24267,
    "Ġleaking": 21742,
    "Ġdisregarded": 22527,
    "Ġheld": 3583,
    "Ġintens": 7003,
    "love": 9293,
    "possess": 5983,
    "brilliancy": 26077,
    "irous": 8838,
    "Ġimpenitent": 26548,
    "sloop": 26145,
    "ainty": 21784,
    "Ġenglishman": 11229,
    "accents": 19211,
    "jets": 20927,
    "thunder": 10262,
    "Ġtomorrow": 21510,
    "Ġsentence": 6187,
    "ellent": 3759,
    "Ġspool": 24806,
    "Ġblanched": 26282,
    "dried": 20826,
    "circumstances": 8046,
    "Ġbasement": 24702,
    "Ġmeans": 699,
    "market": 16839,
    "varieties": 23183,
    "teringly": 21820,
    "Ġpray": 3896,
    "jug": 17580,
    "acted": 11010,
    "Ġrecompense": 14836,
    "Ġclam": 7417,
    "Ġsplinter": 23746,
    "Ġfarther": 5954,
    "Ġsubterraneous": 20264,
    "Ġcomplaint": 24776,
    "Ġmarchant": 14784,
    "Ġfasc": 12595,
    "strugg": 21659,
    "faint": 17545,
    "Ġequivalent": 4802,
    "Ġlethar": 21743,
    "Ġcheering": 11133,
    "below": 12119,
    "thr": 12757,
    "arthur": 14828,
    "berries": 22719,
    "nowhere": 18418,
    "Ġbenevolent": 7772,
    "Ġcommanded": 6330,
    "complain": 14357,
    "Ġnowadays": 18546,
    "contin": 16541,
    "Ġaccusation": 22378,
    "||": 4869,
    "attering": 7420,
    "ivory": 10268,
    "distrust": 19569,
    "Ġsimplicity": 2923,
    "Ġbuffaloes": 25217,
    "withdrawn": 23025,
    "Ġrome": 12153,
    "Ġshaved": 21999,
    "complaisance": 24811,
    "garious": 17558,
    "_,": 2802,
    "Ġschooner": 16747,
    "ca": 20792,
    "Ġcountless": 16379,
    "Ĺ": 250,
    "Ġreser": 5170,
    "gradu": 18616,
    "Ġadoration": 18290,
    "Ġarrival": 4730,
    "20": 20752,
    "Ġinaccessible": 13933,
    "Ġyea": 8915,
    "size": 15424,
    "iring": 1705,
    "lets": 7836,
    "instr": 12528,
    "Ġarms": 3964,
    "grey": 14910,
    "arrived": 12606,
    "Ġpreacher": 18369,
    "Ġphilosophers": 10551,
    "Ġfancy": 3743,
    "involved": 25626,
    "Ġunlo": 22007,
    "Ġswash": 23053,
    "Ġpumping": 25643,
    "Ġascending": 14852,
    "Ġanon": 9666,
    "Ġpriests": 15040,
    "Ġcrash": 12000,
    "ublic": 11227,
    "seemed": 4303,
    "ints": 3416,
    "Ġplu": 8798,
    "Ġomit": 17815,
    "abound": 15737,
    "sch": 21049,
    "vib": 21114,
    "Ġahead": 6662,
    "hotel": 20048,
    "strils": 10458,
    "Ġointment": 21324,
    "Ġhair": 3314,
    "Ġwillingness": 24910,
    "Ġneville": 7400,
    "eneva": 5118,
    "Ġmentioned": 4328,
    "Ġfresher": 23211,
    "rese": 15507,
    "pervised": 1600,
    "Ġsevent": 18202,
    "Ġmoved": 4839,
    "practised": 20246,
    "Ġfact": 1726,
    "Ġmalacca": 24393,
    "Ġsincere": 11136,
    "tree": 11533,
    "Ġstumble": 26482,
    "aling": 1033,
    "Ġhereditary": 10664,
    "Ġcreature": 2384,
    "Ġrevolut": 3258,
    "Ġhospitals": 24923,
    "Ġware": 12551,
    "Ġzig": 18743,
    "Ġdisenc": 22523,
    "impropriety": 21710,
    "Ġdispleasure": 16049,
    "blending": 24129,
    "Ġdiscrete": 2477,
    "Ġunfrequent": 24110,
    "Ġunmethodically": 22066,
    "Ġhuddled": 20298,
    "Ġsurrounded": 5878,
    "ceiving": 3899,
    "Ġside": 1385,
    "Ġscar": 3211,
    "Ġsailor": 3534,
    "Ġcastaways": 19426,
    "Ġinvoluntary": 18759,
    "Ġconversed": 13185,
    "rolling": 9060,
    "Ġinsure": 13177,
    "ourage": 2453,
    "Ġimplac": 24874,
    "solely": 19815,
    "Ġcompiled": 22569,
    "Ġenergy": 2554,
    "Ġheeds": 24520,
    "Ġalways": 1696,
    "making": 2574,
    "Ġsubur": 12953,
    "Ġdepths": 4325,
    "training": 2519,
    "Ġdropping": 7484,
    "pond": 21012,
    "Ġprodigies": 19792,
    "ren": 549,
    "plentiful": 21953,
    "Ġdecap": 16018,
    "Ġpartner": 6714,
    "esy": 9182,
    "Ġdistressed": 8514,
    "Ġidentify": 12012,
    "ostentatious": 20651,
    "Ġresumed": 11810,
    "Ġornamented": 20360,
    "counterpart": 26359,
    "numbers": 17616,
    "Ġhooded": 12404,
    "Ġpresum": 4837,
    "Ġbackpropagation": 1246,
    "Ġcrusad": 23706,
    "Ġenh": 2749,
    "brimmed": 14587,
    "Ġcontradicted": 20210,
    "acing": 2718,
    "wheeling": 22868,
    "Ġeighteenth": 14752,
    "Ġsanta": 26420,
    "osal": 11757,
    "Ġmisanthrop": 22757,
    "eled": 2359,
    "Ġonce": 1491,
    "Ġplants": 22595,
    "ashing": 4824,
    "forbidding": 25836,
    "Ġshower": 11708,
    "described": 18894,
    "Ġassembly": 10642,
    "Ġdisinclined": 22526,
    "Ġjets": 10287,
    "Ġderick": 9364,
    "Ġstalls": 25647,
    "Ġcouple": 5423,
    "Ġkitchen": 8495,
    "oundered": 14164,
    "Ġvain": 3628,
    "Ġinscrut": 10033,
    "Ġdotted": 16792,
    "Ġexperience": 1325,
    "Ġdot": 4820,
    "wit": 7817,
    "Ġnobly": 22238,
    "isher": 2878,
    "Ġepisode": 26346,
    "Ġgreater": 3038,
    "Ġmaddened": 17244,
    "Ġflog": 23621,
    "clim": 18929,
    "Ġcosy": 13130,
    "Ġostr": 21323,
    "tracks": 19637,
    "jaw": 13742,
    "Ġconvolutions": 21804,
    "ease": 12455,
    "consol": 9761,
    "Ġjuncture": 17129,
    "inian": 21181,
    "Ġthames": 13937,
    "Ġemperors": 15158,
    "Ġtowing": 9193,
    "Ġdelirium": 10405,
    "Ġdev": 893,
    "Ġaffections": 10384,
    "Ġmyster": 5925,
    "Ġresearches": 13127,
    "Ġunmannerly": 26517,
    "Ġdecorated": 22442,
    "oot": 13764,
    "Ġgardiner": 3238,
    "Ġinward": 11606,
    "Ġsaint": 15506,
    "Ġclinging": 10292,
    "Ġconsuming": 22789,
    "Ġimpul": 7209,
    "Ġautumn": 14513,
    "Ġnobleman": 19390,
    "enjoy": 10774,
    "Ġdrawer": 13263,
    "Ġordained": 19443,
    "inguished": 6598,
    "Ġacknowledged": 7535,
    "Ġkne": 4266,
    "sheep": 23084,
    "Ġdefinite": 11069,
    "words": 7982,
    "Ġbrightened": 23826,
    "ouching": 13176,
    "Ġregularly": 7658,
    "generous": 16567,
    "Ġdiscourage": 3118,
    "utral": 12660,
    "dar": 20823,
    "Ġimproved": 7657,
    "ven": 779,
    "//": 11463,
    "arman": 11594,
    "union": 15767,
    "sprinkling": 24912,
    "Ġbas": 6379,
    "lee": 11584,
    "Ġreligions": 20106,
    "oped": 6046,
    "Ġcomputational": 1627,
    "true": 2587,
    "affect": 13211,
    "spike": 16137,
    "rals": 21041,
    "Ġmine": 3179,
    "Ġexcell": 10414,
    "formity": 10278,
    "nostril": 26559,
    "faces": 13719,
    "adr": 6994,
    "learned": 8596,
    "Ġclump": 15972,
    "Ġincredible": 9514,
    "ra": 314,
    "Ġproperly": 7944,
    "Ġpersistence": 2947,
    "Ġcruising": 6913,
    "Ġsant": 21213,
    "eleg": 20848,
    "abriel": 6950,
    "Ġ110": 24435,
    "Ġretire": 10381,
    "Ġinvulnerable": 19146,
    "veh": 12676,
    "reast": 17758,
    "december": 25558,
    "Ġhval": 21485,
    "miles": 10712,
    "1": 21,
    "15": 12428,
    "Ġdesist": 16235,
    "Ġbroadway": 23981,
    "Ġtough": 13814,
    "desire": 14474,
    "Ġunclasp": 26511,
    "Ġsucked": 14137,
    "Ġamendment": 26024,
    "Ġhurry": 4913,
    "Ġrepeat": 7999,
    "malicious": 19901,
    "Ġgeorgiana": 8625,
    "ensical": 18567,
    "Ġcurving": 16225,
    "Ġamaz": 5385,
    "Ġoften": 1954,
    "Ġseizure": 21961,
    "Ġtwin": 12925,
    "Ġsaturation": 2062,
    "Ġselecting": 16684,
    "Ġfireboard": 23529,
    "race": 11630,
    "Ġrefresh": 10345,
    "ov": 15399,
    "Ġit": 339,
    "actorily": 25576,
    "suggest": 20374,
    "Ġalchemists": 26487,
    "alescence": 15922,
    "Ġgazing": 5875,
    "Ĥ": 229,
    "mystical": 25317,
    "Ġbutcher": 18271,
    "stolen": 13981,
    "Ġfocused": 16339,
    "ula": 2827,
    "Ġconclusion": 5985,
    "geese": 22364,
    "iop": 20918,
    "wheel": 22867,
    "Ġwhatever": 3472,
    "Ġtools": 11608,
    "generally": 9434,
    "thorough": 21982,
    "requirements": 24857,
    "Ġstacks": 18074,
    "Ġgreenwich": 19320,
    "Ġmess": 7831,
    "Ġthoughtlessness": 16192,
    "degree": 12798,
    "udding": 11863,
    "philips": 20033,
    "Ġgesture": 11399,
    "Ġinserted": 8356,
    "Ġrobbed": 23029,
    "threshold": 21984,
    "historical": 20464,
    "Ġcour": 1768,
    "âĢľâĢĻ": 10221,
    "Ġwilfully": 16766,
    "Ġseedy": 21959,
    "proved": 11985,
    "bur": 4686,
    "ray": 2439,
    "Ġbushy": 16401,
    "crime": 14781,
    "Ġhel": 3783,
    "aken": 1870,
    "locks": 14455,
    "reported": 24493,
    "Ġdash": 8121,
    "dataset": 23214,
    "Ġpioneer": 17918,
    "osition": 1372,
    "Ġcent": 3254,
    "disposition": 10041,
    "ifix": 21900,
    "Ġstolen": 14006,
    "Ġspermaceti": 8966,
    "groom": 8739,
    "Ġvexatious": 19780,
    "ezing": 10573,
    "ody": 1478,
    "cannibals": 25584,
    "Ġwithheld": 18114,
    "Ġwan": 15526,
    "Ġding": 12596,
    "Ġanticipating": 17058,
    "laz": 15384,
    "Ġexp": 778,
    "Ġiii": 7860,
    "Ġ22": 8278,
    "Ġensuing": 12307,
    "certain": 3675,
    "Ġdistinctly": 7312,
    "soundest": 24797,
    "okingly": 22375,
    "Ġalcoves": 26486,
    "Ġuppermost": 15277,
    "spout": 7923,
    "Ġobjecting": 18895,
    "thirds": 25046,
    "eaten": 20343,
    "Ġdetestable": 15097,
    "work": 1804,
    "Ġobst": 6284,
    "Ġanswering": 7478,
    "aug": 1211,
    "accurately": 25861,
    "Ġgift": 10840,
    "Ġrid": 4353,
    "ap": 546,
    "prepare": 20211,
    "Ġofficer": 6753,
    "Ġunsafe": 22036,
    "=": 33,
    "Ġcomposedly": 25183,
    "Ġlabyrin": 13102,
    "Ġtheory": 5798,
    "Ġproxim": 3199,
    "belief": 13278,
    "Ġwires": 21294,
    "Ġeaves": 15673,
    "Ġconcealment": 16914,
    "Ġneither": 3685,
    "supp": 4164,
    "Ġmac": 15536,
    "insult": 16276,
    "Ġdisc": 942,
    "Ġdisput": 14255,
    "Ġ66": 24369,
    "Ġgregarious": 18965,
    "Ġespecial": 26410,
    "Ġbro": 1430,
    "Ġlimping": 23543,
    "Ġprotested": 9933,
    "Ġprediction": 2305,
    "Ġhuggins": 24828,
    "iastic": 12477,
    "thousands": 16872,
    "Ġfilters": 3924,
    "agatha": 21905,
    "idation": 5022,
    "Ġintervened": 25481,
    "conducted": 25572,
    "Ġgrace": 5374,
    "Ġmuttered": 7086,
    "ios": 2108,
    "Ġesquimaux": 25150,
    "ag": 377,
    "reputable": 15516,
    "Ġmerit": 9426,
    "Ġinnocent": 4921,
    "Ġillness": 8589,
    "Ġemb": 1264,
    "/*": 10070,
    "historian": 25735,
    "Ġpermitting": 22397,
    "poling": 12217,
    "quaker": 15760,
    "Ġstooping": 13059,
    "Ġautonom": 10416,
    "Ġlifeless": 8948,
    "Ġassociate": 13449,
    "adel": 15726,
    "ical": 753,
    "Ġslugg": 15267,
    "hy": 4740,
    "izard": 10879,
    "Ġdod": 6672,
    "gi": 17551,
    "Ġtestimony": 14469,
    "Ġbridegroom": 10604,
    "Ġspotted": 12136,
    "Ġreads": 23110,
    "flu": 9117,
    "_.,": 14561,
    "scattered": 22991,
    "umns": 14147,
    "sings": 4251,
    "horror": 13158,
    "Ġcorp": 5575,
    "ropy": 1102,
    "Ġcy": 13873,
    "Ġpronounced": 8350,
    "warmly": 25026,
    "Ġushered": 18356,
    "Ġshrinking": 14803,
    "Ġencompassed": 15252,
    "footed": 19688,
    "Ġcountry": 2534,
    "arled": 21440,
    "sun": 7139,
    "Ġmusic": 5268,
    "Ġmetaphysical": 26069,
    "Ġintersect": 22574,
    "Ġbones": 4582,
    "sm": 3434,
    "Ġeconomically": 25288,
    "corrupt": 14893,
    "Ġdoubtful": 19141,
    "Ġtrinity": 22342,
    "Ġmove": 5107,
    "Ġburn": 3682,
    "Ġdictating": 20151,
    "Ġriver": 5411,
    "Ġcleaned": 23179,
    "delights": 19700,
    "Ġpurple": 10433,
    "Ġshrieked": 9547,
    "dest": 4104,
    "Ġcont": 619,
    "÷": 184,
    "Ġassign": 11110,
    "ĠâĢľ": 516,
    "Ġconfirmation": 17210,
    "Ġhunks": 18935,
    "impulse": 20644,
    "Ġsalvation": 14755,
    "nlp": 8750,
    "Ġassu": 21894,
    "poison": 14391,
    "p": 84,
    "ductive": 23933,
    "fast": 3071,
    "discern": 14849,
    "iasm": 8060,
    "ollen": 11298,
    "Ġburden": 8607,
    "cules": 12389,
    "anesc": 21358,
    "Ġpaint": 7707,
    "avery": 13682,
    "omet": 3076,
    "Ġmagical": 23096,
    "Ġhumorous": 10360,
    "ep": 443,
    "Ġtrade": 2548,
    "jo": 3749,
    "Ġunfit": 14785,
    "exposure": 19256,
    "repressed": 21242,
    "Ġcrept": 11022,
    "ouched": 4636,
    "Ġmem": 2069,
    "comm": 7441,
    ",--": 2478,
    "journey": 8744,
    "Ġfastened": 7065,
    "Ġsaddest": 16662,
    "sk": 5521,
    "Ġashore": 5351,
    "hung": 8380,
    "ceived": 1963,
    "Ġimprudent": 12845,
    "screwed": 17187,
    "Ġdives": 17890,
    "Ġadvent": 4355,
    "Ġimmovable": 15890,
    "farmer": 25899,
    "ocean": 12399,
    "Ġrevolutionized": 3367,
    "Ġsolomon": 11052,
    "Ġcapable": 5054,
    "Ġreaction": 15692,
    "Ġvariants": 1790,
    "Ġthroes": 24574,
    "Ġming": 9645,
    "prodigious": 17466,
    "Ġcheek": 8576,
    "Ġmessage": 13522,
    "boast": 23251,
    "Ġcasked": 24497,
    "Ġreside": 22536,
    "isol": 17846,
    "awake": 14451,
    "ital": 4817,
    "comp": 3812,
    "Ġlearned": 2025,
    "ĠĠĠĠĠĠĠĠĠĠĠĠĠĠĠĠĠĠĠĠĠĠĠĠĠĠĠĠĠĠĠĠĠĠĠĠ": 23665,
    "Ġtry": 3135,
    "Ġclasses": 4054,
    "Ġlany": 21551,
    "itical": 5801,
    "Ġirene": 8443,
    "Ġomitted": 12561,
    "twain": 23700,
    "Ġattacking": 24465,
    "Ġbelieving": 8224,
    "Ġcommunication": 1871,
    "Ġchase": 3942,
    "Ġbuilding": 8062,
    "safety": 20348,
    "sprit": 11382,
    "Ġarrang": 2470,
    "Ġfath": 7365,
    "Ġcynical": 25770,
    "Ġelated": 18634,
    "Ġoffence": 12942,
    "Ġfoundations": 11073,
    "Ġexordium": 26492,
    "ope": 4126,
    "angles": 18295,
    "cific": 10085,
    "Ġnodding": 23333,
    "Ġcompress": 21846,
    "Ġpriest": 7527,
    "jumping": 20244,
    "expect": 4769,
    "sorrows": 17319,
    "Ġstrolled": 16770,
    "sudden": 5315,
    "Ġveter": 15809,
    "Ġeverywhere": 9795,
    "Ġstra": 2992,
    "Ġprofits": 16488,
    "Ġcrystal": 17214,
    "Ġhosmer": 6774,
    "Ġexcel": 3565,
    "Ġirr": 10421,
    "sad": 11520,
    "steady": 14707,
    "esteemed": 26009,
    "absence": 12705,
    "vocabulary": 25085,
    "remember": 7263,
    "ditch": 17528,
    "undertaking": 23786,
    "Ġthen": 664,
    "Ġfunny": 7638,
    "Ġphrenologist": 25607,
    "Ġjupiter": 17455,
    "ets": 1160,
    "Ġfearfully": 23509,
    "Ġprophecy": 25706,
    "Ġgallop": 19554,
    "crawling": 16958,
    "imly": 12684,
    "Ġsmell": 7217,
    "try": 7812,
    "Ġcalf": 16264,
    "cr": 4075,
    "Ġvowed": 14083,
    "Ġsweetness": 9445,
    "izz": 7613,
    "Ġinferior": 8351,
    "allowance": 16824,
    "ppa": 10239,
    "Ġthose": 1174,
    "angular": 11721,
    "Ġcompanies": 14557,
    "Ġrascal": 11700,
    "aker": 3662,
    "Ġpermanently": 25473,
    "lacings": 26134,
    "Ġsold": 6002,
    "Ġsomehow": 4841,
    "cursed": 23841,
    "hap": 17559,
    "Ġfurnish": 9018,
    "Ġdew": 14044,
    "superiority": 20184,
    "Ġwhirlp": 16963,
    "Ġothers": 2584,
    "ieces": 4772,
    "Ġcashier": 20197,
    "iff": 3902,
    "Ġnumerous": 6920,
    "Ġplutarch": 22600,
    "hatherley": 17568,
    ":--": 5784,
    "ģ": 228,
    "Ġmanipulation": 10658,
    "nder": 20986,
    "pitchpoling": 25725,
    "cd": 15322,
    "ourselves": 9010,
    "Ġshyness": 20305,
    "Ġfollow": 1395,
    "Ġwhirlwinds": 20463,
    "ining": 3220,
    "Ġoldest": 12970,
    "Ġhon": 2539,
    "woof": 21138,
    "plunging": 25987,
    "Ġthunder": 4823,
    "Ġsmothered": 20719,
    "orph": 21397,
    "Ġrh": 9243,
    "Ġanchored": 17439,
    "seven": 8463,
    "Ġflattening": 26048,
    "Ġharpooned": 13259,
    "Ġaper": 17743,
    "news": 23129,
    "ertain": 1206,
    "Ġeels": 21617,
    "Ġpurses": 23475,
    "Ġ31": 12128,
    "Ġdest": 2238,
    "Ġbr": 1071,
    "intolerable": 22935,
    "Ġimpious": 15984,
    "Ġdevelopment": 7061,
    "Ġdrag": 6184,
    "Ġbit": 2966,
    "Ġcarpent": 4463,
    "Ġconveys": 16855,
    "Ġstrongest": 11135,
    "Ġfrancisco": 26064,
    "Ġstraightway": 9016,
    "Ġrestrictions": 20633,
    "disgu": 19153,
    "unbounded": 21882,
    "Ġprettier": 23764,
    "Ġbrid": 6290,
    "Ġx": 2074,
    "ubl": 3592,
    "orters": 21399,
    "Ġwickedness": 9525,
    "Ġgloried": 22983,
    "volume": 18591,
    "mou": 10708,
    "Ġresist": 7915,
    "fate": 17539,
    "bar": 7542,
    "Ġeconomical": 25287,
    "Ġbarbar": 6935,
    "unlike": 18156,
    "Ġverge": 23885,
    "Ġinestim": 15621,
    "Ġam": 660,
    "Ġvagueness": 25737,
    "onic": 7827,
    "Ġstrugg": 3216,
    "Ġdisgraceful": 15019,
    "Ġannounced": 9034,
    "Ġmeas": 1095,
    "Ġjet": 5307,
    "Ġforts": 21769,
    "uously": 7354,
    "sou": 12503,
    "Ġbulldog": 23857,
    "Ġlances": 6984,
    "Ġdeceit": 13480,
    "Ġ114": 24438,
    "Ġsuits": 22085,
    "ched": 1545,
    "ender": 9160,
    "Ġpeaceable": 14721,
    "Ġmira": 8406,
    "whiskers": 12309,
    "Ġaccount": 2321,
    "nay": 7135,
    "Ġtooth": 9192,
    "rad": 2258,
    "Ġblank": 5950,
    "ashed": 3781,
    "wail": 21124,
    "Ġsec": 2076,
    "Ġgrazed": 15831,
    "uracy": 1098,
    "Ġshell": 11734,
    "Ġingen": 9049,
    "attachment": 13049,
    "Ġlets": 18076,
    "Ġcoaxing": 18600,
    "Ġwane": 21287,
    "direful": 25896,
    "Ġtexel": 25923,
    "_.âĢĻâĢĿ": 17479,
    "Ġyale": 21776,
    "Ġlesson": 7277,
    "inct": 3292,
    "Ġpopulous": 16826,
    "desirable": 23207,
    "Ġnewcom": 16220,
    "Ġearn": 3545,
    "Ġsavage": 4009,
    "Ġdirection": 1791,
    "Ġlanc": 19763,
    "akin": 11765,
    "fixed": 7549,
    "Ġmeditate": 16682,
    "Ġrisk": 8038,
    "worked": 19031,
    "Ġdomin": 10462,
    "lording": 24047,
    "Ġrattler": 24995,
    "complexion": 14360,
    "Ġdense": 8122,
    "Ġenemies": 9038,
    "congratulations": 20278,
    "Ġletter": 2199,
    "Ġfluttered": 16246,
    "Ġcl": 557,
    "Ġundecided": 22043,
    "Ġdisplays": 19856,
    "america": 17097,
    "Ġneedless": 19229,
    "Ġrec": 898,
    "Ġfatal": 5871,
    "aid": 1922,
    "Ġsally": 15501,
    "Ġlass": 15645,
    "Ġhazard": 20430,
    "Ġpremium": 23902,
    "Ġseverely": 14931,
    "Ġinquiry": 6483,
    "kn": 5791,
    "ampled": 18883,
    "Ġpettiness": 24229,
    "flight": 15351,
    "elves": 2161,
    "yden": 21142,
    "_âĢĶâĢĻ": 13681,
    "Ġcases": 3959,
    "punishment": 15144,
    "Ġdesisted": 22975,
    "augh": 1782,
    "Ġmassacre": 20546,
    "Ġextras": 22715,
    "Ġcompute": 2906,
    "oting": 2745,
    "dawson": 26128,
    "execut": 13654,
    "Ġslips": 23161,
    "Ġconsum": 9798,
    "Ġcheese": 9376,
    "Ġengaging": 9335,
    "Ġabstraction": 26539,
    "leviathan": 7784,
    "www": 17251,
    "rador": 19158,
    "Ġinterlude": 16070,
    "Ġordinary": 6096,
    "Ġgrave": 5100,
    "Ġcath": 17826,
    "ientific": 6547,
    "Ġcav": 13879,
    "methodically": 20663,
    "Ġdeep": 820,
    "invested": 17117,
    "Ġliv": 6679,
    "Ġlashings": 25097,
    "Ġtheirs": 7024,
    "Ġoutright": 18413,
    "twist": 23701,
    "Ġdiadem": 24741,
    "despicable": 24636,
    "circled": 24187,
    "Ġimbued": 17454,
    "ezes": 9990,
    "Ġicelandic": 25886,
    "Ġvengeful": 14888,
    "inction": 6660,
    "Ġunbroken": 18250,
    "Ġleap": 5824,
    "Ġcobb": 14271,
    "Ġcorresponds": 19820,
    "ware": 3932,
    "Ġinstructive": 19284,
    "c": 71,
    "Ġgladly": 14680,
    "Ġarr": 1798,
    "Ġintroduced": 7690,
    "Ġbetokened": 18795,
    "comput": 1980,
    "Ġturned": 2137,
    "Ġseveral": 2673,
    "Ġdeduction": 14899,
    "mortar": 25408,
    "springing": 24889,
    "Ġseaport": 20598,
    "Ġcurric": 22948,
    "Ġvalidate": 3085,
    "unimportant": 18159,
    "enances": 10153,
    "restoration": 23234,
    "Ġmallet": 17810,
    "bare": 12439,
    "asper": 7854,
    "Ġwoes": 23983,
    "ashion": 3856,
    "itary": 4751,
    "Ġlovely": 4709,
    "ibilities": 13009,
    "Ġappare": 12813,
    "Ġdramat": 23218,
    "rene": 5379,
    "urmount": 13995,
    "Ġunembarrassed": 22064,
    "Ġinto": 647,
    "Ġbriskly": 25311,
    "Ġhowling": 8509,
    "Ġtucked": 12390,
    "cut": 3125,
    "Ġbaffled": 12401,
    "Ġinit": 817,
    "Ġfar": 1448,
    "Ġhumorously": 18777,
    "Ġextinction": 14327,
    "Ġbristol": 14379,
    "Ġselect": 3996,
    "librarian": 26568,
    "Ġsuffering": 8946,
    "Ġapparition": 8066,
    "Ġtable": 2500,
    "Ġdamning": 19139,
    "Ġnotorious": 18223,
    "Ġperceive": 6699,
    "obli": 23092,
    "Ġoctavo": 15162,
    "opard": 9290,
    "Ġloose": 4648,
    "itating": 9650,
    "Ġunra": 18237,
    "adru": 15728,
    "Ġaffectation": 14440,
    "Ġincreasingly": 9369,
    "Ġimitated": 18330,
    "Ġsponge": 26004,
    "Ġcig": 6519,
    "division": 20047,
    "Ġdanger": 3518,
    "Ġpricking": 23222,
    "Ġmatters": 4973,
    "itably": 10782,
    "stout": 21642,
    "backed": 9865,
    "Ġcling": 11771,
    "Ġprofessed": 14722,
    "Ġfrosts": 19801,
    "Ġrabbit": 4288,
    "Ġindign": 6173,
    "introduction": 15122,
    "Ġbounty": 26437,
    "rise": 6226,
    "Ġbouton": 17868,
    "Ġrespected": 11951,
    "Ġhyster": 16873,
    "Ġneighbors": 25804,
    "Ġbattery": 21392,
    "Ġskeleton": 5514,
    "appetite": 22844,
    "Ġstubb": 1785,
    "Ġendure": 5955,
    "Ġmic": 17797,
    "Ġprofile": 16487,
    "Ġscratch": 25564,
    "Ġsteals": 23082,
    "Ġemploy": 3613,
    "Ġrasc": 21974,
    "gryphon": 15357,
    "resting": 23233,
    "oughed": 22078,
    "strang": 11183,
    "Ġunappalled": 22060,
    "Ġsteepest": 3089,
    "Ġinhospit": 25452,
    "anoke": 21359,
    "Ġspecimen": 13021,
    "Ġeffected": 14353,
    "stooped": 23819,
    "narrated": 25621,
    "ilty": 6393,
    "utions": 1891,
    "Ġexposes": 22621,
    "larking": 17594,
    "Ġlevel": 5020,
    "Ġcrust": 21349,
    "Ġcrawling": 17045,
    "Ġretreated": 13432,
    "animate": 12574,
    "Ġadjusted": 23457,
    "mel": 9127,
    "assured": 10953,
    "Ġaut": 1865,
    "Ġimbalance": 22171,
    "Ġbeauties": 10445,
    "corn": 13698,
    "Ġthanking": 18602,
    "ang": 446,
    "distressed": 24199,
    "Ġmany": 1105,
    "Ġaver": 1285,
    "Ġslender": 11938,
    "Ġtwain": 16117,
    "observation": 17269,
    "Ġstalk": 12694,
    "bs": 3748,
    "Ġgrasp": 4663,
    "Ġmortal": 4681,
    "Ġmutineer": 19416,
    "lydon": 13988,
    "sway": 15423,
    "Ġconcl": 5095,
    "plish": 18200,
    "Ġhast": 3151,
    "Ġconfess": 3764,
    "ĠĠ": 352,
    "caves": 20815,
    "utting": 17984,
    "mell": 20963,
    "Ġrefill": 18698,
    "Ġcruis": 14623,
    "Ġsuperstitious": 13519,
    "fem": 17537,
    "Ġumbrella": 15264,
    "Ġignited": 25069,
    "gorith": 552,
    "apothecary": 26545,
    "afer": 17481,
    "Ġstun": 11649,
    "Ġpacing": 8425,
    "apothe": 22331,
    "uger": 21102,
    "Ġimmortal": 8017,
    "Ġ82": 24458,
    "Ġpurse": 12009,
    "Ġdespairing": 14771,
    "none": 6962,
    "Ġparacels": 13666,
    "Ġfootmen": 23796,
    "Ġ118": 19697,
    "Ġaggregate": 25677,
    "Ġrumpled": 24600,
    "az": 2184,
    "Ġmultitude": 9324,
    "Ġbounding": 19398,
    "Ġaccurate": 13281,
    "retched": 3069,
    "Ġdim": 4757,
    "valu": 1742,
    "hunters": 16833,
    "Ġpreposterous": 13668,
    "Ġaggreg": 12881,
    "ri": 389,
    "Ġjig": 15949,
    "Ġbenefited": 19396,
    "Ġcoffee": 6760,
    "Ġgalvan": 21614,
    "ify": 1526,
    "asiness": 8128,
    "Ġislanders": 19500,
    "Ġsabbee": 17255,
    "pemberley": 9620,
    "Ġcooped": 22580,
    "Ġcalmly": 7733,
    "appro": 7044,
    "Ġsubdivisions": 26037,
    "Ġsails": 5256,
    "itations": 17817,
    "stands": 22424,
    "Ġcolleg": 22854,
    "consciousness": 13364,
    "continually": 11302,
    "else": 6533,
    "Ġgrud": 17995,
    "Ġedition": 16434,
    "Ġfortitude": 9884,
    "Ġpoul": 15610,
    "abs": 11666,
    "Ġfrivolous": 26176,
    "acceler": 23597,
    "pr": 3175,
    "Ġnecessarily": 13247,
    "owder": 8448,
    "desolate": 25703,
    "old": 801,
    "Ġallows": 3233,
    "Ġsiberia": 26161,
    "tumbled": 21089,
    "Ġoozy": 21325,
    "Ġf": 283,
    "how": 1643,
    "yra": 8102,
    "sombre": 23852,
    "Ġcanterbury": 22165,
    "Ġgretna": 26468,
    "Ġacid": 22679,
    "tiger": 13796,
    "ever": 1075,
    "Ġmurderers": 16811,
    "adays": 14012,
    "Ġaccelerate": 23226,
    "Ġlate": 3377,
    "Ġclin": 14204,
    "Ġcompan": 2176,
    "Ġchin": 4891,
    "classification": 4386,
    "Ġsaxon": 25468,
    "only": 3308,
    "Ġfade": 21405,
    "Ġrecollection": 6620,
    "Ġveteran": 17449,
    "Ġdeduced": 12205,
    "Ġsoften": 23120,
    "Ġachieve": 3672,
    "Ġbrush": 17864,
    "Ġgathering": 14977,
    "Ġerection": 23998,
    "Ġtorrid": 25032,
    "ooping": 21006,
    "âĢĿ--": 21810,
    "Ġphilosoph": 19650,
    "Ġpots": 9427,
    "Ġaggregated": 25678,
    "enjoyment": 17257,
    "Ġstroke": 6936,
    "Ġstreaming": 19672,
    "places": 7876,
    "¸": 121,
    "Ġbarren": 11206,
    "Ġporter": 15608,
    "Ġfished": 21408,
    "allowing": 24358,
    "ision": 1854,
    "Ġconsternation": 9858,
    "Ġabuse": 18392,
    "azore": 23461,
    "Ġfollies": 16253,
    "Ġwatery": 6296,
    "concerted": 16671,
    "pot": 10117,
    "Ġlingering": 11379,
    "Ġniag": 21527,
    "vol": 728,
    "Ġrestrain": 8963,
    "ked": 5616,
    "phr": 18710,
    "Ġclearly": 6897,
    "Ġvalid": 1721,
    "Ġinsensible": 12323,
    "recurrent": 4994,
    "stirred": 20423,
    "Ġblinded": 13267,
    "Ġjurymen": 16847,
    "Ġtener": 21162,
    "ivable": 10910,
    "itage": 17816,
    "determ": 7105,
    "Ġunsupplied": 22038,
    "Ô": 149,
    "Ġalpha": 13587,
    "near": 5842,
    "oters": 21796,
    "missing": 13217,
    "Ġafterwards": 3529,
    ".âĢĻâĢĿ": 6739,
    "tawn": 21079,
    "Ġgenerating": 12846,
    "unable": 14058,
    "orily": 15570,
    "Ġrosings": 4606,
    "Ġinexpress": 12632,
    "deduction": 23556,
    "Ġirksome": 13110,
    "haut": 20901,
    "Ġundec": 22014,
    "Ġlangu": 576,
    "Ġloses": 15871,
    "Ġconducted": 10502,
    "Ġwash": 9702,
    "Ġadd": 630,
    "Ġunchanged": 22026,
    "vice": 15448,
    "Ġseasonable": 24406,
    "neck": 14234,
    "cries": 17510,
    "Ġorb": 22088,
    "Ġpreface": 18367,
    "Ġhanding": 16128,
    "rowsers": 8694,
    "paws": 21028,
    "Ġdepended": 9776,
    "initions": 21186,
    "Åĵuvre": 25887,
    "buff": 15317,
    "Ġaccording": 5508,
    "affold": 16561,
    "hard": 4689,
    "Ġdock": 15928,
    "Ġmethod": 1501,
    "Ġundisturbed": 19518,
    "sle": 9138,
    "Ġfinding": 3265,
    "sharpening": 22463,
    "Ġfavour": 3641,
    "ary": 987,
    "Ġabhorrence": 9052,
    "Ġret": 1379,
    "Ġhackney": 20431,
    "hounds": 20906,
    "[_": 5131,
    "copyright": 5277,
    "Ġ134": 24784,
    "ror": 7352,
    "Ġfitted": 6243,
    "endurable": 22225,
    "what": 642,
    "Ġvanish": 8927,
    "rents": 5308,
    "Ġadieus": 25110,
    "Ġgenerative": 5644,
    "success": 6710,
    "aboard": 21791,
    "principle": 10650,
    "persecutor": 26529,
    "ricted": 15419,
    "Ġdraughts": 20220,
    "Ġplentiful": 12908,
    "Ġtaffrail": 15475,
    "Ġnooks": 26011,
    "Ġprefers": 20512,
    "Ġhonest": 7288,
    "Ġsorry": 4210,
    "Ġcooper": 16075,
    "ould": 428,
    "Ġpond": 13915,
    "roman": 22001,
    "unquiet": 21878,
    "Ġimpart": 11778,
    "Ġcome": 1242,
    "difference": 13707,
    "fellow": 6792,
    "Ġadmitted": 8986,
    "iality": 8843,
    "Ġexpectantly": 23522,
    "Ġhousemaid": 14463,
    "youn": 5690,
    "Ġblasp": 14400,
    "Ġbows": 4083,
    "aph": 10954,
    "Ġdent": 13905,
    "Ġexclaimed": 4682,
    "ark": 849,
    "Ġcorrected": 10448,
    "Ġgunwale": 7326,
    "Ġprisoner": 8672,
    "Ġdiana": 21434,
    "animals": 24738,
    "Ġyounger": 5252,
    "Ġheaps": 11641,
    "cim": 8719,
    "istry": 22106,
    "Ġoccupant": 16651,
    "yramid": 8367,
    "Ġbursting": 8655,
    "that": 851,
    "stir": 12670,
    "Ġfright": 3793,
    "Ġpersonality": 16476,
    "Ġleader": 14700,
    "Ġapparelled": 20435,
    "Ġtortures": 14921,
    "Ġapply": 1777,
    "squall": 13521,
    "commendation": 26348,
    "Ġconnivance": 25225,
    "Ġivory": 4475,
    "'m": 9582,
    "Ġrubbing": 9320,
    "Ġinherit": 25352,
    "Ġcondemned": 7778,
    "Ġorphans": 20203,
    "Ġspas": 10923,
    "Ġsumatra": 15285,
    "Ġbandages": 24427,
    "Ġun": 422,
    "Ġfatigue": 8697,
    "promised": 12249,
    "scissors": 20726,
    "Ġfaithfully": 14885,
    "Ġdeduce": 8336,
    "Ġbeckoned": 25793,
    "Ġstarvation": 19790,
    "Ġeffective": 1249,
    "Ġreflections": 5945,
    "Ġtent": 15466,
    "Ġnortheast": 23202,
    "lipped": 16215,
    "Ġpredecess": 18525,
    "sil": 5282,
    "Ġpurpose": 2708,
    "Ġintolerable": 8481,
    "expectations": 24276,
    "Ġgreatly": 5849,
    "Ġskirt": 18729,
    "ton": 1725,
    "Ġost": 9649,
    "fal": 17536,
    "Ġignor": 4010,
    "pend": 6367,
    "Ġchemistry": 11460,
    "ception": 6562,
    "vedale": 22705,
    "Ġobscured": 15010,
    "reated": 10302,
    "verbally": 25360,
    "Ġoutfits": 22318,
    "grown": 10099,
    "Ġapothe": 12373,
    "Ġfrigate": 13080,
    "Ġuncouth": 14549,
    "Ġunde": 11710,
    "Ġqueens": 16706,
    "Ġfee": 7200,
    "sery": 17661,
    "Ġdepending": 14297,
    "Ġcaresses": 26059,
    "Ġmoral": 6578,
    "Ġdiscreet": 16481,
    "Ġimage": 3402,
    "Ġfaced": 10808,
    "Ġbrixton": 13662,
    "Ġinj": 4760,
    "Ġmalays": 19676,
    "agon": 7870,
    "water": 4868,
    "Ġafford": 4364,
    "offer": 19058,
    "ractions": 11632,
    "inite": 6001,
    "Ġsociable": 19401,
    "mospheric": 17091,
    "Ġliber": 5168,
    "Ġhates": 21483,
    "rendered": 22336,
    "doms": 20834,
    "ulged": 12727,
    "leap": 21365,
    "Ġbiases": 2397,
    "backs": 9390,
    "shark": 14239,
    "Ġdies": 11592,
    "deli": 15343,
    "Ġperf": 12847,
    "Ġpant": 10817,
    "Ġhatch": 7847,
    "Ġemblematical": 25788,
    "Ġdreams": 7497,
    "Ġandromeda": 21505,
    "inement": 11557,
    "Ġwit": 3837,
    "Ġbroken": 3447,
    "Ġgrizz": 10351,
    "Ġshortness": 23480,
    "zz": 4292,
    "tribute": 21087,
    "Ġbub": 8117,
    "Ġgroves": 16740,
    "ze": 1378,
    "Ġtelescope": 17347,
    "eff": 2536,
    "Ġthack": 21514,
    "user": 5105,
    "Ġsegment": 12754,
    "Ġlect": 9222,
    "Ġtun": 5998,
    "Ġgrat": 4056,
    "Ġaffair": 4461,
    "Ġstandpoint": 23276,
    "Ġcoming": 2619,
    "Ġjames": 6418,
    "Ġclimates": 25051,
    "pray": 5429,
    "icions": 21560,
    "Ġhonourable": 10456,
    "Ġcourting": 23287,
    "Ġtu": 6968,
    "Ġslavish": 23168,
    "Ġunintermitted": 26219,
    "Ġpeels": 22688,
    "Ġfebruary": 15912,
    "Ġintimacy": 8700,
    "gravel": 22617,
    "Ġacquisition": 18899,
    "sample": 12504,
    "empl": 5724,
    "prep": 9757,
    "rann": 21043,
    "Ġgoethe": 22421,
    "condemned": 26060,
    "Ġplacing": 8900,
    "recollect": 17223,
    "Ġsneering": 24697,
    "Ġbeaut": 2393,
    "Ġprem": 3425,
    "Ġwilderness": 14838,
    "Ġfatt": 15576,
    "Ġcompanions": 5865,
    "Ġencounters": 19579,
    "Ġabrupt": 9735,
    "Ġthoughtful": 16190,
    "Ġwire": 13851,
    "Ġpigs": 19746,
    "Ġcontrari": 23347,
    "Ġcreated": 2707,
    "Ġnailing": 21524,
    "surprised": 9530,
    "ę": 218,
    "Ġgrip": 11626,
    "pad": 13767,
    "least": 8784,
    "Ġgoest": 22420,
    "âĢĶ(": 15936,
    "Ġcrav": 19172,
    "alled": 5910,
    "cupboards": 25401,
    "Ġplains": 14622,
    "ara": 12603,
    "Ġfrigates": 25707,
    "engagement": 14457,
    "ulty": 22566,
    "norm": 20984,
    "Ġmerchant": 6466,
    "urp": 1470,
    "desper": 13067,
    "gal": 15354,
    "Ġrussia": 26267,
    "Ġthirt": 13938,
    "odd": 21811,
    "onness": 21253,
    "lower": 8879,
    "Ġhem": 8445,
    "Ġquart": 11785,
    "devil": 7894,
    "Ġpaper": 4282,
    "iliation": 10860,
    "Ġexasperated": 11412,
    "Ġfulf": 6772,
    "â": 163,
    "Ġappeals": 16314,
    "cat": 15323,
    "tails": 21085,
    "fishers": 24928,
    "Ġell": 17715,
    "grim": 19106,
    "madness": 14880,
    "Ġresiding": 16059,
    "Ġact": 690,
    "Ġgayer": 24501,
    "meaning": 2908,
    "hamed": 6305,
    "Ġsacrilege": 26228,
    "village": 25422,
    "Ġamply": 22479,
    "Ġaims": 15495,
    "Ġlambton": 10657,
    "Ġsubstit": 19539,
    "Ġhomeless": 23385,
    "Ġet": 3578,
    "Ġfreemason": 23212,
    "arrant": 10474,
    "Ġfruits": 17118,
    "Ġspread": 5161,
    "Ġflowing": 14411,
    "outer": 9668,
    "beries": 22717,
    "Ġlouisa": 13545,
    "Ġdiscerned": 25003,
    "Ġpresuming": 16793,
    "Ġcraw": 7283,
    "Ġdistinguished": 8272,
    "shows": 22455,
    "g": 75,
    "Ġfarm": 7840,
    "Ġtendons": 19807,
    "Ġinstability": 3809,
    "Ġdismay": 11807,
    "Ġadopt": 10631,
    "Ġenraged": 10244,
    "Ġenig": 15797,
    "ipper": 13739,
    "Ġinexpressible": 17332,
    "Ġpertaining": 18451,
    "une": 2788,
    "zwilliam": 5074,
    "floating": 12225,
    "luck": 5733,
    "Ġturbulence": 26597,
    "Ġeucl": 24709,
    "Ġrocking": 10969,
    "Ġinjury": 10540,
    "gay": 11488,
    "Ġwhether": 2002,
    "alliance": 22197,
    "Ġsnows": 14724,
    "umbers": 10918,
    "Ġoutlast": 22310,
    "choice": 21688,
    "Ġeventually": 8616,
    "erted": 7362,
    "eteenth": 20156,
    "Ġcandelab": 23846,
    "Ġprincip": 5600,
    "Ġawakened": 10453,
    "Ġgive": 1710,
    "lived": 12484,
    "Ġstabilizing": 3656,
    "Ġloaf": 15870,
    "luc": 9751,
    "Ġqueequeg": 2014,
    "Ġirresistible": 13111,
    "urously": 18050,
    "Ġbet": 1135,
    "Ġspout": 3282,
    "Ġmap": 2391,
    "Ġissued": 10599,
    "Ġimparted": 15986,
    "Ġconscious": 7743,
    "portent": 25412,
    "Ġmuskets": 17056,
    "against": 5870,
    "Ġmainly": 22646,
    "interrupt": 8615,
    "relatively": 24011,
    "Ġunfelt": 24111,
    "Ġchoosing": 19589,
    "dun": 17516,
    "Ġmelbourne": 24289,
    "Ġmoderately": 22219,
    "Ġreluct": 14371,
    "astonished": 15032,
    "violence": 16477,
    "Ġcordial": 16835,
    "flitted": 23966,
    "aby": 18106,
    "probability": 17022,
    "ential": 826,
    "Ġdeposition": 18612,
    "mistakable": 20652,
    "Ġsaturn": 22898,
    ")": 13,
    "asing": 5911,
    "Ġgar": 10838,
    "Ġfierc": 18716,
    "Ġexhaust": 6398,
    "Ġbashaw": 25633,
    "Ġluckily": 16798,
    "hastily": 19701,
    "Ġelevate": 24502,
    "Ġfishy": 16522,
    "Ġworsh": 12997,
    ".)": 6783,
    "agne": 21902,
    "Ġwreak": 16817,
    "Ġscorch": 20065,
    "rin": 10121,
    "Ġspec": 1265,
    "din": 8373,
    "Ġmouthfuls": 20645,
    "Ġhandsomely": 25497,
    "Ġhideous": 5982,
    "Ġenter": 4029,
    "Ġbeamed": 23721,
    "Ġbelongs": 8014,
    "Ġupdate": 2465,
    "Ġlaborious": 13101,
    "Ġgaiters": 20459,
    "Ġgrammars": 11402,
    "Ġearth": 2851,
    "cloudless": 20331,
    "Ġpip": 1634,
    "encouragement": 17422,
    "deser": 10402,
    "coming": 3560,
    "Ġfacet": 15582,
    "patient": 25342,
    "Ġoverpower": 12837,
    "Ġuser": 15913,
    "Ġabsolute": 6765,
    "unwillingly": 21881,
    "Ġbending": 12582,
    "Ġshaped": 15832,
    "Ġsays": 3559,
    "Ġcrashes": 13124,
    "ompl": 4535,
    "Ġvalued": 12180,
    "Ġbreaches": 14520,
    "others": 7670,
    "shiver": 16025,
    "Ġtables": 9877,
    "Ġodds": 13328,
    "Ġcontents": 7211,
    "serious": 14447,
    "deceit": 25556,
    "Ġconcrete": 20634,
    "Ġmartial": 20290,
    "coo": 11170,
    "chamber": 13624,
    "Ġhereditarily": 25224,
    "python": 4691,
    "Ġlodging": 24091,
    "Ġsake": 4091,
    "nesday": 8702,
    "Ġeyed": 12664,
    "zers": 21145,
    "Ġscatter": 18397,
    "Ġrejoinder": 24597,
    "Ġchaps": 14179,
    "Ġcouldn": 7649,
    "Ġpicking": 11259,
    "jah": 17581,
    "Ġcrosses": 23060,
    "Ġbressed": 21385,
    "ous": 477,
    "adamite": 20591,
    "gon": 17552,
    "begged": 18517,
    "steam": 23957,
    "Ġunprepared": 22045,
    "cele": 21622,
    "Ġamericans": 14741,
    "sn": 7138,
    "Ġeffeminacy": 20717,
    "Ġl": 303,
    "Ġgam": 11623,
    "Ġconsecut": 18111,
    "Ġbrag": 23831,
    "adequately": 20318,
    "Ġless": 1938,
    "Ġmoby": 3664,
    "Ġconfessor": 24016,
    "Ġnecessary": 4471,
    "arat": 9180,
    "Ġvow": 10246,
    "Ġannihilation": 15164,
    "Ġabund": 8864,
    "supposing": 24135,
    "Ġglo": 1712,
    "Ġmessages": 24981,
    "Ġconcentration": 25062,
    "antique": 18287,
    "fered": 5560,
    "Ġprogen": 14038,
    "professional": 20274,
    "Ġswitching": 23055,
    "smug": 23905,
    "weaknesses": 26030,
    "Ġornament": 11718,
    "Ġdoct": 4453,
    "inferiors": 25346,
    "Ġwhoever": 10975,
    "Ġafric": 8905,
    "rolled": 9059,
    "ice": 591,
    "serv": 7452,
    "rossed": 11012,
    "Ġattendant": 11285,
    "bing": 7791,
    "Ġchorus": 10946,
    "ww": 10737,
    "positive": 20566,
    "Ġchamois": 16800,
    "Ġseparate": 5778,
    "Ġdisclosed": 15152,
    "Ġwedding": 4858,
    "Ġbase": 5013,
    "Ġcus": 21341,
    "chants": 21689,
    "tahit": 17692,
    "Ġshipmate": 8928,
    "enet": 10152,
    "Ġglowing": 12280,
    "wheeler": 16187,
    "Ġrisen": 9492,
    "Ġnoticing": 18224,
    "Ġcanal": 8181,
    "Ġincor": 2610,
    "Ġenquired": 21937,
    "morland": 24153,
    "Ġhaste": 9003,
    "ě": 220,
    "Ġfaithful": 9502,
    "ignant": 11129,
    "erns": 8777,
    "Ġliking": 23590,
    "sell": 13780,
    "Ġstrife": 18614,
    "Ġreplace": 14477,
    "Ġwished": 3727,
    "Ġvulture": 17338,
    "Ġbloodthirst": 23800,
    "resembling": 25932,
    "Ġpump": 12618,
    "sion": 8093,
    "Ġgreedy": 3054,
    "searching": 25103,
    "hatred": 24821,
    "houses": 9599,
    "Ġ47": 14769,
    "wilful": 25086,
    "frankly": 20020,
    "road": 6677,
    "Ġendeavoured": 4918,
    "Ġeggs": 12340,
    "Ġnatures": 16505,
    "pers": 4335,
    "ĠĠĠĠĠĠĠĠĠĠĠĠĠĠĠĠĠĠĠĠĠĠĠĠĠĠĠĠĠĠĠĠĠĠĠĠĠĠĠĠĠĠ": 24209,
    "inlaid": 21189,
    "Ġunreserved": 19395,
    "Ġexpensive": 12915,
    "Ġsmack": 9299,
    "Ġdig": 6135,
    "Ġsulphur": 24933,
    "Ġwander": 9031,
    "Ġdisciple": 22779,
    "Ġmccauley": 26427,
    "isbury": 21375,
    "irting": 11684,
    "laughed": 20280,
    "Ġbuff": 9172,
    "among": 6256,
    "Ġshrew": 21997,
    "Ġyoun": 1408,
    "Ġpurchase": 12257,
    "Ġentic": 16144,
    "Ġtarpaul": 17730,
    "Ġbuoyancy": 20040,
    "Ġdesires": 9455,
    "Ġphysiology": 25332,
    "Ġriding": 14094,
    "ceiling": 21624,
    "Ġ73": 24260,
    "base": 20776,
    "Ġlinks": 13954,
    "safie": 20347,
    "Ġglitter": 25122,
    "appre": 14370,
    "magnificent": 20273,
    "Ġastronomy": 25926,
    "Ġfraud": 19049,
    "Ġspots": 11728,
    "expense": 22428,
    "avating": 18605,
    "Ġvariety": 8530,
    "pushed": 21022,
    "Ġpushing": 10819,
    "Ġhenry": 5197,
    "Ġhousings": 21490,
    "bbed": 6911,
    "Ġexploitation": 2347,
    "Ġwafted": 14499,
    "residual": 19261,
    "bedded": 13226,
    "Ġcocked": 12901,
    "ox": 9133,
    "access": 11180,
    "Ġpurchas": 19873,
    "istered": 14144,
    "Ġburg": 23650,
    "thes": 7392,
    "Ġdemi": 25548,
    "ab": 345,
    "Ġeye": 2282,
    "Ġhighland": 18712,
    "varied": 23181,
    "Ġunsupp": 22016,
    "Ġkidnapping": 26356,
    "Ġunit": 1847,
    "ercely": 12547,
    "Ġcamel": 25349,
    "Ġembatt": 18858,
    "Ġjourneying": 25565,
    "Ġglen": 18852,
    "satisfied": 10578,
    "Ġbloodless": 19338,
    "reeable": 3610,
    "picture": 11407,
    "fun": 3930,
    "delay": 16698,
    "continue": 16861,
    "Ġidentifies": 12013,
    "Ġoppose": 16518,
    "orrowed": 19288,
    "iah": 14414,
    "ains": 5094,
    "Ġslipping": 13359,
    "etency": 21579,
    "advantage": 8658,
    "arp": 2028,
    "urday": 13994,
    "anks": 3913,
    "Ġjapan": 7640,
    "Ġadvers": 4887,
    "Ġbasket": 9572,
    "Ġdepl": 14045,
    "acknowledged": 15201,
    "Ġideal": 13119,
    "Ġextreme": 2517,
    "Ġlose": 5028,
    "Ġchronicler": 20228,
    "amped": 12031,
    "Ġcolumbus": 26564,
    "shoe": 14965,
    "Ġspectator": 19404,
    "Ġastonishing": 10501,
    "worthy": 7732,
    "Ġball": 3621,
    "atherine": 2596,
    "Ġincommun": 25308,
    "Ġacquaintance": 4135,
    "remarked": 12286,
    "receiving": 12540,
    "Ġuncommonly": 7759,
    "again": 3398,
    "holmes": 4429,
    "itch": 10160,
    "Ġindecision": 25781,
    "Ġ166": 25004,
    "Ġsymmetry": 20364,
    "ers": 405,
    "dz": 4739,
    "Ġspecks": 14304,
    "Ġrenowned": 26193,
    "eronomy": 15523,
    "Ġkins": 22191,
    "Ġfitzwilliam": 5771,
    "Ġsoda": 25534,
    "Ġweek": 2828,
    "Ġpoverty": 9303,
    "Ġflight": 6581,
    "Ġboasting": 19934,
    "Ġcaution": 11346,
    "tacit": 21097,
    "dangerous": 20239,
    "Ġdisgracing": 26255,
    "Ġglobe": 6076,
    "Ġfinancial": 23125,
    "Ġexploration": 2336,
    "Ġexcitement": 9380,
    "Ġintimidated": 24805,
    "Ġleaving": 3901,
    "Ġsolitudes": 22883,
    "anim": 6521,
    "Ġlatest": 16822,
    "merchant": 10467,
    "Ġbegun": 7244,
    "Ġimplicit": 19956,
    "forgetting": 25485,
    "ging": 2601,
    "descending": 16283,
    "Ġmighty": 4230,
    "severe": 21816,
    "Ġcompar": 4771,
    "Ġstart": 3259,
    "Ġquaker": 10971,
    "rigible": 24931,
    "Ġran": 3343,
    "Ġexasperate": 20096,
    "Ġevolve": 3003,
    "hateful": 20908,
    "Ġoars": 3894,
    "Ġencounter": 6627,
    "ĠĠĠĠĠĠĠĠĠĠĠĠĠĠĠĠĠĠĠĠĠĠĠĠĠĠĠĠĠĠĠĠĠĠ": 14613,
    "irregular": 21908,
    "Ġshamefully": 24716,
    "rupt": 3210,
    "Ġthin": 4346,
    "Ġmy": 412,
    "Ġthinking": 4030,
    "Ġcondition": 6764,
    "Ġflann": 23010,
    "painful": 13501,
    "Ġpersons": 6180,
    "Ġpitching": 16611,
    "oof": 15404,
    "Ġstuff": 5717,
    "Ġmeekly": 26490,
    "limp": 20951,
    "Ġthing": 1639,
    "Ġdistance": 3482,
    "constit": 24604,
    "Ġdeserted": 8636,
    "cart": 10688,
    "owers": 12681,
    "Ġprairie": 8712,
    "scans": 22985,
    "sharp": 10307,
    "Ġmacey": 12560,
    "Ġquestion": 2779,
    "hester": 9631,
    "clever": 20812,
    "Ġtwitched": 20442,
    "Ġnext": 2143,
    "stead": 10846,
    "Ġsignificant": 8633,
    "hyena": 24252,
    "Ġsuggested": 8320,
    "Ġopulent": 23627,
    "Ġthickly": 12113,
    "atement": 17773,
    "Ġlace": 13948,
    "inquir": 9535,
    "Ġthread": 14538,
    "Ġplanet": 14748,
    "striking": 13439,
    "ries": 3354,
    "Ġeff": 683,
    "twilight": 23702,
    "Ġawkwardness": 13486,
    "cherish": 24552,
    "pursued": 17281,
    "tooth": 18579,
    "Ġnoteworthy": 24162,
    "mercenary": 26315,
    "scar": 9815,
    "Ġcrosswise": 18885,
    "uting": 15657,
    "consent": 18501,
    "honest": 17003,
    "ctors": 21587,
    "Ġequinoctial": 20532,
    "Ġwolfish": 25935,
    "droppers": 24759,
    "Ġforbearing": 25098,
    "Ġhoky": 17926,
    "Ġdesirous": 8942,
    "Ġdwelling": 7323,
    "Ġquarter": 3974,
    "Ġstriding": 16091,
    "ulia": 18148,
    "while": 2935,
    "Ġdevice": 1929,
    "destroy": 19509,
    "Ġbetray": 7443,
    "Ġstead": 5650,
    "Ġpills": 21464,
    "duty": 20238,
    "Ġchisel": 20366,
    "Ġcoopman": 25827,
    "Ġfew": 1225,
    "Ġdischarge": 18556,
    "ength": 2314,
    "ighbour": 3388,
    "Ġhovering": 10178,
    "Ġropes": 10748,
    "Ġoutlines": 15955,
    "Ġinmost": 17930,
    "Ġcountrymen": 23594,
    "Ġrepel": 23357,
    "Ġplease": 4722,
    "Ġjump": 4502,
    "Ġbearded": 15724,
    "Ġknighthood": 25297,
    "gaffman": 26390,
    "greek": 25404,
    "land": 1530,
    "orney": 17873,
    "Ġpreserved": 9261,
    "Ġmagnanimous": 17410,
    "Ġdishon": 12228,
    "likely": 9022,
    "Ġcher": 6129,
    "Ġpavement": 9577,
    "Ġchimney": 6496,
    "whaling": 7898,
    "Ġspeeding": 23563,
    "maritime": 24173,
    "noise": 14325,
    "Ġtake": 1578,
    "Ġdisengaged": 12886,
    "Ġsimulation": 2754,
    "Ġfronts": 20530,
    "Ġgibberish": 25786,
    "Ġcastles": 16639,
    "Ġfacing": 10171,
    "indifference": 15980,
    "Ġresentment": 7531,
    "Ġknees": 6928,
    "Ġhy": 5625,
    "itative": 13869,
    "ravelled": 18014,
    "Ġaccomplishments": 13378,
    "Ġfelicity": 7261,
    "Ġadaptation": 3156,
    "lun": 20945,
    "Ġprecipitate": 19940,
    "spee": 9316,
    "Ġafrica": 12343,
    "Ġattendance": 12179,
    "pire": 9135,
    "Ġpublisher": 24062,
    "Ġoverflowing": 17237,
    "Ġcad": 12565,
    "espe": 3497,
    "ċ": 204,
    "char": 3502,
    "quer": 11678,
    "Ġfacetious": 20582,
    "uerus": 26406,
    "Ġcaved": 21351,
    "ipotence": 22351,
    "ase": 1159,
    "Ġnoblest": 13240,
    "pieces": 8754,
    "Ġnigh": 4878,
    "Ġsketch": 16163,
    "Ġindul": 5856,
    "Ġbingley": 1672,
    "night": 2171,
    "Ġecho": 12663,
    "Ġevangelists": 20338,
    "Ġbenchmarks": 15021,
    "keen": 12779,
    "Ġmurmuring": 23578,
    "ittance": 12842,
    "Ġgnarled": 25165,
    "Ġdodging": 19886,
    "Ġunfailing": 24112,
    "Ġextravagance": 17279,
    "Ġmother": 2067,
    "Ġsomnam": 23003,
    "Ġgoin": 18469,
    "coarse": 16486,
    "Ġduring": 873,
    "Ġlinguistic": 12423,
    "Ġscepticism": 25927,
    "tranquil": 25870,
    "wreat": 21126,
    "Ġtransactions": 18482,
    "Ġappalled": 22214,
    "Ġticking": 25033,
    "Ġscant": 22277,
    "Ġfurther": 1055,
    "iliating": 12692,
    "Ġconviction": 6326,
    "formed": 2556,
    "source": 11525,
    "Ġdescribe": 2767,
    "Ġcrabs": 19173,
    "anite": 17837,
    "Ġvibrating": 13537,
    "ach": 432,
    "Ġwhispering": 14943,
    "Ġforcibly": 10060,
    "Ġwhir": 6392,
    "Ġdesmarest": 22976,
    "compliments": 24810,
    "block": 11470,
    "calm": 8934,
    "succeeded": 15174,
    "ickering": 22667,
    "Ġlustre": 15133,
    "Ġunremitting": 26217,
    "Ġstarbuck": 2196,
    "Ġriggers": 24156,
    "Ġslang": 23154,
    "Ġade": 22098,
    "Ġtooks": 23322,
    "ertips": 23638,
    "Ġreach": 4045,
    "needles": 20310,
    "Ġgor": 9206,
    "quest": 4537,
    "ulation": 5458,
    "iber": 6505,
    "heedful": 20572,
    "Ġscared": 14189,
    "Ġjoking": 12834,
    "abiding": 21790,
    "insupportable": 21192,
    "Ġhoarsely": 26302,
    "bidden": 19736,
    "eland": 11619,
    "observed": 7675,
    "onday": 6063,
    "adequ": 11020,
    "Ġexamination": 8004,
    "preserver": 20212,
    "Ġcabs": 23639,
    "Ġan": 286,
    "ics": 3257,
    "Ġessential": 7524,
    "Ġrelevance": 5184,
    "Ġfreer": 23210,
    "Ġemergency": 25731,
    "Ġenriched": 26499,
    "itance": 13867,
    "Ġpretty": 3858,
    "Ġbade": 9171,
    "Ġlist": 2367,
    "Ġinsinuating": 19270,
    "acter": 2507,
    "Ġrinal": 21977,
    "condescended": 26248,
    "Ġweights": 897,
    "Ġreputed": 18035,
    "Ġgestures": 13535,
    "erately": 21272,
    "hidden": 17370,
    "Ġskilful": 25837,
    "Ġbrightly": 13222,
    "Ġinspire": 11994,
    "Ġsands": 14946,
    "message": 17371,
    "Ġcruel": 5121,
    "fierce": 25255,
    "gratulation": 24349,
    "Ġenvironments": 24084,
    "Ġlaborers": 19055,
    "Ġinserting": 19905,
    "Ġcoburg": 18599,
    "Ġminut": 2205,
    "Ġknocking": 10559,
    "constable": 24605,
    "Ġfiendish": 13326,
    "Ġfell": 1976,
    "intelligence": 5882,
    "Ġsecure": 4912,
    "pshaw": 21027,
    "lied": 6506,
    "Ġfool": 4235,
    "Ġadjacent": 20710,
    "oundering": 11744,
    "Ġtarget": 2823,
    "oboam": 9357,
    "ppings": 18176,
    "Ġcomplaints": 12262,
    "ientious": 11689,
    "Ġbernard": 20683,
    "pled": 7891,
    "Ġinnermost": 12158,
    "hand": 2759,
    "Ġbelted": 22945,
    "ediction": 17944,
    "Ġplying": 17913,
    "nne": 20988,
    "Ġflorida": 20658,
    "Ġvariation": 22662,
    "sufficient": 6635,
    "dred": 2529,
    "ioning": 21506,
    "Ġwarmup": 3918,
    "atible": 17772,
    "humoured": 11236,
    "oke": 1860,
    "Ġcapric": 14574,
    "lesome": 12962,
    "Ġadapts": 3813,
    "Ġconveyed": 8334,
    "mael": 6722,
    "constantinople": 25507,
    "Ġ179": 19753,
    "Ġdip": 13906,
    "muttered": 13758,
    "Ġfowls": 8690,
    "ident": 3379,
    "shrouded": 26361,
    "Ġdet": 509,
    "patter": 4626,
    "eager": 12457,
    "Ġyears": 1894,
    "Ġoverbearing": 12838,
    "Ġmonotonically": 3829,
    "Ġclimate": 9274,
    "Ġstole": 7952,
    "recogn": 13424,
    "destiny": 16702,
    "marry": 13322,
    "Ġtwit": 12926,
    "Ġgri": 17987,
    "Ġcharted": 22247,
    "provoke": 26071,
    "Ġque": 4161,
    "isf": 2437,
    "due": 22407,
    "Ġaristotle": 25817,
    "Ġwal": 6516,
    "Ġmisled": 22754,
    "Ġyore": 21775,
    "Ġlantern": 7116,
    "Ġbolted": 12242,
    "urance": 10857,
    "instinctively": 26327,
    "Ġsquall": 7043,
    "Ġnoisier": 4623,
    "Ġreplying": 19580,
    "cab": 7334,
    "Ġhansom": 13663,
    "Ġexponentiating": 3445,
    "nue": 15396,
    "els": 1764,
    "infernal": 24662,
    "Ġslip": 8954,
    "Ġinsulted": 14991,
    "ondon": 2706,
    "unerative": 21893,
    "mosp": 8088,
    "Ġunaccountable": 7886,
    "rain": 462,
    "Ġreappearance": 21664,
    "Ġ(âĢľ": 15993,
    "Ġwo": 3650,
    "Ġindependently": 4246,
    "Ġsquared": 1380,
    "Ġportrait": 10661,
    "Ġperceived": 4713,
    "Ġfict": 21403,
    "etrics": 21582,
    "Ġimple": 1805,
    "Ġincom": 9768,
    "Ġender": 11688,
    "Ġshortly": 6196,
    "]": 65,
    "Ġwhe": 439,
    "anxiously": 15109,
    "Ġrelatives": 12979,
    "Ġplaint": 10325,
    "Ġpence": 17905,
    "cons": 4308,
    "crossed": 16632,
    "follows": 24528,
    "mentioning": 24885,
    "have": 2058,
    "himself": 3969,
    "Ġhides": 16262,
    "oyed": 14362,
    "99": 1898,
    "aux": 14288,
    "Ġbruited": 25773,
    "Ġclass": 799,
    "Ġbusks": 23337,
    "guilt": 24066,
    "Ġserene": 8166,
    "Ġgunwales": 12238,
    "Ġmeridian": 25714,
    "Ġhammered": 13238,
    "Ġrobes": 16257,
    "ances": 1338,
    "Ġkate": 15903,
    "Ġtraveller": 8048,
    "rippa": 11341,
    "relative": 24010,
    "Ġbelshazzar": 16223,
    "Ġdisappointing": 19578,
    "Ġpillar": 21471,
    "Ġhearties": 18967,
    "Ġcrags": 23525,
    "Ġaroused": 15901,
    "Ġrecognised": 8995,
    "irably": 13294,
    "putting": 14099,
    "Ġarchitecture": 1134,
    "Ġequal": 4137,
    "ested": 3478,
    "intellig": 5320,
    "pumps": 21026,
    "Ġdiligently": 11405,
    "brim": 23574,
    "Ġalabama": 14018,
    "Ġgracefully": 13390,
    "Ġdinah": 9452,
    "Ġdeepest": 8214,
    "Ġportcullis": 26603,
    "savage": 15074,
    "Ġsly": 9632,
    "Ġpresume": 8037,
    "Ġprobability": 1127,
    "anqu": 4111,
    "share": 14237,
    "olerable": 7183,
    "Ġremarks": 7475,
    "Ġwrithed": 17106,
    "Ġcloser": 8659,
    "silent": 9973,
    "tie": 21067,
    "ingle": 1036,
    "Ġbeaches": 18084,
    "grained": 20882,
    "Ġsuperlative": 26074,
    "Ġorigin": 4121,
    "Ġpang": 15602,
    "Ġappal": 18358,
    "Ġexecutioner": 12269,
    "opÃ¦": 12870,
    "Ġjoyful": 13219,
    "hoping": 17566,
    "Ġpoisonous": 24887,
    "settled": 10506,
    "Ġrejo": 5915,
    "general": 7490,
    "Ġdoings": 18376,
    "Ġimpetus": 25569,
    "Ġenormous": 5609,
    "turkish": 24533,
    "odecimo": 11444,
    "Ġbenignity": 18781,
    "Ġwardrobe": 17225,
    "eman": 5636,
    "conceive": 16028,
    "Ġfron": 14487,
    "rised": 10123,
    "Ġreliable": 18775,
    "Ġrepaired": 13106,
    "impetuous": 23762,
    "deal": 12796,
    "Ġaslant": 21898,
    "Ġdeal": 3606,
    "Ġprint": 18970,
    "Ġfuss": 13904,
    "onde": 21250,
    "Ġbizarre": 17871,
    "Ġhealed": 21680,
    "chemical": 23807,
    "ley": 1815,
    "Ġpur": 2217,
    "Ġbenjamin": 26567,
    "Ġturnpike": 23026,
    "incible": 16497,
    "Ġorganically": 3012,
    "Ġnorton": 12646,
    "Ġupbra": 22151,
    "Ġtort": 5901,
    "rist": 10122,
    "youngest": 19742,
    "plied": 10254,
    "seeking": 17152,
    "Ġcourtesy": 9944,
    "l": 80,
    "Ġcreases": 22722,
    "zing": 7820,
    "misrepresented": 24211,
    "Ġfood": 5080,
    "ugl": 23285,
    "Ġdispel": 16596,
    "Ġrefreshed": 15289,
    "Ġchinese": 14183,
    "Ġpistols": 17328,
    "steps": 9404,
    "Ġstri": 2806,
    "Ġcharmingly": 24221,
    "Ġunluck": 8484,
    "arrangement": 17414,
    "family": 7325,
    "Ġstoner": 7179,
    "Ġluck": 4880,
    "enth": 6680,
    "der": 467,
    "Ġdoted": 21431,
    "mouthful": 25208,
    "strangers": 20335,
    "Ġsteel": 3886,
    "Ġexistence": 4706,
    "him": 1939,
    "Ġcomfits": 21849,
    "Ġdisinclination": 22533,
    "Ġmet": 1896,
    "Ġimpl": 7196,
    "Ġont": 18116,
    "Ġamel": 18510,
    "G": 43,
    "Ġhis": 380,
    ".;": 20743,
    "Ġvertu": 23888,
    "Ġflap": 14421,
    "studied": 17149,
    "conceivable": 17130,
    "effect": 8603,
    "Ġemail": 19074,
    "Ġhunted": 7454,
    "Ġsmut": 22553,
    "Ġauger": 21202,
    "Ġpikes": 21476,
    "Ġcrossed": 6068,
    "Ġcasket": 19723,
    "Ġplain": 2819,
    "Ġdiffer": 18674,
    "Ġdagger": 21435,
    "Ġcomplete": 4380,
    "mad": 5280,
    "protruding": 24816,
    "outh": 2688,
    "admon": 21758,
    "`": 68,
    "asc": 6385,
    "Ġjesty": 18405,
    "gled": 10699,
    "Ġpraises": 16730,
    "Ġdined": 9176,
    "smo": 10125,
    "Ġcatholic": 20680,
    "Ġbills": 17860,
    "dare": 12451,
    "Ġarchangel": 8542,
    "zetts": 17714,
    "Ġenglishmen": 19428,
    "Ġcompassionate": 24723,
    "Ġprecautions": 23726,
    "Ġseized": 4833,
    "distinguish": 19571,
    "Ġindolent": 13006,
    "Ġpacific": 5153,
    "Ġexclusion": 19394,
    "Ġshrivelled": 19702,
    "ignific": 11954,
    "iquette": 26132,
    "bask": 20775,
    "camp": 15329,
    "commanded": 16988,
    "unfearing": 21889,
    "Ġdimension": 3240,
    "orious": 6007,
    "icting": 12850,
    "Ġtang": 13813,
    "Ġult": 9074,
    "narrowly": 20346,
    "Ġregain": 22564,
    "spirited": 19752,
    "Ġbuying": 23993,
    "Ġwhiff": 21715,
    "mopol": 15395,
    "Ġoffic": 3187,
    "Ġboldness": 24428,
    "Ġprosecution": 12379,
    "mathematics": 26304,
    "Ġmayhew": 12947,
    "Ġmr": 661,
    "Ġmotion": 4565,
    "Ġ85": 24460,
    "ist": 448,
    "Ġaccomplice": 24376,
    "Ġcumulative": 4211,
    "Ġsimply": 7219,
    "amples": 1820,
    "Ġadmiration": 5328,
    "orable": 8119,
    "reason": 4413,
    "Ġadjusting": 3411,
    "bushes": 24447,
    "Ġliberated": 19665,
    "Ġbreeding": 14521,
    "Ġanticipatingly": 26102,
    "cream": 15330,
    "sper": 4433,
    "threatened": 25462,
    "Ġhairs": 13229,
    "Ġvicissitudes": 12417,
    "Ġsuccessful": 9922,
    "Ġconnect": 800,
    "Ġlbs": 11614,
    "Ġresemble": 15690,
    "Ġyields": 19655,
    "Ġ64": 24367,
    "Ġsuffoc": 18870,
    "Ġinterested": 6457,
    "Ġforever": 14553,
    "Ġbully": 23854,
    "obliv": 23094,
    "maintained": 25020,
    "Ġtops": 14585,
    "Ġostens": 25275,
    "Ġblown": 12083,
    "Ġsurpass": 13582,
    "Ġug": 8140,
    "Ġairs": 14505,
    "Ġmitigates": 3051,
    "Ġinvolved": 8922,
    "Ġjoll": 11763,
    "Ġcuts": 14606,
    "Ġhebrew": 13987,
    "Ġban": 7157,
    "lude": 6161,
    "stream": 15684,
    "Ġtranslations": 12050,
    "Ġherself": 1566,
    "Ġpromised": 5181,
    "Ġgid": 13961,
    "arrange": 23765,
    "Ġcracks": 12018,
    "Ġblu": 2687,
    "Ġpince": 21469,
    "Ġprepare": 8646,
    "mechan": 11855,
    "Ġcomprehension": 15085,
    "Ġinc": 702,
    "Ġindulge": 10582,
    "Ġlonging": 14299,
    "hers": 7636,
    "Ġfancying": 12110,
    "Ġarmitage": 23580,
    "Ġinhabit": 5782,
    "Ġwildest": 16509,
    "stre": 5451,
    "Ġmoustache": 20482,
    "Ġwreaths": 25937,
    "Ġbasic": 24701,
    "Ġarranging": 11174,
    "Ġboxes": 13373,
    "Ġhearts": 4972,
    "sam": 21050,
    "Ġ121": 24466,
    "murderer": 13392,
    "eluded": 21572,
    "heaven": 8052,
    "aciousness": 18606,
    "ding": 1232,
    "Ġrecurring": 23230,
    "Ġinoffensive": 21495,
    "Ġpossessor": 23821,
    "this": 1438,
    "reply": 19721,
    "Ġflesh": 5968,
    "Ġprotruding": 16658,
    "battering": 20785,
    "rosings": 15641,
    "Ġmar": 1311,
    "Ġboisterous": 20441,
    "Ġinvari": 6528,
    "sinking": 17668,
    "ides": 2164,
    "centred": 25017,
    "duodecimo": 16000,
    "Ġreveries": 11347,
    "hug": 17563,
    "trivial": 21091,
    "lotts": 23823,
    "onents": 8776,
    "Ġ550": 19640,
    "Ġrooms": 5180,
    "Ġjustinian": 22969,
    "itories": 15546,
    "Ġassume": 10515,
    "Ġpledged": 20686,
    "incredible": 16498,
    "Ġstartling": 14669,
    "Ġappals": 22213,
    "Ġevince": 24293,
    "Ġspinal": 12300,
    "Ġpreternatural": 12820,
    "Ġbag": 5699,
    "ari": 672,
    "Ġmotives": 7487,
    "Ġcapsized": 20088,
    "ahit": 9381,
    "Ġpresumed": 10544,
    "Ġstaving": 21734,
    "Ġnevertheless": 5040,
    "uc": 1878,
    "metallic": 19879,
    "Ġsheer": 14150,
    "Ġsummers": 23871,
    "lascar": 20959,
    "iew": 2449,
    "Ġbonds": 17869,
    "Ġsperm": 1840,
    "aus": 1499,
    "Ġdelivery": 18975,
    "imag": 6990,
    "pretend": 24882,
    "aping": 8193,
    "specim": 23941,
    "Ġbrewed": 23344,
    "Ġingolstadt": 8332,
    "Ġconcealed": 7496,
    "Ġlombardy": 26463,
    "ports": 13773,
    "heredit": 21208,
    "Ġyelling": 18096,
    "Ġescaped": 6458,
    "Ġmamm": 25090,
    "Ġsharply": 9402,
    "iation": 7344,
    "Ġimpertinent": 9077,
    "Ġflourish": 17160,
    "Ġbenjam": 22887,
    "Ġcomplaisance": 19447,
    "Ġcope": 17830,
    "Ġgips": 10841,
    "Ġwails": 21295,
    "Ġboarded": 13232,
    "Ġbeth": 9657,
    "Ġdough": 8420,
    "entropy": 1437,
    "tolerable": 17688,
    "Ġthickets": 24020,
    "Ġwant": 1120,
    "Ġtemptation": 8677,
    "_;": 6640,
    "Ġpol": 2578,
    "manner": 6170,
    "rusion": 11323,
    "Ġcommanding": 16590,
    "letter": 6201,
    "Ġsch": 13834,
    "onze": 21254,
    "respond": 12541,
    "Ġlab": 1872,
    "Ġcomfortably": 16615,
    "Ġauthority": 7748,
    "Ġepaulets": 24905,
    "Ġxxx": 7766,
    "Ġhosea": 17330,
    "Ġfiercely": 12949,
    "Ġwith": 349,
    "sul": 15420,
    "smith": 5669,
    "Ġvillages": 14746,
    "shorn": 22456,
    "Ġinstances": 5568,
    "Ġstable": 2699,
    "Ġinvade": 19142,
    "conclusions": 25672,
    "Ġlaud": 17967,
    "commencement": 26347,
    "ks": 3146,
    "Ġgnashed": 20131,
    "Ġparl": 8177,
    "E": 41,
    "Ġcommencement": 12236,
    "Ġshore": 4834,
    "Ġwondered": 11125,
    "play": 5099,
    "Ġconsidered": 4610,
    "Ġadmeasure": 18293,
    "bo": 1688,
    "Ġflexible": 23774,
    "everywhere": 23698,
    "Ġdiagon": 24740,
    "pardonable": 17217,
    "Ġpaced": 7584,
    "Ġmonstr": 7668,
    "Ġlater": 6016,
    "Ġcomrades": 9554,
    "Ġlivelong": 25511,
    "Ġtoiling": 15632,
    "Ġcoll": 8220,
    "Ġchain": 1841,
    "Ġmam": 8404,
    "used": 3260,
    "Ġprivileges": 25132,
    "Ġreaching": 7304,
    "Ġpainful": 6461,
    "Ġkramm": 26233,
    "Ð": 145,
    "Ġprop": 1679,
    "Ġhorseback": 14848,
    "Ġcolony": 18765,
    "shazz": 14242,
    "Ġentrances": 25834,
    "Ġc": 277,
    "circ": 4387,
    "Ġxiii": 25591,
    "Ġmaketh": 15186,
    "Ġxi": 16428,
    "hide": 10703,
    "miniature": 16765,
    "ister": 1295,
    "Ġdistraction": 22502,
    "Ġboscombe": 8325,
    "Ġmultitud": 18746,
    "Ġmingling": 20196,
    "Ġbandaged": 16842,
    "Ġboarders": 16600,
    "Ġsenses": 8251,
    "Ġreap": 18026,
    "Ġsubstantiated": 25875,
    "Ġrecital": 16140,
    "Ġreservo": 16831,
    "Ġlovers": 9719,
    "Ġawaited": 17074,
    "Ġgoodge": 22820,
    "Ġoblige": 10488,
    "Ġlectures": 17178,
    "Ġproportion": 7282,
    "court": 7512,
    "Ġguiding": 19240,
    "Ġhither": 4759,
    "Ġlaug": 3625,
    "Ġtoward": 17946,
    "rels": 6664,
    "dug": 18462,
    "Ġmansion": 17809,
    "joice": 9602,
    "Ġactivation": 920,
    "Ġindividuality": 14907,
    "ield": 2409,
    "Ġsoutherly": 23330,
    "Ġmig": 13855,
    "oftener": 23962,
    "Ġerr": 1321,
    "sit": 13779,
    "spermaceti": 12191,
    "Ġresting": 7960,
    "Ġhunter": 5401,
    "Ġmuch": 924,
    "Ġleaks": 16448,
    "whom": 8184,
    "fain": 13714,
    "Ġfought": 12590,
    "Ġguests": 12285,
    "Ġdi": 6524,
    "dripping": 16905,
    "highest": 20406,
    "auley": 22620,
    "Ġrealities": 18981,
    "Ġslate": 11936,
    "oted": 4596,
    "Ġundulating": 19516,
    "Ġcongregational": 25102,
    "ounced": 4954,
    "rubbed": 22183,
    "Ġrefres": 14341,
    "tle": 2410,
    "Ġcraven": 16469,
    "Ġpalace": 16690,
    "linked": 17593,
    "white": 4601,
    "Ġdir": 21419,
    "ones": 2743,
    "Ġrare": 7036,
    "gd": 3126,
    "Ġchips": 14181,
    "ading": 5091,
    "Ġ32": 19487,
    "Ġrecur": 1623,
    "Ġjonas": 20608,
    "hook": 12051,
    "unching": 18158,
    "Ġdisposed": 7083,
    "rights": 23674,
    "satisfaction": 9991,
    "Ġbank": 4877,
    "Ġkilling": 13331,
    "Ġcold": 3033,
    "owders": 18047,
    "illing": 8174,
    "curiosity": 8623,
    "Ġtombed": 25160,
    "Ġanimals": 8978,
    "Ġsparing": 22127,
    "carpet": 25202,
    "immedi": 8450,
    "Ġpained": 19166,
    "¯": 112,
    "Ġpines": 12614,
    "Ġresounded": 22541,
    "furthermore": 20002,
    "Ġadmiring": 16479,
    "Ġmantelpiece": 15206,
    "somerset": 26322,
    "Ġpale": 4531,
    "included": 19208,
    "passing": 14810,
    "adler": 21759,
    "flex": 24843,
    "influence": 13577,
    "etah": 12658,
    "Ġ50": 24319,
    "Ġsurging": 19133,
    "deserts": 25379,
    "inioned": 19285,
    "alarms": 21502,
    "modern": 1163,
    "singing": 24363,
    "Ġinhabitants": 7525,
    "Ġdecreas": 1647,
    "Ġtattooing": 15027,
    "breath": 15161,
    "Ġinfl": 6895,
    "Ġtrampled": 20327,
    "iteous": 14261,
    "gered": 9275,
    "itted": 2443,
    "introduce": 25186,
    "fri": 20853,
    "Ġgases": 21599,
    "Ġmoluccas": 25629,
    "Ġthackeray": 26455,
    "window": 7742,
    "Ġacquies": 11097,
    "according": 12026,
    "propagation": 1233,
    "Ġdexter": 9700,
    "Ġfold": 5531,
    "Ġsobbed": 14135,
    "Ġcharity": 8862,
    "Ġfactor": 19013,
    "Ġpassengers": 13674,
    "Ġnoting": 18221,
    "les": 1017,
    "directly": 13708,
    "naturalists": 23551,
    "Ġspinning": 15052,
    "Ġappearing": 9840,
    "Ġbenefits": 4286,
    "Ġadorn": 12789,
    "Ġdistress": 5844,
    "Ġfifth": 11257,
    "leag": 21364,
    "Ġcop": 7580,
    "Ġpleated": 16295,
    "Ġdecay": 1013,
    "Ġintroduce": 3204,
    "Ġoppressed": 11189,
    "Ġseats": 14088,
    "Ġcompat": 2939,
    "Ġaccurately": 4474,
    "gloomy": 25144,
    "_âĢĿ": 20760,
    "Ġrunning": 3949,
    "drew": 7335,
    "irt": 3077,
    "Ġexhibited": 9543,
    "Ġterms": 2565,
    "Ġdepicting": 22606,
    "Ġgrievances": 20647,
    "Ġper": 589,
    "Ġtemporarily": 11167,
    "Ġforcing": 3224,
    "Ġclutching": 24951,
    "Ġori": 8408,
    "Ġeighty": 19474,
    "Ġworn": 6444,
    "Ġbound": 3517,
    "Ġopposition": 16519,
    "Ġpainter": 19167,
    "particularly": 8339,
    "Ġmonitors": 3157,
    "Ġproves": 14037,
    "Ġinclemency": 22552,
    "inex": 14091,
    "lifeless": 24312,
    "trucks": 25419,
    "ugal": 19019,
    "cal": 1122,
    "mira": 20978,
    "Ġwines": 21286,
    "Ġtimorous": 24225,
    "Ġmax": 2008,
    "Ġpartially": 13121,
    "lit": 9605,
    "clean": 14758,
    "way": 764,
    "Ġzer": 1093,
    "Ġfills": 12591,
    "Ġplaced": 3443,
    "Ġcirculating": 23371,
    "Ġenviron": 4006,
    "Ġcruise": 12047,
    "Ġpaying": 9937,
    "Ġriotous": 20543,
    "Ġbrandy": 11049,
    "retirement": 23134,
    "peculiar": 6886,
    "kitty": 10105,
    "Ġswears": 16463,
    "indulged": 22372,
    "Ġmari": 6813,
    "Ġprimal": 17107,
    "kill": 13743,
    "?âĢĿâĢĶ": 12892,
    "Ġhappens": 2191,
    "Ġph": 1547,
    "Ġconjunction": 25100,
    "Ġsanity": 24979,
    "Ġmutable": 23952,
    "âĢĻ,": 14069,
    "curious": 10482,
    "hump": 12475,
    "unders": 13309,
    "Ġsends": 14788,
    "Ġma": 3253,
    "Ġlocal": 1199,
    "Ġger": 21588,
    "Ġsleeve": 20139,
    "Ġacquit": 18897,
    "Ġingenious": 12346,
    "compasses": 19456,
    "perth": 22173,
    "Ġrobberies": 23030,
    "Ġdaybreak": 18726,
    "ipotent": 10959,
    "Ġincreases": 3792,
    "Ġcogent": 14272,
    "days": 7687,
    "ing": 273,
    "impat": 11202,
    "wrinkled": 16553,
    "Ġouthouse": 22311,
    "_).âĢĶ": 8681,
    "indust": 18435,
    "remote": 23186,
    "shadows": 25479,
    "Ġstrang": 4163,
    "Ġtrusting": 24106,
    "Ġpinioned": 21480,
    "Ġcopestone": 24936,
    "Ġargemone": 24274,
    "Ġawe": 7147,
    "likewise": 13103,
    "super": 5942,
    "Ġfanciful": 24788,
    "Ġblowing": 10484,
    "urpation": 16299,
    "Ġgazed": 6477,
    "Ġdistillation": 16043,
    "Ġheels": 10850,
    "Ġradney": 6775,
    "first": 3931,
    "Ġcorpus": 13029,
    "Ġpreparation": 13528,
    "mond": 20972,
    "Ġcarelessness": 13074,
    "Ġpieces": 7370,
    "Ġpersonal": 7480,
    "Ġhero": 5715,
    "arded": 5029,
    "draw": 23896,
    "verb": 10216,
    "Ġcatastrophe": 10483,
    "fam": 5988,
    "Ġfam": 1585,
    "Ġmolasses": 25628,
    "cul": 1902,
    "prevailed": 17344,
    "gences": 20876,
    "Ġroar": 9752,
    "Ġclattered": 22359,
    "Ġtedious": 15266,
    "Ġvines": 12748,
    "Ġruthless": 15284,
    "Ç": 136,
    "Ġantics": 24178,
    "believed": 9932,
    "representativeness": 25272,
    "cas": 20793,
    "rily": 7622,
    "Ġmarking": 16468,
    "Ġlikewise": 5386,
    "âĢľâĢĶ": 10872,
    "Ġassent": 12730,
    "crooked": 25746,
    "Ġdaily": 5986,
    "erie": 21271,
    "Ġjerk": 16950,
    "Ġsibbald": 21229,
    "Ġdiscriminative": 4326,
    "Ġtheir": 643,
    "Ġmat": 1146,
    "Ġdoes": 941,
    "Ġmamma": 10047,
    "Ġobviously": 16810,
    "Ġendeav": 2957,
    "Ġmonsieur": 12419,
    "Ġassailants": 20447,
    "Ġtemple": 7654,
    "uries": 6147,
    "Ġbradstreet": 9576,
    "Ġburke": 19250,
    "Ġboone": 11838,
    "ission": 6456,
    "eprints": 12788,
    "Ġlou": 6822,
    "Ġanalysis": 1843,
    "Ġunqualified": 22056,
    "inside": 23063,
    "Ġopportunities": 19248,
    "luyt": 18454,
    "dict": 15338,
    "Ġtong": 4870,
    "89": 20758,
    "uccas": 21105,
    "Ġsimilar": 4917,
    "tips": 13795,
    "Ġyards": 5371,
    "ben": 4926,
    "property": 19998,
    "Ġswells": 9826,
    "Ġdesperately": 24656,
    "bill": 10075,
    "rimshander": 20656,
    "Ġtruth": 3320,
    "``": 15305,
    "Ġconfederate": 17353,
    "Ġcoals": 16073,
    "Ġjury": 5378,
    "Ġshadows": 8012,
    "Ġinsolent": 13599,
    "ump": 2285,
    "hawks": 24694,
    "mass": 12487,
    "Ġgardener": 19134,
    "male": 15387,
    "Ġmalignity": 10556,
    "Ġcannib": 6035,
    "otherwise": 7671,
    "abeth": 906,
    "Ġcarrying": 6071,
    "watery": 19825,
    "sham": 9760,
    "Ġbabies": 19691,
    "Ġperdition": 15990,
    "Ġfly": 3867,
    "Ġspasmodically": 17313,
    "sp": 895,
    "Ġholder": 6724,
    "wid": 10134,
    "Ġpaddle": 20057,
    "osed": 1959,
    "Ġoakum": 16934,
    "herent": 2531,
    "clings": 23147,
    "urry": 13993,
    "Ġsell": 7825,
    "barbs": 20236,
    "allen": 22193,
    "Ġimpelling": 22383,
    "Ġdivided": 8631,
    "happen": 19330,
    "idered": 4552,
    "gyric": 19109,
    "Ġdrawling": 19435,
    "consider": 6348,
    "voc": 8393,
    "ized": 1525,
    "gument": 20884,
    "Ġxavier": 2855,
    "flood": 19805,
    "ĠcÃ¦": 15552,
    "Ġoftener": 13564,
    "Ġhyperborean": 26339,
    "Ġagony": 5388,
    "Ġvultures": 25653,
    "Ġwherefore": 8524,
    "Ġcharm": 4547,
    "phil": 7924,
    "Ġgallon": 24184,
    "Ġcommunicating": 16889,
    "claims": 25319,
    "achusetts": 20709,
    "rus": 5929,
    "Ġpetrified": 19595,
    "riers": 18181,
    "accomp": 10455,
    "Ġhor": 1658,
    "humiliation": 24018,
    "Ġfairer": 20460,
    "Ġinevitably": 17230,
    "Ġergo": 25029,
    "Ġdetached": 10279,
    "Ġcloudy": 19475,
    "Ġdefect": 8554,
    "tart": 21066,
    "written": 7994,
    "Ġmotionless": 8323,
    "Ġsized": 11562,
    "Ġaversion": 18866,
    "Ġoccasionally": 5590,
    "Ġsewing": 21958,
    "Ġjen": 9266,
    "Ġbrand": 16185,
    "ron": 5216,
    "Ġcrouched": 23440,
    "Ġtrappings": 23080,
    "Ġrecl": 16138,
    "dia": 2138,
    "Ġdream": 3536,
    "Ġ87": 19709,
    "Ġtrue": 1340,
    "Ġhauling": 14086,
    "Ġnephew": 6404,
    "Ġnocturnal": 20714,
    "Ġcareless": 11119,
    "Ġpleasurable": 23338,
    "sir": 5001,
    "Ġattain": 12744,
    "cases": 12445,
    "Ġcreaking": 14330,
    "Ġdiameter": 19866,
    "shout": 22451,
    "inea": 7623,
    "intu": 22930,
    "Ġrapidly": 3486,
    "Ġbloodshed": 23799,
    "Ġlived": 3988,
    "escript": 18471,
    "Ġcamp": 9164,
    "terr": 8153,
    "Ġfleeting": 19326,
    "blasted": 20188,
    "Ġstature": 10863,
    "Ġsleeps": 10446,
    "Ġvictim": 6097,
    "Ġinexper": 16980,
    "Ġsummons": 13230,
    "Ġhyper": 19738,
    "hosmer": 25902,
    "Ġsuspected": 9062,
    "Ġegot": 18007,
    "subjects": 19875,
    "bus": 5354,
    "yth": 982,
    "Ġwarnings": 16881,
    "Ġeffusion": 22509,
    "Ġwed": 3958,
    "Ġpermission": 9278,
    "pigs": 17140,
    "Ġexclude": 19036,
    "Ġanimal": 2499,
    "max": 1682,
    "Ġdecomposition": 5342,
    "afraid": 10441,
    "Ġvide": 10250,
    "inced": 3336,
    "Ġrebounds": 25967,
    "Ġenabled": 9295,
    "Ġimprudence": 10297,
    "Ġangel": 4852,
    "Ġpromise": 4199,
    "Ġprecipitous": 24835,
    "Ġmed": 3984,
    "behind": 6779,
    "hands": 5966,
    "Ġpensive": 21473,
    "sculpt": 16242,
    "red": 397,
    "Ġattempt": 3485,
    "assistant": 25567,
    "ple": 455,
    "pedest": 24695,
    "prodig": 16425,
    "Ġliquid": 22406,
    "gathered": 13731,
    "anybody": 12080,
    "Ġcurrents": 13004,
    "Ġliked": 5264,
    "Ġnapoleons": 25885,
    "Ġrevers": 21661,
    "desolation": 20448,
    "Ġinvesting": 19645,
    "Ġcoun": 4179,
    "Ġrise": 5637,
    "assumed": 22305,
    "Ġstamp": 7863,
    "Ġdeeper": 2084,
    "leo": 21362,
    "Ġhessian": 3546,
    "Ġcal": 1326,
    "Ġinsisted": 12044,
    "cru": 7126,
    "tomorrow": 25914,
    "effort": 19214,
    "Ġcommission": 6712,
    "diminished": 20838,
    "overcoat": 19046,
    "Ġgrowth": 14628,
    "ar": 285,
    "Ġsigh": 10336,
    "Ġkind": 1784,
    "Ġsolution": 9804,
    "itching": 21333,
    "youth": 11873,
    "Ġcommunicative": 24548,
    "ribes": 23364,
    "irc": 1728,
    "Ġrefer": 18697,
    "Ġfounded": 8556,
    "therefore": 5953,
    "amusement": 15281,
    "Ġdexterous": 15147,
    "Ġemma": 20693,
    "es": 288,
    "Ġsculpture": 26016,
    "Ġhandles": 22692,
    "mighty": 9466,
    "Ġleaping": 8340,
    "Ġreel": 9213,
    "Ġdismember": 20214,
    "harrow": 20907,
    "Ġflying": 5413,
    "Ġtattooings": 24900,
    "Ġsinusoid": 4781,
    "Ġgravel": 14101,
    "Ġchief": 3381,
    "adoes": 11659,
    "Ġthere": 564,
    "earn": 10696,
    "Ġlieuten": 13325,
    "Ġaimed": 20249,
    "inously": 21185,
    "Ġroused": 7624,
    "ounted": 5030,
    "phia": 22769,
    "soul": 9140,
    "Ġsallies": 21228,
    "presence": 18490,
    "Ġjudges": 14684,
    "atha": 6572,
    "Ġcopies": 24935,
    "Ġkid": 9724,
    "gor": 547,
    "Ġsubstance": 5510,
    "ives": 1409,
    "gether": 1596,
    "Ġtrials": 16789,
    "Ġilluminating": 25245,
    "Ġmagnus": 18956,
    "endeav": 7151,
    "Ġconceal": 5973,
    "Ġbarber": 23788,
    "aract": 17894,
    "ploy": 1988,
    "Ġtrack": 7451,
    "arboard": 7267,
    "Ġresolutely": 14608,
    "Ġprivilege": 11419,
    "meditation": 19068,
    "Ġsupre": 10270,
    "Ġdyspeps": 16495,
    "Ġfavoring": 2344,
    "itting": 1153,
    "awful": 23112,
    "ria": 15792,
    "plete": 10919,
    "otes": 15741,
    "Ġ1778": 25730,
    "Ġmines": 21307,
    "Ġscenery": 11456,
    "Ġmalice": 7153,
    "Ġshoved": 23488,
    "want": 8765,
    "Ġjoining": 13163,
    "Ġexpon": 966,
    "Ġventing": 19492,
    "Ġformation": 2944,
    "ht": 375,
    "Ġinstruction": 14343,
    "Ġclear": 1948,
    "icates": 11616,
    "Ġstruggle": 3674,
    "reme": 2426,
    "Ġherds": 9715,
    "quished": 21851,
    "Ġstudies": 7955,
    "bestowed": 12223,
    "Ġheadway": 18792,
    "Ġrocky": 13386,
    "Ġfasten": 11132,
    "Ġbind": 12579,
    "Ġprosperity": 20256,
    "Ġdrawback": 23987,
    "Ġhol": 1183,
    "baned": 17495,
    "Ġinfrequent": 3820,
    "ellation": 12747,
    "Ġplush": 18609,
    "twinkle": 23703,
    "Ġsanguinary": 25929,
    "Ġcoefficient": 2885,
    "bank": 10079,
    "respective": 19845,
    "Ġgl": 1256,
    "Ġbefallen": 12341,
    "Ġott": 13865,
    "sword": 10726,
    "Ġdelicate": 6479,
    "Ġpassing": 4314,
    "speeches": 25239,
    "hind": 20893,
    "Ġwint": 15531,
    "surprising": 16919,
    "Ġoverwhelmed": 11403,
    "Ġnominally": 17231,
    ",âĢĻâĢĶ": 23524,
    "Ġsayest": 22774,
    "pict": 8385,
    "Ġinside": 5448,
    "Ġplaces": 5390,
    "Ġsofa": 10269,
    "preference": 22450,
    "intercourse": 14637,
    "Ġdominic": 25381,
    "missed": 11209,
    "myster": 16261,
    "Ġbanners": 24858,
    "Ġcellars": 24665,
    "scotch": 25847,
    "Ġtyrant": 24767,
    "outre": 18321,
    "Ġmusket": 12294,
    "pull": 6796,
    "detached": 19673,
    "gans": 11489,
    "Ġinclosed": 19537,
    "Ġautonomous": 10675,
    "Ġcommunications": 16353,
    "Ġexquis": 9698,
    "Ġbeach": 6541,
    "Ġaccompany": 9486,
    "Ġspit": 22122,
    "Ġexpecting": 10436,
    "Ġungracious": 18258,
    "etical": 13957,
    "ster": 1951,
    "Ġbegan": 2023,
    "Ġinequalities": 26453,
    "ozy": 17622,
    "ort": 522,
    "public": 17646,
    "Ġexceptionable": 25503,
    "Ġloft": 5642,
    "Ġqualified": 14948,
    "Ġintegral": 25008,
    "Ġbrazier": 26320,
    "Ġfortun": 4982,
    "Ġemblem": 20496,
    "Ġproble": 1111,
    "clut": 23146,
    "Ġcritics": 23443,
    "Ġuniverse": 14123,
    "chari": 21686,
    "Ġreproofs": 24892,
    "Ġcoin": 9770,
    "Ġpig": 5705,
    "Ġuntidy": 23520,
    "ĠĠĠĠĠĠĠĠĠĠĠĠĠĠĠĠĠĠĠĠĠĠĠĠĠĠĠĠĠĠĠĠĠĠĠĠĠĠĠ": 19258,
    "Ġsatisfying": 23697,
    "sleet": 20148,
    "pips": 21019,
    "Ġche": 1763,
    "Ġfibres": 12948,
    "cible": 20805,
    "Ġunfathom": 14787,
    "Ġconverse": 11842,
    "antically": 22093,
    "Ġattacked": 10567,
    "icuous": 10835,
    "Ġinsignific": 13179,
    "Ġref": 911,
    "Ġsupper": 4665,
    "Ġwalks": 8965,
    "Ġthrilling": 19747,
    "Ġcetacea": 20552,
    "Ġpursuers": 13224,
    "bres": 11471,
    "Ġpart": 860,
    "consist": 14814,
    "Ġcomparison": 7099,
    "showing": 22460,
    "Ġmarty": 20289,
    "insisted": 23065,
    "king": 3060,
    "scotland": 20526,
    "Ġmungo": 25631,
    "Ġswaths": 23056,
    "Ġilliter": 23467,
    "Ġfoam": 6891,
    "Ġindicated": 10469,
    "Ġnic": 7377,
    "Ġapprehension": 7113,
    "Ġbumps": 21390,
    "Ġachieves": 4377,
    "appin": 18760,
    "terms": 15748,
    "Ġable": 3081,
    "didn": 9006,
    "Ġsluggishly": 25891,
    "Ġcurled": 8225,
    "Ġwinter": 5220,
    "Ġseethings": 26503,
    "doubtful": 24791,
    "cture": 15662,
    "Ġcontingency": 26244,
    "Ġoppress": 13171,
    "itar": 15544,
    "ĠĠĠĠĠĠĠĠĠĠĠĠĠĠĠĠĠĠĠĠĠĠĠĠĠĠĠĠĠĠĠĠ": 2739,
    "Ĕ": 213,
    "Ġinsensibility": 17110,
    "Ġnight": 1462,
    "Ġmost": 1020,
    "lilies": 20960,
    "execution": 20470,
    "Ġprot": 3843,
    "clothes": 9057,
    "iloquent": 21722,
    "Ġbreak": 2869,
    "Ġsuperglue": 23456,
    "alter": 10826,
    "Ġoffers": 12943,
    "Ġcoolness": 16886,
    "Ġbread": 5404,
    "invol": 12527,
    "Ġequality": 16360,
    "cro": 13695,
    "shaw": 6864,
    "Ġfloated": 7289,
    "privilege": 25263,
    "nuee": 17429,
    "Ġslices": 23160,
    "._]]": 5334,
    "Ġbeer": 10219,
    "Ġatone": 15800,
    "ru": 480,
    "Ġminimizing": 3463,
    "Ġcontemplated": 13463,
    "stripped": 16945,
    "Ġdur": 11591,
    "suff": 4961,
    "slipping": 25528,
    "Ġdiscernible": 15068,
    "Ġlion": 9675,
    "Ġindist": 14409,
    "highly": 24764,
    "resolution": 17766,
    "Ġmercenary": 17193,
    "decoder": 3644,
    "ellations": 21941,
    "Ġrejoicing": 13420,
    "Ġasylum": 13665,
    "7": 27,
    "Ġresolution": 5500,
    "urer": 18121,
    "securing": 19812,
    "Ġcommence": 6167,
    "Ġhurrying": 11993,
    "Ġgroaned": 11266,
    "Ġtopic": 9405,
    "Ġcompromised": 22570,
    "iny": 4293,
    "Ġdidst": 11847,
    "Ġmaids": 19690,
    "senses": 25022,
    "Ġtransform": 748,
    "Ġmasts": 6464,
    "Ġascertained": 25296,
    "Ġoutcast": 18414,
    "ĠâĢľâĢĺ": 8503,
    "luxur": 25822,
    "Ġpequod": 2323,
    "Ġnews": 3815,
    "Ġ54": 24322,
    "Ġchests": 19670,
    "Ġforgot": 4683,
    "american": 11400,
    "dozen": 23376,
    "Ġdimly": 9487,
    "Ġsize": 1217,
    "Ġhanging": 5447,
    "hearing": 8402,
    "humor": 19450,
    "vanished": 15060,
    "clam": 13052,
    "abby": 14020,
    "Ġwaving": 8575,
    "Ġlubber": 17443,
    "feet": 6568,
    "Ġvoy": 2621,
    "london": 9609,
    "Ġmisconduct": 22756,
    "mes": 1197,
    "Ġirregular": 9864,
    "pride": 11210,
    "irection": 2388,
    "Ġdriven": 6198,
    "Ġpestilent": 25777,
    "Ġdiscuss": 9473,
    "Ġsubordinate": 18722,
    "Ġdiscoverer": 26035,
    "!": 5,
    "Ġacquaint": 13042,
    "Ġreject": 7387,
    "Ġatt": 774,
    "Ġspe": 821,
    "Ġreceiving": 4882,
    "arrow": 4181,
    "attended": 8952,
    "Ġcigars": 12250,
    "truth": 9918,
    "Ġaustralia": 15231,
    "F": 42,
    "fluttering": 23970,
    "host": 5867,
    "18": 20750,
    "Ġpag": 6010,
    "achment": 5464,
    "alous": 7373,
    "second": 6543,
    "stuff": 15685,
    "Ġincensed": 18571,
    "Ġthieves": 15633,
    "Ġinglorious": 24424,
    "Ġnormal": 1202,
    "rig": 7557,
    "Ġunrelieved": 20544,
    "Ġed": 2147,
    "Ġharrow": 17925,
    "ges": 2874,
    "Ġwarmest": 16483,
    "urred": 8449,
    "Ġorganizations": 12312,
    "preced": 10305,
    "Ġcheapside": 23284,
    "Ġchair": 3661,
    "ÿ": 192,
    "Ġcask": 5527,
    "Ġacceptance": 14825,
    "pleas": 3847,
    "Ġsecret": 3718,
    "Ġintentions": 10607,
    "Ġmountains": 4425,
    "Ġtrees": 4203,
    "Ġdaring": 8120,
    "four": 6113,
    "Ġfurled": 22809,
    "Ġconce": 3421,
    "Ġenthusiastic": 19964,
    "comprehens": 16172,
    "Ġschoolboys": 24481,
    "Ġvacuous": 24344,
    "Ġkeenest": 12159,
    "refuge": 24734,
    "Ġfads": 21414,
    "Ġgate": 6825,
    "later": 20952,
    "Ġling": 7378,
    "horn": 8085,
    "Ġclatter": 22354,
    "Ġcompany": 3719,
    "token": 21081,
    "Ġdeclared": 5595,
    "Ġfurniture": 6475,
    "Ġcetace": 14987,
    "Ġmarling": 23033,
    "Ġfejee": 18355,
    "stige": 21658,
    "Ġspring": 4122,
    "merit": 19280,
    "jeroboam": 25619,
    "Ġassault": 9836,
    "riages": 10242,
    "ensity": 11811,
    "sake": 13782,
    "tan": 4742,
    "Ġstout": 6024,
    "Ġput": 1797,
    "ither": 1546,
    "Ġdecorum": 16019,
    "Ġcomrade": 12281,
    "bourne": 19102,
    "Ġbarriers": 23793,
    "re": 266,
    "erring": 11056,
    "Ġrepaid": 19082,
    "entrance": 12654,
    "chosen": 21692,
    "Ġfoaming": 18991,
    "Ġaccumul": 1411,
    "Ġcoincidences": 26363,
    "Ġworry": 18815,
    "unwho": 21874,
    "Ġregal": 16065,
    "analysis": 26173,
    "Ġgradual": 20600,
    "Ġjoky": 18406,
    "consequence": 9762,
    "bil": 20770,
    "enormous": 26166,
    "Ġlower": 2663,
    "Ġcabal": 23640,
    "Ġfrank": 4418,
    "Ġwithal": 18113,
    "Ġcamberwell": 25350,
    "Ġaccused": 8507,
    "Ġborne": 6351,
    "Ġlust": 9197,
    "º": 123,
    "stood": 4117,
    "Ġpau": 17908,
    "Ġbru": 13894,
    "Ġinvented": 17037,
    "commanders": 16989,
    "mary": 8748,
    "77": 15299,
    "Ġalph": 9694,
    "Ġhagger": 21488,
    "Ġdevotedly": 24750,
    "Ġcabin": 3303,
    "afford": 14653,
    "Ġstayed": 7997,
    "dman": 10088,
    "Ġgush": 10202,
    "soft": 12507,
    "Ġeleg": 6192,
    "Ġdoth": 13907,
    "Ġrepenting": 25322,
    "Ú": 155,
    "crow": 9590,
    "Ġtomahawk": 7540,
    "Ġimpatient": 5603,
    "aired": 8368,
    "Ġmoles": 22431,
    "rennial": 22338,
    "Ġhookah": 16970,
    "ladies": 9528,
    "abouts": 9451,
    "affrail": 11205,
    "oved": 5215,
    "unaffected": 21880,
    "colnett": 19329,
    "Ġkeel": 6443,
    "levelled": 23642,
    "proceeded": 25190,
    "quitted": 21854,
    "Ġhaught": 10252,
    "Ġsuspicious": 9479,
    "ĠvertebrÃ¦": 11435,
    "unhesitatingly": 26496,
    "Ġvortex": 26208,
    "ards": 2505,
    "Ġdetermined": 2222,
    "Ġsor": 4148,
    "anke": 15558,
    "û": 188,
    "Ġrucastles": 18721,
    "achus": 18277,
    "abomin": 15739,
    "Ġsometimes": 2169,
    "pton": 15791,
    "Ġmoran": 9341,
    "whisper": 17083,
    "Ġcart": 11582,
    "Ġrud": 8477,
    "Ġcherry": 16935,
    "bec": 4051,
    "Ġkink": 22190,
    "Ġrecommendation": 17025,
    "ipped": 5790,
    "Ġdau": 21423,
    "Ġtons": 11549,
    "permitted": 18340,
    "Ġrevolve": 19729,
    "Ġacute": 16121,
    "dled": 9110,
    "Ġastonished": 7087,
    "Ġproduced": 2454,
    "Ġrequired": 7224,
    "noted": 22746,
    "oise": 15403,
    "Ġreg": 719,
    "Ġsucking": 12785,
    "Ġmists": 14629,
    "Ġneglect": 7941,
    "Ġyelled": 9693,
    "fin": 5209,
    "Ġsuddenness": 23380,
    "Ġfairly": 6325,
    "hears": 12530,
    "Ġconjectured": 9996,
    "web": 18664,
    "Ġholds": 7975,
    "Ġandes": 12638,
    "Ġembed": 1443,
    "Ġfolios": 23018,
    "fingers": 17369,
    "machine": 965,
    "apable": 6421,
    "Ġupdates": 1299,
    "Ġapproached": 5843,
    "Ġcharged": 9853,
    "Ġreadily": 5253,
    "Ġworld": 1597,
    "Ġbiggest": 24566,
    "Ġhearth": 11980,
    "eck": 20843,
    "within": 6730,
    "Ġprepared": 5876,
    "Ġbreeze": 5681,
    "Ġuncivilized": 25498,
    "Ġseam": 3905,
    "maid": 8552,
    "Ġearthy": 23712,
    "ced": 697,
    "glance": 16587,
    "Ġtattooed": 11378,
    "Ġtechnically": 12364,
    "Ġcommanders": 23866,
    "rubbery": 17341,
    "know": 2319,
    "ifers": 15779,
    "Ġunnatural": 7191,
    "continued": 8675,
    "spl": 9139,
    "neighb": 16021,
    "ree": 875,
    "Ġchecking": 23282,
    "Ġdetermines": 2369,
    "eties": 10837,
    "lier": 20948,
    "Ġdictionary": 15111,
    "Ġdiffident": 23782,
    "attentions": 13573,
    "Ġbroom": 18906,
    "Ġpossibilities": 18976,
    "Ġhumiliation": 16197,
    "Ġmilk": 6484,
    "Ġisrael": 21800,
    "Ġrigging": 5601,
    "cils": 20813,
    "yourself": 6742,
    "Ġamiss": 18512,
    "Ġqualities": 7534,
    "convul": 24883,
    "Ġgospel": 18000,
    "cruise": 24841,
    "Ġpoorly": 9854,
    "Ġpursuing": 9437,
    "atters": 18505,
    "franch": 24284,
    "Ġparcel": 15198,
    "Ġcro": 4873,
    "Ġattended": 5391,
    "ocratic": 17245,
    "Ġbeliever": 25845,
    "inisc": 15487,
    "Ġadvise": 7935,
    "uine": 13798,
    "Ġcollecting": 12284,
    "Ġminus": 18749,
    "Ġdescription": 7430,
    "astic": 1869,
    "diss": 17523,
    "Ġupward": 9720,
    "Ġadvanced": 1527,
    "otograph": 5826,
    "onings": 21251,
    "Ġjiff": 22293,
    "Ġrev": 6988,
    "Ġdaylight": 10350,
    "ulum": 21860,
    "table": 5795,
    "swell": 17663,
    "Ġdispelling": 23878,
    "Ġdeprec": 15755,
    "Ġhim": 475,
    "Ġapproximate": 2342,
    "Ġreflection": 6439,
    "Ġgrunted": 16166,
    "shall": 4549,
    "Ġreasoner": 14433,
    "cou": 13694,
    "Ġawa": 7713,
    "Ġblind": 3714,
    "Ġincessant": 15096,
    "Ġmalignant": 14876,
    "Ġrepute": 18034,
    "Ġstabbed": 25456,
    "Ġinitialized": 3945,
    "const": 5938,
    "Ġwalled": 15533,
    "Ġgrappling": 25812,
    "Ġbark": 10798,
    "Ġfervour": 19725,
    "Ġslam": 13055,
    "Ġexclamation": 8698,
    "Ġcum": 21340,
    "Ġcupidity": 24535,
    "plings": 11693,
    "stein": 5505,
    "Ġtambourine": 9564,
    "Ġricher": 12756,
    "icity": 2541,
    "warnings": 20350,
    "Ġcoiling": 12902,
    "prepared": 13589,
    "motives": 26137,
    "Ġwor": 1190,
    "Ġprovince": 24189,
    "idge": 14013,
    "Ġhysterics": 26093,
    "Ġzeros": 3325,
    "Ġmachines": 1776,
    "ivened": 22967,
    "Ġrippling": 17277,
    "Ġsubmerged": 11870,
    "Ġvillas": 24050,
    "Ġaustrian": 24300,
    "Ġdeparted": 5564,
    "Ġpawn": 12061,
    "pause": 12498,
    "Ġvor": 15804,
    "opened": 7912,
    "ure": 356,
    "Ġmasterless": 23992,
    "Ġsuperst": 7703,
    "coff": 9108,
    "odes": 18119,
    "Ġcondescended": 19954,
    "establishment": 26113,
    "Ġshoal": 12014,
    "Ġdetective": 14405,
    "Ġ27": 8614,
    "Ġaccustomed": 6861,
    "Ġzone": 14361,
    "Ġrepeated": 3827,
    "tling": 9142,
    "Ġt": 261,
    "extensive": 18707,
    "kovoko": 20668,
    "Ġprinc": 4200,
    "Ġbigot": 24565,
    "Ġdesper": 6176,
    "finds": 19926,
    "Ġconj": 8460,
    "custom": 15332,
    "striving": 24669,
    "orrah": 17875,
    "mers": 9610,
    "Ġporthole": 24399,
    "Ġkuiperai": 10935,
    "darkness": 9511,
    "Ġinde": 7372,
    "apparatus": 26563,
    "Ġtemporary": 7980,
    "cham": 10853,
    "covered": 11477,
    "Ġmightier": 18730,
    "Ġinn": 4589,
    "Ġheavier": 13099,
    "purposes": 25021,
    "east": 9115,
    "Ġdazzling": 15210,
    "Ġcharcoal": 19006,
    "yset": 21144,
    "vit": 13800,
    "Ġcomparatively": 9489,
    "representation": 20195,
    "Ġtie": 10750,
    "unken": 10236,
    "Ġtribe": 10751,
    "Ġbeards": 21748,
    "Ġgoose": 5937,
    "Ġcompetition": 14266,
    "hairs": 20903,
    "frau": 15088,
    "Ġquee": 1979,
    "spe": 3558,
    "Ġearthquake": 14627,
    "Ġpassed": 2012,
    "lounged": 26133,
    "Ġports": 10818,
    "Ġinforming": 18742,
    "orses": 6051,
    "star": 12669,
    "Ġusually": 6263,
    "Ġjonah": 3479,
    "Ġinfiltrated": 23319,
    "ville": 6087,
    "Ġfinest": 10391,
    "ine": 404,
    "undoubtedly": 13310,
    "rosc": 17954,
    "enary": 12548,
    "Ġraiment": 22655,
    "Ġunansw": 22053,
    "Ġrol": 3553,
    "Ġhatter": 4113,
    "Ġvoyages": 6908,
    "Ġbou": 17852,
    "bred": 11469,
    "onial": 11566,
    "Ġmagnitudes": 3818,
    "Ġgeneva": 5450,
    "origin": 7582,
    "Ġmediocr": 24081,
    "Ġguest": 7250,
    "Ġscrupled": 25049,
    "forming": 15915,
    "Ġirreducible": 5519,
    "volutions": 16321,
    "eight": 9591,
    "Ġhaze": 18196,
    "Ġunc": 2128,
    "convolutional": 4958,
    "afternoon": 13184,
    "summit": 23415,
    "Ġremoter": 20104,
    "occupied": 12302,
    "Ġchestnuts": 24381,
    "ancient": 9655,
    "Ġhoisted": 5959,
    "laug": 10707,
    "omit": 13973,
    "Ġcandle": 8291,
    "Ġano": 11595,
    "Ġforwards": 12700,
    "Ġshaggy": 13569,
    "Ġcannon": 14153,
    "sively": 13785,
    "Ġlimit": 10443,
    "Ġfluke": 14672,
    "Ġpostp": 12141,
    "ub": 1226,
    "africa": 26308,
    "Ġinterruptions": 24186,
    "ique": 8742,
    "iless": 10281,
    "Ġisn": 7865,
    "Ġtwinkling": 12322,
    "Ġreceipt": 20354,
    "Ġsallow": 12533,
    "Ġcarving": 14442,
    "Ġsuspicions": 9478,
    "Ġpaul": 12060,
    "Ġnaturalists": 10362,
    "Ġswim": 3816,
    "Ġroyal": 5602,
    "irresistible": 18173,
    "Ġheaving": 7601,
    "Ġcarted": 21347,
    "experienced": 15120,
    "Ġscornful": 24996,
    "Ġutensils": 23512,
    "hauled": 20667,
    "sugg": 11836,
    "accordingly": 19213,
    "fat": 8078,
    "dl": 20822,
    "Ġmargaret": 10376,
    "nered": 18488,
    "Ġ/*": 10139,
    "Ġpartial": 2132,
    "metal": 24765,
    "Ġown": 1008,
    "--âĢĺ": 22845,
    "tol": 17672,
    "isition": 11585,
    "Ġdeclined": 9920,
    "Ġmen": 1434,
    "importance": 9988,
    "Ġangular": 19207,
    "enterprise": 24992,
    "Ġincorporate": 20453,
    "oda": 15747,
    "brit": 19197,
    "ty": 1002,
    "itiousness": 21332,
    "Ġregardless": 19323,
    "Ġmaintains": 2149,
    "aly": 1121,
    "quely": 10231,
    "terrific": 25040,
    "dashing": 20835,
    "Ġangry": 5498,
    "Ġadventures": 7747,
    "smile": 23903,
    "stepfather": 19190,
    "Ġembal": 11909,
    "Ġprolong": 6832,
    "frequently": 9978,
    "Ġhollow": 5648,
    "una": 21866,
    "umn": 5835,
    "Ġgigantic": 5914,
    "Ġwaits": 23277,
    "Ġprofanely": 23569,
    "seek": 8836,
    "Ġenhance": 2800,
    "Ġjumbled": 22294,
    "aware": 16293,
    "Ġpreach": 14172,
    "Ġkinds": 14501,
    "respectively": 24700,
    "Ġanatomical": 15075,
    "Ġclad": 12840,
    "Ġbeautiful": 3671,
    "Ġnur": 5710,
    "etch": 9204,
    "Ġju": 10286,
    "Ġpunctil": 20112,
    "Ġlamentations": 17076,
    "Ġexpenses": 11833,
    "putation": 7625,
    "Ġcollinses": 19129,
    "Ġfrenchman": 11283,
    "Ġcustoms": 19651,
    "Ġwars": 17785,
    "Ġrece": 11637,
    "Ġimplicated": 24875,
    "Ġbestow": 6454,
    "hills": 13735,
    "itying": 21991,
    "permission": 15894,
    "ulations": 6028,
    "civilities": 24971,
    "Ġdecomp": 3807,
    "Ġcreat": 1422,
    "Ġfurthest": 22811,
    "Ġsaints": 20673,
    "arily": 4127,
    "wished": 13804,
    "Ġfluctu": 5267,
    "mathemat": 19137,
    "Ġhistories": 14686,
    "Ġpointing": 5661,
    "ac": 741,
    "Ġclubb": 22358,
    "Ġrokovoko": 22403,
    "made": 4808,
    "Ġhorizontally": 17012,
    "Ġsenate": 25214,
    "fra": 8374,
    "iday": 8829,
    "Ġwhistle": 9065,
    "dead": 8179,
    "Ġhollows": 19740,
    "return": 5489,
    "Ġvindict": 13604,
    "Ġtire": 17720,
    "Ġfling": 9660,
    "Ġdefinition": 14403,
    "Ġrested": 9378,
    "Ġune": 4597,
    "Ġaff": 1119,
    "os": 525,
    "Ġcous": 3435,
    "Ġherein": 16189,
    "Ġoblig": 3444,
    "seventy": 10876,
    "Ġseems": 2483,
    "Ġspile": 22125,
    "Ġcruises": 23705,
    "barrel": 17060,
    "Ġsomeone": 6703,
    "thanking": 24330,
    "Ġresponsible": 9885,
    "enges": 13051,
    "Ġerecting": 24652,
    "Ġbiting": 17861,
    "ified": 3226,
    "Ġlessened": 19087,
    "Ġlucas": 3828,
    "Ġelucidated": 26029,
    "walk": 5523,
    "feed": 9292,
    "abern": 21786,
    "Ġsmelling": 16064,
    "voyages": 24855,
    "Ġcister": 13881,
    "Ġshillings": 15833,
    "Ġbowed": 6242,
    "mix": 20973,
    "Ġprograms": 7240,
    "Ġpret": 3036,
    "rated": 6227,
    "Ġcoil": 11816,
    "Ġdrawled": 23986,
    "Ġstretching": 10014,
    "somehow": 12010,
    "darted": 20831,
    "ieved": 3230,
    "Ġdeafened": 25651,
    "apart": 15959,
    "gen": 6502,
    "turbable": 24531,
    "acceptance": 25185,
    "Ġcapering": 21352,
    "erman": 5108,
    "gh": 3797,
    "honey": 20904,
    "Ġcircumstance": 4987,
    "Ġcir": 21339,
    "Ġincites": 22548,
    "Ġcape": 5146,
    "Ġsequel": 14356,
    ";--": 8068,
    "Ġmainten": 16110,
    "Ġdistorted": 14249,
    "dial": 20824,
    "Ġprocession": 11773,
    "lemag": 21370,
    "pile": 17629,
    "penny": 22942,
    "felicity": 25140,
    "Ġnets": 21521,
    "Ġaside": 5234,
    "pay": 10718,
    "ively": 1290,
    "decease": 25557,
    "Ġstripped": 10465,
    "Ġalike": 8146,
    "ego": 4034,
    "Ġ156": 20169,
    "employ": 10895,
    "Ġstubborn": 10413,
    "Ġpoker": 13921,
    "isely": 4487,
    "Ġblossom": 26312,
    "Ġflame": 7449,
    "explain": 1480,
    "Ġlob": 7628,
    "Ġbottomless": 12104,
    "Ġunnear": 22023,
    "Ġconcentrated": 15082,
    "rudential": 16709,
    "irmed": 9238,
    "Ġforeseeing": 23449,
    "Ġomin": 11576,
    "Ġlet": 1114,
    "Ġconceals": 23901,
    "Ġegotistical": 26191,
    "Ġdespatched": 23827,
    "Ġtwink": 8215,
    "civility": 17513,
    "Ġused": 2060,
    "Ġabundantly": 17156,
    "Ġsickness": 10538,
    "Ġtravell": 5576,
    "Ġtapping": 10752,
    "kerchief": 7526,
    "feather": 16041,
    "driver": 14919,
    "Ġcomplicated": 14733,
    "Ġlike": 667,
    "Ġgermans": 25784,
    "Ġwhispers": 14698,
    "Ġlionel": 25286,
    "Ġforesaw": 19127,
    "Ġclay": 7019,
    "Ġbands": 14882,
    "Ġglad": 3326,
    "addition": 13383,
    "apologizing": 26544,
    "Ġtrappers": 23079,
    "Ġdevices": 2942,
    "ĠĠĠĠĠĠĠĠĠĠĠĠĠĠĠĠĠĠĠĠĠĠĠĠĠĠĠĠĠĠĠĠĠĠĠĠĠĠ": 16525,
    "Ġendeared": 26498,
    "adam": 15727,
    "Ġsequence": 1975,
    "stately": 18021,
    "Ġtul": 21158,
    "Ý": 158,
    "Ġcomra": 7184,
    "Ġbattering": 13900,
    "Ġprincipal": 6495,
    "Ġbitterest": 12400,
    "Ġtypically": 1534,
    "Ġconversation": 3330,
    "Ġhandwriting": 14318,
    "Ġpitiless": 19386,
    "Ġwaterproof": 19088,
    "Ġrichest": 26211,
    "Ġhal": 1361,
    "scho": 8759,
    "Ġsensibility": 14510,
    "animated": 14973,
    "stave": 21646,
    "Ġthirst": 7590,
    "swallowed": 14851,
    "Ġfireplace": 13144,
    "Ġmanhat": 22324,
    "Ġbefriend": 18081,
    "Ġmaimed": 21315,
    "ef": 5134,
    "Ġinstinctively": 13458,
    "Ġseek": 4507,
    "Ġexpression": 4515,
    "Ġwhit": 7178,
    "Ġdistantly": 18531,
    "Ġwrung": 14470,
    "Ġevidence": 5269,
    "Ġreflecting": 24751,
    "Ġseem": 915,
    "cooper": 19188,
    "Ġclients": 19731,
    "gir": 8082,
    ".]": 15297,
    "delirium": 14783,
    "Ġrely": 8820,
    "Ġpreferment": 19852,
    "ity": 416,
    "Ġbirth": 6523,
    "?âĢĶ": 3467,
    "Ġsog": 22079,
    "Ġcousin": 3703,
    "delirious": 19504,
    "Ġimmured": 24069,
    "Ġchace": 14178,
    "nings": 9131,
    "Ġhouses": 6138,
    "act": 786,
    "bies": 15311,
    "Ġlegisl": 23531,
    "Ġperceptible": 18452,
    "omuch": 21637,
    "Ġconst": 1912,
    "ament": 2441,
    "Ġchat": 6560,
    "Ġdesol": 6881,
    "Ġchurned": 18385,
    "Ġeaten": 14843,
    "new": 1463,
    "hopper": 23714,
    "Ġadventurous": 16733,
    "Ġconsented": 11295,
    "Ġdifferences": 18713,
    "Ġbennett": 16323,
    "Ġworshipping": 22925,
    "Ġeagle": 13201,
    "Ġconsp": 10224,
    "Ġsad": 3865,
    "when": 1592,
    "Ġdrifting": 19278,
    "stop": 11634,
    "ain": 343,
    "Ġwho": 613,
    "Ġfidelity": 15240,
    "Ġmorass": 22971,
    "Ġmundane": 26429,
    "Ġinvention": 19951,
    "Ġsoothe": 7406,
    ",âĢĿ": 578,
    "Ġcoincidence": 25483,
    "Ġpublished": 11242,
    "Ġviol": 2072,
    "Ġruffled": 25835,
    "Ġsurvived": 14932,
    "whel": 7665,
    "mic": 12486,
    "Ġcedar": 15187,
    "Ġringleader": 26212,
    "heavy": 10574,
    "Ġthanks": 6707,
    "bishop": 13693,
    "Ġfanny": 23389,
    "Ġreturning": 5325,
    "Ġarbitrary": 4736,
    "profound": 16424,
    "tons": 7560,
    "hyp": 15365,
    "Ġconvenience": 11331,
    "Ġarchipelagoes": 14347,
    "lu": 597,
    "Ġsignifies": 19204,
    "Ġhonor": 5664,
    "Ġwedded": 16674,
    "acle": 4715,
    "Ġhundredth": 16517,
    "Á": 130,
    "Ġbackstays": 22651,
    "Ġins": 2783,
    "Ġon": 350,
    "kish": 20933,
    "Ġde": 365,
    "Ġgirl": 3087,
    "Ġmermaid": 17813,
    "Ġpickle": 16722,
    "Ġbye": 12735,
    "icket": 22665,
    "mn": 3574,
    "Ġbluish": 23648,
    "Ġterrible": 5327,
    "Ġforger": 15730,
    "uzzle": 19582,
    "Ġflor": 8561,
    "Ġpenetrated": 13471,
    "ry": 807,
    "Ġbehave": 23294,
    "Ġtut": 8769,
    "lantic": 6363,
    "Ġtraversed": 18891,
    "Ġlasting": 18791,
    "Ġverse": 16602,
    "Ġengrossed": 12993,
    "prot": 6899,
    "queness": 18147,
    "Ġportraits": 20141,
    "means": 9787,
    "long": 2912,
    "Ġjunks": 25113,
    "Ġreserve": 9970,
    "remarks": 23185,
    "difficult": 10057,
    "credit": 12446,
    "ã": 164,
    "Ġup": 463,
    "inked": 12910,
    "her": 488,
    "Ġfurnished": 6474,
    "whims": 22236,
    "Ġroanoke": 22404,
    "urn": 776,
    "county": 25396,
    "console": 22470,
    "suspicions": 25391,
    "ĠĠĠĠĠĠĠĠĠĠĠĠĠĠĠĠ": 1220,
    "whatsoever": 18487,
    "Ġlapl": 19776,
    "Ġcumul": 4180,
    "Ġdelightful": 6320,
    "Ġexaggerate": 25649,
    "Ġconcoct": 19040,
    "Ġord": 3733,
    "Ġpaddling": 25285,
    "Ġwhilst": 9218,
    "¦": 104,
    "gan": 2200,
    "Ġtroubling": 26546,
    "iting": 2160,
    "Ġyouth": 4261,
    "befriend": 22489,
    "Ġdeveloped": 16345,
    "Ġop": 2603,
    "Ġfairness": 9893,
    "explaining": 23136,
    "bag": 7543,
    "thankful": 16806,
    "Ġsnugly": 17111,
    "legs": 13181,
    "sus": 6228,
    "atiate": 12545,
    "Ġtropics": 17066,
    "Ġpush": 9184,
    "stay": 9680,
    "Ġsanct": 15062,
    "Ġfifty": 4622,
    "simon": 16973,
    "Ġfigures": 8629,
    "Ġdates": 6693,
    "better": 7119,
    "Ġawhile": 13829,
    "Ġfoolishly": 19781,
    "Ġdad": 12597,
    "Ġshoes": 7071,
    "tack": 12510,
    "elson": 16370,
    "Ġdenying": 14657,
    "around": 12605,
    "thern": 4953,
    "Ġsatirical": 26279,
    "Ġsinned": 18950,
    "fts": 18696,
    "Ġsunshine": 14494,
    "divided": 25018,
    "engthen": 14456,
    "Ġnursed": 16885,
    "upper": 11538,
    "worth": 8626,
    "Ġsphere": 15881,
    "escaped": 14230,
    "Ġhatred": 8608,
    "Ġshelter": 17008,
    "thrill": 25656,
    "Ġclothing": 18430,
    "pacing": 21020,
    "Ġpecks": 18669,
    "Ġprodigiously": 14930,
    "Ġnervousness": 23555,
    "ource": 5244,
    "Ġreserves": 19669,
    "Ġlaugh": 4114,
    "Ġemboldened": 22995,
    "Ġnorthward": 13320,
    "Ġadapted": 11043,
    "Ġlashing": 11615,
    "Ġfoolish": 5979,
    "Ġcusack": 26433,
    "Ġfeelings": 2455,
    "dig": 4929,
    "Ġcolleague": 17159,
    "Ġstraps": 19309,
    "Ġexisting": 12715,
    "ctuous": 9205,
    "Ġforwarded": 19038,
    "Ġwrist": 8242,
    "Ġinsatiable": 19271,
    "orrow": 2915,
    "proposal": 18754,
    "Ġjackson": 24240,
    "Ġmuse": 13859,
    "Ġthoughtfully": 12977,
    "Ġactiv": 834,
    "Ġoxen": 19949,
    "Ġdepos": 11008,
    "trees": 10731,
    "Ġslavery": 16306,
    "Ġflu": 3277,
    "Ġshrubbery": 18232,
    "Ġendeavour": 4677,
    "Ġsteadily": 8051,
    "Ġefforts": 11803,
    "evade": 24820,
    "confl": 22468,
    "path": 10118,
    "Ġwantonly": 22891,
    "avings": 12021,
    "icable": 6387,
    "Ġgleam": 12306,
    "Ġsubst": 4273,
    "crew": 7545,
    "operations": 19973,
    "amongst": 24672,
    "Ġcontinuing": 14396,
    "comple": 7442,
    "Ġprayer": 16666,
    "Ġturbul": 23611,
    "Ġfrenzy": 13621,
    "Ġpredicting": 2417,
    "Ġvisits": 8222,
    "Ġprimitive": 25061,
    "Ġdiverged": 23593,
    "Ġsalesman": 13667,
    "Ġreeled": 13985,
    "Ġthereof": 22365,
    "Ġdented": 17891,
    "Ġsettlement": 19835,
    "straw": 24093,
    "Ġhotel": 8650,
    "bones": 8371,
    "Ġever": 1181,
    "Ġnow": 691,
    "ites": 3895,
    "Ġboat": 1278,
    "ansion": 10921,
    "Ġguided": 10460,
    "Ġfruitless": 25605,
    "gorge": 22334,
    "faced": 8079,
    "Ġdam": 2216,
    "Ġag": 684,
    "Ġcomprehens": 8319,
    "Ġunguarded": 15848,
    "Ġprefer": 6415,
    "Ġunfrequ": 19507,
    "Ġicicles": 25264,
    "Ġrekindled": 21674,
    "Ġsecluded": 11991,
    "explained": 23137,
    "up": 1283,
    "ck": 436,
    "Ġelapsed": 7653,
    "nal": 1904,
    "Ġgulf": 10635,
    "Ġnavigation": 9992,
    "veral": 2354,
    "Ġmenacing": 23105,
    "aston": 7409,
    "Ġinquiring": 8999,
    "Ġfires": 16471,
    "irement": 18353,
    "Ġswart": 14434,
    "Ġjavan": 24997,
    "honor": 19899,
    "Ġluff": 15650,
    "Ġaristocratic": 20511,
    "ond": 1161,
    "impress": 18051,
    "Ġhazarded": 25654,
    "aution": 9387,
    "Ġresults": 7309,
    "place": 4156,
    "Ġforgery": 25977,
    "Ġmatch": 4528,
    "Ġfair": 2838,
    "sleep": 6510,
    "unct": 18154,
    "Ġslighted": 16566,
    "Ġyojo": 7611,
    "pervading": 18961,
    "Ġbanqu": 12585,
    "Ġmean": 742,
    "Ġimpartial": 15218,
    "ref": 6514,
    "typewritten": 26038,
    "under": 3133,
    "pest": 6964,
    "Ġashes": 7617,
    "Ġespe": 21154,
    "Ġpour": 13913,
    "Ġdeference": 10882,
    "Ġimport": 1046,
    "arpo": 1756,
    "motion": 17606,
    "Ġtarred": 23608,
    "Ġforbearance": 12326,
    "downward": 16619,
    "supplemental": 25874,
    "Ġcontinual": 6777,
    "leep": 4634,
    "rudently": 16710,
    "Ġhedgehogs": 25394,
    "Ġvag": 9707,
    "gin": 4930,
    "Ġtalk": 1968,
    "kily": 20936,
    "od": 355,
    "forget": 11032,
    "Ġsaf": 3999,
    "Ġentr": 14338,
    "shel": 11928,
    "Ġcolumns": 14375,
    "Ġsucc": 12783,
    "anx": 8783,
    "revol": 12537,
    "Ġrecover": 9791,
    "Ġregularizer": 2339,
    "'s": 2471,
    "occ": 4483,
    "Ġstarlight": 24626,
    "Ġinflex": 20635,
    "Ġfamous": 5255,
    "neighbourhood": 10024,
    "ocris": 23708,
    "Ġrainy": 24341,
    "Ġfoundering": 21417,
    "Ġhelpless": 8301,
    "Ġlegitimate": 20641,
    "athy": 14322,
    "Ġmod": 498,
    "Ġthursday": 12641,
    "abilities": 3236,
    "signed": 21060,
    "Ġthrice": 10575,
    "Ġsemicircular": 26068,
    "Ġexplore": 15906,
    "Ġminima": 3462,
    "examined": 17266,
    "Ġcraggy": 23526,
    "grace": 5846,
    "Ġirritation": 20265,
    "Ġtoy": 15631,
    "iously": 2677,
    "Ġfins": 9663,
    "Ġadmon": 15866,
    "Ġsar": 21212,
    "Ġintense": 6157,
    "Ġgord": 21597,
    "Ġplunge": 13442,
    "Ġturk": 6603,
    "Ġfall": 2988,
    "Ġplanted": 9773,
    "bottle": 20144,
    "Ġdelayed": 9517,
    "engagements": 25853,
    "Ġindistinct": 17407,
    "ille": 9219,
    "breaking": 14762,
    "liked": 10508,
    "Ġbrightest": 13223,
    "Ġregret": 5561,
    "Ġheadstrong": 14387,
    "swam": 24254,
    "Ġalthough": 4153,
    "Ġhanged": 17924,
    "Ġslope": 14459,
    "nur": 11505,
    "Ġdecomposes": 5506,
    "Ġsustenance": 19932,
    "Ġexpectations": 13142,
    "Ġspokes": 18313,
    "accompl": 9879,
    "xter": 9146,
    "Ġpom": 21450,
    "Ġwest": 5219,
    "Ġstrictest": 17042,
    "partiality": 13159,
    "Ġjunior": 15098,
    "Ġchildish": 13136,
    "imprisonment": 23761,
    "Ġentreaty": 10529,
    "Ġlivery": 15998,
    "fa": 7337,
    "Ġtal": 7565,
    "ignorant": 13562,
    "Ġenterprise": 8641,
    "Ġbreast": 8968,
    "Ġblood": 3169,
    "Ġdarts": 16768,
    "toss": 22563,
    "Ġtenderly": 11314,
    "ĠdÃ¦mon": 7844,
    "fully": 2204,
    "looked": 6083,
    "Ġreminded": 9998,
    "urches": 12682,
    "Ġsquares": 11169,
    "paralleled": 14509,
    "Ġcostly": 23583,
    "Ġflights": 24753,
    "Ġreal": 1635,
    "Ġembracing": 14979,
    "Ġstrokes": 16769,
    "Ġattitudes": 16094,
    "Ġundeviating": 15216,
    "Ġaglow": 22511,
    "Ġapprehensiveness": 16877,
    "vial": 17697,
    "Ġcomfortless": 23910,
    "joining": 19444,
    "Ġdem": 11673,
    "sme": 17658,
    "Ġcommended": 18656,
    "Ġoccupies": 24005,
    "atum": 21258,
    "Ġmum": 13857,
    "Ġsmite": 22554,
    "Ġgentleman": 3041,
    "oney": 3049,
    "hate": 20891,
    "Ġpatch": 4182,
    "departed": 24794,
    "Ġextracting": 11104,
    "Ġdeliverer": 11949,
    "previously": 17207,
    "Ġbuildings": 24720,
    "Ġadmits": 23553,
    "Ġdoubling": 23313,
    "runs": 25415,
    "Ġaccomplished": 7104,
    "Ġalongside": 6311,
    "ificial": 609,
    "seized": 14034,
    "il": 329,
    "Ġpatron": 7462,
    "Ġsophisticated": 1598,
    "Ġaccost": 12843,
    "Ġremarked": 3694,
    "ichever": 13956,
    "Ġout": 543,
    "inform": 10143,
    "Ġfet": 5807,
    "Ġdep": 747,
    "ispens": 8335,
    "particulars": 11315,
    "Ġrightly": 13062,
    "Ġcrozetts": 19628,
    "Ġpope": 11601,
    "Ġfacial": 10605,
    "Ġpresto": 22227,
    "Ġcomputers": 2646,
    "Ġdissimilar": 22528,
    "Ġhaws": 21948,
    "Ġtrad": 9827,
    "Ġslee": 8974,
    "Ġ24": 13190,
    "Ġinches": 5845,
    "Ġenjoyment": 7301,
    "ĵ": 246,
    "Ġsidel": 9635,
    "anum": 17835,
    "Ġbough": 13893,
    "Ġneeds": 6605,
    "definition": 23115,
    "Ġtribes": 20479,
    "yield": 13808,
    "Ġsensible": 4976,
    "Ġgomorrah": 21612,
    "cont": 2920,
    "widely": 25343,
    "aned": 5147,
    "Ġprovided": 6577,
    "er": 269,
    "tender": 14473,
    "Ġunst": 18238,
    "mere": 11853,
    "Ġstiffest": 24829,
    "fare": 7798,
    "scoured": 22989,
    "Ġambitious": 18514,
    "Ġbabes": 24425,
    "Ġwhel": 15864,
    "Ġbamboo": 17436,
    "latter": 15381,
    "Ġpoured": 8800,
    "odox": 21813,
    "trem": 17681,
    "Ġoversampling": 20514,
    "Ġwards": 17789,
    "94": 4803,
    "Ġsolace": 16198,
    "Ġdistinct": 4608,
    "pent": 3492,
    "Ġwad": 13850,
    "mency": 18925,
    "finger": 10093,
    "Ġpam": 21452,
    "Ġimpulses": 19960,
    "Ġproportionably": 19969,
    "majesty": 26280,
    "Ġmeadows": 11422,
    "Ġwithhold": 18115,
    "assembled": 21542,
    "Ġpane": 21461,
    "Ġdusk": 12325,
    "Ġeddies": 23436,
    "Ġsle": 2015,
    "Ġhyena": 24519,
    "irst": 880,
    "bohem": 19001,
    "Ġsquat": 14367,
    "Ġsolutions": 1946,
    "roylott": 20025,
    "ale": 504,
    "etus": 21575,
    "Ġwhom": 1829,
    "Ġreassure": 21669,
    "inclined": 10639,
    "Ġinstantly": 3589,
    "Ġgenteel": 19979,
    "joke": 20929,
    "Ġconciliating": 19042,
    "Ġshivering": 10265,
    "castles": 14635,
    "ieving": 7031,
    "Ġdow": 17886,
    "Ġphil": 3385,
    "Ġstudent": 14475,
    "symp": 14611,
    "Ġexposure": 16097,
    "Ġconfessed": 8008,
    "unwilling": 14060,
    "Ġpressed": 6041,
    "Ġmazes": 25940,
    "Ġmoods": 14949,
    "Ġcorpusants": 13676,
    "twig": 23699,
    "olic": 14041,
    "Ġcheck": 7272,
    "Ġhurrah": 9868,
    "Ġ_": 841,
    "likes": 18814,
    "Ġinitial": 822,
    "darkened": 24517,
    "Ġunappe": 22013,
    "Ġarctic": 12809,
    "living": 7133,
    "Ġembarkation": 25123,
    "stiff": 12672,
    "ies": 582,
    "substance": 15230,
    "Ġseventeen": 26210,
    "Ġwick": 2007,
    "clock": 3929,
    "Ġsm": 704,
    "Ġmathemat": 3202,
    "'d": 12425,
    "Ġblinding": 14726,
    "Ġgable": 15664,
    "Ġballasted": 23977,
    "slightest": 25416,
    "Ġfumbling": 21415,
    "Ġmountain": 3372,
    "Ġcruc": 16534,
    "Ġgib": 13964,
    "Ġedward": 19119,
    "chancing": 22913,
    "Ġindies": 22953,
    "Ġdif": 870,
    "ux": 7813,
    "kilt": 4866,
    "lesson": 22771,
    "amuse": 14051,
    "omination": 21639,
    "Ġreproached": 24891,
    "Ġaverted": 16251,
    "Ġrepose": 6741,
    "lovel": 22507,
    "Ġcreatures": 4139,
    "suspect": 9539,
    "cause": 7795,
    "wam": 10135,
    "Ġhospital": 15039,
    "Ġidentified": 19150,
    "nial": 20983,
    "Ġnameless": 7699,
    "Ġmillions": 11354,
    "dissatisf": 26129,
    "windows": 19533,
    "Ġanat": 8123,
    "beware": 16037,
    "av": 739,
    "Ġmout": 17798,
    "order": 1958,
    "Ġguess": 4903,
    "_âĢĶâĢĻâĢĿ": 25741,
    "Ġdesolate": 10012,
    "Ġpremeditated": 22231,
    "Ġreservoir": 20650,
    "ained": 3066,
    "oko": 18440,
    "Ġurgent": 16869,
    "Ġsmacking": 20164,
    "ceptibly": 22343,
    "direct": 12454,
    "Ġblades": 11893,
    "Ġiteratively": 3058,
    "Ġscowl": 22282,
    "Ġenters": 11025,
    "Ġtruest": 16703,
    "Ġtriumphal": 24371,
    "Ġwrinkled": 7265,
    "transp": 24512,
    "headsman": 16700,
    "Ġcreator": 7256,
    "Ġgarnery": 17386,
    "Ġrotation": 25474,
    "Ġconsec": 21802,
    "Ġinsince": 23678,
    "bast": 10076,
    "smote": 23907,
    "mown": 20969,
    "Ġsympt": 7012,
    "endar": 18364,
    "vicinity": 20478,
    "wouldn": 23532,
    "Ġscor": 8189,
    "Ġmutter": 23951,
    "Ġsmo": 2701,
    "Ġfronted": 25854,
    "Ġinexplicable": 12254,
    "Ġwhither": 10214,
    "Ġare": 527,
    "exceedingly": 9566,
    "Ġpiazza": 26450,
    "carp": 9109,
    "incidentally": 20538,
    "Ġautoregressive": 3431,
    "Ġutterly": 6100,
    "Ġinsignificance": 20456,
    "Ē": 211,
    "Ġvirgin": 7329,
    "Ġbended": 21383,
    "astonishment": 10029,
    "Ġdetest": 8500,
    "Ġhaz": 12752,
    "ĠĠĠĠĠĠĠĠĠĠĠĠĠĠ": 22560,
    "Ġdescribes": 3123,
    "shirt": 22457,
    "Ġgrowl": 16537,
    "Ġvirtuous": 14753,
    "conversation": 7122,
    "Ġeffect": 968,
    "Ġsalutation": 12395,
    "transform": 8049,
    "james": 15371,
    "Ġgraphs": 25463,
    "Ġarve": 15900,
    "Ġpages": 15605,
    "Ġtraitors": 23076,
    "Ġwapping": 21293,
    "Ġyou": 366,
    "Ġriot": 14687,
    "Ġcanv": 7009,
    "Ġgrate": 12961,
    "Ġend": 1485,
    "Ġanybody": 5313,
    "Ġcringing": 25941,
    "Ġmornings": 16234,
    "Ġmate": 3706,
    "trying": 15437,
    "ernal": 4311,
    "Ġchestnut": 19671,
    "hing": 980,
    "ieve": 1656,
    "Ġstock": 7456,
    "âĢĿ)": 21808,
    "Ġneared": 14072,
    "Ġfun": 524,
    "Ġavoid": 5199,
    "hammock": 16352,
    "temper": 10003,
    "mpt": 6653,
    "Ġstudents": 23209,
    "Ġgettest": 23231,
    "Ġglorious": 11075,
    "Ġsqualidness": 25842,
    "abil": 2009,
    "Ġdairy": 20685,
    "Ġimaginary": 11186,
    "Ġdarling": 12601,
    "Ġinter": 729,
    "Ġincul": 22546,
    "Ġcomplied": 14732,
    "Ġwhereby": 11834,
    "crowning": 25748,
    "Ġsiam": 13837,
    "Ġshipwrecked": 25687,
    "Ġeccentric": 13648,
    "Ġbeam": 2881,
    "Ġromish": 19583,
    "Ġpivot": 13922,
    "burnt": 20078,
    "entirely": 7781,
    "Ġcombing": 22846,
    "Ġvineyard": 12328,
    "Ġgone": 2109,
    "Ġstoop": 16309,
    "mitting": 17602,
    "Ġsurgeons": 23463,
    "Ġgrinning": 9053,
    "Ġencamped": 22798,
    "Ġimmaculate": 19484,
    "Ġtou": 15465,
    "eryton": 4093,
    "Ġdetestation": 17127,
    "enter": 7857,
    "suitable": 18632,
    "Ġprouder": 18973,
    "Ġhogarth": 25780,
    "Ġfrequented": 16585,
    "stretching": 20497,
    "deeply": 16179,
    "Ġpleasures": 11143,
    "Ġamounted": 18513,
    "Ġimbu": 15889,
    "Ġpoetic": 17103,
    "waistcoat": 17360,
    "Ġquebec": 24133,
    "Ġcripple": 11440,
    "Ġdoomed": 11342,
    "Ġdeterm": 1271,
    "ridden": 24362,
    "Ġglimmer": 15140,
    "Ġobsequ": 14319,
    "Ġseeth": 21957,
    "Ġfarthest": 23113,
    "acies": 14276,
    "lane": 10706,
    "Ġpretending": 19314,
    "Ġunspeakable": 10055,
    "uation": 17694,
    "ableness": 8148,
    "Ġmourning": 13477,
    "Ġfamilies": 8026,
    "Ġreligion": 11415,
    "Ġperman": 10965,
    "Ġdre": 1745,
    "consc": 4840,
    "balanced": 14555,
    "Ġprogrammed": 11057,
    "elsewhere": 19867,
    "Ġeating": 8135,
    "pus": 3413,
    "itarian": 21335,
    "Ġfreshet": 25704,
    "necessary": 5881,
    "Ġitems": 9691,
    "Ġpassion": 4556,
    "Ġantarctic": 19551,
    "Ġportent": 12079,
    ",)": 9100,
    "Ġgpt": 4349,
    "het": 5435,
    "tempestuous": 26097,
    "ve": 322,
    "Ġeasterly": 25962,
    "Ġweig": 7619,
    "Ġdisk": 22519,
    "Ġunmolested": 15244,
    "girl": 12316,
    "Ġtaste": 5524,
    "Ġindu": 5293,
    "Ġpractical": 3164,
    "Ġlodgings": 8311,
    "Ġabed": 22262,
    "Ġjournal": 15217,
    "Ġannot": 15599,
    "Ġhopeful": 19028,
    "ruding": 9723,
    "Ġne": 390,
    "Ġjuggl": 20436,
    "cellar": 20276,
    "Ġchancing": 22245,
    "ters": 1571,
    "Ġsatisf": 2809,
    "Ġknow": 631,
    "arrang": 14651,
    "Ġfashions": 17885,
    "Ġrazor": 22658,
    "Ġslabs": 13058,
    "Ġmorbid": 16233,
    "beheaded": 22490,
    "iply": 22350,
    "Ġmanufactured": 22327,
    "volutional": 1935,
    "bowl": 14889,
    "excepting": 19705,
    "osop": 4403,
    "Ġsand": 6235,
    "attle": 4464,
    "appe": 2945,
    "tackle": 17320,
    "anguish": 15981,
    "Ġbless": 4341,
    "cular": 15327,
    "whenever": 11879,
    "Ġrattle": 10899,
    "Ġreposing": 23359,
    "Ġwatchman": 23667,
    "Ġwat": 1286,
    "Ġborder": 10169,
    "Ġbubble": 13534,
    "Ġdiscrimination": 23604,
    "Ġstretch": 6993,
    "rison": 13778,
    "swe": 5995,
    "nnight": 20992,
    "Ġmounted": 7832,
    "ival": 4227,
    "athies": 22697,
    "obtained": 23093,
    "Ġmulti": 1044,
    "Ġslew": 23381,
    "ignified": 14490,
    "state": 13978,
    "Ġunexplored": 26518,
    "Ġslouched": 13056,
    "Ġdescended": 7429,
    "octial": 20003,
    "Ġcalves": 13032,
    "Ġthe": 270,
    "Ġhereafter": 9329,
    "Ġnervous": 2405,
    "Ġvalley": 5850,
    "ighter": 7967,
    "Ġhorizont": 6937,
    "puzz": 17640,
    "proble": 9393,
    "Ġwester": 25152,
    "Ġdiscredit": 22778,
    "Ġweapon": 7775,
    "Ġcall": 2075,
    "lanterns": 17428,
    "Ġoutbreak": 22314,
    "simply": 20669,
    "Ġsockets": 22083,
    "phon": 4128,
    "Ġgratifying": 13304,
    "Ġsauntering": 18327,
    "chel": 11207,
    "remembrance": 25702,
    "Ġcovering": 13253,
    "Ġhind": 9188,
    "france": 24282,
    "Ġscuttle": 7415,
    "proves": 23392,
    "forbid": 14350,
    "Ġslewed": 23383,
    "solving": 3101,
    "P": 52,
    "Ġsple": 21214,
    "Ġcrimin": 6901,
    "Ġscheming": 23268,
    "Ġadmiral": 17304,
    "Ġtunnel": 14928,
    "abases": 3007,
    "Ġconsol": 3811,
    "Ġinvestigations": 17246,
    "greatly": 16623,
    "Ġmortifying": 13243,
    "wise": 2576,
    "ĠâĢľâĢĺ_": 25111,
    "omorrah": 18017,
    "Ġcontrary": 5260,
    "Ġbewitching": 25976,
    "chain": 18039,
    "Ġputting": 5326,
    "Ġwithered": 19463,
    "Ġidleness": 11144,
    "Ġfired": 16152,
    "Ġexpl": 487,
    "Ġspin": 7630,
    "Ġworried": 22923,
    "Ġdan": 8792,
    "apprehens": 17405,
    "ased": 1269,
    "Ġadmeasurements": 26225,
    "Ġarguing": 25470,
    "Ġmight": 962,
    "oss": 10115,
    "Ġapplications": 4784,
    "Ġdestitute": 14565,
    "Ġetc": 7084,
    "rum": 3414,
    "Ġidolator": 19996,
    "eon": 8729,
    "advanced": 19587,
    "Ġperfection": 19218,
    "Ġdeft": 21834,
    "Ġgro": 4395,
    "ratulations": 20124,
    "Ġsunlight": 13083,
    "Ġclutch": 15053,
    "ñ": 178,
    "Ğ": 223,
    "promote": 24727,
    "Ġmiller": 19882,
    "ĠĠĠĠĠĠĠĠĠĠĠĠĠĠĠĠĠĠĠĠĠĠĠĠĠĠĠĠĠĠĠĠĠĠĠĠĠĠĠĠĠĠĠĠĠĠĠĠĠ": 20036,
    "silence": 8044,
    "Ġcring": 15549,
    "Ġunintellig": 22021,
    "sub": 4659,
    "Ġscoundrel": 13669,
    "Ġcompetent": 11814,
    "women": 15455,
    "Ġring": 4450,
    "Ġoffered": 5816,
    "Ġgroans": 14822,
    "reproof": 25432,
    "Ġtottenham": 24142,
    "Ġthreatening": 16828,
    "Ġbeadle": 26484,
    "ishes": 6522,
    "Ġboisterously": 25682,
    "Ġpyth": 21459,
    "Ġaffairs": 6877,
    "ded": 2423,
    "oqu": 7556,
    "Ġjoyous": 14662,
    "Ġalex": 15132,
    "astern": 8581,
    "Ġgenus": 24429,
    "unteered": 26495,
    "Ġdiabol": 11453,
    "Ġformer": 3323,
    "uted": 7593,
    "Ġunfortunately": 10909,
    "ishing": 1143,
    "come": 2378,
    "Ġafore": 10758,
    "fainting": 20471,
    "sli": 11522,
    "Ġcircumstantial": 14642,
    "lished": 8382,
    "verse": 9687,
    "Ġprotection": 9460,
    "Ġmiserably": 12945,
    "Ġdestructive": 23485,
    "sue": 2077,
    "Ġmedit": 8018,
    "Ġhuge": 4699,
    "Ġwearing": 12736,
    "straight": 9939,
    "Ġrealising": 18982,
    "Ġskylight": 24070,
    "exagger": 22427,
    "cient": 4568,
    "Ġconception": 10317,
    "Ġagency": 11804,
    "Ġexponentially": 1442,
    "Ġpowdered": 24237,
    "Ġeddystone": 25709,
    "Ġdisd": 7030,
    "overlooked": 23317,
    "kempt": 20940,
    "tray": 21076,
    "ter": 359,
    "aped": 3762,
    "sher": 5217,
    "Ġsan": 7824,
    "prejudiced": 17296,
    "educ": 10828,
    "fted": 9118,
    "Ġtrooped": 24899,
    "Ġremaining": 6188,
    "isson": 23460,
    "Ġteacher": 22914,
    "note": 14339,
    "Ġneighbours": 8302,
    "Ġbowl": 11204,
    "Ġshut": 3939,
    "Ġusefulness": 19406,
    "Ġfiftieth": 24703,
    "apers": 3480,
    "Ġflip": 11911,
    "Ġgovernment": 15175,
    "Ġgraze": 18226,
    "Ġgans": 5821,
    "meas": 7435,
    "lab": 3455,
    "Ġblemish": 19678,
    "Ġdirty": 9178,
    "Ġloop": 14146,
    "Ġhoof": 23351,
    "Ġtigris": 25759,
    "Ġchimneys": 16972,
    "Ġobjective": 3763,
    "Ġcause": 2411,
    "Ġwithdrew": 9695,
    "Ġpatients": 24813,
    "Ġanticipated": 13510,
    "Ġrefuge": 8539,
    "pretending": 17041,
    "utch": 21583,
    "Ġdemeanour": 17336,
    "Ġthence": 8881,
    "Ġearls": 18903,
    "Ġstrewed": 23420,
    "Ġconve": 5455,
    "Ġeverlasting": 9336,
    "Ġentail": 9792,
    "Ġcomprehend": 6493,
    "Ġhindrance": 25220,
    "Ġmale": 9648,
    "Ġsepulchral": 25892,
    "ĥ": 230,
    "impe": 21705,
    "hr": 20887,
    "Ġmoderate": 10939,
    "Ġfaire": 13363,
    "Ġbusy": 6189,
    "rest": 1632,
    "ustomed": 6098,
    "inable": 11555,
    "Ġginger": 9210,
    "Ġfierceness": 26265,
    "Ġsay": 933,
    "of": 768,
    "untary": 9866,
    "Ġoffences": 18693,
    "seat": 18125,
    "Ġsuav": 22084,
    "Ġyarns": 15194,
    "Ġklan": 23661,
    "Ġquiet": 3261,
    "carpenter": 11427,
    "pl": 401,
    "Ġsituations": 10491,
    "Ġwast": 21857,
    "tain": 558,
    "Ġsparks": 22130,
    "Ġwhims": 12689,
    "ighb": 10423,
    "Ġunlike": 7004,
    "Ġuncles": 23429,
    "ert": 2633,
    "clump": 23150,
    "Ġattentive": 9033,
    "yonder": 21143,
    "icles": 17972,
    "achable": 14129,
    "venerable": 26408,
    "ffy": 18316,
    "Ġvulgar": 13603,
    "learn": 2364,
    "Ġlastly": 16203,
    "Ġtoday": 12640,
    "Ġworks": 5857,
    "masculine": 24387,
    "ink": 756,
    "Ġembod": 14418,
    "Ġsequential": 2136,
    "gers": 8375,
    "Ġamends": 14245,
    "Ġexh": 5232,
    "woes": 21132,
    "Ġbeacon": 21753,
    "olds": 9310,
    "Ġcircumnavigation": 20398,
    "agings": 18165,
    "Ġdecayed": 22822,
    "Ġhove": 17922,
    "expose": 23663,
    "Ġappo": 8497,
    "Ġconfinement": 19034,
    "cstasy": 11445,
    "Ġmainmast": 9778,
    "Ġform": 1023,
    "Ġtumb": 21168,
    "Ġequival": 4783,
    "Ġardently": 9497,
    "prim": 23808,
    "successfully": 14990,
    "braces": 24658,
    "ancholy": 5070,
    "Ġfeigned": 22208,
    "ā": 194,
    "Ġpreaching": 15924,
    "oses": 3943,
    "Ġcrow": 3801,
    "Ġchains": 8250,
    "vand": 21107,
    "Ġ89": 19711,
    "inno": 10756,
    "Ġdisappeared": 5645,
    "Ġ97": 19773,
    "Ġproposition": 23247,
    "ringle": 21039,
    "Ġventil": 8019,
    "Ġage": 3893,
    "rians": 21922,
    "gird": 20878,
    "Ġmorris": 18849,
    "Ġcharacteristics": 8609,
    "Ġdistribution": 2020,
    "Ġentreated": 9950,
    "discernible": 20549,
    "Ġwas": 370,
    "ignorance": 17161,
    "Ġwillow": 18530,
    "tr": 3577,
    "Ġprofuse": 23565,
    "utes": 5913,
    "Ġarmy": 11739,
    "peculiarities": 13470,
    "Ġpouring": 12621,
    "Ġunt": 2294,
    "Ġreasonably": 11086,
    "Ġtobacco": 8366,
    "Ġdischarged": 15219,
    "accounted": 16501,
    "vess": 7355,
    "Ġbridge": 8348,
    "Ġaboard": 6697,
    "Ġarts": 11007,
    "Ġclanking": 20610,
    "strained": 21655,
    "unearthly": 19272,
    "Ġclapped": 9745,
    "Ġplainly": 4379,
    "Ġbitten": 21388,
    "compose": 24029,
    "Ġreaped": 18029,
    "Ġmichaelmas": 26374,
    "ders": 8074,
    "rous": 3750,
    "interval": 7990,
    "Ġlaughter": 9027,
    "Ġbec": 1349,
    "ĠâĢĶ": 13810,
    "damp": 15342,
    "Ġabaft": 22271,
    "iem": 20916,
    "Ġhampshire": 15241,
    "endom": 15921,
    "Ġgust": 21594,
    "Ġspire": 18306,
    "Ġdespised": 14665,
    "Ġinflu": 4909,
    "Ġbecause": 2211,
    "Ġunwe": 15836,
    "Ġcast": 3603,
    "Ġmastiff": 23724,
    "Ġwords": 1324,
    "Ġter": 2051,
    "ible": 1117,
    "Ġpap": 8797,
    "Ġremorse": 6440,
    "per": 479,
    "Ġpeak": 16124,
    "Ġpocket": 4898,
    "ushing": 5731,
    "roused": 16652,
    "Ġlikened": 16499,
    "aire": 10680,
    "Ġcarelessly": 11120,
    "Ġk": 485,
    "Ġemployments": 12100,
    "arned": 21814,
    "aneously": 4059,
    "untarily": 6312,
    "Ġsanctified": 25883,
    "ailed": 3247,
    "Ġtired": 9149,
    "Ġpir": 6818,
    "Ġchilian": 25563,
    "mblings": 19779,
    "Ġflooded": 24959,
    "battle": 12440,
    "Ġarchy": 14346,
    "Ġimpatiently": 8337,
    "Ġaloysius": 15735,
    "Ġembarrassed": 11384,
    "Ġsubstituting": 26326,
    "ion": 296,
    "Ġaccident": 5380,
    "Ġerrors": 2597,
    "medium": 23637,
    "Ġturner": 7049,
    "Ġnarrow": 5086,
    "Ġextraordinary": 5414,
    "Ġcounting": 13092,
    "Ġembattled": 26289,
    "sect": 8152,
    "Ġexclaiming": 13640,
    "Ġdumbly": 24985,
    "Ġlightly": 13082,
    "ribs": 23363,
    "Ġkettle": 26232,
    "==": 943,
    "Ġformality": 22825,
    "Ġindisc": 16227,
    "Ġclub": 8873,
    "ascending": 24707,
    "Ġdromedary": 17438,
    "Ġaccorded": 24087,
    "Ġbott": 3149,
    "Ġsurm": 7477,
    "Ġrot": 10967,
    "ange": 1018,
    "fif": 9116,
    "pursuit": 20339,
    "Ġser": 1668,
    "Ġaspired": 25984,
    "Ġeag": 2969,
    "angered": 16176,
    "Ġkeeps": 8266,
    "Ġrescales": 5068,
    "Ġmildly": 9029,
    "neither": 9756,
    "ners": 3271,
    "specific": 10497,
    "Ġrecommence": 16812,
    "urbed": 15706,
    "Ġyielding": 12184,
    "insensibility": 23067,
    "Ġcook": 3710,
    "Ġlabeled": 3716,
    "Ġantiqu": 12142,
    "too": 4506,
    "conf": 4957,
    "bread": 10684,
    "Ġapplied": 6186,
    "inkle": 22611,
    "insulting": 26054,
    "Ġpick": 4256,
    "tch": 9141,
    "describe": 1513,
    "Ġantique": 19550,
    "Ġcomprehensive": 15086,
    "Ġpalp": 11251,
    "Ġtour": 9147,
    "Ġflitting": 13024,
    "ppers": 7618,
    "arthly": 8029,
    "Ġtrained": 8502,
    "nib": 5214,
    "Ġconcepts": 4550,
    "Ġsustained": 13481,
    "Ġspanish": 2829,
    "Ġbenches": 18780,
    "movement": 25577,
    "Ġgamesome": 17289,
    "Ġfragrant": 13100,
    "Ġmethodic": 23172,
    "fever": 22498,
    "probably": 10019,
    "cc": 474,
    "Ġcherub": 23283,
    "Ġharpooneers": 4731,
    "momentum": 4991,
    "disagreeable": 11163,
    "nurtured": 25524,
    "fulfil": 16034,
    "Ġplus": 3880,
    "great": 3515,
    "list": 7552,
    "altern": 17941,
    "engine": 18926,
    "Ġsighing": 18673,
    "Ġamend": 16033,
    "Ġdisse": 18548,
    "izure": 21831,
    "suppose": 8644,
    "Ġsubdiv": 16157,
    "Ġerudite": 26350,
    "abhorred": 17335,
    "atmosphere": 21263,
    "Ġberry": 19745,
    "loo": 10319,
    "Ġlitter": 19828,
    "Ġshows": 8482,
    "insufferable": 21191,
    "Ġconjoined": 21803,
    "Ġdrama": 16327,
    "ositions": 10283,
    "intend": 16222,
    "Ġway": 1084,
    "Ġstormy": 16728,
    "Ġcure": 21338,
    "ays": 6683,
    "stud": 8819,
    "Ġsupercil": 23453,
    "erick": 13847,
    "Ġscre": 9736,
    "'(": 2980,
    "omy": 6248,
    "etting": 21577,
    "Ġwriggling": 15256,
    "Ġelix": 22642,
    "Ġcommunicated": 9061,
    "phant": 6287,
    "Ġneedles": 11184,
    "Ġscholar": 26111,
    "acknowledge": 18468,
    "Ġdevouring": 11858,
    "rev": 17756,
    "Ġthickness": 13274,
    "ford": 2824,
    "Ġunreasonable": 12774,
    "Ġincreasing": 8246,
    "Ġinterpre": 1591,
    "proof": 16422,
    "Ġopium": 8994,
    "ape": 1907,
    "harmony": 25750,
    "Ġvexations": 24609,
    "pike": 11514,
    "charming": 15703,
    "Ġbranded": 14378,
    "Ġstaring": 8824,
    "reinforcement": 7826,
    "umed": 6554,
    "Ġwhen": 513,
    "Ġdimens": 3150,
    "Ġdefer": 18822,
    "Ġpregn": 22229,
    "Ġequ": 1733,
    "Ġbrooding": 18907,
    "shooting": 16965,
    "Ġbubbles": 11398,
    "Ġestablish": 9542,
    "pit": 3980,
    "Ġcuba": 25095,
    "Ġfearful": 6197,
    "Ġaffection": 2641,
    "childhood": 16868,
    "wed": 5003,
    "itters": 10781,
    "sister": 5139,
    "Ġsmoky": 22555,
    "Ġadmires": 19684,
    "Ġdeadliest": 14556,
    "Ġart": 746,
    "dinner": 11406,
    "Ġserpentine": 11360,
    "Ġnewcomer": 26040,
    "properly": 24918,
    "opatra": 22474,
    "tears": 11036,
    "created": 12448,
    "Ġlanguages": 1567,
    "Ġalbert": 12703,
    "Ġdemon": 7868,
    "ancho": 4938,
    "Ġsturgeon": 20590,
    "Ġpirates": 9073,
    "odious": 21812,
    "Ġsecretly": 13268,
    "pencil": 18827,
    "Ġtorch": 25030,
    "Ġevenness": 22830,
    "Ġcompares": 20165,
    "Ġtracing": 18888,
    "Ġinflexibly": 26370,
    "influences": 25250,
    "Ġelizabeth": 1130,
    "_)âĢĶ": 20143,
    "Ġvalidation": 2358,
    "ĠĠĠ": 2119,
    "Ġprobably": 4313,
    "Ġreserved": 7516,
    "posterity": 25488,
    "noo": 9785,
    "Ġalarmed": 6923,
    "Ġgranite": 22805,
    "amiable": 14052,
    "Ġrushes": 20506,
    "Ġdante": 21436,
    "baked": 20778,
    "Ġdecember": 15007,
    "Ġmount": 7363,
    "Ġamph": 18511,
    "Ġrefusal": 10344,
    "Ġtriumphantly": 11287,
    "Ġferule": 24499,
    "Ġai": 3129,
    "Ġforb": 11662,
    "Ġwrinkles": 8570,
    "Ġoverhear": 15968,
    "Ġcheever": 23280,
    "Ġ92": 24590,
    "progression": 20380,
    "Ġfirmament": 19469,
    "circumspect": 26086,
    "Ġrelevant": 1864,
    "Ġpro": 360,
    "Ġtrotting": 19974,
    "Ġmouth": 3180,
    "thirty": 12759,
    "resentment": 15184,
    "Ġtainted": 21169,
    "boo": 16349,
    "Ġadaptively": 3947,
    "shunned": 22464,
    "Ġappalling": 8498,
    "disposed": 25010,
    "ithing": 11648,
    "Ġtriumph": 5143,
    "Ġobli": 9315,
    "Ġirretrie": 23372,
    "necess": 4896,
    "Ġdiggings": 24649,
    "Ġneurons": 976,
    "Ġforenoon": 19126,
    "Ġireland": 17334,
    "Ġplucked": 15112,
    "Ġrow": 5309,
    "Ġtown": 2457,
    "Ġpassers": 18757,
    "sharks": 14240,
    "Ġmisgivings": 15290,
    "speaks": 19718,
    "Ġrelationships": 2925,
    "ingley": 1544,
    "Ġplanning": 14749,
    "Ġmorphology": 3011,
    "ateness": 15518,
    "Ġblows": 5972,
    "Ġvane": 22871,
    "Ġactivity": 7919,
    "Ġbordering": 17228,
    "Ġtask": 1310,
    "Ġreusable": 13556,
    "Ġsmoke": 4714,
    "year": 11095,
    "ingu": 2123,
    "Ġsickening": 19603,
    "thodox": 21985,
    "alogue": 25159,
    "Ġarrow": 10931,
    "Ġheaped": 18037,
    "Ġclaps": 22356,
    "Ġdictate": 20150,
    "Ġdiscre": 2418,
    "ruction": 4356,
    "Ġsinew": 25431,
    "Ġkicking": 16901,
    "Ġsquid": 11876,
    "Ġscript": 18398,
    "Ġmaid": 5285,
    "Ġdistracted": 11801,
    "Ġcrossing": 7254,
    "Ġpauper": 26179,
    "Ġblubber": 5666,
    "Ġhist": 2447,
    "retch": 4369,
    "Ġrespectively": 23245,
    "Ġcoer": 22578,
    "bation": 9102,
    "somers": 19366,
    "Ġobstinacy": 17420,
    "traced": 19636,
    "Ġungenerous": 18266,
    "imens": 1748,
    "Ġpresence": 5031,
    "Ġpersever": 10002,
    "addressed": 13384,
    "ugues": 19020,
    "Ġperplex": 2716,
    "Ġaloud": 6252,
    "Ġspaniard": 20361,
    "lled": 10107,
    "Ġtoe": 13935,
    "Ġdistrust": 8203,
    "than": 4088,
    "mosphere": 10042,
    "Ġstripping": 23696,
    "arbuck": 2026,
    "Ġsecured": 6745,
    "without": 4846,
    "Ġwages": 13853,
    "Ġimp": 581,
    "Ġpreposter": 12819,
    "Ġnumber": 1981,
    "glances": 23851,
    "Ġheart": 1595,
    "Ġinconvenient": 20008,
    "embraced": 25806,
    "Ġhogshead": 26367,
    "Ġoysters": 20577,
    "sized": 15427,
    "Ġrambles": 17184,
    "¹": 122,
    "Ġmagnified": 23203,
    "painting": 17046,
    "Ġmoot": 22429,
    "borean": 25743,
    "Ġcritical": 7476,
    "Ġirrespective": 23373,
    "Ġallow": 1128,
    "Ġsprang": 5064,
    "Ġcord": 5222,
    "Ġadvantage": 4315,
    "Ġunf": 4089,
    "ourse": 8869,
    "oo": 7554,
    "Ġoccurrence": 14381,
    "Ġplat": 8520,
    "times": 8098,
    "Ġbrute": 8926,
    "Ġarrived": 3744,
    "mile": 17597,
    "recurring": 24194,
    "ructive": 18543,
    "Ġbigger": 19760,
    "wickham": 5883,
    "Ġstupidity": 15049,
    "infor": 3061,
    "rit": 21034,
    "emy": 14074,
    "ow": 325,
    "Ġunprecedented": 15852,
    "Ġheavily": 6740,
    "Ġex": 361,
    "Ġamelia": 26251,
    "ung": 2747,
    "swift": 14850,
    "Ġtash": 13819,
    "Ġinjuring": 24268,
    "ergy": 2362,
    "Ġtaking": 3250,
    "Ġzoology": 22818,
    ">": 34,
    "Ġfort": 2580,
    "Ġforeign": 9871,
    "Ġgruff": 21611,
    "ú": 187,
    "Ġinstruct": 2864,
    "interesting": 12199,
    "Ġsoundings": 13132,
    "Ġrelieve": 8223,
    "Ġweeps": 24947,
    "Ġthrobbing": 16898,
    "Ġhappened": 3711,
    "rapt": 13972,
    "Ġfearlessness": 19160,
    "Ġpaddled": 20200,
    "gging": 7696,
    "xi": 17710,
    "wooden": 24587,
    "prince": 23812,
    "Ġmild": 4149,
    "acters": 9308,
    "Ġpeleg": 3736,
    "Ġservox": 23868,
    "posture": 16927,
    "Ġscrolled": 22281,
    "Ġbelieves": 14407,
    "limping": 26393,
    "oon": 6364,
    "ger": 1106,
    "Ġsmothe": 18573,
    "ucket": 2485,
    "Ġentity": 10342,
    "vis": 4576,
    "wand": 10738,
    "Ġprevail": 13441,
    "Ġbreat": 3459,
    "Ġincred": 5646,
    "Ġremonstrance": 20621,
    "Ġintercourse": 10998,
    "Ġwaterloo": 11979,
    "Ġ70": 11276,
    "Ġdesignated": 19520,
    "uncommon": 11680,
    "Ġpearl": 20375,
    "Ġbird": 3754,
    "Ġprovoking": 16743,
    "Ġoverladen": 22349,
    "Ġperfect": 2558,
    "Ġthinner": 24182,
    "Ġeludes": 26554,
    "astron": 22166,
    "gabriel": 15359,
    "Ġgrecian": 26296,
    "Ġcoquet": 22581,
    "Ġleaped": 8825,
    "poverty": 22904,
    "writ": 16552,
    "bows": 10081,
    "anning": 10164,
    ",âĢĶâĢľ": 10069,
    "Ġdrives": 14576,
    "Ġdeposed": 16085,
    "mult": 8747,
    "squee": 15429,
    "Ġtransparent": 9488,
    "Ġpursuit": 4732,
    "Ġquohog": 10972,
    "Ġaccursed": 9462,
    "itions": 4150,
    "Ġbells": 19600,
    "Ġfamil": 4319,
    "Ġanswers": 7070,
    "belonged": 25597,
    "Ġbanks": 6814,
    "danger": 10089,
    "Ġgirdled": 19157,
    "rack": 18010,
    "rather": 5430,
    "Ġsuicide": 12786,
    "Ġcarbuncle": 14444,
    "Ġuns": 15834,
    "Ġpersuading": 19408,
    "marked": 9048,
    "Ġdoubloon": 6945,
    "Ġsuspending": 19243,
    "Ġthee": 2624,
    "oken": 4306,
    "Ġattaining": 15801,
    "Ġerud": 20053,
    "Ġsmallest": 6429,
    "Ġalders": 21781,
    "Ġrequires": 969,
    "lightning": 16551,
    "satisfactory": 16893,
    "arding": 22154,
    "Ġtailed": 21167,
    "Ġrelev": 1713,
    "nantucketer": 24972,
    "Ġspray": 7893,
    "Ġtum": 5692,
    "Ġinvis": 6902,
    "Ġprovid": 1009,
    "Ġdeity": 18137,
    "Ġcircumstances": 3922,
    "prairies": 20565,
    "Ġgossiping": 26243,
    "Ġmoul": 15541,
    "Ġnewly": 9337,
    "obed": 14445,
    "Ġpledge": 11600,
    "wandered": 20284,
    "Ġelasticity": 19557,
    "ibbald": 18847,
    "Ġinclination": 6623,
    "ilent": 21717,
    "Ġrestless": 10412,
    "Ġallen": 5160,
    "call": 8722,
    "Ġarsac": 11740,
    "ting": 1334,
    "Ġsnodhead": 19300,
    "Ġdivine": 6921,
    "Ġhospit": 7515,
    "Ġensl": 19273,
    "Ġcalmed": 16265,
    "Ġsucceeded": 6105,
    "figures": 20120,
    "Ġdrove": 4984,
    "Ġcanst": 8857,
    "Ġwigwam": 11428,
    "Ġunlimited": 26222,
    "Ġbarbarians": 19586,
    "Ġmending": 17804,
    "Ġguardian": 14940,
    "Ġbankers": 24302,
    "gree": 10701,
    "Ġdisappo": 4504,
    "Ġbehalf": 14503,
    "Ġfri": 17878,
    "allied": 7411,
    "Ġblotches": 25314,
    "Ġadaptive": 1406,
    "Ġmug": 21311,
    "Ġbid": 6131,
    "Ġlogs": 16344,
    "Ġupheld": 22149,
    "gment": 4389,
    "requiem": 24856,
    "Ġbalances": 2340,
    "Ġmostly": 7664,
    "condition": 7058,
    "inkled": 5477,
    "Ġforeboding": 20382,
    "Ġsurely": 6307,
    "Ġpraised": 19552,
    "Ġportions": 19367,
    "Ġstrove": 9956,
    "harpooneer": 8688,
    "willingly": 11981,
    "Ġclean": 5652,
    "ective": 18174,
    "Ġwalrus": 14971,
    "Ġice": 3601,
    "blacksmith": 17001,
    "Ġgum": 21592,
    "Ġelbow": 12918,
    "onet": 12542,
    "itheat": 21336,
    "retaining": 21244,
    "Ġsof": 18278,
    "Ġsetting": 7046,
    "speps": 14336,
    "Ġmasked": 3693,
    "Ġconquest": 15745,
    "Ġgasp": 7173,
    "Ġinestimable": 17441,
    "ie": 731,
    "Ġlurked": 11291,
    "Ġreconciliation": 25292,
    "Ġwrench": 12554,
    "Ġdiminished": 16665,
    "Ġwarb": 17787,
    "Ġpetersburgh": 24228,
    "cain": 15325,
    "Ġirregularly": 25323,
    "Ġfrown": 10807,
    "Ġsod": 11561,
    "achines": 1720,
    "meet": 11854,
    "bildad": 9586,
    "offic": 7467,
    "added": 11658,
    "Ġmeeting": 5193,
    "Ġsplash": 16548,
    "py": 17624,
    "it": 276,
    "Ġsomewhat": 4897,
    "Ġrealism": 18983,
    "determined": 9079,
    "Ġtant": 12522,
    "Ġlevi": 3035,
    "Ġsymbol": 7716,
    "Ġmead": 8834,
    "Ġsulky": 13514,
    "Ġminimum": 23039,
    "rougham": 15991,
    "Ġstir": 5823,
    "Ġiron": 3235,
    "Ġnative": 4640,
    "brill": 16490,
    "roc": 9674,
    "Ġklux": 22192,
    "Ġceremony": 8361,
    "Ġcombination": 22847,
    "principal": 20659,
    "instinct": 19542,
    "obstructed": 15225,
    "ulating": 10887,
    "circumstance": 7763,
    "woods": 13418,
    "Ġ74": 24261,
    "Ġancest": 12611,
    "anct": 21356,
    "Ġbusily": 9384,
    "Ġlivel": 11355,
    "bright": 8989,
    "avish": 22591,
    "8": 28,
    "fine": 10090,
    "Ġpend": 15603,
    "Ġlabors": 23325,
    "mariners": 19547,
    "drove": 16993,
    "jud": 4480,
    "using": 5468,
    "creator": 26381,
    "agra": 14065,
    "trop": 15435,
    "mastod": 23971,
    "Ġfrogs": 23920,
    ")âĢĶâĢľ": 20742,
    "Ġdepicted": 14283,
    "Ġdiary": 24739,
    "othed": 16510,
    "Ġnovel": 6695,
    "latitude": 25259,
    "Ġlifetime": 13601,
    "Ġsubmission": 22787,
    "Ġscope": 15941,
    "Ĳ": 243,
    "Ġinvest": 4978,
    "Ġacknowledges": 24688,
    "Ġ29": 23729,
    "Ġrephrased": 26477,
    "wake": 11545,
    "Ġspan": 11727,
    "Ġtimbers": 14837,
    "bearing": 9764,
    "Ġcharges": 23266,
    "kov": 17586,
    "Ġrocks": 6863,
    "guessed": 25872,
    "moon": 10335,
    "Ġvitality": 15171,
    "calling": 12447,
    "Ġexperiment": 11905,
    "r": 86,
    "Ġinterests": 14568,
    "glancing": 11214,
    "arious": 10316,
    "Ġshrouded": 14967,
    "suitableness": 26260,
    "Ġalgorith": 562,
    "Ġenveloped": 12206,
    "Ġrefusing": 11028,
    "Æ": 135,
    "Ġlullaby": 20586,
    "engineer": 23143,
    "Ġscolded": 25472,
    "Ġket": 18347,
    "Ġrendered": 5773,
    "pid": 1415,
    "Ġaforethought": 25428,
    "enty": 2916,
    "Ġpredefined": 20716,
    "Ġabated": 18390,
    "Ġaz": 9629,
    "Ġmiddle": 4140,
    "Ġdeceased": 15006,
    "Ġvehicles": 10659,
    "rem": 1519,
    "Ġpress": 5931,
    "Ġprofit": 14584,
    "irr": 12734,
    "Ġshuttle": 12124,
    "Ġ11": 5318,
    "Ġconveniently": 20077,
    "impart": 21706,
    "Ġrecumbent": 22739,
    "Ġquadrant": 11404,
    "Ġpry": 11599,
    "glo": 8737,
    "semicirc": 26491,
    "shr": 10980,
    "Ġfearing": 12812,
    "Ġfondly": 19615,
    "Ġabsurd": 7203,
    "lott": 6650,
    "Ġoverpowering": 15248,
    "Ġstepfather": 7222,
    "olera": 21830,
    "Ġhungry": 10532,
    "Ġaspects": 4176,
    "appl": 9325,
    "endured": 22224,
    "Ġcontaining": 2233,
    "Ġarranged": 9876,
    "my": 1315,
    "eers": 20842,
    "Ġ72": 19610,
    "rates": 21037,
    "Ġpers": 1355,
    "such": 3083,
    "Ġbanish": 15567,
    "throt": 25659,
    "Ġoverwhel": 8195,
    "ruin": 22179,
    "Ġtrouble": 3689,
    "Ġincorrupt": 19234,
    "Ġengineer": 11973,
    "Ġoverthrow": 18426,
    "Ġcarter": 18900,
    "Ġmumbled": 17807,
    "Ġprompted": 23814,
    "Ġcat": 2125,
    "Ġboarding": 12084,
    "Ġhammock": 5768,
    "Ġbashful": 20418,
    "Ġeclips": 20695,
    "mered": 8217,
    "rified": 15418,
    "ì": 173,
    "Ġimposed": 14215,
    "offered": 14517,
    "ricade": 13036,
    "Ġdiscrimin": 2547,
    "Ġkn": 4545,
    "Ġheed": 5630,
    "Ġclosely": 6487,
    "Ġechoed": 20422,
    "ocity": 8277,
    "Ġcatching": 9477,
    "lest": 5288,
    "Ġbelf": 21379,
    "Ġgrop": 12661,
    "Ġdepose": 22605,
    "Ġgeneration": 2112,
    "Ġkindliness": 23290,
    "Ġtit": 8398,
    "Ġcomb": 1050,
    "Ġshovel": 23489,
    "Ġdry": 5624,
    "multiple": 15106,
    "tomb": 21092,
    "dances": 17521,
    "Ġtok": 1245,
    "Ġjingling": 26017,
    "Ġswelling": 11923,
    "Ġdeacon": 18143,
    "Ġdab": 15585,
    "Ă": 195,
    "knife": 6942,
    "Ġaffecting": 2324,
    "Ġuneasy": 8661,
    "tete": 10732,
    "ustom": 3786,
    "Ġab": 528,
    "presented": 12987,
    "wretchedness": 17252,
    "Ġwiping": 25765,
    "Ġpot": 2991,
    "Ġslide": 10393,
    "Ġfinny": 23123,
    "Ġdummy": 25449,
    "Ġfacil": 16962,
    "witted": 17707,
    "rity": 13775,
    "Ġcondense": 21805,
    "Ġkrempe": 10669,
    "Ġphysiognomical": 25611,
    "bride": 19199,
    "liber": 18813,
    "ops": 5247,
    "Ġmonth": 2850,
    "Ġexecution": 6927,
    "Ġelevation": 14897,
    "hurry": 24763,
    "Ġindians": 14410,
    "procure": 23395,
    "Ġfull": 2180,
    "Ġcontrived": 10303,
    "Ġmetal": 9383,
    "Ġvalues": 2652,
    "Ġassuredly": 14820,
    "musical": 25340,
    "Ġliable": 14228,
    "Ġdiscoursing": 26266,
    "repro": 10770,
    "Ġdoze": 14176,
    "Ġfeminine": 15262,
    "Ġdistricts": 20262,
    "Ġforetold": 23450,
    "Ġupbraiding": 26226,
    "Ġhumiliating": 22879,
    "Ġboston": 22637,
    "Ġdevelop": 1677,
    "Ġwooden": 4729,
    "conjectures": 25180,
    "ribbed": 16411,
    "Ġestablished": 9069,
    "remem": 13064,
    ";âĢĿ": 7790,
    "Ġenergies": 25459,
    "recol": 10150,
    "Ġpostpone": 17306,
    "Ġconquer": 14026,
    "Ġfanatic": 23390,
    "Ġwretch": 6377,
    "Ġincarnation": 25573,
    "viv": 17698,
    "Ġcommodores": 25374,
    "com": 998,
    "narr": 12494,
    "zeal": 16278,
    "ctions": 951,
    "Ġtroubled": 6615,
    "Ġreduces": 2343,
    "lost": 8887,
    "Ġwitt": 17783,
    "bow": 5424,
    "Ġrenegades": 26476,
    "Ġmarks": 6746,
    "Ġbackbone": 22648,
    "elter": 21568,
    "Ġfeeble": 12282,
    "Ġstung": 21735,
    "Ġtech": 1711,
    "ī": 236,
    "Ġstains": 21738,
    "Ġdemand": 4947,
    "Ġapoplexy": 25265,
    "Ġabundance": 17155,
    "Ġavert": 14424,
    "Ġshepherd": 14152,
    "Ġchairs": 12823,
    "Ġinference": 9671,
    "limbs": 20190,
    "Ġbrows": 13299,
    "delighted": 10562,
    "attend": 11100,
    "icult": 3341,
    "score": 18856,
    "Ġhighness": 22772,
    "Ġpleasant": 4172,
    "Ġtrusted": 10517,
    "result": 12042,
    "dden": 1803,
    "enance": 3371,
    "Ġcleat": 18946,
    "furnish": 25338,
    "Ġscreamed": 9523,
    "%": 9,
    "Ġtheories": 13848,
    "Ġcrows": 24028,
    "ophisticated": 22475,
    "88": 20757,
    "rics": 13035,
    "Ġgrease": 26189,
    "Ġfile": 13902,
    "Ġfrequ": 3328,
    "Ġbreezes": 14867,
    "asis": 12647,
    "Ġspeak": 2231,
    "Ġsteak": 9828,
    "Ġisinglass": 21799,
    "Ġdisobey": 18559,
    "softened": 20408,
    "considerable": 10548,
    "sa": 8756,
    "Ġveil": 7933,
    "Ġbildad": 3778,
    "ext": 919,
    "Ġimmensely": 13594,
    "Ġdeliberate": 15022,
    "Ġand": 295,
    "Ġpaintings": 15055,
    "Ġshabby": 14110,
    "nourished": 26398,
    "ckles": 22086,
    "iciously": 17973,
    "Ġowning": 18744,
    "accompan": 11452,
    "lydia": 6826,
    "Ġmetaphys": 16398,
    "Ġsultan": 15183,
    "Ġmuscles": 12086,
    "offers": 16393,
    "Ġkneel": 14805,
    "alterable": 13623,
    "Ġcand": 3276,
    "obliged": 20630,
    "Ġmexico": 15279,
    "Ġ98": 24593,
    "à": 161,
    "unavoidable": 17389,
    "Ġgames": 11625,
    "dreaded": 25138,
    "olently": 15754,
    "Ġplaned": 24052,
    "grew": 17555,
    "those": 4494,
    "Ġclapham": 17265,
    "ted": 792,
    "Ġsolemnisation": 24114,
    "Ġshilling": 18228,
    "Ġexpanding": 25238,
    "relapse": 24013,
    "Ġrags": 18647,
    "Ġascribe": 16782,
    "Ġdoubtfully": 23476,
    "Ġbearing": 5298,
    "Ġjung": 12833,
    "forehead": 8515,
    "Ġgrievous": 13258,
    "cnns": 3619,
    "Ġchr": 3687,
    "sockets": 22726,
    "Ġkeepers": 23535,
    "Ġreceptacle": 23188,
    "Ġrafters": 22659,
    "Ġlanterns": 24577,
    "andy": 8157,
    "Ġaugmented": 15104,
    "Ġknown": 1642,
    "Ġpotency": 14645,
    "Ġpredict": 678,
    "harbors": 20147,
    "Ġtremulous": 14985,
    "Ġaccumulation": 2693,
    "Ġsuggestions": 24453,
    "Ġoaks": 16933,
    "Ġladies": 3193,
    "deav": 2674,
    "Ġresignation": 18566,
    "Ġnoble": 3439,
    "oso": 12827,
    "doub": 6223,
    "isted": 3298,
    "Ġmechanical": 7936,
    "ouring": 6419,
    "Ġimprovement": 7965,
    "Ġmace": 21308,
    "Ġdisapprobation": 16055,
    "Ġstraight": 3701,
    "loun": 17588,
    "Ġtendinous": 16931,
    "Ġpeep": 6870,
    "Ġhit": 7164,
    "igned": 5656,
    "Ġexpect": 2306,
    "Ġjelly": 22297,
    "Ġwaylaid": 22870,
    "Ġbulb": 23853,
    "retrospect": 23133,
    "inquire": 16932,
    "persecut": 22177,
    "orand": 21395,
    "situ": 9621,
    "Ġcurling": 9340,
    "Ġliberty": 7761,
    "Ġhell": 5019,
    "fallen": 19658,
    "Ġdestroyer": 13412,
    "Ġfollows": 7673,
    "Ġmarket": 7708,
    "Ġassist": 3562,
    "Ġawfulness": 23586,
    "Ġclings": 15970,
    "Ġatlantic": 7000,
    "Ġblot": 9811,
    "browed": 25894,
    "Ġtransaction": 22436,
    "crat": 24098,
    "ĠĠĠĠĠĠĠĠĠĠĠĠĠĠĠĠĠĠĠĠĠĠĠĠĠĠĠĠĠĠĠĠĠĠĠĠĠĠĠĠĠĠĠĠĠĠĠĠĠĠĠĠĠĠĠĠĠĠĠĠ": 19259,
    "Ġdesc": 772,
    "Ġwealth": 7621,
    "Ġsporting": 16999,
    "arrival": 15597,
    "equ": 6790,
    "horr": 14598,
    "ric": 1374,
    "Ġadjac": 18292,
    "Ġdwelt": 12602,
    "fool": 9047,
    "Ġpositional": 2598,
    "dutch": 17218,
    "Ġcautious": 12251,
    "Ġdissolved": 18554,
    "epend": 3315,
    "Ġhypocr": 19470,
    "Ġaccounted": 10294,
    "Ġhussey": 7724,
    "aits": 20765,
    "Ġfriends": 2655,
    "Ġsuck": 15861,
    "Ġperemptory": 25740,
    "Ġheeded": 13402,
    "Ġcigarette": 20655,
    "silenced": 24423,
    "perv": 1573,
    "Ġcompliance": 12112,
    "Ġremedy": 18724,
    "assin": 22302,
    "Ġviolation": 23404,
    "Ġanalytical": 22908,
    "Ġcolours": 12971,
    "Ġhomage": 12353,
    "Ġwhichever": 13999,
    "Ġdeplored": 20503,
    "Ġabsorb": 25112,
    "Ġethere": 23948,
    "swallow": 24257,
    "Ġentertain": 6053,
    "windlass": 16721,
    "Ġsucceeding": 16761,
    "torm": 11530,
    "icher": 9202,
    "Ġprocessing": 899,
    "Ġinspired": 2520,
    "Ġxvi": 19104,
    "ider": 21762,
    "Ġsed": 10761,
    "robust": 19727,
    "occurrences": 26331,
    "rious": 11687,
    "Ġcompanionship": 14918,
    "Ġcompre": 4447,
    "Ġbohemian": 17133,
    "io": 3798,
    "Ġaberde": 22274,
    "Ġprofane": 13151,
    "Ġbelieved": 4366,
    "Ġomn": 8409,
    "Ġcollections": 22856,
    "Ġforemost": 12003,
    "Ġlowermost": 23240,
    "Ġpulling": 5862,
    "Ġwand": 4340,
    "Ġspars": 3806,
    "theast": 21745,
    "Ġmerely": 3768,
    "Ġinvited": 6903,
    "Ġcom": 368,
    "Ġunacquainted": 12773,
    "Ġpeaceful": 9454,
    "Ġcharnel": 22249,
    "Ġsty": 6251,
    "Ġguise": 14431,
    "Ġhenceforth": 19646,
    "Ġcommissioned": 19894,
    "years": 6883,
    "tales": 17686,
    "Ġdoublo": 6078,
    "yn": 7819,
    "aye": 3659,
    "Ġcrumbs": 20639,
    "Ġtro": 7357,
    "cary": 10689,
    "lection": 3652,
    "Ġawkward": 7073,
    "Ġjuggler": 26366,
    "ip": 555,
    "Ġabomin": 8188,
    "Ġaffl": 14385,
    "Ġdue": 3840,
    "smallest": 23909,
    "Ġreproachfully": 25251,
    "Ġgenerously": 22391,
    "shown": 22453,
    "Ġhumanity": 6731,
    "Ġsweetest": 13245,
    "Ġusual": 3940,
    "atch": 673,
    "culous": 11141,
    "Ġslu": 13835,
    "Ġbeak": 18079,
    "Ġneatness": 19931,
    "Ġperiod": 4001,
    "gazed": 15360,
    "Ġleagues": 9223,
    "disappo": 8984,
    "Ġunlab": 3785,
    "Ġcouns": 10520,
    "Ġsket": 18728,
    "netherfield": 9812,
    "Ġrifled": 21976,
    "Ġcharacter": 2796,
    "Ġintrodu": 1926,
    "reve": 12536,
    "Ġsyrian": 18354,
    "scor": 13018,
    "Ġinheriting": 25354,
    "Ġgoodness": 6058,
    "Ġexcurs": 23308,
    "Ġpractice": 2868,
    "continuing": 24479,
    "Ġstupendous": 20499,
    "Ġ86": 24461,
    "Ġsultry": 20287,
    "atus": 21259,
    "Ġfour": 2215,
    "impud": 23759,
    "Ġmoonshine": 19596,
    "elder": 21569,
    "Ġsupremacy": 20259,
    "Ġunw": 8849,
    "Ġimpulsive": 19961,
    "Ġbeams": 14630,
    "thing": 1479,
    "Ġstroll": 13351,
    "organ": 15571,
    "Ġignorant": 5343,
    "ming": 3598,
    "Ġjolly": 6858,
    "civil": 7796,
    "Ġus": 493,
    "Ġlobster": 11389,
    "ivided": 22075,
    "Ġgraph": 10902,
    "Ġsauc": 15885,
    "onstrate": 17768,
    "Ġshop": 9251,
    "ists": 3998,
    "gling": 10097,
    "Ġtragedy": 10667,
    "Ġmaiden": 13385,
    "Ġfirst": 936,
    "studies": 25166,
    "Ġblue": 3453,
    "bran": 23573,
    "Ġsincerity": 13677,
    "Ġcaval": 25769,
    "Ġgaiety": 16749,
    "Ġconvent": 11667,
    "Ġadmir": 12020,
    "arthy": 4822,
    "Ġlam": 21546,
    "merc": 19279,
    "Ġclinched": 17393,
    "lo": 681,
    "desperate": 17351,
    "lorious": 17592,
    "gy": 2098,
    "uvier": 9068,
    "Ġsentin": 16371,
    "pil": 15407,
    "igantic": 5539,
    "lashed": 20953,
    "Ġdisputing": 25824,
    "Ġbeneath": 3237,
    "Ġpersuas": 23944,
    "Ġcrowds": 14737,
    "halloa": 17090,
    "taller": 26150,
    "crucible": 24842,
    "Ġinvests": 14866,
    "Ġbillows": 7503,
    "Ġdefence": 11067,
    "upright": 23014,
    "Ġruin": 6055,
    "Ġrig": 4225,
    "reader": 23844,
    "waist": 13417,
    "erve": 12546,
    "Ġinformed": 6717,
    "Ġlowers": 23239,
    "Ġcomprehending": 24445,
    "idence": 4301,
    "Ġintelligible": 15939,
    "mountain": 10713,
    "Ġha": 400,
    "sterns": 23366,
    "Ġfreshness": 23985,
    "Ġpeg": 22686,
    ";âĢĶ": 3747,
    "Ġhigh": 932,
    "infallibly": 26417,
    "Ġnumberless": 16414,
    "behold": 12874,
    "trouble": 8294,
    "quadr": 15761,
    "Ġrod": 9279,
    "board": 3563,
    "purp": 8090,
    "exciting": 19667,
    "scale": 3533,
    "Ġbohem": 8526,
    "Ġstomach": 11652,
    "Ġrumours": 24598,
    "Ġ111": 24436,
    "above": 8147,
    "Ġjourneys": 19473,
    "Ġvouch": 15807,
    "westward": 25424,
    "Ġvoid": 14085,
    "apply": 18761,
    "successful": 11358,
    "ulatory": 15765,
    "Ġdiscovering": 13356,
    "utored": 15660,
    "Ġderision": 16308,
    "Ġhistorical": 3645,
    "Ġnantucket": 2839,
    "Ġquieted": 23840,
    "Ġredress": 23751,
    "eping": 5833,
    "ods": 8835,
    "Ġexpans": 18622,
    "Ġcrowding": 13276,
    "Ġsche": 1703,
    "repent": 15512,
    "touch": 8391,
    "Ġspont": 22129,
    "Ġlieutenant": 15260,
    "Ġzigzag": 26272,
    "Ġecstasy": 11629,
    "Ġworkmen": 23017,
    "Ġharder": 14448,
    "Ġfaint": 5811,
    "Ġnotes": 7190,
    "nigh": 13762,
    "Ġwants": 5742,
    "phys": 18711,
    "overs": 17621,
    "Ġabsence": 4894,
    "hend": 13250,
    "Ġexord": 21824,
    "Ġforging": 18093,
    "Ġunass": 14113,
    "Ġflattened": 26047,
    "Ġdisregard": 22525,
    "day": 1859,
    "Ġcompos": 22568,
    "att": 1454,
    "Ġspiteful": 19521,
    "bb": 2803,
    "Ġumbrell": 13649,
    "assment": 9739,
    "Ġloggerhead": 13656,
    "Ġmoccas": 22433,
    "Ġspared": 7892,
    "Ġreynolds": 10209,
    "Ġingrat": 16840,
    "Ġlabours": 8582,
    "alescing": 23864,
    "Ġexposed": 8522,
    "clo": 5613,
    "Ġhoops": 9388,
    "Ġparting": 9782,
    "Ġplague": 11822,
    "pillar": 5619,
    "Ġinterference": 8893,
    "antarctic": 22096,
    "Ġaries": 21196,
    "Ġsentiment": 6588,
    "Ġmason": 10157,
    "Ġcircle": 4977,
    "Ġhad": 441,
    "Ġsettee": 22918,
    "Ġeyelashes": 26106,
    "arnel": 18124,
    "remained": 8569,
    "Ġquoted": 22412,
    "nailed": 20995,
    "Ġtorrents": 20054,
    "Ġhesitating": 16947,
    "Ġbreaching": 23345,
    "idled": 21765,
    "Ġplaning": 22598,
    "stalls": 26473,
    "startled": 24941,
    "Ġcaucus": 17379,
    "Ġjetted": 24431,
    "Ġrequested": 14291,
    "Ġlagged": 21555,
    "Ġintention": 5638,
    "Ġinspection": 14544,
    "Ġimpossible": 3541,
    "anced": 1327,
    "Ġunhing": 18241,
    "Ġcetacean": 25878,
    "situation": 11437,
    "Ġswamp": 14436,
    "Ġmarlings": 23035,
    "Ġleague": 6538,
    "Ġscores": 2715,
    "unned": 21875,
    "ull": 1431,
    "especially": 3570,
    "Ġinfinity": 23318,
    "Ġconsequence": 5542,
    "forty": 9373,
    "apse": 14198,
    "nson": 16086,
    "uten": 11621,
    "quired": 21852,
    "Ġmetrics": 19064,
    "ordinate": 12872,
    "Ġcynicism": 25771,
    "Ġhouse": 1502,
    "Ġhydraul": 9513,
    "Ġpile": 8423,
    "Ġconceits": 19388,
    "grateful": 10428,
    "Ġrings": 11699,
    "determine": 19942,
    "Ġdisguise": 10045,
    "uff": 2731,
    "towards": 5002,
    "Ġcoron": 4462,
    "Ġresume": 18565,
    "Ġincredulous": 9986,
    "Ġhunt": 6183,
    "Ġbeque": 18080,
    "....": 11316,
    "Ġsufferable": 16255,
    "Ġlabor": 10418,
    "increas": 10454,
    "hark": 15364,
    "Ġfetch": 7769,
    "Ġsensation": 6896,
    "Ġflower": 16231,
    "Ġagitation": 6865,
    "Ġswept": 7977,
    "Ġeasiness": 23533,
    "Ġpreservation": 24630,
    "Ġspence": 22124,
    "ension": 6569,
    "nevertheless": 8285,
    "track": 24314,
    "Ġembarrassment": 10626,
    "Ġdeb": 4764,
    "hibited": 17426,
    "bitious": 16669,
    "oided": 11508,
    "wling": 11544,
    "Ġconvalescence": 23745,
    "Ġloom": 7629,
    "Ġstarry": 16923,
    "Ġkill": 4452,
    "Ġquietude": 19358,
    "strate": 12671,
    "humored": 19451,
    "Ġcolonel": 3406,
    "altogether": 12636,
    "Ġconvul": 13202,
    "Ġindefinitely": 25221,
    "cially": 3489,
    "Ġworrying": 22924,
    "vitiated": 25754,
    "Ġmagnificent": 9841,
    "mis": 4520,
    "Ġwretchedness": 9026,
    "mud": 20970,
    "Ġexercising": 19906,
    "Ġpastures": 23418,
    "although": 8805,
    "aff": 3104,
    "Ġnot": 413,
    "Ġthump": 11610,
    "opy": 4456,
    "sat": 4810,
    "Ġconvolutional": 2165,
    "Ġhabit": 6771,
    "crowded": 20189,
    "Ġinvolving": 18758,
    "oms": 4592,
    "Ġhaggard": 17329,
    "Ġcontract": 18475,
    "Ġeigenvalues": 4998,
    "Ġreplenished": 13635,
    "Ġworldly": 16328,
    "Ġton": 15463,
    "Ġ126": 24471,
    "Ġattic": 16093,
    "Ġleviathanic": 12078,
    "Ġtrop": 7566,
    "Ġxviii": 23408,
    "Ġprudential": 17919,
    "Ġattraction": 18619,
    "Ġtroops": 24898,
    "ulgent": 18149,
    "Ġstrateg": 1392,
    "Ġunob": 22010,
    "isite": 15560,
    "Ġterror": 5124,
    "Ġanimating": 23422,
    "Ġentangled": 10343,
    "Ġdinners": 23979,
    "ressed": 3024,
    "Ġmeasureless": 14708,
    "Ġugliness": 20425,
    "landlord": 9839,
    "Ġsphynx": 20711,
    "Ġflashes": 11914,
    "settle": 16661,
    "Ġcries": 7155,
    "ernsey": 8901,
    "Ġstiggs": 25792,
    "self": 617,
    "Ġrecommending": 24337,
    "Ġsixteen": 8282,
    "ò": 179,
    "Ġinconsiderable": 21492,
    "kward": 6958,
    "Ġgover": 2463,
    "Ġghostliness": 24651,
    "Ġliberties": 19666,
    "steering": 16635,
    "Ġferocity": 16866,
    "anch": 15557,
    "Ġthoughts": 3139,
    "nihil": 9852,
    "Ġhappiest": 11880,
    "Ġplan": 3879,
    "Ġrespectable": 6736,
    "Ġdropt": 23675,
    "\"": 6,
    "collecting": 26081,
    "Ġjago": 22296,
    "Ġate": 8839,
    "Ġtennes": 23546,
    "Ġtrivial": 10142,
    "Ġcharmed": 16762,
    "Ġprecipice": 19939,
    "Ġselves": 21221,
    "Ġmockery": 12105,
    "Ġremains": 4910,
    "Ġ15": 9323,
    "igated": 15704,
    "poles": 16207,
    "simple": 13451,
    "Ġproceeding": 9905,
    "Ġthereupon": 18434,
    "gang": 17553,
    "Ġassembl": 20059,
    "Ġschoolmasters": 19719,
    "renadier": 18419,
    "Ġconstit": 8583,
    "obser": 11099,
    "Ġreduce": 7942,
    "Ġconnected": 5393,
    "etimes": 1987,
    "rium": 3134,
    "Ġobject": 1394,
    "Ġmag": 1429,
    "Ġeastern": 11628,
    "Ġdestination": 19149,
    "Ġdood": 22239,
    "tering": 3803,
    "ilib": 4118,
    "chor": 6146,
    "south": 8758,
    "Ġannounce": 13337,
    "devouring": 24950,
    "Ġcorroborated": 26053,
    "foremost": 14252,
    "Ġsane": 21220,
    "remark": 7262,
    "rey": 12535,
    "ricity": 23061,
    "Ġfolio": 11916,
    "Ġsakes": 18326,
    "wor": 3415,
    "ribution": 14303,
    "Ġowes": 20083,
    "utely": 8131,
    "everybody": 8610,
    "Ġtemporal": 2614,
    "Ġsuperb": 16445,
    "Ġincompatible": 25680,
    "pun": 9617,
    "Ġomens": 21326,
    "Ġbalmoral": 16205,
    "unks": 15772,
    "bery": 9788,
    "lead": 10165,
    "blister": 24128,
    "am": 367,
    "Ġriddles": 16732,
    "ount": 1115,
    "ork": 417,
    "ourers": 21447,
    "passion": 11260,
    "Ġtantalizing": 20412,
    "gown": 9596,
    "Ġsuff": 1303,
    "Ġspecial": 2104,
    "Ġinquirer": 24961,
    "10": 17472,
    "Ġdirectors": 18921,
    "teeth": 10355,
    "Ġstyled": 24671,
    "Ġunmanner": 22024,
    "Ġminutely": 14560,
    "Ġexcluded": 16381,
    "loaded": 22508,
    "Ġconvert": 11841,
    "Ġpedest": 14995,
    "Ġthings": 1961,
    "Ġimmersed": 19483,
    "Ġimpropriety": 17394,
    "Ġdependency": 3487,
    "orum": 12587,
    "vering": 15713,
    "terbury": 21821,
    "Ġintroduces": 3269,
    "Ġgradient": 450,
    "concerning": 9067,
    "Ġflowers": 8940,
    "(": 12,
    "Ġpretend": 7721,
    "winter": 10740,
    "vest": 6230,
    "Ġvertebra": 20180,
    "Ġthickest": 16654,
    "w": 91,
    "Ġgordon": 26467,
    "Ġtobacc": 7852,
    "Ġfring": 11127,
    "ask": 858,
    "ening": 3107,
    "Ġour": 1010,
    "Ġharvard": 24573,
    "Ġgaily": 16748,
    "Ġ20": 8613,
    "Ġcaul": 10787,
    "Ġdes": 1251,
    "Ġfr": 1694,
    "Ġcalifornian": 25851,
    "Ġcommunic": 5751,
    "Ġowl": 20082,
    "Ġcautiously": 16977,
    "Ġcommonplaces": 16287,
    "asily": 13945,
    "scru": 16240,
    "Ġgazette": 19499,
    "Ġsnatching": 10472,
    "event": 8076,
    "Ġda": 5150,
    "forced": 11031,
    "nt": 923,
    "Ġken": 22188,
    "incom": 21180,
    "Ġconfusing": 23302,
    "Ġvisitors": 7984,
    "Ġphant": 7055,
    "Ġdarkened": 16432,
    "Ġsupple": 22997,
    "taste": 10129,
    "Ġdespaired": 14667,
    "allows": 15905,
    "Ġvinc": 14084,
    "Ġoblique": 20168,
    "Ġjot": 11761,
    "Ġlug": 15649,
    "extracts": 22763,
    "Ġgardens": 16453,
    "Ġilleg": 21620,
    "reeling": 21243,
    "Ġduties": 6609,
    "Ġraised": 4660,
    "refusal": 24736,
    "Ď": 207,
    "Ġshel": 6847,
    "returns": 23132,
    "Ġwonderful": 4562,
    "ignor": 8961,
    "cial": 2649,
    "sciss": 18857,
    "Ġoverheard": 11769,
    "bingleys": 19633,
    "Ġdeficiencies": 26570,
    "Ġprojecting": 9984,
    "Ġdown": 832,
    "Ġunthink": 18247,
    "Ġdistrusted": 13541,
    "Ġinfluenced": 19631,
    "Ġautumnal": 19053,
    "Ġteased": 18807,
    "money": 8749,
    "aked": 2017,
    "acy": 3952,
    "Ġapprehending": 26090,
    "$": 8,
    "Ġhammer": 6093,
    "Ġprevents": 2559,
    "Ġoptimal": 1857,
    "Ġunden": 22008,
    "Ġremainder": 9857,
    "lid": 20944,
    "Ġcurve": 22946,
    "hent": 12531,
    "Ġspies": 22126,
    "Ġdefection": 22939,
    "tottenham": 25418,
    "Ġaudible": 19880,
    "Ġ94": 17717,
    "Ġplun": 6281,
    "Ġmentioning": 9898,
    "Ġhopeless": 7464,
    "Ġsleet": 8975,
    "Ġvariance": 1170,
    "end": 503,
    "benefact": 24641,
    "Ġencountered": 8321,
    "mistress": 14903,
    "perform": 15892,
    "Ġhatches": 12043,
    "mur": 5428,
    "Ġbodies": 8031,
    "Ġchis": 11748,
    "Ġveins": 8932,
    "rect": 1601,
    "Ġunluckily": 20100,
    "Ġdiver": 2532,
    "back": 2018,
    "remediable": 26294,
    "Ġess": 5691,
    "Ġdimin": 3869,
    "Ġprizes": 13072,
    "Ġimpulse": 10023,
    "Ġrighted": 23175,
    "Ġunsatisfied": 22039,
    "Ġwonderland": 23423,
    "absolutely": 10645,
    "Ġmurky": 19202,
    "Ġtext": 2269,
    "Ġtex": 15471,
    "tub": 9143,
    "Ġagric": 22512,
    "Ġswerve": 14437,
    "Ġbachel": 7159,
    "por": 2154,
    "Ġcentral": 7727,
    "Ġo": 275,
    "Ġsweeping": 8985,
    "Ġspeaker": 19148,
    "entering": 17976,
    "osa": 22257,
    "Ġsinister": 8568,
    "Ġconsider": 2570,
    "belled": 24033,
    "Ġgrin": 5482,
    "sullenly": 26149,
    "Ġeight": 3898,
    "ington": 21300,
    "Ġenjoys": 19448,
    "since": 5894,
    "hearty": 14832,
    "Ġrange": 9711,
    "Ġdrow": 21424,
    "Ġwhiting": 10859,
    "unfort": 21873,
    "Ġspectacles": 12095,
    "grass": 23411,
    "iv": 430,
    "Ĉ": 201,
    "riot": 18180,
    "Ġcountenance": 3968,
    "Ġthoughtfulness": 18772,
    "Ġcuriously": 13002,
    "Ġincivility": 18572,
    "Ġshakes": 10904,
    "apes": 9740,
    "fanning": 20865,
    "Ġpausing": 8652,
    "Ġsouls": 6308,
    "Ġshells": 20362,
    "carriage": 9945,
    "Ġadds": 1806,
    "Ġoutlandish": 12835,
    "ideas": 18585,
    "ounding": 22389,
    "rod": 10831,
    "Ġaw": 2511,
    "icest": 21561,
    "anders": 18152,
    "Ġpsychology": 11448,
    "Ġrefers": 1563,
    "Ġ106": 24414,
    "arab": 21439,
    "pidation": 18896,
    "Ġprejudiced": 24809,
    "Ġfourth": 7706,
    "Ġbehaviour": 4382,
    "Ġhung": 4559,
    "Ġcustomary": 8669,
    "lop": 20947,
    "Ġfellows": 8256,
    "anted": 5027,
    "itoring": 21330,
    "Ġmice": 13858,
    "Ġelij": 8908,
    "Ġfeature": 752,
    "Ġsine": 10763,
    "Ġspir": 2430,
    "wond": 8767,
    "mansion": 20982,
    "Ġhandsome": 4906,
    "Ġpea": 14316,
    "Ġstruggles": 16577,
    "Ġalterations": 19870,
    "v": 90,
    "Ġsurvive": 9066,
    "itively": 21329,
    "Ġdreamy": 14701,
    "Ġtales": 10141,
    "advent": 10220,
    "postp": 24634,
    "Ġtheatre": 21277,
    "Ġottoman": 17377,
    "Ġunfl": 22015,
    "Ġpersuasions": 16631,
    "kine": 15374,
    "Ġconse": 21801,
    "rifled": 21046,
    "Ġgarn": 13962,
    "Ġwis": 3726,
    "Ġoff": 903,
    "cur": 3270,
    "Ġvisual": 5741,
    "Ġolder": 9326,
    "lively": 12482,
    "âĢĶâĢĿ": 3299,
    "Ġsepulchre": 20558,
    "Ġungod": 22019,
    "Ġresigned": 9767,
    "Ġbetake": 22902,
    "Ġye": 901,
    "Ġincumbent": 16060,
    "Ġsuperseded": 26224,
    "ĠâĢĺ_": 11117,
    "Ġfear": 2278,
    "Ġwhistles": 24624,
    "opence": 18508,
    "untering": 15773,
    "Ġestab": 6315,
    "Ġsleeper": 8600,
    "vessels": 10625,
    "Ġverbal": 19377,
    "Ġtransp": 4770,
    "wonder": 6371,
    "9": 29,
    "Ġdere": 21832,
    "Ġentra": 18695,
    "foolish": 12345,
    "Ġacquaintances": 17349,
    "Ġcheat": 19018,
    "conjecture": 15121,
    "Ġdom": 2735,
    "bit": 3928,
    "cordiality": 25137,
    "================================": 5671,
    "Ġtackles": 8050,
    "Ġsymmet": 11745,
    "clergyman": 20728,
    "yards": 9623,
    "Ġsympathies": 14859,
    "Ġdaggoo": 5441,
    "seated": 11671,
    "Ġeasier": 11165,
    "both": 5785,
    "drab": 23895,
    "Ġdisplayed": 10608,
    "...": 24549,
    "circumstantial": 24444,
    "Ġcups": 16882,
    "built": 16825,
    "Ġestablishment": 13578,
    "Ġgre": 1582,
    "factories": 19842,
    "ampling": 12723,
    "jac": 8381,
    "Ġaware": 5756,
    "tired": 21071,
    "Ġat": 395,
    "orative": 21396,
    "tee": 16168,
    "cuniary": 26379,
    "Ġpitched": 9443,
    "proceed": 8976,
    "Ġlif": 10195,
    "Ġprep": 4192,
    "bon": 13683,
    "Ġkent": 6691,
    "Ġtreasure": 9558,
    "you": 1007,
    "Ġunexpected": 6841,
    "ison": 3075,
    "Ġrounds": 18884,
    "Ġ104": 24412,
    "Ġprehens": 22228,
    "Ń": 260,
    "Ġcurbstone": 26042,
    "Ġlongest": 18630,
    "sincerely": 24584,
    "Ġendeavor": 16544,
    "Ġbethink": 12377,
    "Ġsaw": 1350,
    "length": 7134,
    "Ġshol": 21992,
    "Ġenticements": 26034,
    "Ġfrankenstein": 7095,
    "ire": 490,
    "Ġfer": 5529,
    "Ġexertion": 8053,
    "Ġremoved": 5274,
    "ered": 1681,
    "ulsive": 10233,
    "Ġparade": 18301,
    "Ġhearse": 10420,
    "Ġbruised": 25772,
    "urous": 10212,
    "Ġwait": 4907,
    "Ġconjured": 25099,
    "Ġshameful": 19851,
    "Ġswandam": 11090,
    "ffic": 22148,
    "uarded": 21104,
    "tailed": 17685,
    "Ġinser": 6820,
    "tum": 11531,
    "rian": 10241,
    "sleepy": 24729,
    "ina": 21178,
    "Ġbottom": 3673,
    "aternity": 21264,
    "Ġconvention": 25546,
    "Ġorganize": 8991,
    "asse": 15642,
    "oop": 10715,
    "aud": 8521,
    "determination": 19943,
    "Ġmysterious": 7528,
    "Ġday": 956,
    "ect": 381,
    "Ġnumbers": 2889,
    "splinter": 25210,
    "Ġinaudible": 21496,
    "Ġanytime": 12882,
    "Ġcontin": 5382,
    "Ġrambled": 20167,
    "Ġpreventing": 884,
    "Ġbasin": 19847,
    "invariably": 26416,
    "Ġinvestment": 24336,
    "Ġconstrained": 19239,
    "Ġopening": 5045,
    "sick": 13783,
    "Ġtrustworthy": 24107,
    "Ġirrevocably": 15296,
    "Ġgourmand": 26466,
    "Ġsituation": 4071,
    "Ġsimilitude": 19210,
    "epilogue": 22097,
    "irts": 9237,
    "Ġworth": 4415,
    "Ġwindpipe": 23103,
    "Ġsalmon": 24058,
    "alarmed": 21500,
    "Ġoctober": 17226,
    "Ġtranced": 18421,
    "Ġmixture": 9562,
    "Ġfire": 2333,
    "Ġmeditations": 25013,
    "verity": 14000,
    "Ġremarkable": 4915,
    "Ġwallow": 19464,
    "ce": 313,
    "Ġspices": 22128,
    "Ġpolitely": 8993,
    "uneasy": 23685,
    "Ġantagon": 19549,
    "terns": 21819,
    "sac": 7140,
    "Ġher": 427,
    "parsee": 14508,
    "confidence": 16808,
    "Ġvehemence": 26566,
    "aet": 15306,
    "Ġineffable": 17331,
    "mish": 17598,
    "Ġcaptiv": 16254,
    "Ġclothed": 19605,
    "Ġproudly": 19741,
    "Ġasia": 11681,
    "came": 4569,
    "Ġunpitying": 25660,
    "pshire": 21023,
    "Ġalluded": 7884,
    "Ġsir": 1568,
    "ensed": 10995,
    "ights": 8475,
    "eed": 20840,
    "urean": 18122,
    "Ġconcre": 16383,
    "Ġdashing": 8795,
    "Ġsubjects": 7072,
    "Ġphenomenon": 17916,
    "Ġvoyage": 3055,
    "Ġpalsy": 25778,
    "Ġgoing": 2066,
    "cong": 10687,
    "Ġvort": 18193,
    "very": 500,
    "inhab": 10757,
    "Ġmarbank": 23036,
    "Ġmuseum": 15270,
    "neighbouring": 19962,
    "Ġmask": 1867,
    "Ġillustrate": 25065,
    "Ġinwards": 15618,
    "Ġentries": 22742,
    "ons": 710,
    "Ġhandling": 8912,
    "fters": 20860,
    "boilers": 26297,
    "Ġnotwithstanding": 9713,
    "iamond": 14589,
    "repeat": 25151,
    "Ġdistended": 16042,
    "Ġberyl": 20488,
    "Ġtrail": 16281,
    "Ġdeterminate": 23002,
    "Ġmountainous": 16599,
    "Ġquestioning": 10464,
    "herds": 22200,
    "Ġdisappoint": 24205,
    "Ġunconquerable": 22058,
    "links": 20957,
    "Ġconsideration": 5191,
    "indul": 22367,
    "Ġclut": 7642,
    "Ġpoltro": 23618,
    "Ġsa": 473,
    "Ġmince": 22827,
    "owal": 13992,
    "Ġsheath": 14151,
    "Ġexcessive": 3889,
    "Ġdefray": 22938,
    "false": 15353,
    "Ġtotal": 4993,
    "Ġindistinctly": 26117,
    "season": 14033,
    "staking": 21645,
    "exhibited": 18478,
    "Ġhang": 9187,
    "Ġtorm": 5434,
    "Ġemaciated": 20637,
    "ads": 5718,
    "Ġtomb": 8807,
    "Ġcarriage": 3948,
    "successively": 24779,
    "oblig": 16289,
    "Ġprovincial": 20649,
    "Ġwidest": 24234,
    "Ġesq": 15107,
    "pens": 17632,
    "Ġtechnical": 17191,
    "adding": 21756,
    "humorously": 24017,
    "Ġgovernor": 16489,
    "Ġcarve": 23090,
    "served": 5043,
    "Ġliar": 22405,
    "ions": 449,
    "Ġconn": 9229,
    "flo": 6114,
    "Ġsample": 3178,
    "conjecturing": 20133,
    "Ġtim": 4577,
    "Ġresembled": 18033,
    "Ġder": 1497,
    "aced": 2408,
    "Ġsubfield": 11867,
    "Ġcontrast": 2122,
    "Ġmun": 12559,
    "ceptible": 10957,
    "bid": 5611,
    "nikin": 23248,
    "Ġcriminals": 19921,
    "Ġmorcar": 13012,
    "Ġarrangement": 2658,
    "Ġthreading": 23400,
    "Ġeste": 6084,
    "Ġdreamt": 23936,
    "isk": 9167,
    "Ġassid": 18944,
    "harpoon": 9490,
    "conscientious": 19625,
    "Ã¦mon": 7094,
    "Ġspending": 10924,
    "Ġjac": 1900,
    "ating": 663,
    "formal": 14167,
    "remembered": 17350,
    "Ġfainter": 14912,
    "Ġinsertion": 26343,
    "tout": 21064,
    "Ġadequately": 15197,
    "Ġpostscript": 14806,
    "Ġdesirable": 8941,
    "×": 152,
    "Ġjenkinson": 11431,
    "87": 20756,
    "Ġopenly": 8572,
    "button": 10966,
    "Ġsinking": 7308,
    "reckoning": 25270,
    "Ġserenity": 10027,
    "Ġfist": 21402,
    "Ġdesigned": 7740,
    "Ġbennets": 9805,
    "justine": 7683,
    "Ġperception": 9749,
    "Ġhardly": 2434,
    "alleging": 23022,
    "pointing": 12222,
    "Ġunaccount": 22022,
    "Ġbaboon": 19692,
    "Ġfundamental": 3014,
    "Ġavocation": 23950,
    "cure": 11474,
    "Ġintrusion": 12762,
    "Ġcorporeally": 25729,
    "atching": 8201,
    "scuttle": 11908,
    "hitherto": 17283,
    "_),": 7125,
    "Ġagain": 814,
    "Ġsuddenly": 2647,
    "Ġthine": 7375,
    "Ġthistle": 21913,
    "Ġconstrain": 2630,
    "Ġruins": 16156,
    "Ġaugmentation": 20114,
    "bath": 13688,
    "onder": 3776,
    "Ġliver": 14227,
    "Ġislets": 21798,
    "urpr": 2288,
    "glit": 23848,
    "dress": 17520,
    "Ġsqualls": 17020,
    "Ġbranch": 8331,
    "Ġbattered": 17862,
    "Ġderives": 16307,
    "Ġspringing": 10518,
    "Ġencouragement": 13040,
    "becomes": 22493,
    "Ġmast": 2901,
    "tipt": 25083,
    "Ġhistory": 4005,
    "Ġmeal": 9696,
    "Ġplays": 12035,
    "Ġfault": 5702,
    "namely": 23673,
    "Ġho": 1932,
    "joint": 24006,
    "Ġentailed": 11027,
    "notice": 16145,
    "Ġmarried": 3407,
    "ilburn": 18059,
    "still": 4219,
    "Ġlaz": 7379,
    "Ġchurning": 15935,
    "Ġpalaces": 24089,
    "Ġmanufact": 22325,
    "Ġimages": 1603,
    "Ġmanagement": 8192,
    "Ġsubs": 2133,
    "Ġstation": 5297,
    "Ġbethinking": 25279,
    "bonnet": 25742,
    "plain": 1358,
    "Ġsupply": 6066,
    "aved": 5475,
    "Ġcannot": 1662,
    "Ù": 154,
    "Ġtossing": 8125,
    "nearly": 8680,
    "arm": 1357,
    "Ġadversary": 12171,
    "simp": 17665,
    "Ġcoronation": 13332,
    "Ġrobbery": 11918,
    "Ġaim": 10145,
    "macy": 18802,
    "porpoise": 16438,
    "ga": 17550,
    "shold": 2775,
    "Ġrecognise": 12038,
    "Ġpenetrating": 17011,
    "Ġsovere": 9255,
    "Ġkeeled": 18804,
    "Ġlit": 6246,
    "enial": 17780,
    "Ġchannel": 26012,
    "ostent": 16846,
    "deadly": 17100,
    "ship": 1390,
    "ino": 15478,
    "Ġsect": 17751,
    "ages": 828,
    "says": 13298,
    "tremble": 17141,
    "Ġfluctuations": 5516,
    "Ġunallied": 22027,
    "anish": 2618,
    "Ġdesk": 11904,
    "Ġenslaved": 26314,
    "Ġargu": 10934,
    "Ġwreat": 15529,
    "Ġpreviously": 3916,
    "âĢĶ_": 3200,
    "utional": 17983,
    "Ġdug": 21428,
    "Ġcalmer": 23041,
    "rederick": 14079,
    "audible": 17132,
    "Ġaffected": 5577,
    "inder": 9152,
    "Ġtet": 21156,
    "Ġrode": 15996,
    "Ġ177": 13411,
    "Ġcovent": 16072,
    "Ġadrift": 11720,
    "ssian": 3399,
    "Ġspat": 2665,
    "Ġdiscomposure": 20377,
    "Ġdarkness": 4277,
    "Ġrudimental": 25108,
    "ots": 3294,
    "Ġsubterr": 10348,
    "Ġsmaller": 1884,
    "ĳ": 244,
    "Ġjustice": 5111,
    "Ġirrevoc": 15038,
    "Ġmidway": 14603,
    "í": 174,
    "Ġsail": 1669,
    "Ġwakes": 11571,
    "arian": 10315,
    "bud": 10682,
    "Ġtub": 7146,
    "Ġprank": 23219,
    "Ġconsoling": 19455,
    "Ŀ": 256,
    "Ġporch": 19679,
    "Ġexpanded": 14289,
    "Ġcoff": 3506,
    "stays": 15686,
    "Ġdinnertime": 16719,
    "Ġupdating": 2691,
    "eches": 8077,
    "bu": 5132,
    "Ġdoctors": 12149,
    "Ġfeeling": 3084,
    "mockery": 24378,
    "sters": 6390,
    "Ġwhereof": 16100,
    "Ġwasn": 6997,
    "04": 10679,
    "Ġloved": 4598,
    "Ġcrystals": 20226,
    "Ġmovement": 9967,
    "comprehend": 14359,
    "Ġperverseness": 13653,
    "merry": 16536,
    "Ġphara": 23199,
    "soup": 21057,
    "Ġvillain": 8635,
    "mil": 13751,
    "Ġenjoined": 18191,
    "ble": 542,
    "rollable": 13944,
    "labours": 16617,
    "caps": 20806,
    "Ġlost": 2636,
    "inions": 8401,
    "Ġinteresting": 4324,
    "stun": 18018,
    "Ġtypewritten": 16420,
    "vocation": 25084,
    "latin": 25258,
    "mysteries": 26050,
    "bird": 9585,
    "Ġprovoked": 13324,
    "Ġcourse": 2135,
    "ssible": 2993,
    "Ġintroduction": 8970,
    "Ġemir": 23348,
    "Ġeyelids": 26107,
    "asion": 5714,
    "Ġconstraints": 2741,
    "Ġelegance": 11332,
    "consult": 24169,
    "Ġsobs": 14133,
    "Ó": 148,
    "Ġramsgate": 18650,
    "ook": 21003,
    "mr": 1903,
    "Ġ124": 24469,
    "Ġanswerable": 23469,
    "Ġagatha": 6866,
    "ources": 2791,
    "Ġvision": 1584,
    "ounders": 22390,
    "Ġwitnesses": 9485,
    "Ġspl": 2985,
    "pure": 17626,
    "dry": 13702,
    "Ġs": 265,
    "Ġriddle": 14818,
    "ollion": 19714,
    "ationally": 15702,
    "Ġsleek": 23382,
    "touching": 15090,
    "Ġmerest": 14029,
    "Ġpersu": 3561,
    "oir": 21001,
    "Ġhoe": 23349,
    "retired": 11934,
    "Ġsurrender": 16450,
    "steaks": 23958,
    "cop": 20800,
    "ivities": 22074,
    "Ġtwenty": 3946,
    "Ġbitterly": 8314,
    "capitals": 25080,
    "iary": 15369,
    "Ġexpense": 7652,
    "atherley": 7221,
    "Ġindifference": 6726,
    "Ġtale": 5142,
    "Ġgasfitters": 25038,
    "Ġtrusty": 24105,
    "Ġpaw": 12617,
    "birds": 15143,
    "Ġdevils": 7231,
    "Ġcoachman": 15000,
    "Ġtrans": 633,
    "bodily": 17314,
    "Ġdiscu": 4362,
    "Ġeffectively": 2638,
    "Ġjam": 10951,
    "Ġallusion": 7626,
    "Ġhumans": 8929,
    "horrors": 20540,
    "protected": 19920,
    "Ġmann": 18416,
    "happiest": 19331,
    "iii": 14772,
    "Ġprecious": 5760,
    "Ġmail": 17800,
    "og": 871,
    "surface": 10530,
    "flung": 16638,
    "mechanically": 17299,
    "gave": 7799,
    "Ġmightiest": 12958,
    "ifference": 5632,
    "iated": 5889,
    "adem": 21754,
    "Ġstartled": 7082,
    "Ġfishers": 19352,
    "Ġdepression": 21838,
    "fiercely": 25256,
    "arris": 13208,
    "Ġago": 3137,
    "exact": 7909,
    "Ġbreathed": 11220,
    "Ġtargets": 4205,
    "Ġlaws": 8002,
    "Ġpolished": 11182,
    "Ġdisinterested": 16054,
    "Ġsignify": 16493,
    "oes": 4432,
    "Ġallude": 12768,
    "Ġmomentum": 1606,
    "across": 10324,
    "Ġpauses": 14813,
    "Ġproductions": 22943,
    "iving": 1724,
    "Ġaway": 1244,
    "deliver": 19503,
    "Ġhailed": 6406,
    "uttered": 8440,
    "Ġjewel": 9941,
    "Ġstructured": 2974,
    "oup": 2016,
    "&": 10,
    "Ġchoke": 22246,
    "Ġmarines": 16259,
    "Ġperplexed": 23657,
    "Ġtopmost": 14586,
    "Ġappears": 5402,
    "Ġcousins": 9914,
    "bey": 10313,
    "aps": 1229,
    "Ġhurried": 4031,
    "Ġsources": 10147,
    "Ġalley": 15733,
    "Ġexternal": 8365,
    "Ġtransportation": 13641,
    "Ġswell": 8949,
    "stayed": 25290,
    "Ġsystems": 802,
    "Ġindignant": 12237,
    "glass": 9908,
    "Ġmaggie": 26291,
    "oice": 1381,
    "u": 89,
    "Ġreconciled": 13586,
    "Ġissuing": 16948,
    "Ġscientific": 6857,
    "algorithm": 4011,
    "Ġdisplaying": 16966,
    "aders": 21755,
    "Ġdrugg": 17119,
    "Ġblacksmith": 6595,
    "Ġdyspepsia": 20642,
    "derment": 22157,
    "Ġful": 4296,
    "sy": 2709,
    "Ġgallied": 19555,
    "one": 615,
    "sledge": 21056,
    "inations": 7568,
    "anse": 12572,
    "Ġpairs": 4183,
    "Ġburns": 16521,
    "gest": 5426,
    "magistrate": 19862,
    "ĠĠĠĠĠĠĠĠĠĠĠĠĠĠĠĠĠĠĠĠĠĠĠĠĠ": 24442,
    "Ġimportant": 1100,
    "drunk": 24659,
    ",*": 17471,
    "Ġdampening": 2896,
    "Ġjavelins": 26105,
    "ksome": 10104,
    "ainted": 3658,
    "Ġfem": 6134,
    "Ġsire": 15500,
    "Ġgang": 9207,
    "Ġblast": 7446,
    "decl": 8856,
    "Ġcomforters": 25800,
    "Ġlane": 5627,
    "Ġflourishing": 25187,
    "Ġroads": 13287,
    "naturedly": 24840,
    "Ġfacilitate": 26098,
    "Ġconjectures": 16925,
    "Ġsmokes": 22556,
    "Ġimagined": 8606,
    "Ġloveliness": 13607,
    "Ġpretence": 13206,
    "Ġconcer": 23314,
    "Ġlarboard": 11009,
    "Ġrests": 13090,
    "Ġdeprived": 8210,
    "Ġequin": 14496,
    "Ġminiatures": 20320,
    "Ġperilously": 24507,
    "Ġshar": 9249,
    "Ġbridges": 24682,
    "disciple": 16778,
    "Ġmotions": 8280,
    "Ġfainted": 8791,
    "advice": 12155,
    "animation": 16979,
    "chet": 13216,
    "Ġapplicable": 19017,
    "Ġthimble": 15634,
    "Ġcontext": 1695,
    "Ġmark": 2331,
    "ously": 2492,
    "Ġrejecting": 17051,
    "Ġlift": 8810,
    "Ġvisage": 18767,
    "Ġraise": 6166,
    "Ġspect": 3550,
    "Ġoscillations": 2899,
    ".*": 7332,
    "Ġunjust": 8483,
    "Ġspeed": 2450,
    "Ġmemoirs": 26205,
    "Ġhur": 2101,
    "Ġmiscell": 16147,
    "Ġide": 2126,
    "painter": 24896,
    "Ġcountries": 13093,
    "Ġglimmered": 20170,
    "iter": 4390,
    "Ġapology": 8327,
    "Ġcharlotte": 3887,
    "response": 25762,
    "nett": 16219,
    "Ġoftentimes": 20154,
    "Ġsilence": 3268,
    "Ġdeserts": 10507,
    "Ġneck": 4885,
    "ations": 711,
    "terogene": 21822,
    "rip": 9240,
    "Ġdecent": 10978,
    "inforcement": 3090,
    "maj": 18801,
    "Ġintellectual": 11401,
    "erpillar": 5797,
    "Ġmonomania": 17085,
    "Ġdecks": 6900,
    "Ġspell": 8855,
    "aky": 18411,
    "Ġrails": 22656,
    "details": 19674,
    "Ġomen": 11575,
    "arse": 7161,
    "Ġtr": 551,
    "Ġspeckled": 14305,
    "Ġfame": 21404,
    "Ġfrog": 23918,
    "Ġexpose": 10327,
    "ı": 242,
    "Ġgeography": 23370,
    "bout": 20772,
    "Ġhob": 12626,
    "Ġcathedral": 17412,
    "Ġsanctioned": 26349,
    "Ġmagn": 1554,
    "Ġaffliction": 25844,
    "Ġdizzy": 21430,
    "Ġnearer": 5301,
    "Ġdrop": 4343,
    "took": 6164,
    "cats": 17512,
    "hroom": 12474,
    "acqu": 4842,
    "sec": 6152,
    "Ġoaths": 13523,
    "Ġposterity": 17401,
    "Ġ84": 19708,
    "Ġlicense": 20089,
    "Ġsquaw": 22836,
    "Ġexclaim": 11221,
    "Ġways": 5396,
    "Ġtongs": 9960,
    "eous": 13711,
    "Ġenv": 2956,
    "Ġshears": 18319,
    "Ġignorance": 6618,
    "umst": 2504,
    "ivial": 15857,
    "Ġpreliminaries": 25176,
    "march": 13754,
    "Ġmanhood": 22323,
    "Ġcrazy": 8592,
    "pitching": 24073,
    "Ġconstitutional": 25125,
    "dum": 17518,
    "Ġbulge": 23855,
    "Ġwaved": 9644,
    "varying": 13803,
    "Ġkirwin": 8496,
    "children": 9055,
    "coiled": 16485,
    "Ġyoungest": 7953,
    "Ġsperma": 19043,
    "Ġfully": 6342,
    "pse": 21008,
    "ate": 423,
    "Ġverdant": 15002,
    "degra": 22138,
    "cross": 3573,
    "building": 17308,
    "Ġfields": 2146,
    "Ġgobern": 22422,
    "Ġcomponents": 8892,
    "Ġbolts": 16943,
    "rid": 5137,
    "Ġsincerely": 7961,
    "Ġjem": 18402,
    "pute": 8844,
    "Ġrevelry": 15135,
    "Ġcos": 2209,
    "currents": 23842,
    "men": 1486,
    "Ġdestruction": 6600,
    "barn": 17482,
    "religion": 20574,
    "Ġfriday": 14488,
    "Ġcompliment": 5673,
    "Ġdanish": 21429,
    "Ġscroll": 14191,
    "Ġsupernatural": 9872,
    "Ġhieroglyph": 11969,
    "scand": 18855,
    "Ġwar": 5526,
    "estate": 12818,
    "stocks": 23818,
    "Ġanchors": 12610,
    "Ġresid": 22535,
    "iration": 4539,
    "Ġcar": 1419,
    "Ġyork": 11664,
    "Ġexplanation": 6692,
    "bug": 17492,
    "Ġendeavors": 16545,
    "Ġexperienced": 6579,
    "Ġalleys": 25978,
    "Ġallowance": 14388,
    "quit": 15759,
    "Ġroughly": 17040,
    "tall": 17673,
    "Ġclang": 15969,
    "Ġattach": 14287,
    "spir": 5738,
    "gle": 20868,
    "Ġmilan": 19534,
    "Ġattracted": 8904,
    "Ġkl": 2737,
    "Ġsult": 10767,
    "rub": 15895,
    "Ġstratag": 26028,
    "Ġcabman": 14604,
    "Ġunceasing": 20356,
    "pre": 648,
    "Ġbl": 1191,
    "Ġescorted": 23504,
    "Ġgirth": 13135,
    "Ġensures": 3056,
    "lightened": 12063,
    "darcy": 5208,
    "tolerably": 21094,
    "Ġrapid": 1468,
    "Ġimplies": 24873,
    "continual": 20643,
    "Ġinscriptions": 20007,
    "Ġholmes": 1308,
    "ubines": 22961,
    "anger": 2175,
    "Ġtoss": 10184,
    "Ġsu": 434,
    "Ġshouts": 19536,
    "Ġvector": 1970,
    "Ġimpat": 4454,
    "Ġmister": 22753,
    "Ġlaid": 3938,
    "Ġutterance": 14761,
    "hoped": 20909,
    "Ġstyle": 6946,
    "derick": 22158,
    "discoloured": 23496,
    "faith": 15024,
    "Ġproficiency": 19192,
    "americans": 25042,
    "Ġcrippled": 25278,
    "Ġrose": 3442,
    "Ġsodden": 25535,
    "jam": 15370,
    "Ġwrapping": 19774,
    "Ġgorge": 13565,
    "Ġgloss": 11956,
    "Ġreigning": 15698,
    "investigations": 25533,
    "Ġsable": 15499,
    "itioned": 22466,
    "Ġbest": 1973,
    "ugnance": 12365,
    "onist": 21249,
    "world": 5058,
    "footman": 17162,
    "Ġsingled": 23771,
    "Ġvisited": 5947,
    "Ġdiffused": 12066,
    "Ġcells": 13884,
    "Ġwedged": 24068,
    "eding": 7166,
    "yl": 7818,
    "Ġmain": 809,
    "Ġdisquis": 22524,
    "Ġdarker": 13118,
    "Ġmythologies": 26213,
    "Ġincommod": 25307,
    "Ġmaps": 2965,
    "alse": 4186,
    "doubtless": 17002,
    "_.âĢĿ": 5885,
    "Ġtruck": 19510,
    "Ġeul": 21615,
    "Ġbraided": 16581,
    "era": 13846,
    "Ġfisherman": 12073,
    "Ġannoyed": 17199,
    "Ġfountain": 7366,
    "brows": 17496,
    "Ġdavy": 25951,
    "Ġjup": 15950,
    "weep": 22681,
    "Ġdefined": 11896,
    "ific": 489,
    "Ġhotels": 19535,
    "Ġwarrant": 17794,
    "tattoo": 21086,
    "everything": 6324,
    "umerable": 11723,
    "glings": 23849,
    "secret": 12234,
    "Ġsport": 6688,
    "Ġethics": 15461,
    "âĢĻ!âĢĿ": 18167,
    "Ġwishing": 7830,
    "resnet": 4069,
    "Ġawaiting": 11390,
    "Ġconcisely": 19039,
    "Ġhurtling": 24957,
    "vessel": 11377,
    "Ġdiscovers": 4426,
    "atically": 2781,
    "Ġcondescension": 10618,
    "ird": 2429,
    "Ġ75": 19611,
    "moran": 24152,
    "icant": 21559,
    "Ġcot": 13876,
    "Ġoverwhelm": 25050,
    "Ġadjusts": 8980,
    "Ġpassive": 22838,
    "Ġmist": 2877,
    "Ġperhaps": 1913,
    "position": 15412,
    "Ġcolossal": 11459,
    "renew": 24450,
    "acquaintance": 6938,
    "inkers": 22612,
    "Ġsucceed": 4544,
    "Ġbeware": 8827,
    "Ġdealing": 14046,
    "agers": 5633,
    "nets": 9132,
    "hel": 4814,
    "urring": 21702,
    "separ": 9230,
    "Ġtwinkled": 14311,
    "Ġdames": 23472,
    "Ġcontinents": 16849,
    "Ġcommentators": 25229,
    "Ġchristendom": 16695,
    "Ġtwelfth": 22675,
    "ently": 1617,
    "Ġesteemed": 10588,
    "atigable": 15269,
    "Ġmab": 12557,
    "inated": 6804,
    "?_âĢĿ": 12314,
    "Ġwife": 2588,
    "Ġcrate": 19122,
    "creat": 20799,
    "angel": 5726,
    "Ġsemicirc": 16392,
    "Ġmainland": 22647,
    "ignorantly": 25189,
    "Ġrepast": 16410,
    "Ġeverything": 3155,
    "Ġplaying": 6909,
    "Ġbount": 15565,
    "Ġconsent": 5372,
    "stool": 23817,
    "task": 13792,
    "Ġesteem": 7532,
    "unforeseen": 21885,
    "Ġlifted": 6985,
    "arers": 12127,
    "barrow": 15320,
    "Ġstile": 21729,
    "Ġinconsistency": 26182,
    "ied": 940,
    "Z": 62,
    "Ġreluctant": 20523,
    "Ġdocumentation": 20553,
    "ower": 1040,
    "Ġrecurrent": 1802,
    "Ġquietly": 4566,
    "Ġmystical": 12130,
    "Ġelephant": 8255,
    "Ġhers": 7888,
    "Ġflask": 3040,
    "Ġdraught": 9844,
    "shortly": 12256,
    "immed": 9217,
    "Ġtechn": 9371,
    "ression": 3404,
    "Ġ28": 19293,
    "Ġwings": 9163,
    "Ġbarbaric": 10013,
    "sailor": 14713,
    "goose": 19101,
    "ppery": 10892,
    "Ġresult": 4458,
    "Ġunconditional": 15842,
    "find": 6954,
    "Ġmeasurement": 19421,
    "Ġprogramming": 1184,
    "Ġharmony": 16814,
    "Ġrattled": 15065,
    "Ġrevisit": 21667,
    "Ġcried": 1487,
    "Ġcaut": 6520,
    "Ġalas": 5921,
    "Ġdenomin": 12065,
    "Ġthrowing": 6335,
    "Ġmodesty": 12816,
    "Ġvenge": 5420,
    "fury": 17547,
    "Ġenabling": 1078,
    "raising": 21629,
    "Ġbritannica": 24680,
    "congreg": 25398,
    "Ġtinged": 20081,
    "iature": 8741,
    "gracious": 11829,
    "Ġsax": 10929,
    "Ġshare": 1655,
    "Ġmanaged": 7905,
    "vo": 11539,
    "Ġonset": 12707,
    "Ġaccusations": 22377,
    "saying": 8640,
    "_--": 20761,
    "bled": 5469,
    "Ġhigher": 1818,
    "Ġdilatory": 24705,
    "Ġproprietors": 20185,
    "rons": 21038,
    "gainst": 25141,
    "Ã¦st": 24175,
    "bern": 20774,
    "Ġaffidavit": 20723,
    "Ġimpressive": 14999,
    "Ġunbending": 25464,
    "âĢĶâĢĶâĢĿ": 15937,
    "nearest": 16020,
    "Ġhorizontal": 7782,
    "Ġbent": 5149,
    "Ġsheeted": 19830,
    "Ġro": 600,
    "Ġretarded": 23070,
    "Ġdifferen": 935,
    "Ġtierce": 15477,
    "southern": 20407,
    "Ġsymph": 22206,
    "Ġreply": 4514,
    "Ġmerrily": 23731,
    "condite": 23244,
    "hold": 3979,
    "deployment": 26527,
    "Ġwhaleman": 4654,
    "Ġbarrowful": 25595,
    "Ġtexture": 19159,
    "Ġmincer": 14365,
    "Ġendured": 6072,
    "accessible": 13638,
    "Ġgeneral": 1862,
    "Ġgeological": 14532,
    "ĠĠĠĠĠĠĠĠĠĠĠĠĠĠĠĠĠĠĠĠĠĠĠĠĠĠĠĠĠĠĠĠĠĠĠ": 19257,
    "were": 2560,
    "tic": 8390,
    "Ġarrows": 18343,
    "Ġformal": 2943,
    "fights": 20864,
    "opening": 10312,
    "Ġstaggering": 20272,
    "crop": 20797,
    "unt": 2044,
    "daring": 20828,
    "walked": 10570,
    ",_": 11462,
    "fold": 7547,
    "Ġvacantly": 16815,
    "Ġtreacherous": 13553,
    "Ġlightness": 23258,
    "onent": 21247,
    "Ġimputation": 22169,
    "mates": 5073,
    "Ġobstructed": 24677,
    "Ġrealistic": 5860,
    "confidential": 25876,
    "inary": 3274,
    "Ġsupplication": 25491,
    "Ġattentions": 5877,
    "Ġpersuaded": 5769,
    "Ġbehind": 2810,
    "chronicle": 26480,
    "Ġcogn": 11002,
    "Ġminimize": 7050,
    "designated": 26295,
    "Ġelsewhere": 7712,
    "Ġshooting": 11162,
    "algorithms": 8298,
    "apprehension": 26114,
    "ckery": 22087,
    "Ġunctuousness": 17234,
    "Ġsavoury": 23875,
    "Ġfountains": 13502,
    "Ġdissuade": 26256,
    "Ġinsp": 2102,
    "Ġsteadfastly": 10651,
    "Ġsoftware": 18918,
    "Ġdeposited": 25484,
    "Ġbut": 424,
    "drown": 13703,
    "Ġarrogance": 26231,
    "Ġsmelt": 16063,
    "Ġwarned": 16880,
    "wondering": 19844,
    "Ġattempting": 14695,
    "Ġfalse": 4342,
    "abond": 15738,
    "Ġgrown": 5628,
    "Ġtot": 4187,
    "Ġinh": 10824,
    "hies": 17560,
    "speech": 10666,
    "Ġforty": 5719,
    "Ġpresented": 5183,
    "elfare": 11775,
    "jacket": 12290,
    "seas": 14032,
    "brated": 12025,
    "rodden": 21532,
    "ought": 830,
    "Ġcrooked": 11281,
    "Ġshaft": 18229,
    ",âĢĶâĢĺ": 23801,
    "Ġscience": 1574,
    "Ġrespecting": 14483,
    "Ġcommunion": 19007,
    "rift": 11519,
    "Ġguitar": 16267,
    "blog": 19838,
    "Ġstrides": 22615,
    "Ġassaulted": 25320,
    "Ġappend": 18359,
    "erial": 4631,
    "kinder": 24845,
    "Ġroad": 3878,
    "Ġbutton": 10267,
    "Ġconsidering": 4614,
    "Ġidler": 16405,
    "Ġmuttering": 10499,
    "upon": 2722,
    "older": 15753,
    "Ġperiodically": 19493,
    "Ġmadam": 5663,
    "Ġbitterness": 8024,
    "Ġdams": 16456,
    "Ġascertain": 9705,
    "Ġclubs": 25179,
    "acetty": 24464,
    "Ġprocedures": 9411,
    "ĠĠĠĠĠĠĠ": 7632,
    "Ġzoned": 22817,
    "Ġcopper": 7426,
    "language": 5129,
    "Ġprojects": 9510,
    "Ġsloop": 25930,
    "figured": 20121,
    "twenty": 6607,
    "recked": 17762,
    "Ġremot": 8543,
    "Ġsage": 17752,
    "Ġdisasters": 16051,
    "lord": 3862,
    "Ġexper": 1253,
    "Ġhearken": 21682,
    "Ġsubord": 22785,
    "devilish": 17082,
    "Ġaudits": 24770,
    "reasoning": 9475,
    "Ġtortured": 14922,
    "Ġperfections": 23607,
    "Ġsooner": 5573,
    "Ġlargely": 14284,
    "person": 7745,
    "ean": 20839,
    "Ġlegible": 23530,
    "threat": 10900,
    "Ġlie": 4405,
    "Ġbull": 7839,
    "Ġvale": 14081,
    "Ġprair": 7746,
    "Ġdirected": 5579,
    "Ġequilibrium": 4143,
    "ć": 200,
    "anged": 3585,
    "brown": 15316,
    "Ġspikes": 22134,
    "Ġornaments": 17451,
    "Ġestimates": 3745,
    "Ġavalanche": 17432,
    "Ġfill": 5701,
    "Ġcuriosity": 2276,
    "bons": 17486,
    "Ġwil": 4579,
    "estim": 14169,
    "eringly": 23001,
    "Ġbrad": 8786,
    "ward": 705,
    "inhabited": 13619,
    "hearted": 6970,
    "Ġtotally": 9470,
    "spoke": 11024,
    "gings": 7550,
    "Ġsluggish": 25890,
    "plicable": 10255,
    "Ġpreservative": 24629,
    "precip": 14663,
    "Ġappeased": 23194,
    "Ġadmirer": 16838,
    "Ġaccompan": 5513,
    "iverse": 13114,
    ";âĢĻ": 15301,
    "Ġloftiest": 16874,
    "Ġtrains": 10947,
    "Ġseries": 7059,
    "Ġblundering": 26283,
    "sulphur": 25909,
    "Ġ182": 13235,
    "Ġcave": 10785,
    "Ġexist": 9231,
    "moment": 3576,
    "Ġgrand": 3590,
    "Ġmatrices": 4969,
    "Ġinheritance": 25355,
    "Ġgums": 21608,
    "Ġsurpasses": 25268,
    "Ġstings": 21731,
    "Ġeternally": 11369,
    "Ġbeautifully": 13264,
    "Ġheightens": 24154,
    "Ġlearning": 386,
    "Ġdedication": 2926,
    "Ġalexander": 17423,
    "peace": 13046,
    "Ġinstincts": 16986,
    "Ġdegra": 2590,
    "Ġdisliked": 12888,
    "Ġmoulton": 17434,
    "Ġconsolidation": 5060,
    "Ġmourn": 8703,
    "Ġsagaciously": 24731,
    "Ġpiny": 21468,
    "Ġinstrum": 6054,
    "Ġessays": 19743,
    "Ġcass": 13878,
    "Ġmult": 1022,
    "Ġsings": 15504,
    "Ġcensure": 15094,
    "secondly": 16984,
    "Ġperforming": 7927,
    "Ġseal": 10256,
    "Ġtreacle": 14594,
    "Ġsuperl": 16446,
    "Ġsurmises": 17055,
    "Ġidiot": 11970,
    "Ġguineas": 16268,
    "archical": 1927,
    "Ġcriminal": 7538,
    "Ġimprecate": 20516,
    "Ġpartly": 6713,
    "ripp": 6403,
    "Ġcasual": 11409,
    "Ġbred": 9169,
    "Ġ4": 3983,
    "Ġfant": 9173,
    "Ġtraits": 23073,
    "Ġhid": 1318,
    "Ġwindings": 18909,
    "_.": 2213,
    "alarm": 15624,
    "resc": 21237,
    "import": 5668,
    "oysius": 14363,
    "Ġlain": 17961,
    "Ġamazement": 7764,
    "Ġtravelling": 11307,
    "Ġdoubt": 2223,
    "dropped": 12260,
    "examine": 25477,
    "been": 3344,
    "pistol": 17642,
    "Ġhinted": 6011,
    "Ġadhering": 14139,
    "Ġ129": 24474,
    "fab": 13715,
    "Ġundulations": 19514,
    "Ġglasses": 9474,
    "Ġsunrise": 9372,
    "Ġunearthly": 9036,
    "airs": 2221,
    "raint": 18317,
    "Ġerskine": 17431,
    "animal": 16978,
    "squ": 7809,
    "osque": 22259,
    "collected": 13212,
    "resolutions": 26164,
    "extra": 8218,
    "went": 6511,
    "amb": 5723,
    "uel": 6966,
    "Ġdun": 6673,
    "loved": 14250,
    "Ġtol": 6675,
    "Ġexhaustion": 14959,
    "Ġnick": 21520,
    "pleasanter": 24044,
    "child": 5538,
    "Ġnocturn": 18375,
    "Ġinstance": 2546,
    "ortion": 11755,
    "quet": 6835,
    "Ġsuggestive": 11297,
    "Ġsomnambul": 26576,
    "uction": 15442,
    "Ġhartshorn": 26180,
    "answered": 10273,
    "Ġaxis": 12305,
    "Ġchanced": 8186,
    "books": 8663,
    "bale": 20773,
    "Ġacquiesced": 25493,
    "Ġarchly": 22781,
    "cutting": 23783,
    "_âĢĶ": 11467,
    "Ġapo": 9630,
    "Ġcorner": 4368,
    "Ġsigmoid": 2464,
    "Ġfork": 15729,
    "Ġclaimed": 14205,
    "aces": 2068,
    "Ġrain": 5005,
    "Ġlabrador": 23327,
    "Ġarise": 7895,
    "ĠĠĠĠ": 459,
    "Ġpollard": 20384,
    "Ġgorgeous": 20465,
    "devoted": 20015,
    "solitude": 23292,
    "conven": 6162,
    "Ġgardiners": 11157,
    "thirst": 15823,
    "gates": 20871,
    "Ġeaglet": 19304,
    "Ġcontent": 5034,
    "Ġmaledictions": 26428,
    "illating": 22104,
    "Ġvertically": 19378,
    "Ġpolitics": 19224,
    "out": 468,
    "Ġsimulates": 2740,
    "Ġencamp": 22797,
    "Ġpleasantly": 14519,
    "Ġshared": 10263,
    "Ġ30": 10511,
    "Ġwatches": 11081,
    "north": 14615,
    "Ġkeep": 2357,
    "Ġvigil": 9506,
    "exercise": 17459,
    "rimsh": 17027,
    "Ġitalian": 12408,
    "Ġguidance": 9416,
    "usions": 6159,
    "Ġhil": 10821,
    "Ġinsens": 8276,
    "kings": 17583,
    "Ġoccasioned": 13225,
    "Ġefficiently": 3635,
    "Ġhugh": 15004,
    "Ġvig": 5460,
    "Ġvul": 10247,
    "Ġgarments": 15192,
    "Ġimitation": 22168,
    "roots": 15640,
    "Ġaugment": 8691,
    "omnipotent": 25964,
    "zes": 11548,
    "Ġjungfrau": 15247,
    "ĠarchÃ¦": 22782,
    "Ġarchitect": 995,
    "nin": 17608,
    "Ġ26": 10470,
    "Ġmassa": 19452,
    "Č": 205,
    "isure": 6240,
    "Ġprofundity": 20451,
    "Ġtrain": 515,
    "Ġunfor": 15837,
    "riptions": 14793,
    "pump": 21016,
    "Ġrigid": 16716,
    "vanity": 24974,
    "pread": 7419,
    "isms": 12577,
    "grandfather": 25009,
    "coal": 12023,
    "watson": 12241,
    "Ġappeal": 16313,
    "killing": 20941,
    "Ġbalm": 22900,
    "Ġcommun": 1704,
    "Ġstillness": 12991,
    "Ġsaviour": 20712,
    "Ġyoungster": 23176,
    "Ġdetails": 6565,
    "wood": 5897,
    "consolatory": 25306,
    "Ġbedford": 7474,
    "Ġlegend": 14573,
    "answering": 26003,
    "ilege": 22253,
    "game": 11490,
    "Ġforeseen": 16443,
    "Ġmak": 10778,
    "Ġcopse": 17067,
    "instantly": 7507,
    "Ġcreditable": 19621,
    "Ġdevoid": 18688,
    "anyone": 16593,
    "Ġsent": 1775,
    "Ġcontradict": 12383,
    "Ġjuicy": 25370,
    "orated": 12588,
    "Ġshield": 21996,
    "Ġunforeseen": 22048,
    "quar": 7616,
    "egypt": 15348,
    "Ġloathed": 15873,
    "son": 2329,
    "post": 6061,
    "Ġbus": 1906,
    "Ġinfat": 14506,
    "Ġadhes": 22100,
    "depend": 9112,
    "~": 98,
    "**": 4685,
    "Ġpersecutor": 26096,
    "Ġstifle": 18073,
    "ips": 2593,
    "Ġproximity": 3218,
    "Ġdispleased": 18555,
    "Ġvivacious": 19814,
    "ropol": 10952,
    "Ġdevotion": 22729,
    "Ġundertaken": 18986,
    "detained": 24382,
    "being": 3910,
    "Ġcombines": 1151,
    "Ġprincely": 24148,
    "dington": 11899,
    "Ġmake": 1284,
    "shook": 19855,
    "Ġgenerator": 3382,
    "á": 162,
    "Ġcemeteries": 26375,
    "Ġundressed": 19512,
    "sentimental": 25681,
    "Ġfamily": 1965,
    "fred": 20854,
    "Ġapparatus": 24908,
    "angs": 5834,
    "oned": 4630,
    "Ġicebergs": 23972,
    "Ġcanvas": 7783,
    "thickness": 25367,
    "Ġenthr": 22744,
    "Ġdistingu": 2516,
    "vously": 23502,
    "nights": 16449,
    "leaped": 17843,
    "Ġhip": 17920,
    "Ġsupervised": 3438,
    "Ġwidow": 8662,
    "spot": 9789,
    "Ġesc": 2254,
    "twas": 15436,
    "Ġundulated": 19515,
    "Ġtransc": 12861,
    "spent": 12940,
    "Ġplainer": 23704,
    "iries": 18169,
    "Ġrevealed": 6751,
    "elze": 21570,
    "Ġdearly": 10401,
    "ntax": 934,
    "Ġwalked": 3141,
    "Ġbachelor": 7786,
    "Ġtransports": 24277,
    "Ġfemin": 13435,
    "rogress": 21533,
    "Ġplans": 7917,
    "cheer": 9436,
    "Ġrequest": 6050,
    "Ġexultation": 15170,
    "Ġample": 11796,
    "isation": 13892,
    "Ġviolent": 5117,
    "h": 76,
    "Ġkeener": 22911,
    "Ġaboriginal": 14188,
    "penn": 18826,
    "ige": 12677,
    "Ġpudding": 17915,
    "Ġunexampled": 20358,
    "Ġfleets": 23773,
    "modesty": 22850,
    "Ġmeadow": 17151,
    "Ġturing": 7567,
    "dying": 10694,
    "queens": 22909,
    "Ġwhalebone": 10977,
    "Ġgratified": 8021,
    "kitchen": 17585,
    "Ġweighed": 8710,
    "Ġspreading": 13377,
    "Ġacquiesce": 20328,
    "Ġsocial": 7006,
    "Ġcran": 11999,
    "Ġalteration": 9545,
    "Ġbeale": 12696,
    "Ġjobs": 24832,
    "itous": 13866,
    "whispered": 20032,
    "Ġah": 5075,
    "changing": 10854,
    "Ġmurderer": 4980,
    "angle": 22101,
    "Ġagreed": 7028,
    "raction": 8137,
    "Ġcollectively": 19966,
    "robe": 15639,
    "Ġapproaching": 6283,
    "?âĢĿ": 700,
    "Ġrheumatic": 20704,
    "Ġmay": 925,
    "adequate": 15202,
    "elzebub": 26464,
    "begone": 12875,
    "umpled": 15874,
    "Ġane": 9181,
    "angled": 6844,
    "Ġenric": 21931,
    "Ġlifts": 25358,
    "Ġdispirited": 23880,
    "Ġwing": 6665,
    "Ġgossip": 18470,
    "mushroom": 26395,
    "frightened": 17195,
    "whips": 22235,
    "ild": 1155,
    "nuts": 15397,
    "satisf": 5781,
    "Ġcontrivance": 17183,
    "Ġargue": 16783,
    "Ġuniformity": 23482,
    "uncle": 8158,
    "ureau": 10226,
    "pping": 1425,
    "sherlock": 5422,
    "Ġpedro": 14994,
    "Ġdeeply": 4716,
    "Ġpatagonian": 20531,
    "sweep": 24617,
    "Ġgreatness": 12941,
    "feared": 11800,
    "ont": 2623,
    "Ġlunging": 24989,
    "Ġfinally": 4666,
    "speechless": 25395,
    "Ġill": 2195,
    "Ġ\"": 6119,
    "Ġguilty": 7251,
    "Ġinev": 10181,
    "Ġsufficient": 2005,
    "Ġdisagreeable": 9297,
    "Ġtis": 15464,
    "Ġdoll": 10813,
    "blot": 20782,
    "Ġprogress": 5023,
    "Ġjudiciously": 23876,
    "disinterested": 23499,
    "sole": 6168,
    "Ġpropag": 16346,
    "imson": 12686,
    "dearest": 11733,
    "abulary": 4800,
    "Ġpeterson": 9482,
    "Ġacquitted": 18898,
    "horrible": 14599,
    "onel": 3092,
    "ois": 9134,
    "Ġcachalot": 17834,
    "Ġamount": 8511,
    "Ġminim": 1323,
    "shavings": 22462,
    "Ġdiabolically": 25513,
    "Ġexplicit": 3586,
    "Ġaltern": 7395,
    "Ġobserved": 3539,
    "ledyard": 22379,
    "daugh": 6788,
    "Ġreturns": 11924,
    "Ġmur": 2490,
    "Ġexcursion": 26589,
    "Ġtold": 2187,
    "screaming": 20324,
    "âĢĻâĢĶ": 12733,
    "bab": 11468,
    "T": 56,
    "Ġgasps": 24865,
    "Ġchron": 19436,
    "Ġintru": 15825,
    "create": 24159,
    "Ġtragedies": 25241,
    "knives": 14911,
    "occasionally": 13520,
    "Ġalighted": 18103,
    "Ġruined": 12951,
    "Ġtaken": 2530,
    "tiness": 21070,
    "relu": 17759,
    "page": 13771,
    "honorable": 19900,
    "Ġdeliber": 7269,
    "Ġascendency": 20231,
    "Ġmir": 9646,
    "prehensible": 12358,
    "uttering": 12659,
    "affected": 10476,
    "nyder": 16686,
    "Ġback": 812,
    "Ġbrittle": 22862,
    "Ġbapt": 13895,
    "become": 14246,
    "Ġbunch": 11326,
    "amused": 21843,
    "best": 6111,
    "death": 6261,
    "Ġconsciousness": 9947,
    "Ġobjects": 5578,
    "thar": 18217,
    "parm": 21013,
    "Ġgallant": 8654,
    "Ġseals": 11695,
    "lizzy": 6651,
    "murmured": 24455,
    "caroline": 24149,
    "Ġmor": 1250,
    "barbar": 20237,
    "lands": 8240,
    "Ġclothe": 4711,
    "Ġclerval": 4653,
    "Ġleads": 12094,
    "charmed": 21693,
    "Ġavail": 11226,
    "precedented": 15173,
    "uther": 8816,
    "information": 12391,
    "capting": 24036,
    "breathing": 25335,
    "Ġexclusiveness": 23924,
    "Ġshocks": 16457,
    "Ġprofessional": 7300,
    "Ġmatlock": 18799,
    "rubber": 12807,
    "Ġturning": 3327,
    "Ġdelineations": 26058,
    "contented": 14633,
    "Ġabsurdities": 24878,
    "Ġoblivious": 26032,
    "Ġ33": 16676,
    "Ġscaffold": 18400,
    "Ġirritated": 17242,
    "hid": 13733,
    "responsible": 25763,
    "bury": 9106,
    "Ġbinding": 20417,
    "Ġpolicy": 10457,
    "Ġphrases": 2799,
    "Ġnewcastle": 16221,
    "pocket": 9808,
    "Ġinscrutable": 10672,
    "Ġluc": 3311,
    "rib": 1945,
    "Ġcoincid": 20316,
    "uctive": 17696,
    "ulus": 21861,
    "Ġlights": 8960,
    "Ġrevolutions": 23839,
    "Ġconcerns": 11964,
    "Ġepicures": 25880,
    "persons": 24174,
    "Ġtruly": 4796,
    "Ġsurprising": 14596,
    "Ġcontributed": 16007,
    "Ġchord": 22242,
    "Ġstochastic": 3266,
    "Ġcounsell": 25384,
    "Ġdomineering": 23660,
    "Ġdeuteronomy": 15757,
    "Ġexplained": 5935,
    "tuesday": 17690,
    "flakes": 23965,
    "Ġadored": 18291,
    "Ġvigilance": 12369,
    "sleepers": 24730,
    "Ġeigen": 4881,
    "Ġspake": 18308,
    "Ġpals": 13917,
    "sleeping": 13453,
    "Ġbring": 3324,
    "Ġscold": 10950,
    "Ġassented": 17337,
    "Ġcluster": 13570,
    "Ġinve": 17928,
    "Ġbrilliantly": 25120,
    "axed": 8888,
    "ot": 346,
    "Ġfavourite": 5270,
    "Ġarter": 22185,
    "strongly": 24684,
    "body": 2308,
    "Ġglancing": 5399,
    "ank": 1364,
    "Ġabiding": 22267,
    "Ġgoblet": 25823,
    "Ġavailed": 23949,
    "Ġconsiderations": 9409,
    "Ġprovinc": 16742,
    "Ġplumber": 16082,
    "Ġburnwell": 13265,
    "accepting": 20134,
    "Ġmarlingspike": 26579,
    "Ġgrimesby": 11457,
    "Ġabide": 14187,
    "Ġmummy": 25768,
    "Ġoccup": 3737,
    "Ġquarrel": 7293,
    "Ġoperations": 2299,
    "Ġseer": 21956,
    "dispute": 23497,
    "Ġlargest": 6282,
    "Ġdecipher": 22443,
    "Ġwool": 19431,
    "Ġbathing": 20198,
    "Ġowners": 7663,
    "Ġdrows": 21433,
    "insufficient": 15488,
    "Ġwantest": 18789,
    "atory": 6125,
    "Ġcongregation": 12327,
    "Ġfaulty": 14905,
    "abst": 21785,
    "Ġexecutors": 19532,
    "happiness": 6468,
    "umber": 5241,
    "¼": 125,
    "Ġfooting": 14482,
    "ladyship": 14827,
    "Ġdear": 1537,
    "orange": 21398,
    "Ġberkshire": 16884,
    "Ġstrength": 4259,
    "I": 45,
    "Ġelementary": 24814,
    "Ġsplendidly": 25327,
    "churning": 21694,
    "station": 10844,
    "Ġbern": 17858,
    "business": 5610,
    ".,": 5987,
    "Ġsubtle": 6716,
    "tical": 10128,
    "Ġmanner": 2198,
    "Ġmapp": 2082,
    "Ġsin": 1512,
    "ł": 259,
    "Ġgrammar": 1061,
    "Ġerror": 1766,
    "Ġsyllables": 25298,
    "Ġwhip": 8451,
    "Ġverte": 9440,
    "Ġforegoing": 23448,
    "Ġghostly": 24650,
    "Ġjoists": 19232,
    "theirs": 23601,
    "res": 2761,
    "inburgh": 15489,
    "Ġconsist": 1934,
    "inting": 9813,
    "Ġexcl": 3473,
    "Ġegypt": 9678,
    "Ġtinker": 15130,
    "Ġastir": 14639,
    "Ġchapter": 2958,
    "arth": 4441,
    "Ġclamorous": 24909,
    "Ġbringing": 5869,
    "Ġinland": 11607,
    "Ġbump": 9659,
    "danish": 20832,
    "Ġinquire": 7719,
    "Ġhopelessly": 16375,
    "arks": 2845,
    "Ġ3": 3982,
    "Ġamounts": 6704,
    "Ġmysteries": 11322,
    "ê": 171,
    "steak": 14706,
    "resum": 17761,
    "Ġcreep": 22721,
    "Ġshag": 9250,
    "Ġexpressed": 4465,
    "ingolstadt": 21302,
    "Ġtimidly": 11338,
    "Ġscraped": 16903,
    "repairing": 24495,
    "Ġhorsham": 10406,
    "Ġbreeds": 23346,
    "Ġpyramid": 8801,
    "ates": 519,
    "Ġgenerations": 10964,
    "Ġlucifers": 16588,
    "quent": 2095,
    "Ġratt": 7880,
    "hammer": 14489,
    "Ġmort": 3458,
    "Ġnations": 8809,
    "arle": 21438,
    "Ġsuppose": 2866,
    "Ġbites": 23742,
    "Ġblo": 2734,
    "artificial": 1004,
    "Ġtoes": 10829,
    "Ġfashion": 4297,
    "ountain": 2918,
    "Ġmin": 1025,
    "Ġamateur": 22482,
    "Ġinterrupted": 6343,
    "congenial": 25399,
    "ailing": 7021,
    "Ġribs": 7101,
    "Ġinsufferable": 13930,
    "Ġchicha": 15934,
    "Ġpuzzling": 14896,
    "Ġarrives": 23606,
    "iably": 13737,
    "Ġstricken": 9775,
    "bald": 16447,
    "Ġspaniards": 25555,
    "Ġdisastrous": 16057,
    "Ġunidirectional": 3424,
    "Ġstrasburgh": 18615,
    "ater": 3370,
    "countryman": 24639,
    "xic": 9145,
    "Ġknob": 24407,
    "Ġstuffed": 13408,
    "Ġupbraided": 26528,
    "Ġsins": 13836,
    "ubbub": 23241,
    "Ġtreachery": 15100,
    "Ġburgled": 23652,
    "Ġcentre": 5123,
    "Ġaquiline": 26159,
    "Ġdespite": 19351,
    "Ġgather": 6534,
    "Ġwitness": 4620,
    "Ġdevote": 10339,
    "antages": 7193,
    "Ġaverages": 2398,
    "Ġgi": 15663,
    "Ġexceeded": 14432,
    "Ġfirmest": 16664,
    "Ġmeth": 1474,
    "Ġintimately": 24804,
    "Ġmended": 21312,
    "Ġtemper": 955,
    "Ġscarlet": 13221,
    "ante": 11719,
    "ivers": 1983,
    "Ġraptures": 13496,
    "Ġimperson": 14219,
    "ħ": 232,
    "Ġsnoo": 21227,
    "ama": 11676,
    "Ġmaw": 15537,
    "Ġadmired": 7981,
    "Ġpyramids": 15113,
    "om": 315,
    "correct": 24483,
    "Ġwhipcord": 20093,
    "Ġwretchedly": 19505,
    "Ġmere": 2714,
    "mindful": 19598,
    "Ġdistributes": 4196,
    "Ġrheum": 18216,
    "ferent": 4195,
    "Ġharpoon": 3614,
    "erect": 20847,
    "teous": 16169,
    "Ġpersonified": 19177,
    "Ġhumaneval": 25582,
    "Ġdebt": 12165,
    "Ġskirts": 14352,
    "Ġrefused": 6715,
    "Ġoce": 3031,
    "had": 1949,
    "wled": 15453,
    "Ġdelicacy": 6340,
    "Ġengra": 7873,
    "Ġdistinguish": 2727,
    "Ġhorrify": 23816,
    "su": 797,
    "Ġsit": 4216,
    "Ġprecaution": 11197,
    "Ġsuitable": 18283,
    "Ġtidings": 11397,
    "Ġcontemplative": 19892,
    "irty": 4048,
    "igms": 3046,
    "Ġheroic": 14906,
    "Ġdecreases": 3408,
    "Ġmoisture": 12357,
    "Ġminers": 22828,
    "Ġrepositories": 23362,
    "Ġarm": 2493,
    "Ġmusty": 22677,
    "Ġtreacher": 8604,
    "Į": 239,
    "Ġcrackling": 24958,
    "etween": 775,
    "Ġsurmount": 19999,
    "Ġethiop": 26155,
    "Ġglobal": 2371,
    "Ġanchor": 7369,
    "during": 6787,
    "bulk": 19923,
    "Ġfootmarks": 19336,
    "Ġinsurgents": 26600,
    "Ġdelic": 4136,
    "Ġequinox": 25856,
    "Ġplainpalais": 20736,
    "down": 3468,
    "hampshire": 23262,
    "Ġguardians": 14941,
    "hear": 10146,
    "gangway": 20666,
    "ish": 550,
    "Ġdogs": 7741,
    "Ġlibrary": 6422,
    "Ġaccuse": 14211,
    "Ġjealousy": 13575,
    "Ġhoard": 23350,
    "Ġtattered": 21170,
    "Ġrope": 4337,
    "Ġcreations": 18684,
    "Ġpuzz": 5533,
    "Ġnetwork": 452,
    "Ġinsects": 25646,
    "Ġraging": 14308,
    "Ġwhimsical": 20426,
    "Ġquant": 6423,
    "doctor": 19095,
    "Ġmadness": 6601,
    "Ġvess": 3295,
    "magnitude": 17248,
    "waving": 21130,
    "oors": 17620,
    "Ġadm": 2403,
    "Ġcontrive": 16008,
    "Ġshrimp": 24157,
    "Ġcomposed": 8891,
    "atiously": 15520,
    "influ": 9540,
    "Ġlanes": 19764,
    "indignation": 18438,
    "quarter": 11388,
    "Ġhate": 5445,
    "Ġmarvelled": 18873,
    "Ġcontr": 1916,
    "impenet": 18053,
    "ram": 13971,
    "leather": 13889,
    "Ġsequ": 983,
    "countenance": 6925,
    "Ġadversity": 24303,
    "Ġarrog": 18344,
    "Ġweep": 7620,
    "Ġpeevish": 26557,
    "ney": 2494,
    "razor": 21634,
    "Ġgabriel": 7596,
    "mannered": 22852,
    "ifling": 15780,
    "Ġcollateral": 20070,
    "ppered": 15788,
    "Ġsing": 3074,
    "occupation": 15056,
    "Ġsealed": 15816,
    "Ġlun": 7855,
    "Ġspans": 18304,
    "Ġtags": 20570,
    "Ġstark": 7391,
    "antled": 18286,
    "splash": 25209,
    "forbearance": 22792,
    "Ġchildren": 3765,
    "Ġdipped": 15592,
    "Ġcordially": 16836,
    "storm": 9681,
    "Ġcolour": 4459,
    "Ġsource": 6805,
    "tried": 13793,
    "concl": 12866,
    "Ġdigesting": 19808,
    "anque": 13887,
    "ahead": 12432,
    "Ġfriendly": 9819,
    "Ġgriff": 22803,
    "Ġregretted": 13399,
    "mblies": 24608,
    "Ġperfume": 25665,
    "twice": 14620,
    "Ġpotent": 12062,
    "acit": 16078,
    "perse": 15891,
    "use": 2537,
    "Ġsincer": 13063,
    "Ġsuperiors": 23454,
    "Ġknot": 7011,
    "med": 1910,
    "Ġaided": 17745,
    "Ġnotable": 18222,
    "attent": 9358,
[...]
