{
  "metadata": {
    "vocab_size": 26615,
    "algorithm": "BPE",
    "created_at": "2026-07-20 05:38:12",
    "special_tokens": [
      "<PAD>",
      "<SOS>",
      "<EOS>",
      "<UNK>",
      "<MASK>"
    ]
  },
  "vocab": {
    "Ġattending": 3283,
    "istically": 14145,
    "formed": 2552,
    "asiness": 8130,
    "Ġchapter": 2956,
    "Ġterti": 14539,
    "Ġaccidental": 16849,
    "Ġpr": 1596,
    "Ġxiv": 23410,
    "eray": 21269,
    "helpless": 16791,
    "thyself": 19300,
    "adding": 21766,
    "uvier": 9070,
    "code": 15331,
    "Ġhag": 12630,
    "stump": 21657,
    "Ġwis": 3728,
    "Ġthirteen": 15277,
    "Ġchamounix": 14866,
    "aimed": 3952,
    "urrection": 12412,
    "Ġdirect": 1472,
    "Ġcampaign": 20663,
    "summoned": 26592,
    "Ġhorner": 8960,
    "Ġabated": 18391,
    "Ġcarpet": 9358,
    "Ġconcrete": 20639,
    "Ġmemo": 18121,
    "mun": 20964,
    "caterpillar": 26384,
    "leeward": 15213,
    "mediate": 16516,
    "Ġdifferences": 18713,
    "entirely": 7783,
    "Ġinsufferable": 13933,
    "I": 45,
    "Ġbalancing": 2429,
    "Ġgerm": 13966,
    "flatter": 23970,
    "Ġmapp": 2083,
    "Ġstrategies": 1839,
    "Ġinterm": 14270,
    "Ġdives": 17892,
    "Ġstraightway": 9019,
    "Ġpertaining": 18452,
    "Ġmbpp": 21325,
    "Ġbanqu": 12593,
    "Ġintegr": 7970,
    "det": 5207,
    "str": 2577,
    "Ġviolation": 23408,
    "ultaneous": 18583,
    "Ġstoke": 10397,
    "shroud": 20313,
    "Ġtarquin": 23612,
    "Ġrefreshment": 17241,
    "Ġlig": 21552,
    "Ġmilitia": 13320,
    "flask": 12103,
    "Ġundeserving": 18269,
    "Ġsoot": 14133,
    "occurrences": 26333,
    "Ġarmchair": 8272,
    "lances": 15386,
    "Ġvelvets": 25394,
    "Ġmanifold": 13562,
    "Ã¦": 4338,
    "Ġtribe": 10752,
    "Ġunrolled": 22043,
    "Ġhalts": 3159,
    "Ġintentions": 10609,
    "Ġlod": 4042,
    "Ġgrim": 7439,
    "nine": 13763,
    "Ġnormalization": 1243,
    "Ġaffection": 2639,
    "Ġcave": 10786,
    "Ġmechanism": 2119,
    "Ġtriumphal": 24370,
    "lacings": 26135,
    "sch": 21053,
    "Ġlatterly": 24085,
    "Ġabhorrence": 9054,
    "iting": 2159,
    "Ġlinks": 13957,
    "Ġsubtile": 20383,
    "Ġcreaking": 14329,
    "Ġrescued": 24208,
    "consideration": 14957,
    "Ġcolumns": 14379,
    "Ġtwitch": 22680,
    "leag": 21369,
    "una": 21874,
    "Ġsevered": 18206,
    "oked": 4309,
    "vand": 21111,
    "Ġinclud": 1512,
    "Ġdecisive": 18486,
    "follow": 5680,
    "Ġcultiv": 13558,
    "Ġoffspring": 16146,
    "tom": 15438,
    "Ġemblaz": 16233,
    "oran": 8792,
    "Ġdaint": 15597,
    "ohn": 4562,
    "Ġpup": 12624,
    "thereby": 14449,
    "leaned": 21372,
    "sing": 5138,
    "Ġaghast": 16051,
    "speps": 14337,
    "Ġuncouth": 14549,
    "fine": 10092,
    "Ġfejee": 18355,
    "gentleman": 7519,
    "edmund": 17948,
    "====": 1483,
    "Ġrequiring": 2924,
    "Ġbottled": 23797,
    "Ġneural": 620,
    "Ġvoluntarily": 12144,
    "Ġsegmentation": 17342,
    "Ġarg": 4766,
    "methodically": 20666,
    "Ġtenderness": 12219,
    "Ġrelative": 11886,
    "Ġheroine": 24542,
    "Ġstarve": 24627,
    "Ġtit": 8401,
    "am": 369,
    "oors": 17621,
    "murderers": 25728,
    "Ġindications": 14633,
    "Ġwrit": 8243,
    "Ġorchard": 22099,
    "Ġbodings": 21394,
    "Ġdisagree": 22536,
    "ceive": 3065,
    "Ġlose": 5028,
    "Ġshop": 9254,
    "meetings": 20381,
    "fashion": 8082,
    "ben": 4927,
    "ro": 301,
    "Ġexecute": 7506,
    "Ġmassachusetts": 24026,
    "Ġmethodically": 23104,
    "Ġquoted": 22420,
    "Ġpott": 21472,
    "sensations": 20054,
    "Ġwont": 9854,
    "Ġbrilliantly": 25123,
    "sher": 5217,
    "Ġprotect": 6339,
    "Ġinserted": 8357,
    "Ġhandkerchief": 8916,
    "solution": 14687,
    "Ġoverjoy": 15976,
    "Ġpondered": 15169,
    "Ġtepid": 26413,
    "telescope": 26563,
    "Ġlifting": 10198,
    "Ġsnuffing": 25015,
    "Ġstatue": 23153,
    "Ġpowerful": 1478,
    "Ġmultimodal": 18749,
    "accept": 8900,
    "Ġobstructed": 24678,
    "Ġthackeray": 26456,
    "Ġsafety": 6341,
    "Ġworkman": 16271,
    "Ġugly": 8719,
    "Ġmute": 19419,
    "expressed": 9043,
    "Ġglowing": 12286,
    "phil": 7927,
    "Ġwelcome": 5603,
    "Ġgreenhorn": 23770,
    "Ġassembl": 20064,
    "arded": 5029,
    "fits": 13720,
    "o": 83,
    "head": 1437,
    "Ġcognitive": 13636,
    "Ġexercise": 8360,
    "Ġsolemn": 4103,
    "wants": 21133,
    "Ġgenerates": 3665,
    "Ġfootmarks": 19339,
    "Ġabide": 14189,
    "Ġhelen": 16657,
    "Ġmincer": 14367,
    "itical": 5802,
    "Ġsch": 13837,
    "Ġlasting": 18793,
    "brow": 15318,
    "assisted": 22312,
    "Ġapplicable": 19013,
    "Ġsweetheart": 19398,
    "Ġmind": 1617,
    "ising": 2255,
    "speptic": 23949,
    "Ġcommitting": 22677,
    "Ġcolumbus": 26565,
    "oke": 1859,
    "oughed": 22082,
    "Ġpint": 17911,
    "Ġgayer": 24497,
    "bedstead": 23935,
    "ons": 709,
    "Ġestimates": 3749,
    "interested": 9508,
    "dz": 4739,
    "Ġnav": 5819,
    "invest": 11561,
    "utmost": 21592,
    "Ġbattalions": 25777,
    "Ġconsumed": 10351,
    "Ġconveniently": 20082,
    "Ġmiscell": 16153,
    "Ġlent": 21551,
    "ell": 396,
    "Ġoffic": 3187,
    "Ġdismantled": 20219,
    "Ġburning": 5979,
    "Ġenvelope": 7319,
    "Ġteneriffe": 26415,
    "Ġcurrent": 13024,
    "Ġsutherland": 10150,
    "ilty": 6395,
    "Ġstoutly": 16925,
    "itive": 6671,
    "water": 4869,
    "Ġthickets": 24027,
    "Ġovertake": 15977,
    "Ġmasts": 6466,
    "eur": 7546,
    "rice": 13779,
    "deceit": 25557,
    "Ġillustrative": 25069,
    "nelson": 25621,
    "Ġdozen": 8187,
    "Ġtempered": 12928,
    "Ġcrest": 12945,
    "Ġones": 3020,
    "Ġcare": 1637,
    "bal": 2158,
    "aching": 5832,
    "free": 8739,
    "noon": 5037,
    "Ġseven": 4543,
    "Ġtend": 6122,
    "Ġmowers": 17814,
    "bidden": 19739,
    "Ġsp": 457,
    "Ġcommander": 8628,
    "mud": 20973,
    "ĥ": 230,
    "ober": 15409,
    "Ġprehens": 22236,
    "Ġability": 2765,
    "arson": 22750,
    "inous": 8776,
    "Ġlaid": 3941,
    "Ġpaunch": 23751,
    "Ġform": 1023,
    "Ġbishop": 13904,
    "olen": 9701,
    "have": 2059,
    "cape": 13700,
    "Ġpitchpoling": 14913,
    "Ġpleaded": 16302,
    "Ġjeroboam": 10602,
    "Ġexpl": 489,
    "omon": 10208,
    "Ġbamboo": 17439,
    "lengthwise": 19953,
    "Ġdodo": 9074,
    "Ġsplitting": 4384,
    "Ġig": 3503,
    "duty": 20242,
    "Ġirreproachable": 24918,
    "Ġhud": 10823,
    "Ġappalled": 22223,
    "Ġpresentiment": 18989,
    "etence": 21581,
    "Ġenvirons": 13185,
    "cutting": 23786,
    "Ġsustained": 13484,
    "arat": 9182,
    "number": 10116,
    "Ġjur": 12839,
    "Ġruins": 16162,
    "unctions": 18158,
    "Ġobser": 2071,
    "Ġthrob": 21522,
    "Ġactivation": 919,
    "Ġbulkhead": 24507,
    "Ġsanct": 15066,
    "Ġburke": 19253,
    "Ķ": 247,
    "Ġtoss": 10186,
    "Ġvigour": 24461,
    "Ġpausing": 8656,
    "angle": 22109,
    "Ġnatur": 17336,
    "ø": 185,
    "dipped": 20839,
    "Ġventured": 7502,
    "Ġargue": 16784,
    "mut": 17596,
    "Ġvineyard": 12333,
    "Ġwhistling": 19793,
    "Ġblasphemer": 26117,
    "grave": 16098,
    "uncontrollable": 20599,
    "Ġare": 527,
    "Ġplump": 14284,
    "Ġweapon": 7777,
    "Ġrevolut": 3256,
    "Ġendured": 6075,
    "tar": 8099,
    "Ġinexplicable": 12260,
    "Ġanticipated": 13512,
    "Ġheaded": 11055,
    "open": 7027,
    "Ġfaint": 5812,
    "least": 8788,
    "Ġsuavely": 26524,
    "Ġbugs": 13650,
    "Ġirons": 7698,
    "Ġcomposure": 7217,
    "Ġheels": 10851,
    "prepared": 13592,
    "Ġexercised": 24800,
    "distant": 13337,
    "gloom": 17141,
    "Ġelements": 2665,
    "Ġaroused": 15907,
    "iel": 11495,
    "Ġknowledge": 1448,
    "ott": 1871,
    "Ġconfiding": 19040,
    "Ġwhis": 3506,
    "Ġ*/": 10375,
    "Ġmatters": 4974,
    "why": 2833,
    "Ġfath": 7364,
    "Ġscan": 22284,
    "pe": 1439,
    "Ġconveys": 16856,
    "Ġunseason": 22057,
    "Ġcul": 17824,
    "Ġparagra": 15883,
    "12": 20751,
    "Ġtoma": 7373,
    "Ġprivacy": 19527,
    "ssible": 2993,
    "formity": 10280,
    "Ġunthink": 18248,
    "Ġtapers": 11553,
    "Ġdilig": 8351,
    "Ġxli": 14542,
    "Ġap": 5008,
    "falsehood": 25902,
    "Ġreproof": 24891,
    "Ġcent": 3252,
    "Ġvial": 10250,
    "fellows": 12277,
    "Ġfolding": 19729,
    "pike": 11516,
    "Ġglistening": 12368,
    "Ġ131": 24781,
    "Ġunprepared": 22055,
    "Ġunremitting": 26219,
    "Ġsorrow": 4629,
    "Ġfewer": 16227,
    "Ġwharves": 13507,
    "adventurous": 25362,
    "Ġaisle": 21204,
    "Ġowl": 20087,
    "encoura": 15050,
    "constantly": 24608,
    "Ġclamorous": 24910,
    "Ġdiscourage": 3117,
    "inv": 8403,
    "crimes": 16685,
    "perfectly": 9088,
    "Ġunworthy": 11718,
    "plumed": 21960,
    "Ġofficially": 24839,
    "Ġdoubting": 13102,
    "Ġplutarch": 22607,
    "Ġbarbaric": 10016,
    "Ġaxis": 12310,
    "Ġsuggestion": 19710,
    "publ": 17639,
    "andering": 21872,
    "pur": 7807,
    "Ġdestiny": 8985,
    "Ġstartled": 7084,
    "impregn": 21718,
    "Ġle": 333,
    "hyme": 19612,
    "houses": 9601,
    "Ġcastaway": 16642,
    "spouter": 22734,
    "Ġtied": 7357,
    "rope": 3185,
    "Ġsalad": 19482,
    "Ġdefect": 8557,
    "estate": 12826,
    "Ġfeels": 6882,
    "Ġbrag": 23836,
    "Ġankers": 21449,
    "Ġappertaining": 26534,
    "Ġmaketh": 15190,
    "Ġbenevolence": 9529,
    "walking": 9984,
    "nur": 11507,
    "f": 74,
    "labour": 23918,
    "intend": 16228,
    "Ġsuspicious": 9482,
    "Ġcamberwell": 25351,
    "preserve": 25304,
    "onet": 12549,
    "Ġapprehensiveness": 16878,
    "Ġadmon": 15872,
    "powerful": 24848,
    "w": 91,
    "susp": 10598,
    "contrad": 19294,
    "`": 68,
    "tales": 17687,
    "Ġmist": 2880,
    "agne": 21910,
    "Ġascertain": 9708,
    "Ġrole": 16005,
    "Ġaged": 10323,
    "Ġcloudless": 16670,
    "snap": 24849,
    "Ġkith": 22197,
    "Ġabsent": 7016,
    "Ġpremises": 10489,
    "Ġasyl": 12739,
    "burgh": 6774,
    "Ġsally": 15505,
    "Ġconvince": 14643,
    "Ġmodes": 22225,
    "Ġfading": 15588,
    "veral": 2353,
    "Ġunforgiving": 25996,
    "Ġmade": 1049,
    "Ġcrushed": 9425,
    "chel": 11208,
    "Ġinsip": 19269,
    "continued": 8679,
    "civilized": 17075,
    "mber": 5850,
    "Ġsemantics": 2898,
    "Ġfest": 10805,
    "Ġarchy": 14349,
    "Ġrouted": 24908,
    "neath": 12871,
    "Ġvisitor": 5331,
    "vacancies": 25920,
    "Ġradiant": 16810,
    "Ġdemand": 4947,
    "gentle": 5357,
    "Ġsized": 11564,
    "Ġarchangel": 8545,
    "honorable": 19903,
    "Ġheadsmen": 14734,
    "pp": 384,
    "Ġstur": 15721,
    "Ġrefused": 6717,
    "Ġdecent": 10979,
    "Ġlegs": 4917,
    "Ġprank": 23223,
    "Ġoriginally": 7304,
    "division": 20052,
    "Ġchoosing": 19593,
    "Ġringleader": 26214,
    "Ġcrooked": 11282,
    "Ġevermore": 18813,
    "dragged": 16609,
    "_,": 2802,
    "abbering": 21801,
    "Ġsubt": 11871,
    "remains": 10400,
    "Ġclinch": 18426,
    "Ġstra": 2992,
    "Ġtroop": 24898,
    "Ġswain": 18881,
    "Ġfemin": 13438,
    "Ġcaring": 23096,
    "regards": 23470,
    "Ġpolynesian": 26027,
    "Ġforetold": 23452,
    "Ġadmeasure": 18294,
    "single": 10128,
    "block": 11471,
    "tornadoes": 26154,
    "Ġprendergast": 26538,
    "Ġlob": 7629,
    "za": 13812,
    "Ġlobster": 11390,
    "laden": 14931,
    "Ġeyeing": 6461,
    "Ġchaplain": 19914,
    "bewil": 22503,
    "Ġgroan": 13327,
    "Ġwatchful": 16530,
    "put": 414,
    "Ġbolivia": 24668,
    "Ġcontrive": 16014,
    "Ġdaughter": 2873,
    "Ġsuppose": 2870,
    "steaks": 23964,
    "expose": 23666,
    "Ġpeaceful": 9458,
    "Ġsmothered": 20722,
    "irting": 11688,
    "odhead": 18120,
    "terr": 8155,
    "humor": 19455,
    "oe": 7553,
    "Ġdenny": 9003,
    "ishing": 1147,
    "acca": 23599,
    "umbered": 22122,
    "Ġcrowding": 13282,
    "Ġcau": 13883,
    "Ġiron": 3235,
    "Ġoptimal": 1856,
    "Ġbeale": 12704,
    "Ġincident": 6282,
    "opius": 18510,
    "hid": 13736,
    "Ġhandspike": 22702,
    "Ġgazes": 24097,
    "Ġphysiogn": 12391,
    "Ġsoapstone": 20514,
    "Ġexplaining": 15964,
    "Ġstrictest": 17042,
    "Ġchecking": 23290,
    "folding": 24928,
    "Ġairy": 23321,
    "Ġrehearsed": 25972,
    "Ġpresided": 20210,
    "Ġflung": 8566,
    "giving": 8742,
    "jep": 20928,
    "Ġbuffalo": 11430,
    "Ġgreece": 17070,
    "cool": 19190,
    "Ġslope": 14462,
    "Ġcrumpled": 16440,
    "Ġdoc": 7200,
    "Ġrhine": 12359,
    "ales": 3315,
    "Ġcombining": 22857,
    "Ġpapers": 4022,
    "Ġdisreputable": 22538,
    "Ġensures": 3057,
    "Ġwondrous": 4735,
    "vul": 15451,
    "Ġineffect": 13932,
    "mass": 12493,
    "figured": 20126,
    "Ġappet": 9732,
    "Ġobst": 6286,
    "susceptible": 24662,
    "Ġdrags": 16942,
    "Ġunman": 12779,
    "capting": 24044,
    "Ġungod": 22029,
    "Ġrapturously": 24889,
    "Ġmundane": 26430,
    "slow": 7811,
    "Ġunerringly": 18266,
    "since": 5897,
    "elag": 12663,
    "Ġequival": 4784,
    "mystical": 25318,
    "Ġcircumstantial": 14644,
    "Ġtwit": 12934,
    "Ġpupils": 20424,
    "pattern": 4076,
    "Ġbressed": 21390,
    "Ġshad": 3852,
    "Ġoverflow": 10294,
    "Ġdeceitful": 25733,
    "watery": 19829,
    "Ġantiqu": 12148,
    "ently": 1613,
    "Ġenlivened": 26209,
    "sli": 11524,
    "Ġrobustness": 18906,
    "=": 33,
    "airs": 2222,
    "Ġstudious": 23213,
    "Ġbacking": 16121,
    "Ġlanguid": 14215,
    "Ġcarrying": 6074,
    "Ġreassure": 21676,
    "Ġaccomp": 4713,
    "Ġanalogy": 25640,
    "Ġsidel": 9637,
    "Ġav": 3582,
    "Ġtack": 5620,
    "Ġticklish": 25037,
    "elsewhere": 19870,
    "dependence": 17169,
    "Ġha": 400,
    "Ġendeavours": 8621,
    "Ġthirt": 13941,
    "mare": 17600,
    "engineer": 23152,
    "Ġstill": 1162,
    "Ġfestoon": 20297,
    "Ġreduced": 11927,
    "icle": 10835,
    "Ġrome": 12159,
    "Ġbier": 22770,
    "Ġbackward": 7656,
    "metal": 24764,
    "Ġnone": 3224,
    "Ġregularly": 7660,
    "Ġwednesday": 9086,
    "Ġmere": 2713,
    "odecimoes": 25319,
    "Ġpowder": 11276,
    "Ġprognost": 15284,
    "Ġfuneral": 10284,
    "uel": 6967,
    "Ġglobular": 19011,
    "merry": 16539,
    "Ġrural": 21972,
    "Ġfettered": 24568,
    "Ġsearch": 2590,
    "ceed": 1075,
    "dinah": 20084,
    "2": 22,
    "Ġhelpless": 8303,
    "uguese": 20734,
    "Ġpacific": 5153,
    "Ġjudges": 14686,
    "splinter": 25211,
    "Ġobservations": 13555,
    "Ġlacey": 10199,
    "olera": 21831,
    "ilight": 12698,
    "Ġmusket": 12299,
    "Ġzer": 1092,
    "Ġfee": 7199,
    "imental": 16536,
    "Ġpaling": 21466,
    "Ġdetermination": 9821,
    "Ġsalisbury": 24068,
    "Ġsn": 2951,
    "msprop": 2624,
    "rified": 15422,
    "write": 14648,
    "cork": 20798,
    "ishment": 3507,
    "Ġpeaks": 16132,
    "----": 4057,
    "schoolmaster": 15164,
    "Ġhalyards": 21498,
    "Ġmans": 15540,
    "Ġinvestigations": 17248,
    "Ġdesperately": 24657,
    "Ġ86": 24460,
    "Ġsolomon": 11053,
    "finds": 19929,
    "Ġclub": 8876,
    "renched": 7909,
    "Ġinterrupted": 6345,
    "Ġyour": 634,
    "tawn": 21083,
    "Ġbreathing": 9448,
    "Ġtex": 15475,
    "neglected": 25670,
    ",âĢĻâĢĶ": 23530,
    "Ġturns": 4981,
    "Ġstages": 14006,
    "Ġpropontis": 17467,
    "sweep": 24619,
    "Ġreneg": 21679,
    "ffic": 22164,
    "irm": 3109,
    "Ġdesp": 3216,
    "Ġsquall": 7045,
    "Ġdat": 495,
    "Ġunperceived": 22042,
    "william": 4563,
    "Ġarcher": 22195,
    "Ġastonishing": 10503,
    "Ġagreeing": 20022,
    "estations": 22228,
    "Ġsatisfy": 6912,
    "Ġaccumulated": 11934,
    "Ġresigned": 9770,
    "ylon": 24980,
    "Ġinspire": 11998,
    "Ġball": 3624,
    "Ġsports": 18311,
    "ruct": 684,
    "friendship": 24053,
    "Ġmagical": 23105,
    "reflections": 24734,
    "Ġcoincid": 20320,
    "Ġfeed": 2130,
    "Ġberths": 20118,
    "algorithms": 8300,
    "that": 852,
    "Ġleaped": 8829,
    "threatened": 25463,
    "Ġraiment": 22656,
    "Ġhuggins": 24826,
    "estion": 18361,
    "Ġdispirited": 23884,
    "clam": 13058,
    "Ġadoption": 24951,
    "Ġascertained": 25297,
    "Ġcontinu": 1170,
    "contin": 16544,
    "Ġincant": 18569,
    "Ġjumping": 13344,
    "Ġethiopian": 26614,
    "Ġheads": 3741,
    "Ġrobbery": 11926,
    "conclude": 24071,
    "floating": 12231,
    "pounds": 21027,
    "Ġburnished": 24001,
    "brandy": 19203,
    "leg": 2817,
    "ail": 566,
    "Ġmortification": 12098,
    "Ġhabit": 6772,
    "Ġgam": 11626,
    "Ġhosts": 19942,
    "poss": 4778,
    "ipped": 5790,
    "Ġplans": 7920,
    "Ġhath": 12633,
    "Ġfacility": 19852,
    "Ġlast": 1125,
    "Ġ{": 21155,
    "Ġlangsdorff": 15279,
    "awing": 18917,
    "Ġcrests": 25686,
    "Ġcontin": 5382,
    "instances": 13322,
    "Ġleave": 2456,
    "are": 638,
    "Ġflounders": 23018,
    "Ġtopic": 9408,
    "Ġ19": 6721,
    "Ġtotal": 4993,
    "locked": 7680,
    "Ġfile": 13905,
    "Ġcompiled": 22575,
    "Ġreeds": 15700,
    "atches": 13848,
    "Ġuniform": 2227,
    "Ġconclusion": 5988,
    "Ġvine": 8474,
    "Ġstreat": 15725,
    "Ġwindpipe": 23112,
    "rals": 21045,
    "nant": 17610,
    "Ġrapidity": 11101,
    "Ġsurvivor": 17365,
    "knew": 9128,
    "Ġaboriginal": 14190,
    "vocation": 25087,
    "Ġuppermost": 15281,
    "Ġvincent": 15286,
    "pat": 10118,
    "ically": 851,
    "Ġtass": 15472,
    "Ġfavourable": 7960,
    "Ġdemonstrate": 24999,
    "clusion": 16308,
    "gave": 7801,
    "itz": 6008,
    "related": 24016,
    "etition": 7382,
    "!âĢĿ": 848,
    "phon": 4129,
    "Ġenjoy": 3761,
    "Ġengraving": 17080,
    "Ġdiving": 12606,
    "Ġdrama": 16332,
    "Ġyet": 1028,
    "Ġix": 12673,
    "Ġbudge": 15167,
    "Ġgraze": 18227,
    "Ġscruple": 25051,
    "Ġinterlacing": 22581,
    "Ġformations": 18750,
    "Ġinvesting": 19644,
    "Ġliver": 14229,
    "Ġcontrast": 2121,
    "Ġfaces": 6011,
    "Ġcurves": 18857,
    "Ġfragmentary": 25859,
    "leaves": 12583,
    "Ġsnows": 14728,
    "Ġshoes": 7073,
    "holland": 24046,
    "Ġtempestuous": 20074,
    "relations": 14735,
    "Ġ31": 12134,
    "test": 13794,
    "Ġreaders": 18916,
    "securing": 19816,
    "oles": 21007,
    "Ġaccumulates": 2894,
    "Ġrabb": 4165,
    "Ġlatter": 3987,
    "foolish": 12350,
    "arpo": 1757,
    "Ġmou": 13857,
    "Ġhermits": 22079,
    "Ġcommunicating": 16890,
    "Ġconceited": 12095,
    "Ġeasily": 3892,
    "Ġwaist": 6893,
    "Ġitaly": 10868,
    "Ġshelf": 12271,
    "Ġcut": 2641,
    "disappointment": 11426,
    "Ġturks": 14599,
    "Ġ1869": 19387,
    "ought": 829,
    "Ġtolerably": 8069,
    "Ġspool": 24803,
    "Ġincoherent": 17402,
    "Ġplaus": 22603,
    "ishop": 9744,
    "Ġhoky": 17929,
    "Ġdiffers": 23783,
    "Ġwilliam": 3482,
    "tackles": 25625,
    "Ġ104": 24411,
    "Ġwildest": 16511,
    "Ġsink": 4341,
    "Ġimplements": 2484,
    "onious": 15521,
    "entimes": 12661,
    "Ġscraped": 16904,
    "isters": 11922,
    "Ġhelmsman": 10506,
    "Ġstory": 2905,
    "Ġguinea": 8949,
    "Ġmoth": 17804,
    "urbed": 15713,
    "Ġirksome": 13114,
    "Ġinstantly": 3592,
    "Ġfanatic": 23395,
    "Ġcomplained": 16999,
    "Ġpresence": 5031,
    "Ġconsist": 1935,
    "Ġsuffice": 18871,
    "Ġdetective": 14410,
    "Ġwaters": 3596,
    "Ġclasping": 20212,
    "Ġmodern": 3212,
    "Ġstrugg": 3218,
    "stays": 15693,
    "zes": 11550,
    "Ġdiffer": 18678,
    "Ġret": 1381,
    "Ġblaming": 22934,
    "Ġsulky": 13516,
    "Ġboil": 16108,
    "Ġvillagers": 19477,
    "Ġwh": 328,
    "Ġmedical": 9472,
    "Ġaffl": 14388,
    "Ġdanger": 3521,
    "riety": 12748,
    "isure": 6242,
    "silly": 24421,
    "Ġshetland": 22163,
    "itarian": 21340,
    "unfearing": 21897,
    "Ġmonarchs": 25851,
    "story": 9214,
    "Ġsummarization": 3647,
    "Ġinsinuating": 19273,
    "Ġstrongly": 5657,
    "Ġbitterness": 8025,
    "super": 5946,
    "swift": 14854,
    "condem": 16347,
    "opened": 7915,
    "Ġsides": 4580,
    "Ġshabby": 14113,
    "preference": 22471,
    "Ġday": 959,
    "Ġinspiring": 19114,
    "Ġmeanings": 18608,
    "Ġunsophisticated": 25993,
    "sequ": 2400,
    "childhood": 16867,
    "purposes": 25024,
    "fashioned": 9572,
    "Ġdate": 7842,
    "icular": 2025,
    "Ġobjection": 6587,
    "Ġinject": 2711,
    "Ġrust": 6409,
    "Ġstone": 4646,
    "hro": 20893,
    "fire": 6359,
    "phere": 21021,
    "profess": 10630,
    "Ġdiscovered": 4413,
    "Ġrequirements": 9790,
    "umblings": 23897,
    "Ġscorching": 20071,
    "Ġdelusion": 18975,
    "Ġinitialized": 3948,
    "Ġken": 22196,
    "Ġthence": 8884,
    "Ġimplicated": 24876,
    "Ġrides": 21976,
    "thoughts": 9937,
    "desper": 13221,
    "Ġregent": 18598,
    "Ġglu": 15672,
    "Ġlongbourn": 3510,
    "Ġattendance": 12185,
    "izard": 10884,
    "alously": 15633,
    "Ġagric": 22519,
    "Ġthrills": 24541,
    "Ġinto": 649,
    "erne": 21272,
    "Ġjub": 22300,
    "Ġbuckskin": 19955,
    "Ġimprudently": 22394,
    "isf": 2433,
    "ag": 377,
    "icit": 3378,
    "Ġdelicacy": 6342,
    "Ġthem": 640,
    "capable": 13704,
    "Ġwaiter": 16366,
    "ange": 1018,
    "Ġframework": 2016,
    "Ġlandlady": 10423,
    "Ġarticle": 9504,
    "Ġarchitectures": 2913,
    "Ġbanks": 6815,
    "aws": 8238,
    "&": 10,
    "Ħ": 231,
    "Ġcigar": 9547,
    "reasoning": 9478,
    "icious": 7380,
    "Ġsur": 2186,
    "Ġannoyance": 20664,
    "Ġlanded": 7469,
    "Ġuniformity": 23487,
    "Ġaccustomed": 6861,
    "evinced": 19928,
    "Ġassembled": 9238,
    "calmed": 16207,
    "Ġvehemence": 26567,
    "Ġsaith": 14157,
    "Ġsociet": 9452,
    "Ġassail": 13066,
    "Ġinsol": 10182,
    "Ġpersisting": 18884,
    "agony": 14071,
    "Ġenvironments": 24012,
    "Ġlurch": 21559,
    "Ġbetrayed": 9563,
    "osp": 6854,
    "fri": 20856,
    "Ġoverwhelmed": 11404,
    "Ġunfolding": 17086,
    "coff": 9111,
    "Ġandromeda": 21512,
    "Ġburial": 16524,
    "Ġshape": 5639,
    "fl": 3601,
    "Ġraises": 11848,
    "histor": 13493,
    "Ġdiverse": 19211,
    "carried": 16713,
    "laughing": 15182,
    "Ġflaw": 23015,
    "Ġdetermines": 2367,
    "Ġdesponding": 25869,
    "irresistible": 18174,
    "Ġbearing": 5300,
    "istical": 8492,
    "warning": 25532,
    "inks": 6869,
    "loud": 11502,
    "Ġdegenerated": 20509,
    "Ġwickham": 2207,
    "Ġ180": 16607,
    "Ġinfidel": 13090,
    "felicity": 25143,
    "Ġsurgeons": 23468,
    "Ġpreprocess": 22238,
    "face": 3678,
    "r": 86,
    "Ġhanover": 20589,
    "Ġtwee": 22679,
    "Ġnovelist": 24776,
    "Ġcenturies": 8626,
    "Ġwearer": 21927,
    "Ġcured": 21350,
    "Ġvernal": 23891,
    "Ġpoles": 11004,
    "Ġboundless": 10497,
    "though": 2117,
    "Ġfailing": 12141,
    "oves": 15406,
    "Ġtearless": 24785,
    "Ġdescribe": 2767,
    "Ġsimple": 1618,
    "Ġback": 827,
    "tumultuously": 25614,
    "Ġrope": 4339,
    "Ġard": 5164,
    "Ġclang": 15969,
    "Ġwalking": 4325,
    "Ġupdating": 2690,
    "digger": 24311,
    "Ġhauling": 14089,
    "Ġpreposterous": 13672,
    "iment": 2820,
    "Ġexpressive": 8984,
    "uncommonly": 25550,
    "brink": 23578,
    "Ġvoyage": 3056,
    "cadence": 26126,
    "wart": 17706,
    "Ġrevers": 21668,
    "Ġago": 3136,
    "Ġvisions": 12979,
    "Ġgrown": 5628,
    "loo": 10321,
    "poise": 6173,
    "Ġhammered": 13243,
    "Ġtransport": 11279,
    "Ġrestless": 10414,
    "Ġdashed": 6012,
    "Ġray": 18643,
    "Ġraptures": 13498,
    "Ġgeese": 7696,
    "Ġtiller": 8967,
    "Ġarrangement": 2656,
    "icip": 6390,
    "!âĢĶâĢĻ": 23567,
    "Ġcloset": 19594,
    "Ġrush": 5927,
    "Ġascribe": 16783,
    "Ġtools": 11611,
    "uting": 15664,
    "Ġestablishment": 13581,
    "Ġcavity": 20491,
    "Ġmapple": 11151,
    "Ġperformer": 18756,
    "Ġmonster": 3794,
    "apothecary": 26546,
    "Ġobliging": 13246,
    "Ġmultiplicity": 19277,
    "Ġenh": 3293,
    "Ê": 139,
    "Ġsymbol": 7718,
    "treat": 12517,
    "Ġexpression": 4517,
    "Ġenrapt": 21944,
    "apers": 3481,
    "Ġferrule": 24516,
    "magnificent": 20277,
    "limin": 8385,
    "ojo": 7349,
    "Ġdignified": 15602,
    "Ġgregarious": 18966,
    "Ġgod": 1937,
    "vess": 7354,
    "reach": 17758,
    "showing": 22461,
    "ging": 2600,
    "Ġextant": 18700,
    "Ġreefed": 20305,
    "Ġconfusing": 23311,
    "Ġdrowned": 9554,
    "Ġatt": 773,
    "initely": 7569,
    "wandered": 20288,
    "Ġcup": 5697,
    "words": 7984,
    "Ġmout": 17800,
    "Ġscheming": 23274,
    "Ġprecision": 13191,
    "Ġfear": 2276,
    "post": 6064,
    "pardon": 10067,
    "inting": 9816,
    "Ġcounteracted": 19864,
    "Ġaerial": 21201,
    "ciousness": 20819,
    "Ġmustering": 18663,
    "Ġchoicest": 24222,
    "Ġdipped": 15599,
    "Ġburned": 8634,
    "Ġappar": 7411,
    "Ġfitted": 6245,
    "forgotten": 12419,
    "Ġaccelerate": 23230,
    "mor": 4217,
    "Ġaccordance": 19501,
    "Ġ127": 24471,
    "ik": 17572,
    "Ġcolt": 11045,
    "Ġdiffused": 12072,
    "azed": 9401,
    "Ġobli": 9318,
    "Ġlightened": 23265,
    "rimsh": 17028,
    "Ġtranquilly": 12293,
    "Ġsauce": 15894,
    "Ġ1894": 5196,
    "osque": 22267,
    "Ġamuse": 5942,
    "Ġcooped": 22585,
    "Ġsecondly": 14516,
    "Ġhelm": 5276,
    "Ġoutskirts": 17459,
    "Ġelizabeth": 1131,
    "Ġsequences": 1753,
    "danish": 20835,
    "Ġlighted": 7065,
    "satisf": 5781,
    "Ġimmemorially": 25384,
    "Ġunmingled": 18264,
    "Ġkent": 6693,
    "Ġcrevice": 22727,
    "app": 1039,
    "Ġgur": 21596,
    "Ġdiscol": 12957,
    "Ġencl": 16170,
    "Ġprogno": 14042,
    "Ġhabits": 6926,
    "Ġthrow": 3784,
    "Ġemma": 20697,
    "ensions": 14260,
    "Ġcheered": 16375,
    "isted": 3297,
    "rib": 1947,
    "Ġgordon": 26468,
    "Ġlabyrin": 13107,
    "Ġforb": 11665,
    "vely": 3868,
    "Ġoccupation": 9933,
    "Ġsincerity": 13681,
    "royal": 11394,
    "Ġrod": 9282,
    "Ġcharges": 23272,
    "Ġdecomposes": 5506,
    "Ġliter": 8815,
    "Ġoftener": 13567,
    "pleased": 8856,
    "Ġsphynx": 20714,
    "roots": 15647,
    "Ġdiverged": 23596,
    "ared": 771,
    "Ġidol": 7467,
    "zetts": 17715,
    "boo": 16354,
    "Ġgiving": 4087,
    "Ġeastern": 11631,
    "paper": 9138,
    "Ġevenings": 18755,
    "Ġpages": 15612,
    "Ġastonished": 7089,
    "Ġdesist": 16240,
    "ann": 5803,
    "sustained": 20571,
    "Ġattractions": 12921,
    "Ġchuckled": 10649,
    "Ġfleet": 9434,
    "Ġshine": 12771,
    "didst": 19352,
    "Ġ62": 24364,
    "pemberley": 9622,
    "sim": 6511,
    "Ġappalling": 8501,
    "Ġjourneying": 25566,
    "meant": 7923,
    "Ġimpose": 22390,
    "Ġunconscious": 9549,
    "Ġtool": 21515,
    "contented": 14635,
    "Ġspots": 11732,
    "Ġrosings": 4608,
    "Ġ78": 19616,
    "Ġreflections": 5949,
    "Ġamerica": 6764,
    "former": 11751,
    "Ġcountenances": 11968,
    "otograph": 5827,
    "oman": 2018,
    "Ġrash": 10899,
    "Ġbrightly": 13227,
    "har": 20892,
    "Ġdiscovering": 13360,
    "married": 9951,
    "Ġcry": 3498,
    "Ġmagnetic": 17242,
    "alization": 731,
    "--âĢĺ": 22852,
    "Ġmission": 13009,
    "esc": 609,
    "Ġconting": 18473,
    "bour": 2073,
    "Ġastronomy": 25927,
    "Ġfarmhouse": 24989,
    "Ġendwise": 23141,
    "Ġign": 8295,
    "Ġreporting": 24658,
    "disappeared": 14571,
    "Ġphr": 2680,
    "machines": 8386,
    "grateful": 10429,
    "Ġapprovingly": 26252,
    "Ġratio": 5066,
    "Ġvoc": 4453,
    "Ġcirclings": 26432,
    "Ġfireside": 23534,
    "twain": 23702,
    "Ġreturned": 2895,
    "undant": 14788,
    "Ġfate": 4754,
    "Ġfossils": 20225,
    "Ġcravat": 26308,
    "vanity": 24979,
    "involved": 25627,
    "Ġgunw": 6214,
    "many": 5251,
    "Ġscr": 11763,
    "takes": 21079,
    "Ġrejection": 19987,
    "Ġabound": 8866,
    "Ġcop": 7581,
    "keep": 3853,
    "Ġdeclaring": 19423,
    "Ġargemone": 24276,
    "exasper": 22432,
    "Ġimped": 18445,
    "Ġcreate": 2092,
    "vard": 21113,
    "storm": 9684,
    "Ġmodular": 12823,
    "removing": 17765,
    "Ġtuples": 13479,
    "believed": 9935,
    "parameter": 3085,
    "adier": 18092,
    "nuts": 15401,
    "arranging": 19320,
    "Ġcursed": 6731,
    "determ": 7107,
    "kitty": 10107,
    "Ġawoke": 7286,
    "umphed": 23520,
    "Ġuttermost": 19491,
    "hug": 17564,
    "Ġoaks": 16934,
    "buried": 14851,
    "renewed": 19707,
    "comp": 3819,
    "ske": 13784,
    "past": 8091,
    "Ġbutts": 15859,
    "exact": 7912,
    "Ġloose": 4649,
    "Ġhypothesis": 14785,
    "repairing": 24494,
    "Ġcurve": 23002,
    "Ġstigma": 25792,
    "Ġgentleness": 8713,
    "rap": 21632,
    "Ġintention": 5638,
    "Ġfret": 10807,
    "Ġchristmas": 6924,
    "lone": 11501,
    "rove": 21537,
    "ables": 7892,
    "Ġwretchedness": 9028,
    "Ġwip": 13855,
    "weeks": 14318,
    "Ġcanted": 17833,
    "nets": 9134,
    "Ġcomprise": 18584,
    "Ġassertions": 19950,
    "atiable": 17775,
    "branch": 23580,
    "enstein": 5800,
    "Ġreappearance": 21671,
    "Ġinqu": 2967,
    "Ġenglishman": 11230,
    "Ġtallow": 14781,
    "Ġside": 1386,
    "itching": 21338,
    "Ġexperiment": 11915,
    "Ġdistinctions": 18533,
    "odings": 4400,
    "Ġstrongest": 11136,
    "Ġglared": 13017,
    "Ġaccess": 9749,
    "Ġcant": 17826,
    "preserver": 20216,
    "pendicular": 6500,
    "Ġsituations": 10493,
    "ort": 523,
    "Ġclothed": 19609,
    "hammock": 16357,
    "Ġdepended": 9779,
    "Ġpitch": 5767,
    "Ġflies": 13029,
    "recur": 4439,
    "Ġhats": 14620,
    "feel": 3815,
    "oftener": 23968,
    "cott": 8075,
    "anders": 18155,
    "Ġleghorn": 13148,
    "inarticulate": 21198,
    "shape": 10983,
    "zers": 21149,
    "rants": 13780,
    "Ġanecdote": 26356,
    "Ġgift": 10841,
    "Ġdegrees": 7294,
    "intention": 10369,
    "Ġexisting": 12723,
    "oss": 10117,
    "ickory": 22673,
    "Ġsaints": 20677,
    "chess": 16575,
    "Ġapr": 12536,
    "Ġsensitivity": 3070,
    "Ġcompetition": 14268,
    "ral": 4628,
    "Ġranging": 8481,
    "eling": 6683,
    "getic": 12970,
    "unavoidable": 17392,
    "dum": 17519,
    "Ġtinkling": 25213,
    "enchanted": 26425,
    "Ġblotches": 25315,
    "ĠĠĠĠĠĠĠĠĠĠĠĠĠĠĠĠĠ": 22953,
    "reliable": 21243,
    "Ġroasted": 18464,
    "convers": 6569,
    "Ġslacked": 25189,
    "aging": 2238,
    "itud": 2933,
    "Ġinterrupt": 4360,
    "Ġsqueezed": 20039,
    "Ġimaginations": 16518,
    "Ġbetray": 7442,
    "jure": 20926,
    "Ġmira": 8409,
    "agery": 21912,
    "follows": 24527,
    "Ġmanhandle": 22334,
    "Ġinsensible": 12328,
    "aternity": 21268,
    "Ġpaddled": 20204,
    "proble": 9396,
    "Ġbri": 21381,
    "itters": 10782,
    "Ġtradesmen": 17105,
    "aston": 7408,
    "Ġgoin": 18470,
    "historian": 25735,
    "eat": 11484,
    "Ġgliding": 8564,
    "founded": 16715,
    "Ġconsider": 2568,
    "itably": 10783,
    "ustom": 3790,
    "Ġindistinct": 17410,
    "Ġdyspeps": 16512,
    "ular": 714,
    "cop": 20803,
    "Ġparlour": 12324,
    "Ġmeddle": 20580,
    "seized": 14037,
    "Ġbowlines": 19324,
    "Ġacqu": 1417,
    "Ġedd": 8399,
    "precisely": 6917,
    "evid": 11486,
    "Ġhopkins": 23135,
    "Ġpeg": 22693,
    "excitement": 19672,
    "Ġevaluation": 16520,
    "Ġalteration": 9548,
    "Ġrheumatic": 20707,
    "irksome": 18173,
    "by": 1163,
    "Ġpunctually": 17140,
    "Ġrebell": 21673,
    "agement": 4191,
    "Ġconvivial": 16550,
    "Ġspirit": 3724,
    "speechless": 25396,
    "nearly": 8684,
    "Ġcrawford": 24894,
    "terdam": 18132,
    "Ġperhaps": 1909,
    "Ġconge": 15750,
    "Ġwakeful": 24268,
    "Ġrecesses": 17262,
    "Ġacutely": 14316,
    "Ġcringed": 25943,
    "âĢĻ,": 14074,
    "Ġthereof": 22373,
    "ucumber": 19060,
    "Ġfut": 15579,
    "ĠâĢľ": 516,
    "Ġadventures": 7749,
    "Ġannouncement": 14835,
    "Ġabusing": 18394,
    "excuse": 13383,
    "Ġfitting": 21412,
    "Ġhighest": 3530,
    "Ġabominably": 20069,
    "Ġprodigies": 19796,
    "Ġbundles": 26176,
    "grad": 2567,
    "Ġchace": 14180,
    "Ġbespe": 19244,
    "twilight": 23704,
    "Ġfootman": 8289,
    "unte": 21878,
    "Ġgenuine": 14887,
    "laugh": 10110,
    "Ġroad": 3882,
    "Ġpropriety": 10012,
    "Ġrelaxed": 12987,
    "usion": 3299,
    "Ġstrewed": 23424,
    "rock": 15645,
    "Ġtop": 2470,
    "Ġsmoky": 22563,
    "Ġairth": 23322,
    "taught": 17685,
    "Ġmoreover": 6165,
    "Ġblasts": 19999,
    "Ġvomit": 21953,
    "lips": 13752,
    "akeman": 6269,
    "standard": 22436,
    "Ġbra": 3253,
    "Ġmatrix": 1604,
    "fair": 10094,
    "ghost": 20889,
    "_).": 5889,
    "Ġvaliant": 9801,
    "Ġdisguise": 10048,
    "leagues": 21376,
    "springs": 24912,
    "Ġcrony": 23440,
    "Ġsuperseded": 26225,
    "Ġtwentieth": 18660,
    "ivation": 3111,
    "94": 4803,
    "Ġcreativity": 3024,
    "Ġwithin": 2165,
    "Ġsex": 8845,
    "ohnson": 16328,
    "enced": 4297,
    "devoted": 20020,
    "mockery": 24377,
    "Ġwants": 5742,
    "Ġcarved": 7948,
    "Ġpresume": 8039,
    "inc": 2518,
    "became": 10516,
    "xt": 2082,
    "Ġke": 1161,
    "shriek": 20523,
    "Ġcracking": 14575,
    "Ġgrowth": 14630,
    "Ġcrisis": 13128,
    "Ġpresenting": 18988,
    "Ġequals": 4727,
    "amous": 15768,
    "Ġbre": 1912,
    "Ġbeneficial": 23934,
    "Ġflourishing": 25188,
    "Ġpedd": 17912,
    "reason": 4415,
    "Ġaid": 6124,
    "Ġaims": 15499,
    "Ġsuffering": 8948,
    "turkish": 24532,
    "shold": 2774,
    "Ġreality": 7059,
    "itch": 10162,
    "Ġimperial": 9483,
    "wearing": 22691,
    "intending": 22939,
    "Ġwalks": 8968,
    "tural": 21069,
    "Ġwonderful": 4564,
    "Ġloses": 15877,
    "Ġaccosted": 13675,
    "awakened": 14455,
    "rential": 22923,
    "Ġmemories": 14556,
    "Ġsagaciously": 24730,
    "Ġbaling": 17861,
    "Ġcondescension": 10620,
    "Ġupward": 9723,
    "unities": 15775,
    "appre": 14372,
    "amples": 1822,
    "Ġsuperlatively": 26076,
    "Ġowner": 8924,
    "ader": 14014,
    "Ġminus": 18751,
    "Ġanswered": 2857,
    "oboam": 9360,
    "nal": 1901,
    "ibid": 18843,
    "cuniary": 26380,
    "Ġdenominated": 15231,
    "educ": 10829,
    "magnitude": 17250,
    "Ġretribution": 16285,
    "Ġre": 317,
    "Ġheightened": 8652,
    "Ġunwonted": 15009,
    "Ġsimpleton": 16338,
    "Ġboards": 14303,
    "Ġentangled": 10346,
    "Ġdeed": 7870,
    "whether": 5320,
    "skirted": 24488,
    "hew": 5286,
    "Ġdarkness": 4279,
    "igning": 12685,
    "so": 892,
    "Ġcorporeally": 25729,
    "end": 505,
    "Ġdiscoverers": 26037,
    "progress": 11990,
    "Ġpitiless": 19391,
    "virt": 15454,
    "deep": 1017,
    "faces": 13722,
    "successful": 11359,
    "Ġdeceit": 13483,
    "tum": 11533,
    "Ġstanders": 19018,
    "sequently": 14584,
    "Ġunsocial": 18257,
    "Ġbuy": 8301,
    "Ġamours": 22486,
    "example": 16017,
    "Ġrenders": 13286,
    "Ġpalmed": 24093,
    "Ġanon": 9668,
    "Ġreports": 19086,
    "Ġsteer": 10388,
    "Ġceremonious": 24838,
    "scotch": 25852,
    "neighboring": 20620,
    "Ġoverthrown": 18431,
    "master": 5687,
    "}": 97,
    "arched": 10816,
    "lasting": 8012,
    "usations": 15951,
    "Ġinhab": 5083,
    "Ġtens": 17724,
    "Ġknave": 11273,
    "Ġintending": 11708,
    "Ġapproxim": 1220,
    "Ġbehaves": 23304,
    "Ġdictionary": 15115,
    "Ġsettlement": 19839,
    "done": 6501,
    "Ġexhib": 6351,
    "death": 6263,
    "Ġdigest": 24648,
    "race": 11633,
    "Ġquiet": 3259,
    "deser": 10480,
    "Ġfabric": 25948,
    "Ġtypes": 8938,
    "che": 3171,
    "Ġexig": 21832,
    "Ġtransparen": 10543,
    "almost": 4943,
    "Ġpliny": 11828,
    "never": 3152,
    "Ġestimation": 11219,
    "Ġtension": 13826,
    "station": 10845,
    "Ġgul": 7861,
    "Ġexaggerate": 25650,
    "Ġcongregation": 12332,
    "Ġsaratoga": 26424,
    "pennies": 26287,
    "signed": 21064,
    "Ġgra": 415,
    "etah": 12666,
    "customary": 25896,
    "ially": 9248,
    "Ġaband": 6563,
    "ally": 530,
    "Ġrelatives": 12985,
    "Ġscuff": 15946,
    "Ġmurky": 19204,
    "cherries": 19759,
    "Ġinsignificant": 20459,
    "uted": 7594,
    "Ġessence": 13407,
    "Ġaugmented": 15108,
    "Ġsacrificed": 17424,
    "Ġplaning": 22605,
    "strade": 5065,
    "Ġwhite": 1538,
    "arranted": 19322,
    "Ġanom": 12616,
    "Ġconcl": 5095,
    "iger": 8448,
    "penetrating": 25491,
    "king": 3061,
    "Ġmatches": 14397,
    "Ġvanished": 6874,
    "Ġvivid": 8059,
    "niest": 18991,
    "Ġintolerable": 8484,
    "Ġpoverty": 9306,
    "Ġstepmother": 16092,
    "mbling": 3343,
    "Ġsuccour": 20438,
    "Ġinquiring": 9001,
    "Ġreward": 6146,
    "urned": 9308,
    "Ġbench": 7238,
    "Ġprim": 8245,
    "Ġexec": 19495,
    "Ġliveliness": 13645,
    "Ġbearded": 15731,
    "Ġconcer": 23324,
    "artificial": 949,
    "Ġstraw": 9431,
    "third": 8169,
    "inordinate": 21197,
    "Ġcuriosity": 2559,
    "accounted": 16503,
    "Ġravine": 18648,
    "Ġum": 10213,
    "bly": 6112,
    "loss": 22512,
    "stonecraft": 24355,
    "Ġpredicts": 2594,
    "ques": 2846,
    "Ġpositions": 2058,
    "ue": 1181,
    "Ġlashings": 25100,
    "eminence": 20102,
    "Ġdeeds": 15763,
    "Ġprevent": 757,
    "instantly": 7507,
    "antique": 18288,
    "6": 26,
    "Ġinnocent": 4922,
    "Ė": 215,
    "Ġundergo": 23240,
    "Ġsecre": 5493,
    "gentlemen": 9506,
    "Ġdepress": 14048,
    "entieth": 17981,
    "obvious": 9359,
    "Ġspas": 10923,
    "peril": 18338,
    "Ġunsh": 14117,
    "Ġexplored": 23521,
    "Ġtang": 13816,
    "Ġord": 3735,
    "Ġdiabolical": 20345,
    "Ġpeculiarities": 12074,
    "Ġpatriot": 23281,
    "soc": 5175,
    "repressed": 21246,
    "Ġmention": 2987,
    "!âĢĿâĢĶ": 8535,
    "acup": 14280,
    "Ġtus": 10750,
    "Ġxavier": 2859,
    "had": 1951,
    "Ġgamb": 18000,
    "Ġflat": 8229,
    "tan": 4742,
    "umerable": 11728,
    "Ġenumer": 12750,
    "Ġnaturalist": 22903,
    "oky": 8199,
    "utter": 7595,
    "Ġideal": 13123,
    "Ġarm": 2490,
    "gor": 552,
    "affectionate": 24922,
    "Ġprec": 2922,
    "Ġtattooings": 24901,
    "Ġloos": 15875,
    "bott": 9108,
    "bad": 12439,
    "Ġcoolly": 9774,
    "asserted": 22314,
    "charm": 13992,
    "delightful": 12200,
    "Ġparameters": 994,
    "gun": 10098,
    "pyramid": 21032,
    "Ġbrazier": 26322,
    "Ġyoun": 1408,
    "against": 5872,
    "Ġrushed": 4090,
    "Ġuninhabited": 22056,
    "ivers": 1984,
    "Ġastern": 6092,
    "Ġcountrymen": 23597,
    "Ġvocation": 10527,
    "Ġranks": 21977,
    "Ġconverse": 11847,
    "Ġplayful": 19239,
    "Ġdecreed": 18485,
    "Ġrepresented": 8940,
    "Ġkrem": 9728,
    "Ġlayers": 817,
    "Ġespecial": 26411,
    "Ġepid": 18007,
    "Ġstar": 6025,
    "Ġminuteness": 19140,
    "Ġjoints": 12038,
    "andy": 8159,
    "Ġsprings": 16687,
    "Ġsw": 1355,
    "brary": 5755,
    "total": 17252,
    "Ġsuppressed": 11914,
    "raid": 3277,
    "ralian": 19603,
    "alone": 10185,
    "Ġsporty": 19892,
    "Ġdivision": 19447,
    "warrant": 21140,
    "nam": 2962,
    "itche": 7580,
    "metallic": 19882,
    "coward": 13703,
    "Ġmont": 8562,
    "scheme": 15257,
    "Ġunden": 22018,
    "Ġdifficulty": 5770,
    "Ġpill": 7847,
    "Ġbur": 2697,
    "excellent": 8045,
    "Ġabundant": 17156,
    "Ġopp": 2696,
    "oppressed": 24821,
    "Ġchimney": 6498,
    "Ġliked": 5265,
    "Ġtimorous": 24227,
    "Ġtemptation": 8681,
    "Ġbal": 1134,
    "appetite": 22851,
    "Ġdecently": 22447,
    "Ġsacrificial": 24872,
    "Ġflit": 23011,
    "Ġfemale": 8346,
    "ements": 11108,
    "sensibility": 25026,
    "Ġcelestial": 10069,
    "mering": 12494,
    "Ġabstracted": 17184,
    "Ġjuncture": 17131,
    "Ġsurround": 4618,
    "Ġasked": 2278,
    "Ġcommodores": 25375,
    "Ġevanesc": 24295,
    "Ġshapes": 14111,
    "Ġdupl": 9956,
    "jected": 22718,
    "sincere": 16908,
    "Ġdireful": 11019,
    "Ġexcl": 3475,
    "Ġnodded": 11972,
    "Ġimagine": 3924,
    "Ġindies": 22955,
    "Ġthenceforth": 25183,
    "inaw": 21186,
    "Ġscientific": 6857,
    "weigh": 18666,
    "tut": 15437,
    "Ġdeprec": 15762,
    "Ġrecounted": 22739,
    "Ġkeel": 6445,
    "Ġvindictiveness": 25739,
    "?âĢĻâĢĿ": 23645,
    "noo": 9791,
    "jah": 17582,
    "Ġ116": 24439,
    "ribs": 23369,
    "Ġresolving": 9421,
    "ny": 4015,
    "Ġclosed": 4606,
    "Ġprogress": 5023,
    "Ġeditions": 19154,
    "Ġhollowly": 24525,
    "bs": 3776,
    "dening": 22781,
    "Ġhose": 12632,
    "Ġawaited": 17074,
    "ipelag": 12849,
    "Ġgamming": 25543,
    "action": 3726,
    "ĠâĢľâĢĶ": 9736,
    "Ġpoor": 1711,
    "Ġsquires": 16185,
    "Ġincreasing": 8249,
    "Ġpipeline": 2521,
    "Ġtask": 1308,
    "Ġmutual": 8297,
    "Ġseething": 18204,
    "cra": 6356,
    "expect": 4769,
    "vers": 1324,
    "itious": 8783,
    "Ġfather": 1453,
    "Ġbatch": 888,
    "Ġplainly": 4382,
    "Ġsweat": 13142,
    "mews": 22717,
    "topp": 22570,
    "ieving": 7033,
    "Ġtraveller": 8050,
    "Ġimmens": 9941,
    "succeeded": 15178,
    "Ġcoleridge": 18769,
    "Ġcrush": 9424,
    "Ġmight": 964,
    "wling": 11546,
    "osite": 4894,
    "bers": 2570,
    "Ġfarewell": 9522,
    "beards": 22496,
    "Ġfogs": 25283,
    "suitableness": 26262,
    "eers": 20845,
    "Ġpersecutor": 26097,
    "acquired": 24297,
    "Ġtouched": 6003,
    "ridge": 9499,
    "pass": 4292,
    "Ġwatches": 11082,
    "acknowledging": 25477,
    "ortion": 11760,
    "welcomed": 24645,
    "Ġpermit": 9751,
    "Ġtables": 9880,
    "enstern": 17783,
    "Ġbottles": 16572,
    "Ġseeming": 8543,
    "Ġfreshets": 25705,
    "learn": 2442,
    "Ġaloysius": 15742,
    "scorn": 22990,
    "Ġflukes": 5267,
    "Ġcolonel": 3408,
    "Ġcanada": 22170,
    "Ġembarked": 17136,
    "eldest": 22805,
    "Ġemployer": 19435,
    "Ġfeather": 8862,
    "Ġwink": 11571,
    "Ġpoised": 22594,
    "Ġhab": 4220,
    "Ġ182": 13240,
    "umpled": 15880,
    "Ġspecific": 2002,
    "Ġsang": 12539,
    "Ġroarings": 25303,
    "Ġheadlands": 22901,
    "Ġvengeance": 5887,
    "pest": 6965,
    "Ġapprised": 18359,
    "parsee": 14519,
    "cul": 1899,
    "Ġsoliloquized": 17304,
    "Ġcasked": 24496,
    "odd": 21814,
    "ogene": 18672,
    "urable": 8926,
    "Ġexcessive": 3893,
    "Ġpinch": 15018,
    "Ġrefrain": 12946,
    "speeches": 25240,
    "Ġalgorith": 573,
    "dick": 11480,
    "Ġasph": 21903,
    "Ġshilling": 18229,
    "lorn": 12491,
    "Ġbrack": 23838,
    "Ġforemost": 12007,
    "Ġfinancial": 23134,
    "Ġpursu": 3239,
    "mistakable": 20655,
    "entary": 21571,
    "Ġprometheus": 15295,
    "Ġcor": 1320,
    "itude": 1418,
    "ses": 3029,
    "found": 4216,
    "contrivance": 26317,
    "inking": 6711,
    "Ġsteel": 3890,
    "Ġblankets": 24613,
    "Ġfounder": 17885,
    "Ġsticking": 13429,
    "afternoon": 13189,
    "Ġmagn": 1555,
    "Ġamongst": 8961,
    "Ġash": 4833,
    "M": 49,
    "Ġmiserable": 3635,
    "sworn": 24258,
    "Ġperchance": 15995,
    "Ġvaults": 17155,
    "keenest": 25662,
    "Ġdistillation": 16049,
    "Ġtows": 19565,
    "Ġfer": 5623,
    "Ġmonstrous": 7791,
    "Ï": 144,
    "Ġpaltry": 16692,
    "Ġtooth": 9194,
    "Ġtwelvemonth": 12181,
    "Ġinform": 997,
    "Ġpassage": 3886,
    "flames": 14714,
    "Ġrich": 2994,
    "Ġoutbreak": 22322,
    "isite": 15567,
    "Ġlurking": 11290,
    "Ġplants": 22602,
    "orable": 8121,
    "Ġlisten": 4674,
    "Ġinfinite": 8580,
    "nosed": 20994,
    "Ġde": 363,
    "Ġcircling": 19094,
    "ipping": 2208,
    "grew": 17556,
    "Ġcolumb": 22865,
    "newsp": 23139,
    "benefit": 24643,
    "Ġprocedure": 2813,
    "Ġsolemnisation": 24115,
    "girl": 12321,
    "Ġcarcase": 14446,
    "Ġwept": 7184,
    "Ġostr": 21328,
    "Ġshapeless": 24523,
    "Ġcompute": 2909,
    "Ġyarman": 12710,
    "Ġern": 8398,
    "aring": 1477,
    "Ġdiscreet": 16484,
    "Ġfirmly": 8015,
    "Ġdeferred": 18827,
    "tured": 13797,
    "Ġrightly": 13068,
    "infl": 15490,
    "Ġensu": 7877,
    "Ġpaintings": 15059,
    "Ġcomple": 2845,
    "carpenter": 11428,
    "Ġsing": 3074,
    "Ġhish": 21918,
    "Ġemploy": 3616,
    "scores": 22991,
    "Ġhunter": 5401,
    "Ġharpoon": 3617,
    "Ġtruly": 4796,
    "suitable": 18634,
    "seated": 11673,
    "Ġslo": 15509,
    "Ġpoker": 13924,
    "direction": 17525,
    "thoughtfully": 24049,
    "lights": 13207,
    "voy": 7145,
    "slipped": 25530,
    "posted": 24637,
    "u": 89,
    "ager": 6548,
    "Ġunconsciously": 10007,
    "Ġindispens": 22958,
    "Ġconceivable": 16614,
    "Ġreynolds": 10211,
    "Ġadvis": 9809,
    "Ġregain": 22590,
    "perpendicular": 14161,
    "Ġscarcity": 23829,
    "Ġcinque": 20489,
    "Ġcoronet": 6346,
    "Ġtartar": 17324,
    "intern": 23737,
    "databases": 3025,
    "Ġgovernments": 20270,
    "onts": 15522,
    "Ġquaff": 22419,
    "Ġcatch": 4443,
    "Ġstoried": 18075,
    "Ġinstances": 5567,
    "ison": 3075,
    "_.)": 7278,
    "Ġhellish": 10552,
    "Ġperilously": 24503,
    "sn": 7140,
    "envelope": 17784,
    "Ġinevitable": 15170,
    "Ġmighty": 4231,
    "acknowled": 10976,
    "Ġingrat": 16841,
    "Ġscratches": 22291,
    "Ġrepast": 16414,
    "Ġfallen": 5970,
    "Ġzeal": 9100,
    "biting": 20783,
    "homage": 25617,
    "Ġsturgeon": 20595,
    "Ġfall": 2988,
    "Ġroof": 6566,
    "linked": 17594,
    "ufactured": 15184,
    ".,": 5990,
    "engine": 18929,
    "Ġcontracting": 16015,
    "addressed": 13387,
    "âĢĿ": 354,
    "lemagne": 26437,
    "astes": 11742,
    "Ġabandoned": 8353,
    "Ġclusters": 25233,
    "Ġsubject": 2463,
    "Ġrescue": 13345,
    "rum": 3470,
    "Ġassertion": 13491,
    "Ġdiab": 10613,
    "bered": 4506,
    "gaz": 20880,
    "Ġlodger": 24095,
    "Ġwhirlpool": 20657,
    "sadly": 25527,
    "aver": 6786,
    "pan": 10717,
    "Ġvit": 10247,
    "faint": 17546,
    "Ġexchanging": 18135,
    "represent": 9639,
    "Ġconfessed": 8010,
    "Ġinvincible": 23483,
    "Ġmelt": 21321,
    "tap": 17677,
    "Ġincl": 4272,
    "Ġborrow": 10172,
    "Ġberkshire": 16885,
    "Ġshed": 8182,
    "Ġes": 8773,
    "Ġmoderately": 22226,
    "washed": 13049,
    "chased": 18044,
    "Ġdragged": 6889,
    "Ġribs": 7103,
    "Ġeffectually": 16172,
    "Ġnind": 17952,
    "Ġfurnishes": 19444,
    "umbrance": 22123,
    "Ġhoist": 11979,
    "stepfather": 19193,
    "ls": 1289,
    "Ģ": 227,
    "Ġinvol": 1048,
    "Y": 61,
    "soldiers": 25912,
    "Ġfumbling": 21421,
    "Ġlandlord": 5580,
    "Ġblended": 16222,
    "Ġcomment": 9234,
    "Ġcholera": 22258,
    "Ġrepaired": 13110,
    "gently": 13731,
    "Ġagonising": 25374,
    "Ġcondescended": 19959,
    "Ġmyster": 5928,
    "Ġpink": 12623,
    "impart": 21713,
    "Ġsights": 7473,
    "edy": 2863,
    "Ġscrews": 25178,
    "Ġimpassable": 20615,
    "Ġdataset": 12822,
    "Ġpurp": 2392,
    "Ġinstrument": 7120,
    "column": 19331,
    "Ġsmaller": 1882,
    "usable": 22294,
    "Ġscales": 4850,
    "Ġglanced": 5954,
    "Ġsaf": 3999,
    "Ġfoolishly": 19785,
    "Ġ94": 17718,
    "Ġunstructure": 2995,
    "Ġcand": 3274,
    "Ġhover": 15624,
    "eff": 2532,
    "handled": 19263,
    "Ġstren": 15724,
    "odecim": 9834,
    "ulance": 15771,
    "Ġhabitu": 19531,
    "Ġendued": 14079,
    "Ġfar": 1452,
    "remain": 9840,
    "Ġdiscours": 18719,
    "smoke": 17224,
    "lections": 4752,
    "etime": 12664,
    "Ġhandfuls": 17211,
    "bulkington": 19927,
    "Ġbuttoned": 25369,
    "Ġshort": 2226,
    "aker": 3664,
    "Ġbaron": 19336,
    "crowning": 25749,
    "effectually": 25131,
    "jewel": 20349,
    "apter": 1194,
    "Ġshoved": 23494,
    "ians": 2358,
    "Ġterminating": 23514,
    "Ġinn": 4591,
    "Ġemotion": 7692,
    "Ġmccauley": 26428,
    "leaped": 17845,
    "erman": 5108,
    "paradise": 20640,
    "Ġneat": 7000,
    "Ġkingdom": 12021,
    "Ġhappened": 3713,
    "driven": 19774,
    "Ġabruptly": 15153,
    "ably": 1846,
    "Ġatone": 15806,
    "Ġpace": 9185,
    "Ġtyros": 26102,
    "00": 1610,
    "ipotence": 22370,
    "strangers": 20339,
    "isl": 21378,
    "naught": 20996,
    "Ġministers": 22837,
    "Ġcl": 551,
    "served": 5043,
    "Ġsa": 474,
    "ë": 172,
    "entric": 11621,
    "irty": 4049,
    "heaven": 8054,
    "Ġastonishment": 4794,
    "doom": 23380,
    "Ġdeserted": 8640,
    "esy": 9184,
    "--------": 14784,
    "Ġresembles": 25970,
    "arians": 18524,
    "ruff": 15903,
    "Ġdropt": 23678,
    "Ġhypocr": 19475,
    "Ġenem": 4708,
    "irwin": 8471,
    "float": 19808,
    "Ġtist": 21165,
    "haustible": 16892,
    "offensive": 16398,
    "Ġvenerable": 9096,
    "Ġreport": 6193,
    "inate": 6235,
    "Ġcomforters": 25801,
    "dire": 15338,
    "Ġyard": 5923,
    "Ġwithdrawing": 11341,
    "Ġacquitted": 18899,
    "reshold": 21242,
    "Ġscoundrel": 13673,
    "Ġlearns": 2642,
    "Ġfulfil": 9553,
    "Ġruin": 6058,
    "astonished": 15034,
    "itage": 17818,
    "Ġcalmer": 23044,
    "Ġcorps": 13036,
    "Ġancho": 15607,
    "Ġcomprehension": 15089,
    "Ġswung": 6450,
    "Ġbriony": 9331,
    "Ġamounts": 6706,
    "deed": 1520,
    "would": 2351,
    "Ġtrivial": 10144,
    "Ġinsince": 23681,
    "Ġdirt": 15598,
    "Ġclassify": 1626,
    "Ġtriumphantly": 11288,
    "ubbub": 23247,
    "Ġit": 339,
    "Ġalleviated": 26205,
    "Ġcomrade": 11680,
    "ope": 4127,
    "problem": 25245,
    "Ġfrivolous": 26177,
    "q": 85,
    "compass": 9462,
    "Ġgreen": 3054,
    "Ġstiggs": 25793,
    "misery": 13346,
    "isa": 17847,
    "Ġcar": 1419,
    "bering": 18697,
    "Ġcoloured": 11046,
    "tt": 13792,
    "strip": 19833,
    "Ġsubur": 12960,
    "jolly": 20933,
    "Ġdeem": 18136,
    "Ġexhale": 24401,
    "Ġsaucer": 20608,
    "Ġcrimson": 16439,
    "Ġspeeding": 23566,
    "Ġlingo": 24904,
    "Ġcontr": 1913,
    "Ġpredefined": 20719,
    "forever": 22523,
    "Ġmultiple": 1187,
    "Ġportents": 14680,
    "Ġundertaking": 8577,
    "Ġnerve": 16343,
    "ilib": 4120,
    "grie": 12474,
    "guilt": 24073,
    "Ġnotwithstanding": 9716,
    "cloudless": 20335,
    "Ġalterations": 19873,
    "Ġmeets": 7396,
    "Ġspain": 15884,
    "idelburgh": 10563,
    "Ġescort": 23509,
    "Ġbeaks": 21760,
    "Ġexcursion": 26590,
    ",)": 9103,
    "Ġmunro": 25631,
    "Ġinvolving": 18763,
    "Ġpurport": 14582,
    "Ġcharing": 14182,
    "Ġpainting": 13143,
    "Ġexpiration": 22629,
    "Ġweakened": 16824,
    "Ġadds": 1805,
    "Ġcontemplative": 19895,
    "Ġmonoman": 7940,
    "Ġattempted": 8002,
    "Ġtedious": 15270,
    "Ġpres": 9734,
    "Ġinquest": 16549,
    "osely": 9267,
    "Ġincommod": 25308,
    "Ġdipping": 15596,
    "Ġvicissitudes": 12422,
    "Ġverdict": 13477,
    "Ġinterest": 2249,
    "Ġfielding": 16237,
    "however": 4374,
    "butter": 11788,
    "Ġworm": 9164,
    "Ġsplend": 9900,
    "officers": 10629,
    "Ġswiftly": 5670,
    "Ġwarm": 2424,
    "Ġinflict": 15002,
    "âĢĶâĢĺ": 7015,
    "Ġdecided": 5471,
    "returning": 12209,
    "Ġtenants": 23549,
    "tal": 17671,
    "nonsense": 17616,
    "commend": 19996,
    "Ġpalace": 16690,
    "Ġsize": 1218,
    "ouri": 21451,
    "thine": 15827,
    "philosophy": 13582,
    "Ġbloody": 9891,
    "Ġtrif": 6270,
    "Ġemer": 5961,
    "Ġbowled": 23771,
    "Ġshining": 8173,
    "inn": 5364,
    "Ġbehave": 23303,
    "Ġgrieved": 8298,
    "._]]": 5335,
    "Ġfarther": 5957,
    "Ġimm": 3964,
    "Ġfurnace": 19443,
    "Ġsimilarly": 24309,
    "Ġgor": 9208,
    "Ġtended": 21169,
    "Ġauthority": 7750,
    "thanking": 24325,
    "Ġcause": 2409,
    "yet": 3754,
    "Ġalice": 1484,
    "Ġfixing": 13158,
    "Ġsisters": 3641,
    "ber": 905,
    "Ġjapan": 7641,
    "ensical": 18568,
    "Ġriveted": 13620,
    "Ġjail": 22299,
    "Ġstaircase": 20099,
    "Ġreligion": 11416,
    "Ġharem": 9711,
    "painter": 24897,
    "Ġmari": 6814,
    "winter": 10741,
    "eral": 9161,
    "Ġprospects": 9961,
    "Ġcanoes": 12810,
    "luc": 9754,
    "Ġoriginate": 24123,
    "================": 3723,
    "confid": 14869,
    "Ġelusive": 22651,
    "Ġrasc": 21979,
    "Ġinasmuch": 10826,
    "Ġdraws": 19439,
    "Ġcruis": 14625,
    "tempted": 26404,
    "Ġmem": 2166,
    "Ġinstincts": 16987,
    "Ġpedest": 15068,
    "ribute": 7225,
    "Ġ72": 19614,
    "ost": 5361,
    "Ġerroneous": 17411,
    "Ġlists": 11167,
    "Ġsounding": 8266,
    "Ġbled": 17859,
    "~": 98,
    "Ġchivalry": 25820,
    "Ġlouder": 13470,
    "opening": 10314,
    "Ġpersian": 11090,
    "leaning": 10791,
    "Ġremotest": 10054,
    "Ġscot": 5643,
    "ĸ": 249,
    "Ġconcise": 23326,
    "Ġmoonlight": 9960,
    "Ġdoubtless": 6197,
    "Ġbranded": 14381,
    "painting": 17046,
    "Ġslavish": 23177,
    "aiian": 23594,
    "Ġjam": 10952,
    "Ġwarned": 16881,
    "Ġprognostics": 20561,
    "Ġidleness": 11144,
    "Ġhusbands": 16644,
    "Ġarchitecture": 1123,
    "Ġderbyshire": 6588,
    "terrible": 8468,
    "Ġpetersburgh": 24230,
    "Ġpermanent": 13633,
    "Ġenslaved": 26315,
    "university": 25984,
    "vert": 15719,
    "urously": 18053,
    "backed": 9868,
    "Ġconnection": 5479,
    "hospit": 25904,
    "Ġsuffer": 4722,
    "Ġuntoward": 19167,
    "Ġem": 1923,
    "astic": 1867,
    "asions": 12656,
    "Ġincorruption": 26310,
    "Ġbed": 2152,
    "Ġmould": 6520,
    "Ġlofty": 6219,
    "Ġpantaloons": 20299,
    "sent": 761,
    "lads": 20957,
    "Ġess": 5691,
    "perhaps": 4124,
    "Ġaffectation": 14443,
    "tallied": 21092,
    "Ġsettle": 6295,
    "Ġwhereon": 16105,
    "atural": 925,
    "teenth": 11877,
    "Ġpant": 10818,
    "Ġweap": 6157,
    "Ġelated": 18635,
    "Ġthrown": 4640,
    "amplified": 26495,
    "Ġmouse": 4694,
    "scale": 3536,
    "vable": 10134,
    "Ġunctuous": 10268,
    "gar": 5614,
    "Ġdecl": 3590,
    "Ġunsounded": 15853,
    "Ġconceived": 8151,
    "prejud": 11799,
    "Ġbru": 13897,
    "tremble": 17143,
    "Ġobliter": 14324,
    "Ġconjure": 17125,
    "Ġbackwoods": 22666,
    "scra": 13021,
    "Ġsuppression": 22999,
    "Ġsucc": 12788,
    "Ġresort": 18564,
    "sheltered": 25586,
    "elve": 4642,
    "con": 653,
    "Ġopen": 1551,
    "soundest": 24796,
    "Ġbacks": 8531,
    "onely": 6517,
    "lin": 9605,
    "insanity": 23073,
    "Ġchurned": 18386,
    "Ġadmin": 23555,
    "Ġpride": 3826,
    "Ġbosom": 6939,
    "Ġbarrow": 12073,
    "Ġrationally": 18214,
    "Ġindisc": 16231,
    "Ġinexpressible": 17335,
    "Ġswashing": 23060,
    "Ġvengeful": 14892,
    "Ġrally": 21973,
    "Ġcoopman": 25829,
    "Ġramad": 8530,
    "ogra": 4574,
    "belated": 24042,
    "Ġbecoming": 4398,
    "Ġbrink": 18773,
    "Ġheedfully": 24520,
    "fered": 5559,
    "pump": 21019,
    "Ġjoke": 8871,
    "bel": 3838,
    "Ġearliest": 9833,
    "Ġagreeably": 24955,
    "Ġparted": 5931,
    "Ġenvelop": 5585,
    "glorious": 19370,
    "Ġpin": 7162,
    "Ġsakes": 18327,
    "Ġstrife": 18615,
    "Ġcompar": 4771,
    "relieved": 13279,
    "iriously": 18172,
    "confl": 22474,
    "stubb": 6020,
    "Ġscaramouch": 23830,
    "Ġprayer": 16668,
    "actor": 11841,
    "waited": 24587,
    "Ġbawling": 25946,
    "Ġfav": 1756,
    "Ġ66": 24368,
    "Ġunhallowed": 17182,
    "reserved": 13845,
    "Ġhessian": 3549,
    "apprehension": 26115,
    "Ġbison": 21391,
    "Ġnephews": 24713,
    "possess": 5986,
    "nights": 16449,
    "need": 10984,
    "âĢĶ": 518,
    "dispositions": 25014,
    "alous": 7372,
    "Ġlabourers": 23336,
    "wes": 17704,
    "fact": 6360,
    "vicinity": 20483,
    "Ġunique": 12783,
    "ceptive": 15975,
    "Ġtroubled": 6618,
    "Ġ1828": 25720,
    "she": 1397,
    "Ġchecked": 9378,
    "Ġexperiences": 13028,
    "Ġskeleton": 5514,
    "Ġlock": 5930,
    "Ġupp": 13994,
    "Ġcounties": 23307,
    "Ġwondered": 11126,
    "respectively": 24699,
    "Ġconfine": 14511,
    "eminent": 25107,
    "anc": 6380,
    "Ġwager": 17794,
    "Ġopenshaw": 7956,
    "Ġregions": 10325,
    "Ġdusting": 24598,
    "Ġl": 303,
    "Ġassume": 10517,
    "madness": 14884,
    "eternal": 17985,
    "ullen": 8236,
    "Ġreflected": 2912,
    "romeda": 17264,
    "Ġfiddle": 25445,
    "occasional": 19579,
    "angu": 567,
    "thesize": 24907,
    "Ġgirth": 13138,
    "Ġdiver": 2528,
    "Ġpouring": 12629,
    "derick": 22167,
    "Ġmarling": 23036,
    "Ġexclamation": 8702,
    "abez": 10224,
    "Ġconcil": 23325,
    "heredit": 21212,
    "Ġbonds": 17871,
    "Ġcus": 21346,
    "Ġcontrad": 9757,
    "social": 11023,
    "Ġshrimp": 24159,
    "inkle": 22622,
    "Ġscheduling": 2348,
    "doc": 23379,
    "falgar": 26131,
    "ind": 568,
    "Ġnapoleon": 20560,
    "ut": 308,
    "Ġinvective": 26183,
    "Ġtea": 5041,
    "Ġillustration": 19137,
    "Ġcows": 15557,
    "tasted": 17688,
    "Ġidentical": 10435,
    "Ġlaugh": 4116,
    "Ġmamma": 10050,
    "Ġcompl": 3760,
    "Ġnasty": 17445,
    "narrated": 25622,
    "Ġformidable": 8221,
    "Ġcivilities": 14850,
    "ember": 1957,
    "patter": 4016,
    "Ġcasts": 19429,
    "simon": 16974,
    "Ġhaz": 12760,
    "Ġdundee": 16998,
    "Ġtumble": 16880,
    "Ġindignity": 18835,
    "melancholy": 12356,
    "Ġincul": 22554,
    "Ġletting": 10363,
    "lection": 3653,
    "stun": 18021,
    "Ġsupposing": 6730,
    "tro": 15436,
    "asily": 13948,
    "Ġunlike": 7006,
    "Ġcharcoal": 19008,
    "Ġseparately": 13305,
    "been": 3342,
    "Ġmanhat": 22332,
    "get": 1021,
    "Ġhoarsely": 26303,
    "elius": 13290,
    "india": 22376,
    "Ġarches": 14164,
    "zy": 2668,
    "Ġnapole": 15118,
    "Ġpunct": 8664,
    "Ġdetect": 1219,
    "amid": 12730,
    "Ġcomical": 11679,
    "Ġcripp": 9655,
    "eon": 8733,
    "along": 6015,
    "Ġpoets": 11824,
    "Ġparc": 10921,
    "Ġunce": 11714,
    "Ġwatching": 4855,
    "Ġincredulity": 11312,
    "Ġprophetic": 20023,
    "Ġreddening": 25971,
    "Ġhaughty": 11450,
    "Ġbankrupt": 16797,
    "ij": 7803,
    "Ġbro": 1432,
    "axen": 22525,
    "Ġquietly": 4568,
    "Ġreader": 11937,
    "Ġwards": 17791,
    "Ġintolerably": 15833,
    "Ġincred": 5646,
    "Ġextend": 18701,
    "Ġinspirited": 23423,
    "Ġtaught": 6804,
    "Ġsmooth": 2781,
    "garity": 17555,
    "Ġgroups": 3719,
    "Ġinquire": 7721,
    "buncle": 13695,
    "Ġwar": 5526,
    "alike": 17945,
    "Ġtype": 2021,
    "Ġpalp": 11250,
    "observation": 17271,
    "Ġdrug": 11411,
    "Ġgaped": 13969,
    "desolate": 25717,
    "Ġstick": 6028,
    "Ġserm": 9635,
    "Ġmoon": 4609,
    "Ġspake": 18309,
    "puted": 8849,
    "Ġcomponents": 8895,
    "Ġintelligent": 1443,
    "Ġpikes": 21482,
    "Ġemblematical": 25789,
    "sheet": 16289,
    "itiously": 13873,
    "cur": 3268,
    "tolerably": 21098,
    "midnight": 14902,
    "Ġpals": 13920,
    "Ġhinge": 25542,
    "bec": 4052,
    "Ġgallery": 10526,
    "Ġmagnified": 23207,
    "Ġadvent": 4357,
    "Ġcasket": 19727,
    "iana": 7050,
    "Ġexcessively": 9442,
    "prow": 15414,
    "Ġhorsey": 24251,
    "Ġafric": 8908,
    "Ġarmada": 23582,
    "close": 9988,
    "Ġcongenial": 12414,
    "Ġliber": 5168,
    "Ġlingered": 13506,
    "iciency": 9576,
    "fresh": 13394,
    "m": 81,
    "Ġwork": 1331,
    "Ġscanning": 18400,
    "Ġinscrutable": 10674,
    "utted": 15665,
    "Ġtechnically": 12369,
    "achine": 623,
    "Ġhereford": 22883,
    "Ġcottage": 4734,
    "Ġannoyed": 17201,
    "Ġmaterially": 12195,
    "une": 2788,
    "Ġunknown": 4455,
    "Ġinvisible": 7327,
    "Ġdetected": 18833,
    "Ġhighway": 14348,
    "Ġmockery": 12111,
    "ial": 409,
    "beside": 19879,
    "xi": 17711,
    "Ġtombed": 25164,
    "Ġcons": 955,
    "Ġtutored": 20131,
    "Ġvows": 15812,
    "ca": 20795,
    "Ġconsciousness": 9950,
    "Ġtiresome": 26157,
    "Ġantique": 19554,
    "omin": 4703,
    "etite": 21583,
    "Ġlain": 17964,
    "meadow": 18680,
    "Ġnothing": 1359,
    "Ġpatch": 4183,
    "Ġservant": 5764,
    "Ġhatred": 8612,
    "Ġhammock": 5768,
    "Ġnut": 12651,
    "Ġspiral": 14585,
    "Ġautonom": 10416,
    "Ġasserted": 16950,
    "Ġexchange": 15760,
    "acies": 14279,
    "Ġfrantic": 7958,
    "Ġrevenue": 26196,
    "Ġcurling": 9349,
    "Ġfi": 933,
    "Ġredu": 1354,
    "Ġhideous": 5985,
    "berwell": 22748,
    "ards": 2502,
    "Ġresults": 7308,
    "Ġelsewhere": 7714,
    "comple": 7441,
    "acy": 3954,
    "Ġshrugged": 12774,
    "Ġhy": 5625,
    "azz": 8263,
    "Ġprodig": 6030,
    "hess": 4747,
    "Ġcommis": 22675,
    "ackled": 22429,
    "eenth": 12464,
    "Ġn": 300,
    "anelles": 26435,
    "Ġrevealed": 6753,
    "Ġspecks": 14310,
    "robustness": 26340,
    "Ġgener": 577,
    "rugg": 15904,
    "Ġrolled": 4432,
    "Ġoutright": 18413,
    "Ġfragment": 14507,
    "Ġpresto": 22235,
    "Ġforbearing": 25101,
    "wick": 5363,
    "Ġmajority": 13295,
    "Ġlassitude": 20590,
    "Ġobjectionable": 16992,
    "ignorance": 17163,
    "Ġcomfortable": 6097,
    "Ġforbe": 8459,
    "Ġconscientious": 16728,
    "finding": 17014,
    "consol": 9764,
    "Ġinsists": 23680,
    "ds": 4688,
    "Ġsundering": 23278,
    "Ġwasting": 12733,
    "Ġsplice": 19311,
    "formality": 22219,
    "Ġelephants": 9866,
    "gorge": 22361,
    "mell": 20966,
    "doesn": 19823,
    "Ġlosing": 10917,
    "Ġflowery": 16236,
    "ulations": 6031,
    "chat": 21690,
    "fat": 8080,
    "taller": 26151,
    "Ġsacr": 7194,
    "folio": 10548,
    "Ġneighbourhood": 5126,
    "Ġlawyers": 25249,
    "Ġfoster": 18992,
    "hom": 12477,
    "stumps": 21663,
    "Ġinnocence": 6478,
    "Ġpossessor": 23826,
    "Ġexasperate": 20101,
    "australian": 20564,
    "Ġtreat": 3176,
    "Ġaccents": 14212,
    "Ġlazy": 17050,
    "Ġamply": 22487,
    "rate": 2421,
    "nnight": 20995,
    "drawing": 10488,
    "Ġsub": 952,
    "Ġcard": 7363,
    "Ġintelligently": 4063,
    "Ġmistakes": 16543,
    "shame": 16026,
    "Ġguitar": 16269,
    "noble": 7924,
    "itudes": 3015,
    "Ġshocking": 10436,
    "Ġjuggling": 20442,
    "Ġaristocratic": 20516,
    "Ġdry": 5624,
    "Ġapiece": 16814,
    "Ġduplicate": 17217,
    "Ġmodeling": 2096,
    "Ġreads": 23119,
    "Ġladder": 8601,
    "Ġbrigs": 20325,
    "Ġstormy": 16729,
    "Ġaltitude": 26204,
    "Ġwilled": 21294,
    "Ġdecision": 2674,
    "chooses": 23676,
    "Ġbright": 3215,
    "Ġthreshold": 2812,
    "Ġgrope": 17997,
    "thankful": 16807,
    "bunger": 20405,
    "Ġsle": 2013,
    "Ġpained": 19169,
    "rose": 6016,
    "Ġquite": 1742,
    "Ġangles": 23590,
    "Ġpromontory": 11944,
    "Ġprudent": 9187,
    "Ġfills": 12599,
    "meaning": 2911,
    "Ġnominally": 17233,
    "ahawk": 23320,
    "smitten": 23912,
    "igner": 21705,
    "arthy": 4823,
    "cellar": 20280,
    "Ġanointing": 25540,
    "Ã¦us": 14819,
    "Ġusage": 9733,
    "Ġpet": 4587,
    "Ġvalues": 2651,
    "Ġparacels": 13670,
    "Ġsolicited": 20040,
    "vib": 21118,
    "Ġcomrades": 9235,
    "ositories": 22269,
    "Ġlim": 2379,
    "tles": 10731,
    "leagued": 26436,
    "Ġcolonnades": 26277,
    "eyeing": 14948,
    ".âĢĶ": 4249,
    "Ġpredef": 18526,
    "ets": 1165,
    "Ġdollars": 11456,
    "recurrent": 4994,
    ".âĢĿ": 463,
    "fif": 9118,
    "Ġcitizens": 25440,
    "Ġluggage": 25958,
    "izon": 18144,
    "Ġstair": 8457,
    "Ġskirting": 22802,
    "Ġreported": 11982,
    "pract": 10121,
    "Ġspan": 11731,
    "Ġbelike": 18831,
    "Ġpugnacious": 26452,
    "Ġmaria": 7126,
    "Ġsuspicions": 9481,
    "Ġsc": 531,
    "Ġinev": 10183,
    "Ĕ": 213,
    "Ġwool": 19436,
    "exciting": 19671,
    "Ġwebster": 20164,
    "Ġfairest": 20466,
    "Ġflinging": 13587,
    "transom": 19737,
    "lim": 9608,
    "Ġabhor": 5467,
    "Ġunpleasing": 22060,
    "ental": 7169,
    "Ġautom": 3598,
    "angered": 16182,
    "Ġsavann": 14685,
    "intment": 4720,
    "alcul": 15632,
    "ogn": 2557,
    "anous": 21362,
    "tears": 11038,
    "manned": 18765,
    "training": 2515,
    "pedest": 24823,
    "Ġmant": 9649,
    "Ġpractises": 23330,
    "ignific": 11959,
    "Ġrobberies": 23052,
    "Ġrephr": 21683,
    "Ġarrange": 3121,
    "Ġshaded": 14107,
    "Ġdisse": 18546,
    "year": 11096,
    "abound": 15744,
    "Ġsnarl": 25714,
    "constantinople": 25508,
    "Ġ47": 14773,
    "Ġegot": 18010,
    "atig": 13847,
    "bitter": 11241,
    "Ġjaw": 3317,
    "Ġretrogression": 26582,
    "Ġrouse": 15825,
    "ĠĠĠĠĠĠĠĠĠĠĠĠĠĠĠĠĠĠĠĠĠĠĠĠĠĠĠĠĠĠĠĠĠĠĠĠĠĠĠĠĠĠĠĠĠ": 9954,
    "Ġprevention": 16096,
    "brim": 23577,
    "convinced": 10624,
    "Ġsatisfaction": 5667,
    "Ġkindly": 6079,
    "Ġlulled": 17971,
    "Ġmarried": 3409,
    "Ġodds": 13332,
    "uendoes": 26408,
    "Ġverses": 17064,
    "Ġattitude": 8906,
    "Ġwrecked": 9968,
    "Ġreplay": 5047,
    "Ġhalting": 16278,
    "rived": 5373,
    "consequence": 9765,
    "Ġintuitions": 17343,
    "Ġzigzag": 26274,
    "piteous": 21036,
    "mou": 10709,
    "Ġanoints": 25539,
    "Ġbully": 23858,
    "Ġsymbols": 2799,
    "Ġnapkins": 25165,
    "expense": 22434,
    "ý": 190,
    "Ġornam": 15868,
    "georgiana": 26021,
    "Ġrepenting": 25323,
    "Ġdownwards": 8532,
    "horrors": 20544,
    "Ġsensibility": 14513,
    "assed": 6422,
    "equal": 14995,
    "Ġhonorable": 16877,
    "christ": 10212,
    "Ġstrained": 10220,
    "Ġinfluence": 5515,
    "Ġham": 3421,
    "Ġcat": 2124,
    "jet": 13744,
    "Ġsat": 1133,
    "Ġcabinets": 23864,
    "Ġunholy": 26220,
    "Ġbristles": 25845,
    "Ġlooked": 1802,
    "Ġsequel": 14358,
    "Ġeavesdroppers": 25964,
    "Ġdeclare": 6617,
    "Ġtrained": 8505,
    "Ġgenerative": 5644,
    "Ġtelling": 5747,
    "Ġsurviving": 24638,
    "eager": 12463,
    "Ġportions": 19372,
    "Ġcrouched": 23441,
    "Ġmarvellous": 7539,
    "Ġchiselled": 25560,
    "wig": 17705,
    "Ġmariner": 7247,
    "Ġspreading": 13380,
    "Ġample": 11801,
    "specim": 23947,
    "movement": 25578,
    "Ġheedful": 19743,
    "Ġterritories": 23848,
    "Ġallegro": 25795,
    "Ġresides": 22545,
    "architect": 22895,
    "Ġamend": 16039,
    "Ġsolitude": 6876,
    "swing": 15432,
    "attempted": 20177,
    "Ġserves": 4669,
    "Ġhot": 4259,
    "Ġdragg": 23221,
    "Ġcathed": 14548,
    "Ġinsp": 2102,
    "itig": 1328,
    "Ġgrin": 5482,
    "Ġwalled": 15538,
    "Ġtransf": 22442,
    "Ġfilial": 16621,
    "Ġslaugh": 18940,
    "hatches": 19930,
    "Ġwives": 12559,
    "Ġstooped": 14465,
    "Ġemerging": 24614,
    "Ġscrew": 8870,
    "Ġrascal": 11703,
    "fortune": 4975,
    "Ġpia": 21468,
    "Ġcarter": 18901,
    "Ġsevere": 6034,
    "Ġcommonest": 23094,
    "Ġundiscovered": 18253,
    "Ġquartered": 20376,
    "brill": 16493,
    "ander": 6402,
    "Ġlump": 21556,
    "Ġmet": 1932,
    "Ġbroom": 18908,
    "engaged": 7452,
    "Ġsky": 3968,
    "Ġfellows": 8258,
    "Ġblending": 14402,
    "gratulation": 24348,
    "Ġrender": 8306,
    "Ġactively": 18655,
    "satisfied": 10580,
    "hers": 7637,
    "Ġcarpent": 4467,
    "market": 16840,
    "Ġembalmed": 13658,
    "Ġneur": 814,
    "humoredly": 26326,
    "scor": 13019,
    "Ġcreative": 9832,
    "Ġconfining": 23310,
    "Ġdearly": 10403,
    "ause": 1311,
    "hastening": 24447,
    "bib": 17493,
    "ifled": 14065,
    "Ġcorpore": 13403,
    "adieu": 26202,
    "Ġacross": 1327,
    "Ġintricacies": 15141,
    "returned": 7767,
    "Ġwarn": 5695,
    "Ġinscriptions": 20012,
    "Ġfringed": 17274,
    "arted": 2203,
    "roy": 7855,
    "Ġinsatiate": 19272,
    "Ġdetails": 6567,
    "rief": 6204,
    "rust": 2580,
    "Ġnoteworthy": 24164,
    "Ġrobins": 16275,
    "Ġhunters": 6302,
    "Ġwaking": 11572,
    "Ġrude": 7234,
    "ittered": 18440,
    "Ġlimp": 19182,
    "Ġminor": 12972,
    "Ġshrieked": 9550,
    "Ġcot": 13879,
    "language": 5129,
    "Ġtiar": 21170,
    "Ġtrinity": 22349,
    "Ġfleeting": 19329,
    "Ġdispleased": 18553,
    "Ġchanges": 2286,
    "uneasiness": 23689,
    "iny": 4295,
    "Ġhateful": 19716,
    "Ġgloves": 8578,
    "Ġentreated": 9953,
    "owed": 2270,
    "Ġgradually": 3401,
    "Ġportcull": 23865,
    "Ġcoroner": 7511,
    "aan": 20766,
    "Ġchivalrous": 20518,
    "majesty": 26282,
    "ě": 220,
    "Ġanticipating": 17059,
    "Ġdisaster": 12892,
    "Ġthoughtless": 16196,
    "Ġdeafened": 25652,
    "Ġshin": 18228,
    "uccas": 21109,
    "rudent": 6483,
    "brevi": 24076,
    "Ġtattoo": 7359,
    "cup": 10693,
    "elevating": 20409,
    "conv": 7213,
    "Ġachieves": 4380,
    "tanh": 5204,
    "Ġrealistic": 5862,
    "Ġinhospit": 25453,
    "ctic": 8444,
    "Ġpref": 14173,
    "groom": 8743,
    "Ġconse": 21809,
    "Ġexpensive": 12923,
    "Ġliterature": 17150,
    "Ġflaming": 8567,
    "Ġindiscreet": 22960,
    "balanced": 14555,
    "Ġdrag": 6186,
    "Ġcompose": 12907,
    "Ġbasin": 19850,
    "Ġharder": 14451,
    "Ġcolle": 8927,
    "the": 334,
    "Ġticking": 25036,
    "Ġbuckets": 17034,
    "portent": 25413,
    "Ġsatur": 1931,
    "Ġdome": 15593,
    "Ġlaboratory": 13614,
    "Ġdetermined": 2223,
    "tick": 17679,
    "Ġfishes": 11593,
    "ctive": 11625,
    "Ġche": 1764,
    "Ġclasped": 17208,
    "Ġsneezing": 12251,
    "ching": 5156,
    "pursuit": 20343,
    "expound": 23665,
    "masterly": 24529,
    "zek": 16272,
    "Ġcuff": 17831,
    "Ġwoll": 21296,
    "Ġwhales": 1828,
    "promised": 12255,
    "Ġattributed": 11836,
    "Ġslackened": 15129,
    "Ġv": 399,
    "iences": 6957,
    "Ġlectures": 17180,
    "Ġappal": 18357,
    "same": 5362,
    "Ġtrembled": 8705,
    "Ġfounded": 8561,
    "Ġcommunicates": 24546,
    "Ġautomatically": 3801,
    "vulgar": 25919,
    "Ġorphans": 20207,
    "Ġpersecut": 16953,
    "Ġclanking": 20614,
    "Ġpir": 6818,
    "Ġdeactivates": 20706,
    "Ġpeaking": 22694,
    "it": 276,
    "Ġoak": 6130,
    "Ġcontradictory": 20400,
    "questioning": 16851,
    "Ġcas": 8413,
    "wish": 8101,
    "Ġpeeled": 14320,
    "Ġresist": 7918,
    "Ġarrows": 18344,
    "Ġappropriated": 23488,
    "Ġcoldly": 14651,
    "Ġabsolute": 6766,
    "Ġconsiderable": 4006,
    "Ġperverseness": 13656,
    "Ġay": 15494,
    "volut": 1560,
    "from": 1991,
    "hement": 13834,
    "Ġuns": 15840,
    "harm": 13737,
    "instead": 14815,
    "Ġdepicting": 22613,
    "Ġstool": 14463,
    "Ġpants": 21469,
    "probably": 10022,
    "Ġwhirlwinds": 20468,
    "Ġconnectivity": 3668,
    "tle": 2408,
    "Ġdrew": 3538,
    "owner": 18611,
    "ĠmanÅĵuv": 18417,
    "suff": 4961,
    "Ġgeorgia": 23889,
    "Ġgowns": 25360,
    "Ġpricking": 23226,
    "compasses": 19461,
    "amuse": 14055,
    "pretty": 10623,
    "leave": 7838,
    "Ġfads": 21420,
    "Ġdial": 10811,
    "afer": 17483,
    "Ġsteward": 6586,
    "Ġtests": 8959,
    "Ġtowing": 9195,
    "Ġtrowsers": 9629,
    "Ġcolds": 23760,
    "tern": 4225,
    "¥": 103,
    "favour": 9551,
    "Ġaven": 10760,
    "Ġfowls": 8694,
    "Ġbordeaux": 24564,
    "Ġ**": 4721,
    "Ġcastaways": 19431,
    "unmistakable": 21900,
    "Ġhuddled": 20302,
    "Ġtet": 21160,
    "Ġwomen": 4750,
    "Ġjoist": 19234,
    "Ġdisguises": 25058,
    "Ġjoker": 22303,
    "bearer": 18519,
    "Ġvent": 3995,
    "Ġinducement": 16844,
    "Ġtrustworthy": 24107,
    "Ġbiscuit": 12594,
    "Ġbam": 15570,
    "Ġfatality": 12099,
    "Ġhistorically": 19381,
    "Ġobeyed": 12220,
    "Ġquickly": 4242,
    "Ġpolluted": 25594,
    "cules": 12394,
    "Ġcondu": 18112,
    "Ġcheer": 4067,
    "hullo": 17571,
    "erately": 21276,
    "Ġuneasily": 24232,
    "Ġexert": 5722,
    "zza": 24169,
    "Ġreplenished": 13638,
    "alarm": 15631,
    "Ġgin": 13963,
    "bastian": 10675,
    "Ġovertook": 18429,
    "unk": 4540,
    "Ġ22": 8280,
    "Ġentranced": 25835,
    "itled": 7579,
    "Ġinvolves": 1099,
    "Ġavailed": 23955,
    "Ġscraps": 16903,
    "Ġworn": 6446,
    "uction": 15446,
    "blister": 24129,
    "Ġsnugly": 17111,
    "Ġimprinted": 22397,
    "Ġsuddenly": 2645,
    "fitzwilliam": 11353,
    "Ġgreedy": 3055,
    "hears": 12537,
    "Ġsanguinary": 25930,
    "gling": 10099,
    "strils": 10459,
    "indef": 17736,
    "Ġromish": 19587,
    "Ġstronger": 8582,
    "joke": 20932,
    "Ġtransform": 745,
    "Ġdistress": 5845,
    "Ġleyden": 21752,
    "Ġhenry": 5197,
    "Ġriggers": 24158,
    "star": 12677,
    "Ġprodigious": 8058,
    "Ġshade": 6552,
    "Ġinquis": 19306,
    "Ġgentleman": 3043,
    "felix": 10655,
    "Ġbaff": 10800,
    "Ġunder": 1634,
    "Ġconvict": 23747,
    "Ġrokovoko": 22416,
    "Ġrose": 3444,
    "Ġasylum": 13669,
    "finally": 9501,
    "Ġdismast": 12893,
    "deliberated": 26119,
    "ocean": 12404,
    "Ġsteps": 2867,
    "Ġstem": 15723,
    "Ġhieroglyph": 11973,
    "Ġdrooping": 9422,
    "ira": 3957,
    "loun": 17589,
    "delight": 5345,
    "Ġunrestrained": 25555,
    "given": 8378,
    "aneous": 7240,
    "compliment": 11365,
    "disreputable": 23507,
    "Ġauthorities": 11265,
    "six": 7143,
    "avenue": 25060,
    "drab": 23902,
    "staring": 18023,
    "Ġempt": 5051,
    "Ġmoderation": 12825,
    "loops": 12888,
    "Ġliterary": 25166,
    "Ġhatches": 12047,
    "Ġlengthwise": 10453,
    "relu": 17760,
    "Ġperfidious": 25667,
    "Ġpastures": 23422,
    "Ġrustling": 24714,
    "arance": 4698,
    "resistible": 10645,
    "Ġadvice": 4902,
    "Ġexpanding": 25239,
    "lift": 15387,
    "Ġsoaring": 22091,
    "Ġoarsman": 8641,
    "Ġpulled": 5660,
    "º": 123,
    "Ġmodest": 15920,
    "fugitive": 26132,
    "shop": 14238,
    "Ġcongratulations": 10582,
    "Ġant": 4346,
    "ackinaw": 22430,
    "Ġdistance": 3483,
    "hyena": 24254,
    "Ġconsumm": 15157,
    "Ġtunnel": 14932,
    "Ġvision": 1583,
    "ously": 2489,
    "Ġunseasonable": 26521,
    "Ġcoloss": 11047,
    "Ġhopeless": 7463,
    "Ġsharper": 17181,
    "Ġresent": 6051,
    "Ġfearlessness": 19163,
    "co": 2432,
    "ais": 8072,
    "Ġabstract": 17183,
    "Ġassociated": 12253,
    "complied": 19915,
    "thro": 12766,
    "tastes": 21099,
    "quar": 7617,
    "Ġcass": 13881,
    "onom": 9160,
    "Ġassigned": 16314,
    "Ġrelied": 16198,
    "atious": 10153,
    "Ġrambling": 18645,
    "X": 60,
    "Ġswish": 23057,
    "Ġloosened": 26003,
    "Ġspacious": 18313,
    "Ġspeedily": 7713,
    "ergy": 2360,
    "Ġencoder": 3636,
    "Ġinduced": 8674,
    "hon": 6794,
    "Ą": 197,
    "Ġaccurate": 13236,
    "Ġconciliating": 19049,
    "alle": 1292,
    "Ġmode": 8502,
    "Ġunlucky": 10052,
    "Ġfrolic": 23928,
    "cavity": 26127,
    "Ġlowerings": 23648,
    "hies": 17561,
    "lacing": 17591,
    "Ġservants": 6612,
    "content": 11199,
    "meeting": 11020,
    "Ġquestion": 2780,
    "Ġaccord": 4026,
    "record": 16922,
    "ishe": 13893,
    "Ġbeh": 1801,
    "ounted": 5030,
    "Ġforcibly": 10063,
    "Ġgriff": 22810,
    "Ġsalutations": 25383,
    "Ġastir": 14641,
    "gr": 2087,
    "Ġadvances": 12993,
    "Ġmanners": 3791,
    "fellow": 6793,
    "Ġloo": 22115,
    "alley": 23026,
    "Ġleast": 2065,
    "Ġsurvey": 13595,
    "Ġdelayed": 9520,
    "meditation": 19071,
    "Ġstaring": 8828,
    "Ġpur": 2217,
    "Ġgouldings": 26189,
    "Ġfearless": 9877,
    "Ġsite": 17754,
    "Ġbutton": 10269,
    "Ġfang": 21406,
    "Â·": 21152,
    "Ġirreducible": 5519,
    "asht": 4086,
    "join": 12117,
    "Ġjokes": 18409,
    "Ġfavoured": 16367,
    "Ġboat": 1277,
    "Ġopenness": 18959,
    "Ġson": 2984,
    "Ġcommod": 10335,
    "Ġskills": 1838,
    "Ġtinted": 13824,
    "performed": 18340,
    "these": 3241,
    "elder": 21576,
    "Ġmap": 2390,
    "Ġboneless": 19608,
    "Ġhammers": 13244,
    "repe": 8780,
    "Ġrolling": 5977,
    "Ġsket": 18729,
    "steak": 14710,
    "perishing": 22182,
    "aggoo": 5130,
    "Ġinhale": 20303,
    "hatherley": 17569,
    "avier": 2835,
    "sensible": 20055,
    "Ġcosmopolitan": 20643,
    "Ġtapped": 11555,
    "tawny": 26405,
    "Ġinterven": 10998,
    "Ġlightly": 13086,
    "strangely": 17278,
    "Ġconsoled": 18115,
    "Ġshell": 11739,
    "produced": 25415,
    "cture": 15669,
    "crack": 19843,
    "Ġgallop": 19558,
    "bond": 17491,
    "Ý": 158,
    "Ġantagonist": 26330,
    "mers": 9612,
    "Ġkeener": 22920,
    "Ġfreckled": 18961,
    "bishop": 13697,
    "precaution": 23825,
    "Ġdented": 17893,
    "useful": 16504,
    "Ġlads": 8600,
    "icil": 17974,
    "igations": 18045,
    "Ġsubsequently": 16164,
    "complained": 25840,
    "Ġmead": 8839,
    "prove": 11148,
    "Ġmusical": 23896,
    "Ġforswe": 21779,
    "Ġsitt": 21220,
    "Ġprecipitous": 24836,
    "Ġshrieking": 24757,
    "regular": 3044,
    "Ġmainly": 22653,
    "Ġtrue": 1338,
    "encoun": 12301,
    "Ġemergencies": 17364,
    "Ġpulverize": 23396,
    "cri": 17507,
    "understand": 1100,
    "Ġperpetually": 17071,
    "rougham": 15997,
    "Ġgrunted": 16171,
    "become": 14248,
    "surgeon": 24216,
    "Ġpiling": 17913,
    "ullied": 23111,
    "Ġlicense": 20094,
    "Ġwat": 1286,
    "Ġmodesty": 12824,
    "Ġfactor": 19014,
    "Ġe": 311,
    "Ġsuspending": 19246,
    "ulatory": 15772,
    "Ġbottomless": 12110,
    "Ġdisturbance": 15014,
    "output": 4402,
    "Ġpeculiarity": 12938,
    "Ġextremity": 8990,
    "Ġforever": 14553,
    "orously": 8421,
    "Ġupright": 8496,
    "iably": 13740,
    "mates": 5073,
    "anely": 17838,
    "Ġskeletons": 16792,
    "Ġpinioned": 21487,
    "Ġlowermost": 23245,
    "mitting": 20975,
    "Ġinches": 5846,
    "last": 3806,
    "Ġprotection": 9464,
    "Ġstops": 3166,
    "Ġinverted": 12642,
    "Ġpartial": 2131,
    "gryphon": 15361,
    "van": 7815,
    "Ġstumbling": 21747,
    "Ġobtain": 8917,
    "dressed": 10696,
    "accurately": 25862,
    "Ġrestrictions": 20638,
    "Ġghast": 9211,
    "Ġeffeminacy": 20721,
    "Ġhandles": 22701,
    "Ġheap": 12683,
    "Ġresurrection": 12899,
    "Ġaffidav": 18790,
    "Ġunmo": 12778,
    "gin": 4931,
    "Ġcommanding": 16591,
    "Ġchange": 1994,
    "Ġshooting": 11163,
    "Ĺ": 250,
    "wic": 21123,
    "Ġigniting": 25073,
    "alot": 15630,
    "Ġpresuming": 16794,
    "onder": 3780,
    "ap": 546,
    "Ġfeathers": 15122,
    "Ġcreases": 22725,
    "Ġgenerously": 22388,
    "Ġrelationship": 2314,
    "Ġblazing": 11899,
    "icy": 6142,
    "bug": 17494,
    "Ġmarriage": 3188,
    "Ġpound": 12621,
    "ifice": 7198,
    "oblivious": 26583,
    "Ġhappier": 10361,
    "cle": 3955,
    "Ġburglar": 17356,
    "intelligence": 5885,
    "introduced": 15127,
    "attentive": 17191,
    "Ġtorn": 6002,
    "Ġprecautions": 23728,
    "Ġnarrower": 24353,
    "urns": 10215,
    "eddling": 11903,
    "grasp": 16433,
    "Ġoccupied": 5273,
    "Ġoverall": 4359,
    "Ġepicures": 25880,
    "Ġlifeless": 8950,
    "admit": 18093,
    "opatra": 22482,
    "Ġpregnant": 26536,
    "Ġbountiful": 25945,
    "Ġimmort": 19487,
    "Ġimpatiently": 8339,
    "Ġmethods": 3160,
    "Ġmanaging": 22330,
    "Ġurged": 6782,
    "Ġ1991": 3016,
    "Ġconfound": 23308,
    "Ġtall": 4038,
    "Ġsmacking": 20168,
    "Ġboxes": 13376,
    "Ġcorp": 5573,
    "Ġinconsiderable": 21499,
    "Ġwitness": 4622,
    "Ġfifth": 11257,
    "Ġcarn": 17823,
    "Ġdesmarest": 22980,
    "Ġpassions": 7931,
    "Ġnoah": 10943,
    "Ġreve": 2935,
    "Ġmachines": 1777,
    "Ġapoplexy": 25266,
    "Ġshrinking": 14807,
    "Ġbulkington": 14678,
    "police": 10585,
    "Ġprince": 18973,
    "rod": 10832,
    "din": 8375,
    "Ġperpetual": 12306,
    "Ġalgorithms": 877,
    "somewhere": 12015,
    "leton": 5148,
    "fulness": 4311,
    "Ġproudly": 19745,
    "Ġpassenger": 14371,
    "Ġto": 297,
    "Ġmomentary": 11037,
    "Ġinvest": 4978,
    "complacency": 19916,
    "Ġafrican": 20140,
    "shazz": 14242,
    "Ġlivers": 18457,
    "Ġdangling": 17176,
    "word": 2486,
    "Ġexcept": 3311,
    "Ġcontradicted": 20214,
    "Ġpositive": 2296,
    "Ġforeboding": 20387,
    "freighted": 14894,
    "Ġmemory": 2275,
    "shark": 14239,
    "Ġbeloved": 5571,
    "Ġpike": 12628,
    "Ġwishes": 4795,
    "confidential": 25877,
    "Ġchaldee": 26236,
    "Ġconcentrate": 25066,
    "hunted": 16833,
    "flakes": 23971,
    "uits": 21107,
    "everlasting": 18774,
    "Ġsubst": 4275,
    "berg": 11867,
    "ļ": 253,
    "Ġtherefore": 2239,
    "learned": 8604,
    "Ġcorroded": 18877,
    "having": 5211,
    "Ġparagraph": 17456,
    "Ġruskin": 25809,
    "accompan": 11453,
    "isc": 6241,
    "Ġchannel": 26013,
    "Ġbulldog": 23861,
    "Ġstocks": 23180,
    "ckles": 22094,
    "Ġbread": 5404,
    "Ġperth": 7024,
    "secre": 18129,
    "Ġdab": 15592,
    "Ġlabeled": 3718,
    "flour": 23969,
    "Ġconfident": 11139,
    "kov": 17587,
    "Ġmur": 2487,
    "tart": 21070,
    "irmed": 9241,
    "Ġallen": 5160,
    "Ġglare": 13016,
    "Ġdisgusted": 14992,
    "ulated": 6032,
    "conditionally": 24835,
    "dressing": 11483,
    "Ġgodly": 19082,
    "Ġnormalizes": 1862,
    "Ġme": 351,
    "Ġbrix": 12588,
    "Ġaltogether": 4832,
    "Ġisolated": 13561,
    "Ġreceptive": 1562,
    "Ġrobinson": 17465,
    "Ġdebar": 24273,
    "braid": 17496,
    "Ġtranquo": 14845,
    "Ġhauled": 11697,
    "Ġperturbation": 20444,
    "irresist": 21917,
    "henry": 16627,
    "Ġgrief": 4621,
    "Ġthrough": 603,
    "arts": 6565,
    "Ġhonors": 23603,
    "Ġmagnanimous": 17413,
    "Ġhurled": 10430,
    "Ġcrad": 21352,
    "Ġalps": 10871,
    "Ġchamber": 6215,
    "Ġsuccession": 12105,
    "Ġmisconduct": 22762,
    "Ġpurest": 14941,
    "Ġchoking": 15938,
    "ced": 695,
    "mown": 20972,
    "shadow": 20315,
    "Ġreproofs": 24893,
    "Ġunass": 14116,
    "Ġresource": 10994,
    "Ġjury": 5378,
    "cheeked": 19342,
    "Ġdro": 2772,
    "Ġcomes": 3423,
    "ulled": 14058,
    "Ġlodges": 19503,
    "chop": 21692,
    "knowing": 10438,
    "======================================================================": 10070,
    "sailing": 14716,
    "Ġanybody": 5314,
    "ive": 427,
    "Ġwidow": 8666,
    "agra": 14068,
    "Ġencoun": 4513,
    "Ġbohemia": 10651,
    "Ġeverything": 3155,
    "danger": 10091,
    "Ġexpansion": 22630,
    "Ġfool": 4236,
    "Ġface": 1723,
    "Ġaffairs": 6877,
    "announced": 19762,
    "Ġcostly": 23586,
    "Ġunfavourable": 17419,
    "Ġcruelty": 9971,
    "Ġencourages": 2062,
    "fate": 17540,
    "Ġoutset": 15959,
    "apart": 15965,
    "Ġtout": 17720,
    "spark": 18691,
    "Ġriddles": 16733,
    "girls": 12322,
    "Ġrepresent": 1212,
    "Ġlimits": 3454,
    "lar": 4485,
    "prejudice": 25572,
    "comed": 8547,
    "Ġassizes": 11109,
    "Ġluff": 15657,
    "doubted": 17527,
    "asmuch": 10196,
    "Ġjour": 11767,
    "Ġlandscape": 12420,
    "Ġholy": 6593,
    "unned": 21883,
    "Ġsiamese": 20486,
    "bouton": 17503,
    "Ġprotesting": 14743,
    "Ġadequate": 20311,
    "Ġsled": 21221,
    "art": 576,
    "Ġrests": 13095,
    "Ġhousemaid": 14466,
    "Ġimpropri": 14219,
    "independent": 26022,
    "Ġmates": 4873,
    "Ġwra": 5908,
    "Ġriver": 5411,
    "acute": 22599,
    "rels": 6667,
    "ornamented": 26596,
    "anatory": 21366,
    "Ġsays": 3562,
    "Ġpal": 4041,
    "tackle": 17323,
    "Ġtablets": 13157,
    "Ġcultivated": 17366,
    "Ġsnorting": 23742,
    "Ġmogul": 12867,
    "Ġbarn": 11589,
    "wis": 12522,
    "Ġobtru": 18676,
    "Ġsnugness": 20080,
    "Ġjohnson": 18410,
    "Ġvalu": 5038,
    "Ġfleecy": 17024,
    "Ġilluminated": 20178,
    "Ġrichest": 26213,
    "Ġalow": 18102,
    "Ġplay": 2625,
    "Ġnowadays": 18544,
    "Ġsufferer": 16260,
    "Ġvic": 5237,
    "overing": 6308,
    "Ġarrested": 9562,
    "Ġwrinkled": 7264,
    "Ġgrass": 5177,
    "Ġending": 18924,
    "view": 5898,
    "Ġsnoring": 23741,
    "princ": 8624,
    "spikes": 10344,
    "sacrifice": 13494,
    "Ġoccurring": 2794,
    "Ġforms": 6398,
    "Ġbeware": 8831,
    "Ġwilful": 10536,
    "Ġrestored": 7068,
    "Ġdescription": 7429,
    "Ġkind": 1785,
    "covery": 11172,
    "Ġbravely": 23841,
    "Ġengagement": 5397,
    "Ġamusement": 8057,
    "unken": 10238,
    "Ġrespectful": 16349,
    "traversed": 19650,
    "Ġcupboard": 16884,
    "Ġvexations": 24611,
    "Ġparticip": 16135,
    "Ġdevout": 14328,
    "Ġbedrooms": 19973,
    "Ġpalsy": 25779,
    "Ġabhorrent": 16857,
    "Ġproduces": 2094,
    "Ġpocket": 4899,
    "salis": 25150,
    "Ġpositively": 13034,
    "towns": 24855,
    "unlike": 18159,
    "Ġorders": 5341,
    "Ġninetieth": 25358,
    "asher": 15650,
    "report": 13401,
    "Ġrivals": 20274,
    "Ġalleg": 14019,
    "Ġhaunts": 18199,
    "beryls": 25310,
    "Ġaccomplishment": 19668,
    "Ġvest": 8164,
    "Ġmetropolitan": 17277,
    "shake": 22455,
    "harpoone": 6109,
    "Ġanswers": 7072,
    "Ġsearching": 13164,
    "Ġheroes": 10578,
    "Ġproclaim": 18133,
    "Ġtreacle": 14596,
    "Ġmagnus": 18960,
    "Ġconsuming": 22797,
    "Ġhearties": 18968,
    "Ġappearance": 3700,
    "Ġpenet": 6888,
    "kn": 5791,
    "Ġtypewritten": 16425,
    "Ġcontrol": 13082,
    "importance": 9991,
    "Ġfren": 10806,
    "Ġbid": 6133,
    "Ġgout": 21600,
    "Ġhonor": 5664,
    "Ġgrappling": 25813,
    "Ġsuspend": 14609,
    "_.": 2213,
    "Ġsquares": 11170,
    "Ġsometimes": 2169,
    "Ġcoffins": 13253,
    "ly": 319,
    "iability": 20922,
    "naturedly": 24841,
    "Ġjem": 18403,
    "complet": 11384,
    "Ġendeavored": 19305,
    ")âĢĶ": 20744,
    "Ġattentive": 9035,
    "ighted": 8479,
    "Ġfists": 15587,
    "manners": 16189,
    "Ġempty": 5354,
    "Ġsank": 5076,
    "let": 2734,
    "Ġaslant": 21906,
    "ashtego": 4105,
    "reck": 9638,
    "Ġinclination": 6626,
    "ump": 2284,
    "ihood": 20924,
    "Ġquantity": 6948,
    "Ġhebrew": 13990,
    "ĠÂ£": 5006,
    "Ġhawk": 15176,
    "Ġcooked": 13272,
    "Ġawkwardness": 13489,
    "pol": 5895,
    "Ġseize": 8167,
    "Ġcontrivances": 12360,
    "Ġwraps": 19779,
    "Ġfurrow": 22819,
    "Ġstrange": 2273,
    "Ġrejected": 12297,
    "enger": 10774,
    "warnings": 20354,
    "Ġguernsey": 9353,
    "Ġrecovered": 5481,
    "Ġstated": 9691,
    "pires": 13777,
    "conversations": 24748,
    "dances": 17522,
    "Ġbraced": 16581,
    "phew": 6369,
    "inhabited": 13622,
    "Ĥ": 229,
    "Ġintrepid": 11709,
    "Ġoblige": 10490,
    "Ġsnake": 12064,
    "Ġsl": 1498,
    "Ġchests": 19674,
    "felt": 5891,
    "Ġswelling": 11928,
    "Ġcomputations": 16003,
    "narrow": 11509,
    "Ġt": 261,
    "Ġdimmed": 24269,
    "uded": 6288,
    "brit": 19200,
    "bit": 3932,
    "etieth": 21588,
    "Ġscott": 22286,
    "Ġbarbarously": 24816,
    "Ġmatrim": 11061,
    "Ġhonourable": 10457,
    "dismay": 19156,
    "protection": 19922,
    "wandering": 20287,
    "Ġsuffered": 5649,
    "ferent": 4197,
    "Ġfootfall": 14662,
    "Ġlandless": 23382,
    "Ġheading": 8937,
    "gpt": 5356,
    "fortunes": 6334,
    "Ġmott": 17805,
    "Ġtwilight": 16125,
    "gressive": 2754,
    "Ġmechanisms": 1574,
    "Ġburns": 16525,
    "Ġcovering": 13258,
    "Ġadmirable": 8270,
    "Ġunderground": 18985,
    "Ġunluck": 8487,
    "Ġsunda": 13545,
    "Ġbennett": 16327,
    "Ġchanging": 11756,
    "T": 56,
    "Ġsnaky": 23743,
    "knowledge": 7479,
    "Ġmanage": 7642,
    "Ġswe": 2289,
    "Ġbomb": 17869,
    "âĢĶâĢĶâĢĿ": 15943,
    "terrific": 25043,
    "Ġthunder": 4824,
    "Ġagitates": 22521,
    "Ġfaced": 10809,
    "Ġsketches": 26272,
    "Ġdemocracy": 25459,
    "Ġsacrifice": 9557,
    "Ġicy": 10748,
    "Ġnewcomer": 26041,
    "Ġeludes": 26555,
    "aches": 6572,
    "Ġextinct": 14343,
    "nailed": 20998,
    "Ġheadland": 22900,
    "Ġend": 1474,
    "Ġstarvation": 19794,
    "Ġcompressed": 21850,
    "Ġvide": 10252,
    "carb": 20812,
    "Ġmorality": 22977,
    "Ġwee": 21923,
    "Ġcoward": 7156,
    "luckily": 19755,
    "Ġenrolled": 21942,
    "Ġtowed": 11266,
    "grat": 5052,
    "excited": 13382,
    "shore": 10307,
    "Ġdaintiest": 25954,
    "pidation": 18897,
    "Ġharp": 17926,
    "Ġunlock": 18244,
    "Ġvacantly": 16816,
    "disc": 4729,
    "Ġsymph": 22209,
    "Ġsparkling": 11357,
    "Ġdesirous": 8944,
    "tempestuous": 26098,
    "daughter": 8355,
    "Ġretention": 23076,
    "Ġtrusted": 10519,
    "inement": 11559,
    "ern": 747,
    "described": 18895,
    "ouncing": 8497,
    "Ġjewels": 12372,
    "steel": 8299,
    "Ġcaresses": 26060,
    "Ġheaven": 3364,
    "Ġrubbing": 9323,
    "Ġmermaid": 17815,
    "Ġindia": 10372,
    "Ł": 258,
    "Ġshoe": 14568,
    "Ġmightier": 18731,
    "Ġkey": 2103,
    "mult": 8751,
    "lengths": 24847,
    "Ġhints": 8432,
    "Ġsplashed": 23750,
    "revival": 26163,
    "ostent": 16847,
    "mit": 4934,
    "yard": 5902,
    "Ġsuffers": 2975,
    "Ġimperilled": 19581,
    "Ġapolog": 9045,
    "Ġwilling": 7421,
    "Ġpartiality": 9400,
    "Ġdock": 15934,
    "Ġsulkily": 25882,
    "medi": 2629,
    "Ġunho": 18246,
    "Ġstepped": 7053,
    "Ġlink": 8131,
    "Ġshoal": 12018,
    "distinction": 19574,
    "ront": 15421,
    "Ġwarning": 9060,
    "oysius": 14365,
    "mysterious": 26052,
    "gloves": 25146,
    "Ġrepairing": 25590,
    "obser": 11100,
    "Ġpious": 11601,
    "Ġthrusting": 10554,
    "ede": 21510,
    "Ġindicates": 3195,
    "prev": 12872,
    "Ġgable": 15671,
    "Ġwhatever": 3474,
    "Ġwages": 13856,
    "pots": 11515,
    "ographical": 16787,
    "Ġoriginated": 24124,
    "Ġoverwhel": 8198,
    "Ġsentiments": 7962,
    "operations": 19978,
    "Ġcomparatively": 9492,
    "riminately": 16485,
    "Ġhistory": 4007,
    "Ġhilariously": 25451,
    "yden": 21146,
    "Ġlocations": 12416,
    "Ġpanthe": 19656,
    "Ġdesk": 11910,
    "Ġsimulates": 2740,
    "Ġretrieval": 10676,
    "Ġluxurious": 17313,
    "Ġrepair": 11981,
    "Ġunassuming": 20512,
    "cular": 15330,
    "sprinkling": 24913,
    "ercely": 12554,
    "everything": 6326,
    "Ġlub": 15653,
    "Ġconstitutes": 13554,
    "down": 3469,
    "Ġ46": 19494,
    "Ġcharlotte": 3891,
    "Ġmir": 9648,
    "Ġbrought": 2514,
    "absence": 12713,
    "Ġcondescend": 19958,
    "Ġwidows": 24238,
    "assured": 10953,
    "Ġspouts": 7731,
    "quietude": 24656,
    "Ġpay": 3962,
    "quohog": 21858,
    "project": 16428,
    "gammon": 20246,
    "Ġ[\"": 19933,
    "soles": 18685,
    "Ġheire": 18039,
    "Ġmasoned": 20254,
    "harpoons": 24286,
    "Ġsoap": 14134,
    "Ġpretension": 23766,
    "clouded": 20334,
    "Ġlowly": 11122,
    "Ġdefault": 3041,
    "Ġdog": 4195,
    "Ġtogether": 1877,
    "Ġsincere": 11137,
    "deploy": 22147,
    "Ġadapts": 3820,
    "Ġgum": 21599,
    "Ġpictures": 5503,
    "Ġprejudice": 9077,
    "Ġattacks": 12208,
    "Ġpersuaded": 5769,
    "orses": 6054,
    "Ġnearing": 15802,
    "lays": 14924,
    "Ġabating": 22272,
    "myster": 16263,
    "Ġsliding": 9365,
    "Ġprosperity": 20260,
    "Ġmim": 3107,
    "ights": 8478,
    "Ġor": 437,
    "omuch": 21644,
    "umbled": 8495,
    "steps": 9407,
    "Ġsmote": 18576,
    "Ġev": 4829,
    "rifled": 21050,
    "Ġcarelessly": 11121,
    "ittleness": 22381,
    "lingly": 9775,
    "teous": 16177,
    "Ġdolphin": 17314,
    "binder": 17501,
    "desire": 14663,
    "Ġsheaves": 22162,
    "birth": 15324,
    "Ġfinish": 7950,
    "Ġbosoms": 16796,
    "Ġch": 513,
    "Ġdexterous": 15151,
    "Ġdeemed": 7614,
    "Ġcircular": 13113,
    "pag": 11512,
    "Ġcurled": 8228,
    "Ġunscrew": 22045,
    "Ġdiggings": 24650,
    "Ġstaff": 14008,
    "approbation": 11459,
    "youn": 5690,
    "Ġrece": 11640,
    "ided": 2787,
    "atmospheric": 17777,
    "Ġbent": 5149,
    "Ġforbidden": 17078,
    "wreck": 21139,
    "Ġcaptivating": 26050,
    "edded": 8558,
    "erate": 7150,
    "Ġ150": 22830,
    "thrill": 25657,
    "employed": 17263,
    "Ġtahiti": 13621,
    "Ġconsternation": 9861,
    "Ġrecomm": 4996,
    "Ġprofuse": 23568,
    "asted": 4650,
    "Ġflu": 3275,
    "said": 4107,
    "ikes": 8088,
    "feet": 6570,
    "odious": 21815,
    "assuming": 22315,
    "inence": 15484,
    "Ġsweeter": 23921,
    "Ġreplete": 15702,
    "dington": 12069,
    "Ġbaltic": 18796,
    "Ġwhipping": 21720,
    "Ġgazed": 6479,
    "Ġgoverned": 23573,
    "ascal": 10194,
    "ceptible": 10960,
    "Ġbulb": 23857,
    "Ġtable": 2497,
    "Ġloves": 10916,
    "deceiving": 22149,
    "somers": 19371,
    "ruding": 9726,
    "Ġsmoked": 10324,
    "Ġfulfilment": 20190,
    "breadth": 20279,
    "Ġstrangers": 8315,
    "keys": 15862,
    "Ġjune": 10290,
    "Ġpsych": 10178,
    "Ġduplicates": 17218,
    "ansion": 10926,
    "Ġfails": 13316,
    "Ġwouldst": 18502,
    "Ġinjury": 10542,
    "Ġrecompense": 14840,
    "Ġbu": 3683,
    "Ġdoings": 18377,
    "Ġdelighted": 5499,
    "Ġwhitened": 24868,
    "Ġnewspaper": 12367,
    "incom": 21184,
    "rear": 21235,
    "Ġfishery": 4177,
    "Ġconsummate": 25311,
    "ied": 940,
    "cceed": 4144,
    "cab": 7333,
    "taste": 10131,
    "Ġconsolation": 6210,
    "Ġcontribute": 12866,
    "Ã¦st": 24177,
    "Ġimpotently": 22398,
    "Ġfires": 16474,
    "Ġvictory": 16655,
    "oons": 12502,
    "Ġvisage": 18770,
    "girdling": 26390,
    "Ġsail": 1677,
    "cabin": 8364,
    "Ġflooring": 23626,
    "Ġbreakers": 12058,
    "Ġparch": 11729,
    "Ġdeceiving": 21842,
    "charles": 14701,
    "Ġsunrise": 9375,
    "ached": 2321,
    "Ġforger": 15737,
    "Ġincisive": 18571,
    "duck": 22412,
    "Ġexcavating": 23319,
    "Ġchat": 6562,
    "Ġminute": 4280,
    "Ġhave": 446,
    "Ġrickety": 26506,
    "Ġgeological": 14534,
    "ÿ": 192,
    "Ġmoods": 14953,
    "disgust": 23500,
    "consist": 14818,
    "Ġincorpor": 13167,
    "Ġsafer": 22175,
    "Ġreadability": 2724,
    "utarch": 15666,
    "Ġsluggishly": 25892,
    "Ġbegrim": 23020,
    "prepare": 20215,
    "service": 15038,
    "Ġmorning": 1750,
    "Ġrelating": 2705,
    "Ġparad": 2847,
    "Ġsums": 2906,
    "Ġnois": 4269,
    "front": 12174,
    "ineering": 21993,
    "Ġpetrified": 19599,
    "Ġsunk": 5752,
    "Ġcubic": 20091,
    "Ġabrupt": 9738,
    "ousand": 2428,
    "Ġsoon": 1230,
    "rey": 12542,
    "Ġclutched": 13520,
    "Ġindestruct": 22962,
    "Ġfresher": 23211,
    "Ġofficers": 4427,
    "ividually": 22088,
    "ection": 4948,
    "Ġplantation": 11424,
    "Ġtyrant": 24766,
    "clay": 18933,
    "Ġmirror": 12381,
    "Ġshares": 23249,
    "ici": 8442,
    "Ġejaculated": 15172,
    "onds": 12999,
    "Ġtul": 21162,
    "Ġdevoid": 18681,
    "Ġpoet": 8209,
    "cottagers": 20051,
    "Ġgovernesses": 25130,
    "Ġbegat": 18865,
    "Ġorgan": 2500,
    "Ġinsertion": 26345,
    "missed": 11210,
    "leading": 15566,
    "Ġcertain": 1557,
    "Ġstrangled": 24135,
    "ingly": 2137,
    "Ġcaravan": 26292,
    "Ġencouraged": 9357,
    "slept": 17171,
    "osed": 1963,
    "Ġbeautiful": 3673,
    "Ġtides": 13823,
    "Ġenough": 1763,
    "Ġjinglers": 26019,
    "Ġbarque": 23792,
    "thrown": 8483,
    "Ġmuskets": 17057,
    "Ġowning": 18746,
    "isson": 23465,
    "Ġdeliciousness": 24128,
    "Ġmoody": 8202,
    "hunsford": 24385,
    "Ġregret": 5560,
    "Ġignor": 4011,
    "Ġforebodings": 17306,
    "Ġunnear": 22033,
    "Ġspoon": 22139,
    "introduce": 25187,
    "Ġserious": 4323,
    "rices": 4560,
    "Ġjudiciously": 23880,
    "Ġgardiner": 3238,
    "Ġcosmetic": 23475,
    "Ġceremonies": 24837,
    "reen": 21234,
    "isco": 12586,
    "wonders": 17145,
    "Ġdeference": 10882,
    "Ġremoving": 12120,
    "situation": 11438,
    "consp": 18505,
    "Ġskrimshander": 22804,
    "Ġrenewal": 12238,
    "Ġindex": 17049,
    "incl": 8111,
    "Ġcompre": 4450,
    "ical": 753,
    "Ġansw": 2206,
    "Ġprecisely": 6467,
    "imprudent": 14652,
    "Ġhardships": 14453,
    "orte": 14186,
    "itia": 11581,
    "acey": 7651,
    "Ġelias": 18636,
    "Ġpecks": 18670,
    "Ġclutches": 20021,
    "ourable": 4967,
    "Ġthoughtful": 16195,
    "osa": 22265,
    "Ġleaky": 2345,
    "chant": 4260,
    "Ġinvests": 14870,
    "Ġsain": 17751,
    "Ġrepl": 1591,
    "Ġinc": 702,
    "gener": 3126,
    "lect": 1224,
    "Ġflask": 3042,
    "Ġextravag": 11253,
    "Ġjava": 12315,
    "feeling": 6619,
    "ushed": 2973,
    "Ġimpudence": 26243,
    "fted": 9120,
    "Ġbesee": 19245,
    "equally": 19901,
    "Ġpence": 17907,
    "Ġadmiration": 5329,
    "uten": 11624,
    "Ġiroquois": 26473,
    "relate": 24015,
    "aving": 2405,
    "inian": 21185,
    "Ù": 154,
    "Ġpitching": 16612,
    "mp": 3727,
    "Ġpatagonia": 25856,
    "aug": 1214,
    "oping": 5558,
    "keepers": 16661,
    "large": 6628,
    "Ġsmell": 7216,
    "anger": 2175,
    "Ġpri": 5814,
    "Ġimmediate": 6091,
    "Ġdost": 7638,
    "minutely": 19596,
    "Ġidolator": 20001,
    "Ġcritics": 23444,
    "credit": 12452,
    "Ġskulls": 12964,
    "Ġsudden": 1999,
    "Ġunwinding": 22065,
    "Ġassum": 4065,
    "Ġmasterly": 23997,
    "Ġbathed": 17867,
    "Ġconjugal": 25104,
    "Ġcivilized": 8668,
    "onsense": 6432,
    "Ġrequ": 791,
    "Ġinexper": 16981,
    "Ġsupposed": 4559,
    "Ġhooped": 23359,
    "lifted": 15389,
    "Ġdissatisfied": 14258,
    "fleece": 19951,
    "Ġgree": 7596,
    "coat": 5407,
    "fourths": 25510,
    "Ġalongside": 6313,
    "Ġdun": 6676,
    "propagation": 1262,
    "Ġwrote": 5011,
    "be": 668,
    "Ġgait": 13333,
    "onement": 21259,
    "boards": 23258,
    "Ġpicked": 6343,
    "Ġunited": 6840,
    "Ġsympathies": 14863,
    "Ġenvironmental": 24035,
    "Ġapologized": 25199,
    "Ġrecommended": 8671,
    "Ġpenalty": 1840,
    "Ġdreaming": 11224,
    "Ġbrutality": 26278,
    "rant": 11518,
    "Ġlengthened": 25959,
    "Ġprovincial": 20652,
    "Ġphilipses": 24451,
    "itics": 13874,
    "Ġparaphrasing": 26527,
    "Ġarrang": 2468,
    "sweetly": 25137,
    "Ġregularity": 22792,
    "Ġbordering": 17230,
    "Ġchased": 8864,
    "igantic": 5538,
    "Ġdescried": 7921,
    "all": 485,
    "Ġaccompl": 5167,
    "Ġhonest": 7287,
    "frankly": 20025,
    "Ġost": 9651,
    "Ġded": 2391,
    "Ġphil": 3386,
    "intellect": 18823,
    "Ġfortifications": 23622,
    "swiftly": 20554,
    "Ġassurances": 10002,
    "Ġmacey": 12567,
    "Ġcom": 367,
    "Ġoutstretched": 14197,
    "Ġfetch": 7771,
    "Ġtease": 18805,
    "stri": 6251,
    "Ġgrapp": 14103,
    "astrous": 15890,
    "philosophers": 25253,
    "sleeve": 26109,
    "Ġabsorb": 25115,
    "Ġsecretary": 19445,
    "Ġstalked": 20432,
    "naturalist": 23462,
    "Ġimperfectly": 25727,
    "Ġkra": 18349,
    "circumstantial": 24443,
    "Ġbecome": 3158,
    "Ġsupplies": 20329,
    "Ġcatastrophic": 3543,
    "imes": 1300,
    "Ġevenness": 22838,
    "sust": 15425,
    "Ġtokens": 1773,
    "Ġmisery": 3817,
    "Ġshoving": 23493,
    "arial": 5531,
    "Ġpool": 5173,
    "aint": 2540,
    "char": 3505,
    "[": 63,
    "Ġprom": 1527,
    "onel": 3092,
    "famous": 16917,
    "Ġsupports": 3052,
    "Ġadjac": 18293,
    "Ġbinding": 20422,
    "ises": 3654,
    "Ġcollinses": 19131,
    "abomin": 15746,
    "Ġbreeds": 23352,
    "Ġcommercial": 22678,
    "Ġspeckled": 14311,
    "Ġdescribes": 3122,
    "Ġsufferable": 16259,
    "Ġeveryday": 22773,
    "Ġnevertheless": 5040,
    "Ġguess": 4904,
    "Ġscaffold": 18401,
    "Ġphys": 5653,
    "blubber": 15239,
    "rosings": 15648,
    "command": 6578,
    "Ġhoarse": 14527,
    "Ġmanhood": 22331,
    "Ġcapsizing": 20092,
    "Ġmocking": 24006,
    "soft": 12513,
    "Ġcontriv": 9284,
    "Ġreconciled": 13589,
    "Ġlegit": 16475,
    "Ġconsented": 11296,
    "ativeness": 15524,
    "Ġcubs": 20090,
    "Ġ97": 19777,
    "passenger": 24168,
    "Ġmarshal": 20222,
    "Ġpuffed": 14979,
    "tre": 8764,
    "paint": 21020,
    "ĠvertebrÃ¦": 11436,
    "Ġwer": 12556,
    "Ġchronicle": 20231,
    "Ġrelevant": 1863,
    "Ġstuffed": 13411,
    "Ġrevisit": 21674,
    "ancy": 4394,
    "Ġtesting": 23216,
    "âĢĶ.âĢĿ": 22260,
    "classification": 4388,
    "Ġinvaders": 23484,
    "Ġstroke": 6936,
    "Ġmisunderstand": 18705,
    "Ġmach": 13859,
    "igger": 21704,
    "violence": 16480,
    "Ġqueequeg": 2012,
    "Ġensure": 23690,
    "ol": 361,
    "Ġweigh": 10894,
    "Ġalms": 21785,
    "Ġflights": 24752,
    "ogany": 18673,
    "foundation": 16716,
    "Ġrelieved": 7668,
    "Ġuniformly": 19149,
    "Ġpromised": 5181,
    "Ġwon": 1669,
    "da": 17515,
    "Ġmatter": 1734,
    "Ġeaten": 14847,
    "Ġnice": 6678,
    "Ġproperty": 6451,
    "Ġtelegraph": 25584,
    "affections": 17358,
    "Ġhowl": 12858,
    "extremely": 26265,
    "object": 6884,
    "high": 6652,
    "Ġconsisted": 10420,
    "Ġusurpation": 18364,
    "Ġlong": 793,
    "Ġleaps": 14010,
    "Ġdriver": 16476,
    "nered": 18495,
    "silent": 9976,
    "Ġadopt": 10634,
    "mingled": 14715,
    "untarily": 6314,
    "mistress": 14907,
    "stave": 21653,
    "Ġindebted": 8711,
    "Ġcultivation": 17147,
    "iza": 6257,
    "rolled": 9061,
    "poison": 14394,
    "Ġdiscipl": 22788,
    "uncle": 8160,
    "Ġfirmest": 16666,
    "jack": 7344,
    "Ġgranting": 18736,
    "Ġrubber": 22791,
    "Ġwind": 1435,
    "purp": 8092,
    "ning": 951,
    "expression": 10549,
    "ella": 12753,
    "constellation": 24609,
    "Ġmental": 21322,
    "gled": 10700,
    "Ġbequest": 21758,
    "Ġline": 1848,
    "Ġrow": 5246,
    "injustice": 17738,
    "Ġhorseback": 14852,
    "Ġdrop": 4345,
    "Ġug": 8142,
    "fitted": 17545,
    "Ġexceptionable": 25504,
    "Ġencompassed": 15256,
    "iterranean": 15554,
    "Ġstash": 18070,
    "Ġburly": 19252,
    "Ġderanged": 23178,
    "allies": 14167,
    "taking": 5689,
    "brushing": 20790,
    "Ġnought": 21526,
    "Ġadvertised": 17249,
    "Ġprivilege": 11420,
    "rather": 5430,
    "Ġantagon": 19553,
    "adel": 15733,
    "Ġtahitian": 25428,
    "Ġcleaned": 23187,
    "Ġbrilliant": 11415,
    "Ġled": 3523,
    "twice": 14622,
    "whaleman": 23438,
    "Ġ96": 24594,
    "Ġfoul": 7160,
    "deacon": 22152,
    "queequeg": 4335,
    "Ġworshippers": 25694,
    "Ġswitching": 23061,
    "Ġpupella": 20425,
    "apprehens": 17408,
    "Ġundeceive": 25553,
    "Ġstepfather": 7221,
    "Ġinstituted": 18702,
    "ources": 2791,
    "plied": 10256,
    "Ġdarling": 12609,
    "Ġgilder": 21617,
    "boast": 23256,
    "Ġaback": 22271,
    "Ġmoonshine": 19600,
    "Ġcape": 5146,
    "pede": 19932,
    "nings": 9133,
    "Ġdiscoursing": 26268,
    "Ġintegration": 9870,
    "Ġstolen": 14009,
    "think": 3610,
    "ellative": 21950,
    "Ġvenom": 24240,
    "Ġsuits": 22081,
    "linen": 25258,
    "Ġturbid": 23613,
    "Ġdamned": 13134,
    "Ġsor": 4147,
    "ills": 1627,
    "Ġcommentators": 25230,
    "Ġgrego": 18964,
    "Ġhostile": 19943,
    "Ġlikened": 16501,
    "Ġscruples": 15081,
    "offended": 16397,
    "Ġtreats": 19347,
    "impotence": 23763,
    "destiny": 16700,
    "government": 25407,
    "ienced": 5685,
    "Ġluxuriant": 20398,
    "Ġverd": 6919,
    "Ġstructures": 2720,
    "Ġcrunched": 19122,
    "Ġjets": 10289,
    "Ġquarrel": 7292,
    "Ġvowed": 14086,
    "Ġminister": 18753,
    "Ġscheme": 7066,
    "Ġbay": 9170,
    "ack": 615,
    "reve": 12543,
    "Ġjoyous": 14665,
    "Ġhearses": 20063,
    "Ġcrocod": 19631,
    "Ġkne": 4268,
    "Ġmutiny": 13262,
    "Ġfought": 12598,
    "asses": 7018,
    "Ġnathan": 21530,
    "Ġsecrecy": 7316,
    "laug": 10708,
    "Ġdiscover": 4718,
    "Ġbale": 7839,
    "Ġluxur": 12344,
    "Ġconject": 6029,
    "asons": 6017,
    "Ġwhe": 439,
    "Ġinnocently": 24032,
    "Ġawe": 7148,
    "well": 1694,
    "Ġcompassionate": 24722,
    "affold": 16564,
    "Ġnosegay": 24194,
    "Ġwe": 386,
    "Ġdownstream": 3775,
    "Ġspilling": 22142,
    "unched": 10237,
    "Ġemboldened": 22964,
    "lotts": 23828,
    "Ġgrew": 5182,
    "Ġsurp": 9636,
    "Ġinsect": 12641,
    "smooth": 20251,
    "Ġfrog": 23925,
    "Ġapprehension": 7115,
    "Ġsentiment": 6591,
    "Ġslave": 7454,
    "Ġgain": 4828,
    "Ġreef": 10850,
    "insisted": 23072,
    "Ġunaccount": 22032,
    "mort": 10711,
    "spot": 9792,
    "ury": 3310,
    "Ġgurg": 15677,
    "l": 80,
    "opic": 22481,
    "Ġdynamic": 5124,
    "Ġgrows": 4985,
    "ribution": 14306,
    "yra": 8104,
    "Ġalternate": 19989,
    "prehend": 14244,
    "Ġwrist": 8244,
    "Ġboun": 21383,
    "Ġgrated": 22808,
    "Ġpreprocessing": 26537,
    "Ġmischie": 22764,
    "Ġmingled": 12380,
    "rigible": 24932,
    "Ġgravely": 7885,
    "Ġtusk": 25426,
    "Ġguided": 10461,
    "sweeping": 24620,
    "Ġwrung": 14472,
    "Ġstability": 1363,
    "opp": 6963,
    "Ġflowed": 10373,
    "abhor": 12712,
    "Ġenlightened": 12751,
    "Ġfriesland": 26443,
    "hen": 3519,
    "Ġloudly": 7312,
    "eman": 5636,
    "presume": 25671,
    "instinct": 19546,
    "doctor": 19097,
    "claimed": 9838,
    "Ġtrance": 12844,
    "Ġfantastic": 10061,
    "breath": 15165,
    "Ġdaring": 8122,
    "ĠĠĠĠĠĠĠĠĠĠĠĠĠĠĠĠĠĠĠĠĠĠĠĠĠĠĠĠĠĠĠĠĠĠĠĠĠĠĠĠĠĠĠĠĠĠĠĠĠĠĠĠĠ": 20043,
    "usal": 7640,
    "Ġslight": 3120,
    "Ġascend": 9962,
    "Ġcollecting": 12289,
    "Ġwherein": 14295,
    "Ġsquire": 16184,
    "imately": 12693,
    "uated": 10133,
    "Ġmiss": 1232,
    "ara": 12611,
    "progra": 9397,
    "Ġexcluded": 16388,
    "Ġviolin": 16431,
    "carp": 9112,
    "Ġspars": 3813,
    "lass": 5995,
    "specific": 10499,
    "Ġdecomposition": 5343,
    "process": 11149,
    "Ġgates": 10202,
    "Ġscraping": 13418,
    "Ġstaid": 21740,
    "Ġamounted": 18514,
    "Ġungracious": 18259,
    "Ġstalk": 12702,
    "Ġprev": 6266,
    "Ġmouth": 3180,
    "iquette": 26133,
    "Ġhinting": 19652,
    "Ġyelled": 9696,
    "Ġadagrad": 2907,
    "Ġcouns": 10522,
    "mblies": 24610,
    "Ġruggedness": 26270,
    "incing": 15488,
    "Ġlo": 453,
    "Ġ3": 3983,
    "kingly": 20941,
    "again": 3399,
    "Ġquiescent": 26244,
    "bout": 20775,
    "paused": 17376,
    "Ġdiffident": 23785,
    "sprit": 11383,
    "okers": 18443,
    "Ġreturns": 11929,
    "Ġdemanding": 16806,
    "chronicle": 26481,
    "Ġbuild": 6475,
    "Ġimpetus": 25570,
    "Ġsoul": 2726,
    "icuous": 10836,
    "Ġorphan": 12386,
    "Ġreptile": 15280,
    "Ġbenches": 18782,
    "Ġirritation": 20269,
    "manner": 6172,
    "qu": 368,
    "ula": 2830,
    "Ġjovial": 19236,
    "Ġy": 341,
    "Ġsmilingly": 22565,
    "Ġdiscretion": 10349,
    "Ġsent": 1776,
    "Ġdepos": 11008,
    "butt": 15998,
    "Ġhovel": 8255,
    "Ġreflect": 6576,
    "Ġsearched": 15823,
    "Ġsighs": 22713,
    "permitted": 18341,
    "Ġfitzwilliam": 5771,
    "Ġtink": 9150,
    "Ġcol": 1064,
    "Ġturning": 3325,
    "Ġinsolence": 20256,
    "Ġdeclared": 5594,
    "Ġstim": 18066,
    "Ġsubaltern": 22796,
    "Ġrepeatedly": 9023,
    "Ġwhen": 514,
    "Ġprofound": 5497,
    "ef": 5134,
    "Ġcedars": 20295,
    "featured": 24114,
    "Ġcryst": 9919,
    "swimming": 24260,
    "Ġsiberia": 26162,
    "okened": 15988,
    "crooked": 25747,
    "Ġflann": 23017,
    "Ġbefitting": 15730,
    "once": 5906,
    "Ġaddresses": 3769,
    "Ġcensured": 25097,
    "Ġsetting": 7048,
    "Ġdetaining": 25819,
    "Ġgladstone": 23871,
    "angled": 6844,
    "ippi": 20247,
    "Ġtorrent": 17092,
    "hour": 7340,
    "aurus": 20563,
    "Ġregion": 2272,
    "altern": 17944,
    "Ġnewton": 3534,
    "Ġadjusted": 23459,
    "Ġadvert": 10573,
    "Ġgravity": 9250,
    "Ġsuspense": 9420,
    "51": 12434,
    "Ġacceptable": 16745,
    "Ġprosperous": 15173,
    "adv": 4538,
    "flo": 6116,
    "Ġsuperst": 7705,
    "Ġpathways": 11154,
    "Ġquant": 6425,
    "baby": 25516,
    "mathematics": 26305,
    "game": 11492,
    "filled": 9596,
    "Ġdoct": 4457,
    "Ġsque": 18757,
    "âĢĶ(": 15942,
    "Ġyoungest": 7955,
    "Ġportion": 7493,
    "unaccountable": 15783,
    "Ġglut": 18849,
    "Ġcub": 8416,
    "Ġdeep": 804,
    "Ġaquiline": 26160,
    "Ġnecessitated": 23932,
    "across": 10326,
    "Ġsash": 17755,
    "Ġwarrior": 24495,
    "etts": 12665,
    "Ġagencies": 18539,
    "miss": 3174,
    "immed": 9219,
    "shock": 19857,
    "pier": 17636,
    "Ġforgetting": 3435,
    "Ġlooks": 4167,
    "Ġstandard": 14498,
    "Ġmightiest": 12965,
    "ishes": 6524,
    "ete": 9205,
    "investigations": 25534,
    "puff": 21024,
    "venerable": 26409,
    "Ġprov": 4401,
    "itically": 21333,
    "evident": 25521,
    "melted": 25207,
    "Ġkeels": 11062,
    "Ġbehold": 5049,
    "evil": 11487,
    "Ġfossil": 12390,
    "timidity": 25754,
    "coloured": 7291,
    "lever": 2934,
    "Ġwarb": 17789,
    "Ġspoils": 24805,
    "licted": 20958,
    "icult": 3339,
    "ersburgh": 18216,
    "Ġdong": 17889,
    "Ġrepugnance": 19088,
    "Ġelig": 9780,
    "idge": 14016,
    "pip": 6657,
    "judge": 13339,
    "Ġunintermitted": 26221,
    "whalemen": 10432,
    "waiter": 24588,
    "Ġengaged": 3430,
    "Ġmodel": 512,
    "Ġpenetrated": 13474,
    "aries": 6246,
    "Ġdigging": 14940,
    "Ġsatiated": 22906,
    "Ġshipwreck": 20449,
    "Ġnapoleons": 25886,
    "Ġdiddled": 22671,
    "ary": 987,
    "Ġhelping": 3265,
    "companies": 24895,
    "Ġsuperiors": 23456,
    "Ġdimly": 9490,
    "pard": 9620,
    "Ġpulling": 5864,
    "Ġlids": 12279,
    "vative": 1602,
    "offing": 23338,
    "Ġremember": 2677,
    "Ġwoodlands": 23524,
    "Ġeloquent": 16114,
    "Ġmercenary": 17195,
    "obli": 23099,
    "received": 9640,
    "rically": 15420,
    "Ġitem": 12706,
    "Ġcraggy": 23532,
    "heavenly": 20048,
    "sized": 15431,
    "Ġastr": 15497,
    "Ġrelu": 1045,
    "live": 7551,
    "in": 262,
    "moment": 3579,
    "G": 43,
    "Ġcrisp": 12005,
    "Ġaimed": 20253,
    "journey": 8748,
    "ifting": 6547,
    "plun": 15819,
    "Ġlean": 7607,
    "Ġfixed": 2684,
    "Ġinconveniences": 24942,
    "Ġhogshead": 26369,
    "Ġresponsible": 9888,
    "Ġlight": 1703,
    "strongly": 24685,
    "Ġgibe": 25960,
    "Ġvesture": 20065,
    "Ġoppressed": 11190,
    "Ġcontext": 1700,
    "Ġmasonry": 13601,
    "ratches": 20128,
    "rid": 5137,
    "Ġasiatic": 20433,
    "Ġtwos": 18658,
    "isturbed": 18298,
    "marrying": 19550,
    "Ġsag": 6515,
    "Ġdrunken": 12053,
    "Ġdimension": 3240,
    "Ġrenewing": 19813,
    "Ġtalent": 12300,
    "Ġchildren": 3768,
    "Ġgasfitters": 25041,
    "Ġattain": 12752,
    "pus": 3415,
    "swinging": 25913,
    "Ġblossom": 26313,
    "Ġdisastrous": 16064,
    "Ġtears": 4232,
    "Ġswords": 19899,
    "Ġunworth": 22041,
    "Ġgratification": 24099,
    "twelvemonth": 25863,
    "Ġcleaning": 23185,
    "Ġaugmentation": 20119,
    "mists": 17605,
    "Ġoff": 902,
    "Ġmarbles": 18874,
    "Ġriv": 10747,
    "Ġlur": 5226,
    "Ġexeget": 24086,
    "Ġrepay": 19083,
    "Ġclassifies": 11839,
    "Ġbraw": 23837,
    "Ġhad": 444,
    "contr": 12060,
    "Ġoust": 21327,
    "subs": 14304,
    "Ġren": 3848,
    "Ġtash": 13822,
    "Ġparliament": 18303,
    "Ġramsgate": 18649,
    "Ġcocked": 12909,
    "Ġvigilance": 12374,
    "Ġwashed": 15769,
    "wol": 21125,
    "Ġcheck": 7271,
    "Ġovertaken": 18430,
    "Ġphrenologically": 20397,
    "Ġcalf": 16266,
    "visitor": 15061,
    "'m": 9584,
    "Ġpersonally": 8602,
    "Ġvagabond": 20206,
    "was": 1422,
    "ppers": 7619,
    "irons": 10240,
    "protruding": 24813,
    "Ġdramat": 23222,
    "pervading": 18958,
    "Ġtrailing": 23084,
    "brimming": 23579,
    "Ġfibres": 12955,
    "zen": 5140,
    "Ġclearly": 6897,
    "Ġdefined": 11901,
    "aciously": 12912,
    "antee": 22102,
    "Ġte": 1152,
    "ibank": 6880,
    "abominable": 20597,
    "Ġcalifornia": 20533,
    "Ġwhist": 6024,
    "Ġwhipcord": 20098,
    "Ŀ": 256,
    "Ġstat": 1490,
    "Ġprincip": 5599,
    "Ġaggreg": 12889,
    "Ġintelligible": 15945,
    "Ġabused": 22274,
    "Ġcompleted": 8999,
    "piled": 21017,
    "Ġpalaces": 24094,
    "Ġreached": 4023,
    "Ġconversed": 13190,
    "singing": 24362,
    "Ġswing": 13039,
    "ld": 385,
    "Ġobligations": 12096,
    "Ġabroad": 8868,
    "Ġ128": 24472,
    "Ġdragging": 14478,
    "Ġrefined": 18688,
    "retrie": 18926,
    "Ġcorroborated": 26054,
    "bene": 6114,
    "says": 13302,
    "Ġhandsomer": 20336,
    "emptied": 23638,
    "reproach": 15189,
    "furnished": 20244,
    "Ġjewelled": 20186,
    "achable": 14139,
    "beloved": 19464,
    "Ġfluctuating": 24416,
    "reading": 12083,
    "critical": 19499,
    "Ġahead": 6665,
    "Ġfoss": 9851,
    "Ġlip": 6534,
    "Ġcanv": 7011,
    "inching": 21192,
    "Ġsimul": 1806,
    "pitch": 13301,
    "Ġscotland": 6642,
    "Ġmar": 1309,
    "Ġembal": 11905,
    "Ġpemberley": 4589,
    "endured": 22232,
    "Ġsaturn": 22905,
    "Ġacts": 2294,
    "Ġassures": 14468,
    "Ġproject": 5545,
    "Ġhit": 7164,
    "circumstances": 8048,
    "Ġhealthy": 10852,
    "Ġwhitish": 24867,
    "invincible": 25092,
    "Ġslashing": 23174,
    "Ġtraitors": 23082,
    "Ġstump": 7604,
    "Ġnorthward": 13324,
    "Ġmeridians": 17357,
    "Ġearl": 7678,
    "Ġobservable": 25129,
    "oded": 11671,
    "Ġimpress": 6862,
    "delay": 16696,
    "Ġrichness": 19313,
    "answering": 26005,
    "Ġboots": 5945,
    "acious": 5561,
    "arks": 2849,
    "perplex": 18339,
    "anqu": 4113,
    "board": 3566,
    "Ġrepented": 23366,
    "Ġregrets": 18601,
    "jaw": 13745,
    "Ġbounce": 21396,
    "Ġmonkey": 8227,
    "Ġexceeding": 1579,
    "Ġpallid": 12302,
    "ches": 2149,
    "Ġflowing": 14415,
    "Ġshelter": 17009,
    "Ġscramble": 24578,
    "uncont": 15778,
    "straw": 24098,
    "Ġcapricious": 20541,
    "Ġmaintaining": 1509,
    "Ġapologies": 25197,
    "Ġherbage": 25997,
    "Ġrecall": 3858,
    "larger": 24204,
    "Ġdisappointing": 19582,
    "(_": 7541,
    "Ġmillions": 11355,
    "turn": 4293,
    "Ġfrogs": 23927,
    "Ġresidual": 1683,
    "Ġthese": 821,
    "Ġdisinclined": 22533,
    "displeasure": 23499,
    "erer": 8735,
    "angry": 18295,
    "Ġact": 689,
    "Ġmax": 2006,
    "Ġapp": 494,
    "Ġmove": 5107,
    "Ġmayhew": 12954,
    "Ġshoulders": 5565,
    "Ġforbid": 7867,
    "ing": 273,
    "Ġdrought": 19281,
    "Ġsteep": 2893,
    "utored": 15667,
    "Ġunable": 4951,
    "Ġyawned": 15053,
    "Ġanomalously": 25639,
    "Ġimpulsively": 24881,
    "Ġheh": 21684,
    "tallow": 21088,
    "Ġimpulses": 19965,
    "Ġgeneralize": 3102,
    "Ġalco": 21787,
    "Ġpave": 8803,
    "ersman": 11704,
    "Ġcode": 1722,
    "adoes": 11662,
    "Ġpolice": 4675,
    "Ġactivity": 7922,
    "Ġcanaan": 22171,
    "Ġhear": 1967,
    "motives": 26138,
    "br": 2477,
    "Ġgle": 7860,
    "ß": 160,
    "Ġadam": 2129,
    "ban": 9586,
    "sciss": 18853,
    "discernible": 20553,
    "Ġtested": 23217,
    "Ġniagara": 26459,
    "Ġ221": 25071,
    "Ġleft": 1762,
    "Ġpos": 1008,
    "Ġetext": 23953,
    "Ġquill": 12862,
    "Ġdistributions": 1050,
    "Ġfreshe": 13072,
    "Ġhated": 7586,
    "Ġanything": 2189,
    "Ġcrews": 8992,
    "Ġbreeze": 5681,
    "Ġamid": 4959,
    "tru": 10730,
    "Ġdisobey": 18557,
    "bos": 17485,
    "worship": 19390,
    "Ġpresents": 8247,
    "Ġobscured": 15012,
    "john": 11499,
    "irectly": 6940,
    "mish": 17599,
    "quid": 18148,
    "Ġmorass": 22975,
    "kindness": 10507,
    "Ġfunctions": 1339,
    "erity": 21270,
    "Ġneglig": 18879,
    "Ġindelicacy": 25696,
    "Ġbloodshot": 23801,
    "itchen": 7789,
    "ezes": 9993,
    "sham": 9759,
    "ident": 3379,
    "Ġstructure": 834,
    "Ġwhilst": 9220,
    "Ġvillas": 24058,
    "Ġwest": 5219,
    "intense": 22940,
    "none": 6962,
    "necessities": 24307,
    "Ġuntouched": 16468,
    "Ġaddressing": 11165,
    "measure": 10033,
    "riving": 21936,
    "Ġpale": 4533,
    "Ġstoutest": 24630,
    "Ġfedallah": 6110,
    "Ġconcre": 16390,
    "wishing": 21131,
    "Ġtruck": 19514,
    "Ġgrecian": 26297,
    "Ġboard": 3384,
    "Ġrevolutionized": 3367,
    "Ġoarsmen": 7739,
    "Ġunhappiness": 14120,
    "Ġplainer": 23706,
    "Ġswandam": 11089,
    "Ġgets": 10840,
    "Ġtwine": 14313,
    "linging": 16082,
    "Ġund": 4121,
    "Ġbulk": 5590,
    "Ġknife": 7309,
    "Ġexagger": 12724,
    "Ġdelirium": 10406,
    "Ġconsequent": 18113,
    "work": 1748,
    "Ġguide": 3217,
    "observed": 7677,
    "decided": 13217,
    "Ġenc": 967,
    "Ġtruest": 16701,
    "Ġther": 17779,
    "Ġimposing": 11784,
    "Ġcircumnav": 12429,
    "Ġwidth": 16773,
    "Ġspades": 12801,
    "ogrand": 26263,
    "Ġconjectured": 9999,
    "Ġbounding": 19403,
    "itying": 21999,
    "Ġbestirred": 20454,
    "Ġlandsmen": 11352,
    "Ġsculpt": 15950,
    "Ġentrapped": 26264,
    "Ġfruits": 17120,
    "Ġsquid": 11881,
    "attempt": 9362,
    "Ġtranslates": 12054,
    "explanations": 25235,
    "mile": 17598,
    "Ġtroublesome": 24005,
    "earn": 10697,
    "vously": 23508,
    "plain": 1358,
    "Ġpatched": 16363,
    "bald": 16446,
    "Ġtrough": 15967,
    "Ġbetokened": 18798,
    "rushing": 10020,
    "infernal": 24663,
    "Ġxxii": 24477,
    "Ġresidence": 8208,
    "Ġabout": 633,
    "endering": 21287,
    "murdered": 12206,
    "Ġadvanced": 1494,
    "Ġplumber": 16088,
    "affording": 23779,
    "Ġrelapses": 26280,
    "rown": 2194,
    "Ġlover": 7193,
    "axing": 18545,
    "Ġsentinel": 26066,
    "Ġivory": 4478,
    "Ġwig": 9163,
    "ina": 21182,
    "Ġcabs": 23643,
    "lessly": 4557,
    "Ġcedar": 15191,
    "Ġstillness": 12998,
    "Ġbremen": 23349,
    "Ġspotted": 12142,
    "cre": 4251,
    "Ġexceeded": 14435,
    "Ġsoftmax": 1692,
    "Ġcommerce": 11016,
    "Ġobstacles": 19838,
    "Ġstatements": 7517,
    "Ġcanst": 8860,
    "Ġbaronial": 23795,
    "Ġmisunderstood": 18706,
    "Ġplatform": 17133,
    "Ġchronicled": 25329,
    "ouch": 2782,
    "bery": 9796,
    "cried": 8728,
    "creature": 5347,
    "Ġerection": 24004,
    "%": 9,
    "nial": 20986,
    "Ġcursory": 18860,
    "Ġservices": 11218,
    "prop": 1047,
    "puzz": 17641,
    "gallant": 7782,
    "Ġdemeanour": 17339,
    "Ġwires": 21298,
    "_).âĢĶ": 8685,
    "Ġapprehen": 16830,
    "Ġexpressly": 16454,
    "Ġseparated": 9466,
    "clo": 5612,
    "Ġwealthy": 18181,
    "Ġearlier": 9089,
    "Ġrelinqu": 12986,
    "hyp": 15369,
    "ifying": 5235,
    "Ġplu": 8802,
    "mushroom": 26396,
    "Ġfordham": 21781,
    "Ġboughs": 20492,
    "doubtful": 24790,
    "del": 4078,
    "Ġlaunched": 14928,
    "Ġsoc": 3527,
    "ounts": 4652,
    "Ġdeer": 12725,
    "urning": 12922,
    "Ġhelmeted": 19691,
    "Ġmounting": 19980,
    "Ġartist": 12917,
    "Ġdaunt": 19667,
    "Ġcontextually": 11958,
    "trial": 20353,
    "Ġgale": 5823,
    "Ġescorted": 23510,
    "Ġmemorand": 23461,
    "Ġdecember": 15008,
    "»": 124,
    "Ġcoherent": 3261,
    "aded": 3550,
    "Ġvon": 14083,
    "true": 2586,
    "Ġparched": 11730,
    "Ġspec": 1261,
    "function": 4860,
    "ologically": 22861,
    "ato": 17770,
    "discharging": 26306,
    "aux": 14291,
    "Ġlinear": 3433,
    "rubbery": 17344,
    "Ġemb": 1225,
    "vast": 10737,
    "vint": 21117,
    "Ġswiftness": 9929,
    "apping": 5853,
    "udg": 22754,
    "Ġhamp": 12635,
    "locks": 14458,
    "--": 1040,
    "Ġhar": 5815,
    "Ġwillow": 18531,
    "some": 2235,
    "Ġperturbed": 20443,
    "Ġrueful": 25582,
    "Ġtwo": 1041,
    "influences": 25251,
    "Ġcurtains": 23006,
    "_--": 20764,
    "mental": 16053,
    "Ġpuzz": 5532,
    "rugged": 6849,
    "tipt": 25086,
    "Ġfloat": 12035,
    "bitious": 16671,
    "Ġyork": 11667,
    "Ġbrittle": 22871,
    "Ġinquir": 4243,
    "Ġmarlingspike": 26580,
    "Ġbree": 5012,
    "Ġpoltro": 23621,
    "elop": 1504,
    "Ġfugitives": 25635,
    "fearfully": 25119,
    "Ġemerg": 13426,
    "chard": 21691,
    "Ġrepeated": 3834,
    "Ġadapted": 11041,
    "Ġfiss": 21416,
    "Ġthrone": 12217,
    "wouldn": 23538,
    "Ġpostponed": 20393,
    "Ġspind": 18308,
    "maul": 11895,
    "Ġstrengthen": 20703,
    "Ġscud": 14192,
    "Ġexcurs": 23318,
    "Ġthoroughfare": 16945,
    "Ġsnatch": 14640,
    "landlord": 9842,
    "Ġsenate": 25215,
    "Ġnorthwards": 19549,
    "Ġkeenest": 12165,
    "reas": 989,
    "ourney": 3554,
    "Ġaloud": 6254,
    "Ġarbitrary": 4736,
    "Ġdream": 3539,
    "idel": 5301,
    "biscuit": 17502,
    "Ġcocain": 18595,
    "certain": 3677,
    "Ġflour": 8946,
    "Ġslay": 16309,
    "Ġshot": 4545,
    "compan": 7301,
    "Ġpredomin": 16045,
    "approaching": 15013,
    "Ġprick": 14480,
    "Ġguilt": 6181,
    "Ġxiii": 25592,
    "wal": 10135,
    "dead": 8181,
    "Ġtaurus": 21181,
    "wered": 2689,
    "Ġsake": 4094,
    "inquire": 16933,
    "Ġinfamy": 14503,
    "Ġhire": 21489,
    "Ġslipped": 6493,
    "Ġsociety": 3976,
    "Ġahoy": 12188,
    "akness": 14196,
    "shout": 22452,
    "cob": 10088,
    "tim": 13793,
    "impl": 21711,
    "Ġcur": 1265,
    "Ġwhichever": 14002,
    "Ġlambton": 10659,
    "Ġtrousers": 12418,
    "Ġensue": 18191,
    "Ġleap": 5825,
    "Ġcre": 887,
    "ting": 1330,
    "Ġspurred": 22143,
    "Ġassaults": 15159,
    "Ġ1671": 25008,
    "bus": 5355,
    "Ġdistressing": 12222,
    "Ġrelig": 8553,
    "itten": 3442,
    "Ġpra": 4347,
    "exper": 8881,
    "chase": 11647,
    "Ġ(_": 3737,
    "prise": 7728,
    "Ġcaps": 8417,
    "Ġchamois": 16801,
    "Ġsubsets": 2344,
    "stad": 7599,
    "Ġtreachery": 15104,
    "Ġcassock": 20490,
    "Ġspr": 4025,
    "alizing": 17942,
    "Ġkins": 22199,
    "Ġdrawback": 23993,
    "lighted": 23756,
    "Ġpressing": 9263,
    "Ġdestroying": 14731,
    "Ġblend": 14401,
    "Ġbaggy": 24537,
    "hours": 9126,
    "Ġunwarrantable": 26346,
    "Ć": 199,
    "Ġpremeditated": 22239,
    "eous": 13714,
    "Ġdecayed": 22829,
    "Ġspitzbergen": 15290,
    "Ġcasual": 11410,
    "Ġabsurd": 7202,
    "idious": 11664,
    "bread": 10687,
    "Ġunctuousness": 17236,
    "Ġfrankenstein": 7097,
    "hounds": 20909,
    "Ġsplintered": 11419,
    "riage": 2126,
    "Ġbattering": 13903,
    "Ġclubbed": 26548,
    "Ġdiversity": 25285,
    "Ġblandly": 20326,
    "Ġnineveh": 13391,
    "Ġinstant": 2704,
    "les": 1016,
    "Ġgomorrah": 21619,
    "Ġpolished": 11183,
    "ibule": 13010,
    "Ġprofoundest": 16861,
    "calculation": 25689,
    "Ġlust": 9199,
    "Ġfriendless": 23028,
    "winding": 16721,
    "Ġcashier": 20201,
    "adequate": 15206,
    "uit": 8394,
    "Ġavast": 9922,
    "Ġclerval": 4654,
    "Ġpeople": 2542,
    "Ġlying": 4826,
    "Ġcapric": 14577,
    "inlaid": 21193,
    "Ġswaying": 15048,
    "Ġcuts": 14608,
    "Ġsus": 18276,
    "considerable": 10550,
    "orient": 2882,
    "Ġsurpasses": 25269,
    "sided": 17665,
    "august": 11072,
    "speaks": 19722,
    "oup": 2014,
    "apering": 8042,
    "Ġrefuge": 8540,
    "knot": 13747,
    "Ġaccept": 4411,
    "mble": 1407,
    "Ġeasiest": 23540,
    "Ġmuch": 923,
    "Ġwashington": 17204,
    "Ġdive": 10174,
    "wet": 15455,
    "iver": 2050,
    "Ġparsee": 6414,
    "dra": 3414,
    "amet": 591,
    "Ġrevelry": 15139,
    "Ġdecap": 16024,
    "Ġinj": 4760,
    "frisco": 16788,
    "Ġregulate": 22591,
    "Ġtalked": 4422,
    "Ġinterests": 14570,
    "Ġdescrib": 2718,
    "Ġadmirals": 20388,
    "say": 3982,
    "Ġmahogany": 20581,
    "Ġlist": 2364,
    "ners": 3269,
    "assist": 11770,
    "Ġbites": 23745,
    "frightened": 17197,
    "Ġtri": 4813,
    "Ġanimate": 23425,
    "Ġstole": 7954,
    "Ġculprit": 26173,
    "Ġexplo": 2285,
    "protest": 24812,
    "Ġdispel": 16597,
    "Ġobservation": 6599,
    "stained": 21659,
    "Ġphysiognomically": 25613,
    "Ġdisobedience": 22539,
    "erest": 10698,
    "plac": 15820,
    "nor": 2742,
    "Ġhark": 8430,
    "Ġcarpenters": 16753,
    "Ġdeft": 21841,
    "inously": 21189,
    "Ġkill": 4456,
    "Ġbewildered": 15216,
    "Ġintense": 6159,
    "swim": 16780,
    "pull": 6797,
    "iciously": 17976,
    "Ġslew": 23386,
    "sir": 5001,
    "Ġborrowed": 17231,
    "Ġting": 8400,
    "Ġoutline": 15958,
    "their": 2539,
    "Ġrent": 11641,
    "Ġarri": 2551,
    "Ġpersuasion": 10500,
    "Ġplates": 11007,
    "ster": 1962,
    "heaving": 21210,
    "reported": 24492,
    "Ġthousands": 6750,
    "abode": 21796,
    "Ġcentaurs": 23835,
    "Ġassociate": 13452,
    "Ġj": 533,
    "Ġpulpit": 7470,
    "Ġteeth": 4168,
    "amed": 4451,
    "Ġvolcanoes": 24148,
    "Ġuncle": 3193,
    "quadr": 15767,
    "Ġcoffin": 4431,
    "Ġele": 1965,
    "ince": 4340,
    "ituted": 13875,
    "retreat": 23143,
    "Ġbulge": 23859,
    "vour": 17700,
    "Ġequal": 4137,
    "Ġlurks": 11291,
    "inguish": 9399,
    "¦": 104,
    "Ġbab": 5291,
    "woods": 13421,
    "hair": 9124,
    "Ġpatter": 830,
    "Ġseparating": 16683,
    "compl": 6873,
    "Ġcobbling": 20526,
    "Ġhasten": 10479,
    "Ġpleasant": 4171,
    "Ġhampshire": 15245,
    "Ġshalt": 18231,
    "Ġoptimizers": 18628,
    "verty": 8454,
    "where": 2093,
    "leviathan": 7786,
    "Ġowes": 20088,
    "Ġunfortunate": 5376,
    "Ġimpud": 18447,
    "unning": 4495,
    "Ġfurlongs": 20725,
    "Ġcusack": 26434,
    "catherine": 7129,
    "gabriel": 15363,
    "Ġtechniques": 2871,
    "Ġintric": 9249,
    "Ġpump": 12626,
    "books": 8667,
    "Ġstaggers": 24654,
    "Ġpublic": 4333,
    "Ġdub": 13911,
    "slight": 10728,
    "Ġslept": 8260,
    "tomahawk": 25916,
    "Ġresign": 18565,
    "Ġhundredth": 16521,
    "Ġtremor": 24767,
    "Ġfever": 6560,
    "Ġmuchness": 18709,
    "Ġappetites": 20209,
    "Ġtechn": 9371,
    "concluded": 11243,
    "observing": 25495,
    "insurance": 18889,
    "Ġvillage": 5774,
    "surely": 10571,
    "phur": 16157,
    "iffe": 21907,
    "inconsiderable": 21194,
    "Ġ34": 16678,
    "é": 170,
    "commence": 19995,
    "Ġuncork": 23432,
    "Ġwrest": 11573,
    "Ġcomb": 1052,
    "Ġcircumspection": 25885,
    "Ġped": 7846,
    "destroy": 19513,
    "Ġtemporal": 2613,
    "Ġsomnam": 23009,
    "Ġoverl": 18428,
    "Ġstandards": 19019,
    "elly": 17982,
    "Ġfelony": 18954,
    "Ġey": 8136,
    "Ġsundial": 15085,
    "Ġdeclining": 23967,
    "Ġbenefactor": 14699,
    "rudently": 16712,
    "orrow": 2918,
    "include": 23591,
    "Ġflames": 7941,
    "Ġchanc": 18385,
    "oko": 18442,
    "Ġclim": 8197,
    "Ġfabulous": 25949,
    "Ġstains": 21746,
    "Ġornament": 11723,
    "enit": 17780,
    "Ġfancying": 12116,
    "knight": 20942,
    "card": 11476,
    "magnet": 14972,
    "otic": 15749,
    "Ġplanted": 9776,
    "Ġautumn": 14509,
    "os": 526,
    "Ġdisputing": 25825,
    "Ġsauntering": 18328,
    "Ġpeep": 6870,
    "Ġsteersman": 13045,
    "wards": 1276,
    "kes": 3679,
    "Ġyielded": 14874,
    "ilege": 22261,
    "fol": 4863,
    "Ġrhone": 25231,
    "Ġmien": 17810,
    "Ġnewsp": 9341,
    "Ġstray": 18072,
    "Ġadaptation": 3156,
    "Ġconjoined": 21811,
    "delirium": 14786,
    "batt": 20780,
    "Ġthoroughly": 8349,
    "an": 278,
    "Ġbriefly": 11368,
    "flukes": 25206,
    "repeating": 20132,
    "Ġcomplied": 14736,
    "Ġsodden": 25536,
    "indispensable": 14211,
    "Ġstru": 2173,
    "Ġdubious": 17385,
    "Ġfilters": 3928,
    "Ġcontributed": 16013,
    "Ġhaws": 21956,
    "Ġregretted": 13402,
    "Ġdesert": 6728,
    "pper": 3209,
    "Ġfarm": 7841,
    "Ġtrampling": 25493,
    "È": 137,
    "outs": 7010,
    "Ġsuffocated": 20730,
    "angular": 11726,
    "Ġsul": 7571,
    "Ġsprung": 11248,
    "Ġbapt": 13898,
    "Ġenterprise": 8645,
    "Ġhigher": 1820,
    "Ġvehic": 8935,
    "Ġgrudge": 20696,
    "ram": 13974,
    "Ġincreasingly": 9373,
    "rious": 11692,
    "ellent": 3762,
    "Ġflank": 8230,
    "Ġskirt": 18730,
    "Ġeffected": 14357,
    "whereby": 23420,
    "Ġporpoise": 7108,
    "falling": 24360,
    "Ġsoaked": 15866,
    "Ġaccountability": 10439,
    "Ġamazed": 14891,
    "Ġdetail": 635,
    "Ġcarving": 14445,
    "wing": 2517,
    "Ġaudible": 19883,
    "Ġcarried": 3694,
    "Ġcurbstone": 26047,
    "Ġsupernatural": 9875,
    "Ġleaping": 8342,
    "Ġresuming": 12898,
    "igation": 5920,
    "Ġtook": 1855,
    "aswag": 21550,
    "Ġsenseless": 12082,
    "Ġirrevoc": 15040,
    "Ġpenetration": 19919,
    "non": 9613,
    "Ġforfeit": 21780,
    "Ġlewis": 15729,
    "secured": 16939,
    "Ġcontrolled": 23254,
    "Ġsurmis": 23467,
    "Ġwashing": 9707,
    "Ġicelandic": 25887,
    "Ġdeception": 18142,
    "immense": 18055,
    "Ġchancery": 20718,
    "context": 3405,
    "Ġencode": 4365,
    "Ġfishers": 19357,
    "Ġdepicted": 14286,
    "Ġsuccor": 25663,
    "corrid": 24483,
    "pumps": 21029,
    "Ġlately": 6388,
    "ernation": 8212,
    "Ġted": 13814,
    "should": 3260,
    "Ġesteem": 7532,
    "execution": 20475,
    "eu": 17531,
    "needles": 20317,
    "Ġformed": 3885,
    "infor": 3005,
    "Ġoper": 2123,
    "eight": 9593,
    "Ġconsult": 6059,
    "Ġseap": 15821,
    "fere": 10990,
    "friendly": 13287,
    "paying": 25412,
    "paralleled": 14520,
    "Ġwoodcock": 19165,
    "beginning": 13563,
    "Ġshank": 22004,
    "Ġaggregated": 25679,
    "cause": 7797,
    "curiosity": 8627,
    "itable": 5437,
    "ung": 2746,
    "Ġhunting": 7259,
    "ersampling": 18217,
    "acknowledge": 18472,
    "Ġhospitable": 17060,
    "paws": 21031,
    "Ġfour": 2215,
    "neying": 22468,
    "ele": 9116,
    "Ġringle": 18211,
    "Ġpremium": 23908,
    "season": 14036,
    "ominy": 13980,
    "Ġpromethe": 14470,
    "Ġunobstructed": 18265,
    "Ġfootfalls": 25867,
    "raise": 18014,
    "Ġcontradict": 12388,
    "unguarded": 23671,
    "Ġhandspikes": 12943,
    "Ġdressing": 7092,
    "Ġbewitched": 25976,
    "Ġwhoever": 10974,
    "milk": 20480,
    "langu": 4807,
    "ê": 171,
    "Ġhearing": 4761,
    "Î": 143,
    "ones": 2743,
    "Ġ36": 14769,
    "oub": 1632,
    "Ġflail": 23012,
    "Ã¦mon": 7096,
    "Ġroll": 5381,
    "Ġholds": 7977,
    "Ġspur": 18304,
    "Ġbottle": 7491,
    "tur": 5688,
    "Ġseeing": 2889,
    "Ġsolving": 2481,
    "Ġdescended": 7428,
    "Ġalgorithm": 775,
    "Ġimmortal": 8019,
    "raham": 18016,
    "acles": 8522,
    "ĠĠĠĠĠĠĠĠĠĠĠĠĠĠĠĠĠĠĠĠĠĠĠĠĠĠĠĠĠĠĠĠĠĠĠĠĠĠĠĠ": 4518,
    "beth": 13691,
    "Ġlullaby": 20591,
    "Ġavoided": 13261,
    "Ġprocess": 561,
    "Ġmaled": 21317,
    "Ġirresistible": 13115,
    "Ġlothario": 26186,
    "Ġfries": 21419,
    "disappearing": 23506,
    "Ġspire": 18307,
    "Ġvultures": 25654,
    "Ġnug": 21529,
    "detained": 24381,
    "Ġhall": 4186,
    "Ġprecaution": 11198,
    "isons": 17851,
    "av": 739,
    "Ó": 148,
    "Ġcompat": 2940,
    "hetic": 12207,
    "Ġbuoyed": 20044,
    "Ġhither": 4759,
    "pride": 11211,
    "ouring": 6421,
    "turner": 19544,
    "astern": 8585,
    "Ġslumbering": 25702,
    "emy": 14075,
    "such": 3083,
    "Ġharry": 24571,
    "Ġbucket": 8791,
    "Ġwhisky": 23937,
    "Ġdisco": 3429,
    "Ġrowing": 10302,
    "Ġmasterless": 23998,
    "Ġkrusenstern": 20716,
    "increasing": 20272,
    "read": 3273,
    "sar": 12508,
    "avers": 17482,
    "Ġbermud": 26440,
    "ply": 6367,
    "Ġshows": 8485,
    "Ġutil": 4673,
    "stocks": 23823,
    "Ġrepresentations": 1874,
    "Ġstr": 754,
    "Ġblu": 2685,
    "headed": 4319,
    "Ġincomp": 12902,
    "roded": 17958,
    "Ġhereabouts": 12981,
    "Ġbun": 6009,
    "Ġcoopers": 20525,
    "Ġmult": 1022,
    "ids": 21768,
    "Ġsenior": 17173,
    "Ġfootpaths": 26319,
    "suit": 18633,
    "Ġvessels": 6757,
    "Ġgetting": 4066,
    "carte": 25401,
    "Ġtravelled": 7773,
    "Ġul": 6828,
    "Ġcargo": 16293,
    "ench": 21282,
    "Ġpreservation": 24632,
    "Ġgleaming": 24998,
    "https": 11687,
    "Ġadvance": 5484,
    "]]": 5205,
    "Ġforget": 2634,
    "æ": 167,
    "Ġtun": 6001,
    "Ġwanderings": 20146,
    "Ġassoc": 6403,
    "Ġtangled": 13829,
    "Ġboasting": 19939,
    "Ġconfines": 23309,
    "respond": 12548,
    "whisper": 17083,
    "solved": 7687,
    "Ġelevates": 24499,
    "Ġmary": 3846,
    "Ġvariants": 1791,
    "Ġsinusoid": 4781,
    "Ġoccurrences": 11051,
    "Ġvoyages": 6908,
    "Ġchamp": 18382,
    "remed": 18955,
    "Ġsmitten": 12904,
    "Ġcomplicated": 14737,
    "aet": 15310,
    "Ġinnermost": 12164,
    "Ġmending": 17806,
    "Ġesteemed": 10590,
    "com": 988,
    "pockets": 16215,
    "holes": 12057,
    "imble": 10859,
    "Ġwretchedly": 19509,
    "Ġbubbling": 17328,
    "Ġphrensy": 25127,
    "Ġmonstr": 7669,
    "ivility": 12792,
    "Ġqualities": 7534,
    "Ġspare": 5102,
    "Ġpracticable": 19056,
    "iation": 7343,
    "z": 94,
    "presumption": 20445,
    "Ġrattling": 11396,
    "seventy": 10877,
    "Ġadvised": 16211,
    "Ġtremulous": 14988,
    "eler": 1570,
    "Ġgreater": 3040,
    "Ġbagging": 24538,
    "Ġfinny": 23132,
    "Ġunlocking": 20708,
    "Ġfif": 4219,
    "minded": 9039,
    "Ġtempted": 9058,
    "brance": 7284,
    "Ġoperate": 19117,
    "itary": 4751,
    "alt": 12643,
    "Ġscents": 22287,
    "gaze": 17558,
    "Ġjoining": 13166,
    "Ġintensified": 17019,
    "Ġindestructible": 26573,
    "Ġbitter": 4175,
    "eli": 3875,
    "Ġmingling": 20200,
    "Ġqueen": 3214,
    "Ġwalker": 23314,
    "repeated": 12342,
    "Ġduties": 6611,
    "enses": 10995,
    "Ġoh": 2178,
    "Ġell": 17716,
    "g": 75,
    "Ġshadowed": 24050,
    "Ġze": 8548,
    "Ġpieces": 7369,
    "Ġtranslations": 12055,
    "Ġgradual": 20604,
    "Ġaware": 5756,
    "iamond": 14591,
    "Ġnavigators": 19766,
    "aper": 4999,
    "Ġeffusion": 22542,
    "Ġdiscipline": 26562,
    "Ġprecipice": 19944,
    "Ġpuzzling": 14898,
    "Ġcad": 12572,
    "Ġstrides": 22620,
    "ned": 3494,
    "perv": 1542,
    "======": 9835,
    "Ġepis": 19985,
    "acency": 12913,
    "Ġsuperficial": 23457,
    "Ġdriving": 3618,
    "remember": 7262,
    "Ġverbal": 19382,
    "slowly": 9091,
    "knife": 6942,
    "Ġindefinitely": 25222,
    "itime": 15552,
    "Ġhimmalehs": 26231,
    "Ġstroll": 13355,
    "Ġsorrowful": 10538,
    "render": 10292,
    "seem": 10229,
    "Ġcontains": 2795,
    "sink": 11523,
    "tattoo": 21090,
    "Ġwoof": 14723,
    "special": 14707,
    "k": 79,
    "kick": 20938,
    "Ġtwins": 16124,
    "Ġengine": 1919,
    "Ġellenborough": 26155,
    "hest": 3369,
    "Ġencounter": 6630,
    "kempt": 20943,
    "pray": 5429,
    "Ġdropout": 1558,
    "itaries": 21339,
    "Ġguardianship": 17422,
    "Ġimmaculate": 19489,
    "Ġbind": 12587,
    "Ġpercept": 14225,
    "cannon": 22968,
    "Ġimpertinent": 9079,
    "bular": 15316,
    "Ġyellow": 5302,
    "Ġdrawled": 23992,
    "Ġexhaled": 19685,
    "mark": 5282,
    "public": 17647,
    "Ġpropont": 16353,
    "Ġannals": 17900,
    "Ġstarbuck": 2196,
    "contrasted": 17308,
    "Ġberth": 8683,
    "Ġceaseless": 13490,
    "leful": 17844,
    "pig": 8756,
    "Ġrubbed": 12959,
    "Ġnatures": 16507,
    "Ġports": 10819,
    "esu": 17903,
    "Ġtill": 1824,
    "Ġconstruction": 9387,
    "Ġviii": 16417,
    "Ġalter": 6544,
    "Ġenderby": 13653,
    "Ġmischief": 8544,
    "kshire": 13748,
    "Ġskylarking": 19490,
    "Ġintensely": 17018,
    "Ġhailed": 6408,
    "Ġeff": 694,
    "dict": 15340,
    "matic": 4619,
    "Ġshovel": 23495,
    "Ġjeopardized": 20233,
    "Ġdoth": 13910,
    "gird": 20881,
    "rad": 2154,
    "peaceful": 20450,
    "sive": 4145,
    "Ġbat": 10796,
    "Ġdreamy": 14705,
    "ched": 1547,
    "Ġinformation": 1046,
    "abling": 1078,
    "Ġburnwell": 13271,
    "Ġbristling": 20530,
    "disagreeable": 11164,
    "fur": 6357,
    "attachment": 13055,
    "Ġing": 5284,
    "Ġfrequently": 4680,
    "month": 6464,
    "Ġsomehow": 4842,
    "Ġunfathomably": 25874,
    "Ġthumb": 6982,
    "ox": 9135,
    "concealed": 25118,
    "Ġgoverness": 8605,
    "Ġefficiently": 4005,
    "Ġhes": 6252,
    "fra": 8376,
    "Ġpurporting": 19185,
    "mother": 5480,
    "Ġ20": 8617,
    "musket": 25342,
    "Ġink": 8806,
    "Ġcarriages": 11099,
    "mes": 1199,
    "Ġverify": 12091,
    "happ": 3105,
    "Ġapartments": 19617,
    "Ġarms": 3965,
    "Ġbandages": 24426,
    "fluttering": 23976,
    "commendation": 26351,
    "Ġadver": 5641,
    "Ġglaring": 11911,
    "Ġshown": 5159,
    "Ġflea": 23775,
    "Ġcapting": 23024,
    "enterprise": 24997,
    "ique": 8746,
    "faced": 8081,
    "stamp": 21658,
    "Ġoverfitting": 1543,
    "Ġtick": 8110,
    "Ġsymphony": 26533,
    "Ġassiduous": 26294,
    "Ġjac": 1897,
    "Ġworld": 1594,
    "Ġmagnanim": 14474,
    "light": 3017,
    "zas": 17713,
    "iled": 1766,
    "Ġlistened": 4471,
    "horse": 8609,
    "ellig": 522,
    "Ġallurements": 22014,
    "asy": 5296,
    "isms": 12585,
    "Ġbuildings": 24719,
    "heim": 17747,
    "icting": 12860,
    "inal": 15483,
    "Ġpipe": 4322,
    "Ġholland": 10367,
    "Ġteacup": 16217,
    "Ġushered": 18363,
    "ureau": 10228,
    "Ġfritters": 23260,
    "Ġissuing": 16949,
    "Ġregular": 950,
    "Ġupon": 718,
    "Ġunlikely": 10909,
    "iogn": 20923,
    "lott": 6653,
    "comfortable": 7320,
    "Ġfashion": 4299,
    "Ġtiger": 11556,
    "Ġauger": 21206,
    "grim": 19108,
    "Ġbump": 9661,
    "Ġrefinement": 18689,
    "Ġmoses": 21318,
    "Ġinfallibly": 10043,
    "slack": 16895,
    "Ġtransportation": 13644,
    "ertain": 1208,
    "Ġcreep": 22724,
    "teness": 23208,
    "develop": 13519,
    "Ġrevolved": 9986,
    "Ġinsensibly": 20079,
    "eting": 7170,
    "mons": 17601,
    "adequ": 11021,
    "roylott": 20030,
    "Ġlabour": 7274,
    "seen": 2884,
    "aspect": 10195,
    "Ġwhel": 15870,
    "seriously": 18905,
    "Ġalfred": 21791,
    "Ġbeauties": 10446,
    "Ġillustrations": 17108,
    "there": 1424,
    "Ġfoolscap": 24160,
    "boy": 4738,
    "Ġdepressions": 25799,
    "Ġwrite": 3824,
    "define": 1526,
    "Ġ83": 24458,
    "Ġwow": 15532,
    "Ġreferred": 8918,
    "ifferent": 4264,
    "Ġauthoritative": 19564,
    "Ġsingular": 4425,
    "Ġazure": 12377,
    "Ġnod": 1889,
    "Ġeighty": 19479,
    "Ġwavering": 23284,
    "Ġdew": 14045,
    "Ġmon": 1250,
    "Ġclass": 781,
    "Ġinfluences": 14867,
    "chancing": 22909,
    "Ġaversion": 18868,
    "Ġhydraulic": 10066,
    "Ġcontro": 1690,
    "Ġexultation": 15174,
    "Ġ76": 24264,
    "Ġwore": 6378,
    "Ġmassacre": 20550,
    "Ġbricks": 13564,
    "Ġsurrounding": 12166,
    "Ġcoquet": 22586,
    "hurt": 19880,
    "Ġbuck": 7158,
    "Ġtyphoons": 20237,
    "Ġsilk": 11966,
    "Ġovers": 14207,
    "might": 4080,
    "Ġtelegram": 15226,
    "rers": 14720,
    "Ġexamination": 8006,
    "Ġepicurean": 20558,
    "Ġpersonages": 23543,
    "Ġdown": 831,
    "Ġpractical": 3164,
    "dig": 4930,
    "Ġscores": 2714,
    "Ġinsulted": 14994,
    "far": 5787,
    "Ġgo": 613,
    "Ġpreferred": 14968,
    "Ġecc": 11630,
    "Ġparties": 7040,
    "Ġhoary": 23358,
    "joined": 13278,
    "Ġunexplored": 26519,
    "Ġsabbee": 17257,
    "Ġperils": 6275,
    "Ġcorrection": 5062,
    "Ġbet": 1137,
    "Ġencourag": 1391,
    "rendered": 22343,
    "Ġexpands": 25238,
    "Ġproprietors": 20189,
    "Ġcheerfulness": 10518,
    "ashes": 6018,
    "Ġspleen": 26422,
    "breathing": 25336,
    "Ġquitting": 7647,
    "Ġgust": 21601,
    "Ġslily": 23168,
    "erve": 12553,
    "Ġacknowledged": 7535,
    "articulate": 17397,
    "Ġrecollections": 10514,
    "Ġoft": 9196,
    "jerked": 25619,
    "Ġweighty": 16036,
    "Ġyours": 4126,
    "ricane": 16282,
    "Ġinglorious": 24423,
    "Ġbarricade": 14661,
    "Ġbrute": 8929,
    "Ġlabel": 14515,
    "Ġsandwich": 19831,
    "Ġtradesman": 20076,
    "Ġequally": 5258,
    "despicable": 24639,
    "Ġlocker": 16912,
    "sway": 15427,
    "Ġunion": 6839,
    "Ġdeficiencies": 26571,
    "Ġthree": 1372,
    "Ġcumul": 4181,
    "cils": 20816,
    "Ġindependent": 9018,
    "Ġide": 2125,
    "Ġtattooing": 15029,
    "prisoner": 20546,
    "Ġhey": 11643,
    "sw": 4741,
    "also": 7852,
    "tribute": 21091,
    "Ġdisembow": 22541,
    "Ġdissimilar": 22535,
    "Ġblock": 2575,
    "Ġvigorous": 10568,
    "Ġunlim": 18254,
    "Ġmurmured": 7481,
    "Ġminiatures": 20324,
    "Ġsqueaking": 26276,
    "gust": 6362,
    "breat": 10080,
    "Ġassuredly": 14824,
    "Ġalphabetical": 17203,
    "rawling": 21640,
    "Ġgallant": 8658,
    "countless": 24152,
    "iquet": 17576,
    "Ġfacing": 10173,
    "drown": 13707,
    "Ġlament": 7858,
    "Ġretrie": 10384,
    "beries": 22747,
    "Ġswitzerland": 10381,
    "Ġbodies": 8033,
    "Ġvideo": 25366,
    "llable": 6879,
    "Ġsolitudes": 22890,
    "```": 25894,
    "Ġlatest": 16823,
    "programming": 10065,
    "Ġhabitual": 24789,
    "Ġthreatening": 16829,
    "Ġsche": 1707,
    "Ġintrusion": 12770,
    "Ġstaving": 21742,
    "Ġgnarled": 25169,
    "Ġsurface": 5119,
    "ament": 2437,
    "big": 13688,
    "enhall": 13852,
    "ii": 4014,
    "about": 3587,
    "Ġproble": 1109,
    "Ġac": 845,
    "Ġthick": 3783,
    "Ġwolves": 25935,
    "ink": 756,
    "Ġtrains": 10948,
    "Ġanimated": 7703,
    "Ġhedgehog": 10646,
    "Ġpeev": 22697,
    "Ġsplendid": 17215,
    ":âĢĶ": 4434,
    "Ġoptim": 783,
    "motion": 17607,
    "Ġacquired": 13047,
    "Ġexult": 10232,
    "Ġnailed": 10191,
    "mbl": 5948,
    "Ġcuba": 25098,
    "eyes": 5684,
    "Ġcorn": 9352,
    "Ġinexorable": 12259,
    "Ġ42": 16679,
    "Ġpasture": 14543,
    "local": 22514,
    "Ġmod": 496,
    "discovery": 12019,
    "Ġbarrels": 9438,
    "Ġbear": 3659,
    "Ġstile": 21737,
    "Ġtotally": 9473,
    "shirt": 22458,
    "Ġobsolete": 26559,
    "Ġcompunction": 18586,
    "frock": 20124,
    "Ġfull": 2180,
    "hedge": 22504,
    "hopeless": 16918,
    "Ġdrunkard": 20180,
    "û": 188,
    "Ġcongratulatory": 19770,
    "Ġportable": 19373,
    "Ġmiscellaneous": 17464,
    "Ġeven": 1026,
    "Ġpudding": 17918,
    "prophet": 16186,
    "ĠĠĠĠĠĠĠĠĠĠĠĠĠĠĠĠĠĠĠĠĠĠĠĠĠĠĠĠĠĠĠĠĠĠĠĠĠĠĠĠĠĠĠĠĠĠĠĠĠĠĠ": 20042,
    "Ġsepul": 14092,
    "owing": 7603,
    "Ġsilken": 16385,
    "cream": 15333,
    "Ġengland": 3859,
    "Ġresearches": 13130,
    "Ġinvariably": 8065,
    "Ġinitialization": 1251,
    "Ġlightning": 5750,
    "aset": 10833,
    "pits": 15415,
    "commanders": 16990,
    "marest": 20982,
    "Ġbes": 2659,
    "ime": 626,
    "gown": 9598,
    "Ġinwards": 15625,
    "netherfield": 9815,
    "concerted": 16673,
    "Ġpalmy": 19502,
    "Ġwan": 15531,
    "danced": 20830,
    "useless": 14595,
    "Ġrule": 1535,
    "Ġunlab": 3789,
    "proud": 9906,
    "Ġrestrained": 16379,
    "Ġcroquet": 9964,
    "Ġdesperate": 7778,
    "Ġtrading": 23083,
    "Ġfamous": 5256,
    "Ġstores": 18071,
    "Ġcrammed": 16473,
    "Ġunequal": 14844,
    "Ġdissol": 18549,
    "second": 6545,
    "Ġcreates": 2009,
    "Ġblinding": 14730,
    "ured": 1655,
    "inions": 8404,
    "Ġstirs": 14919,
    "inople": 13831,
    "Ġmeasurement": 19426,
    "declared": 15121,
    "Ġslaughtered": 26585,
    "arrant": 10475,
    "Ġcontrary": 5261,
    "Ġolder": 9329,
    "Ġwaned": 17793,
    "Ġpills": 21470,
    "Ġidly": 16406,
    "Ġtinge": 25090,
    "bacc": 7796,
    "ieves": 4003,
    "obst": 11935,
    "Ġmeadow": 17153,
    "log": 18535,
    "oder": 2458,
    "Ġbiggest": 24566,
    "Ġconcerns": 12034,
    "arpening": 21447,
    "hereditary": 26420,
    "landsmen": 25062,
    "Ġgenerous": 6273,
    "quit": 15765,
    "natural": 2171,
    "carriage": 9948,
    "errand": 22914,
    "gangway": 20670,
    "Ġbushy": 16404,
    "Ġstirred": 12221,
    "Ġways": 5396,
    "Ġsharply": 9405,
    "Ġtub": 7147,
    "pun": 9619,
    "stool": 23822,
    "Ġsquaring": 22844,
    "Ġfireplace": 13147,
    "rushed": 10586,
    "Ġsociable": 19407,
    "account": 5330,
    "osop": 4405,
    "Ġunimportant": 22035,
    "Ġprobabilities": 4966,
    "Ġimprisonment": 22395,
    "Ġlest": 6396,
    "child": 5537,
    "tables": 19760,
    "narrowly": 20350,
    "Ġpleasurable": 23344,
    "Ġtrials": 16790,
    "Ġprevious": 2090,
    "Ę": 217,
    "Ġjingling": 26018,
    "mer": 2838,
    "Ġproximity": 3220,
    "tubes": 25212,
    "period": 15899,
    "hearth": 15502,
    "cruising": 12283,
    "Ġxlvi": 25591,
    "Ġuninjured": 22061,
    "Ġcrawling": 17045,
    "lane": 10707,
    "Ġshipmate": 8931,
    "Ġmanx": 7907,
    "Ġcalling": 5662,
    "Ġkindled": 19030,
    "pens": 17633,
    "Ġstagger": 10593,
    "boat": 3361,
    "Ġmansfield": 25939,
    "Ġseldom": 4630,
    "comes": 5394,
    "Ġdistributes": 4198,
    "Ġcallest": 17834,
    "sery": 17662,
    "Ġdesired": 4665,
    "Ġunparalleled": 15857,
    "Ġwars": 17787,
    "Ġpaddling": 25286,
    "Ġpattering": 18652,
    "gale": 13726,
    "pleasanter": 24052,
    "Ġfathers": 16299,
    "Ġcarbuncle": 14447,
    "person": 7747,
    "unwittingly": 25802,
    "Ġfurther": 1056,
    "extreme": 11030,
    "oa": 9614,
    "?_": 8071,
    "Ġpurposes": 11169,
    "Ġlurked": 11292,
    "Ġinclement": 22558,
    "Ġbelted": 22952,
    "Ġremorselessly": 16968,
    "Ġsaloon": 24067,
    "Ġstraight": 3703,
    "Ġestab": 6317,
    "itect": 975,
    "bottom": 11427,
    "Ġpeeling": 22696,
    "Ġsepulch": 15287,
    "wit": 7818,
    "Ġspot": 4156,
    "Ġextrem": 2474,
    "isition": 11588,
    "accordingly": 19215,
    "Ġtenderest": 23552,
    "Ġfavoring": 2343,
    "Ġjavel": 17084,
    "hauteur": 26392,
    "orough": 5700,
    "tail": 8765,
    "Ġseriously": 7063,
    "ientiously": 21946,
    "icha": 11741,
    "rop": 540,
    "Ġdiscriminator": 3392,
    "Ġwines": 21290,
    "Ġglances": 10374,
    "**:": 4737,
    "Ġlory": 12657,
    "indust": 18436,
    "sounding": 24795,
    "Ġexpecting": 10437,
    "pleas": 3854,
    "Ġtorpor": 25034,
    "required": 17030,
    "glance": 16588,
    "connections": 14430,
    "symp": 14613,
    "Ġdrily": 23542,
    "Ġdesisted": 22979,
    "Ġbold": 5293,
    "Ġspoilt": 24804,
    "Ġrad": 4962,
    "Ġcaterpillar": 5866,
    "superstitiousness": 25509,
    "corrob": 24484,
    "nlp": 8754,
    "Ġremained": 3141,
    "Ġrumpled": 24602,
    "Ġmanoir": 22336,
    "Ġpallidness": 25605,
    "icide": 11620,
    "Ġexe": 3992,
    "Ġtax": 13818,
    "pool": 16213,
    "Ġquietude": 19363,
    "shine": 9290,
    "Ġnecessitates": 23933,
    "oug": 431,
    "attention": 2111,
    "assembled": 21549,
    "Ġschool": 5512,
    "Ġinclosed": 19541,
    "Ġmiddle": 4140,
    "Ġproposal": 10021,
    "Ġneighbouring": 12122,
    "Ġbrains": 2630,
    "hood": 2658,
    "Ġcomely": 21848,
    "seventh": 12719,
    "Ġcharm": 4549,
    "stern": 7863,
    "Ġstiffness": 24828,
    "Ġimprove": 1883,
    "Ġciv": 3307,
    "ck": 436,
    "Ġbleak": 10560,
    "Ġsparsity": 4210,
    "Ġdistricts": 20266,
    "thou": 4709,
    "Ġwhole": 1665,
    "halloa": 17090,
    "Ġsailor": 3537,
    "prodigious": 17468,
    "Ġbreathe": 9014,
    "iah": 14418,
    "Ġintent": 6410,
    "Ġlimbs": 5968,
    "among": 6258,
    "ivities": 22085,
    "Ġwintry": 17436,
    "Ġgun": 4702,
    "Ġplaced": 3445,
    "prolong": 23398,
    "mur": 5428,
    "Ġclustered": 25234,
    "Ġtempor": 2366,
    "Ġmister": 22759,
    "Ġbachelors": 24861,
    "Ġgateway": 24799,
    "Ġjove": 9270,
    "Ġvictoria": 14875,
    "Ġcomply": 8893,
    "mature": 20969,
    "Ġgradient": 449,
    "Ġdevelopments": 23246,
    "Č": 205,
    "ulity": 10887,
    "lutions": 20952,
    "Ġfarthest": 23122,
    "sleeping": 13456,
    "Ġconsequently": 8061,
    "robust": 19730,
    "Ġende": 21937,
    "Ġissued": 10601,
    "Ġboarders": 16601,
    "Ġprices": 15616,
    "severe": 21823,
    "Ġfoundation": 4233,
    "Ġchimer": 24604,
    "Ġimp": 585,
    "Ġfable": 15581,
    "Ġcoasts": 12167,
    "sharp": 10308,
    "Ġshaking": 6553,
    "dman": 10090,
    "Ġthickness": 13280,
    "semble": 1525,
    "preser": 9762,
    "fro": 8736,
    "Ġappeared": 2778,
    "Ġseals": 11700,
    "med": 1911,
    "Ġidiot": 11974,
    "Ġdisgust": 6707,
    "conjecturing": 20137,
    "Ġunexpl": 22044,
    "Ġdeaden": 23464,
    "Ġpipes": 9853,
    "crimin": 17510,
    "etting": 21584,
    "Ġrespond": 11177,
    "Ġleaders": 16629,
    "Ġwarbling": 26169,
    "irst": 878,
    "Ġimpossibility": 20649,
    "perform": 15898,
    "Ġupper": 5090,
    "undoubtedly": 13313,
    "threaten": 25462,
    "Ġapproving": 18508,
    "Ġhammer": 6096,
    "Ġscarlet": 13226,
    "tack": 12516,
    "Ġseas": 3078,
    "Ġcoal": 18592,
    "Ġmining": 22834,
    "fishery": 10034,
    "Ġprofession": 6209,
    "Ġcouple": 5423,
    "uries": 6149,
    "century": 20050,
    "Ġkeepers": 23541,
    "Ġnursed": 16886,
    "careful": 14868,
    "due": 22410,
    "Ġmeekly": 26491,
    "tired": 21075,
    "Ġsubs": 2132,
    "housekeeper": 24102,
    "onness": 21257,
    "Ġturkey": 19222,
    "build": 12191,
    "glad": 9010,
    "Ġencounters": 19583,
    "igms": 3048,
    "oning": 7573,
    "Ġcart": 11585,
    "Ġmonsters": 11075,
    "Ġordered": 5833,
    "stem": 563,
    "Ġadversity": 24304,
    "Ġanalog": 12617,
    "Ġmoney": 3418,
    "Ġfoolish": 5982,
    "squeezing": 25914,
    "Ġarmed": 9262,
    "Ġslippery": 12170,
    "Ġtheore": 1830,
    "icilian": 20694,
    "Ġappals": 22222,
    "dirty": 20836,
    "Ġmug": 21315,
    "Ġanoint": 25538,
    "conscientious": 19629,
    "Ġwid": 4633,
    "Ġforefinger": 16443,
    "Ġroast": 18461,
    "Ġpap": 8801,
    "Ġclams": 19992,
    "Ġsympt": 7014,
    "Ġmagg": 18907,
    "cc": 471,
    "heading": 5487,
    "Ġscatter": 18398,
    "remarks": 23193,
    "ibbald": 18844,
    "Ġshakespeare": 20310,
    "Ġadventurous": 16734,
    "Ġgag": 21597,
    "Ġawakened": 10454,
    "gunw": 17222,
    "Ġforster": 5230,
    "Ġexponentiating": 3447,
    "Ġtangle": 25761,
    "Ġreco": 9793,
    "Ġenticing": 22744,
    "cu": 10085,
    "Ġsteak": 9831,
    "Ġextraction": 11252,
    "_,âĢĻ": 12436,
    "parad": 16399,
    "ą": 198,
    "Ġbreadth": 10565,
    "Ġgrammars": 11403,
    "spears": 23945,
    "Ġdejection": 15199,
    "Ġimmediately": 3365,
    "Ġdiabol": 11454,
    "Ġcomparable": 24280,
    "solely": 19819,
    "spirits": 8056,
    "Ġcrumbs": 19124,
    "Ġbounded": 16628,
    "Ġrudeness": 17126,
    "Ġliable": 14230,
    "hawk": 7123,
    "Ġdissip": 10993,
    "exhibited": 18478,
    "Ġgratitude": 5598,
    "iality": 8847,
    "ree": 873,
    "Ġmill": 6669,
    "Ġpage": 6979,
    "irous": 8842,
    "recked": 17763,
    "Ġlamented": 24996,
    "Ġclearing": 8241,
    "Ġtowering": 16740,
    "Ġshadows": 8014,
    "Ġquakers": 22421,
    "coffin": 10664,
    "assistant": 25568,
    "kye": 20940,
    "Ġexile": 12722,
    "Ġrelieve": 8225,
    "Ġfrenzy": 13624,
    "hel": 4814,
    "limp": 20954,
    "properly": 24919,
    "Ġbeaches": 18087,
    "transformer": 25018,
    "Ġwelfare": 12563,
    "Ġcreditor": 24291,
    "balance": 12009,
    "reception": 15517,
    "Ġdifficult": 3572,
    "Ġnay": 5711,
    "Ġwreath": 25937,
    "?âĢĶ": 3468,
    "Ġextracting": 11116,
    "Ġedward": 19153,
    "«": 109,
    "Ġdaft": 19666,
    "boone": 23257,
    "Ġwoman": 2385,
    "others": 7672,
    "Ġwane": 21291,
    "Ġtons": 11551,
    "engthen": 14459,
    "Ġearn": 3548,
    "forks": 26388,
    "bred": 11470,
    "Ġjollies": 20373,
    "Ġoce": 3032,
    "Ġpropensity": 18997,
    "Ġdella": 21443,
    "Ġsoundings": 13135,
    "lanter": 15390,
    "Ġadmitted": 8988,
    "abst": 21793,
    "Ġreasonably": 11092,
    "Ġthyself": 6604,
    "Ġru": 948,
    "Ġwarring": 16866,
    "Ġunlo": 22017,
    "ran": 11517,
    "disappo": 8986,
    "'re": 12431,
    "Ġincess": 8433,
    "Ġeffects": 7236,
    "own": 746,
    "Ġtongue": 6349,
    "Ġtruce": 24117,
    "ims": 7177,
    "Ġentropy": 2033,
    "Ġpestilent": 25778,
    "Ġfilthy": 13251,
    "i": 77,
    "Ġfollows": 7675,
    "Ġwhosoever": 21723,
    "Ġchatbots": 11350,
    "Ġtown": 2454,
    "Ġsoutherly": 23339,
    "doubt": 6783,
    "marvell": 24174,
    "Ġalleged": 17292,
    "!âĢĻâĢĿ": 16593,
    "Ġthoughtlessness": 16197,
    "Ġscreening": 25301,
    "Ġendowed": 18925,
    "heat": 15500,
    "avish": 22598,
    "Ġolfactories": 26172,
    "Ġnightmare": 18921,
    "freely": 16855,
    "evenings": 19466,
    "Ġdromedary": 17441,
    "================================": 5671,
    "Ġsteepest": 3090,
    "repaid": 24490,
    "Ġdevoutly": 25834,
    "Ġbit": 2966,
    "Ġproceeding": 9908,
    "irably": 13298,
    "Ġbigness": 19763,
    "library": 13002,
    "Ġcomprehens": 8321,
    "Ġreligions": 20111,
    "Ġcanvas": 7785,
    "mies": 20970,
    "Ġrejoicing": 13423,
    "Ġpoisoned": 24887,
    "Ġhere": 1087,
    "sufficiently": 14983,
    "bushes": 24446,
    "Ġrays": 10332,
    "Ġmarshalled": 25316,
    "Ġrobe": 18462,
    "Ġth": 299,
    "Ġkeeled": 18811,
    "miraculous": 26397,
    "5": 25,
    "Ġcoverage": 4289,
    "orney": 17875,
    "Ġsympathy": 6348,
    "likely": 9025,
    "achusetts": 20712,
    "Ġhuge": 4700,
    "bull": 13693,
    "conjectures": 25181,
    "Ġtendinous": 16932,
    "Ġdisrespect": 18551,
    "changing": 10855,
    "come": 2376,
    "Ġdeact": 18138,
    "thur": 7188,
    "Ġknowing": 4459,
    "Ġnewfound": 22936,
    "Ġlively": 5449,
    "peace": 13052,
    "phren": 22783,
    "Ġconvent": 11670,
    "screw": 9348,
    "Ġassembly": 10644,
    "Ġfowler": 16938,
    "Ġcold": 3034,
    "Ġupbraid": 18318,
    ").": 1271,
    "Ġcasualties": 25513,
    "Ġseclusion": 18209,
    "Ġopium": 8996,
    "attempts": 17192,
    "Ġclaps": 22353,
    "Ġenvelopes": 24506,
    "onsensical": 18577,
    "Ġcomputers": 2644,
    "Ġse": 402,
    "Ġtouches": 20573,
    "Ġdivin": 13276,
    "Ġphara": 23203,
    "Ġregarded": 5762,
    "pread": 7418,
    "Ġhoisted": 5962,
    "rigging": 20009,
    "Ġmatrices": 4969,
    "Ġpregn": 22237,
    "Ġbarbed": 14837,
    "mend": 20968,
    "Ġpencils": 23199,
    "Ġclin": 14203,
    "Ġaffectionate": 5584,
    "humored": 19456,
    "fanc": 20866,
    "acled": 16085,
    "Ġtattered": 21174,
    "Ġgodlike": 23361,
    "Ġnurse": 9519,
    "Ġaudience": 24768,
    "Ġnarwhales": 24903,
    "Ġstrasburgh": 18616,
    "fallen": 19662,
    "Ġpurch": 6601,
    "continual": 20646,
    "else": 6535,
    "arking": 16129,
    "Ġathe": 17742,
    "Ġcoron": 4466,
    "Ġshore": 4835,
    "alse": 4187,
    "Ġincurable": 22557,
    "walton": 20252,
    "Ġfled": 6673,
    "Ġjesty": 18406,
    "Ġunrecord": 16622,
    "Ġfasten": 11133,
    "Ġdoor": 1741,
    "covering": 15336,
    "Ġasse": 8161,
    "warrior": 24797,
    "Ġanchor": 7368,
    "Ġsatisf": 2810,
    "berries": 22749,
    "tarpaul": 21100,
    "Ġobedient": 20108,
    "Ġhandsomest": 20337,
    "strained": 21662,
    "icken": 6713,
    "Ġtaken": 2526,
    "bee": 16041,
    "Ġperch": 10300,
    "Ġ&": 6514,
    "Ġcrucial": 9894,
    "inisc": 15491,
    "arious": 10318,
    "Ġevap": 19626,
    "pped": 1998,
    "Ġparallelization": 3431,
    "Ġlived": 3988,
    "Ġepisode": 26349,
    "Ġreven": 18031,
    "Ġscrib": 22288,
    "Ġlichen": 20095,
    "Ġpursuing": 9440,
    "Ġdamp": 8265,
    "jee": 17580,
    "Ġpruning": 18972,
    "somerset": 26324,
    "Ġholes": 16411,
    "Ġhaste": 9005,
    "Ġcred": 8784,
    "Ġwrench": 12561,
    "reporting": 24493,
    "Ġcondemn": 13446,
    "ock": 15405,
    "ences": 1263,
    "romised": 14114,
    "Ġbounty": 26438,
    "Ġimpart": 11783,
    "Ġaffrighted": 13574,
    "abounding": 25980,
    "sides": 12511,
    "probable": 17022,
    "oper": 7347,
    "Ġhandled": 12942,
    "Ġhearers": 15707,
    "Ġdis": 693,
    "Ġgene": 15676,
    "Ġtracing": 18890,
    "Ġecon": 9679,
    "Ġincreas": 1696,
    "Ġjup": 15956,
    "tinted": 17684,
    "unteered": 26496,
    "akes": 2219,
    "ainty": 21792,
    "overcoat": 19053,
    "Ġow": 8410,
    "moid": 2449,
    "ractions": 11635,
    "Ġlouis": 8358,
    "Ġcriminal": 7538,
    "thes": 7391,
    "Ġbald": 16209,
    "Ġsurpass": 13585,
    "Ġtoilings": 24741,
    "Ġtant": 12529,
    "hoist": 23715,
    "Ġoverpower": 12847,
    "Ġsurmount": 20004,
    "Ġfreshet": 25704,
    "Ġwithheld": 18117,
    "Ġjoking": 12842,
    "species": 13259,
    "Ġtranspired": 16785,
    "Ġwit": 3844,
    "invol": 12534,
    "Ġproud": 5654,
    "divided": 25021,
    "Ġinforming": 18744,
    "Ġmuffled": 10642,
    "inferiors": 25347,
    "Ġimmensities": 25331,
    "Ġdeserved": 7738,
    "Ġtrifling": 10604,
    "furthermore": 20007,
    "Ġbottom": 3675,
    "Ġventil": 8020,
    "bots": 10084,
    "cask": 12450,
    "chers": 11318,
    "Ġrecollecting": 17113,
    "entreaties": 26187,
    "sex": 12718,
    "Ġreck": 6539,
    "rees": 5436,
    "Ġdiminished": 16667,
    "nels": 12499,
    "Ġincidents": 9301,
    "Ġsurviv": 13437,
    "Ġrelev": 1716,
    "izings": 14053,
    "Ġsperm": 1842,
    "Ġmethinks": 10390,
    "Ġlimited": 23547,
    "Ġm": 274,
    "Ġstudy": 1744,
    "Ġcountless": 16386,
    "deduction": 23673,
    "¢": 100,
    "Ġcheating": 16373,
    "infliction": 25925,
    "Ġthickly": 12119,
    "Ġnat": 12650,
    "Ġbee": 21754,
    "ivided": 22086,
    "recklessly": 25270,
    "dropout": 3197,
    "Ġenhance": 3366,
    "Ġ1000": 3118,
    "Ġvariations": 22670,
    "barrow": 15323,
    "Ġinsignificance": 20460,
    "Ľ": 254,
    "inclined": 10641,
    "Ġberm": 21386,
    "Ġbeeches": 9228,
    "thing": 1481,
    "Ġbrowne": 13304,
    "meat": 18679,
    "abri": 6684,
    "Ġphilosop": 5057,
    "Ġconf": 1819,
    "ge": 560,
    "Ġgossip": 18471,
    "ropy": 1102,
    "Ġmaintain": 856,
    "difficulty": 12393,
    "cour": 4481,
    "rever": 21238,
    "moran": 24154,
    "Ġpatroness": 13510,
    "Ġscore": 9740,
    "Ġhills": 6528,
    "immediate": 20097,
    "Ġswift": 3670,
    "Ġlydia": 2373,
    "cing": 1012,
    "Ġwhal": 5454,
    "ectual": 21920,
    "Ġcannon": 14155,
    "bury": 9109,
    "uttermost": 24943,
    "Ġbonnet": 10657,
    "Ġdiscomposed": 25581,
    "Ġcuriosities": 26291,
    "ĠâĢĺ": 1630,
    "despairing": 25077,
    "Ġinsufficient": 9674,
    "Ġdistorted": 14251,
    "Ġmoments": 4846,
    "Ġvir": 7002,
    "Ġnon": 1622,
    "Ġlearnt": 7616,
    "Ġpol": 2576,
    "Ġrecorded": 11294,
    "Ġcistern": 17383,
    "Ġdisplayed": 10610,
    "Ġcomput": 602,
    "Ġdevilish": 11229,
    "Ġresume": 18566,
    "Ġoperations": 2299,
    "ux": 7814,
    "Ġblade": 11896,
    "Ġnonsense": 6983,
    "Ġamusing": 11803,
    "Ġunicorn": 22062,
    "Ġcounters": 24142,
    "Ġpainful": 6463,
    "Ġsnapped": 9898,
    "Ġmainland": 22654,
    "Ġperfectly": 3701,
    "Ġfrayed": 23301,
    "Ġinfer": 7686,
    "Ġspermaceti": 8969,
    "Ġcompression": 18147,
    "Ġremaining": 6190,
    "Ġtrem": 6662,
    "during": 6788,
    "Ġfuriously": 9804,
    "anean": 7443,
    "Ġdece": 6997,
    "Ġclaimed": 14204,
    "Ġstri": 2806,
    "Ġplainpalais": 20739,
    "orily": 15577,
    "Ġcurds": 23005,
    "appropri": 22847,
    "barn": 17484,
    "Ġpenal": 1774,
    "Ġextinguished": 10347,
    "fourth": 11329,
    "england": 18931,
    "iverse": 13118,
    "Ġerror": 1767,
    "castle": 3348,
    "Ġconsequence": 5541,
    "Ġscre": 9739,
    "whiskers": 12314,
    "Ġfollowed": 1793,
    "Ġferocity": 16872,
    "arrow": 4182,
    "nose": 17611,
    "powers": 25411,
    "Ġwritten": 4169,
    "Ġclos": 4550,
    "perquisites": 26531,
    "Ġremembered": 5277,
    "crowd": 25255,
    "Ġirregularly": 25324,
    "Ġdealing": 14047,
    "Ġblank": 5953,
    "Ġrun": 2354,
    "hunt": 20905,
    "Ġobliterated": 17407,
    "hauled": 20671,
    "Ġwindows": 4971,
    "algorith": 3655,
    "silence": 8046,
    "Ġcomplement": 23711,
    "Ġcring": 15556,
    "Ġnast": 15643,
    "Ġwreaths": 25938,
    "Ġconfession": 11236,
    "Ġcities": 17829,
    "united": 14062,
    "beauty": 20107,
    "val": 1140,
    "Ġimagenet": 19248,
    "xible": 13810,
    "thodox": 21990,
    "crop": 20800,
    "Ġformality": 22833,
    "Ġinfernal": 11965,
    "desol": 13220,
    "Ġmisled": 22760,
    "Ġconsoling": 19460,
    "olic": 14043,
    "Ġlashed": 9200,
    "cl": 1495,
    "Ġ500": 24323,
    "aping": 8195,
    "Ġcult": 8785,
    "Ġfrequ": 3326,
    "Ġfetching": 16897,
    "Ġty": 6660,
    "arle": 21444,
    "ī": 236,
    "moon": 10337,
    "Ġferocious": 17421,
    "Ġsecrets": 9056,
    "ama": 11683,
    "Ġbewit": 15732,
    "Ġneeds": 6607,
    "Ġprophe": 13081,
    "really": 6972,
    "fates": 20860,
    "hos": 15366,
    "Ġadmired": 7983,
    "burg": 16774,
    "Ġhedge": 8365,
    "Ġpettiness": 24231,
    "request": 21244,
    "Ġringed": 16751,
    "Ġlater": 6019,
    "bud": 10685,
    "lit": 9607,
    "ible": 1113,
    "Ġbeaufort": 13570,
    "Ġshaping": 22010,
    "Ġimpersonal": 17399,
    "Ġjet": 5309,
    "Ġomniscient": 20089,
    "Ġbol": 6243,
    "Ġconvention": 25547,
    "Ġblades": 11898,
    "Ġhorrify": 23821,
    "Ġvale": 14084,
    "age": 503,
    "Ġflirt": 14425,
    "Ġhandy": 12941,
    "Ġdiabolism": 25515,
    "Ġyielding": 12190,
    "Ġrout": 7402,
    "osal": 11762,
    "Ġtawny": 20485,
    "anxious": 15112,
    "Ġweave": 21925,
    "Ġshare": 1659,
    "figure": 13557,
    "Ġpaths": 2569,
    "Ġliving": 3064,
    "Ġdismasted": 15254,
    "Ġpledge": 11603,
    "ens": 701,
    "slave": 16896,
    "Ġremorse": 6442,
    "Ġapprobation": 10985,
    "Ġquivered": 18468,
    "Ġunclasp": 26512,
    "twas": 15440,
    "Ġbubble": 13536,
    "Ġcomforted": 19394,
    "Ġducks": 25161,
    "roll": 9198,
    "Ġ]": 15462,
    "Ġmish": 15541,
    "Ġcompany": 3721,
    "Ġounce": 15275,
    "Ġdevelopment": 7060,
    "justice": 7959,
    "Ġparalle": 1410,
    "Ġspirits": 3698,
    "Ġworry": 18817,
    "Ġpea": 14319,
    "Ġeternally": 11370,
    "concern": 5877,
    "Ġexpert": 18862,
    "Ġpriv": 4185,
    "Ġexpectantly": 23528,
    "Ġentertainment": 12226,
    "Ġlord": 2968,
    "Ġindicate": 23724,
    "casks": 20406,
    "rated": 6229,
    "ming": 3602,
    "iles": 2865,
    "Ġconstantly": 11975,
    "ittance": 12850,
    "labours": 16618,
    "Ġheidelburgh": 11645,
    "Ġcorresponding": 13440,
    "<SOS>": 1,
    "Ġepoch": 26472,
    "Ġmarty": 20293,
    "iliation": 10861,
    "Ġpossession": 5588,
    "values": 4973,
    "find": 6954,
    "Ġexclam": 6759,
    "bble": 17486,
    "Ġflannel": 26578,
    "church": 8141,
    "Ġmanly": 22329,
    "Ġavenues": 25430,
    "Ġuntil": 2666,
    "Ġadieu": 10053,
    "Ġtransl": 2834,
    "message": 17374,
    "abs": 11669,
    "Ġundisturbed": 19522,
    "give": 4689,
    "Ġdrinks": 24281,
    "joining": 19449,
    "Ġharpooned": 13265,
    "Ġdolphins": 20399,
    "Ġgenerations": 10965,
    "Ġpassionate": 11274,
    "Ġkindred": 16381,
    "papers": 12505,
    "Ġlimb": 9404,
    "pire": 9137,
    "Ġallures": 22013,
    "address": 14883,
    "Ġrobbed": 23051,
    "iosity": 2419,
    "Ġpoultry": 17443,
    "gra": 769,
    "Ġswamp": 14438,
    "Ġcalms": 23043,
    "Ġpractically": 13105,
    "ains": 5094,
    "eminently": 25108,
    "suggest": 20379,
    "Ġjavelin": 26105,
    "Ġdepresses": 25798,
    "Ġgentlemanly": 19318,
    "Ġsummary": 19406,
    "Ġerie": 20057,
    "Ġgramm": 8172,
    "mercenary": 26316,
    "Ġroyalty": 19738,
    "Ġoffice": 4965,
    "Ġspices": 22135,
    "ortal": 6267,
    "Ġbrahma": 26321,
    "Ġlevels": 12703,
    "Ġnest": 10190,
    "Ġhogarth": 25781,
    "Ġobstinacy": 17423,
    "Ġhorseman": 19610,
    "umer": 9260,
    "Ġcalled": 1974,
    "Ġrevenge": 5452,
    "Ġprestige": 22241,
    "Ġnew": 1197,
    "Ġhopelessly": 16382,
    "Ġmarine": 23035,
    "oting": 2745,
    "caut": 20814,
    "Ġda": 5150,
    "exped": 16528,
    "eh": 13712,
    "Ġplaid": 22604,
    "Ġonset": 12716,
    "riumph": 4920,
    "assault": 22311,
    "pretend": 24883,
    "Ġpouch": 21473,
    "historical": 20469,
    "aborate": 14024,
    "Ġassid": 18947,
    "Ġvexation": 10588,
    "familiar": 19786,
    "Ġhagger": 21495,
    "Ġdu": 4585,
    "uplifted": 17696,
    "Ġmoss": 9286,
    "ails": 6162,
    "Ġbluff": 16519,
    "Ġinstance": 2543,
    "caught": 8730,
    "gg": 1996,
    "rible": 3228,
    "Ġmotives": 7487,
    "profound": 16429,
    "Ġcorrespondent": 19825,
    "ioning": 21513,
    "Ġmasters": 11577,
    "Ġdisease": 14259,
    "fooled": 24418,
    "Ġendurance": 23142,
    "Ĵ": 245,
    "Ġunp": 12777,
    "Ġtak": 15473,
    "Ġblunt": 11897,
    "yl": 7819,
    "Ġdecreases": 3410,
    "Ġspouting": 9441,
    "athy": 14325,
    "Ġjupiter": 17458,
    "footman": 17164,
    "determination": 19948,
    "icacy": 15662,
    "Ġbrushed": 15575,
    "Ġanger": 5442,
    "Ġincites": 22556,
    "humorously": 24024,
    "Ġallusion": 7627,
    "steering": 16637,
    "Ġpeeping": 16131,
    "Ġanno": 9669,
    "formal": 14168,
    "agos": 21909,
    "Ġbarbar": 6935,
    "Ġlonging": 14300,
    "Ġsuitable": 18279,
    "izure": 21846,
    "Ġaffability": 14389,
    "strang": 11184,
    "Ġlacepede": 20498,
    "has": 4013,
    "foremost": 14254,
    "Ġsultan": 15187,
    "roman": 22011,
    "otics": 10225,
    "Ġunsafe": 22046,
    "sample": 12510,
    "Ġchicha": 15940,
    "Ġsynthe": 26008,
    "attached": 11938,
    "ubines": 22965,
    "Ġreleased": 2979,
    "retrospect": 23145,
    "Ġtophet": 23575,
    "Ġbelfry": 26439,
    "spass": 18690,
    "Ġphotography": 24684,
    "Ġpre": 507,
    "Ġguiltless": 16941,
    "god": 4864,
    "Ġactivations": 2719,
    "renew": 24449,
    "Ġnotes": 7189,
    "through": 4024,
    "Ġdivert": 23595,
    "fac": 17542,
    "ceiving": 3903,
    "Ġdestroyer": 13415,
    "user": 5105,
    "Ġminutely": 14562,
    "Ġcounsel": 13617,
    "Ġhempen": 13552,
    "Ġcaused": 5048,
    "Ġclient": 5555,
    "Ġsamples": 2964,
    "bolt": 25138,
    "Ġscratching": 20372,
    "detective": 24382,
    "Ġcommunity": 19010,
    "precise": 19354,
    "ortions": 10949,
    "emic": 18182,
    "Ġsympathising": 24298,
    "ibility": 2388,
    "urged": 18051,
    "Ġrampart": 20321,
    "Ġtrifle": 10603,
    "particip": 23618,
    "ċ": 204,
    "superst": 11326,
    "uture": 1112,
    "beneath": 9537,
    "Ġinterior": 8897,
    "Ġreced": 15696,
    "Ġneck": 4886,
    "Ġsurest": 19058,
    "ifts": 12740,
    "Ġpredecess": 18528,
    "captain": 3953,
    "aculate": 16086,
    "peasant": 23117,
    "Ġmitigates": 3053,
    "Ġoverboard": 6047,
    "Ġdonkey": 23231,
    "Ġhears": 8140,
    "Ġplays": 12040,
    "Ġscope": 15947,
    "island": 10795,
    "Ġwrithing": 11949,
    "ize": 772,
    "Ġscowl": 22290,
    "ops": 5248,
    "Ġgives": 5018,
    "Ġadroit": 26001,
    "Ġblind": 3716,
    "final": 19679,
    "Ġsod": 11563,
    "Ġhookah": 16971,
    "aks": 8509,
    "Ġfurnishing": 16647,
    "Ġphyset": 23204,
    "Ġbulwarks": 5591,
    "Ġvillain": 8639,
    "Ġfirmament": 19474,
    "Ġjabez": 11769,
    "churning": 21701,
    "Ġbrook": 13051,
    "Ġdropping": 7484,
    "ken": 2804,
    "Ġhapless": 15816,
    "nez": 22466,
    "castles": 14637,
    "sleeves": 26110,
    "tailed": 17686,
    "Ġsources": 10149,
    "perai": 10277,
    "Ġwarnings": 16882,
    "Ġhyena": 24518,
    "parable": 16400,
    "Ġfors": 21776,
    "nin": 17609,
    "Ġgenerating": 12853,
    "Ġmagnet": 10392,
    "Ġsir": 1568,
    "Ġhence": 4989,
    "Ġhollow": 5648,
    "Ġfavourably": 16368,
    "Ă": 195,
    "Ġreliably": 22884,
    "Ġsequentially": 4915,
    "Ġfake": 5811,
    "Ġfundamental": 3014,
    "animation": 16980,
    "Ġirreduc": 5491,
    "Ġwaste": 9236,
    "esteem": 26009,
    "sp": 896,
    "shire": 3021,
    "Ġvague": 6407,
    "Ġ121": 24465,
    "path": 10120,
    "Ġpen": 1533,
    "Ġdexter": 9703,
    "canoes": 16234,
    "Ġunostentatious": 22074,
    "Ġmichigan": 26427,
    "abroad": 18111,
    "extinguish": 22768,
    "Ġduration": 20356,
    "Ġinvestigation": 9044,
    "gloomy": 25147,
    "Ġleeward": 6212,
    "Ġprodu": 1206,
    "Ġleech": 24157,
    "Ġpalpable": 15208,
    "constit": 24606,
    "Ġideas": 5494,
    "brows": 17498,
    "fier": 9595,
    "ood": 963,
    "Ġobsc": 7041,
    "morn": 20978,
    "Ġspectrum": 4476,
    "ening": 3106,
    "is": 280,
    "arily": 4128,
    "ra": 314,
    "Ġcrystal": 17216,
    "Ġproperties": 3119,
    "Ġrights": 10398,
    "Ġavocation": 23956,
    "Ġshifted": 14109,
    "Ġsubsisted": 19119,
    "largely": 19577,
    "Ġimplies": 24874,
    "Ġcr": 2151,
    "quaker": 15766,
    "Ġrepent": 9865,
    "Ġspectators": 19410,
    "Ġhypothe": 4075,
    "Ġjud": 3356,
    "Ġcompress": 21849,
    "black": 6769,
    "iness": 1281,
    "Ġaltern": 7394,
    "Ġviciss": 11293,
    "egyptians": 25899,
    "Ġfullest": 14816,
    "Ġaccompaniments": 24481,
    "irement": 18356,
    "ė": 216,
    "Ġvertical": 16605,
    "overlooked": 23327,
    "Ġrnns": 2394,
    "Ġcrimin": 6901,
    "Ġviv": 6158,
    "building": 17311,
    "Ġunpardonable": 22067,
    "Ġarrives": 23609,
    "Ġalexander": 17426,
    "Ġplun": 6283,
    "Ġeternities": 19946,
    "grounds": 11152,
    "lifeless": 24313,
    "Ġhimmale": 18330,
    "Ġimmovable": 15896,
    "Ġdrink": 4787,
    "Ġdeparture": 6491,
    "Ġsignificant": 8637,
    "rom": 421,
    "sleep": 6512,
    "Ġprofounder": 23571,
    "Ġran": 3341,
    "Ġslugg": 15271,
    "Ġclimate": 9277,
    "Ġwheels": 10913,
    "Ġtrees": 4205,
    "Ġbingley": 1680,
    "Ġbrew": 23348,
    "Ġdancing": 5703,
    "Ġalan": 10870,
    "topic": 10529,
    "Ġearned": 19408,
    "Ġaccuse": 14213,
    "Ġwondering": 7972,
    "Ġdiary": 24738,
    "Ġlighten": 23263,
    "Ġinjurious": 24272,
    "Ġmachine": 796,
    "isp": 5528,
    "Ġfigures": 8633,
    "Ġbor": 5805,
    "Ġlamb": 8816,
    "Ġsigma": 1541,
    "Ġtoad": 21514,
    "ptic": 21929,
    "Ġrestrict": 16380,
    "weave": 22689,
    "oars": 9616,
    "Ġtap": 12530,
    "Ġtwink": 8217,
    "Ġunfailing": 24112,
    "Ġdecks": 6900,
    "deadly": 17100,
    "Ġsideboard": 10387,
    "arm": 1356,
    "surprising": 16920,
    "Ġpickle": 16723,
    "Ġsemicirc": 16393,
    "money": 8753,
    "ć": 200,
    "Ġedges": 3829,
    "Ġbreeding": 14523,
    "Ġattractive": 25576,
    "Ġchink": 15936,
    "Ġunrival": 22052,
    "eteenth": 20160,
    "Ġruefully": 17303,
    "fitting": 1510,
    "Ġtouching": 4681,
    "pall": 17629,
    "george": 26020,
    "Ġinfl": 6894,
    "itty": 3555,
    "Ġstamping": 20034,
    "horizon": 23617,
    "Ġlaying": 7910,
    "pherd": 13646,
    "icable": 6389,
    "ccarthy": 4889,
    "aulding": 11340,
    "Ġjavan": 25002,
    "Ġoceans": 7997,
    "Ġsystems": 788,
    "bound": 6222,
    "Ġcomprehensiveness": 25075,
    "Ġwrapped": 8343,
    "Ġfalls": 14645,
    "Ġsmallest": 6431,
    "Ġacceler": 1608,
    "Ġderick": 9366,
    "Ġsmiling": 5474,
    "baned": 17497,
    "oking": 4607,
    "Ġfearful": 6199,
    "fthand": 26387,
    "Ġbutt": 14127,
    "Ġfainter": 14916,
    "ots": 3292,
    "Ġbestowing": 16972,
    "Ġearning": 23944,
    "neglect": 25669,
    "Ġga": 4448,
    "ĠlinnÃ¦us": 15278,
    "Ġfanny": 23394,
    "uesday": 8590,
    "Ġdiscrete": 2475,
    "Ġprocessing": 882,
    "Ġbrandy": 11050,
    "Ġmargaret": 10378,
    "Ġmeanness": 22600,
    "alive": 10828,
    "Ġnotable": 18223,
    "Ġchallenges": 13632,
    "Ġmedicine": 15209,
    "Ġsensible": 4976,
    "gradually": 12920,
    "assure": 9271,
    "apologizing": 26545,
    "protested": 13476,
    "uth": 3018,
    "Ġlodged": 11251,
    "Ġfaintest": 24569,
    "Ġparacelsus": 15269,
    "Ġsympathised": 14864,
    "Ġseconds": 16394,
    "Ġvagueness": 25738,
    "Ġgleam": 12311,
    "Ġunsub": 22028,
    "romang": 22012,
    "Ġoperation": 12001,
    "aits": 20768,
    "emason": 18184,
    "Ġmagazine": 23106,
    "Ġtestament": 23218,
    "ouses": 5163,
    "Ġplace": 1653,
    "Ġuntamed": 19166,
    "quer": 11681,
    "spee": 9319,
    "robber": 21541,
    "Ġfriendship": 7246,
    "Ġpopulation": 16828,
    "Ġglimpses": 13434,
    "Ġcousins": 9917,
    "Ġjunk": 15957,
    "Ġwoe": 4793,
    "iscre": 17852,
    "helping": 23147,
    "Ġtumbled": 13408,
    "Ġfeelingly": 22996,
    "Ġswam": 6449,
    "Ġsorely": 17258,
    "eyed": 11488,
    "Ġstubb": 1786,
    "Ġaristotle": 25818,
    "Ġimbu": 15895,
    "Ġtoe": 13938,
    "ield": 2407,
    "Ġintens": 7004,
    "Ġgord": 21604,
    "fordshire": 4677,
    "variety": 23190,
    "Ġoutlandish": 12843,
    "cleanliness": 25872,
    "Ġdemo": 10880,
    "Ġfeedback": 23435,
    "flowing": 14572,
    "ancing": 1760,
    "Ġrashly": 20308,
    "Ġmutually": 23960,
    "Ġiii": 7862,
    "Ġwarden": 17226,
    "Ġalchemists": 26488,
    "resembled": 21249,
    "Ġleaf": 15727,
    "Ġpersonality": 16479,
    "usions": 6161,
    "Ġdelightfully": 13160,
    "Ġformation": 2945,
    "bourne": 19104,
    "ĠĠĠĠĠĠĠĠĠĠĠĠ": 12905,
    "Ġattacked": 10569,
    "simp": 17666,
    "âĢĶâĢĻâĢĿ": 20067,
    "oso": 12836,
    "Ġafterwards": 3532,
    "Ġblacksmiths": 19875,
    "Ġrehears": 15704,
    "Ġadd": 630,
    "vessel": 11378,
    "works": 6590,
    "stuff": 15692,
    "Ġwicked": 5963,
    "Ġmultipl": 2793,
    "Ġoblong": 14323,
    "Ġdamn": 11159,
    "Ġfrozen": 9015,
    "spite": 16142,
    "Ġbeadle": 26485,
    "Ġrelevance": 5184,
    "ginger": 13165,
    "strom": 15688,
    "Ġcontest": 18474,
    "Ġplunge": 13445,
    "bub": 15319,
    "Ġx": 2074,
    "Ġpoliteness": 8275,
    "venant": 22631,
    "1775": 26379,
    "Ġbumpkin": 20203,
    "remarked": 12291,
    "strong": 6324,
    "whatsoever": 18494,
    "Ġmore": 676,
    "Ġfidgeted": 25890,
    "Ġrumours": 24600,
    "ivable": 10911,
    "Ġruss": 18720,
    "Ġinformed": 6719,
    "nerable": 16280,
    "perfect": 7636,
    "Ġsomething": 1794,
    "erring": 11058,
    "violets": 23546,
    "Ġbasic": 24700,
    "Ġsomebody": 7914,
    "Ġbiography": 22771,
    "peculiar": 6886,
    "Ġnantucketers": 9896,
    "source": 11527,
    "Ġhovers": 19080,
    "break": 6103,
    "Ġmelbourne": 24290,
    "Ġbod": 4582,
    "ky": 4521,
    "Ġnephew": 6406,
    "Ġscound": 12837,
    "Ġannoy": 17200,
    "Ġcaptiv": 16258,
    "Ġunprotected": 22072,
    "Ġobserving": 6082,
    "gree": 10702,
    "cking": 4267,
    "Ġworsted": 19998,
    "Ġattract": 11835,
    "irts": 9240,
    "Ġprofanely": 23572,
    "Ġnormalizing": 1821,
    "Ġretained": 7174,
    "uss": 8767,
    "Ġdeeply": 4717,
    "Ġshrunk": 16719,
    "Ġadie": 8491,
    "pr": 3175,
    "skeleton": 17378,
    "ridden": 24361,
    "ateful": 5929,
    "Ġwhereas": 3857,
    "Ġconcern": 2585,
    "orter": 4257,
    "Ġdisgu": 8206,
    "Ġtorch": 25033,
    "ai": 2524,
    "clad": 14461,
    "ortment": 22262,
    "Ġtreasures": 17047,
    "ested": 3479,
    "Ġskull": 6290,
    "Ġvestige": 20066,
    "Ġinvent": 7165,
    "Ġdried": 7367,
    "Ġschedules": 3387,
    "Ġamiss": 18513,
    "Ġmean": 743,
    "enes": 5218,
    "wife": 8102,
    "liv": 9609,
    "Ġclose": 3038,
    "Ġfru": 8422,
    "Ġbeings": 2488,
    "paddington": 20481,
    "Ġafghan": 22633,
    "cake": 20806,
    "Ġsubsequent": 7661,
    "Ġcalm": 3448,
    "Ġchopping": 24221,
    "rue": 1130,
    "ashed": 3785,
    "ctuous": 9207,
    "Ġsto": 1500,
    "Ġdisorder": 16055,
    "Ġungover": 18256,
    "Ġbower": 15571,
    "subsided": 25832,
    "lesson": 22774,
    "Ġneighb": 14078,
    "Ġdemands": 19641,
    "Ġrecl": 16147,
    "Ġupbra": 22158,
    "widows": 25345,
    "Ġcolder": 22863,
    "Ġharriet": 24572,
    "Ġexact": 2541,
    "Ġpaternal": 16364,
    "edily": 17946,
    "Ġgrazed": 15837,
    "era": 13849,
    "Ġbrooding": 18909,
    "fee": 12885,
    "tall": 17674,
    "wil": 8769,
    "pret": 7212,
    "Ġsimultaneously": 4312,
    "ado": 11660,
    "Ġbased": 3337,
    "Ġparm": 15881,
    "precious": 12076,
    "?--": 15306,
    "Ġdinners": 23985,
    "Ġmerit": 9429,
    "Ġfugitive": 17329,
    "vine": 10735,
    "Ġrelaps": 18777,
    "Ġcrew": 2494,
    "Ġsin": 1514,
    "Ġjiff": 22301,
    "actorily": 25577,
    "driver": 14923,
    "Ġtoiling": 15639,
    "Ġlandsman": 11351,
    "Ġnative": 4641,
    "ulia": 18151,
    "Ġdebated": 9042,
    "lanterns": 17431,
    "composed": 14742,
    "othing": 6996,
    "Ġbrah": 19360,
    "Ġbrass": 11049,
    "tie": 21071,
    "Ġdrawn": 4277,
    "anging": 3552,
    "Ġtinker": 15134,
    "Ġsquaw": 22843,
    "iations": 11496,
    "Ġspasmod": 12417,
    "passing": 14814,
    "Ġnewcastle": 16226,
    "Ġcurls": 23003,
    "Ġessays": 19747,
    "Ġnormal": 1204,
    "Ġcircumference": 13546,
    "Ġpadded": 25039,
    "Ġbillows": 7503,
    "Ġdodge": 19888,
    "Ġknown": 1642,
    "Ġincline": 18570,
    "benevol": 12230,
    "Ġinsatiable": 19274,
    "Ġdiversion": 17199,
    "grained": 20885,
    "inioned": 19289,
    "erting": 17778,
    "Ġhero": 5715,
    "Ġstands": 5259,
    "plainly": 11091,
    "Ġcombinations": 22858,
    "77": 15303,
    "control": 16545,
    "libra": 22929,
    "Ġindu": 5295,
    "Ġoffending": 22737,
    "verity": 14003,
    "Ġbelt": 13006,
    "Ġstall": 12701,
    "Ġliberties": 19670,
    "Ġstraps": 19312,
    "Ġfriendly": 9822,
    "unnatural": 15777,
    "Ġpitiful": 13242,
    "een": 724,
    "dom": 6224,
    "ket": 17583,
    "repent": 15516,
    "proachable": 23401,
    "Ġdams": 16456,
    "allic": 12818,
    "uttering": 12667,
    "Ġoppression": 23652,
    "Ġobscurely": 20191,
    "Ġsuperflu": 14554,
    "amore": 21861,
    "Ġjo": 2609,
    "ouble": 2660,
    "Ġundersampling": 19521,
    "soup": 21061,
    "million": 25752,
    "eagerly": 17318,
    "Ġfur": 991,
    "Ġcoincidence": 25484,
    "Ġmanor": 14198,
    "Ġstingy": 25456,
    "Ġcaught": 3730,
    "Ġherring": 14128,
    "prick": 19346,
    "Ġchin": 4892,
    "blazing": 24133,
    "insupportable": 21196,
    "latter": 15385,
    "looking": 4033,
    "Ġvort": 18194,
    "Ġdinnertime": 16720,
    "Ġmiguel": 25767,
    "ence": 392,
    "Ġoccasion": 3245,
    "afflicted": 23780,
    "Ġgidd": 25784,
    "Ġflesh": 5971,
    "Ġless": 1939,
    "sa": 8760,
    "stairs": 5155,
    "Ġprimal": 17107,
    "Ġfailure": 13317,
    "Ġfin": 1461,
    "Ġlanguages": 1567,
    "Ġeasier": 11166,
    "Ġwerter": 15242,
    "your": 1985,
    "Ġpots": 9430,
    "Ġwhom": 1831,
    "rinted": 21046,
    "sper": 4437,
    "liking": 22928,
    "sum": 2088,
    "Ġheed": 5630,
    "legs": 13186,
    "Ġdowry": 20688,
    "Ġclimates": 25053,
    "Ġunrelieved": 20548,
    "possession": 12225,
    "rarely": 21638,
    "Ġbeat": 4493,
    "Ġswore": 10380,
    "Ġsolely": 9912,
    "Ġsledge": 8112,
    "Ġrendered": 5773,
    "Ġjudge": 5502,
    "Ġfoundations": 11074,
    "Ġdevils": 7230,
    "scru": 16244,
    "amongst": 24673,
    "x": 92,
    "gracious": 11834,
    "Ġsurmise": 12298,
    "gam": 10097,
    "Ġrh": 9246,
    "Ġpressed": 6044,
    "Ġperishing": 22403,
    "Ġvesuvius": 26502,
    "Ġstraits": 7995,
    "Ġclust": 9276,
    "Ġmisanthropic": 26561,
    "Ġcomparison": 7101,
    "Ġtwitching": 25684,
    "Ġhuff": 21494,
    "Ġmended": 21316,
    "Ġcultured": 25158,
    "Ġnarwhale": 12296,
    "built": 16826,
    "delivered": 24101,
    "scy": 21058,
    "Ġlie": 4407,
    "conditional": 9080,
    "uous": 4146,
    "opence": 18509,
    "ensities": 22551,
    "÷": 184,
    "Ġfoiled": 23248,
    "Ġrecognition": 3143,
    "Ġeaves": 15680,
    "Ġcramped": 23533,
    "Ġginger": 9212,
    "cord": 8727,
    "Ġnook": 15932,
    "expectation": 14858,
    "Ġdim": 4757,
    "Ġharmless": 9967,
    "especially": 3573,
    "crier": 20822,
    "Õ": 150,
    "Ġvisited": 5950,
    "Ġproblems": 2852,
    "Ġgangway": 20161,
    "fisher": 7548,
    "Ġgroom": 13968,
    "without": 4847,
    "Ġmerchants": 23734,
    "bb": 2803,
    "bruary": 15238,
    "Ġsmiting": 12903,
    "pre": 650,
    "Ġpropagating": 20636,
    "Ġtravel": 5955,
    "Ġdoctrine": 24199,
    "Ġdone": 1817,
    "Ġmarvel": 23037,
    "angible": 22110,
    "Ġdeclines": 23966,
    "ocratic": 17246,
    "Ġshud": 5461,
    "Ġheightens": 24156,
    "Ġitself": 2519,
    "balls": 12308,
    "Ġferule": 24515,
    "Ġ6": 5141,
    "://": 11466,
    "Ġmail": 17802,
    "Ġreproach": 9558,
    "ist": 450,
    "Ġfade": 21411,
    "Ġpronouncing": 16970,
    "Ġdictionaries": 12343,
    "Ġcrotch": 9965,
    "Ġtorture": 9067,
    "Ġglued": 20592,
    "Ġexcited": 5579,
    "reflection": 13457,
    "ifications": 9730,
    "Ġefficient": 1101,
    "impenet": 18056,
    "Ġperish": 8877,
    "forest": 22522,
    "greeting": 24553,
    "Ġclothe": 4712,
    "Ġacquire": 2723,
    "Ġfrown": 10808,
    "Ġfollies": 16257,
    "ortunities": 15944,
    "Ġif": 698,
    "Ġoughts": 23904,
    "Ġmerryweather": 9524,
    "Ġguests": 12290,
    "Ġvertu": 23893,
    "bowed": 10686,
    "hogs": 20085,
    "Ġresolved": 3798,
    "Ġagitation": 6865,
    "Ġma": 3251,
    "Ġsample": 3178,
    "Ġinduce": 7764,
    "©": 107,
    "Ġrocked": 12861,
    "Ġegg": 8822,
    "Ġbewil": 11659,
    "Ġwitnessing": 19601,
    "Ġamazement": 7766,
    "Ġcommand": 3320,
    "nantucketer": 24977,
    "irted": 14073,
    "daugh": 6789,
    "Ġtoiled": 12647,
    "Ġspell": 8858,
    "marks": 7346,
    "inable": 11557,
    "Ġopenly": 8576,
    "Ġperformed": 8549,
    "Ġprompted": 23819,
    "Ġcomplain": 6687,
    "Ġimparted": 15993,
    "Ġding": 12604,
    "Ġalabama": 14021,
    "ilies": 18059,
    "Ġthieves": 15640,
    "opol": 12877,
    "acting": 22635,
    "Ġbert": 4583,
    "Ġhogshe": 20495,
    "venge": 4659,
    "stretch": 13983,
    "Ġuncont": 14118,
    "Ġprot": 3850,
    "Ġcount": 1815,
    "aloes": 21506,
    "Ġwhistle": 9068,
    "elzebub": 26465,
    "Ġbloodshed": 23802,
    "Ġimaginative": 19249,
    "yingly": 23064,
    "Ġbr": 1072,
    "sorrows": 17322,
    "Ġconnivance": 25226,
    "attracted": 13054,
    "monkey": 19172,
    "Ġhamper": 19392,
    "Ġtraps": 23085,
    "Ġpan": 5082,
    "Ġjust": 1240,
    "untary": 9869,
    "Ġturtles": 19223,
    "daring": 20831,
    "Ġtoday": 12648,
    "oldened": 22646,
    "runs": 25416,
    "Ġcoiled": 11823,
    "rily": 7623,
    "Ġmoisture": 12362,
    "Ġscraggy": 24579,
    "Ġglens": 18850,
    "thunder": 10264,
    "Ġunrem": 18245,
    "Ġcretan": 22726,
    "Ġgoing": 2068,
    "Ġput": 1798,
    "definition": 23124,
    "faith": 15026,
    "Ġinvitation": 5188,
    "rine": 21040,
    "Ġthough": 992,
    "Ġskewer": 19623,
    "Ġunmolested": 15248,
    "Ġtrous": 10957,
    "Ġavail": 11227,
    "Ġrevolver": 14900,
    "Ġcurios": 18859,
    "Ġcolleg": 22864,
    "troubled": 17112,
    "Ġdiameter": 19869,
    "Ġpul": 2042,
    "stars": 18022,
    "Ġpresented": 5183,
    "Ġosc": 2840,
    "disguise": 26307,
    "ys": 3959,
    "attacks": 23128,
    "completely": 12423,
    "morning": 4859,
    "enormous": 26167,
    "pole": 9335,
    "Ġbrides": 22872,
    "Ġflashed": 11917,
    "Ġscolding": 15203,
    "skelter": 24489,
    "matlock": 23473,
    "Ġdispose": 23881,
    "Ġeber": 18006,
    "Ġrepresentation": 14407,
    "Ġrosy": 18463,
    "plentiful": 21961,
    "Ġusages": 15925,
    "supplemental": 25875,
    "Ġwinged": 16996,
    "iding": 3849,
    "Ġcoarsely": 25830,
    "Ġclubs": 25180,
    "pher": 11513,
    "weekly": 25685,
    "Ġwaif": 9377,
    "Ġproper": 1379,
    "Ġfine": 1314,
    "cest": 12448,
    "Ġdey": 11677,
    "thomas": 18220,
    "Ġbestow": 6456,
    "Ġhemisphere": 26479,
    "Ġauthors": 10417,
    "Ġsands": 14950,
    "Ġrise": 5637,
    "Ġalone": 2566,
    "_.âĢĿ": 5888,
    "Ġbreath": 4791,
    "Ġballs": 9017,
    "ps": 4575,
    "jury": 15376,
    "Ġworked": 6585,
    "Ġarrived": 3747,
    "Ġslipping": 13363,
    "Ġendeared": 26499,
    "cet": 15327,
    "guilty": 19486,
    "Ġexcellence": 11452,
    "Ġflood": 7717,
    "Ġenlarge": 21940,
    "iline": 21725,
    "Ġdisinterested": 16061,
    "Ġhoisting": 9864,
    "Ġcircumvent": 25067,
    "Ġfigured": 16645,
    "Ġpiercing": 13495,
    "commencement": 26350,
    "Ġsilly": 7688,
    "Ġforged": 12709,
    "ignorant": 13565,
    "Ġhonestly": 19975,
    "Ġpretending": 19317,
    "Ġembellish": 25849,
    "gyric": 19111,
    "ese": 4446,
    "Ġcharmingly": 24223,
    "Ġwisely": 13275,
    "Ġarranged": 9879,
    "Ġcook": 3712,
    "Ġbraz": 19361,
    "recovered": 19790,
    "Ġended": 7951,
    "Ġbook": 2702,
    "capital": 15091,
    "ials": 11707,
    "Ġserenity": 10030,
    "Ġnails": 12653,
    "Ġcorpora": 26581,
    "Ġhedges": 19988,
    "Ġfortresses": 23623,
    "eastward": 15132,
    "Ġsaturation": 2063,
    "un": 373,
    "Ġhoe": 23355,
    "Ġroyal": 5601,
    "Ġcrop": 10164,
    "Ġreus": 8825,
    "Ġendure": 5958,
    "ates": 519,
    "Ġcrossed": 6071,
    "Ġdeacon": 18143,
    "Ġfretfully": 25448,
    "painful": 13503,
    "Ġcyl": 15561,
    "wn": 719,
    "pen": 1205,
    "Ġslopes": 18943,
    "Ġced": 10785,
    "Ġpleases": 16301,
    "Ġxerxes": 23413,
    "ermost": 7430,
    "Ġsoftness": 18919,
    "Ġfaculties": 14960,
    "Ġmeasured": 9806,
    "Ġbroad": 3640,
    "tery": 14039,
    "Ġlasted": 11054,
    "iron": 3424,
    "suffered": 24329,
    "Ġtestimony": 14477,
    "Ġcaw": 13885,
    "apparat": 22850,
    "ead": 2599,
    "Ġunspeak": 8853,
    "Ġaffirmative": 15225,
    "Ġapprehended": 26091,
    "lee": 11587,
    "ove": 1745,
    "Ġdeaths": 14538,
    "Ġreturn": 1712,
    "Ċ": 203,
    "Ġingenuity": 17165,
    "Ġvocabulary": 4995,
    "Ġvagu": 13591,
    "estim": 14171,
    "Ġdetestation": 17129,
    "Ġleadenhall": 16630,
    "Đ": 209,
    "Ġmerid": 13197,
    "risonment": 17377,
    "Ġpavement": 9579,
    "Ġsumat": 14131,
    "Ġprovidence": 18747,
    "effect": 8607,
    "Ġintrusted": 21997,
    "Ġmassa": 19457,
    "Ġanytime": 12890,
    "Ġabounding": 12347,
    "Ġton": 15467,
    "Ġtransformations": 3484,
    "Ġexpressing": 12011,
    "Ġclanging": 18424,
    "'t": 3145,
    "Ġcaut": 6522,
    "Ġnatives": 17953,
    "Ġspite": 4157,
    "eaten": 20347,
    "kily": 20939,
    "onged": 18411,
    "Ġslam": 13061,
    "Ġcelest": 9903,
    "Ġnich": 21524,
    "Ġwoody": 23522,
    "itated": 4442,
    "Ġcurric": 23004,
    "Ġhackney": 20436,
    "Ġfidelity": 15244,
    "Ġplate": 8901,
    "Ġpersuade": 5874,
    "iance": 5280,
    "embarr": 17294,
    "cept": 553,
    "Ġexh": 5232,
    "Ġdrawers": 12109,
    "Ġfresh": 3671,
    "bohem": 19002,
    "Ġjudgment": 5765,
    "urn": 776,
    "Ġbundle": 13428,
    "Ġsuch": 792,
    "roofed": 26185,
    "Ġchina": 8041,
    "jointed": 24014,
    "calabash": 22899,
    "Ġsinusoidal": 4801,
    "announcement": 24562,
    "Ġequin": 14497,
    "Ġdyspepsia": 20645,
    "bourn": 3300,
    "âĢĶâĢĺ_": 24832,
    "peculiarity": 23116,
    "Ġphaet": 16321,
    "Ġsupervised": 3210,
    "Ġpostpone": 17309,
    "Ġsombre": 18861,
    "Ġbelieved": 4369,
    "Ġpedro": 15067,
    "Ġconfidence": 6592,
    "Ġmonomaniac": 9570,
    "Ġpacifics": 24372,
    "sledge": 21060,
    "Ġsixpence": 19319,
    "Ġtransparency": 10678,
    "atha": 6574,
    "Ġyourselves": 9030,
    "Ġhorizon": 6635,
    "Ġunfulfilled": 26510,
    "Ġselfish": 7272,
    "Ď": 207,
    "information": 12396,
    "igated": 15711,
    "Ġsoph": 1656,
    "vishnoo": 21122,
    "Ġtingling": 15095,
    "Ġlizard": 12659,
    "Ġroots": 11186,
    "Ġdress": 4021,
    "Ġantilles": 24181,
    "occasion": 7755,
    "Ġconversing": 14634,
    "quired": 21855,
    "Ġsticks": 14933,
    "Ġhues": 21493,
    "_,âĢĻâĢĿ": 20404,
    "dis": 2251,
    "vered": 4831,
    "Ġcaroline": 7254,
    "Ġtrapped": 23081,
    "ssed": 3734,
    "world": 5058,
    "Ġshifting": 12773,
    "gathered": 13734,
    "Ġdus": 8425,
    "Ġgathering": 14980,
    "Ġxxxix": 24973,
    "Ġharm": 5017,
    "Ġshutter": 16672,
    "Ġirrespective": 23378,
    "Ġaloof": 21790,
    "Ġsupers": 18278,
    "ry": 807,
    "Ġfrederick": 15591,
    "Ġseedy": 21967,
    "Ġjustinian": 22973,
    "malice": 17604,
    "Ġfri": 17880,
    "Ġgasp": 7173,
    "Ġwheel": 9720,
    "quickly": 14964,
    "Ġflitting": 13030,
    "saturday": 14860,
    "Ġcorroboration": 26053,
    "Ġcontained": 7681,
    "Ġ275": 20114,
    "Ġfloundering": 16253,
    "dreadful": 11422,
    "sad": 11522,
    "thus": 5158,
    "Ġpossessed": 5195,
    "Ġadmits": 23556,
    "Ġoakshott": 12233,
    "Ġestimated": 16595,
    "bohemia": 20733,
    "Ġcoachman": 15001,
    "princip": 17138,
    "tenderly": 20534,
    "Ġjunior": 15102,
    "Ġfeebly": 24878,
    "icles": 17975,
    "Ġstruggles": 16580,
    "Ġsplinter": 23749,
    "hester": 9633,
    "Ġfainted": 8795,
    "endous": 6850,
    "Ġequality": 16365,
    "Ġtimor": 24226,
    "convul": 24884,
    "shel": 11933,
    "ario": 14249,
    "Ġheal": 21685,
    "Ġrescales": 5068,
    "listened": 15045,
    "Ġpresumption": 10547,
    "augment": 18830,
    "rah": 8138,
    "lestrade": 9658,
    "Ġbeads": 18086,
    "Ġbehooves": 20735,
    "Ġrough": 7187,
    "distressed": 24201,
    "Ġwell": 901,
    "Ġarea": 14188,
    "often": 6167,
    "Ġmallet": 17812,
    "Ġdarts": 16769,
    "amb": 5723,
    "inev": 21991,
    "ite": 712,
    "Ġafore": 10759,
    "Ġcampa": 17175,
    "Ġshouts": 19540,
    "ip": 558,
    "ountain": 2921,
    "Ġnour": 10831,
    "Ġeasterly": 25963,
    "luxur": 25823,
    "Ġrogue": 22415,
    "Ġbackwater": 18651,
    "elizabeth": 1987,
    "Ġdisposition": 5409,
    "grate": 23414,
    "aloons": 20014,
    "Ġintimately": 24801,
    "Ġblackest": 19100,
    "kind": 3865,
    "Ġirish": 14535,
    "ie": 726,
    "macy": 18809,
    "owders": 18050,
    "insult": 16283,
    "Ġsepar": 3997,
    "vel": 2383,
    "mitted": 5213,
    "Ġstately": 9836,
    "convenient": 12241,
    "spouting": 25005,
    "Ġtrace": 6183,
    "Ġpist": 12620,
    "bled": 5469,
    "affection": 7488,
    "Ġthrill": 24540,
    "Ġdru": 8424,
    "Ġengra": 7876,
    "Ġcrack": 7711,
    "Ġvelocity": 10622,
    "Ġsparing": 22134,
    "skill": 24486,
    "Ġmaritime": 23040,
    "cong": 10690,
    "Ġfigure": 4209,
    "Ġimportance": 4901,
    "obedience": 17412,
    "Ġfootsteps": 16574,
    "Ġartful": 22615,
    "ouncement": 11748,
    "cowardly": 25750,
    "whispered": 20037,
    "Ġlogical": 14488,
    "Ġpoignant": 22597,
    "Ġtar": 2563,
    "Ġgrove": 12150,
    "Ġfault": 5702,
    "Ġelimin": 16111,
    "Ġplank": 7035,
    "Ġmorrow": 9344,
    "Ġli": 601,
    "Ġimag": 2673,
    "cence": 9590,
    "librarian": 26569,
    "Ġunexpected": 6841,
    "Ġexper": 1279,
    "ault": 2306,
    "Ġdiction": 8798,
    "Ġmultitud": 18748,
    "Ġcircum": 8259,
    "spring": 7231,
    "Ġemergency": 25731,
    "Ġluckily": 16799,
    "Ġpenny": 16317,
    "Ġpython": 1068,
    "Ġchival": 14184,
    "Ġaverred": 18867,
    "yed": 3270,
    "Ġloading": 15878,
    "Ġdeadliest": 14558,
    "Ġabomination": 22283,
    "Ġdisd": 7032,
    "Ġangle": 8606,
    "Ġappe": 1540,
    "hol": 3841,
    "Ġagain": 815,
    "uns": 21875,
    "varieties": 23191,
    "agers": 5633,
    "utherland": 9580,
    "Ġkeys": 11999,
    "reclining": 20577,
    "conda": 18994,
    "arrange": 23768,
    "declaration": 25176,
    "Ġfurnish": 9021,
    "continuance": 19721,
    "Ġtransaction": 22444,
    "Ġairs": 14512,
    "Ġdowncast": 18653,
    "allen": 22201,
    "Ġinde": 7371,
    "Ġstealing": 18894,
    "sinking": 17669,
    "Ġmaintainable": 12940,
    "Ġarchitect": 979,
    "shuff": 18489,
    "you": 1004,
    "ino": 15482,
    "german": 11493,
    "Ġparcels": 25466,
    "dare": 12457,
    "ivering": 7700,
    "Ġfilling": 13410,
    "Ġbenefits": 4288,
    "Ġrail": 7226,
    "ingolstadt": 21306,
    "Ġsolar": 22889,
    "circle": 16737,
    "urements": 18126,
    "Ġesc": 2253,
    "Ġrestraint": 15130,
    "Ġbead": 21755,
    "Ġprincely": 24150,
    "solid": 16384,
    "Ġu": 324,
    "Ġmors": 17803,
    "hes": 1398,
    "victim": 25531,
    "estinated": 15923,
    "active": 16107,
    "anct": 21361,
    "owal": 13995,
    "Ġgeorgiana": 8629,
    "principal": 20662,
    "term": 3759,
    "Ġunconditional": 15848,
    "Ġparameter": 890,
    "accustomed": 13159,
    "bony": 15322,
    "Ġexerted": 15761,
    "Ġnumerical": 4246,
    "hed": 670,
    "Ġtugged": 17290,
    "ill": 447,
    "Ġquestions": 3971,
    "formation": 22218,
    "Ġcould": 704,
    "Ġsaturday": 6453,
    "Ġvaulted": 25171,
    "ĠâĢľâĢĺ": 8506,
    "Ġbecause": 2211,
    "Ġretarded": 23077,
    "Ġleisurely": 24745,
    "safe": 10056,
    "Ġunconnected": 18243,
    "Ġartfully": 22616,
    "Ġsagacity": 16975,
    "Ġrational": 8482,
    "Ġsum": 2700,
    "obliv": 23101,
    "native": 17613,
    "contrary": 23730,
    "Ġpublisher": 24070,
    "lesc": 11039,
    "Ġdecrease": 4203,
    "Ġlivery": 16001,
    "Ġclamped": 18427,
    "illing": 8176,
    "Ġknock": 9975,
    "mped": 16649,
    "Ġgang": 9209,
    "Ġbody": 2434,
    "iscuit": 10600,
    "Ġloom": 7630,
    "Ġfeel": 1258,
    "viii": 12023,
    "Ġknow": 632,
    "ise": 708,
    "Ġinfamous": 16371,
    "Ġshout": 4266,
    "Ġim": 476,
    "Ġwent": 1537,
    "fiend": 13663,
    "Ġprovision": 14827,
    "Ġliterally": 15119,
    "vation": 4744,
    "Ġhabitation": 14805,
    "stand": 625,
    "Ġproved": 4885,
    "Ġfourteen": 12012,
    "scans": 22988,
    "removed": 15519,
    "Ġsmoothe": 23660,
    "/": 19,
    "Ġferry": 24514,
    "sorts": 21063,
    "recurring": 24196,
    "Ġdreaded": 8290,
    "oured": 2670,
    "sander": 11528,
    "Ġresolve": 13172,
    "Ġdearest": 5457,
    "Ġfacilitate": 26099,
    "situ": 9623,
    "istence": 2365,
    "Ġpartly": 6715,
    "Ġhousekeeper": 7456,
    "elihood": 4623,
    "Ġcontemptuous": 24677,
    "Ġspray": 7896,
    "gazing": 12475,
    "Ġpeels": 22695,
    "iferous": 17293,
    "itals": 17822,
    "raction": 8139,
    "Ġann": 4491,
    "orative": 21401,
    "Ġocean": 3302,
    "Ġretirement": 25379,
    "ā": 194,
    "hy": 4740,
    "eld": 965,
    "Ġcopies": 24938,
    "Ġrepairs": 19085,
    "wanderer": 25424,
    "Ġfactory": 23280,
    "semic": 21825,
    "reflected": 24732,
    "Ġ67": 19663,
    "Ġcontingency": 26246,
    "Ġmumbled": 17809,
    "atics": 15526,
    "Ġindication": 22956,
    "goodness": 19291,
    "Ġhitting": 21492,
    "Ġrepugnant": 26591,
    "Ġfund": 2848,
    "rigged": 17063,
    "Ġbalances": 2339,
    "cent": 8074,
    "Ġwedding": 4816,
    "secret": 12240,
    "Ġsty": 6253,
    "iece": 3229,
    "treatment": 20415,
    "score": 18852,
    "ot": 346,
    "Ġrecommence": 16813,
    "Ġpushed": 5912,
    "Ġchildhood": 13140,
    "Ġreplying": 19584,
    "hib": 15370,
    "Ġincom": 9771,
    "Ġfolk": 10377,
    "Ġardour": 8044,
    "pudding": 17648,
    "crews": 15044,
    "Ġinsights": 13181,
    "Ġarise": 7898,
    "Ġseek": 4510,
    "Ġdent": 13908,
    "Ġwes": 8782,
    "voices": 21120,
    "tashtego": 9624,
    "Ġknitting": 24220,
    "Ġunansw": 22063,
    "Ġapproximate": 2341,
    "do": 1995,
    "Ġadhes": 22108,
    "Ġwrongfully": 24250,
    "Ġital": 10867,
    "Ġmonth": 2853,
    "Ġdevote": 10340,
    "Ġjuggl": 20441,
    "Ġarticles": 7110,
    "Ġwiping": 25766,
    "Ġs": 265,
    "Ġimpetuously": 20375,
    "Ġgenus": 24428,
    "Ġfluke": 14675,
    "Ġhealthful": 24063,
    "Ġbehavioral": 11397,
    "Ġcomplying": 18585,
    ")(": 2982,
    "Ġladen": 19179,
    "Ġelixir": 26556,
    "Ġsnatched": 10472,
    "Ġcordially": 16837,
    "Ġtarget": 2826,
    "),": 1346,
    "ave": 980,
    "bright": 8991,
    "Ġrugged": 18721,
    "march": 13757,
    "Ġwaggish": 25435,
    "Ġmoby": 3666,
    "Ġnuptial": 25783,
    "Ġaw": 2507,
    "idation": 5022,
    "Ġterm": 2267,
    "Ġplanned": 14754,
    "hook": 12056,
    "Ġsheer": 14152,
    "Ġmisfortunes": 7043,
    "Ġblackness": 9395,
    "antingly": 22103,
    "Ġclaims": 13375,
    "Ġrising": 4356,
    "Ġcomfits": 21852,
    "Ġplains": 14624,
    "muring": 17602,
    "Ġberry": 19749,
    "Ġghastly": 10062,
    "Ġsperma": 19050,
    "Ġdescend": 7427,
    "sufferable": 12180,
    "slouched": 24556,
    "Ġget": 1620,
    "Ġsimilarity": 3167,
    "Ġdirecting": 16303,
    "Ġpenn": 11112,
    "Ġchar": 1706,
    "Ġholder": 6726,
    "Ġsant": 21217,
    "Ġtasted": 12533,
    "Ġraven": 16119,
    "Ġrecumbent": 22741,
    "isive": 10794,
    "Ġyonder": 7392,
    "Ġquivers": 22418,
    "Ġrecommending": 24332,
    "Ġaffections": 10386,
    "Ġflame": 7448,
    "Ġsuppress": 13023,
    "Ġhollows": 19744,
    "Ġlombardy": 26464,
    "Ġplayfully": 19241,
    "Ġsteals": 23089,
    "Ġrudimental": 25111,
    "Ġweaken": 21926,
    "pertaining": 22184,
    "Ġelbow": 12926,
    "Ġric": 18210,
    "_),": 7127,
    "characteristic": 24686,
    "pt": 387,
    "owl": 12688,
    "Ġbehaviors": 13257,
    "ands": 21871,
    "amped": 12036,
    "Ġgould": 17992,
    "pon": 17626,
    "Ġconsume": 12962,
    "Ġbegged": 8232,
    "interchange": 23740,
    "Ġcous": 3438,
    "untering": 15780,
    "Ġcomplexion": 8210,
    "existence": 16018,
    "bride": 19202,
    "Ġsiber": 17756,
    "Ġunjustifiable": 25112,
    "Ġbetween": 790,
    "uer": 21103,
    "Ġvines": 12756,
    "Ġprem": 3427,
    "Ġcocoa": 25483,
    "gainst": 25144,
    "Ġoutrageous": 20613,
    "duchess": 18459,
    "Ġbelly": 10371,
    "Ġbuttoning": 17237,
    "Ġbegg": 16255,
    "Ġeye": 2281,
    "Ġdiana": 21440,
    "extensive": 18708,
    "forward": 2190,
    "uff": 2732,
    "Ġceased": 6469,
    "engines": 18930,
    "interrupted": 11418,
    "wond": 8772,
    "Ġnugent": 26458,
    "intolerable": 22942,
    "escaped": 14231,
    "inuating": 16206,
    "real": 10151,
    "chie": 21694,
    "Ġhoriz": 4726,
    "aph": 10955,
    "gang": 17554,
    "mystic": 25317,
    "Ġfundamentals": 14636,
    "se": 357,
    "ellect": 7381,
    "storied": 18027,
    "Ġfert": 15586,
    "awful": 23121,
    "entiful": 10837,
    "iv": 432,
    "pleasing": 14744,
    "bat": 8073,
    "oll": 5456,
    "Ô": 149,
    "Ġarch": 936,
    "Ġtrunk": 7205,
    "Ġaim": 10147,
    "Ġorgans": 15869,
    "Ġearnestness": 12129,
    "Ġacknowledgment": 16958,
    "quered": 11056,
    "Ġcakes": 13886,
    "kinson": 10028,
    "ď": 208,
    "too": 4509,
    "Ġeffemin": 18563,
    "Ġcrescent": 16140,
    "yonder": 21147,
    "tomb": 21096,
    "her": 490,
    "billiard": 25335,
    "Ġsoothingly": 25050,
    "Ġprogen": 14041,
    "Ġmaximizing": 3169,
    "Ġfury": 7664,
    "Ġanalyze": 1635,
    "Ġdepends": 1119,
    "holder": 13285,
    "Ġthrice": 10577,
    "Ġmerits": 13198,
    "Ġlocal": 1201,
    "Ġspong": 15885,
    "Ġplumage": 17300,
    "science": 11912,
    "shadows": 25480,
    "Ġexempl": 21836,
    "ect": 381,
    "Ġwounded": 8661,
    "Ġ70": 11277,
    "Ġexcellent": 4239,
    "Ġbrick": 8928,
    "nment": 20992,
    "whaling": 7901,
    "Ġandrew": 21511,
    "Ġestate": 6318,
    "Ġrestoration": 19028,
    "abriel": 6950,
    "Ġmat": 1151,
    "athom": 12944,
    "err": 1145,
    "Ġdistances": 22508,
    "ã": 164,
    "Ġlime": 13950,
    "Ġtuesday": 9628,
    "Ġr": 404,
    "haps": 1674,
    "Ġdistinguished": 8274,
    "currents": 23847,
    "Ġyields": 19659,
    "Ġpatentee": 25587,
    "alth": 3254,
    "Ġ120": 16859,
    "ess": 411,
    "Ġforeseen": 16442,
    "Ġming": 9647,
    "Ġbob": 22641,
    "grampus": 18619,
    "borean": 25744,
    "Ġjav": 7904,
    "Ġhorsham": 10407,
    "Ġeffaced": 18561,
    "Ġbumps": 21395,
    "Ġperception": 9752,
    "larking": 17595,
    "Ġathirst": 20601,
    "residual": 19264,
    "Ġfinest": 10394,
    "alogies": 25162,
    "guest": 19485,
    "Ġvol": 4192,
    "Ġtones": 8402,
    "because": 4924,
    "hidden": 17373,
    "Ġexception": 11217,
    "weaving": 18667,
    "jammed": 25907,
    "Ġthis": 382,
    "Ġbethinking": 25280,
    "Ġcatches": 23429,
    "pening": 2836,
    "Ġassuring": 13067,
    "nett": 16224,
    "azing": 7706,
    "ezing": 10575,
    "Ġvolley": 24147,
    "Ġheadstrong": 14390,
    "Ġthird": 4189,
    "Ġvisual": 5741,
    "isbury": 21380,
    "Ġmuscle": 14690,
    "Ġambiguous": 20167,
    "arity": 1301,
    "ivance": 22083,
    "ption": 7398,
    "adjust": 21764,
    "Ġbrooded": 23110,
    "Ġsmelt": 16069,
    "Ġsexes": 25172,
    "Ġgestic": 21612,
    "piling": 15418,
    "ü": 189,
    "inside": 23070,
    "iving": 1727,
    "Ġworship": 10368,
    "Ġbubblingly": 25633,
    "Ġtravels": 11930,
    "Ġrio": 23894,
    "Ġsorry": 4212,
    "Ġreverend": 15262,
    "outward": 22165,
    "Ġexamining": 8007,
    "Ġascent": 19621,
    "speech": 10668,
    "Ġoblivion": 26032,
    "Ġconvulsively": 25716,
    "Ġcontinents": 16850,
    "ĕ": 214,
    "racted": 4776,
    "lested": 14885,
    "iceland": 21570,
    "liest": 6296,
    "ister": 1293,
    "draught": 12094,
    "Ġmuseum": 15274,
    "Ġenchant": 7185,
    "89": 20761,
    "ability": 715,
    "Ġsadly": 7302,
    "Ġsap": 18324,
    "Ġgracechurch": 12202,
    "taken": 7561,
    "Ġbirch": 26175,
    "Ġaston": 3702,
    "Ġregarding": 13212,
    "Ġfrank": 4421,
    "Ġshelves": 14999,
    "Ġlinguistic": 12428,
    "Ġjollity": 25567,
    "maybe": 23994,
    "bulwarks": 12276,
    "Ġarising": 10934,
    "Ġmortifying": 13248,
    "agues": 8162,
    "Ġengaging": 9338,
    "Ġbrave": 6331,
    "Ġunnaturally": 24871,
    "Ġcherished": 10592,
    "ospel": 17011,
    "bid": 5610,
    "ulation": 5458,
    "ited": 1752,
    "Ġpossibly": 4515,
    "Ġglist": 9346,
    "Ġblanket": 8344,
    "itations": 17819,
    "Ġcomp": 722,
    "snapping": 24850,
    "Ġbelie": 14408,
    "Ġrecourse": 22740,
    "Ġdetained": 18373,
    "Ġfa": 4820,
    "mme": 22505,
    "Ġsweetest": 13250,
    "Ġbible": 9321,
    "Ġrefreshed": 15293,
    "Ġdevoting": 22721,
    "Ġomen": 11578,
    "Ġhasty": 10478,
    "Ġfrigates": 25707,
    "aming": 5829,
    "Ġminimize": 7052,
    "Ġano": 11598,
    "Ġhis": 380,
    "Ñ": 146,
    "Ġtren": 17722,
    "Ġunw": 7005,
    "Ġstam": 18068,
    "Ġdank": 21432,
    "ered": 1687,
    "Ġcler": 11773,
    "Ġhired": 10179,
    "innacle": 7520,
    "Ġtenth": 13828,
    "Ġseemed": 1278,
    "ccas": 15889,
    "Ġthrowing": 6337,
    "uling": 2257,
    "ex": 622,
    "Ġinhabitant": 19758,
    "Ġvarying": 15814,
    "olds": 9313,
    "anch": 15564,
    "Ġoutsk": 15960,
    "Ġvigilant": 20187,
    "Ġnor": 1552,
    "Ġfatally": 19397,
    "box": 5749,
    "Ġelevated": 7318,
    "Ġprecipitate": 19945,
    ")âĢĶâĢľ": 20745,
    "loose": 11807,
    "Ġwash": 9705,
    "rd": 17650,
    "Ġembarkation": 25125,
    "Ġguise": 14434,
    "temper": 10006,
    "arer": 3967,
    "Ġspinning": 15054,
    "illation": 14143,
    "Ġcircle": 4977,
    "Ġmanned": 9272,
    "Ġrevelations": 25224,
    "distrust": 19573,
    "hope": 5992,
    "aisance": 15077,
    "Ġdilated": 24703,
    "ather": 741,
    "dinner": 11407,
    "Ġpassive": 22845,
    "Ġat": 395,
    "strike": 14951,
    "Ġphaeton": 17466,
    "ild": 1158,
    "Ġpel": 17906,
    "Ġmosses": 20166,
    "clopÃ¦dia": 15259,
    "departed": 24793,
    "weary": 22690,
    "Ġashamed": 6404,
    "hee": 10761,
    "ady": 996,
    "pro": 2051,
    "ville": 6089,
    "Ġultimate": 12352,
    "Ġdated": 10939,
    "amused": 21864,
    "Ġtal": 7565,
    "idirectional": 2420,
    "haired": 14768,
    "ippers": 17577,
    "Ġsimilitude": 19212,
    "clothes": 9059,
    "Ġhelper": 24030,
    "Ġmaiden": 13388,
    "comprehensive": 20629,
    "rised": 10125,
    "Ġdraughts": 20224,
    "Ġobtaining": 16136,
    "uttered": 8443,
    "Ġgospel": 18003,
    "Ġmultiplication": 2875,
    "Ġhereafter": 9332,
    "Ġsells": 21226,
    "ement": 1502,
    "Ġurging": 24501,
    "protected": 19923,
    "Ġaskance": 23154,
    "Ġnarrated": 14873,
    "Ġraise": 6168,
    "Ġsomnambul": 26577,
    "Ġintrepidity": 25551,
    "pered": 4200,
    "Ġdisconcerted": 18560,
    "Ġwedded": 15539,
    "Ġcanall": 10929,
    "splice": 17172,
    "Ġafternoon": 6055,
[...]
