{
  "metadata": {
    "vocab_size": 26616,
    "algorithm": "BPE",
    "created_at": "2026-07-30 04:57:22",
    "special_tokens": [
      "<PAD>",
      "<SOS>",
      "<EOS>",
      "<UNK>",
      "<MASK>"
    ]
  },
  "vocab": {
    "functions": 11248,
    "sighted": 19788,
    "Ġdeceitfulness": 25734,
    "spe": 3562,
    "Ġpronounced": 8351,
    "Ġfinally": 4668,
    "connected": 1310,
    "flu": 9120,
    "Ġconsistence": 23359,
    "Ġroyalty": 19739,
    "Ġreside": 22543,
    "Ġinmost": 17933,
    "riage": 2124,
    "Ġunguarded": 15854,
    ".]": 15302,
    "Ġreceives": 20357,
    "Ġbandages": 24427,
    "Ġthough": 991,
    "Ġupbraiding": 26228,
    "Ġgasping": 17039,
    "Ġkeenly": 9488,
    "Ġunfathomable": 20551,
    "Ġintric": 9249,
    "Ġprogra": 1144,
    "Ġploughing": 26261,
    "Ġexhibition": 14960,
    "solution": 14688,
    "communication": 25881,
    "absurd": 21799,
    "Ġlakes": 8131,
    "Ġclout": 22347,
    "Ġenh": 3095,
    "Ġeddying": 17119,
    "Ġintroduce": 3206,
    "Ġforbidden": 17079,
    "scale": 3536,
    "Ġsled": 21221,
    "exercise": 17462,
    "ryphon": 4162,
    "Ġsteersman": 13046,
    "Ġimagine": 3924,
    "Ġmount": 7362,
    "ulence": 15770,
    "Ġantilles": 24182,
    "Ġprejud": 6851,
    "Ġcasc": 15560,
    "Ġerskine": 17435,
    "Ġgpt": 4350,
    "Ġprincipal": 6497,
    "Ġelix": 22645,
    "Ġhurts": 19113,
    "Ġsubsisted": 19119,
    "Ġparaphrasing": 26528,
    "dam": 7798,
    "Ġliking": 23593,
    "Ġgallantry": 15107,
    "strange": 6087,
    "ppa": 10242,
    "Ġpoisoned": 24887,
    "wail": 21128,
    "Ġlearning": 386,
    "Ġrejoinder": 24598,
    "Ġsetbacks": 11065,
    "Ġassailed": 23181,
    "Ġacquainted": 5179,
    "!": 5,
    "wait": 11322,
    "Ġmelted": 19624,
    "specific": 10500,
    "ieves": 4006,
    "÷": 184,
    "bler": 11474,
    "Ġcetacea": 20556,
    "Ġcomplex": 744,
    "headers": 23113,
    "Ġstriding": 16093,
    "Ġfireside": 23534,
    "Ġquest": 2003,
    "sister": 5139,
    "Ġimport": 1032,
    "Ġexclaim": 11223,
    "grin": 19107,
    "Ġchowders": 18386,
    "witness": 10038,
    "mightily": 24106,
    "shine": 9292,
    "trifling": 19417,
    "Ġwinchester": 10069,
    "Ġdrought": 19280,
    "Ġconsid": 1814,
    "Ġunpardonable": 22066,
    "Ġshri": 5375,
    "iterranean": 15554,
    "Ġouthouse": 22318,
    "Ġpretext": 22233,
    "Ġslung": 23172,
    "Ġforts": 21776,
    "Ġfrighted": 24032,
    "Ġwould": 650,
    "Ġchristmas": 6924,
    "Ġcrescent": 16140,
    "question": 5418,
    "fedallah": 25523,
    "ove": 1743,
    "dishon": 20407,
    "Ġreligions": 20111,
    "Ġrabbit": 4288,
    "enough": 6810,
    "Ġdiscernment": 15072,
    "âĢĶâĢĺ": 7015,
    "Ġpawn": 12067,
    "sense": 11526,
    "Ġvisual": 5741,
    "bern": 20777,
    "accepting": 20138,
    "endure": 22219,
    "Ġnecess": 3477,
    "Ġgranting": 18738,
    "creation": 14809,
    "Ġloitering": 22120,
    "ahit": 9385,
    "Ġfolk": 10378,
    "strained": 21661,
    "concern": 6101,
    "Ġworaciousness": 22932,
    "aug": 1212,
    "Ġundertaken": 18986,
    "wr": 3025,
    "Ġlirra": 21563,
    "Ġarticulated": 24433,
    "Ġfeared": 5932,
    "Ġhavoc": 15817,
    "stalk": 21653,
    "arabian": 26448,
    "erne": 21272,
    "Ġrates": 1405,
    "Ġubiquitous": 26197,
    "Ġinvited": 6903,
    "Ġpig": 5705,
    "Ġgradually": 3401,
    "Ġextremity": 8991,
    "Ġhertfordshire": 5377,
    "he": 264,
    "Ġdesirous": 8945,
    "Ġsomebody": 7912,
    "Ġglacier": 11435,
    "Ġmeasureless": 14713,
    "Ġshrinking": 14808,
    "ics": 3256,
    "alterable": 13627,
    "mira": 20981,
    "Ġanguish": 5583,
    "Ġbandaged": 16844,
    "Ġbillows": 7502,
    "Ġpedro": 15066,
    "Ġanyone": 4458,
    "Ġsemicircle": 26068,
    "ineff": 21991,
    "Ġstruggle": 3676,
    "dearest": 11738,
    "Ġdistributing": 22682,
    "Ġall": 422,
    "thinks": 16644,
    "Ġjohnson": 18410,
    "Ġcarn": 17823,
    "mediate": 16516,
    "Ġdollar": 25284,
    "Ġrepresenting": 4060,
    "Ġbales": 21392,
    "Ġinventing": 24862,
    "susp": 10599,
    "petulance": 24301,
    "Ġgrandfather": 19425,
    "arranging": 19320,
    "Ġflickering": 23017,
    "Ġcour": 1767,
    "Ġresearch": 3287,
    "Ġunerringly": 18266,
    "Ġslightly": 7293,
    "plentiful": 21966,
    "Ġkingdom": 12023,
    "Ġoy": 15550,
    "belongs": 25597,
    "Ġtedious": 15271,
    "Ġsakes": 18327,
    "brad": 20782,
    "eth": 613,
    "digger": 24312,
    "thoroughly": 26509,
    "Ġpulse": 13118,
    "Ġenig": 15803,
    "frau": 15093,
    "Ġforgive": 8010,
    "Ġteasing": 11895,
    "Ġcreeping": 18683,
    "Ġword": 1057,
    "Ġscores": 2714,
    "Ġcalls": 6746,
    "oc": 2832,
    "Ġraging": 14312,
    "Ġgardener": 19136,
    "geneva": 13733,
    "Ġwashing": 9708,
    "Ġengaged": 3429,
    "Ġfra": 1781,
    "Ġinspector": 6499,
    "Ġrocked": 12862,
    "Ġpursue": 6316,
    "Ġbounded": 16629,
    "deployment": 26529,
    "Ġenchanting": 17040,
    "alo": 7588,
    "Ġperturbation": 20444,
    "Ġsubdiv": 16163,
    "Ġsequ": 981,
    "fort": 1748,
    "atever": 3077,
    "Ġattacking": 24465,
    "Ġmechanisms": 1577,
    "Ġfarthing": 14457,
    "shaw": 6864,
    "Ġbulkington": 14679,
    "Ġsubmission": 22793,
    "Ġpupella": 20425,
    "lamps": 25261,
    "ken": 2800,
    "slept": 17172,
    "cont": 2918,
    "Ġwarning": 9061,
    "unc": 15773,
    "Ġaddress": 2271,
    "whe": 1076,
    "Ġcatastrophic": 3544,
    "tackle": 17324,
    "sometimes": 5973,
    "ows": 1918,
    "uarded": 21108,
    "Ġcaus": 1720,
    "Ġplant": 8903,
    "Ġunlo": 22016,
    "soft": 12514,
    "Ġtr": 559,
    "Ġfears": 5729,
    "returned": 7766,
    "Ġchewed": 16373,
    "kye": 20940,
    "ifference": 5632,
    "tend": 17676,
    "behaved": 24463,
    "Ġcharted": 22254,
    "Ġdundee": 16999,
    "Ġsum": 2699,
    "Ġimpetuous": 25571,
    "Ġsou": 1887,
    "Ġaven": 10761,
    "Ġobed": 8538,
    "hearts": 13348,
    "furthest": 19844,
    "Ġlengths": 19208,
    "disposed": 25013,
    "Ġatone": 15806,
    "page": 13774,
    "shriek": 20523,
    "entiful": 10838,
    "particulars": 11317,
    "Ġdawned": 14997,
    "urable": 8926,
    "landlord": 9843,
    "Ġinches": 5846,
    "sullenly": 26150,
    "Ġpetty": 19598,
    "inex": 14101,
    "Ġdoubled": 19640,
    "retched": 3066,
    "Ġrespons": 2684,
    "orrowed": 19292,
    "Ġrigger": 19533,
    "mockery": 24378,
    "Ġcath": 17828,
    "Ġconsulted": 13433,
    "Ġgrop": 12670,
    "Ġexal": 10883,
    "witted": 17709,
    "recollect": 17226,
    "Ġcrotch": 9966,
    "Ġoutbreak": 22321,
    "Ġpractice": 2707,
    "Ġjacob": 1899,
    "distant": 13338,
    "izarre": 17392,
    "Ġruled": 22789,
    "Ġmr": 660,
    "Ġtwentieth": 18660,
    "ique": 8746,
    "Ġphrases": 2796,
    "isles": 15568,
    "poled": 22910,
    "itiousness": 21337,
    "warks": 5004,
    "Ġstingy": 25456,
    "Ġcub": 8415,
    "Ġgl": 1255,
    "Ġrepetition": 8975,
    "cous": 8725,
    "Ġlivers": 18462,
    "Ġrags": 18647,
    "grasp": 16433,
    "herald": 22209,
    "Ġchr": 3689,
    "Ġwarnings": 16883,
    "ets": 1160,
    "Ġawe": 7148,
    "Ġchatbots": 11351,
    "iloqu": 11651,
    "Ġneuron": 1809,
    "icult": 3340,
    "Ġrelied": 16198,
    "Ġref": 920,
    "Ġintu": 12769,
    ",âĢĶ": 3172,
    "Ġpleadings": 25854,
    "yourself": 6744,
    "Ġdisplays": 19859,
    "towns": 24855,
    "Ġhardships": 14454,
    "sign": 8388,
    "Ġprender": 22239,
    "spoke": 11025,
    "pleasure": 5979,
    "Ġcasement": 25095,
    "aled": 3944,
    "arpo": 1754,
    "adagrad": 9694,
    "atics": 15526,
    "Ġconveyed": 8335,
    "Ġargue": 16785,
    "Ġcleat": 18949,
    "Ġbast": 21382,
    "Ġbrigandish": 25488,
    "consolation": 15156,
    "Ġextinguish": 14344,
    "norm": 20987,
    "Ġtestimony": 14471,
    "impud": 23762,
    "Ġstupendous": 20504,
    "inese": 12889,
    "Ġlargely": 14288,
    "owers": 12690,
    "Ġdoubling": 23324,
    "Ġhauling": 14090,
    "msgate": 18416,
    "irksome": 18175,
    "Ġtrem": 6662,
    "ush": 3634,
    "obli": 23099,
    "happiness": 6470,
    "Ġbelong": 3887,
    "Ġcircumstances": 3926,
    "Ġbur": 2697,
    "Ġwol": 15533,
    "acet": 5476,
    "Ġunlike": 7006,
    "orand": 21400,
    "escaped": 14233,
    "Ġtattered": 21174,
    "include": 23591,
    "Ġuser": 15925,
    "aws": 8237,
    "Ġalex": 15137,
    "ip": 555,
    "Ġhungry": 10535,
    "george": 26020,
    "Ġauthent": 14512,
    "ö": 183,
    "Ġprediction": 2228,
    "Ġhousemaid": 14468,
    "Ġattempting": 14699,
    "Ġgazing": 5877,
    "ceased": 21629,
    "partly": 14604,
    "Ġhood": 10825,
    "°": 113,
    "Ġdick": 3498,
    "Ġserious": 4322,
    "dis": 2252,
    "Ġgrenadier": 21619,
    "Ġtows": 19565,
    "fering": 17544,
    "Ġdived": 9180,
    "ogr": 18669,
    "henomena": 20275,
    "Ġsweetest": 13250,
    "Ġdissembling": 26256,
    "this": 1439,
    "Ġoutdone": 22322,
    "ipping": 2206,
    "poles": 16212,
    "Ġbestow": 6456,
    "match": 15394,
    "contain": 18501,
    "Ġplantation": 11425,
    "Ġshel": 6847,
    "Ġlye": 21554,
    "jonah": 11499,
    "Ġjustice": 5111,
    "field": 3069,
    "Ġpaddled": 20204,
    "Ġheadlong": 11892,
    "Ġkeels": 11063,
    "mouthful": 25209,
    "ivance": 22082,
    "Ġrecompense": 14841,
    "'": 11,
    "Ġwharf": 9562,
    "Ġdetest": 8504,
    "Ġgeneralize": 3100,
    "shadows": 25480,
    "oused": 6558,
    "Ġpots": 9431,
    "plague": 21963,
    "Ġscenes": 5730,
    "Ġrecollected": 8311,
    "Ġdiffident": 23785,
    "resembling": 25933,
    "Ġce": 3028,
    "augh": 1784,
    "extra": 8219,
    "oura": 1064,
    "atically": 2434,
    "Ġmiz": 10779,
    "ippi": 20247,
    "riv": 3110,
    "eldom": 4413,
    "Ġwide": 4108,
    "Ġparac": 12801,
    "idate": 21771,
    "Ġcompress": 21853,
    "doing": 8588,
    "yramid": 8368,
    "Ġgoodly": 22825,
    "Ġprosecution": 12385,
    "lanterns": 17432,
    "hammock": 16357,
    "Ġacknowledges": 24689,
    "Ġparametric": 2394,
    "Ġobliter": 14325,
    "Ġsituation": 4071,
    "Ġpredicts": 2594,
    "Ġsteak": 9832,
    "Ġstooping": 13066,
    "Ġappet": 9734,
    "ckinridge": 11723,
    "Ġterms": 2563,
    "emic": 18182,
    "Ġwidely": 8033,
    "Ġdeclaring": 19423,
    "beneath": 9538,
    "form": 500,
    "Ġalders": 21788,
    "furniture": 20245,
    "beyond": 8886,
    "Ġmccauley": 26429,
    "Ġshaping": 22009,
    "Ġsame": 1342,
    "ension": 6571,
    "Ġunworth": 22040,
    "Ġpossessing": 16578,
    "Ġkidnapping": 26358,
    "Ġcoolly": 9775,
    "Ġcheery": 16371,
    "Ġarticle": 9505,
    "Ġheavily": 6742,
    "Ġbefall": 8833,
    "Ġfounded": 8561,
    "Ġresearches": 13135,
    "sw": 4742,
    "Ġvanish": 8931,
    "Ġinto": 647,
    "Ġsprang": 5064,
    "Ġqu": 605,
    "Ġjet": 5309,
    "Ġdefray": 22944,
    "forgot": 11035,
    "coil": 23561,
    "Ġther": 17780,
    "Ġhot": 4256,
    "alluring": 18353,
    "Ġcows": 15557,
    "Ġlooking": 2473,
    "arthur": 14833,
    "urons": 3131,
    "Ġusage": 9733,
    "Ġape": 21199,
    "Ġbachelor": 7787,
    "Ġpatentee": 25587,
    "Ġmany": 1107,
    "Ġimproves": 22736,
    "gence": 877,
    "Ġhatred": 8612,
    "dying": 15344,
    "falling": 24361,
    "Ġsunny": 13089,
    "Ġimperson": 14220,
    "contains": 16035,
    "Ġpurring": 23477,
    "olog": 1051,
    "honorable": 19903,
    "reen": 21234,
    "around": 12614,
    "latitudes": 17199,
    "Ġsoutherly": 23338,
    "Ġrelieved": 7666,
    "archical": 1926,
    "Ġdau": 21428,
    "Ġnap": 8813,
    "Ġwhaleman": 4656,
    "Ġsurvive": 9069,
    "Ġthickness": 13280,
    "Ġjustine": 4970,
    "Ġgod": 1936,
    "Ġtuileries": 24824,
    "iling": 3091,
    "teeth": 10357,
    "class": 4095,
    "awful": 23119,
    "unwilling": 14064,
    "readily": 19365,
    "lins": 2028,
    "##": 2316,
    "Ġdiverse": 19212,
    "Ġreusable": 13560,
    "Ġincidents": 9302,
    "iliary": 21730,
    "Ġnursed": 16887,
    "kily": 20939,
    "Ġpretension": 23766,
    "isely": 4489,
    "eff": 2535,
    "Ġdid": 836,
    "Ġfulfil": 9554,
    "Ġ47": 14775,
    "Ġshame": 6411,
    "housekeeping": 24105,
    "Ġrichest": 26213,
    "erringly": 16214,
    "Ġfloated": 7288,
    "Ġsupposed": 4559,
    "usiveness": 22297,
    "leaving": 10793,
    "custom": 15336,
    "µ": 118,
    "cloud": 11107,
    "Ġlanyard": 26463,
    "Ġwhoever": 10977,
    "Ġantagon": 19553,
    "irst": 879,
    "Ġhermit": 15861,
    "Ġequival": 4784,
    "Ġflashing": 13032,
    "Ġfootpaths": 26319,
    "Ġ179": 19757,
    "Ġdut": 2984,
    "Ġhorsham": 10408,
    "Ġsymmetry": 20369,
    "Ġenraptured": 26502,
    "Ġfiercely": 12957,
    "story": 9215,
    "Ġperchance": 15995,
    "Ġenhancement": 23804,
    "anges": 1674,
    "inities": 21188,
    "Ġaverse": 11082,
    "Ġresign": 18565,
    "Ġgrind": 18736,
    "Ġpettic": 14844,
    "Ġscarce": 8625,
    "Ġfavoured": 16364,
    "Ġcommunicate": 10580,
    "Ġanim": 2113,
    "Ġpaces": 13922,
    "Ġwouldn": 6047,
    "auley": 22624,
    "Ġcass": 13882,
    "Ġenormity": 19698,
    "Ġunconcern": 14120,
    "Ġgather": 6536,
    "Ġapplies": 11963,
    "dressed": 10697,
    "Ġsurpr": 2550,
    "ilated": 18060,
    "Ġgun": 4703,
    "closed": 23158,
    "Ġdetect": 1262,
    "piteous": 21036,
    "Ġloggerhead": 13660,
    "ellest": 21577,
    "Ġindifference": 6727,
    "Ġecl": 18008,
    "Ġderivative": 2995,
    "ihood": 20924,
    "Ġnearing": 15802,
    "Ġejaculated": 15173,
    "Ġboarding": 12091,
    "ounders": 22398,
    "breaking": 14768,
    "Ġsashes": 21228,
    "Ġencourages": 2062,
    "unwittingly": 25802,
    "Ġripp": 11221,
    "Ġsummoned": 9914,
    "ions": 448,
    "Ġabsolute": 6766,
    "Ġbeer": 10222,
    "remarked": 12292,
    "Ġstoper": 14466,
    "Ġjourneying": 25566,
    "thouse": 21983,
    "Ġhint": 5016,
    "inous": 8776,
    "Ġswelled": 11089,
    "atiously": 15525,
    "gunwale": 20665,
    "Ġmedd": 15543,
    "Ġpierce": 17037,
    "calabash": 22896,
    "Ġpause": 5707,
    "iot": 9603,
    "Ġmonomania": 17086,
    "covenant": 23564,
    "rimsh": 17029,
    "Ġfond": 4756,
    "Ġdownright": 16122,
    "Ġrelevance": 5184,
    "Ġearthly": 7990,
    "antage": 3880,
    "irts": 9241,
    "Ġbuoyancy": 20045,
    "Ġstrung": 22614,
    "Ġports": 10820,
    "Ġchapter": 2952,
    "ø": 185,
    "chanced": 18811,
    "Ġfinanc": 23132,
    "tling": 9145,
    "porary": 14552,
    "Ġserenity": 10031,
    "desolate": 25717,
    "Ġconvergence": 973,
    "Ġexulting": 20261,
    "terrific": 25043,
    "âĢĿ--": 21820,
    "ourselves": 9014,
    "Ġharder": 14452,
    "rese": 15511,
    "1775": 26380,
    "Ġadopt": 10634,
    "dark": 5614,
    "Ġlobes": 22119,
    "Ġsublime": 8066,
    "Ġaffectionate": 5585,
    "deprived": 19900,
    "Ġdrowned": 9555,
    "Ġdisappointing": 19582,
    "Ġsnoo": 21231,
    "Ġprognost": 15285,
    "Ġmundane": 26431,
    "Ġautumnal": 19038,
    "Ġbearing": 5300,
    "Ġmassac": 14739,
    "comrade": 18740,
    "uity": 12522,
    "Ġwardrobe": 17228,
    "fooled": 24419,
    "Ġdistributions": 1055,
    "Ġsupervised": 3003,
    "Ġsincerity": 13682,
    "blind": 16704,
    "ctive": 11626,
    "Ġcrimes": 8591,
    "aust": 15313,
    "prepared": 13593,
    "ks": 3145,
    "Ġdifferently": 10392,
    "ays": 6685,
    "Ġkink": 22197,
    "Ġunmanner": 22033,
    "Ġdressing": 7092,
    "Ġopposite": 5120,
    "probable": 17023,
    "attery": 18507,
    "aped": 3764,
    "Ġrifled": 21980,
    "bur": 4688,
    "Ġpatron": 7462,
    "Ġemployments": 12107,
    "luc": 9755,
    "grass": 23415,
    "Ġselect": 3999,
    "abetical": 15747,
    "Ġsun": 1716,
    "astron": 22173,
    "prudently": 21037,
    "Ġstormy": 16730,
    "Ġraise": 6168,
    "Ġschemes": 11133,
    "Ġhurled": 10431,
    "Ġped": 7845,
    "aned": 5147,
    "Ġjovial": 19236,
    "ishments": 9276,
    "Ġhier": 1894,
    "pause": 12505,
    "deadly": 17101,
    "Ġsepar": 4000,
    "Ġimm": 3965,
    "Ġsheath": 14154,
    "Ġidea": 2488,
    "ĠâĢĺ_": 11118,
    "Ġincreasing": 8248,
    "Ġcomply": 8894,
    "Ġdish": 6138,
    "enchanted": 26426,
    "Ġbroadway": 23987,
    "Ġobeyed": 12221,
    "recurrent": 4994,
    "Ġfiddle": 25445,
    "Ġnoiseless": 10360,
    "roads": 17960,
    "Ġsuggestive": 11299,
    "Ġamend": 16038,
    "Ġinscribed": 24941,
    "erting": 17779,
    "Ġcolonial": 22863,
    "calculation": 25689,
    "libra": 22928,
    "Ġducks": 25161,
    "Ġconquered": 14029,
    "Ġcol": 1069,
    "ph": 939,
    "Ġcore": 13881,
    "Ġeth": 17718,
    "cadence": 26126,
    "reception": 15517,
    "featured": 24073,
    "Ġblazing": 11900,
    "Ġdiscompose": 25580,
    "ourney": 3555,
    "allowance": 16826,
    "broker": 13308,
    "Ġsitting": 3607,
    "Ġcurios": 18848,
    "Ġmask": 1866,
    "Ġparasol": 22125,
    "Ġhand": 857,
    "oder": 2459,
    "swell": 17665,
    "Ġaround": 3613,
    "Ġbusied": 19066,
    "Ġconting": 18473,
    "Ġlighten": 23262,
    "Ġanonymous": 26179,
    "beef": 18524,
    "Ġoverthrow": 18431,
    "sixteen": 24854,
    "quin": 21857,
    "Ġsod": 11564,
    "Ġprove": 5231,
    "Ġdupl": 9957,
    "Ġacceptable": 16746,
    "ascertaining": 26462,
    "Ġesq": 15112,
    "stretched": 10210,
    "Ġfing": 3757,
    "Ġted": 13815,
    "subjects": 19878,
    "tstone": 21087,
    "fered": 5560,
    "Ġindians": 14412,
    "Ġuntoward": 19167,
    "Ġwrenched": 12563,
    "Ġkirwin": 8499,
    "iem": 20919,
    "Ġdistributed": 18662,
    "remark": 7261,
    "Ġtug": 11553,
    "convul": 24884,
    "ct": 309,
    "ithmetic": 18064,
    "Ġun": 423,
    "Ġimbib": 22179,
    "Ġacquitted": 18899,
    "Ġsanity": 24982,
    "Ġangle": 8606,
    "many": 5250,
    "Ġexhaled": 19685,
    "hatch": 15368,
    "Ġderivatives": 2369,
    "Ġfacility": 19852,
    "ader": 14015,
    "Ġgenerates": 3665,
    "Ġmodest": 15918,
    "Ġ104": 24412,
    "Ġmine": 3181,
    "Ġcate": 4109,
    "Ġhes": 6252,
    "Ġshall": 1142,
    "plunging": 25988,
    "Ġcommonplaces": 16292,
    "wicked": 24449,
    "Ġpan": 5082,
    "Ġpurp": 2391,
    "Ġvapor": 8703,
    "stochastic": 3773,
    "aye": 3661,
    "including": 23592,
    "Ġmembrane": 20507,
    "char": 3504,
    "Ġunforeseen": 22057,
    "Ġacting": 10993,
    "isive": 10795,
    "Ġintegration": 9871,
    "Ġsheaves": 22162,
    "northern": 23669,
    "Ġfrontispiece": 23917,
    "street": 6496,
    "Ġappertaining": 26535,
    "Ġrecent": 7436,
    "Ġdispersed": 16599,
    "Ġact": 689,
    "Ġoffice": 4965,
    "Ġdrink": 4788,
    "Ġislands": 6767,
    "happ": 3105,
    "Ġblankets": 24612,
    "Ġpossibly": 4515,
    "Ġhazard": 20435,
    "Ġveritable": 19384,
    "Ġsample": 3180,
    "Ġcalculated": 4474,
    "Ġspitzbergen": 15291,
    "oughed": 22081,
    "promising": 24725,
    "Ġdimension": 3241,
    "âĢĶâĢĺ_": 24832,
    "sutherland": 21065,
    "Ġpasseng": 12976,
    "Ġlakeman": 6987,
    "Ġreigns": 21674,
    "Ġdeliverance": 15161,
    "Ġsuite": 18277,
    "crossed": 16635,
    "Ġburg": 23656,
    "Ġpervading": 20616,
    "Ġain": 6970,
    "grammar": 6436,
    "Ġnarrower": 24354,
    "Ġdimmed": 24270,
    "Ġtrim": 15978,
    "Ġimbecile": 17395,
    "Ġevian": 24294,
    "Ġrobins": 16260,
    "Ġbathing": 20202,
    "Ġturbid": 23613,
    "Ġvalue": 2085,
    "Ġpaddles": 15151,
    "collins": 6916,
    "Ġpelt": 15614,
    "Ġtotal": 4993,
    "Ġhoney": 12638,
    "Ġcontempt": 6277,
    "Ġsouthwards": 19636,
    "rimshander": 20659,
    "Ġcommitted": 7431,
    "variance": 2655,
    "lively": 12489,
    "Ġtraps": 23083,
    "disputed": 23502,
    "hem": 6666,
    "limbs": 20194,
    "Ġessentials": 20006,
    "Ġphysiognomical": 25612,
    "Ġadult": 18290,
    "Ġspinal": 12306,
    "Ġinno": 1447,
    "ist": 449,
    "Ġbreath": 4792,
    "ickory": 22672,
    "Ġtexture": 19162,
    "Ġlines": 4535,
    "Ġrecur": 1618,
    "jah": 17583,
    "acknowledged": 15206,
    "fright": 9598,
    "Ġemir": 23353,
    "Ġcraven": 16471,
    "operation": 13503,
    "Ġreturn": 1708,
    "Ġadoption": 24951,
    "Ġtwos": 18658,
    "generative": 4330,
    "critters": 14779,
    "Ġhappy": 2465,
    "token": 21085,
    "Ġeigenvalues": 4998,
    "Ġmabel": 17327,
    "Ġes": 8773,
    "Ġdistended": 16048,
    ".âĢĶâĢľ": 20749,
    "Ġottoman": 17381,
    "Ġfad": 17878,
    "encies": 4079,
    "Ġdeer": 12723,
    "Ġturtle": 4202,
    "Ġhelper": 24029,
    "Ġavoided": 13262,
    "Ġcoincidences": 26365,
    "oquence": 11388,
    "Ġinquis": 19306,
    "Ġbent": 5149,
    "Ġlaurel": 20656,
    "sculptured": 26047,
    "Ġcompetent": 11820,
    "extracts": 22770,
    "Ġconnect": 796,
    "Ġcleared": 6076,
    "Ġpreference": 9736,
    "Ġanticipation": 17058,
    "stand": 628,
    "ª": 108,
    "Ġconversations": 9428,
    "Ġgull": 15674,
    "Ġwarrior": 24496,
    "Ġhusband": 3622,
    "conv": 7213,
    "Ġjupiter": 17459,
    "official": 24915,
    "exactly": 10639,
    "Ġdiscipline": 26563,
    "clo": 5613,
    "ete": 9206,
    "Ġreadability": 2724,
    "Ġcompelled": 14268,
    "inside": 23068,
    "resses": 16155,
    "Ġabsorbing": 17131,
    "sil": 5283,
    "Ġsubsc": 22792,
    "whose": 6852,
    "Ġhospital": 15042,
    "time": 3146,
    "Ġthroats": 24576,
    "Ġonto": 14032,
    "Ġcryst": 9920,
    "ounds": 4156,
    "Ġclaret": 22354,
    "Ġearned": 19408,
    "rive": 9710,
    "cad": 17507,
    "Ġfancied": 7326,
    "Ġpivot": 13926,
    "aph": 10956,
    "tranquillity": 20549,
    "Ġdisregard": 22532,
    "reproof": 25433,
    "Ġsires": 21229,
    "Ġrefine": 3300,
    "Ġelastic": 4361,
    "ancholy": 5070,
    "Ġscalable": 1522,
    "Ġsubdued": 11032,
    "tom": 15438,
    "onomy": 12552,
    "Ġhedges": 19988,
    "ores": 2413,
    "ean": 20842,
    "trade": 19647,
    "Ġwidower": 24238,
    "Ġstatue": 23153,
    "Ġcongratulated": 19769,
    "Ġruggedness": 26270,
    "Ġwoven": 9929,
    "meat": 18679,
    "Ġgoble": 14232,
    "Ġadvantageously": 19548,
    "Ġmisconduct": 22760,
    "Ġvaulted": 25171,
    "Ġexacted": 23605,
    "87": 20759,
    "Ġlapl": 19780,
    "involved": 25627,
    "Ġleaps": 14011,
    "Ġalarming": 14785,
    "my": 1317,
    "fa": 7336,
    "Ġgushed": 21610,
    "Ġanomaly": 25637,
    "Ġinvolves": 1106,
    "Ġoutputs": 2884,
    "Ġblindly": 12114,
    "kins": 7345,
    "Ġpyth": 21464,
    "parad": 16399,
    "Ġiter": 2949,
    "Ġsultan": 15188,
    "Ġpatiently": 19920,
    "Ġconstitutional": 25128,
    "Ġexcluded": 16388,
    "effect": 8607,
    "Ġsoliloqu": 11889,
    "Ġcrony": 23440,
    "Ġcharacters": 9375,
    "urmountable": 15283,
    "height": 21208,
    "Ġmeagre": 21817,
    "Ġent": 903,
    "Ġstirring": 10582,
    "Ġhills": 6528,
    "Ġvelvet": 12402,
    "Ġpoet": 8209,
    "Ġyou": 366,
    "Ġglory": 6066,
    "Ġindian": 4131,
    "Ġdesert": 6729,
    "Ġgallery": 10527,
    "ird": 2427,
    "acon": 10684,
    "machine": 1026,
    "prosperity": 20737,
    "ash": 1993,
    "unimportant": 18162,
    "Ġmerely": 3770,
    "Ġcorre": 3889,
    "rie": 2786,
    "disgraceful": 26077,
    "ials": 11710,
    "iards": 17576,
    "Ġindolence": 16231,
    "Ġunimportant": 22034,
    "Ġbuttoning": 17238,
    "shazz": 14244,
    "Ġinsane": 19271,
    "Ġgoodge": 22826,
    "Ġscene": 3096,
    "Ġregular": 944,
    "Ġcomplaints": 12269,
    "Ġstark": 7390,
    "hardly": 6492,
    "prit": 19345,
    "Ġtissu": 25921,
    "itudes": 3011,
    "endured": 22221,
    "Ġmerged": 19299,
    "Ġcreatures": 4137,
    "Ġreminded": 10002,
    "Ġbored": 16110,
    "igning": 12686,
    "Ġbeheading": 21758,
    "diligence": 26111,
    "?_âĢĿ": 12320,
    "adier": 18092,
    "Ġglimpse": 6944,
    "Ġneglig": 18879,
    "Ġeddy": 13549,
    "your": 1985,
    "Ġheadache": 22903,
    "unworthy": 18164,
    "Ġuttering": 16463,
    "Ġpossible": 2585,
    "Ġwides": 17790,
    "Ġmoody": 8201,
    "Ġundoubted": 19517,
    "gunpowder": 25340,
    "Ġripple": 25505,
    "Ġlength": 2501,
    "Ġgood": 997,
    "uerus": 26408,
    "Ġbutcher": 18272,
    "rusion": 11325,
    "Ġseemed": 1279,
    "itations": 17819,
    "daughters": 13469,
    "Ġsecured": 6747,
    "Ġbelike": 18831,
    "Ġbespeaking": 26311,
    "Ġsurvivor": 17366,
    "Ġplants": 22604,
    "Ġarrested": 9563,
    "Ġpicture": 4858,
    "newsp": 23138,
    "Ġdevelop": 1620,
    "ellation": 12754,
    "Ġnomin": 10193,
    "Ġroared": 7025,
    "whereby": 23420,
    ");": 7330,
    "goes": 10428,
    "Ġhelmet": 19690,
    "Ġthorough": 6247,
    "harbors": 20151,
    "Ġconfinement": 19041,
    "purposes": 25024,
    "Ġmouthfuls": 20648,
    "mean": 6439,
    "shoals": 24716,
    "ighbour": 3389,
    "Ġgesture": 11401,
    "kward": 6958,
    "hypothe": 25906,
    "Ġconjecture": 9535,
    "Ġsewing": 21958,
    "Ġscept": 15506,
    "Ġdilated": 24703,
    "Ġending": 18924,
    "8": 28,
    "Ġcredited": 25157,
    "Ġtolerable": 6949,
    "Ġwhites": 21711,
    "deceiving": 22147,
    "icked": 10335,
    "shake": 22456,
    "regiment": 16452,
    "din": 8374,
    "Ġrashness": 25461,
    "Ġelapsed": 7653,
    "glance": 16589,
    "Ġenticements": 26035,
    "retaining": 21248,
    "Ġcam": 10164,
    "Ġrifts": 21979,
    "Ġomit": 17817,
    "Ġdiscoverers": 26037,
    "vens": 21115,
    "Ġpersons": 6184,
    "Ġstick": 6027,
    "Ġentrances": 25836,
    "orph": 21402,
    "Ġnumerical": 4244,
    "Ġcensus": 15100,
    "circumamb": 26088,
    "Ġdetermines": 2366,
    "Ġnaked": 8127,
    "Ġcongregated": 20100,
    "circumstantial": 24444,
    "Ġcabin": 3302,
    "gathered": 13735,
    "party": 8995,
    "perfect": 7635,
    "Ġsmothe": 18574,
    "Ġswing": 13040,
    "Ġaffront": 18789,
    "pread": 7418,
    "insurance": 18889,
    "Ġunintermitted": 26221,
    "Ġvancouver": 26567,
    "Ġparish": 8858,
    "Ġengraved": 17082,
    "Ġgratefully": 20448,
    "forming": 15927,
    "Ġgallows": 12150,
    "bunger": 20405,
    "Ġgene": 15676,
    "Ġheidelburgh": 11646,
    "Ġuncompromised": 20606,
    "Ġregimentals": 19860,
    "Ġsevere": 6033,
    "Ġcommerce": 11017,
    "Ġtepid": 26414,
    "ilogue": 21728,
    "Ġafrican": 20140,
    "station": 10846,
    "raid": 3278,
    "spikes": 10343,
    "Ġbeating": 8145,
    "Ġactually": 5389,
    "Ġaccosted": 13676,
    "emed": 3381,
    "Ġindelible": 25695,
    "al": 292,
    "í": 174,
    "Ġfearless": 9878,
    "Ġpeaceable": 14726,
    "Ġheat": 5453,
    "Ġcopestone": 24939,
    "bows": 10084,
    "Ġsecuring": 11996,
    "french": 9122,
    "Ġconstitutes": 13555,
    "bring": 9108,
    "Ġpenetrating": 17013,
    "Ġcommon": 1414,
    "Ġevangelists": 20342,
    "orters": 21404,
    "Ġhorseback": 14853,
    "Ġthrown": 4641,
    "surprise": 9533,
    "Ġgarb": 21606,
    "Ġsemantic": 1958,
    "Ġwicked": 5962,
    "Ġpreprocessing": 26538,
    "Ġbenefited": 19401,
    "argue": 21447,
    "admiration": 11389,
    "Ġconjure": 17126,
    "Ġunpleasant": 7191,
    "Ġcause": 2409,
    "Ġgame": 3630,
    "insufferable": 21195,
    "mercenary": 26316,
    "Ġarabian": 9093,
    "Ġharpooned": 13265,
    "feren": 766,
    "Ġbachelors": 24861,
    "Ġcuriosities": 26291,
    "Ġdece": 6997,
    "questions": 16762,
    ",âĢĻ": 2327,
    "Ġrouse": 15825,
    "Ġindependent": 9019,
    "Ġquoted": 22419,
    "Ġwarb": 17789,
    "Ġdirected": 5579,
    "Ġrob": 1295,
    "Ġtrample": 20330,
    "getic": 12971,
    "Ġcan": 468,
    "amous": 15765,
    "Ġsurround": 4619,
    "Ġappearance": 3700,
    "Ġturbul": 23614,
    "Ġflourished": 15129,
    "jac": 8382,
    "approb": 11044,
    "Ġtrespass": 23602,
    "Ġ30": 10514,
    "Ġswims": 12124,
    "Ġburns": 16525,
    "Ġpauper": 26180,
    "Ġserved": 8247,
    "previously": 17210,
    "generally": 9438,
    "Ġoarsman": 8641,
    "described": 18896,
    "âĢĿâĢĶ": 5721,
    "Ġcertainty": 6736,
    "Ġbalances": 2339,
    "!âĢĶâĢĻ": 23567,
    "Ġparm": 15881,
    "Ġunprecedented": 15858,
    "tered": 2231,
    "Ġlimb": 9405,
    "Ġkentuckian": 26344,
    "strength": 13983,
    "Ġinjure": 16783,
    "tears": 11039,
    "Ġconcuss": 19050,
    "Ġguise": 14435,
    "Ġangels": 11180,
    "honour": 13470,
    "Ġoutlined": 22324,
    "Ġconf": 1820,
    "Ġsleepers": 13152,
    "Ġbreach": 11978,
    "Ġbra": 3254,
    "Ġthird": 4186,
    "Ġindignant": 12244,
    "Ġboxes": 13377,
    "Ġconsequences": 11337,
    "Ġpronounce": 16970,
    "accents": 19214,
    "Ġglit": 8563,
    "Ġcaulk": 25441,
    "Ġjavelin": 26105,
    "oric": 21399,
    "Ġappl": 1735,
    "Ġapiece": 16815,
    "Ġjackal": 24242,
    "Ġpedestrian": 25884,
    "Ġerecting": 24653,
    "entric": 11622,
    "Ġseconds": 16394,
    "Ġacquiring": 2765,
    "Ġbind": 12588,
    "estations": 22224,
    "Ġhappier": 10362,
    "Ġserv": 3328,
    "tis": 4105,
    "Ġthe": 270,
    "Ġple": 1469,
    "Ġunhappily": 18263,
    "Ġbounding": 19403,
    "Ġunceasing": 20361,
    "acceptance": 25186,
    "Ġkl": 2735,
    "Ġconcussion": 26301,
    "Ġsaint": 15510,
    "Ġretort": 23073,
    "Ġprotecting": 24687,
    "Ġsalvation": 14760,
    "Ġtouching": 4682,
    "Ġbingleys": 18996,
    "Ġexped": 7651,
    "Ġtartar": 17325,
    "Ġsolemnity": 9944,
    "Ġpertin": 18451,
    "Ġbravely": 23842,
    "Ġcountrymen": 23597,
    "smallest": 23915,
    "Ġincurable": 22556,
    "jolly": 20933,
    "Ġweighted": 2090,
    "Ġwondered": 11127,
    "Į": 239,
    "Ġcontract": 18476,
    "wrapped": 15213,
    "Ġexchange": 15763,
    "fixedly": 24930,
    "fear": 8516,
    "culine": 19065,
    "ssing": 3809,
    "Ġunfav": 14791,
    "Ġlooked": 1804,
    "imet": 21714,
    "Ġrelinquish": 17350,
    "threatened": 25463,
    "Ġstory": 2900,
    "Ġcoiling": 12911,
    "Ġdeserving": 14756,
    "Ġoccur": 1087,
    "Ġtesting": 23196,
    "Ġmanx": 7905,
    "Ġclouds": 5775,
    "Ġdraw": 3672,
    "Ġdri": 2362,
    "Ġhushed": 13928,
    "Ġguardianship": 17423,
    "Ġbouquet": 20686,
    "oundered": 14167,
    "Ġbull": 7839,
    "Ġignorantly": 19498,
    "Ġtook": 1855,
    "Ġwings": 9166,
    "Ġshud": 5461,
    "Ġxv": 23409,
    "Ġwreat": 15534,
    "gle": 20871,
    "Ġpainfully": 13145,
    "iness": 1282,
    "ain": 343,
    "ocean": 12405,
    "Ġtranspired": 16786,
    "Ġendured": 6074,
    "narrative": 17322,
    "desol": 13221,
    "Ġeng": 1163,
    "Ġfear": 2276,
    "Ġopens": 23628,
    "control": 16546,
    "delivered": 24103,
    "Ġcells": 13888,
    "Ġfrozen": 9016,
    "Ġcursory": 18849,
    "Ġfaintest": 24570,
    "Ġheadlands": 22902,
    "âĢľâĢĻ": 10224,
    "Ġunlocking": 20708,
    "arrang": 14654,
    "ders": 8075,
    "Ġafforded": 8029,
    "Ġcig": 6521,
    "Ġthrowing": 6337,
    "cigar": 26125,
    "Ġconsent": 5372,
    "Ġmartial": 20294,
    "Ġeighty": 19479,
    "Ġmislead": 22759,
    "Ġindisp": 18835,
    "liked": 10511,
    "Ġdirectly": 2105,
    "bed": 3491,
    "Ġcircus": 19093,
    "ole": 9616,
    "supp": 4161,
    "sadly": 25527,
    "Ġfury": 7662,
    "Ġconceited": 12096,
    "Ġsprain": 18306,
    "Ġdecanting": 22442,
    "Ġunalterable": 15855,
    "blood": 7780,
    "ouse": 1193,
    "Ġcocoan": 20319,
    "hyp": 15370,
    "Ġrokovoko": 22410,
    "Ġmode": 8500,
    "limp": 20954,
    "fic": 20854,
    "Ĳ": 243,
    "Ġwhalers": 8048,
    "Ġstepping": 9357,
    "Ġyelled": 9697,
    "Ġoffences": 18690,
    ".": 18,
    "Ġlung": 7168,
    "tails": 21089,
    "Ġcrimson": 16439,
    "Ġrepl": 1593,
    "Ġembodied": 25848,
    "Ġspecies": 5112,
    "Ġmaintain": 855,
    "Ġfamiliarly": 11305,
    "Ġknows": 4159,
    "conject": 8884,
    "Ġinclinations": 19542,
    "Ġpet": 4588,
    "ject": 876,
    "dances": 17523,
    "Ġtumultuous": 10618,
    "starbuck": 6020,
    "urch": 3994,
    "Ġbrigs": 20325,
    "Ġperiod": 4004,
    "Ġcollins": 2180,
    "Ġciv": 3308,
    "Ġgurgling": 17449,
    "Ġunerring": 15851,
    "Ġweight": 658,
    "Ġexagger": 12729,
    "rooms": 10434,
    "harpo": 4806,
    "confused": 19642,
    "ologically": 22853,
    "Ġmetrics": 19075,
    "_.âĢĻâĢĿ": 17482,
    "Ġwhaling": 2782,
    "teous": 16177,
    "Ġworker": 23035,
    "Ġsons": 10768,
    "Ġcode": 1717,
    "Ġstrove": 9960,
    "Ġstrict": 7221,
    "Ġtwink": 8216,
    "Ġhussey": 7725,
    "eler": 1573,
    "Ġtransition": 14245,
    "Ġunass": 14117,
    "txt": 12520,
    "dischar": 19155,
    "developed": 15268,
    "Ġbrief": 6977,
    "Ġmaritime": 23043,
    "Ġintegral": 25011,
    "aited": 12439,
    "them": 3015,
    "gloom": 17142,
    "comp": 3816,
    "probability": 17024,
    "sleeves": 26110,
    "Ġvanished": 6874,
    "script": 11079,
    "gish": 20875,
    "Ġnail": 9198,
    "horr": 14601,
    "Ġglobe": 6077,
    "buttons": 22406,
    "Ġobey": 9522,
    "comprehend": 14362,
    "Ġinfall": 7960,
    "Ġblanche": 18821,
    "Ġfiltering": 23930,
    "Ġtang": 13817,
    "Ġsickened": 16777,
    "nostril": 26561,
    "Ġcoral": 11926,
    "Ġlect": 9225,
    "Ġmountains": 4426,
    "eous": 13715,
    "Ġinsignificant": 20459,
    "Ġacquired": 13048,
    "romised": 14115,
    "Ġrevealed": 6753,
    "Ġaboard": 6699,
    "wished": 13808,
    "Ġindication": 22955,
    "Ġploughed": 22611,
    "Ġleg": 2334,
    "library": 13003,
    "Ġdeck": 2138,
    "Ġaggregate": 25678,
    "allowing": 24358,
    "Ġpore": 21461,
    "Ġstranded": 9778,
    "Ġapoplexy": 25266,
    "Ġtexel": 25924,
    "Ġprudent": 9188,
    "Ġknave": 11274,
    "thodox": 21989,
    "Ġinferred": 14502,
    "Ġcarrying": 6073,
    "no": 900,
    "eral": 9162,
    "Ġignor": 4012,
    "ilty": 6395,
    "Ġsaxon": 25469,
    "ctic": 8443,
    "Ġclock": 9536,
    "Ġimmensity": 25330,
    "Ġcheating": 16370,
    "black": 6769,
    "changing": 10856,
    "Ġuncork": 23432,
    "Ġobtaining": 16136,
    "itar": 15551,
    "Ġtaffrail": 15479,
    "pped": 2000,
    "Ġflames": 7940,
    "Ġimparted": 15992,
    "Ġlivery": 16004,
    "urred": 8451,
    "mccarthy": 15398,
    "heeded": 13837,
    "ifferent": 4261,
    "Ġbumpkins": 25282,
    "Ġsimultaneous": 22594,
    "Ġattorney": 18628,
    "oll": 5457,
    "mical": 9131,
    "Ġcubs": 20090,
    "Ġyork": 11668,
    "abby": 14024,
    "lucas": 15155,
    "Ġgrotes": 19566,
    "dishonourable": 26367,
    "Ġconsc": 4273,
    "somewhat": 11162,
    "Ġexpressed": 4466,
    "Ġinseparable": 20691,
    "Ġhart": 17924,
    "Ġrecip": 16144,
    "disguise": 26307,
    "herfield": 3632,
    "Ġporus": 24398,
    "Ġcoppers": 22589,
    "Ġclanging": 18423,
    "Ġselecting": 16683,
    "xology": 21144,
    "estab": 14171,
    "Ġshin": 18228,
    "Ġcarved": 7947,
    "ine": 407,
    "Ġbrig": 11049,
    "Ġsaid": 578,
    "great": 3517,
    "Ġdashed": 6011,
    "Ġpencil": 11947,
    "Ġlassitude": 20590,
    "buried": 14852,
    "Ġ550": 19639,
    "do": 1996,
    "Ġpred": 663,
    "Ġconciliating": 19051,
    "repeating": 20132,
    "Ġemboldened": 22964,
    "Ġstones": 9224,
    "Ġdistrict": 10321,
    "Ġshad": 3849,
    "_": 67,
    "glancing": 11216,
    "Ġcreated": 2706,
    "batross": 9096,
    "Ġbaptized": 25775,
    "Ġchairs": 12831,
    "Ġaglow": 22518,
    "axing": 18548,
    "shrouded": 26363,
    "Ġmade": 1053,
    "deceit": 25557,
    "Ġirr": 10423,
    "Ġreturns": 11930,
    "Ġque": 4158,
    "Ġtinge": 25090,
    "Ġprecisely": 6467,
    "Ġ80": 24456,
    "Ġsought": 5010,
    "more": 1035,
    "ope": 4125,
    "Ġunluck": 8487,
    "Ġaug": 6236,
    "exagger": 22432,
    "Ġspared": 7893,
    "Ġfocus": 4235,
    "Ġcetacean": 25879,
    "Ġwhirling": 12253,
    "explaining": 23147,
    "Ġshun": 11713,
    "Ġcloud": 3912,
    "Ġvillagers": 19477,
    "complaisance": 24808,
    "Ġcompanionship": 14923,
    "Ġindist": 14411,
    "Ġdromedary": 17442,
    "rough": 591,
    "Ġextinguished": 10346,
    "sed": 4175,
    "Ġcharmed": 16764,
    "Ġwaste": 9237,
    "ach": 435,
    "Ġigniting": 25073,
    "onial": 11569,
    "ğ": 224,
    "expressed": 9044,
    "Ġdiddled": 22670,
    "Ġ91": 24590,
    "Ġxiii": 25592,
    "Ġmarred": 23037,
    "Ġfinds": 6301,
    "Ġknife": 7309,
    "pig": 8756,
    "Ġcaroline": 7254,
    "Ġenvironments": 24034,
    "Ġdizzy": 21435,
    "Ġbleak": 10561,
    "isation": 13896,
    "Ġskiff": 16167,
    "olic": 14051,
    "ch": 321,
    "spade": 10342,
    "Ġcrockery": 24303,
    "Ġpatched": 16377,
    "Ġaloof": 21789,
    "Ġsignificantly": 4520,
    "Ġfabric": 25948,
    "Ġroyals": 19535,
    "Ġbranches": 6777,
    "Ġknob": 24407,
    "Ġmetropol": 11146,
    "promised": 12256,
    "Ġresidence": 8207,
    "Ġsharkish": 24506,
    "decor": 23782,
    "dut": 10090,
    "Ġfabulous": 25949,
    "iforn": 14067,
    "Ġbeacon": 21760,
    "Ġbreathing": 9448,
    "Ġgaff": 17996,
    "ortunities": 15944,
    "chooses": 23676,
    "ositories": 22268,
    "Ġfat": 3461,
    "Ġcheap": 13092,
    "Ġsecondary": 23336,
    "advanced": 19591,
    "prior": 21035,
    "contriv": 19295,
    "sicilian": 21066,
    "Ġbulb": 23858,
    "Ġ>": 21154,
    "Ġabroad": 8869,
    "Ġiron": 3236,
    "Ġinvitation": 5188,
    "exception": 9979,
    "Ġhappily": 9334,
    "magn": 10613,
    "cing": 1011,
    "shad": 10984,
    "Ġhurt": 7701,
    "Ġtremor": 24767,
    "Ġinterested": 6459,
    "liable": 3818,
    "alongside": 19792,
    "byshire": 6174,
    "hecy": 21209,
    "look": 2262,
    "national": 21000,
    "apering": 8041,
    "Ġblueprints": 13174,
    "Ġtrees": 4201,
    ".âĢĿ": 464,
    "enborough": 21288,
    "Ġimagined": 8610,
    "Ġsquaw": 22842,
    "Ġworldly": 16334,
    "distinctive": 25726,
    "overcoat": 19055,
    "Ġforbearance": 12332,
    "during": 6788,
    "Ġmeditate": 16709,
    "Ġaccompan": 5513,
    "Ġperceive": 6701,
    "Ġrepelled": 19087,
    "Ġreef": 10851,
    "Ġwherefore": 8527,
    "danish": 20835,
    "angered": 16182,
    "Ġwhitting": 18055,
    "repaid": 24491,
    "seat": 18128,
    "ilib": 4117,
    "100": 11466,
    "ption": 7398,
    "wholly": 10943,
    "Ġexpose": 10330,
    "Ġtalking": 3858,
    "Ġpersian": 11094,
    "deser": 10481,
    "Ġdarling": 12610,
    "antediluvian": 24346,
    "Ġchannels": 26014,
    "Ġgain": 4829,
    "chains": 9688,
    "Ġstupid": 7604,
    "Ġisol": 8838,
    "Ġpalpitated": 26086,
    "intelligence": 5884,
    "Ġcanvassed": 19938,
    "pulled": 25148,
    "Ġpallor": 13518,
    "Ġfettered": 24569,
    "Ġscorn": 7901,
    "Ġdiffers": 23783,
    "Ġtro": 7356,
    "Ġreports": 19086,
    "Ġgoug": 17993,
    "Ġprophes": 16352,
    "Ġinsult": 6749,
    "elder": 21575,
    "Ġcastle": 14720,
    "lic": 17589,
    "Ġhue": 8430,
    "Ġcongratulatory": 19770,
    "Ġgulf": 10638,
    "Ġshar": 9253,
    "Ġeye": 2281,
    "restoration": 23236,
    "kindled": 16663,
    "saying": 8644,
    "Ġprices": 15616,
    "Ġhydraulic": 10067,
    "Ġnose": 4402,
    "Ġmot": 2981,
    "Ġrenewal": 12239,
    "currents": 23848,
    "Ġtowards": 1727,
    "Ġbuy": 8300,
    "uger": 21106,
    "Ġdearly": 10404,
    "whisper": 17084,
    "Ġburtons": 19255,
    "thou": 4710,
    "Ġcultivated": 17367,
    "Ġdemocracy": 25459,
    "that": 851,
    "Ġventure": 7740,
    "Ġsubsequent": 7659,
    "Ġrepeat": 8000,
    "trust": 21081,
    "harpoone": 6109,
    "mbles": 23093,
    "Ġantichronical": 26611,
    "Ġskirt": 18729,
    "Ġsanta": 26422,
    "Ġshameful": 19854,
    "Ġfritters": 23259,
    "Ġphotography": 24684,
    "few": 8204,
    "cavity": 26127,
    "Ġstir": 5824,
    "Ġextremest": 19196,
    "lessly": 4557,
    "Ġbrooded": 23108,
    "Ġpup": 12625,
    "elze": 21576,
    "Ġclerval": 4655,
    "Ġdusty": 14928,
    "Ġunappalled": 22069,
    "Ġmahogany": 20581,
    "Ġdrinking": 12173,
    "Ġaback": 22270,
    "thorough": 21986,
    "Ġcongregation": 12333,
    "ullo": 12735,
    "Ġsash": 17756,
    "?âĢĻâĢĿ": 23644,
    "Ġguests": 12291,
    "Ġavenues": 25430,
    "Ġconvey": 9984,
    "Ġsanction": 20029,
    "rance": 5995,
    "Ġsince": 1796,
    "Ġcommence": 6169,
    "Ġcleansed": 26295,
    "Ġsufferings": 7513,
    "oblig": 16294,
    "precious": 12077,
    "Ġenvied": 19282,
    "humiliation": 24024,
    "attacks": 23127,
    "idea": 9304,
    "Ġresembles": 25970,
    "Ġschool": 5512,
    "Ġadvantages": 9814,
    "Ġspiteful": 19525,
    "problem": 25245,
    "lu": 596,
    "Ġwant": 1118,
    "Ġseized": 4835,
    "cell": 10689,
    "finds": 19929,
    "Ġunexpected": 6841,
    "Ġbrid": 6292,
    "conc": 3947,
    "Ġwarehouses": 20421,
    "Ġenchant": 7185,
    "Ġtrial": 6637,
    "conversation": 7124,
    "alse": 4184,
    "Ġconsum": 9802,
    "ntax": 933,
    "Ġchaise": 9079,
    "Ġxerxes": 23413,
    "Ġclay": 7020,
    "Ġbumps": 21395,
    "Ġlodged": 11253,
    "Ġpiny": 21473,
    "Ġpuffing": 12259,
    "Ġinvisibly": 24814,
    "Ġharbors": 24902,
    "Ġdisturbing": 19949,
    "Ġjohn": 5032,
    "Ġunderneath": 16342,
    "Ġcoun": 4177,
    "Ġdragged": 6889,
    "Ġcontributed": 16013,
    "chel": 11209,
    "21": 10075,
    "Ġcir": 21344,
    "Ġrested": 9382,
    "Ġbrewed": 23349,
    "Ġsatisfy": 6912,
    "Ġhonorable": 16878,
    "Ġdivined": 19446,
    "inative": 15487,
    "Ġcraggy": 23532,
    "Ġcautiousness": 19868,
    "lutions": 20952,
    "Ġsnuff": 7992,
    "Ġalpha": 13591,
    "Ġemble": 13974,
    "Ġyawned": 15054,
    "Ġfootpath": 19340,
    "Ġshrivelled": 19706,
    "enth": 6682,
    "Ġpiteous": 17920,
    "nigh": 13766,
    "Ġcalm": 3447,
    "wretched": 10743,
    "Ġtiara": 26417,
    "Ġgait": 13334,
    "tomb": 21096,
    "grateful": 10430,
    "Ġconquer": 14030,
    "crossing": 19414,
    "Ġrespectful": 16349,
    "Ġbreezes": 14872,
    "none": 6962,
    "Ġsubstantial": 14813,
    "Ġdodo": 9075,
    "Ġpitiable": 9917,
    "prehensible": 12364,
    "urged": 18051,
    "Ġreceptive": 1566,
    "Ġhos": 4942,
    "Ġoffing": 16147,
    "gling": 10100,
    "Ġcreases": 22724,
    "Ġfamilies": 8027,
    "Ġpeddling": 21485,
    "Ġcurrents": 13018,
    "Ġvaliant": 9803,
    "infor": 3071,
    "Ġaids": 12233,
    "exceed": 7911,
    "lass": 5994,
    "Ġradney": 6776,
    "gies": 13729,
    "Ġdisrespect": 18554,
    "Ġfossil": 12391,
    "Ġolder": 9330,
    "Ġsolicited": 20040,
    "Ġinwards": 15625,
    "Ġinterpreter": 23216,
    "Ġslumber": 13064,
    "Ġbusy": 6191,
    "Ġalive": 4398,
    "istic": 1005,
    "Ġdromed": 15601,
    "impatience": 25501,
    "Ġbraces": 14672,
    "Ġkilled": 4955,
    "Ġtransom": 22470,
    "Ġbreathless": 12174,
    "Ġrods": 9757,
    "Ġinquired": 7485,
    "Ġtoes": 10831,
    "ws": 7355,
    "Ġgamming": 25543,
    "venty": 6428,
    "Ġintersect": 22579,
    "Ġmaybe": 12954,
    "Ġconsumed": 10352,
    "wandered": 20288,
    "afraid": 10443,
    "Ġcleaving": 23185,
    "Ġneg": 1334,
    "Ġmap": 2390,
    "Ġproper": 1380,
    "âĢĶ": 518,
    "Ġtam": 7821,
    "Ġcrab": 13147,
    "Ġlashing": 11619,
    "Ġneedless": 19232,
    "Ġscream": 5936,
    "Ġzigzag": 26274,
    "Ġloite": 22115,
    "village": 25423,
    "Ġrequiring": 2919,
    "Ġintruder": 25992,
    "proceeded": 25191,
    "li": 1189,
    "Ġbanquet": 15244,
    "ethics": 8881,
    "Ġspoutings": 14678,
    "warning": 25532,
    "nett": 16224,
    "Ġdeaf": 12724,
    "!_âĢĿ": 11378,
    "umpled": 15880,
    "agings": 18168,
    "Ġdominic": 25381,
    "Ġreserves": 19673,
    "dham": 20832,
    "Ġmartin": 25437,
    "Ġuncovered": 23434,
    "Ġwithdrawn": 10609,
    "int": 1198,
    "Ġbehaved": 13256,
    "amplified": 26496,
    "afterwards": 7484,
    "Ġcasting": 12105,
    "uding": 16154,
    "neighbourhood": 10028,
    "antly": 1989,
    "ruction": 4357,
    "Ġallowance": 14392,
    "Ġlivel": 11357,
    "Ġfrost": 6097,
    "mindful": 19602,
    "spond": 5567,
    "Ġsavoury": 23880,
    "Ġincant": 18569,
    "pat": 10119,
    "Ĉ": 201,
    "Ġadvocate": 13680,
    "ivial": 15864,
    "jure": 20926,
    "Ġnature": 2539,
    "sperm": 5203,
    "Ġperish": 8878,
    "Ġtit": 8400,
    "Ġrestless": 10415,
    "Ġinhab": 5083,
    "became": 10517,
    "spouting": 25003,
    "Ġpasture": 14544,
    "sk": 5521,
    "Ġhag": 12631,
    "Ġcomposedly": 25184,
    "Ġenthusiasm": 8065,
    "Ġbitter": 4172,
    "clean": 14764,
    "Ġdandy": 17894,
    "Ú": 155,
    "Ġinclu": 1102,
    "Ġchief": 3382,
    "aven": 8210,
    "dressing": 11484,
    "Ġtransc": 12874,
    "Ġprevents": 2558,
    "Ġskilful": 25838,
    "Ġsap": 18324,
    "Ġmanip": 8875,
    "Ġstation": 5299,
    "windows": 19537,
    "Ġperman": 10967,
    "Ġunsc": 22018,
    "anded": 5924,
    "mit": 4934,
    "vable": 10135,
    "Ġbore": 5079,
    "ensed": 10997,
    "Ġspite": 4155,
    "Ġpatagonian": 20537,
    "women": 15459,
    "Ġelucidated": 26030,
    "Ġabide": 14190,
    "Ġassault": 9840,
    "Ġcautiously": 16979,
    "meal": 22715,
    "throne": 25658,
    "impat": 11204,
    "Ġbadly": 12136,
    "unsuitable": 21897,
    "Ġsent": 1774,
    "blast": 9590,
    "Ġosc": 2833,
    "attempted": 20177,
    "shipping": 10310,
    "Ġstay": 3092,
    "ined": 1260,
    "icated": 7591,
    "Ġcenturies": 8626,
    "Ġprivilege": 11421,
    "Ġbrooding": 18909,
    "Ġhaggerston": 26454,
    "Ġarchipelagoes": 14350,
    "Ġjenkinson": 11433,
    "Ġrecovery": 11443,
    "present": 1136,
    "Ġdiscrimination": 23607,
    "Ġdreamy": 14706,
    "Ġcomplicated": 14738,
    "Ġbeauties": 10447,
    "Ġjury": 5378,
    "Ġappropriate": 2251,
    "deformity": 22149,
    "Ġstop": 2502,
    "Ġmagician": 25061,
    "Ġfools": 14483,
    "elf": 564,
    "Ġchoking": 15938,
    "Ġheedful": 19743,
    "alleled": 14432,
    "inferior": 12398,
    "Ġwild": 2601,
    "Ġaccumulated": 11935,
    "Ġsweetly": 23922,
    "Ġexpert": 18865,
    "Ġjacobians": 2891,
    "Ġdelusion": 18974,
    "Ġlate": 3377,
    "facts": 19845,
    "Ġbands": 14887,
    "attempt": 9363,
    "Ġcolog": 12576,
    "zed": 8104,
    "particip": 23618,
    "Ġspont": 22135,
    "possessed": 9531,
    "Ġpers": 1390,
    "Ġsuperflu": 14555,
    "night": 2167,
    "Ġmissionary": 25697,
    "Ġroutine": 13510,
    "vers": 1328,
    "Ġfirmest": 16667,
    "Ġstates": 1852,
    "Ġcattle": 12578,
    "Ġsalisbury": 24068,
    "Ġshillings": 15839,
    "Ġwhit": 7177,
    "Ġcompliments": 8636,
    "Ġleviathan": 3288,
    "Ġwalker": 23313,
    "ively": 1320,
    "married": 9952,
    "rugg": 15906,
    "Ġquick": 2582,
    "Ġactive": 7915,
    "barb": 10083,
    "Ġdependent": 14290,
    "Ġphenomenon": 17919,
    "Ġwildness": 14605,
    "suffer": 24329,
    "Ġhovers": 19080,
    "Ġfaire": 13368,
    "ends": 6040,
    "ri": 390,
    "Ġcircumstance": 4987,
    "governed": 25406,
    "Ġstrength": 4258,
    "Ġarches": 14163,
    "equal": 14996,
    "Ġpenal": 1772,
    "hog": 8380,
    "!_âĢĶ": 19976,
    "ilted": 21726,
    "Ġexamination": 8005,
    "Ġsank": 5076,
    "Ġadvancement": 24475,
    "Ġmeta": 3433,
    "quadrille": 20598,
    "mountains": 15184,
    "melancholy": 12357,
    "Ġspile": 22131,
    "tri": 11532,
    "regarded": 12012,
    "Ġaloysius": 15742,
    "Ġoverdone": 22361,
    "Ġadmiration": 5329,
    "Ġcant": 17826,
    "irable": 5776,
    "pate": 21012,
    "Ġarea": 14189,
    "Ġbegone": 11920,
    "Ġlayer": 1009,
    "Ġmutable": 23958,
    "knew": 9129,
    "Ġr": 404,
    "Ġuntil": 2667,
    "Ġ156": 20173,
    "Ġreserved": 7515,
    "Ġvillage": 5774,
    "culous": 11142,
    "salis": 25150,
    "Ġken": 22195,
    "satisfactory": 16895,
    "icken": 6713,
    "bru": 12443,
    "Ġmoreover": 6165,
    "rifle": 21049,
    "Ġkin": 15908,
    "Ġreal": 1629,
    "Ġfiles": 21416,
    "Ġclosely": 6489,
    "ous": 477,
    "Ġnurtured": 19752,
    "absence": 12714,
    "Ġutterly": 6102,
    "cock": 12030,
    "pivot": 21033,
    "Ġmarvels": 11086,
    "Ġaccounting": 14575,
    "ominy": 13981,
    "Ġlurid": 19684,
    "stalls": 26475,
    "Ġpressure": 13425,
    "Ġextracts": 9368,
    "Ġparacels": 13671,
    "Ġrhine": 12360,
    "Ġdeposition": 18590,
    "Ġvisiting": 10359,
    "Ġ45": 14774,
    "Ġwestern": 10657,
    "Ç": 136,
    "Ġced": 10786,
    "passing": 14815,
    "Ġsighed": 10340,
    "Ġadmire": 5264,
    "Ġdimly": 9491,
    "roy": 7854,
    "agues": 8161,
    "Ġstowed": 21740,
    "que": 1138,
    "har": 20892,
    "appeared": 4281,
    "Ġdexterous": 15152,
    "Ġmason": 10160,
    "Ġdistance": 3484,
    "Ġcaut": 6522,
    "whip": 22241,
    "expanded": 23667,
    "impul": 16559,
    "Ġalchemists": 26489,
    "ror": 7351,
    "Ġorgies": 18286,
    "!âĢĻâĢĿ": 16594,
    "estation": 15923,
    "Ġarrayed": 25665,
    "vious": 1785,
    "Ġeleventh": 23372,
    "wards": 1277,
    "Ġclubb": 22352,
    "athed": 7828,
    "enthusiastic": 20695,
    "disgrace": 16460,
    "Ġnew": 1196,
    "liter": 11504,
    "Ġthreat": 5154,
    "Ġoysters": 20582,
    "Ġalleg": 14020,
    "ion": 296,
    "Ġknot": 7013,
    "begging": 22500,
    "wants": 21133,
    "Ġhunted": 7453,
    "Ġsentin": 16375,
    "Ġtand": 21163,
    "magistrate": 19865,
    "stretching": 20502,
    "Ġclinched": 17397,
    "Ġinsist": 9893,
    "calmly": 20142,
    "itation": 1780,
    "Ġglo": 1711,
    "Ġch": 512,
    "Ġgeese": 7694,
    "Ġcommendation": 13613,
    "Ġaval": 15496,
    "narrow": 11510,
    "Ġsupposing": 6731,
    "Ġconcluding": 9860,
    "aux": 14293,
    "Ġoccupy": 14734,
    "attered": 4019,
    "Ġbegin": 3097,
    "Ġkeeping": 7283,
    "Ġvultures": 25654,
    "Ġprecision": 13192,
    "Ġivory": 4477,
    "Ġblan": 18818,
    "dreadful": 11423,
    "soled": 14332,
    "Ġthirt": 13942,
    "Ġremembr": 24173,
    "Ġclutched": 13521,
    "Ġbroad": 3641,
    "Ġepis": 19985,
    "Ġdistillation": 16049,
    "Ġphenomena": 21487,
    "furnish": 25339,
    "Ġst": 332,
    "Ġhooped": 23358,
    "othed": 16513,
    "Ġcompens": 14266,
    "user": 5105,
    "Ġcemet": 20683,
    "Ġbest": 1974,
    "seventy": 10878,
    "Ġmathematics": 12078,
    "Ġjudging": 16597,
    "Ġbending": 12591,
    "promote": 24726,
    "Ġpronouncing": 16971,
    "smiles": 14695,
    "Ġevalu": 2877,
    "Ġcrying": 10788,
    "ular": 714,
    "Ġindefatigable": 17180,
    "ells": 5305,
    "Ġharriet": 24573,
    "Ġtim": 4580,
    "throughout": 24092,
    "conditionally": 24835,
    "Ġblundering": 26285,
    "iners": 4937,
    "hig": 12479,
    "grained": 20885,
    "vand": 21111,
    "mild": 15395,
    "Ġliberality": 24377,
    "strong": 6324,
    "instruct": 19545,
    "Ġbordering": 17231,
    "Ġsees": 8847,
    "Ġineffect": 13933,
    "Ġbelie": 14409,
    "Ġtranqu": 4607,
    "Ġdiabolically": 25514,
    "Ġmusket": 12300,
    "Ġsaying": 3244,
    "ofs": 11834,
    "Ġbeads": 18086,
    "Ġneglect": 7942,
    "adam": 15734,
    "Ġcrunched": 19122,
    "landish": 11946,
    "unned": 21882,
    "Ġgri": 17990,
    "safety": 20352,
    "Ġlamb": 8817,
    "Ġomnipotent": 13551,
    "Ġslanting": 23176,
    "Ġloathing": 15071,
    "Ġfaithfully": 14890,
    "Ġramble": 9317,
    "iage": 17575,
    "ula": 2823,
    "perquis": 22189,
    "ology": 1494,
    "rol": 5713,
    "Ġboil": 16109,
    "gratification": 24348,
    "Ġcotton": 17382,
    "Ġbonnet": 10658,
    "Ġgreenland": 5761,
    "Ġindicate": 23725,
    "Ġdisregarded": 22534,
    "Ġlectures": 17181,
    "Ġtreacle": 14597,
    "lingering": 18603,
    "hastily": 19705,
    "icorn": 15661,
    "Ġmonsieur": 12425,
    "Ġblessed": 6931,
    "ned": 3493,
    "neighboring": 20620,
    "Ġthan": 737,
    "remained": 8573,
    "flour": 23969,
    "Ġseedy": 21959,
    "Ġmadden": 10449,
    "Ġinsatiable": 19274,
    "Ġwatches": 11083,
    "Ġsupers": 18278,
    "ounted": 5030,
    "Ġpaw": 12626,
    "Ġrecklessness": 24744,
    "Ġpraises": 16732,
    "Ġashen": 21903,
    "rit": 21038,
    "Ġexotic": 21843,
    "Ġafternoon": 6054,
    "Ġinvest": 4978,
    "Ġturks": 14600,
    "ð": 177,
    "Ġacknowledge": 13405,
    "Ġgifts": 21615,
    "Ġwarbling": 26169,
    "Ġknees": 6928,
    "excuse": 13384,
    "olera": 21837,
    "Ġuntidy": 23526,
    "Ġleaf": 15727,
    "Ġfold": 5531,
    "Ġboneless": 19608,
    "Ġprofession": 6209,
    "Ġazores": 20196,
    "Ġmin": 1024,
    "Ġcra": 2331,
    "Ġinaudible": 21502,
    "Ġportly": 14680,
    "Ġtorpor": 25034,
    "Ġungracious": 18259,
    "allowed": 5728,
    "vative": 1634,
    "impetuous": 23765,
    "Ġ500": 24324,
    "20": 20755,
    "Ġtw": 841,
    "Ġbutts": 15859,
    "uy": 21102,
    "Ġanecd": 20157,
    "itz": 6007,
    "Ġsneering": 24696,
    "Ġ32": 19492,
    "atch": 674,
    "ises": 3655,
    "Ġhunters": 6302,
    "Ġburn": 3684,
    "Ġharrow": 17928,
    "Ġconfines": 23308,
    "iftings": 23226,
    "attached": 11939,
    "Ġacquisition": 18900,
    "Ġpretensions": 16561,
    "sailors": 9925,
    "combination": 25487,
    "fer": 1997,
    "flung": 16641,
    "urre": 10858,
    "Ġopium": 8997,
    "addition": 13387,
    "Ġbubble": 13537,
    "Ġvows": 15812,
    "Ġdaniel": 15115,
    "Ġsurmises": 17056,
    "Ġleather": 7607,
    "Ġcolonel": 3408,
    "amet": 582,
    "Ġretarded": 23075,
    "Ġhopelessly": 16382,
    "Ġadded": 2716,
    "Ġhelmsman": 10507,
    "Ġpiled": 8426,
    "band": 3057,
    "eld": 972,
    "Ġcompre": 4448,
    "Ġpair": 5706,
    "Ġmuchness": 18707,
    "Ġliver": 14230,
    "spouter": 22732,
    "Ġnote": 4262,
    "Ġconjoined": 21810,
    "Ġhorizontal": 7783,
    "Ġmincer": 14368,
    "Ġdull": 6385,
    "Ġredundant": 16554,
    "Ġgoing": 2067,
    "Ġtist": 21165,
    "pride": 11212,
    "orange": 21403,
    "ometer": 19328,
    "ching": 5156,
    "cracy": 24691,
    "ribs": 23368,
    "Ġwickham": 2204,
    "Ġirresolute": 24917,
    "Ġnewfound": 22935,
    "Ġpursued": 6330,
    "flutterings": 26608,
    "faces": 13723,
    "lled": 10110,
    "Ġbough": 13897,
    "gate": 12471,
    "penetrating": 25491,
    "elope": 14460,
    "milk": 20480,
    "Ġvolcanoes": 24149,
    "Ġsadness": 13290,
    "Ġsignific": 3828,
    "Ġwail": 21289,
    "ensical": 18568,
    "Ġcount": 1816,
    "Ġrattle": 10901,
    "placed": 7880,
    "Ġcivilities": 14851,
    "Ġcapting": 23023,
    "igin": 3657,
    "tornadoes": 26154,
    "Ġfiery": 6871,
    "Ġbeautiful": 3673,
    "Ġpruning": 18971,
    "Ġwan": 15531,
    "Ġcalam": 13038,
    "Ġpoker": 13925,
    "Ġhorror": 3772,
    "fearfully": 25119,
    "Ġdriver": 16475,
    "older": 15760,
    "Ġstarve": 24626,
    "Ġstreets": 5865,
    "(": 12,
    "bare": 12445,
    "Ġemerging": 24613,
    "Ġterm": 2267,
    "oqu": 7555,
    "Ġdeparture": 6491,
    "Ġdistension": 22509,
    "Ġenters": 11026,
    "Ġuproar": 22159,
    "ĠĠĠĠĠĠĠĠĠĠĠĠĠĠĠĠĠĠĠĠĠĠĠĠĠĠĠĠĠĠĠĠĠĠĠĠĠĠĠĠĠĠĠ": 12159,
    "tural": 21069,
    "Ġmagnificence": 20635,
    "Ġdug": 21433,
    "dom": 6224,
    "sugg": 11846,
    "devilish": 17083,
    "Ġthickets": 24026,
    "Ġoftentimes": 20158,
    ";âĢĻ": 15306,
    "fish": 3516,
    "Ġabruptly": 15154,
    "Ġvel": 7186,
    "Ġnotorious": 18224,
    "destro": 13313,
    "Ġland": 1999,
    "like": 1885,
    "Ġkitty": 3910,
    "Ġmuhammad": 26170,
    "homely": 25618,
    "vil": 2731,
    "love": 9297,
    "Ġjuggling": 20442,
    "urning": 12922,
    "Ġparcels": 25466,
    "Ġreverend": 15263,
    "Ġkilling": 13336,
    "Ġenslaved": 26315,
    "ä": 165,
    "Ġappetite": 12388,
    "fo": 5279,
    "Ġunstructured": 2999,
    "establishment": 26114,
    "Ġphrenolog": 12338,
    "Ġdeliberate": 15025,
    "Ġdesolation": 12273,
    "Ġaverted": 16256,
    "hel": 4815,
    "orrow": 2913,
    "Ġladies": 3195,
    "Ġelig": 9781,
    "Ġlionel": 25287,
    "Ġcrater": 16438,
    "Ġrecol": 4029,
    "gpt": 5356,
    "Ġsimon": 5172,
    "Ġcondem": 6340,
    "Ġmothers": 14542,
    "Ġvow": 10249,
    "Ġunmannerly": 26519,
    "Ġdejected": 20307,
    "Ġchamp": 18381,
    "Ġnarrated": 14874,
    "ched": 1549,
    "postp": 24635,
    "magnitude": 17251,
    "Ġdusk": 12331,
    "Ġ101": 24409,
    "reading": 12084,
    "income": 15489,
    "Ġchaos": 17011,
    "itical": 5802,
    "othic": 16219,
    "Ġintolerable": 8484,
    "Ġours": 4614,
    "ments": 1402,
    "Ġsho": 2247,
    "Ġforgery": 25978,
    "Ġfrigates": 25707,
    "Ġfrigate": 13085,
    "creator": 26383,
    "Ġinstances": 5568,
    "Ġbeat": 4492,
    "visited": 13351,
    "consequential": 26251,
    "Ġchord": 22249,
    "Ġrotterdam": 25476,
    "Ġvoyagings": 19238,
    "Ġwhat": 599,
    "Ġsite": 17755,
    "Ġdramatic": 4852,
    "Ġimbedded": 18333,
    "Ġkramm": 26235,
    "Ġparis": 8179,
    "gast": 20873,
    "tranqu": 14709,
    "Ġremarkable": 4916,
    "Ġuncouth": 14550,
    "'(": 2975,
    "Ġprovocation": 24194,
    "Ġnarwhales": 24903,
    "Ġglue": 15678,
    "hens": 3937,
    "brimmed": 14590,
    "Ġspire": 18307,
    "Ġsilent": 3412,
    "Ġcontrasting": 11156,
    "Ġfisher": 3223,
    "ackinaw": 22425,
    "Ġxii": 11995,
    "Ġbuoyed": 20044,
    "Ġaltitude": 26204,
    "Ġoutright": 18413,
    "Ġcrazy": 8596,
    "Ġsleeve": 20143,
    "Ġoakum": 16936,
    "unreasonable": 18165,
    "Ġramad": 8531,
    "Ġdestroyer": 13416,
    "iard": 9604,
    "Ġessentially": 24925,
    "Ġslipping": 13364,
    "immortal": 21718,
    "vation": 4745,
    "Ġsequentially": 4915,
    "Ġestablishment": 13582,
    "nered": 18487,
    "Ġnumbers": 2886,
    "arranted": 19322,
    "said": 4104,
    "Ġeaster": 15679,
    "Ġmillar": 13864,
    "Ġconstantinople": 19840,
    "angel": 5726,
    "athies": 22705,
    "Ġunlim": 18254,
    "Ġfreed": 7267,
    "sum": 2087,
    "Ġvalidation": 2356,
    "Ġ48": 24085,
    "Ġthomson": 26456,
    "Ġchurch": 4712,
    "Ġushered": 18361,
    "unbe": 21876,
    "Ġholds": 7976,
    "Ġenjoyments": 24021,
    "Ġsab": 10764,
    "Ġcro": 4874,
    "remediable": 26296,
    "brimming": 23579,
    "Ġguns": 16778,
    "Ġtiny": 11555,
    "riers": 18187,
    "Ġbefriend": 18084,
    "_,âĢĻâĢĿ": 20404,
    "iteness": 4392,
    "Ġrails": 22663,
    "Ġassertion": 13492,
    "Ġembarked": 17137,
    "consciousness": 13369,
    "Ġvulture": 17342,
    "Ġascertained": 25297,
    "Ġirreproachable": 24918,
    "Ġsche": 1703,
    "Ġtragedy": 10670,
    "Ġsecure": 4913,
    "Ġforesaw": 19128,
    "unearthly": 19275,
    "Ġnurse": 9520,
    "Ġmonotonically": 3833,
    "Ġsherry": 19454,
    "Ġbeam": 2878,
    ",âĢĶâĢľ": 10073,
    "mitted": 5213,
    "Ġwhims": 12692,
    "Ġattic": 16102,
    "ment": 691,
    "icial": 12661,
    "Ġpool": 5173,
    "Ġwretchedness": 9029,
    "ilar": 10218,
    "Ġmob": 16021,
    "Ġfright": 3796,
    "Ġoccurred": 4461,
    "Ġnorthwards": 19549,
    "autumn": 23345,
    "Ġmoves": 14234,
    "Ġcamel": 25350,
    "Ġestimates": 3747,
    "Ġren": 3845,
    "inlaid": 21193,
    "Ġassure": 4418,
    "Ġforegoing": 23450,
    "constantinople": 25508,
    "Ġadviser": 25313,
    "Ġnailing": 21530,
    "ented": 4348,
    "humoredly": 26326,
    "relapse": 24019,
    "Ġbod": 4583,
    "Ġperemptory": 25741,
    "Ġmusk": 7494,
    "Ġvort": 18194,
    "Ġbumping": 25281,
    "Ġintrig": 21994,
    "Ġugliness": 20430,
    "Ġlou": 6822,
    "acup": 14282,
    "Ġconjectured": 10000,
    "Ġplayed": 9419,
    "Ġsubord": 22791,
    "commanded": 16990,
    "Ġreynolds": 10212,
    "ning": 949,
    "jacket": 12296,
    "rative": 17654,
    "Ġsystemat": 18443,
    "Ġassigned": 16315,
    "illating": 22111,
    "Ġexcl": 3476,
    "confidence": 16810,
    "Ġbuttoned": 25369,
    "Ġparchment": 13655,
    "Ġsuch": 793,
    "Ġoceans": 7996,
    "Ġattentively": 9953,
    "def": 1453,
    "abern": 21793,
    "Ġoutput": 929,
    "Ġxxxiv": 24970,
    "Ġcorpor": 23044,
    "observed": 7675,
    "Ġsink": 4340,
    "supplement": 14800,
    "ago": 14068,
    "umps": 6319,
    "Ġantiquity": 15234,
    "Ġwhisky": 23937,
    "Ġaway": 1244,
    "arming": 8954,
    "engagements": 25855,
    "Ġdeser": 3888,
    "Ġfullest": 14817,
    "necessities": 24308,
    "Ġwhereupon": 14299,
    "Ġsnarl": 25714,
    "Ġfrequented": 16588,
    "vember": 10857,
    "Ġlunatic": 24993,
    "Ġarr": 1800,
    "Ġdecidedly": 9512,
    "ced": 698,
    "oology": 21008,
    "towards": 5003,
    "Ġsubsiding": 23436,
    "Ġexecution": 6927,
    "Ġanticip": 7507,
    "Ġunholy": 26220,
    "Ġsplin": 8622,
    "ouring": 6421,
    "Ġindustry": 18838,
    "wretchedness": 17255,
    "outh": 2687,
    "Ġsor": 4145,
    "Ġcaresses": 26060,
    "Ġmou": 13858,
    "Ġdining": 6978,
    "quietly": 10595,
    "Ġarrive": 6907,
    "blazing": 24134,
    "anite": 17839,
    "dream": 8731,
    "Ġultimate": 12353,
    "Ġhugh": 15006,
    "Ġsurmisings": 26595,
    "scho": 8763,
    "Ġsem": 1877,
    "Ġbedside": 19125,
    "Ġcourtiers": 24139,
    "admit": 18093,
    "Ġuncles": 23433,
    "Ġsil": 1797,
    "Ġcomposition": 1687,
    "Ġlizzie": 26464,
    "Ġimpelling": 22389,
    "Ġpersuas": 23950,
    "Ġdatasets": 2387,
    "Ġdisappeared": 5645,
    "Ġcemeteries": 26377,
    "Ġinsatiate": 19272,
    "Ġtren": 17723,
    "Ġwarm": 2425,
    "Ġnocturnal": 20717,
    "Ġemperor": 15162,
    "deceptive": 22152,
    "zwilliam": 5074,
    "Ġhaggard": 17333,
    "bon": 13688,
    "bellies": 19977,
    "Ġmeets": 7396,
    "Ġfren": 10807,
    "Ġdilig": 8350,
    "Ġsiamese": 20486,
    "rew": 3650,
    "Ġenlarged": 25986,
    "progress": 11992,
    "Ġrolling": 5976,
    "itically": 21333,
    "Ġcruises": 23708,
    "Ġreduces": 2342,
    "im": 328,
    "Ġtrappings": 23085,
    "Ġwillow": 18534,
    "Ġassoc": 6403,
    "flatter": 23970,
    "Ġdepressions": 25799,
    "counterpart": 26361,
    "ellect": 7381,
    "Ġcow": 13879,
    "Ġmuster": 16126,
    "ript": 4152,
    "eray": 21269,
    "Ġadie": 8491,
    "Ġachieves": 4379,
    "architect": 22899,
    "Ġoptimizer": 5036,
    "¡": 99,
    "Ġintru": 15831,
    "Ġwearer": 21926,
    "Ġundersampling": 19521,
    "Ġtipped": 17730,
    "Ġsails": 5257,
    "countless": 24153,
    "Ġwont": 9855,
    "Ġhelm": 5276,
    "Ġkindness": 4096,
    "Ġcampa": 17176,
    "Ġungenerous": 18267,
    "mist": 5686,
    "Ġcritically": 23445,
    "Ġabated": 18391,
    "lue": 8511,
    "Ġ20": 8617,
    "twelve": 14623,
    "Ġtroops": 24899,
    "nameless": 19905,
    "jug": 17582,
    "Ġvirginia": 13502,
    "Ġswears": 16465,
    "Ġrapt": 7227,
    "disappeared": 14572,
    "Ġbloom": 9890,
    "spiracle": 22734,
    "Ġjesty": 18406,
    "Ġfigured": 16646,
    "Ġpale": 4533,
    "thin": 14099,
    "owners": 16091,
    "Ġfogs": 25283,
    "Ġtuck": 10143,
    "Ġspurred": 22142,
    "ellative": 21947,
    "Ġstockings": 20000,
    "Ġanom": 12617,
    "Ġmulti": 1047,
    "itigated": 23050,
    "Ġshallow": 14397,
    "Ġworks": 5859,
    "Ġcooked": 13272,
    "Ġwollstonecraft": 26427,
    "Ġrewarded": 14943,
    "Ġcomely": 21852,
    "Ġwindigate": 18912,
    "Ġsaf": 4002,
    "Ġincredulous": 9990,
    "sav": 8097,
    "Ġseaport": 20602,
    "Ġadduced": 26526,
    "Ġevenings": 18756,
    "Ġconsented": 11297,
    "Ġinflict": 15003,
    "Ġmuttering": 10502,
    "Ġavailed": 23955,
    "advice": 12162,
    "Ġiii": 7861,
    "Ġrigid": 16718,
    "possibly": 10546,
    "Ġfreemason": 23214,
    "Ġchopping": 24222,
    "acid": 11008,
    "Ġtablets": 13158,
    "trees": 10733,
    "Ġdeceased": 15008,
    "admire": 24946,
    "Ġunacquainted": 12782,
    "pity": 17629,
    "pract": 10122,
    "Ġevidently": 6760,
    "rannical": 26403,
    "osque": 22266,
    "Ġfetch": 7770,
    "Ġelevate": 24502,
    "neighbouring": 19967,
    "Ġwhirled": 14963,
    "acity": 5735,
    "ittingly": 18806,
    "Ġheaded": 11056,
    "eronomy": 15528,
    "angles": 18296,
    "Ġchivalrous": 20518,
    "Ġourselves": 5127,
    "invested": 17120,
    "delightful": 12201,
    "ally": 529,
    "Ġus": 498,
    "Ġseclusion": 18207,
    "Ġsimulates": 2738,
    "persu": 8028,
    "boscombe": 26122,
    "Ġkings": 7197,
    "coburg": 13601,
    "Ġsingled": 23774,
    "Ġjavan": 25000,
    "hullo": 17572,
    "Ġneatly": 17018,
    "Ġelse": 2481,
    "Ġate": 8844,
    "Ġcontextually": 11962,
    "kilt": 4867,
    "Ġattempt": 3487,
    "Ġfounder": 17885,
    "Ġostrich": 26432,
    "Ġdozen": 8186,
    "body": 2308,
    "Ġornament": 11724,
    "Ġtradesman": 20076,
    "kitchen": 17587,
    "deepest": 22829,
    "recogn": 13428,
    "Ġanswers": 7072,
    "Ġbrill": 8551,
    "achment": 5464,
    "Ġhuff": 21493,
    "notwithstanding": 22754,
    "Ġaccursed": 9466,
    "arnel": 18127,
    "levelled": 23648,
    "Ġgrateful": 7660,
    "Ġaccompany": 9490,
    "Ġcase": 1940,
    "fitzwilliam": 11354,
    "Ġmus": 3397,
    "boats": 6206,
    "Ġbalm": 22907,
    "Ġarticles": 7110,
    "þ": 191,
    "wild": 8771,
    "Ġthrows": 14740,
    "ptember": 10896,
    "scythes": 26404,
    "vig": 15449,
    "sided": 17666,
    "cst": 10087,
    "Ġoverpowering": 15253,
    "Ġmug": 21315,
    "compan": 7301,
    "Ġsmo": 2700,
    "historian": 25735,
    "oin": 17619,
    "Ġcetace": 14991,
    "Ġbale": 7838,
    "bulwarks": 12277,
    "ignity": 4374,
    "wa": 5898,
    "inforcement": 3102,
    "scor": 13024,
    "th": 406,
    "Ġpiercing": 13496,
    "Ġgrievances": 20650,
    "Ġtenth": 13829,
    "Ġconsequently": 8060,
    "mbling": 3344,
    "Ġclue": 7021,
    "brows": 17499,
    "inian": 21185,
    "Ġslappin": 18945,
    "Ġbaleen": 10040,
    "Ġdecl": 3592,
    "Ġflattened": 26048,
    "Ġsyntax": 957,
    "Ġraises": 11849,
    "Ġtough": 13818,
    "rank": 21044,
    "Ġcommit": 18656,
    "bony": 15323,
    "Ġremained": 3141,
    "Ġcousin": 3705,
    "hur": 6651,
    "Ġperception": 9753,
    "Ġpleasing": 6192,
    "Ġbressed": 21390,
    "Ġporing": 21470,
    "Ġtul": 21162,
    "Ġwidows": 24239,
    "alogue": 25163,
    "decan": 22144,
    "Ġdoomed": 11344,
    "Ġappo": 8501,
    "anesc": 21363,
    "Ġindividually": 22960,
    "ette": 15663,
    "anque": 13891,
    "forest": 22522,
    "sherlock": 5422,
    "Ġyarn": 10870,
    "intellig": 5321,
    "Ġtiles": 17728,
    "orable": 8120,
    "Ġfatal": 5873,
    "Ġende": 21936,
    "Ġorder": 1685,
    "Ġnicely": 8712,
    "Ġer": 8105,
    "Ġ84": 19712,
    "Ġrecovered": 5481,
    "Ġrecre": 22737,
    "scornful": 26577,
    "Ġpoints": 5248,
    "improve": 15716,
    "geons": 15983,
    "Ġcombines": 1182,
    "Ġcommunicating": 16891,
    "sail": 3605,
    "Ġlowering": 7987,
    "Ġelementary": 24811,
    "idity": 8835,
    "Ġfearfulness": 23514,
    "stra": 4045,
    "Ġmeth": 1382,
    "Ġcared": 8787,
    "slightest": 25417,
    "Ġevap": 19626,
    "surd": 6934,
    "Ġscimet": 22292,
    "Ġunthinkingly": 26222,
    "hither": 11495,
    "Ġwafted": 14500,
    "corrupt": 14898,
    "Ġflirt": 14426,
    "Ġliar": 22412,
    "Ġbids": 24646,
    "assment": 9742,
    "Ġfow": 6135,
    "Ġungodly": 26515,
    "Ġobtain": 8918,
    "Ġdirections": 1970,
    "Ġintimate": 6551,
    "social": 11024,
    "closing": 23160,
    "intended": 11068,
    "reporting": 24494,
    "parable": 16400,
    "staff": 21659,
    "aring": 1477,
    "Ġhereafter": 9333,
    "indifferent": 14211,
    "Ġenveloping": 19737,
    "Ġquartered": 20376,
    "Ġtrans": 652,
    "Ġsickle": 24248,
    "Ġsavages": 9915,
    "Ġtutored": 20131,
    "algorith": 3474,
    "nikin": 23248,
    "phur": 16157,
    "aren": 10077,
    "Ġal": 342,
    "Ġdeclaration": 16639,
    "Ġpleased": 4063,
    "Ġthistle": 21920,
    "aur": 15312,
    "Ġentity": 10344,
    "mannered": 22856,
    "chers": 11319,
    "Ġdevoting": 22720,
    "Ġmentioning": 9902,
    "Ġcelebrate": 26359,
    "Ġentering": 6287,
    "joke": 20932,
    "Ġemerg": 13427,
    "Ġspr": 4025,
    "Ġpoul": 15617,
    "Ġwindow": 2992,
    "Ġloaf": 15876,
    "Ġcircumference": 13547,
    "indignation": 18439,
    "Ġcargo": 16293,
    "Ġunusually": 15850,
    "concerted": 16674,
    "Ġemblaz": 16233,
    "ateg": 1266,
    "rodu": 1819,
    "Ġgreek": 10633,
    "assistant": 25568,
    "valuable": 8246,
    "Ġlaudanum": 20693,
    "hos": 15367,
    "Ġtransl": 2828,
    "life": 4933,
    "sion": 8094,
    "Ġinhabit": 5782,
    "Ġtradesmen": 17106,
    "Ġducking": 17149,
    "Ġforeheads": 23449,
    "Ġbottomless": 12111,
    "Ġwow": 15532,
    "Ġnortheast": 23208,
    "Ġvindictive": 20473,
    "Ġscheduling": 2348,
    "Ġcustom": 5078,
    "doublo": 24661,
    "Ġcharge": 5325,
    "Ġfert": 15586,
    "Ġboa": 22638,
    "connect": 1293,
    "Ġpret": 3032,
    "Ġ1828": 25720,
    "Ġtanning": 17731,
    "Ġchronicled": 25329,
    "Ġsixty": 7723,
    "Ġhypocr": 19475,
    "Ġomen": 11579,
    "Ġjing": 15953,
    "Ġlookest": 22718,
    "Ġspur": 18304,
    "Ġblades": 11899,
    "Ġshowed": 4497,
    "Ġdread": 3164,
    "ivorous": 22086,
    "Ġremnants": 22796,
    "nut": 12499,
    "Ġlichen": 20095,
    "Ġsupported": 9821,
    "abouts": 9455,
    "Ġabounding": 12348,
    "Ġinstead": 2789,
    "Ġdyspepsia": 20645,
    "coiled": 16488,
    "Ġhandy": 12942,
    "Ġflatter": 9351,
    "Ġeighteen": 11240,
    "Ġpence": 17907,
    "sings": 4250,
    "Ġvague": 6407,
    "Ġunheard": 22029,
    "Ġoverhead": 11777,
    "Ġ109": 24416,
    "Ġhaving": 1880,
    "Ġrejecting": 17052,
    "Ġsplashing": 16553,
    "uzzle": 19586,
    "Ġcomparable": 24281,
    "Ġgrudge": 20696,
    "Ġan": 286,
    "Ġdig": 6137,
    "Ġliberty": 7762,
    "Ġmusky": 19385,
    "Ġduties": 6611,
    "Ġsatan": 14393,
    "Ą": 197,
    "Ġpermission": 9282,
    "Ġpeterson": 9486,
    "evade": 24817,
    "details": 19678,
    "Ġhumming": 12990,
    "spass": 18686,
    "foundation": 16716,
    "twinkle": 23706,
    "Ġbanish": 15574,
    "Ġevangelist": 20341,
    "Ġ9": 5902,
    "Ġglistening": 12369,
    "common": 4128,
    "Ġimpl": 7195,
    "Ġwis": 3728,
    "olet": 13769,
    "Ġcler": 11774,
    "acca": 23599,
    "Ġfriendly": 9823,
    "Ġhollowly": 24526,
    "Ġunchanged": 22035,
    "Ġwest": 5219,
    "Ġasse": 8160,
    "comed": 8547,
    "Ġswayed": 15050,
    "Ġeighteenth": 14757,
    "hee": 10762,
    "?âĢĿ": 700,
    "Ġhates": 21489,
    "Ġburnished": 24001,
    "Ġabased": 22272,
    "Ġfattened": 25950,
    "etent": 10202,
    "Ġ46": 19494,
    "Ġcomplaisance": 19452,
    "tap": 17678,
    "pun": 9620,
    "been": 3343,
    "enjoyments": 25434,
    "rage": 10845,
    "farewell": 12310,
    "Ġdents": 13914,
    "Ġappropriated": 23486,
    "Ġ64": 24367,
    "Ġbrave": 6331,
    "Ġshifted": 14110,
    "Ġconsternation": 9862,
    "Ġbutt": 14128,
    "Ġubiqu": 18049,
    "Ġresiding": 16065,
    "ib": 1236,
    "Ġnoisier": 4626,
    "Ġpain": 2303,
    "Ġpref": 14174,
    "eled": 2357,
    "irted": 14075,
    "Ġarid": 22180,
    "atha": 6574,
    "orses": 6053,
    "Ġsoo": 15865,
    "arled": 21445,
    "Ġmoved": 4841,
    "mud": 20973,
    "Ġafter": 869,
    "Ġlearnable": 3996,
    "Ġshirt": 8853,
    "Ġisles": 8461,
    "silver": 19693,
    "Ġincompetent": 25680,
    "Ġincumbent": 16066,
    "happy": 4424,
    "higher": 20410,
    "Ġanalogy": 25640,
    "baned": 17498,
    "peculiar": 6886,
    "Ġjustly": 11908,
    "Ġsteadily": 8052,
    "reinforcement": 7826,
    "battering": 20788,
    "Ġshocks": 16459,
    "heidelburgh": 21214,
    "Ġscud": 14193,
    "Ġhoops": 9392,
    "ineering": 21992,
    "con": 654,
    "Ġunex": 11717,
    "afric": 19181,
    "Ġglowed": 24865,
    "emporary": 15800,
    "Ġsongs": 13423,
    "Ġaccidental": 16850,
    "ological": 1884,
    "Ġclim": 8195,
    "Ġrate": 1066,
    "Ġfielding": 16244,
    "cerem": 15682,
    "Ġsoaked": 15866,
    "off": 1886,
    "weaknesses": 26031,
    "bushes": 24447,
    "Ġunscrew": 22044,
    "enances": 10156,
    "Ġadorn": 12798,
    "Ġbutler": 18271,
    "declined": 25175,
    "precipitance": 25868,
    "Ġcreditable": 19625,
    "Ġpoison": 7219,
    "Ġbroods": 23107,
    "Ġtyro": 16996,
    "Ġcoupled": 16853,
    "iciency": 9577,
    "č": 206,
    "Ġprop": 1680,
    "complain": 14360,
    "outon": 12809,
    "Ġbluish": 23654,
    "isk": 9170,
    "Ġmystery": 5509,
    "abond": 15745,
    "big": 13689,
    "Ġsouth": 4912,
    "Ġniagara": 26460,
    "Ġfoe": 7680,
    "Ġexp": 779,
    "Ġvilest": 20104,
    "Ġmowers": 17814,
    "ß": 160,
    "Ġprovided": 6579,
    "Ġabsent": 7016,
    "Ġunreserved": 19400,
    "went": 6513,
    "Ġdang": 9177,
    "Ġru": 948,
    "Ġforests": 13595,
    "Ġstoner": 7179,
    "Ġpained": 19169,
    "ats": 4252,
    "Ġgrapnels": 25552,
    "renewed": 19707,
    "ĠĠĠĠĠĠĠĠĠĠĠĠĠĠĠĠĠĠĠĠĠĠĠĠĠĠĠĠĠĠĠĠĠĠĠĠĠĠĠĠĠ": 19585,
    "Ġyanke": 18100,
    "Ġidolator": 20001,
    "Ġslain": 8956,
    "Ġrivals": 20274,
    "Ġingrat": 16842,
    "icism": 13959,
    "Ġsharply": 9406,
    "addressing": 24401,
    "Ġhold": 2246,
    "Ġtyphoons": 20237,
    "insensibility": 23072,
    "Ġelemental": 19921,
    "Ġallures": 22012,
    "Ġpigs": 19750,
    "tiest": 21084,
    "Ġweighing": 20019,
    "Ġ270": 25133,
    "rily": 7622,
    "vate": 21112,
    "Ġindirectly": 8942,
    "Ġlod": 4042,
    "Ġobstacle": 16957,
    "Ġtalent": 12301,
    "ulged": 12736,
    "tor": 15435,
    "asons": 6016,
    "ference": 1882,
    "equally": 19901,
    "Ġunrem": 18245,
    "Ġzoology": 22824,
    "Ġhisself": 21918,
    "Ġinterlacing": 22580,
    "Ġpacked": 9983,
    "Ġdismally": 20217,
    "Ġsadder": 24056,
    "Ġthack": 21520,
    "Ġvess": 3294,
    "Ġnod": 1888,
    "somebody": 14567,
    "x": 92,
    "decoder": 3646,
    "Ġcomfort": 3439,
    "Ġimpass": 15989,
    "Ġview": 2760,
    "ites": 3899,
    "ient": 394,
    "Ġur": 5540,
    "aisance": 15078,
    "fisher": 7547,
    "Ġresol": 2665,
    "Ġbodies": 8032,
    "Ġjour": 11768,
    "Ġtrib": 13822,
    "Ġundiscovered": 18253,
    "Ġde": 361,
    "Ġwarmest": 16486,
    "Ġcrozetts": 19632,
    "remed": 18955,
    "Ġfluctuations": 5516,
    "gold": 9123,
    "Ġinfirmity": 26299,
    "Ġexpon": 967,
    "ece": 17533,
    "coll": 23781,
    "Ġphren": 8575,
    "itig": 1332,
    "short": 6568,
    "Ġloadstone": 25817,
    "Ġspect": 3554,
    "save": 13788,
    "proposal": 18748,
    "ientiously": 21945,
    "affectionate": 24922,
    "irably": 13299,
    "Ġinexper": 16982,
    "interested": 9509,
    "Ġboisterously": 25683,
    "ounix": 14166,
    "aper": 4999,
    "Ġlurch": 21558,
    "Ġnapkins": 25165,
    "Ġconductor": 24010,
    "dreaded": 25141,
    "irresist": 21916,
    "Ġaperture": 26161,
    "Ġroofs": 16987,
    "Ġcries": 7155,
    "yed": 3271,
    "congenial": 25400,
    "Ġcomo": 21851,
    "Ġdec": 640,
    "acks": 11792,
    "Ġgros": 14826,
    "Ġcovent": 16077,
    "â": 163,
    "lan": 15381,
    "Ġunconsc": 6554,
    "Ġoar": 6238,
    "crimson": 24091,
    "Ġbracelets": 25503,
    "Ġsurging": 19135,
    "Ġgilded": 17448,
    "Ġhide": 4591,
    "Ġblowing": 10487,
    "waited": 24586,
    "Ġcassock": 20490,
    "æ": 167,
    "shortened": 24747,
    "Ġremem": 4313,
    "Ġmeditating": 20046,
    "incing": 15488,
    "specimen": 26607,
    "û": 188,
    "Ġlaug": 3629,
    "Ġnecks": 18189,
    "Ġnoblest": 13245,
    "Ġunprofitable": 18268,
    "Ġtrip": 16790,
    "Ġhumanity": 6733,
    "Ö": 151,
    "Ġelectric": 15198,
    "Ġsmells": 8893,
    ";--": 8069,
    "Ġretain": 7863,
    "fiercely": 25257,
    "rably": 21636,
    "copyright": 5278,
    "Ġaffirm": 11891,
    "Ġminutely": 14563,
    "Ġmaid": 5287,
    "repid": 11567,
    "Ġattain": 12755,
    "Ġrefusing": 11030,
    "Ġstared": 8456,
    "rier": 9245,
    "Ġtroubling": 26549,
    "Ġbud": 10171,
    "Ġchanged": 5242,
    "dogs": 25403,
    "orter": 4254,
    "ensive": 6281,
    "indispensable": 14212,
    "Ġgentleman": 3037,
    "ĠĠĠĠĠĠ": 6415,
    "Ġtrowsers": 9630,
    "Ġhotels": 19539,
    "iting": 2156,
    "isions": 6132,
    "Ġbreakfast": 3976,
    "thankful": 16808,
    "Ġpertur": 12857,
    "dignity": 15349,
    "Ġmighty": 4229,
    "Ġpikes": 21481,
    "know": 2318,
    "Ġbade": 9174,
    "Ġbeck": 14012,
    "Ġdiscomposed": 25581,
    "Ġshrimp": 24160,
    "speeches": 25240,
    "Ġsideboard": 10389,
    "ullen": 8235,
    "ters": 1574,
    "ad": 337,
    "Ġgidd": 25784,
    "Ġsimpler": 2049,
    "unguarded": 23671,
    "Ġsettlement": 19839,
    "Ġgiven": 1623,
    "Ġhav": 12760,
    "Ġpips": 9850,
    "madly": 24420,
    "Ġpersecut": 16954,
    "Ġrisen": 9496,
    "±": 114,
    "Ġimprecations": 25821,
    "rated": 6229,
    "Ġcombinations": 22876,
    "ria": 15801,
    "introduced": 15128,
    "Ġcable": 11583,
    "Ġvenetian": 14850,
    "iving": 1721,
    "Ġbrand": 16189,
    "walls": 25346,
    "rosc": 17957,
    "slackened": 26095,
    "ifting": 6547,
    "ers": 405,
    "contrast": 25595,
    "Ġinstigated": 18699,
    "Ġsustaining": 25334,
    "watery": 19829,
    "comfortableness": 24525,
    "Ġmock": 3692,
    "mentioned": 10626,
    "reduc": 5459,
    "Ġsimpleton": 16338,
    "Ġob": 860,
    "Ġpilgrim": 25600,
    "Ġinsignificance": 20460,
    "reputable": 15520,
    "oried": 10804,
    "iven": 1238,
    "Ġhams": 16614,
    "Ġregions": 10326,
    ",": 16,
    "Ġecon": 9680,
    "Ġfee": 7199,
    "Ġdark": 2112,
    "Ġislets": 21805,
    "Ġtremulous": 14989,
    "Ġpost": 4271,
    "Ġomitted": 12569,
    "Ġowest": 25094,
    "isen": 10794,
    "Ġforbade": 15218,
    "Ġunwilling": 7886,
    "rayed": 23565,
    "itic": 11581,
    "Ġmirth": 15549,
    "Ġnoting": 18222,
    "Ġbrawny": 13616,
    "allingly": 22203,
    "vessels": 10628,
    "tray": 21080,
    "mel": 9130,
    "Ġstuffed": 13412,
    "Ġremo": 3785,
    "Ġdraws": 19439,
    "Ġinfrequent": 3824,
    "yielded": 25757,
    "Ġparson": 6689,
    "Ġecho": 12672,
    "Ġappears": 5402,
    "rely": 6125,
    "ade": 881,
    "representation": 20199,
    "Ġpublisher": 24070,
    "Ġrows": 10563,
    "Ġunsupervised": 2553,
    "ler": 3492,
    "Ġgloomy": 7504,
    "Ġfurnaces": 24008,
    "Ġalternately": 15034,
    "Ġcharles": 11960,
    "Ġbeamed": 23724,
    "Ġbacks": 8530,
    "Ġlabelled": 23333,
    "Ġwhipcord": 20097,
    "Ġchecked": 9379,
    "baboon": 25517,
    "88": 20760,
    "Ġshore": 4836,
    "5": 25,
    "photograph": 16158,
    "Ġmien": 17810,
    "familiar": 19786,
    "alarm": 15631,
    "Ġide": 2123,
    "Ġalph": 9698,
    "Ġfever": 6560,
    "enari": 21284,
    "Ġown": 1003,
    "Ġsins": 13840,
    "Ġsaintly": 25932,
    "odecim": 9835,
    "engines": 18930,
    "composure": 24038,
    "Ġgentlemen": 3644,
    "Ġinscrut": 10037,
    "inter": 2945,
    "ryder": 18640,
    "Ġlikeness": 11181,
    "Ġantiqu": 12149,
    "portuguese": 25414,
    "Ġtormented": 8678,
    "Ġapril": 13665,
    "tallied": 21092,
    "Ġhalls": 19528,
    "reed": 6374,
    "Ġthick": 3782,
    "Ġunseen": 3524,
    "Ġsultanism": 25889,
    "Ġpint": 17911,
    "friend": 3864,
    "Ġattention": 1185,
    "Ġroasted": 18461,
    "waters": 11335,
    "beryls": 25310,
    "Ġkilburn": 18352,
    "Ġtable": 2500,
    "Ġpersonality": 16478,
    "fur": 6357,
    "Ġtyphoon": 12393,
    "Ġnin": 10190,
    "avish": 22600,
    "swift": 14855,
    "Ġalternate": 19989,
    "Ġsensational": 16392,
    "urs": 6990,
    "Ġshriek": 6640,
    "Ġarrives": 23609,
    "mess": 13756,
    "wood": 5899,
    "Ġstood": 2551,
    "market": 16841,
    "Ġpur": 2215,
    "Ġwee": 21922,
    "Ġtranslates": 12055,
    "Ġjoyous": 14666,
    "assin": 22309,
    "Ġunden": 22017,
    "Ġripples": 25506,
    "against": 5872,
    "Ġcramped": 23533,
    "ow": 325,
    "Ġbroke": 5323,
    "ahead": 12438,
    "Ġsucc": 12789,
    "Ġgul": 7860,
    "Ġsickly": 16776,
    "executed": 25740,
    "winds": 10524,
    "Ġrests": 13097,
    "wins": 21132,
    "agitation": 14071,
    "Ġtechnically": 12370,
    "Ġcapsizing": 20092,
    "presume": 25670,
    "Ġintelligently": 4093,
    "ger": 1108,
    "Ġgallon": 24187,
    "Ġleatherhead": 20017,
    "Ġhush": 13214,
    "orough": 5700,
    "Ġlocket": 22117,
    "Ġvaluable": 5608,
    "Ġoutward": 7904,
    "Ġfrosted": 19806,
    "hoped": 20912,
    "Ġcalmness": 12098,
    "nervous": 16280,
    "covered": 11479,
    "Ġbreat": 3460,
    "Ġeffectively": 2619,
    "Ġmeet": 2803,
    "Ġraptures": 13499,
    "Ġslices": 23169,
    "Ġsmilingly": 22564,
    "Ġvol": 4188,
    "Ġdeserted": 8640,
    "Ġsinners": 18952,
    "Ġcelest": 9904,
    "ł": 259,
    "Ġparlor": 13542,
    "Ġloath": 7891,
    "Ġcarted": 21353,
    "Ġmasking": 2420,
    "Ġpremises": 10490,
    "Ġwhitney": 11375,
    "âĢĶ.âĢĿ": 22259,
    "Ġhurried": 4032,
    "nlp": 8754,
    "Ġmuff": 8114,
    "Ġjump": 4504,
    "Ġspurn": 18310,
    "blacksmith": 17003,
    "Ġstrange": 2273,
    "Ġgiving": 4084,
    "willingness": 24754,
    "imson": 12696,
    "Ġtherefore": 2240,
    "ogue": 9784,
    "pilot": 25909,
    "Ġrepresentation": 14408,
    "Ġenvelop": 5586,
    "Ġgalvan": 21620,
    "Ġlie": 4406,
    "matter": 5136,
    "Ġconcepts": 4552,
    "Ġpastures": 23422,
    "cupboards": 25402,
    "Ġbounty": 26439,
    "Ġk": 484,
    "Ġtattoo": 7359,
    "ised": 1074,
    "nails": 17616,
    "uteness": 17988,
    "assist": 11771,
    "orne": 17874,
    "Ġpropagating": 20636,
    "Ġdashes": 21437,
    "ives": 1410,
    "Ġbir": 17855,
    "Ġconsidering": 4617,
    "Ġclicked": 22356,
    "vengeance": 13360,
    "ipper": 13743,
    "Ġdedicated": 19211,
    "holland": 24045,
    "Ġalbino": 20506,
    "charm": 13993,
    "Ġbesee": 19245,
    "Ġcheck": 7271,
    "miseries": 16759,
    "unts": 12737,
    "Ġconv": 2966,
    "9": 29,
    "Ġclos": 4550,
    "Ġbrim": 12981,
    "Ġcravat": 26308,
    "Ġacceptance": 14830,
    "derness": 11741,
    "share": 14239,
    "j": 78,
    "Ġsettles": 22923,
    "Ġhyster": 16875,
    "Ġworsted": 19998,
    "Ġreiterating": 26476,
    "concent": 19483,
    "Ġspasmodic": 20401,
    "tier": 12519,
    "Ġschoolboys": 24481,
    "Ġpatterns": 1213,
    "ureau": 10229,
    "Ĵ": 245,
    "belong": 12127,
    "ial": 410,
    "Ġbehaviors": 13257,
    "ĠĠĠĠĠĠĠĠĠĠĠĠĠĠĠĠĠĠĠĠĠĠĠĠĠĠĠĠĠĠĠĠĠĠĠĠĠĠĠĠĠĠĠĠĠĠĠ": 16757,
    "Ġpott": 21471,
    "Ġremainder": 9861,
    "gered": 9279,
    "rocket": 13947,
    "Ġpoised": 22596,
    "Ġgum": 21598,
    "assault": 22310,
    "Ġdefinitions": 22947,
    "Ġappro": 666,
    "aset": 10834,
    "Ġwheeling": 18289,
    "voyages": 24856,
    "Ġcoronet": 6346,
    "hil": 8379,
    "ock": 15405,
    "Ġpilot": 5986,
    "Ġagatha": 6866,
    "Ġhappiness": 2942,
    "Ġscarlet": 13227,
    "breath": 15166,
    "Ġclimbing": 20073,
    "tent": 21067,
    "Ġchink": 15936,
    "Ġont": 18121,
    "Ġescaped": 6460,
    "terns": 21826,
    "Ġcolder": 22859,
    "canoes": 16234,
    "Ġcontradicted": 20214,
    "Ġsignals": 10588,
    "Ġchal": 18378,
    "Ġpurchase": 12264,
    "Ġduck": 8798,
    "Ġadding": 2401,
    "Ġinspired": 2519,
    "Ġproportionate": 17044,
    "tar": 8098,
    "Ġelbow": 12926,
    "whal": 10942,
    "Ġsuppressing": 23004,
    "etimes": 1988,
    "Ġcomposure": 7217,
    "individual": 18437,
    "Ġjoining": 13167,
    "Ġwoodlands": 23524,
    "occupation": 15059,
    "igation": 5919,
    "erately": 21276,
    "tery": 14040,
    "'t": 3144,
    "Ġcom": 368,
    "Ġdominion": 16517,
    "poises": 11893,
    "attended": 8955,
    "henomenon": 13617,
    "Ġ125": 24470,
    "_;": 6643,
    "Ġimperfect": 13343,
    "Ġselves": 21225,
    "Ġfeigned": 22214,
    "Ġ55": 24319,
    "Ġunassuming": 20512,
    "Ġleads": 12101,
    "```": 25894,
    "Ġfergus": 16869,
    "discover": 10542,
    "Ġtwin": 12934,
    "Ġrubbing": 9324,
    "Ġconstit": 8587,
    "clever": 20815,
    "sought": 15430,
    "Ġascribe": 16784,
    "Ġthroughout": 8880,
    "Ġswelling": 11929,
    "Ġinvariable": 13459,
    "Ġcolumbus": 26566,
    "Ġretirement": 25379,
    "Ġrapid": 1474,
    "Ġextravagant": 17281,
    "Ġamazement": 7765,
    "Ġvalues": 2651,
    "liament": 16221,
    "evil": 11488,
    "Ġglobu": 23274,
    "Ġgour": 21601,
    "vener": 21114,
    "Ġvengeance": 5886,
    "Ġmoth": 17804,
    "erns": 8782,
    "Ġcaw": 13886,
    "white": 4604,
    "Ġcontains": 2792,
    "Ġbakers": 17868,
    "Ġsuperfluous": 17417,
    "gird": 20881,
    "vel": 2383,
    "besides": 8699,
    "Ġans": 1640,
    "Ġmonument": 16242,
    "Ġsubject": 2464,
    "Ġupbraided": 26530,
    "enit": 17781,
    "Ġtortured": 14927,
    "Ġhappen": 5571,
    "Ġroof": 6566,
    "wrote": 11549,
    "smitten": 23912,
    "biqu": 17500,
    "Ġtennes": 23551,
    "Ġfanciful": 24787,
    "Ġrepublic": 14533,
    "Ġrod": 9283,
    "Ġtusk": 25426,
    "degree": 12807,
    "Ġselfish": 7272,
    "apology": 22337,
    "Ġboast": 7036,
    "inting": 9817,
    "rels": 6667,
    "Ġdaring": 8121,
    "Ġrepairs": 19085,
    "Ġentreated": 9954,
    "Ġ\"": 6121,
    "Ġpequod": 2322,
    "Ġmagical": 23103,
    "Ġprotruded": 19473,
    "Ġmoot": 22436,
    "onness": 21257,
    "Ġworn": 6446,
    "Ġtink": 9151,
    "Ġjan": 11766,
    "event": 8077,
    "Ġshapes": 14112,
    "Ġtorrents": 20059,
    "Ġmanhat": 22331,
    "Ġsandwiched": 26612,
    "absolut": 8460,
    "Ġneville": 7399,
    "Ġsympath": 4862,
    "Ġladder": 8601,
    "Ġtreats": 19347,
    "spect": 3233,
    "Ġregularity": 22788,
    "Ġasi": 12738,
    "fingers": 17373,
    "Ġspeeding": 23566,
    "Ġfacts": 2288,
    "Ġexhilarating": 26339,
    "track": 24335,
    "Ġpract": 1831,
    "animals": 24737,
    "Ġwaterproof": 19090,
    "Ġabsolut": 3911,
    "ulgences": 21869,
    "ilingly": 21727,
    "Ġabominably": 20069,
    "Ġlouisa": 13548,
    "fth": 20858,
    "Ġconfused": 7965,
    "gladness": 25195,
    "Ġcomprehending": 24445,
    "goin": 23406,
    "ities": 1827,
    "Ġdemanded": 8327,
    "Ġmichaelmas": 26376,
    "cheon": 23806,
    "eed": 20843,
    "Ġstarry": 16925,
    "Ġstraightway": 9020,
    "Ġruefully": 17304,
    "Ġwashington": 17205,
    "lose": 12887,
    "Ġgale": 5823,
    "Ġglobular": 19011,
    "Ġstraightened": 12113,
    "organic": 25947,
    "Ġstarboard": 7605,
    "ures": 838,
    "Ġdair": 17891,
    "Ġvillanous": 24059,
    "bitts": 26123,
    "Ġlizz": 21560,
    "Ġgrass": 5177,
    "description": 11096,
    "Ġquantization": 19856,
    "Ġmiserably": 12952,
    "even": 3837,
    "ider": 21769,
    "Ġliberal": 12195,
    "se": 358,
    "Ġdripping": 13150,
    "Ġsplend": 9901,
    "pondicherry": 26402,
    "frantic": 24285,
    "Ġmisfortunes": 7043,
    "Ġhypothesis": 14787,
    "Ġhinted": 6013,
    "Ġlowest": 11123,
    "Ġforeshadowing": 26594,
    "Ġutmost": 5496,
    "fug": 17545,
    "Ġsharper": 17182,
    "Ġcle": 1511,
    "knowing": 10439,
    "andromeda": 21872,
    "Ġimpulsive": 19966,
    "ast": 473,
    "mate": 5359,
    "Ġenrapt": 21943,
    "Ġsocially": 22091,
    "Ġaught": 8777,
    "Ġprof": 2460,
    "Ġplaces": 5390,
    "ĳ": 244,
    "Ġactively": 18654,
    "Ġmuttered": 7088,
    "Ġchase": 3945,
    "Ġnations": 8814,
    "Ġprofusion": 23570,
    "Ġdegenerated": 20509,
    "inity": 5693,
    "general": 7489,
    "caps": 20809,
    "europe": 20668,
    "Ġjest": 18404,
    "Ġurgent": 16871,
    "Ġsight": 2111,
    "Ġarrived": 3746,
    "Ġabuse": 18393,
    "ubl": 3597,
    "Ġadd": 630,
    "Ġwing": 6668,
    "berwell": 22749,
    "Ġshout": 4263,
    "marks": 7346,
    "Ġgamesome": 17292,
    "Ġxl": 11994,
    "Ġprodigy": 19795,
    "raint": 18318,
    "Ġnoses": 18373,
    "Ġtwopence": 18661,
    "sequent": 6831,
    "ampled": 18884,
    "doubt": 6783,
    "arts": 6565,
    "mblance": 7323,
    "Ġunche": 23431,
    "shud": 18492,
    "state": 13982,
    "Ġvarious": 3510,
    "remental": 21250,
    "pure": 17628,
    "Ġbulls": 23861,
    "Ġsprawling": 22143,
    "Ġcreamy": 14331,
    "Ġthoroughfares": 26096,
    "rium": 3133,
    "Ġmatted": 22915,
    "Ġacquies": 11099,
    "Ġreminisc": 18726,
    "Ġcordage": 19681,
    "congreg": 25399,
    "Ġdoleful": 18377,
    "Ġrepresented": 8941,
    "jer": 12485,
    "blue": 13697,
    "Ġdegrad": 2589,
    "pos": 15413,
    "clopÃ¦": 13060,
    "length": 7136,
    "Ġutilize": 4799,
    "Ġdeath": 2044,
    "Ġfloor": 4378,
    "âĢľ_": 5720,
    "Ġdazed": 15600,
    "drop": 15340,
    "Ġbalance": 2022,
    "Ġancles": 21449,
    "Ġlydia": 2372,
    "Ġmutually": 23960,
    "py": 17626,
    "ĠĠĠĠĠĠĠĠĠĠĠĠĠĠĠĠĠĠĠĠĠĠĠĠĠĠĠĠĠĠ": 24443,
    "Ġproverb": 12722,
    "anter": 9169,
    "Ġpewter": 17188,
    "antages": 7192,
    "Ġgrooves": 16743,
    "Ġsundering": 23277,
    "visits": 24226,
    "Ġslumbering": 25702,
    "Ġblack": 2035,
    "granting": 23416,
    "Ġcheetah": 14504,
    "Ġintermediate": 18589,
    "Ġjail": 22298,
    "Ġcouch": 12577,
    "forget": 11034,
    "aping": 8194,
    "begins": 18526,
    "Ġagitated": 7648,
    "Ġstring": 11831,
    "Ġaimed": 20253,
    "Ġbapt": 13899,
    "usal": 7639,
    "Ġafresh": 18626,
    "creature": 5347,
    "Ġcontemplate": 19894,
    "linging": 16083,
    "Ġstanzas": 21748,
    "properly": 24919,
    "Ġdecipher": 22445,
    "conduct": 11801,
    "Ġauto": 23304,
    "Ġ10": 5249,
    "Ġbitt": 10798,
    "Ġprofess": 3699,
    "Ġmorsel": 20680,
    "Ġscrape": 14921,
    "may": 3680,
    "simply": 20673,
    "Ġclaims": 13376,
    "erland": 9643,
    "horizon": 23617,
    "Ġnails": 12654,
    "Ġsleeves": 10663,
    "exerc": 16019,
    "ċ": 204,
    "cheerful": 13578,
    "grand": 7970,
    "Ġformidable": 8220,
    "velling": 14766,
    "Ġsnaky": 23744,
    "ernally": 22622,
    "Ġgranted": 22810,
    "Ġfeeling": 3082,
    "Ġentit": 22743,
    "dining": 13709,
    "Ġwrit": 8242,
    "Ġfreer": 23212,
    "Ġintact": 21993,
    "Ġnobody": 6160,
    "Ġunreasonably": 17454,
    "nostr": 22741,
    "altern": 17944,
    "Ġwrists": 11114,
    "Ġembatt": 18839,
    "cordiality": 25140,
    "Ġmonotonous": 13266,
    "resembled": 21249,
    "Ġirons": 7696,
    "cord": 8727,
    "term": 3758,
    "Ġintelligences": 12836,
    "Ġdegener": 14049,
    "conside": 9293,
    "Ġtroop": 24898,
    "_,âĢĿ": 6220,
    "Ġunembarrassed": 22075,
    "nades": 20999,
    "Ġnephew": 6406,
    "brain": 13691,
    "Ġfun": 525,
    "adventurous": 25362,
    "overs": 17623,
    "ton": 1724,
    "buncle": 13696,
    "bid": 5611,
    "pleasing": 14745,
    "observing": 25495,
    "attendants": 25496,
    "Ġsnug": 8280,
    "Ġfurnished": 6476,
    "solitude": 23300,
    "Ġspots": 11733,
    "Ġestablished": 9072,
    "beaut": 8515,
    "Ġinfat": 14501,
    "excited": 13383,
    "Ġmeant": 3552,
    "coal": 12029,
    "Ġsociet": 9452,
    "Ġdispositions": 13236,
    "proble": 9397,
    "Ġrocky": 13390,
    "endering": 21287,
    "Ġsur": 2183,
    "Ġstaid": 21739,
    "Ġard": 5164,
    "suff": 4961,
    "Ġenumer": 12751,
    "Ġextra": 4055,
    "Ġindefinite": 17179,
    "Ġlurk": 13386,
    "Ġwore": 6378,
    "crated": 16685,
    "ere": 6790,
    "_).âĢĶ": 8685,
    "Ġharpooneers": 4733,
    "Ġcomprehen": 5350,
    "Ġhemisphere": 26480,
    "):": 11463,
    "icular": 2024,
    "Ġslid": 7952,
    "icious": 7380,
    "âĢĿ": 354,
    "Ġknowest": 12869,
    "hereditary": 26421,
    "evident": 25521,
    "crowded": 20193,
    "Ġpresumption": 10548,
    "Ġeldest": 6573,
    "straight": 9943,
    "Ġfleece": 10617,
    "Ġmortifying": 13248,
    "Ġpossibility": 7458,
    "Ġhosts": 19942,
    "Ġglancing": 5399,
    "Ġproof": 6155,
    "Ġformless": 22833,
    "Ġassuring": 13068,
    "Ġpharaoh": 26587,
    "reas": 988,
    "Ġeffusion": 22502,
    "Ġnourishment": 15196,
    "Ġenvironment": 3863,
    "Ġanimals": 8981,
    "Ġrespectable": 6738,
    "Ġstanding": 2994,
    "Ġkrus": 18350,
    "Ġmild": 4146,
    "Ġcalms": 23046,
    "Ġprogressive": 5024,
    "Ġindulging": 16906,
    "Ġ96": 24593,
    "Ġoutweigh": 22326,
    "consideration": 14958,
    "Ġaudacity": 19884,
    "Ġsuccour": 20438,
    "only": 3307,
    "conquerable": 17402,
    "inct": 3291,
    "Ġhumped": 19772,
    "Ġlaid": 3941,
    "Ġrecital": 16145,
    "Ġmuseum": 15275,
    "Ġequilibrium": 4140,
    "Ġwhispered": 5338,
    "Ġhired": 10180,
    "Ġbad": 3988,
    "rador": 19129,
    "max": 1684,
    "Ġexpands": 25238,
    "Ġvulgar": 13607,
    "Ġreaching": 7303,
    "Ġrecurred": 18977,
    "Ġholland": 10368,
    "Ġpend": 15610,
    "Ġhistor": 3391,
    "Ġreg": 734,
    "himself": 3972,
    "Ġminimizing": 3465,
    "Ġsoldiers": 8690,
    "Ġspasmodically": 17317,
    "Ġagonizing": 17241,
    "Ġaloft": 4303,
    "Ġgeorgia": 23889,
    "Ġtass": 15472,
    "Ġtear": 6725,
    "Ġoutfits": 22325,
    "provid": 11151,
    "Ġresistance": 13532,
    "Ġdevelopments": 23233,
    "Ġdiscriminative": 4327,
    "outs": 7010,
    "pistol": 17644,
    "Ġaudits": 24769,
    "Ġbrahma": 26321,
    "ĠĠĠĠĠĠĠĠĠĠĠĠĠĠĠĠĠĠĠĠĠĠĠĠĠĠĠĠĠĠĠĠĠĠĠĠĠĠĠĠĠĠ": 24212,
    "Ġbuoy": 8004,
    "Ġquitting": 7646,
    "Ġac": 845,
    "constellation": 24608,
    "anders": 18155,
    "load": 12886,
    "Ġcover": 3559,
    "Ġpulling": 5864,
    "execut": 13658,
    "Ġhandspikes": 12944,
    "Ġsouthern": 7689,
    ":--âĢľ": 24550,
    "Ġadventures": 7748,
    "Ġsixth": 16562,
    "Ġpapered": 20134,
    "prick": 19346,
    "Ġundesired": 12785,
    "Ġpythag": 26450,
    "Ġkeel": 6445,
    "Ġoverheard": 11778,
    "itage": 17818,
    "Ġfrench": 4939,
    "Ġorders": 5341,
    "Ġtower": 8319,
    "twain": 23703,
    "tallow": 21088,
    "aft": 9586,
    "Ġlearnt": 7614,
    "Ġdisconsol": 18558,
    "ell": 395,
    "ful": 675,
    "take": 4578,
    "Ġnieces": 8434,
    "affairs": 14658,
    "Ġwedged": 24936,
    "Ġharvard": 24574,
    "pursuit": 20343,
    "unk": 4540,
    "Ġrescued": 24209,
    "Ġcroquet": 9965,
    "plain": 1361,
    "Ġstruggled": 9908,
    "M": 49,
    "Ġoun": 13866,
    "Ġfrancis": 26064,
    "Ġstudents": 23247,
    "portent": 25413,
    "gan": 2197,
    "downward": 16621,
    "Ġfable": 15581,
    "uted": 7593,
    "laz": 15389,
    "Ġsulkily": 25882,
    "sequently": 14585,
    "Ġ40": 14772,
    "Ġrind": 21973,
    "Ġperpendicular": 7209,
    "Ġresolve": 13173,
    "Ġamidst": 9497,
    "Ġdistraction": 22510,
    "Ġgown": 10204,
    "apparent": 11043,
    "Ġegress": 21624,
    "shroud": 20315,
    "Ġspermaceti": 8970,
    "Ġhud": 10824,
    "otently": 21804,
    "Ġoffence": 12949,
    "Ġflower": 16235,
    "Ġpledged": 20690,
    "Ġhackluyt": 25656,
    "Ġwhence": 5840,
    "/": 19,
    "Ġwasted": 9707,
    "commander": 16989,
    "oftentimes": 19424,
    "Ġroyal": 5602,
    "ieving": 7033,
    "Ġabsurdly": 19963,
    "Ġadjust": 2154,
    "bohem": 19002,
    "Ġreigned": 13990,
    "Ġoverl": 18427,
    "Ġwaldman": 11347,
    "Ġadvis": 9813,
    ".}": 20747,
    "Ġbenefits": 4286,
    "obtain": 23098,
    "peddling": 21034,
    "ut": 308,
    "Ġreturned": 2889,
    "Ġbrittle": 22866,
    "Ġparalle": 1411,
    "Ġshrieks": 12204,
    "Ġcauldron": 25442,
    "Ġwalton": 14975,
    "Ġhammered": 13243,
    "Ġmaintains": 2143,
    "Ġrequires": 1040,
    "ound": 586,
    "Ġfreshet": 25704,
    "83": 13684,
    "Ġaddressed": 5263,
    "nantucket": 7804,
    "okened": 15988,
    "ę": 218,
    "Ġreced": 15696,
    "Ġbeliefs": 24583,
    "Ġcleanse": 24527,
    "Ġgums": 21614,
    "Ġdisc": 943,
    "Ġunrestrained": 25555,
    "Ġdoze": 14177,
    "Ġspaniards": 25556,
    "Ġspacious": 18313,
    "Ġwords": 1326,
    "Ġirregular": 9868,
    "thest": 11657,
    "ture": 7558,
    "mariners": 19551,
    "condesc": 18504,
    "Ġparticulars": 5754,
    "lar": 4484,
    "Ġlaugh": 4113,
    "Ġchocks": 13349,
    "Ġbreaches": 14523,
    "springs": 24912,
    "quite": 4648,
    "Ġswear": 6462,
    "Ġgift": 10842,
    "Ġextremely": 2668,
    "ils": 3184,
    "uel": 6967,
    "Ġbroom": 18908,
    "Ġattraction": 18627,
    "Ġpredefined": 20719,
    "Ġdisappointed": 7099,
    "Ġinjuring": 24271,
    "Ġdepart": 4657,
    "Ġdit": 21423,
    "Ġ114": 24438,
    "amples": 1823,
    "Ġleghorn": 13149,
    "Ġshakes": 10906,
    "itzerland": 9998,
    "ages": 826,
    "Ġesteem": 7531,
    "Ġmeals": 12717,
    "Ġwhen": 514,
    "acute": 22601,
    "ilies": 18059,
    "cannib": 11907,
    "Ġfloats": 9416,
    "Ġmermaid": 17815,
    "Ġanchors": 12619,
    "Ġoozy": 21330,
    "ien": 10104,
    "Ġtyros": 26102,
    "Ġprocedures": 9415,
    "Ġcorruption": 15229,
    "Ġlonging": 14302,
    "Ġpopularly": 12246,
    "Ġcrowding": 13282,
    "patient": 25343,
    "Ġpanelled": 19657,
    "rote": 4594,
    "subject": 6634,
    "Ġkindred": 16381,
    "illation": 14144,
    "Ġunfitted": 24111,
    "isf": 2435,
    "Ġpalaces": 24096,
    "buoy": 7761,
    "Ġskirts": 14355,
    "Ġempty": 5354,
    "objects": 13473,
    "prom": 6510,
    "Ġher": 426,
    "retired": 11940,
    "ee": 1660,
    "Ġbear": 3659,
    "act": 784,
    "ital": 4819,
    "Ġdoubted": 7966,
    "Ġmaterials": 11290,
    "Ġascended": 8669,
    "Ġdive": 10175,
    "rid": 5137,
    "ober": 15409,
    "Ġremarked": 3696,
    "Ġtri": 4814,
    "orphans": 26442,
    "Ġsurgeon": 8984,
    "Ġclaimed": 14204,
    "Ġcoquet": 22588,
    "Ġpleasantly": 14522,
    "Ġast": 2958,
    "Ġrot": 10969,
    "Ġlob": 7628,
    "Ġrelation": 2141,
    "Ġmoulton": 17438,
    "Ġdignity": 5704,
    "instr": 12536,
    "Ġfervent": 14899,
    "ery": 1270,
    "Ġeffectually": 16171,
    "erm": 785,
    "minutes": 7512,
    "send": 15425,
    "Ġsisters": 3642,
    "Ġcaress": 16343,
    "Ġphilistines": 26083,
    "Ġdanger": 3520,
    "under": 3132,
    "Ġblanket": 8343,
    "Ġintroduction": 8973,
    "chants": 21695,
    "12": 20751,
    "performed": 18343,
    "Ġulster": 14999,
    "fil": 12467,
    "Ġinterposed": 20622,
    "hr": 20890,
    "Ġbowl": 11206,
    "Ġpromised": 5181,
    "Ġbarbaric": 10017,
    "Ġriggers": 24159,
    "rapidly": 15247,
    "Ġplainpal": 19279,
    "manif": 14376,
    "Ġresolves": 23652,
    "unhesitatingly": 26498,
    "Ġresembling": 4097,
    "cl": 1495,
    "Ġlaunched": 14929,
    "Ġpall": 7583,
    "Ġarithmetic": 18339,
    "Ġfriesland": 26444,
    "stars": 18022,
    "Ġfaint": 5812,
    "Ġjoyful": 13225,
    "Ġexternal": 8365,
    "Ġdone": 1818,
    "regulated": 23469,
    "Ġdestroy": 5772,
    "Ġnewcomer": 26041,
    "Ġmanor": 14199,
    "Ġintercepted": 25828,
    "ained": 3063,
    "rison": 13782,
    "Ġgraceful": 11298,
    "Ġbehind": 2806,
    "Ġfails": 13317,
    "Ġlarboard": 11011,
    "Ġmethodic": 23091,
    "Ġboister": 12925,
    "Ġrally": 21972,
    "dare": 12458,
    "Ġrough": 7187,
    "ite": 712,
    "Ġfem": 6136,
    "Ġsheltered": 19913,
    "Ġmeas": 1100,
    "beside": 19879,
    "Ġfedallah": 6110,
    "maged": 15397,
    "Ġface": 1718,
    "mus": 10113,
    "mell": 20966,
    "Ġconcl": 5095,
    "tale": 10130,
    "Ġbildad": 3781,
    "ai": 2526,
    "thumb": 18219,
    "Ġfir": 17879,
    "Ġnapole": 15119,
    "Ġengravings": 15069,
    "fe": 677,
    "Ġinvoking": 19147,
    "aloud": 17943,
    "itancy": 21336,
    "Ġgrand": 3595,
    "rolled": 9062,
    "rength": 4101,
    "Ġprofundities": 20456,
    "rice": 13780,
    "fl": 3602,
    "tender": 14477,
    "decl": 8860,
    "Ġblotting": 25314,
    "Ġceaseless": 13491,
    "Ġembraced": 10009,
    "Ġdarcy": 1343,
    "Ġprepar": 7897,
    "luyt": 18455,
    "block": 11472,
    "Ġaggregated": 25679,
    "Ġenumerating": 15248,
    "bres": 11473,
    "Ġcongratulations": 10583,
    "Ġstumbling": 21746,
    "dling": 15343,
    "Ġfastening": 16360,
    "ullied": 23109,
    "Ġcrowds": 14742,
    "urean": 18125,
    "Ġpathetic": 19030,
    "obey": 11512,
    "Ġrand": 1584,
    "Ġreaders": 18916,
    "wond": 8772,
    "withdrawn": 23031,
    "ry": 805,
    "Ġaccomplish": 14879,
    "Ġscraped": 16905,
    "ĸ": 249,
    "Ġlump": 21555,
    "ping": 9618,
    "Ġowed": 10782,
    "Ġpeasants": 12336,
    "explained": 23148,
    "france": 24284,
    "romising": 18234,
    "Ġexact": 2543,
    "proud": 9907,
    "Ġsystematically": 3528,
    "Ġscore": 9741,
    "Ġcomple": 2838,
    "Ġpeter": 10538,
    "Ġembraces": 19874,
    "Ġdirt": 15598,
    "Ġintimately": 24801,
    "Ġmartyr": 26362,
    "Ġarchitect": 969,
    "trop": 15439,
    "hear": 10149,
    "low": 653,
    "Ġconfident": 11140,
    "Ġheroines": 19754,
    "onsense": 6432,
    "Ġbr": 1075,
    "Ġviolence": 5964,
    "Ġexasperated": 11414,
    "Ġten": 2384,
    "dict": 15341,
    "Ġabreast": 18395,
    "Ġtorrid": 25035,
    "Ġunforgiving": 25996,
    "Ġnursing": 12219,
    "Ġskirting": 22799,
    "Ġprimal": 17108,
    "Ġneurons": 976,
    "Ġpuzzling": 14901,
    "Ġendangered": 16306,
    "Ġsobbing": 14138,
    "yesterday": 10355,
    "recovered": 19790,
    "ernsey": 8905,
    "Ġprefers": 20517,
    "Ġdumb": 7843,
    "Ġindependence": 12109,
    "rubbed": 22194,
    "Ġhoars": 19079,
    "Ġconsort": 18724,
    "Ġbreathe": 9015,
    "Ġdr": 2822,
    "ulance": 15771,
    "Ġdrily": 23542,
    "Ġchose": 7413,
    "letters": 13177,
    "Ġwrung": 14474,
    "regularization": 3515,
    "cur": 3269,
    "Ġla": 5914,
    "Ġclad": 12845,
    "idol": 21770,
    "Ġtone": 4039,
    "gs": 7338,
    "larking": 17596,
    "ĠâĢľâĢĺ_": 25114,
    "god": 4864,
    "mur": 5428,
    "otam": 21802,
    "Ġshould": 863,
    "Ġconfronted": 23311,
    "Ġfantastic": 10062,
    "Ġpand": 21458,
    "nose": 17612,
    "Ġlearnedly": 23389,
    "ap": 546,
    "fing": 13716,
    "Ġenabling": 1082,
    "best": 6113,
    "ernity": 18616,
    "tru": 10731,
    "pered": 4196,
    "surf": 24215,
    "manned": 18766,
    "ready": 2359,
    "Ġcurious": 3360,
    "Ġmanipulation": 10661,
    "Ġquee": 1980,
    "Ġfrosty": 14938,
    "Ġdeception": 18140,
    "idav": 18095,
    "Ġsteer": 10390,
    "tables": 19760,
    "Ġabout": 633,
    "Ġpreviously": 3920,
    "Ġaccorded": 24094,
    "vice": 15452,
    "Ġglimpses": 13435,
    "Ġsupper": 4667,
    "Ġearth": 2847,
    "Ġperennial": 22699,
    "Ġrumours": 24599,
    "Ġrights": 10399,
    "Ġmicroscopic": 26375,
    "Ġhoped": 5488,
    "iffe": 21906,
    "Ġtill": 1825,
    "Ġenc": 964,
    "stubb": 6019,
    "unpardonable": 21894,
    "verty": 8454,
    "terrors": 25044,
    "superstitiousness": 25509,
    "Ġmeditative": 25017,
    "Ġtry": 3134,
    "quely": 10234,
    "Ġ(`": 12859,
    "opened": 7913,
    "dington": 12070,
    "Ġbinnacle": 8119,
    "flag": 14714,
    "Ġtumult": 7116,
    "wedged": 24559,
    "Ġdungeon": 16998,
    "Ġbinding": 20422,
    "Ġcultured": 25158,
    "Ġendued": 14080,
    "âĢĺ": 940,
    "Ġaffidav": 18790,
    "Ġtangle": 25761,
    "Ġedged": 23489,
    "Ġpenetration": 19919,
    "Ġbrazen": 23843,
    "pute": 8849,
    "Ġsubtlety": 24779,
    "Ġsable": 15503,
    "introduction": 15127,
    "stri": 6251,
    "loat": 8890,
    "Ġspray": 7894,
    "Ġhails": 21954,
    "papers": 12506,
    "Ġbleeding": 14883,
    "Ġis": 347,
    "Ġadmirals": 20388,
    "iless": 10284,
    "peculiarity": 23114,
    "profess": 10637,
    "Ġteacup": 16217,
    "machines": 8385,
    "Ġstammered": 26201,
    "direct": 12461,
    "ĠĠĠĠĠĠĠĠĠĠĠĠĠĠĠĠĠĠĠĠĠĠĠĠĠĠ": 13391,
    "Ġarab": 7823,
    "flo": 6116,
    "ĠĠĠĠĠĠĠĠĠĠĠĠĠĠĠĠĠĠĠĠĠĠĠĠĠĠĠĠĠĠĠĠĠĠĠĠĠĠ": 16528,
    "Ġflew": 5588,
    "dan": 17517,
    "ego": 4035,
    "itious": 8784,
    "Ġsquint": 22841,
    "Ġeuropean": 20049,
    "Ġsuccor": 25663,
    "Ġrefined": 18705,
    "Ġsain": 17752,
    "Ġsling": 21223,
    "Ġhumane": 11888,
    "Ġpolluted": 25594,
    "Ġusher": 22225,
    "Ġbrutality": 26278,
    "Ġminority": 18755,
    "forks": 26389,
    "Ġstrive": 23696,
    "Ġemperors": 15163,
    "Ġhear": 1965,
    "ÿ": 192,
    "Ġmuse": 13863,
    "Ġtin": 15466,
    "Ġvehemence": 26568,
    "illum": 15873,
    "netherfield": 9816,
    "Ġsystematic": 5244,
    "Ġledgers": 23941,
    "Ġdemands": 19641,
    "Ġpractises": 23316,
    "Ġdoxology": 22248,
    "Ġwashed": 15769,
    "'d": 12431,
    "bruary": 15239,
    "Ġaccelerating": 1615,
    "baked": 20781,
    "girl": 12322,
    "Q": 53,
    "Ġquies": 18465,
    "Ġfacilitate": 26099,
    "90": 12436,
    "arious": 10320,
    "Ġmalignity": 10559,
    "Ġofficious": 19351,
    "Ġclergyman": 8715,
    "arned": 21821,
    "Ġdealer": 23980,
    "revival": 26163,
    "Ġassemblage": 26354,
    "Ġseen": 1370,
    "Ġplaything": 19240,
    "poise": 6173,
    "court": 7511,
    "Ġprecipitate": 19945,
    "pling": 8477,
    "hearing": 8404,
    "Ġintimidated": 24802,
    "Ġassistants": 9454,
    "fail": 17542,
    "Ġalien": 14021,
    "Ġwanted": 4968,
    "cri": 17508,
    "Ġinsinuating": 19273,
    "Ġsleek": 23387,
    "Ġerected": 12238,
    "Ġdisappearing": 22537,
    "âĢĶâĢĻ": 8188,
    "Ġcontinents": 16851,
    "Ġridges": 16733,
    "adru": 15735,
    "Ġeffeminacy": 20720,
    "Ġbeaut": 2392,
    "Ġadmiring": 16482,
    "¦": 104,
    "roar": 17955,
    "Ġcompares": 20169,
    "Ġunappe": 22022,
    "Ġwaited": 4909,
    "its": 1147,
    "Ġslu": 13839,
    "special": 14708,
    "Ġdrops": 9035,
    "Ġai": 3128,
    "Ġsaucer": 20608,
    "osop": 4404,
    "Ġprodigiously": 14935,
    "ozy": 17624,
    "Ġet": 3583,
    "ency": 3870,
    "unwho": 21881,
    "Ġsquad": 22840,
    "treacle": 25151,
    "Ġslow": 2377,
    "chor": 6148,
    "stir": 12679,
    "Ġdoors": 6419,
    "Ġmirror": 12382,
    "monster": 8595,
    "Ġaf": 781,
    "rivial": 9437,
    "Ġstupidity": 15052,
    "arcy": 1275,
    "Ġtemporal": 2612,
    "Ġagricultural": 26552,
    "Ġaustrian": 24302,
    "Ġbenjam": 22893,
    "v": 90,
    "Ġkinds": 14508,
    "gratulation": 24349,
    "aurs": 20771,
    "Ġhumph": 22886,
    "Ġbuzz": 24000,
    "coun": 10690,
    "Ġadapted": 11042,
    "shortly": 12263,
    "Ġhonourable": 10458,
    "Ġfairer": 20465,
    "Ġrejo": 5917,
    "league": 17846,
    "drew": 7334,
    "Ġignominy": 15089,
    "Ġcocain": 18594,
    "Ġfilling": 13411,
    "Ġfoiled": 23244,
    "Ġlived": 3991,
    "Ġcrests": 25686,
    "Ġboone": 11844,
    "Ġmasterless": 23998,
    "wig": 17706,
    "Ġperpet": 7645,
    "Ġframed": 19027,
    "Ġstriving": 8999,
    "bbing": 6325,
    "ameter": 3044,
    "Ġwillingness": 24911,
    "Ġundeceive": 25553,
    "whatever": 6696,
    "Ġmungo": 25632,
    "Ġwheeled": 14141,
    "ead": 2599,
    "Ġhammers": 13244,
    "indef": 17737,
    "Ġwar": 5526,
    "Ġplumber": 16089,
    "outward": 22164,
    "nuts": 15401,
    "names": 16531,
    "Ġdesol": 6881,
    "Ġbasket": 9575,
    "lover": 18540,
    "Ġpalpit": 16692,
    "Ġmark": 2330,
    "nd": 11506,
    "Ġaccumulating": 2722,
    "wat": 6233,
    "Ġnut": 12652,
    "whiteness": 18371,
    "Ġbumpkin": 20203,
    "horse": 8609,
    "Ġboiling": 8528,
    "Ġqueen": 3214,
    "Ġsaints": 20677,
    "Ġspell": 8859,
    "Ġbosom": 6939,
    "Ġwhip": 8452,
    "Ġhut": 15623,
    "ely": 624,
    "Ġdoubtless": 6197,
    "omen": 4085,
    "Ġreeling": 18035,
    "contempl": 13194,
    "imens": 1746,
    "Ġweal": 21923,
    "Ġbarrel": 23793,
    "Ġdivert": 23595,
    "Ġwhy": 1758,
    "ibbald": 18843,
    "heavens": 19748,
    "Ġphysiognomically": 25613,
    "ĠlinnÃ¦us": 15279,
    "Ġwidespread": 20678,
    "Ġinforming": 18744,
    "Ġirre": 7468,
    "Ġscotland": 6642,
    "Ġopal": 23627,
    "thence": 23403,
    "Ġprofund": 13156,
    "invisible": 17742,
    "scand": 18856,
    "Ġdignified": 15602,
    "clearer": 24074,
    "ley": 1817,
    "Ġtreacher": 8608,
    "Ġflirting": 16252,
    "either": 6792,
    "Ġthro": 5818,
    "ung": 2744,
    "ibly": 2991,
    "Ġclubbed": 26548,
    "pire": 9138,
    "Ġended": 7950,
    "Ġsatire": 22904,
    "title": 17290,
    "com": 987,
    "another": 5439,
    "Ġenjoined": 18192,
    "Ġalow": 18102,
    "Ġbegan": 2023,
    "inspect": 11561,
    "Ġdesertion": 24786,
    "Ġchoosing": 19593,
    "Ġoffend": 16148,
    "Ġrapture": 13498,
    "Ġ51": 24316,
    "Ġ110": 24435,
    "Ġextraction": 11254,
    ";âĢĿâĢĶ": 20762,
    "Ġpupils": 20424,
    "Ġunjust": 8486,
    "Ġhookah": 16972,
    "verest": 13994,
    "Ġodor": 12154,
    "Ġimplicated": 24876,
    "Ġswish": 23056,
    "Ġclinging": 10294,
    "18": 20753,
    "Ġdecks": 6900,
    "thousand": 5547,
    "Ġleaders": 16630,
    "Ġmountain": 3372,
    "awk": 23118,
    "Ġseamen": 5063,
    "circuit": 24191,
    "ugues": 19022,
    "Ġremarkably": 7703,
    "Ġwiping": 25766,
    "clifford": 23161,
    "Ġcostume": 16497,
    "han": 12477,
    "Ġdocile": 19962,
    "Ġsyllable": 9731,
    "Ġbeards": 21755,
    "ix": 1802,
    "Ġfingers": 5672,
    "Ġtraining": 530,
    "Ġdemean": 12726,
    "solic": 16383,
    "Ġpaus": 4299,
    "Ġrector": 21679,
    "Ġrap": 14310,
    "Ġknives": 14840,
    "Ġfrancisco": 26065,
    "oda": 15753,
    "eland": 11623,
    "Ġapr": 12537,
    "Ġruns": 8598,
    "ie": 727,
    "Ġscoundrel": 13674,
    "rapid": 12676,
    "Ġcop": 7580,
    "Ġsnatch": 14641,
    "Ġcreativity": 3161,
    "Ġsombre": 18861,
    "Ġtrifles": 16953,
    "fill": 15354,
    "Ġsple": 21218,
    "ontory": 10461,
    "aggra": 21910,
    "enc": 7574,
    "Ġrepenting": 25323,
    "tled": 3457,
    "Ġenlivened": 26209,
    "Ġtrap": 7672,
    "footsteps": 25200,
    "Ġintuitions": 17344,
    "Ġspecialized": 3921,
    "fever": 22506,
    "quick": 6401,
    "Ġerred": 21159,
    "Ġnapoleon": 20560,
    "Ġdrenched": 12609,
    "acquainted": 7313,
    "Ġcrush": 9425,
    "Ġblessing": 11265,
    "Ġwhir": 6394,
    "Ġinheriting": 25355,
    "Ġillust": 8263,
    "Ġender": 11694,
    "Ġwisely": 13275,
    "Ġscot": 5643,
    "onse": 21252,
    "Ġhateful": 19716,
    "Ġdefault": 3035,
    "Ġencourage": 10383,
    "Ġinferiority": 17116,
    "Ġinsert": 19907,
    "yard": 5901,
    "maintained": 25023,
    "Ġreserve": 9974,
    "Ġmo": 629,
    "typewritten": 26039,
    "Ġanon": 9669,
    "spirited": 19756,
    "Ġvari": 832,
    "Ġasp": 15785,
    "quis": 7870,
    "grees": 20888,
    "private": 13585,
    "Ġ85": 24460,
    "Ġsquare": 2395,
    "Ġunquestion": 18249,
    "distance": 12157,
    "Ġhair": 3313,
    "Ġdot": 4822,
    "Ġtwit": 12935,
    "Ġlimbs": 5967,
    "Ġstability": 1365,
    "Ġvancou": 22880,
    "lake": 13752,
    "Ġprov": 4400,
    "hyme": 19612,
    "Ġfishes": 11594,
    "Ġunsafe": 22045,
    "base": 20779,
    "propagation": 1221,
    "undertaking": 23789,
    "Ġscrutiny": 26016,
    "Ġsch": 13838,
    "ultaneous": 18583,
    "parm": 21016,
    "Ġhandkerchief": 8917,
    "answering": 26005,
    "Ġtexas": 25923,
    "Ġbroker": 23106,
    "hero": 21207,
    "Ġunw": 7005,
    "Ġunbounded": 18260,
    "epend": 3314,
    "Ġancest": 12620,
    "Ġhaunted": 10256,
    "Ġforg": 3787,
    "Ġcontemptible": 16955,
    "anations": 12582,
    "contin": 16545,
    "fitting": 1510,
    "Ġacquiesce": 20332,
    "Ġmem": 2163,
    "Ġdeploy": 3002,
    "alogies": 25162,
    "Ġmisunderstood": 18702,
    "Ġmuzzle": 21324,
    "twenty": 6609,
    "Ġrehears": 15704,
    "Ġflint": 23012,
    "ac": 741,
    "ool": 17620,
    "Ġconsequent": 18113,
    "impression": 15715,
    "Ġcal": 1327,
    "Ġcapable": 5054,
    "Ġmessages": 24984,
    "Ġleaping": 8341,
    "Ġad": 445,
    "returns": 23143,
    "Ġrang": 9248,
    "Ġproductions": 22949,
    "mal": 6795,
    "Ġcontain": 1555,
    "Ġmortal": 4683,
    "Ġparallelization": 3430,
    "Ġgreatness": 12948,
    "Ġriddle": 14823,
    "Ġdisapprobation": 16062,
    "Ġgettest": 23232,
    "ris": 9140,
    "Ġseethe": 21960,
    "deploy": 22145,
    "Ġconfirms": 23312,
    "Ġcatherine": 2811,
    "Ġket": 18348,
    "ernal": 4312,
    "what": 641,
    "Ġfascinated": 25636,
    "stick": 15689,
    "Ġwitt": 17785,
    "Ġferguson": 17472,
    "Ġapprobation": 10987,
    "contrary": 23731,
    "Ġrust": 6409,
    "osure": 5308,
    "descend": 23088,
    "Ġgerm": 13967,
    "possess": 5985,
    "Ġpraise": 6487,
    "neighb": 16026,
    "quered": 11058,
    "cy": 638,
    "filled": 9597,
    "rib": 1945,
    "oldened": 22642,
    "Ġmultiple": 1188,
    "Ġencodings": 4776,
    "Ġadmiral": 17308,
    "Ġsevent": 18201,
    "Ġmatches": 14398,
    "erson": 7003,
    "Ġsoaring": 22090,
    "Ġascend": 9963,
    "Ġterminated": 23511,
    "Ġsalut": 10512,
    "Ġnantucketer": 6914,
    "Ġconj": 8462,
    "Ġsmaller": 1883,
    "sur": 4524,
    "Ġflight": 6582,
    "Ġint": 409,
    "rushed": 10587,
    "capting": 24043,
    "unhappy": 10240,
    "harm": 13738,
    "Ġpipeline": 2475,
    "Ġventured": 7501,
    "Ġmississ": 18840,
    "Ġjen": 9270,
    "Ġdecreas": 1645,
    "pour": 17632,
    "am": 367,
    "turning": 8317,
    "opotam": 22483,
    "Ġhogshe": 20495,
    "ifiable": 18166,
    "note": 14340,
    "Ġdrawings": 14725,
    "hered": 5623,
    "Ġstaring": 8829,
    "initely": 7568,
    "abode": 21795,
    "allah": 5839,
    "Ġimpossible": 3545,
    "Ġproposal": 10022,
    "Ġscound": 12838,
    "impropriety": 21721,
    "opÃ¦": 12878,
    "ulled": 14059,
    "hark": 15369,
    "tain": 557,
    "sl": 5794,
    "Ġconfound": 23307,
    "ainty": 21791,
    "rece": 21237,
    "disc": 4730,
    "heavy": 10577,
    "Ġconjunction": 25103,
    "deli": 15348,
    "#": 7,
    "Ġbalanced": 12993,
    "ame": 643,
    "thunder": 10265,
    "Ġjourneys": 19478,
    "warmest": 25030,
    "Ġdesign": 4132,
    "Ġastern": 6091,
    "Ġclothed": 19609,
    "resolved": 9642,
    "Ġbreathed": 11222,
    "bab": 11470,
    "lac": 17591,
    "iber": 6507,
    "captain": 3954,
    "ze": 1296,
    "ster": 1951,
    "Ġplaymate": 23639,
    "Ġascertaining": 17206,
    "Ġbewitching": 25977,
    "stamp": 21657,
    "tot": 10730,
    "Ġincommun": 25309,
    "Ġcats": 8982,
    "Ġevidence": 5270,
    "ess": 411,
    "Ġwigwam": 11430,
    "irations": 18173,
    "Ġstartled": 7084,
    "reasonable": 7752,
    "trap": 24334,
    "ouri": 21450,
    "fugitive": 26132,
    "prof": 7699,
    "sheet": 16289,
    "moid": 2449,
    "expectant": 24278,
    "Ġobtru": 18676,
    "Ġstriking": 6089,
    "lied": 6508,
    "responsible": 25764,
    "Ġdishon": 12235,
    "Ġsugg": 4500,
    "Ġrequ": 812,
    "Ġincomp": 12903,
    "vanished": 15063,
    "sec": 6154,
    "Ġcourtship": 24138,
    "Ġtraversed": 18893,
    "Ġprofanely": 23572,
    "shows": 22457,
    "Ġhomage": 12359,
    "ĠĠĠĠĠĠĠĠĠĠĠĠĠĠĠĠĠĠĠĠĠĠĠĠĠĠĠĠĠĠĠĠĠĠĠĠĠ": 14616,
    "Ġrider": 24188,
    "Ġrivers": 9445,
    "Ġexcuses": 19046,
    "itled": 7578,
    "fact": 6360,
    "adel": 15733,
    "iverer": 11720,
    "Ġtraveller": 8049,
    "windlass": 16723,
    "dev": 7632,
    "Ġafrica": 12349,
    "Ġboasting": 19939,
    "Ġfishe": 15590,
    "aet": 15311,
    "Ġceased": 6469,
    "thes": 7391,
    "Ġmott": 17805,
    "Ġjealous": 9471,
    "Ġmilliner": 19886,
    "rebellum": 26166,
    "Ġwhittling": 20701,
    "Ġundressed": 19516,
    "Ġperch": 10301,
    "Ġreference": 2566,
    "sciss": 18858,
    "Ġenric": 21938,
    "declared": 15122,
    "Ġfals": 15585,
    "screaming": 20328,
    "Ġwallow": 19469,
    "Ġflee": 7081,
    "Ġmortified": 14697,
    "idel": 5301,
    "Ġapprehensiveness": 16879,
    "Ġvain": 3631,
    "ede": 21509,
    "Ġprovince": 24192,
    "Ġexpressing": 12013,
    "Ġsingular": 4423,
    "Ġsequential": 2132,
    "Ġunless": 4089,
    "h": 76,
    "Ġblackstone": 23392,
    "eryton": 4092,
    "Ġdistant": 5387,
    "Ġred": 3000,
    "Ġdropt": 23679,
    "Ġmasts": 6466,
    "Ġturn": 1300,
    "Ġtightly": 13536,
    "Ġspecific": 2004,
    "circumspect": 26087,
    "/`)": 13663,
    "Ġnetworks": 598,
    "Ġtrappers": 23084,
    "Ġparticip": 16135,
    "carbuncle": 26384,
    "Ġrobes": 16259,
    "Ġcutting": 4983,
    "Ġ33": 16678,
    "precedented": 15178,
    "chase": 11648,
    "Ġcombat": 16193,
    "accounted": 16504,
    "Ġentra": 18692,
    "Ġcommenced": 8534,
    "Ġclubs": 25180,
    "omical": 9683,
    "ace": 715,
    "tawny": 26406,
    "crimin": 17511,
    "isure": 6242,
    "cat": 15327,
    "Ġdisembow": 22541,
    "Ġankles": 17901,
    "Ġhardened": 14453,
    "Ġthoughtful": 16195,
    "circled": 24190,
    "Ġunwelcome": 12786,
    "Ġmuffled": 10643,
    "Ġsomnam": 23008,
    "Ġporch": 19683,
    "Ġshovel": 23493,
    "Ġconsolidation": 5060,
    "imitably": 21719,
    "Ġrecommending": 24333,
    "Ġangry": 5498,
    "maltese": 24794,
    "since": 5896,
    "Ġloathed": 15879,
    "Ġcommunication": 1870,
    "Ġunabated": 15856,
    "Ġstarbuck": 2193,
    "idious": 11665,
    "ateness": 15523,
    "belonged": 25598,
    "rinted": 21046,
    "member": 20977,
    "usations": 15951,
    "Ġevol": 2813,
    "berish": 22747,
    "Ġperceptible": 18453,
    "uttermost": 24943,
    "Ġgeneral": 1861,
    "ilt": 2965,
    "Ġlustrous": 20159,
    "any": 3337,
    "Ġtoday": 12649,
    "Ġencirc": 18732,
    "chant": 4257,
    "inquiries": 13580,
    "Ġambiguous": 20167,
    "Ġdint": 15595,
    "Ġhowled": 12861,
    "cles": 8729,
    "attain": 21264,
    "dest": 4103,
    "Ġpreserving": 19799,
    "apprec": 22847,
    "Ġwaifing": 25244,
    "finding": 17015,
    "ature": 522,
    "punct": 20195,
    "Ġ113": 19699,
    "Ġmarshy": 20221,
    "Ġlangu": 576,
    "âĢĿ]": 21819,
    "Ġ73": 24263,
    "Ġimprisonment": 22391,
    "Ġdecided": 5471,
    "ĠĠĠĠĠĠĠĠĠĠĠĠĠĠĠĠĠ": 22952,
    "viii": 12025,
    "Ġfeasible": 22215,
    "Ġbrace": 11213,
    "Ġslack": 8958,
    "Ġrealistic": 5862,
    "hatchway": 25905,
    "Ġpaling": 21465,
    "Ġenlarge": 21939,
    "Ġtask": 1311,
    "Ġdeceived": 6546,
    "solid": 16384,
    "Ġgrim": 7439,
    "delirious": 19508,
    "ble": 541,
    "Ġdeferred": 18827,
    "Ġinsurance": 23685,
    "Ġfacial": 10608,
    "Ġplay": 2626,
    "Ġoverseeing": 22362,
    "Ġ111": 24436,
    "Ġchatting": 24746,
    "tremendous": 20676,
    "looks": 12022,
    "Ġdarkly": 19116,
    "ugl": 23291,
    "awed": 10394,
    "cstasy": 11447,
    "Ġforesee": 19126,
    "Ġloth": 17968,
    "omp": 2471,
    "hess": 4748,
    "Ġthirty": 4944,
    "Ġrelative": 11887,
    "Ġsy": 489,
    "Ġhellaswag": 24343,
    "confirmed": 19643,
    "unicorn": 21893,
    "Ġkeeled": 18810,
    "Ġexpectations": 13146,
    "Ġproposed": 7460,
    "etence": 21580,
    "Ġbeliever": 25847,
    "Ġcorrespondence": 10597,
    "squee": 15433,
    "ument": 5239,
    "chari": 21692,
    "macy": 18804,
    "Ġpromote": 23199,
    "Ġenergies": 25460,
    "Ġinconveniences": 24942,
    "Ġworkflow": 2355,
    "Ġcareless": 11120,
    "Ġincommunicable": 26613,
    "Ġinducement": 16845,
    "che": 3173,
    "Ġindomitableness": 26573,
    "lovely": 16050,
    "Ġdigging": 14941,
    "gd": 3125,
    "alliance": 22204,
    "Ġbloss": 19258,
    "Ġbe": 336,
    "Ġtalker": 23374,
    "Ġselected": 9713,
    "ġ": 226,
    "Ġtells": 9364,
    "Ġplough": 18610,
    "Ġodious": 12155,
    "Ġbacking": 16116,
    "Ġtut": 8774,
    "Ġwire": 13855,
    "Ġpromoting": 3162,
    "ipl": 20920,
    "folio": 10549,
    "Ġterrors": 6918,
    "Ġfasc": 12604,
    "Ġbench": 7238,
    "Ġattendance": 12186,
    "Ġrespectability": 14487,
    "Ġgurglings": 26467,
    "aster": 1867,
    "Ġdespatched": 23833,
    "centre": 17088,
    "Ġpipe": 4321,
    "heedful": 20576,
    "ĠĠĠĠĠĠĠĠĠĠĠĠĠĠĠĠĠĠĠĠĠĠĠĠĠĠĠĠĠĠĠĠĠĠĠĠĠĠĠĠĠĠĠĠĠĠĠĠĠĠĠ": 20042,
    "inhab": 10759,
    "calcul": 12991,
    "gunw": 17223,
    "Ġsan": 7824,
    "anct": 21361,
    "Ġincognit": 22558,
    "men": 1486,
    "guarded": 13298,
    "aways": 15314,
    "rent": 1170,
    "Ġstaggering": 20276,
    "aves": 3601,
    "Ġyouth": 4260,
    "Ġoptimization": 1440,
    "Ġpersevering": 20236,
    "Ġprophets": 20453,
    ",*": 17474,
    "arity": 1304,
    "ums": 10275,
    "hounds": 20909,
    "Ġtravels": 11931,
    "Ġcompassion": 6488,
    "À": 129,
    "Ġrose": 3443,
    "Ġrings": 11703,
    "yards": 9626,
    "Ġbequest": 21757,
    "Ġexposure": 16100,
    "Ġincarnate": 20378,
    "Ġ/*": 10142,
    "Ġaust": 4872,
    "difficult": 10061,
    "Ġbrook": 13052,
    "olent": 8155,
    "Ġoccasions": 7988,
    "Ġcandelabra": 26604,
    "Ġcorresponds": 19824,
    "Ġrueful": 25582,
    "Ġmeddling": 21323,
    "lays": 14925,
    "Ġdeliberation": 19972,
    "Ġsolemn": 4100,
    "Ġpreternatural": 12829,
    "wam": 10138,
    "Ġsoar": 18283,
    "pipe": 8700,
    "bable": 8722,
    "Ġpours": 17914,
    "Ġbubb": 12590,
    "Ġverify": 12092,
    "influences": 25251,
    "Ġbravery": 23840,
    "avor": 14280,
    "Ġfant": 9176,
    "Ġunique": 12784,
    "Ġroughly": 17041,
    "Ġbenef": 3489,
    "foreign": 18544,
    "Ġsisterly": 16307,
    "ce": 313,
    "Ġsaintsbury": 26374,
    "Ġsoph": 1644,
    "edmund": 17948,
    "admon": 21764,
    "phology": 3005,
    "Ġentail": 9796,
    "Ġomniscient": 20089,
    "Ġshores": 8852,
    "always": 5708,
    "yden": 21146,
    "where": 2092,
    "Ġforwarded": 19047,
    "P": 52,
    "ceive": 3062,
    "Ġpriority": 19765,
    "fly": 13717,
    "ĠâĢľ": 517,
    "Ġsimpl": 1580,
    "mysterious": 26053,
    "Ġthreats": 13380,
    "Ġdistributes": 4194,
    "Ġmanifested": 17160,
    "Ġprofessor": 11232,
    "friendship": 24053,
    "relations": 14736,
    "Ġenjoyed": 8008,
    "Ġmeasures": 1205,
    "despatched": 19804,
    "Ġstructures": 2720,
    "limin": 8384,
    "Ġkentuck": 19893,
    "Ġnowadays": 18547,
    "Ġinvari": 6530,
    "Ġcost": 2506,
    "embarr": 17295,
    "irregular": 21915,
    "Ġferule": 24499,
    "ables": 7890,
    "ene": 2168,
    "runs": 25416,
    "Ġbeds": 14553,
    "Ġwithal": 18116,
    "@": 36,
    "malice": 17605,
    "Ġtraditions": 11445,
    "Ġpurch": 6601,
    "computer": 1961,
    "scissors": 20729,
    "vicinity": 20483,
    "Ġconfusing": 23310,
    "Ġdisagreeable": 9301,
    "Ġresurrection": 12900,
    "Ġobserving": 6081,
    "departure": 15238,
    "gree": 10703,
    "Ġmeaning": 1416,
    "Ġunion": 6839,
    "Ġfilthy": 13251,
    "halfway": 24313,
    "considerably": 13448,
    "Ġloss": 821,
    "Ġsteep": 2887,
    "Ġpeev": 22698,
    "Ġprovoke": 14829,
    "Ġfail": 4148,
    "Ġstrangest": 14799,
    "ella": 12753,
    "Ġmorris": 18851,
    "display": 19158,
    "Ġsized": 11565,
    "Ġ*/": 10376,
    "Ġvolcano": 24150,
    "stonecraft": 24356,
    "Ġhebrew": 13991,
    "Ġ19": 6721,
    "Ġspeedily": 7712,
    "thought": 3848,
    "Ġretrieval": 10677,
    "Ġhelped": 7459,
    "Ġdescended": 7428,
    "Ġring": 4451,
    "Ġwerter": 15243,
    "Ġpotential": 3621,
    "Ġcy": 13877,
    "need": 10981,
    "Ġjuggl": 20441,
    "Ġmaria": 7126,
    "Ġimmut": 13301,
    "Ġtrousers": 12419,
    "Ġpalmy": 19502,
    "Ġtube": 15005,
    "Ġpartaking": 22702,
    "Ġconstant": 6311,
    "eg": 17531,
    "church": 8140,
    "î": 175,
    "Ġform": 1022,
    "Ġsovereign": 10065,
    "rain": 462,
    "Ġcomforted": 19394,
    "vain": 15450,
    "breadth": 20279,
    "Ġheadland": 22901,
    "following": 10575,
    "answered": 10276,
    "Ġrasc": 21978,
    "ries": 3353,
    "Ġgrievous": 13264,
    "someone": 14566,
    "Ġanchored": 17443,
    "equ": 6791,
    "Ġanteced": 26178,
    "card": 11477,
    "Ġexpressions": 7706,
    "Ġwa": 1752,
    "breeding": 16677,
    "whosoever": 22244,
    "Ġrenow": 18030,
    "ustomed": 6100,
    "Ġdefe": 21831,
    "Ġincoherent": 17403,
    "Ġprevailing": 24674,
    "contents": 12062,
    "Ġunob": 22019,
    "wling": 11547,
    "Ġreiter": 21669,
    "onings": 21255,
    "Ġvigorous": 10569,
    "emberley": 4170,
    "Ġnearly": 3363,
    "swimming": 24261,
    "xt": 2080,
    "eastward": 15133,
    "Ġdes": 1250,
    "Ġshouts": 19540,
    "Ġglaring": 11912,
    "tim": 13794,
    "Ġguiding": 19243,
    "Ġpresumably": 19627,
    "Ġspotted": 12143,
    "Ġcrop": 10165,
    "hy": 4741,
    "Ġopenly": 8576,
    "Ġexploded": 15913,
    "Ġbringing": 5871,
    "ath": 861,
    "Ġprinted": 11953,
    "Ġhieroglyphic": 25588,
    "Ġclaps": 22350,
    "ittleness": 22380,
    "heric": 15915,
    "Ġwhom": 1832,
    "Ġcandid": 4099,
    "Ġmockery": 12112,
    "recked": 17764,
    "jol": 20927,
    "ĠâĢĶ": 13814,
    "Ġgrap": 11711,
    "Ġmyster": 5927,
    "Ġsuppress": 13028,
    "Ġbackward": 7654,
    "mency": 18928,
    "Ġswarming": 16276,
    "Ġmerid": 13198,
    "Ġpavement": 9580,
    "Ġbelonging": 8308,
    "Ġwraps": 19779,
    "itu": 1228,
    "Ġquietude": 19363,
    "Ġcloudy": 19480,
    "Ġabrid": 22276,
    "inguish": 9400,
    "distrustful": 26332,
    "Ġvery": 636,
    "Ġaccur": 3852,
    "Ġinnovative": 1650,
    "yn": 7819,
    "Ġcloser": 8663,
    "led": 581,
    "ary": 986,
    "reckoning": 25271,
    "Ġshutter": 16673,
    "Ġintense": 6159,
    "Ġshortness": 23483,
    "Ġtruce": 24118,
    "Ġnegro": 6448,
    "Ġalmost": 1657,
    "Ġbaker": 4697,
    "Ġdevotees": 25377,
    "Ġproportionably": 19974,
    "usoid": 4768,
    "Ġbenefit": 8294,
    "Ġsinks": 19552,
    "asked": 8915,
    "Ġcorrection": 5062,
    "blades": 24133,
    "Ġcourting": 23293,
    "ologies": 18763,
    "extending": 22768,
    "sounded": 12271,
    "useness": 22296,
    "pression": 10409,
    "Ġislanders": 19505,
    "Ġfortunately": 12184,
    "Ġinvesting": 19644,
    "rations": 10725,
    "Ġdoubts": 8583,
    "Ġmostly": 7664,
    "hunting": 24385,
    "Ġorthodox": 22099,
    "scoured": 22996,
    "zor": 15461,
    "gain": 8740,
    "birth": 15325,
    "Ġwhal": 5454,
    "Ġ71": 24262,
    "Ġbehaviour": 4384,
    "Ġlucifers": 16590,
    "Ġenglishmen": 19433,
    "enterprise": 24995,
    "Ġunwarrant": 19936,
    "peril": 18341,
    "Ġcorrespondent": 19825,
    "Ġinherent": 4593,
    "Ġfund": 2841,
    "Ġslop": 23166,
    "Ġmechan": 1179,
    "ignantly": 23268,
    "rum": 3470,
    "Ġtoo": 1166,
    "Ġdeact": 18136,
    "Ġconstitution": 20112,
    "hastened": 16847,
    "Ġmisgivings": 15294,
    "Ġwhistle": 9068,
    "Ġchap": 5935,
    "Ġgot": 2280,
    "ges": 2871,
    "Ġdeepest": 8213,
    "work": 1725,
    "Ġexpiring": 16099,
    "Ġsubstances": 24168,
    "suspicious": 25391,
    "Ġstruct": 2783,
    "Ġell": 17717,
    "Ġforehead": 5262,
    "Ġlegisl": 23537,
    "Ġspatial": 2729,
    "arp": 2029,
    "Ġbrightened": 23832,
    "Ġcorroborated": 26055,
    "attentions": 13577,
    "Ġremains": 4911,
    "Ġsets": 8778,
    "Ġ102": 24410,
    "caves": 20818,
    "Ġalleged": 17293,
    "Ġsensibility": 14515,
    "bestowed": 12230,
    "Ġaband": 6563,
    "gracechurch": 24582,
    "steaks": 23964,
    "bergs": 18694,
    "Ġimmaculate": 19489,
    "Ġcontest": 18474,
    "Ġpenet": 6888,
    "ver": 331,
    "Ġfluctuating": 24417,
    "produ": 10722,
    "Ġtopic": 9409,
    "opp": 6963,
    "Ġappe": 1543,
    "Ġuppermost": 15282,
    "Ġmotions": 8281,
    "believe": 8304,
    "deaux": 22151,
    "Ġwife": 2587,
    "Ġshares": 23249,
    "Ġcurtains": 22977,
    "mystery": 15159,
    "Ġsingle": 1691,
    "ouement": 21451,
    "raction": 8138,
    "Ġmodeling": 2096,
    "mm": 676,
    "daring": 20831,
    "Ġbless": 4342,
    "open": 7027,
    "Ġmemories": 14557,
    "burg": 16775,
    "Ġvisits": 8221,
    "anche": 10790,
    "test": 13795,
    "unwillingness": 25803,
    "Ġfinery": 23130,
    "apple": 22845,
    "Ġshelter": 17010,
    "Ġitem": 12707,
    "Ġfooted": 23798,
    "ouraged": 22858,
    "jur": 17580,
    "bo": 1689,
    "oman": 2019,
    "Ġcanaller": 25468,
    "Ġability": 2762,
    "Ġvessels": 6757,
    "iny": 4294,
    "stad": 7598,
    "Ġchowder": 10282,
    "Ġjulia": 22306,
    "Ġmoving": 1677,
    "Ġmainz": 22655,
    "early": 20122,
    "Ġsmiled": 5942,
    "Ġscuttle": 7414,
    "Ġpoverty": 9307,
    "ifix": 21907,
    "ory": 1084,
    "lee": 11588,
    "didn": 9010,
    "Ġbrag": 23837,
    "Ġairs": 14514,
    "fal": 17538,
    "ishes": 6524,
    "Ġgrin": 5482,
    "ruit": 22191,
    "Ġfling": 9663,
    "Ġdarkness": 4277,
    "Ġdistribution": 2020,
    "coarse": 16489,
    "prospect": 23399,
    "r": 86,
    "ans": 460,
    "Ġsallies": 21232,
    "Ġgreenwich": 19323,
    "Ġbestir": 13113,
    "irection": 2386,
    "Ġspaulding": 11735,
    "loaded": 22516,
    "infer": 10147,
    "Ġcountess": 11968,
    "Ġeyford": 10644,
    "Ġstages": 14007,
    "Ġsurpasses": 25269,
    "Ġacquirement": 19257,
    "concerned": 24639,
    "Ġterritories": 23849,
    "Ġdraughts": 20224,
    "Ġsuccession": 12106,
    "Ġcau": 13884,
    "eter": 11624,
    "br": 2478,
    "Ġcontrast": 2119,
    "Ġbegun": 7243,
    "year": 11097,
    "Ġrippling": 17280,
    "Ġsimilar": 4918,
    "engthen": 14461,
    "Ġchanges": 2286,
    "Ġcrowd": 6338,
    "Ġbottles": 16573,
    "Ġgratified": 8021,
    "roused": 16655,
    "Ġrepeating": 11215,
    "obser": 11101,
    "Ġconventional": 25548,
    "accordingly": 19216,
    "Ġelias": 18632,
    "definition": 23123,
    "trad": 21078,
    "Ġgunwale": 7325,
    "execution": 20475,
    "Ġvirtues": 9939,
    "Ġgore": 17991,
    "foundered": 20869,
    "Ġcame": 1302,
    "achus": 18284,
    "Ġdreaming": 11225,
    "Ġclimax": 25054,
    "icil": 17974,
    "peasant": 23115,
    "Ġconceits": 19393,
    "july": 20478,
    "arson": 22751,
    "Ġvocation": 10528,
    "Ġdrawling": 19440,
    "Ġcollateral": 20075,
    "Ġfreedom": 9085,
    "join": 12118,
    "vit": 13804,
    "Ġjune": 10291,
    "Ġannoyance": 20664,
    "japan": 15378,
    "ilent": 21723,
    "Ġklan": 23664,
    "Ġgives": 5018,
    "hetic": 12208,
    "classes": 12140,
    "commission": 22815,
    "Ġmost": 1018,
    "Ġdiscu": 4363,
    "))": 1516,
    "Ġatonement": 21948,
    "anxious": 15113,
    "verdict": 21733,
    "Ġwapping": 21297,
    "Ġcab": 2633,
    "Ġdrunk": 9427,
    "companions": 15026,
    "impossible": 8828,
    "Ġunctuousness": 17237,
    "vision": 5620,
    "alled": 5912,
    "possible": 5743,
    "Ġerudite": 26353,
    "ignor": 8964,
    "Ġregained": 18600,
    "Ġseeth": 21957,
    "Ġsixteen": 8283,
    "philosop": 9570,
    "igantic": 5539,
    "Ġconvict": 23747,
    "ases": 1524,
    "robotics": 11308,
    "somers": 19371,
    "Ġremoter": 20109,
    "ulia": 18151,
    "ply": 6367,
    "gressive": 2752,
    "Ġexclusion": 19399,
    "Ġcultiv": 13559,
    "Ġhousehold": 8571,
    "Ġsquared": 1384,
    "Ġdiligence": 17115,
    "Ġtingling": 15096,
    "quohog": 21862,
    "Ġgenealogies": 25962,
    "Ġoverhung": 15976,
    "Ġfog": 9664,
    "Ġdaybreak": 18727,
    "Ġdow": 17888,
    "apparently": 15208,
    "securer": 25603,
    "Ġsurmised": 24920,
    "grace": 5847,
    "Ġmusty": 22683,
    "perfectly": 9089,
    "Ġcivil": 4680,
    "Ġspaniard": 20366,
    "company": 9463,
    "Ġfitness": 24003,
    "Ġdeft": 21832,
    "represented": 20198,
    "westward": 25425,
    "piling": 15418,
    "Ġack": 5622,
    "Ġlearn": 364,
    "sters": 6392,
    "terror": 18131,
    "Ġswam": 6449,
    "iancy": 13013,
    "itating": 9653,
    "Ġecc": 11631,
    "Ġimpropriety": 17398,
    "romed": 10907,
    "Ġunconsciously": 10008,
    "Ġeh": 6988,
    "oves": 15406,
    "Ġtouched": 6002,
    "Ġheedfulness": 24522,
    "Ġ1950": 11361,
    "Ġhumour": 7932,
    "Ġheavier": 13106,
    "Ġnocturn": 18375,
    "onents": 8781,
    "Ġgreat": 895,
    "Ġstepfather": 7222,
    "Ġrepressed": 21671,
    "Ġlike": 668,
    "uncomfortable": 18163,
    "ould": 428,
    "Ġontario": 26206,
    "Ġblunder": 18820,
    "sick": 13787,
    "Ġsumatra": 15290,
    "kindly": 14747,
    "Ġfalls": 14646,
    "repeated": 12343,
    "Ġpainful": 6463,
    "rian": 10245,
    "Ġstays": 16564,
    "oke": 1859,
    "hors": 9601,
    "Ġtahit": 10756,
    "cooper": 19191,
    "accomp": 10457,
    "Ġwrath": 16321,
    "oat": 13767,
    "Ġcanaan": 22168,
    "Ġindisc": 16230,
    "ample": 1366,
    "dissatisf": 26130,
    "Ġsubsequently": 16164,
    "acles": 8522,
    "Ġcivilised": 24247,
    "gar": 5615,
    "Ġglim": 9347,
    "tempest": 16961,
    "Ġdenial": 13217,
    "Ġposture": 24167,
    "shape": 10985,
    "isance": 17849,
    "compared": 24037,
    "Ġappellation": 22232,
    "alty": 17941,
    "Ġwhose": 2010,
    "Ġinqu": 2962,
    "Ġvast": 3295,
    "chair": 5918,
    "ifled": 14066,
    "out": 467,
    "Ġunbecoming": 22068,
    "Ġsilly": 7686,
    "Ġex": 363,
    "es": 288,
    "Ġmonarch": 14418,
    "Ġwrenching": 17326,
    "raham": 18016,
    "Ġwakeful": 24269,
    "consternation": 16914,
    "Ġfiftieth": 24702,
    "Ġceleb": 20228,
    "Ġevolved": 9894,
    "Ġbourgh": 5069,
    "mad": 5281,
    "Ġpacific": 5153,
    "ith": 330,
    "Ġmoderately": 22217,
    "Ġamelia": 26252,
    "concerns": 24072,
    "Ġproduce": 4366,
    "Ġmanipulated": 25179,
    "bidden": 19740,
    "Ġarchbishop": 18711,
    "weary": 22689,
    "Ġcomputation": 963,
    "dragged": 16610,
    "wh": 509,
    "Ġactions": 6280,
    "iguous": 18046,
    "bred": 11471,
    "rical": 11521,
    "itten": 3441,
    "Ġpitchpoling": 14914,
    "Ġrome": 12160,
    "Ġyaw": 18097,
    "remembrance": 25703,
    "Ġerrors": 2596,
    "dy": 4074,
    "unken": 10239,
    "Ġorganisation": 23585,
    "Ġequatorial": 13511,
    "ollion": 19718,
    "Ġloitered": 26527,
    "Ġcrane": 23439,
    "Ġenticing": 22745,
    "Ġsuggestions": 24453,
    "ccess": 3185,
    "Ġgnarled": 25169,
    "Ġmors": 17803,
    "arris": 13212,
    "Ġflail": 23010,
    "ier": 1135,
    "Ġsignifies": 19206,
    "binnacle": 20789,
    "Ġstiffest": 24827,
    "Ġright": 1506,
    "Ġshirr": 18232,
    "Ġmanxman": 9568,
    "Ġshutters": 9940,
    "Ġobsequ": 14323,
    "command": 6578,
    "haust": 5777,
    "Ġbehavior": 8002,
    "Ġexamples": 2604,
    "Ġimposs": 16618,
    "unvarying": 21891,
    "Ġpag": 6012,
    "Ġgasp": 7173,
    "Ġchristianity": 19863,
    "Ġconceive": 8463,
    "Ġscorch": 20070,
    "itted": 2441,
    "dilig": 17285,
    "Ġscrewing": 20211,
    "mistake": 24529,
    "Ġyourself": 2593,
    "Ġoblig": 3445,
    "brew": 11475,
    "ravity": 21638,
    "Ġ180": 16608,
    "bennet": 5353,
    "Ġstep": 751,
    "affect": 13215,
    "ket": 17584,
    "caus": 11478,
    "aud": 8524,
    "Ġwildly": 9417,
    "Ġjuly": 17239,
    "Ġtelegraph": 25584,
    "Ġcompressed": 21854,
    "Ġaccordingly": 6622,
    "Ġantiquities": 25599,
    "Ġcontinu": 1167,
    "mush": 20979,
    "gments": 12474,
    "Ġscor": 8190,
    "Ġcelestial": 10070,
    "greek": 25405,
    "Ġnothing": 1362,
    "Ġcrashes": 13128,
    "Ġpretence": 13210,
    "Ġsurmount": 20004,
    "abular": 4763,
    "cused": 15335,
    "Ġwon": 1666,
    "dancing": 12459,
    "spanish": 14333,
    "lesson": 22772,
    "Ġoutrage": 15962,
    "Ġmastiff": 23727,
    "Ġindiscreet": 22959,
    "ructure": 762,
    "claims": 25320,
    "Ġfought": 12599,
    "aired": 8369,
    "Ġdescried": 7919,
    "izard": 10885,
    "Ġsaves": 18325,
    "Ġfarthest": 23121,
    "Ġpour": 13917,
    "Ġdiver": 2531,
    "Ġbalmoral": 16210,
    "ruding": 9727,
    "Ġscruples": 15082,
    "dient": 441,
    "road": 6679,
    "Ġtwig": 11854,
    "Ġumbrell": 13653,
    "Ġhypocritical": 20740,
    "Ġphysiology": 25333,
    "Ġblankness": 24611,
    "Ġtimidity": 24688,
    "male": 15392,
    "Ġsalad": 19482,
    "cept": 552,
    "Ġretreating": 19802,
    "Ġpompous": 20426,
    "Ġpilgr": 12185,
    "Ġbenjamin": 26569,
    "Ġsubdivisions": 26038,
    "Ġwig": 9164,
    "wich": 11546,
    "zetts": 17716,
    "Ġpul": 2042,
    "ording": 9767,
    "Ġstocks": 23180,
    "Ġindepend": 3669,
    "Ġtruck": 19514,
    "Ġhur": 2100,
    "appre": 14374,
    "made": 4809,
    "nne": 20991,
    "enes": 5218,
    "cific": 10088,
    "Ġsing": 3072,
    "Ġexig": 21838,
    "Ġbeque": 18083,
    "chamber": 13628,
    "pth": 2380,
    "cen": 17505,
    "prehend": 14237,
    "Ġgag": 21596,
    "Ġkindest": 23297,
    "geon": 6272,
    "Ġpanthe": 19656,
    "Ġshook": 4467,
    "Ġpage": 6979,
    "ism": 4875,
    "Ġneighbour": 3808,
    "impressed": 12698,
    "Ġwalked": 3140,
    "Ġagile": 22517,
    "Ġmouse": 4695,
    "fine": 10093,
    "confid": 14870,
    "content": 11199,
    "creat": 20802,
    "Ġblasts": 19999,
    "Ġmorning": 1747,
    "Ġsubst": 4272,
    "result": 12048,
    "olently": 15761,
    "incidentally": 20542,
    "Ġinverted": 12643,
    "rospect": 11615,
    "russian": 22193,
    "Ġhereditarily": 25225,
    "Ġcoming": 2616,
    "Ġunexpectedly": 19911,
    "Ġbob": 22639,
    "Ġkra": 18349,
    "azz": 8262,
    "sleepers": 24729,
    "Ġpeels": 22696,
    "Ġtackle": 9516,
    "Ġincivility": 18573,
    "Ġherself": 1569,
    "Ġpregn": 22236,
    "Ġdefici": 22946,
    "algorithm": 3862,
    "Ġdissipate": 13636,
    "dÃ¦mon": 17529,
    "Ġapproaching": 6286,
    "sockets": 22728,
    "Ġtid": 8107,
    "screwed": 17190,
    "regards": 23468,
    "deception": 22148,
    "Ġepidemic": 20698,
    "Ġequally": 5258,
    "Ġdying": 2136,
    "ocity": 8278,
    "Ġrival": 10488,
    "violence": 16479,
    "Ġlingered": 13507,
    "endless": 22220,
    "ids": 21767,
    "Ġelusive": 22647,
    "Ġconversing": 14635,
    "69": 17477,
    "icha": 11742,
    "Ġadmirers": 19689,
    "Ġdrow": 21429,
    "Ġunresting": 25554,
    "Ġposted": 16726,
    "Ġcharged": 9857,
    "orton": 11760,
    "Ġapproximates": 2417,
    "Ġgrown": 5628,
    "Ġeveryone": 8921,
    "frisco": 16789,
    "pillar": 5619,
    "house": 4076,
    "Ġmodel": 508,
    "Ġoppression": 23655,
    "Ġwhispers": 14703,
    "others": 7670,
    "Ġfile": 13906,
    "Ġfinger": 5274,
    "Ġthanked": 9461,
    "contained": 22476,
    "Ġfourth": 7707,
    "Ġtyrant": 24766,
    "Ġexquisitely": 20205,
    "suitable": 18636,
    "Ġstab": 10864,
    "Ġwanting": 6723,
    "Ġdial": 10812,
    "Ġaunts": 21203,
    "mir": 20965,
    "race": 11634,
    "roll": 9199,
    "Ġtheatre": 21281,
    "ĠĠĠĠĠĠĠĠĠĠĠĠĠĠĠĠĠĠĠĠĠĠĠĠĠĠĠĠĠĠĠĠĠĠĠĠĠĠĠĠĠĠĠĠĠĠĠĠĠĠĠĠĠĠĠĠĠĠĠĠ": 19262,
    "Ġinco": 14262,
    "boiling": 19001,
    "recursion": 13332,
    "ther": 482,
    "Ġpsychology": 11450,
    "heaving": 21210,
    "mare": 17601,
    "perplex": 18342,
    "Ġproble": 1112,
    "Ġrapturously": 24889,
    "cask": 12451,
    "tomahawk": 25916,
    "Ġsickbed": 24249,
    "Ġindef": 9192,
    "Ġbec": 1350,
    "Ġdiscovering": 13361,
    "Ġtrail": 16285,
    "Ġmari": 6814,
    "Ġbuff": 9175,
    "Ġpurporting": 19184,
    "Ġcomprise": 18584,
    "splash": 25210,
    "Ġfill": 5701,
    "ison": 3073,
    "ury": 3311,
    "Ġextending": 11029,
    "fare": 7799,
    "Ġwhispering": 14948,
    "Ġmaggie": 26293,
    "atter": 655,
    "Ġimpertinent": 9080,
    "meanwhile": 10612,
    "slow": 7810,
    "Ġimpressive": 15001,
    "Ġreconciliation": 25293,
    "Ġhoofs": 14529,
    "isco": 12587,
    "Ġunparalleled": 15857,
    "Ġfamil": 4320,
    "dered": 2472,
    "Ġhopkins": 23134,
    "Ġwolves": 25935,
    "examined": 17269,
    "Ġburden": 8611,
    "Ġgentlemanlike": 12071,
    "commend": 19996,
    "renew": 24450,
    "Ġwatson": 3599,
    "Ġwednesday": 9087,
    "Ġcheers": 16369,
    "Ġkno": 5241,
    "suspected": 12376,
    "avating": 18607,
    "charlotte": 6474,
    "Ġluxur": 12345,
    "bottle": 20148,
    "ruct": 690,
    "Ġimpenet": 14221,
    "Ġgoes": 3853,
    "cul": 1900,
    "Ġsymph": 22211,
    "Ġstationary": 19697,
    ",_": 11464,
    "Ġne": 391,
    "Ġexile": 12727,
    "contracting": 19296,
    "Ġservices": 11219,
    "illa": 12799,
    "ief": 2047,
    "Ġdispatched": 23884,
    "Ġattack": 5478,
    "want": 8770,
    "Ġscare": 18397,
    "hideous": 25408,
    "Ġwaking": 11573,
    "Ġamaz": 5385,
    "Ġfrosts": 19805,
    "Ġslacked": 25189,
    "spee": 9320,
    "Ġarrang": 2468,
    "sych": 9898,
    "Ġsuit": 5725,
    "Ġdirection": 1793,
    "Ġstubbs": 23299,
    "Ġborn": 5224,
    "Ġprefer": 6417,
    "Ġarter": 22181,
    "mering": 12495,
    "twas": 15440,
    "Ġraised": 4662,
    "Ġpil": 5014,
    "Ġbelrive": 18832,
    "suspended": 15181,
    "Ġoccas": 2702,
    "fold": 7546,
    "resh": 8405,
    "Ġ23": 13195,
    "injury": 25214,
    "elephant": 12355,
    "Ġunobserved": 18250,
    "Ġallude": 12777,
    "Ġunfelt": 24113,
    "unusual": 21883,
    "Ġapply": 1776,
    "airing": 16180,
    "ond": 1162,
    "Ġdecide": 9289,
    "moved": 9788,
    "ruded": 15907,
    "gardiner": 12295,
    "intellect": 18823,
    "hval": 20900,
    "Ġbelieves": 14410,
    "Ġread": 1448,
    "Ġ1839": 20463,
    "Ġhoarsely": 26303,
    "Ē": 211,
    "stat": 21647,
    "revealed": 20419,
    "bre": 3979,
    "Ġbaronial": 23795,
    "Ġgibe": 25960,
    "Ġmurmur": 14591,
    "Ġcorpusants": 13681,
    "Ġthine": 7374,
    "lungs": 26136,
    "embedding": 20360,
    "Ġstumble": 26484,
    "Ġdaresay": 14707,
    "avo": 8520,
    "Ġreciproc": 20625,
    "Ġcomputer": 1173,
    "Ġjava": 12316,
    "Ġregularization": 1184,
    "uttural": 21592,
    "itance": 13871,
    "Ġstall": 12702,
    "Ġhard": 1443,
    "Ġdelayed": 9521,
    "thing": 1480,
    "Ġtimber": 13353,
    "³": 116,
    "Ġfetching": 16898,
    "Ġimages": 1599,
    "Ġpatronage": 17054,
    "S": 55,
    "bl": 4141,
    "Ġbath": 9661,
    "Ġpro": 360,
    "grief": 13734,
    "ondon": 2705,
    "sively": 13789,
    "Ġstable": 2698,
    "icacy": 15662,
    "Ġtattooed": 11380,
    "become": 14249,
    "iquette": 26133,
    "Ġvicious": 24403,
    "Ġlest": 6396,
    "Ġsmooth": 2778,
    "sudden": 5316,
    "Ġembarrassed": 11386,
    "oward": 6022,
    "Ġsoftly": 7948,
    "Ġbake": 21385,
    "Ġinfallibly": 10044,
    "exceedingly": 9569,
    "Ġsensation": 6896,
    "Ġgrace": 5374,
    "Ġweave": 21924,
    ":": 30,
    "corners": 17371,
    "cain": 15329,
    "Ġremorselessly": 16969,
    "Ġobserv": 8589,
    "castle": 3349,
    "Ġplunging": 14955,
    "Ġadieu": 10054,
    "Ġcoal": 18591,
    "Ġfamiliarity": 16731,
    "bearded": 18523,
    "acter": 2507,
    "_.,": 14564,
    "Ġgrieved": 8298,
    "Ġscolded": 25473,
    "Ġcomponents": 8896,
    "Ġrepose": 6743,
    "Ġmilky": 9950,
    "Ġdolphins": 20399,
    "Ġprovides": 1929,
    "Ġsavor": 23878,
    "Ġmonth": 2846,
    "Ġsalutation": 12401,
    "rudence": 7094,
    "Ġunmingled": 18264,
    "igated": 15711,
    "racing": 21634,
    "prolong": 23398,
    "wantonly": 25153,
    "dar": 20826,
    "sam": 21054,
    "Ġmidway": 14606,
    "trying": 15441,
    "Ġmonsie": 11449,
    "Ġintensely": 17019,
    "Ġvariation": 22668,
    "Ġcocked": 12910,
    "Ġgrated": 22807,
    "pip": 6657,
    "Ġhorrid": 7999,
    "Ġbrack": 23839,
    "hatchet": 24819,
    "presbyter": 20621,
    "oga": 22692,
    "Ġgunw": 6214,
    "canst": 22966,
    "Ġwhisker": 23938,
    "sche": 13023,
    "Ġdews": 21834,
    "Ġstole": 7953,
    "Ġdeceiving": 21833,
    "convalescence": 24885,
    "Ġorphans": 20207,
    "destruction": 11257,
    "brevi": 24078,
    "Ġbreaths": 14860,
    "ulation": 5458,
    "Ġsolomon": 11054,
    "Ġenglish": 3616,
    "ony": 3026,
    "lantern": 17431,
    "Ġrevolve": 19733,
    "Ġgreyish": 24211,
    "Ġreceive": 4705,
    "ĠâĢĶâĢĶ": 25758,
    "Ġtown": 2454,
    "dried": 20829,
    "pursue": 24976,
    "Ġtried": 3649,
    "fes": 20853,
    "Ġsuspend": 14610,
    "_--": 20764,
    "expression": 10550,
    "Åĵ": 10746,
    "Ġmercy": 9001,
    "Ġbred": 9172,
    "Ġinsensibly": 20079,
    "Ġreplen": 11116,
    "99": 1895,
    "lamp": 9611,
    "abound": 15744,
    "Ġregulate": 22593,
    "Ġcumbrous": 26434,
    "Ġforcing": 3225,
    "Ġquivered": 18468,
    "Ġfruitless": 25606,
    "nuee": 17433,
    "Ġtransformers": 1133,
    "prepar": 22452,
    "Ġaccumulates": 2888,
    "fate": 17541,
    "Ġcoincid": 20320,
    "Ġpoliteness": 8274,
    "find": 6954,
    "Ġextinct": 14342,
    "Ġdeficient": 18826,
    "Ġworshippers": 25694,
    "Ġtest": 1528,
    "Ġdestructive": 23488,
    "Ġplain": 2815,
    "drab": 23902,
    "emptied": 23637,
    "asleep": 21547,
    "elab": 21573,
    "Ġrefrained": 14348,
    "must": 3580,
    "Ġcoachman": 15002,
    "Ġmysticetus": 24923,
    "asis": 12656,
    "Ġfurniture": 6477,
    "missing": 13223,
    "Ġcitizens": 25440,
    "Ġearlier": 9090,
    "Ġdespond": 14670,
    "Ġvindication": 25365,
    "Ġsnow": 3707,
    "Ġaudacious": 13463,
    "Ġstrang": 4160,
    "urned": 9309,
    "Ġhelp": 1635,
    "Ġdealing": 14046,
    "complied": 19915,
    "Ġtraged": 9355,
    "Ġchanced": 8187,
    "swam": 24257,
    "Ġtempered": 12931,
    "Ġoutset": 15959,
    "inois": 17740,
    "serve": 13051,
    "appointment": 24064,
    "a": 69,
    "icle": 10836,
    "mpus": 13760,
    "Ġpresum": 4839,
    "Ġsubmitted": 11875,
    "Ġugly": 8719,
    "Ġcathed": 14549,
    "reach": 17759,
    "pal": 9619,
    "Ġpatriot": 23295,
    "mere": 11859,
    "Ġfoundations": 11075,
    "Ġstray": 18072,
    "Ġtruth": 3319,
    "Ġstrictest": 17043,
    "Ġinconstant": 21499,
    "Ġunceasingly": 20362,
    "Ġlightnings": 16356,
    "Ġvapory": 17008,
    "Ġmumbling": 11577,
    "underneath": 23790,
    "itch": 10163,
    "Ġgiant": 13971,
    "Ġtemptation": 8681,
    "Ġcalculus": 23986,
    "Ġthreading": 23405,
    "Â·": 21152,
    "Ġgush": 10205,
    "Ġsalmon": 24066,
    "!--": 10680,
    "Ġmal": 5221,
    "athered": 6973,
    "Ġshell": 11740,
    "Ġsnugness": 20080,
    "Ġaston": 3702,
    "Ġbedroom": 7277,
    "Ġneck": 4886,
    "Ġcynical": 25771,
    "Ġscotch": 12214,
    "tedious": 22636,
    "Ġn": 300,
    "Ġleakage": 23460,
    "mber": 5850,
    "gazed": 15365,
    "Ġbasement": 24701,
    "Ġbehold": 5049,
    "Ġreven": 18031,
    "Ġgodson": 23361,
    "Ġsurgeons": 23466,
    "Ġcavity": 20491,
    "Ġundue": 25994,
    "eers": 20845,
    "Ġshared": 10266,
    "mbl": 5947,
    "instinct": 19546,
    "Ġmanager": 11773,
    "Ġ4": 3987,
    "inclination": 20061,
    "Ġlethar": 21750,
    "Ġcasualty": 20344,
    "Ġhelps": 9370,
    "gallantry": 15061,
    "Ġparticularly": 5056,
    "nonsense": 17617,
    "les": 1014,
    "Ġcontention": 22430,
    "Ġsadly": 7302,
    "Ġupstairs": 5837,
    "Ġdiscussing": 5202,
    "assemblies": 25957,
    "Ġslashing": 23174,
    "gaff": 20884,
    "Ġclever": 7056,
    "rec": 6005,
    "abounding": 25980,
    "waistcoat": 17364,
    "Ġthoughtless": 16196,
    "Ġarmed": 9263,
    "Ġintensified": 17020,
    "Ġhumbled": 16200,
    "happening": 16567,
    "servants": 15040,
    "lorious": 17594,
    "scarcely": 12390,
    "Ġsqueaking": 26276,
    "Ġnevertheless": 5040,
    "Ġfainting": 16899,
    "Ġdwelt": 12611,
    "aunt": 8370,
    "Ġcircumstantial": 14645,
    "Ġtendons": 19811,
    "think": 3611,
    "ruined": 18346,
    "Ġdinner": 4243,
    "Ġhourly": 23305,
    "Ġmillions": 11356,
    "Ġunconquerable": 22067,
    "alling": 6038,
    "Ġwalls": 6763,
    "Ġtropic": 17065,
    "pp": 384,
    "Ġbound": 3519,
    "Ġvouch": 15813,
    "Ġcigars": 12257,
    "Ġcontinuous": 1565,
    "Ġcorrespond": 6211,
    "Ġunch": 18240,
    "od": 350,
    "Ġatmosphere": 10899,
    "Ġrattled": 15070,
    "esley": 17904,
    "pshire": 21026,
    "librarian": 26570,
    "uced": 13803,
    "added": 11662,
    "ustration": 2260,
    "ipelagoes": 13675,
    "rents": 5310,
    "Ġhipp": 21495,
    "disapprobation": 19159,
    "Ġrapidly": 3566,
    "Ġstrateg": 1269,
    "Ġnotice": 4544,
    "Ġdeclared": 5595,
    "Ġspouter": 12804,
    "Ġcompanion": 3645,
    "oved": 5215,
    "redit": 3878,
    "Ġcommunicated": 9064,
    "Ġcynicism": 25772,
    "solemn": 19820,
    "pious": 17635,
    "lish": 1950,
    "Ġpy": 21454,
    "Ġblinding": 14731,
    "Ġfleetness": 20182,
    "unting": 21878,
    "Ġdisliked": 12897,
    "fen": 20852,
    "plate": 18208,
    "Ġembracing": 14983,
    "Ġjer": 6268,
    "Ġheredit": 9219,
    "comfort": 5647,
    "Ġsilken": 16385,
    "Ġpremeditated": 22238,
    "Ġnich": 21523,
    "Ġorganically": 3008,
    "Ġtelesc": 12998,
    "Ġembeddings": 2094,
    "Ġaverages": 2397,
    "Ġunb": 10909,
    "Ġfellow": 2776,
    "Ġtropical": 17066,
    "union": 15774,
    "alyards": 18775,
    "scotch": 25852,
    "¨": 106,
    "variety": 23189,
    "Ġdrawback": 23993,
    "astes": 11743,
    "Ġwhite": 1541,
    "Ġaccident": 5380,
    "usion": 3299,
    "lifted": 15390,
    "Ġidentify": 12018,
    "whaler": 20312,
    "Ġmanagement": 8193,
    "Ġplace": 1649,
    "aded": 3551,
    "gra": 769,
    "Ġerud": 20058,
    "Ġstroke": 6936,
    "Ġvict": 3762,
    "Ġzeal": 9101,
    "preservation": 25306,
    "tt": 13793,
    "Ā": 193,
    "Ġwood": 2292,
    "oss": 10118,
    "exped": 16527,
    "rad": 2152,
    "reported": 24493,
    "houn": 20895,
    "Ġlightning": 5750,
    "Ġsavannah": 17419,
    "Ġsentiments": 7961,
    "Ġassociate": 13453,
    "Ġintruding": 21995,
    "insula": 23069,
    "Ġoccurrence": 14385,
    "Ġtarshish": 12033,
    "thither": 21984,
    "pron": 9009,
    "wishing": 21131,
    "Ġbeast": 7180,
    "Ġrepented": 23365,
    "Ġfiver": 22780,
    "fanc": 20866,
    "unwillingly": 21888,
    "picture": 11409,
    "Ġthither": 6821,
    "Ġlouisiana": 25079,
    "Ġtwilight": 16125,
    "Ġwaxed": 21300,
    "Ġany": 687,
    "Ġmarvell": 7248,
    "Ġoverthrown": 18430,
    "Ġpince": 21474,
    "famous": 16918,
    "Ġdespondency": 16580,
    "Ġpoll": 12034,
    "leeward": 15214,
    "Ġcomplying": 18585,
    "Ġdismissed": 12898,
    "talk": 6659,
    "good": 2897,
    "Ġdictating": 20155,
    "exact": 7910,
    "www": 17254,
    "creatures": 7517,
    "Ġautumn": 14511,
    "Ġsteelkilt": 5675,
    "Ġstalls": 25648,
    "mp": 3727,
    "fresh": 13395,
    "Ġshilling": 18229,
    "Ġconcentration": 25065,
    "Ġvint": 18195,
    "noon": 5037,
    "Ġprofessions": 11233,
    "nay": 7137,
    "terday": 4706,
    "anation": 5804,
    "Ġungrateful": 14124,
    "Ġchooses": 13350,
    "Ġunderwent": 23238,
    "Ġshakespeare": 20310,
    "Ġglossy": 15231,
    "inordinate": 21197,
    "Ġobscured": 15013,
    "Ġstrenuously": 17451,
    "Ġvineyards": 25109,
    "nobody": 16146,
    "Ġsket": 18728,
    "Ġfoss": 9852,
    "moil": 22708,
    "Ġmagnus": 18960,
    "Ġbit": 2961,
    "counter": 20281,
    "Ġinjuries": 11279,
    "unlike": 18159,
    "jewell": 25524,
    "Ġprevent": 757,
    "Ġatrocious": 21949,
    "most": 1256,
    "ý": 190,
    "Ġefficient": 1033,
    "Ġherein": 16194,
    "Ġtransient": 18499,
    "Ġadversary": 12178,
    "quickness": 19853,
    "Ġhappened": 3713,
    "Ġintertw": 18587,
    "waiter": 24587,
    "Ġstren": 15724,
    "Ġcasket": 19727,
    "splice": 17173,
    "Ġthrills": 24542,
    "Ġinhabitant": 19758,
    "Ġcouple": 5423,
    "Ġwint": 15536,
    "Ġfeebly": 24878,
    "Ġdisenc": 22530,
    "Ġconfirm": 9859,
    "Ġdaw": 21432,
    "Ġdescending": 8906,
    "Ġbee": 21753,
    "Ġtimely": 19597,
    "sleeping": 13457,
    "quarried": 24948,
    "Ġdisconcerted": 18563,
    "Ġtranslations": 12056,
    "Ġgenial": 12199,
    "Ġinconvenience": 9566,
    "washed": 13050,
    "highly": 24763,
    "Ġinh": 10826,
    "avers": 17483,
    "completely": 12424,
    "Ġpacing": 8427,
    "ical": 753,
    "Ġseverest": 14093,
    "themselves": 6542,
    "emph": 21930,
    "Ġemployer": 19435,
    "Ġbeware": 8832,
    "Ġprospects": 9962,
    "Ġstartling": 14673,
    "Ġfearing": 12821,
    "suffered": 24330,
    "Ġheaps": 11645,
    "intment": 4721,
    "Ġinclemency": 22559,
    "slanting": 24558,
    "Ġprot": 3847,
    "battle": 12446,
    "humour": 7498,
    "impotence": 23763,
    "heed": 15501,
    "accessible": 13642,
    "liv": 9610,
    "Ġcorp": 5575,
    "Ġtoll": 7852,
    "Ġbrowne": 13305,
    "sence": 3306,
    "Ġacknowled": 6352,
    "Ġflurry": 18862,
    "Ġluxurious": 17314,
    "Ġashamed": 6404,
    "Ġgayer": 24501,
    "Ġpulpit": 7470,
    "Ġparlour": 12325,
    "Ġsubjected": 23574,
    "Ġconfided": 19039,
    "Ġslaughter": 20732,
    "orders": 12879,
    "Ġpitching": 16613,
    "Ġincreasingly": 9374,
    "Ġa": 263,
    "Ġschedu": 1824,
    "Ġdisputes": 25826,
    "_),": 7127,
    "Ġfru": 8421,
    "casks": 20406,
    "ten": 1560,
    "Ġloud": 4702,
    "Ġflushed": 13031,
    "Ġbehavioral": 11398,
    "Ġpresto": 22234,
    "gro": 10097,
    "Ġgracechurch": 12203,
    "Ġbraided": 16584,
    "bott": 9109,
    "involuntarily": 20418,
    "Ġ{": 21155,
    "Ġdol": 9667,
    "play": 5099,
    "sentiment": 12920,
    "Ġimplore": 24873,
    "Ġpounds": 5368,
    "plun": 15823,
    "Ġtheoretic": 23314,
    "scr": 16245,
    "commer": 22814,
    "Ġpurses": 23478,
    "Ġseriously": 7063,
    "imper": 14002,
    "cork": 20798,
    "Ġsolar": 22888,
    "Ġingratitude": 17471,
    "heading": 5487,
    "Ġspark": 6691,
    "Ġshorter": 4499,
    "ogy": 22693,
    "idled": 21772,
    "depart": 12270,
    "nerable": 16279,
    "Ġresides": 22544,
    "tart": 21070,
    "Ġprofited": 19193,
    "Ġflights": 24752,
    "restrained": 16340,
    "Ġgiddy": 20500,
    "Ġfew": 1225,
    "shells": 26057,
    "written": 7995,
    "Ġdepresses": 25798,
    "aulets": 18621,
    "Ġsimple": 1617,
    "Ġdanes": 25160,
    "Ġbolts": 16945,
    "anger": 2171,
    "Ġelij": 8912,
    "Ġeff": 670,
    "Ġuntrodden": 23525,
    "employed": 17264,
    "Ġflu": 3276,
    "Z": 62,
    "Ġclosed": 4606,
    "touching": 15095,
    "Ġgrowth": 14631,
    "Ġdeterminate": 23007,
    "Ġinflicted": 11367,
    "Ġmurdered": 6465,
    "Ġfurs": 18741,
    "Ġthought": 1097,
    "nur": 11508,
    "Ġimmeas": 18331,
    "Ġsyllables": 25299,
    "Ġsn": 2946,
    "Ġlabyrin": 13108,
    "pleased": 8857,
    "Ġgib": 13968,
    "Ġlawn": 7379,
    "Ġhuddled": 20302,
    "Ġcommercial": 22677,
    "Ġattempted": 8001,
    "Ġcounted": 12144,
    "Ġcretan": 22725,
    "Ġsubstance": 5510,
    "gus": 13728,
    "thick": 10263,
    "searching": 25106,
    "Ġtempor": 2365,
    "Ġabiding": 22274,
    "seals": 21822,
    "Ġinex": 6529,
    "Ġstarting": 7729,
    "icilian": 20694,
    "of": 768,
    "Ġsumat": 14132,
    "Ġalbert": 12712,
    "dog": 10696,
    "nature": 5360,
    "Ô": 149,
    "Ġwear": 6032,
    "wherever": 13122,
    "squ": 7809,
    "Ġare": 527,
    "Ġconvinced": 4204,
    "ĠâĢľâĢĻ": 22258,
    "Ġmenaces": 23111,
    "ifling": 15787,
    "Ġlust": 9200,
    "Ġinscrutable": 10675,
    "inte": 5144,
    "Ġcrooked": 11283,
    "Ġvictims": 19807,
    "Ġfaintness": 24571,
    "Ġberyls": 25776,
    "irt": 3075,
    "water": 4869,
    "aw": 1449,
    "ards": 2505,
    "felix": 10656,
    "Ġsummons": 13235,
    "Ġagent": 6279,
    "dor": 12456,
    "Ġmournful": 12340,
    "Ġcrumpled": 16440,
    "Ġprojected": 16873,
    "Ġcontradict": 12389,
    "belled": 24040,
    "Ġtheirs": 7026,
    "finally": 9502,
    "Ġ1671": 25008,
    "residual": 19264,
    "ideas": 18582,
    "Ġdisturbed": 8675,
    "²": 115,
    "Ġpretend": 7722,
    "Ġawaken": 23588,
    "Ġpatagon": 14507,
    "Ġbatch": 889,
    "Ġhab": 4217,
    "conspicuous": 26249,
    "Ġreluctant": 20528,
    "Ě": 219,
    "forgetting": 25486,
    "Ġinvolving": 18764,
    "grow": 10101,
    "flitted": 23972,
    "erman": 5108,
    "uendoes": 26409,
    "Ġseasonable": 24406,
    "opatra": 22481,
    "cele": 21628,
    "Ġweaver": 11691,
    "chie": 21693,
    "pede": 19932,
    "masters": 16836,
    "intentions": 22942,
    "Ġastonished": 7089,
    "Ġmethod": 1407,
    "rable": 11635,
    "Ġtack": 5621,
    "Ġthreatened": 8330,
    "despair": 8344,
    "aff": 3103,
    "T": 56,
    "Ġwag": 10777,
    "fastened": 19327,
    "Ġexc": 1833,
    "Ġgrat": 4056,
    "Ġrestrained": 16379,
    "Ġscuffle": 20611,
    "ench": 21282,
    "Ġtrusting": 24108,
    "Ġcrowder": 19459,
    "Ġadmir": 12026,
    "Ġstress": 18069,
    "Ġsh": 420,
    "affair": 14657,
    "Ġvital": 9246,
    "Ġvexatious": 19784,
    "Ġincantation": 26259,
    "Ġgout": 21599,
    "Ġbows": 4082,
    "Ġpaced": 7584,
    "hauteur": 26393,
    "future": 13720,
    "lig": 3175,
    "read": 3274,
    "uguese": 20734,
    "Ġnarrations": 24352,
    "Ġbesides": 3514,
    "Ġyoung": 1507,
    "desirable": 23813,
    "ulity": 10888,
    "farmer": 25900,
    "Ġfleeting": 19329,
    "Ġsurve": 9877,
    "Ġchronicle": 20231,
    "zes": 11551,
    "Ġaccumulation": 2692,
    "Ġacquire": 2723,
    "shutters": 20316,
    "ancy": 4393,
    "Ġtwitching": 25684,
    "stript": 21660,
    "Ġfiner": 13057,
    "rible": 3228,
    "eman": 5636,
    "thirty": 12768,
    "commun": 15036,
    "lascar": 20962,
    "Ġquestioned": 14621,
    "Ġ90": 24589,
    "Ġrandomly": 1921,
    "Ġaspects": 4173,
    "pard": 9621,
    "hercules": 22208,
    "Ġphrensy": 25127,
    "Ġhovel": 8254,
    "Ġshol": 22001,
    "swelled": 19613,
    "coat": 5407,
    "striving": 24670,
    "Ġjumped": 7098,
    "Ġencaps": 12967,
    "Ġtemptations": 24508,
    "bowl": 14894,
    "Ġchisel": 20371,
    "Ġshoe": 14569,
    "Ġinquiries": 5678,
    "sou": 12510,
    "Ġsunlight": 13088,
    "ohn": 4562,
    "Ġbarbar": 6935,
    "carefully": 13372,
    "Ġstaggered": 9542,
    "Ġmed": 4176,
    "size": 15428,
    "wheel": 22871,
    "ourse": 8873,
    "flakes": 23971,
    "invest": 11562,
    "Ġbagging": 24539,
    "unquiet": 21885,
    "nson": 16094,
    "til": 17673,
    "Ġunst": 18239,
    "Ġdamp": 8264,
    "Ġchristian": 6480,
    "mic": 12493,
    "Ġmaled": 21317,
    "irra": 15789,
    "Ġfreezing": 23886,
    "Ġformations": 18751,
    "Ġhell": 5019,
    "Ġsulky": 13517,
    "Ġtrailing": 23082,
    "Ġimmediately": 3366,
    "determined": 9082,
    "Ġdivulged": 16651,
    "Ġfootmen": 23799,
    "Ġjerked": 19835,
    "isbury": 21380,
    "Ġquit": 5246,
    "Ġtailed": 21171,
    "Ġyonder": 7392,
    "Ġspine": 7407,
    "ignomin": 23269,
    "atory": 6127,
    "ó": 180,
    "Ġprejudices": 13472,
    "Ġrequisition": 22658,
    "Ġforlorn": 14018,
    "agrad": 2745,
    "Ġundone": 24120,
    "sweet": 8689,
    "ornamented": 26597,
    "000": 2561,
    "Ġreproach": 9559,
    "Ġfoundling": 22978,
    "Ġintegr": 7969,
    "books": 8667,
    "persuade": 13535,
    "Ġdate": 7841,
    "Ġvexations": 24610,
    "Ġtyp": 1130,
    "Ġdrunken": 12054,
    "4": 24,
    "Ġunremitting": 26219,
    "Ġstrings": 11833,
    "Ġclinch": 18425,
    "Ġroute": 11383,
    "Ġalice": 1483,
    "Ġpens": 21463,
    "Ġfe": 491,
    "sell": 13784,
    "Ġsauce": 15894,
    "Ġspake": 18309,
    "eringly": 23006,
    "iag": 20918,
    "rants": 13781,
    "Ġbread": 5404,
    "perquisites": 26533,
    "Ġheaviest": 23329,
    "Ġasks": 5115,
    "Ġgall": 4351,
    "Ġbashful": 20423,
    "Ġangles": 23590,
    "Ġpredicted": 2046,
    "Ġsnapped": 9900,
    "roses": 17959,
    "aples": 20770,
    "Ġtranquill": 6633,
    "contrivance": 26317,
    "Ġhilariously": 25451,
    "leness": 4692,
    "profound": 16429,
    "Ġfo": 1648,
    "Ġbeaufort": 13571,
    "Ġrepresents": 4903,
    "Ġmathemat": 3204,
    "gloves": 25146,
    "Ġerrand": 11087,
    "Ġunexampled": 20363,
    "Ġevident": 6615,
    "Ġgestures": 13538,
    "unavoid": 14065,
    "Ġseating": 18200,
    "Ġovertaken": 18429,
    "quake": 11684,
    "apprehens": 17409,
    "Ġkills": 15910,
    "Ġchiefly": 5766,
    "incident": 14593,
    "Ġprocuring": 16872,
    "Ġcock": 11002,
    "ense": 2053,
    "Ġperiodical": 14776,
    "far": 5787,
    "fted": 9121,
    "interference": 23740,
    "Ġavert": 14428,
    "mental": 16053,
    "Ġgratification": 24101,
    "Ġpatagonia": 25859,
    "Ġzodiac": 16178,
    "sa": 8760,
    "odiac": 14031,
    "Ġd": 284,
    "Ġsentiment": 6591,
    "itive": 6671,
    "Ġhorr": 3192,
    "Ġspermacetti": 19053,
    "Ġmisled": 22758,
    "Ġidleness": 11145,
    "Ġstrata": 26028,
    "Ġundulations": 19518,
    "Ġcomplained": 17000,
    "aract": 17896,
    "cushion": 20823,
    "Ġacted": 7422,
    "Ġspread": 5161,
    "ŀ": 257,
    "Ġstings": 21738,
    "heartedness": 24825,
    "Ġpalsied": 25780,
    "Ġdrawers": 12110,
    "miles": 10714,
    "Ġhelplessness": 25074,
    "fier": 9596,
    "vishnoo": 21122,
    "harpoon": 9494,
    "groom": 8743,
    "Ġalt": 18101,
    "Ġentertain": 6055,
    "Ġirresistible": 13116,
    "Ġtimid": 6347,
    "Ġconstable": 19068,
    "couldn": 23720,
    "Ġcuriosity": 2402,
    "Ġwhale": 627,
    "Ġthews": 21280,
    "Ġsheeted": 19834,
    "palms": 25263,
    "Ġgruff": 21617,
    "Ġjungfrau": 15252,
    "Ġdefined": 11902,
    "Ġherbage": 25997,
    "ming": 3603,
    "Ġpinioned": 21486,
    "Ġsatisfying": 23700,
    "Ġlottery": 19890,
    "exam": 10978,
    "Ġcompiled": 22574,
    "mushroom": 26397,
    "Ġanticipated": 13513,
    "andy": 8158,
    "Ġtreated": 7082,
    "Ġgeor": 3388,
    "Ġcontrolled": 23253,
    "Ġbasis": 16963,
    "ser": 1426,
    "pictures": 15094,
    "Ġsufferer": 16264,
    "é": 170,
    "Ġhorn": 6187,
    "Ġdivinely": 25723,
    "Ġtombed": 25164,
    "Ġimperial": 9484,
    "Ġpeculiarly": 8287,
    "heav": 5694,
    "Ġmiraculous": 13550,
    "Ġbush": 23340,
    "ications": 4444,
    "duty": 20242,
    "Ġinterconnected": 1339,
    "Ġcountenance": 3971,
    "Ġhopeless": 7463,
    "Ġbrains": 2630,
    "intention": 10370,
    "Ġlambton": 10660,
    "Ġscowl": 22289,
    "Ġhampshire": 15246,
    "au": 777,
    "Ġimputed": 12814,
    "Ġcorresponding": 13441,
    "Ġbecomes": 6397,
    "Ġwritten": 4167,
    "Ġcolonnades": 26277,
    "Ġiceberg": 14719,
    "Ġspectre": 16633,
    "Ġindulgence": 11321,
    "Ġcrust": 21354,
    "Ġremonstrate": 22797,
    "Ġlibrary": 6424,
    "Ġdispleasure": 16056,
    "avast": 8900,
    "tre": 8764,
    "Ġpurchas": 19876,
    "uzz": 4525,
    "Ġupon": 718,
    "Ġfolds": 12211,
    "apse": 14201,
    "anchor": 13892,
    "corpse": 24486,
    "Ġprey": 6416,
    "earth": 6503,
    "Ġhus": 3090,
    "swinging": 25913,
    "joined": 13278,
    "name": 6796,
    "Ġsuspending": 19246,
    "Ġchilly": 25563,
    "Ġstag": 6150,
    "Ġdiscussed": 19562,
    "Ġfibres": 12956,
    "ails": 6162,
    "encouragement": 17426,
    "Ġmagnet": 10393,
    "evenings": 19466,
    "Ġ116": 24440,
    "Ġlistless": 16477,
    "Ġarising": 10935,
    "Ġbarrier": 16572,
    "Ġinfluences": 14868,
    "surpr": 5998,
    "Ġimpud": 18446,
    "Ġgaieties": 24198,
    "sails": 7497,
    "asper": 7855,
    "can": 1234,
    "pronouncing": 25194,
    "Ġembrace": 16992,
    "cating": 20804,
    "grasping": 20642,
    "features": 14763,
    "Ġlegitimate": 20644,
    "Ġphilosoph": 19654,
    "achines": 1719,
    "Ġaccurately": 4475,
    "Ġden": 3108,
    "vol": 731,
    "cursed": 23847,
    "Ġnaut": 13944,
    "Ġcircumspection": 25885,
    "Ġsprung": 11250,
    "Ġsurvey": 13596,
    "Ġeludes": 26556,
    "valu": 1665,
    "Ġfowler": 16939,
    "Ġcit": 10785,
    "related": 24015,
    "snap": 24849,
    "amed": 4447,
    "eastern": 17535,
    "Ġcivilized": 8668,
    "Ġprevention": 16097,
    "repro": 10772,
    "Ġhorns": 11125,
    "unning": 4494,
    "oking": 4608,
    "Ġdozing": 22247,
    "Ġlounging": 10025,
    "separation": 25227,
    "Ġ5": 4935,
    "Ġprogrammed": 11060,
    "Ġinnermost": 12165,
    "Ġredden": 15698,
    "Ġeyelashes": 26107,
    "Ġguard": 6180,
    "gown": 9599,
    "Ġmills": 21314,
    "ogn": 2482,
    "Ġdeeds": 15758,
    "Ġedge": 5189,
    "Ġwiser": 14733,
    "acies": 14281,
    "Ġcosmopol": 16455,
    "Ġrumors": 11323,
    "Ġrover": 18457,
    "measure": 10034,
    "everywhere": 23701,
    "Ġcrash": 12006,
    "Ġrosy": 18460,
    "Ġfoolishly": 19785,
    "analysis": 26174,
    "Ġcreditors": 20133,
    "Ġjudge": 5502,
    "Ġorbs": 22096,
    "Ġsolicit": 22890,
    "cies": 1815,
    "haz": 17566,
    "Ġcheese": 9380,
    "simultaneously": 19866,
    "metals": 24765,
    "Ġoutlaws": 22327,
    "Ġsupre": 10271,
    "Ġalms": 21784,
    "Ġchewing": 23287,
    "dum": 17520,
    "ction": 501,
    "preading": 18490,
    "roman": 22010,
    "Ġseparating": 16684,
    "bearance": 22497,
    "leading": 15566,
    "as": 302,
    "homage": 25617,
    "Ġrage": 5110,
    "antingly": 22102,
    "accept": 8901,
    "hack": 20898,
    "Ġthirteen": 15278,
    "rest": 1627,
    "i": 77,
    "Ġweather": 3997,
    "Ġthomas": 17950,
    "Ġtun": 6000,
    "writes": 4988,
    "Ġaccusations": 22383,
    "igner": 21704,
    "Ġintellectual": 11403,
    "hit": 20891,
    "Ġaudibly": 24770,
    "ety": 3521,
    "Ġrides": 21975,
    "Ġforemost": 12009,
    "Ġfriend": 1298,
    "Ġdangerous": 6616,
    "banked": 25338,
    "Ġaxe": 15064,
    "Ġagreed": 7030,
    "k": 79,
    "abilizing": 2922,
    "insupportable": 21196,
    "Ġaffectation": 14444,
    "Ġhabitation": 14806,
    "Ġslewed": 23388,
    "Ġble": 5223,
    "Ġvision": 1531,
    "mid": 5617,
    "Ġhieroglyph": 11975,
    "Ġlbs": 11618,
    "Ġgirl": 3084,
    "Ġconcentric": 20078,
    "Ġsexes": 25172,
    "Ġmyth": 18221,
    "Ġreputation": 11643,
    "Ġflatt": 16249,
    "ledge": 1330,
    "Ġcetology": 10012,
    "Ġgrave": 5100,
    "Ġsandwic": 24665,
    "transp": 24512,
    "Ġsacrificial": 24872,
    "irting": 11689,
    ",)": 9104,
    "Ġmischie": 22762,
    "Ġbedford": 7475,
    "footman": 17165,
    "Ġsense": 3250,
    "Ġstudded": 18992,
    "ascar": 8436,
    "och": 21003,
    "Ġinclination": 6626,
    "uctive": 17698,
    "shattered": 22460,
    "namely": 23677,
    "Ġuniform": 2226,
    "believing": 19465,
    "Ġwait": 4908,
    "Ġbrood": 23105,
    "Ġchoke": 22253,
    "Ġinitial": 820,
    "Ġcoldness": 23761,
    "bird": 9588,
    "arab": 21444,
    "Ġlot": 6680,
    "Ġmamm": 25093,
    "Ġincred": 5646,
    "Ġpossibilities": 18976,
    "compl": 6873,
    "amid": 12730,
    "task": 13796,
    "itative": 13873,
    "Ġboots": 5944,
    "conce": 8513,
    "Ġcruis": 14625,
    "moor": 22707,
    "gallery": 24694,
    "Ġtep": 21164,
    "Ġimpunity": 14218,
    "Ġevenly": 4129,
    "Ġgive": 1710,
    "Ġit": 339,
    "Ġforbid": 7865,
    "Ġbackwards": 12930,
    "Ġduplicate": 17218,
    "Ġrecommence": 16814,
    "à": 161,
    "ifle": 10893,
    "Ġporpoise": 7108,
    "Ġminister": 18754,
    "recklessly": 25270,
    "Ġpossessor": 23827,
    "legged": 10468,
    "Ġxxxii": 24973,
    "Ġcocoa": 25484,
    "Ġdante": 21441,
    "Ġgrasp": 4665,
    "Ġlose": 5028,
    "desponding": 26343,
    "Ġintolerably": 15833,
    "lost": 8891,
    "Ġsemantics": 2892,
    "appropri": 22846,
    "scot": 14420,
    "ckery": 22094,
    "Ġworkmen": 23036,
    "boil": 19000,
    "herself": 4891,
    "Ġreeds": 15700,
    "possibility": 13365,
    "Ġbefell": 14013,
    "Ġpursuing": 9441,
    "Ġb": 281,
    "Ġsatur": 1931,
    "Ġbomb": 17869,
    "umber": 5240,
    "ways": 1442,
    "Ġundertone": 23239,
    "enstein": 5800,
    "oubted": 5861,
    "indeed": 4488,
    "forbidding": 25839,
    "ingolstadt": 21306,
    "Ġaged": 10324,
    "Ġexe": 3995,
    "Ġoverwrites": 5033,
    "Ġlifelessly": 23053,
    "è": 169,
    "Ġaslant": 21905,
    "erc": 5906,
    "Ġinterp": 16073,
    "Ġreminiscences": 26271,
    "Ġpun": 4589,
    "request": 21244,
    "Ġvestige": 20066,
    "Ġdistress": 5845,
    "concealed": 25118,
    "remote": 23193,
    "Ġflowery": 16236,
    "Ġgathers": 24742,
    "Ġscriptures": 26237,
    "Ġsuperiority": 14618,
    "Ġwaggish": 25435,
    "Ġgrimly": 17053,
    "accustomed": 13160,
    "Ġpervers": 11787,
    "Ġhanding": 16134,
    "Ġmalay": 24391,
    "Ġcloudless": 16671,
    "Ġdun": 6676,
    "Ġuseless": 7039,
    "Ġclerks": 17298,
    "Ġdeacon": 18141,
    "Ġepicurean": 20558,
    "Ġarbitrary": 4737,
    "Ġsales": 12813,
    "Ġamerica": 6764,
    "Ġcongenial": 12415,
    "playful": 24357,
    "Ġstrait": 23752,
    "engineer": 23152,
    "Ġcrosses": 23065,
    "Ġampl": 22484,
    "Ġdiff": 3116,
    "Ġviol": 2071,
    "Ġergo": 25032,
    "ariously": 18531,
    "increased": 20273,
    "Ġdelicacy": 6342,
    "hent": 12539,
    "Ġknowingly": 18481,
    "Ġundulating": 19520,
    "Ġbitterly": 8315,
    "Ġforgetfulness": 14608,
    "owl": 12689,
    "Ġout": 542,
    "Ġestimation": 11220,
    "laying": 19775,
    "direction": 17526,
    "Ġloun": 7167,
    "Ġ95": 19776,
    "Ġgenus": 24429,
    "Ġdismember": 20218,
    "buckets": 26124,
    "etics": 21584,
    "Ġphaet": 16322,
    "athan": 2953,
    "mag": 6509,
    "Ġobservant": 20113,
    "worse": 14693,
    "Ġcondescension": 10621,
    "Ġadagrad": 2902,
    "clim": 18932,
    "Ġsocks": 14136,
    "Ġ130": 24780,
    "Ġproject": 5546,
    "Ġdutch": 6329,
    "Ġavalanche": 17436,
    "Ġpork": 21460,
    "squall": 13524,
    "Ġbook": 2701,
    "ificent": 8184,
    "Ġboth": 1656,
    "Ġhy": 5625,
    "shot": 2219,
    "Ġlying": 4828,
    "Ġhighly": 4846,
    "please": 8177,
    "Ġbreaching": 23350,
    "Ġrounded": 14442,
    "Ġmining": 22835,
    "Ġveneration": 25047,
    "Ġaccuracy": 1083,
    "Ġtop": 2470,
    "mine": 5618,
    "val": 1150,
    "Ġ28": 19297,
    "inery": 17735,
    "Ġserpents": 13080,
    "Ġopine": 19230,
    "Ġfailure": 13318,
    "Ġsect": 17753,
    "header": 11937,
    "Ġhoof": 23356,
    "billows": 20239,
    "gia": 20878,
    "rential": 22922,
    "Ġflourish": 17163,
    "Ġafghan": 22631,
    "Ġtal": 7564,
    "ationally": 15709,
    "Ġtener": 21166,
    "precaution": 23826,
    "Ġjewelled": 20186,
    "Ġgeography": 23375,
    "Ġfle": 3089,
    "omited": 21644,
    "distinction": 19574,
    "ains": 5094,
    "Ġguinea": 8950,
    "ental": 7169,
    "to": 713,
    "Ġboard": 3384,
    "isson": 23463,
    "Ġannihilated": 20255,
    "ro": 301,
    "Ġstro": 4597,
    "izer": 2032,
    "lad": 5993,
    "restored": 18978,
    "Ġendow": 23139,
    "Ġfacing": 10174,
    "Ġreally": 2158,
    "hot": 8084,
    "Ġgans": 5822,
    "Ġtickled": 20060,
    "Ġcripple": 11442,
    "Ġsayest": 22778,
    "Ġgu": 1329,
    "Ġglassy": 19563,
    "Ġblasphe": 17410,
    "Ġenrolled": 21941,
    "deliver": 19507,
    "safe": 10057,
    "Ġdi": 6526,
    "aggo": 5097,
    "itering": 17820,
    "asburgh": 15651,
    "Ġfi": 938,
    "bular": 15317,
    "Ġinns": 17932,
    "ached": 2321,
    "Ġreigning": 15705,
    "Ġthreaten": 24374,
    "Ġsuspected": 9065,
    "clergyman": 20731,
    "Ġwall": 3842,
    "express": 4896,
    "Ġcrystall": 20229,
    "Ġengineering": 3021,
    "Ġslipper": 24268,
    "Ġchanc": 18384,
    "pagan": 17288,
    "Ġexord": 21839,
    "ester": 11601,
    "Ġbarbarously": 24816,
    "taste": 10132,
    "companies": 24895,
    "Ġdoubloon": 6945,
    "Ġcard": 7363,
    "Ġjuggler": 26368,
    "Ġsinusoidal": 4802,
    "libr": 22926,
    "Ġropes": 10750,
    "Ġdecorum": 16024,
    "unte": 21877,
    "division": 20052,
    "Ġadhering": 14142,
    "Ġseer": 21956,
    "Ġfrock": 10492,
    "Ġeloquence": 11845,
    "asting": 12812,
    "Ġtype": 2021,
    "though": 2116,
    "Ġmarched": 18873,
    "presbyterian": 26370,
    "Ġso": 433,
    "izes": 885,
    "step": 2456,
    "Ġgord": 21603,
    "pooh": 18801,
    "Ġtones": 8401,
    "Ġrickety": 26507,
    "Ġahab": 1214,
    "Ġadvice": 4902,
    "marry": 13327,
    "Ġdoubloons": 13437,
    "animation": 16981,
    "Ġmim": 3107,
    "Ġgust": 21600,
    "Ġreveries": 11349,
    "Ġbricks": 13565,
    "affection": 7487,
    "Ġrelapses": 26280,
    "proper": 7471,
    "stranger": 9886,
    "Ġpenalty": 1842,
    "Ġmotionless": 8324,
    "niece": 20997,
    "Ġpirate": 14998,
    "lier": 20951,
    "Ġinadequate": 17939,
    "Ġlofty": 6219,
    "supportable": 12374,
    "conqu": 14247,
    "ings": 631,
    "Ġovers": 14207,
    "Ġang": 2512,
    "Ġflows": 13014,
    "Ġentire": 2560,
    "Ġinserted": 8356,
    "Ġcoverage": 4287,
    "omed": 13978,
    "Ġmorality": 22981,
    "aret": 7417,
    "minds": 24235,
    "overcome": 19054,
    "Ġcharlotte": 3891,
    "Ġabject": 18392,
    "Ġinfamy": 14503,
    "Ġmod": 492,
    "ower": 1054,
    "hatred": 24818,
    "onde": 21254,
    "erick": 13851,
    "unexpected": 15782,
    "Ġfret": 10808,
    "vine": 10736,
    "Ġpitiful": 13242,
    "Ġmurderer": 4980,
    "stopping": 19353,
    "Ġmagnifying": 16324,
    "Ġtuning": 3070,
    "Ġcalendar": 18878,
    "Ġmerrily": 23734,
    "Ġprofessed": 14727,
    "Ġdemo": 10879,
    "Ġamateur": 22489,
    "activity": 22635,
    "Ġyoungest": 7954,
    "elter": 21574,
    "Ġsmoothed": 23661,
    "Ġgaol": 19570,
    "missionary": 24616,
    "suspect": 9543,
    "anke": 15565,
    "Ġdrinks": 24282,
    "Ġwonderful": 4564,
    "Ġ59": 24323,
    "Ġdeference": 10881,
    "Ġrecurring": 23231,
    "Ġoust": 21327,
    "Ġsweeter": 23921,
    "Ġbeauty": 3769,
    "Ġburst": 4380,
    "abated": 14023,
    "Ġtall": 4038,
    "Ġslang": 23163,
    "ours": 3427,
    "Ġsam": 7569,
    "anean": 7443,
    "testing": 12521,
    "Ġlongitudes": 22637,
    "Ġpropag": 16351,
    "Ġmizen": 17261,
    "Ġ124": 24469,
    "Ġheads": 3740,
    "Ġmountainous": 16601,
    "figured": 20126,
    "Ġpane": 21466,
    "Ġspeeches": 22659,
    "Ġgouldings": 26189,
    "ladies": 9532,
    "Ġpeas": 8536,
    "Ġram": 11016,
    "Ġunsupplied": 22047,
    "Ġbed": 2150,
    "Ġgestic": 21611,
    "Ġcult": 8786,
    "Ġimaginary": 11188,
    "Ġsubmerged": 11876,
    "Ġnavies": 16902,
    "orous": 5294,
    "ĠâĢľâĢĺ": 8506,
    "Ġstiffness": 24828,
    "Ġprosperous": 15174,
    "moran": 24155,
    "Ġreputed": 18038,
    "rigged": 17063,
    "ul": 371,
    "Ġsequences": 1750,
    "shame": 16028,
    "Ġkelson": 18351,
    "Ġexpanse": 14295,
    "Ġcrocod": 19631,
    "instrument": 15242,
    "Ġmottled": 20681,
    "Ġtreacherous": 13557,
    "Ġcontradictory": 20400,
    "converse": 22479,
    "Ġdepths": 4326,
    "<MASK>": 4,
    "shish": 11799,
    "Ġflat": 8228,
    "Ġsurf": 19133,
    "Ġlavenza": 17973,
    "Ġsk": 959,
    "Ġexplored": 23519,
    "Ġsentry": 19025,
    "saf": 11527,
    "Ġol": 17816,
    "Ġbreeze": 5681,
    "Ġcaring": 23096,
    "Ġkind": 1786,
    "umst": 2504,
    "ittarius": 22381,
    "colonel": 8285,
    "viating": 14581,
    "Ġcontent": 5034,
    "Ġcin": 13878,
    "Ġperished": 11788,
    "Ġlarge": 1067,
    "gress": 2212,
    "Ġmournfully": 20120,
    "Ġfaded": 10811,
    "Ġscuff": 15946,
    "versed": 9828,
    "Ġcurves": 18846,
    "Ġbuck": 7158,
    "fab": 13719,
    "Ġcasked": 24497,
    "honor": 19902,
    "rippling": 24712,
    "kin": 7133,
    "stolen": 13985,
    "ts": 958,
    "Ġstraw": 9432,
    "itional": 22467,
    "shaken": 16029,
    "Ġsettee": 22924,
    "elly": 17982,
    "tin": 6118,
    "Ġice": 3606,
    "inea": 7624,
    "¬": 110,
    "yes": 983,
    "isa": 17847,
    "Ġbrightly": 13228,
    "favourite": 15147,
    "dred": 2527,
    "cess": 537,
    "Ġsecre": 5493,
    "Ġgone": 2107,
    "umed": 6556,
    "Ġomens": 21331,
    "Ġperforms": 11881,
    "Ġshaded": 14108,
    "Ġcrime": 4618,
    "Ġimpul": 7208,
    "Ġpry": 11603,
    "bad": 12440,
    "Ġfundamental": 3010,
    "Ġlamentations": 17077,
    "Ġdocumentation": 20557,
    "Ġdesisted": 22983,
    "Ġresid": 22542,
    "Ġcobbler": 25831,
    "Ġperches": 18450,
    "borean": 25744,
    "transform": 8050,
    "Ġpallet": 21484,
    "bewil": 22501,
    "tuning": 1582,
    "Ġnautical": 17389,
    "Ġinexperienced": 26101,
    "remind": 23191,
    "Ġaware": 5756,
    "Ġlabour": 7274,
    "Ġhasten": 10480,
    "Ġpeaks": 16132,
    "Ġclasses": 4054,
    "Ġgash": 15675,
    "Ġemerged": 8688,
    "magnificent": 20277,
    "lers": 10109,
    "Ġshaking": 6553,
    "interruption": 20115,
    "positive": 20570,
    "Ġwithout": 1122,
    "inj": 9154,
    "braid": 17497,
    "Ġafric": 8907,
    "splinter": 25211,
    "Ġmeekly": 26492,
    "changed": 7176,
    "volut": 1564,
    "Ġtraits": 23078,
    "Ġbas": 6381,
    "Ġincreases": 3795,
    "Ġtomahawk": 7539,
    "Ġdub": 13912,
    "Ġ15": 9327,
    "dman": 10091,
    "stem": 566,
    "hope": 5991,
    "Ġ1890": 23900,
    "comparison": 25842,
    "Ġabsolutely": 4859,
    "iracle": 11245,
    "esu": 17903,
    "Ġfilm": 23929,
    "Ġgritted": 22808,
    "cest": 12449,
    "Ġterribly": 10427,
    "frank": 7758,
    "fifth": 20149,
    "Ġsunda": 13546,
    "Ġtransparen": 10544,
    "at": 268,
    "Ġcountries": 13100,
    "glory": 23855,
    "Ġlur": 5226,
    "draw": 23903,
    "Ġcaution": 11348,
    "Ġbilliard": 16690,
    "Ġlocations": 12417,
    "narr": 12501,
    "Ġhim": 476,
    "strade": 5065,
    "Ġscruple": 25051,
    "phew": 6369,
    "games": 20882,
    "iac": 6227,
    "Ġembarr": 7446,
    "empl": 5724,
    "Ġconfl": 11139,
    "Ġwil": 4582,
    "Ġemblematical": 25789,
    "Ġsuperl": 16445,
    "Ġsharpened": 17368,
    "Ġstride": 22612,
    "Ġmichael": 20682,
    "Ġreflect": 6577,
    "Ġrender": 8305,
    "Ġrequire": 911,
    "Ġpanegyric": 26451,
    "ships": 5486,
    "Ġprotect": 6339,
    "Ġunav": 18241,
    "endeav": 7151,
    "crews": 15045,
    "odious": 21814,
    "Ġ$": 21153,
    "ank": 1367,
    "announce": 24561,
    "mission": 5971,
    "Ġfelicity": 7260,
    "Ġconveniences": 19815,
    "Ġpictures": 5503,
    "attending": 18918,
    "Ġdistrust": 8205,
    "putation": 7625,
    "Ġbott": 3148,
    "isher": 2875,
    "Ġbetokened": 18798,
    "based": 2957,
    "uracy": 1068,
    "Ġfurious": 10356,
    "Ġascent": 19621,
    "Ġoffspring": 16149,
    "Ġdestroying": 14732,
    "Ġmanaging": 22329,
    "Ġfasten": 11134,
    "Ġsundry": 20077,
    "Ġconfessor": 24022,
    "Ġblossom": 26313,
    "Ġinexhaustible": 16983,
    "Ġdetaining": 25820,
    "Ġaskance": 23154,
    "descending": 16288,
    "Ġwalk": 1826,
    "scar": 9819,
    "Ġinconceivable": 17940,
    "Ġcontrad": 9758,
    "Ġtranslation": 3085,
    "Ġreceiving": 4883,
    "leviathan": 7785,
    "lace": 13751,
    "miniature": 16767,
    "ambition": 13414,
    "chors": 11647,
    "Ġsounding": 8265,
    "Ġplan": 3883,
    "Ġinterrupt": 4359,
    "Ġsingers": 23773,
    "aker": 3664,
    "icates": 11620,
    "odd": 21813,
    "Ġbundles": 26176,
    "d": 72,
    "Ġhull": 5446,
    "Ġunfolding": 17087,
    "Ġenigmatical": 20600,
    "Ġsarat": 21230,
    "Ġwhistles": 24625,
    "alcul": 15632,
    "feit": 16046,
    "pidation": 18904,
    ";": 31,
    "...": 24549,
    "oth": 1186,
    "Ġpole": 6434,
    "Ġraving": 16119,
    "Ġwrecks": 16820,
    "paper": 9139,
    "Ġwhitewashed": 14473,
    "Ġclassical": 22625,
    "tumbled": 21093,
    "Ġgreeted": 23215,
    "consol": 9765,
    "Ġder": 1499,
    "Ġtrooped": 24900,
    "Ġdusting": 24597,
    "Ġmix": 7577,
    "Ġfemale": 8345,
    "Ġgaining": 9495,
    "Ġsage": 17754,
    "deacon": 22150,
    "Ġheard": 1401,
    "âĢĶ.": 11759,
    "dden": 1806,
    "Ġbi": 917,
    "Ġspears": 12932,
    "idirectional": 2421,
    "reasoning": 9479,
    "Ġarranging": 11176,
    "Ġingolstadt": 8333,
    "Ġmiscellaneous": 17465,
    "Ġscratches": 22290,
    "Ġshare": 1658,
    "Ġsuffered": 5649,
    "Ġnatives": 17953,
    "Ġimprecate": 20521,
    "strongly": 24685,
    "intern": 23738,
    "vulgar": 25919,
    "erative": 21275,
    "Ġlancaster": 26342,
    "Ġmidday": 23634,
    "uded": 6288,
    "coach": 23562,
    "Ġacts": 2295,
    "Ġbeside": 5192,
    "Ġhomeless": 23390,
    "dia": 2134,
    "ruck": 6848,
    "riages": 10246,
    "Ġmax": 2008,
    "Ġbiggest": 24567,
    "irth": 5634,
    "Ġunlikely": 10910,
    "Ġvisible": 4778,
    "res": 2758,
    "Ġcolon": 18768,
    "Ġstubbornness": 25380,
    "Ġoblong": 14324,
    "icable": 6389,
    "Ġrespectfully": 18995,
    "Ġrag": 18643,
    "Ġtaste": 5524,
    "Ġwhalemen": 3913,
    "Ġobservable": 25129,
    "Ġadjusts": 8983,
    "Ġputs": 19036,
    "ieve": 1659,
    "'re": 12432,
    "Ġcope": 17832,
    "illity": 18297,
    "itics": 13875,
    "Ġhove": 17925,
    "belais": 24042,
    "Ġsignature": 16495,
    "Ġplanning": 14754,
    "Ġgoney": 14546,
    "umn": 5836,
    "Ġunlocked": 14123,
    "arthly": 8030,
    "Ġhobbling": 25645,
    "bodily": 17318,
    "Ġpredestinated": 18516,
    "Ġcharming": 6631,
    "Ġconvulsively": 25716,
    "geor": 15982,
    "Ġbony": 12593,
    "shiver": 16030,
    "Ġunfrequent": 24112,
    "quimaux": 21863,
    "Ġpresentiment": 18988,
    "deserted": 19344,
    "offices": 19063,
    "ju": 13744,
    "Ġfisherman": 12080,
    "Ġfifth": 11259,
    "Ġunfulfilled": 26511,
    "Ġsounded": 8594,
    "Ġaccomp": 4714,
    "prise": 7727,
    "favour": 9552,
    "Ġverd": 6919,
    "pra": 15410,
    "Ġarg": 4767,
    "ather": 740,
    "¼": 125,
    "bling": 10685,
    "Ġstrategy": 2026,
    "Ġcrew": 2497,
    "carry": 19529,
    "ivil": 6412,
    "Ġrid": 4354,
    "Ġmanage": 7641,
    ",--âĢľ": 19198,
    "Ġshoal": 12020,
    "usage": 12839,
    "exposure": 19259,
    "Ġindirect": 18836,
    "Ġfleecy": 17025,
    "Ġsallied": 12542,
    "Ġwedge": 24935,
    "solved": 7685,
    "observation": 17272,
    "Ġcough": 11584,
    "Ġsplendour": 20227,
    "Ġpermit": 9752,
    "Ġcompromising": 22577,
    "Ġinviting": 19145,
    "overfitting": 13105,
    "nelson": 25621,
    "Ġvolumes": 14803,
    "Ġvictim": 6099,
    "Ġexclaiming": 13644,
    "Ġhabits": 6926,
    "Ġassid": 18947,
    "solute": 16600,
    "Ġgreeting": 18964,
    "ke": 429,
    "Ġfeat": 10939,
    "Ġasia": 11686,
    "Ġdetested": 14186,
    "rows": 6443,
    "Ġmotion": 4568,
    "pan": 10718,
    "Ġpredecess": 18517,
    "function": 4476,
    "naturally": 14573,
    "wes": 17705,
    "Ġnarrowly": 16822,
    "Ġash": 4834,
    "reg": 2184,
    "Ġbrisk": 9806,
    "Ġsanguine": 25929,
    "ĠcÃ¦": 15559,
    "showing": 22462,
    "Ġcommanding": 16592,
    "Ġrear": 6537,
    "Ġeggs": 12346,
    "Ġbor": 5805,
    "Ġpartners": 11857,
    "sailor": 14718,
    "ibles": 18787,
    "rown": 2191,
    "Ġtolland": 24991,
    "nings": 9134,
    "Ġthoughtfulness": 18776,
    "un": 373,
    "pless": 6262,
    "Ġvariety": 8533,
    "50": 6785,
    "Ġdire": 864,
    "Ġdisclose": 16160,
    "idation": 5022,
    "Ġtrue": 1340,
    "emason": 18184,
    "Ġfitting": 21411,
    "Ġpaid": 5015,
    "Ġbrain": 2088,
    "oforte": 14291,
    "watson": 12248,
    "Ġpat": 1782,
    "Ġtig": 13816,
    "ino": 15482,
    "entions": 17977,
    "Ġnorm": 763,
    "occurred": 13341,
    "Ġclapham": 17268,
    "lonely": 20959,
    "says": 13303,
    "Ġcouples": 16854,
    "Ġseparate": 5778,
    "Ġcontrary": 5261,
    "ortations": 22262,
    "Ġtilted": 20416,
    "Ġpunchbowl": 20234,
    "Ġhandsomest": 20337,
    "Ġdomes": 23645,
    "Ġpredict": 673,
    "Ġdamned": 13134,
    "aken": 1869,
    "Ġcum": 21345,
    "Ġharsh": 9524,
    "Ġbureau": 11593,
    "ens": 701,
    "Ġcringed": 25943,
    "Ġtweed": 22680,
    "conclude": 24071,
    "Ġbargain": 23794,
    "protested": 13477,
    "Ġbarnacled": 25537,
    "Ġmalignant": 14881,
    "Ġfeasts": 25370,
    "bringing": 17169,
    "Ġabstracted": 17185,
    "yra": 8103,
    "Ġinquest": 16550,
    "Ġarmada": 23582,
    "considerable": 10551,
    "sole": 6170,
    "snowy": 20286,
    "xes": 21143,
    "Ġfoam": 6891,
    "Ġtune": 17727,
    "Ġcritic": 19123,
    "Ġpolynes": 16084,
    "Ġflapp": 23011,
    "Ġrules": 1919,
    "Ġrandom": 1589,
    "Ġbowled": 23771,
    "univers": 15776,
    "isms": 12586,
    "Ġfireboard": 23535,
    "Ġlonger": 3359,
    "Ġdownward": 10334,
    "Ġpallidness": 25605,
    "Ġlikelihood": 16503,
    "Ġunnear": 22032,
    "omically": 13979,
    "aciousness": 18608,
    "succeeded": 15179,
    "article": 22396,
    "thus": 5158,
    "Ġkill": 4453,
    "ange": 1016,
    "Ġclassification": 1103,
    "Ġfiss": 21415,
    "Ġshivering": 10268,
    "sorrows": 17323,
    "Ġbeeches": 9229,
    "died": 11482,
    "Ġrelatives": 12986,
    "fav": 6649,
    "Ġannounce": 13342,
    "Ġfall": 2983,
    "Ġconvention": 25547,
    ")âĢĶ": 20744,
    "Ġassembly": 10645,
    "Ġoffered": 5817,
    "Ġletter": 2196,
    "government": 25407,
    "Ġscents": 22286,
    "Ġdeserts": 10510,
    "Ġcandelab": 23852,
    "Ġretreated": 13436,
    "Ġexamine": 7735,
    "Ġreusability": 13561,
    "Ġpittance": 15621,
    "Ġgrowled": 19286,
    "struck": 7862,
    "icting": 12858,
    "Ġconference": 15751,
    "desper": 13222,
    "Ġdevious": 22719,
    "Ġprofile": 16490,
    "Ġaforethought": 25429,
    "Ġinserting": 19908,
    "Ġapart": 4747,
    "Ġhuggins": 24826,
    "freighted": 14895,
    "eneva": 5118,
    "Ġbol": 6243,
    "Ġlumps": 21559,
    "ancient": 9658,
    "Ġnavigation": 9996,
    "acey": 7650,
    "Ġunhallowed": 17183,
    "shelf": 20384,
    "Ġlong": 794,
    "century": 20050,
    "Ġtidy": 17094,
    "perse": 15899,
    "Ġgravesend": 15220,
    "Ġblow": 3374,
    "Ġpout": 17908,
    "Ġmoderation": 12824,
    "epilogue": 22104,
    "Ġgryphon": 4300,
    "Ġgovernments": 20270,
    "weight": 2937,
    "Ġhinting": 19652,
    "persuaded": 15077,
    "confined": 24328,
    "rucastle": 22192,
    "um": 454,
    "sentimental": 25682,
    "flame": 16640,
    "Ġwealth": 7621,
    "Ġt": 261,
    "Ġnumber": 1981,
    "_,âĢĻ": 12437,
    "Ġrevered": 23736,
    "Ġobject": 1396,
    "ivers": 1984,
    "poverty": 22911,
    "Ġuncounted": 19118,
    "Ġintricate": 15141,
    "Ġblasted": 7938,
    "Ġconjured": 25102,
    "Ġbrick": 8929,
    "theories": 18081,
    "Ġuntutored": 19168,
    "ì": 173,
    "ump": 2284,
    "lengthwise": 19953,
    "ppo": 18178,
    "Ġtyph": 10011,
    "rusted": 16509,
    "Ġforce": 5092,
    "Ġprecip": 7076,
    "pag": 11513,
    "ht": 376,
    "Ġcalamity": 17352,
    "Ġelbowed": 16114,
    "Ġresult": 4459,
    "Ġtrembled": 8705,
    "menced": 23149,
    "Ġmurdering": 14814,
    "Ġportents": 14681,
    "Ġstories": 10867,
    "Ġbeh": 1803,
    "Ġfields": 2142,
    "Ġgrey": 4514,
    "Ġanimate": 23425,
    "Ġwhaler": 7520,
    "Ġdissip": 10994,
    "Ġsenate": 25215,
    "shrugged": 22461,
    "Ġeternally": 11371,
    "master": 5687,
    "figure": 13558,
    "Ġdeprived": 8208,
    "Ġfire": 2332,
    "Ġstretching": 10018,
    "meaning": 2906,
    "england": 18931,
    "Ġupdating": 2690,
    "istan": 22112,
    "Ġunrivalled": 26521,
    "Ġsister": 1475,
    "Ġskies": 8924,
    "Ġcheered": 16372,
    "Ġindeed": 1679,
    "Ġunknown": 4452,
    "Ġwrinkles": 8574,
    "Ġhearts": 4972,
    "named": 9892,
    "ixed": 4853,
    "Ġgrew": 5182,
    "rom": 421,
    "Ġunsav": 18252,
    "Ġsteam": 9356,
    "Ġunspeakable": 10059,
    "Ġincreas": 1692,
    "Ġjeopard": 9946,
    "Ġfitzwilliam": 5771,
    "Ġpanther": 16821,
    "Ġaltar": 9231,
    "Ġansw": 2203,
    "erxes": 21278,
    "Ġjustify": 11074,
    ".,": 5989,
    "Ġident": 2242,
    "Ġassured": 4372,
    "Ġseeking": 7037,
    "Ġdru": 8423,
    "Ġrescue": 13346,
    "Ġtransaction": 22471,
    "Ġsubfield": 11873,
    "Ġnarration": 13506,
    "Ġsliding": 9366,
    "Ġweakened": 16825,
    "Ġunaware": 22063,
    "Ġdeg": 3280,
    "indust": 18436,
    "Ġanswered": 2849,
    "ically": 835,
    "Ġimpassable": 20615,
    "Ġcadiz": 17328,
    "Ġclearness": 23187,
    "Ġmonstrous": 7790,
    "Ġartificial": 787,
    "Ġrevived": 11370,
    "Ġbackpropagation": 1233,
    "Ġtravelling": 11309,
    "pick": 17636,
    "Ġfluke": 14676,
    "Ġbrows": 13304,
    "Ġturner": 7051,
    "Ġholidays": 22925,
    "Ġtooth": 9195,
    "Ġchaps": 14180,
    "purse": 20028,
    "Ġmichigan": 26428,
    "*": 14,
    "Ġmonogram": 26576,
    "Ġengrossed": 13001,
    "Ġum": 10214,
    "Ġgirls": 4279,
    "Ġin": 291,
    "Ġdepression": 21836,
    "Ġsummers": 23876,
    "jabez": 20935,
    "kered": 18275,
    "Ġsubtle": 6718,
    "oded": 11672,
    "Ġexplain": 545,
    "Ġparched": 11731,
    "Ġwitnessed": 14847,
    "Ġarrangements": 16518,
    "Ġbanking": 19633,
    "dun": 17518,
    "Ġcataract": 23430,
    "Ġsuitable": 18279,
    "Ġhedge": 8364,
    "shipmates": 11932,
    "Ġminut": 2202,
    "south": 8762,
    "ĠĠĠĠĠĠĠĠĠĠĠĠĠĠĠĠĠĠĠĠĠĠĠĠĠĠĠĠĠĠĠĠĠĠĠĠĠĠĠĠĠĠĠĠĠ": 9955,
    "Ġdifficulties": 11227,
    "thrust": 10264,
    "Ġdenote": 19335,
    "Ġhoisted": 5961,
    "Ġconvul": 13206,
    "tenderly": 20534,
    "Ġaz": 9632,
    "Ġoriginate": 24124,
    "nal": 1902,
    "shipped": 18495,
    "oken": 4307,
    "Ġtrapped": 23079,
    "Ġnobly": 22245,
    "ict": 592,
    "biting": 20783,
    "Ġremove": 7499,
    "Ġunreasoning": 15849,
    "kee": 18274,
    "inridge": 11563,
    "Ġsteward": 6586,
    "Ġelopement": 10331,
    "Ġsolving": 2484,
    "Ġtaurus": 21181,
    "Ġerie": 20057,
    "Ġsweet": 3466,
    "Ġbengal": 18785,
    "ĠâĢľâĢĶ": 9737,
    "Ġstyled": 24672,
    "Ġpalace": 16691,
    "Ġimpending": 22388,
    "augment": 18830,
    "som": 3290,
    "Ġglasses": 9478,
    "Ġpeevish": 26559,
    "Ġreach": 4046,
    "fishermen": 17062,
    "sticking": 21663,
    "Ġcalling": 5662,
    "Ġstacked": 21747,
    "ulent": 21866,
    "Ġexcite": 11970,
    "Ġicicles": 25265,
    "Ġamericans": 14746,
    "rabbit": 20594,
    "recl": 15513,
    "Ġstoutly": 16926,
    "scruple": 26046,
    "Ġ52": 24317,
    "odecimoes": 25319,
    "pop": 17633,
    "Ġfre": 1572,
    "aved": 5475,
    "Ġstout": 6026,
    "Ġpaused": 5416,
    "Ġdears": 18137,
    "middle": 11312,
    "adm": 7609,
    "Ġhansom": 13668,
    "ram": 13975,
    "Ġforgiveness": 16659,
    "Ġimpress": 6862,
    "Ġdevotedly": 24749,
    "Ġpyramid": 8806,
    "Ġdances": 10814,
    "circumstances": 8047,
    "Ġtapers": 11554,
    "incl": 8110,
    "Ġconducting": 16652,
    "Ġunwaning": 24830,
    "anch": 15564,
    "omination": 21645,
    "honest": 17005,
    "Ġsoldier": 16922,
    "sunlight": 24852,
    "Ġbland": 11066,
    "Ġnarrow": 5086,
    "Ġfourteen": 12014,
    "arbuck": 2027,
    "leg": 2812,
    "shop": 14240,
    "line": 1441,
    "speak": 5504,
    "methodically": 20666,
    "Ġentitled": 8541,
    "800": 17479,
    "Ġforebodings": 17307,
    "Ġpalmed": 24095,
    "utter": 7594,
    "Ġconsol": 3815,
    "Ġaddison": 14235,
    "works": 6589,
    "iour": 4037,
    "Ġfallen": 5969,
    "oyed": 14369,
    "hour": 7340,
    "Ġminus": 18752,
    "probably": 10023,
    "Ġwaves": 3919,
    "Ġbowsprit": 16563,
    "former": 11752,
    "Ġverses": 17064,
    "Ġpapa": 10659,
    "gather": 20877,
    "bran": 23576,
    "Ġpresumed": 10547,
    "bounded": 13442,
    "Ġgrow": 2858,
    "Ġpeasant": 13554,
    "inqu": 6123,
    "gryphon": 15362,
    "Ġlocks": 11728,
    "naturalists": 23521,
    "Ġoldest": 12979,
    "Ġweig": 7619,
    "Ġartic": 5315,
    "sterdam": 19091,
    "Ġintervals": 5598,
    "Ġwrong": 4725,
    "Ġnovember": 11753,
    "Ġhish": 21917,
    "Ġsympat": 13344,
    "Ġsupplied": 8946,
    "Ġhurtling": 24960,
    "Ġtore": 6532,
    "Ġdictionary": 15116,
    "canonical": 22968,
    "Ġdeserves": 13293,
    "baggage": 24927,
    "shudder": 26247,
    "armon": 23062,
    "Ġflorid": 17138,
    "pro": 2051,
    "non": 9614,
    "mast": 3604,
    "condition": 7061,
    "waist": 13421,
    "sper": 4434,
    "ersman": 11705,
    "capital": 15092,
    "licted": 20958,
    "Ġalterations": 19873,
    "Ġcried": 1487,
    "Ġgeomet": 3193,
    "Ġlash": 8440,
    "Ġcompar": 4772,
    "lizzy": 6654,
    "Ġindu": 5295,
    "oons": 12503,
    "ertips": 23641,
    "Ġnash": 5820,
    "drawn": 9916,
    "Ġextract": 1585,
    "Ġinsomuch": 23686,
    "ford": 2820,
    "Ġdictator": 20156,
    "owders": 18050,
    "Ġsteal": 16287,
    "Ġchamber": 6215,
    "Ġstagnant": 24655,
    "Ġrunning": 3952,
    "Ġnugent": 26459,
    "consumed": 25676,
    "Ġdrew": 3538,
    "uvier": 9071,
    "Ġseveral": 2672,
    "Ġinterior": 8898,
    "Ġlurked": 11293,
    "Ġabatement": 22280,
    "introdu": 8940,
    "marrying": 19550,
    "Ġcentury": 8291,
    "Ġdestitute": 14568,
    "Ġsig": 866,
    "Ġupset": 22157,
    "source": 11528,
    "encountered": 20396,
    "nants": 17615,
    "semic": 21825,
    "Ġunfrequ": 19511,
    "hibited": 17430,
    "entreat": 17978,
    "Ä": 133,
    "hetically": 21211,
    "Ġapproach": 867,
    "consist": 14819,
    "Ġtranquil": 7310,
    "Ġharp": 17926,
    "Ġsta": 18065,
    "ieces": 4773,
    "girls": 12323,
    "Ġrecede": 25969,
    "Ġstudy": 1836,
    "Ġheighten": 19532,
    "Ġgratify": 19506,
    "Ġdisp": 3358,
    "multiple": 15111,
    "Ġambition": 11434,
    "ars": 905,
    "Ġlife": 1355,
    "each": 7335,
    "stuff": 15692,
    "sky": 12515,
    "Ġcopying": 17069,
    "pit": 3984,
    "favourable": 12268,
    "Ġlangs": 13957,
    "Ġdefendants": 15144,
    "Ġmund": 21321,
    "Ġshades": 9465,
    "Ġexpanding": 25239,
    "Ġspan": 11732,
    "cod": 12448,
    "curious": 10485,
    "Ġfidget": 15193,
    "expressing": 16803,
    "doc": 23379,
    "Ġtemporarily": 11169,
    "Ġnecessary": 4472,
    "generous": 16571,
    "ohnson": 16329,
    "Ġcoarse": 14278,
    "apsed": 6297,
    "Ġchoice": 2165,
    "Ġdisorder": 16055,
    "admitted": 18094,
    "Ġsty": 6253,
    "adequately": 20322,
    "amuse": 14055,
    "Ġabstra": 22275,
    "compass": 9462,
    "Ġsloop": 25931,
    "Ġregal": 16081,
    "elements": 25204,
    "Ġrefuge": 8544,
    "elag": 12664,
    "Ġceiling": 7997,
    "Ġamaze": 22487,
    "Ġwitness": 4623,
    "Ġpriest": 7526,
    "Ġinconsist": 17938,
    "Ġparagraph": 17457,
    "Ġutil": 4674,
    "Ġlounged": 19957,
    "Ġtar": 2564,
    "Ġjabbering": 22307,
    "Ġconfederate": 17356,
    "asing": 5913,
    "Ġnor": 1554,
    "agon": 7871,
    "Ġsar": 21216,
    "Ġrecollections": 10515,
    "Ġrelig": 8553,
    "Ġsinful": 18951,
    "Ġconstruct": 23344,
    "alescence": 15928,
    "ulty": 22571,
    "Ġdetailed": 12834,
    "ems": 5235,
    "Ġprompted": 23820,
    "Ġsimplest": 16337,
    "ascertain": 21546,
    "Ġevaluate": 2955,
    "Ġgenerally": 4157,
    "sink": 11524,
    "overlooked": 23328,
    "Ġsuspense": 9421,
    "Ġcarcase": 14447,
    "mechan": 11861,
    "diff": 9116,
    "quar": 7616,
    "Ġdifferen": 935,
    "Ġrestrain": 8967,
    "Ġhudson": 15195,
    "eness": 2291,
    "Ġinternal": 2248,
    "Ġguilt": 6181,
    "jected": 22717,
    "unerative": 21900,
    "gor": 550,
    "Ġthousands": 6750,
    "so": 890,
    "Ġdisasters": 16058,
    "Ġflorida": 20661,
    "Ġintervene": 25481,
    "etw": 408,
    "isl": 21378,
    "Ġstoke": 10398,
    "Ġswitzerland": 10382,
    "Ġdivine": 6921,
    "situation": 11439,
    "treated": 21097,
    "Ġeasy": 3452,
    "Ġremarking": 13127,
    "Ġopportunity": 4787,
    "Ġscale": 1552,
    "Ġverdure": 10615,
    "Ġrespond": 11178,
    "ign": 1701,
    "goodbye": 12060,
    "vely": 3868,
    "whips": 22242,
    "living": 7135,
    "Ġtriumphal": 24371,
    "racts": 14365,
    "Ġhonestly": 19975,
    "chastic": 2333,
    "edd": 1216,
    "Ġdilatory": 24704,
    "Ġmusical": 23896,
    "Ġrubber": 22790,
    "Ġovertook": 18428,
    "Ġprobably": 4314,
    "Ġclimb": 15083,
    "hopes": 15373,
    "Ġinvoked": 19146,
    "Ġviii": 16416,
    "Ġimitate": 14160,
    "transformers": 8718,
    "Ġcontact": 9284,
    "Ġdense": 8123,
    "pleasant": 5876,
    "Ġwearily": 18180,
    "pha": 22781,
    "Ġalpine": 18108,
    "Ġ49": 24086,
    "Ġrehearsed": 25972,
    "lets": 7836,
    "Ġmagg": 18907,
    "dangerous": 20243,
    "Ġtorments": 13397,
    "Ġgordon": 26469,
    "beloved": 19464,
    "Ġchosen": 7201,
    "Ġprecise": 7077,
    "Ġuninter": 18247,
    "Ġlodging": 24098,
    "Ġinexpressible": 17336,
    "Ġforgotten": 5679,
    "Ġpunch": 9958,
    "į": 240,
    "Ġsober": 10913,
    "Ġhaunt": 18198,
    "Ġoffers": 12950,
    "enses": 10996,
    "Ġcurb": 16237,
    "ffy": 18317,
    "bury": 9110,
    "Ġcompany": 3721,
    "signed": 21064,
    "Ġtransported": 11281,
    "Ġcontextual": 3742,
    "Ġattractions": 12924,
    "Ġone": 568,
    "Ķ": 247,
    "Ġexploding": 2109,
    "Ġstarts": 16585,
    "Ġfeather": 8863,
    "Ġimplies": 24874,
    "Ġnovelist": 24776,
    "Ġpadded": 25039,
    "Ġveget": 11890,
    "Ġairy": 23322,
    "Ġlethargy": 26485,
    "Ġweapons": 10596,
    "duchess": 18464,
    "Ġgibraltar": 25788,
    "âĢ": 294,
    "Ġunheeded": 18262,
    "Ġcommended": 18657,
    "abst": 21792,
    "Ġservant": 5764,
    "Ġtranced": 18433,
    "Ġjutting": 22305,
    "Ġvolat": 24147,
    "limping": 26395,
    "twig": 23702,
    "Ġoverbearing": 12848,
    "Ġapplied": 6188,
    "Ġdesperado": 19822,
    "Ġslime": 23165,
    "Ġdisgraceful": 15022,
    "Ġtestament": 23198,
    "Ġdropped": 4470,
    "Ġlack": 17966,
    "Ġquadr": 8200,
    "Ġdrawer": 13269,
    "condescended": 26250,
    "Ġveiled": 16204,
    "Ġapproving": 18519,
    "ouch": 2779,
    "Ġnois": 4266,
    "Ġappointed": 20106,
    "lighter": 20961,
    "eches": 8078,
    "Ġbanqu": 12594,
    "Ġperu": 14225,
    "Ġgraph": 10904,
    "sprang": 19994,
    "Ġwards": 17791,
    "Ġvinegar": 20103,
    "Ġdogs": 7742,
    "Ġshown": 5159,
    "singular": 12193,
    "Ġrecommended": 8671,
    "Ġstacks": 18077,
    "Ġdeliciousness": 24129,
    "Ġlory": 12658,
    "circle": 16738,
    "ement": 1503,
    "Ġforever": 14554,
    "Ġpals": 13921,
    "bbles": 13695,
    "Ġearnestly": 5980,
    "Ġsignal": 5946,
    "Ġber": 5698,
    "Ġhole": 6080,
    "build": 12192,
    "feather": 16047,
    "magnetic": 20555,
    "Ġlandsman": 11352,
    "Ġfronts": 19003,
    "topic": 10530,
    "Ġchambermaid": 24306,
    "moderate": 22855,
    "Ġdragging": 14478,
    "Ġdireful": 11020,
    "Ġrelations": 5854,
    "Ġmummy": 25769,
    "Ġearls": 18905,
    "Ġsuperb": 16444,
    "Ġextraordinary": 5414,
    "Ġsharpen": 13572,
    "Ġconcerned": 5332,
    "Ġdowry": 20688,
    "Ġtow": 4395,
    "Ġdrooping": 9423,
    "Ġspitz": 14151,
    "hes": 1399,
    "Ġmart": 10781,
    "Ġdisgust": 6707,
    "Ġindications": 14634,
    "oft": 3593,
    "lion": 20946,
    "Ġentertained": 10001,
    "Ġsevered": 18204,
    "Ġsen": 9159,
    "Ġhigher": 1821,
    "Ġoverflow": 10295,
    "purpose": 10047,
    "county": 25397,
    "Ġflame": 7448,
    "Ġhist": 2444,
    "Ġlace": 13952,
    "pump": 21019,
    "Ġstrangely": 5677,
    "Ġclum": 8876,
    "Ġuneasiness": 9487,
    "Ġyields": 19659,
    "Ġfalse": 4343,
    "phenomenon": 17650,
    "Ġsimply": 7218,
    "arranged": 19321,
    "Ġsally": 15505,
    "Ġwander": 9034,
    "impressions": 20702,
    "Ġo": 275,
    "Ġuttermost": 19491,
    "Ġsuggests": 12205,
    "Ġarbit": 4652,
    "verbally": 25361,
    "angels": 22110,
    "orously": 8420,
    "horror": 13162,
    "Ġjolly": 6858,
    "Ġpre": 507,
    "Ġpondering": 17007,
    "Ġmarks": 6748,
    "ire": 493,
    "Ġequin": 14497,
    "unnatural": 15777,
    "derstand": 646,
    "Ġtypes": 8939,
    "stays": 15693,
    "Ġbennets": 9809,
    "Ġoverwhelm": 25055,
    "Ġswamp": 14439,
    "servant": 15038,
    "Ġworshipped": 25692,
    "pt": 388,
    "Ġlens": 8439,
    "avoiding": 25237,
    "fell": 6953,
    "particularly": 8340,
    "Ġfelony": 18954,
    "Ġimaginations": 16519,
    "ableness": 8149,
    "aternity": 21268,
    "Ġsummit": 7731,
    "ca": 20795,
    "ither": 1550,
    "pendicular": 6500,
    "apologizing": 26546,
    "Ġespecial": 26412,
    "Ġency": 21937,
    "Ġepic": 15032,
    "Ġbrawn": 10484,
    "Ġfashions": 17887,
    "Ġut": 2279,
    "Ġlaughed": 5059,
    "Ġcredulous": 17147,
    "Ġnice": 6678,
    "Ġsaws": 23052,
    "poling": 12224,
    "net": 1195,
    "Ġstigma": 25792,
    "Ġtaught": 6804,
    "Ġproved": 4885,
    "Ġgeneralization": 982,
    "Ġmadam": 5663,
    "Ă": 195,
    "Ġtravel": 5954,
    "position": 15416,
    "ifying": 5252,
    "bour": 2072,
    "iriously": 18174,
    "Ġvul": 10250,
    "Ġwo": 3652,
    "understood": 13219,
    "Ġdownst": 3561,
    "Ġmanufactured": 22334,
    "dispute": 23501,
    "anned": 17841,
    "Ġapologizing": 25198,
    "berries": 22750,
    "Ġvastly": 23863,
    "Ġsermons": 20197,
    "Ġstave": 11654,
    "ar": 285,
    "Ġimpregnable": 26024,
    "Ġmisunderstand": 18701,
    "b": 70,
    "Ġinvective": 26183,
    "Ġpenn": 11113,
    "Ġexploration": 2335,
    "mown": 20972,
    "archangel": 18793,
    "Ġhysterical": 26093,
    "sombre": 23857,
    "Ġthickest": 16657,
    "retch": 4371,
    "billiard": 25335,
    "Ġlevi": 3031,
    "Ġorigin": 4120,
    "Ġcouldn": 7649,
    "Ġfancies": 10426,
    "zza": 24170,
    "itting": 1151,
    "Ġstairs": 5541,
    "residence": 19265,
    "Ġrecovering": 11866,
    "Ġlaws": 8003,
    "Ġpasses": 2679,
    "Ġarrange": 3121,
    "Ġdoc": 7200,
    "Ġadaptively": 4513,
    "Ġdam": 2214,
    "Ġsure": 1865,
    "Ġdevotion": 22721,
    "Ġgleamed": 17078,
    "twilight": 23705,
    "mured": 6960,
    "omas": 12677,
    "Ġhiss": 15792,
    "err": 1141,
    "Ġsteered": 11095,
    "Ġnumer": 3640,
    "Ġinstantly": 3594,
    "Ġexterior": 19991,
    "Ġlight": 1698,
    "Ġquart": 11791,
    "Ġviolent": 5117,
    "Ġconfidently": 24958,
    "Ġcreep": 22723,
    "delight": 5345,
    "moral": 14805,
    "Ć": 199,
    "Ġsigns": 2442,
    "Ġinsights": 13182,
    "Ġexisted": 15762,
    "bitterly": 20340,
    "bright": 8992,
    "Ġdiet": 13913,
    "Ġcounterpane": 11345,
    "baby": 25516,
    "Ġanywhere": 8519,
    "Ġhimmale": 18335,
    "nurtured": 25525,
    "Ġsouthampton": 24309,
    "-": 17,
    "Ġtho": 21517,
    "Ġoppressive": 20458,
    "liness": 8750,
    "room": 2178,
    "degrees": 22153,
    "jaw": 13746,
    "Ġinfatuation": 25857,
    "Ġwounds": 17792,
    "Ġinstruct": 2862,
    "az": 2182,
    "Ġbridges": 24683,
    "lat": 9607,
    "else": 6535,
    "summoned": 26593,
    "Ġdefects": 12337,
    "Ġundecided": 22052,
    "olidity": 18142,
    "Ġmended": 21316,
    "Ġscaling": 3633,
    "Ġpaths": 2570,
    "ĠâĢĶâĢľ_": 17720,
    "Ġundet": 16703,
    "orm": 425,
    "Ġenthusiastic": 19969,
    "certain": 3677,
    "Ġfrown": 10809,
    "Ġir": 1994,
    "clings": 23156,
    "Ġscan": 22283,
    "Ġsubsets": 2344,
    "Ġimprovements": 14505,
    "Ġlegend": 14577,
    "Ġoverlooked": 15975,
    "Ġdeposed": 16076,
    "Ġproportional": 2525,
    "Ġinterpret": 5490,
    "heartily": 24218,
    "zas": 17714,
    "Ġghast": 9212,
    "Ġnineveh": 13392,
    "imp": 3030,
    "Ġconsecrated": 26490,
    "relatively": 24017,
    "Ġtested": 23197,
    "Ġrange": 9715,
    "Ġhoisting": 9865,
    "stealthily": 23965,
    "aboard": 21798,
    "furn": 10094,
    "Ġtenderly": 11316,
    "Ġchilled": 18382,
    "intim": 22937,
    "ipelag": 12849,
    "Ġbrightest": 13229,
    "Ġpulverize": 23396,
    "Ġpresc": 15929,
    "Ġtainted": 21173,
    "umphed": 23518,
    "Ġpriests": 15043,
    "Ġpoltroon": 26600,
    "ricade": 13042,
    "Ġwent": 1540,
    "Ġconsecut": 18114,
    "oted": 4599,
    "Ġmainmast": 9782,
    "Ġoften": 1954,
    "akers": 9743,
    "bun": 12442,
    "nailed": 20998,
    "ibid": 18842,
    "Ġexpressive": 8985,
    "Ġhaught": 10255,
    "Ġconsecutive": 20705,
    "Ġdeveloped": 16339,
    "Ġbegrim": 23018,
    "cherries": 19759,
    "/*": 10074,
    "Ġslaught": 23171,
    "Ġrevolut": 3257,
    "origin": 7582,
    "Ġrealise": 16341,
    "Ġdines": 21426,
    "lingly": 9776,
    "ishment": 3506,
    "Ġbal": 1132,
    "lord": 3866,
    "Ġmetropolitan": 17278,
    "Ġwounding": 19589,
    "Ġgloried": 22990,
    "questioning": 16852,
    "volume": 18598,
    "seamen": 13629,
    "anqu": 4110,
    "pleasanter": 24051,
    "Ġdraught": 9847,
    "Ġindelicacy": 25696,
    "Ġexplo": 2285,
    "itime": 15552,
    "inkers": 22621,
    "jammed": 25907,
    "seized": 14038,
    "guilty": 19486,
    "ule": 6801,
    "cho": 2759,
    "Ġdisadvantages": 18559,
    "Ġimmovable": 15896,
    "Ġturbulence": 26599,
    "hip": 8744,
    "Ġgleaming": 24996,
    "Ġrolls": 8334,
    "perhaps": 4122,
    "Ġdescends": 14292,
    "Ġdives": 17892,
    "semble": 1526,
    "Ġtallow": 14783,
    "punishment": 15149,
    "Ġgoodness": 6060,
    "Ġexult": 10233,
    "Ġstreat": 15725,
    "Ġkith": 22196,
    "numbers": 17618,
    "Ġelixir": 26557,
    "Ġautomation": 13258,
    "alously": 15633,
    "ribut": 813,
    "deficient": 23122,
    "Ġrede": 13987,
    "Ġriding": 14097,
    "Ġknow": 632,
    "Ġprecipices": 12282,
    "Ġdetached": 10283,
    "Ġdarting": 7757,
    "uously": 7353,
    "Ġcommodore": 12399,
    "Ġlanded": 7469,
    "Ġexcel": 3570,
    "ared": 771,
    "dinner": 11408,
    "Ġcontinual": 6778,
    "Ġhath": 12634,
    "Ġaccordance": 19501,
    "oquent": 12504,
    "southern": 20412,
    "ippers": 17578,
    "Ġpropontis": 17468,
    "Ġfront": 3451,
    "intense": 22939,
    "Ġenter": 4030,
    "resides": 23674,
    "Ġforwards": 12709,
    "Ġdepicted": 14273,
    "Ġbrilliantly": 25123,
    "Ġnoble": 3440,
    "Ġvisibly": 22857,
    "Ġhitting": 21491,
    "Ġbias": 1192,
    ":âĢĶ": 4431,
    "Ġargemone": 24277,
    "sacred": 17030,
    "Ġfluid": 11214,
    "keenest": 25662,
    "Ġdangling": 17177,
    "Ġvulgarity": 25364,
    "Ġtying": 15476,
    "Ġabsorbed": 12335,
    "unaccountable": 15783,
    "Ġacquaintances": 17353,
    "urp": 1472,
    "Ġaccumul": 1412,
    "wedding": 12526,
    "Ġorange": 8489,
    "Ġbradstreet": 9579,
    "Ġclump": 15969,
    "tempered": 13449,
    "infernal": 24663,
    "Ġswung": 6450,
    "Ġscreening": 25301,
    "Ġunidirectional": 3425,
    "Ġjane": 1756,
    "Ġhurricane": 16434,
    "Ġanalyzing": 18792,
    "Ġsimilarity": 3168,
    "Ġesteemed": 10591,
    "sigma": 2998,
    "skylight": 25624,
    "Ġexplanation": 6694,
    "Ġrustic": 14968,
    "Ġnantucketers": 9897,
    "Ġensemble": 1606,
    "Ġcruelty": 9972,
    "Ġequilib": 4136,
    "Ġver": 3394,
    "Ġpres": 9735,
    "Ġconsiderably": 7715,
    "proportion": 16184,
    "Ġspecimens": 18860,
[...]
