{
  "metadata": {
    "vocab_size": 26616,
    "algorithm": "BPE",
    "created_at": "2026-07-31 05:34:12",
    "special_tokens": [
      "<PAD>",
      "<SOS>",
      "<EOS>",
      "<UNK>",
      "<MASK>"
    ]
  },
  "vocab": {
    "Ġfinish": 7949,
    "Ġcongenial": 12414,
    "Ġrises": 9716,
    "Ġclerval": 4654,
    "furnished": 20244,
    "fire": 6359,
    "Ġmah": 15546,
    "Ġfragmentary": 25859,
    "confidential": 25877,
    "bingleys": 19637,
    "ray": 2437,
    "Ġstruggled": 9908,
    "Ġpiazza": 26452,
    "queness": 18149,
    "ement": 1501,
    "Ġslammed": 20451,
    "Ġmeanly": 12915,
    "Ġherein": 16195,
    "'d": 12431,
    "dislike": 23496,
    "Ġpossess": 3203,
    "cart": 10692,
    "spades": 14335,
    "assemblies": 25957,
    "Ġstrat": 16097,
    "Ġannot": 15607,
    "Ġinvective": 26183,
    "humanity": 24840,
    "Ġdarker": 13124,
    "Ġincrease": 9373,
    "Ġfe": 489,
    "Ġover": 556,
    "detained": 24382,
    "Ġawaiting": 11391,
    "inations": 7567,
    "Ġarrowy": 25470,
    "Ġmol": 12566,
    "Ġbushy": 16406,
    "Ġcheeks": 5959,
    "Ġface": 1721,
    "precisely": 6917,
    "actory": 8911,
    "Ġghosts": 12237,
    "Ġfollowing": 4058,
    "Ġlabels": 3286,
    "contr": 12061,
    "Ġcoll": 8222,
    "Ġnaturalists": 10364,
    "Ġsquall": 7045,
    "Ġtipped": 17730,
    "Ġbald": 16211,
    "Ġgathers": 24742,
    "Ġspence": 22130,
    "Ġleading": 7297,
    "stay": 9684,
    "war": 6803,
    "freely": 16856,
    "iation": 7343,
    "Ġidol": 7467,
    "Ġstabbed": 25457,
    "Ġguilt": 6181,
    "Ġerecting": 24653,
    "putation": 7625,
    "Ġadmirably": 16484,
    "Ġ47": 14774,
    "Ġimpute": 18332,
    "Ġthoughtlessness": 16198,
    "Ġresp": 2493,
    "ead": 2598,
    "ulation": 5458,
    "ology": 1505,
    "boat": 3360,
    "Ġembattled": 26290,
    "Ġpoets": 11825,
    "Ġstars": 6151,
    "Ġlass": 15653,
    "¢": 100,
    "bery": 9797,
    "urbed": 15713,
    "Ġlawyers": 25249,
    "strom": 15689,
    "Ġsevered": 18206,
    "deaux": 22152,
    "ufactured": 15185,
    "Ġhinted": 6013,
    "sche": 13023,
    "image": 9689,
    "Ġsorrowful": 10539,
    "inch": 10757,
    "Ġlightness": 23263,
    "incom": 21184,
    "iforn": 14067,
    "gloomy": 25147,
    "Ġezekiel": 26194,
    "Ġinfallible": 15074,
    "Ġdesper": 6178,
    "Ġleagues": 9226,
    "pher": 11513,
    "oline": 6833,
    "Ġoverseeing": 22368,
    "nur": 11507,
    "ricted": 15424,
    "Ġanne": 1528,
    "Ġchr": 3688,
    "Ġwont": 9855,
    "itig": 1331,
    "Ġscholars": 26113,
    "sol": 1791,
    "enorm": 17783,
    "Ġuses": 1207,
    "Ġinev": 10184,
    "Ġban": 7157,
    "Ġcasually": 25096,
    "Ġmonuments": 22989,
    "Ġpatted": 16360,
    "Ġpivot": 13926,
    "Ġfairer": 20465,
    "reporting": 24494,
    "Ġsail": 1671,
    "Ġyea": 8919,
    "yes": 984,
    "leaves": 12584,
    "Ġplush": 18611,
    "thanking": 24326,
    "Ġinconsist": 17938,
    "Ġsympathised": 14865,
    "Ġticklish": 25037,
    "clouds": 25497,
    "engineer": 23151,
    "Ġcalves": 13039,
    "usation": 18402,
    "apsed": 6297,
    "Ġbeech": 18085,
    "hawk": 7123,
    "Ġbefall": 8833,
    "na": 13763,
    "acquainted": 7313,
    "Ġquarrels": 16568,
    "Ġinferior": 8366,
    "Ġpreliminary": 10060,
    "umed": 6556,
    "Ġbidirectional": 3754,
    "hatches": 19930,
    "immortal": 21713,
    "Ġworthless": 19568,
    "suggest": 20379,
    "Ġmuse": 13863,
    "Ġoscill": 2858,
    "Ġbad": 3984,
    "Ġtrans": 638,
    "Ġwestern": 10657,
    "Ġhypotheses": 4385,
    "Ġsquat": 14371,
    "clopÃ¦dia": 15260,
    "Ġendeavor": 16547,
    "minutes": 7512,
    "Ġhab": 4216,
    "vour": 17701,
    "crooked": 25747,
    "Ġseason": 5238,
    "Ġleaf": 15728,
    "Ġprophesy": 26062,
    "Ġlately": 6388,
    "Ď": 207,
    "disaster": 23495,
    "figure": 13558,
    "Ġzeal": 9101,
    "Ġmanip": 8875,
    "Ġcannot": 1665,
    "Ġbelted": 22951,
    "brimmed": 14590,
    "cavity": 26127,
    "Ġpap": 8802,
    "anter": 9169,
    "birds": 15148,
    "Ġsick": 4693,
    "Ġprince": 18972,
    "Ġimputable": 22177,
    "Ġsurve": 9877,
    "Ġbarely": 16938,
    "Ġuncomp": 15846,
    "gging": 7697,
    "oct": 7554,
    "Ġadmired": 7982,
    "Ġsells": 21226,
    "Ġimpious": 15991,
    "Ġown": 1003,
    "Ġduchess": 4799,
    "Ġforehead": 5262,
    "Ġatlantic": 7001,
    "Ġthink": 985,
    "Ġmoluccas": 25630,
    "Ġtahiti": 13622,
    "Ġopera": 23428,
    "Ġpreceding": 7528,
    "Ġoriental": 9100,
    "malice": 17605,
    "Ġallegor": 25546,
    "adequate": 15207,
    "Ġcharted": 22254,
    "mid": 5617,
    "Ġsecure": 4912,
    "Ġbarbarously": 24816,
    "Ġcaliforn": 14434,
    "Ġselves": 21225,
    "Ġimmutable": 17361,
    "anguish": 15988,
    "Ġ500": 24324,
    "Ġthreads": 13122,
    "Ġ72": 19614,
    "Ġchanc": 18385,
    "ides": 2160,
    "destruction": 11256,
    "Ġblanched": 26284,
    "eon": 8733,
    "Ġanoints": 25539,
    "Ġloom": 7629,
    "Ġrender": 8305,
    "Ġcorpore": 13404,
    "dest": 4100,
    "Ġhung": 4560,
    "comfortableness": 24525,
    "inst": 4293,
    "Ġslugg": 15272,
    "Ġcoffins": 13253,
    "Ġcheerfully": 12139,
    "aky": 18412,
    "Ġgladness": 16593,
    "Ġvectors": 1771,
    "ructed": 7031,
    "Ġbrawny": 13616,
    "Ġluxur": 12345,
    "Ġbrig": 11048,
    "rat": 8759,
    "Ġcalmness": 12098,
    "Ġeleg": 6194,
    "harbor": 13567,
    "Ġbrad": 8791,
    "comrade": 18739,
    "Ġslow": 2380,
    "gledy": 25404,
    "Ġbeaufort": 13571,
    "Ġpedestrian": 25884,
    "Ġluxuriant": 20398,
    "hob": 20902,
    "Ġcritic": 19123,
    "Ġeast": 5370,
    "Ġbuckskin": 19955,
    "Ġapprovingly": 26254,
    "Ġconver": 807,
    "keys": 15864,
    "Ġclust": 9277,
    "Ġdrowsy": 26446,
    "iro": 20916,
    "Ġpredef": 18516,
    "fatigue": 20660,
    "Ġmerchant": 6468,
    "Ġspades": 12802,
    "Ġcovered": 5171,
    "Ġtrap": 7672,
    "Ġspec": 1264,
    "Ġruthless": 15289,
    "concl": 12875,
    "dra": 3414,
    "Ġrejoined": 14930,
    "driver": 14924,
    "Ġadequately": 15202,
    "rench": 3965,
    "Ġboyhood": 23757,
    "enance": 3369,
    "Ġrevolution": 3303,
    "Ġrally": 21975,
    "Ġdetermined": 2221,
    "Ġsitting": 3605,
    "Ġinfirmity": 26299,
    "Ġcleansed": 26295,
    "Ġdisplays": 19859,
    "unc": 15774,
    "jackets": 24896,
    "Ġbutton": 10270,
    "Ġweighed": 8714,
    "Ġclaim": 5106,
    "furniture": 20245,
    "Ġfugitives": 25635,
    "Ġcorridor": 10674,
    "totally": 25418,
    "Ġbounce": 21396,
    "odecimoes": 25319,
    "Ġstaircase": 20099,
    "dar": 20826,
    "Ġmichael": 20682,
    "idation": 5022,
    "langu": 4807,
    "Ġvirgin": 7328,
    "Ġspeeches": 22661,
    "Ġpaw": 12626,
    "Ġexplain": 545,
    "dogs": 25403,
    "Ġalpine": 18108,
    "Ġinitial": 822,
    "Ġgour": 21601,
    "Ġforcibly": 10064,
    "83": 13684,
    "Ġupd": 946,
    "arse": 7161,
    "Ġbully": 23859,
    "Ġperpendicularly": 11375,
    "Ġvalley": 5852,
    "Ġproceeding": 9909,
    "Ġengrossed": 13001,
    "hood": 2660,
    "tain": 558,
    "Ġfavoring": 2346,
    "Ġcomputations": 16004,
    "Ġassoc": 6403,
    "atoes": 17777,
    "Ġconve": 5455,
    "Ġtrag": 13044,
    "fa": 7336,
    "Ġsimilarity": 3164,
    "Ġexploration": 2338,
    "chet": 13220,
    "coburg": 13601,
    "Ġfoster": 18992,
    "ober": 15410,
    "Ġamount": 8514,
    "Ġkrusenstern": 26379,
    "Ġactions": 6280,
    "Ġfollow": 1398,
    "Ġ73": 24263,
    "Ġadopted": 15182,
    "Ġpeninsula": 23199,
    "Ġ130": 24780,
    "illum": 15874,
    "whosoever": 22244,
    "Ġamours": 22485,
    "perceived": 8862,
    "wing": 2520,
    "entirely": 7782,
    "Ġfortune": 4238,
    "Ġprices": 15617,
    "Ġexploring": 4303,
    "Ġprogressive": 5024,
    "hen": 3516,
    "stre": 5451,
    "Ġinfancy": 10411,
    "arth": 4443,
    "Ġfant": 9176,
    "bitterly": 20340,
    "vely": 3865,
    "icil": 17974,
    "Ġrounding": 16280,
    "conce": 8513,
    "Ġbreathless": 12174,
    "tomahawk": 25916,
    "Ġflapped": 23016,
    "Ġnapkins": 25165,
    "Ġmuchness": 18711,
    "Ġgenerative": 5644,
    "ordered": 8794,
    "Ġslip": 8957,
    "fishermen": 17062,
    "r": 86,
    "Ġtheories": 13852,
    "ch": 321,
    "died": 11481,
    "Ġclose": 3035,
    "Ġforgive": 8010,
    "ets": 1159,
    "Ġtist": 21165,
    "solitary": 14510,
    "relieved": 13278,
    "big": 13689,
    "Ġlurking": 11290,
    "Ġrepugn": 23366,
    "Ġretain": 7863,
    "Ġprevents": 2557,
    "Ġmen": 1435,
    "Ġtobacco": 8367,
    "Ġcarved": 7947,
    "Ġbeauty": 3769,
    "Ġblue": 3454,
    "Ġthirty": 4944,
    "mother": 5480,
    "Ġwaking": 11572,
    "sal": 8761,
    "Ġliterally": 15120,
    "get": 1022,
    "Ġjoyful": 13225,
    "Ġcompasses": 11268,
    "housekeeping": 24102,
    "Ġlvi": 21556,
    "Ġsuicide": 12795,
    "partiality": 13163,
    "Ġdetect": 1208,
    "Ġtarpaulin": 26158,
    "torn": 17684,
    "Ġredden": 15699,
    "Ġshining": 8172,
    "Ġoppressed": 11190,
    "wedged": 24559,
    "pp": 384,
    "Ġvisiting": 10359,
    "incl": 8110,
    "rie": 2789,
    "Ġinches": 5846,
    "reproach": 15190,
    "tiest": 21084,
    "âĢ": 294,
    "Ġwinds": 5746,
    "rison": 13782,
    "iriously": 18174,
    "Ġreach": 4042,
    "oding": 1463,
    "sion": 8094,
    "Ġstraighten": 24007,
    "Ġtall": 4034,
    "Ġbeach": 6543,
    "Ġsplashing": 16552,
    "Ġcompletely": 4860,
    "Ġrandom": 1589,
    "capting": 24042,
    "pervised": 1609,
    "Ġwarring": 16867,
    "Ġplus": 3881,
    "pul": 8757,
    "Ġdeprec": 15763,
    "Ġcough": 11583,
    "Ġfreshets": 25705,
    "Ġferry": 24498,
    "Ġpreviously": 3917,
    "tormented": 13648,
    "wled": 15458,
    "dismal": 23499,
    "visits": 24226,
    "Ġqualities": 7533,
    "Ġmeet": 2806,
    "Ġrippling": 17280,
    "Ġbet": 1136,
    "Ġkindling": 19034,
    "Ġgilt": 21609,
    "Ġnobody": 6160,
    "Ġtemperate": 16167,
    "ength": 2314,
    "Ġfossil": 12391,
    "Ġexpectations": 13146,
    "Ġminimax": 5860,
    "cloudless": 20335,
    "goodbye": 12060,
    "Ġexerted": 15762,
    "Ġsavor": 23878,
    "Ġinherent": 4591,
    "Ġalbino": 20506,
    "german": 11493,
    "Ġtrifles": 16953,
    "Ġtold": 2184,
    "Ġnaval": 16901,
    "Ġtriangular": 14862,
    "herself": 4890,
    "eth": 618,
    "Ġabst": 9269,
    "Ġdevelopments": 23242,
    "Ġparamet": 608,
    "Ġdiffers": 23783,
    "Ġgunwale": 7325,
    "Ġstructured": 2971,
    "tstone": 21087,
    "Ġwrithing": 11950,
    "Ġdrawled": 23992,
    "death": 6263,
    "gence": 877,
    "thanked": 24327,
    "Ġagonizing": 17241,
    "ware": 3933,
    "Ġcrescentic": 20624,
    "Ġscroll": 14194,
    "century": 20050,
    "Ġnervous": 2406,
    "Ġearth": 2851,
    "Ġassailed": 23181,
    "Ġclay": 7021,
    "Ġgone": 2108,
    "Ġimpulse": 10027,
    "Ġfacil": 16964,
    "Ġsagaciously": 24730,
    "antarctic": 22103,
    "everybody": 8614,
    "atters": 18514,
    "Ġwhilst": 9221,
    "Ġmacro": 25940,
    "hatchway": 25905,
    "elling": 5831,
    "Ġcaus": 1724,
    "Ġsolutions": 1948,
    "Ġtossed": 5816,
    "ashing": 4825,
    "Ġimpatient": 5603,
    "darcy": 5208,
    "Ġflushed": 13031,
    "after": 2897,
    "Ġrepentance": 15164,
    "Ġwasting": 12734,
    "gradu": 18618,
    "Ġcolds": 23760,
    "Ġtrifle": 10604,
    "hamlet": 23265,
    "Ġcupidity": 24535,
    "Ġgash": 15676,
    "going": 6315,
    "neighb": 16028,
    "loom": 18536,
    "zing": 7820,
    "Ġwelcomed": 9485,
    "Ġimplement": 3234,
    "Ġencirc": 18732,
    "Ġspeedily": 7712,
    "Ġdirectly": 2106,
    "envelope": 17784,
    "ishnoo": 10956,
    "Ġlucerne": 23867,
    "Ġnewcom": 16226,
    "Ġcorpusants": 13681,
    "Ġimport": 1007,
    "Ġsleeve": 20143,
    "cring": 20813,
    "aire": 10683,
    "f": 74,
    "Ġmurky": 19203,
    "Ġche": 1762,
    "Ġob": 860,
    "Ġrecede": 25969,
    "ations": 710,
    "filled": 9597,
    "Ġenslaved": 26315,
    "Ġexpected": 3696,
    "ach": 434,
    "Ġreflect": 6577,
    "Ġaper": 17745,
    "Ġobe": 5801,
    "asting": 12812,
    "Ġstaring": 8829,
    "Ġcoming": 2617,
    "algorithm": 3927,
    "Ġenduring": 16306,
    "iag": 20918,
    "Ġholder": 6726,
    "Ġrare": 7038,
    "abode": 21795,
    "Ġvines": 12755,
    "Ġcommunion": 19009,
    "Ġseveral": 2673,
    "Ġfreckled": 18960,
    "Ġblessed": 6931,
    "Ġapparelled": 20440,
    "Ġrank": 6260,
    ",âĢĿ": 580,
    "Ġderision": 16313,
    "Ġcoopers": 20525,
    "Ġgeorgia": 23889,
    "Ġwelded": 9574,
    "Ġscrutin": 26015,
    "Ġguernsey": 9354,
    "Ġnovels": 15934,
    "Ġoutrages": 18416,
    "engagements": 25855,
    "Ġcaptured": 7245,
    "Ġtoward": 17949,
    "earnestly": 17316,
    "attend": 11102,
    "Ġopenness": 18958,
    "itarian": 21340,
    "Ġbelonged": 6922,
    "india": 22375,
    "Ġrole": 15999,
    "Ġsaturation": 2064,
    "Ġprobably": 4313,
    "utch": 21589,
    "astonishment": 10033,
    "fatal": 17089,
    "granting": 23416,
    "Ġeurope": 8062,
    "hot": 8084,
    "Ġdup": 21430,
    "Ġentra": 18692,
    "Ġintent": 6410,
    "Ġlac": 17967,
    "ulnerable": 18153,
    "Ġopposition": 16523,
    "Ġash": 4833,
    "rubbed": 22184,
    "isition": 11588,
    "Ġtogether": 1880,
    "Ġrefer": 18707,
    "Ġpy": 21454,
    "Ġpredecess": 18518,
    "utes": 5915,
    "Ġbarrel": 23793,
    "Ġawaken": 23588,
    "Ġhavoc": 15818,
    "Ġoccurs": 1857,
    "Ġtawny": 20485,
    "Ġenem": 4708,
    "Ġdrawings": 14725,
    "Ġgallop": 19558,
    "Ġpr": 1599,
    "Ġbuoy": 8004,
    "hunters": 16835,
    "Ġwaves": 3916,
    "spoutings": 25004,
    "Ġmadman": 13154,
    "tent": 21067,
    "delightful": 12201,
    "ferences": 10329,
    "Ġflaming": 8567,
    "unicorn": 21893,
    "Ġsecluded": 11997,
    "opatra": 22481,
    "liament": 16222,
    "maybe": 23994,
    "Ġlawyer": 10671,
    "Ġbreakfast": 3973,
    "Ġdisown": 22528,
    "Ġflood": 7716,
    "arthly": 8030,
    "eral": 9162,
    "Ġshameful": 19854,
    "marvell": 24175,
    "]": 65,
    "Ġdenote": 19335,
    "anything": 5518,
    "Ġfold": 5531,
    "ledge": 1329,
    "aly": 1108,
    "shrugged": 22466,
    "Ġineffable": 17335,
    "Ġyoun": 1410,
    "parsee": 14508,
    "fork": 20859,
    "Ġrede": 13987,
    "26": 10076,
    "Ġpresc": 15930,
    "Ġjan": 11766,
    "relatively": 24017,
    "magnitude": 17251,
    "tps": 11536,
    "Ġaloft": 4301,
    "every": 2812,
    "Ġclasping": 20212,
    "Ġinsulted": 14995,
    "antically": 22100,
    "Ġhebrew": 13991,
    "Ġparacels": 13671,
    "Ġrhine": 12360,
    "Ġnich": 21523,
    "wling": 11546,
    "present": 1139,
    "Ġundoubted": 19517,
    "Ġgeor": 3385,
    "Ġindicate": 23724,
    "ª": 108,
    "remembrance": 25703,
    "brave": 19826,
    "Ġpushing": 10821,
    "Ġoverpowered": 15292,
    "mured": 6960,
    "ten": 1555,
    "apes": 9744,
    "Ġbanished": 10619,
    "Ġimminent": 11246,
    "Ġevol": 2816,
    "Ġwhipcord": 20098,
    "Ġflower": 16236,
    "cour": 4479,
    "Ġevil": 3805,
    "alluring": 18353,
    "oga": 22698,
    "gyric": 19111,
    "Ġproving": 15757,
    "Ġdefici": 22946,
    "lar": 4483,
    "Ġdelicate": 6481,
    "ifford": 15789,
    "Ġlizard": 12660,
    "Ġelevates": 24503,
    "throw": 14101,
    "knot": 13748,
    "Ġarch": 959,
    "Ġwhereby": 11841,
    "Ġfounded": 8561,
    "ody": 1479,
    "announced": 19762,
    "hercules": 22208,
    ",âĢĶâĢľ": 10073,
    "pate": 21012,
    "somewhere": 12017,
    "Ġapprehens": 5682,
    "Ġattics": 22630,
    "Ġstomach": 11656,
    "Ġgothic": 18002,
    "Ġwillingness": 24911,
    "wise": 2575,
    "yra": 8103,
    "Ġpreced": 6041,
    "Ġliving": 3060,
    "Ġshun": 11713,
    "Ġeasiness": 23540,
    "Ġfrequ": 3326,
    "Ġrumors": 11322,
    "Ġinit": 818,
    "pleas": 3851,
    "Ġhval": 21491,
    "Ġblotted": 20220,
    "Ġ16": 7927,
    "eneva": 5118,
    "Ġshel": 6847,
    "those": 4495,
    "Ġbewitching": 25977,
    "Ġprophes": 16353,
    "matic": 4619,
    "Ġincluding": 2852,
    "Ġlengths": 19207,
    "ĠâĢĶ_": 3458,
    "Ġchests": 19674,
    "Ġexult": 10233,
    "understand": 1071,
    "sounding": 24795,
    "Ġharshly": 25250,
    "Ġbachel": 7159,
    "alth": 3255,
    "dinah": 20084,
    "being": 3911,
    "ize": 773,
    "Ġfeelings": 2454,
    "Ġshy": 10904,
    "Ġvesu": 21951,
    "Ġcocoanuts": 26364,
    "Ġforgiveness": 16659,
    "Ġminim": 1324,
    "Ġilluminate": 17195,
    "Ġhelmeted": 19691,
    "Ġalas": 5923,
    "Ġsublime": 8066,
    "Ġforgot": 4684,
    "ella": 12758,
    "Ġunsupplied": 22045,
    "occup": 7753,
    "memory": 13620,
    "Ġakin": 15499,
    "Ġcabinet": 23864,
    "Í": 142,
    "Ġgenius": 8046,
    "Ġvexed": 9997,
    "Ġtreading": 16507,
    "Ġfinny": 23131,
    "Ġfunction": 586,
    "broker": 13307,
    "Ġrashly": 20308,
    "discharging": 26306,
    "summer": 11998,
    "Ġfelony": 18954,
    "Ġrehearsed": 25972,
    "header": 11937,
    "Ġdropping": 7483,
    "Ġdictated": 25219,
    "Ġblindly": 12114,
    "Ġslew": 23386,
    "Ġslips": 23170,
    "reeable": 3612,
    "rippa": 11342,
    "Ġmanager": 11773,
    "eries": 6809,
    "Ġhaz": 12761,
    "Ġgazed": 6479,
    "Ġdormouse": 4926,
    "Ġalphabetical": 17204,
    "Ġconfeder": 25708,
    "Ġunprejudiced": 18270,
    "eled": 2360,
    "magnifying": 25393,
    "Ġstraining": 11328,
    "Ġprofile": 16491,
    "Ġtars": 21167,
    "chiefly": 14849,
    "Ġunmannerly": 26519,
    "ies": 582,
    "Ġshilling": 18229,
    "Ġbespe": 19244,
    "windward": 24162,
    "anke": 15566,
    "ends": 6040,
    "Ġcomfortless": 23916,
    "ently": 1616,
    "venge": 4659,
    "exceeded": 25002,
    "Ġpredicting": 2417,
    "makes": 10713,
    "roylott": 20030,
    "anite": 17839,
    "derbyshire": 18321,
    "Ġtug": 11552,
    "decan": 22145,
    "Ġresounds": 22546,
    "isher": 2878,
    "Ġes": 8773,
    "fine": 10093,
    "Ġisland": 4044,
    "scales": 22999,
    "leful": 17844,
    "Ġdissolved": 18555,
    "Ġflip": 11917,
    "Ġmalay": 24391,
    "Ġcow": 13879,
    "Ġdeed": 7868,
    "Ġpropagating": 20636,
    ".;": 20746,
    "Ġbanking": 19633,
    "amaz": 21848,
    "Ġexasperated": 11413,
    "scand": 18857,
    "Ġwithdrew": 9699,
    "Ġwallowed": 24045,
    "fiery": 13584,
    "dawson": 26129,
    "Ġstrands": 25575,
    "Ġordin": 16653,
    "Ġuneasiness": 9487,
    "Ġsurmised": 24920,
    "doc": 23379,
    "Ġsuffusing": 23034,
    "fs": 17537,
    "Ġsecondly": 14520,
    "olerable": 7183,
    "offensive": 16403,
    "!--": 10680,
    "Ġsocial": 7008,
    "ri": 389,
    "tom": 15439,
    "Ġinflexibly": 26372,
    "Ġinsignific": 13183,
    "marching": 25753,
    "Ġtouching": 4681,
    "Ġconjugal": 25104,
    "Ġworkman": 16267,
    "Ġinterp": 16074,
    "Ġwrites": 23201,
    "Ġmingling": 20200,
    "Ġdiscover": 4718,
    "Ġbehind": 2809,
    "vital": 17702,
    "metic": 14987,
    "Ġstun": 11653,
    "grammar": 6436,
    "iv": 429,
    "Ġsteed": 13045,
    "Ġoccupies": 24011,
    "expression": 10550,
    "Ġfemin": 13439,
    "inu": 1120,
    "Ġhandles": 22700,
    "Ġpenetrated": 13475,
    "fight": 17540,
    "girdling": 26391,
    "nep": 20988,
    "Ġventil": 8019,
    "Ġaccess": 9750,
    "ah": 1833,
    "before": 3112,
    "Ġbreak": 2869,
    "vener": 21114,
    "dying": 15344,
    "Ġslappin": 18945,
    "baned": 17498,
    "Ġsec": 2077,
    "comput": 1962,
    "Ġunfathomable": 20551,
    "mention": 7215,
    "cordiality": 25140,
    "scr": 16248,
    "Ġgrievous": 13263,
    "asmuch": 10197,
    "okened": 15989,
    "Ġ118": 19701,
    "Ġzeros": 3323,
    "Ġconsuming": 22792,
    "Ġhyper": 19742,
    "Ġvindictiveness": 25739,
    "friend": 3861,
    "Ġspect": 3551,
    "Ġsplend": 9900,
    "Ġunimaginable": 15250,
    "account": 5330,
    "Ġspout": 3281,
    "Ġedinburgh": 16459,
    "Ġinstantaneous": 14614,
    "ban": 9587,
    "univers": 15777,
    "Ġwardrobe": 17228,
    "rest": 1633,
    "nable": 13765,
    "Ġimpatiently": 8338,
    "astic": 1869,
    "Ġsupre": 10273,
    "directly": 13712,
    "Ġignorantly": 19498,
    "regulated": 23469,
    "Ġexactly": 2770,
    "Ġepisode": 26349,
    "elder": 21575,
    "Ġexe": 3991,
    "Ġbennet": 1575,
    "Ġeconomy": 17203,
    "Ġdisinclined": 22533,
    "Ġmiserable": 3635,
    "Ġalchemists": 26489,
    "ww": 10739,
    "ush": 3633,
    "inion": 2876,
    "heavens": 19748,
    "Ġsprung": 11249,
    "Ġthrown": 4640,
    "ent": 305,
    "Ġagreeing": 20022,
    "Ġantichron": 24184,
    "Ġhappen": 5571,
    "fulness": 4309,
    "historical": 20469,
    "Ġpriest": 7526,
    "Ġpuzzle": 11306,
    "Ġregulate": 22591,
    "fen": 20852,
    "oring": 1862,
    "Ġtortured": 14927,
    "pha": 22763,
    "Ġthankful": 14741,
    "Ġweaving": 12746,
    "street": 6496,
    "atch": 673,
    "infallibly": 26419,
    "Ġdecks": 6900,
    "Ġhunting": 7259,
    "destroy": 19513,
    "cork": 20798,
    "away": 4626,
    "ribly": 8255,
    "scans": 22994,
    "shoals": 24716,
    "Ġpull": 5152,
    "Ġscrewed": 15124,
    "Ġrenders": 13286,
    "endeavour": 17032,
    "ellation": 12759,
    "Ġsenor": 20153,
    "Ġsufferable": 16262,
    "Ġconstructed": 9390,
    "Ġlashes": 17969,
    "lizzy": 6654,
    "pervading": 18966,
    "Ġpremises": 10490,
    "worthy": 7733,
    "Ġcurls": 22976,
    "owe": 15714,
    "Ġlustrous": 20159,
    "Ġworsh": 13004,
    "belled": 24039,
    "Ġlanyard": 26463,
    "ifying": 5235,
    "Ġarchy": 14352,
    "Ġweal": 21924,
    "Ġvigilance": 12375,
    "Ġnumber": 1982,
    "Ġ39": 19493,
    "Ġincreasing": 8247,
    "forever": 22521,
    "Ġallen": 5160,
    "Ġpersuaded": 5769,
    "Ġ115": 24439,
    "Ġreser": 5170,
    "oting": 2745,
    "Ġidentity": 2525,
    "Ġindelible": 25695,
    "Ġlazarus": 15031,
    "Ġbreaking": 6312,
    "Ġremoval": 12122,
    "Ġmentioning": 9901,
    "Ġamounted": 18511,
    "generally": 9438,
    "Ġsembl": 19063,
    "Ġhandsome": 4906,
    "Ġwine": 6811,
    "isp": 5528,
    "Ġodds": 13333,
    "fere": 10990,
    "_âĢĶ": 11468,
    "describe": 1514,
    "ulous": 4450,
    "Ġfanned": 19101,
    "Ġconcluded": 5658,
    "Ġneskye": 21534,
    "Ġforeman": 23448,
    "Ġwon": 1664,
    "Ġvanishing": 1344,
    "volous": 18596,
    "wag": 21126,
    "rmsprop": 4522,
    "Ġladen": 19179,
    "Ġpeddler": 26181,
    "Ġgaz": 4039,
    "arat": 9183,
    "Ġcategor": 4137,
    "Ġuntouched": 16469,
    "furthest": 19844,
    "surf": 24215,
    "Ġpun": 4587,
    "outside": 12810,
    "Ġcelebrated": 13597,
    "Ġmultitudinous": 26275,
    "Ġforeb": 12008,
    "Ġmasks": 23331,
    "killing": 20944,
    "Ġcemeteries": 26377,
    "transferred": 24514,
    "contact": 23729,
    "Ġrambling": 18645,
    "Ġsgd": 3128,
    "Ġadmiration": 5329,
    "Ġgiants": 25961,
    "turned": 7306,
    "É": 138,
    "Ġcanopy": 18323,
    "tiness": 21074,
    "ogn": 2524,
    "j": 78,
    "Ġsatisfied": 4170,
    "likes": 18816,
    "Ġsupposition": 9820,
    "ov": 15404,
    "Ġsands": 14951,
    "Ġflourished": 15129,
    "Ġlawn": 7379,
    "insufficient": 15493,
    "entreat": 17978,
    "appears": 12064,
    "erc": 5906,
    "Ġfootsteps": 16574,
    "Ġliter": 8816,
    "nowledge": 10292,
    "Ġkindliness": 23298,
    "esu": 17903,
    "Ġwiping": 25766,
    "Ġrestrictions": 20638,
    "Ġspeedy": 11173,
    "Ġresemblance": 7968,
    "amidst": 25653,
    "rosings": 15649,
    "Ġdisc": 943,
    "est": 502,
    "Ġaffecting": 2326,
    "Ġmutineer": 19421,
    "Ġjonas": 20612,
    "Ġfearless": 9878,
    "Ġpirate": 14998,
    "Ġwaiter": 16367,
    "Ġconject": 6028,
    "Ġfranc": 16356,
    "Ġrendering": 16660,
    "Ġfoundations": 11075,
    "Ġcocoan": 20319,
    "Ġconnect": 798,
    "Ġbending": 12591,
    "Ġdens": 21427,
    "foolish": 12351,
    "unforeseen": 21892,
    "onted": 11569,
    "develop": 13520,
    "Ġsobbed": 14137,
    "Ġmicrosc": 20679,
    "Ġbelonging": 8308,
    "paper": 9139,
    "Ġone": 568,
    "algorithms": 8295,
    "Ġsums": 2903,
    "Ġevian": 24294,
    "ander": 6402,
    "sixteen": 24854,
    "Ġcrush": 9425,
    "Ġchiswick": 25561,
    "Ġundeserving": 18269,
    "Ġavenues": 25430,
    "Ġark": 10279,
    "Ġrags": 18646,
    "mitting": 20975,
    "bedstead": 23935,
    "Ġaccurate": 13312,
    "Ġpatagonian": 20535,
    "Ġperempt": 13677,
    "Ġgasping": 17039,
    "housekeeper": 24101,
    "Ġsequence": 1977,
    "Ġvan": 1090,
    "cating": 20804,
    "bug": 17495,
    "Ġcoiling": 12911,
    "Ġhumble": 8554,
    "Ġpitches": 23905,
    "Ġlory": 12658,
    "wat": 6233,
    "Ġprefers": 20517,
    "Ġnigh": 4878,
    "inted": 2649,
    "Ġdecanting": 22447,
    "eldest": 22806,
    "Ġsympathetic": 17362,
    "dil": 11479,
    "Ġrespect": 1667,
    "Ġwrapping": 19778,
    "entieth": 17981,
    "elephant": 12355,
    "Ġintrospective": 20603,
    "firm": 10700,
    "Ġdeaf": 12727,
    "Ġhundreds": 4327,
    "Ġquarter": 3974,
    "waters": 11334,
    "Ġrearing": 12683,
    "oblivious": 26584,
    "Ġetc": 7086,
    "Ġfocuses": 8653,
    "vii": 13151,
    "vineyard": 25422,
    "quarrel": 20018,
    "Ġhoarse": 14528,
    "bishop": 13698,
    "Ġbackgammon": 22666,
    "Ġpanel": 13375,
    "christ": 10213,
    "Ġpitchpoling": 14914,
    "Ġlucifers": 16590,
    "Ġintense": 6159,
    "800": 17479,
    "Ġacquaint": 13049,
    "Ġpump": 12627,
    "Ġturtles": 19222,
    "joined": 13277,
    "Ġalms": 21784,
    "teenth": 11878,
    "Ġconfines": 23309,
    "Ġproduce": 4365,
    "Ġpop": 5151,
    "while": 2935,
    "Ġnearing": 15801,
    "Ġinstability": 3812,
    "orte": 14187,
    "Ġbl": 1190,
    "endom": 15925,
    "Ġardently": 9501,
    "luding": 6702,
    "_": 67,
    "narrow": 11509,
    "ouched": 4637,
    "Ġbulge": 23860,
    "temper": 10007,
    "Ġwholly": 4447,
    "Ġnightgown": 23136,
    "Ġscheduling": 2351,
    "Ġballs": 9018,
    "pitch": 13301,
    "Ġconception": 10316,
    "Ġyore": 21782,
    "Ġstile": 21736,
    "Ġsequ": 982,
    "Ġoverboard": 6046,
    "histicated": 20903,
    "Ġstranded": 9778,
    "explanations": 25235,
    "Ġserviceable": 24717,
    "Ġhanover": 20589,
    "seam": 10875,
    "Ġvindict": 13608,
    "varying": 13807,
    "Ġincompetent": 25680,
    "Ġevinced": 7102,
    "Ġlean": 7606,
    "heaving": 21210,
    "Ġchil": 11755,
    "Ġreproachfully": 25252,
    "Ġarticulate": 24432,
    "Ġredeem": 20503,
    "Ġpallor": 13518,
    "chron": 21697,
    "ance": 478,
    "Ġlearns": 2643,
    "Ġhierarchical": 1927,
    "Ġbrushed": 15576,
    "dimens": 2318,
    "Ġcolumn": 9331,
    "terrific": 25043,
    "cares": 24311,
    "Ġlessened": 19089,
    "Ġform": 1024,
    "Ġsc": 530,
    "Ġimperial": 9484,
    "Ġfigured": 16646,
    "Ġ104": 24412,
    "Ġflowery": 16237,
    "elastic": 17983,
    "Ġmitt": 21310,
    "cl": 1493,
    "Ġagitation": 6865,
    "Ġasiatic": 20433,
    "bolts": 11421,
    "Ġblacks": 23391,
    "Ġfunctions": 1339,
    "figured": 20126,
    "sullenly": 26150,
    "Ġoarsmen": 7738,
    "owers": 12691,
    "prejud": 11798,
    "meth": 11504,
    "Ġsurrounded": 5880,
    "Ġsangu": 15508,
    "Ġalt": 18101,
    "ourney": 3552,
    "pad": 13771,
    "Ġimaginary": 11187,
    "Ġstructural": 2800,
    "Ġunwearied": 20605,
    "Ġabject": 18392,
    "aboard": 21798,
    "tried": 13797,
    "Ġlines": 4534,
    "Ġintensified": 17020,
    "Ġpomp": 12628,
    "Ġdumbly": 24988,
    "Ġencodings": 4775,
    "Ġsober": 10912,
    "Ġseas": 3074,
    "Ġdiscuss": 9477,
    "Ġamph": 18509,
    "Ġcomparable": 24281,
    "Ġpeaceful": 9458,
    "Ġduc": 4697,
    "etimes": 1988,
    "Ġmalignant": 14881,
    "Ġbouquet": 20686,
    "Ġvict": 3760,
    "ick": 836,
    "Ġhumaneval": 25583,
    "Ġspinal": 12306,
    "Ġha": 400,
    "Ġdescrying": 18617,
    "Ġhere": 1091,
    "Ġdeck": 2138,
    "Ġlucy": 17972,
    "themselves": 6542,
    "Ġweaken": 21926,
    "her": 488,
    "Ġcity": 4530,
    "Ġinjunction": 19620,
    "phon": 4124,
    "Ġcoer": 22582,
    "asserted": 22313,
    "Ġcrying": 10788,
    "Ġmechanical": 7937,
    "means": 9789,
    "asse": 15650,
    "abilities": 3236,
    "Ġassurances": 10003,
    "Ġfisherman": 12080,
    "loo": 10322,
    "division": 20052,
    "Ġgrope": 17997,
    "Ġturban": 23615,
    "ogany": 18672,
    "down": 3468,
    "Ġsails": 5257,
    "Ġpag": 6012,
    "Ġshakes": 10905,
    "Ġleads": 12101,
    "omuch": 21643,
    "Ġserpents": 13080,
    "right": 2771,
    "sur": 4523,
    "belongs": 25597,
    "Ġapologizing": 25198,
    "Ġupdate": 2464,
    "apping": 5853,
    "gris": 8260,
    "Ġinconsiderable": 21498,
    "Ġhis": 380,
    "Ġ33": 16678,
    "Ġspecimen": 13027,
    "vering": 15721,
    "Ġallies": 18235,
    "Ġpaling": 21465,
    "shame": 16030,
    "Ġmocking": 24006,
    "Ġorb": 22095,
    "Ġafford": 4364,
    "Ġwaste": 9237,
    "Ġtax": 13819,
    "Ġclamped": 18427,
    "âĢĻ": 378,
    "Ġjug": 12841,
    "Ġwheel": 9721,
    "Ġstains": 21745,
    "Ġfond": 4755,
    "Ġwarmest": 16487,
    "Ġmajestic": 8643,
    "Ġfears": 5729,
    "Ġinscriptions": 20012,
    "presents": 18799,
    "Ġindisp": 18836,
    "Ġsuch": 793,
    "slipping": 25529,
    "Ġunnearable": 26518,
    "Ġconfusion": 7273,
    "Ġcompose": 12908,
    "expected": 5780,
    "Ġcringing": 25942,
    "Ġoun": 13866,
    "Ġmagazine": 23105,
    "Ġtarpaul": 17732,
    "insupportable": 21196,
    "Ġmethods": 3157,
    "Ġboot": 11843,
    "fill": 15354,
    "Ġmonth": 2850,
    "Ġrepeated": 3831,
    "national": 21000,
    "Ġdisenc": 22530,
    "Ġembod": 14414,
    "hend": 13255,
    "Ġexhilar": 19686,
    "Ġlain": 17964,
    "Ġvehic": 8936,
    "beheld": 11805,
    "shazz": 14245,
    "winds": 10524,
    "lessness": 5318,
    "Ġhercules": 14130,
    "Ġlived": 3987,
    "Ġbreathlessly": 24283,
    "Ġvaliant": 9803,
    "Ġbottles": 16572,
    "Ġcultiv": 13559,
    "Ġgenerally": 4156,
    "Ġmelbourne": 24291,
    "anybody": 12087,
    "Ġbran": 5252,
    "Ġruefully": 17304,
    "Ġminutely": 14563,
    "Ġconstitutes": 13555,
    "Ġuniverse": 14127,
    "erman": 5108,
    "narrowly": 20350,
    "Ġug": 8141,
    "Ġremark": 2144,
    "Ġleech": 24157,
    "Ġplowdon": 26449,
    "Ġjerked": 19835,
    "Ġfixedly": 19250,
    "that": 849,
    "Ġphrase": 11188,
    "Ġinequalities": 26455,
    "Ġsavages": 9915,
    "Ġhatter": 4109,
    "ying": 1367,
    "Ġcrime": 4617,
    "Ġdisk": 22526,
    "Ġcorp": 5575,
    "Ġredu": 1352,
    "Ġfanny": 23394,
    "ittarius": 22381,
    "Ġalfred": 21790,
    "Ġcontrol": 13083,
    "ence": 393,
    "Ġgrating": 14358,
    "friends": 8306,
    "uge": 4013,
    "Ġexhale": 24402,
    "kins": 7345,
    "Ġnind": 17952,
    "Ġlifelessly": 23053,
    "itories": 15554,
    "erve": 12554,
    "Ġhydraul": 9517,
    "Ġobstetrics": 24679,
    "must": 3577,
    "Ġglacier": 11434,
    "Ġpitiable": 9917,
    "Ġcreating": 2995,
    "Ġcomplying": 18585,
    "conduct": 11801,
    "pistol": 17644,
    "Ġstartling": 14673,
    "Ġproblem": 1271,
    "united": 14063,
    "Ġcompared": 2229,
    "english": 2776,
    "Ġann": 4489,
    "atiously": 15526,
    "Ġevening": 2652,
    "Ġbab": 5291,
    "Ġceiling": 7997,
    "Ġdepth": 2438,
    "Ġspitzbergen": 15291,
    "gorge": 22336,
    "ugl": 23292,
    "Ġsmelling": 16071,
    "Ġ7": 4745,
    "Ġalarming": 14784,
    "Ġroom": 1464,
    "inside": 23069,
    "Ġtough": 13818,
    "Ġbecome": 3155,
    "Ġinsects": 25647,
    "Ġeff": 688,
    "endeav": 7151,
    "Ġhal": 1361,
    "Ġpresence": 5031,
    "Ġdilig": 8350,
    "Ġabrupt": 9739,
    "Ġfrocks": 23926,
    "Ġuncommon": 5026,
    "Ġtime": 689,
    "Ġluggage": 25958,
    "Ġdried": 7367,
    "Ġremaining": 6190,
    "Ġda": 5150,
    "Ġtruce": 24116,
    "kempt": 20943,
    "fearing": 18531,
    "Ġwhatever": 3473,
    "Ġnarwhale": 12297,
    "gardiner": 12295,
    "Ġchord": 22249,
    "Ġinboard": 17935,
    "irection": 2389,
    "Ġviolently": 6457,
    "hurt": 19880,
    "Ġdonkey": 23226,
    "Ġbluff": 16520,
    "Ġimmediate": 6090,
    "âĢĻ-": 18169,
    "certainly": 5340,
    "athans": 7433,
    "Ġbunch": 11327,
    "avor": 14279,
    "Ġuninhabited": 22053,
    "Ġvisible": 4777,
    "Ġbranches": 6777,
    "Ġthorough": 6247,
    "Ġcontrived": 10306,
    "Ġbohemian": 17136,
    "Ġod": 4439,
    "vously": 23506,
    "Ġbarrens": 25502,
    "carpenter": 11428,
    "Ġinflicted": 11366,
    "Ġoffer": 4844,
    "seek": 8841,
    "ittle": 812,
    "Ġknowingly": 18481,
    "Ġdownstairs": 11225,
    "examine": 25478,
    "alization": 732,
    "aud": 8524,
    "Ġwondering": 7972,
    "plings": 11699,
    "Ġguido": 2976,
    "Ġhazarded": 25655,
    "Ġannounced": 9037,
    "Ġobsole": 22703,
    "Ġremain": 1875,
    "Ġplain": 2818,
    "part": 2574,
    "Ġconcentration": 25065,
    "Ġparamount": 15883,
    "range": 3493,
    "Ġsafety": 6341,
    "Ġbolivia": 24668,
    "ek": 1907,
    "handled": 19263,
    "Ġdataset": 12826,
    "Ġphys": 5653,
    "Ġclean": 5652,
    "onents": 8781,
    "Ġcircling": 19094,
    "swells": 26149,
    "Ġwor": 1189,
    "Ġhereby": 10361,
    "Ġplaid": 22606,
    "Ġdaint": 15598,
    "Ġgrind": 18735,
    "Ġplainpal": 19279,
    "sided": 17666,
    "Ġmarred": 23035,
    "Ġmarriage": 3188,
    "Ġ30": 10514,
    "chased": 18044,
    "Ġjustification": 22973,
    "wreat": 21130,
    "Ġdreamed": 16632,
    "Ġgrenadier": 21619,
    "virt": 15455,
    "prison": 14665,
    "Ġarrangements": 16518,
    "imely": 14001,
    "Ġeconomically": 25289,
    "Ġemble": 13974,
    "Ġbour": 4876,
    "rally": 17653,
    "Ġopening": 5045,
    "Ġinput": 609,
    "boxes": 16890,
    "Ġstupidity": 15052,
    "Ġextinguish": 14345,
    "bearers": 18525,
    "Ġconcentrated": 15087,
    "ubl": 3594,
    "Ġsage": 17754,
    "Ġexperiments": 23023,
    "anelles": 26436,
    "Ġfrightful": 7736,
    "Ġbloodless": 19341,
    "ĠĠĠĠĠĠĠĠĠĠĠĠĠĠĠĠĠ": 22952,
    "Ġendangered": 16307,
    "noise": 14329,
    "Ġflashing": 13032,
    "Ġtracks": 18892,
    "van": 7814,
    "renew": 24450,
    "Ġnormalizing": 1822,
    "permission": 15906,
    "ez": 5683,
    "Ġdisordered": 16059,
    "Ġtrust": 4075,
    "Ġpawn": 12067,
    "world": 5058,
    "eds": 6531,
    "inement": 11559,
    "atically": 2824,
    "omed": 13978,
    "staring": 18023,
    "improve": 15717,
    "Ġwent": 1535,
    "Ġlaughter": 9030,
    "Ġuniformly": 19149,
    "Ġhorse": 4725,
    "eration": 10774,
    "binary": 20786,
    "Ġsyllables": 25299,
    "Ġsuperhuman": 23454,
    "Ġfate": 4754,
    "l": 80,
    "irious": 15791,
    "Ġflies": 13029,
    "cro": 13700,
    "Ġtemptation": 8681,
    "emberley": 4169,
    "Ġcentrally": 23835,
    "Ġhob": 12635,
    "Ġlogs": 16351,
    "Ġforlorn": 14018,
    "ĠĠĠĠĠĠĠĠĠĠĠĠĠĠĠĠĠĠĠĠĠĠĠĠĠĠĠĠĠĠĠĠĠĠĠĠ": 23665,
    "ino": 15483,
    "Ġinflu": 4909,
    "Ġtour": 9150,
    "Ġalders": 21788,
    "immedi": 8452,
    "commodore": 20628,
    "antediluvian": 24346,
    "Ġaw": 2511,
    "Ġhogarth": 25781,
    "Ġunkindness": 22044,
    "Ġweighing": 20019,
    "irons": 10241,
    "endeavouring": 15018,
    "Ġwhole": 1661,
    "wheels": 14384,
    "Ġdante": 21441,
    "Ġcrad": 21352,
    "Ġacquit": 18899,
    "drawers": 19389,
    "Ġfeels": 6882,
    "Ġdissimilar": 22535,
    "Ġcrushing": 20179,
    "Ġconse": 21808,
    "animate": 12583,
    "Ġintercepted": 25828,
    "Ġguilty": 7250,
    "Ġdiscipl": 22785,
    "Ġunfaltering": 24112,
    "Ġhymn": 24518,
    "garet": 9600,
    "skinned": 25388,
    "whilst": 18372,
    "grey": 14915,
    "haustible": 16893,
    "igns": 8449,
    "Ġconsoling": 19460,
    "Ġcul": 17824,
    "Ġbremen": 23348,
    "Ġmoderation": 12824,
    "Ġded": 2602,
    "Ġlandlord": 5581,
    "Ġreflection": 6441,
    "Ġperfidious": 25667,
    "Ġmanor": 14199,
    "Ġdilated": 24703,
    "msprop": 2625,
    "famous": 16918,
    "entitled": 21571,
    "turning": 8317,
    "ic": 304,
    "Ġaband": 6563,
    "somehow": 12016,
    "Ġtarred": 23611,
    "Ġresumed": 11816,
    "Ġtriumphant": 12194,
    "Ġimpossible": 3542,
    "perth": 22185,
    "Ġforbear": 17124,
    "elled": 3989,
    "Ġaffirm": 11891,
    "Ġknown": 1643,
    "Ġsociet": 9452,
    "mechanical": 25579,
    "ĠâĢĶâĢĶ": 25758,
    "D": 40,
    "Ġpaintings": 15058,
    "Ġcav": 13883,
    "Ġpressing": 9264,
    "Ġthinnest": 24186,
    "Ġexplaining": 15965,
    "ura": 1047,
    "Ġvales": 21948,
    "Ġdirector": 18922,
    "Ġburying": 19254,
    "Ġendeared": 26500,
    "Ġneedle": 8275,
    "Ġcataract": 23430,
    "omb": 10208,
    "uned": 21875,
    "Ġhead": 1126,
    "Ġclair": 6271,
    "committed": 18738,
    "quohog": 21856,
    "Ġevenings": 18755,
    "Ġblushed": 13006,
    "Ġpasses": 2679,
    "Ġvanish": 8931,
    "seven": 8466,
    "Ġspring": 4118,
    "Ġserm": 9636,
    "Ġtransform": 747,
    "Ġgripping": 26188,
    "Ġremnants": 22793,
    "sou": 12510,
    ",_": 11463,
    "iza": 6257,
    "Ġacquiesce": 20332,
    "Ġawakened": 10455,
    "Ġdevice": 1929,
    "----âĢĿ": 13309,
    "Ġremind": 6059,
    "Ġmidships": 23635,
    "Ġexpense": 7652,
    "Ġfasting": 16363,
    "sense": 11525,
    "placed": 7878,
    "Ġfright": 3796,
    "Ġharbor": 10030,
    "Ġnuptial": 25783,
    "accents": 19213,
    "Ġsorry": 4208,
    "gon": 17554,
    "Ġoverjoy": 15977,
    "rises": 17657,
    "departed": 24793,
    "gunw": 17223,
    "esty": 4304,
    "slide": 24556,
    "Ġfrozen": 9016,
    "discovery": 12021,
    "Ġoffering": 3007,
    "Ġcomparison": 7101,
    "hog": 8380,
    "Ġhapp": 1092,
    "Ġbrowne": 13304,
    "Ġcamel": 25350,
    "Ġkeep": 2358,
    "otic": 15750,
    "Ġsickening": 19607,
    "Ġlung": 7168,
    "utarch": 15667,
    "Ġstudy": 1805,
    "Ġformations": 18750,
    "Ġtet": 21160,
    "Ġmoved": 4840,
    "seas": 14036,
    "Ġvishnoo": 12757,
    "tell": 1380,
    "judge": 13340,
    "Ġdiana": 21439,
    "Ġsurmis": 23465,
    "Ġsed": 10763,
    "Ġpoem": 22592,
    "Ġtradesmen": 17106,
    "cask": 12451,
    "stone": 5089,
    "á": 162,
    "Ġinterpreted": 1710,
    "erness": 6435,
    "Ġnervousness": 23559,
    "Ġfurther": 1054,
    "Ġquantization": 19856,
    "claims": 25320,
    "archbishop": 22878,
    "Ġnur": 5710,
    "corn": 13703,
    "ince": 4338,
    "Ġun": 422,
    "tales": 17688,
    "gates": 20874,
    "Ġconscience": 6929,
    "Ġsimply": 7218,
    "nephew": 26399,
    "inferences": 17741,
    "Ġrascally": 26509,
    "exclaimed": 11794,
    "Ġfurthermore": 1168,
    "Ġwomen": 4750,
    "appro": 7046,
    "Ġpanting": 11605,
    "Ġfir": 17879,
    "enjoyment": 17260,
    "X": 60,
    "system": 3619,
    "Ġbene": 2035,
    "abulary": 4800,
    "Ġgoble": 14233,
    "tables": 19760,
    "Ġpacifics": 24373,
    "ended": 1834,
    "ian": 1237,
    "quis": 7870,
    "Ġwatchful": 16529,
    "Ġneck": 4885,
    "Ġharvard": 24574,
    "prise": 7727,
    "valu": 1726,
    "Ġhearers": 15708,
    "Ġrecom": 4555,
    "bel": 3835,
    "catherine": 7129,
    "ogr": 18670,
    "pyramid": 21032,
    "Ġoccas": 2703,
    "Ġsporty": 19892,
    "ĭ": 238,
    "Ġforebodings": 17307,
    "fe": 678,
    "han": 12477,
    "combination": 25487,
    "Ġbasis": 16963,
    "Ġstern": 4220,
    "Ġflows": 13014,
    "iven": 1236,
    "gl": 3288,
    "Ġshoot": 11162,
    "Ġpicturesqueness": 24480,
    "Ġnaut": 13944,
    "nigh": 13766,
    "Ġrage": 5110,
    "Ġteasing": 11895,
    "inate": 6235,
    "Ġindication": 22955,
    "Ġstove": 6735,
    "Ġarchitectures": 2910,
    "Ġfists": 15588,
    "flow": 2190,
    "Ġtradeoff": 2659,
    "Ġrelate": 6875,
    "Ġfoiled": 23247,
    "comprehens": 16175,
    "Ġstrasburgh": 18616,
    "square": 15062,
    "hoist": 23715,
    "Ġidleness": 11145,
    "Ġshutter": 16673,
    "Ġbuffaloes": 25218,
    "kindness": 10508,
    "Ġkings": 7197,
    "Ġflit": 23011,
    "existence": 16019,
    "ppo": 18178,
    "never": 3149,
    "rabbit": 20594,
    "Ġfrequent": 3285,
    "macy": 18804,
    "Ġmajor": 13294,
    "reading": 12084,
    "springs": 24912,
    "Ġger": 21594,
    "Ġnevertheless": 5040,
    "wouldn": 23539,
    "ret": 1476,
    "Ġregiment": 6433,
    "Ġunfrequent": 24109,
    "damn": 20027,
    "Ġfix": 2508,
    "things": 6034,
    "Ġchap": 5935,
    "Ġcolonies": 14379,
    "Ġevils": 9023,
    "Ġclustered": 25234,
    "Ġcoroner": 7510,
    "pike": 11516,
    "alarms": 21508,
    "Ġspecial": 2104,
    "Ġpaint": 7708,
    "round": 3366,
    "Ġmove": 5107,
    "Ġnothing": 1359,
    "Ġseal": 10259,
    "Ġrolled": 4430,
    "Ġsoothe": 7405,
    "Ġjingling": 26018,
    "verty": 8454,
    "ocity": 8278,
    "village": 25423,
    "rel": 3753,
    "59": 17476,
    "Ġpersist": 16277,
    "Ġmaria": 7126,
    "Ġstricken": 9779,
    "Ġclock": 9536,
    "renewed": 19707,
    "Ġmornings": 16244,
    "ant": 438,
    "Ġmystical": 12137,
    "tured": 13798,
    "Ġtestament": 23234,
    "Ġworaciousness": 22932,
    "Ġsixty": 7723,
    "Ġprouder": 18973,
    "Ġpeg": 22692,
    "Ġinvent": 7165,
    "paus": 13776,
    "rawling": 21639,
    "Ġrumbling": 18214,
    "Ġany": 687,
    "Ġhoofs": 14529,
    "Ġdetermines": 2369,
    "ounced": 4954,
    "ill": 447,
    "Ġsaucer": 20608,
    "dimly": 15350,
    "feed": 9296,
    "atory": 6127,
    "Ġ1": 1015,
    "Ġlod": 4038,
    "Ġtearless": 24785,
    "converse": 22477,
    "Ġconsumm": 15158,
    "mpt": 6656,
    "meryton": 10114,
    "Ġmaster": 3681,
    "Ġrefreshing": 20267,
    "ouncement": 11749,
    "Ġsympath": 4861,
    "Ġreveal": 11201,
    "Ġfather": 1450,
    "Ġcus": 21346,
    "Ġseasonable": 24406,
    "Ġexcessively": 9443,
    "Ġanomaly": 25637,
    "ada": 14014,
    "Ġrepro": 7275,
    "Ġcomfort": 3439,
    "Ġvaliantly": 22802,
    "Ġnational": 13945,
    "Ġnois": 4265,
    "ak": 538,
    "Ġ1828": 25720,
    "Ġaug": 6236,
    "rogress": 21539,
    "several": 5544,
    "Ġdeposited": 25485,
    "vulgar": 25919,
    "Ġsnuffing": 25015,
    "atiable": 17776,
    "Ġcombined": 8551,
    "alog": 8809,
    "Ġjobs": 24833,
    "Ġunchanged": 22033,
    "!âĢĻâĢĿ": 16594,
    "shattered": 22465,
    "Ġbob": 22640,
    "drive": 8686,
    "Ġpunctil": 20117,
    "Ġdiscernment": 15072,
    "Ġdetermine": 3244,
    "Ġcrystal": 17217,
    "Ġplanisp": 24060,
    "itying": 21998,
    "money": 8753,
    "Ġsteadily": 8052,
    "Ġundaunted": 24120,
    "Ġlegs": 4916,
    "Ġpompous": 20426,
    "Ġprofited": 19193,
    "Ġhorrify": 23822,
    "impul": 16558,
    "kes": 3678,
    "iant": 5427,
    "Ġsummoned": 9914,
    "beware": 16044,
    "nose": 17612,
    "Ġheh": 21683,
    "fins": 13722,
    "lead": 10168,
    "lovel": 22513,
    "nt": 921,
    "Ġrelics": 16200,
    "Ġshrivelled": 19706,
    "Ġsubtle": 6718,
    "Ġlatterly": 24084,
    "Ġgest": 8134,
    "Ġpath": 2115,
    "impud": 23762,
    "Ġsto": 1499,
    "Ġnonsensical": 21532,
    "Ġthirt": 13942,
    "ominy": 13981,
    "Ġbeat": 4491,
    "shoulders": 16587,
    "Ġfeeble": 12288,
    "Ġminimize": 7052,
    "Ġfrenchman": 11284,
    "Ġschoolmasters": 19723,
    "brown": 15321,
    "brothers": 17026,
    "herald": 22209,
    "Ġmisery": 3813,
    "Ġsubsisted": 19119,
    "Ġvex": 5950,
    "itted": 2441,
    "produce": 20285,
    "Ġmiraculous": 13550,
    "Ġglaring": 11913,
    "Ġchip": 12831,
    "purpose": 10047,
    "idelburgh": 10564,
    "Ġstrung": 22622,
    "Ġassurance": 7775,
    "ched": 1543,
    "Ġdidst": 11853,
    "Ġsadder": 24054,
    "Ġpersonality": 16480,
    "Ġwherein": 14299,
    "Ġgroans": 14827,
    "Ġwhel": 15871,
    "Ġseethe": 21967,
    "Ġtestified": 16339,
    "henomenon": 13617,
    "board": 3564,
    "Ġold": 1055,
    "Ġgoose": 5939,
    "Ġforce": 5092,
    "lucky": 24545,
    "I": 45,
    "Ġbordeaux": 24565,
    "Ġfighting": 12202,
    "gling": 10100,
    "Ġembalmed": 13659,
    "Ġbalances": 2342,
    "cadence": 26126,
    "J": 46,
    "relig": 15516,
    "Ġyoungster": 23183,
    "Ġcope": 17832,
    "against": 5872,
    "disp": 7977,
    "Ġflavor": 16257,
    "Ġbitter": 4171,
    "§": 105,
    "dipped": 20839,
    "Ġdays": 2079,
    "Ġperdition": 15997,
    "Ġperiodically": 19497,
    "Ġmarvell": 7248,
    "Ġdisturbance": 15015,
    "daring": 20831,
    "jep": 20928,
    "ivance": 22079,
    "Ġboscombe": 8326,
    "Ġconcerned": 5332,
    "c": 71,
    "Ġtypically": 1534,
    "Ġmonsieur": 12424,
    "commendation": 26351,
    "Ġhumbled": 16201,
    "Ġmarking": 16472,
    "Ġlin": 10835,
    "Ġgentleman": 3039,
    "Ġwolfish": 25936,
    "Ġmagg": 18907,
    "father": 3776,
    "Ġmid": 2615,
    "Ġsoot": 14132,
    "Ġtelescope": 17351,
    "cannib": 11907,
    "problem": 25245,
    "Ġhollowly": 24526,
    "telescope": 26564,
    "Ġlothario": 26186,
    "Ġrefine": 3299,
    "Ġinattention": 17934,
    "vac": 15454,
    "fering": 17544,
    "Ġgodfre": 14531,
    "Ġself": 1778,
    "Ġmadden": 10449,
    "Ġeffusion": 22524,
    "Ġprophesied": 26063,
    "Ġclearly": 6897,
    "Ġcharts": 12833,
    "jump": 10106,
    "Ġattended": 5391,
    "Ġwharves": 13508,
    "Ġtransp": 4770,
    "Ġtransl": 2832,
    "Ġpequod": 2324,
    "x": 92,
    "erland": 9643,
    "Ġheadsman": 13276,
    "af": 2377,
    "Ġextravag": 11254,
    "Ġparent": 14647,
    "observed": 7675,
    "Ġlabyrin": 13108,
    "certain": 3676,
    "Ġphantoms": 13489,
    "Ġscrawled": 24581,
    "Ġcollege": 11425,
    "Ġrespectable": 6738,
    "Ġvolcano": 24149,
    "fate": 17541,
    "Ġglim": 9347,
    "ernal": 4311,
    "lemagne": 26438,
    "Ġunexplored": 26520,
    "Ġgrizzled": 11451,
    "Ġoffers": 12950,
    "ppered": 15796,
    "Ġtattooings": 24901,
    "Ġwore": 6378,
    "Ġ2026": 12339,
    "toller": 20675,
    "familiar": 19786,
    "ĩ": 234,
    "enes": 5218,
    "Ġexposed": 8525,
    "Ġignited": 25072,
    "Ġsun": 1719,
    "Ġtooth": 9195,
    "Ġsubdued": 11031,
    "Ġsuffice": 18872,
    "Ġclinched": 17397,
    "Ġsubsequently": 16165,
    "Ġslily": 23168,
    "Ġdinnertime": 16721,
    "Ġimpro": 910,
    "Ġfrequented": 16588,
    "Ġproceed": 3242,
    "ption": 7398,
    "Ġriveted": 13621,
    "Ġcruel": 5121,
    "Ġplata": 25120,
    "Ġcounteracted": 19864,
    "Ġoverladen": 22370,
    "cre": 4248,
    "Ġwow": 15533,
    "acific": 4960,
    "Ġaddresses": 3768,
    "cceed": 4140,
    "Ġabroad": 8869,
    "Ġwel": 4527,
    "Ġinhab": 5083,
    "for": 962,
    "effect": 8607,
    "Ġraven": 16120,
    "chel": 11208,
    "Ġuneasily": 24233,
    "answer": 11736,
    "Ġshop": 9255,
    "Ġxxxiv": 24970,
    "Ġcraggy": 23533,
    "nel": 11506,
    "cely": 3574,
    "Ġconduct": 3733,
    "Ġintegral": 25011,
    "Ġxi": 16433,
    "Ġbudge": 15168,
    "Ġrivals": 20274,
    "ruding": 9727,
    "prec": 3201,
    "help": 1478,
    "Ġblankness": 24611,
    "reason": 4414,
    "Ġmoulded": 16977,
    "Ġapproached": 5844,
    "Ġimpertin": 6933,
    "etus": 21581,
    "Ġhowl": 12861,
    "Ġdesponding": 25869,
    "Ġmonstr": 7668,
    "Ġdeference": 10882,
    "Ġnamely": 20692,
    "Ġhaven": 8476,
    "Ġinser": 6820,
    "Ġmallet": 17812,
    "Ġupright": 8496,
    "kinson": 10029,
    "pread": 7418,
    "Ġscorch": 20070,
    "Ġuncles": 23433,
    "Ġmortals": 9919,
    "velling": 14765,
    "grave": 16099,
    "teen": 6371,
    "transform": 8050,
    "Ġfinds": 6301,
    "cheon": 23806,
    "instinctively": 26329,
    "features": 14819,
    "carried": 16713,
    "persuade": 13535,
    "exerc": 16020,
    "irene": 15918,
    "Ġscandalous": 24880,
    "excitement": 19672,
    "Ġtunnel": 14933,
    "Ġalso": 1342,
    "Ġtrotting": 19979,
    "Ġoxford": 11372,
    "Ġsemantics": 2895,
    "Ġrouse": 15827,
    "Ġopine": 19229,
    "suit": 18633,
    "Ġthrusting": 10555,
    "Ġinnocently": 24031,
    "Ġmockery": 12112,
    "Ġrug": 16162,
    "Ġquee": 1981,
    "Ġcontrolled": 23253,
    "guess": 14764,
    "Ġprincess": 23223,
    "Ġjoist": 19234,
    "Ġant": 4344,
    "Ġbenevolence": 9530,
    "Ġobsolete": 26560,
    "Ġtoilet": 13940,
    "Ġliberal": 12195,
    "Ġbeh": 1801,
    "Ġhistorical": 3646,
    "_).": 5888,
    "owing": 7602,
    "Ġsubterranean": 13614,
    "bit": 3930,
    "precipitance": 25868,
    "Ġwindows": 4971,
    "Ġcour": 1768,
    "unexpected": 15783,
    "Ġwithstand": 10228,
    "Ġkneel": 14809,
    "Ġlexicon": 25975,
    "Ġcomprehensive": 15091,
    "Ġgardeners": 12125,
    "resistible": 10646,
    "Ġdrooping": 9423,
    "Ġdeactivates": 20706,
    "Ġruled": 22786,
    "Ġsinew": 25432,
    "Ġpiercing": 13496,
    "arranted": 19322,
    "Ġimitated": 18330,
    "Ġprimary": 25063,
    "Ġattempt": 3485,
    "avier": 2833,
    "fic": 20854,
    "ous": 477,
    "Ġcatherine": 2814,
    "Ġstrateg": 1391,
    "cabinet": 25080,
    "Ġtyph": 10011,
    "Ġmorals": 22982,
    "Ġroanoke": 22408,
    "Ġchamber": 6215,
    "Ġarrive": 6907,
    "Ġrebellion": 26477,
    "expense": 22435,
    "Ġunfl": 22022,
    "atious": 10154,
    "Ġultimately": 17167,
    "Ý": 158,
    "Ġsallied": 12542,
    "Ġautonom": 10418,
    "Ġepidemic": 20698,
    "Ġcandle": 8292,
    "orses": 6053,
    "joice": 9605,
    "Ġbas": 6381,
    "Ġharpooned": 13264,
    "Ġgeneralize": 3099,
    "happ": 3102,
    "Ġparticle": 18674,
    "Ġchink": 15937,
    "Ġrevisit": 21673,
    "Ġalternate": 19989,
    "Ġtandem": 26413,
    "Ġwhispering": 14948,
    "Ġdiscovery": 5412,
    "zen": 5140,
    "Ġray": 18643,
    "stuff": 15693,
    "mansion": 20985,
    "Ġoutlines": 15962,
    "reas": 988,
    "jointed": 24013,
    "idirection": 2413,
    "Ġchivalry": 25820,
    "imson": 12695,
    "Ġmermaid": 17815,
    "Ġwhimsical": 20431,
    "night": 2168,
    "Ġquivers": 22417,
    "Ġensure": 23690,
    "inisc": 15492,
    "Ġpower": 1356,
    "Ġlistened": 4469,
    "Ġcontortions": 18477,
    "dance": 17521,
    "Ġstanding": 2997,
    "Ġtowards": 1729,
    "Ġindignation": 8347,
    "Ġconsult": 6058,
    "Ġreaching": 7303,
    "Ġsafie": 6620,
    "Ġtrance": 12845,
    "chor": 6148,
    "Ġemerged": 8688,
    "flitted": 23972,
    "ilib": 4114,
    "far": 5787,
    "Ġmeditative": 25017,
    "Ġcrystals": 20230,
    "Ġvariants": 1792,
    "violently": 23546,
    "Ġsocieties": 20185,
    "Ġconjure": 17126,
    "asleep": 21547,
    "ull": 1432,
    "Ġshocks": 16460,
    "ĸ": 249,
    "Ġpromising": 10402,
    "running": 6798,
    "Ġconceited": 12096,
    "studies": 25170,
    "Ġapex": 24342,
    "Ġbath": 9661,
    "console": 22475,
    "Ġagencies": 18539,
    "inities": 21188,
    "rippling": 24712,
    "Ġlanguages": 1568,
    "Ġholy": 6593,
    "Ġexclamations": 11362,
    "barbaric": 26360,
    "iter": 4391,
    "Ġinner": 9673,
    "apart": 15966,
    "Ġfedallah": 6110,
    "Ġde": 364,
    "ids": 21767,
    "Ġexpon": 969,
    "inuating": 16207,
    "taken": 7560,
    "Ġting": 8399,
    "Ġinc": 702,
    "par": 1790,
    "Ġpatch": 4180,
    "Ġsally": 15506,
    "Ġbeards": 21755,
    "Ġbeaches": 18087,
    "clean": 14763,
    "cool": 19189,
    "uzzle": 19586,
    "Ġtr": 553,
    "Ġgrowl": 16540,
    "ped": 6964,
    "smote": 23913,
    "Ġscare": 18397,
    "Ġtiara": 26417,
    "cing": 1013,
    "phants": 9322,
    "Ġdress": 4017,
    "Ġendured": 6074,
    "Ġbiases": 2398,
    "Ġmonarch": 14419,
    "Ġperpet": 7645,
    "regard": 7974,
    "achines": 1722,
    "gentleman": 7518,
    "hem": 6666,
    "examination": 25479,
    "crated": 16685,
    "Į": 239,
    "Ġ5": 4935,
    "Ġemerging": 24613,
    "property": 20003,
    "exhibited": 18479,
    "Ġtormented": 8678,
    "Ġparallel": 1416,
    "ĠĠĠĠĠĠĠĠĠĠĠĠĠĠĠĠĠĠĠĠĠĠĠĠĠĠĠĠĠĠĠĠĠĠĠĠĠĠĠĠĠĠĠĠĠĠ": 9956,
    "piteous": 21036,
    "Ġimpressive": 15001,
    "Ġmagistrate": 8234,
    "attracted": 13055,
    "ishment": 3504,
    "Ġpresentation": 14483,
    "Ġappare": 12825,
    "Ġeloquent": 16116,
    "Ġhieroglyph": 11975,
    "ipl": 20920,
    "stem": 571,
    "Ġhammers": 13244,
    "bushes": 24447,
    "Ġcler": 11774,
    "Ġflamingo": 15104,
    "Ġdiligent": 25078,
    "Ġsparkling": 11357,
    "Ġconsp": 10227,
    "repeated": 12343,
    "Ġbower": 15572,
    "oise": 15408,
    "Ġowed": 10782,
    "Ġlunacy": 20031,
    "industrious": 26241,
    "mixed": 17607,
    "Ġbalancing": 2431,
    "zed": 8104,
    "Ġrandomly": 1921,
    "since": 5896,
    "Ġreleased": 2977,
    "Ġmultiplication": 2872,
    "nne": 20991,
    "Ġexord": 21832,
    "ifted": 4494,
    "Ġforms": 6398,
    "Ġcommonest": 23093,
    "utility": 21590,
    "Ġoverthrow": 18433,
    "omitted": 18019,
    "Ġjen": 9270,
    "qu": 368,
    "Ġvector": 1973,
    "Ġdevoutly": 25834,
    "era": 13850,
    "Ġdecent": 10979,
    "Ġacceptance": 14830,
    "uture": 1070,
    "Ġexaggerate": 25650,
    "mushroom": 26397,
    "insult": 16284,
    "Ġpian": 13920,
    "Ġdenny": 9004,
    "Ġmarvels": 11085,
    "ediction": 17947,
    "Ġextracts": 9368,
    "page": 13774,
    "Ġlewis": 15730,
    "Ġfishe": 15591,
    "kington": 11204,
    "itude": 1419,
    "cred": 9111,
    "Ġstriking": 6089,
    "Ġwaited": 4908,
    "Ġancest": 12620,
    "clifford": 23160,
    "Ġflag": 7242,
    "Ġwonderfully": 10432,
    "Ġaims": 15500,
    "Ġbeen": 627,
    "Ġprecaution": 11198,
    "assin": 22309,
    "Ġmetal": 9387,
    "inguish": 9400,
    "Ġeverything": 3152,
    "pick": 17636,
    "Ġpiny": 21473,
    "Ġuns": 15841,
    "asing": 5913,
    "Ġcubic": 20091,
    "Ġbore": 5079,
    "Ġjutting": 22305,
    "Ġhusband": 3621,
    "Ġbru": 13898,
    "Ġspinning": 15055,
    "arr": 3043,
    "Ġdifferen": 936,
    "Ġnavigation": 9996,
    "Ġrespected": 11956,
    "Ġtiar": 21170,
    "Ġled": 3521,
    "Ġanaly": 1135,
    "Ġbelshazzar": 16229,
    "Ġwearisome": 19798,
    "Ġindicates": 3194,
    "Ġwaving": 8579,
    "Ġcaval": 25770,
    "lord": 3863,
    "Ġocc": 889,
    "Ġtraverse": 18893,
    "Ġprinces": 23222,
    "Ġclim": 8196,
    "quiet": 6156,
    "Ġsome": 655,
    "pond": 21015,
    "Ü": 157,
    "Ġtepid": 26414,
    "Ĝ": 221,
    "anim": 6523,
    "Ġmortifying": 13248,
    "Ġcrav": 19175,
    "Ġperseus": 10606,
    "Ġgentleness": 8713,
    "Ġcastle": 14720,
    "Ġgums": 21614,
    "Ġbrighter": 16192,
    "Ġshrieking": 24757,
    "Ġunclad": 22056,
    "Ġslu": 13839,
    "esteem": 26009,
    "nihil": 9853,
    "Ġstabilizing": 3657,
    "lled": 10110,
    "Ġalex": 15137,
    "Ġtho": 21517,
    "Ġcra": 2334,
    "Ġchooses": 13350,
    "Ġcomposed": 8895,
    "Ġla": 5914,
    "Ġformation": 2943,
    "Ġstudded": 18978,
    "scor": 13024,
    "Ġentries": 22742,
    "Ġdecay": 1011,
    "Ġchambermaid": 24306,
    "Ġpovels": 22595,
    "Ġclubbed": 26549,
    "angular": 11727,
    "Ġe": 312,
    "Ġeul": 21623,
    "Ġgrown": 5628,
    "Ġnicely": 8712,
    "Ġprofund": 13156,
    "Ġthy": 2514,
    "Ġfavours": 23284,
    "Ġcoil": 11822,
    "Ġvillanous": 24057,
    "consolation": 15156,
    "Ġmister": 22757,
    "Ġrafters": 22659,
    "Ġtints": 17729,
    "Ġshaping": 22007,
    "ouder": 17902,
    "Ġunconsciously": 10008,
    "Ġparchment": 13655,
    "othic": 16220,
    "Ġexpost": 18623,
    "Ġgiddy": 20500,
    "Ġwilful": 10537,
    "lanterns": 17432,
    "Ġdistinguish": 2726,
    "grinder": 23417,
    "Ġbankers": 24304,
    "Ġcure": 21343,
    "Ġsnows": 14729,
    "Ġdromedary": 17442,
    "Ġstingy": 25456,
    "Ġcanaan": 22171,
    "Ġearnestly": 5980,
    "Ġkno": 5242,
    "Ġuse": 827,
    "embarrassed": 20667,
    "medical": 23346,
    "Ġintensity": 10019,
    "reach": 17759,
    "]]": 5205,
    "spouter": 22733,
    "Ġclothing": 18425,
    "Ġcurious": 3358,
    "seldom": 13790,
    "solitude": 23300,
    "Ġbounds": 9921,
    "agues": 8161,
    "Ġstripping": 23698,
    "Ġrephr": 21682,
    "Ġoverwhelmed": 11404,
    "steering": 16638,
    "Ġfleets": 23776,
    "Ġsheet": 6264,
    "inquire": 16934,
    "Ġenrolled": 21941,
    "oons": 12503,
    "Ġlatter": 3986,
    "Ġsprain": 18306,
    "Ġcord": 5222,
    "Ġsplin": 8622,
    "Ġreduced": 11928,
    "unts": 12737,
    "Ġcollection": 8223,
    "Ġmummy": 25769,
    "ĠĠĠ": 2116,
    "Ġstory": 2902,
    "insula": 23070,
    "Ġreeds": 15701,
    "Ġunravel": 26216,
    "Ġannihilated": 20255,
    "Ġclams": 19992,
    "Ġcontemptuously": 19836,
    "Ġcolony": 18769,
    "phenomenon": 17650,
    "Ġfarthing": 14457,
    "Ġswings": 11088,
    "Ġrefill": 18708,
    "Ġglobu": 23275,
    "sensibility": 25026,
    "Ġstandpoint": 23281,
    "nest": 10116,
    "Ġfinanc": 23132,
    "pole": 9336,
    "invisible": 17742,
    "Ġexamined": 6336,
    "Ġocean": 3302,
    "epilogue": 22107,
    "Ġghostly": 24651,
    "Ġpuffs": 14979,
    "Ġimbu": 15896,
    "Ġaccomplish": 14879,
    "itory": 12572,
    "origin": 7582,
    "landlord": 9843,
    "Ġcomfortable": 6096,
    "Ġadmeasure": 18294,
    "Ġtransmit": 10307,
    "dropout": 3196,
    "Ġpaltry": 16693,
    "Ġtidy": 17094,
    "Ġunjustifiable": 25112,
    "Ġconfed": 13102,
    "ancient": 9658,
    "Ġ54": 24318,
    "Ġreasoned": 23063,
    "ries": 3351,
    "Ġincommunicable": 26613,
    "Ġbumping": 25281,
    "Ġappearances": 10453,
    "Ġloafer": 18300,
    "Ġdistended": 16048,
    "errand": 22913,
    "Ġenchantment": 24870,
    "Ġpalaces": 24093,
    "Ġlegal": 10441,
    "Ġjump": 4503,
    "Ġeight": 3899,
    "Ġpouring": 12630,
    "Ġbackwater": 18651,
    "Ġsoaked": 15866,
    "approb": 11043,
    "Ġcandid": 4096,
    "Ġuncork": 23432,
    "Ġpapered": 20134,
    "Ġconsiderable": 4003,
    "crossed": 16635,
    "Ġinjustice": 9193,
    "mme": 22503,
    "Ġacc": 573,
    "Ġimperfectly": 25727,
    "Ġgrazed": 15838,
    "Ġcau": 13884,
    "Ġslam": 13062,
    "tort": 17677,
    "Ġcommod": 10336,
    "supervised": 1928,
    "Ġsteeply": 23725,
    "occasion": 7754,
    "last": 3802,
    "Ġrh": 9247,
    "xt": 2082,
    "elab": 21573,
    "Ġmonitors": 3154,
    "Ġhowled": 12862,
    "Ġchowder": 10283,
    "itch": 10163,
    "windibank": 24163,
    "Ġbuck": 7158,
    "direction": 17526,
    "Ġsupervised": 3426,
    "ven": 778,
    "Ġbegat": 18864,
    "ried": 926,
    "Ġgradual": 20604,
    "Ġlodges": 19503,
    "Ġpointed": 4773,
    "Ġidentify": 12018,
    "lake": 13752,
    "Ġtimor": 24227,
    "ouses": 5163,
    "Ġzero": 1200,
    "children": 9058,
    "Ġplace": 1653,
    "urmount": 13998,
    "ichron": 22167,
    "amid": 12730,
    "Ġradiant": 16811,
    "Ġvesuvius": 26503,
    "musket": 25342,
    "Ġdangling": 17177,
    "iving": 1725,
    "Ġcircles": 7967,
    "ze": 1321,
    "Ġmediterranean": 12319,
    "Ġwhereas": 3854,
    "desc": 1396,
    "Ġagonized": 25373,
    "Ġunbelief": 22051,
    "pped": 2000,
    "swallow": 24260,
    "Ġsuperflu": 14555,
    "Ġseven": 4542,
    "Ġfling": 9663,
    "Ġtwitching": 25684,
    "Ġflash": 8230,
    "Ġclever": 7056,
    "Ġhey": 11644,
    "mn": 3576,
    "ordingly": 18519,
    "stolen": 13985,
    "Ġcertain": 1556,
    "Ġcloudless": 16671,
    "Ġunfailing": 24111,
    "Ġbefitting": 15731,
    "Ġlens": 8439,
    "Ġunderneath": 16342,
    "cess": 541,
    "fishery": 10035,
    "Ġerad": 25031,
    "Ġodorous": 19569,
    "Ġrevived": 11369,
    "Ġchristian": 6480,
    "Ġardu": 22193,
    "fearfully": 25119,
    "Ġmain": 810,
    "Ġfavoured": 16368,
    "braces": 24659,
    "Ġsuffocated": 20730,
    "Ġcounterpane": 11344,
    "iters": 21332,
    "Ġnearest": 8472,
    "Ġcongregated": 20100,
    "Ġgoverning": 2797,
    "hearing": 8404,
    "Ġbr": 1073,
    "Ġdegradation": 2631,
    "probability": 17024,
    "Ġsolve": 4195,
    "Ġbarbara": 24815,
    "Ġungod": 22026,
    "Ġmich": 21308,
    "jure": 20926,
    "Ġxlvi": 25591,
    "sleep": 6512,
    "Ġdecaying": 2248,
    "concern": 6101,
    "maritime": 24176,
    "Ġcomprehensiveness": 25075,
    "cold": 9592,
    "Ġcrests": 25686,
    "monster": 8596,
    "ured": 1654,
    "north": 14618,
    "Ġlatent": 19658,
    "Ġresisted": 22545,
    "ports": 13777,
    "Ġafore": 10760,
    "profess": 10637,
    "Ġprovide": 7750,
    "Ġequinox": 25857,
    "Ġfacet": 15590,
    "ect": 381,
    "ittingly": 18808,
    "myself": 5113,
    "Ġgentlemanlike": 12071,
    "Ġgrace": 5374,
    "Ġinterrupt": 4358,
    "clock": 3931,
    "Ġstair": 8457,
    "Ġbow": 3058,
    "Ġthread": 14541,
    "ust": 493,
    "Ġcontro": 1686,
    "ell": 399,
    "Ġga": 4446,
    "Ġbites": 23744,
    "Ġhaving": 1882,
    "Ġpersuasions": 16634,
    "coat": 5407,
    "proceeding": 20144,
    "utterly": 20015,
    "Ġadvanced": 1483,
    "[_": 5131,
    "Ġawoke": 7286,
    "Ġdiabolism": 25515,
    "ably": 1848,
    "Ġinquire": 7720,
    "Ġjewell": 19523,
    "Ġteach": 8556,
    "obstructed": 15230,
    "Ġunite": 9257,
    "Ġencapsulate": 13678,
    "Ġgem": 21597,
    "Ġmargin": 11925,
    "se": 358,
    "!âĢĿ": 846,
    "69": 17477,
    "circumstances": 8047,
    "alions": 21504,
    "yder": 10141,
    "speaking": 12103,
    "Ġnurtured": 19752,
    "ion": 296,
    "Ġinstrument": 7120,
    "lest": 5290,
    "Ġjohn": 5032,
    "Ġcrushed": 9426,
    "Ġbroker": 23107,
    "Ġsubsets": 2347,
    "Ġfain": 5809,
    "Ġrace": 5848,
    "confined": 24328,
    "Ġethere": 23954,
    "Ġcleanse": 24527,
    "Ġoccurrences": 11051,
    "ira": 3956,
    "threat": 10901,
    "Ġfresher": 23210,
    "gained": 20883,
    "Ġnearer": 5303,
    "Ġadvances": 12992,
    "Ġreverie": 13460,
    "Ġice": 3604,
    "Ġensue": 18191,
    "Ġgrowth": 14631,
    "Ġunc": 2125,
    "ilet": 12835,
    "rr": 17652,
    "Ġaloysius": 15743,
    "Ġcarriage": 3948,
    "creator": 26383,
    "Ã¦": 4336,
    "classes": 12140,
    "Ġcontinuously": 23208,
    "Ġcircumst": 2974,
    "Ġinduced": 8674,
    "dz": 4739,
    "Ġentities": 11867,
    "humoured": 11238,
    "ab": 345,
    "Ġsubfield": 11873,
    "Ġrefrained": 14348,
    "hotel": 20053,
    "uling": 2257,
    "open": 7027,
    "Ġturned": 2133,
    "Ġloft": 5642,
    "convenient": 12242,
    "Ġhovers": 19080,
    "Ġappertaining": 26535,
    "Ġapproximate": 2344,
    "Ġexquisitely": 20205,
    "Ġsuck": 15867,
    "Ġletting": 10365,
    "Ġcolle": 8928,
    "bus": 5355,
    "Ġneglect": 7942,
    "spot": 9793,
    "carriage": 9949,
    "Ġbarmaid": 19337,
    "Ġghast": 9212,
    "Ġsob": 12790,
    "iety": 2819,
    "Ġtok": 1246,
    "heredit": 21212,
    "humiliation": 24024,
    "squ": 7809,
    "Ġreluct": 14375,
    "in": 262,
    "Ġautoregressive": 3433,
    "distrustful": 26332,
    "Ġdestination": 19151,
    "olic": 14044,
    "¸": 121,
    "Ġassented": 17341,
    "ase": 1158,
    "slightest": 25417,
    "Ġfaster": 3197,
    "tone": 8766,
    "derest": 18315,
    "Ġarchly": 22796,
    "ho": 2859,
    "Ġmorocc": 22984,
    "Ġsnail": 19301,
    "Ġhomage": 12359,
    "Ġtimes": 2303,
    "bol": 8721,
    "Ġsqualidness": 25844,
    "Ġdetest": 8503,
    "useness": 22296,
    "Ġ119": 24441,
    "Ġdetested": 14177,
    "requent": 3650,
    "Ġear": 1424,
    "Ġbus": 1904,
    "Ġbreakers": 12059,
    "Ġinvolves": 1109,
    "Ġseating": 18202,
    "noticed": 14341,
    "Ġdie": 3960,
    "Ġillustrations": 17109,
    "Ġterrific": 6756,
    "Ġsuffers": 2972,
    "Ġdreaming": 11224,
    "arent": 4247,
    "Ġbankrupt": 16798,
    "igate": 8827,
    "Ġworld": 1597,
    "Ġwanderings": 20146,
    "quality": 10235,
    "Ġpreser": 6042,
    "ê": 171,
    "Ġbulb": 23858,
    "Ġaccused": 8510,
    "Ġrecognised": 8998,
    "Ġrooms": 5180,
    "Ġacquies": 11098,
    "Ġdemand": 4947,
    "handle": 11191,
    "Ġovertook": 18430,
    "Ġmass": 3780,
    "requ": 7149,
    "Ġ156": 20173,
    "Ġsimpler": 2050,
    "Ġbland": 11065,
    "Ġpair": 5706,
    "Ġswaths": 23061,
    "limp": 20954,
    "Ġfails": 13317,
    "reshold": 21242,
    "earnest": 12403,
    "Ġdisabled": 18562,
    "Ġsultanism": 25889,
    "Ġbaked": 21389,
    "Ġtig": 13816,
    "Ġsample": 3177,
    "tar": 8098,
    "mechan": 11861,
    "Ġathirst": 20601,
    "Ġnour": 10832,
    "iel": 11495,
    "apple": 22845,
    "yt": 17713,
    "Ġowing": 6006,
    "avings": 12027,
    "Ġcalm": 3447,
    "Ġstrain": 6025,
    "Ġushered": 18358,
    "Ġfrightened": 5342,
    "bbings": 19278,
    "Ġembra": 6580,
    "Ġblaze": 16224,
    "Ġdesired": 4665,
    "Ġwhites": 21720,
    "Ġnightmare": 18921,
    "Ġlate": 3375,
    "ore": 418,
    "benefact": 24642,
    "orously": 8420,
    "Ġstamped": 13529,
    "Ġyojo": 7611,
    "Ġfad": 17878,
    "Ġperfection": 19220,
    "Ġrmsprop": 3352,
    "Ġrepetition": 8975,
    "Ġsailor": 3535,
    "Ġoblique": 20172,
    "Ġapr": 12537,
    "warn": 11544,
    "Ġpsalmody": 20588,
    "Ġmaelstrom": 19359,
    "force": 12965,
    "sho": 6426,
    "way": 765,
    "Ġdab": 15593,
    "Ġaerial": 21201,
    "ting": 1333,
    "Ġancient": 5443,
    "observing": 25495,
    "Ġbreed": 19075,
    "Ġreply": 4514,
    "raising": 21635,
    "Ġtram": 11093,
    "Ġlies": 5297,
    "Ġbeautiful": 3672,
    "Ġsooner": 5573,
    "Ġscotland": 6642,
    "Ġbehavior": 8002,
    "Ġmuscle": 14691,
    "accomp": 10457,
    "umns": 14150,
    "Ġbritain": 16958,
    "smallest": 23915,
    "footed": 19692,
    "Ġlingu": 11616,
    "been": 3342,
    "Ġaccidentally": 9508,
    "oul": 4699,
    "security": 26208,
    "Ġhistor": 3388,
    "oubled": 23647,
    "sentence": 2939,
    "murder": 10567,
    "Ġdiscipline": 26563,
    "northern": 23666,
    "Ġmould": 6520,
    "Ġluc": 3309,
    "Ġhedge": 8364,
    "Ġpossessions": 23828,
    "tacit": 21101,
    "Ġquote": 18467,
    "Ġblanche": 18821,
    "Ġstagger": 10594,
    "Ġembellish": 25849,
    "Ġsobbing": 14136,
    "onse": 21252,
    "Ġpass": 1039,
    "Ġbit": 2963,
    "off": 1888,
    "Ġbrute": 8930,
    "Ġestim": 3346,
    "Ġjava": 12316,
    "Ġtraitors": 23081,
    "Ġdeceased": 15008,
    "Ġunspeakable": 10059,
    "deformity": 22150,
    "Ġsuccor": 25663,
    "Ġabuse": 18393,
    "ribut": 815,
    "Ġingratitude": 17471,
    "Ġjamming": 17267,
    "Ġmicroscopic": 26375,
    "Ġsluggish": 25891,
    "ructive": 18541,
    "Ġswore": 10381,
    "fin": 5209,
    "port": 10721,
    "Ġattribute": 16105,
    "ti": 8390,
    "Ġpet": 4586,
    "acc": 2534,
    "securer": 25603,
    "Ġpatent": 11962,
    "Ġchilly": 25563,
    "ounded": 9751,
    "lipped": 16221,
    "Ġarrogance": 26233,
    "uend": 21104,
    "ggling": 19098,
    "mor": 4213,
    "Ġpract": 1809,
    "explained": 23148,
    "Ġchill": 11756,
    "Ġspermaceti": 8970,
    "ahab": 4287,
    "Ġpoles": 11004,
    "Ġfearfulness": 23514,
    "courageous": 26128,
    "Ġfrig": 13084,
    "Ġyourselves": 9031,
    "occasional": 19579,
    "intments": 18822,
    "Ġinclemency": 22559,
    "Ġtunnels": 24621,
    "Ġgallantry": 15107,
    "Ġfluttered": 16254,
    "timidity": 25754,
    "Ġalteration": 9549,
    "obviously": 25243,
    "ula": 2828,
    "Ġtopsails": 19195,
    "Ġwheeling": 18289,
    "Ġdefined": 11902,
    "Ġag": 682,
    "Ġdawn": 6817,
    "Ġgrampus": 21997,
    "Ġaspects": 4172,
    "encouragement": 17426,
    "sun": 7141,
    "Ġunh": 9256,
    "Ġboone": 11844,
    "tastes": 21099,
    "Ġgravely": 7883,
    "iteness": 4392,
    "fully": 2201,
    "warrant": 21140,
    "Ġbaby": 6639,
    "Ġlast": 1125,
    "Ġtumble": 16881,
    "shaken": 16031,
    "Ġvine": 8474,
    "onstrate": 17770,
    "Ġcom": 369,
    "Ġinconvenient": 20013,
    "scure": 22993,
    "Ġmay": 925,
    "Ġgirdled": 19161,
    "Ġtremulous": 14989,
    "Ġsupplies": 20329,
    "imodal": 17450,
    "Ġconfirming": 25322,
    "Ġachieve": 3673,
    "Ġstig": 14005,
    "Ġ51": 24316,
    "ism": 4874,
    "Ġgovernesses": 25130,
    "crow": 9593,
    "Ġmalice": 7153,
    "pump": 21019,
    "Ġameric": 3853,
    "waves": 10744,
    "Ġlombardy": 26465,
    "Ġ99": 10747,
    "Ġpicture": 4857,
    "Ġdyspeps": 16515,
    "tub": 9146,
    "Ġoutlined": 22324,
    "Ġfrayed": 23296,
    "Ġsuperstitious": 13522,
    "Ġinfat": 14502,
    "Ġfireboard": 23536,
    "Ġspeech": 4610,
    "Ġbackstays": 22665,
    "ub": 1227,
    "Ġconclude": 8584,
    "Ġprov": 4400,
    "Ġarrived": 3746,
    "links": 20960,
    "steam": 23963,
    "Ġinsensible": 12329,
    "Ġbiographical": 22768,
    "ateful": 5928,
    "Ġcachalot": 17836,
    "nin": 17610,
    "Ġwedded": 15540,
    "imen": 12692,
    "Ġenterprise": 8645,
    "variance": 2655,
    "Ġeyes": 1334,
    "provid": 11150,
    "Ġquestions": 3970,
    "Ġlocket": 22117,
    "lucases": 20213,
    "Ġbiting": 17863,
    "Ġroast": 18455,
    "Ġamput": 16038,
    "Ġlearnt": 7613,
    "Ġmultipl": 2793,
    "Ġlibr": 16006,
    "Ġoutright": 18414,
    "Ġpassive": 22844,
    "box": 5749,
    "sort": 6799,
    "surprise": 9533,
    "Ġthree": 1370,
    "Ġshoulder": 5849,
    "vult": 21116,
    "sprit": 11383,
    "Ġtrim": 15968,
    "clouded": 20334,
    "Ġsinister": 8572,
    "Ġenraged": 10247,
    "Ġirregularly": 25324,
    "ĠĠĠĠĠĠĠĠĠĠĠĠĠĠĠĠ": 1220,
    "Ġknow": 632,
    "Ġwestward": 24389,
    "nay": 7137,
    "Ġbelieving": 8225,
    "native": 17613,
    "rifice": 12508,
    "Ġmountainous": 16601,
    "superst": 11326,
    "Ġlent": 21550,
    "Ġouthouse": 22318,
    "Ġgeorgiana": 8629,
    "Ġdescried": 7919,
    "Ġcut": 2642,
    "heaved": 21213,
    "Ġmel": 4817,
    "------": 12138,
    "Ġstarve": 24626,
    "Ġreappeared": 21668,
    "Ġprows": 19891,
    "Ġwitt": 17785,
    "Ġadd": 630,
    "Ġexhibition": 14960,
    "Ġelephants": 9867,
    "una": 21873,
    "Ġadmeasurements": 26227,
    "87": 20759,
    "Ġtheoretic": 23315,
    "wolf": 26411,
    "oc": 2836,
    "eryton": 4090,
    "Ġdesigns": 13020,
    "ivery": 17574,
    "Ġafterwards": 3530,
    "atus": 21263,
    "Ġbackward": 7655,
    "Ġbed": 2150,
    "Ġappl": 1756,
    "Ġfronted": 23260,
    "Ġsomnam": 23010,
    "Ġrenew": 6147,
    "Ġshelves": 15000,
    "Ġimmedi": 2905,
    "riumph": 4919,
    "Ġfairly": 6327,
    "nered": 18489,
    "sleeping": 13457,
    "Ġconfl": 11138,
    "Ġconstruct": 23344,
    "Ġtongues": 14866,
    "Ġgrief": 4621,
    "uled": 11538,
    "solved": 7685,
    "Ġunicorn": 22059,
    "inces": 13831,
    "australian": 20564,
    "ear": 8734,
    "Ġpots": 9431,
    "Ġaccent": 10296,
    "Ġmor": 1251,
    "sentiment": 12920,
    "personal": 24966,
    "Ĕ": 213,
    "Ġsaf": 3998,
    "Ġmaddened": 17246,
    "Ġaudible": 19883,
    "rets": 12546,
    "convinced": 10625,
    "u": 89,
    "Ġalley": 15741,
    "Ġoptimizer": 5036,
    "Ġconjectured": 10000,
    "Ġmodern": 3227,
    "icating": 15660,
    "ultaneous": 18583,
    "epend": 3313,
    "Ġcomponents": 8896,
    "Ġber": 5698,
    "remed": 18955,
    "rew": 3649,
    "Ġpratt": 23219,
    "Ġtul": 21162,
    "reproof": 25433,
    "Ġretiring": 16285,
    "andy": 8158,
    "Ġdeserve": 8309,
    "scho": 8763,
    "lands": 8241,
    "shipmates": 11932,
    "Ġunmingled": 18264,
    "Ġtendinous": 16933,
    "Ġfired": 16159,
    "Ġexertions": 13413,
    "Ġbuff": 9175,
    "Ġeven": 1027,
    "state": 13982,
    "95": 17480,
    "Ġpeleg": 3738,
    "Ġvisitor": 5331,
    "Ġglimmer": 15145,
    "Ġdepl": 14047,
    "lounged": 26134,
    "Ġtoe": 13939,
    "blooded": 20026,
    "ribs": 23368,
    "pardon": 10068,
    "transp": 24512,
    "Ġnut": 12652,
    "Ġreceptacle": 23195,
    "Ġaside": 5234,
    "Ġenclosure": 20627,
    "breeze": 20565,
    "Ġshade": 6552,
    "Ġfaults": 12217,
    "Ġinnocent": 4921,
    "oll": 5456,
    "from": 1993,
    "Ġsciences": 15949,
    "Ġinfatuation": 25858,
    "hinting": 17571,
    "Ġextras": 22756,
    "Ġ6": 5141,
    "cient": 4569,
    "Ġjam": 10952,
    "excited": 13383,
    "called": 6294,
    "ens": 701,
    "Ġexpedition": 10636,
    "Ġattempted": 8001,
    "Ġdarcy": 1341,
    "Ġrepaid": 19084,
    "Ġsecurely": 16804,
    "Ġsent": 1775,
    "gracious": 11835,
    "Ġcups": 16884,
    "shortened": 24747,
    "achusetts": 20712,
    "Ġlimited": 23548,
    "ruded": 15902,
    "Ġguar": 23049,
    "pay": 10720,
    "Ġtwine": 14314,
    "Ġbreaks": 13186,
    "oward": 6022,
    "Ġfaire": 13368,
    "pendicular": 6500,
    "vity": 7815,
    "Ġ125": 24470,
    "Ġborn": 5224,
    "Ġinterchange": 16076,
    "person": 7746,
    "Ġstated": 9692,
    "rian": 10244,
    "Ġhe": 318,
    "early": 20122,
    "Ġfuel": 13907,
    "Ġleviathanic": 12085,
    "Ġmusket": 12300,
    "Ġcounties": 23307,
    "Ġ110": 24435,
    "comfortably": 16877,
    "conversations": 24748,
    "myst": 9825,
    "Ġcorroded": 18878,
    "Ġavocation": 23956,
    "Ġconvulsive": 19308,
    "Ġlux": 8818,
    "Ġnavigators": 19766,
    "cop": 20803,
    "Ġtropical": 17066,
    "Ġscaled": 2107,
    "anoke": 21364,
    "Ô": 149,
    "ĠĠĠĠĠĠĠĠĠĠĠĠĠĠĠĠĠĠĠĠĠĠ": 16230,
    "historian": 25735,
    "Ġreturned": 2892,
    "Ġshoreless": 24297,
    "Ġappalled": 22225,
    "Ġtwee": 22678,
    "Ġsixpence": 19319,
    "Ġthoroughly": 8348,
    "Ġroman": 8323,
    "Ġanteced": 26178,
    "scar": 9819,
    "Ġtrace": 6183,
    "oms": 4593,
    "crop": 20800,
    "Ġscript": 18399,
    "Ġsensitive": 13200,
    "Ġturns": 4981,
    "icant": 21565,
    "Ġshout": 4262,
    "mock": 5174,
    "Ġhopes": 4232,
    "Ġrespectfully": 18995,
    "rey": 12543,
    "billows": 20239,
    "Ġfert": 15587,
    "definition": 23123,
    "Ġramsgate": 18649,
    "Ġslapped": 23175,
    "ok": 572,
    "Ġdisagree": 22536,
    "presume": 25671,
    "Ġcongratulate": 9066,
    "Ġwand": 4340,
    "irwin": 8471,
    "Ġveritable": 19384,
    "Ġpangs": 15620,
    "ute": 4643,
    "mankind": 14377,
    "Ġentic": 16151,
    "infl": 15491,
    "Ġstir": 5824,
    "Ġhave": 445,
    "Ġfabric": 25948,
    "ster": 1953,
    "Ġcompos": 22573,
    "luded": 4227,
    "Ġsatirical": 26281,
    "Ġtheme": 16024,
    "Ġvenetian": 14850,
    "Ġunfavourable": 17420,
    "Ġsentiment": 6591,
    "franch": 24286,
    "Ġpassions": 7930,
    "compar": 14361,
    "leaned": 21372,
    "Ġtribe": 10753,
    "Ġtry": 3132,
    "iously": 2677,
    "Ġcrouched": 23441,
    "Ġbaling": 17861,
    "plexion": 14263,
    "gazed": 15365,
    "mend": 20968,
    "Ġacquainted": 5179,
    "Ġappearance": 3699,
    "Ġdiver": 2531,
    "public": 17648,
    "speechless": 25396,
    "nails": 17616,
    "Ġchurned": 18386,
    "initions": 21190,
    "Ġadmire": 5264,
    "Ġfleetness": 20182,
    "ulgences": 21869,
    "drop": 15340,
    "superstitious": 17283,
    "Ġdragged": 6889,
    "Ġ114": 24438,
    "!âĢĶâĢĻ": 23567,
    "Ġretention": 23075,
    "Ġsum": 2699,
    "Ġhog": 13927,
    "Ġmultiple": 1187,
    "persecutor": 26531,
    "imin": 1769,
    "Ġbloodthirsty": 26603,
    "Ġvigorous": 10569,
    "studied": 17152,
    "Ġsomething": 1795,
    "Ġliar": 22412,
    "Ġloop": 14149,
    "Ġpre": 507,
    "Ġmassive": 9935,
    "Ġobtain": 8918,
    "Ġgirl": 3082,
    "Ġdisgu": 8206,
    "Ġsimilitude": 19212,
    "Ġpacific": 5153,
    "ascribed": 24707,
    "Ġenhancement": 23804,
    "Ġcongregation": 12333,
    "Ġflounders": 23018,
    "feet": 6570,
    "Ġrotation": 25475,
    "Ġintimate": 6551,
    "Ġgently": 7172,
    "Ġfiend": 4411,
    "Ġspecialized": 3918,
    "Ġmil": 4252,
    "ful": 686,
    "expanded": 23664,
    "cleanliness": 25872,
    "reward": 15513,
    "ithing": 11652,
    "Ġjournal": 15222,
    "Ġtwist": 11855,
    "Ġgarb": 21606,
    "fer": 1945,
    "Ġneg": 1332,
    "olstad": 7612,
    "hastily": 19705,
    "Ġhyster": 16875,
    "cord": 8727,
    "rope": 3185,
    "Ġslime": 23165,
    "men": 1486,
    "Ġreconsidered": 21676,
    "Ġabomin": 8189,
    "Ġresponsiveness": 2898,
    "Ġestimate": 19376,
    "Ġrelaps": 18778,
    "stonecraft": 24356,
    "countless": 24152,
    "Ġlonger": 3357,
    "Ġunche": 23431,
    "intelligent": 16846,
    "arb": 1563,
    "Ġeffectual": 18733,
    "bloom": 24690,
    "stiff": 12681,
    "Ġbubblingly": 25633,
    "Ġdates": 6695,
    "ross": 809,
    "Ġattach": 14296,
    "Ġthunders": 15643,
    "Ġ91": 24590,
    "Ġbosom": 6939,
    "Ġmariners": 6069,
    "Ġ83": 24459,
    "Ġobst": 6286,
    "Ġcontemptuous": 24677,
    "Ġobjective": 3765,
    "Ġfellow": 2778,
    "Ġcontempl": 6703,
    "Ġvictim": 6099,
    "Ġlabelled": 23333,
    "Ġgaining": 9495,
    "Ġtorch": 25033,
    "Ġuncle": 3192,
    "osp": 6854,
    "ĠĠĠĠĠĠĠĠĠĠĠĠĠĠĠĠĠĠĠĠĠĠĠĠĠĠĠĠĠĠĠĠĠĠĠĠĠĠĠĠ": 4516,
    "imprudence": 16559,
    "uncontrollable": 20599,
    "Ġgown": 10204,
    "Ġwhirled": 14963,
    "accepting": 20138,
    "irect": 5553,
    "oura": 1058,
    "Ġgrie": 3583,
    "Ġmoves": 14234,
    "Ġeliminating": 20623,
    "request": 21244,
    "girl": 12322,
    "Ġunconditional": 15849,
    "uts": 8820,
    "balance": 12011,
    "ĠdÃ¦mon": 7844,
    "Ġformed": 3882,
    "Ġdistillation": 16049,
    "orated": 12597,
    "brimming": 23579,
    "Ġbusks": 23342,
    "usually": 10288,
    "turner": 19544,
    "Ġopp": 2696,
    "prep": 9761,
    "nar": 12498,
    "Ġcanaller": 25468,
    "Ġshrine": 19534,
    "Ġsandwic": 24665,
    "Ġtashtego": 4486,
    "Ġhosmer": 6775,
    "Ġsuffering": 8949,
    "volume": 18597,
    "Ġovertake": 15978,
    "Ġsubstances": 24167,
    "rigging": 20009,
    "Ġslowly": 3618,
    "Ġderived": 8239,
    "oof": 15409,
    "gate": 12471,
    "Ġcrockery": 24303,
    "cost": 19188,
    "Ġdod": 6675,
    "urance": 10858,
    "doesn": 19823,
    "Ġsudden": 2001,
    "Ġlevels": 12704,
    "snow": 10726,
    "intervals": 10640,
    "pression": 10409,
    "withstanding": 8948,
    "Ġsullenly": 17175,
    "Ġcampaign": 20663,
    "sailing": 14717,
    "Ġespe": 21158,
    "mblance": 7323,
    "Ġaudacity": 19884,
    "Ġtusks": 17256,
    "love": 9297,
    "Ġmerry": 5870,
    "oubted": 5861,
    "Ġamends": 14248,
    "Ġdine": 7366,
    "Ġkins": 22198,
    "Ġchaps": 14182,
    "Ġwrig": 13072,
    "Ġantip": 24180,
    "Ġpresume": 8038,
    "hated": 17563,
    "Ġpossesses": 19355,
    "Ġperformance": 1307,
    "Ġledgers": 23941,
    "Ġjacob": 1899,
    "dwell": 15345,
    "suitableness": 26262,
    "Ġmiddle": 4136,
    "Ġworks": 5859,
    "Ġsends": 14792,
    "Ġhandy": 12942,
    "Ġpron": 6452,
    "15": 12434,
    "Ġsubstituting": 26328,
    "Ġdance": 4442,
    "Ġpound": 12622,
    "Ġsorts": 6887,
    "Ġad": 441,
    "Ġprediction": 2102,
    "beneath": 9538,
    "Ġpanic": 11287,
    "came": 4570,
    "dling": 15343,
    "james": 15376,
    "Ġrussian": 14351,
    "Ġpale": 4532,
    "Ġshovel": 23493,
    "Ġchall": 10945,
    "Ġcapture": 3382,
    "Ġweb": 9243,
    "Ġfrock": 10492,
    "Ġcompetent": 11820,
    "featured": 24172,
    "rapid": 12676,
    "Ġdegraded": 19228,
    "Ġincognit": 22558,
    "Ġhandspike": 22701,
    "announcement": 24563,
    "Ġlo": 453,
    "Ġtempted": 9059,
    "Ġgorgeous": 20470,
    "Ġextracting": 11116,
    "augmented": 26288,
    "bation": 9106,
    "Ġvictor": 5125,
    "Ġpedd": 17912,
    "Ġbreast": 8971,
    "Ġloaf": 15877,
    "there": 1425,
    "Ġreceived": 2952,
    "Ġwearied": 15799,
    "Ġbulwarks": 5592,
    "sn": 7140,
    "circumst": 5349,
    "Ġcrackling": 24961,
    "Ġaddressed": 5263,
    "inous": 8776,
    "sway": 15428,
    "riend": 1186,
    "five": 6358,
    "Ġcordial": 16837,
    "Ġpromoting": 3158,
    "Ġfourteen": 12014,
    "venth": 9298,
    "medi": 2629,
    "newsp": 23138,
    "Ġshrunk": 16720,
    "Ġern": 8397,
    "Ġvolat": 24146,
    "ither": 1544,
    "spears": 23945,
    "Ġsanity": 24982,
    "Ġconvincing": 19309,
    "zy": 2670,
    "Ġlike": 668,
    "Ġemotion": 7690,
    "Ġincommun": 25309,
    "Ġscraping": 13419,
    "Ġdazzling": 15215,
    "Ġoutrage": 15963,
    "ird": 2428,
    "quod": 2164,
    "terrible": 8468,
    "frantic": 24285,
    "Ġshillings": 15840,
    "Ġscarcity": 23830,
    "Ġten": 2387,
    "nd": 11505,
    "fur": 6357,
    "dece": 11738,
    "Ġreverber": 19871,
    "Ġjones": 7204,
    "Ġpallid": 12303,
    "safety": 20352,
    "Ġadroit": 26001,
    "acknowledged": 15206,
    "Ġcalculates": 13267,
    "Ġostens": 25276,
    "sin": 21051,
    "Ġlimb": 9405,
    "conceal": 25117,
    "verd": 21731,
    "Ġsignificantly": 4519,
    "č": 206,
    "Ġinte": 2067,
    "judgment": 16755,
    "Ġobserve": 4671,
    "Ġincludes": 2013,
    "benevolent": 15237,
    "once": 5905,
    "hastening": 24448,
    "Ġwriting": 4668,
    "Ġwhereon": 16106,
    "Ġheel": 9687,
    "uzza": 11271,
    "pt": 387,
    "rasing": 21048,
    "Ġrope": 4337,
    "Ġmildness": 9947,
    "Ġheave": 7600,
    "Ġirons": 7696,
    "Ġsanct": 15065,
    "rix": 1574,
    "Ġengravings": 15069,
    "Ġaux": 21202,
    "significant": 25085,
    "Ġwonder": 2118,
    "onsible": 22565,
    "Ġantelope": 24183,
    "Ġinstinctively": 13462,
    "Ġloops": 8856,
    "Ġrelated": 3715,
    "around": 12614,
    "Ġload": 14148,
    "Ġcasualty": 20344,
    "Ġcetus": 19887,
    "Ġpapa": 10659,
    "connected": 1309,
    "Ġlessons": 7692,
    "Ġrobots": 11073,
    "Ġdeeds": 15764,
    "red": 396,
    "respond": 12549,
    "masters": 16836,
    "Ġdiscrimination": 23607,
    "Ġhypothe": 4070,
    "Ġarose": 7360,
    "Ġvancouver": 26567,
    "Ġprogen": 14042,
    "beloved": 19464,
    "Ġprompt": 3189,
    "anations": 12582,
    "grief": 13734,
    "Ġguidance": 9420,
    "Ġlook": 880,
    "Ġrival": 10488,
    "Ġdomin": 10466,
    "type": 16180,
    "compasses": 19461,
    "fts": 18695,
    "Ġteneriffe": 26416,
    "Ġconcern": 2657,
    "considered": 9583,
    "abern": 21793,
    "Ġplum": 11826,
    "fallen": 19662,
    "upper": 11540,
    "derness": 11741,
    "Ġaffrighted": 13575,
    "mot": 17598,
    "Ġtraveller": 8049,
    "ample": 1364,
    "Ġamaze": 22487,
    "Ġstyle": 6946,
    "screwed": 17190,
    "connect": 1293,
    "carp": 9113,
    "Ġtranque": 14203,
    "Ġnash": 5820,
    "Ġfamiliarly": 11304,
    "Ġcomprehension": 15090,
    "charge": 9451,
    "ioneer": 15637,
    "Ġunfit": 14789,
    "plumed": 21959,
    "Ġbeautifully": 13269,
    "Ġra": 817,
    "Ġmaddening": 17245,
    "Ġphase": 14474,
    "influences": 25251,
    "Ġrevive": 13482,
    "usages": 22294,
    "inger": 6813,
    "Ġcass": 13882,
    "Ġstunsail": 25544,
    "resemblance": 25934,
    "Ġdetaining": 25819,
    "iment": 2817,
    "Ġagain": 814,
    "freighted": 14895,
    "hered": 5623,
    "paradise": 20639,
    "riptions": 14797,
    "Ġdanish": 21434,
    "gue": 12472,
    "Ġancestry": 25642,
    "Ġblotting": 25314,
    "Ġrepresent": 1212,
    "Ġfevers": 22210,
    "Ġlumps": 21559,
    "Ġcasked": 24497,
    "disappearing": 23504,
    "Ġsquares": 11170,
    "Ġstab": 10863,
    "takes": 21079,
    "now": 548,
    "furnish": 25339,
    "nurtured": 25525,
    "Ġarmitage": 23583,
    "Ġluckily": 16800,
    "Ġgliding": 8564,
    "america": 17098,
    "loved": 14253,
    "swept": 19789,
    "Ġempires": 19077,
    "Ġwaits": 23282,
    "Ġcanvassed": 19938,
    "ave": 979,
    "Ġsashes": 21228,
    "unch": 14061,
    "honey": 20907,
    "Ġhorrid": 7999,
    "Ġpreternatural": 12829,
    "ifferent": 4260,
    "Ġobservant": 20113,
    "sight": 5996,
    "heidelburgh": 21214,
    "Ġprair": 7747,
    "Ġcous": 3437,
    "orts": 2555,
    "sub": 4660,
    "swift": 14855,
    "ectual": 21919,
    "Ġaverred": 18867,
    "_--": 20764,
    "Ġsash": 17756,
    "mand": 3892,
    "Ġpreserved": 9265,
    "Ġder": 1498,
    "Ġbo": 796,
    "Ġpraying": 19557,
    "Ġapiece": 16815,
    "blog": 19842,
    "rodu": 1818,
    "ething": 1601,
    "Ġblown": 12090,
    "Ġunsocial": 18257,
    "ulence": 15771,
    "Ġlonged": 6437,
    "looking": 4029,
    "naturally": 14574,
    "beam": 16043,
    "neighbours": 24882,
    "Ġhart": 17924,
    "Ġsyrian": 18356,
    "Ġbustle": 17230,
    "Ġcorrespondence": 10597,
    "Ġwallow": 19469,
    "whaler": 20312,
    "Ġcaved": 21356,
    "Ġtexture": 19162,
    "Ġreigned": 13990,
    "Ġprimal": 17108,
    "Ġenumer": 12751,
    "Ġcopper": 7425,
    "compl": 6873,
    "limbs": 20194,
    "breeding": 16677,
    "shell": 16291,
    "Ġtells": 9364,
    "Ġreplying": 19584,
    "Ġwindlass": 7256,
    "Ġsleek": 23387,
    "unw": 14060,
    "Ġcurb": 16241,
    "Ġserved": 8246,
    "intellect": 18823,
    "fatality": 25022,
    "Ġindiscreet": 22959,
    "robe": 15647,
    "Ġembarks": 22962,
    "Ġapprised": 18362,
    "torm": 11532,
    "Ġbubbling": 17329,
    "Ġplantation": 11424,
    "Ġcomputational": 1626,
    "Ġmaybe": 12954,
    "Ġderivatives": 2372,
    "sailor": 14718,
    "Ġnotable": 18223,
    "Ġmantle": 25275,
    "ensive": 6281,
    "Ġbetter": 1174,
    "Ġdeportment": 22602,
    "iftings": 23224,
    "prisoner": 20546,
    "Ġsubur": 12961,
    "albatross": 15635,
    "Ġmean": 743,
    "Ġrigged": 16719,
    "vell": 3957,
    "Ġroots": 11186,
    "cats": 17514,
    "gain": 8740,
    "conject": 8883,
    "rad": 2152,
    "Ġearning": 23944,
    "Ġconceivable": 16615,
    "ruct": 683,
    "Ġdiscourage": 3114,
    "Ġbuildings": 24719,
    "_,âĢĿ": 6220,
    "track": 24335,
    "shone": 22459,
    "ville": 6088,
    "Ġdoorway": 14500,
    "indispensable": 14212,
    "loud": 11502,
    "Ġrepel": 23362,
    "Ġdevoid": 18681,
    "Ġintimidated": 24802,
    "remembered": 17354,
    "Ġdestruction": 6602,
    "Ġecc": 11631,
    "itary": 4751,
    "Ġdavy": 25952,
    "Ġreap": 18029,
    "month": 6464,
    "Ġwander": 9034,
    "Ġmuffled": 10643,
    "Ġpil": 5014,
    "phren": 22764,
    "ants": 1392,
    "commanded": 16990,
    "Ġtheoretically": 3565,
    "thes": 7391,
    "Ġpicked": 6343,
    "Ġback": 823,
    "behold": 12883,
    "frankenstein": 11392,
    "Ġtwitch": 22679,
    "connections": 14431,
    "Ġhooked": 19081,
    "absurd": 21799,
    "Ġphilosoph": 19654,
    "Ġirreproachable": 24918,
    "Ġbrick": 8929,
    "Ġ111": 24436,
    "blubber": 15240,
    "claps": 23156,
    "beyond": 8886,
    "degree": 12807,
    "muttered": 13762,
    "cure": 11475,
    "gument": 20887,
    "Ġcurved": 18848,
    "Ġcirculating": 23376,
    "fal": 17538,
    "Ġsmoked": 10325,
    "Ġlooked": 1802,
    "Ġfurnishes": 19444,
    "retched": 3065,
    "ourable": 4967,
    "Ġenvironment": 4174,
    "Ġcasualties": 25513,
    "consuming": 25675,
    "Ġbrides": 22871,
    "Ġabhorrence": 9055,
    "Ġclusters": 25233,
    "Ġconstrain": 2628,
    "jolly": 20933,
    "sloop": 26146,
    "float": 19808,
    "come": 2378,
    "third": 8168,
    "Ġpythag": 26450,
    "four": 6115,
    "othing": 6996,
    "İ": 241,
    "Ġliveliness": 13646,
    "Ġfar": 1449,
    "Ġrobe": 18456,
    "Ġremembered": 5277,
    "am": 367,
    "Ġsmokes": 22563,
    "omn": 15687,
    "Ġwanted": 4968,
    "ivities": 22081,
    "Ġinclination": 6626,
    "Ġround": 1369,
    "Ġvice": 6550,
    "Ġribs": 7103,
    "icked": 10335,
    "beds": 16624,
    "?âĢĻ": 2641,
    "Ġass": 1503,
    "monkey": 19172,
    "Ġarg": 4766,
    "Ġsimilarly": 24310,
    "Ġreverse": 16984,
    "Ġhermit": 15862,
    "Ġunwound": 24829,
    "interrupted": 11418,
    "only": 3306,
    "spent": 12947,
    "Ġreplen": 11114,
    "Ġfishing": 9665,
    "make": 5793,
    "thrown": 8483,
    "Ġhandsomely": 25498,
    "Ġsociety": 3975,
    "Ġgret": 21604,
    "Ġportcullis": 26605,
    "preced": 10308,
    "Ġassist": 3563,
    "Ġblock": 2576,
    "Ġbro": 1431,
    "Ġensl": 19276,
    "Ġsleepy": 8268,
    "Ġgarments": 15197,
    "Ġcritically": 23445,
    "Ġstuck": 9223,
    "Ġpersu": 3562,
    "Ġeastward": 13393,
    "Ġgable": 15672,
    "Ġmoment": 989,
    "Ġwashington": 17205,
    "Ġobviously": 16812,
    "Ġswitzerland": 10382,
    "repugnance": 16866,
    "Ġmother": 2069,
    "Ġtheore": 1830,
    "Ġsubtlety": 24779,
    "saying": 8644,
    "add": 5229,
    "opol": 12877,
    "Ġbutler": 18271,
    "Ġinexpressible": 17336,
    "Ġmists": 14632,
    "Ġremained": 3139,
    "tical": 10131,
    "gra": 769,
    "Ġvalidate": 2973,
    "Ġmurder": 4278,
    "Ġskirting": 22799,
    "Ġprofoundest": 16862,
    "Ġvintage": 26211,
    "finding": 17015,
    "Ġlashed": 9201,
    "Ġbenefits": 4284,
    "Ġdeficient": 18826,
    "bb": 2802,
    "Ġreception": 9842,
    "Ġincom": 9772,
    "Ġrecommending": 24333,
    "probably": 10023,
    "54": 15303,
    "Ġdam": 2214,
    "embow": 21935,
    "Ġcroquet": 9965,
    "Ġobtaining": 16137,
    "owner": 18612,
    "Ġsor": 4143,
    "Ġdetected": 18830,
    "Ġtoller": 9094,
    "degrad": 22147,
    "Ġaskance": 23153,
    "Ġgraces": 18226,
    "inguished": 6600,
    "Ġprosper": 10231,
    "Ġpau": 17910,
    "Ġpret": 3034,
    "Ġmathematics": 12078,
    "movement": 25578,
    "Ġmorphology": 3010,
    "Ġhereford": 22884,
    "Ġfellows": 8257,
    "Ġchain": 1844,
    "Ġrisks": 9967,
    "arned": 21821,
    "hig": 12479,
    "Ġtwink": 8216,
    "Ġtattooed": 11379,
    "Ġhearsed": 25042,
    "quakes": 21854,
    "Ġlub": 15654,
    "Ġsolemnisation": 24114,
    "Ġwires": 21298,
    "resembled": 21249,
    "Ġpersonally": 8603,
    "ishe": 13894,
    "arson": 22749,
    "ateral": 19380,
    "Ġbam": 15571,
    "Ġasc": 4765,
    "maid": 8555,
    "Ġdollars": 11456,
    "Ġcascade": 20584,
    "doublo": 24661,
    "Ġpurch": 6601,
    "Ġscraggy": 24580,
    "Ġvoy": 2619,
    "Ġther": 17780,
    "Ġaltitude": 26204,
    "Ġcasc": 15561,
    "i": 77,
    "alogue": 25163,
    "Ġherds": 9719,
    "equally": 19901,
    "wis": 12523,
    "Ġthrone": 12218,
    "hue": 20901,
    "Ġperplexity": 2756,
    "Ġwrist": 8243,
    "Ġcomparatively": 9493,
    "50": 6785,
    "Ġmarried": 3409,
    "Ġmiser": 18700,
    "ctions": 950,
    "Ġalert": 18104,
    "Ġassociations": 14966,
    "Ġpeeling": 22695,
    "pres": 16029,
    "richard": 17289,
    "Ġsharper": 17182,
    "susceptible": 24662,
    "Ġweather": 3993,
    "Ġsmiled": 5942,
    "Ġer": 8105,
    "Ġdrawback": 23993,
    "course": 6106,
    "Ġwretchedness": 9029,
    "pooh": 18801,
    "disgu": 19157,
    "ude": 7562,
    "Ġplants": 22604,
    "Ġowes": 20088,
    "Ġkind": 1785,
    "prodigious": 17469,
    "Ġseemed": 1278,
    "Ġpromised": 5181,
    "Ġce": 3030,
    "Ġed": 2242,
    "Ġaids": 12233,
    "Ġproducts": 5198,
    "Ġundone": 24118,
    "Ġunspeakably": 25173,
    "Ġpoetry": 15084,
    "Ġdespatched": 23833,
    "Ġimagined": 8610,
    "Ġtraced": 10386,
    "Ġsweetest": 13250,
    "Ġbecoming": 4397,
    "Ġquantity": 6948,
    "Ġcopse": 17068,
    "Ġemails": 13110,
    "edded": 8558,
    "henomena": 20275,
    "Ġirrevocably": 15301,
    "Ġdeb": 4764,
    "Ġparson": 6689,
    "itate": 6670,
    "boilers": 26298,
    "Ġopal": 23627,
    "Ġhempen": 13553,
    "ituted": 13876,
    "aches": 6572,
    "Ġcollar": 11883,
    "Ġreusable": 13560,
    "pra": 15411,
    "Ġthinks": 6171,
    "Ġfireplace": 13148,
    "cho": 2762,
    "Ġroof": 6565,
    "Ġambitious": 18512,
    "Ġcucumber": 21359,
    "Ġblowing": 10487,
    "Ġleaders": 16630,
    "Ġimperson": 14221,
    "Ġjustify": 11074,
    "Ġfair": 2839,
    "Ġshudder": 9053,
    "Ġ12": 5483,
    "aus": 1500,
    "string": 15691,
    "angible": 22109,
    "arabian": 26448,
    "Ġpleasure": 2694,
    "Ġprecipices": 12282,
    "Ġunimpe": 22074,
    "ilar": 10218,
    "Ġboom": 9313,
    "Ġportions": 19372,
    "Ġinsomuch": 23685,
    "y": 93,
    "Ġpitiless": 19391,
    "embraced": 25807,
    "dun": 17518,
    "Ġdry": 5624,
    "Ġdivert": 23595,
    "Ġwayward": 22879,
    "inquir": 9539,
    "Ġdiscussing": 5202,
    "Ġsounded": 8594,
    "Ġgroaned": 11267,
    "atched": 6376,
    "Ġfooting": 14485,
    "Ġsigning": 22711,
    "Ġglistening": 12369,
    "Ġlaid": 3939,
    "urpr": 2288,
    "Ġser": 1670,
    "Ġlocker": 16913,
    "Ġobeisance": 19761,
    "Ġfaith": 5351,
    "ur": 325,
    "Ġlanguage": 646,
    "accepted": 20139,
    "Ġinevitably": 17233,
    "Ġapplication": 2167,
    "Ġconsequences": 11336,
    "Åĵuvre": 25888,
    "ged": 1512,
    "Ġignor": 4008,
    "Ġoverhung": 15980,
    "Ġlexic": 15729,
    "Ġremarking": 13128,
    "Ġpuzzling": 14901,
    "÷": 184,
    "unt": 2046,
    "Ġkiss": 8183,
    "Ġeastern": 11632,
    "Ġcommitted": 7431,
    "Ġmig": 13859,
    "Ġdeceived": 6546,
    "andish": 18156,
    "Ġneighbourhood": 5126,
    "entire": 6824,
    "Ġgrieved": 8298,
    "Ġadventures": 7748,
    "Ġgeneralization": 983,
    "Ġpaid": 5015,
    "luent": 16003,
    "changing": 10855,
    "Ġincapable": 7423,
    "Ġfanc": 6745,
    "Ġmanhat": 22331,
    "rece": 21237,
    "Ġshag": 9254,
    "Ġlively": 5449,
    "Ġrheumatic": 20707,
    "Ġadvers": 4887,
    "Ġsubordinate": 18722,
    "Ġbulkington": 14679,
    "Ġdec": 642,
    "Ġdecl": 3589,
    "Ġwhittling": 20702,
    "glory": 23855,
    "Ġbedfellows": 23447,
    "Ġseren": 7401,
    "wn": 720,
    "sies": 21057,
    "bound": 6222,
    "Ġthroes": 24575,
    "calculating": 25690,
    "ellow": 3876,
    "Ġregain": 22590,
    "Ġperhaps": 1910,
    "ery": 1269,
    "sitting": 8387,
    "Ġseaport": 20602,
    "Ġcraven": 16473,
    "Ġveget": 11890,
    "Ġhappened": 3713,
    "Ġstoper": 14466,
    "Ġcrucial": 9895,
    "Ġlowering": 7987,
    "Ġtook": 1855,
    "Ġelevate": 24502,
    "Ġcrows": 24034,
    "Ġsang": 12540,
    "Ġegyptians": 25290,
    "erringly": 16216,
    "nineteenth": 26139,
    "Ġstarted": 4147,
    "Ġjung": 12842,
    "Ġtigers": 25759,
    "leading": 15567,
    "Ġwives": 12560,
    "Ġrepeat": 8000,
    "Ġproviding": 1360,
    "Ġcleaning": 23184,
    "Ġmerciless": 25247,
    "Ġaccumulated": 11935,
    "ideas": 18582,
    "sax": 21059,
    "Ġwarped": 25038,
    "ission": 6458,
    "daughter": 8354,
    "Ġnameless": 7700,
    "knowing": 10439,
    "Ġproudly": 19745,
    "Ġmuzzle": 21324,
    "Ġpad": 8125,
    "Ġinfluences": 14868,
    "Ġtwo": 1042,
    "Ġsnatching": 10474,
    "mp": 3727,
    "Ġpang": 15610,
    "secut": 7867,
    "Ġbrotherhood": 23669,
    "Ġsincer": 13070,
    "Ġestablishment": 13582,
    "formal": 14170,
    "cooper": 19191,
    "Ġnewfound": 22935,
    "Ġchiselled": 25560,
    "edding": 4366,
    "lips": 13753,
    "Ġimbib": 22179,
    "residual": 19264,
    "hurry": 24762,
    "Ġmeditation": 16707,
    "Ġboston": 22642,
    "Ġalps": 10871,
    "ension": 6571,
    "pacing": 21023,
    "Ġclipping": 2440,
    "Ġdistorted": 14252,
    "tut": 15438,
    "amplified": 26496,
    "Ġarm": 2491,
    "gged": 3777,
    "already": 6981,
    "Ġaught": 8777,
    "Ġgreenhorn": 23770,
    "Ġgives": 5018,
    "aul": 6354,
    "Ġincalcul": 16068,
    "Ġbarbs": 10534,
    "Ġelegant": 7532,
    "ending": 1990,
    "elfth": 22373,
    "mad": 5281,
    "Ġmisconduct": 22760,
    "Ġsavesoul": 26229,
    "Ġuser": 15921,
    "Ġprotruded": 19473,
    "Ġlink": 8130,
    "erity": 21270,
    "Ġprecipitous": 24836,
    "Ġgreenland": 5761,
    "Ġlibraries": 20617,
    "Ġaddition": 1146,
    "Ġsustaining": 25334,
    "lock": 1471,
    "drink": 10598,
    "Ġglorious": 11077,
    "abama": 12715,
    "Ġfertile": 20586,
    "imet": 21709,
    "sheltered": 25586,
    "Ġsole": 3295,
    "Ġbeheld": 4492,
    "allions": 22202,
    "Ġspeak": 2230,
    "Ġguardian": 14945,
    "Ġhidden": 1376,
    "Ġunconquerable": 22065,
    "heav": 5694,
    "Ġscandinav": 19964,
    "inioned": 19288,
    "Ġslackened": 15130,
    "Ġnecess": 3475,
    "shadows": 25480,
    "Ġseeks": 14306,
    "tawn": 21083,
    "Ġsacred": 10931,
    "Ġstiff": 6993,
    "aco": 12912,
    "ado": 11661,
    "som": 3289,
    "ricity": 23067,
    "Ġdi": 6526,
    "Ġnarrow": 5086,
    "Ġbride": 6293,
    "Ġjoys": 13224,
    "ouncing": 8497,
    "Ġpasture": 14544,
    "W": 59,
    "Ġender": 11694,
    "Ġoctober": 17229,
    "soft": 12514,
    "Ġcommenting": 25229,
    "Ġadversity": 24305,
    "cod": 12448,
    "Ġestablished": 9072,
    "lying": 7175,
    "Ġvillagers": 19477,
    "gi": 17553,
    "Ġembodied": 25848,
    "Ġspy": 22127,
    "gings": 7549,
    "solut": 3362,
    "Ġrains": 24340,
    "farmer": 25900,
    "Ġextinction": 14344,
    "Ġfusion": 21417,
    "Ġascendency": 20235,
    "Ġcomplicated": 14738,
    "Ġ----": 7146,
    "wards": 1276,
    "Ġassertions": 19950,
    "hon": 6794,
    "mark": 5282,
    "pretty": 10624,
    "ureau": 10229,
    "oning": 7572,
    "Ġforbe": 8459,
    "she": 1399,
    "Ġtransparency": 10679,
    "rack": 18013,
    "Ġloading": 15879,
    "Ġframework": 1992,
    "serv": 7451,
    "Ġinverted": 12643,
    "rit": 21038,
    "shortly": 12263,
    "looked": 6084,
    "although": 8810,
    "Ġrewarding": 13440,
    "fields": 14655,
    "Ġoverwhelming": 17103,
    "s": 87,
    "Ġspeed": 2449,
    "Ġcaulking": 20296,
    "Ġcreator": 7253,
    "iew": 2448,
    "Ġlookest": 22718,
    "pray": 5429,
    "Ġabominable": 12326,
    "ort": 520,
    "ambition": 13414,
    "Ġthigh": 10189,
    "irksome": 18175,
    "Ġrecovery": 11442,
    "Ġparameter": 876,
    "dishonourable": 26367,
    "rain": 461,
    "Ġcaution": 11347,
    "Ġlect": 9225,
    "?_": 8070,
    "Ġmemories": 14557,
    "Ġobscured": 15013,
    "quired": 21853,
    "sharp": 10310,
    "itchen": 7788,
    "Ġconnexion": 11455,
    "trying": 15442,
    "Ġbread": 5404,
    "Ġdishonoured": 20394,
    "Ġsketch": 16169,
    "Ġflattering": 13033,
    "methodically": 20666,
    "Ġtwentieth": 18659,
    "Ġpiling": 17913,
    "Ġschemes": 11132,
    "Ġesc": 2253,
    "Ġtar": 2563,
    "Ġquestion": 2779,
    "Ġgri": 17990,
    "induce": 22378,
    "Ġunperceived": 22039,
    "Ġrudimental": 25111,
    "Ġcrooked": 11282,
    "mits": 13759,
    "peleg": 16298,
    "Ġsometimes": 2166,
    "whips": 22242,
    "Ġdecline": 9290,
    "Ġtoil": 6533,
    "Ġrepent": 9866,
    "Ġcontributed": 16014,
    "custom": 15336,
    "duty": 20242,
    "Ġjuncture": 17132,
    "nez": 22451,
    "Ġinstructed": 19286,
    "removing": 17766,
    "Ġpoisoned": 24887,
    "Ġundertake": 14482,
    "Ġdiverged": 23596,
    "Ġrespectively": 23250,
    "Ġheinous": 18041,
    "_,": 2801,
    "Ġmichigan": 26428,
    "icuous": 10837,
    "whalemen": 10433,
    "uctive": 17698,
    "Ġregularly": 7659,
    "Ġsain": 17752,
    "quadrille": 20598,
    "Ġstreaming": 19676,
    "Ġknelt": 12163,
    "Ġflesh": 5970,
    "Ĺ": 250,
    "Ġserenity": 10031,
    "dening": 22781,
    "Ġloaded": 8493,
    "service": 15039,
    "Ġnugent": 26459,
    "Ġinsanity": 12051,
    "atum": 21262,
    "bellies": 19977,
    "brevi": 24075,
    "Ġmerest": 14034,
    "Ġconnection": 5479,
    "Ġshadow": 5596,
    "ork": 416,
    "Ġbur": 2697,
    "piece": 6658,
    "fail": 17542,
    "Ġterti": 14540,
    "Ġsecret": 3720,
    "Ġcompetition": 14269,
    "Ġrid": 4353,
    "chie": 21693,
    "etition": 7382,
    "Ġitem": 12707,
    "aphys": 15205,
    "orus": 10803,
    "Ġtarquin": 23612,
    "Ġassailants": 20452,
    "Ġgoing": 2068,
    "Ġgorge": 13569,
    "Ġaccurately": 4924,
    "Ġglens": 18856,
    "Ġinseparable": 20691,
    "venison": 22629,
    "overlooked": 23327,
    "Ġconversations": 9428,
    "Ġtrivial": 10145,
    "Ġpuffed": 14980,
    "Ġawake": 8272,
    "¤": 102,
    "Ġgodlike": 23360,
    "Ġselect": 3995,
    "Ġpulley": 2975,
    "Ġbales": 21392,
    "Ġpendulous": 25956,
    "Ġthirteen": 15278,
    "ments": 1403,
    "ade": 883,
    "island": 10796,
    "Ġdenial": 13217,
    "constable": 24606,
    "Ġsymmetry": 20369,
    "Ġconfession": 11237,
    "biting": 20783,
    "Ġtis": 15469,
    "ogene": 18671,
    "tallow": 21088,
    "ditch": 17530,
    "Ġugl": 12688,
    "dreadful": 11422,
    "hers": 7636,
    "Ġenlist": 21940,
    "Ġmari": 6814,
    "ologically": 22853,
    "aching": 5832,
    "Ġsmiles": 6708,
    "Ġfancying": 12117,
    "having": 5211,
    "Ġfury": 7662,
    "accept": 8901,
    "Ġcaptain": 1603,
    "Ġauthorized": 16737,
    "recklessly": 25270,
    "Ġcare": 1639,
    "ection": 4948,
    "Ġcollateral": 20075,
    "Ġsnowy": 9021,
    "isure": 6242,
    "Ġuniversity": 13126,
    "Ġ183": 13241,
    "Ġfalling": 6915,
    "Ġoverlook": 10962,
    "removed": 15520,
    "Ġberg": 24536,
    "Ġobsc": 7041,
    "ty": 998,
    "rayed": 23565,
    "Ġnaturally": 2467,
    "shoes": 14244,
    "Ġire": 12673,
    "Ġimportance": 4900,
    "Ġapproving": 18513,
    "eddling": 11904,
    "Ġhot": 4255,
    "Ġrule": 1532,
    "Ġeighteen": 11240,
    "Ġhumbug": 18782,
    "Ġdisplayed": 10611,
    "Ġunsh": 14118,
    "Ġmonotonically": 3833,
    "Ġtak": 15474,
    "oir": 21004,
    "Ġcondesc": 7182,
    "Ġcheshire": 13093,
    "Ġflora": 11417,
    "aming": 5829,
    "Ġdare": 3544,
    "plan": 15819,
    "Ġglowing": 12287,
    "Ġteacup": 16217,
    "Ġhoneymoon": 25646,
    "Ġchanged": 5243,
    "Ġdistinguished": 8273,
    "Ġbroad": 3640,
    "Ġtantamount": 25626,
    "executed": 25740,
    "Ġmarked": 4620,
    "faced": 8080,
    "urously": 18052,
    "Ġeleventh": 23372,
    "Ġheroine": 24543,
    "pur": 7806,
    "Ġdecently": 22446,
    "ins": 1378,
    "Ġtech": 1673,
    "subject": 6634,
    "oves": 15407,
    "Ġprincipally": 11310,
    "Ġlesson": 7276,
    "lights": 13208,
    "Ġstate": 1811,
    "Ġattraction": 18626,
    "icles": 17975,
    "apparent": 11042,
    "Ġphilipses": 24452,
    "rab": 7597,
    "Ġwond": 3937,
    "Ġmonsters": 11076,
    "Ġlengthwise": 10454,
    "Ġsighed": 10340,
    "gener": 3124,
    "Ġstrategies": 1840,
    "Ġdivided": 8635,
    "adr": 6995,
    "weekly": 25685,
    "uted": 7593,
    "Ġhuzza": 12639,
    "quet": 6835,
    "Ġdejection": 15200,
    "Ġhurried": 4028,
    "gee": 15982,
    "Ġpoll": 12034,
    "istry": 22113,
    "Ġscuttle": 7414,
    "Ġflirting": 16255,
    "Ġmeeting": 5193,
    "Ġgrego": 18962,
    "Ġante": 17898,
    "more": 1032,
    "Ġaccelerate": 23225,
    "presumption": 20445,
    "Ġpersisting": 18882,
    "Ġbermud": 26441,
    "Ġpurple": 10435,
    "Ġpromotion": 23197,
    "Ġreceiving": 4882,
    "Ġseverest": 14094,
    "Ġschedules": 3384,
    "Ġascending": 14857,
    "better": 7121,
    "Ġsouls": 6310,
    "Ġreminding": 19800,
    "ively": 1280,
    "icted": 5938,
    "Ġagricultural": 26552,
    "returns": 23143,
    "Ġindustry": 18839,
    "Ġemir": 23353,
    "Ġexcell": 10417,
    "Ġpike": 12629,
    "Ġencircling": 26273,
    "affect": 13215,
    "Ġtugged": 17291,
    "ľ": 255,
    "flask": 12104,
    "Ġul": 6828,
    "wholly": 10942,
    "oak": 21005,
    "Ġperuvian": 18453,
    "forming": 15923,
    "Ġxv": 23409,
    "Ġequality": 16366,
    "Ġroutine": 13510,
    "ickory": 22672,
    "Ġtattoo": 7359,
    "Ġcaulk": 25441,
    "Ġcontains": 2795,
    "admitted": 18094,
    "Ġamiable": 4267,
    "Ġcoach": 6867,
    "Ġnom": 21522,
    "Ġplu": 8803,
    "pagan": 17288,
    "Ġantagonist": 26330,
    "Ġsorely": 17259,
    "genteel": 19952,
    "arying": 9804,
    "Ġbelongs": 8015,
    "Ġcrotch": 9966,
    "Ġdistressed": 8517,
    "still": 4217,
    "Ġresolving": 9422,
    "Ġneedless": 19232,
    "Ġunder": 1636,
    "Ġuniformity": 23485,
    "Ġenjoyment": 7300,
    "variety": 23189,
    "ien": 10104,
    "Ġur": 5540,
    "Ġhoped": 5488,
    "Ġsalesman": 13672,
    "recollection": 25349,
    "Ġupstairs": 5837,
    "Ġdiscrimin": 2546,
    "Ġhint": 5016,
    "town": 7144,
    "crown": 13702,
    "shabb": 18499,
    "Ġheartfelt": 18968,
    "prepare": 20215,
    "Ġshops": 22005,
    "Ġindign": 6175,
    "Ġeffect": 970,
    "distinguished": 10529,
    "Ġmeanness": 22599,
    "Ġhoard": 23355,
    "Ġwhoever": 10974,
    "ina": 21182,
    "Ġmentioned": 4328,
    "Ġmoth": 17804,
    "Ġhenry": 5197,
    "Ġpeddling": 21485,
    "Ġbohemia": 10652,
    "Ġequival": 4783,
    "Ġpopular": 6218,
    "Ġfergus": 16869,
    "Ġspikes": 22140,
    "Ġingenious": 12352,
    "tasted": 17689,
    "Ġchallenge": 25472,
    "Ġbengal": 18786,
    "Ġimpreg": 15992,
    "Ġchange": 1996,
    "developed": 15268,
    "Ġirre": 7468,
    "Ġeffectively": 2637,
    "outre": 18322,
    "rub": 15898,
    "Ġsanction": 20029,
    "Ġestablish": 9546,
    "Ġbrows": 13303,
    "Ġoverwhelm": 25055,
    "Ġstim": 18066,
    "bud": 10686,
    "Ġjackal": 24242,
    "Ġmortified": 14697,
    "Ġungenerous": 18267,
    "nantucket": 7804,
    "Ġdeified": 18140,
    "perse": 15903,
    "Ġsmart": 11819,
    "Ġdisappo": 4505,
    "sleepy": 24728,
    "Ġrepublic": 14533,
    "Ġcobbler": 25831,
    "stains": 11640,
    "Ġmistaking": 23720,
    "Ġexpedite": 24956,
    "deceit": 25557,
    "Ġwhims": 12698,
    "Ġslack": 8958,
    "Ġwidows": 24239,
    "Ġadversary": 12178,
    "Ġstrove": 9960,
    "Ġprosecution": 12385,
    "Ġfur": 990,
    "Ġband": 5292,
    "lied": 6508,
    "Ġjot": 11767,
    "spl": 9142,
    "intentions": 22942,
    "spirits": 8055,
    "Ġch": 513,
    "husband": 8042,
    "Ġexhausted": 8697,
    "wrote": 11548,
    "Ġperfect": 2556,
    "Ġgrooves": 16743,
    "Ġunfor": 15844,
    "Ġmargaret": 10379,
    "Ġcaprice": 14579,
    "Ġsane": 21224,
    "ilight": 12699,
    "Ġdecember": 15009,
    "Ġshowing": 7732,
    "xible": 13811,
    "ichever": 13960,
    "commencement": 26350,
    "Ġeaglet": 19306,
    "Ġmeta": 3215,
    "points": 14396,
    "Ġharmony": 16816,
    "Ġdiagon": 24739,
    "failed": 20865,
    "Ġstraightened": 12113,
    "â": 163,
    "Ġsomehow": 4842,
    "Ġtribes": 20484,
    "ivory": 10271,
    "onds": 13000,
    "Ġlimping": 23549,
    "travel": 24337,
    "consideration": 14958,
    "Ġprodigies": 19796,
    "apply": 18761,
    "congreg": 25399,
    "gems": 20886,
    "Ġnail": 9198,
    "bon": 13688,
    "Ġtechni": 1723,
    "Ġfamous": 5256,
    "utter": 7594,
    "weather": 7229,
    "Ġhereditary": 10667,
    "with": 1298,
    "Ġtherefore": 2239,
    "Ġcourtiers": 24137,
    "Ġpom": 21455,
    "ivot": 11721,
    "Ġpalpitated": 26086,
    "Ġcond": 3873,
    "Ġskylarking": 19490,
    "Ġalliance": 18236,
    "Ġswinging": 7449,
    "Ġpiled": 8426,
    "intosh": 22943,
    "employ": 10896,
    "ions": 449,
    "Ġdegrees": 7294,
    "Ġartistic": 18613,
    "Ġesquimaux": 25154,
    "gown": 9599,
    "clo": 5613,
    "Ġneskyeuna": 26461,
    "Ġfath": 7364,
    "Ġdish": 6138,
    "Ġmerrily": 23733,
    "erted": 7361,
    "Ġinsol": 10183,
    "knowledge": 7478,
    "Ġstretch": 6994,
    "sequent": 6831,
    "Ġamericans": 14746,
    "unning": 4493,
    "Ġconsolidation": 5060,
    "rations": 10725,
    "Ġgnashed": 20136,
    "astes": 11743,
    "Ġsunwards": 19014,
    "Ġsevent": 18203,
    "Ġintuitions": 17344,
    "stript": 21660,
    "hor": 2572,
    "Ġpraises": 16732,
    "Ġfinished": 5044,
    "Ġdeformed": 14050,
    "Ġentailed": 11027,
    "Ġcontingency": 26246,
    "Ġmoby": 3665,
    "ske": 13785,
    "waste": 21137,
    "Ġremonstrate": 22794,
    "Ġremember": 2678,
    "games": 20882,
    "sav": 8097,
    "Ġchambers": 16801,
    "Ġcards": 7581,
    "Ġnorms": 3666,
    "Ġfries": 21418,
    "block": 11471,
    "Ġblankets": 24612,
    "Ġlandlady": 10424,
    "Ġwedged": 24936,
    "Ġtidings": 11398,
    "Ġergo": 25032,
    "Ġsales": 12813,
    "Ġfam": 1585,
    "ĠĠĠĠĠĠĠĠĠĠĠĠĠĠĠĠĠĠĠĠĠĠĠĠĠĠĠĠĠĠĠĠ": 2738,
    "slipped": 25530,
    "Ġplunge": 13446,
    "Ġvomit": 21950,
    "Ġadmiring": 16483,
    "Ġconsiderations": 9413,
    "obey": 11511,
    "ermaid": 14302,
    "government": 25407,
    "Ġ9": 5902,
    "therefore": 5955,
    "Ġexp": 777,
    "Ġfashion": 4296,
    "Ġfascinating": 17331,
    "gorith": 551,
    "Ġfins": 9666,
    "Ġbraved": 23841,
    "aker": 3663,
    "Ġvillainous": 25134,
    "Ġresearch": 2769,
    "Ġmeanest": 12916,
    "osity": 14188,
    "welt": 12525,
    "Ġkith": 22196,
    "Ġreco": 9794,
    "Ġunexpl": 22041,
    "Ġshine": 12772,
    "Ġcovers": 18591,
    "olog": 1049,
    "Ġashen": 21903,
    "faith": 15027,
    "ustomed": 6100,
    "begging": 22500,
    "Ġdeploy": 2827,
    "Ġdefy": 11901,
    "Ġportents": 14681,
    "Ġoccupy": 14734,
    "Ġcordon": 24394,
    "Ġthither": 6821,
    "syntax": 5868,
    "Ġfills": 12600,
    "Ġpatience": 2568,
    "consid": 4925,
    "ithmetic": 18064,
    "Ġpecks": 18669,
    "later": 20955,
    "Ġadm": 2403,
    "Ġepid": 18007,
    "eping": 5834,
    "Ġexclaimed": 4683,
    "Ġlicence": 25099,
    "Ġcells": 13888,
    "Ġfasc": 12604,
    "putting": 14103,
    "ierce": 14394,
    "Ġdivin": 13275,
    "measured": 19993,
    "nosed": 20994,
    "och": 21003,
    "Ġplainly": 4380,
    "offers": 16400,
    "Ġallev": 18103,
    "ishments": 9276,
    "Ġscaffold": 18401,
    "Ġharpooning": 23982,
    "acknowledge": 18470,
    "Ġ134": 24783,
    "attain": 21264,
    "Ġhighest": 3528,
    "ecess": 17534,
    "iony": 9194,
    "Ġtwisting": 18658,
    "pe": 1437,
    "gradient": 2274,
    "Ġimmemorial": 10513,
    "Ġencamped": 22805,
    "Ġreplenished": 13639,
    "Ġobservable": 25129,
    "Ġinterrupted": 6345,
    "Ġcooking": 16649,
    "tallied": 21092,
    "solely": 19819,
    "Ġcatholic": 20684,
    "hears": 12538,
    "Ġken": 22195,
    "Ġmanxman": 9568,
    "Ġpray": 3897,
    "Ġmedit": 8025,
    "Ġfeedforward": 2329,
    "Ġinsult": 6749,
    "sweeping": 24619,
    "Ġdiffered": 22714,
    "itche": 7579,
    "accompan": 11453,
    "about": 3586,
    "Ġhorsham": 10408,
    "Ġappet": 9734,
    "Ġmuseum": 15275,
    "vain": 15451,
    "Ġlasted": 11054,
    "erpillar": 5798,
    "istol": 6261,
    "Ġslaughtered": 26586,
    "Ġinsipid": 26314,
    "A": 37,
    "Ġwharf": 9562,
    "Ġwrithed": 17107,
    "Ġholding": 4979,
    "Ġease": 5629,
    "kitchen": 17587,
    "Ġcolder": 22859,
    "Ġsuccour": 20438,
    "Ġsky": 3967,
    "Ġcreep": 22724,
    "restored": 18979,
    "Ġprodigy": 19795,
    "Ġconverted": 16117,
    "Ġunful": 22014,
    "Ġscene": 3096,
    "Ġplains": 14625,
    "arding": 22161,
    "repeating": 20132,
    "Ġslender": 11944,
    "Ġmended": 21316,
    "cursed": 23847,
    "ago": 14068,
    "hyme": 19612,
    "ars": 905,
    "Ġstri": 2805,
    "Ġwh": 328,
    "Ġformality": 22831,
    "Ġfact": 1728,
    "eh": 13713,
    "Ġindepend": 3668,
    "labour": 23918,
    "ms": 539,
    "rolling": 9063,
    "Ġdusk": 12331,
    "Ġcretan": 22726,
    "iations": 11496,
    "Ġsemicirc": 16398,
    "Ġnoises": 18375,
    "isted": 3296,
    "Ġengaging": 9339,
    "incidentally": 20543,
    "Ġsatur": 1931,
    "Ġstriding": 16098,
    "Ġpulling": 5864,
    "Ġdesperate": 7777,
    "Ġwhirlwinds": 20468,
    "Ġow": 8409,
    "athed": 7828,
    "Ġcomforted": 19394,
    "Ġsacri": 18329,
    "Ġspectacles": 12102,
    "Ġaquiline": 26160,
    "Ġghost": 6144,
    "gr": 2087,
    "Ġblow": 3372,
    "asburgh": 15652,
    "Ġlamp": 4111,
    "Ġperiods": 13306,
    "Ġsoil": 9258,
    "fem": 17539,
    "collecting": 26082,
    "Ġinstigated": 18697,
    "afflicted": 23780,
    "Ġmasses": 10506,
    "ene": 2169,
    "Ġdarting": 7757,
    "Ġassaulted": 25321,
    "Ġobstinate": 11337,
    "Ġeyelids": 26108,
    "Ġresounded": 22548,
    "Ġguns": 16778,
    "Ġwhose": 2010,
    "Ġinvariable": 13459,
    "Ġreproof": 24891,
    "disgraceful": 26077,
    "Ġpoints": 5249,
    "¯": 112,
    "Ġaust": 4871,
    "Ġsentiments": 7961,
    "Ġdisappearing": 22537,
    "Ġpool": 5173,
    "Ġunwritten": 22036,
    "Ġattempting": 14699,
    "Ġfle": 3089,
    "overed": 2855,
    "pal": 9619,
    "Ġposit": 1306,
    "tremble": 17144,
    "droppers": 24758,
    "iage": 17575,
    "rumours": 23924,
    "Ġimprecate": 20521,
    "quite": 4647,
    "uses": 11765,
    "each": 7335,
    "message": 17375,
    "Ġoverlooked": 15979,
    "Ġbawling": 25946,
    "Ġpred": 664,
    "yet": 3752,
    "Ġgods": 6455,
    "mering": 12495,
    "pper": 3208,
    "Ġsternly": 16717,
    "Ġsusp": 2664,
    "Ġgenerations": 10971,
    "Ġliver": 14230,
    "Ġprizes": 13077,
    "ifting": 6547,
    "Ġintelligences": 12837,
    "Ġstirs": 14920,
    "Ġregularity": 22795,
    "Ġoccasional": 7289,
    "Ġascertaining": 17206,
    "Ġacquiesced": 25494,
    "impressed": 12697,
    "Ġqueequeg": 2014,
    "boys": 13363,
    "gs": 7338,
    "Ġnoisy": 13322,
    "bots": 10085,
    "Ġflatter": 9351,
    "Ġabsurdly": 19963,
    "calculation": 25689,
    "consum": 12876,
    "arm": 1355,
    "Ġthese": 820,
    "Ġbroke": 5323,
    "Ġinde": 7371,
    "owl": 12690,
    "Ġungover": 18256,
    "arpo": 1754,
    "tick": 17680,
    "Ġanalog": 12618,
    "nets": 9135,
    "Ġ1950": 11360,
    "Ġtorrents": 20059,
    "rol": 5713,
    "bies": 15316,
    "Ġpotential": 3620,
    "Ġsnatch": 14641,
    "Ġ1869": 19387,
    "Ġbugs": 13651,
    "Ġfurniture": 6477,
    "Ġpronounced": 8351,
    "Ġinfl": 6894,
    "Ġhideousness": 16917,
    "Ġbildad": 3781,
    "alf": 4639,
    "Ġthackeray": 26457,
    "Ġbedrooms": 19973,
    "Ġbarque": 23792,
    "Ġrevolving": 9986,
    "Ġinjurious": 24273,
    "Ġwapping": 21297,
    "mons": 17602,
    "unavoid": 14065,
    "Ġunwarrant": 19936,
    "Ġactionable": 24560,
    "Ġtype": 2021,
    "mud": 20974,
    "Ġstash": 18070,
    "Ġparlour": 12325,
    "Ġcoronet": 6346,
    "Ġnoise": 1072,
    "Ġinjury": 10543,
    "Ġquietly": 4567,
    "reluct": 26164,
    "Ġimprove": 1871,
    "ayed": 12718,
    "say": 3981,
    "Ġcrown": 5289,
    "Ġvirtuous": 14758,
    "girls": 12323,
    "Ġcherub": 23290,
    "Â": 131,
    "Ġknights": 15153,
    "Ġmisgivings": 15294,
    "rely": 6125,
    "atic": 4014,
    "Ġgl": 1257,
    "Ġdeparted": 5563,
    "Ġqueen": 3211,
    "successfully": 14994,
    "ping": 9618,
    "raham": 18016,
    "Ġhorribly": 16347,
    "Ġremainder": 9861,
    "Ġcommunicate": 10580,
    "Ġventing": 19496,
    "Ġ123": 24468,
    "ipt": 12483,
    "nav": 17614,
    "Ġhighly": 4845,
    "Ġsk": 960,
    "Ġtranced": 18422,
    "Ġmoodily": 19837,
    "chant": 4256,
    "Ġviii": 16418,
    "Ġ550": 19639,
    "Ġwaning": 15538,
    "Ġclin": 14204,
    "Ġcontributes": 15254,
    "Ġsenseless": 12083,
    "Ġspars": 3809,
    "Ġbeeches": 9229,
    "join": 12118,
    "Ġtransferred": 16464,
    "Ġgets": 10841,
    "Ġres": 696,
    "Ġmbpp": 21325,
    "ected": 7873,
    "'(": 2978,
    "Ġpriority": 19765,
    "Ġ84": 19712,
    "Ġtalker": 23374,
    "manif": 14376,
    "Ġsoaring": 22087,
    "Ġtex": 15476,
    "bourgh": 19105,
    "bottle": 20148,
    "Ġpains": 5966,
    "Ġperry": 22399,
    "luckily": 19755,
    "Ġmitig": 1335,
    "specul": 23946,
    "Ġcertainly": 2496,
    "whel": 7665,
    "merchant": 10469,
    "Ġbecomes": 6397,
    "cab": 7333,
    "Ġboat": 1277,
    "helmsman": 24289,
    "rum": 3469,
    "enances": 10156,
    "pumps": 21029,
    "Ġnetwork": 451,
    "hens": 3935,
    "Ġrepair": 11983,
    "Ġmyst": 4046,
    "admirably": 24947,
    "Ġprepar": 7897,
    "Ġcurses": 13017,
    "Ġpolar": 9414,
    "Ġlocations": 12416,
    "arctic": 12616,
    "Ġtenderly": 11315,
    "Ġboasted": 16111,
    "Ġadver": 5641,
    "Ġmagn": 1554,
    "Ġingenuity": 17166,
    "Ġprints": 16334,
    "Ġillustration": 19137,
    "turtle": 12216,
    "iary": 15374,
    "Ġener": 10897,
    "iqu": 7803,
    "Ġdiamond": 15604,
    "Ġdespised": 14669,
    "suggested": 17302,
    "boats": 6206,
    "sudden": 5316,
    "Ġsupreme": 13610,
    "Ġimpediments": 26242,
    "Ġascent": 19621,
    "windows": 19537,
    "Ġdrawling": 19440,
    "istic": 973,
    "Ġwrite": 3820,
    "liking": 22927,
    "Ġunguarded": 15855,
    "spass": 18686,
    "Ġshan": 9252,
    "estic": 4956,
    "anyth": 5438,
    "alot": 15631,
    "Ġunpleasant": 7191,
    "bag": 7542,
    "designated": 26320,
    "Ġentered": 2847,
    "Ġunabated": 15857,
    "adays": 14016,
    "_:": 17481,
    "opposition": 24820,
    "Ġwho": 612,
    "bow": 5424,
    "Ġundisturbed": 19522,
    "gabriel": 15364,
    "Ġreel": 9216,
    "Ġnote": 4261,
    "scotch": 25852,
    "Ġdelightfully": 13161,
    "Ġmenaced": 16297,
    "Ġresignation": 18567,
    "Ġshoal": 12020,
    "Ê": 139,
    "prove": 11148,
    "Ġsund": 8248,
    "Ġsympat": 13344,
    "Ġunited": 6840,
    "Ġignorant": 5344,
    "gree": 10703,
    "numer": 15403,
    "Ġfifth": 11258,
    "Ġponder": 6819,
    "Ġbutcher": 18272,
    "Ġbetween": 792,
    "Ġlunch": 13528,
    "grand": 7971,
    "Ġblinding": 14731,
    "Ġinsatiate": 19272,
    "Ġcourage": 4634,
    "olerably": 11676,
    "Ġworrying": 22930,
    "dirty": 20836,
    "ishness": 22346,
    "Ġperceptibly": 25822,
    "playful": 24357,
    "Ġchildren": 3767,
    "Ġrecently": 11865,
    "tashtego": 9625,
    "Ġpref": 14174,
    "Ġsyntax": 956,
    "ances": 1336,
    "Ġlord": 2965,
    "eminence": 20102,
    "ributed": 8215,
    "carefully": 13372,
    "Ġweltering": 19588,
    "Ġdistribution": 2020,
    "Ġlondon": 2841,
    "aet": 15311,
    "yramid": 8368,
    "Ġargu": 10935,
    "Ġdiligence": 17115,
    "dig": 4930,
    "Ġleaving": 3902,
    "Ġdum": 10813,
    "pans": 13773,
    "Ġpoison": 7219,
    "garnished": 26390,
    "dles": 11482,
    "enjoyments": 25434,
    "Ġdocument": 15021,
    "requirements": 24858,
    "Ġmyster": 5927,
    "Ġrevers": 21667,
    "Ġsweetness": 9449,
    "Ġprimitive": 25064,
    "frequent": 15357,
    "cap": 8373,
    "unpardonable": 21894,
    "Ġtwenty": 3947,
    "itors": 2914,
    "mies": 20970,
    "Ġphr": 2681,
    "tails": 21089,
    "rents": 5310,
    "ingale": 21302,
    "Ġpro": 360,
    "why": 2831,
    "disposed": 25013,
    "ts": 958,
    "Ġnowadays": 18547,
    "possessed": 9531,
    "avish": 22597,
    "Ġdepends": 1078,
    "oughed": 22090,
    "feit": 16046,
    "sens": 8096,
    "instr": 12536,
    "Ġsearching": 13165,
    "entropy": 1438,
    "Ġcasket": 19727,
    "Ġconcept": 660,
    "Ġstriving": 8999,
    "Ġgermans": 25785,
    "Ġrewards": 10849,
    "Ġended": 7950,
    "B": 38,
    "Ġsimultaneous": 22589,
    "remarkable": 13500,
    "lively": 12489,
    "Ġblooming": 17215,
    "manners": 16188,
    "Ġshudderings": 25201,
    "man": 1053,
    "Ġpunish": 12164,
    "resolution": 17768,
    "Ġslightly": 7293,
    "merit": 19283,
    "Ġlagged": 21561,
    "leaving": 10793,
    "disreputable": 23505,
    "Ġsauc": 15893,
    "Ġmeasuring": 22887,
    "Ġsurmount": 20004,
    "thouse": 21986,
    "Ġbast": 21382,
    "Ġlips": 3988,
    "Ġwasn": 6998,
    "tland": 21076,
    "Ġdirty": 9181,
    "Ġum": 10214,
    "Ġdangers": 12358,
    "Ġlapse": 17123,
    "Ġsuffer": 4722,
    "erable": 1917,
    "taught": 17686,
    "etent": 10202,
    "Ġrespects": 7269,
    "88": 20760,
    "culine": 19067,
    "Ġmir": 9649,
    "happiest": 19334,
    "Ġpaddles": 15151,
    "someone": 14566,
    "Ġlustre": 15138,
    "Ġmaggie": 26293,
    "Ġbucket": 8792,
    "Ġplatform": 17134,
    "Ġawful": 6201,
    "Ġdivergence": 2727,
    "Ġinstructions": 11197,
    "vine": 10736,
    "Ġmade": 1048,
    "Ġnimble": 21531,
    "Ġmonica": 22990,
    "Ġbefriend": 18084,
    "Ġbir": 17855,
    "Ġgathered": 8444,
    "Ġpads": 21477,
    "Ġloath": 7891,
    "Ġincorporate": 20457,
    "arius": 14251,
    "mel": 9130,
    "Ġtow": 4395,
    "Ġblackest": 19100,
    "Ġdismasted": 15255,
    "Ľ": 254,
    "Ġthinker": 22812,
    "accountable": 7111,
    "onah": 3335,
    "Ġeyford": 10644,
    "Ġmarvel": 23038,
    "ood": 963,
    "Ġwounded": 8661,
    "killer": 20479,
    "Ġshutting": 14762,
    "sides": 12512,
    "lady": 4433,
    "des": 3171,
    "Ġconcealed": 7495,
    "osed": 1961,
    "ifications": 9731,
    "Ġexcite": 11970,
    "Ġreaction": 15700,
    "oa": 9615,
    "Ġhumour": 7932,
    "hur": 6651,
    "ser": 1427,
    "Ġeluc": 16114,
    "Ġlavater": 20499,
    "icts": 22403,
    "scot": 14421,
    "Ġoperate": 19117,
    "artic": 14228,
    "Ġtransfer": 2277,
    "Ġdetection": 3408,
    "avast": 8900,
    "roman": 22008,
    "ensils": 22552,
    "metallic": 19882,
    "alyards": 18783,
    "aloons": 20014,
    "Ġon": 351,
    "Ġsneeze": 24698,
    "Ġmoul": 15549,
    "Ġasia": 11686,
    "Ġladies": 3193,
    "Ġmany": 1110,
    "Ġbedford": 7475,
    "unimportant": 18162,
    "Ġdashed": 6011,
    "bar": 7541,
    "ater": 3368,
    "trucks": 25420,
    "Ġink": 8807,
    "Ġinsolent": 13603,
    "organ": 15579,
    "Ġbuttoned": 25369,
    "nui": 21002,
    "Ġlandless": 23382,
    "ia": 1259,
    "yl": 7818,
    "zwilliam": 5074,
    "Ġtw": 840,
    "Ġcrib": 21351,
    "alarmed": 21506,
    "por": 2148,
    "Ġsensitiveness": 23736,
    "Ġtrout": 22348,
    "flood": 19809,
    "Ġvirtual": 11241,
    "Ġwines": 21290,
    "Ġstumbling": 21746,
    "Ġbuttons": 12787,
    "Ġsprout": 24090,
    "Ġvap": 6837,
    "wait": 11321,
    "Ġhue": 8430,
    "Ġpalpable": 15209,
    "Ġreject": 7386,
    "theast": 21752,
    "Ġutterly": 6102,
    "crimson": 24088,
    "marry": 13327,
    "Ġsinews": 20290,
    "Ġmem": 2163,
    "Ġmarching": 16698,
    "ioning": 21512,
    "Ġstrokes": 16771,
    "Ġgaol": 19570,
    "Ġinherited": 25354,
    "Ġhabitations": 24788,
    "Ġinquired": 7485,
    "Ġlightly": 13087,
    "peculiar": 6886,
    "Ġodd": 6627,
    "Ġadequ": 10914,
    "Ġlot": 6680,
    "Ġundulated": 19519,
    "dl": 20825,
    "Ġvind": 10252,
    "bour": 2074,
    "Ġinside": 5448,
    "avenza": 17105,
    "Ġmut": 3582,
    "yellow": 9627,
    "securing": 19816,
    "circumstance": 7764,
    "oriental": 23722,
    "Ġinland": 11610,
    "protection": 19922,
    "gences": 20879,
    "Ġredundant": 16553,
    "sensations": 20054,
    "Ġcompunction": 18586,
    "separation": 25227,
    "Ġsteersman": 13046,
    "Ġsimil": 2532,
    "inhab": 10759,
    "ounders": 22397,
    "Ġforge": 8458,
    "Ġcounting": 13100,
    "Ġrake": 18644,
    "archical": 1926,
    "idirectional": 2422,
    "watches": 14950,
    "Ġunrestrained": 25555,
    "Ġlogic": 13081,
    "Ġempire": 11146,
    "little": 3349,
    "Ġoffic": 3187,
    "Ġbowled": 23771,
    "Ġthreading": 23405,
    "Ġensuring": 11192,
    "desirable": 23813,
    "Ġforeboding": 20387,
    "Ġjollity": 25567,
    "Ġdestabilizing": 5053,
    "harpooneers": 8693,
    "_)": 9105,
    "Ġgro": 4396,
    "Ġstorm": 4299,
    "Ġconsequ": 6256,
    "beside": 19879,
    "Ġtort": 5903,
    "Ġheight": 4218,
    "Ġexternal": 8365,
    "Ġincarnate": 20378,
    "deal": 12805,
    "Ġdeaths": 14539,
    "Ġtunes": 24620,
    "others": 7670,
    "Ġdavis": 25953,
    "Ġloos": 15876,
    "ulled": 14059,
    "Ġ13": 6720,
    "Ġencompassed": 15257,
    "Ġbruited": 25774,
    "Ġhysterical": 26093,
    "Ġlizz": 21560,
    "Ġparts": 4163,
    "Ġemigrant": 25860,
    "match": 15394,
    "Ġnursed": 16887,
    "Ġstock": 7455,
    "Ġreduce": 7943,
    "Ġunthink": 18248,
    "acca": 23599,
    "lads": 20957,
    "Ġpenal": 1773,
    "Ġregimentals": 19860,
    "reigned": 21245,
    "ed": 293,
    "Ġdenying": 14660,
    "Ġu": 324,
    "Ġlinen": 12411,
    "cloud": 11106,
    "adventurous": 25362,
    "orton": 11760,
    "Ġconsternation": 9862,
    "iries": 18172,
    "interred": 23738,
    "Ġcarried": 3693,
    "Ġtrade": 2547,
    "Ġmannish": 26239,
    "Ġcouch": 12577,
    "Ġknots": 15011,
    "Ġtemples": 18639,
    "Ġscaling": 3632,
    "Ġabstract": 17184,
    "Ġtoilings": 24741,
    "burned": 25082,
    "Ġabundant": 17157,
    "ference": 1884,
    "Ġbands": 14887,
    "attempted": 20177,
    "Ġmutilated": 23962,
    "Ġclanging": 18424,
    "Ġdisposing": 19378,
    "Ġtrapped": 23080,
    "Ġcane": 10928,
    "Ġornam": 15869,
    "prospect": 23399,
    "cowardly": 25750,
    "iality": 8848,
    "Ġshould": 865,
    "Ġmounttop": 19981,
    "Ġ79": 24267,
    "another": 5439,
    "Ġverdant": 15004,
    "Ġbuoyed": 20044,
    "Ġstreaked": 19115,
    "Ġkills": 15911,
    "properly": 24919,
    "Ġalarm": 4043,
    "commun": 15036,
    "Ġdimension": 3240,
    "Ġinstead": 2792,
    "Ġtight": 8108,
    "recl": 15514,
    "ibly": 2994,
    "Ġstrewed": 23424,
    "Ġgrunt": 18736,
    "mody": 16189,
    "Ġorange": 8489,
    "Ġdireful": 11019,
    "feared": 11806,
    "Ġlab": 1873,
    "really": 6972,
    "Ġdromed": 15602,
    "Ġdomes": 23677,
    "felt": 5890,
    "Ġverse": 16604,
    "Ġmice": 13862,
    "ider": 21769,
    "Ġservices": 11218,
    "marrying": 19550,
    "Ġmusk": 7494,
    "Ġxiv": 23410,
    "Ġwhile": 607,
    "ĠĠĠĠĠĠ": 6415,
    "perfect": 7635,
    "Ġtoes": 10831,
    "miniature": 16767,
    "Ġvindication": 25365,
    "Ġcalculated": 4475,
    "subjects": 19878,
    "Ġaccidental": 16850,
    "Ġott": 13869,
    "Ġconveniences": 19815,
    "Ġalthough": 4148,
    "Ġlodged": 11252,
    "Ġhumph": 22888,
    "Ġcomprehended": 11295,
    "compan": 7301,
    "Ġafforded": 8029,
    "calmly": 20142,
    "Ġafrica": 12349,
    "im": 327,
    "Ġspir": 2429,
    "Ġskil": 14354,
    "Ġunmolested": 15249,
    "esley": 17904,
    "Ġtails": 9905,
    "Ġratio": 5066,
    "Ġappropriated": 23486,
    "comparatively": 25841,
    "Ġmum": 13861,
    "Ġaugmentation": 20119,
    "dead": 8180,
    "Ġsurmisings": 26595,
    "Ġhandsom": 11125,
    "Ġbott": 3146,
    "nels": 12500,
    "Ġdragon": 14947,
    "Ġfoot": 3159,
    "companies": 24895,
    "delighted": 10565,
    "Ġapprehen": 16831,
    "Ġlivelihood": 24773,
    "singular": 12193,
    "becomes": 22499,
    "Ġprotesting": 14744,
    "Ġb": 281,
    "thy": 2934,
    "oam": 8755,
    "Ġuniform": 2227,
    "preservation": 25306,
    "Ġhandling": 8916,
    "Ġben": 1114,
    "Ġcons": 952,
    "!âĢĶ": 2455,
    "==": 944,
    "Ġbundles": 26176,
    "ctu": 5088,
    "Ġones": 3019,
    "bird": 9588,
    "loaded": 22514,
    "Ġchoking": 15939,
    "Ġsurmise": 12299,
    "Ġforth": 3462,
    "Ġdisconsolate": 20721,
    "Ġinsensibility": 17111,
    "Ġapologies": 25197,
    "itudes": 3014,
    "browed": 25895,
    "Ġdisp": 3356,
    "Ġevent": 2951,
    "ĥ": 230,
    "aders": 21762,
    "decoder": 3645,
    "Ġoverbearing": 12850,
    "Ġlandlessness": 23383,
    "Ġbridge": 8349,
    "Ġwhether": 2002,
    "quished": 21852,
    "Ġsplashed": 23749,
    "Ġlabeled": 3718,
    "Ġpettiness": 24232,
    "Ġgrasping": 12170,
    "Ġincomp": 12903,
    "Ġforegoing": 23450,
    "Ġalgorithms": 844,
    "Ġpear": 11856,
    "Ġembarrassed": 11385,
    "scene": 14423,
    "Ġbunger": 9999,
    "Ġhasn": 12933,
    "Ġscrews": 25178,
    "Ġcoppers": 22586,
    "Ġstockings": 20000,
    "Ġcourtesy": 9948,
    "coming": 3561,
    "Ġadmirals": 20388,
    "Ġdevotion": 22722,
    "grounds": 11152,
    "Ġcaress": 16344,
    "Ġpastures": 23422,
    "supernatural": 19782,
    "Ġharbour": 19983,
    "Ġabstra": 22275,
    "fact": 6360,
    "Ġdigesting": 19812,
    "Ġpemberley": 4588,
    "Ġequatorial": 13512,
    "Ġinquiring": 9002,
    "Ġcruelly": 13378,
    "Ġ*/": 10376,
    "Ġpainting": 13144,
    "excepting": 19709,
    "smith": 5669,
    "Ġregretted": 13403,
    "Ġmansfield": 25939,
    "Ġbee": 21753,
    "Ġsupper": 4666,
    "Ġauger": 21206,
    "text": 1975,
    "thus": 5158,
    "Ġspoil": 17009,
    "Ĵ": 245,
    "Ġcommodores": 25375,
    "ulate": 5233,
    "give": 4689,
    "afer": 17484,
    "Ġ42": 16680,
    "Ġhanging": 5447,
    "Ġrefuse": 5739,
    "Ġsaddest": 16665,
    "Ġkuiperai": 10936,
    "zza": 24169,
    "berries": 22748,
    "obliged": 20634,
    "rically": 15421,
    "nings": 9134,
    "Ġval": 961,
    "ĠâĢľâĢĻ": 22258,
    "Ġmeryton": 4438,
    "breath": 15166,
    "fl": 3599,
    "Ġup": 462,
    "Ġanswered": 2853,
    "Ġworkflow": 2385,
    "Ġdarkly": 19116,
    "rised": 10126,
    "pierced": 26142,
    "Ġextant": 18698,
    "ham": 1700,
    "Ġregained": 18601,
    "Ġhardihood": 23117,
    "Ġbehalf": 14511,
    "encoun": 12302,
    "uncommon": 11685,
    "lighted": 23756,
    "Ġpinch": 15019,
    "Ġthoughtfulness": 18776,
    "sterdam": 19091,
    "Ġacknowledges": 24689,
    "Ġbashee": 19851,
    "Ġparaphrasing": 26528,
    "Ġponderous": 8355,
    "ration": 2006,
    "Ġaffront": 18790,
    "ignorance": 17164,
    "ashtego": 4099,
    "Ġtide": 6661,
    "mat": 2198,
    "arches": 10818,
    "sue": 2078,
    "Ġshattered": 7884,
    "Ġpretext": 22233,
    "greenland": 10024,
    "emper": 18188,
    "âĢĶâĢĶâĢĿ": 15944,
    "Ġgang": 9210,
    "Ġhangs": 11608,
    "Ġchair": 3662,
    "Ġhull": 5446,
    "Ġamused": 11803,
    "Ġdismissed": 12898,
    "Ġwarmth": 6905,
    "remember": 7262,
    "Ġscepticism": 25928,
    "sper": 4435,
    "Ġfraud": 19030,
    "lac": 17591,
    ".}": 20747,
    "Ġrequesting": 24633,
    "eat": 11484,
    "Ġapologize": 15132,
    "Ġfrightens": 24033,
    "Ġpremature": 3725,
    "Ġriggers": 24158,
    "Ġlawy": 9457,
    "Ġshone": 7404,
    "arers": 12134,
    "Ġexpressive": 8985,
    "bing": 7792,
    "perceive": 12816,
    "pse": 21011,
    "ople": 2321,
    "etwork": 442,
    "Ġpenny": 16317,
    "Ġdeliberately": 10627,
    "icirc": 15661,
    "cooks": 25070,
    "rers": 14721,
    "Ġfulfilment": 20190,
    "Ġfatally": 19397,
    "benevolently": 25601,
    "bra": 6221,
    "eagerly": 17319,
    "Ġdrew": 3536,
    "Ġsignals": 10588,
    "Ġcivility": 4788,
    "Ġformal": 2942,
    "honorable": 19903,
    "kward": 6958,
    "Ġspaces": 3109,
    "Ġignominy": 15089,
    "Ġtuples": 13480,
    "attery": 18515,
    "Ġinsect": 12642,
    "Ġsqualls": 17022,
    "leather": 13893,
    "Ġtotal": 4993,
    "Ġfer": 5529,
    "doms": 20837,
    "Ġharpo": 1943,
    "Ġmarsh": 9824,
    "Ġtwelvemonth": 12182,
    "Ġcheerful": 6624,
    "Ġo": 275,
    "Ġprojecting": 9988,
    "yden": 21146,
    "Ġleadenhall": 16631,
    "angry": 18295,
    "Ġverify": 12092,
    "Ġquart": 11791,
    "Ġrobust": 1297,
    "Ġlatest": 16824,
    "Ġgossiping": 26245,
    "Ġprometheus": 15296,
    "weigh": 18665,
    "invest": 11561,
    "Ġtomahawk": 7539,
    "tha": 15828,
    "Ġacknowledge": 13405,
    "Ġeigen": 4881,
    "ĠĠĠĠĠĠĠĠĠĠĠĠĠĠĠĠĠĠĠĠĠĠĠĠĠĠĠĠĠĠĠĠĠĠĠĠĠĠĠĠĠĠĠ": 12159,
    "Ġentry": 11026,
    "horses": 17569,
    "Ġhaste": 9006,
    "cottage": 9572,
    "otam": 21802,
    "dancing": 12459,
    "Ġreiterating": 26476,
    "Ġattentive": 9036,
    "Ġapproved": 16040,
    "Ġfood": 5080,
    "Ġspoiled": 11364,
    "thro": 12767,
    "itt": 570,
    "harpooneer": 8692,
    "ospel": 17012,
    "elements": 25204,
    "ember": 1957,
    "Ġappe": 1538,
    "jected": 22717,
    "Ġpersonal": 7479,
    "Ġ133": 24782,
    "Ġcol": 1065,
    "Ġabsolut": 3908,
    "Ġspaniards": 25556,
    "Ġjoints": 12039,
    "Ġsingle": 1691,
    "Ġorbs": 22096,
    "Ġbonds": 17871,
    "Ġbordering": 17231,
    "Ġpassion": 4557,
    "marest": 20982,
    "Ġextravagant": 17281,
    "aulding": 11340,
    "Ġjungfrau": 15252,
    "Ġbellies": 13359,
    "Ġeducated": 16787,
    "Ġtrampling": 25493,
    "allowed": 5728,
    "Ġvertu": 23893,
    "Ġwednesday": 9087,
    "within": 6732,
    "helped": 18927,
    "barbar": 20241,
    "sweet": 8689,
    "Ġpocket": 4898,
    "Ġirish": 14536,
    "Ġencoura": 1366,
    "Ġdespaired": 14671,
    "Ġvalue": 2086,
    "irresist": 21916,
    "aces": 2070,
    "squee": 15434,
    "darker": 24516,
    "Ġassemblage": 26354,
    "Ġconfronted": 23312,
    "Ġmary": 3843,
    "terogene": 21829,
    "Ġdisease": 14260,
    "Ġrowing": 10303,
    "Ġperil": 5557,
    "Ġnightfall": 23135,
    "Ġrising": 4354,
    "Ġsentry": 19027,
    "Ġje": 4120,
    "Ġaloof": 21789,
    "fights": 20867,
    "Ġdepos": 11007,
    "Ġits": 707,
    "Ġpractically": 13099,
    "Ġcomfortably": 16617,
    "Ġsteeple": 19289,
    "impregn": 21717,
    "Ġevid": 3500,
    "Ġvisage": 18767,
    "Ġinvaluable": 10185,
    "Ġretreats": 16930,
    "Ġnibbling": 17388,
    "indul": 22374,
    "spikes": 10343,
    "danger": 10092,
    "Ġprinted": 11953,
    "activity": 22636,
    "most": 1258,
    "Ġimpregn": 26023,
    "caterpillar": 26385,
    "Ġadorn": 12796,
    "Ġpity": 4941,
    "Ġcontextually": 11961,
    "bolt": 25138,
    "abby": 14024,
    "Ġnarrowly": 16822,
    "ived": 1531,
    "Ġvoc": 4451,
    "conjecturing": 20137,
    "Ġheap": 12684,
    "Ġhandled": 12943,
    "mur": 5428,
    "Ġmutable": 23958,
    "Ġantique": 19554,
    "Ġleg": 2337,
    "izers": 18145,
    "denial": 18717,
    "smiled": 16616,
    "ateg": 1386,
    "Ġnewton": 3532,
    "Ġabsurd": 7202,
    "Ġfaulty": 14910,
    "Ġordering": 18998,
    "breast": 11247,
    "Ġheels": 10851,
    "consciously": 19628,
    "ident": 3377,
    "Ġmarshal": 20222,
    "sig": 2875,
    "Ġterra": 13121,
    "Ġazores": 20196,
    "model": 4613,
    "Ġcentury": 8291,
    "Ġguests": 12291,
    "Ġorders": 5341,
    "Ġwrinkled": 7264,
    "Ġimbec": 14159,
    "Ġincantation": 26259,
    "Ġsupposing": 6731,
    "upp": 10133,
    "Ġskeletons": 16793,
    "Ġobserv": 8589,
    "architect": 22877,
    "Ġjovial": 19236,
    "neighbourhood": 10028,
    "Ġwidely": 8033,
    "ibule": 13011,
    "Ġmontan": 22988,
    "Ġnorris": 23204,
    "reng": 3999,
    "Ġjar": 15955,
    "umberland": 16839,
    "ness": 851,
    "ns": 751,
    "find": 6954,
    "Ġolive": 12570,
    "Ġstraightway": 9020,
    "Ġmixture": 9565,
    "Ġalone": 2566,
    "idy": 21768,
    "Ġinvented": 17038,
    "bits": 17491,
    "tum": 11533,
    "descried": 11933,
    "tisement": 6768,
    "Ġdivinely": 25723,
    "Ġpond": 13919,
    "Ġcot": 13880,
    "Ġremembering": 14613,
    "extreme": 11029,
    "nowadays": 22342,
    "Ġspies": 22132,
    "Ġrecord": 5317,
    "Ġdepresses": 25798,
    "Ġbricks": 13565,
    "gaff": 20884,
    "Ġhoot": 19078,
    "Ġstyled": 24672,
    "philips": 20038,
    "Ġwondrously": 24067,
    "pow": 10719,
    "Ġfable": 15582,
    "Ġwoof": 14724,
    "lifeless": 24314,
    "oried": 10804,
    "orified": 21405,
    "Ġdissatisfied": 14259,
    "Ġtransom": 22442,
    "Ġtambourine": 9567,
    "body": 2309,
    "Ġfestival": 25446,
    "Ġbegged": 8231,
    "Ġgaff": 17996,
    "Ġgroom": 13969,
    "axing": 18548,
    "Ġcontinent": 14891,
    "Ġzealand": 12354,
    "Ġarsac": 11746,
    "disguise": 26307,
    "|": 96,
    "Ġfading": 15589,
    "Ġcomes": 3423,
    "isson": 23463,
    "Ġfeel": 1262,
    "ittered": 18440,
    "Ġhorizontal": 7783,
    "mast": 3602,
    "Ġquite": 1741,
    "trad": 21078,
    "ateness": 15524,
    "Ġcor": 1323,
    "hit": 20891,
    "ter": 359,
    "Ġcaucus": 17383,
    "Ġeulogy": 26473,
    "Ġhours": 2820,
    "forest": 22520,
    "Ġimprobable": 9798,
    "177": 20754,
    "Ġdeserves": 13292,
    "Ġruth": 14097,
    "Ġindistinct": 17411,
    "clair": 18935,
    "Ġtickets": 17095,
    "grad": 2567,
    "Ġdevoted": 6575,
    "Ġmiscell": 16153,
    "fair": 10095,
    "Ġlegit": 16476,
    "under": 3130,
    "Ġ221": 25071,
    "closed": 23157,
    "Ġfoe": 7680,
    "Ġbearing": 5300,
    "ousness": 10277,
    "Ġimmediately": 3364,
    "irc": 1730,
    "Ġringleader": 26214,
    "Ġcordiality": 24395,
    "Ġliking": 23593,
    "benevol": 12231,
    "ilder": 15718,
    "mechanically": 17303,
    "Ġearliest": 9834,
    "istered": 14147,
    "et": 307,
    "eight": 9594,
    "iated": 5891,
    "bohem": 19002,
    "Ġprocesses": 3634,
    "aph": 10955,
    "Ġrocked": 12858,
    "Ġcouldn": 7649,
    "Ġtragedy": 10670,
    "touched": 15443,
    "Ġunwillingly": 15853,
    "Ġelectric": 15198,
    "uss": 8767,
    "Ġdo": 512,
    "till": 6966,
    "animated": 14978,
    "groom": 8743,
    "ights": 8478,
    "utely": 8132,
    "Ġpremium": 23908,
    "Ġdefinition": 14407,
    "seeing": 7080,
    "Ġdispositions": 13236,
    "Ġcrags": 23532,
    "bed": 3489,
    "Ġextraction": 11253,
    "Ġclassifies": 11840,
    "Ġwood": 2292,
    "ip": 555,
    "urn": 775,
    "Ġunsatisfied": 22046,
    "Ġconquer": 14030,
    "Ġeverywhere": 9799,
    "Ġ131": 24781,
    "Ġstandards": 19019,
    "Ġinconven": 7587,
    "Ġimag": 2675,
    "Ġsche": 1703,
    "pret": 7212,
    "gaze": 17559,
    "Ġgrows": 4985,
    "Ġrusty": 14967,
    "Ġhandspikes": 12944,
    "Ġreliably": 22885,
    "Ġsideboard": 10388,
    "shire": 3020,
    "arle": 21443,
    "rim": 7139,
    "Ġshocking": 10437,
    "Ġcaves": 15559,
    "stripped": 16947,
    "cham": 10854,
    "Ġcetace": 14991,
    "Ġgre": 1582,
    "Ġinaudible": 21502,
    "Ġno": 511,
    "vol": 731,
    "married": 9952,
    "illes": 12700,
    "Ġaccusation": 22385,
    "Ġloomed": 12305,
    "quake": 11682,
    "weakness": 16129,
    "Ġsharkish": 24506,
    "Ġbacking": 16122,
    "Ġtopic": 9409,
    "Ġsuspect": 5758,
    "Ġserve": 9371,
    "Ġretort": 23074,
    "Ġaccumulates": 2891,
    "raction": 8138,
    "pit": 3980,
    "Ġexplored": 23519,
    "rich": 11519,
    "twill": 21077,
    "Ġcapacious": 19178,
    "Ġmustard": 12936,
    "ening": 3103,
    "Ġdozing": 22247,
    "Ġmelted": 19624,
    "illity": 18297,
    "alescence": 15929,
    "Ġrattle": 10900,
    "silenced": 24423,
    "preading": 18492,
    "Ġproblems": 2849,
    "gro": 10097,
    "Ġai": 3126,
    "Ġeth": 17718,
    "Ġgreenness": 23769,
    "Ġtumb": 21172,
    "Ġloose": 4649,
    "Ġinclud": 1511,
    "quietude": 24656,
    "ship": 1393,
    "Ġprevious": 2090,
    "bib": 17494,
    "happiness": 6470,
    "oar": 12502,
    "Ġcrop": 10165,
    "Ġdifference": 1489,
    "Ġsound": 2243,
    "run": 10723,
    "Ġinsinuating": 19273,
    "enari": 21284,
    "Ġhush": 13214,
    "Ġshiny": 14109,
    "Ġwaterward": 23370,
    "Ġthomas": 17950,
    "Ġgurgling": 17449,
    "Ġsprained": 15888,
    "strike": 14952,
    "wished": 13808,
    "Ġlacepede": 20498,
    "Ġbeholding": 8672,
    "Ġpermission": 9282,
    "killed": 15380,
    "tea": 18742,
    "uish": 5431,
    "Ġirretrie": 23377,
    "solution": 14688,
    "abriel": 6950,
    "Ġsubord": 22788,
    "capital": 15092,
    "Ġdeal": 3608,
    "Ġwrung": 14473,
    "Ġsqu": 1037,
    "Ġvapors": 19910,
    "cons": 4307,
    "lightened": 12069,
    "sheet": 16290,
    "Ġchosen": 7201,
    "Ġworking": 5574,
    "Ġindec": 13931,
    "Ġhuge": 4700,
    "Ġspoken": 4837,
    "amusement": 15286,
    "Ġengagements": 9981,
    "Ġbash": 12592,
    "Ġchairs": 12832,
    "otent": 8836,
    "Ġundesired": 12785,
    "Ġfidel": 12602,
    "pair": 21014,
    "gu": 3955,
    "gentlemen": 9507,
    "Ġcleat": 18949,
    "Ġharvest": 13418,
    "ultural": 22572,
    "Ġriding": 14098,
    "hosmer": 25903,
    "Ġplying": 17916,
    "Ġseparately": 13305,
    "accidents": 19214,
    "Ġrespectful": 16350,
    "ĠĊ": 12528,
    "ouraged": 22855,
    "reputable": 15521,
    "conquerable": 17402,
    "anch": 15565,
    "icate": 9204,
    "Ġlover": 7193,
    "Ġdesertion": 24786,
    "Ġbought": 8417,
    "Ġthickness": 13279,
    "Ġangrily": 9410,
    "Ġheadsmen": 14735,
    "Ġcommunicated": 9064,
    "Ġsuppress": 13028,
    "unken": 10239,
    "Ġterr": 3272,
    "hos": 15367,
    "Ġcove": 22583,
    "veral": 2355,
    "Ġdem": 11677,
    "Ġgrinning": 9056,
    "Ġopposite": 5120,
    "Ġmysticetus": 24923,
    "onely": 6517,
    "known": 3567,
    "Ġcomplained": 17000,
    "ateur": 22075,
    "agement": 4187,
    "list": 7551,
    "Ġnorthern": 7265,
    "covery": 11172,
    "extraordinary": 9098,
    "Ġcaroline": 7255,
    "unte": 21877,
    "lab": 3456,
    "Ġinexorable": 12260,
    "Ġprehens": 22235,
    "Ġenlar": 15805,
    "Ġprosperity": 20260,
    "Ġicy": 10749,
    "Ġrachel": 11851,
    "close": 9989,
    "Ġrepining": 23363,
    "aux": 14291,
    "Ġanalyze": 1611,
    "Ð": 145,
    "asion": 5714,
    "ognit": 19210,
    "Ġreasoner": 14441,
    "Ġinhabit": 5782,
    "Ġanatomical": 15080,
    "Ġdog": 4191,
    "br": 2478,
    "Ġrepelled": 19087,
    "batch": 1983,
    "Ġwhitish": 24867,
    "Ġbrink": 18773,
    "lengthwise": 19953,
    "Ġclinging": 10294,
    "Ġchaos": 17011,
    "vedale": 22713,
    "Ġdiscovered": 4412,
    "Ġarrog": 18346,
    "fashion": 8081,
    "represent": 9640,
    "Ġblameless": 19861,
    "Ġgallon": 24187,
    "Ġtapped": 11555,
    "rese": 15512,
    "welcomed": 24645,
    "led": 581,
    "jee": 17581,
    "Ġrigging": 5601,
    "Ġpretty": 3860,
    "Ġforesight": 13131,
    "acency": 12914,
    "skeleton": 17379,
    "Ġcultivation": 17148,
    "stolidity": 21666,
    "Ġstoop": 16314,
    "Ġsystematic": 5245,
    "Ġwaved": 9647,
    "usal": 7639,
    "Ġade": 22104,
    "Ġsincerely": 7963,
    "Ġbritannica": 24681,
    ",âĢĶ": 3169,
    "lust": 15383,
    "Ġexh": 5232,
    "mistak": 16880,
    "Ġcusack": 26435,
    "Ġasleep": 6836,
    "Ġherring": 14129,
    "Ġtransient": 18482,
    "retirement": 23145,
    "Ġstrong": 1787,
    "Ġwoven": 9929,
    "Ġdominion": 16532,
    "lace": 13751,
    "Ġdepartment": 24244,
    "Ġgout": 21599,
    "cries": 17513,
    "mult": 8751,
    "Ġwoe": 4793,
    "Ġrevolut": 3257,
    "Ġcult": 8786,
    "alse": 4184,
    "Ġstiffness": 24828,
    "perplex": 18341,
    "Ġcompress": 21860,
    "Ġfundamental": 3013,
    "creation": 14808,
    "Ġgangs": 21612,
    "Ġdecorated": 22449,
    "out": 468,
    "Ġparl": 8178,
    "absent": 21794,
    "Ġbrand": 16191,
    "itigated": 23050,
    "heum": 17749,
    "Ġcongratulatory": 19770,
    "Ġfrigates": 25707,
    "Ġupp": 13995,
    "Ġfifteen": 6947,
    "Ġmusty": 22683,
    "Ġfejee": 18354,
    "Ġsem": 1879,
    "ason": 1254,
    "osite": 4893,
    "Ġfolios": 23024,
    "Ġanimal": 2497,
    "Ġineff": 12640,
    "Ġvictoria": 14876,
    "negro": 18490,
    "Ġbrilliantly": 25123,
    "Ġlarboard": 11010,
    "Ġsubmitted": 11875,
    "station": 10845,
    "Ġpowers": 5419,
    ",--": 2477,
    "Ġfiled": 15585,
    "Ġpredecessor": 26255,
    "cra": 6356,
    "Ġconvinced": 4204,
    "topic": 10530,
    "Ġtechnically": 12370,
    "Ġscolding": 15204,
    "Ġeag": 2966,
    "motives": 26138,
    "Ġextent": 7657,
    "Ġrobert": 10969,
    "Ġfastening": 16364,
    "what": 643,
    "onious": 15522,
    "Ġwindsor": 16889,
    "Ġswimmer": 19462,
    "Ġvillas": 24056,
    "Ġangular": 19208,
    "congratulations": 20282,
    "Ġpuzz": 5533,
    "Ġfamine": 16331,
    "Ġporter": 15616,
    "ff": 464,
    "stump": 21656,
    "bounded": 13442,
    "bethinking": 25746,
    "Ġmultimodal": 18749,
    "Ġmasoned": 20254,
    "V": 58,
    "Ġminority": 18754,
    "Ġbrazen": 23843,
    "jub": 20931,
    "Ġproposition": 23252,
    "Ġexert": 5722,
    "Ġhare": 5157,
    "Ġwriter": 11949,
    "orate": 10802,
    "backpropagation": 11990,
    "Ġottoman": 17381,
    "Ġ90": 24589,
    "Ġknotted": 17021,
    "anation": 5804,
    "Ġmr": 659,
    "frightened": 17198,
    "cy": 640,
    "Ġoffice": 4965,
    "greg": 6650,
    "Ġdisclose": 16161,
    "Ġharp": 17926,
    "spiracle": 22735,
    "rug": 18337,
    "beating": 22492,
    "Ġargued": 13632,
    "pacific": 17643,
    "Ġsupplication": 25492,
    "Ġsurpasses": 25269,
    "encyclopÃ¦dia": 16666,
    "Ġpurposely": 10446,
    "indignation": 18439,
    "Ġmortally": 23920,
    "Ġwer": 12557,
    "Ġfooted": 23798,
    "illa": 12799,
    "Ġprincip": 5600,
    "Ġboil": 16109,
    "Ġgenerating": 12860,
    "ghost": 20889,
    "circumamb": 26088,
    "Ġphilosophical": 26336,
    "Ġrallied": 14099,
    "wail": 21128,
    "Ġminuteness": 19140,
    "breaking": 14767,
    "Ġabsurdities": 24879,
    "âĢĿ]": 21819,
    "Ġtasks": 1788,
    "ckinridge": 11723,
    "tre": 8764,
    "Ã¦us": 14820,
    "Ġadult": 18290,
    "Ġgestures": 13538,
    "Ġtriumphal": 24371,
    "Ġshe": 466,
    "Ġringbolts": 24199,
    "Ġpupils": 20424,
    "destro": 13313,
    "places": 7877,
    "Ġbrittle": 22870,
    "Ġundressed": 19516,
    "Ġdisturb": 7109,
    "wealth": 22691,
    "Ġknees": 6928,
    "change": 6393,
    "000": 2560,
    "grateful": 10430,
    "Ï": 144,
    "fold": 7546,
    "Ġspans": 18305,
    "Ġfidgeted": 25890,
    "Ġbreat": 3460,
    "Ġpoorly": 9858,
    "acy": 3953,
    "Ġsteamer": 17191,
    "Ġwhatsoever": 18461,
    "rin": 10124,
    "endless": 22228,
    "infidel": 24664,
    "Ġregarded": 5762,
    "sideways": 14573,
    "hideous": 25408,
    "narrated": 25622,
    "torture": 26152,
    "mblings": 19783,
    "Ġeyebrows": 23517,
    "walton": 20252,
    "ority": 8419,
    "Ġbravest": 23844,
    "secur": 18129,
    "Ġspokes": 18314,
    "Ġkra": 18349,
    "Ġsteelkilt": 5675,
    "aps": 1230,
    "Ġtechniques": 2868,
    "Ġconcer": 23324,
    "yonder": 21147,
    "âĢĶ(": 15943,
    "Ġrecommended": 8671,
    "aging": 2238,
    "versed": 9828,
    "Ġrefers": 1566,
    "Ġbird": 3755,
    "even": 3837,
    "Ġprying": 15614,
    "strang": 11184,
    "Ġinvited": 6903,
    "Ġbased": 3337,
    "pilot": 25909,
    "ilburn": 18062,
    "gaffman": 26392,
    "Ġstratag": 26029,
    "Ġprivacy": 19527,
    "Ġdews": 21842,
    "pall": 17630,
    "Ġsine": 10765,
    "Ġaright": 11744,
    "unwholesome": 26499,
    "Ġcracked": 8598,
    "Ġexperienced": 6584,
    "foundered": 20869,
    "mistaken": 12215,
    "Ġlegisl": 23538,
    "pretending": 17042,
    "kine": 15379,
    "Ġpry": 11602,
    "Ġsparsity": 4206,
    "orrowed": 19291,
    "Ġequal": 4133,
    "constit": 24605,
    "Ġinquir": 4240,
    "Ġevaluate": 3246,
    "business": 5610,
    "em": 391,
    "Ġratt": 7881,
    "Ġalleg": 14020,
    "Ġglove": 14494,
    "inferiors": 25347,
    "Ġways": 5396,
    "Ġpaddled": 20204,
    "Ġadro": 15872,
    "Ġcowardice": 17033,
    "Ġaccident": 5380,
    "Ġphil": 3383,
    "unusually": 15785,
    "surgeon": 24217,
    "gus": 13728,
    "sych": 9881,
    "Ġdenoted": 16567,
    "Ġunaccountable": 7887,
    "measureless": 20238,
    "ror": 7351,
    "Ġdone": 1817,
    "Ġpalsy": 25779,
    "Ì": 141,
    "Ġnuts": 17954,
    "Ġintolerable": 8484,
    "Ġvestibule": 13539,
    "Ġbegin": 3097,
    "pan": 10718,
    "ifled": 14066,
    "Ġexamination": 8005,
    "Ġsignification": 19204,
    "perch": 18339,
    "Ġlodgings": 8312,
    "bpp": 20774,
    "Ġstudious": 23235,
    "Ġplanned": 14755,
    "Ġlinks": 13958,
    "broken": 8020,
    "hib": 15371,
    "bid": 5611,
    "Ġexcellent": 4236,
    "Ġarrow": 10932,
    "Ġfactor": 19015,
    "Ġroy": 4226,
    "terns": 21826,
    "highly": 24763,
    "Ġfonder": 17882,
    "Ġvain": 3630,
    "cupboards": 25402,
    "Ġfactory": 23280,
    "iors": 9128,
    "clad": 14462,
    "tri": 11531,
    "sorting": 17006,
    "Ġrejo": 5917,
    "Ġmission": 13010,
    "Ġbarbar": 6935,
    "ount": 1118,
    "Ġendeavors": 16548,
    "Ġpail": 15612,
    "loun": 17590,
    "lie": 12487,
    "Ġleatherhead": 20017,
    "Ġreinforcement": 3397,
    "Ġcollections": 22862,
    "Ġdiddled": 22670,
    "gno": 13730,
    "Ġadviser": 25313,
    "itably": 10784,
    "Ġsatisfy": 6912,
    "Ġsnatched": 10473,
    "Ġabhorrent": 16858,
    "cor": 5520,
    "endurable": 22230,
    "Ġalien": 14021,
    "ilities": 6992,
    "rifle": 21049,
    "tur": 5688,
    "Ġherb": 15861,
    "hardly": 6492,
    "Ġpaul": 12066,
    "favouring": 24761,
    "reed": 6374,
    "Ġbind": 12588,
    "Ġeas": 2354,
    "imprisonment": 23764,
    "Ġconcussion": 26301,
    "doctor": 19097,
    "educated": 17262,
    "Ġimproper": 22753,
    "Ġconvolutions": 21811,
    "Ġcalf": 16272,
    "level": 2653,
    "thirst": 15830,
    "purp": 8091,
    "Ġmonths": 3455,
    "sprinkling": 24913,
    "Ġfoundation": 4230,
    "hav": 20899,
    "bowsprit": 16855,
    "Ġtangles": 25762,
    "Ġintelligible": 15946,
    "Ġchatting": 24746,
    "Ġperiod": 4000,
    "arrow": 4179,
    "confid": 14870,
    "seat": 18128,
    "Ġlambton": 10660,
    "Ġobserved": 3540,
    "Ġordained": 19448,
    "Ġshepherd": 14155,
    "Ġfierce": 7437,
    "Ġrapture": 13498,
    "Ġamongst": 8962,
    "oned": 4631,
    "inction": 6663,
    "Ġcats": 8982,
    "abular": 4762,
    "Ġtesting": 23232,
    "Ġsame": 1340,
    "Ġjealousy": 13579,
    "Ġgigantic": 5916,
    "Ġspark": 6691,
    "promise": 12255,
    "Ġ132": 19898,
    "Ġfreshe": 13073,
    "vens": 21115,
    "Ġmultiplied": 23692,
    "ustry": 18357,
    "Ġlullaby": 20591,
    "stretched": 10210,
    "further": 7535,
    "ipp": 10105,
    "Ġcheap": 13092,
    "shutters": 20316,
    "Ġevenness": 22836,
    "Ġmomentous": 16176,
    "ipotence": 22363,
    "Ġglassy": 19563,
    "atmosphere": 21267,
    "parm": 21016,
    "unvarying": 21891,
    "Ġcasts": 19429,
    "Ġsold": 6004,
    "sp": 895,
    "Ġcynicism": 25772,
    "evidently": 20348,
    "Ġfulfil": 9554,
    "Ġrest": 1781,
    "Ġcham": 4892,
    "Ġelopement": 10332,
    "swelled": 19613,
    "reflect": 19867,
    "Ġloth": 17968,
    "aract": 17896,
    "rints": 12507,
    "Ġpresents": 8245,
    "Ġchemical": 10412,
    "Ġrichness": 19312,
    "Ġconsent": 5372,
    "egypt": 15353,
    "inching": 21192,
    "----": 4053,
    "Ġdemocracy": 25459,
    "Ġswap": 23055,
    "Ġcommunicates": 24547,
    "Ġsmack": 9303,
    "Ġsig": 868,
    "precious": 12077,
    "Ġimpl": 7195,
    "oce": 10716,
    "Ġrepaired": 13111,
    "aration": 12613,
    "izings": 14054,
    "mer": 2835,
    "countenances": 24153,
    "Ġkl": 2735,
    "principal": 20662,
    "dispositions": 25014,
    "Ġimpatience": 7509,
    "onder": 3779,
    "Ġcould": 703,
    "illar": 5101,
    "Ġinflamed": 13476,
    "Ġswallowed": 7944,
    "acting": 22635,
    "arks": 2846,
    "itals": 17822,
    "Ġstature": 10864,
    "Ġsign": 2494,
    "Ġfilthy": 13251,
    "Ġundoing": 22037,
    "Ġimitation": 22175,
    "Ġcontrivance": 17186,
    "Ġalan": 10870,
    "Ġstable": 2698,
    "4": 24,
    "Ġ1839": 20463,
    "previously": 17210,
    "umul": 1289,
    "quickness": 19853,
    "Ġflu": 3276,
    "laborers": 23919,
    "¾": 127,
    "Ġseethings": 26505,
    "Ġflitting": 13030,
    "eliest": 14749,
    "read": 3274,
    "rying": 3186,
    "Ġmahogany": 20581,
    "Ġwear": 6032,
    "Ġejaculated": 15173,
    "accessible": 13642,
    "Ġchewing": 23288,
    "Ġtorn": 6001,
    "ĠĠĠĠĠĠĠĠĠĠĠĠĠĠĠĠĠĠĠĠĠĠĠĠĠĠĠ": 14889,
    "Ġhysterics": 26094,
    "Ġthickets": 24026,
    "Ġfringe": 17274,
    "Ġvag": 9711,
    "altern": 17944,
    "Ġfunctional": 3046,
    "Ġexcel": 3566,
    "Ġfolk": 10378,
    "Ġspecimens": 18860,
    "Ġjuggler": 26368,
    "Ġconvul": 13204,
    "Ġinscrutable": 10675,
    "aut": 1912,
    "Ġunpleasing": 22057,
    "icit": 3376,
    "Ġsought": 5010,
    "Ġmeddling": 21323,
    "Ġpiqu": 21480,
    "compass": 9462,
    "osh": 18389,
    "Ġexploitation": 2349,
    "Ġhooded": 12410,
    "Ġarrangement": 2658,
    "baron": 24926,
    "Ġmetaphys": 16397,
    "Ġexpand": 9310,
    "Ġrome": 12160,
    "Ġcar": 1420,
    "Ġvibration": 17100,
    "both": 5785,
    "appear": 13199,
    "Ġepis": 19985,
    "Ġdestroyer": 13416,
    "Ġdistracted": 11807,
    "Ġminor": 12973,
    "ains": 5094,
    "Ġcell": 6239,
    "Ġstacked": 21747,
    "widely": 25344,
    "Ġguise": 14435,
    "Ġresign": 18565,
    "likelihood": 4992,
    "Ġoutputs": 2887,
    "Ġdeemed": 7614,
    "Ġmainland": 22653,
    "Ġglobules": 26590,
    "ı": 242,
    "christian": 17235,
    "Ġslink": 23167,
    "Ġwatchman": 23667,
    "Ġcircumference": 13547,
    "Ġcan": 471,
    "shudder": 26247,
    "ignorantly": 25190,
    "Ġmaze": 23834,
    "ain": 343,
    "Ġvoids": 25808,
    "Ġbasin": 19850,
    "Ġhonestly": 19975,
    "Ġfailure": 13318,
    "ord": 667,
    "Ġlashing": 11618,
    "Ġsupplement": 23007,
    "```": 25894,
    "Ġhospitality": 13515,
    "Ġrud": 8480,
    "Ġcakes": 13887,
    "Ġglow": 7171,
    "Ġoh": 2175,
    "dor": 12456,
    "Ġmiss": 1231,
    "Ġconstitution": 20112,
    "Ġbusy": 6191,
    "Ġspoils": 24805,
    "snap": 24849,
    "ity": 417,
    "hamed": 6307,
    "inkled": 5477,
    "hun": 5210,
    "ensities": 22550,
    "Ġfestoon": 20297,
    "etch": 9207,
    "endured": 22229,
    "oat": 13767,
    "Ġskiff": 16168,
    "Ġsustenance": 19937,
    "Ġinspection": 14545,
    "Ġlottery": 19890,
    "Ġvastly": 23863,
    "Ġshuddered": 11301,
    "ounts": 4652,
    "Ġsubmerged": 11876,
    "accessory": 25500,
    "Ġrevel": 9217,
    "Ġhom": 9189,
    "quest": 4538,
    "Ġruined": 12959,
    "Ġsuper": 2153,
    "ikes": 8087,
    "Ġflattered": 10377,
    "Ġmalacca": 24393,
    "Ġrolling": 5976,
    "twig": 23701,
    "becoming": 18520,
    "Ġseconds": 16399,
    "Ġopened": 3511,
    "Ġaccorded": 24091,
    "ision": 1854,
    "Ġrenewal": 12239,
    "Ġtreatise": 19348,
    "Ġdaboll": 25951,
    "Ġsetbacks": 11064,
    "Ġforwarded": 19046,
    "Ġconst": 1909,
    "21": 10075,
    "bohemia": 20733,
    "Ġprovoke": 14829,
    "Ġstartled": 7084,
    "innacle": 7519,
    "Ġmottled": 20681,
    "stricken": 9888,
    "of": 768,
    "Ġtranspired": 16786,
    "Ġhospital": 15042,
    "wins": 21132,
    "Ġcourtship": 24136,
    "Ġstrolled": 16772,
    "Ġvague": 6407,
    "allest": 5485,
    "Ġplunged": 8696,
    "allic": 12819,
    "rates": 21041,
    "Ġformidable": 8220,
    "odious": 21814,
    "Ġbackground": 18650,
    "osures": 22265,
    "Ġeaten": 14848,
    "Ġwild": 2600,
    "Ġabstraction": 26541,
    "insufferable": 21195,
    "Ġmuteness": 19420,
    "ally": 532,
    "Ġfaithfulness": 24446,
    "Ġcode": 1720,
    "inal": 15484,
    "ne": 647,
    "move": 11858,
    "erne": 21272,
    "Ġdim": 4757,
    "dro": 6647,
    "Ġfates": 15583,
    "Ġwired": 17788,
    "urry": 13996,
    "Ġshouting": 10525,
    "Ġenveloping": 19737,
    "Ġcaged": 21355,
    "sus": 6230,
    "threatened": 25463,
    "hound": 20897,
    "accurately": 25862,
    "Ġconsecrated": 26490,
    "Ġcelestial": 10070,
    "Ġholes": 16412,
    "sticks": 25966,
    "Ġmet": 1861,
    "Ġconstitutional": 25128,
    "Ġbegone": 11921,
    "extric": 22770,
    "Ġrod": 9283,
    "Ġstar": 6024,
    "despairing": 25077,
    "pure": 17628,
    "erm": 786,
    "tle": 2411,
    "abases": 3005,
    "taking": 5689,
    "aswag": 21549,
    "Ġblows": 5974,
    "urning": 12922,
    "Ġnoted": 15832,
    "Ġsour": 21219,
    "Ġsunbeam": 23279,
    "Ġin": 291,
    "Ġbumps": 21395,
    "Ġg": 310,
    "these": 3241,
    "Ġexhaustion": 14964,
    "Ġrequisition": 22633,
    "Ġdampening": 2896,
    "Ġstaggering": 20276,
    "Ġresembled": 18036,
    "Ġsleeping": 6321,
    "Ġsof": 18277,
    "Ġlogits": 3450,
    "ream": 2709,
    "Ġbite": 10799,
    "Ġbark": 10800,
    "Ġdiligently": 11406,
    "Ġbamboo": 17440,
    "arded": 5029,
    "Ġmonoman": 7939,
    "Ġwarning": 9061,
    "Ġoppress": 13175,
    "è": 169,
    "solid": 16388,
    "Ġshaking": 6553,
    "Ġmarshy": 20221,
    "Ġsister": 1475,
    "Ġmercifully": 20181,
    "Ġtuck": 10143,
    "Ġcorrob": 16271,
    "sl": 5794,
    "Ġguard": 6180,
    "tahit": 17694,
    "Ġunembarrassed": 22073,
    "Ġstubbornness": 25380,
    "Ġescort": 23507,
    "Ġinfinitely": 8966,
    "Ġquebec": 24133,
    "anous": 21362,
    "Ġpsychology": 11449,
    "Ġsympathy": 6348,
    "Ġbachelors": 24861,
    "Ġsire": 15505,
    "Ġwrenching": 17326,
    "Ġ122": 24467,
    "Ġbump": 9662,
    "Ġsocietal": 11437,
    "onomy": 12552,
    "arrange": 23768,
    "Ġdemig": 20359,
    "other": 1314,
    "ghan": 19458,
    "Ġimpassable": 20615,
    "rance": 5995,
    "score": 18858,
    "windlass": 16723,
    "mish": 17600,
    "omist": 21641,
    "Ġsensible": 4976,
    "pend": 6368,
    "strangers": 20339,
    "Ġparch": 11730,
    "Ġalbert": 12712,
    "Ġstationary": 19697,
    "Ġexposing": 11836,
    "Ġsalutation": 12401,
    "irresistible": 18176,
    "Ġentr": 14338,
    "mselves": 2863,
    "//": 11464,
    "Ġsqueezing": 25009,
    "deli": 15348,
    "Ġaccomplishment": 19668,
    "aries": 6246,
    "esting": 7412,
    "Ġinheritance": 25356,
    "hello": 13367,
    "Ġpersons": 6182,
    "ative": 733,
    "attoo": 6808,
    "Ġbraces": 14672,
    "Ġeleven": 9393,
    "Ġrue": 11871,
    "Ġoppressively": 25711,
    "Ġperse": 6273,
    "Ġhydraulic": 10067,
    "easy": 9595,
    "fourths": 25510,
    "Ġsub": 949,
    "ante": 11725,
    "Ġsurprising": 14600,
    "Ġaccents": 14213,
    "uced": 13803,
    "Ġspringing": 10521,
    "Ġstubb": 1786,
    "Ġimproving": 1209,
    "Ġseam": 3906,
    "Ġhollows": 19744,
    "Ġsmilingly": 22564,
    "Ġeye": 2282,
    "pire": 9138,
    "pede": 19932,
    "Ġcomrade": 11684,
    "Ġtrough": 15969,
    "Ġutil": 4673,
    "Ġ89": 19715,
    "liest": 6296,
    "Ġvalleys": 14922,
    "Ġbeheading": 21758,
    "Ġboneless": 19608,
    "Ġwounding": 19589,
    "Ġcl": 554,
    "Ġcounterpart": 24720,
    "Ġboxed": 24360,
    "Ġbefallen": 12347,
    "Ġoath": 7833,
    "Ġsearched": 15824,
    "arial": 5532,
    "Ġtaught": 6804,
    "tumultuously": 25614,
    "12": 20751,
    "Ġprocedure": 2811,
    "discoloured": 23500,
    "Ġenchanting": 17040,
    "Ġperadventure": 22401,
    "Ġunluck": 8487,
    "contin": 16544,
    "er": 269,
    "oop": 10717,
    "suff": 4961,
    "Ġopposed": 11189,
    "Ġstretched": 5921,
    "Ġintermediate": 18589,
    "Ġcru": 2825,
    "de": 460,
    "Ġexcepting": 14682,
    "Ġcobweb": 22587,
    "ashions": 16422,
    "stream": 15692,
    "Ġindefinitely": 25222,
    "biscuit": 17503,
    "Ġ92": 24591,
    "Ġchorus": 10947,
    "Ġaristocratic": 20516,
    "Ġcircumspection": 25885,
    "Ġwrapt": 24596,
    "Ġmovement": 9971,
    "ove": 1743,
    "ree": 874,
    "Ġnight": 1466,
    "Ġgayer": 24501,
    "Ġrepresents": 4902,
    "Ġregarding": 13213,
    "soundest": 24796,
    "Ġrestless": 10415,
    "itters": 10783,
    "orted": 4603,
    "k": 79,
    "Ġgust": 21600,
    "Ġastonishing": 10504,
    "Ġfelix": 4849,
    "Ġengraved": 17082,
    "Ġmythologies": 26215,
    "limin": 8384,
    "Ġdogs": 7742,
    "towns": 24855,
    "Ġrampart": 20321,
    "Ġjoists": 19235,
    "Ġsuperstition": 15057,
    "Ġobsequ": 14323,
    "uguese": 20734,
    "glasses": 11216,
    "Ġwanting": 6723,
    "spin": 22730,
    "Ġfirmament": 19474,
    "naturalist": 23529,
    "Ġfangs": 12603,
    "Ġsentin": 16379,
    "Ġrecording": 24434,
    "ĠĠĠĠĠĠĠĠĠĠĠĠĠĠ": 22567,
    "Ġunholy": 26220,
    "ug": 1766,
    "forget": 11033,
    "onts": 15523,
    "Ġruminated": 24600,
    "Ġwed": 7575,
    "postp": 24635,
    "Ġreve": 2933,
    "Ġemig": 14526,
    "Ġstubbs": 23299,
    "susp": 10599,
    "Ġcin": 13878,
    "Ġdais": 24372,
    "adem": 21761,
    "valuable": 8249,
    "Ġdoubloons": 13437,
    "fever": 22504,
    "Ġvarious": 3508,
    "Ġintelligent": 1455,
    "expose": 23663,
    "Ġberries": 13410,
    "Ġaccosted": 13676,
    "sicilian": 21066,
    "Ġassumed": 9467,
    "Ġdata": 522,
    "Ġcheek": 8581,
    "Ġdialogue": 12408,
    "Ġcommon": 1415,
    "Ġcordage": 19681,
    "idity": 8835,
    "Ġhappens": 2187,
    "bucket": 17496,
    "Ġmodeling": 2096,
    "Ġwarb": 17789,
    "Ġoffence": 12949,
    "Ġtries": 9153,
    "Ġtwain": 16124,
    "Ġlove": 2056,
    "shore": 10309,
    "Ġfagged": 17884,
    "Ġdetached": 10282,
    "Ġsteel": 3887,
    "cept": 552,
    "Ġquarrel": 7292,
    "cousin": 10655,
    "Ġalcoves": 26488,
    "Ġdispleasure": 16056,
    "Ġmenaces": 23112,
    "Ġwire": 13855,
    "ensation": 22549,
    "Ġlingering": 11380,
    "steak": 14711,
    "Ġdemanded": 8327,
    "party": 8995,
    "ó": 180,
    "ivia": 22080,
    "av": 739,
    "fast": 3067,
    "Ġregal": 16082,
    "Ġcities": 17829,
    "Ġconvey": 9984,
    "Ġfeat": 10938,
    "Ġstruck": 3387,
    "meas": 7434,
    "Ġsympathising": 24299,
    "childhood": 16870,
    "Ġidolator": 20001,
    "and": 372,
    "Ġdislike": 6049,
    "Ġconn": 9232,
    "iosity": 2279,
    "Ġrespons": 2684,
    "token": 21085,
    "Ġconven": 6153,
    "Ġtin": 15467,
    "Ġattract": 11838,
    "Ġeaster": 15680,
    "Ġunthinkingly": 26222,
    "Ġtransparen": 10544,
    "barn": 17485,
    "Ġentreaties": 9038,
    "behaviour": 11302,
    "Ġsharply": 9406,
    "Ġhandful": 9786,
    "Ġexquisite": 12386,
    "Ġsuperlatively": 26076,
    "Ġsubset": 9873,
    "Ġfig": 3625,
    "Ġrecalled": 8540,
    "pening": 2834,
    "Ġwearing": 12745,
    "Ġdevil": 3613,
    "Ġpleasantness": 24139,
    "Ġque": 4157,
    "Ġinvoked": 19146,
    "mere": 11859,
    "Ġdaylight": 10353,
    "Ġherbage": 25997,
    "Ġenough": 1761,
    "phew": 6369,
    "Ġcharged": 9857,
    "rig": 7556,
    "Ġsupplying": 19801,
    "Ġomens": 21331,
    "examined": 17269,
    "Ġbetray": 7442,
    "Ġagile": 22515,
    "Ġpoultry": 17444,
    "rod": 10833,
    "ly": 319,
    "ator": 1923,
    "tray": 21080,
    "toes": 22568,
    "Ġmcc": 21309,
    "Ġacutely": 14317,
    "Ġfun": 523,
    "total": 17253,
    "Ġparsonage": 7125,
    "hunting": 24385,
    "Ġyawned": 15054,
    "Ġcongreg": 8464,
    "Ġoutfits": 22325,
    "Ġburial": 16524,
    "ldog": 21921,
    "Ġride": 12764,
    "Ġmiscellaneous": 17465,
    "apan": 6860,
    "Ġsweetly": 23922,
    "ustom": 3789,
    "Ġyonder": 7392,
    "churning": 21700,
    "Ġawait": 17074,
    "leader": 25352,
    "Ġbody": 2436,
    "Ġreefed": 20305,
    "Ġgifted": 17999,
    "Ġunconcern": 14120,
    "Ġlodging": 24095,
    "angered": 16182,
    "Ġwedding": 4816,
    "Ġphyset": 23203,
    "Ġlieutenant": 15265,
    "farewell": 12310,
    "Ġholds": 7976,
    "Ġenglishman": 11231,
    "Ġmountain": 3370,
    "Ġfav": 1753,
    "Ġunprinciple": 18255,
    "Ġdressing": 7092,
    "ruck": 6848,
    "unwittingly": 25802,
    "flutter": 23974,
    "Ġhovel": 8254,
    "Ġshallow": 14397,
    "momentum": 4991,
    "Ġbargain": 23794,
    "Ġclink": 22353,
    "crippled": 26386,
    "biqu": 17500,
    "rier": 9245,
    "Ġprayer": 16669,
    "Ġpert": 22398,
    "Ġbefore": 811,
    "Ġdreamt": 23942,
    "ues": 2081,
    "Ġsticking": 13430,
    "Ġsecretary": 19445,
    "Ġblunder": 18820,
    "Ġpuppy": 12409,
    "bury": 9110,
    "Ġaround": 3611,
    "Ġreconciliation": 25293,
    "arthur": 14833,
    "Ġtrials": 16791,
    "Ġmorsel": 20680,
    "Ġperusal": 14226,
    "Ġbuoyant": 13534,
    "Ġtrying": 4839,
    "Ġclubs": 25180,
    "ĠĠĠĠĠĠĠĠĠĠĠĠĠĠĠĠĠĠĠĠĠĠĠĠ": 5322,
    "Ġvacuous": 24344,
    "Ġpugnacious": 26453,
    "Ġsickened": 16777,
    "manifested": 20529,
    "Ġinfall": 7960,
    "investigations": 25534,
    "increased": 20273,
    "Ġcoff": 3506,
    "Ġspell": 8859,
    "aset": 10834,
    "Ġlengthen": 15659,
    "Ġsymbols": 2798,
    "Ġsuperiority": 14619,
    "Ġirene": 8445,
    "tale": 10130,
    "Ġeffemin": 18545,
    "Ġoverheard": 11778,
    "apparatus": 26565,
    "this": 1439,
    "Ġclothe": 4712,
    "watch": 6120,
    "Ġdeduce": 8337,
    "Ğ": 223,
    "Ġcosmetic": 23473,
    "ot": 346,
    "Ġprayed": 16670,
    "helm": 12176,
    "hounds": 20909,
    "Ġa": 263,
    "Ġlandowner": 23384,
    "hear": 10149,
    "moved": 9788,
    "Ġilluminating": 25246,
    "\":": 9584,
    "Ġwhen": 515,
    "Ġphysi": 9991,
    "Ġtests": 8960,
    "Ġexecutioner": 12276,
    "Ġirksome": 13115,
    "iron": 3711,
    "Ġpin": 7162,
    "Ġrapturously": 24889,
    "Ġscattered": 6856,
    "Ġcobb": 14275,
    "anqu": 4107,
    "Ġalterations": 19873,
    "Ġcandidates": 4332,
    "solic": 16387,
    "Ġstrict": 7222,
    "breadth": 20279,
    "Ġsewing": 21965,
    "thorough": 21989,
    "Ġinvestment": 24332,
    "Ġdock": 15935,
    "Ġrecl": 16145,
    "Ġannoy": 17201,
    "can": 1232,
    "Ġmizen": 17261,
    "Ġfaultless": 24540,
    "Ġparr": 22123,
    "Ġbonnet": 10658,
    "Ġmanaging": 22329,
    "umbled": 8495,
    "Ġwarp": 8113,
    "Ġcontract": 18476,
    "Ġdemoniacal": 20559,
    "ary": 986,
    "Ġxiii": 25592,
    "fitting": 1509,
    "Ġinheriting": 25355,
    "Ġfift": 6383,
    "eaten": 20347,
    "Ġtroubled": 6618,
    "Ġsoph": 1552,
    "puff": 21024,
    "Ġexhaled": 19685,
    "Ġgestic": 21611,
    "lose": 12888,
    "Ġreprehensible": 15704,
    "Ġcarve": 23096,
    "Ġworms": 25217,
    "estab": 14173,
    "culiarity": 11143,
    "mist": 5686,
    "Ġomnipotent": 13551,
    "igms": 3044,
    "suspected": 12376,
    "thunder": 10265,
    "Ġadjacent": 20713,
    "finished": 10557,
    "Ġdri": 2365,
    "Ġhitting": 21490,
    "rossed": 11013,
    "ppa": 10242,
    "Ġshuttle": 12131,
    "magnificent": 20277,
    "ĠâĢĺ_": 11118,
    "answ": 15889,
    "Ġdive": 10175,
    "modesty": 22856,
    "Ġsurvivors": 25732,
    "Ġexcept": 3311,
    "Ġslid": 7952,
    "Ġpuffing": 12259,
    "Ġcrucifix": 26080,
    "ropy": 1105,
    "Ġunresting": 25554,
    "Ġpatches": 4235,
    "Ġsickness": 10541,
    "Ġaye": 3350,
    "Ġausten": 5882,
    "Ġdead": 2171,
    "increase": 20271,
    "Ġdisplaying": 16968,
    "Ġscrutiny": 26016,
    "âĢĿ": 354,
    "Ġrudeness": 17127,
    "uberance": 25917,
    "penny": 22948,
    "germans": 20568,
    "retired": 11940,
    "Ġreminds": 13434,
    "Ġarched": 10933,
    "Ġactivations": 2720,
    "Ġgaiters": 20464,
    "Ġseeing": 2886,
    "Ġain": 6970,
    "Ġrevenge": 5452,
    "Ġthrice": 10578,
    "ancing": 1758,
    "gled": 10701,
    "Ġinestimable": 17445,
    "Ġincoherent": 17403,
    "Ġvows": 15813,
    "ourers": 21452,
    "emason": 18189,
    "Ġprogeny": 17391,
    "Ġcontents": 7210,
    "Ġundeviating": 15221,
    "Ġpropensity": 18997,
    "Ġchag": 15936,
    "cerem": 15683,
    "miserably": 24213,
    "Ġrashness": 25461,
    "Ġplay": 2626,
    "Ġfeminine": 15267,
    "convul": 24884,
    "mon": 2310,
    "stepfather": 19192,
    "inative": 15487,
    "Ġparcels": 25466,
    "Ġbrine": 18772,
    "Ġbud": 10171,
    "va": 4743,
    "Ġrelev": 1714,
    "Ġvaults": 17156,
    "Ġpassages": 12975,
    "Ġperformed": 8549,
    "speech": 10669,
    "Ġowe": 8115,
    "ural": 505,
    "Ġeluded": 12928,
    "Ġadapt": 1006,
    "Ġremot": 8545,
    "lins": 2029,
    "Ġinsatiable": 19274,
    "otently": 21804,
    "Ġ116": 24440,
    "frequented": 25901,
    "Ġhan": 15623,
    "Ġevidence": 5270,
    "urpation": 16305,
    "gay": 11490,
    "ĠĠĠĠĠĠĠĠĠĠĠĠĠĠĠĠĠĠĠĠĠĠĠĠĠĠĠĠĠĠĠĠĠĠ": 14616,
    "Ġhatchways": 24990,
    "quietly": 10595,
    "Ġwidow": 8666,
    "iod": 3839,
    "Ġamazing": 9980,
    "occurrences": 26333,
    "Ġseizure": 21968,
    "Ġpe": 850,
    "Ġflourishing": 25188,
    "Ġpress": 5933,
    "Ġbasement": 24701,
    "Ġpleasanter": 19069,
    "iture": 5696,
    "Ġzigzag": 26274,
    "Ġcritical": 7474,
    "ilies": 18059,
    "Ġyoked": 15740,
    "declaration": 25176,
    "blasted": 20192,
    "spersed": 22734,
    "itage": 17818,
    ").âĢĿ": 20743,
    "Ġdome": 15594,
    "Ġexertion": 8054,
    "Ġperceiving": 8879,
    "assembled": 21548,
    "Ġadmirers": 19689,
    "Ġdrifting": 19281,
    "Ġacted": 7422,
    "Ġpassengers": 13679,
    "Ö": 151,
    "Ġpropriet": 9553,
    "£": 101,
    "Ġaver": 1286,
    "Ġflowing": 14416,
    "Ġprophet": 7681,
    "always": 5708,
    "ius": 5789,
    "Ġensuing": 12313,
    "carbuncle": 26384,
    "sher": 5217,
    "Ġregularization": 1210,
    "Ġgirth": 13139,
    "Ġendow": 23139,
    "Ġprem": 3427,
    "Ġdishon": 12235,
    "Ġmun": 12567,
    "remes": 21240,
    "Ġillustrative": 25069,
    "itics": 13875,
    "Ġpenalties": 10414,
    "Ġadopt": 10634,
    "cannibals": 25585,
    "Ġmaintain": 854,
    "Ġdebated": 9043,
    "Ġvect": 1226,
    "Ġslit": 13061,
    "Ġcountenances": 11969,
    "Ġlevel": 5020,
    "Ġderive": 10397,
    "Ġ48": 24082,
    "invari": 21187,
    "Ġeditions": 19154,
    "disgrace": 16461,
    "arily": 4123,
    "eness": 2291,
    "reement": 15515,
    "Ġmadame": 13153,
    "Ġcomplain": 6687,
    "blades": 24131,
    "aths": 22704,
    "Ġcigaret": 16978,
    "lift": 15388,
    "Ġniag": 21533,
    "Ġstrongest": 11136,
    "sets": 17662,
    "beg": 22490,
    "Ġintellectual": 11402,
    "forgetting": 25486,
    "Ġjetted": 24431,
    "muring": 17603,
    "Ġextracted": 16336,
    "hes": 1400,
    "Ġschol": 17380,
    "Ġshoved": 23492,
    "ushion": 14723,
    "Ġclank": 15973,
    "Ġexchange": 15761,
    "Ġmalicious": 10560,
    "Ġvelocity": 10623,
    "Ġthro": 5818,
    "Ġreversed": 15702,
    "henomen": 10497,
    "Ġcontain": 1549,
    "Ġphrenologist": 25608,
    "attempt": 9363,
    "chief": 4645,
    "Ġagreeable": 4552,
    "Ġroasted": 18458,
    "Ġraw": 3319,
    "garn": 20872,
    "Ġcotton": 17382,
    "pots": 11515,
    "od": 350,
    "Ġprinciples": 10014,
    "Ġtrod": 15029,
    "affa": 23778,
    "Ġnervously": 19186,
    "step": 2457,
    "Ĉ": 201,
    "Ġbreach": 11978,
    "Ġsherry": 19454,
    "Ġvexations": 24610,
    "Ġbarn": 11589,
    "Ġ93": 24592,
    "Ġcorrespond": 6211,
    "orm": 425,
    "Ġmerits": 13197,
    "Ġmemory": 2275,
    "Ġtemper": 954,
    "it": 276,
    "Ġdisapprobation": 16062,
    "ortations": 22261,
    "aling": 1033,
    "islanders": 25443,
    "Ġ112": 24437,
    "land": 1529,
    "Ġmouldings": 24736,
    "atherley": 7220,
    "Ġgans": 5822,
    "ink": 756,
    "Ġmist": 2877,
    "Ġbidding": 9540,
    "-------": 20392,
    "hooked": 23717,
    "approbation": 11459,
    "Ġkingdom": 12023,
    "ileries": 18061,
    "Ġpeaks": 16133,
    "quimaux": 21857,
    "Ġgeography": 23375,
    "Ġdoom": 6418,
    "weaknesses": 26031,
    "cc": 472,
    "Ġlangsdorff": 15280,
    "Ġspecks": 14311,
    "Ġdistricts": 20266,
    "Ġimpenit": 22392,
    "Ġspurn": 18310,
    "Ġfairness": 9896,
    "Ġraptures": 13499,
    "Ġdusky": 13552,
    "Ġrejecting": 17052,
    "borean": 25744,
    "Ġinclined": 6625,
    "Ġthinking": 4027,
    "Ġrese": 2025,
    "Ġinferiority": 17116,
    "Ġvoice": 2189,
    "Ġmind": 1621,
    "Ġjiff": 22300,
    "acies": 14280,
    "Ġhotel": 8654,
    "spell": 22731,
    "Ġingen": 9052,
    "Ġdairy": 20689,
    "Ġfainted": 8796,
    "Ġinferred": 14503,
    "Ġpaddington": 17096,
    "Ġgroping": 13669,
    "Ġhide": 4589,
    "Ġhelp": 1641,
    "Ġparcel": 15203,
    "Ġrustic": 14968,
    "obst": 11936,
    "oss": 10118,
    "ernation": 8212,
    "mosphere": 10046,
    "Ġcurly": 18846,
    "Ġalco": 21786,
    "Ġsensibility": 14514,
    "Ġinsert": 19907,
    "Ġemm": 18005,
    "propagation": 1249,
    "Ġdood": 22246,
    "Ġsufferer": 16263,
    "Ġneuron": 1808,
    "Ġpliny": 11829,
    "high": 6652,
    "Ġinsane": 19271,
    "Ġkrus": 18350,
    "strade": 5065,
    "sooner": 14780,
    "Ġsuckling": 25998,
    "Ġenlarge": 21939,
    "Ġoverwhel": 8197,
    "dom": 6224,
    "pshaw": 21030,
    "Ġjust": 1240,
    "Ġfundament": 2927,
    "Ġincreasingly": 9374,
    "Ġrequested": 14298,
    "Ġsplintered": 11419,
    "--âĢľ": 12977,
    "Ġdined": 9179,
    "using": 5468,
    "constantly": 24607,
    "tornadoes": 26154,
    "Ġcommerce": 11016,
    "alleging": 23028,
    "aws": 8237,
    "Ġgarnery": 17390,
    "Ġhesitating": 16949,
    "Ġsinful": 18951,
    "ĠĠĠĠĠĠĠĠĠĠĠĠĠĠĠĠĠĠĠĠĠĠĠĠĠĠĠĠ": 9978,
    "Ġoverhanging": 22369,
    "Ġlabourers": 23335,
    "unmistakable": 21899,
    "Ġcircumspect": 15088,
    "Ġnest": 10191,
    "lan": 15381,
    "mong": 15393,
    "Ġflask": 3038,
    "humoredly": 26326,
    "occupied": 12308,
    "teringly": 21827,
    "ved": 869,
    "connection": 18870,
    "Ġbrightly": 13228,
    "sleeve": 26109,
    "agon": 7871,
    "Ġinquiries": 5678,
    "Ġshud": 5461,
    ".âĢĶ": 4246,
    "Ġz": 996,
    "Ġlinked": 15081,
    "Ġaim": 10148,
    "hampshire": 23267,
    "Ġ77": 24266,
    "osure": 5308,
    "ties": 2760,
    "Ġanalyzing": 18797,
    "Ġgrieve": 14710,
    "unsuitable": 21897,
    "Ġtheorem": 2328,
    "Ġdolph": 12384,
    "Ġcondu": 18112,
    "Ġbarricade": 14662,
    "eling": 6683,
    "Ġdeceit": 13484,
    "Ġexpired": 18622,
    "Ġcasement": 25095,
    "Ġshri": 5375,
    "Ġsummer": 4790,
    "Ġspilling": 22141,
    "Ġmark": 2333,
    "Ġdifferently": 10392,
    "Ġbraced": 16582,
    "Ġcommit": 18655,
    "Ġfors": 21775,
    "Ġuseless": 7039,
    "Ġforked": 11667,
    "Ġdz": 4756,
    "heavily": 24534,
    "prit": 19345,
    "Ġwait": 4907,
    "Ġhaughty": 11450,
    "Ġreserves": 19673,
    "advice": 12162,
    "oided": 11510,
    "Ġ38": 24080,
    "language": 5129,
    "Ġwickedness": 9529,
    "fluke": 25205,
    "Ġdisse": 18549,
    "Ġvapory": 17008,
    "verbally": 25361,
    "Ġdun": 6676,
    "Ġembracing": 14983,
    "likely": 9026,
    "sk": 5521,
    "tete": 10734,
    "Ġtides": 13824,
    "Ġsher": 3762,
    "Ġwallet": 21301,
    "Ġcherished": 10593,
    "Ġenlivened": 26209,
    "Ġtarget": 2822,
    "com": 987,
    "reply": 19725,
    "ile": 521,
    "Ġstill": 1156,
    "prot": 6899,
    "ffy": 18319,
    "missing": 13223,
    "Ġmarbles": 18875,
    "Ġresent": 6050,
    "depths": 25664,
    "Ġplaited": 14287,
    "Ġsuite": 18281,
    "Ġsmoky": 22562,
    "interesting": 12206,
    "Ġarctic": 12818,
    "Ġthousands": 6750,
    "Ġinstructing": 3120,
    "Ġelements": 2667,
    "Ġsafer": 22174,
    "precise": 19354,
    "Ġbestow": 6456,
    "Ġju": 10289,
    "Ġhing": 11606,
    "bastian": 10676,
    "unknown": 10891,
    "Ġvibrated": 25048,
    "Ġcharitable": 23272,
    "spir": 5738,
    "Ġbriefly": 11368,
    "Ġvener": 8164,
    "specific": 10500,
    "wes": 17705,
    "Ġtrop": 7565,
    "Ġpreach": 14175,
    "Ġbrahma": 26321,
    "Ġhappily": 9334,
    "ruit": 22181,
    "mare": 17601,
    "Ġpondered": 15170,
    "shells": 26057,
    "icorn": 15662,
    "Ġreptile": 15281,
    "Ġ53": 19638,
    "Ġwinged": 16997,
    "consist": 14818,
    "Ġpell": 21459,
    "Ġfrankly": 16747,
    "Ġchildhood": 13141,
    "Ġobstacle": 16957,
    "Ġbenignity": 18785,
    "Ġschedu": 1824,
    "Ġaverted": 16259,
    "ensical": 18568,
    "Ġevenly": 4126,
    "Ġvelvets": 25394,
    "Ġbandaged": 16844,
    "Ġlowermost": 23244,
    "Ġslaught": 23171,
    "Ġwisest": 11234,
    "Ġplaymate": 23639,
    "Ġstates": 1852,
    "Ġsherlock": 3891,
    "Ġbreathes": 13249,
    "Ġfasten": 11133,
    "Ġdominant": 12400,
    "Ġredeemed": 25790,
    "grieved": 17320,
    "mass": 12494,
    "ils": 3182,
    "Ġtranspointed": 22444,
    "iliating": 12701,
    "Ġwinchester": 10069,
    "Ġticking": 25036,
    "six": 7143,
    "ph": 917,
    "kish": 20936,
    "Ġsuitable": 18283,
    "Ġnile": 21524,
    "deep": 1029,
    "Ġrecess": 10848,
    "Ġwindigate": 18912,
    "Ġhier": 1895,
    "Ġmoles": 22438,
    "Ġconv": 2968,
    "Ġseldom": 4630,
    "Ġfeared": 5932,
    "Ġsult": 10769,
    "Ġsurp": 9637,
    "Ġskirts": 14355,
    "Ġquakers": 22420,
    "Ã¦mon": 7096,
    "ojo": 7349,
    "etw": 407,
    "japan": 15378,
    "thed": 8831,
    "Ġclutches": 20021,
    "Ġhamp": 12636,
    "Ġmalady": 24392,
    "icest": 21567,
    "Ġrept": 13986,
    "Ġderbyshire": 6588,
    "):": 11462,
    "ons": 709,
    "Ġelevated": 7318,
    "Ġcomprehend": 6495,
    "Ġarcher": 22194,
    "school": 10058,
    "Ġfringed": 17275,
    "former": 11752,
    "Ġthickest": 16657,
    "Ġbacked": 12931,
    "ified": 3225,
    "Ġbeggar": 9352,
    "Ġcatching": 9481,
    "Ġemploys": 19434,
    "Ġheavily": 6742,
    "anning": 10167,
    "unhes": 21879,
    "iamond": 14593,
    "Ġburnished": 24001,
    "Ġdining": 6978,
    "Ġreappearance": 21670,
    "formed": 2554,
    "Ġevaluation": 16577,
    "Ġsplit": 7993,
    "ate": 424,
    "Ġdiscoveries": 13362,
    "Ġboiling": 8528,
    "Ġspecies": 5112,
    "Ġens": 2790,
    "Ġswell": 8952,
    "metals": 24765,
    "insanity": 23072,
    "Ġbenefited": 19401,
    "Ġreward": 6146,
    "chase": 11648,
    "alarm": 15632,
    "Ġextremities": 19197,
    "arab": 21444,
    "next": 5893,
    "Ġisolation": 17153,
    "Ġcomputes": 4768,
    "Ġclothed": 19609,
    "Ġlou": 6822,
    "know": 2319,
    "Ġpretension": 23766,
    "Ġfirm": 3869,
    "disputed": 23502,
    "Ġformula": 2866,
    "Ġblackstone": 23392,
    "uel": 6967,
    "Ġhansom": 13668,
    "Ġsnuff": 7992,
    "Ġdropout": 1557,
    "Ġscratch": 25565,
    "Ġbigot": 24566,
    "Ġtyphoon": 12393,
    "Ġshells": 20367,
    "heavy": 10577,
    "Ġdiscoursing": 26268,
    "Ġmidst": 7986,
    "Ġglories": 16247,
    "Ġetext": 23953,
    "cooee": 12421,
    "Ġshoving": 23491,
    "hearth": 15503,
    "Ġerud": 20058,
    "impe": 21711,
    "g": 75,
    "Ġiterate": 13202,
    "zealand": 26053,
    "Ġgaze": 6932,
    "infant": 19830,
    "Ġvisions": 12979,
    "ieged": 22581,
    "istically": 14146,
    "elevating": 20409,
    "Ġdey": 11678,
    "unwho": 21881,
    "Ġtuesday": 9629,
    "Ġcleaving": 23185,
    "ales": 3315,
    "Ġdefer": 18824,
    "Ġeddy": 13549,
    "Ġmim": 3104,
    "poled": 22911,
    "Ġswiftness": 9930,
    "Ġrouted": 24908,
    "Ġappeals": 16319,
    "Ġrev": 6989,
    "eronomy": 15529,
    "Ġpane": 21466,
    "Ġtransitory": 16023,
    "etime": 12665,
    "Ġjames": 6420,
    "Ġclings": 15972,
    "Ġconnecting": 18632,
    "Ġfinest": 10395,
    "Ġdug": 21433,
    "Ġparc": 10921,
    "Ġrefined": 18709,
    "Ġbeast": 7180,
    "Ġirresistible": 13116,
    "Ġimmersed": 19488,
    "Ġbright": 3212,
    "drab": 23902,
    "Ġworth": 4416,
    "holes": 12058,
    "Ġfine": 1316,
    "Ġportable": 19373,
    "Ġattested": 22631,
    "Ġmaids": 19694,
    "Ġsecurity": 8980,
    "enched": 10157,
    "Ġgemini": 26471,
    "Ġdoubtless": 6197,
    "Ġache": 18663,
    "Ġhatchway": 13527,
    "Ġirrespective": 23378,
    "Ġobtru": 18675,
    "Ġsuppressing": 23006,
    "Ġoutstretched": 14198,
    "es": 288,
    "Ġsliding": 9366,
    "Ġaffection": 2640,
    "atiate": 12553,
    "Ġbored": 16110,
    "Ġdescribed": 6608,
    "Ġgrand": 3592,
    "Ġceremonies": 24837,
    "Ġhaunts": 18199,
    "Ġdoubloon": 6945,
    "stopping": 19353,
    "Ġprevailed": 7778,
    "agony": 14072,
    "Ġclutched": 13521,
    "Ġthimble": 15642,
    "domestic": 19828,
    "Ġproposal": 10022,
    "Ġmonsie": 11448,
    "tailed": 17687,
    "Ġdownwards": 8532,
    "hing": 980,
    "Ġfemale": 8345,
    "Ġemboldened": 22963,
    "Ġpilgr": 12185,
    "mell": 20966,
    "Ġexpands": 25238,
    "bare": 12445,
    "fect": 2301,
    "Ġdiff": 3113,
    "plied": 10257,
    "ripp": 6405,
    "hent": 12539,
    "Ġdefines": 1742,
    "Ġex": 362,
    "introduce": 25187,
    "rant": 11518,
    "Ġthroat": 7771,
    "Ġpoltro": 23621,
    "Ġstamping": 20034,
    "despicable": 24638,
    "Ġafar": 14297,
    "Ġtim": 4578,
    "Ġgin": 13964,
    "Ġcomprehens": 8320,
    "pursu": 11393,
    "Ġers": 15464,
    "Ġaristotle": 25818,
    "roar": 17955,
    "Ġsalted": 14759,
    "haz": 17566,
    "Ġunsub": 22025,
    "Ġpeace": 3692,
    "Ġsteps": 2864,
    "Ġsuggested": 8321,
    "Ġinflex": 20637,
    "ox": 9136,
    "Ġfreer": 23209,
    "Ġdesolate": 10016,
    "Ġtolerably": 8068,
    "Ġdard": 21425,
    "myster": 16266,
    "Ġamusements": 16915,
    "Ġspires": 11734,
    "utional": 17986,
    "remental": 21250,
    "white": 4602,
    "Ġmusic": 5269,
    "rabb": 15685,
    "thereby": 14450,
    "Ġselection": 18205,
    "Ġeber": 18006,
    "intolerable": 22941,
    "Ġconjunction": 25103,
    "Ġrestore": 9383,
    "Ġtopmost": 14589,
    "Ġweighty": 16037,
    "Ġarms": 3964,
    "Ġ105": 24413,
    "Ġchoice": 2165,
    "conced": 22472,
    "Ġemotions": 8972,
    "Ġtube": 15005,
    "Ġornaments": 17455,
    "Ġwag": 10777,
    "Ġdy": 2623,
    "washed": 13050,
    "ineering": 21971,
    "Â£": 4812,
    "bast": 10080,
    "Ġcomm": 838,
    "Ġ**": 4721,
    "Ġbre": 1914,
    "Ġfootman": 8288,
    "ees": 13714,
    "suspicions": 25392,
    "Ġdaughters": 4422,
    "sex": 12719,
    "Ġshrimp": 24159,
    "Ġpoker": 13925,
    "fellows": 12278,
    "ğ": 224,
    "noted": 22750,
    "Ġresol": 2666,
    "Ġsaid": 578,
    "Ġlower": 2663,
    "Ġraised": 4661,
    "plex": 706,
    "nurs": 21001,
    "speeches": 25240,
    "Ġkn": 4546,
    "Ġdisasters": 16058,
    "gently": 13732,
    "Ġstump": 7603,
    "inese": 12885,
    "Ġarithmetic": 18347,
    "agation": 1248,
    "Ġscrib": 22287,
    "judged": 14834,
    "Ġsupp": 1266,
    "Ġheath": 15707,
    "Ġripples": 25506,
    "Ġgentlemanly": 19318,
    "Ġawkward": 7075,
    "Ġ34": 16679,
    "Ġneed": 2607,
    "Ġinclude": 1876,
    "Ġtanning": 17731,
    "Ġlangu": 574,
    "Ġmiseries": 10347,
    "Ġcr": 2149,
    "Åĵ": 10746,
    "darkness": 9515,
    "Ġrelaxed": 12988,
    "fain": 13718,
    "Ġtearing": 14399,
    "alike": 17945,
    "flagged": 23975,
    "Ġmunro": 25631,
    "Ġdescends": 14288,
    "Ġsodden": 25536,
    "Ġplot": 14284,
    "Ġtigris": 25760,
    "jam": 15375,
    "Ġjoking": 12843,
    "though": 2117,
    "emb": 11693,
    "Ġengineer": 11979,
    "Ġpip": 1571,
    "Ġcircular": 13114,
    "underneath": 23790,
    "Ġredness": 19313,
    "previous": 9763,
    "Ġphilips": 5410,
    "Ġbend": 9173,
    "Ġbare": 6134,
    "Ġparametric": 2396,
    "expectant": 24278,
    "cloth": 11941,
    "Ġstalls": 25648,
    "Ġtemporary": 7981,
    "Ġusher": 22219,
    "Ġunquestion": 18249,
    "Ġpounds": 5368,
    "tail": 8765,
    "Ġdetails": 6567,
    "Ġbravery": 23840,
    "Ġhumor": 11052,
    "Ġfound": 1247,
    "Ġassures": 14469,
    "ju": 13744,
    "history": 15017,
    "Ġinvaders": 23482,
    "Ġabrid": 22276,
    "Ġvarying": 15815,
    "Ġlongitudes": 22638,
    "Ġdisregarded": 22534,
    "Ġfloating": 6606,
    "chamber": 13628,
    "sailors": 9925,
    "movable": 14327,
    "Ġgradually": 3400,
    "Ġduty": 4066,
    "Ġcocked": 12910,
    "Ġpopulous": 16828,
    "Ġcaptioning": 23026,
    "poles": 16214,
    "Ġearls": 18905,
    "Ġheavenly": 12089,
    "Ġtrowsers": 9630,
    "plate": 18200,
    "exposure": 19259,
    "avating": 18606,
    "vicinity": 20483,
    "Ġfrighten": 13280,
    "position": 15417,
    "Ġterribly": 10427,
    "Ġtick": 8109,
    "Ġexultation": 15175,
    "twice": 14623,
    "iffs": 9025,
    "Ġnerve": 16345,
    "ld": 385,
    "Ġexceeding": 1580,
    "Ø": 153,
    "Ġwhaling": 2785,
    "Ġsp": 457,
    "Ġschoolboys": 24481,
    "representativeness": 25273,
    "Ġuntoward": 19167,
    "affairs": 14658,
    "isis": 12585,
    "full": 7421,
    "button": 10970,
    "Ġalbatross": 10872,
    "Ġopen": 1547,
    "Ġindic": 2888,
    "ĠĠĠĠĠĠĠĠĠĠĠĠĠĠĠĠĠĠĠĠĠĠĠĠĠ": 24442,
    "maintained": 25023,
    "goin": 23406,
    "Ġyale": 21783,
    "Ġwipe": 25765,
    "causes": 20346,
    "Ġshivering": 10268,
    "at": 268,
    "leep": 4635,
    "nuts": 15402,
    "Ġuppermost": 15282,
    "initely": 7568,
    "Ġmillion": 14990,
    "evil": 11487,
    "Ġsneezing": 12252,
    "Ġbeings": 2489,
    "Ġdignified": 15603,
    "Ġfa": 4820,
    "Ġgilder": 21616,
    "Ġvery": 636,
    "orange": 21403,
    "Ġlanguid": 14216,
    "Ġindignity": 18835,
    "rary": 4575,
    "founded": 16715,
    "grees": 20888,
    "Ġsoothingly": 25050,
    "Ġgurglings": 26467,
    "Ġyarman": 12711,
    "effort": 19216,
    "Ġwilson": 6632,
    "Ġpout": 17908,
    "Ġnorthwards": 19549,
    "Ġhastened": 9007,
    "Ġpunch": 9958,
    "Ġflickering": 23019,
    "Ġstung": 21742,
    "Ġhadn": 9722,
    "forgive": 18730,
    "Ġmak": 10780,
    "Ġskewer": 19623,
    "C": 39,
    "Ġprovince": 24192,
    "Ġmasking": 2421,
    "Ġfondly": 19619,
    "misery": 13347,
    "Ġmiller": 19885,
    "uring": 819,
    "passion": 11261,
    "Ġdoubting": 13104,
    "liter": 11503,
    "inting": 9817,
    "Ġincreases": 3795,
    "Ġpitch": 5767,
    "Ġphilosop": 5057,
    "Ġheadlands": 22901,
    "delights": 19704,
    "Ġsteered": 11094,
    "slept": 17172,
    "Ġsnow": 3706,
    "Ġwalton": 14975,
    "Ġdisliked": 12897,
    "stand": 622,
    "Ġunreasonably": 17454,
    "Ġcod": 8413,
    "july": 20478,
    "ode": 1453,
    "Ġaudibly": 24770,
    "Ġconsume": 12963,
    "Ġoppressive": 20458,
    "Ġfinite": 2327,
    "Ġstrangeness": 16706,
    "apter": 1193,
    "Ġstil": 15723,
    "Ġsynd": 22215,
    "cried": 8728,
    "angel": 5726,
    "crew": 7544,
    "delight": 5345,
    "varied": 23188,
    "ential": 826,
    "painting": 17047,
    "Ġclubb": 22356,
    "Ġdepicting": 22601,
    "Ġdyspepsia": 20645,
    "Ġspiritual": 9933,
    "undant": 14794,
    "unavoidable": 17393,
    "Ġacqu": 1418,
    "Ġunch": 18240,
    "trunk": 23951,
    "ropes": 7903,
    "Ġconstrued": 26302,
    "Ġbatch": 891,
    "Ġuntamed": 19166,
    "Ġdiabolically": 25514,
    "interruption": 20115,
    "Ġopenshaw": 7955,
    "Ġhoary": 23357,
    "Ġrescue": 13346,
    "Ġishmael": 7395,
    "Ġfigures": 8633,
    "Ġmaw": 15545,
    "Ġimbued": 17458,
    "Ġproceeds": 12082,
    "Ġpalpit": 16692,
    "oes": 4434,
    "Ġpaces": 13922,
    "cks": 3076,
    "Ġman": 544,
    "pursue": 24976,
    "Ġemblematical": 25789,
    "Ġcannibal": 7774,
    "xology": 21144,
    "Ġsenate": 25215,
    "Ġagonising": 25374,
    "Ġinfiltrated": 23286,
    "Ġrans": 21973,
    "Ġoblivious": 26033,
    "Ġslain": 8956,
    "iscuits": 24667,
    "counters": 25398,
    "trowsers": 17693,
    "Ġenv": 3006,
    "Ġlead": 3522,
    "Ġi": 311,
    "Ġhelm": 5276,
    "Ġbecalmed": 18089,
    "K": 47,
    "Ġimprudent": 12854,
    "Ġearthquake": 14630,
    "firmly": 20283,
    "ĵ": 246,
    "Ġclouded": 13293,
    "strip": 19833,
    "Ġcircumnav": 12430,
    "Ġshapeless": 24524,
    "iciency": 9577,
    "Ġsuccession": 12106,
    "Ġgreenwich": 19323,
    "batim": 25019,
    "Ġbarrier": 16571,
    "forgotten": 12419,
    "Ġjeroboam": 10603,
    "Ġgid": 13965,
    "Ġbundle": 13429,
    "Ġsolitudes": 22891,
    "fortunes": 6334,
    "Ġglimpse": 6944,
    "deploy": 22146,
    "visible": 10536,
    "Ġpunctual": 17140,
    "bey": 10317,
    "Ġ24": 13194,
    "Ġbones": 4583,
    "Ġshunned": 17296,
    "Ġunscrew": 22042,
    "olera": 21830,
    "retrie": 18926,
    "impression": 15716,
    "Ġstem": 15724,
    "le": 279,
    "drunk": 24660,
    "Ġdelightful": 6322,
    "bones": 8372,
    "elf": 562,
    "Ġslouched": 13063,
    "Ġinputs": 842,
    "Ġjustinian": 22974,
    "catch": 17509,
    "Ġwhence": 5840,
    "Ġvessel": 3798,
    "tenderly": 20534,
    "itect": 1004,
    "Ġwester": 25156,
    "Ġsa": 474,
    "extinguished": 16156,
    "Ġmacey": 12568,
    "Ġxii": 11995,
    "Ġcage": 17827,
    "merry": 16539,
    "Ġvow": 10249,
    "Ġrack": 9315,
    "Ġbanker": 8670,
    "Ġwords": 1325,
    "Ġaberdeen": 26543,
    "aked": 2017,
    "Ġgloom": 4200,
    "Ġbrightened": 23832,
    "Ġunequal": 14845,
    "Ġentertained": 10001,
    "Ġsitt": 21220,
    "Ġundoubtedly": 8313,
    "oters": 21803,
    "Ġdents": 13914,
    "ning": 948,
    "Ġboys": 5194,
    "ass": 537,
    "treat": 12518,
    "Ġcurds": 22978,
    "arter": 17895,
    "Ġleaping": 8341,
    "Ġdawned": 14997,
    "Ġchapters": 10475,
    "Ġfaithfully": 14890,
    "Ġnaked": 8127,
    "Ġ58": 24322,
    "Ġrelied": 16199,
    "Ġsaville": 15894,
    "Ġpierce": 17037,
    "Ġpeered": 18668,
    "Ġbriskly": 25312,
    "Ġdownward": 10334,
    "Ġreasonably": 11091,
    "form": 496,
    "Ġcorrespondent": 19825,
    "Ġabridged": 26542,
    "velope": 17703,
    "draul": 9446,
    "Ġalleviated": 26205,
    "Ġharsh": 9524,
    "gravel": 22623,
    "Ġmour": 6974,
    "Ġdestitute": 14568,
    "sales": 17669,
    "ace": 719,
    "buttoned": 13635,
    "Ġoriginated": 24123,
    "rength": 4098,
    "impatient": 13643,
    "Ġtarts": 10755,
    "ber": 904,
    "Ġknocked": 9503,
    "Ġdespair": 4006,
    "science": 11914,
    "Ġlecture": 13570,
    "Ġruddy": 17128,
    "acles": 8522,
    "utting": 17987,
    "lotte": 3329,
    "clay": 18933,
    "Ġkeenest": 12166,
    "thousands": 16874,
    "Ġconsented": 11296,
    "rive": 9710,
    "Ġunrest": 11718,
    "Ġinexhaustible": 16983,
    "Ġund": 4116,
    "sufficient": 6638,
    "abominable": 20597,
    "Ġcapable": 5054,
    "Ġglued": 20592,
    "Ġcalmly": 7734,
    "Ġgetting": 4061,
    "Ġseparated": 9466,
    "Ġcanst": 8861,
    "Ġcollinses": 19131,
    ",--âĢľ": 19198,
    "fifth": 20149,
    "geons": 15984,
    "hip": 8744,
    "Ġ{": 21155,
    "crucible": 24843,
    "usable": 22293,
    "Ġchimney": 6498,
    "amed": 4448,
    "Ġarise": 7896,
    "Ġwrench": 12562,
    "Ġnumer": 3639,
    "allet": 11084,
    "Ġdeliverer": 11954,
    "Ġloftiest": 16876,
    "Ġcomprised": 14270,
    "Ġpepper": 9784,
    "dart": 20828,
    "Ġtinge": 25090,
    "}": 97,
    "orative": 21401,
    "Ġsymmetrical": 20370,
    "eskye": 21453,
    "Ġmarling": 23037,
    "boiling": 19001,
    "typewritten": 26039,
    "Ġne": 390,
    "sartain": 25623,
    "Ġbest": 1976,
    "Ġreplacing": 3449,
    "adequately": 20322,
    "Ġincome": 7917,
    "Ġconfidently": 24958,
    "ersburgh": 18210,
    "Ġsalad": 19482,
    "Ġjane": 1757,
    "Ġaccordance": 19501,
    "rodden": 21538,
    "rule": 15899,
    "Ġvultures": 25654,
    "Ġmoss": 9287,
    "tal": 17672,
    "Ġundulates": 24119,
    "verse": 9691,
    "simply": 20673,
    "Ġroute": 11382,
    "Ġsugg": 4499,
    "Ġcompliment": 5673,
    "Ġpurses": 23478,
    "Ġcharnel": 22256,
    "Ġcurve": 22975,
    "Ġquestionable": 19268,
    "inridge": 11562,
    "Ġporthole": 24399,
    "awing": 18917,
    "Ġbegg": 16258,
    "agreeable": 5830,
    "Ġtass": 15473,
    "Ġmillions": 11355,
    "Ġluxurious": 17314,
    "Ġopens": 23628,
    "Ġburglar": 17357,
    "nett": 16225,
    "Ġconsort": 18723,
    "ias": 6364,
    "up": 1283,
    "Ġflowed": 10374,
    "nine": 13764,
    "neg": 12871,
    "Ġwhalers": 8048,
    "._]]": 5335,
    "swimming": 24261,
    "Ġvirtue": 4922,
    "comm": 7440,
    "Ġcaresses": 26060,
    "xter": 9149,
    "ality": 2513,
    "Ġguardsmen": 20633,
    "pat": 10119,
    "Ġdetermination": 9822,
    "ios": 2205,
    "Ġburton": 23654,
    "okers": 18442,
    "stead": 10847,
    "glance": 16589,
    "vius": 23545,
    "Ġmeasurement": 19426,
    "network": 1940,
    "tackles": 25625,
    "Ġovers": 14208,
    "Ġtrack": 7450,
    "elaborate": 21579,
    "Ġthank": 3791,
    "awe": 20767,
    "Ġphiladelphia": 26606,
    "hr": 20890,
    "Ġconsiderably": 7715,
    "Ġhonour": 3920,
    "oken": 4305,
    "culiar": 2821,
    "Ġwreath": 25937,
    "neglected": 25670,
    "Ġgoverned": 23573,
    "tol": 17674,
    "Ġtendency": 11330,
    "steel": 8299,
    "Ġgrecian": 26297,
    "coach": 23562,
    "hands": 5968,
    "added": 11662,
    "waistcoat": 17364,
    "Ġfell": 1978,
    "bod": 12441,
    "Ġsaved": 6692,
    "Ġshr": 4224,
    "stick": 15690,
    "Ġhair": 3312,
    "persecut": 22189,
    "professor": 17252,
    "Ġfarm": 7840,
    "Ġbrass": 11049,
    "Ġgale": 5823,
    "Ġcaptive": 14430,
    "(_": 7540,
    "horizon": 23617,
    "Ġanticip": 7507,
    "Ġgn": 8822,
    "Ġparting": 9787,
    "lion": 20946,
    "Ġsagacity": 16976,
    "ara": 12612,
    "Ġpreacher": 18370,
    "e": 73,
    "croquet": 25748,
    "Ġhearing": 4761,
    "Ġquohog": 10973,
    "Ġcanall": 10929,
    "Ġdesign": 4130,
    "oko": 18441,
    "Ġobtained": 7432,
    "Ġlanded": 7469,
    "itates": 13872,
    "yth": 981,
    "twilight": 23704,
    "Ġledger": 19405,
    "Ġmember": 8465,
    "spee": 9320,
    "Ġtip": 15475,
    "Ġfriendless": 23029,
    "icing": 9203,
    "Ġdumb": 7843,
    "Ġutterance": 14766,
    "Ġstaves": 21744,
    "Ġran": 3341,
    "Ġpacked": 9983,
    "================================================================": 9993,
    "Ġdisinterested": 16061,
    "Ġnecessarily": 13252,
    "Ġleft": 1760,
    "acceptable": 25185,
    "ises": 3654,
    "Ġconducted": 10505,
    "visit": 7755,
    "fulfil": 16052,
    "Ġminut": 2202,
    "Ġelder": 7224,
    "etween": 774,
    "interview": 19300,
    "uries": 6149,
    "Ġwig": 9164,
    "Ġguess": 4903,
    "Ġyarns": 15199,
    "glances": 23856,
    "Ġpyth": 21464,
    "rolled": 9062,
    "Ġislets": 21805,
    "Ġshipmate": 8932,
    "Ġmonosy": 18853,
    "Ġcashier": 20201,
    "pause": 12505,
    "Ġhogshe": 20495,
    "Ġinclusive": 24165,
    "Ġpaints": 23526,
    "ceptive": 15967,
    "Ġfullest": 14816,
    "Ġaglow": 22516,
    "quadr": 15769,
    "Ġend": 1474,
    "Ġoptimize": 1678,
    "Ġdrinks": 24282,
    "Ġimmort": 19487,
    "ials": 11708,
    "gratulation": 24349,
    "Ġconstable": 19070,
    "Ġgrove": 12151,
    "Ġheed": 5630,
    "Ġcart": 11585,
    "posture": 16929,
    "client": 18934,
    "Ġoily": 13867,
    "Ġmincing": 18752,
    "Ġwillow": 18529,
    "Ġinflict": 15003,
    "any": 3336,
    "Ġauthority": 7749,
    "romed": 10906,
    "Ġhy": 5625,
    "iom": 20917,
    "Ġplaying": 6909,
    "rows": 6443,
    "priv": 9622,
    "Ġreposing": 23364,
    "Ġparagra": 15884,
    "Ġhoars": 19079,
    "dragging": 16611,
    "icket": 22671,
    "Ġpig": 5705,
    "coo": 11171,
    "Ġthat": 334,
    "Ġevolve": 3000,
    "Ġplayful": 19239,
    "aster": 1868,
    "Ġnoteworthy": 24164,
    "Ġcornelius": 13576,
    "idually": 21773,
    "Ġopium": 8997,
    "Ġbenjam": 22895,
    "Ġstillness": 12999,
    "umber": 5241,
    "Ġspe": 821,
    "mense": 4780,
    "didst": 19352,
    "georgiana": 26021,
    "Ġbitterest": 12406,
    "Ġaspect": 3094,
    "Ġcircumstances": 3923,
    "cil": 8724,
    "Ġplayed": 9419,
    "porary": 14552,
    "animals": 24737,
    "Ġdismantled": 20219,
    "Ġeuroclydon": 15300,
    "promised": 12256,
    "Ġrailway": 15023,
    "ustration": 2259,
    "Ġwa": 1752,
    "hawks": 24695,
    "Ġdisappoint": 24208,
    "Ġmatters": 4974,
    "Ġprocedural": 12035,
    "Ġhieroglyphic": 25588,
    "Ġdiscovers": 4428,
    "Ġdisdained": 15012,
    "extending": 22771,
    "ience": 797,
    "Ġdan": 8797,
    "vessels": 10628,
    "Ġinstinct": 6576,
    "Ġdiscussion": 17197,
    "Ġmorocco": 26575,
    "Ġbutchers": 18273,
    "Ġfilial": 16622,
    "plain": 1358,
    "Ġmysteriously": 24602,
    "Ġarr": 1799,
    "headsman": 16699,
    "Ġto": 297,
    "Ġrate": 1062,
    "ruction": 4356,
    "Ġcries": 7155,
    "Ġunless": 4086,
    "illed": 2624,
    "Ġunpardonable": 22064,
    "Ġdue": 3844,
    "Ġexpose": 10330,
    "Ġmethodic": 23102,
    "unching": 18161,
    "numerous": 17434,
    "Ġfoundling": 22980,
    "Ġdied": 4108,
    "Ġlonging": 14303,
    "scra": 13026,
    "Ġillustrious": 17110,
    "Ġsuperst": 7704,
    "Ġyourself": 2592,
    "Ġapp": 498,
    "Ġdischarged": 15224,
    "height": 21208,
    "Ġmelting": 24290,
    "Ġaccepted": 7751,
    "--âĢĺ": 22851,
    "professional": 20278,
    "Ġlashings": 25100,
    "Ġperf": 12855,
    "Ġbears": 6829,
    "Ġmorass": 22981,
    "Ġfretfulness": 25449,
    "inav": 15488,
    "trop": 15440,
    "Ġdeliberate": 15025,
    "investments": 25533,
    "Ġnumerical": 4243,
    "Ġwager": 17794,
    "Ġgib": 13968,
    "search": 8467,
    "Ġbri": 21381,
    "Ġpatron": 7461,
    "Ġescorted": 23508,
    "Ġhails": 21954,
    "necessities": 24308,
    "Ġtennes": 23552,
    "pitchpoling": 25725,
    "Ġincalculable": 17463,
    "Ġgunw": 6214,
    "zas": 17714,
    "Ġdaily": 5988,
    "oforte": 14290,
    "steaks": 23964,
    "boo": 16355,
    "lives": 12490,
    "Ġascended": 8669,
    "carb": 20812,
    "Ġbressed": 21390,
    "Ġextinguished": 10346,
    "Ġdoubling": 23323,
    "Ġinventing": 24862,
    "Ġbetokened": 18798,
    "ferent": 4193,
    "Ġcontinental": 19708,
    "socket": 22728,
    "Ġdamn": 11159,
    "surprising": 16921,
    "Ġdent": 13909,
    "Ġsmoothe": 23657,
    "lane": 10708,
    "Ġbeg": 1282,
    "Ġwight": 12558,
    "serpent": 16296,
    "Ġapplied": 6188,
    "Ġced": 10786,
    "Ġmasked": 3694,
    "brain": 13691,
    "Ġsled": 21221,
    "Ġplunder": 22608,
    "opic": 22480,
    "dron": 17527,
    "Ġwaggish": 25435,
    "orn": 2244,
    "Ġmess": 7831,
    "entary": 21570,
    "Ġsavag": 19377,
    "Ġnug": 21528,
    "Ġreputation": 11643,
    "Ġinspired": 2519,
    "Ġdrinking": 12173,
    "Ġdynamically": 4518,
    "Ġmurderous": 8316,
    "shroud": 20315,
    "Ġscott": 22285,
    "Ġwhereof": 16107,
    "Ġlifts": 25359,
    "Ġsimpleton": 16338,
    "iments": 4945,
    "conf": 4957,
    "Ġactually": 5389,
    "iff": 3903,
    "Ġsuddenly": 2646,
    "Ġgreatly": 5851,
    "Ġfo": 1652,
    "chairs": 21696,
    "grim": 19108,
    "Ġturing": 7566,
    "Ġpositives": 4316,
    "Ġdes": 1252,
    "arboard": 7266,
    "Ġenabled": 9299,
    "Ġwater": 1949,
    "maker": 12497,
    "middle": 11311,
    "Ġtongs": 9964,
    "Ġresentful": 24632,
    "Ġrelates": 12985,
    "ouring": 6421,
    "Ġkrempe": 10672,
    "Ġ56": 24320,
    "ife": 1025,
    "Ġuplifted": 11650,
    "Ġwalks": 8969,
    "burnt": 20083,
    "Ġconsistence": 23359,
    "Ġskip": 1845,
    "Ġwrists": 11113,
    "Ġspind": 18308,
    "Ġfounder": 17885,
    "reached": 13844,
    "Ġchristendom": 16696,
    "velled": 9879,
    "admire": 24946,
    "visual": 24225,
    "Ġstru": 2170,
    "gerine": 22893,
    "Ġramble": 9316,
    "arming": 8954,
    "Ġsatisfying": 23699,
    "trained": 4237,
    "figures": 20125,
    "ă": 196,
    "Ġcape": 5146,
    "Ġcollapsed": 15085,
    "instinct": 19546,
    "Ġdeposition": 18609,
    "bedroom": 14701,
    "alk": 1153,
    "Ġdigest": 24648,
    "new": 1467,
    "Ġascribed": 14858,
    "Ġdeeper": 2085,
    "Ġlooking": 2474,
    "Ġcommend": 10337,
    "Ġcumberland": 21358,
    "Ġcontaining": 2232,
    "tumbled": 21093,
    "Ġdella": 21442,
    "contrad": 19293,
    "Ġsteak": 9833,
    "twelve": 14624,
    "mediate": 16517,
    "Ġapplying": 13095,
    "Ġembodiment": 20531,
    "Ġprovoked": 13329,
    "ĉ": 202,
    "Ġstamp": 7864,
    "Ġtitle": 11409,
    "simultaneously": 19866,
    "Ġinfer": 7684,
    "Ġmend": 8407,
    "Ġdaring": 8121,
    "theless": 4258,
    "Ġcanvas": 7784,
    "belais": 24041,
    "Ġaries": 21200,
    "ospit": 22267,
    "Ġshriek": 6640,
    "Ġvoyage": 3052,
    "Ġspl": 2983,
    "Ġflog": 23624,
    "blind": 16704,
    "Ġcred": 8785,
    "Ġconducting": 16652,
    "verest": 13994,
    "Ġcoun": 4177,
    "Ġscud": 14193,
    "Ġfanatic": 23395,
    "Ġcontracted": 12866,
    "lad": 5993,
    "inf": 6234,
    "Ġrefreshed": 15295,
    "Ġ18": 3406,
    "Ġstone": 4646,
    "berish": 22745,
    "Ġdistraction": 22508,
    "[": 63,
    "Ġrinal": 21984,
    "Ġestimates": 3747,
    "Ġcramped": 23534,
    "Ġpunctilious": 26355,
    "Ġkept": 3344,
    "Ġwatching": 4855,
    "Ġgu": 1328,
    "Ġ98": 24594,
    "ing": 273,
    "Ġpetticoat": 15299,
    "Ġsinusoid": 4781,
    "superior": 9528,
    "osop": 4404,
    "lob": 22509,
    "Ġflames": 7940,
    "Ġrevolved": 9987,
    "taller": 26151,
    "Ġvehemently": 26040,
    "Ġsustain": 10020,
    "words": 7983,
    "Ġplaint": 10328,
    "Ġgangway": 20161,
    "enstein": 5800,
    "Ġcompromising": 22577,
    "future": 13720,
    "Ġoblig": 3445,
    "telesc": 22821,
    "okingly": 22382,
    "Ġinsignificance": 20460,
    "Ġwoke": 21292,
    "Ġamiss": 18510,
    "Ġaverse": 11082,
    "Ġprehensile": 26536,
    "Ġsunday": 7270,
    "Ġchamp": 18382,
    "Ġpours": 17914,
    "Ġpeeping": 16132,
    "Ġcal": 1326,
    "Ġclues": 18423,
    "Ġheighten": 19532,
    "reast": 17760,
    "Ġanew": 11431,
    "Ġhatty": 19267,
    "Ġtrinity": 22350,
    "ais": 8071,
    "ŀ": 257,
    "asked": 8915,
    "post": 6063,
    "mar": 4334,
    "Ġwonders": 7500,
    "beaut": 8515,
    "ifix": 21907,
    "owders": 18053,
    "sence": 3305,
    "Ġmoose": 22437,
    "shel": 11934,
    "oused": 6558,
    "Ġaccompan": 5513,
    "uity": 12522,
    "sing": 5138,
    "lowering": 16036,
    "Ġunde": 11716,
    "Ġtransparent": 9492,
    "omeness": 18018,
    "indifference": 15987,
    "instantly": 7506,
    "Ġinference": 9674,
    "pits": 15416,
    "oice": 1384,
    "plendent": 21962,
    "Ġintensely": 17019,
    "progression": 20385,
    "Ġoverl": 18429,
    "Ġcomposing": 16072,
    "Ġzone": 14364,
    "gun": 10099,
    "jephro": 26394,
    "Ġadduced": 26526,
    "Ġmeetings": 16535,
    "urrection": 12412,
    "Ġcoaxing": 18595,
    "raid": 3278,
    "ooping": 21009,
    "Ġsays": 3560,
    "Ġprospects": 9962,
    "elzebub": 26466,
    "excuse": 13384,
    "Ġpractical": 3161,
    "hopes": 15373,
    "Ġdescend": 7427,
    "script": 11079,
    "laws": 19810,
    "Ġcontemplation": 11358,
    "Ġadvisable": 11443,
    "erde": 21271,
    "Ġhay": 11607,
    "Ġheroines": 19754,
    "leviathans": 19941,
    "Ġdinners": 23985,
    "Ġdashes": 21437,
    "Ġ94": 17719,
    "autions": 20769,
    "Ġhauling": 14090,
    "Ġromantic": 8031,
    "Ġchimneys": 16974,
    "iltrated": 19307,
    "Ġgeometric": 3217,
    "Ġbrotherly": 16530,
    "doubtless": 17004,
    "monsters": 19173,
    "Ġ85": 24460,
    "embedding": 20360,
    "Ġstarts": 16585,
    ".--": 20748,
    "Ġnortheast": 23205,
    "Ġtrophy": 20010,
    "Ġpatagon": 14493,
    "Ġgenerously": 22411,
    "Ġslave": 7454,
    "laid": 10112,
    "Ġireland": 17338,
    "Ġgame": 3629,
    "Ġdevelop": 1637,
    "impatience": 25501,
    "agers": 5633,
    "Ġcoronation": 13337,
    "Ġpirates": 9076,
    "trans": 5594,
    "Ġhinting": 19652,
    "soles": 18685,
    "Ġrepressed": 21671,
    "urches": 12689,
    "Ġdial": 10812,
    "Ġrelent": 18777,
    "trip": 21094,
    "ships": 5486,
    "Ġplow": 21462,
    "Ġbid": 6133,
    "made": 4808,
    "onial": 11568,
    "Ġprogramming": 1183,
    "Ġbohem": 8529,
    "Ġunanswerable": 26523,
    "ancial": 21365,
    "Ġcran": 12005,
    "Ġpaths": 2570,
    "Ġemph": 14527,
    "Ġagony": 5388,
    "Ġmagnetic": 17243,
    "giv": 13725,
    "Ġthumb": 6982,
    "Ġbarbarous": 13479,
    "rever": 21238,
    "sacred": 17030,
    "short": 6568,
    "by": 1157,
    "ourage": 2452,
    "Ġexcellence": 11452,
    "Ġprovision": 14828,
    "Ġmomentary": 11037,
    "admit": 18093,
    "possession": 12226,
    "Ġimpenet": 14222,
    "²": 115,
    "follow": 5680,
    "isk": 9170,
    "tubs": 15134,
    "Ġreverence": 12063,
    "Ġfiss": 21415,
    "beef": 18524,
    "jonah": 11498,
    "Ġsmallest": 6431,
    "Ġgenuine": 14888,
    "Ġpatients": 24810,
    "antucket": 2644,
    "went": 6513,
    "Ġnavy": 14919,
    "Ġprocess": 566,
    "intense": 22939,
    "Ġcaused": 5048,
    "cket": 3687,
    "Ġwith": 349,
    "Ġrecommendation": 17027,
    "fing": 13716,
    "Ġdivine": 6921,
    "Ġcalifornian": 25853,
    "Ġall": 421,
    "Ġpolitics": 19226,
    "dwelt": 23874,
    "Ġdegenerating": 25800,
    "Ġfearlessness": 19163,
    "Ġdusting": 24597,
    "Ġselected": 9714,
    "insist": 23068,
    "Ġmam": 8406,
    "Ġforbearing": 25101,
    "toed": 18579,
    "Ġprophecy": 25706,
    "wore": 21127,
    "lantic": 6365,
    "Ġpulpit": 7470,
    "difference": 13711,
    "Y": 61,
    "Ġsanta": 26422,
    "laying": 19775,
    "Ġorgies": 18286,
    "Ġpride": 3822,
    "idled": 21772,
    "Ġinqu": 2964,
    "Ġwafted": 14501,
    "ividually": 22084,
    "pequod": 7054,
    "Ġsolicit": 22892,
    "derstand": 637,
    "Ġhospitable": 17060,
    "Ġhurts": 19113,
    "Ġempty": 5354,
    "Ġhumming": 12990,
    "Ġensu": 7875,
    "Ġcrater": 16439,
    "condem": 16348,
    "Ġdiscours": 18718,
    "Ġinquisitive": 26318,
    "ested": 3478,
    "Ġextending": 11028,
    "norm": 20987,
    "Ġcorresponding": 13441,
    "Ġlament": 7857,
    "Ġdrags": 16943,
    "Ġsouth": 4911,
    "Ġtablets": 13158,
    "uning": 1312,
    "Ġcountryside": 23598,
    "stooped": 23825,
    "ignant": 11130,
    "Ġfurled": 22817,
    "flour": 23969,
    "Ġornament": 11724,
    "Ġsple": 21218,
    "Ġindies": 22954,
    "Ġpursue": 6316,
    "Ġweakened": 16825,
    "successively": 24778,
    "Ġseverity": 15825,
    "house": 4073,
    "europe": 20668,
    "Ġsuperl": 16446,
    "Ġcommunic": 5751,
    "Ġpossible": 2585,
    "Ġprocopius": 19734,
    "iled": 1764,
    "swiftly": 20554,
    "Ġbecame": 2691,
    "ladder": 19787,
    "travellers": 24339,
    "Ġunlikely": 10909,
    "exact": 7910,
    "fireside": 24693,
    "Ġhail": 7400,
    "papers": 12506,
    "Ġposs": 1617,
    "rise": 6228,
    "Ġpalace": 16691,
    "Ġslice": 23164,
    "tossing": 18581,
    "topp": 22569,
    "Ġdespondence": 25870,
    "Ġeagle": 13203,
    "Ġshelf": 12272,
    "Ġcontribute": 12867,
    "kings": 17585,
    "Ġreplete": 15703,
    "Ġcharge": 5325,
    "astron": 22173,
    "sugg": 11845,
    "Ġfacts": 2289,
    "Ġfob": 21412,
    "sensible": 20055,
    "Ġaforethought": 25429,
    "Ġsnap": 11202,
    "employed": 17264,
    "Ġexped": 7651,
    "likeness": 19481,
    "Ġincognita": 26553,
    "Ġconcluding": 9860,
    "Ġcarav": 18903,
    "Ġperem": 12938,
    "Ġwidth": 16774,
    "Ġhig": 754,
    "Ġaqu": 17744,
    "mort": 10712,
    "Ġhyperborean": 26341,
    "blacksmith": 17003,
    "Ġangel": 4853,
    "Ġexpert": 18866,
    "Ġpersuade": 5874,
    "Ġconscientious": 16729,
    "Ġdismast": 12894,
    "Ġ75": 19615,
    "Ġinfants": 16371,
    "Ġsimple": 1622,
    "queen": 12733,
    "Ġdistrust": 8204,
    "Ġidentified": 19152,
    "Ġexclusion": 19399,
    "Ġmoderate": 10939,
    "conqu": 14247,
    "Ġmarched": 18874,
    "Ġlighter": 12659,
    "Ġrealised": 18981,
    "Ġtrifling": 10605,
    "pping": 1426,
    "Ġapart": 4746,
    "Ġinform": 995,
    "Ġperpetually": 17071,
    "Ġcalam": 13038,
    "Ġworship": 10369,
    "Ġgained": 4535,
    "hoisting": 23718,
    "mantel": 26396,
    "Ġparading": 23712,
    "Ġhistorically": 19381,
    "Ġunluckily": 20105,
    "Ġsit": 4214,
    "Ġruns": 8599,
    "Ġcarelessly": 11121,
    "omics": 21646,
    "Ġkeeping": 7283,
    "Ġclothes": 4997,
    "sequence": 2857,
    "bless": 22316,
    "Ġpatroness": 13511,
    "Ġinglorious": 24424,
    "Ġrogue": 22406,
    "assertion": 22315,
    "Ġolder": 9330,
    "Ġseated": 4541,
    "und": 4115,
    "?âĢĿ": 700,
    "bask": 20778,
    "Ġjeer": 24124,
    "ġ": 226,
    "Ġbroken": 3448,
    "Ġcust": 11584,
    "Ġprofanely": 23572,
    "Ġdir": 21424,
    "gentlemanlike": 20005,
    "member": 20977,
    "Ġimmovable": 15897,
    "Ġchas": 18380,
    "Ġdefine": 9818,
[...]
