{
  "metadata": {
    "vocab_size": 26614,
    "algorithm": "BPE",
    "created_at": "2026-09-01 07:12:17",
    "special_tokens": [
      "<PAD>",
      "<SOS>",
      "<EOS>",
      "<UNK>",
      "<MASK>"
    ]
  },
  "vocab": {
    "way": 764,
    "Ġreck": 6537,
    "seized": 14034,
    "!_âĢĿ": 11376,
    "Ġtis": 15464,
    "Ġutmost": 5496,
    "oga": 22707,
    "straight": 9939,
    "Ġbadly": 12129,
    "Ġcloser": 8659,
    "Ġmakest": 25435,
    "gracious": 11829,
    "superstitiousness": 25508,
    "aint": 2544,
    "Ġmummy": 25768,
    "Ġmerrily": 23731,
    "Ġincarn": 11812,
    "Ġreduced": 11922,
    "Ġirresolute": 24916,
    "Ġnecks": 18179,
    "Ġconf": 1820,
    "Ġlime": 13947,
    "eminence": 20097,
    "Ġdisgraceful": 15019,
    "Ġhovering": 10178,
    "Ġfilling": 13407,
    "Ġalive": 4399,
    "Ġunmanufactured": 20432,
    "mother": 5480,
    "Ġawhile": 13829,
    "Ġmeasurement": 19421,
    "Ġtreacher": 8604,
    "Ġaction": 5796,
    "Ġboldly": 9500,
    "persons": 24174,
    "Ġgrotesque": 26329,
    "Ġcommander": 8624,
    "Ġhesitation": 13440,
    "Ġpronouncing": 16969,
    "feature": 4010,
    "oring": 1861,
    "ired": 1445,
    "put": 414,
    "Ġbluff": 16517,
    "Ġtiles": 17726,
    "Ġamongst": 8959,
    "unearthly": 19272,
    "Ġnoted": 15828,
    "Ġconfession": 11236,
    "Ġcrop": 10162,
    "Ġtrying": 4838,
    "vous": 2253,
    "Ġtick": 8108,
    "Ġwho": 612,
    "swim": 16779,
    "occasion": 7753,
    "greeting": 24554,
    "Ġhorns": 11123,
    "Ġforefinger": 16443,
    "è": 169,
    "Ġmonomaniac": 9568,
    "marvell": 24172,
    "Ġwood": 2294,
    "Ġrue": 11865,
    "Ġminiatures": 20320,
    "sho": 6425,
    "Ġbroker": 23098,
    "Ġalpine": 18105,
    "Ġvales": 21943,
    "Ġconfirms": 23306,
    "Ġalternately": 15031,
    "Ġgra": 415,
    "athan": 2958,
    "Ġrefused": 6715,
    "Ġrearing": 12674,
    "illar": 5101,
    "upon": 2722,
    "Ġladies": 3188,
    "Ġpassengers": 13674,
    "Ġrepast": 16409,
    "Ġapparent": 5466,
    "Ġtremor": 24768,
    "exceed": 7910,
    "Ġmyth": 18220,
    "nesday": 8702,
    "Ġignor": 4017,
    "Ġverse": 16602,
    "Ġdecreed": 18486,
    "Ġdiscoursing": 26266,
    "Ġsembl": 19059,
    "Ġbuttoning": 17235,
    "ineas": 15820,
    "Ġunaffected": 14121,
    "esc": 615,
    "Ġstreaked": 19113,
    "Ġofficially": 24838,
    "aken": 1869,
    "Ġdistinctions": 18535,
    "Ġumbrell": 13649,
    "Ġsil": 1798,
    "enc": 7574,
    "vessel": 11377,
    "Ġbulls": 23856,
    "inence": 15480,
    "Ġentitled": 8538,
    "height": 21204,
    "Ġchatting": 24747,
    "Ġexplain": 545,
    "ocean": 12399,
    "Ġanoints": 25538,
    "Ġits": 706,
    "prot": 6899,
    "Ġmar": 1310,
    "Ġ180": 16606,
    "barrel": 17060,
    "Ġunreserved": 19395,
    "Ġobeyed": 12214,
    "light": 3018,
    "Ġdespised": 14666,
    "miles": 10712,
    "ishly": 14199,
    "french": 9119,
    "Ġowning": 18744,
    "Ġresc": 4506,
    "Ġformation": 2945,
    "usable": 22276,
    "Ġaffect": 1385,
    "ricted": 15419,
    "oar": 12495,
    "Ġencl": 16164,
    "ickering": 22667,
    "ifle": 10891,
    "Ġprudent": 9184,
    "baron": 24925,
    "Ġpassion": 4557,
    "Ġlearnable": 4000,
    "verdict": 21726,
    "floated": 24643,
    "otics": 10223,
    "Ġjolly": 6858,
    "ounced": 4954,
    "ixed": 4851,
    "shaw": 6864,
    "Ġfishes": 11590,
    "amusement": 15281,
    "B": 38,
    "Ġlean": 7605,
    "Ġrepresents": 4902,
    "gone": 6504,
    "Ġfalsely": 20580,
    "Ġplunge": 13442,
    "ic": 304,
    "ernally": 22617,
    "Ġshun": 11707,
    "distant": 13333,
    "somerset": 26322,
    "iony": 9191,
    "Ġsoftmax": 1686,
    "Ġhesitating": 16947,
    "pay": 10718,
    "Ġplayfully": 19238,
    "oe": 7552,
    "lively": 12482,
    "ivened": 22967,
    "Ġpoker": 13921,
    "irous": 8838,
    "Ġdismissed": 12889,
    "spouter": 22730,
    "eu": 17530,
    "Ġsunset": 8962,
    "Ġaddison": 14232,
    "Ġassurances": 9999,
    "arians": 18523,
    "indebted": 26158,
    "Ġexposing": 11830,
    "humoured": 11237,
    "Ġavalanche": 17432,
    "Ġkrusenstern": 26377,
    "Ġcouple": 5423,
    "ene": 2170,
    "Ġnightmare": 18919,
    "coward": 13699,
    "Ġsaf": 4006,
    "Ġtener": 21162,
    "jumped": 20245,
    "Ġallen": 5160,
    "Ġlust": 9197,
    "Ġbefitting": 15723,
    "lighted": 23753,
    "presume": 25670,
    "Ġomit": 17815,
    "compliments": 24810,
    "Ġrespons": 2686,
    "Ġrobes": 16238,
    "promontory": 24728,
    "Ġpopularly": 12239,
    "Ġadvent": 4358,
    "Ġwrinkles": 8570,
    "Ġsow": 17749,
    "Ġca": 21337,
    "Ġflooring": 23622,
    "echo": 15347,
    "apparat": 22841,
    "Ĵ": 245,
    "Ġtraced": 10383,
    "becomes": 22493,
    "ÿ": 192,
    "Ġshakes": 10904,
    "Ġgushed": 21604,
    "odecimo": 11444,
    "Ġsleek": 23382,
    "ological": 1883,
    "mises": 20977,
    "ount": 1110,
    "Ġplan": 3884,
    "ney": 2494,
    "Ġaccorded": 24089,
    "Ġvilla": 14746,
    "dashed": 12453,
    "progress": 11986,
    "Ġexter": 7397,
    "Ġclustered": 25233,
    "Ġstolen": 14006,
    "tons": 7559,
    "Ġbead": 21747,
    "take": 4576,
    "Ġvehicles": 10659,
    "Ġflatt": 16246,
    "ultural": 22565,
    "deepest": 22824,
    "Ġskull": 6288,
    "Ġdays": 2079,
    "Ġneatly": 17016,
    "admit": 18090,
    "verize": 21725,
    "Ġviii": 16411,
    "Ġdepths": 4328,
    "Ġquiet": 3258,
    "//": 11463,
    "nursery": 26399,
    "Ġcrocod": 19627,
    "Ġinfatuation": 25856,
    "Ġbowlines": 19321,
    "irregular": 21908,
    "Ġpain": 2305,
    "onstrate": 17768,
    "Ġmeantime": 6206,
    "countenances": 24151,
    "itu": 1226,
    "Ġsets": 8773,
    "prim": 23808,
    "Ġbedroom": 7277,
    "dropped": 12260,
    "Ġsledge": 8110,
    "brown": 15316,
    "Ġaloysius": 15735,
    "battle": 12440,
    "Ġpeaked": 2298,
    "creature": 5346,
    "Ġpervading": 20612,
    "Ġarticle": 9501,
    "mmed": 7913,
    "moby": 8536,
    "note": 14336,
    "Ġconsulted": 13429,
    "Ġclinched": 17393,
    "Ġdispositions": 13232,
    "Ġuprising": 12799,
    "turtle": 12209,
    "experienced": 15120,
    "Ġprovinc": 16742,
    "ident": 3381,
    "Ġtormented": 8674,
    "Ġpiratical": 24801,
    "Ġperceptibly": 25821,
    "helped": 18923,
    "Ġhereford": 22868,
    "izure": 21831,
    "nut": 12492,
    "rolling": 9060,
    "Ġreconsidered": 21670,
    "word": 2489,
    "Ġcords": 14878,
    "Ġdedication": 2899,
    "ool": 17618,
    "Ġ]": 15458,
    "patched": 17643,
    "Ġtraining": 530,
    "Ġlamps": 14790,
    "drugg": 20837,
    "Ġfolly": 7940,
    "Ġjoyously": 19345,
    "Ġstim": 18063,
    "Ġpale": 4532,
    "Ġbury": 12039,
    "hurriedly": 25510,
    "Ġcraw": 7282,
    "Ġexclamations": 11361,
    "Ġstriding": 16091,
    "Ġtru": 4111,
    "Ġapproved": 16033,
    "Ġmoul": 15541,
    "sac": 7140,
    "Ġforgetting": 3436,
    "island": 10794,
    "single": 10126,
    "Ġoverflowed": 20261,
    "Ġsaints": 20673,
    "Ġever": 1177,
    "sius": 13787,
    "Ġwelded": 9571,
    "use": 2538,
    "Ġphysiogn": 12386,
    "ta": 13788,
    "Ġblessed": 6931,
    "Ġdearest": 5457,
    "Ġdistribut": 844,
    "offices": 19061,
    "anous": 21357,
    "det": 5207,
    "Ġfrequencies": 4789,
    "Ġcrystal": 17214,
    "rabb": 15677,
    "ga": 17550,
    "Ġpratt": 23217,
    "study": 15116,
    "joint": 24006,
    "dug": 18462,
    "Ġmonster": 3795,
    "Ġnice": 6676,
    "Ġpatagon": 14513,
    "lesome": 12962,
    "Ġpaddling": 25285,
    "Ġblue": 3455,
    "Ġsamples": 2963,
    "ider": 21762,
    "Ġdeadly": 5405,
    "Ġsuperlative": 26074,
    "Ġaversion": 18865,
    "Ġescaping": 13134,
    "Ġexec": 19491,
    "Ġvag": 9707,
    "Ġintrepid": 11703,
    "Ġtrust": 4085,
    "remote": 23186,
    "Ġwindigate": 18910,
    "Ġeditions": 19120,
    "Ġramsgate": 18648,
    "Ġretreated": 13432,
    "Ġlargest": 6282,
    "Ġdepl": 14045,
    "low": 656,
    "Ġgeorgiana": 8625,
    "Ġfumbling": 21415,
    "tend": 17674,
    "Ġunsettled": 14122,
    "Ġthrilling": 19747,
    "Ġleviathanic": 12078,
    "Ġblundering": 26283,
    "Ġwrinkled": 7264,
    "caterpillar": 26383,
    "þ": 191,
    "Ġrenew": 6145,
    "Ġdrab": 13069,
    "envelope": 17782,
    "rage": 10843,
    "hastening": 24448,
    "Ġdelight": 2551,
    "provoke": 26071,
    "alter": 10826,
    "Ġsailors": 4279,
    "Ġserves": 4668,
    "Ġafterwards": 3531,
    "Ġcare": 1637,
    "Ġwriting": 4667,
    "iance": 5279,
    "searching": 25103,
    "oso": 12827,
    "bru": 12437,
    "Ġindu": 5293,
    "hroom": 12474,
    "kicked": 20942,
    "Ġtyros": 26101,
    "Ġmodes": 22211,
    "Ġboys": 5194,
    "Ġfaced": 10808,
    "Ġfundament": 2929,
    "netherfield": 9812,
    "Ġsimulates": 2739,
    "))": 1517,
    "ose": 719,
    "Ġactuated": 18545,
    "Ġmatlock": 18799,
    "88": 20757,
    "Ġburial": 16521,
    "Ġanon": 9666,
    "unwho": 21874,
    "unfearing": 21889,
    "sax": 21055,
    "Ġfortnight": 6200,
    "Ġbreat": 3461,
    "bib": 17491,
    "Ġix": 12663,
    "ina": 21178,
    "Ġmethinks": 10392,
    "Ġprejud": 6851,
    "Ġapplied": 6186,
    "Ġonce": 1490,
    "trembling": 17142,
    "Ġcruisings": 25864,
    "clings": 23147,
    "hawk": 7121,
    "Ġscript": 18399,
    "cape": 13696,
    "Ġinsens": 8276,
    "supervised": 1964,
    "Ġmarket": 7708,
    "fly": 13713,
    "hosmer": 25902,
    "Ġuntouched": 16464,
    "Ġmeadow": 17151,
    "Ġcataract": 23426,
    "ulance": 15764,
    "john": 11497,
    "clouds": 25496,
    "Ġcomplicated": 14734,
    "skirted": 24489,
    "Ġaccommod": 14212,
    "dening": 22775,
    "mpus": 13756,
    "intellect": 18821,
    "reshold": 21238,
    "Ġsallow": 12533,
    "salesman": 20670,
    "windlass": 16721,
    "resolutions": 26164,
    "Ġindifference": 6725,
    "atious": 10151,
    "ibid": 18846,
    "Ġproprietors": 20185,
    "Ġnarwhales": 24902,
    "Ġ48": 24080,
    "Ġsixth": 16558,
    "Ġnaturalist": 22902,
    "Ġtufted": 17014,
    "absence": 12705,
    "ening": 3102,
    "forecastle": 10990,
    "active": 16101,
    "https": 11682,
    "else": 6533,
    "shapes": 22459,
    "Ġlethar": 21743,
    "Ġb": 281,
    "Ġprehensile": 26534,
    "yond": 2331,
    "t": 88,
    "Ġconfluent": 19038,
    "cific": 10085,
    "placed": 7877,
    "Ġcandles": 9907,
    "fra": 8374,
    "Ġcurv": 3511,
    "Ġwound": 4528,
    "S": 55,
    "Ġpaddock": 25037,
    "Ġcab": 2635,
    "Ġtumultuous": 10615,
    "Ġdelusion": 18974,
    "iations": 11494,
    "Ġbridegroom": 10604,
    "Ġbruised": 25772,
    "Ġbench": 7238,
    "best": 6111,
    "esteem": 26008,
    "Ġcomput": 601,
    "osures": 22258,
    "Ġhorrify": 23816,
    "Ġintrig": 21987,
    "Ġincensed": 18571,
    "Ġpatagonian": 20534,
    "cherries": 19755,
    "patient": 25342,
    "onym": 14649,
    "Ġhalf": 1666,
    "Ġbusily": 9384,
    "related": 24009,
    "cork": 20795,
    "ined": 1259,
    "ilingly": 21720,
    "itatingly": 25277,
    "Ġhieroglyphics": 17302,
    "Ġ16": 7926,
    "Ġwilderness": 14839,
    "pitching": 24075,
    "tar": 8097,
    "abern": 21787,
    "Ġboun": 21378,
    "pronouncing": 25193,
    "ruded": 15895,
    "opes": 10310,
    "Ġprocure": 9509,
    "priv": 9619,
    "Ġshrivelled": 19702,
    "vate": 21108,
    "Ġquieted": 23840,
    "Ġfrigates": 25707,
    "Ġadmirals": 20383,
    "Ġlawyers": 25248,
    "fl": 3599,
    "Ġtore": 6530,
    "Ġcooking": 16646,
    "orph": 21397,
    "Ġvacuous": 24344,
    "Ġarmed": 9259,
    "Ġbeckoning": 20500,
    "Ġdeference": 10882,
    "Ġcarving": 14442,
    "Ġhard": 1443,
    "Ġworking": 5575,
    "ages": 827,
    "Ġsignal": 5944,
    "Ġdecorated": 22442,
    "combe": 7661,
    "Ġportion": 7492,
    "velope": 17701,
    "Ġpanelled": 19653,
    "cely": 3574,
    "Ă": 195,
    "Ġref": 924,
    "Ġarrogance": 26231,
    "Ġlet": 1109,
    "Ġskilful": 25836,
    "Ġheaven": 3366,
    "Ġwindings": 18909,
    "Ġwithered": 19463,
    "Ġproperly": 7944,
    "Ġcapstan": 9098,
    "Ġlands": 6594,
    "speeches": 25239,
    "Ġinherit": 25352,
    "âĢĶ_": 3196,
    "Ġhoarse": 14526,
    "Ġswan": 23048,
    "circ": 4389,
    "ims": 7176,
    "Ġattempt": 3487,
    "_.âĢĻâĢĿ": 17479,
    "Ġflag": 7242,
    "Ġpeaceful": 9455,
    "lying": 7174,
    "Ġoverwhel": 8196,
    "Ġbl": 1189,
    "Ġqualifications": 24675,
    "Ġblurred": 22928,
    "roll": 9196,
    "Ġod": 4439,
    "iftings": 23222,
    "Ġinsomuch": 23682,
    "influ": 9540,
    "Ġsigns": 2445,
    "Ġspoil": 17007,
    "Ġcigarette": 20655,
    "Ġstraining": 11327,
    "Ġsickbed": 24246,
    "Ġsoo": 15857,
    "Ġcompl": 3761,
    "Ġ40": 14767,
    "Ġscraggy": 24579,
    "Ġcorrupt": 11921,
    "onds": 12992,
    "riet": 18180,
    "fed": 11487,
    "herfield": 3630,
    "Ġinteresting": 4327,
    "flagged": 23969,
    "Ġplaced": 3445,
    "Ġtawny": 20480,
    "Ġeffusions": 18531,
    "Ġjoppa": 12034,
    "Ġ66": 24369,
    "sicilian": 21062,
    "Ġanatomical": 15075,
    "Ġlonging": 14296,
    "exposure": 19256,
    "Ġcared": 8782,
    "silly": 24422,
    "Ġshown": 5159,
    "Ġabroad": 8865,
    "Ġappropriate": 2251,
    "Ġcott": 3710,
    "Ġforbearance": 12326,
    "Ġsect": 17751,
    "parted": 21015,
    "Ġexaggerate": 25649,
    "Ġaffright": 9331,
    "vit": 13800,
    "Ġost": 9649,
    "Ġblight": 18817,
    "rous": 3754,
    "Ġmuteness": 19415,
    "exagger": 22425,
    "congreg": 25398,
    "Ġannoyance": 20661,
    "Ġimpelled": 11780,
    "mechan": 11855,
    "inal": 15479,
    "takes": 21074,
    "out": 467,
    "quite": 4646,
    "dden": 1805,
    "Ġ/*": 10139,
    "Ġbatch": 887,
    "Ġalmanac": 26485,
    "Ġearthquake": 14628,
    "ascar": 8434,
    "Ġpiercing": 13493,
    "Ġcommend": 10334,
    "Ġdescribe": 2767,
    "Ġinadequate": 17936,
    "enit": 17779,
    "memory": 13616,
    "nal": 1900,
    "naught": 20993,
    "Ġfi": 929,
    "Ġtherefore": 2241,
    "Ġcorpse": 6638,
    "bud": 10682,
    "Ġflitting": 13023,
    "warks": 5004,
    "leave": 7837,
    "Ġjoky": 18406,
    "Ġunluck": 8484,
    "avoid": 9304,
    "Ġconvers": 2909,
    "Ġoff": 903,
    "detective": 24383,
    "orte": 14184,
    "interference": 23737,
    "Ġundressed": 19512,
    "stretching": 20497,
    "arising": 17895,
    "Ġconsulting": 13428,
    "answer": 11730,
    "Ġcontortions": 18476,
    "ry": 806,
    "Ġped": 6817,
    "ĠĠĠĠĠĠĠĠĠĠĠĠĠĠĠĠĠĠĠĠĠĠĠĠĠĠĠĠĠĠ": 24443,
    "Ġisle": 8832,
    "to": 714,
    "Ġearnestness": 12123,
    "H": 44,
    "Ġtwit": 12926,
    "Ġcrawl": 11375,
    "Ġproceeded": 5335,
    "confirmation": 26089,
    "Ġantagonist": 26328,
    "irted": 14071,
    "mown": 20969,
    "narrative": 17318,
    "shiver": 16024,
    "Ġsporty": 19889,
    "Ġinvoluntarily": 8547,
    "Ġarrows": 18338,
    "landed": 18954,
    "Ġbaboon": 19692,
    "Ġsubs": 2130,
    "Ġconduct": 3734,
    "oriental": 23719,
    "Ġseparate": 5778,
    "Ġmermaids": 26170,
    "Ġrecollections": 10512,
    "Ġduodecimo": 16767,
    "Ġcannibals": 10587,
    "Ġunprinciple": 18254,
    "contrary": 23728,
    "uff": 2731,
    "Ġgestures": 13535,
    "club": 26380,
    "Ġfame": 21404,
    "sle": 9138,
    "othic": 16214,
    "Ġpreceded": 13427,
    "Ġthinkings": 22807,
    "Ġliber": 5168,
    "Ġtu": 6968,
    "Ġfet": 5807,
    "asions": 12648,
    "Ġlain": 17961,
    "morrow": 4572,
    "sprang": 19989,
    "Ġsunrise": 9372,
    "theless": 4263,
    "Ġfloat": 12030,
    "appo": 3918,
    "yset": 21144,
    "deliber": 17425,
    "Ġharpooneers": 4731,
    "beam": 16036,
    "room": 2180,
    "swell": 17663,
    "Ġwor": 1188,
    "26": 10072,
    "immense": 18052,
    "Ġchristian": 6479,
    "bantering": 25253,
    "Ġincisive": 18570,
    "his": 1412,
    "mid": 5617,
    "Ġdelirium": 10405,
    "Ġdrag": 6184,
    "Ġtenement": 23547,
    "lance": 12479,
    "Ġwear": 6030,
    "Ġgazed": 6478,
    "Ġremarkable": 4915,
    "Ġhighway": 14345,
    "Ġacknowledgment": 16957,
    "repent": 15512,
    "Ġungenerous": 18266,
    "Ġireland": 17334,
    "solid": 16376,
    "Ġunimpe": 22069,
    "Ġcast": 3605,
    "Ġdisplays": 19856,
    "Ġlondon": 2841,
    "iber": 6506,
    "84": 15300,
    "Ġent": 904,
    "awake": 14451,
    "loops": 12879,
    "Ġopposite": 5120,
    "alf": 4638,
    "mentioned": 10623,
    "Ġbritannica": 24680,
    "Ġbundle": 13425,
    "saved": 15430,
    "Ġintroduction": 8970,
    "tor": 15431,
    "conda": 18992,
    "Ġmountainous": 16599,
    "motion": 17606,
    "reflected": 24733,
    "Ġhooks": 14967,
    "Ġpawn": 12061,
    "Ġprovides": 1927,
    "Ġbeaten": 10528,
    "accents": 19211,
    "Ġcontradictory": 20395,
    "Ġdiffered": 22706,
    "pondicherry": 26400,
    "prudently": 21033,
    "Ġempires": 19075,
    "Ġexpanded": 14288,
    ">": 34,
    "'s": 2471,
    "Ġpreserve": 7529,
    "bird": 9585,
    "oura": 1060,
    "À": 129,
    "Ġarcher": 22181,
    "Ġnamed": 6139,
    "estab": 14170,
    "blu": 12438,
    "Ġoakshott": 12227,
    "Ġbuckle": 17033,
    "chased": 18041,
    "feeders": 25235,
    "fortun": 3539,
    "Ġendeavour": 4677,
    "Ġfanning": 23388,
    "cottagers": 20046,
    "Ġepicures": 25880,
    "Ġlogits": 3451,
    "Ġmoose": 22430,
    "dÃ¦mon": 17527,
    "Ġraft": 16114,
    "Ġretarded": 23068,
    "unity": 4156,
    "Ġbutts": 15853,
    "Ġgambler": 26190,
    "Ġgurgling": 17445,
    "Ġdistinguishing": 16496,
    "Ġcrossed": 6068,
    "Ġhartshorn": 26180,
    "Ġbegin": 3095,
    "Ġperceived": 4713,
    "Ġinjure": 16781,
    "Ć": 199,
    "Ġalongside": 6311,
    "acled": 16079,
    "Ġbehold": 5049,
    "Ġbegat": 18862,
    "Ġpiled": 8424,
    "Ġtak": 15469,
    "Ġglancing": 5399,
    "Ġqualified": 14949,
    "Ġconcil": 23321,
    "ison": 3072,
    "rown": 2194,
    "journey": 8744,
    "it": 276,
    "zek": 16269,
    "Ġexerted": 15752,
    "Ġgreen": 3051,
    "Ġloitering": 22113,
    "Ġshunned": 17292,
    "anations": 12573,
    "Ġsofa": 10268,
    "rusted": 16506,
    "numbers": 17616,
    "Ġtreasures": 17047,
    "Ġscandinav": 19959,
    "Ġthumb": 6981,
    "Ġours": 4612,
    "Ġbelonging": 8307,
    "Ġchronicler": 20228,
    "Ġgorgeous": 20465,
    "urches": 12682,
    "Ġrecursive": 4782,
    "Ġrevolutions": 23839,
    "Ġrumbling": 18211,
    "hatch": 15363,
    "Ġmurderer": 4980,
    "borough": 20784,
    "ortunity": 4404,
    "occur": 19574,
    "Ġlan": 5820,
    "pity": 17627,
    "ring": 1752,
    "Ġjust": 1241,
    "Ġsomebody": 7911,
    "¸": 121,
    "Ġcompanionship": 14919,
    "Ġinterest": 2250,
    "Ġprocession": 11773,
    "utored": 15660,
    "pus": 3416,
    "Ġdexter": 9700,
    "Ġgrammar": 1061,
    "Ġbower": 15564,
    "data": 2148,
    "apply": 18758,
    "persecut": 22186,
    "Ġunwaning": 25170,
    "jonah": 11496,
    "ements": 11107,
    "getic": 12963,
    "Ġeleven": 9389,
    "Ġfitted": 6243,
    "Ġseparated": 9464,
    "Ġknotted": 17019,
    "elev": 12456,
    "conveyed": 20519,
    "Ġcontent": 5034,
    "Ġnile": 21518,
    "forget": 11032,
    "foundation": 16714,
    "Ġscore": 9737,
    "Ġinterested": 6458,
    "Ġextracts": 9364,
    "duty": 20238,
    "Ġcaptive": 14426,
    "ulating": 10887,
    "Ġsmack": 9299,
    "otic": 15742,
    "Ġrepugnance": 19086,
    "Ġdrive": 5055,
    "A": 37,
    "imod": 15707,
    "Ġchosen": 7201,
    "Ġrounds": 18885,
    "rue": 1127,
    "dict": 15338,
    "Ġapo": 9630,
    "iliary": 21723,
    "Ġ49": 24081,
    "permitted": 18345,
    "Ġabased": 22265,
    "Ġnecessitates": 23926,
    "Ġadequ": 10913,
    "Ġxv": 23405,
    "Ġfurlongs": 20722,
    "Ġsprings": 16687,
    "==": 944,
    "landish": 11940,
    "imly": 12684,
    "Ġrates": 1403,
    "Ġunceasing": 20356,
    "Ġdin": 3625,
    "Ġbuilding": 8062,
    "functions": 11230,
    "Ġkeel": 6444,
    "Ġformality": 22826,
    "Ġadded": 2717,
    "Ġmaps": 2964,
    "Ġmagnitude": 1941,
    "daughter": 8353,
    "ecess": 17532,
    "Ġmurderers": 16811,
    "Ġproves": 14037,
    "Ġimproves": 22734,
    "kered": 18274,
    "Ġearthly": 7989,
    "tut": 15433,
    "Ġimagenet": 19245,
    "Ġglimp": 6065,
    "Ġignorantly": 19494,
    "unreasonable": 18162,
    "Ġenticing": 22743,
    "Ġpledge": 11599,
    "ands": 21863,
    "known": 3568,
    "conject": 8879,
    "Ġproducts": 5198,
    "dart": 20825,
    "Ġagon": 10320,
    "complied": 19912,
    "Ġhuge": 4699,
    "Ġaffecting": 2325,
    "confid": 14866,
    "Ġsympathetic": 17358,
    "wealth": 22685,
    "Ġstout": 6024,
    "equally": 19898,
    "Ġseason": 5237,
    "eding": 7165,
    "wic": 21119,
    "Ġsuddenly": 2647,
    "Ġshapes": 14108,
    "asleep": 21541,
    "Ġaffectation": 14440,
    "Ġunreasonably": 17450,
    "leaving": 10791,
    "Ġpolar": 9410,
    "acqu": 4842,
    "apple": 22837,
    "mmar": 952,
    "Ġvelv": 10619,
    "listen": 13513,
    "Ġdownward": 10331,
    "Ġveracity": 23887,
    "Ġbaptized": 25774,
    "helmsman": 24287,
    "Ġmill": 6666,
    "oftentimes": 19419,
    "street": 6495,
    "ivered": 7005,
    "Ġelasticity": 19557,
    "Ġtask": 1309,
    "Ġowest": 25091,
    "Ġaye": 3354,
    "readers": 23845,
    "Ġliberties": 19666,
    "Ġdownright": 16116,
    "smo": 10125,
    "Ġleviathans": 8281,
    "Ġlurk": 13382,
    "Ġoutermost": 22316,
    "tempted": 26403,
    "Ġschemes": 11131,
    "Ġcrimin": 6901,
    "iously": 2679,
    "assistance": 20369,
    "Ġtransported": 11279,
    "Ġview": 2763,
    "moreover": 12966,
    "axing": 18547,
    "shells": 26056,
    "Ġabundance": 17155,
    "Ġquiescent": 26242,
    "Ġpartially": 13121,
    "Ġexclamation": 8698,
    "Ġsunlight": 13083,
    "Ġbrutality": 26276,
    "Ġbehaviors": 13253,
    "Ġdigesting": 19808,
    "Ġkeep": 2357,
    "Ġsway": 7571,
    "Ġrig": 4228,
    "social": 11022,
    "ensils": 22545,
    "Ġxxii": 24478,
    "Ġwreaths": 25937,
    "married": 9948,
    "Ġyelling": 18096,
    "ral": 4627,
    "Ġcyn": 13885,
    "Ġindicate": 23721,
    "Ġprophe": 13077,
    "virt": 15450,
    "falling": 24361,
    "namely": 23670,
    "Ġeight": 3905,
    "Ġjoyful": 13219,
    "endom": 15921,
    "Ġconsequent": 18110,
    "Ġglorious": 11076,
    "tram": 19634,
    "Ġbreckinridge": 14523,
    "Ġalgorithms": 835,
    "Ġcasualty": 20340,
    "Ġintrusion": 12762,
    "riety": 12741,
    "romeda": 17262,
    "Ġhandspike": 22693,
    "Ġdetached": 10279,
    "Ġcalculus": 23980,
    "fork": 20856,
    "Ġcet": 6669,
    "Ġcontextually": 11957,
    "Ġburnwell": 13267,
    "Ġbowditch": 19322,
    "Ġexecuted": 9471,
    "Ġattribute": 16098,
    "Ġexpected": 3698,
    "commotion": 24913,
    "gan": 2200,
    "Ġpulse": 13113,
    "Ġthyself": 6602,
    "Ġpuff": 6526,
    "tete": 10732,
    "Ġsnodhead": 19301,
    "itching": 21333,
    "whether": 5319,
    "Ġsuddenness": 23380,
    "added": 11658,
    "trial": 20349,
    "Ġchicha": 15934,
    "Ġhindoo": 17175,
    "Ġthrew": 3977,
    "Ġpage": 6978,
    "Ġvenom": 24238,
    "Ġbias": 1190,
    "ditch": 17528,
    "Ġmalignity": 10556,
    "throt": 25659,
    "pede": 19843,
    "Ġdong": 17887,
    "Ġinflicted": 11365,
    "Ġoverpowering": 15248,
    "drawn": 9912,
    "Ġparlour": 12319,
    "Ġtints": 17727,
    "pening": 2833,
    "Ġreser": 5170,
    "poverty": 22904,
    "bourne": 19102,
    "Ġstalked": 20427,
    "sleeves": 26109,
    "Ġwinding": 8235,
    "Ġrobert": 10970,
    "Ġlanded": 7469,
    "omp": 2473,
    "iates": 13736,
    "Ġreaped": 18029,
    "Ġhush": 13210,
    "Ġprodu": 1203,
    "Ġcanaller": 25467,
    "irst": 878,
    "Ġrepositories": 23362,
    "Ġsur": 2184,
    "creatures": 7517,
    "Ġregretted": 13399,
    "Ġtone": 4044,
    "Ġhurled": 10429,
    "Ġhinted": 6011,
    "estate": 12818,
    "Ġcomp": 724,
    "Ġbroad": 3639,
    "Ġly": 2270,
    "Ġnap": 8808,
    "Ġfanatic": 23390,
    "fall": 5135,
    "Ġpulling": 5862,
    "Ġsober": 10910,
    "Ġvalu": 5039,
    "constant": 11324,
    "ignant": 11129,
    "Ġentered": 2848,
    "vellers": 16673,
    "Ġgild": 15666,
    "eminent": 25104,
    "ourselves": 9010,
    "Ġchick": 22244,
    "oda": 15746,
    "Ġbro": 1429,
    "hitherto": 17283,
    "Ġimmemorial": 10510,
    "Ġdemo": 10880,
    "two": 3862,
    "bones": 8371,
    "&": 10,
    "sur": 4523,
    "Ġwrap": 24594,
    "Ġrenewed": 9537,
    "Ġfeeding": 7971,
    "forward": 2188,
    "Ġjest": 18403,
    "Ġspectators": 19405,
    "intu": 22930,
    "likes": 18814,
    "Ġpince": 21468,
    "apse": 14198,
    "benefit": 24642,
    "Ġpear": 11850,
    "olstad": 7611,
    "erce": 6126,
    "Ġimpertin": 6933,
    "knell": 24555,
    "ill": 447,
    "Ġapp": 497,
    "enborough": 21284,
    "pleas": 3854,
    "ong": 537,
    "Ġbarrel": 23790,
    "owal": 13992,
    "Ġassid": 18944,
    "Ġboa": 22632,
    "Ġinex": 6528,
    "relu": 17759,
    "cules": 12389,
    "'t": 3141,
    "olerably": 11672,
    "kindness": 10505,
    "Ġunfaltering": 24113,
    "Ġhotel": 8650,
    "Ġsunbeam": 23273,
    "Ġhandfuls": 17209,
    "impatience": 25500,
    "Ġlayers": 816,
    "inite": 6001,
    "entials": 22656,
    "res": 2761,
    "Ġsong": 5902,
    "Ġsalutations": 25382,
    "Ġphrenologists": 25608,
    "horse": 8605,
    "Ġtranslates": 12049,
    "Ġreigning": 15698,
    "Ġbear": 3658,
    "Ġprodig": 6027,
    "Ġfavourable": 7958,
    "creation": 14805,
    "Ġseventh": 18206,
    "sided": 17664,
    "Ġdiminished": 16665,
    "Ġpreservative": 24629,
    "Ġdromed": 15594,
    "ending": 1987,
    "solving": 3096,
    "Ġheathen": 10565,
    "ult": 723,
    "ian": 1239,
    "Ġflesh": 5968,
    "icil": 17971,
    "Ġsufferer": 16257,
    "Ġpauses": 14814,
    "Ġopened": 3512,
    "Ġenthusiastic": 19964,
    "thoroughly": 26508,
    "Ġdais": 24372,
    "settled": 10506,
    "Ġjames": 6419,
    "Ġsuck": 15859,
    "Ġphilipses": 24452,
    "rubbery": 17341,
    "Ġrespectful": 16342,
    "Ġcoopers": 20520,
    "uned": 21868,
    "Ġlightened": 23259,
    "aw": 1448,
    "convenient": 12235,
    "Ġmagnanimous": 17410,
    "Ġfee": 7199,
    "Ġpreaching": 15924,
    "Ġmy": 412,
    "icest": 21561,
    "Ġdamning": 19139,
    ")âĢĶ": 20741,
    "Ġboast": 7034,
    "Ġbody": 2439,
    "ertips": 23638,
    "Ġoffer": 4843,
    "Ġparallel": 1414,
    "owder": 8448,
    "ssing": 3811,
    "Ġsalary": 13292,
    "Ġtheirs": 7024,
    "Ġe": 312,
    "augmented": 26286,
    "nui": 20999,
    "Ġmachinery": 20483,
    "dinah": 20079,
    "Ġwants": 5742,
    "service": 15036,
    "touching": 15090,
    "iocr": 20922,
    "Ġcommencement": 12236,
    "Ġsorrows": 13353,
    "Ġclearer": 16310,
    "atigable": 15269,
    "crated": 16696,
    "Ġhurry": 4913,
    "turner": 19540,
    "Ġweep": 7619,
    "Ġmantel": 11439,
    "Ġnearly": 3364,
    "Ġdisembow": 22534,
    "Ġgarnery": 17386,
    "Ġstrangled": 24134,
    "Ġperpetual": 12301,
    "valu": 1736,
    "unities": 15768,
    "willingness": 24755,
    "abiding": 21790,
    "animal": 16978,
    "Ġprevious": 2090,
    "asked": 8911,
    "aned": 5147,
    "build": 12185,
    "Ġans": 1644,
    "elope": 14467,
    "igation": 5917,
    "Ġitalian": 12408,
    "Ġcapricious": 20537,
    "cure": 11474,
    "scrape": 25698,
    "quarried": 24945,
    "Ġwriter": 11943,
    "cd": 15322,
    "Ġdomestic": 6910,
    "riptions": 14794,
    "Ġnetworks": 594,
    "Ġwink": 11568,
    "ships": 5486,
    "Ġnote": 4266,
    "Ġexcused": 23311,
    "Ġover": 556,
    "Ġanimation": 11152,
    "ha": 3985,
    "Ġmelancholy": 5606,
    "arling": 10814,
    "Ġtwenty": 3952,
    "gument": 20884,
    "Ġmathemat": 3198,
    "george": 26019,
    "Ġmany": 1100,
    "Ġnash": 5819,
    "Ġspool": 24806,
    "Ġcontempt": 6275,
    "Ġgnawed": 25164,
    "bod": 12435,
    "Ġexclaimed": 4682,
    "Ġred": 3006,
    "Ġdescried": 7918,
    "Ġingen": 9049,
    "Ġrecollecting": 17113,
    "21": 10071,
    "Ġtomahawk": 7539,
    "Ġwall": 3845,
    "doc": 23374,
    "Ġretiring": 16279,
    "accur": 14593,
    "Ġsecured": 6745,
    "Ġdiscoveries": 13357,
    "Ġclassification": 1101,
    "Ġrepenting": 25322,
    "Ġasked": 2279,
    "Ġspat": 2666,
    "Ġsaves": 18324,
    "Ġeels": 21619,
    "Ġcolonnades": 26275,
    "Ġiceland": 15145,
    "Ġdeceased": 15006,
    "lected": 1636,
    "Ġleague": 6538,
    "Ġneskyeuna": 26459,
    "cake": 20803,
    "ails": 6160,
    "watch": 6118,
    "Ġgasping": 17038,
    "ish": 550,
    "Ġuplifted": 11646,
    "Ġunh": 9252,
    "Ġbod": 4581,
    "erie": 21270,
    "Ġeaglet": 19304,
    "evidently": 20344,
    "hereafter": 19216,
    "Ġspending": 10923,
    "hard": 4689,
    "Ġgush": 10202,
    "marriage": 7744,
    "itates": 13868,
    "Ġincognita": 26551,
    "blows": 17165,
    "Ġdeficiency": 14402,
    "Ġtim": 4578,
    "Ġdrowned": 9551,
    "Ġobtained": 7432,
    "blue": 13692,
    "Ġsafie": 6617,
    "Ġsheets": 9721,
    "fortune": 4975,
    "Ġstrip": 9420,
    "Ġcondense": 21805,
    "00": 1610,
    "Ġpaste": 23417,
    "ickory": 22666,
    "Ġmagistrate": 8233,
    "Ġsho": 2246,
    "Ġexecution": 6927,
    "Ġprosecution": 12379,
    "ternatural": 12712,
    "support": 9469,
    "Ġtowns": 11173,
    "main": 8087,
    "Ġhalloa": 13315,
    "lydon": 13988,
    "Ġinvestigation": 9042,
    "Ġac": 847,
    "Ġproc": 5545,
    "cavity": 26126,
    "Ġconveniently": 20077,
    "Ġparade": 18301,
    "Ġmimic": 3140,
    "Ġoriginate": 24122,
    "iscient": 17851,
    "ena": 11567,
    "vious": 1784,
    "Ġtattered": 21170,
    "Ġentirely": 3435,
    "Ġundeviating": 15216,
    "slee": 17168,
    "Ġpounds": 5368,
    "sword": 10726,
    "Ġblotted": 20216,
    "Ġindifferent": 6174,
    "Ġsuperb": 16444,
    "daughters": 13465,
    "Ġimmovable": 15890,
    "beware": 16037,
    "Ġtarpaulin": 26157,
    "poured": 17637,
    "urbed": 15706,
    "Ġ20": 8613,
    "Ġentire": 2562,
    "Ġear": 1421,
    "Ġsalmon": 24059,
    "Ġjovial": 19233,
    "Ġliberated": 19665,
    "Ġtranslations": 12050,
    "judgment": 16753,
    "Ġgravesend": 15215,
    "Ġmountain": 3374,
    "Ġsociety": 3981,
    "quality": 10232,
    "Ġcounters": 24140,
    "Ġsprawling": 22136,
    "Ġsurrounds": 24231,
    "Ġpreceding": 7528,
    "Ġpier": 7162,
    "Ġreal": 1634,
    "thyself": 19297,
    "thence": 23398,
    "Ġupp": 13991,
    "Ġne": 389,
    "Ġ106": 24414,
    "Ġtangled": 13826,
    "Ġvoyagings": 19235,
    "Ġstraits": 7993,
    "turning": 8316,
    "Ġperilous": 7768,
    "Ġbroods": 23099,
    "Ġpartaking": 22694,
    "remark": 7261,
    "Ġlicence": 25096,
    "Ġesteemed": 10588,
    "pshire": 21023,
    "sighted": 19784,
    "Ġmind": 1620,
    "ago": 14064,
    "Ġfeebly": 24877,
    "bout": 20772,
    "commencement": 26347,
    "loo": 10319,
    "Ġpad": 8124,
    "Ġjun": 8505,
    "Ġlurking": 11289,
    "Ġbarricade": 14660,
    "leness": 4690,
    "abri": 6682,
    "pe": 1436,
    "liness": 8746,
    "affect": 13211,
    "Ġheadway": 18792,
    "Ġopening": 5045,
    "Ġadmirable": 8268,
    "Ġregimentals": 19857,
    "farmer": 25899,
    "Ġobscurely": 20187,
    "Ġremembering": 14611,
    "Ġampl": 22477,
    "Ġslabs": 13058,
    "distinguished": 10526,
    "Ġsheaves": 22155,
    "mael": 6722,
    "Ġstatement": 5254,
    "Ġmiguel": 25766,
    "Ġimparts": 18445,
    "rumours": 23897,
    "Ġpreposterous": 13668,
    "iment": 2817,
    "Ġregent": 18597,
    "yn": 7819,
    "Ġrecomm": 4996,
    "Ġwail": 21285,
    "rim": 7137,
    "Ġhish": 21910,
    "Ġeloquent": 16108,
    "reeling": 21243,
    "uming": 8491,
    "seventh": 12711,
    "Ġcran": 11999,
    "Ġrushing": 7403,
    "Ġshaft": 18229,
    "Ġsubsc": 22786,
    "Ġservices": 11217,
    "Ġthemselves": 3249,
    "tie": 21067,
    "Ġorder": 1683,
    "Ġmiracle": 15092,
    "_âĢĶ": 11467,
    "Ġencircling": 26271,
    "Ġlamb": 8812,
    "elag": 12655,
    "Ġinstructions": 11196,
    "Ġinsolent": 13599,
    "Ġveter": 15809,
    "Ġkelson": 18350,
    "asible": 21539,
    "Ġstriking": 6088,
    "Ġbid": 6131,
    "Ġshouting": 10522,
    "Ġey": 8134,
    "Ġoffence": 12941,
    "Ġdre": 1744,
    "Ġcivility": 4788,
    "people": 7676,
    "sford": 5997,
    "Ġastir": 14640,
    "Ġhan": 15615,
    "Ġmanx": 7904,
    "Ġbriskly": 25311,
    "Ġcustom": 5078,
    "Ġwriters": 13542,
    "Ġconfided": 19035,
    "Ġsettlement": 19835,
    "nose": 17610,
    "stranded": 19225,
    "contents": 12056,
    "Ġrepeating": 11213,
    "cordiality": 25137,
    "loaded": 22509,
    "slowly": 9088,
    "maintained": 25020,
    "Ġthirt": 13938,
    "Ġbushes": 16399,
    "Ġmarty": 20289,
    "Ġreduce": 7942,
    "Ġbuttoned": 25368,
    "Ġsold": 6002,
    "Ġcoars": 14270,
    "Ġprevents": 2560,
    "Ġsuns": 23271,
    "Ġstable": 2700,
    "Ġlightness": 23258,
    "im": 327,
    "Ġvirtue": 4922,
    "Ġ82": 24458,
    "Ġdropout": 1559,
    "Ġmuchness": 18704,
    "Ġreply": 4515,
    "Ġsaratoga": 26423,
    "Ġodd": 6624,
    "Ġportrait": 10661,
    "downward": 16619,
    "ctions": 951,
    "expose": 23663,
    "Ġexpecting": 10436,
    "orphans": 26440,
    "sway": 15424,
    "Ġshocks": 16456,
    "Ġgrasp": 4663,
    "Ġblow": 3376,
    "Ġcenturies": 8622,
    "Ġspouter": 12795,
    "cigar": 26124,
    "Ġenigmatical": 20596,
    "Ġarrange": 3118,
    "Ġhaws": 21948,
    "za": 13809,
    "Ġlist": 2366,
    "Ġflour": 8944,
    "Ġthirteen": 15273,
    "istics": 1629,
    "Ġstrongest": 11135,
    "Ġflights": 24753,
    "Ġruff": 14348,
    "Ġdidst": 11847,
    "trans": 5594,
    "Ġsustenance": 19932,
    "Ġcabaco": 13166,
    "iguous": 18044,
    "merchant": 10467,
    "Ġautumnal": 19021,
    "Ġowners": 7662,
    "w": 91,
    "Ġindic": 2889,
    "ilight": 12690,
    "tried": 13793,
    "Ġindex": 17049,
    "Ġsparks": 22129,
    "Ġflashing": 13025,
    "Ġlesson": 7276,
    "ffy": 18317,
    "Ġpeels": 22688,
    "Ġge": 1976,
    "Ġsnapped": 9896,
    ";âĢĿâĢĶ": 20759,
    "savage": 15074,
    "Ġresided": 11809,
    "enhall": 13849,
    "Ġinduced": 8670,
    "Ġvengeance": 5884,
    "Ġexam": 3712,
    "engaged": 7452,
    "halloa": 17090,
    "twain": 23699,
    "Ġdismast": 12885,
    "Ġdisaster": 12884,
    "nowadays": 22335,
    "Ġendeavours": 8617,
    "Ġfog": 9661,
    "Ġscreen": 17205,
    "Ġfavoring": 2345,
    "rippling": 24714,
    "shown": 22451,
    "cnns": 3620,
    "Ġacquire": 2724,
    "Ġreligious": 25121,
    "Ġadvancing": 6878,
    "Ġobliged": 4288,
    "bab": 11468,
    "Ġvelocity": 10620,
    "screaming": 20324,
    "seventy": 10876,
    "Ġpatent": 11963,
    "arthy": 4822,
    "Ġreco": 9791,
    "Ġdashed": 6009,
    "Ġloathed": 15873,
    "Ġerie": 20052,
    "Ġsoles": 22073,
    "Ġhenry": 5197,
    "Ġengra": 7873,
    "Ġj": 533,
    "Ġplanets": 24053,
    "Ġdevoted": 6573,
    "Ġdestroyer": 13412,
    "Ġbears": 6829,
    "Ġsensible": 4976,
    "immediately": 10048,
    "Ġshoal": 12014,
    "Ġunerring": 15845,
    "respect": 6374,
    "elt": 4120,
    "Ġraging": 14305,
    "geor": 15976,
    "Ġgovernesses": 25127,
    "trifling": 19412,
    "Ġcir": 21339,
    "Ġartfully": 22604,
    "Ġglacier": 11433,
    "Ġnumberless": 16413,
    "Ġunden": 22010,
    "considerably": 13444,
    "Ġunlo": 22009,
    "Ġunnearable": 26516,
    "Ġpierced": 12279,
    "entiating": 3439,
    "lemency": 21372,
    "hau": 17562,
    "Ġapology": 8327,
    "Ġoh": 2177,
    "Ġcall": 2076,
    "Ġ94": 17717,
    "Ġrefrain": 12947,
    "Ġjob": 7015,
    "Ġashen": 21896,
    "Ġhome": 2028,
    "arrange": 23765,
    "returns": 23132,
    "Ġpenalty": 1842,
    "Ġ133": 24783,
    "Ġenjoying": 11235,
    "done": 6500,
    "Ġpastures": 23418,
    "shining": 18494,
    "intellig": 5320,
    "west": 10739,
    "rised": 10123,
    "ital": 4817,
    "Ġplace": 1651,
    "Ġsupers": 18280,
    "Ġeuroclydon": 15295,
    "Ġsignature": 16492,
    "propagation": 1273,
    "Ġemper": 9860,
    "Ġunbending": 25464,
    "olent": 8154,
    "andromeda": 21865,
    "Ġruggedness": 26268,
    "important": 7112,
    "Ġmightier": 18729,
    "attentions": 13573,
    "Ġhovered": 12628,
    "extracts": 22769,
    "gs": 7338,
    "Ġowned": 11874,
    "Ġhissed": 15786,
    "olstadt": 7788,
    "Ġscope": 15942,
    "Ġinscriptions": 20007,
    "Ġroar": 9751,
    "cking": 4268,
    "Ġrhone": 25230,
    "combined": 20319,
    "Ġunsavory": 20706,
    "wer": 8394,
    "orative": 21396,
    "Ġexhale": 24402,
    "Ġendeavoured": 4918,
    "Ġtransport": 11278,
    "particulars": 11315,
    "Ġting": 8397,
    "rib": 1943,
    "Ġappeared": 2777,
    "Ġpeered": 18668,
    "risonment": 17374,
    "Ġaugmented": 15104,
    "affections": 17356,
    "uns": 21867,
    "Ġcalmly": 7733,
    "Ġinsists": 23677,
    "sofa": 26146,
    "Ġsteady": 4847,
    "guilty": 19481,
    "Ġwretch": 6378,
    "Ġphenomenon": 17914,
    "Ġstretching": 10014,
    "afford": 14654,
    "Ġlongest": 18628,
    "Ġinexper": 16980,
    "insisted": 23063,
    "hereabouts": 23605,
    "terms": 15748,
    "etition": 7382,
    "Ġrude": 7234,
    "Ġrenow": 18027,
    "Ġsolitudes": 22879,
    "lightning": 16551,
    "Ġimbecile": 17391,
    "Ġunconnected": 18242,
    "Ġwinchester": 10065,
    "Ġdames": 23474,
    "Ġlabourers": 23330,
    "Ġanguish": 5584,
    "Ġaudacity": 19881,
    "intend": 16222,
    "Ġmadly": 16484,
    "good": 2902,
    "Ġthine": 7374,
    "Ġgin": 13960,
    "iminished": 19022,
    "kers": 7132,
    "Ġgraceful": 11296,
    "ientiously": 21938,
    "converse": 22470,
    "Ġbeadle": 26484,
    "Ġsubsiding": 23432,
    "humorously": 24017,
    "Ġdeigned": 18141,
    "rear": 21231,
    "nable": 13761,
    "amb": 5723,
    "ĠâĢĶ_": 3459,
    "Ġcapabilities": 4378,
    "Ġdesperado": 19818,
    "Ġ_": 842,
    "Ġnewton": 3533,
    "Ġunwilling": 7885,
    "Ġporter": 15608,
    "Ġfainting": 16897,
    "Ġbedfellows": 23437,
    "'": 11,
    "Ġannounce": 13337,
    "Ġgrego": 18962,
    "Ġaforethought": 25428,
    "wishes": 13806,
    "Ġglassy": 19559,
    "Ġinclined": 6622,
    "Ġcobweb": 22581,
    "Ġvessels": 6755,
    "ju": 13740,
    "mansion": 20982,
    "strength": 13979,
    "Ġconsiderations": 9409,
    "sleeping": 13453,
    "Ġadvancement": 24475,
    "Ġdisapprobation": 16055,
    "Ġdaybreak": 18726,
    "Ġblackest": 19098,
    "Ġfeatureless": 22609,
    "wholly": 10941,
    "could": 2874,
    "story": 9212,
    "steak": 14707,
    "ular": 715,
    "Ġcolon": 18764,
    "Ġcosy": 13129,
    "Ġfron": 14487,
    "Ġsweetest": 13246,
    "Ġinquirers": 24962,
    "Ġwrote": 5011,
    "varieties": 23183,
    "butter": 11783,
    "Ġeldest": 6571,
    "Ġrecording": 24434,
    "nant": 17609,
    "Ġoverpower": 12840,
    "Ġrepeated": 3834,
    "ouring": 6420,
    "Ġleakage": 23458,
    "Ġgoethe": 22419,
    "Ġcontents": 7210,
    "Ġpe": 852,
    "Ġbuild": 6474,
    "customary": 25895,
    "Ġthickening": 24021,
    "Ġenraptured": 26500,
    "Ġlazy": 17050,
    "stocks": 23818,
    "requirements": 24857,
    "Ġstorm": 4303,
    "ahab": 4292,
    "yielded": 25756,
    "Ġexamining": 8005,
    "Ġtransient": 18481,
    "Ġpleadings": 25852,
    "Ġ116": 24440,
    "ologies": 18779,
    "volume": 18596,
    "Ġspoke": 2747,
    "Ġcrooked": 11281,
    "Ġhindrance": 25220,
    "Ġheedfulness": 24522,
    "yours": 7694,
    "ben": 4926,
    "necessities": 24306,
    "ated": 717,
    "fted": 9118,
    "Ġembarrassed": 11384,
    "Ġfolded": 7767,
    "Ġmoonshine": 19596,
    "Ġexpensive": 12914,
    "Ġtophet": 23572,
    "Ġredness": 19311,
    "Ġpractised": 23318,
    "Ġcontention": 22423,
    "Ġstay": 3091,
    "Ġdirectors": 18921,
    "securing": 19812,
    "instinctively": 26327,
    "akin": 11766,
    "Ġcrocodile": 20739,
    "Ġberyls": 25775,
    "ect": 381,
    "Ġsakes": 18326,
    "Ġapothe": 12373,
    "Ġcovariate": 2351,
    "Ġattack": 5478,
    "Ġjelly": 22297,
    "Ġprofane": 13151,
    "Ġintruder": 25991,
    "Ġreveren": 13196,
    "Ġabstained": 25231,
    "Ġmonkey": 8226,
    "Ġindelicacy": 25695,
    "Ġdemand": 4947,
    "compl": 6873,
    "rity": 13775,
    "Ġathe": 17741,
    "magnifying": 25392,
    "Ġlady": 1586,
    "itary": 4750,
    "Ġlatent": 19654,
    "Ġimp": 574,
    "Ġinvite": 14563,
    "ra": 314,
    "Ġcontingency": 26244,
    "Ġtopic": 9405,
    "Ġfunction": 586,
    "Ġwoollen": 12101,
    "Ġawfulness": 23586,
    "Ġencompassed": 15252,
    "Ġqueequeg": 2011,
    "Ġpersonages": 23539,
    "Ġspong": 15879,
    "linked": 17593,
    "Ġmitigates": 3050,
    "Ġattics": 22624,
    "Ġacquaint": 13042,
    "Ġsharpened": 17364,
    "Ĩ": 233,
    "Ġsensibility": 14515,
    "Ġmagg": 18905,
    "earthquakes": 24725,
    "house": 4083,
    "alas": 8803,
    "cooks": 25067,
    "poises": 11887,
    "Ġvibrated": 25045,
    "smeer": 26147,
    "Ġcor": 1323,
    "Ġled": 3521,
    "Ġwolfish": 25935,
    "Ġhabits": 6926,
    "Ġthreatens": 24375,
    "Ġhandspikes": 12935,
    "ella": 12745,
    "ootiful": 17372,
    "iew": 2449,
    "tap": 17676,
    "Ġtallest": 15473,
    "scenes": 16244,
    "Ġland": 1995,
    "Ġdependen": 1829,
    "Ġstop": 2503,
    "Ġje": 4128,
    "Ġmaintaining": 1510,
    "Ġpursuits": 12074,
    "Ġing": 5283,
    "Ġabsolut": 3914,
    "Ġilluminate": 17192,
    "Ġaverted": 16253,
    "Ġplu": 8798,
    "Ġblinding": 14727,
    "pow": 10717,
    "Ġoppress": 13171,
    "Ġobjectionable": 16991,
    "Ġblack": 2033,
    "shark": 14238,
    "Ġconfed": 13096,
    "Ġsocket": 12781,
    "Ġannot": 15599,
    "pyramid": 21029,
    "fact": 6358,
    "Ġunfathom": 14788,
    "impregnable": 26481,
    "village": 25422,
    "Ġtrades": 8231,
    "Ġfell": 1975,
    "Ġinquired": 7485,
    "Ġdefinition": 14403,
    "Ġtropic": 17064,
    "Ġbaw": 15566,
    "suspicions": 25391,
    "Ġfloats": 9412,
    "usal": 7638,
    "Ġbubb": 12581,
    "tic": 8390,
    "Ġfeed": 2128,
    "Ġlin": 10833,
    "Ġunaccountable": 7886,
    "Ġhorses": 6385,
    "abound": 15737,
    "Ġadhes": 22103,
    "of": 767,
    "č": 206,
    "undertaking": 23786,
    "ilt": 2969,
    "Ġtoy": 15631,
    "england": 18928,
    "Ġsherlock": 3897,
    "Ġlingu": 11613,
    "Ġdorm": 4821,
    "Ġleaving": 3908,
    "Ġprolong": 6832,
    "Ġdisobey": 18559,
    "vens": 21111,
    "wondered": 17029,
    "Ġdeck": 2138,
    "Ġunconsc": 6552,
    "occupations": 24964,
    "day": 1859,
    "Ġcrackling": 24958,
    "Ġheavens": 5050,
    "Ġmariners": 6067,
    "Ġmenacing": 23104,
    "Ġcoolly": 9771,
    "ada": 14010,
    "Ġcalhoun": 23042,
    "Ġelevation": 14898,
    "Ġshaken": 10264,
    "Ġtradesmen": 17105,
    "Ġexempl": 21827,
    "Ġdull": 6384,
    "gloomy": 25144,
    "ter": 359,
    "elevating": 20404,
    "bitious": 16669,
    "Ġthickly": 12113,
    "except": 5383,
    "guard": 12126,
    "Ġgenerally": 4161,
    "ryphon": 4167,
    "rified": 15418,
    "further": 7535,
    "erted": 7361,
    "lock": 1471,
    "Ġaccounting": 14573,
    "amped": 12031,
    "Ġjig": 15949,
    "----âĢĻ": 24097,
    "ulty": 22564,
    "Ġhost": 7068,
    "nowled": 5470,
    "Ġdesired": 4664,
    "Ġreturn": 1710,
    "iliation": 10860,
    "Ġdistur": 5312,
    "ooped": 17623,
    "177": 20751,
    "Ġlug": 15649,
    "Ġwidow": 8662,
    "leaning": 10790,
    "alogies": 25158,
    "Ġshaking": 6551,
    "Ġvulgarity": 25363,
    "Ġinjuring": 24268,
    "Ġimportance": 4900,
    "Ġflickering": 23013,
    "Ġoaks": 16933,
    "cousins": 20116,
    "Ġcomplied": 14733,
    "knows": 19171,
    "Ġnoiseless": 10356,
    "wis": 12516,
    "pron": 9005,
    "Ġinformation": 1045,
    "Ġarisen": 11741,
    "leviathan": 7784,
    "Ġinfluenced": 19631,
    "Ġajar": 21201,
    "position": 15412,
    "Ġhab": 4221,
    "Ġresearches": 13131,
    "reds": 12747,
    "Ġmultiple": 1186,
    "Ġfinally": 4666,
    "squeezing": 25913,
    "pike": 11514,
    "Ġremoving": 12114,
    "Ġtesting": 23224,
    "Ġhelplessly": 20076,
    "emy": 14074,
    "rior": 12739,
    "Ġdiffusion": 23781,
    "wherever": 13117,
    "described": 18895,
    "Ġjohn": 5032,
    "avings": 12021,
    "Ġnailed": 10189,
    "Ġbraz": 19356,
    "bulkington": 19924,
    "chronicle": 26480,
    "Ġdwelt": 12602,
    "®": 111,
    "Ġcountries": 13095,
    "presbyterian": 26368,
    "oblig": 16289,
    "oved": 5215,
    "dman": 10088,
    "msprop": 2627,
    "Ġmarvel": 23032,
    "range": 3494,
    "Ġtook": 1856,
    "ĠÂ£": 5006,
    "iscre": 17850,
    "Ġintegr": 7968,
    "Ġstole": 7952,
    "Ġtroubling": 26547,
    "Ġlearnt": 7614,
    "Ġprovince": 24189,
    "Ġepistle": 24904,
    "alleled": 14428,
    "mad": 5280,
    "dest": 4108,
    "Ġcaroline": 7254,
    "Ġopportunity": 4786,
    "Ġlearns": 2644,
    "Ġdusty": 14924,
    "attacked": 23118,
    "Ġwhen": 515,
    "Ġrud": 8477,
    "ertion": 12037,
    "Ġventing": 19492,
    "tattoo": 21086,
    "Ġsheeted": 19830,
    "loose": 11803,
    "Ġsouth": 4911,
    "Ġyes": 2690,
    "Ġfatally": 19392,
    "anoke": 21359,
    "Ġindependent": 9015,
    "Ġaccumul": 1411,
    "dz": 4738,
    "escript": 18470,
    ");": 7330,
    "Ġpreside": 18365,
    "Ġstupendous": 20499,
    "traversed": 19638,
    "ost": 5360,
    "Ġlunch": 13525,
    "underneath": 23787,
    "Ġgir": 2257,
    "Ġdeepest": 8213,
    "umbling": 6758,
    "Ġdeparture": 6490,
    "petulance": 24299,
    "itar": 15544,
    "Ġwretchedly": 19505,
    "Ġpatter": 826,
    "scales": 22993,
    "Ġetern": 7085,
    "Ġinfatuated": 20532,
    "Ġtackles": 8050,
    "guess": 14760,
    "Ġunobserved": 18249,
    "supplement": 14796,
    "Ġtoilings": 24742,
    "revival": 26162,
    "pped": 1996,
    "Ġawake": 8271,
    "Ġcivilized": 8664,
    "adequately": 20318,
    "secure": 12233,
    "Ġdru": 8421,
    "strong": 6322,
    "steering": 16635,
    "Ġvict": 3764,
    "Ġork": 18284,
    "Ġsqualid": 14367,
    "gre": 5788,
    "Ġinfle": 16361,
    "Ġplease": 4722,
    "ially": 9246,
    "Ġregard": 3065,
    "Ġthunders": 15635,
    "Ġadapts": 3820,
    "Ġnarrowly": 16820,
    "Ġunex": 11711,
    "Ġamazing": 9976,
    "Ġan": 286,
    "rayed": 23562,
    "Ġtransaction": 22436,
    "Ġknighthood": 25297,
    "tea": 18740,
    "anim": 6522,
    "Ġtumb": 21168,
    "prehensible": 12358,
    "tured": 13794,
    "iverse": 13114,
    "Ġdegra": 2592,
    "for": 973,
    "Ġyears": 1891,
    "Ġmanxman": 9565,
    "causes": 20342,
    "Ġflit": 23005,
    "ving": 593,
    "ntax": 934,
    "marrying": 19546,
    "Ġdiscoverers": 26036,
    "Ġbarque": 23789,
    "swiftly": 20550,
    "earthly": 24724,
    "Ġbags": 24537,
    "unless": 9234,
    "towing": 17689,
    "isition": 11585,
    "tps": 11534,
    "feeder": 12359,
    "Ġdecember": 15007,
    "Ġmultitud": 18746,
    "cask": 12444,
    "Ġattacking": 24465,
    "Ġanimate": 23421,
    "Ġchowders": 18386,
    "Ġlives": 4825,
    "Ġunappalled": 22062,
    "swaying": 25910,
    "iro": 20913,
    "party": 8992,
    "Ġundoubted": 19513,
    "Ġenrolled": 21934,
    "sun": 7139,
    "jam": 15370,
    "Ġspecialized": 3924,
    "Ġstrugg": 3213,
    "scene": 14419,
    "sleepy": 24729,
    "Ġodds": 13328,
    "Ò": 147,
    "Ġpressed": 6041,
    "Ġoutstanding": 22313,
    "Ġslaughtered": 26584,
    "hecy": 21205,
    "fishers": 24928,
    "Ġseize": 8165,
    "nowledge": 10289,
    "Ġintelligence": 562,
    "Ġfunere": 22256,
    "Ġgen": 5296,
    "confusion": 13368,
    "Ġharem": 9708,
    "gazed": 15360,
    "Ġmay": 923,
    "Ġsatir": 18793,
    "between": 5071,
    "Ġexasper": 8466,
    "Ġcomprehend": 6494,
    "iments": 4945,
    "Ġmastiff": 23723,
    "Ġyork": 11664,
    "Ġlaid": 3944,
    "Ġmonsie": 11447,
    "sperm": 5203,
    "Ġaside": 5234,
    "Ġsmote": 18574,
    "sing": 5138,
    "Ġimaginations": 16516,
    "medi": 2630,
    "Ġdevoid": 18686,
    "ience": 812,
    "Ġadie": 8488,
    "Ġhung": 4560,
    "Ġblunder": 18818,
    "quered": 11058,
    "chastic": 2335,
    "befriend": 22489,
    "Ġstab": 10862,
    "Ġnewspapers": 17186,
    "Ġdisliked": 12888,
    "has": 4018,
    "Ġhouse": 1503,
    "Ġhellish": 10550,
    "fur": 6355,
    "Ġcampaign": 20660,
    "Ġfoundering": 21417,
    "suddenly": 6493,
    "Ġkrusen": 20713,
    "Ġtrampled": 20327,
    "Ġhelmet": 19686,
    "Ġclasped": 17206,
    "cul": 1898,
    "mense": 4780,
    "umerable": 11723,
    "Ġpolite": 9881,
    "Ġscar": 3208,
    "Ġensuring": 11192,
    "sculpt": 16245,
    "Ġgrimly": 17052,
    "Ġmoved": 4839,
    "gir": 8082,
    "Ġhoars": 19077,
    "aret": 7417,
    "thoughts": 9934,
    "Ġlbs": 11614,
    "Ġreports": 19084,
    "Ġperplexed": 23660,
    "descend": 23082,
    "ricade": 13036,
    "sher": 5217,
    "Ġscrewing": 20207,
    "rule": 15892,
    "Ġfab": 15573,
    "Ġsumm": 3357,
    "Ġmiser": 18701,
    "Ġswims": 12117,
    "Ġbake": 21380,
    "uncont": 15771,
    "kington": 11203,
    "Ġtossing": 8125,
    "Ġindicates": 3190,
    "Ġdan": 8792,
    "ution": 4351,
    "Ġabruptness": 25299,
    "owders": 18047,
    "Ġapprised": 18361,
    "Ġwasn": 6997,
    "Ġcheck": 7271,
    "Ġsick": 4692,
    "Ġcolt": 11044,
    "Ġwilful": 10534,
    "Ġcolonial": 22851,
    "Ġconstraint": 16513,
    "Ġcompliments": 8632,
    "aloft": 8806,
    "Ġnewfound": 22929,
    "Ġconsiderably": 7714,
    "Ġcylinders": 25943,
    "Ġprov": 4401,
    "er": 269,
    "Ġnovelty": 13462,
    "itted": 2444,
    "Ġmagnet": 10389,
    "Ġlunacy": 20026,
    "furniture": 20241,
    "ellow": 3878,
    "fisher": 7547,
    "Ġapply": 1778,
    "ach": 435,
    "Ġleaping": 8340,
    "Ġprior": 11318,
    "injustice": 17737,
    "Ġpresentation": 14480,
    "access": 11180,
    "Ġgrievous": 13259,
    "Ġcountenance": 3974,
    "Ġrival": 10485,
    "pointed": 9807,
    "ometer": 19325,
    "Ġdiversity": 25284,
    "Ġunimpeachable": 26522,
    "Ġaccost": 12843,
    "betrayed": 24640,
    "Ġramble": 9312,
    "Ġscrutiny": 26015,
    "Ġexcl": 3475,
    "Ġslight": 3117,
    "Ġhelped": 7459,
    "Ġcircumspect": 15083,
    "Ġcoast": 4655,
    "Ġstrands": 25574,
    "insensibility": 23065,
    "Ġtrag": 13037,
    "Ġhappen": 5571,
    "Ġwatson": 3596,
    "Ġspecies": 5112,
    "Ġsleeves": 10660,
    "tal": 17670,
    "recklessly": 25269,
    "Ġmontan": 22982,
    "mortal": 10112,
    "loath": 22506,
    "Ġspeak": 2231,
    "leag": 21364,
    "speech": 10666,
    "Ġturkish": 12259,
    "Ġpo": 737,
    "Ġsolve": 4200,
    "uring": 818,
    "Ġproudly": 19741,
    "Ġsmokes": 22556,
    "Ġremind": 6057,
    "ineffectual": 26507,
    "Ġdefect": 8554,
    "Ġpromontory": 11939,
    "Ġindisc": 16226,
    "Ġdisappearing": 22530,
    "source": 11525,
    "¿": 128,
    "iage": 17573,
    "peasant": 23107,
    "Ġ(": 595,
    "Ġhun": 1496,
    "Ġeffaced": 18530,
    "joy": 3334,
    "wonderful": 16960,
    "substance": 15230,
    "Ġtut": 8769,
    "Ġstarts": 16582,
    "Ġaffected": 5577,
    "Ġinterrupted": 6343,
    "Ġcruelly": 13374,
    "Ġproxim": 3195,
    "Ġsubproblems": 12954,
    "and": 372,
    "Ġmole": 11789,
    "bergen": 14325,
    "Ġvancouver": 26565,
    "Ġsuperlatively": 26075,
    "Ġtranquil": 7310,
    "something": 4287,
    "Åĵuvre": 25887,
    "Ġmoustache": 20482,
    "Ġincome": 7916,
    "Ġavert": 14424,
    "inform": 10143,
    "Ġgladness": 16591,
    "Ġwhaleboats": 18478,
    "Ġplainer": 23703,
    "icism": 13955,
    "houn": 20892,
    "Ġabund": 8864,
    "aculate": 16080,
    "sad": 11520,
    "why": 2830,
    "Ġdisput": 14255,
    "Ġdollar": 25283,
    "Ġtranced": 18427,
    "Ġproportion": 7281,
    "ĠĠĠĠĠĠĠĠĠĠĠĠĠĠĠĠĠĠĠĠĠĠĠĠĠĠĠĠĠĠĠĠĠĠĠ": 19257,
    "Ġfourteen": 12008,
    "erably": 7573,
    "Ġlaure": 16909,
    "Ġyields": 19655,
    "Ġart": 744,
    "Ġhove": 17922,
    "Ġflog": 23621,
    "utmost": 21585,
    "Ġflew": 5588,
    "Ġconstruction": 9385,
    "Ġgrec": 18961,
    "Ġchildren": 3769,
    "grandfather": 25009,
    "Ġshaded": 14104,
    "Ġreserved": 7515,
    "Ġspies": 22125,
    "handsome": 13175,
    "Ġcaptivating": 26049,
    "Ġwelcome": 5604,
    "Ġregression": 4410,
    "ighbour": 3390,
    "ĠâĢľâĢĶ": 9733,
    "Ġ[": 6967,
    "Ġsquare": 2398,
    "Ġclubs": 25179,
    "Ġshrubbery": 18232,
    "spanish": 14330,
    "Ġpensive": 21472,
    "Ġwishing": 7830,
    "Ġquest": 1999,
    "elsewhere": 19867,
    "jumping": 20244,
    "Ġmultiplied": 23689,
    "ection": 4948,
    "rooms": 10432,
    "Ġcalm": 3448,
    "quid": 18145,
    "orial": 8416,
    "Ġcusack": 26433,
    "count": 4216,
    "Ġcreaking": 14326,
    "Ġjuicy": 25370,
    "Ġcardboard": 19977,
    "Ġsickness": 10538,
    "!âĢĿâĢĶ": 8532,
    "artificial": 1030,
    "chron": 21691,
    "Ġcele": 9899,
    "ckets": 6843,
    "Ġadmeasurements": 26225,
    "bury": 9106,
    "Ġardent": 9969,
    "Ġseethe": 21960,
    "Ġsadder": 24048,
    "Ġdistantly": 18534,
    "Ġterrier": 23397,
    "Ġduchess": 4799,
    "Ġconnected": 5393,
    "Ġspaulding": 11729,
    "Ġsegment": 12754,
    "Ġkneeling": 12140,
    "march": 13754,
    "Ġsteeple": 19287,
    "Ġcurios": 18843,
    "Ġpassers": 18756,
    "plans": 21949,
    "minute": 11274,
    "slave": 16895,
    "bering": 18680,
    "enges": 13051,
    "Ġshipwrecked": 25687,
    "mere": 11853,
    "Ġcler": 11768,
    "ph": 910,
    "Ġlucy": 17969,
    "Ġvertebra": 20180,
    "duchess": 18463,
    "Ġswears": 16462,
    "Ġfals": 15578,
    "itives": 17819,
    "miseries": 16757,
    "Ġfinest": 10391,
    "tiness": 21070,
    "hors": 9598,
    "Ġnonsensical": 21526,
    "Ġchains": 8250,
    "Ġshare": 1655,
    "ved": 868,
    "Ġerskine": 17431,
    "ram": 13971,
    "rich": 11517,
    "sacred": 17028,
    "spikes": 10340,
    "Ġprovoking": 16743,
    "Ġyawn": 7609,
    "Ġexceed": 1346,
    "Ġpomp": 12619,
    "said": 4109,
    "esy": 9185,
    "Ġcharley": 19006,
    "ast": 473,
    "cient": 4569,
    "Ġidolator": 19996,
    "Ġsocietal": 11436,
    "rably": 21630,
    "ķ": 248,
    "disagreeable": 11163,
    "castle": 3350,
    "Ġrusty": 14963,
    "Ġvery": 636,
    "Ġempty": 5353,
    "trying": 15437,
    "Ġab": 528,
    "Ġsoutherly": 23332,
    "scarcely": 12384,
    "cain": 15325,
    "Ġcoach": 6867,
    "Ġinscrut": 10033,
    "ental": 7168,
    "dled": 9110,
    "Ġdeact": 18138,
    "unusually": 15777,
    "lic": 17587,
    "Ġcombination": 22885,
    "Ġtow": 4396,
    "Ġbashful": 20418,
    "rupt": 3207,
    "irmed": 9238,
    "control": 16542,
    "Ġdarkness": 4280,
    "forgot": 11033,
    "terrors": 25041,
    "Ġvaults": 17153,
    "Ġexecutors": 19532,
    "Ġspanish": 2829,
    "Ġbristles": 25843,
    "Ġunited": 6840,
    "Ġattends": 19649,
    "Ġgreedily": 18965,
    "Ġoldest": 12970,
    "Ġprocuring": 16870,
    "Ġfolds": 12204,
    "adam": 15727,
    "Ġsundry": 20072,
    "Ġstri": 2805,
    "Ġinconveniences": 24939,
    "Ġseriously": 7060,
    "egyptians": 25898,
    "Ġqueerest": 16412,
    "urer": 18121,
    "Ġconveyed": 8334,
    "Ġenabled": 9295,
    "Ġnewfoundland": 26569,
    "Ġscents": 22284,
    "Ġloath": 7889,
    "breeze": 20561,
    "Ġdoubly": 16387,
    "Ġundertaking": 8573,
    "queequeg": 4336,
    "desirable": 23206,
    "Ġcontentment": 14869,
    "Ġwhat": 600,
    "numer": 15398,
    "ê": 171,
    "peaceful": 20445,
    "sens": 8095,
    "deserted": 18959,
    "drive": 8682,
    "Ġtrain": 514,
    "Ġconversing": 14633,
    "Ġsuicide": 12785,
    "Ġgracious": 8846,
    "liament": 16216,
    "Ġmorocc": 22976,
    "Ġmead": 8834,
    "Ġblunt": 11892,
    "lled": 10107,
    "beaten": 20314,
    "Ġdec": 642,
    "bolts": 11420,
    "inkers": 22612,
    "Ġfem": 6134,
    "Ġterminating": 23510,
    "Ġschedu": 1824,
    "Ġmonoman": 7938,
    "emorial": 10243,
    "Ġdyspeps": 16494,
    "Ġinfinite": 8576,
    "Ġanyways": 22517,
    "anting": 6412,
    "Ġexactly": 2769,
    "icular": 2021,
    "Ġstore": 8453,
    "eastward": 15128,
    "Ġbreaches": 14521,
    "Ġdomain": 3367,
    "Ġxxxi": 24966,
    "Ġchast": 18380,
    "Ġwillow": 18533,
    "pers": 4338,
    "Ġnarwhale": 12291,
    "Ġforecastle": 5495,
    "ensical": 18567,
    "Ġpregnant": 26535,
    "swed": 24253,
    "Ġtiara": 26415,
    "âĢĿ]": 21812,
    "ignorantly": 25189,
    "ersampling": 18216,
    "rid": 5137,
    "Ġfold": 5531,
    "extra": 8218,
    "Ġkindness": 4102,
    "Ġadler": 8173,
    "Ġtou": 15465,
    "uge": 4021,
    "ortal": 6265,
    "door": 6193,
    "atical": 10771,
    "Ġoaken": 13864,
    "Ġbalmy": 22900,
    "tasted": 17687,
    "distinctive": 25726,
    "considering": 12172,
    "connection": 18868,
    "Ġclad": 12836,
    "Ġspiteful": 19521,
    "Ġobliv": 16131,
    "Ġstories": 10865,
    "Ġmorrow": 9342,
    "Ġnorthward": 13320,
    "evid": 11484,
    "ifling": 15780,
    "Ġguard": 6178,
    "Ġrecorded": 11293,
    "qualities": 25043,
    "opening": 10312,
    "Ġmeridian": 25714,
    "Ġspark": 6689,
    "Ġthrob": 21515,
    "Ġerrors": 2599,
    "Ġcrags": 23527,
    "brilliancy": 26077,
    "Ġestablishment": 13578,
    "notice": 16146,
    "skylight": 25623,
    "Ġdifferent": 1426,
    "Ġposture": 24164,
    "Ġropes": 10748,
    "Ġmaintain": 856,
    "Ġduty": 4075,
    "Ġthence": 8881,
    "Ġspam": 7630,
    "Ġw": 272,
    "ocations": 23706,
    "strils": 10458,
    "Ġstoven": 23172,
    "arent": 4252,
    "Ġmotives": 7486,
    "Ġpuffing": 12252,
    "Ġpilgrim": 25599,
    "Ġsecrets": 9054,
    "89": 20758,
    "Ġmuslin": 19381,
    "anter": 9166,
    "past": 8089,
    "atively": 2697,
    "Ġcontinent": 14887,
    "Ġgnarled": 25165,
    "Ġsubst": 4276,
    "onomy": 12544,
    "itably": 10782,
    "Ġornaments": 17451,
    "otion": 4946,
    "opinion": 10984,
    "Ġraw": 3319,
    "Ġtongs": 9960,
    "zealand": 26054,
    "100": 11464,
    "cutting": 23783,
    "Ġmilan": 19534,
    "Ġmiseries": 10344,
    "Ġu": 324,
    "Ġcordage": 19677,
    "lamp": 9608,
    "felicity": 25140,
    "Ġawaiting": 11390,
    "Ġharpooneer": 3773,
    "scr": 16242,
    "Ġindividuals": 24546,
    "threatened": 25462,
    "Ġadvisable": 11442,
    "copper": 19188,
    "Ġguardian": 14941,
    "recurring": 24194,
    "Ġalways": 1694,
    "Ġbeasts": 10617,
    "architect": 22890,
    "Ġdoubt": 2225,
    "Ġnought": 21519,
    "weed": 14314,
    "Ġsomnam": 23004,
    "Ġmasoned": 20250,
    "Ġthirty": 4944,
    "Ġmorbidness": 20627,
    "]": 65,
    "Ġutensils": 23514,
    "Ġgranting": 18736,
    "Ġeagle": 13201,
    "possessed": 9527,
    "Ġchr": 3690,
    "Ġprecautions": 23726,
    "Ġweb": 9239,
    "owners": 16084,
    "Ġphiladel": 23883,
    "Ġassault": 9836,
    "Ġchestnuts": 24381,
    "Ġradiating": 24335,
    "Ġuniversity": 13120,
    "Ġtrusting": 24106,
    "arctic": 12607,
    "giving": 8738,
    "atter": 641,
    "Ġsanity": 24979,
    "Ġpours": 17909,
    "nuts": 15397,
    "Ġache": 18663,
    "Ġhim": 476,
    "Ġcommentators": 25229,
    "solely": 19815,
    "nature": 5359,
    "vis": 4577,
    "wear": 22680,
    "z": 94,
    "Ġirretrie": 23372,
    "ancies": 11583,
    "avering": 24793,
    "Ġpursued": 6328,
    "Ġmalicious": 10557,
    "Ġpalmy": 19497,
    "Ġbenjamin": 26567,
    "Ġborn": 5224,
    "confidential": 25876,
    "Ġmiserable": 3634,
    "Ġtrait": 23070,
    "Ġclang": 15961,
    "Ġprofounder": 23568,
    "Ġapril": 13661,
    "Ġhebrew": 13987,
    "scream": 11077,
    "mind": 4626,
    "condem": 16340,
    "Ġtig": 13812,
    "Ġwatched": 6297,
    "Ġearlier": 9086,
    "seldom": 13786,
    "Ġimpass": 15983,
    "Ġequ": 1733,
    "Ġsunda": 13543,
    "blown": 25201,
    "Ġtailed": 21167,
    "abama": 12706,
    "mic": 12486,
    "Ġdere": 21832,
    "Ġstigma": 25791,
    "Ġarrant": 23295,
    "Ġphilosoph": 19650,
    "Ġwrit": 8241,
    "enemy": 15525,
    "hy": 4739,
    "Ġelevating": 19728,
    "huzza": 20912,
    "Ġemboldened": 22972,
    "Ġcolder": 22847,
    "Ġinstance": 2547,
    "Ġgout": 21593,
    "Ġhelmsman": 10504,
    "Ġplus": 3885,
    "Ġmalays": 19676,
    "Ġsl": 1497,
    "Ġcracks": 12018,
    "Ġredundant": 16550,
    "Ġsail": 1669,
    "consuming": 25674,
    "Ġforms": 6397,
    "Ġflames": 7939,
    "Ġcreat": 1440,
    "tempered": 13445,
    "Ġ22": 8278,
    "Ġrecur": 1622,
    "Ġcurses": 13006,
    "Ġretribution": 16280,
    "Ġadequately": 15197,
    "Ġweapons": 10593,
    "Ġcave": 10785,
    "Ġdecoding": 3079,
    "foundered": 20866,
    "Ġdrags": 16941,
    "Ġunexampled": 20358,
    "Ġbuoy": 8003,
    "Ġchaos": 17009,
    "Ġcontext": 1735,
    "Ġsundering": 23272,
    "Ġgenealogies": 25961,
    "parlour": 16380,
    "Ġspecks": 14307,
    "Ġamong": 1664,
    "Ġelaborate": 18637,
    "shadows": 25479,
    "Ġmanhat": 22324,
    "Ġweap": 6155,
    "Ġprev": 6264,
    "rief": 6202,
    "ering": 1264,
    "agreeable": 5829,
    "ive": 428,
    "prehend": 14242,
    "enary": 12548,
    "aws": 8236,
    "brous": 19198,
    "heric": 15909,
    "Ġvision": 1608,
    "atherine": 2598,
    "specim": 23941,
    "standard": 22428,
    "prior": 21031,
    "comes": 5394,
    "Ġsupplied": 8943,
    "Ġinexorable": 12253,
    "dreams": 12335,
    "Ġinnovative": 1639,
    "Ġfearfully": 23511,
    "Ġbetokened": 18795,
    "melancholy": 12351,
    "rets": 12538,
    "hatchway": 25904,
    "Ġoutset": 15953,
    "Ġnoisier": 4624,
    "Ġchapter": 2957,
    "residual": 19261,
    "passed": 8025,
    "Ġpoising": 22588,
    "ek": 1907,
    "iscuits": 24666,
    "Ġadaptation": 3152,
    "Ġxliv": 23407,
    "Ġsending": 8774,
    "Ġmaggie": 26291,
    "Ġulster": 14997,
    "Ġanchor": 7368,
    "Ġenterprise": 8641,
    "Ġstroke": 6936,
    "Ġreassure": 21669,
    "arance": 4697,
    "Ġchooses": 13345,
    "Ġsto": 1499,
    "ested": 3480,
    "slept": 17169,
    "Ġturtle": 4207,
    "Ġsatan": 14389,
    "Ġamounted": 18512,
    "Ġingolstadt": 8332,
    "Ġhasn": 12922,
    "uded": 6286,
    "Ġord": 3736,
    "spee": 9316,
    "corpse": 24486,
    "Ġassembled": 9235,
    "Ġalley": 15733,
    "Ġscarcity": 23824,
    "breath": 15161,
    "Ġcomplet": 4423,
    "Ġsallied": 12534,
    "quadrille": 20593,
    "questioning": 16850,
    "chess": 16572,
    "Ġavail": 11226,
    "Ġviewed": 10463,
    "cele": 21622,
    "Ġeasiness": 23535,
    "Ġspiced": 22130,
    "herself": 4890,
    "Ġpoint": 2056,
    "Ġrejection": 19982,
    "throne": 25657,
    "zing": 7820,
    "Ġpill": 7845,
    "osh": 18388,
    "Ġscho": 4436,
    "confirmed": 19644,
    "Ġdetestation": 17127,
    "Ġwrapt": 24595,
    "Ġordin": 16650,
    "Ġsleep": 2401,
    "Ġproclaim": 18130,
    "Ġconstruct": 23340,
    "Ġstrangers": 8313,
    "Ġoblivious": 26032,
    "Ġexordium": 26492,
    "Ġfaintness": 24570,
    "Ġcompany": 3722,
    "Ġboards": 14297,
    "Ġrebell": 21666,
    "Ġletting": 10361,
    "Ġopposing": 12038,
    "garet": 9597,
    "fered": 5560,
    "usations": 15940,
    "classes": 12133,
    "Ġassuring": 13061,
    "handedness": 24920,
    "Ġconfidential": 9087,
    "Ġ26": 10470,
    "erately": 21272,
    "enough": 6809,
    "gies": 13725,
    "Ġscandalous": 24879,
    "Ġaroused": 15897,
    "Ġerrone": 14429,
    "Ġslice": 23157,
    "Ġalert": 18101,
    "hero": 21203,
    "Ġhast": 3147,
    "K": 47,
    "Ġplaymate": 23636,
    "owl": 12680,
    "aloons": 20009,
    "Ġfabric": 25947,
    "Ġfrantically": 23256,
    "ond": 1159,
    "Ġinches": 5845,
    "Ġaccomplice": 24376,
    "protest": 24815,
    "Ġpennies": 17270,
    "Ġprovidence": 18745,
    "tinted": 17683,
    "Ġscrew": 8867,
    "asily": 13945,
    "Ġbust": 10167,
    "Ġgravity": 9247,
    "sleep": 6511,
    "Ġsenses": 8251,
    "Ġgreenland": 5761,
    "Ġtales": 10141,
    "pertaining": 22185,
    "sul": 15420,
    "Ġfall": 2988,
    "leaped": 17843,
    "oder": 2461,
    "thr": 12757,
    "Ġaffrighted": 13571,
    "tailed": 17685,
    "rolled": 9059,
    "Ġbrine": 18768,
    "Ġagitation": 6865,
    "Ġpalp": 11251,
    "Ġstrasburgh": 18614,
    "Ġtraces": 7945,
    "Ġstupidity": 15049,
    "entreaties": 26185,
    "fetch": 12462,
    "Ġnature": 2541,
    "Ġattached": 5392,
    "Ġcurt": 18839,
    "||": 4869,
    "picture": 11407,
    "13": 20749,
    "Ġdeactivates": 20702,
    "Ġjoists": 19232,
    "Ġimpassable": 20611,
    "constantly": 24606,
    "agrad": 2746,
    "Ġforesee": 19125,
    "Ġpoultry": 17440,
    "ª": 108,
    "Ġcombine": 4416,
    "Ġbenefited": 19396,
    "Ġpathetic": 19040,
    "explain": 1480,
    "Ġmallet": 17810,
    "--âĢľ": 12969,
    "Ġdraw": 3672,
    "Ġgpt": 4352,
    "Ġringle": 18210,
    "Ġfitness": 23997,
    "Ġlack": 17963,
    "Ġbestowed": 6593,
    "Ġsuffer": 4721,
    "Ġjeopardized": 20229,
    "Ġforebodings": 17303,
    "Ġinfluence": 5515,
    "gged": 3778,
    "Ġdelineate": 26057,
    "Ġvalid": 1704,
    "Ġdesp": 3211,
    "Ġhoisted": 5959,
    "canonical": 22965,
    "Ġconsec": 21802,
    "Ġletter": 2199,
    "Ġleaders": 16627,
    "Ġforgive": 8009,
    "Ġunsocial": 18256,
    "Ġcontro": 1684,
    "Ġabhorred": 9507,
    "dw": 3332,
    "Ġtragic": 15254,
    "thes": 7391,
    "Ġgleaming": 24993,
    "Ġcurving": 16230,
    "Ġsize": 1217,
    "cano": 18845,
    "Ġentity": 10341,
    "Ġgirdle": 19156,
    "isite": 15560,
    "Ġtraverse": 18892,
    "Ġcharts": 12824,
    "Ġcried": 1486,
    "Ġdisagreeable": 9297,
    "aching": 5831,
    "exclaimed": 11788,
    "Ġtorpor": 25031,
    "Ġsupposing": 6729,
    "Ě": 219,
    "measureless": 20234,
    "ature": 522,
    "Ġlot": 6678,
    "Ġfond": 4754,
    "Ġdeaden": 23459,
    "ĠĠĠĠĠĠĠĠĠĠĠĠĠĠĠĠĠĠĠĠĠĠĠĠĠĠĠĠĠĠĠĠĠĠĠĠĠĠĠĠĠĠĠĠĠĠĠĠĠĠĠĠĠ": 20038,
    "Ġframework": 2025,
    "Ġvoice": 2192,
    "Ġstructures": 2720,
    "Ġspoils": 24808,
    "Ġvoyager": 16511,
    "Ġsuggested": 8320,
    "oforte": 14285,
    "hic": 3246,
    "Ġplied": 22594,
    "Ġcharacters": 9370,
    "Ġ128": 24473,
    "Ġthenceforth": 25182,
    "Ġsanguine": 25928,
    "Ġspurred": 22135,
    "uberance": 25916,
    "ove": 1743,
    "cturn": 17986,
    "ompl": 4536,
    "waste": 21133,
    "Ġrelease": 19290,
    "odiac": 14031,
    "Ġwhom": 1832,
    "Ġtraffic": 23079,
    "Ġpalaces": 24091,
    "Ġrequisite": 18629,
    "withstand": 23024,
    "tained": 4406,
    "Ġreligions": 20106,
    "pshaw": 21027,
    "Ġmortally": 23914,
    "Ġdislike": 6047,
    "Ġattitude": 8903,
    "uning": 1311,
    "Ġworkman": 16263,
    "Ġlandau": 16418,
    "Ġsul": 7570,
    "acing": 2718,
    "sheets": 14441,
    "Ġemblem": 20496,
    "Ġshow": 3403,
    "Ġmisconduct": 22758,
    "Ġchristians": 13307,
    "particular": 5757,
    "Ġsnatch": 14639,
    "Ġbraces": 14669,
    "deliberated": 26118,
    "ouble": 2663,
    "adding": 21756,
    "Ġstate": 1812,
    "troubled": 17112,
    "Ġfaltering": 17884,
    "Ġfriendless": 23023,
    "Ġechoed": 20422,
    "amidst": 25652,
    "Ġmortar": 19391,
    "Ġairth": 23316,
    "ighted": 8476,
    "Ġsquad": 22832,
    "Ġnewly": 9337,
    "elijah": 19471,
    "Ġqueer": 4478,
    "fro": 8732,
    "readily": 19360,
    "Ġrequested": 14298,
    "laborers": 23913,
    "begin": 8883,
    "Ġrecollection": 6620,
    "probability": 17022,
    "Ġshavings": 14109,
    "Ġtroop": 24897,
    "Ġbambooz": 26119,
    "Ġrobustness": 18874,
    "Ġantarctic": 19551,
    "Ġoblige": 10488,
    "attentive": 17189,
    "¼": 125,
    "Ġconference": 15744,
    "Ġaddu": 22102,
    "Ġskirting": 22794,
    "Ġbroke": 5322,
    "Ġdressed": 5081,
    "engagements": 25853,
    "chop": 21685,
    "Ġwalled": 15533,
    "Ġanalysis": 1955,
    "Ġdear": 1539,
    "desperate": 17351,
    "Ġcoming": 2620,
    "ermost": 7430,
    "ties": 2760,
    "Ġhermit": 15855,
    "Ġinvolving": 18762,
    "unsuitable": 21890,
    "Ġstrung": 22615,
    "Ġborrowed": 17229,
    "Ġaffronted": 22888,
    "Ġ87": 19709,
    "opÃ¦": 12869,
    "Ġcin": 13874,
    "Ġwhere": 786,
    "Ġassoc": 6402,
    "================================================================": 9989,
    "uncomfortable": 18160,
    "Ġselling": 21223,
    "entering": 17976,
    "Ġconfined": 7464,
    "Ġpatched": 16384,
    "Ġlining": 13950,
    "Ġnod": 1887,
    "Ġassociates": 24712,
    "Ġfoster": 18990,
    "Ġassuredly": 14821,
    "Ġcontinues": 18808,
    "Ġrefrained": 14344,
    "Ġunite": 9253,
    "wrath": 23755,
    "Ġowl": 20082,
    "chiefly": 14845,
    "Ġfamilies": 8026,
    "tub": 9143,
    "tanh": 5204,
    "Ġencode": 4366,
    "Ġreveal": 11200,
    "Ġfaithfully": 14886,
    "accustomed": 13156,
    "irt": 3074,
    "Ġob": 861,
    "philips": 20033,
    "fastened": 19324,
    "abby": 14020,
    "unct": 18154,
    "Ġberry": 19745,
    "conclusion": 25671,
    "Ġseals": 11695,
    "Ġfeathers": 15118,
    "startled": 24941,
    "asional": 17959,
    "matic": 4618,
    "Ġfeeble": 12282,
    "Ġtooks": 23325,
    "Ġhumming": 12983,
    "weight": 2942,
    "Ġfinery": 23122,
    "Ġfeeds": 16432,
    "danced": 20827,
    "Ġfactory": 23274,
    "rises": 17655,
    "collect": 16562,
    "Ġreaction": 15692,
    "Ġwaistcoat": 12268,
    "Ġdisent": 22520,
    "Ġscaffold": 18401,
    "Ġslaughter": 20729,
    "rador": 19158,
    "Ġextra": 4060,
    "otam": 21795,
    "Ġearly": 2080,
    "from": 1988,
    "Ġbegging": 11080,
    "Ġpious": 11597,
    "Ġimmersed": 19483,
    "Ġdefe": 21833,
    "Ġabsence": 4894,
    "alo": 7587,
    "Ġstops": 3162,
    "Ġliving": 3061,
    "Ġfavourites": 16644,
    "Ġcheerfully": 12132,
    "Ġexpeditions": 24954,
    "assin": 22302,
    "Ġ57": 24325,
    "Ġsystems": 825,
    "preserving": 25304,
    "fine": 10090,
    "Ġability": 2765,
    "Ġinsignific": 13179,
    "Ġindistinctly": 26117,
    "ival": 4230,
    "Ġpag": 6010,
    "ĠĠĠĠĠĠĠĠĠĠĠĠĠĠĠĠĠĠĠĠĠĠĠĠ": 5321,
    "Ġ1820": 25718,
    "Ġquakers": 22413,
    "Ġlashings": 25097,
    "neighbour": 7211,
    "o": 83,
    "Ġworshipped": 25691,
    "Ġbreeds": 23346,
    "Ġtalk": 1968,
    "recursion": 13327,
    "Ġhemis": 21681,
    "Ġsketches": 26270,
    "ifications": 9727,
    "Õ": 150,
    "Ġrender": 8304,
    "Ġgrecian": 26296,
    "Ġtype": 2018,
    "Ġunholy": 26218,
    "gorge": 22334,
    "Ġsuperglue": 23456,
    "colour": 9902,
    "Ġinnoc": 3796,
    "dat": 1623,
    "itable": 5437,
    "Ġbrill": 8548,
    "osing": 3691,
    "animate": 12574,
    "Ġwarmly": 8987,
    "Ġmizen": 17258,
    "Ġloc": 10914,
    "Ġfalling": 6915,
    "Ġbred": 9169,
    "Ġexisted": 15750,
    "pray": 5429,
    "dragging": 16609,
    "Ġreputed": 18035,
    "iting": 2158,
    "Ġskilfully": 20522,
    "Ġembarked": 17134,
    "Ġchannel": 26012,
    "aunt": 8369,
    "Ġouthouse": 22311,
    "Ġethics": 15461,
    "ust": 495,
    "Ġbitterest": 12400,
    "adequ": 11020,
    "ifts": 12732,
    "Ġturned": 2133,
    "marks": 7346,
    "there": 1422,
    "remember": 7262,
    "Ġrevolve": 19729,
    "~": 98,
    "Ġxxxvi": 24969,
    "aneously": 4064,
    "usion": 3298,
    "Ġplainly": 4382,
    "Ġunrecord": 16621,
    "ophisticated": 22475,
    "scornful": 26575,
    "Ġsadness": 13285,
    "Ġgrass": 5177,
    "quietude": 24655,
    "Ġclos": 4549,
    "Ġsyllable": 9728,
    "flukes": 25205,
    "aster": 1867,
    "arbuck": 2024,
    "frau": 15088,
    "Ġmont": 8558,
    "lik": 3919,
    "Ġmeanings": 18607,
    "ladies": 9528,
    "Ġcit": 10783,
    "Ġsentiments": 7960,
    "uber": 15444,
    "Ġsister": 1474,
    "Ġcrest": 12938,
    "Ġlength": 2502,
    "Ġtarn": 21157,
    "Ġugl": 12679,
    "wonted": 13492,
    "Ġshaved": 21999,
    "Ġunstructure": 2995,
    "Ġpull": 5152,
    "Ġsensationalism": 26066,
    "Ġdismal": 11808,
    "Ġlingered": 13504,
    "Ġstump": 7602,
    "Ġsailing": 5323,
    "ower": 1023,
    "Ġcollapsed": 15080,
    "Ġabated": 18390,
    "mouthful": 25208,
    "Ġput": 1799,
    "Ġmiz": 10777,
    "Ġloathing": 15066,
    "Ġlodged": 11252,
    "Ġconver": 804,
    "Ġheap": 12675,
    "Ġwearisome": 19794,
    "Ġsolicitude": 10039,
    "Ġconsuming": 22789,
    "achusetts": 20709,
    "Ġdealer": 23974,
    "Ġdeadliest": 14556,
    "Ġmonth": 2852,
    "Ġappertain": 22216,
    "according": 12026,
    "alloyed": 22198,
    "Ġbigness": 19759,
    "Ġstil": 15715,
    "Ġpagans": 16922,
    "Ġmultimodal": 18747,
    "brated": 12025,
    "Ġwelcomed": 9481,
    "only": 3306,
    "Ġquadrille": 13540,
    "Ġthomas": 17947,
    "Ġfully": 6342,
    "Ġribbed": 16804,
    "Ġadopted": 15177,
    "bedroom": 14676,
    "Ġemails": 13105,
    "Ġgrasshopper": 24380,
    "Ġresentment": 7530,
    "whew": 22859,
    "Ġsaleve": 17390,
    "Ġundeniable": 26510,
    "Ġgabriel": 7595,
    "Ġunalterable": 15849,
    "Ġburly": 19249,
    "Ġobjective": 3767,
    "moid": 2452,
    "Ġicebergs": 23972,
    "Ġshivering": 10265,
    "twelve": 14622,
    "Ġblanc": 11065,
    "idation": 5022,
    "mercenary": 26315,
    "Ġtribe": 10751,
    "ighb": 10423,
    "univers": 15769,
    "plendent": 21955,
    "Ġunclad": 22051,
    "Ġattachment": 6049,
    "Ġbecome": 3154,
    "Ġliberal": 12188,
    "Ġwhoa": 22417,
    "ons": 710,
    "dam": 7797,
    "Ġnupt": 13942,
    "Ġcoral": 11920,
    "Ġcorrespondent": 19821,
    "Ġresistance": 13529,
    "cull": 20808,
    "shroud": 20311,
    "lee": 11584,
    "seek": 8836,
    "eur": 7545,
    "Ġswinging": 7449,
    "break": 6101,
    "words": 7982,
    "antly": 1986,
    "Ġcountry": 2535,
    "stood": 4121,
    "dep": 6786,
    "inable": 11555,
    "=": 33,
    "03": 20747,
    "Ġwire": 13851,
    "Ġdisse": 18548,
    "Ġancestors": 25642,
    "Ġswearing": 16463,
    "isions": 6130,
    "Ġconfine": 14512,
    "Ġextent": 7656,
    "Ġtested": 23225,
    "ropri": 2181,
    "Ġagent": 6277,
    "Ġmanly": 22321,
    "Ġconcern": 2657,
    "aston": 7408,
    "inced": 3335,
    "Ġhog": 13923,
    "Ġcrotch": 9962,
    "Ġsepulch": 15283,
    "Ġshould": 864,
    "Ġoffices": 14334,
    "ouse": 1191,
    "goodness": 19288,
    "bride": 19199,
    "Ġstepfather": 7221,
    "Ġhandwriting": 14318,
    "Ġtang": 13813,
    "crazy": 24691,
    "Ġprescribed": 26010,
    "Ġserenity": 10027,
    "Ġcushion": 17833,
    "buncle": 13691,
    "hilar": 25081,
    "Ç": 136,
    "Ġomnipotent": 13547,
    "M": 49,
    "based": 2961,
    "Ġshoot": 11161,
    "ß": 160,
    "Ġfrancis": 26063,
    "umul": 1288,
    "Ġbegged": 8230,
    "Ġkindred": 16373,
    "Ġunprofitable": 18267,
    "Ġdetailed": 12821,
    "Ġconclude": 8580,
    "Ġbridge": 8348,
    "Ġoccurred": 4462,
    "wart": 17705,
    "ï": 176,
    "Ġded": 2428,
    "itively": 21329,
    "rederick": 14079,
    "future": 13716,
    "Ġconcernment": 23643,
    "Ġunworth": 22033,
    "ą": 198,
    "ama": 11676,
    "Ġpark": 5465,
    "Ġfrankenstein": 7095,
    "perfectly": 9085,
    "pious": 17633,
    "myself": 5113,
    "luent": 15996,
    "bull": 13689,
    "Ġfragmentary": 25857,
    "Ġfore": 2154,
    "beings": 12873,
    "isance": 17847,
    "Ġcomparatively": 9489,
    "Ġsecondary": 23334,
    "Ġprice": 10403,
    "Ġcrunched": 19123,
    "remarked": 12286,
    "alizing": 17939,
    "expressed": 9041,
    "look": 2263,
    "practical": 17221,
    "aceti": 7111,
    "Ġfurs": 18738,
    "Ġgathering": 14977,
    "Ġsupplies": 20325,
    "Ġchest": 5185,
    "etymology": 14700,
    "X": 60,
    "Ġbreaking": 6310,
    "uesday": 8587,
    "station": 10844,
    "Ġportly": 14678,
    "Ġsavages": 9911,
    "Ġrenounce": 19466,
    "iarity": 8743,
    "Ġprofess": 3700,
    "Ġplainpal": 19276,
    "Ġire": 12664,
    "Ġmut": 3582,
    "Ġfootfalls": 25866,
    "fluke": 25204,
    "Ġbloss": 19255,
    "Ġhate": 5445,
    "Ġtight": 8107,
    "Ġtopsails": 19193,
    "Ġprodigiously": 14931,
    "Ġfurious": 10353,
    "lingering": 18601,
    "bly": 6110,
    "Ġaltering": 18102,
    "Ġconcluded": 5658,
    "Ġremembr": 24170,
    "playful": 24357,
    "Ġunwillingness": 20030,
    "Ġamid": 4959,
    "Ġpropontis": 17465,
    "onstr": 12543,
    "Ġscraps": 16902,
    "Ġdependencies": 2315,
    "affrail": 11205,
    "dles": 11480,
    "Ġundisturbed": 19518,
    "kye": 20937,
    "Ġbiting": 17861,
    "speechless": 25395,
    "Ġimpenet": 14218,
    "Ġpublic": 4334,
    "Ġmounts": 17806,
    "ittarius": 22374,
    "Ġum": 10211,
    "Ġpopulous": 16826,
    "albatross": 15627,
    "hor": 2575,
    "Ġdispel": 16596,
    "deserving": 17241,
    "Ġperformed": 8546,
    "Ġcrater": 16438,
    "Ġmaids": 19690,
    "©": 107,
    "Ġinstruction": 14341,
    "ached": 2322,
    "Ġchink": 15930,
    "rope": 3180,
    "alid": 13934,
    "necessarily": 19630,
    "tes": 11528,
    "Ġsacr": 7194,
    "Ġcascade": 20579,
    "Ġswarming": 16272,
    "endeav": 7150,
    "Ġannealing": 1555,
    "Ġthrough": 603,
    "ency": 3871,
    "exceeded": 24999,
    "Ġheedfully": 24521,
    "Ġtinge": 25087,
    "concerted": 16671,
    "Ġtep": 21160,
    "thesize": 24906,
    "Ġdivision": 19442,
    "Ġsituation": 4077,
    "Ġloom": 7628,
    "Ġwhar": 7388,
    "Ġthackeray": 26455,
    "Ġdetermining": 14420,
    "depart": 12263,
    "mystical": 25317,
    "intercourse": 14638,
    "ĠâĢĶâĢĶ": 25757,
    "Ġpike": 12620,
    "Ġtransl": 2831,
    "nails": 17614,
    "Ġescape": 2648,
    "Ġdod": 6672,
    "Ġhon": 2540,
    "Ġlamentations": 17076,
    "Ġprobably": 4316,
    "gers": 8375,
    "Ġwritten": 4172,
    "Ġdiscerned": 25003,
    "oubted": 5859,
    "Ġfashion": 4300,
    "Ġathirst": 20597,
    "Ġviciss": 11292,
    "requent": 3649,
    "Ġf": 283,
    "Ġpetersburgh": 24228,
    "Ġchips": 14181,
    "Ġforbidding": 17079,
    "itely": 5365,
    "Ġcunning": 6238,
    "Ġmistifying": 23718,
    "Ġram": 11013,
    "forbearance": 22800,
    "ipotence": 22353,
    "Ġanticip": 7507,
    "Ġrepresent": 1209,
    "ye": 1405,
    "onian": 17767,
    "Ġgoing": 2068,
    "acid": 11005,
    "Ġcobbler": 25829,
    "Ġdining": 6977,
    "Ġwithheld": 18114,
    "Ġsubstantiated": 25875,
    "commodore": 20624,
    "kitty": 10105,
    "Ġthink": 986,
    "elastic": 17980,
    "Ġelud": 22641,
    "illed": 2626,
    "proportions": 22844,
    "Ġfurnish": 9018,
    "Ã¦mon": 7094,
    "Ġtouched": 6000,
    "Ġsteered": 11093,
    "enormous": 26166,
    "pred": 2804,
    "Ġmathematical": 3351,
    "stock": 13220,
    "fal": 17536,
    "urs": 6989,
    "Ġstifle": 18073,
    "ictions": 14226,
    "Ġrascal": 11698,
    "soled": 14328,
    "Ġfriendly": 9819,
    "Ġgreenwich": 19320,
    "allet": 11083,
    "Ġcoincidences": 26363,
    "Ġquick": 2585,
    "Ġsit": 4219,
    "Ġstiffness": 24830,
    "blooded": 20021,
    "nephew": 26397,
    "neying": 22446,
    "Ġresignation": 18566,
    "----": 4062,
    "impud": 23759,
    "Ġfellows": 8256,
    "Ġadro": 15865,
    "Ġgentlemen": 3642,
    "Ġentit": 22741,
    "blades": 24131,
    "Ġheat": 5453,
    "Ġculprit": 26172,
    "Ġoverboard": 6044,
    "Ġgiddy": 20495,
    "subst": 12162,
    "Ġblanched": 26282,
    "otherwise": 7670,
    "Ġfru": 8419,
    "ifer": 11683,
    "Ġhugest": 17015,
    "au": 777,
    "mental": 16058,
    "Ġdaboll": 25950,
    "amous": 15758,
    "Ġforces": 12699,
    "Ġdeliriously": 23228,
    "Ġcheese": 9376,
    "Ġmidships": 23632,
    "Ġhussey": 7724,
    "buried": 14848,
    "Ġcorrection": 5062,
    "Ġoxen": 19949,
    "served": 5043,
    "Ġamphitheat": 26251,
    "Ġhunts": 23155,
    "Ġyield": 5093,
    "icirc": 15653,
    "Ġinferences": 17934,
    "irc": 1729,
    "Ġhurst": 5582,
    "feels": 22499,
    "mystic": 25316,
    "fifth": 20145,
    "Ġstables": 23656,
    "Ġfam": 1585,
    "zen": 5140,
    "Ġaccompaniments": 24482,
    "incing": 15484,
    "sou": 12503,
    "morn": 20975,
    "Ġpumping": 25643,
    "Ġdawn": 6816,
    "Ġheathenish": 13615,
    "icip": 6389,
    "ribut": 815,
    "Ġwallowed": 24039,
    "ading": 5091,
    "Ġdeterm": 1269,
    "ics": 3254,
    "?âĢĻâĢĿ": 23641,
    "Ġ113": 19695,
    "Ġmexic": 14029,
    "Ġrect": 18025,
    "Ġacquies": 11097,
    "Ġfurthermore": 1166,
    "Ġexclusiveness": 23924,
    "ease": 12455,
    "aco": 12903,
    "soldiers": 25911,
    "Ġperdition": 15990,
    "Ġcorner": 4371,
    "fr": 4804,
    "Ġsubmit": 11868,
    "Ġpound": 12613,
    "dick": 11479,
    "toes": 22561,
    "Ġstroll": 13351,
    "inate": 6233,
    "Ġscheming": 23268,
    "Ġledge": 19399,
    "derer": 4600,
    "ception": 6562,
    "Ġintu": 12760,
    "akers": 9739,
    "Ġstrictest": 17042,
    "Ġrevel": 9214,
    "Ġponies": 21473,
    "Ġchapters": 10473,
    "asons": 6014,
    "settle": 16661,
    "Ġagony": 5388,
    "aet": 15306,
    "Ġallured": 14112,
    "Ġgeometric": 3214,
    "Ġbunch": 11326,
    "aging": 2240,
    "Ġlull": 15648,
    "Ġlangsdorff": 15275,
    "fow": 20852,
    "Ġbroom": 18906,
    "shirt": 22455,
    "Ġpeleg": 3739,
    "Ġboarded": 13233,
    "bbs": 23691,
    "unbidden": 21891,
    "composed": 14739,
    "Ġrefusal": 10345,
    "erick": 13847,
    "go": 2065,
    "Ġspas": 10922,
    "Ġtransp": 4769,
    "Ġthank": 3792,
    "oft": 3590,
    "arab": 21439,
    "apparent": 11040,
    "Ġrattled": 15065,
    "Ġbrack": 23833,
    "screen": 22995,
    "paus": 13772,
    "Ġhaunts": 18198,
    "Ġnut": 12643,
    "Ġothers": 2586,
    "Ġpassage": 3887,
    "Ġhammock": 5768,
    "Ġalan": 10869,
    "Ġtwelvemonth": 12175,
    "Ġtorment": 8673,
    "article": 22397,
    "ieth": 10704,
    "awakened": 14452,
    "consult": 24169,
    "Ġnugent": 26457,
    "Ġinforming": 18741,
    "fel": 8733,
    "must": 3577,
    "Ġface": 1722,
    "hamlet": 23260,
    "queg": 1771,
    "Ġastonishment": 4794,
    "Ġprevention": 16089,
    "Ġcourtship": 24136,
    "games": 20879,
    "octavo": 11385,
    "Ġwhispers": 14699,
    "state": 13978,
    "bed": 3287,
    "Ġrelate": 6875,
    "Ġquant": 6424,
    "Ġgaieties": 24195,
    "both": 5785,
    "Ġmarshy": 20217,
    "card": 11475,
    "longing": 23725,
    "Ġopulent": 23627,
    "Ġguitar": 16267,
    "impressed": 12688,
    "Ġunfavourable": 17416,
    "Ġwhistling": 19789,
    "Ġoutlines": 15955,
    "amouch": 21842,
    "real": 10149,
    "Ġconcise": 23322,
    "Ġdeny": 7488,
    "Ġren": 3848,
    "under": 3129,
    "Ġendeavored": 19302,
    "Ġneskye": 21528,
    "Ġrepelled": 19085,
    "originally": 24937,
    "Ġanimals": 8978,
    "clear": 9023,
    "live": 7550,
    "shook": 19855,
    "ifferent": 4265,
    "Ġshipmates": 6720,
    "ckery": 22092,
    "Ġbraided": 16581,
    "highly": 24764,
    "Ġeaten": 14844,
    "Ġintervened": 25481,
    "Ġlane": 5627,
    "Ġpart": 860,
    "Ġsuspicions": 9478,
    "Ġevian": 24292,
    "Ġpleated": 16295,
    "Ġalarmed": 6923,
    "trap": 24313,
    "sentiment": 12911,
    "binnacle": 20786,
    "page": 13770,
    "measured": 19988,
    "Ġflourishing": 25187,
    "variance": 2656,
    "Ġpul": 2041,
    "Ġstray": 18069,
    "Ġdisregard": 22525,
    "pression": 10407,
    "rivial": 9433,
    "ignorant": 13562,
    "ange": 1018,
    "Ġinclement": 22550,
    "irable": 5776,
    "expense": 22426,
    "Ġthoughtfulness": 18772,
    "Ġtalks": 23368,
    "Ġchased": 8861,
    "Ġenl": 18188,
    "devil": 7894,
    "Ġindoors": 18836,
    "rential": 22916,
    "?âĢĿ": 700,
    "Ġcircumspection": 25884,
    "Ġcapable": 5054,
    "Ġcomfortable": 6094,
    "Ġgans": 5821,
    "mospheric": 17091,
    "Ġiroquois": 26470,
    "sustained": 20567,
    "Ġjuggler": 26366,
    "Ġgag": 21590,
    "Ġcursed": 6726,
    "Ġcoleridge": 18766,
    "Ġusual": 3946,
    "onom": 9158,
    "Ġthrows": 14736,
    "oms": 4593,
    "Ġvigour": 24462,
    "miserably": 24210,
    "Ġcorps": 13030,
    "Ġdeliver": 9848,
    "wester": 21137,
    "Ġglobu": 23269,
    "aff": 3099,
    "hunter": 10555,
    "Ġwaggish": 25434,
    "wearing": 22684,
    "Ġcalls": 6744,
    "Ġdiscernible": 15068,
    "Ġasking": 5651,
    "Ġointment": 21324,
    "stiff": 12672,
    "Ġsubdued": 11030,
    "Ġprows": 19888,
    "baned": 17495,
    "aimed": 3955,
    "Ġ2": 2931,
    "Ġcommentaries": 20159,
    "modesty": 22876,
    "sh": 648,
    "Ġsh": 419,
    "Ġwronged": 24247,
    "Ġquart": 11785,
    "ock": 15401,
    "Ġphysiognomy": 25610,
    "Ġstre": 2108,
    "Ġimposed": 14213,
    "Ġlocket": 22110,
    "upid": 6581,
    "ivory": 10270,
    "remental": 21246,
    "Ġspasmodically": 17313,
    "shake": 22452,
    "otence": 14022,
    "hearing": 8402,
    "Ġkindled": 19027,
    "Ġpantry": 20294,
    "Ġarticulate": 24432,
    "emic": 18184,
    "Ġenergies": 25459,
    "Ġmap": 2393,
    "Ġstraight": 3704,
    "Ġalpha": 13587,
    "Ġstandards": 19015,
    "Ġcups": 16882,
    "Ġstudded": 18956,
    "grow": 10098,
    "Ġhedges": 19983,
    "tack": 12510,
    "Ġdough": 8420,
    "Ġ**": 4720,
    "Ġincomp": 12894,
    "bright": 8989,
    "Ġrefusing": 11028,
    "Ġco": 729,
    "Ġsurvived": 14933,
    "Ġanalytical": 22909,
    "Ġstile": 21729,
    "intern": 23735,
    "additional": 20462,
    "Ġresol": 2667,
    "lur": 13746,
    "Ġcranial": 25592,
    "itigated": 23044,
    "meth": 11502,
    "evinced": 19925,
    "Ġsudden": 1997,
    "simp": 17665,
    "Ġcompromised": 22568,
    "Ġbeard": 11654,
    "Ġdisco": 3430,
    "Ġimputation": 22169,
    "ating": 665,
    "masters": 16834,
    "Ġshameful": 19851,
    "Ġparmacetti": 20603,
    "que": 1146,
    "Ġfuss": 13904,
    "ign": 1700,
    "Ġtag": 15467,
    "Ġleak": 2161,
    "Ġfaces": 6008,
    "shortened": 24748,
    "iv": 433,
    "Ġrestlessness": 23290,
    "Ġspot": 4159,
    "Ġdecline": 9286,
    "Ġimpatiently": 8337,
    "Ġconvince": 14642,
    "Ġcoffin": 4429,
    "Ġmet": 1903,
    "supers": 22639,
    "Ġconjoined": 21803,
    "adventure": 17233,
    "ı": 242,
    "readiness": 19361,
    "offered": 14518,
    "irting": 11684,
    "delirium": 14784,
    "Ġdashing": 8795,
    "persuade": 13532,
    "orn": 2244,
    "Ġaddress": 2272,
    "Ġproofs": 19813,
    "magn": 10610,
    "Ġthreat": 5154,
    "Ġfamous": 5255,
    "Ġawa": 7713,
    "Ġar": 480,
    "Ġcountryside": 23595,
    "Ġleathern": 15050,
    "Ġdiscourage": 3114,
    "Ġvanquished": 22867,
    "discrimin": 19607,
    "Ġbehave": 23296,
    "rive": 9706,
    "Ġhateful": 19712,
    "Ġlowering": 7986,
    "ition": 654,
    "shri": 14235,
    "anesc": 21358,
    "contrasted": 17305,
    "mingled": 14712,
    "Ġstyled": 24671,
    "presbyter": 20616,
    "igms": 3045,
    "Ġfinal": 5400,
    "Ġspikes": 22133,
    "ique": 8742,
    "ifference": 5632,
    "Ġmatch": 4529,
    "Ġmodular": 12813,
    "test": 13791,
    "Ġconfederate": 17353,
    "Ġqueen": 3209,
    "bers": 2574,
    "Ġjacket": 6489,
    "Ġfirmness": 11238,
    "Ġlacey": 10197,
    "Ġarchy": 14346,
    "Ġungover": 18255,
    "tranqu": 14705,
    "Ġstake": 14002,
    "Ġhears": 8138,
    "Ġwarb": 17787,
    "younger": 11312,
    "Ġforemast": 12004,
    "Ġclanging": 18422,
    "oblivious": 26582,
    "Ġpractices": 19044,
    "Ġignorant": 5343,
    "Ġteaching": 10364,
    "hopeless": 16917,
    "Ġpract": 1843,
    "bowing": 24454,
    "Ġtricks": 13483,
    "Ġensued": 11394,
    "Ġstillness": 12991,
    "hearse": 17748,
    "Ġthrills": 24542,
    "Ġcomponents": 8892,
    "Ġhorizont": 6937,
    "Ġroads": 13287,
    "Ġhyperborean": 26339,
    "Ġethiopian": 26613,
    "Ġscandal": 9081,
    "Ġcontr": 1914,
    "Ġhier": 1893,
    "Ġincapable": 7423,
    "woof": 21138,
    "Ġdelivered": 11116,
    "oppressed": 24824,
    "gar": 5615,
    "Ġplatform": 17131,
    "iers": 5990,
    "Ġjustice": 5111,
    "iform": 2202,
    "entered": 8814,
    "Ġage": 3900,
    "unwillingly": 21881,
    "perv": 1599,
    "fiend": 13660,
    "Ġeffort": 8203,
    "Ġconstantly": 11971,
    "remembrance": 25702,
    "Ġclipping": 2443,
    "(": 12,
    "Ġdeploy": 2787,
    "hunsford": 24386,
    "Ġconverts": 2807,
    "Ġdisadvantage": 12887,
    "airs": 2223,
    "tier": 12512,
    "Ġleyden": 21744,
    "Ġknob": 24407,
    "ely": 623,
    "beat": 10986,
    "jah": 17581,
    "enger": 10773,
    "Ġcharing": 14180,
    "Ġfirm": 3873,
    "genteel": 19947,
    "Ġdang": 9174,
    "Ġannesley": 19576,
    "ods": 8835,
    "Ġpunctures": 25133,
    "Ġlakes": 8130,
    "Ġdefines": 1742,
    "Ġfuriously": 9801,
    "warmest": 25027,
    "Ġsuperstitious": 13519,
    "Ġpersian": 11086,
    "Ġpenal": 1774,
    "Ġday": 956,
    "ousings": 18335,
    "Į": 239,
    "belief": 13280,
    "ivation": 3108,
    "enthus": 17977,
    "Ġaccordingly": 6619,
    "adru": 15728,
    "Ġanswerable": 23471,
    "Ġ2026": 12333,
    "Ġmeal": 9696,
    "Ġabusing": 18393,
    "angular": 11720,
    "Ġhills": 6527,
    "acceptable": 25184,
    "od": 353,
    "Ġcourt": 4173,
    "Ġsecondly": 14519,
    "Ġshortened": 23483,
    "lonely": 20956,
    "Ġadding": 2404,
    "Ġoverall": 4360,
    "Ġbathe": 25443,
    "Ġlove": 2054,
    "Ġamber": 7026,
    "Ġboldness": 24428,
    "Ġprojects": 9510,
    "ot": 346,
    "Ġforg": 3788,
    "Ġenchanted": 9080,
    "inridge": 11560,
    "Ġrattler": 24995,
    "Ġreus": 8821,
    "complain": 14357,
    "Ġbridal": 14953,
    "Ġmarched": 18871,
    "Ġrheum": 18214,
    "Ġwoman": 2387,
    "Ġwarned": 16880,
    "Ġmirror": 12376,
    "rosc": 17954,
    "Ġban": 7156,
    "anguish": 15981,
    "Ġstep": 752,
    "Ġbewildered": 15212,
    "Ġredress": 23751,
    "Ġsouthern": 7688,
    "Ġoverwhelming": 17102,
    "winds": 10521,
    "Ġresource": 10993,
    "Ġunforeseen": 22050,
    "Ġig": 3500,
    "Ġpredestinated": 18526,
    "Ġowed": 10780,
    "Ġsexes": 25168,
    "Ġimpregn": 26022,
    "swam": 24254,
    "ie": 728,
    "ordinary": 4408,
    "hark": 15364,
    "mile": 17597,
    "liked": 10508,
    "ensing": 12893,
    "Ġhereby": 10358,
    "mand": 3898,
    "Ġdiligently": 11405,
    "along": 6012,
    "Ġpersuas": 23944,
    "Ġfaster": 3193,
    "masterly": 24530,
    "Ġsuspect": 5758,
    "Ġrelied": 16191,
    "Ġreverber": 19868,
    "shud": 18492,
    "Ġas": 374,
    "Ġrandomly": 1919,
    "Ġevangelical": 25506,
    "Ġlurked": 11291,
    "Ġcosmopol": 16454,
    "Ġconveying": 19713,
    "Ġgenial": 12192,
    "Ġcubic": 20086,
    "Ġquivered": 18467,
    "ior": 2040,
    "Ġwretched": 4087,
    "Ġdusky": 13548,
    "pans": 13769,
    "anatory": 21361,
    "Ġpour": 13913,
    "Ġverily": 16603,
    "Ġrokovoko": 22402,
    "Ġleaped": 8825,
    "cares": 24309,
    "Ġfriend": 1295,
    "less": 928,
    "mit": 4933,
    "Ġinterpre": 1588,
    "Ġblows": 5972,
    "cst": 10084,
    "Ġadjusts": 8980,
    "dead": 8179,
    "Ġpool": 5173,
    "mannered": 22846,
    "americans": 25042,
    "Ġinterchange": 16069,
    "Ġbefore": 810,
    "Ġcamberwell": 25350,
    "ere": 6789,
    "requ": 7148,
    "disp": 7976,
    "Ġol": 17814,
    "Ġcompares": 20165,
    "Ġshadow": 5596,
    "Ġwild": 2604,
    "Ġemblematical": 25788,
    "Ġwandering": 8653,
    "Ġprizes": 13072,
    "Ġcounteracted": 19861,
    "Ġmanip": 8871,
    "bishop": 13693,
    "Ġhollowly": 24526,
    "diligence": 26110,
    "dil": 11478,
    "Ġheard": 1399,
    "ificial": 608,
    "Ġconsumed": 10349,
    "Ġalms": 21777,
    "Ġholy": 6591,
    "uble": 21101,
    "spark": 18688,
    "Ġdriver": 16472,
    "Ġaddressed": 5262,
    "Ġprograms": 7239,
    "Ġprotruding": 16658,
    "apering": 8040,
    "Ġconcentric": 20073,
    "onely": 6516,
    "Ġuntutored": 19165,
    "Ġsports": 18310,
    "Ġwish": 2098,
    "sister": 5139,
    "herent": 2530,
    "size": 15423,
    "as": 302,
    "Ġlate": 3379,
    "drawers": 19384,
    "Ġgermans": 25784,
    "ality": 2513,
    "lips": 13749,
    "Ġachieves": 4380,
    "Ġcond": 3877,
    "riminately": 16482,
    "ugl": 23286,
    "Ġantiqu": 12142,
    "bu": 5132,
    "Ġpains": 5964,
    "pires": 13774,
    "Ġdante": 21436,
    "Ġupdates": 1298,
    "hun": 5210,
    "Ġcolourless": 19568,
    "Ġsubtle": 6716,
    "practised": 20246,
    "Ġcontained": 7678,
    "Ġluff": 15650,
    "succeed": 10328,
    "crow": 9590,
    "game": 11490,
    "Ġdiff": 3113,
    "Ġbarrow": 12067,
    "Ġcomical": 11679,
    "mediterranean": 16402,
    "Ġ33": 16676,
    "Ġcaucus": 17379,
    "encountered": 20391,
    "erman": 5108,
    "Ġdeserves": 13288,
    "Ġclimb": 15078,
    "Ġscratch": 25564,
    "endeavour": 17031,
    "Ġhowever": 1303,
    "Ġformless": 22825,
    "Ġcorridor": 10671,
    "umbered": 22114,
    "Ġstud": 1552,
    "terns": 21819,
    "but": 592,
    "spread": 8388,
    "likelihood": 4992,
    "Ġheaving": 7600,
    "sig": 2876,
    "Ġmagnific": 16316,
    "Ġmahogany": 20576,
    "Ġveins": 8932,
    "surprised": 9530,
    "sunlight": 24851,
    "Ġintegrated": 13530,
    "Ġsli": 4747,
    "Ġseen": 1366,
    "zed": 8103,
    "Ġdownstream": 3776,
    "Ġhereditarily": 25224,
    "Ġjingling": 26017,
    "Ġascribed": 14854,
    "Ġmentioned": 4331,
    "isson": 23460,
    "Ġcarriage": 3953,
    "wind": 4255,
    "Ġfish": 2711,
    "Ġemig": 14524,
    "Ġdreadfully": 7725,
    "desp": 6075,
    "Ġship": 1087,
    "painted": 17639,
    "Ġmended": 21312,
    "wat": 6231,
    "hit": 20888,
    "stochastic": 3775,
    "atum": 21258,
    "incident": 14591,
    "Ġcosmopolitan": 20640,
    "Ġillust": 8262,
    "ologically": 22875,
    "germans": 20564,
    "Ġdey": 11674,
    "Ġbats": 13899,
    "Ġmale": 9648,
    "Ġguide": 3212,
    "splinter": 25210,
    "Ġrally": 21965,
    "Ġsuggests": 12198,
    "Ġshells": 20362,
    "Ġappl": 1693,
    "Ġhearty": 9847,
    "upset": 23016,
    "dually": 3280,
    "Ġce": 3031,
    "Ġsex": 8841,
    "Ġheaps": 11641,
    "Ġmichaelmas": 26374,
    "Ġexists": 14040,
    "Ġmerc": 9425,
    "mes": 1196,
    "semicirc": 26491,
    "Ġtyp": 1129,
    "Ġpence": 17903,
    "Ġsolitude": 6876,
    "Ġbuzz": 23994,
    "anity": 9654,
    "Ġvis": 1079,
    "likeness": 19476,
    "Ġapples": 22215,
    "izers": 18134,
    "Ġplot": 14279,
    "ations": 711,
    "Ġenergy": 2555,
    "Ġprophes": 16347,
    "Ġchristendom": 16695,
    "Ġcringing": 25941,
    "ienced": 5685,
    "Ġoutwardly": 24998,
    "inders": 15978,
    "ator": 1921,
    "Ġhammer": 6093,
    "Ġfusion": 21412,
    "toed": 18578,
    "Ġabide": 14187,
    "Ġebb": 21621,
    "ascended": 24706,
    "Ġri": 3396,
    "Ġslaugh": 18937,
    "Ġswamp": 14435,
    "Ġlethargy": 26483,
    "ffic": 22148,
    "Ġindestructible": 26572,
    "Ġthen": 666,
    "Ġindignity": 18833,
    "oran": 8788,
    "Ġquadr": 8199,
    "Ġextort": 22753,
    "Ġpride": 3826,
    "doing": 8584,
    "Ġfifteen": 6947,
    "bearance": 22491,
    "Ġracket": 22651,
    "Ġslain": 8953,
    "Ġlodgings": 8311,
    "Ġsinned": 18950,
    "Ġrefuge": 8541,
    "entieth": 17978,
    "Ġpitiful": 13238,
    "Ġmariner": 7247,
    "conditional": 9078,
    "Ġgoat": 16004,
    "trowsers": 17691,
    "Ġending": 18189,
    "Ġcell": 6237,
    "ational": 5716,
    "idual": 1560,
    "Ġasia": 11681,
    "Ġrigged": 16717,
    "Ġlurks": 11290,
    "Ġelect": 10842,
    "Ġrecesses": 17260,
    "phon": 4132,
    "Ġcandour": 14672,
    "?âĢĻ": 2642,
    "Ġengine": 1918,
    "ssible": 2993,
    "heeded": 13833,
    "Ġont": 18118,
    "thinks": 16641,
    "Ġfar": 1450,
    "ortations": 22254,
    "Ġmurmur": 14589,
    "Ġconsideration": 5191,
    "city": 15326,
    "angible": 22099,
    "Ġcalves": 13032,
    "Ġhowling": 8509,
    "Ġassertions": 19945,
    "Ġfurther": 1056,
    "Ġfiery": 6871,
    "animated": 14974,
    "Ġconvict": 23744,
    "overed": 2856,
    "Ġpork": 21454,
    "sweep": 24617,
    "Ġcro": 4873,
    "Ġcontented": 9755,
    "vius": 23540,
    "Ġfret": 10806,
    "Ġanx": 3176,
    "Ġvindictiveness": 25738,
    "Ġconject": 6026,
    "Ġforging": 18093,
    "mis": 4521,
    "Ġwhosoever": 21716,
    "eprints": 12788,
    "uing": 17693,
    "python": 4691,
    "Ġinstructing": 3120,
    "Ġashamed": 6403,
    "various": 10397,
    "birth": 15321,
    "den": 938,
    "Ġarsac": 11740,
    "Ġdepose": 22606,
    "onents": 8776,
    "rels": 6664,
    "Ġparish": 8854,
    "Ġelectric": 15193,
    "Ġrelatives": 12979,
    "Ġcommenting": 25228,
    "Ġmonument": 16240,
    "Ġ56": 24324,
    "ileries": 18058,
    "Ġbingley": 1674,
    "Ġcommod": 10333,
    "ura": 1046,
    "la": 10705,
    "resh": 8403,
    "Ġhorrors": 10479,
    "Ġlottery": 19887,
    "uncommonly": 25549,
    "Ġtops": 14586,
    "Ġhoped": 5488,
    "Ġcongenial": 12409,
    "countenance": 6925,
    "Ġslow": 2379,
    "Ġenric": 21931,
    "Ġjunior": 15098,
    "ć": 200,
    "Ġdoubtfully": 23478,
    "Ü": 157,
    "Ġflail": 23006,
    "Ġsummoning": 23872,
    "property": 19998,
    "Ġlongitude": 11011,
    "desolate": 25703,
    "mix": 20973,
    "Ġglove": 14491,
    "Ġevils": 9019,
    "Ġdrowsiness": 26445,
    "Ġabandonment": 25603,
    "indirectly": 18437,
    "Ġrugged": 18720,
    "Ġcounter": 6481,
    "wag": 21122,
    "felt": 5888,
    "Ġunfelt": 24111,
    "glings": 23849,
    "Ġwasted": 9703,
    "ause": 1312,
    "Ġspit": 22121,
    "Ġprotecting": 24686,
    "children": 9055,
    "ric": 1374,
    "appear": 13197,
    "month": 6463,
    "imes": 1300,
    "raise": 18011,
    "opotam": 22476,
    "âĢľâĢĶ": 10872,
    "Ġwitty": 21291,
    "Ġdard": 21420,
    "Ġlifts": 25358,
    "Ġredu": 1354,
    "Ġobjects": 5578,
    "Ġmurderous": 8315,
    "comparatively": 25839,
    "Ġdreaminess": 23937,
    "Ġext": 912,
    "lig": 3168,
    "Ġeverybody": 4510,
    "Ġunfitted": 24109,
    "seem": 10227,
    "Ġoffice": 4965,
    "Ġsurviving": 24637,
    "Ġbutter": 6842,
    "Ġbeliever": 25845,
    "Ġringing": 13330,
    "Ġadvis": 9809,
    "Ġfinancier": 26583,
    "Ġostr": 21323,
    "drink": 10595,
    "Ġbremen": 23343,
    "Ġribbons": 24329,
    "Ġperformer": 18754,
    "unte": 21870,
    "kov": 17586,
    "Ġfe": 490,
    "Ġscheduling": 2350,
    "mell": 20963,
    "Ġextras": 22754,
    "men": 1485,
    "Ġanchors": 12610,
    "ners": 3268,
    "Ġpardon": 5727,
    "Ġcolony": 18765,
    "Ġexpiration": 22620,
    "Ġmissionary": 25696,
    "Ġheroism": 24544,
    "Ġuniformity": 23484,
    "Ġlongitudes": 22631,
    "whal": 10940,
    "Ġadvertised": 17247,
    "Ġgrapnels": 25551,
    "Ġrelieved": 7665,
    "anch": 15557,
    "Ġcanoe": 9722,
    "volutions": 16319,
    "Ġensl": 19273,
    "Ġlighted": 7063,
    "Ġriot": 14688,
    "Ġadmire": 5263,
    "sheet": 16284,
    "Ġwars": 17785,
    "Ġken": 22188,
    "Ġgodfre": 14529,
    "Ġbolts": 16943,
    "Ġaccumulating": 2723,
    "Ġwhoever": 10973,
    "Ġresulting": 24198,
    "Ġbeliefs": 24582,
    "ission": 6457,
    "Ġfishe": 15583,
    "Ġcompanies": 14557,
    "Ġjoosy": 23630,
    "verest": 13990,
    "overing": 6306,
    "P": 52,
    "dance": 17519,
    "Ġjavel": 17084,
    "Ġassembl": 20059,
    "âĢĻ,": 14069,
    "Ġalleviated": 26203,
    "itig": 1333,
    "Ġlord": 2967,
    "ulous": 4450,
    "Ġpoised": 22587,
    "venor": 16095,
    "taught": 17684,
    "ision": 1855,
    "Ġreality": 7057,
    "jure": 20923,
    "Ġpubl": 3943,
    "Ġentertaining": 16926,
    "Ġshowers": 16605,
    "Ġoriginal": 6102,
    "aces": 2070,
    "Ġended": 7949,
    "Ġmouthfuls": 20645,
    "Ġreneg": 21672,
    "poles": 16207,
    "favourite": 15142,
    "Ġfree": 3377,
    "ancholy": 5070,
    "Ġinconven": 7586,
    "Ġdirest": 22702,
    "Ġcomparing": 14264,
    "Ġsinging": 7723,
    "Ġjoy": 3179,
    "Ġanalyze": 1616,
    "Ġdears": 18139,
    "Ġinvulnerable": 19146,
    "Ġrepe": 3277,
    "Ġ76": 24262,
    "anean": 7443,
    "indef": 17735,
    "torture": 26151,
    "Ġremonstrance": 20621,
    "Ġschedule": 2372,
    "Ġoysters": 20577,
    "Ġ14": 9322,
    "spirited": 19752,
    "Ġwid": 4632,
    "ĠĠĠĠĠĠĠĠĠĠĠĠĠĠĠĠĠĠĠĠĠĠĠĠĠĠĠĠĠĠĠĠĠĠĠĠĠ": 14615,
    "Ġcleansed": 26293,
    "col": 3100,
    "ske": 13781,
    "attachment": 13049,
    "tempestuous": 26097,
    "Ġinev": 10181,
    "proportion": 16181,
    "Ġtheories": 13848,
    "icions": 21560,
    "Ġundeceive": 25552,
    "Ġranks": 21969,
    "sheltered": 25585,
    "Ġraising": 8909,
    "Ġdescend": 7427,
    "foreign": 18544,
    "Ġwitnessed": 14843,
    "Ġjam": 10951,
    "Ġabed": 22262,
    "Ġbalances": 2341,
    "Ġcheering": 11133,
    "latin": 25258,
    "Ġnibbling": 17384,
    "Ġsuperiors": 23454,
    "rist": 10122,
    "rice": 13776,
    "Ġgraze": 18226,
    "Ġoptimization": 1408,
    "abhorred": 17335,
    "Ġfidget": 15188,
    "Ġxiii": 25591,
    "Ġdirecting": 16298,
    "Ġcircumstances": 3929,
    "staking": 21645,
    "Ġrather": 1494,
    "Ġhansom": 13663,
    "inj": 9151,
    "Ġrattle": 10899,
    "Ġpantheistic": 26335,
    "erer": 8731,
    "Ġsilly": 7685,
    "ped": 6365,
    "Ġwalrus": 14972,
    "Ġstarlight": 24626,
    "lust": 15378,
    "Ġhearties": 18966,
    "ceptibly": 22340,
    "rece": 21233,
    "here": 2552,
    "gish": 20872,
    "bil": 20770,
    "Ġapex": 24342,
    "Ġparr": 22116,
    "cures": 20804,
    "imodal": 17446,
    "in": 262,
    "Ġclapping": 14202,
    "Ġhistor": 3392,
    "Ġexplained": 5935,
    "determination": 19943,
    "Ġtoiling": 15632,
    "Ġissuing": 16948,
    "contrivance": 26316,
    "vember": 10855,
    "Ġjewels": 12367,
    "Ġtipt": 21172,
    "Ġdenominated": 15227,
    "Ġexpectantly": 23524,
    "extremely": 26264,
    "Ġcontrivances": 12355,
    "Ġfasten": 11132,
    "Ġsheath": 14151,
    "Ġpair": 5706,
    "Ġrecital": 16140,
    "Ġreservo": 16831,
    "Ġgemin": 21607,
    "carpet": 25202,
    "Ġapologize": 15127,
    "Ġpairs": 4186,
    "som": 3289,
    "contrast": 25594,
    "Ġsalvation": 14756,
    "Ġ270": 25130,
    "Ġplucked": 15112,
    "acles": 8519,
    "Ġmatrix": 1605,
    "Ġtree": 5284,
    "lengths": 24846,
    "Ġemm": 18002,
    "Ġamend": 16032,
    "agues": 8160,
    "Ġunit": 1850,
    "Ġresign": 18564,
    "Ġtypewritten": 16420,
    "took": 6164,
    "Ġopine": 19227,
    "expectation": 14855,
    "Ġsilken": 16377,
    "Ġglared": 13015,
    "Ġjour": 11762,
    "made": 4808,
    "Ġende": 21929,
    "Ġguided": 10460,
    "Ġcastors": 23973,
    "Ġbleak": 10558,
    "Ġgreatly": 5849,
    "Ġentailed": 11026,
    "ional": 1081,
    "ends": 6038,
    "histicated": 20900,
    "Ġbanners": 24858,
    "Ġgest": 8133,
    "consideration": 14954,
    "Ġdelineations": 26058,
    "Ġhypocr": 19470,
    "Ġspont": 22128,
    "Ġdoth": 13907,
    "stirring": 20424,
    "lott": 6650,
    "Ġut": 2280,
    "Ġpursu": 3236,
    "Ġvertically": 19378,
    "Ġflaw": 23009,
    "Ġashes": 7616,
    "Ġpersonality": 16475,
    "hap": 17559,
    "Ġhapless": 15810,
    "Ġdown": 831,
    "Ġtandem": 26411,
    "Ġheiress": 20696,
    "Ġlofty": 6217,
    "rig": 7556,
    "clair": 18932,
    "Ġcigar": 9544,
    "recur": 4437,
    "Ġmass": 3781,
    "Ġdecency": 18485,
    "excited": 13379,
    "lingly": 9772,
    "cats": 17512,
    "Ġbenefit": 8292,
    "Ġungod": 22021,
    "Ġdistricts": 20262,
    "osity": 14185,
    "Ġcleans": 18947,
    "Ġassumptions": 5517,
    "Ġsmoked": 10322,
    "orient": 2880,
    "ates": 519,
    "pipe": 8696,
    "ruction": 4359,
    "rug": 18336,
    "Ġdeprived": 8210,
    "Ġinquirer": 24961,
    "Ġpromises": 10400,
    "injury": 25213,
    "susceptible": 24661,
    "trucks": 25419,
    "Ġprobability": 1125,
    "Ġbast": 21377,
    "âĢľâĢĻ": 10221,
    "sailors": 9921,
    "Ġpressing": 9260,
    "agery": 21904,
    "lower": 8880,
    "eridge": 15524,
    "Ġeffemin": 18532,
    "Ġinexpressible": 17332,
    "iably": 13737,
    "Ġdocument": 15018,
    "Ġfasting": 16354,
    "Ġbillows": 7502,
    "own": 745,
    "covenant": 23561,
    "Ġmoral": 6579,
    "Ġconvulsively": 25717,
    "Ġconfess": 3768,
    "iac": 6225,
    "ulpt": 10885,
    "Ġweave": 21918,
    "present": 1136,
    "ceased": 21623,
    "inger": 6812,
    "Ġheron": 22070,
    "Ġamount": 8511,
    "Ġinsince": 23678,
    "Ġbel": 1215,
    "wanderer": 25423,
    "fulfilment": 26025,
    "Ġrod": 9279,
    "Ġsumatra": 15285,
    "ont": 2624,
    "prec": 3197,
    "iability": 20919,
    "Ġsatire": 22896,
    "Ġfixed": 2687,
    "dwell": 15340,
    "lass": 5992,
    "Ġcents": 17828,
    "Ġperpet": 7644,
    "Ġslides": 18938,
    "Ġgrasped": 8033,
    "Ġfits": 8790,
    "rd": 17649,
    "Ġprocured": 8676,
    "sell": 13780,
    "Ġcopper": 7425,
    "Ġwin": 9641,
    "guinea": 16672,
    "Ġem": 1922,
    "rudence": 7092,
    "Ġtwinkle": 12321,
    "Ġcarpets": 18902,
    "Ġcopse": 17067,
    "clearer": 24067,
    "Ġchinese": 14183,
    "ospit": 22260,
    "Ġtriumphantly": 11287,
    "ernsey": 8901,
    "Ġ130": 24781,
    "solut": 3365,
    "Ġspans": 18304,
    "Ġmachinations": 25767,
    "Ġ184": 16607,
    "Ġinsulted": 14991,
    "Ġwheeled": 14138,
    "causing": 25518,
    "achable": 14137,
    "quent": 2095,
    "Ġbeen": 626,
    "Ġdisasters": 16051,
    "Ġmists": 14630,
    "Ġsqualidness": 25842,
    "Ġenviron": 3895,
    "Ġlandlady": 10422,
    "Ġrecom": 4555,
    "Ġlawn": 7379,
    "task": 13792,
    "sir": 5001,
    "Ġascribe": 16782,
    "ferred": 16417,
    "whis": 7897,
    "Ġtinged": 20081,
    "pad": 13767,
    "disapprobation": 19155,
    "penetrate": 20323,
    "Ġmatrices": 4969,
    "Ġnest": 10188,
    "Ġimpending": 22381,
    "dington": 11899,
    "Ġ=": 1071,
    "return": 5489,
    "inde": 17731,
    "lover": 18539,
    "quently": 9701,
    "Ġadhering": 14140,
    "lorn": 12485,
    "Ġbuttons": 12778,
    "Ġrecommence": 16812,
    "Ġdocumentation": 20553,
    "iza": 6255,
    "mag": 6508,
    "science": 11908,
    "Ġtapping": 10752,
    "Ġbrows": 13299,
    "Ġ68": 24370,
    "Ġmechan": 1182,
    "bits": 17488,
    "affair": 14655,
    "velled": 9875,
    "Ġarms": 3970,
    "Ġbath": 9658,
    "Ġpracticable": 19045,
    "Ġsells": 21222,
    ";âĢĿ": 7790,
    "ppings": 18176,
    "Ġinvolves": 1102,
    "Ġturing": 7566,
    "Ġintentionally": 24523,
    "Ġprivate": 5345,
    "Ġelderly": 13494,
    "Ġdons": 17888,
    "Ġahead": 6662,
    "august": 11071,
    "Ġlighten": 23257,
    "Ġhumbly": 16194,
    "Ġtaffrail": 15475,
    "Ġstren": 15717,
    "Ġload": 14145,
    "Ġpunishment": 9955,
    "nez": 22444,
    "Ġmending": 17804,
    "Ġdesk": 11905,
    "cstasy": 11445,
    "Ġcatholic": 20680,
    "uled": 11536,
    "example": 16011,
    "Ġcoarse": 14273,
    "ony": 3029,
    "Ġfight": 5366,
    "Ġwand": 4343,
    "Ġunconquerable": 22060,
    "shows": 22453,
    "Ġorb": 22086,
    "aways": 15309,
    "Ġincalculable": 17460,
    "Ġtranque": 14204,
    "fortunately": 9449,
    "mers": 9610,
    "stick": 15682,
    "Ġdisadvantages": 18558,
    "Ġcaptiv": 16255,
    "oth": 1183,
    "Ġjealousy": 13575,
    "ief": 2046,
    "oise": 15403,
    "Ġarmitage": 23580,
    "representation": 20195,
    "Ġaver": 1285,
    "behaviour": 11301,
    "Ġirr": 10421,
    "concluding": 19479,
    "quadr": 15761,
    "Ġguessed": 11282,
    "dial": 20824,
    "tland": 21072,
    "Ġspray": 7893,
    "Ġpleasurable": 23338,
    "Ġscarcely": 4014,
    "Ġunrolled": 22035,
    "urmount": 13995,
    "nurse": 15207,
    "Ġte": 1161,
    "Ġamidst": 9493,
    "Ġtoil": 6531,
    "Ġimperfect": 13338,
    "Ġwarriors": 19722,
    "Ġembeddings": 2190,
    "Ġlump": 21549,
    "lizzy": 6651,
    "Ġcaused": 5048,
    "Ġfeasts": 25369,
    "Ġwarmup": 3925,
    "evening": 7089,
    "exp": 2737,
    "llable": 6879,
    "Ġcolumbus": 26564,
    "Ġjago": 22296,
    "Ġoutlast": 22310,
    "erring": 11056,
    "ĠcÃ¦": 15552,
    "Ġcrime": 4616,
    "Ġschedules": 3388,
    "reference": 13839,
    "Ġinterment": 22571,
    "Ġchilian": 25563,
    "Ġmathematics": 12071,
    "Ġocc": 884,
    "being": 3917,
    "ici": 8439,
    "Ġthinks": 6169,
    "Ġcrabs": 19173,
    "gives": 15356,
    "immed": 9217,
    "attoo": 6807,
    "Ġsermon": 12374,
    "Ġenvied": 19286,
    "interested": 9505,
    "Ġidentified": 19150,
    "subsided": 25830,
    "Ġknew": 2055,
    "Ġbass": 17855,
    "Ġearliest": 9829,
    "Ġperfections": 23607,
    "Ġspasmodic": 20396,
    "Ġwaterproof": 19088,
    "Ġpenetrate": 12267,
    "frame": 17116,
    "Ġmyst": 4055,
    "Ġimprobable": 9789,
    "Ġancestry": 25641,
    "Ġprepar": 7896,
    "putable": 10901,
    "Ġreproachfully": 25251,
    "Ġstreaming": 19672,
    "Ġfavours": 23278,
    "v": 90,
    "Ġsurmount": 19999,
    "Ġsealed": 15816,
    "Ġturban": 23612,
    "umbrance": 22115,
    "Ġliberality": 24377,
    "Ġconstructed": 9386,
    "Ġrefinement": 18709,
    "Ġmasonry": 13598,
    "goin": 23401,
    "pencil": 18827,
    "orse": 5806,
    "collar": 19327,
    "afterwards": 7484,
    "ieves": 4011,
    "strangely": 17276,
    "Ġbetrayed": 9561,
    "wins": 21128,
    "Ġtougher": 21175,
    "Ġcousins": 9914,
    "windows": 19533,
    "Ġarray": 12807,
    "Ġimperial": 9480,
    "ases": 1523,
    "Ġfruitless": 25605,
    "firm": 10698,
    "Ġtattooing": 15027,
    "Ġecl": 18005,
    "Ġfra": 1806,
    "Ġfoliage": 18866,
    "presented": 12987,
    "Ġdissimilar": 22528,
    "Ġabhor": 5467,
    "Ġneck": 4885,
    "joke": 20929,
    "pens": 17632,
    "Ġlocking": 18298,
    "Ġmental": 21318,
    "africa": 26308,
    "hammock": 16352,
    "ĠĠĠĠĠĠĠĠĠĠĠĠĠĠĠĠ": 1219,
    "Ġfonder": 17880,
    "usage": 12829,
    "sincerely": 24584,
    "recurrent": 4994,
    "perpetually": 20511,
    "ech": 4390,
    "Ġhorseback": 14849,
    "Ġdiver": 2531,
    "grant": 10427,
    "malicious": 19901,
    "Ġattending": 3281,
    "Ġdesign": 4137,
    "Ġrepresented": 8938,
    "irons": 10238,
    "ugging": 23287,
    "Ġloudly": 7312,
    "pin": 13766,
    "Ġlistless": 16474,
    "Ġunreason": 15840,
    "courage": 17509,
    "Ġtrib": 13818,
    "chester": 23805,
    "Ġfitting": 21406,
    "resolution": 17766,
    "Ġ120": 16858,
    "ook": 21003,
    "Ġtelegram": 15222,
    "Ġsphere": 15880,
    "Ġaught": 8772,
    "Ġcomputation": 967,
    "draw": 23896,
    "Ġobedient": 20103,
    "anything": 5518,
    "Ġlinks": 13954,
    "Ġkinds": 14505,
    "Ġsugg": 4499,
    "Ġwiser": 14729,
    "Ġprecipices": 12275,
    "Ġvolcanoes": 24146,
    "Ġshoes": 7071,
    "Ġubiqu": 18046,
    "Ġrh": 9243,
    "Ġclub": 8873,
    "Ġdespise": 14665,
    "doom": 23375,
    "Ġante": 17896,
    "Ġpleasure": 2696,
    "Ġindignantly": 16939,
    "you": 1004,
    "Ġloving": 8175,
    "ę": 218,
    "Ġfloor": 4379,
    "inguished": 6598,
    "Ġteaches": 18807,
    "Ġsurvivor": 17362,
    "Ġadmin": 23552,
    "Ġcoquet": 22579,
    "ened": 1387,
    "threw": 21981,
    "Ġshipmate": 8928,
    "Ġessex": 20125,
    "Ġtutored": 20126,
    "Ġlisten": 4673,
    "pool": 16206,
    "Ġcounted": 12137,
    "Ġprogno": 14039,
    "Ġanyhow": 14254,
    "u": 89,
    "reliable": 21239,
    "Ġdispatched": 23879,
    "Ġimbalanced": 18333,
    "Ġimprovements": 14507,
    "Ġfrown": 10807,
    "ralian": 19599,
    "usive": 8189,
    "lacing": 17590,
    "Ġbroadened": 23982,
    "Ġpan": 5082,
    "Ġstairs": 5541,
    "batross": 9092,
    "ache": 8518,
    "Ġactually": 5389,
    "down": 3470,
    "Ġgentle": 1889,
    "gl": 3288,
    "haul": 14764,
    "dies": 15337,
    "produce": 20281,
    "te": 994,
    "electricity": 26385,
    "Ġcommis": 22668,
    "tribute": 21087,
    "aution": 9387,
    "gather": 20874,
    "quakes": 21847,
    "forgetting": 25485,
    "Ġworaciousness": 22926,
    "onsible": 22558,
    "granting": 23412,
    "Ġannouncement": 14832,
    "Ġmedic": 11247,
    "Ġyour": 633,
    "Ġresembles": 25969,
    "Ġcasket": 19723,
    "Ġelevates": 24503,
    "neville": 22448,
    "order": 1958,
    "Ġconfining": 23303,
    "Ġinvest": 4978,
    "poss": 4778,
    "Ġhumorousness": 25377,
    "Ġprey": 6415,
    "lod": 15377,
    "stri": 6249,
    "Ġreported": 11978,
    "Ġpersonified": 19177,
    "Ġsee": 802,
    "Ġdrifting": 19278,
    "leep": 4634,
    "Ġlimits": 3454,
    "portent": 25412,
    "Ġasks": 5115,
    "mole": 22698,
    "fail": 17540,
    "Ġmiriam": 25273,
    "Ġtoward": 17946,
    "clothed": 19737,
    "piled": 21014,
    "ĠĠĠĠĠĠĠĠĠĠĠĠĠĠĠĠĠĠĠĠĠĠ": 16225,
    "bearing": 9764,
    "bourine": 9395,
    "putation": 7624,
    "rust": 2584,
    "quis": 7869,
    "Ġtusks": 17253,
    "Ġimproved": 7655,
    "Ġho": 1929,
    "Ġsqueaking": 26274,
    "Ġderbyshire": 6586,
    "iceland": 21563,
    "request": 21240,
    "Ġstumble": 26482,
    "Ġmishap": 20575,
    "Ġgouldings": 26187,
    "bureau": 20788,
    "tu": 12509,
    "tomahawk": 25915,
    "Ġdiscussing": 5202,
    "Ġmultitudinous": 26273,
    "Ġclearing": 8239,
    "having": 5211,
    "Ġhushed": 13924,
    "impatiently": 20469,
    "Ġ79": 24264,
    "omeness": 18015,
    "Ġchimney": 6497,
    "sub": 4659,
    "Ġcommenced": 8531,
    "prodigious": 17466,
    "upper": 11538,
    "sex": 12710,
    "Ġstudying": 9841,
    "Ġbaggy": 24538,
    "Ġregrets": 18600,
    "Ġhoofs": 14527,
    "Ġwarbling": 26168,
    "Ġsoftware": 18918,
    "Ġeliminating": 20618,
    "Ġmemorand": 23403,
    "jack": 7344,
    "Ġaltogether": 4831,
    "Ġceremonious": 24837,
    "Ġspeeding": 23563,
    "Ġsympathies": 14860,
    "udding": 11863,
    "apidated": 22333,
    "Ġstony": 21736,
    "Ġcoiled": 11818,
    "Ġworship": 10366,
    "Ġcovering": 13254,
    "Ġobjection": 6585,
    "Ġbalmoral": 16205,
    "Ġmagician": 25058,
    "Ġobsole": 22695,
    "Ġgaily": 16748,
    "Ġpurse": 12009,
    "doubtful": 24791,
    "hemat": 3126,
    "Ġunanswerable": 26521,
    "Ġpraised": 19552,
    "Ġfearfulness": 23512,
    "Ġcust": 11581,
    "Ġhistory": 4013,
    "Ġpeaks": 16126,
    "world": 5058,
    "moderate": 22877,
    "owards": 4594,
    "Ġsavi": 18325,
    "Ġheight": 4223,
    "step": 2458,
    "Ġbook": 2703,
    "humanity": 24839,
    "powers": 25410,
    "Ġdiscussed": 19558,
    "Ġproportionate": 17043,
    "Ġexamination": 8004,
    "Ġaway": 1244,
    "Ġauthor": 4376,
    "Ġmoses": 21314,
    "Ġconsent": 5372,
    "Ġfountains": 13502,
    "Ġmaze": 23828,
    "Ġremonstr": 16159,
    "Ġhair": 3312,
    "ener": 558,
    "Ġalchemists": 26487,
    "<PAD>": 0,
    "thar": 18217,
    "Ġhut": 15616,
    "bearings": 25371,
    "Ġcool": 5734,
    "Ġissues": 9541,
    "neglected": 25669,
    "Ġbulk": 5591,
    "}": 97,
    "Ġhostile": 19938,
    "ino": 15478,
    "Ġdazzling": 15210,
    "Ġindian": 4136,
    "Ġmeas": 1092,
    "Ġarsacides": 17293,
    "behold": 12874,
    "Ġ115": 24439,
    "Ġagain": 814,
    "oking": 4606,
    "perform": 15899,
    "Ġhobbling": 25644,
    "singular": 12186,
    "berg": 11856,
    "Ġoptimizer": 5035,
    "capital": 15087,
    "hair": 9122,
    "Ġinhabit": 5782,
    "Ġentertain": 6053,
    "whiteness": 18370,
    "aust": 15308,
    "Ġsuit": 5725,
    "Ġfool": 4238,
    "pequod": 7052,
    "Ġcravat": 26307,
    "Ġidler": 16404,
    "Ġtrample": 20326,
    "Ġgoble": 14229,
    "corner": 13396,
    "ses": 3027,
    "Ġidle": 8252,
    "tallow": 21084,
    "faint": 17545,
    "Ġnieces": 8432,
    "sequence": 2858,
    "Ġproport": 2300,
    "Ġpre": 507,
    "burnt": 20078,
    "Ġsignifies": 19203,
    "Ġterrify": 19359,
    "Ġindustry": 18837,
    "het": 5435,
    "Ġgot": 2281,
    "comm": 7440,
    "Ġalleg": 14016,
    "Ġbunger": 9995,
    "Ġdirty": 9178,
    "mort": 10710,
    "gradu": 18615,
    "Ġaccurate": 13264,
    "ladyship": 14828,
    "hil": 8378,
    "erson": 7002,
    "Ġupdating": 2692,
    "million": 25751,
    "Ġundesired": 12776,
    "Ġengland": 3859,
    "corn": 13698,
    "Ġsquaw": 22834,
    "Ġjealous": 9468,
    "Ġantagon": 19549,
    "coast": 10449,
    "Ġblasted": 7937,
    "Ġcur": 1232,
    "Ġrestrictions": 20634,
    "Ġcronies": 23441,
    "lob": 22504,
    "Ġmodern": 3224,
    "asburgh": 15644,
    "Ġcarriages": 11098,
    "Ġdivinest": 25722,
    "Ġdiscussion": 17194,
    "Ġmaw": 15537,
    "form": 496,
    "Ġcheerfulness": 10516,
    "Ġtipped": 17728,
    "mews": 22711,
    "Ġsynthe": 26007,
    "birds": 15143,
    "Ġnevertheless": 5040,
    "Ġhap": 18195,
    "Ġbi": 919,
    "oles": 21004,
    "Ġhoney": 12629,
    "immedi": 8450,
    "Ġnight": 1465,
    "Ġcoincid": 20316,
    "cont": 2923,
    "commander": 16987,
    "advise": 24217,
    "Ġacknowledges": 24688,
    "Ġgreas": 17991,
    "Ġaccount": 2321,
    "Ġcloak": 9533,
    "Ġinsurmountable": 16531,
    "dismay": 19152,
    "Ġnails": 12645,
    "Ġunful": 22008,
    "caps": 20806,
    "Ġpatriot": 23309,
    "Ġmatrimonial": 25489,
    "Ġsticks": 14930,
    "naturedly": 24840,
    "Ġair": 1837,
    "button": 10966,
    "strongly": 24684,
    "Ġextended": 7924,
    "Ġsubmitted": 11869,
    "Ġprinc": 4203,
    "Ġdisposition": 5409,
    "Ġhandles": 22692,
    "nib": 5214,
    "foam": 24418,
    "odes": 18119,
    "Ġlur": 5226,
    "Ġrumpled": 24600,
    "Ġorgan": 2504,
    "Ġvital": 9242,
    "asting": 12803,
    "flood": 19805,
    "mb": 913,
    "Ġglow": 7170,
    "Ġmeagre": 21807,
    "appalled": 18759,
    "Ġsuppl": 11079,
    "Ġstalls": 25647,
    "discovery": 12015,
    "Ġleaned": 7607,
    ";": 31,
    "Ġinvincible": 23480,
    "torm": 11530,
    "mosphere": 10042,
    "¯": 112,
    "Ġ119": 24441,
    "Ġprivileged": 20111,
    "Ġreprehensible": 15696,
    "âĢĺ": 940,
    "Ġmalay": 24391,
    "pher": 11511,
    "neg": 12862,
    "ensions": 14258,
    "Ġrevol": 5537,
    "caus": 11476,
    "enty": 2919,
    "Ġgroan": 13323,
    "prises": 23811,
    "shout": 22449,
    "Ġtarget": 2823,
    "Ġsickly": 16774,
    "Ġsword": 6732,
    "Ġblasp": 14400,
    "Ġrickety": 26505,
    "attle": 4466,
    "Ġale": 9154,
    "Ġindomit": 22952,
    "estruct": 22220,
    "Ġjoll": 11763,
    "Ġcongregational": 25102,
    "repressed": 21242,
    "Ġdelivery": 18975,
    "Ġinvade": 19142,
    "Ġexploit": 19161,
    "Ġneighbouring": 12116,
    "Ġthree": 1369,
    "Ġgriefs": 16771,
    "Ġsustaining": 25333,
    "imagine": 19930,
    "poled": 22903,
    "feeling": 6616,
    "enged": 23142,
    "Ġconsecrated": 26488,
    "Ġunjust": 8483,
    "Ġdefinitions": 22941,
    "Ġchances": 9262,
    "Ġinitialized": 3951,
    "Ġkeenest": 12159,
    "Ġexploitation": 2348,
    "seemingly": 25362,
    "Ġchoosing": 19589,
    "Ġbrow": 3993,
    "Ġmoth": 17802,
    "sol": 1791,
    "Ġsprain": 18305,
    "Ġpenalties": 10414,
    "Ġcommit": 18655,
    "famous": 16916,
    "Ġbrimming": 22857,
    "hands": 5966,
    "elements": 25203,
    "Ġtorture": 9064,
    "coming": 3562,
    "Ġclubb": 22346,
    "Ġcomparable": 24278,
    "bel": 3838,
    "Ġfury": 7660,
    "Ġsinister": 8568,
    "Ġalexander": 17423,
    "Ġdescribes": 3119,
    "informed": 17736,
    "Ġwits": 15530,
    "ana": 15556,
    "biscuit": 17500,
    "ante": 11719,
    "Ġpromised": 5181,
    "saying": 8640,
    "Ġtin": 15462,
    "Ġmisunderstood": 18703,
    "itance": 13867,
    "Ġcheeks": 5957,
    "Ġfoes": 11950,
    "Ġreceives": 20353,
    "presumption": 20440,
    "Ġaloud": 6252,
    "Ġlurch": 21552,
    "tre": 8760,
    "dock": 16416,
    "Ġexpatiate": 18624,
    "Ġdocks": 14177,
    "Ġnautical": 17385,
    "Ġdestined": 7974,
    "Ġexile": 12714,
    "Ġportra": 9008,
    "Ġdoings": 18376,
    "ouch": 2781,
    "Ġproving": 15749,
    "ably": 1849,
    "success": 6710,
    "ifying": 5251,
    "Ġhastily": 5763,
    "Ġfine": 1316,
    "Ġfurnaces": 24002,
    "rate": 2423,
    "spe": 3560,
    "Ġdoubled": 19641,
    "Ġalmighty": 18104,
    "Ġgentleness": 8709,
    "Ġvehic": 8933,
    "ivates": 18282,
    ")(": 2982,
    "Ġsc": 532,
    "Ġdatasets": 2389,
    "Ġwash": 9702,
    "Ġshake": 6033,
    "allingly": 22196,
    "Ġprivilege": 11419,
    "Ġblasphemer": 26116,
    "Ġprem": 3428,
    "tremendous": 20672,
    "insupportable": 21192,
    "Ġmornings": 16236,
    "rendered": 22336,
    "Ġfowl": 11330,
    "Ġmounted": 7832,
    "Ġobscure": 9553,
    "Ġdearer": 14050,
    "Ġgeor": 3389,
    "Ġindependently": 4249,
    "Ġaverage": 3136,
    "Ġprairie": 8712,
    "Ġundersampling": 19517,
    "Ġpondered": 15165,
    "ement": 1501,
    "Ġleader": 14701,
    "arity": 1301,
    "Ġcompelled": 14265,
    "Ġmilk": 6485,
    "Ġpatronage": 17053,
    "Ġheedless": 14902,
    "Ġfath": 7364,
    "Ġsquaring": 22835,
    "Ġtown": 2457,
    "Ġtells": 9360,
    "unpardonable": 21887,
    "Ġinquis": 19303,
    "Ġtroops": 24898,
    "Ġmaterially": 12189,
    "remem": 13064,
    "Ġentries": 22742,
    "mixed": 15393,
    "unworthy": 18161,
    "decor": 23779,
    "Ġsuperstition": 15054,
    "passage": 11261,
    "Ġgallon": 24184,
    "Ġbachel": 7158,
    "persuasion": 20042,
    "Ġunwound": 25169,
    "Ġcontrived": 10303,
    "Ġcomprehensive": 15086,
    "Ġeating": 8135,
    "Ġbachelors": 24860,
    "Ġmythologies": 26213,
    "),": 1348,
    "Ġdanes": 25156,
    "Ġdampening": 2897,
    "Ġmodel": 509,
    "bey": 10314,
    "hug": 17563,
    "Ġjew": 9467,
    "Ġmotion": 4566,
    "oof": 15404,
    "Ġeconomy": 17200,
    "consternation": 16912,
    "eteenth": 20156,
    "Ġmoving": 1676,
    "hastily": 19701,
    "Ġobliter": 14321,
    "inois": 17738,
    "Ġclimate": 9274,
    "Ġvile": 8472,
    "Ġgam": 11623,
    "Ġcanaan": 22163,
    "Ġbrah": 19355,
    "Ġreducing": 1956,
    "Ġfervently": 25877,
    "Ġinquisitive": 26317,
    "Ġjumping": 13340,
    "Ġstowed": 21733,
    "ideas": 18581,
    "unicorn": 21886,
    "ĠĠĠĠ": 460,
    "mbles": 23085,
    "Ġunconscious": 9546,
    "Ġmingling": 20196,
    "Ġpalms": 8643,
    "tremble": 17141,
    "Ġvarious": 3509,
    "Ġprofessional": 7299,
    "vers": 1328,
    "Ġpertaining": 18451,
    "Ġperil": 5557,
    "Ġjourneys": 19473,
    "heavy": 10574,
    "?--": 15302,
    "Ġcurb": 16229,
    "Ġreasonable": 7253,
    "ç": 168,
    "Ġgurglings": 26465,
    "Ġdoubloon": 6945,
    "althily": 19357,
    "Ġthickness": 13276,
    "subjects": 19875,
    "Ġfro": 3472,
    "bbing": 6323,
    "Ġimpelling": 22382,
    "Ġsized": 11562,
    "Ġstup": 14004,
    "Ġcate": 4114,
    "Ġmadame": 13149,
    "scores": 22991,
    "Ġslaught": 23164,
    "agos": 21901,
    "Ġdestitute": 14567,
    "Ġpitches": 23899,
    "Ġthro": 5817,
    "Ġpirates": 9073,
    "Ġ124": 24469,
    "Ġexceeding": 1580,
    "stonecraft": 24356,
    "somebody": 14566,
    "izarre": 17388,
    "falsehood": 25901,
    "started": 10845,
    "soon": 4032,
    "Ġlines": 4534,
    "Ġwondering": 7970,
    "Ġrags": 18645,
    "Ġproject": 5546,
    "dry": 13702,
    "Ġbow": 3059,
    "nor": 2741,
    "Ġejac": 10203,
    "Ġinsipid": 26313,
    "Ġcomputational": 1626,
    "Ġheroines": 19750,
    "hated": 17561,
    "warm": 8101,
    "Ġbracing": 16580,
    "edmund": 17945,
    "\\": 64,
    "dut": 10087,
    "m": 81,
    "Ġovercame": 9745,
    "Ġpursue": 6314,
    "Ġlessen": 14532,
    "Ġorbs": 22087,
    "Ġduc": 4696,
    "market": 16839,
    "Č": 205,
    "bug": 17492,
    "Ġbrighton": 6470,
    "Ġresting": 7961,
    "Ġattacks": 12202,
    "Ġmonsieur": 12419,
    "writing": 7720,
    "nothing": 3150,
    "Ġhammered": 13239,
    "Ġoccurrence": 14381,
    "Ġwolves": 25934,
    "Ġengineering": 3026,
    "Ġtreacle": 14595,
    "Ġfleecy": 17023,
    "Ġparamore": 22119,
    "ule": 6800,
    "Ġdeserved": 7736,
    "idel": 5299,
    "Ġmenaced": 16291,
    "Ġwade": 17784,
    "Ġpoetry": 15079,
    "Ġgoblets": 20517,
    "Ġavoided": 13257,
    "faced": 8079,
    "Ġappetite": 12382,
    "Ġsemicircle": 26067,
    "Ġbathing": 20198,
    "Ġ[_": 15460,
    "Ġvit": 10245,
    "Ġappar": 7411,
    "pacing": 21020,
    "mblings": 19779,
    "Ġmortified": 14694,
    "Ġrudeness": 17124,
    "Ġapoplexy": 25265,
    "whalebone": 19118,
    "Ġbread": 5404,
    "Ġoy": 15543,
    "Ġpreternatural": 12820,
    "ractions": 11632,
    "formation": 22213,
    "Ġpleasanter": 19067,
    "instances": 13318,
    "beyond": 8882,
    "Ġslime": 23158,
    "Ġrang": 9244,
    "Ġjanuary": 13652,
    "fic": 20851,
    "Ġparagra": 15877,
    "gul": 12463,
    "Ġstuff": 5717,
    "Ġpreprocess": 22230,
    "Ġdeceitful": 25733,
    "Ġsyntax": 957,
    "Ġumbrella": 15264,
    "Ġchannels": 26013,
    "Ġtransferred": 16478,
    "Ġpurchased": 12258,
    "Ġsubt": 11866,
    "entire": 6824,
    "Ġkeepers": 23537,
    "feren": 766,
    "aux": 14287,
    "Ġlydia": 2374,
    "Ġextinguish": 14340,
    "Ġpron": 6451,
    "Ġgrace": 5374,
    "savor": 25024,
    "Ġmiraculous": 13546,
    "Ġdoctrine": 24197,
    "Ġcelebrate": 26357,
    "willing": 6592,
    "tt": 13789,
    "Ġhealth": 3907,
    "illing": 8174,
    "Ġwield": 21289,
    "whispering": 26103,
    "Ġold": 1057,
    "force": 12960,
    "Ġinfer": 7683,
    "Ġtowards": 1728,
    "Ġdecks": 6900,
    "Ġsound": 2243,
    "Ġtwine": 14310,
    "Ġpartners": 11851,
    "infernal": 24662,
    "Ġmildly": 9029,
    "Ġgets": 10839,
    "Ġmau": 21309,
    "Ġturning": 3326,
    "Ġgn": 8817,
    "Ġbehind": 2809,
    "fuller": 22483,
    "Ġpompous": 20421,
    "voc": 8393,
    "Ġnoah": 10942,
    "Ġunallied": 22029,
    "aton": 21257,
    "Ġpine": 8796,
    "ittingly": 18803,
    "Ġspar": 10921,
    "Ġbizarre": 17871,
    "repairing": 24495,
    "ame": 645,
    "Ġtasted": 12526,
    "Ġfob": 21407,
    "Ġlibrary": 6423,
    "Ġdeferred": 18825,
    "istic": 959,
    "recollected": 25347,
    "Ġexceeded": 14432,
    "Ġinsp": 2101,
    "Ġhelen": 16655,
    "Ġenergetic": 15196,
    "lucas": 15150,
    "Ġtoast": 21509,
    "Ġg": 310,
    "Ġpredecessor": 26253,
    "Ġgrip": 11626,
    "Ġproduces": 2094,
    "Ġlabyrin": 13103,
    "âĢĶ(": 15936,
    "Ġbeget": 9225,
    "ick": 838,
    "Ġlar": 765,
    "Ġsun": 1720,
    "Ġprodigious": 8056,
    "Ġmixture": 9562,
    "Ġbapt": 13895,
    "making": 2576,
    "Ġwrite": 3824,
    "Ġneedn": 19228,
    "Ġmuscle": 14689,
    "Ġkills": 15904,
    "mechanical": 25578,
    "remains": 10398,
    "Ġingenious": 12346,
    "Ġclamorous": 24909,
    "Ġproducing": 11897,
    "Ġducking": 17146,
    "Ġgraces": 18225,
    "oid": 3124,
    "bub": 15315,
    "Ġsnaky": 23741,
    "Ġchewed": 16368,
    "!âĢĶ": 2456,
    "lings": 8745,
    "Ġsnug": 8279,
    "Ġabject": 18391,
    "Ġdece": 6996,
    "90": 12430,
    "Ġspared": 7892,
    "Ġcontrol": 13078,
    "Ġbachelor": 7786,
    "lar": 4483,
    "Ġgrease": 26189,
    "sixty": 24852,
    "Ġsurface": 5119,
    "av": 738,
    "Ġdissolved": 18554,
    "Ġunderstood": 5655,
    "Ġactively": 18654,
    "Ġsweetheart": 19393,
    "insufficient": 15488,
    "Ġnone": 3219,
    "madly": 24420,
    "vigorous": 25917,
    "dear": 6555,
    "Ġicy": 10747,
    "Ġnathan": 21523,
    "phren": 22751,
    "Ġemblaz": 16234,
    "sideways": 14572,
    "boom": 18998,
    "comp": 3819,
    "castles": 14636,
    "olerable": 7182,
    "abominable": 20592,
    "vitality": 20477,
    "Ġfris": 23254,
    "Ġplane": 11821,
    "Ġgenerates": 3665,
    "orton": 11754,
    "Ġneither": 3688,
    "Ġperceiving": 8875,
    "prepare": 20211,
    "Ġjurymen": 16847,
    "Ġchanc": 18384,
    "Ġgnashed": 20131,
    "Ġstead": 5650,
    "sworn": 24256,
    "Ġpant": 10817,
    "inquire": 16932,
    "Ġarchangel": 8542,
    "xic": 9145,
    "upt": 13797,
    "clump": 23150,
    "Ġhogshead": 26367,
    "Ġformations": 18748,
    "mistress": 14904,
    "_).âĢĶ": 8681,
    "Ġstalk": 12694,
    "accident": 11181,
    "Ġrespite": 13153,
    "rut": 8091,
    "civilities": 24971,
    "thrust": 10261,
    "Ġounce": 15271,
    "Ġfoundations": 11073,
    "Ġsqueezing": 25006,
    "tered": 2232,
    "mas": 5212,
    "Ġ44": 16679,
    "irksome": 18172,
    "Ġsteal": 16282,
    "Ġleisure": 6539,
    "Ġcomplained": 16998,
    "Ġbowing": 10475,
    "Ġeduc": 4785,
    "Ġseem": 915,
    "F": 42,
    "Ġarrive": 6907,
    "Ġreporting": 24657,
    "Ġbackwoods": 22659,
    "Ġbequest": 21750,
    "Ġcocoan": 20315,
    "Ġsincerity": 13677,
    "prise": 7726,
    "pieces": 8754,
    "Ġconfusion": 7273,
    "search": 8464,
    "sterns": 23366,
    "ik": 17571,
    "ve": 322,
    "Ġhauling": 14086,
    "Ġdiverged": 23593,
    "Ġexact": 2545,
    "Ġextreme": 2516,
    "Ġaggreg": 12880,
    "threaten": 25461,
    "rusion": 11323,
    "whence": 23212,
    "Ġstammered": 26199,
    "Ġmanual": 14197,
    "Ġsitting": 3604,
    "Ġvault": 8840,
    "Ġconcuss": 19048,
    "Ġjealously": 24125,
    "Ġcaulking": 20292,
    "Ġburton": 23654,
    "Ġbrushed": 15568,
    "Ġleagues": 9223,
    "Ġquantity": 6948,
    "Ġreproof": 24890,
    "amongst": 24672,
    "Ġgroves": 16740,
    "Ġdreary": 10408,
    "Ġdropt": 23675,
    "ckinridge": 11718,
    "Ġclung": 10958,
    "Ġjewell": 19519,
    "Ġfavour": 3641,
    "Ġwrapping": 19774,
    "pro": 2050,
    "Ġrevealed": 6751,
    "Ġcommitted": 7431,
    "Ġsufferable": 16256,
    "blot": 20782,
    "imately": 12685,
    "ow": 325,
    "Ġtub": 7146,
    "int": 1197,
    "Ġlabeled": 3719,
    "Ġste": 1388,
    "broad": 8642,
    "staff": 21653,
    "Ġburg": 23653,
    "image": 9685,
    "Ġoccupies": 24005,
    "lean": 21363,
    "mild": 15390,
    "Ġtimber": 13348,
    "counters": 25397,
    "Ġinsufferable": 13930,
    "stoke": 18022,
    "Ġdarting": 7756,
    "Ġwednesday": 9024,
    "wishing": 21127,
    "teen": 6370,
    "xology": 21140,
    "illustration": 2284,
    "oir": 21001,
    "Ġhatchet": 16529,
    "Ġvisage": 18771,
    "offer": 19060,
    "Ġcirclings": 26431,
    "pping": 1423,
    "Ġcontemplation": 11357,
    "Ġepisode": 26346,
    "Ġexasperated": 11412,
    "conversation": 7122,
    "Ġsneering": 24697,
    "infall": 21187,
    "cheon": 23802,
    "Ġunrest": 11712,
    "conced": 22465,
    "Ġz": 997,
    "Ġboat": 1277,
    "Ġinsensible": 12323,
    "Ġlaugh": 4118,
    "Ġflame": 7448,
    "arian": 10316,
    "Ġmatrim": 11060,
    "bos": 17483,
    "atig": 13844,
    "izer": 2030,
    "Ġmidst": 7985,
    "Ġstill": 1155,
    "Ġmisunderstand": 18702,
    "Ġenrapt": 21936,
    "akeman": 6267,
    "Ġcrippled": 25278,
    "Ġcorpor": 23036,
    "Ġdelighted": 5499,
    "ursday": 12274,
    "Ġmagic": 8232,
    "Ġwheelbarrow": 17204,
    "uneasy": 23685,
    "Ġlarge": 1063,
    "Ġconvenience": 11331,
    "Ġmastery": 23990,
    "Ġnet": 3626,
    "Ġsuffoc": 18870,
    "Ġpedest": 14995,
    "Ġsleeps": 10446,
    "false": 15353,
    "Ġinconvenient": 20008,
    "Ġnowhere": 12883,
    "Ġbudge": 15163,
    "aver": 6785,
    "Ġharbors": 24901,
    "Ġparticulars": 5754,
    "Ġwip": 13852,
    "Ġnortheast": 23199,
    "Y": 61,
    "earth": 6502,
    "icing": 9200,
    "Ġivory": 4476,
    "Ġvel": 7186,
    "Ġrussian": 14349,
    "Ġbrightened": 23826,
    "Ġcaul": 10787,
    "Ġow": 8407,
    "Ġcomposition": 1685,
    "among": 6256,
    "Ġcruises": 23704,
    "mo": 863,
    "Ġensue": 18190,
    "ver": 331,
    "secut": 7866,
    "eck": 20843,
    "Ġchristianity": 19860,
    "Ġhardihood": 23108,
    "Ġgor": 9206,
    "Ġheads": 3741,
    "generative": 4332,
    "Ġformed": 3886,
    "Ġspent": 3968,
    "fit": 6645,
    "Ġalteration": 9545,
    "Ġfig": 3624,
    "Ġtomorrow": 21510,
    "Ġunfolded": 10638,
    "Ġsucked": 14136,
    "Ġanticipated": 13510,
    "ht": 375,
    "Ġponderous": 8354,
    "Ġgroaned": 11266,
    "desired": 8956,
    "agings": 18165,
    "Ġsurpass": 13582,
    "instead": 14812,
    "steaks": 23958,
    "infliction": 25924,
    "Ġrummaged": 16910,
    "Ġleg": 2336,
    "Ġrespects": 7269,
    "called": 6292,
    "Ġghostly": 24650,
    "Ġxxxii": 24970,
    "ids": 21760,
    "igned": 5656,
    "Ġextensive": 12943,
    "narwhale": 17317,
    "Ġgulf": 10635,
    "Ġround": 1367,
    "Ġsoaring": 22074,
    "Ġbulb": 23853,
    "Ġhorrid": 7998,
    "Ġstation": 5297,
    "ustom": 3790,
    "Ġlucas": 3835,
    "thou": 4708,
    "boone": 23252,
    "Ġseventy": 7879,
    "sen": 21048,
    "ĠâĢľâĢĻ": 22251,
    "Ġtaste": 5524,
    "Ġelusive": 22644,
    "Ġwill": 678,
    "Ġvanished": 6874,
    "Ġtermination": 16459,
    "disgrace": 16457,
    "Ġacquiescence": 20329,
    "Ġtrim": 15967,
    "Ġhandled": 12934,
    "Ġ134": 24784,
    "floor": 14935,
    "Ġstrolled": 16770,
    "Ġmeets": 7396,
    "retreat": 23131,
    "Ġrevenue": 26194,
    "Ġturn": 1297,
    "Ġsweeping": 8985,
    "Ġexhausted": 8693,
    "Ġrings": 11697,
    "shipmates": 11926,
    "isle": 13891,
    "Ġcobb": 14271,
    "Ġsphynx": 20711,
    "invol": 12527,
    "Ġstarting": 7728,
    "Ġloosed": 22109,
    "Ġaccused": 8507,
    "gunw": 17220,
    "Ġhessian": 3548,
    "fore": 687,
    "Ġroving": 22399,
    "Ġpeeling": 22689,
    "coil": 23558,
    "Ġott": 13865,
    "Ġstage": 7389,
    "Ġpartake": 18670,
    "iriously": 18171,
    "Ġagric": 22512,
    "Ġunsophisticated": 25992,
    "Ġfork": 15729,
    "Ġenjoyed": 8007,
    "Ġ31": 12128,
    "seen": 2882,
    "Ġperf": 12847,
    "blazing": 24132,
    "Ġgift": 10840,
    "quired": 21846,
    "oop": 10715,
    "Ġevanesc": 24294,
    "extending": 22767,
    "hypothe": 25905,
    "Ġguardians": 14942,
    "Ġmargin": 11919,
    "liber": 18813,
    "iece": 3225,
    "Ġtemples": 18638,
    "Ġwondrous": 4734,
    "suitableness": 26260,
    "Ġvoc": 4451,
    "tastes": 21095,
    "sorting": 17004,
    "Ġcaves": 15551,
    "clu": 20798,
    "Ġpoints": 5247,
    "enes": 5218,
    "continue": 16861,
    "Ġmeaning": 1415,
    "worthy": 7732,
    "Ġplaces": 5390,
    "Ġclut": 7641,
    "crat": 24098,
    "Ġabominable": 12320,
    "Ġpuzzled": 7317,
    "nur": 11505,
    "idirectional": 2421,
    "Ġrevenge": 5452,
    "cus": 3984,
    "Ġvii": 13107,
    "Ġrepulses": 26070,
    "Ġsymbol": 7716,
    "Ġmeditating": 20041,
    "uction": 15442,
    "Ġhonor": 5664,
    "Ġantilles": 24179,
    "Ġstripping": 23695,
    "Ġcampa": 17173,
    "Ġunfrequently": 20738,
    "Ġpagoda": 19787,
    "yield": 13808,
    "Ġsadly": 7302,
    "Ġinconstant": 21493,
    "Ġhonour": 3926,
    "sneezes": 11446,
    "isturbed": 18297,
    "Ġforeseeing": 23449,
    "Ġpluck": 15611,
    "flag": 14710,
    "Ġrick": 21967,
    "Ġrestrained": 16371,
    "ĠĠĠĠĠĠĠĠĠĠĠĠĠĠĠĠĠĠĠĠĠĠĠ": 18832,
    "Ġcane": 10927,
    "Ġscare": 18397,
    "kshire": 13745,
    "Ġcarrying": 6071,
    "Ġcapst": 8595,
    "create": 24159,
    "witted": 17707,
    "Ġswiftly": 5670,
    "geneva": 13729,
    "Ġvaried": 11846,
    "innacle": 7519,
    "Ġrelative": 11881,
    "Ġaux": 21198,
    "Ġgallows": 12143,
    "Ġimpet": 11777,
    "heaving": 21206,
    "spades": 14331,
    "monograph": 23525,
    "Ġbelf": 21379,
    "nx": 17607,
    "Ġscruples": 15077,
    "Ġextravagant": 17278,
    "Ġquivering": 12855,
    "addressed": 13384,
    "boo": 16349,
    "enter": 7857,
    "Ġrays": 10330,
    "Ġinch": 7849,
    "Ġtax": 13815,
    "Ġrosings": 4607,
    "unfortunate": 15774,
    "Ġtouch": 3397,
    "Ġfanciful": 24788,
    "Ġquitted": 5311,
    "Ġagreeably": 24952,
    "Ġgreat": 894,
    "Ġripple": 25504,
    "ings": 634,
    "Ġhasten": 10478,
    "Ġ84": 19708,
    "Ġunivers": 2126,
    "Ġbash": 12583,
    "Ġrepugnant": 26590,
    "icacy": 15655,
    "âĢĶâĢĺ_": 24831,
    "Ġincorrect": 2729,
    "Ġwrecked": 9965,
    "chamber": 13624,
    "abashed": 21789,
    "arranted": 19319,
    "stained": 21652,
    "Ġdecision": 2678,
    "Ġlamp": 4119,
    "Ġthose": 1170,
    "Ġimpertinence": 11366,
    "Ġ90": 24588,
    "Ġripp": 11219,
    "Ġtremble": 6906,
    "Ġenglishmen": 19428,
    "isons": 17849,
    "lights": 13204,
    "Ġ45": 14769,
    "Ġuseful": 3559,
    "Ġunfathomable": 20547,
    "iety": 2819,
    "Ġrecept": 1524,
    "Ġpermitted": 9277,
    "Ġsort": 1508,
    "Ġchili": 25561,
    "morning": 4859,
    "Ġstun": 11649,
    "diss": 17523,
    "Ġreluctant": 20523,
    "Ġepis": 19980,
    "display": 19154,
    "Ġwaving": 8575,
    "Ġcetology": 10008,
    "balls": 12303,
    "Ġrepel": 23357,
    "Ġgardeners": 12118,
    "Ġarrived": 3747,
    "Ġbuff": 9172,
    "encing": 21281,
    "preserve": 25303,
    "Ġdonkey": 23227,
    "Ġpeering": 8534,
    "vour": 17699,
    "amiable": 14052,
    "Ġexertion": 8053,
    "Ġlavenza": 17970,
    "flask": 12097,
    "Ġconceal": 5973,
    "Ġsupervised": 3343,
    "Ġhungry": 10532,
    "Ġskin": 5038,
    "Ġprincess": 23221,
    "woes": 21132,
    "ifled": 14062,
    "Ġlirra": 21557,
    "Ġethiop": 26155,
    "Ġsatin": 12985,
    "Ġbelieves": 14406,
    "Ġunsupp": 22018,
    "Ġinstigated": 18700,
    "Ġnoticed": 5549,
    "Ġhail": 7400,
    "»": 124,
    "passion": 11260,
    "Ġdark": 2113,
    "Ġdaunt": 19663,
    "terrible": 8465,
    "glue": 17556,
    "Ġjollies": 20368,
    "spouting": 25000,
    "Ġcapacity": 10440,
    "Ġsocial": 7006,
    "Ġch": 513,
    "Ġbankers": 24302,
    "Ġinvestig": 10549,
    "Ġye": 900,
    "Ġfring": 11127,
    "Ġmoist": 9284,
    "ipping": 2209,
    "Ġcease": 7076,
    "Ġinasmuch": 10825,
    "Ġreiter": 21663,
    "Ġseasonable": 24406,
    "Ġsens": 1854,
    "Ġexpired": 18622,
    "Ġsearched": 15817,
    "properly": 24918,
    "Ġyoung": 1507,
    "inated": 6804,
    "Ġfil": 3473,
    "Ġbarbar": 6935,
    "letters": 13173,
    "insurance": 18888,
    "Ġju": 10286,
    "scap": 22989,
    "Ġmonarchs": 25849,
    "accursed": 20539,
    "Ġpostscript": 14807,
    "Ġkept": 3346,
    "Ġnourishment": 15191,
    "hertfordshire": 10936,
    "Ġstings": 21731,
    "Ġchagrin": 20606,
    "Ġfresh": 3671,
    "stalk": 21647,
    "Ġgracechurch": 12196,
    "undant": 14791,
    "concerned": 24638,
    "Ġrobbery": 11906,
    "alization": 731,
    "Ġblades": 11893,
    "Ġrevolutionized": 3369,
    "etence": 21574,
    "Ġsale": 14154,
    "Ġchose": 7413,
    "Ġelbow": 12918,
    "Ġscrape": 14917,
    "Ġworry": 18815,
    "Ġjup": 15950,
    "Ġdash": 8121,
    "ospel": 17010,
    "caut": 20811,
    "gressive": 2755,
    "Ġsecretly": 13270,
    "Ġcautious": 12251,
    "acy": 3958,
    "Ġsmooth": 2780,
    "Ġdiab": 10611,
    "ele": 9114,
    "Ġominous": 12422,
    "Ġmusket": 12294,
    "hand": 2758,
    "Ġblinds": 8006,
    "Ġproduced": 2454,
    "Ġvariously": 18653,
    "Ġhaving": 1880,
    "Ġdilated": 24704,
    "Ġbehav": 3540,
    "Ġdivulged": 16648,
    "Ġwax": 10776,
    "Ġvalued": 12180,
    "Ġwrought": 11942,
    "Ġtelescope": 17347,
    "Ġcommissionaire": 17000,
    "allowed": 5728,
    "Ġglossy": 15226,
    "Ġgiven": 1627,
    "Ġgleams": 17309,
    "residence": 19262,
    "oysius": 14362,
    "Ġphotograph": 6302,
    "Ġsprout": 24088,
    "roused": 16652,
    "Ġoutrageous": 20609,
    "inuating": 16201,
    "Ġdivinely": 25723,
    "Ġlaudanum": 20689,
    "Ġexperiments": 23020,
    ":âĢĶâĢĺ": 24193,
    "librarian": 26568,
    "Ġhyena": 24519,
    "Ġsymptoms": 8704,
    "este": 15917,
    "east": 9115,
    "Ġencodings": 4774,
    "Ġwilliam": 3483,
    "Ġworse": 4718,
    "Ġchecking": 23283,
    "Ġsuch": 792,
    "Ġdisappointment": 6626,
    "Ġimpossible": 3543,
    "Ġpreser": 6040,
    "shut": 10981,
    "Ġslowly": 3617,
    "late": 11498,
    "phology": 3009,
    "Ġsolic": 7932,
    "Ġrebellion": 26475,
    "supper": 12917,
    "sweeping": 24618,
    "Ġmax": 2004,
    "Ġisolated": 13558,
    "Ġpunctual": 17137,
    "Ġfoundation": 4235,
    "Ġaccelerating": 1619,
    "Ġhandsome": 4906,
    "oriously": 17874,
    "kins": 7345,
    "å": 166,
    "Ġopenness": 18955,
    "Ġfa": 4819,
    "Ġarguing": 25470,
    "Ġnon": 1625,
    "stay": 9680,
    "iard": 9601,
    "Ġindefatigable": 17177,
    "five": 6356,
    "por": 2152,
    "calling": 12447,
    "Ġcurly": 18840,
    "acious": 5562,
    "Ġploughed": 22602,
    "Ġfobbing": 26441,
    "bec": 4057,
    "[_": 5131,
    "Ġcrockery": 24301,
    "Ġguarded": 9825,
    "Ġstock": 7455,
    "Ġcumul": 4183,
    "Ġbottom": 3675,
    "cept": 551,
    "Ġangelic": 19626,
    "Ġdomineering": 23646,
    "altering": 12637,
    "Ġseam": 3912,
    "part": 2577,
    "Ġtingling": 15091,
    "thousands": 16872,
    "Ġtransf": 22434,
    "Ġshr": 4229,
    "Ġherb": 15854,
    "Ġtackle": 9512,
    "Ġlengths": 19205,
    "devilish": 17082,
    "prospect": 23394,
    "Ġunthink": 18247,
    "Ġlap": 8436,
    "indisc": 22370,
    "compass": 9459,
    "Ġkins": 22191,
    "quiet": 6154,
    "fatig": 17089,
    "brushing": 20787,
    "ford": 2824,
    "Ġcollateral": 20070,
    "Ġembellished": 25848,
    "iven": 1238,
    "Ġundulating": 19516,
    "Ġpervers": 11781,
    "sleet": 20148,
    "rougham": 15991,
    "ĕ": 214,
    "Ġvaulted": 25167,
    "Ġreflect": 6575,
    "'m": 9582,
    "congratulations": 20278,
    "Ġhanding": 16128,
    "Ġlandlessness": 23378,
    "Ġbeheld": 4492,
    "Ġuncouth": 14549,
    "victim": 25530,
    "fabulous": 20472,
    "Ġdefiance": 11068,
    "Ġnoon": 6559,
    "Ġincorpor": 13164,
    "local": 22507,
    "Ġrigger": 19529,
    "Ġcy": 13873,
    "vere": 4883,
    "Ġcombines": 1212,
    "Ġhay": 11604,
    "setting": 13284,
    "Ġenjoined": 18191,
    "Ġmarlingspike": 26579,
    "usions": 6159,
    "Ġvenge": 5420,
    "Ġloo": 22107,
    "Ġmamm": 25090,
    "icted": 5936,
    "Ġargosy": 24273,
    "experience": 17158,
    "Ġdau": 21423,
    "Ġsuccessfully": 19427,
    "Ġsorely": 17256,
    "Ġsquat": 14366,
    "Ġbarber": 23788,
    "Ġidly": 16403,
    "anders": 18152,
    "Ġsegmentation": 17339,
    "pond": 21012,
    "ows": 1916,
    "Ġchimneys": 16972,
    "Ġscream": 5934,
    ".": 18,
    "pets": 17636,
    "gro": 10094,
    "Ġmourn": 8703,
    "apology": 22330,
    "Ġteeth": 4171,
    "proved": 11985,
    "Ġboasted": 16104,
    "Ġmedium": 16681,
    "Ġinformed": 6717,
    "Ġsnuffed": 15071,
    "irresistible": 18173,
    "ceived": 1962,
    "Ġimpotently": 22387,
    "Ġuncertain": 4072,
    "Ġbare": 6132,
    "home": 7341,
    "Ġgodson": 23356,
    "vap": 13802,
    "Ġloose": 4648,
    "elihood": 4622,
    "Ġbloodthirst": 23800,
    "cest": 12442,
    "Ġthoughtfully": 12977,
    "Ġunsub": 22020,
    "sold": 15425,
    "Ġperchance": 15989,
    "Ġcrusad": 23705,
    "Ġslop": 23159,
    "Ġcovent": 16070,
    "Ġslippery": 12164,
    "wants": 21129,
    "Ġweigh": 10894,
    "hung": 8380,
    "steps": 9404,
    "Ġnewcastle": 16221,
    "Ġvisions": 12974,
    "Ġeel": 18001,
    "visible": 10533,
    "Ġparl": 8177,
    "Ġplausible": 26553,
    "Ġhose": 12624,
    "valued": 2855,
    "Ġembraces": 19871,
    "ad": 337,
    "Ġeventually": 8616,
    "Ġfelony": 18951,
    "Ġsolicit": 22880,
    "course": 6104,
    "Ġcollins": 2182,
    "Ġexploration": 2337,
    "mark": 5281,
    "Ġsheep": 10926,
    "Ġenslaved": 26314,
    "proceeded": 25190,
    "Ġcertainty": 6734,
    "menced": 23141,
    "Ġforthwith": 16618,
    "hammad": 23261,
    "contains": 16028,
    "Ġsagaciously": 24731,
    "Ġdoze": 14176,
    "Ġlees": 18075,
    "Ġmature": 17799,
    "Ġrevelry": 15135,
    "relics": 24012,
    "Ġgretna": 26468,
    "Ġsire": 15500,
    "Ġgown": 10201,
    "anced": 1305,
    "Ġapologies": 25196,
    "Ġaskance": 23145,
    "Ġcher": 6129,
    "Ġhis": 380,
    "Ġplanisphere": 26607,
    "Ġdominic": 25381,
    "Ġunrecorded": 17467,
    "operations": 19973,
    "unfort": 21873,
    "banked": 25337,
    "Ġgr": 977,
    "Ġatrocious": 21940,
    "Ġfreshets": 25705,
    "Ġbugs": 13647,
    "critical": 19502,
    "Ġoversampling": 20514,
    "Ġbenef": 3489,
    "ake": 748,
    "fere": 10989,
    "heed": 15497,
    "swelled": 19609,
    "send": 15422,
    "fatal": 17088,
    "Ġclust": 9273,
    "Ġsweep": 8265,
    "Ġvisited": 5947,
    "medical": 23339,
    "mal": 6794,
    "cushion": 20820,
    "Ġfretfully": 25447,
    "Ġenticements": 26034,
    "been": 3344,
    "Ġaspire": 21897,
    "Ġterrific": 6754,
    "separately": 25227,
    "Ġfitly": 23996,
    "conquerable": 17398,
    "i": 77,
    "Ġme": 350,
    "Ġardour": 8042,
    "Ġhousekeeper": 7456,
    "ullied": 23101,
    "furnished": 20240,
    "Ġdisp": 3360,
    "couldn": 23716,
    "Ġantiquity": 15229,
    "Ġcommunicating": 16889,
    "Ġextinction": 14339,
    "Ġenh": 2844,
    "super": 5943,
    "charm": 13989,
    "Ġheaded": 11054,
    "Ġhag": 12622,
    "Ġwilling": 7421,
    "Ġhunks": 18935,
    "Ġhing": 11603,
    "Ġperturbed": 20438,
    "Ġman": 544,
    "Ġinside": 5448,
    "Ġexcitement": 9380,
    "Ġfour": 2216,
    "Ġinwards": 15618,
    "Ġen": 392,
    "Ġplead": 14454,
    "Ġbeards": 21748,
    "renewed": 19703,
    "Ġboxed": 24360,
    "Ġabreast": 18394,
    "Ġpatches": 4240,
    "{": 95,
    "than": 4094,
    "Ġrisk": 8038,
    "Ġhospitals": 24923,
    "purse": 20023,
    "horrors": 20540,
    "Ġfunctional": 3047,
    "Ġmuskets": 17056,
    "Ġ10": 5248,
    "Ġtribes": 20479,
    "Ġbaff": 10799,
    "sue": 2078,
    "Ġpasses": 2681,
    "Ġpray": 3903,
    "Ġcounties": 23300,
    "ryder": 18639,
    "Ġtransformer": 2638,
    "Ġmonoton": 3636,
    "Ġshyness": 20305,
    "Ġconsidering": 4615,
    "Ġjove": 9267,
    "Ġconcept": 662,
    "Ġbidirectional": 3757,
    "Ġthou": 1811,
    "Ġspear": 9313,
    "kindly": 14743,
    "Ġmccarthys": 19661,
    "Ġeurope": 8061,
    "Ġallev": 18100,
    "endurable": 22225,
    "Ġweld": 8111,
    "Ġturnkeys": 23027,
    "Ġgreatest": 4098,
    "fancy": 7337,
    "Ġcarved": 7946,
    "Ġdirections": 1969,
    "Ġbidding": 9536,
    "Ġhyp": 3875,
    "Ġstr": 761,
    "Ġhummed": 18776,
    "Ġunrelieved": 20544,
    "easy": 9592,
    "patter": 3753,
    "Ġstaggered": 9538,
    "Ġpenny": 16311,
    "Ġloun": 7166,
    "Ġlanguages": 1569,
    "explanation": 12356,
    "Ġabstraction": 26539,
    "footman": 17162,
    "Ġinestimable": 17441,
    "news": 23129,
    "Ġscr": 11759,
    "Ġaltar": 9228,
    "Ġmort": 3460,
    "idents": 6150,
    "Ġapplies": 11953,
    "herald": 22202,
    "Ġdistrustful": 25054,
    "Ġreplenished": 13635,
    "Ġafloat": 9307,
    "Ġsave": 4056,
    "Ġbrotherhood": 23669,
    "Ġapologizing": 25197,
    "particularly": 8339,
    "knife": 6942,
    "ĠĠĠĠĠĠĠĠĠĠĠĠĠĠĠĠĠĠĠĠĠĠĠĠĠ": 24442,
    "oped": 6046,
    "Ġmeeting": 5193,
    "Ġimpud": 18444,
    "knowing": 10437,
    "Ġclutched": 13518,
    "keeping": 8634,
    "waiting": 12218,
    "Ġimpersonal": 17395,
    "specific": 10497,
    "Ã": 132,
    "Ġrepairing": 25589,
    "Ġbinding": 20417,
    "Ġphrases": 2799,
    "Ġemergencies": 17361,
    "pents": 11512,
    "Ġgenerative": 5644,
    "Ġecc": 11627,
    "Ġuns": 15834,
    "uger": 21102,
    "ready": 2361,
    "pper": 3206,
    "Ġclosely": 6488,
    "Ġmoccas": 22433,
    "Ġbright": 3210,
    "Ġtacit": 21173,
    "Ġdata": 518,
    "mccarthy": 15394,
    "://": 11465,
    "cc": 471,
    "expect": 4768,
    "ica": 10198,
    "Ġcuff": 17829,
    "disappearing": 23502,
    "plun": 15813,
    "\"]": 17470,
    "Ġfactor": 19012,
    "ww": 10737,
    "ward": 705,
    "nerable": 16275,
    "Ġmasks": 23326,
    "Ġwipe": 25764,
    "Ġhint": 5016,
    "opard": 9290,
    "Ġimpudence": 26241,
    "Ġharrow": 17925,
    "Ġcursory": 18844,
    "Ġhapp": 1086,
    "Ġtranspired": 16784,
    "Ġchas": 18379,
    "Ġuninter": 18246,
    "Ġpots": 9427,
    "mens": 20968,
    "Ġshin": 18227,
    "Ġsteed": 13038,
    "Ġlists": 11166,
    "import": 5668,
    "Ġabraham": 18395,
    "Ġfullest": 14813,
    "Ġdemoniacal": 20555,
    "Ġthreaten": 24374,
    "iltrated": 19305,
    "discharging": 26305,
    "conf": 4957,
    "Ġopenshaw": 7954,
    "redit": 3879,
    "wedged": 24338,
    "Ġsquall": 7043,
    "Ġapprove": 12870,
    "lascar": 20959,
    "pull": 6796,
    "Ġadoption": 24948,
    "Ġblasphe": 17406,
    "Ġsting": 10861,
    "Ġestimate": 19371,
    "Ġnosegay": 24192,
    "Ġdirected": 5579,
    "itics": 13871,
    "Ġavowal": 19413,
    "able": 454,
    "nment": 20989,
    "resp": 13838,
    "itchen": 7787,
    "pressed": 6587,
    "considerable": 10548,
    "Ġavocation": 23950,
    "ctors": 21587,
    "Ġdimly": 9487,
    "Ġexquis": 9698,
    "Ġstamp": 7863,
    "Ġtouches": 20569,
    "Ġcontemplate": 19891,
    "Ġsurp": 9634,
    "Ġunwarrantable": 26353,
    "Ġcomputing": 2222,
    "Ġincidentally": 16954,
    "Ġchestnut": 19671,
    "henomen": 10494,
    "Ġexalted": 12410,
    "Ġwarmer": 19184,
    "Ġautonom": 10411,
    "onial": 11566,
    "Ġsurrounded": 5878,
    "Ġwedded": 16674,
    "opened": 7912,
    "roqu": 21531,
    "Ġregulate": 22584,
    "Ġparasol": 22118,
    "Ġstaving": 21734,
    "joined": 13274,
    "arpening": 21441,
    "Ġscholars": 26112,
    "discoveries": 25385,
    "Ġlowermost": 23240,
    "Ġpertin": 18450,
    "Ġrepute": 18034,
    "mates": 5073,
    "Ġexpectation": 6904,
    "Ġbefallen": 12341,
    "Ġdevotees": 25376,
    "Ġbegun": 7243,
    "Ġsultry": 20287,
    "Ġdistinguish": 2727,
    "Ġlengthened": 25958,
    "Ġgang": 9207,
    "rew": 3648,
    "Ġwint": 15531,
    "Ġclay": 7018,
    "iah": 14416,
    "Ġwestmorland": 24390,
    "Ġninetieth": 25357,
    "Ġseeth": 21957,
    "Ġand": 295,
    "Ġcheery": 16366,
    "Ġshy": 10903,
    "Ġclink": 22343,
    "Ġticking": 25033,
    "th": 407,
    "Ġtraveller": 8048,
    "Ġfootpaths": 26318,
    "Ġagrippa": 11805,
    "Ġingratitude": 17468,
    "unvarying": 21884,
    "Ġbusy": 6189,
    "Ġfel": 1519,
    "pest": 6964,
    "Ġlegs": 4916,
    "Ġecho": 12665,
    "Ġbarriers": 23793,
    "Ġdifferen": 935,
    "exceedingly": 9566,
    "distraction": 24200,
    "ety": 3520,
    "happ": 3101,
    "Ġinvisibly": 24817,
    "untary": 9866,
    "Ġwest": 5219,
    "mitting": 17602,
    "rable": 11631,
    "Ġrigging": 5601,
    "Ġattentively": 9949,
    "Ġdeliber": 7268,
    "deployment": 26527,
    "ree": 873,
    "avenza": 17104,
    "nurtured": 25524,
    "Ġwar": 5526,
    "transom": 19734,
    ",)": 9100,
    "Ġjustified": 11902,
    "Ġpeace": 3694,
    "Ġtrustworthy": 24107,
    "itations": 17817,
    "ately": 1712,
    "uteronomy": 15661,
    "Ġcoinc": 11001,
    "inople": 13828,
    "Ġdiffident": 23782,
    "filled": 9594,
    "Ġmartin": 25436,
    "isticated": 1506,
    "degra": 22138,
    "po": 1137,
    "Ġdines": 21421,
    "passing": 14811,
    "pat": 10116,
    "Ġinconvenience": 9563,
    "Ġmonosyllable": 20725,
    "Ġdiscreet": 16481,
    "Ġunra": 18237,
    "feel": 3815,
    "Ġlambton": 10657,
    "Ġstraps": 19309,
    "Ġclaim": 5106,
    "elect": 20845,
    "Ġtreatise": 19343,
    "Ġlabrador": 23329,
    "Ġtrough": 15968,
    "Ġthinking": 4035,
    "Ġearl": 7675,
    "Ġchal": 18378,
    "seated": 11671,
    "tur": 5688,
    "Ġtashtego": 4486,
    "Ġduplicate": 17215,
    "raid": 3276,
    "Ġske": 4815,
    "Ġscene": 3094,
    "iling": 3090,
    "Ġafter": 869,
    "Ġmari": 6813,
    "Ġinternal": 2248,
    "Ġbacked": 12923,
    "summoned": 26591,
    "umbers": 10918,
    "Ġrecovering": 11861,
    "hav": 20896,
    "aled": 3947,
    "given": 8376,
    "Ġdock": 15928,
    "errand": 22905,
    "gird": 20878,
    "Ġmot": 2986,
    "Ġminimizing": 3465,
    "Ġimmensity": 25329,
    "Ġgranite": 22805,
    "Ġbes": 2661,
    "Ġsoldier": 16920,
    "reproof": 25432,
    "Ġprosper": 10228,
    "cousin": 10652,
    "declare": 25173,
    "Ġwhilst": 9218,
    "Ġprick": 14477,
    "Ġtortoise": 16908,
    "Ġsacrilege": 26228,
    "Ġreview": 18030,
    "kes": 3679,
    "turned": 7306,
    "Ġhinge": 25541,
    "ullo": 12726,
    "consum": 12867,
    "wharf": 20605,
    "Ġarid": 22178,
    "cated": 20802,
    "Ġsettee": 22918,
    "educ": 10828,
    "stre": 5451,
    "Ġbeast": 7179,
    "Ġshudderings": 25200,
    "Ġcollinses": 19129,
    "earliest": 20118,
    "Ġunappe": 22015,
    "Ġacquitted": 18898,
    "Ġpreliminaries": 25176,
    "Ġrelates": 12978,
    "Ġneglecting": 25007,
    "ork": 416,
    "Ġbritain": 16956,
    "ourney": 3553,
    "ctive": 11622,
    "wolf": 26409,
    "Ġfiltering": 23923,
    "ingley": 1545,
    "pinn": 21025,
    "honour": 13466,
    "msman": 9268,
    "Ġcem": 17823,
    "Ġdiminishing": 4212,
    "Ġreproofs": 24892,
    "Ġforeboding": 20382,
    "miserable": 8656,
    "Ġha": 400,
    "Ġslipping": 13359,
    "Ġboarding": 12084,
    "Ġcopy": 10163,
    "Ġfrogs": 23920,
    "ortion": 11755,
    "Ġdub": 13908,
    "Ġtam": 7821,
    "Ġinsolence": 20252,
    "Ġquivers": 22410,
    "Ġineff": 12631,
    "fem": 17537,
    "Ġreception": 9838,
    "asses": 7016,
    "Ġbr": 1069,
    "wretch": 17708,
    "Ġslate": 11936,
    "Ġarri": 2556,
    "tired": 21071,
    "ĠĠĠĠĠĠĠ": 7632,
    "Ġtooth": 9192,
    "Ġgrinning": 9053,
    "make": 5793,
    "whalers": 17263,
    "phys": 18695,
    "Ġcrouched": 23440,
    "Ġfeature": 750,
    "Ġmagnetic": 17240,
    "Ġbarred": 9002,
    "Ġbeth": 9657,
    "Ġrevealing": 3928,
    "Ġbiases": 2399,
    "Ġfinish": 7948,
    "L": 48,
    "Ġhedgehog": 10644,
    "scattered": 22994,
    "Ġtwink": 8215,
    "Ġfamil": 4322,
    "Ġimplicit": 19956,
    "Ġranging": 8478,
    "Ġgates": 10200,
    "Ġrevive": 13478,
    "Ġprogra": 1144,
    "Ġbrad": 8786,
    "Ġthoughtful": 16188,
    "ia": 1257,
    "anging": 3551,
    "Ġswayed": 15047,
    "Ġmeant": 3550,
    "upp": 10130,
    "Ġrecurred": 18977,
    "Ġfossiliferous": 25609,
    "Ġsoot": 14129,
    "q": 85,
    "Ġaggregated": 25678,
    "Ġgives": 5018,
    "left": 6975,
    "vital": 17700,
    "orate": 10800,
    "gardiner": 12289,
    "uiperai": 10663,
    "Ġindefinite": 17176,
    "Ġwithstand": 10225,
    "Ġcontemplated": 13463,
    "Ġwakeful": 24266,
    "clopÃ¦dia": 15255,
    "Ĝ": 221,
    "Ġbiographical": 22763,
    "prevent": 11793,
    "later": 20952,
    "Ġfamiliarly": 11303,
    "Ġcharitable": 23267,
    "Ġcholera": 22250,
    "coal": 12023,
    "Ġcasting": 12098,
    "luckily": 19751,
    "Ġstages": 14003,
    "Ġconsider": 2571,
    "hot": 8083,
    "glanced": 19364,
    "Ġerr": 1322,
    "dra": 3415,
    "Ġstrange": 2274,
    "uses": 11758,
    "entreat": 17975,
    "Ġrapid": 1435,
    "Ġshovel": 23491,
    "oud": 1939,
    "detached": 19673,
    "95": 17477,
    "Ġbillow": 14778,
    "tled": 3458,
    "Ġlizard": 12651,
    "uttered": 8440,
    "Ġmagnificence": 20631,
    "Ġenlightened": 12743,
    "verity": 14000,
    "supposing": 24135,
    "Ġgroans": 14823,
    "Ġuntamed": 19163,
    "Ġrode": 15995,
    "Ġsmothered": 20719,
    "mod": 1096,
    "Ġchim": 5932,
    "obtained": 23092,
    "Ġdisquis": 22524,
    "Ġdodging": 19886,
    "Ġessays": 19743,
    "Ġoce": 3030,
    "Ġpleased": 4068,
    "Ġtrampling": 25492,
    "ner": 1370,
    "ignified": 14490,
    "dings": 2176,
    "endeavouring": 15015,
    "Ġabrupt": 9735,
    "Ġintellig": 526,
    "rian": 10241,
    "Ġscuff": 15941,
    "clean": 14759,
    "Ġsnows": 14725,
    "received": 9638,
    "ô": 181,
    "Ġpopulation": 16827,
    "Ġfeelingly": 22996,
    "bennet": 5352,
    "resum": 17761,
    "Ġpack": 5444,
    "police": 10583,
    "jud": 4481,
    "Ġsavor": 23873,
    "Ġbrewed": 23344,
    "Ġcapture": 3386,
    "Ġfatigue": 8697,
    "Ġrachel": 11845,
    "boilers": 26297,
    "Ġsimilarity": 3163,
    "ping": 9615,
    "Ġfad": 17876,
    "inconsiderable": 21190,
    "reeable": 3611,
    "Ġquality": 3528,
    "Ġserpentine": 11360,
    "ox": 9133,
    "hunters": 16833,
    "sequently": 14583,
    "Ġdictate": 20150,
    "urities": 18049,
    "Ġcustoms": 19651,
    "utes": 5913,
    "Ġreferences": 21671,
    "Ġadmon": 15866,
    "stooped": 23819,
    "Ġevangelists": 20338,
    "_:": 17478,
    "Ġwinc": 9642,
    "Ġdecreas": 1647,
    "batim": 25016,
    "arth": 4443,
    "Ġempire": 11145,
    "Ġbeginning": 4246,
    "Ġdine": 7366,
    "Ġpirate": 14996,
    "Ġleather": 7606,
    "Ġmand": 21303,
    "Ġsubmission": 22787,
    "unconquerable": 21888,
    "Ġvocabulary": 4995,
    "forbidding": 25837,
    "handed": 7482,
    "Ġcounterbalance": 24722,
    "special": 14704,
    "fing": 13712,
    "barn": 17482,
    "Ġmounting": 19975,
    "leap": 21365,
    "Ġpole": 6433,
    "Ġcom": 369,
    "Ġgentlemanly": 19315,
    "Ġdespite": 19351,
    "hill": 15361,
    "theories": 18078,
    "Ġspine": 7407,
    "Ġblu": 2688,
    "Ġbenches": 18780,
    "Ġscenari": 22289,
    "Ġdisappo": 4505,
    "despatched": 19800,
    "Ġastronomy": 25926,
    "Ġsecrecy": 7316,
    "Ġcured": 21345,
    "place": 4158,
    "Ġfate": 4753,
    "Ġindispensable": 11898,
    "Ġrewards": 10848,
    "Ġrobbed": 22979,
    "one": 614,
    "Ġfootmen": 23796,
    "gall": 6359,
    "Ġsuccor": 25662,
    "k": 79,
    "Ġprivileges": 25132,
    "Ġate": 8839,
    "prov": 16421,
    "Ġlog": 1675,
    "Ġreef": 10849,
    "Ġcounterpart": 24721,
    "declared": 15117,
    "transformers": 8714,
    "Ġdeity": 18137,
    "Ġcity": 4530,
    "perplex": 18343,
    "Ġcashier": 20197,
    "Ġproceeds": 12075,
    "pie": 21010,
    "ifting": 6545,
    "ipper": 13739,
    "intimate": 22934,
    "dation": 2616,
    "Ġexord": 21824,
    "Ġready": 3399,
    "Ġruinous": 24633,
    "beginning": 13560,
    "Ġcho": 4547,
    "il": 329,
    "Ġwhirlpool": 20654,
    "dragged": 16608,
    "Ġarising": 10933,
    "Ġbec": 1350,
    "verted": 10217,
    "Ġlav": 13949,
    "ihood": 20921,
    "Ġdie": 3966,
    "Ġcoil": 11816,
    "chant": 4261,
    "Ġthrice": 10575,
    "rine": 21036,
    "spirits": 8054,
    "urpr": 2289,
    "Ġpulpit": 7470,
    "Ġviewing": 19263,
    "Ġobey": 9518,
    "Ġhur": 2100,
    "isc": 6239,
    "Ġevident": 6612,
    "injured": 15131,
    "ollion": 19714,
    "flowing": 14564,
    "antarctic": 22096,
    "Ġdel": 1613,
    "ared": 770,
    "dering": 5305,
    "manif": 14372,
    "nels": 12493,
    "Ġtract": 21164,
    "Ġglu": 15665,
    "Ġfollow": 1395,
    "Ġardently": 9497,
    "Ġcluster": 13570,
    "haustible": 16891,
    "Ġdiscompose": 25579,
    "gard": 7339,
    "Ġwines": 21286,
    "Ġpropri": 6738,
    "Ġvouch": 15807,
    "doubted": 17526,
    "asse": 15642,
    "refusal": 24736,
    "impressions": 20697,
    "denial": 18716,
    "Ġpilgr": 12178,
    "Ġletters": 3794,
    "Ġhearses": 20058,
    "embarr": 15796,
    "Ġgait": 13329,
    "Ġinspire": 11994,
    "Ġspring": 4126,
    "Ġhow": 599,
    "Ġsteward": 6584,
    "itically": 21328,
    "illa": 12790,
    "Ġgro": 4397,
    "Ġexertions": 13409,
    "acup": 14277,
    "masculine": 24387,
    "Ġtolland": 24988,
    "Ġpalpitated": 26085,
    "Ġcost": 2507,
    "oney": 3048,
    "ainty": 21784,
    "Ġgoodness": 6058,
    "Ġproble": 1107,
    "Ġautonomous": 10675,
    "aid": 1920,
    "Ġprudence": 13919,
    "Ġsodden": 25535,
    "pause": 12498,
    "Ġpetulance": 24227,
    "Ġchanges": 2288,
    "Ġper": 589,
    "Ġourselves": 5127,
    "Ġ47": 14770,
    "clusion": 16303,
    "Ġlistening": 6318,
    "bad": 12434,
    "chance": 6827,
    "gaz": 20877,
    "din": 8373,
    "Ġroutine": 13507,
    "downstairs": 23917,
    "bellies": 19972,
    "preservation": 25305,
    "Ġastr": 15493,
    "Ġjing": 15947,
    "Ġ5": 4935,
    "Ġbordeaux": 24564,
    "Ġlandlord": 5581,
    "proceed": 8976,
    "hued": 20910,
    "exerc": 16013,
    "Ġens": 2790,
    "Ġinseparable": 20687,
    "mill": 13753,
    "Ġjenkinson": 11431,
    "ibank": 6880,
    "fashion": 8080,
    "Ġacres": 14312,
    "Ġlub": 15646,
    "deliver": 19503,
    "outre": 18320,
    "Ġperfume": 25665,
    "Ġmuscles": 12086,
    "Ġcrowder": 19454,
    "invest": 11559,
    "Ġinject": 2712,
    "Ġprometheus": 15291,
    "voy": 7143,
    "Ġgate": 6825,
    "Ġappare": 12816,
    "Ġpemberley": 4588,
    "Ġwick": 2003,
    "Ġagile": 22510,
    "Ġthanking": 18602,
    "Ġbodily": 6106,
    "Ġsavag": 19372,
    "Ġbeer": 10219,
    "Ġimprudence": 10297,
    "Ġmarshal": 20218,
    "Ġcompanion": 3643,
    "Ġexercise": 8358,
    "Ġinte": 2067,
    "Ġtransom": 22435,
    "Ġsighed": 10337,
    "consol": 9761,
    "ichever": 13956,
    "Ġcub": 8413,
    "opposite": 19928,
    "Ġdiscerning": 25002,
    "Ġbiggest": 24566,
    "Ġpierce": 17036,
    "Ġtiger": 11554,
    "Ġwhirled": 14959,
    "Ġimpress": 6862,
    "Ġdeceived": 6544,
    "Ġsoldiers": 8686,
    "Ġstruggle": 3676,
    "Ġexpressed": 4467,
    "Ġtransform": 747,
    "Ġmiller": 19882,
    "Ġcage": 17825,
    "Z": 62,
    "ref": 6515,
    "Ġbrut": 18767,
    "Ġboston": 22635,
    "beer": 22485,
    "Ġfortresses": 23620,
    "raint": 18316,
    "Ġconfused": 7964,
    "Ġreadability": 2725,
    "Ġglistening": 12363,
    "Ġdiggings": 24649,
    "understood": 13215,
    "Ġsubtlety": 24780,
    "Ġrecess": 10847,
    "Ġenvironmental": 24066,
    "bath": 13688,
    "Ġbrigs": 20321,
    "tiest": 21080,
    "abst": 21785,
    "Ġloomings": 24949,
    "Ġimpenitent": 26548,
    "Ġglowed": 24864,
    "ailing": 7021,
    "Ġelixir": 26555,
    "imely": 13997,
    "Ġemergency": 25731,
    "Ġboundary": 11222,
    "inery": 17733,
    "Ġshuttle": 12124,
    "bit": 3935,
    "norm": 20984,
    "Ġjunks": 25113,
    "Ġtall": 4043,
    "Ġuncivilized": 25498,
    "ham": 1699,
    "âĢĻ!âĢĿ": 18167,
    "Ġwallet": 21297,
    "uniform": 18157,
    "ted": 790,
    "Ġanatomy": 12318,
    "easily": 17534,
    "Ġscotch": 12207,
    "Ġunjustly": 17126,
    "Ġparty": 3510,
    "Ġexpressly": 16453,
    "bbings": 19275,
    "Ġshining": 8171,
    "Ġvolcano": 24147,
    "Ġvind": 10249,
    "didn": 9006,
    "draul": 9442,
    "vine": 10734,
    "Ġconnecting": 18630,
    "nikin": 23247,
    "Ġlover": 7193,
    "tolerably": 21094,
    "Ġgeese": 7693,
    "acknowledge": 18471,
    "burning": 25078,
    "Ġcottages": 14726,
    "feed": 9292,
    "Ġ1778": 25730,
    "ccarthy": 4888,
    "Ġshows": 8482,
    "haust": 5777,
    "nect": 664,
    "Ġexamine": 7734,
    "acquainted": 7313,
    "Ġmoves": 14231,
    "Ġruin": 6055,
    "Ġdiffers": 23780,
    "Ġpilot": 5984,
    "Ġtwitching": 25683,
    "Ġperth": 7022,
    "Ġreluct": 14370,
    "Ġannihilated": 20251,
    "Ġgobern": 22420,
    "Ġmortal": 4681,
    "string": 15683,
    "Ġcreep": 22718,
    "Ġfurn": 3711,
    "onings": 21251,
    "instrument": 15237,
    "istence": 2285,
    "canoes": 16231,
    "Ġtot": 4190,
    "Ġjoys": 13218,
    "wig": 17704,
    "Ġoccas": 2704,
    "Ġgallop": 19554,
    "cob": 10086,
    "ull": 1430,
    "Ġsob": 12780,
    "Ġdrinking": 12166,
    "Ġdeep": 805,
    "Ġalow": 18099,
    "spermaceti": 12191,
    "Ġpatience": 2975,
    "a": 69,
    "ilege": 22255,
    "eyed": 11486,
    "consc": 4840,
    "Ġmood": 6276,
    "client": 18931,
    "acted": 11010,
    "fun": 3621,
    "Ġcuring": 21342,
    "Ġfourth": 7706,
    "Ġbattering": 13900,
    "Ġimpetuously": 20370,
    "elf": 565,
    "Ġottoman": 17377,
    "sand": 21051,
    "Ġtravel": 5952,
    "mariners": 19547,
    "Ġgrandfather": 19420,
    "Ġnodded": 11968,
    "crew": 7544,
    "Ġaveraging": 2419,
    "those": 4495,
    "queness": 18146,
    "Ġexistence": 4706,
    "richard": 17286,
    "aside": 10191,
    "thy": 2936,
    "get": 1021,
    "Ġcables": 15555,
    "Ġforbidden": 17078,
    "Ġtriangular": 14858,
    "treat": 12511,
    "Ġling": 7377,
    "Ġpacked": 9979,
    "Ġeighteenth": 14753,
    "Ġinstincts": 16986,
    "Ġslumbers": 18941,
    "87": 20756,
    "Ġcough": 11580,
    "Ġantics": 24178,
    "Ġcurling": 9340,
    "Ġsched": 2338,
    "Ġexplore": 15906,
    "Ġlikeness": 11179,
    "vo": 11539,
    "Ġgull": 15667,
    "elter": 21568,
    "]]": 5205,
    "Ġrehearsed": 25971,
    "obliged": 20630,
    "Ġhomeless": 23385,
    "Ġfortunately": 12177,
    "condesc": 18505,
    "ĠĠĠĠĠĠĠĠĠĠĠĠĠĠĠĠĠĠĠĠĠĠĠĠĠĠĠĠĠĠĠĠĠĠĠĠĠĠĠĠĠ": 19581,
    "Ġresounded": 22541,
    "Ġdomineer": 23645,
    "descending": 16283,
    "eenth": 12458,
    "rating": 7808,
    "surgeon": 24214,
    "Ġturbulence": 26597,
    "Ġinhale": 20299,
    "telescope": 26562,
    "Ġentic": 16144,
    "Ġpoignant": 22590,
    "Ġfuneral": 10282,
    "Ġadult": 18291,
    "Ġframe": 1933,
    "Ġultimate": 12347,
    "convinced": 10622,
    "Ġrestoration": 19025,
    "atic": 4022,
    "Ġgun": 4701,
    "Ġconcre": 16388,
    "became": 10514,
    "Ġcontrivance": 17183,
    "Ġstrides": 22614,
    "Ġmer": 2932,
    "Ġcrawling": 17045,
    "Ġunlim": 18253,
    "Ġfeels": 6882,
    "Ġshortly": 6196,
    "Ġber": 5698,
    "Ġbrace": 11211,
    "Ġpig": 5705,
    "Ġsi": 21211,
    "Ġhelmeted": 19687,
    "mblies": 24608,
    "Ġskeleton": 5514,
    "profound": 16424,
    "Ġpaw": 12617,
    "Ġbringing": 5869,
    "Ġbildad": 3782,
    "Ġpostpone": 17306,
    "Ġimmemorially": 25383,
    "looked": 6083,
    "Ġparcel": 15198,
    "mission": 5969,
    "Ġdemoniac": 15063,
    "Ġkidn": 20204,
    "Ġdeeds": 15756,
    "Ġseat": 4949,
    "Ġtechniques": 2869,
    "stool": 23817,
    "blasted": 20188,
    "Ġmuhammad": 26169,
    "Ġ125": 24470,
    "Ġheav": 1852,
    "frequent": 15352,
    "published": 26142,
    "works": 6588,
    "Ġsubstituting": 26326,
    "fa": 7336,
    "ased": 1265,
    "Ġliterally": 15115,
    "Ġguards": 16266,
    "Ġcheered": 16367,
    "Ġrural": 21964,
    "Ġadvantage": 4318,
    "hos": 15362,
    "shoes": 14240,
    "recogn": 13424,
    "Ġjub": 22292,
    "afraid": 10441,
    "Ġmason": 10157,
    "Ġring": 4452,
    "Ġrepulsive": 14530,
    "Ġyellowish": 24430,
    "Ġsettles": 22917,
    "Ġdivide": 12108,
    "Ġmeekly": 26490,
    "Ġdreamed": 16629,
    "unwilling": 14060,
    "Ġbaby": 6636,
    "Ġhark": 8427,
    "Ġdarkly": 19114,
    "speptic": 23943,
    "Ġforests": 13591,
    "Ġrestricted": 19026,
    "Ġdrop": 4346,
    "Ġinconsistency": 26182,
    "Ġcomprehended": 11294,
    "Ġinstrument": 7118,
    "Ġaromatic": 25925,
    "hob": 20899,
    "pen": 1202,
    "Ġrising": 4357,
    "Ġpleasant": 4174,
    "Ġlodges": 19498,
    "elius": 13286,
    "Ġvol": 4193,
    "Ġphilistines": 26082,
    "Ġxerxes": 23409,
    "Ġinstruments": 12221,
    "Ġcase": 1938,
    "Ġassures": 14464,
    "an": 278,
    "Ġears": 4490,
    "Ġvisitors": 7984,
    "dissatisf": 26129,
    "Ġprincip": 5600,
    "Ġapprehens": 5682,
    "fen": 20849,
    "Ġforegoing": 23448,
    "Ġasiatic": 20428,
    "so": 889,
    "Ġlengthwise": 10452,
    "Ġcharmed": 16762,
    "heartedness": 24827,
    "ferent": 4198,
    "Ġrambles": 17184,
    "Ġclassifies": 11834,
    "pretending": 17041,
    "unerative": 21893,
    "Ġmurdering": 14810,
    "Ġcreeping": 18683,
    "imson": 12686,
    "Ġalbert": 12703,
    "level": 2654,
    "Ġunfortunately": 10909,
    "ruin": 22173,
    "igger": 21698,
    "Ġforts": 21769,
    "Ġdissip": 10992,
    "questions": 16760,
    "Ġtapers": 11551,
    "umbent": 12093,
    "moonlight": 25375,
    "Ġasleep": 6836,
    "exe": 11787,
    "99": 1894,
    "Ġderiv": 1737,
    "toller": 20671,
    "project": 16423,
    "Ġvaliant": 9799,
    "Ġrocks": 6863,
    "vent": 682,
    "building": 17308,
    "Ġagrees": 22513,
    "Ġmizzen": 20288,
    "seriously": 18904,
    "Ġflurry": 18860,
    "Ġmask": 1866,
    "thither": 21980,
    "Ġimple": 1785,
    "Ġhabit": 6771,
    "itage": 17816,
    "Ġimpulses": 19960,
    "oyed": 14361,
    "Ġed": 2143,
    "Ġproud": 5654,
    "Ġlod": 4047,
    "Ġuseless": 7037,
    "Ġboomer": 20166,
    "undoubtedly": 13310,
    "Ġapparel": 20434,
    "training": 2519,
    "nonsense": 17615,
    "hampshire": 23262,
    "absolut": 8458,
    "Ġretreating": 19798,
    "greatly": 16623,
    "Ġpaths": 2572,
    "Ġdespairing": 14773,
    "Ġshame": 6410,
    "abez": 10222,
    "ally": 529,
    "Ġconsciousness": 9947,
    "won": 7144,
    "reserve": 17765,
    "more": 1033,
    "Ġincredulity": 11311,
    "waves": 10742,
    "Ġdeclaring": 19418,
    "Ġcos": 2210,
    "Ġstaying": 8283,
    "ume": 4835,
    "Ġuniverse": 14123,
    "enchanted": 26424,
    "Ġestimable": 23870,
    "Ġwherefore": 8524,
    "Ġscor": 8190,
    "Ġmajest": 24058,
    "Ġcleaning": 23177,
    "Ġaw": 2511,
    "Ġsequence": 1974,
    "Ġelapsed": 7652,
    "Ġanytime": 12882,
    "Ġchancing": 22245,
    "buoy": 7760,
    "Ġperv": 15988,
    "Ġrevolt": 24504,
    "Ġstores": 18068,
    "ssed": 3735,
    "Ġattract": 11832,
    "Ġreceptive": 1563,
    "cies": 1815,
    "Ġmacy": 19353,
    "jo": 3752,
    "Ġhelpless": 8301,
    "imitably": 21708,
    "Ġhonestly": 19970,
    "Ġill": 2195,
    "hent": 12531,
    "Ġmish": 15535,
    "Ġtul": 21158,
    "Ġpanting": 11601,
    "interrupted": 11417,
    "Ġunflinching": 26512,
    "erative": 21271,
    "Ġpractical": 3160,
    "Ġaven": 10759,
    "Ġequinoctial": 20531,
    "comfort": 5647,
    "intments": 18820,
    "books": 8663,
    "ag": 377,
    "oning": 7572,
    "Ġfilled": 4395,
    "ivot": 11716,
    "Ġtens": 17723,
    "Ġdormouse": 4925,
    "Ġ*": 1272,
    "geon": 6270,
    "suspected": 12370,
    "rated": 6227,
    "Ġresidual": 1677,
    "Ġconfines": 23302,
    "Ġthin": 4349,
    "shaven": 18496,
    "Ġhandsomest": 20333,
    "stately": 18021,
    "abated": 14019,
    "Ô": 149,
    "Ġmonotonically": 3836,
    "Ġalso": 1345,
    "Ġdire": 865,
    "rasing": 21044,
    "plain": 1358,
    "Ġpoison": 7219,
    "Ġpoem": 22586,
    "Ġdies": 11592,
    "Ġyouth": 4264,
    ".;": 20743,
    "Ġabundant": 17154,
    "ccas": 15883,
    "nett": 16219,
    "remaining": 20219,
    "Ġcordially": 16836,
    "Ġhumiliating": 22873,
    "Ġkindling": 19028,
    "Ġperfect": 2559,
    "Ġclank": 15963,
    "icha": 11736,
    "Ġ114": 24438,
    "alcul": 15625,
    "anct": 21356,
    "Ġcontinuing": 14396,
    "Ġcolouring": 16751,
    "Ġcharming": 6628,
    "Ġwhence": 5839,
    "Ġinert": 15619,
    "âĢĶâĢľ_": 13203,
    "mered": 8217,
    "hullo": 17570,
    "apable": 6422,
    "perquis": 22187,
    "requiem": 24856,
    "als": 2042,
    "ires": 6037,
    "Ġoffensive": 18692,
    "Ġgros": 14822,
    "Ġfarm": 7840,
    "sa": 8756,
    "etrics": 21582,
    "Ġbott": 3145,
    "breadth": 20275,
    "Ġliquid": 22406,
    "Ġrhyme": 21975,
    "Ġbreathless": 12167,
    "strate": 12671,
    "oned": 4630,
    "Ġlye": 21548,
    "lead": 10165,
    "bench": 16803,
    "Ġthorough": 6245,
    "Ġproposal": 10018,
    "binary": 20783,
    "na": 13759,
    "Ġwarming": 23557,
    "Ġgoose": 5937,
    "Ġease": 5629,
    "Ġenglishman": 11229,
    "prophet": 16180,
    "cheered": 23804,
    "sharpening": 22461,
    "Ġpropose": 9852,
    "Ġcheap": 13087,
    "algorithms": 8298,
    "yed": 3269,
    "Ġrightly": 13062,
    "Ġvariants": 1792,
    "Ġglad": 3325,
    "arnel": 18124,
    "trem": 17681,
    "Ġhighness": 22772,
    "retched": 3066,
    "itering": 17818,
    "Ġ156": 20169,
    "lined": 12481,
    "Ġvintage": 26209,
    "Ġmeans": 699,
    "Ġcomplaint": 24776,
    "Ġcorrect": 2433,
    "Ø": 153,
    "omically": 13975,
    "Ġidentify": 12012,
    "Ġhit": 7163,
    "Ġdreamt": 23936,
    "Ġcensure": 15094,
    "fingers": 17369,
    "Ġflung": 8562,
    "uend": 21100,
    "lucases": 20209,
    "westward": 25424,
    "Ġsparing": 22126,
    "lish": 1948,
    "Ġmissing": 6175,
    "icant": 21559,
    "byter": 16211,
    "Ġsales": 12804,
    "Ġnervous": 2405,
    "Ġdismay": 11807,
    "rip": 9240,
    "Ġgettest": 23232,
    "Ġcrimson": 16440,
    "animals": 24738,
    "Ġgigantic": 5914,
    "Ġdressing": 7090,
    "pos": 15409,
    "landlord": 9839,
    "shire": 3022,
    "Ġfeelings": 2455,
    "Ġsimpleton": 16332,
    "Ġlock": 5927,
    "Ġbargain": 23791,
    "Ġpepper": 9780,
    "Ġthre": 2060,
    "Ġproduce": 4368,
    "ith": 330,
    "Ġmacey": 12560,
    "Ġproceedings": 9906,
    "Ġresembled": 18033,
    "ensibility": 22544,
    "Ġinitialization": 1253,
    "impotence": 23760,
    "shoulder": 16583,
    "Ġsees": 8842,
    "Ġpremises": 10487,
    "Ġmutineer": 19416,
    "Ġcapric": 14576,
    "dreaded": 25138,
    "Ġoutward": 7903,
    "greek": 25404,
    "Ġdiscovers": 4428,
    "Ġspermaceti": 8967,
    "tiger": 13796,
    "everybody": 8610,
    "Ġcoff": 3507,
    "Ġaccusations": 22376,
    "Ġtriumphant": 12187,
    "Ġhereabouts": 12975,
    "peculiar": 6886,
    "Ġscoundrel": 13669,
    "Ġyelled": 9693,
    "Ġcollectively": 19966,
    "othing": 6995,
    "hump": 12475,
    "Ġproblems": 2851,
    "fashioned": 9570,
    "ously": 2492,
    "Ġgifted": 17996,
    "backward": 2685,
    "Ġsteel": 3891,
    "Ġvolat": 24144,
    "Ġvapory": 17006,
    "Ġtwinkling": 12322,
    "Ġvows": 15806,
    "naturalists": 23468,
    "Ġineffable": 17331,
    "Ġsat": 1130,
    "Ġklux": 22192,
    "stamp": 21651,
    "lasting": 8010,
    "tro": 15432,
    "Ġsimilarly": 24308,
    "verbally": 25360,
    "Ġimpartial": 15218,
    "named": 9889,
    "impress": 18051,
    "Ġloungers": 24862,
    "Ġcoding": 8115,
    "Ġadvocate": 13675,
    "wheeling": 22861,
    "Ġfrequently": 4679,
    "Ġequalled": 13311,
    "Ġmiss": 1230,
    "com": 1003,
    "Ġpond": 13915,
    "Ġabruptly": 15149,
    "displayed": 20735,
    "Ġrecourse": 22738,
    "Ġcontract": 18475,
    "Ġcalendar": 18877,
    "Ġpangs": 15612,
    "forming": 15916,
    "mud": 20970,
    "Ġofficer": 6753,
    "Ġmak": 10778,
    "governed": 25405,
    "missing": 13217,
    "char": 3503,
    "ograph": 4797,
    "Ġpow": 4637,
    "Ġsnow": 3708,
    "peril": 18342,
    "Ġbenchmarks": 15021,
    "Ġaid": 6122,
    "Ġanchored": 17439,
    "tenderly": 20529,
    "Ġintelligences": 12828,
    "fishery": 10031,
    "Ġimpro": 897,
    "Ġfashioned": 13319,
    "Ġinspect": 5963,
    "Ġbu": 3683,
    "national": 20997,
    "Ġrabbit": 4291,
    "Ġtrace": 6181,
    "Ġrambled": 20167,
    "Ġprovocation": 24191,
    "pounds": 21024,
    "Ġtwilight": 16119,
    "Ġaffair": 4463,
    "Ġtrotting": 19974,
    "Ġderivative": 3000,
    "Ġpoets": 11819,
    "85": 13680,
    "Ġdair": 17889,
    "Ġdevelop": 1672,
    "end": 505,
    "Ġ80": 24456,
    "perfect": 7634,
    "elves": 2159,
    "Ġsublimity": 26345,
    "rival": 12740,
    "Ġordinary": 6096,
    "Ġporthole": 24399,
    "Ġultimately": 17164,
    "ape": 1905,
    "Ġunfl": 22017,
    "Ġcastaway": 16640,
    "dress": 17520,
    "Ġfrosted": 19802,
    "ssian": 3401,
    "Ġsteeply": 23722,
    "van": 7814,
    "Ġsympathised": 14861,
    "Ġangrily": 9406,
    "Ġblueprints": 13170,
    "Ġfattened": 25949,
    "Ġpigs": 19746,
    "Ġannoy": 17198,
    "Ġbitten": 21388,
    "Ġsatiated": 22898,
    "Ġpref": 14171,
    "Ġsash": 17754,
    "Ġmorass": 22973,
    "accounted": 16501,
    "Ġdead": 2172,
    "osely": 9264,
    "disappo": 8984,
    "conducted": 25572,
    "Ġapplying": 13090,
    "withdrawn": 23025,
    "thrill": 25656,
    "Ġreappearance": 21664,
    "orts": 2558,
    "thousand": 5547,
    "sticking": 21657,
    "Ġphysiology": 25332,
    "Ġwent": 1537,
    "Ġmccauley": 26427,
    "Ġstunsail": 25543,
    "Ġnamely": 20688,
    "Ġprof": 2462,
    "asing": 5911,
    "Ġsubordinate": 18722,
    "expectations": 24276,
    "seemed": 4306,
    "Ġguiltless": 16940,
    "ective": 18174,
    "ulatory": 15765,
    "Ġaudits": 24770,
    "U": 57,
    "Ġelastic": 4363,
    "¡": 99,
    "values": 4974,
    "Ġcrucial": 9892,
    "rapt": 13972,
    "Ġunstructured": 3005,
    "Ġversion": 10629,
    "Ġobservant": 20108,
    "Ċ": 203,
    "inter": 2950,
    "Ġasiatics": 20429,
    "Ġhoist": 11975,
    "î": 175,
    "sooner": 14775,
    "ableness": 8148,
    "Ġpermanently": 25473,
    "Ġunb": 10907,
    "Ġshocked": 9400,
    "Ġcalculate": 13262,
    "Ġscal": 1671,
    "Ġtamely": 24977,
    "Ġfancied": 7326,
    "resides": 23671,
    "violence": 16476,
    "ostentatious": 20651,
    "weather": 7229,
    "speckled": 23942,
    "Ġlizzy": 3546,
    "Ġrustic": 14964,
    "tubs": 15129,
    "Ġczar": 12571,
    "ortunities": 15938,
    "subtle": 24243,
    "Ġgoverness": 8601,
    "ware": 3938,
    "Ġshriek": 6637,
    "Ġexactness": 23603,
    "Ġsnugly": 17111,
    "Ġperiodical": 14771,
    "acceptance": 25185,
    "Ġwarrior": 24496,
    "ifiable": 18163,
    "Ġstir": 5823,
    "Ġnearest": 8469,
    "Ġneutral": 12738,
    "Ġflip": 11911,
    "ò": 179,
    "Ġyielded": 14871,
    "dham": 20829,
    "largely": 19573,
    "pointing": 12222,
    "Ġbulkhead": 24511,
    "Ġhanover": 20584,
    "Ġimped": 18442,
    "chanced": 18809,
    "kne": 20934,
    "Ġnaval": 16899,
    "Ġexpands": 25237,
    "Ġsar": 21212,
    "Ġupset": 22150,
    "Ġneighbors": 25804,
    "Ġlaughing": 5338,
    ",âĢĻâĢĶ": 23526,
    "pal": 9616,
    "Ġyankees": 26201,
    "Ġknife": 7309,
    "ues": 2081,
    "Ġ111": 24436,
    "ezing": 10573,
    "Ġblaze": 16218,
    "Ġbrit": 6289,
    "Ġpartly": 6713,
    "Ġanat": 8123,
    "Ġrecompense": 14837,
    "meant": 7920,
    "eked": 16401,
    "ingolstadt": 21302,
    "Ġnobler": 14175,
    "Ġacquit": 18897,
    "Ġexhibited": 9543,
    "Ġbou": 17852,
    "cl": 1493,
    "Ġshetland": 22156,
    "ĺ": 251,
    "Ġhill": 5626,
    "Ġinterlacing": 22573,
    "Ġgrate": 12961,
    "Ġsupports": 3049,
    "anges": 1670,
    "umes": 10917,
    "Ġdistributing": 22676,
    "Ġplight": 14280,
    "ateness": 15518,
    "commanders": 16989,
    "capting": 24036,
    "Ġpacing": 8425,
    "steelkilt": 10046,
    "Ġsaluted": 14757,
    "Ġreg": 732,
    "Ġ1000": 3115,
    "iogn": 20920,
    "Ġstirs": 14916,
    "Ġcauldron": 25441,
    "Ġdeserts": 10507,
    "Ġpresum": 4837,
    "lone": 11499,
    "abash": 18107,
    "Ġplush": 18609,
    "ojo": 7349,
    "Ġswallowed": 7943,
    "sank": 17662,
    "determine": 19942,
    "Ġdreams": 7496,
    "Ġwhich": 502,
    "interesting": 12199,
    "Ġprivately": 19522,
    "breckinridge": 24074,
    "relig": 15511,
    "vult": 21112,
    "Ġpapers": 4026,
    "hint": 12473,
    "Ġbliss": 12998,
    "persuaded": 15072,
    "Ġbee": 21746,
    "Ġvapor": 8699,
    "ears": 20844,
    "Ġconvert": 11841,
    "Ġdivine": 6921,
    "Ġano": 11595,
    "oniously": 21256,
    "Ġtalker": 23369,
    "Ġoccupation": 9930,
    "Ġmappings": 2149,
    "hatherley": 17568,
    "Ġeluc": 16106,
    "Ġdestabilizing": 5053,
    "ke": 429,
    "Ġballs": 9014,
    "Ġripples": 25505,
    "Ġsem": 1877,
    "executed": 25739,
    "Ġphilosophy": 7103,
    "Ġwarped": 25035,
    "!": 5,
    "Ġbeeches": 9226,
    "ullen": 8234,
    "Ġcrying": 10786,
    "bless": 22309,
    "Ġstiggs": 25792,
    "Ġfavourite": 5270,
    "Ġmim": 3103,
    "legs": 13181,
    "Ġaristotle": 25817,
    "poor": 6060,
    "Ġdaylight": 10350,
    "Ġaltitude": 26202,
    "Ġexquisitely": 20201,
    "Ġmulti": 1042,
    "Ġdepends": 1123,
    "ultaneous": 18582,
    "Ġofficious": 19346,
    "Ġbrown": 6298,
    "sphere": 22729,
    "Ġillustrate": 25065,
    "Ġconse": 21801,
    "Ġstar": 6022,
    "sche": 13016,
    "abb": 15736,
    "Ġgenerous": 6271,
    "column": 19328,
    "Ġshape": 5639,
    "):": 11461,
    "fam": 5988,
    "respectable": 19846,
    "ituted": 13872,
    "Ġunequal": 14841,
    "Ġrumors": 11321,
    "Ġeasily": 3894,
    "Ġbade": 9171,
    "ĠarchÃ¦": 22777,
    "idate": 21764,
    "Ġwhalemen": 3916,
    "Ġsigh": 10336,
    "Ġcircumn": 11982,
    "Ġmaritime": 23035,
    "laws": 19806,
    "Ġactor": 16046,
    "Ġdangerous": 6613,
    "ption": 7398,
    "Ġthreads": 13116,
    "text": 1972,
    "Ġanim": 2114,
    "Ġdistraction": 22503,
    "Ġrepresentation": 14404,
    "Ġdecent": 10978,
    "owner": 18611,
    "Ġcult": 8781,
    "Ġgem": 21591,
    "Ġshol": 21992,
    "Ġprofound": 5497,
    "Ġkra": 18348,
    "Ġmermaid": 17813,
    "Ġwintry": 17433,
    "Ġadam": 2127,
    "Ġtold": 2186,
    "destro": 13308,
    "Ġimitation": 22168,
    "Ġjeer": 24124,
    "Ġattempts": 10490,
    "Ġconceits": 19388,
    "admire": 24943,
    "Ġhardy": 8565,
    "Ġliar": 22405,
    "Ġyon": 9692,
    "Ġcommand": 3320,
    "Ġmentioning": 9898,
    "pence": 15408,
    "rences": 9271,
    "wife": 8100,
    "Ġdevotedly": 24750,
    "Ġcorrected": 10448,
    "Ġdeposed": 16085,
    "Ġunhappy": 5640,
    "Ġgo": 613,
    "Ġpurses": 23477,
    "Ġshrine": 19530,
    "Ġhunger": 8566,
    "Ġlinen": 12405,
    "paused": 17373,
    "inching": 21188,
    "Ġquartered": 20371,
    "Ġattentive": 9033,
    "oury": 22301,
    "Ġblended": 16217,
    "hack": 20895,
    "ocr": 10468,
    "onness": 21253,
    "Ġslang": 23156,
    "Ġcemeteries": 26375,
    "Ġpledged": 20686,
    "Ġwatch": 2743,
    "Ġcheek": 8577,
    "ercely": 12547,
    "Ġmeetings": 16532,
    "400": 20754,
    "Ġmushroom": 13235,
    "objection": 19914,
    "ashed": 3785,
    "Ġardu": 22180,
    "rop": 541,
    "Ġinteraction": 7424,
    "Ġcompliment": 5673,
    "Ġcongreg": 8462,
    "bearer": 18518,
    "Ġcoin": 9770,
    "Ġmatrimony": 13634,
    "Ġparac": 12792,
    "green": 7115,
    "Ġwidower": 24235,
    "Ġteacher": 22913,
    "Ġwo": 3650,
    "carp": 9109,
    "battering": 20785,
    "mechanically": 17299,
    "Ġrehears": 15697,
    "Ġimmens": 9938,
    "Ġbowled": 23768,
    "Ġattitudes": 16097,
    "jected": 22709,
    "Ġbasement": 24702,
    "tol": 17672,
    "omical": 9679,
    "ay": 355,
    "Ġmaria": 7124,
    "Ġassistant": 7298,
    "ents": 1895,
    "Ġappointment": 10646,
    "merely": 16132,
    "icting": 12851,
    "Ġvaluable": 5608,
    "Ġcoal": 18589,
    "aract": 17894,
    "Ġaustrian": 24300,
    "Ġweighed": 8710,
    "Ġquarrelling": 13498,
    "Ġwarrant": 17794,
    "Ġejaculated": 15168,
    "aguy": 21907,
    "Ġaccosted": 13671,
    "publ": 17638,
    "direct": 12454,
    "Ġbleached": 24396,
    "Ġdelightful": 6320,
    "Ġfestival": 25445,
    "Ġassaulted": 25320,
    "Ġgods": 6454,
    "Ã¦st": 24175,
    "Ġmeet": 2806,
    "Ġcompassion": 6487,
    "art": 591,
    "Ġrecently": 11860,
    "Ġsque": 18755,
    "Ġtired": 9149,
    "approbation": 11458,
    "ceiling": 21624,
    "Åĵuv": 15181,
    "idean": 14262,
    "anx": 8783,
    "Ġindul": 5856,
    "Ġhighly": 4844,
    "Ġjones": 7204,
    "at": 268,
    "Ġblossom": 26312,
    "unavoid": 14061,
    "elzebub": 26464,
    "Ġphysiognomical": 25611,
    "Ġimplicated": 24875,
    "aches": 6570,
    "angling": 14139,
    "Ġdungeon": 16996,
    "iem": 20916,
    "Ġslim": 18936,
    "Ġbelief": 5855,
    "friendly": 13283,
    "Ġlashes": 17966,
    "ters": 1573,
    "Ġobstacles": 19834,
    "max": 1682,
    "Ġaffirmative": 15221,
    "Ġfollowed": 1795,
    "bethinking": 25745,
    "writes": 4988,
    "mil": 13751,
    "orrowed": 19289,
    "Ġflutter": 16247,
    "spect": 3228,
    "aples": 20767,
    "sake": 13782,
    "province": 26072,
    "Ġbeaches": 18084,
    "inition": 11556,
    "Ġhighest": 3529,
    "Ġperiod": 4008,
    "Ġseldom": 4629,
    "Ġoppressively": 25712,
    "Ġfloundered": 18861,
    "Ġhardly": 2435,
    "Ġriver": 5411,
    "Ġtram": 11091,
    "assembled": 21542,
    "icked": 10332,
    "Ġsticking": 13426,
    "Ġdives": 17890,
    "square": 15059,
    "Ġ1839": 20458,
    "ies": 583,
    "Ġnative": 4640,
    "Ġgeneric": 18447,
    "Ġwaters": 3595,
    "Ġfrenchman": 11283,
    "Ġeye": 2282,
    "mbl": 5945,
    "Ġacceded": 22375,
    "Ġchiefly": 5766,
    "Ġgowns": 25359,
    "Ġdevoutly": 25832,
    "Ġfaintly": 14914,
    "Ġgirls": 4282,
    "Ġbrooding": 18907,
    "eded": 9673,
    "Ġcanal": 8181,
    "scythes": 26402,
    "Ġnormalizing": 1822,
    "Ġfluctuating": 24417,
    "Ġcoils": 9302,
    "Ġloading": 15872,
    "altogether": 12636,
    "says": 13298,
    "Ġaccurately": 4180,
    "Ġholiest": 18812,
    "Ġtheoretically": 3566,
    "Ġinno": 1441,
    "Ġnigh": 4878,
    "Ġfuller": 11156,
    "Ġoptim": 778,
    "Ġstronger": 8578,
    "stationed": 25453,
    "Ġexp": 779,
    "Ġpiteous": 17915,
    "Ġstabbed": 25456,
    "Ġexh": 5232,
    "Ġcivilly": 19602,
    "suspended": 15176,
    "pits": 15411,
    "lungs": 26135,
    "Ġretire": 10381,
    "Ġneat": 6999,
    "Ġjonah": 3481,
    "glancing": 11214,
    "Ġoverwhelmed": 11403,
    "mend": 20965,
    "Ġheredit": 9216,
    "bular": 15312,
    "Ġcompetent": 11814,
    "Ġpencil": 11941,
    "Ġgraves": 11706,
    "tom": 15434,
    "Ġfill": 5701,
    "Ġbernard": 20683,
    "Ġwollstonecraft": 26425,
    "Ġvegetables": 15220,
    "Ġburnt": 9927,
    "Ġunresting": 25553,
    "Ġbumpkin": 20199,
    "utarch": 15659,
    "whole": 6085,
    "scure": 22987,
    "act": 787,
    "Ġjeopardy": 13595,
    "abs": 11666,
    "anchor": 13888,
    "Ġbeats": 21749,
    "Ġitself": 2523,
    "penny": 22942,
    "ĸ": 249,
    "Ġcommendation": 13609,
    "Ġask": 1491,
    "Ġpetty": 19594,
    "Ġmothers": 14540,
    "Ġdetain": 14173,
    "Ġfiver": 22771,
    "Ġbearded": 15724,
    "Ġenjoys": 19448,
    "wickham": 5883,
    "semic": 21818,
    "Ġyawning": 12298,
    "Ġbecomes": 6396,
    "Ġcinque": 20484,
    "Ġuttered": 7280,
    "ude": 7562,
    "Ġenhancement": 23724,
    "Ġdocile": 19957,
    "Ġkeels": 11061,
    "Ġteasing": 11889,
    "Ġyawned": 15051,
    "rose": 6013,
    "tipt": 25083,
    "Ġmouse": 4693,
    "Ġexclude": 19041,
    "Ġprovided": 6577,
    "Ġmortifying": 13244,
    "Ġodious": 12148,
    "Ġcreated": 2708,
    "lilies": 20960,
    "Ġgrieve": 14706,
    "garn": 20869,
    "horn": 8085,
    "Ġspec": 1261,
    "Ġmuttering": 10499,
    "Ġmodeling": 2096,
    "ugn": 9377,
    "Ġtell": 1468,
    "Ġfought": 12590,
    "Ġtepid": 26412,
    "Ġaud": 6661,
    "Ġrepaid": 19082,
    "ough": 472,
    "hval": 20897,
    "Ġobjecting": 18896,
    "parad": 16378,
    "disappeared": 14571,
    "Ġrecommending": 24337,
    "Ġinanimate": 13932,
    "Ġlima": 10442,
    "Ġfortifications": 23619,
    "Ġexamples": 2607,
    "Ġrapture": 13495,
    "Ġbusier": 23336,
    "mus": 10110,
    "Ġcomputations": 15997,
    "Ġroaring": 10968,
    "Ġprogrammed": 11057,
    "Ġlocks": 11722,
    "ody": 1478,
    "Ġconflict": 17273,
    "Ġpott": 21465,
    "Ġbreathe": 9011,
    "Ġcalam": 13031,
    "going": 6313,
    "Ġdeparted": 5564,
    "Ġveiled": 16198,
    "ee": 1657,
    "Ġschools": 9476,
    "Ġcharity": 8862,
    "Ġ4": 3990,
    "Ġincites": 22548,
    "Ġflee": 7079,
    "^{": 15303,
    "crimes": 16697,
    "Ġdelic": 4139,
    "Ġicicles": 25264,
    "pretend": 24882,
    "oke": 1860,
    "Ġpaces": 13918,
    "hoisting": 23715,
    "Ġinterpret": 5490,
    "urance": 10857,
    "os": 525,
    "Ġhatch": 7847,
    "impregn": 21711,
    "Ġconnect": 797,
    "Ġobst": 6284,
    "Ġannihil": 10174,
    "Ġthursday": 12641,
    "moor": 22699,
    "ivial": 15860,
    "Ġbison": 21386,
    "Ġloathsome": 13527,
    "ivering": 7697,
    "Ġjacobians": 2895,
    "ĠâĢľ": 516,
    "Ġcontracting": 16009,
    "Ġprofundities": 20452,
    "Ġchange": 1991,
    "Ġpleaded": 16297,
    "Ġanxiety": 5408,
    "Ġmerryweather": 9521,
    "Ġoffspring": 16143,
    "Ġwounded": 8657,
    "Ġengraved": 17081,
    "Ġspin": 7629,
    "Ġ72": 19610,
    "Ġroad": 3883,
    "Ġdevoured": 16134,
    "transformer": 25015,
    "Ġtransformations": 3485,
    "cular": 15327,
    "Ġspouts": 7729,
    "Ġdaint": 15590,
    "Ġprized": 23218,
    "rious": 11687,
    "Ġclean": 5652,
    "Ġknowing": 4457,
    "Ġbelly": 10369,
    "Ġreplace": 14476,
    "consciously": 19624,
    "Ġpillow": 10037,
    "Ġago": 3133,
    "Ġmalignant": 14877,
    "Ġnerves": 2629,
    "Ġwings": 9163,
    "Ġforeheads": 23447,
    "Ġachieved": 13165,
    "Ġsubsisting": 23433,
    "oman": 2016,
    "church": 8139,
    "Ġwore": 6377,
    "conjecturing": 20133,
    "Ġfluttered": 16248,
    "Ġgour": 21595,
    "Ġdismally": 20213,
    "Ġterr": 3270,
    "Ġyou": 366,
    "Ġwrecks": 16818,
    "ediction": 17944,
    "finished": 10554,
    "Ġsuspending": 19243,
    "Ġmanhandle": 22326,
    "Ġconveniences": 19811,
    "Ġtuples": 13476,
    "Ġdimension": 3237,
    "walking": 9981,
    "eneva": 5118,
    "pract": 10119,
    "Ġlikewise": 5386,
    "gloom": 17139,
    "impat": 11202,
    "Ġworn": 6445,
    "Ġcounterpane": 11343,
    "departure": 15233,
    "rices": 4559,
    "Ġsettle": 6293,
    "spike": 16136,
    "Ġcrazed": 19174,
    "ghost": 20886,
    "bweb": 20790,
    "Ġcongratulate": 9063,
    "Ġpaced": 7583,
    "Ġwoodlands": 23520,
    "Ġroundabout": 23057,
    "Ġgratitude": 5599,
    "had": 1947,
    "Ġvale": 14081,
    "oked": 4310,
    "Ġincred": 5646,
    "Ġaberdeen": 26541,
    "Ġsolace": 16197,
    "ier": 1134,
    "Ġappropriated": 23485,
    "kin": 7131,
    "Ġlazarus": 15028,
    "fitting": 1511,
    "Ġscientific": 6857,
    "impenet": 18053,
    "Ġdetect": 1216,
    "Ġeven": 1028,
    "Ġlad": 2365,
    "Ġfurnace": 19438,
    "Ġharness": 17927,
    "Ġreynolds": 10209,
    "zas": 17712,
    "Ġceaseless": 13487,
    "Ġsequ": 982,
    "attain": 21260,
    "Ġextracting": 11114,
    "christian": 17232,
    "Ġpipes": 9846,
    "Ġsne": 6372,
    "reduced": 15803,
    "Ġstrain": 6023,
    "ans": 458,
    "ays": 6683,
    "augh": 1783,
    "Ġfocused": 16338,
    "Ġavenues": 25429,
    "Ġparad": 2845,
    "Ġalco": 21779,
    "Ġbars": 13896,
    "Ġpequod": 2323,
    "Ġceremony": 8360,
    "Ġape": 21195,
    "Ġsubtile": 20378,
    "Ġbedside": 19121,
    "Ġclimbing": 20068,
    "feared": 11800,
    "Ġpreluding": 18368,
    "trade": 19635,
    "Ġacqu": 1416,
    "brevi": 24073,
    "Ġhey": 11640,
    "output": 4402,
    "Ġfills": 12591,
    "mish": 17598,
    "Ġreckoned": 24744,
    "diver": 20830,
    "rocious": 21536,
    "Ġfeminine": 15262,
    "ode": 1453,
    "Ġleaf": 15720,
    "Ġdearly": 10401,
    "Ġindelible": 25694,
    "Ġadvanced": 1502,
    "Ġconsoling": 19455,
    "Ġsobbing": 14133,
    "Ġwhiff": 21715,
    "Ġenter": 4034,
    "stripped": 16945,
    "odecim": 9831,
    "Ġcredulous": 17144,
    "affected": 10476,
    "Ġver": 3395,
    "Ġoftentimes": 20154,
    "Ġanomalously": 25638,
    "Ġbarrier": 16568,
    "Ġunf": 4095,
    "leton": 5148,
    "bohemia": 20730,
    "Ġevid": 3501,
    "ineering": 21978,
    "Ġlocal": 1198,
    "Ġpossessor": 23821,
    "Ġprevent": 758,
    "Ġscand": 7203,
    "Ġconsequently": 8059,
    "lutions": 20949,
    "Ġastonished": 7087,
    "Ġintimacy": 8700,
    "Ġdesire": 3718,
    "Ġintellect": 8169,
    "Ġwhist": 6021,
    "Ġunheeded": 18261,
    "Ġretreat": 6069,
    "prom": 6509,
    "ectual": 21912,
    "handle": 11190,
    "Ġforcibly": 10060,
    "Ġvindictive": 20468,
    "Ġsprinkled": 19495,
    "Ġcomplex": 746,
    "Ġawaited": 17074,
    "Ġportraits": 20141,
    "Ġstrive": 23692,
    "Ġintercept": 14268,
    "gave": 7799,
    "Ġbri": 21376,
    "Ġpiling": 17908,
    "vengeance": 13355,
    "headsman": 16700,
    "Ġaccording": 5508,
    "thirds": 25046,
    "Ġpatch": 4185,
    "Ġnets": 21521,
    "Ġintim": 6838,
    "riving": 21923,
    "Ġtedious": 15266,
    "Ġsemicircular": 26068,
    "killed": 15375,
    "Ġmor": 1249,
    "Ġperformance": 1306,
    "Ġundet": 16704,
    "Ġcottage": 4733,
    "Ġswept": 7977,
    "Ġillustrious": 17109,
    "stuff": 15685,
    "Ġusage": 9729,
    "ofs": 11828,
    "Ġach": 2623,
    "cu": 10083,
    "Ġlif": 10195,
    "flame": 16637,
    "Ġramadans": 25119,
    "Ġdisposal": 19374,
    "despond": 19799,
    "god": 4863,
    "ark": 850,
    "Ġwhirlwinds": 20463,
    "Ġgardiner": 3235,
    "hem": 6663,
    "Ġcooper": 16073,
    "higher": 20405,
    "Ġglided": 7447,
    "mouthed": 12398,
    "Ġrumours": 24598,
    "storm": 9681,
    "Ġdeal": 3607,
    "reception": 15513,
    "Ġblandly": 20322,
    "Ġimmaculate": 19484,
    "ropout": 1321,
    "Ġhomage": 12353,
    "Ġtapering": 8770,
    "damn": 20022,
    "Ġfishing": 9662,
    "buttons": 22398,
    "incess": 15481,
    "Ġcourting": 23289,
    "mon": 2310,
    "Ġhearts": 4972,
    "kill": 13743,
    "Ġexplo": 2287,
    "Ġevol": 2816,
    "Ġdiving": 12598,
    "Ġwaking": 11569,
    "Ġ98": 24593,
    "Ġcustomary": 8669,
    "Ġdaily": 5986,
    "Ġrabb": 4168,
    "Ġger": 21588,
    "Ġerected": 12231,
    "g": 75,
    "we": 849,
    "Ġachieve": 3674,
    "anqu": 4115,
    "Ġdeposit": 17268,
    "fat": 8078,
    "Ġfift": 6382,
    "Ġgamb": 17997,
    "Ġtiller": 8965,
    "rings": 10722,
    "Ġreasoning": 2062,
    "Ġbarbary": 24216,
    "Ġbabes": 24425,
    "hundreds": 25073,
    "Ġmoby": 3666,
    "Ġnaut": 13940,
    "equ": 6790,
    "Ġassum": 4069,
    "Ġtechnique": 2486,
    "Ġconsol": 3818,
    "Ġcalculating": 9924,
    "bestow": 16929,
    "Ġ{": 21151,
    "Ġrazor": 22652,
    "Ġsickle": 24245,
    "Ġwaited": 4908,
    "Ġlizz": 21554,
    "Ġrending": 19465,
    "Ġdug": 21428,
    "empl": 5724,
    "Ġcloset": 19590,
    "Ġthoughts": 3135,
    "comrade": 20623,
    "Ŀ": 256,
    "conven": 6162,
    "hyme": 19608,
    "ishing": 1143,
    "Ġvoracity": 25986,
    "atlantic": 15522,
    "asable": 21538,
    "Ġsouthwards": 19632,
    "Ġilleg": 21615,
    "Ġcasually": 25093,
    "Ġwhelmed": 25999,
    "Ġnewcomers": 26041,
    "Ġflannel": 26577,
    "Ġrampart": 20317,
    "vative": 1630,
    "motives": 26137,
    "Ġdefendants": 15139,
    "Ġcheer": 4071,
    "Ġawkwardness": 13486,
    "ĠĠĠ": 2116,
    "yellow": 9624,
    "ear": 8730,
    "mature": 20966,
    "Ġapparently": 6778,
    "Ġflying": 5413,
    "idy": 21761,
    "Ġflogged": 23623,
    "remained": 8569,
    "Ġabuse": 18392,
    "corners": 17367,
    "Ġshudder": 9050,
    "Ġaccomplishments": 13378,
    "Ġsell": 7825,
    "Ġinj": 4759,
    "Ġroll": 5381,
    "Ġinjunctions": 24269,
    "Ġgoverning": 2797,
    "recognised": 15261,
    "lashed": 20953,
    "queens": 22906,
    "Ġlitter": 19828,
    "Ġbewil": 11656,
    "Ġpersons": 6180,
    "partly": 14602,
    "embraces": 25805,
    "Ġpromoting": 3157,
    "Ġwer": 12549,
    "Ġmarried": 3410,
    "Ġsevent": 18202,
    "Ġliter": 8811,
    "83": 13679,
    "Ġarctic": 12808,
    "whose": 6852,
    "Ġeigen": 4881,
    "rudential": 16709,
    "zeal": 16270,
    "Ġbehooves": 20732,
    "waiter": 24586,
    "cence": 9588,
    "Ġtumult": 7114,
    "Ġillustrative": 25066,
    "Ġown": 1005,
    ".âĢĿ": 464,
    "hetically": 21207,
    "Ġsixteen": 8282,
    "Ġgripping": 26186,
    "Ġambition": 11432,
    "Ġmum": 13857,
    "gon": 17552,
    "Ġpaddington": 17095,
    "alice": 3204,
    "Ġmultiplication": 2873,
    "Ġattempting": 14696,
    "rent": 1168,
    "uce": 11535,
    "Ġpast": 2099,
    "Ġcaution": 11346,
    "Ġdepth": 2441,
    "Ġeluded": 12919,
    "Ġbohem": 8526,
    "gled": 10699,
    "entary": 21564,
    "Ġjungfrau": 15247,
    "Ġdemanded": 8326,
    "Ġpinioned": 21479,
    "pha": 22750,
    "Ġchil": 11749,
    "Ġcorners": 18875,
    ",âĢĿ": 579,
    "Ġamsterdam": 22481,
    "Ġpestilent": 25777,
    "grace": 5846,
    "lac": 17589,
    "orers": 14102,
    "Ġcant": 17824,
    "Ġstruggled": 9904,
    "Ġadjusted": 23457,
    "Ġcalmness": 12090,
    "Ġsnuffing": 25012,
    "Ġfir": 17877,
    "Ġrippling": 17277,
    "Ġsheet": 6262,
    "Ġthirdly": 24143,
    "Ġgangway": 20157,
    "Ġrocked": 12850,
    "Ġiteratively": 3056,
    "keys": 15856,
    "iam": 2510,
    "Ġnegatived": 23045,
    "everything": 6324,
    "Ġprofusion": 23567,
    "Ġfrowning": 13622,
    "kindled": 16660,
    "dishon": 20402,
    "conjectures": 25180,
    "pread": 7419,
    "Ġnavigation": 9992,
    "Ġdesigns": 13013,
    "Ġquestion": 2779,
    "Ġhookah": 16970,
    "befall": 22492,
    "vand": 21107,
    "Ġdictating": 20151,
    "Ġrapturously": 24888,
    "Ġcomes": 3425,
    "precip": 14664,
    "ours": 3429,
    "aders": 21755,
    "inions": 8401,
    "Ġrash": 10898,
    "Ġreplied": 2266,
    "drab": 23895,
    "Ġclap": 10957,
    "aciousness": 18606,
    "Ġ12": 5483,
    "berwell": 22715,
    "locks": 14455,
    "tum": 11531,
    "preference": 22464,
    "Ġvicissitudes": 12417,
    "tenham": 16318,
    "Ġfearful": 6197,
    "Ġmachine": 796,
    "Ġimagine": 3927,
    "Ġscrib": 22285,
    "Ġmaxim": 3082,
    "Ġevalu": 3205,
    "attering": 7418,
    "Ġprovoke": 14825,
    "nigh": 13762,
    "comple": 7441,
    "Ġstubbs": 23293,
    "Ġdates": 6693,
    "indispensable": 14209,
    "Ġjacob": 1897,
    "aggra": 21903,
    "Ġthoroughfares": 26095,
    "rebellum": 26165,
    "ify": 1357,
    "effect": 8603,
    "Ġobsc": 7039,
    "Ġphys": 5653,
    "rer": 3622,
    "Ġunravel": 26214,
    "Ġmississ": 18838,
    "Ġchocks": 13344,
    "Ġteach": 8553,
    "Ġzig": 18742,
    "Ġgregarious": 18964,
    "Ġfix": 2509,
    "Ġvesuvius": 26501,
    "young": 7321,
    "Ġlounging": 10021,
    "Ġsnatched": 10471,
    "Ġcelerity": 17435,
    "remorse": 14465,
    "Ġinfinity": 23279,
    "Ġincorporated": 25711,
    "urmountable": 15278,
    "Ġsluggish": 25890,
    "ela": 21566,
    "Ġleghorn": 13145,
    "Ġclasp": 9743,
    "Ġga": 4446,
    "ë": 172,
    "yden": 21142,
    "Ġchalk": 15931,
    "uttle": 6247,
    "antingly": 22095,
    "Ġmanipulated": 25178,
    "volous": 18595,
    "Ġtread": 9408,
    "lour": 15379,
    "Ġsome": 655,
    "Ġsubord": 22785,
    "confined": 24332,
    "aulding": 11339,
    "Ġthw": 21512,
    "distance": 12150,
    "Ġhealthcare": 8015,
    "Ġadventure": 5980,
    "stem": 572,
    "phants": 9317,
    "Ġmusic": 5268,
    "Ġsides": 4579,
    "Ġcloth": 9742,
    "Ġsisters": 3640,
    "Ġobeisance": 19757,
    "means": 9785,
    "Ġaz": 9629,
    "Ġprofoundly": 16859,
    "learnt": 23543,
    "Ġunusually": 15844,
    "Ġliveliness": 13642,
    "Ġmistake": 6203,
    "sign": 8387,
    "Ġrelationship": 2316,
    "week": 12928,
    "txt": 12513,
    "isely": 4488,
    "Ġsovereign": 10061,
    "Ġarbit": 4650,
    "Ġchasing": 11752,
    "Ġlandsc": 11146,
    "doubtless": 17002,
    "Ġmacro": 25939,
    "ress": 931,
    "ank": 1364,
    "Ġbrain": 2089,
    "Ġii": 7384,
    "Ġ200": 19295,
    "built": 16825,
    "Ġartful": 22603,
    "countryman": 24639,
    "Ġdevotion": 22726,
    "asserted": 22306,
    "ro": 301,
    "Ġor": 436,
    "ais": 8070,
    "urned": 9305,
    "Ġcreations": 18682,
    "Ġcapsized": 20088,
    "Ġcham": 4892,
    "wol": 21121,
    "Ġcabinet": 23859,
    "vulgar": 25918,
    "ris": 9137,
    "Ġcompletely": 4860,
    "fits": 13717,
    "deed": 1520,
    "extinguish": 22768,
    "Ġcertain": 1558,
    "Ġphysical": 7522,
    "adr": 6994,
    "op": 658,
    "paralleled": 14511,
    "pursuit": 20339,
    "Ġenquired": 21937,
    "Ġscrews": 25177,
    "iles": 2863,
    "Ġsocially": 22075,
    "Ġagencies": 18541,
    "Ġlistened": 4469,
    "Ġgrin": 5482,
    "painting": 17046,
    "compar": 14358,
    "Ġimpediments": 26240,
    "Ġstum": 21728,
    "Ġafforded": 8028,
    "Ġpurpose": 2709,
    "currents": 23842,
    "Ġmisery": 3817,
    "Ġhelp": 1640,
    "Ġanger": 5442,
    "Ġare": 527,
    "Ġsteersman": 13039,
    "Ġbingleys": 18995,
    "Ġpictures": 5503,
    "Ġtransc": 12861,
    "mass": 12487,
    "Ġhysterical": 26092,
    "involved": 25626,
    "Ġphase": 14470,
    "sust": 15421,
    "Ġoily": 13863,
    "Ġnodes": 1966,
    "awned": 19458,
    "sensible": 20050,
    "Ġanalog": 12609,
    "Ġmetropol": 11142,
    "Ġrank": 6258,
    "Ġdy": 2501,
    "Ġvines": 12748,
    "Ġwept": 7184,
    "dron": 17525,
    "Ġdistorted": 14249,
    "terdam": 18129,
    "Ġconquer": 14026,
    "Ġanxious": 4518,
    "Ġvirtual": 11240,
    "Ġappo": 8498,
    "while": 2937,
    "allied": 7410,
    "Ġsource": 6805,
    "Ġtender": 5753,
    "Ġdrawings": 14721,
    "mies": 20967,
    "glance": 16587,
    "Ġfren": 10805,
    "Ġsubsided": 14550,
    "Ġguidance": 9416,
    "Ġlost": 2637,
    "pall": 17628,
    "Ġshifted": 14106,
    "ma": 1150,
    "Ġacquiring": 2768,
    "Ġcomprise": 18583,
    "Ġwine": 6810,
    "Ġjug": 12832,
    "Ġcarn": 17821,
    "Ġburns": 16522,
    "absurd": 21792,
    "Ġcorrespondence": 10594,
    "Ġcalifornia": 20528,
    "!)": 10068,
    "omist": 21635,
    "Ġdost": 7636,
    "Ġhilariously": 25450,
    "serpent": 16290,
    "Ġbeck": 14008,
    "Ġfluctuations": 5516,
    "Ġexchanging": 18131,
    "rigged": 17062,
    "Ġinvent": 7164,
    "Ġpacket": 14892,
    "ected": 7872,
    "spond": 5567,
    "onious": 15517,
    "oration": 2211,
    "unteered": 26495,
    "Ġreaching": 7303,
    "Ġrepose": 6741,
    "Ġnick": 21520,
    "Ġcorpusants": 13676,
    "ather": 739,
    "Ġsin": 1515,
    "Ġgaunt": 11268,
    "rically": 15416,
    "hist": 7130,
    "Ġsnap": 11201,
    "Ġsurvey": 13592,
    "Ġrush": 5924,
    "brad": 20780,
    "bered": 4504,
    "Ġneighbour": 3810,
    "utely": 8131,
    "Ġinsects": 25646,
    "luding": 6700,
    "brow": 15314,
    "swimming": 24258,
    "ome": 535,
    "Ġcocks": 18591,
    "serv": 7451,
    "Ġbounce": 21391,
    "encoura": 15048,
    "Ġde": 364,
    "Ġfade": 21405,
    "fowl": 17549,
    "crawling": 16958,
    "puted": 8845,
    "Ġsophisticated": 1513,
    "Ġremarks": 7474,
    "Ġx": 2075,
    "paws": 21028,
    "Ġcraven": 16468,
    "Ġfrosts": 19801,
    "icide": 11617,
    "Ġcandidate": 16701,
    "leagued": 26435,
    "Ġlend": 17962,
    "Ġinher": 10179,
    "arus": 13911,
    "leeward": 15209,
    "Ġrichness": 19310,
    "Ġrooms": 5180,
    "Ġbodies": 8031,
    "Ġimbalance": 22171,
    "Ġmapple": 11150,
    "vels": 5432,
    "Ġlubber": 17443,
    "aly": 1117,
    "formality": 22214,
    "Ġmarbles": 18872,
    "Ġcruis": 14624,
    "waist": 13417,
    "Ġaccident": 5380,
    "Ġvect": 1223,
    "Ġloud": 4700,
    "spring": 7231,
    "Ġoarsman": 8637,
    "Ġrefuse": 5739,
    "houses": 9599,
    "nants": 17613,
    "bo": 1687,
    "guest": 19480,
    "Ġexacted": 23602,
    "Ġbal": 1131,
    "Ġfaire": 13363,
    "ices": 2137,
    "Ġrequires": 1012,
    "whaleman": 23434,
    "Ġinvolve": 11043,
    "Ġrows": 10561,
    "irwin": 8468,
    "significant": 25082,
    "Ġzero": 1200,
    "vering": 15713,
    "Ġsinews": 20286,
    "Ġstrove": 9956,
    "Ġdiffused": 12066,
    "Ġarab": 7823,
    "Ġglaciers": 20172,
    "Ġalternative": 19985,
    "pivot": 21030,
    "Ġreddening": 25970,
    "Ġamerican": 5061,
    "vint": 21113,
    "Ġgamming": 25542,
    "Ġinquiring": 8999,
    "Ġoutriders": 26543,
    "Ġglowing": 12280,
    "invari": 21183,
    "accepting": 20134,
    "belong": 12120,
    "Ġexisting": 12715,
    "peace": 13046,
    "Ġinevitable": 15166,
    "simultaneously": 19863,
    "Ġloadstone": 25816,
    "Ġsuggestion": 19706,
    "Ġcircumference": 13544,
    "urn": 775,
    "Ġdiscern": 7925,
    "Ġniagara": 26458,
    "bingleys": 19633,
    "hook": 12051,
    "taking": 5689,
    "Ġtire": 17720,
    "atched": 6375,
    "hastened": 16845,
    "Ġdisregarded": 22527,
    "atra": 17771,
    "Ġmarriage": 3183,
    "irably": 13294,
    "doors": 19094,
    "Ġincess": 8430,
    "Ġcraggy": 23528,
    "Ġbrew": 23342,
    "belais": 24035,
    "Ġfashionable": 19543,
    "paint": 21017,
    "Ġmout": 17798,
    "itement": 7835,
    "Ġshops": 21998,
    "Ġloth": 17965,
    "Ġdiffidence": 14659,
    "really": 6971,
    "Ġfancying": 12110,
    "Ġser": 1668,
    "Ġprobed": 18732,
    "Ġxxi": 24476,
    "Ġevermore": 18811,
    "Ġhundred": 2695,
    "Ġvolition": 14797,
    "blocks": 25517,
    "Ġthieves": 15633,
    "Ġdeftly": 26493,
    "Ġderive": 10394,
    "Ġ118": 19697,
    "Ġexpans": 18621,
    "Ġmanhood": 22323,
    "Ġtort": 5901,
    "Ġdecanting": 22440,
    "Ġbressed": 21385,
    "kward": 6958,
    "Ġcaliforn": 14430,
    "Ġcoincidence": 25483,
    "Ġgaiety": 16749,
    "Ġpave": 8799,
    "cre": 4253,
    "Ġdarcy": 1343,
    "Ġangular": 19206,
    "mp": 3728,
    "¬": 110,
    "Ġtreacherous": 13553,
    "Ġvenetian": 14846,
    "ado": 11657,
    "lucky": 24545,
    "10": 17472,
    "greg": 6647,
    "Ġpreposter": 12819,
    "crossed": 16632,
    "Ġforster": 5230,
    "function": 3982,
    "uary": 11537,
    "Ġsince": 1797,
    "beh": 5472,
    "led": 580,
    "Ġgrizz": 10351,
    "Ġcount": 1816,
    "Ġgips": 10841,
    "Ġmysteries": 11322,
    "Ġimputed": 12805,
    "superiority": 20184,
    "sounded": 12264,
    "ler": 3491,
    "estation": 15918,
    "princ": 8620,
    "cooee": 12416,
    "Ġvague": 6406,
    "Ġtren": 17721,
    "Ġworsh": 12997,
    "nep": 20985,
    "Ġradiance": 13369,
    "oton": 3606,
    "Ġconveys": 16855,
    "Ġextraction": 11253,
    "ĠâĢĺ": 1631,
    "Ġsternly": 16715,
    "atters": 18483,
    "performed": 18344,
    "vineyard": 25421,
    "Ġvaguely": 17365,
    "imprudent": 14651,
    "Ġhorrible": 4905,
    "Ġimpossibility": 20646,
    "cross": 3575,
    "Ġmicha": 17811,
    "Ġsperma": 19050,
    "Ġtormenting": 15103,
    "vicious": 21117,
    "Ġmid": 2618,
    "Ġsturgeon": 20590,
    "apt": 734,
    "Ġinnocence": 6477,
    "ils": 3177,
    "Ġpenetrated": 13471,
    "calculation": 25688,
    "Ġtarpaul": 17730,
    "Ġdeed": 7867,
    "Ġgreenhorn": 23767,
    "homely": 25617,
    "thern": 4953,
    "Ġflor": 8561,
    "Ġwashes": 21858,
    "Ġgener": 581,
    "Ġrecommendation": 17025,
    "Ġwonders": 7500,
    "darker": 24516,
    "moil": 22700,
    "aping": 8193,
    "Ġsequentially": 4914,
    "Ġspace": 1534,
    "Ġgloves": 8574,
    "Ġtrip": 16788,
    "Ġtuning": 3070,
    "simply": 20669,
    "Ġextraordinary": 5414,
    "Ġy": 341,
    "rously": 17654,
    "bour": 2074,
    "Ġinsect": 12633,
    "Ġbehavior": 8001,
    "Ġencapsulate": 13673,
    "Ġclam": 7416,
    "Ġlobsters": 13516,
    "terbury": 21821,
    "cruise": 24841,
    "Ġseren": 7401,
    "avating": 18605,
    "Ġservox": 23868,
    "Ġwarn": 5695,
    "Ġunbelief": 22046,
    "Ġscant": 22282,
    "Ġspoon": 22131,
    "Ġconvalescence": 23745,
    "Ġmetropolitan": 17275,
    "Ġsidelong": 11438,
    "justine": 7682,
    "Ġforming": 7042,
    "Ġsty": 6251,
    "holmes": 4431,
    "hmael": 7342,
[...]
