{
  "metadata": {
    "vocab_size": 26613,
    "algorithm": "BPE",
    "created_at": "2026-05-29 06:12:18",
    "special_tokens": [
      "<PAD>",
      "<SOS>",
      "<EOS>",
      "<UNK>",
      "<MASK>"
    ]
  },
  "vocab": {
    "irwin": 8468,
    "Ġarchitecture": 1105,
    "Ġpoltroon": 26597,
    "ladyship": 14827,
    "entric": 11618,
    "wandering": 20283,
    "Ġcommunion": 19004,
    "Ġringed": 16748,
    "Ġrested": 9379,
    "Ġcleaned": 23177,
    "Ġcertainty": 6734,
    "``": 15304,
    "halfway": 24310,
    "Ġtus": 10750,
    "Ġkne": 4265,
    "Ġdedu": 5585,
    "Ġtex": 15470,
    "Ġparad": 2845,
    "Ġupdating": 2690,
    "Ġvibration": 17097,
    "jewell": 25522,
    "Ġep": 7384,
    "Ġabed": 22261,
    "Ġuttered": 7280,
    "Ġwrench": 12553,
    "Ġdevelopments": 23238,
    "Ġhardware": 4904,
    "Ġplayed": 9416,
    "Ġplainer": 23702,
    "estate": 12817,
    "Ġlimped": 19178,
    "Ġmatches": 14393,
    "Ġcrying": 10787,
    "Ġburnt": 9928,
    "Ġph": 1545,
    "lay": 5890,
    "Ġutility": 23512,
    "Ġquaker": 10972,
    "Ġmis": 917,
    "iz": 365,
    "dish": 12449,
    "silly": 24421,
    "Ġsub": 950,
    "Ġexquisitely": 20201,
    "Ġprec": 2921,
    "steam": 23956,
    "Ġjungfrau": 15246,
    "Ġwritten": 4167,
    "despicable": 24635,
    "Ġconfluent": 19038,
    "persu": 8027,
    "Ġane": 9181,
    "Ġvelv": 10620,
    "Ġslip": 8954,
    "hard": 4690,
    "Ġvillage": 5774,
    "ro": 301,
    "Ġcrushing": 20175,
    "Ġsake": 4091,
    "rue": 1130,
    "Ġcongratulations": 10581,
    "odes": 18117,
    "Ġequinox": 25855,
    "Ġweaving": 12736,
    "until": 6596,
    "Ġpropriet": 9550,
    "Ġpiled": 8424,
    "imodal": 17445,
    "Ġindignation": 8346,
    "Ġtiara": 26414,
    "swaying": 25909,
    "©": 107,
    "Ġattached": 5392,
    "Ġvesuvius": 26500,
    "Ġwave": 7575,
    "Ġemploy": 3613,
    "Ġgaiters": 20458,
    "useful": 16501,
    "projecting": 26072,
    "Ġdetained": 18370,
    "Ġcomplimented": 14902,
    "Ġsteam": 9353,
    "acle": 4716,
    "rudent": 6482,
    "revol": 12536,
    "Ġcrime": 4617,
    "Ġlighten": 23255,
    ";âĢĻ": 15300,
    "Ġopposite": 5120,
    "Ġartist": 12908,
    "Ġforth": 3460,
    "Ġheight": 4219,
    "Ġdisplays": 19854,
    "prevent": 11792,
    "justified": 18999,
    "gover": 10703,
    "Ġnorton": 12645,
    "nearest": 16018,
    "waist": 13416,
    "Ġconvolutional": 2162,
    "attoo": 6807,
    "disguise": 26305,
    "def": 1451,
    "Ġpequod": 2322,
    "asted": 4650,
    "Ġabiding": 22266,
    "Ġspy": 22119,
    "Ġbethink": 12376,
    "Ġcoffin": 4427,
    "rear": 21230,
    "Ġmizzen": 20288,
    "Ġmeant": 3547,
    "ims": 7176,
    "Ġsurviv": 13433,
    "arth": 4443,
    "'m": 9583,
    "autumn": 23340,
    "Ġreflected": 2911,
    "Ġweight": 658,
    "gigantic": 15357,
    "Ġ77": 24262,
    "guest": 19478,
    "Ġcritical": 7475,
    "Ġsomnambul": 26575,
    "Ġmechanisms": 1571,
    "pounds": 21023,
    "Ġinteraction": 7424,
    "Ġincess": 8430,
    "horse": 8605,
    "weigh": 18663,
    "Ġceleb": 20224,
    "Ġceasing": 23755,
    "Ġfeet": 2258,
    "Ġastr": 15492,
    "Ġministers": 22828,
    "Ġarist": 14158,
    "Ġcopied": 20004,
    "Ġpitiless": 19384,
    "gave": 7799,
    "Ġdeeps": 16109,
    "Ġdefines": 1743,
    "Ġdolph": 12377,
    "Ġassistant": 7298,
    "ally": 529,
    "Ġweep": 7619,
    "Ġvariously": 18651,
    "Ġoverspread": 14205,
    "Ġclinging": 10292,
    "Ġoptimize": 1605,
    "Ġunobstructed": 18259,
    "fulness": 4308,
    "pets": 17634,
    "conv": 7213,
    "swim": 16777,
    "Ġdominion": 16526,
    "Ġbreaches": 14520,
    "architect": 22891,
    "Ġunwilling": 7884,
    "Ġ27": 8614,
    "Ġcalcul": 3635,
    "widely": 25342,
    "Ġubiqu": 18044,
    "Ġstrikes": 13179,
    "À": 129,
    "allions": 22194,
    "eronomy": 15522,
    "hs": 8377,
    "Ġsuggests": 12197,
    "iage": 17571,
    "Ġspeak": 2229,
    "ingu": 2118,
    "Ġlump": 21548,
    "thorough": 21981,
    "oblivious": 26581,
    "puted": 8845,
    "Ġtruck": 19508,
    "Ġjoppa": 12033,
    "exp": 2737,
    "Ġcaroline": 7255,
    "Ġfowls": 8690,
    "Ġmythologies": 26212,
    "Ġtake": 1573,
    "Ġabsolute": 6765,
    "Ġrich": 2995,
    "turns": 14904,
    "Ġcould": 703,
    "Ġwall": 3841,
    "Ġtongue": 6347,
    "book": 4670,
    "Ġbubblingly": 25631,
    "Ġhorrors": 10480,
    "surprised": 9531,
    "Ġsine": 10764,
    "arp": 2027,
    "Ġparac": 12791,
    "Ġskipper": 22794,
    "Ġbordered": 24562,
    "smug": 23904,
    "Ġthenceforth": 25181,
    "Ġhalf": 1671,
    "Ġsurvived": 14932,
    "perpetually": 20510,
    "prehensible": 12357,
    "Ġadmit": 7710,
    "Ġperceptible": 18449,
    "Ġrollicking": 24450,
    "Ġarctic": 12807,
    "perquis": 22186,
    "Ġcarpet": 9356,
    "Ġderivatives": 2373,
    "bestow": 16927,
    "Ġcolours": 12970,
    "coat": 5407,
    "Ġcrammed": 16469,
    "Ġtrials": 16787,
    "Ġdenial": 13212,
    "Ġweighed": 8710,
    "frankenstein": 11392,
    "Ġbefore": 810,
    "alf": 4639,
    "Ġplaint": 10326,
    "Ġleaned": 7607,
    "Ġchar": 1702,
    "Ġpist": 12611,
    "horizon": 23614,
    "many": 5250,
    "Ġcomputations": 15995,
    "alcul": 15624,
    "Ġribs": 7102,
    "complied": 19910,
    "meryton": 10112,
    "Ġfewer": 16221,
    "rr": 17648,
    "Ġnaturalists": 10362,
    "three": 5239,
    "shelf": 20378,
    "Ġ180": 16604,
    "preservation": 25304,
    "meaning": 2910,
    "Ġting": 8397,
    "Ġcompliance": 12111,
    "ivered": 7006,
    "Ġconn": 9229,
    "ampled": 18881,
    "engaged": 7452,
    "collecting": 26080,
    "ieth": 10705,
    "Ġwholesome": 16002,
    "astern": 8581,
    "iliating": 12691,
    "Ġspaces": 3112,
    "Ġbloody": 9889,
    "bitts": 26121,
    "Ġtol": 6675,
    "Ġpromise": 4196,
    "Ġrefresh": 10343,
    "Ġclo": 6042,
    "utted": 15657,
    "ence": 392,
    "jol": 20923,
    "sentence": 2940,
    "Ġhedge": 8363,
    "Ġsideboard": 10386,
    "Ġlottery": 19885,
    "Ġcompetition": 14265,
    "banked": 25336,
    "Ġmanipulated": 25177,
    "ential": 824,
    "Ġtogether": 1879,
    "Ġneatness": 19929,
    "vinegar": 25419,
    "Ġunconscious": 9547,
    "âĢĿ;": 11668,
    "Ġimputable": 22169,
    "pening": 2835,
    "offered": 14515,
    "Ġbelow": 4062,
    ";âĢĿâĢĶ": 20758,
    "inte": 5144,
    "Ġaffright": 9332,
    "direful": 25895,
    "Ġtortoise": 16906,
    "Ġspir": 2431,
    "afraid": 10442,
    "Ġthan": 736,
    "Ġquest": 2002,
    "oyed": 14363,
    "desk": 23204,
    "Ġfrederick": 15583,
    "Ġdeserts": 10508,
    "Ġsentinel": 26064,
    "Ġtrappers": 23078,
    "thrown": 8480,
    "Ġascertained": 25295,
    "Ġturnkeys": 23028,
    "ery": 1270,
    "Ġmodern": 3227,
    "Ġethiop": 26154,
    "Ġinflicted": 11366,
    "ulia": 18146,
    "mselves": 2864,
    "Ġeffaced": 18539,
    "Ġpar": 456,
    "Ġrepetition": 8972,
    "convolutional": 4958,
    "Ġfors": 21767,
    "carried": 16709,
    "Ġprefers": 20511,
    "Ġshuddered": 11301,
    "Ġdepend": 776,
    "Ġparties": 7039,
    "Ġaccordingly": 6619,
    "Ġstroke": 6936,
    "Ġadvoc": 12984,
    "Ġemac": 16404,
    "Ġcanals": 22161,
    "scales": 22990,
    "attracted": 13047,
    "Ġjaws": 5593,
    "Ġ30": 10512,
    "Ġmusical": 23890,
    "jacket": 12289,
    "Ġ182": 13234,
    "Ġdirectors": 18919,
    "Ġnarrowed": 24354,
    "Ġdisobey": 18557,
    "ly": 319,
    "confid": 14865,
    "ribed": 7692,
    "bber": 4569,
    "Ġdiscover": 4718,
    "Ġbasket": 9573,
    "gro": 10095,
    "apsed": 6295,
    "ushes": 22287,
    "Ġstained": 11651,
    "canallers": 22960,
    "Ġmemory": 2276,
    "Ġpreventing": 883,
    "Ġgentlemen": 3640,
    "rels": 6664,
    "ccas": 15882,
    "Ġsupp": 1265,
    "Ġinherit": 25351,
    "for": 954,
    "ball": 7792,
    "sam": 21049,
    "xible": 13806,
    "Ġdiverged": 23593,
    "cst": 10085,
    "generations": 23783,
    "dishonourable": 26364,
    "Ġroom": 1462,
    "Ġsmall": 893,
    "Ġcrucial": 9893,
    "Ġfacil": 16960,
    "company": 9461,
    "Ġharness": 17925,
    "grandfather": 25008,
    "Ġcoils": 9303,
    "Ġannoy": 17197,
    "between": 5071,
    "Ġnot": 413,
    "ĸ": 249,
    "ios": 2265,
    "stolidity": 21659,
    "must": 3575,
    "Ġprophe": 13076,
    "rannical": 26400,
    "Ġimaginations": 16514,
    "Ġloaf": 15868,
    "rigged": 17060,
    "ears": 20843,
    "ergy": 2361,
    "congreg": 25397,
    "Ġhunks": 18933,
    "Ġspread": 5161,
    "flying": 13719,
    "utral": 12659,
    "heavens": 19742,
    "hidden": 17369,
    "Ġconsecrate": 26488,
    "Ġheroism": 24543,
    "Ġtrunk": 7205,
    "Ġmutters": 23952,
    "Ġdri": 2363,
    "isms": 12576,
    "Ġdoctors": 12148,
    "Ġvalued": 12179,
    "Ġgirdle": 19154,
    "Ġcompasses": 11268,
    "uberance": 25915,
    "Ġascended": 8665,
    "base": 20775,
    "Ġeastward": 13388,
    "Ġbead": 21746,
    "Ġgrat": 4057,
    "Ġsultry": 20287,
    "Ġdoom": 6417,
    "united": 14058,
    "Ġfoul": 7160,
    "Ġempty": 5353,
    "Ġlower": 2662,
    "Ġconcussion": 26299,
    "Ġstrolled": 16768,
    "Ġdot": 4820,
    "Ġdaggoo": 5441,
    "Ġcrags": 23526,
    "Ġsmothe": 18571,
    "Ġhuzza": 12629,
    "Ġmish": 15534,
    "Ġmillions": 11355,
    "Ġix": 12664,
    "err": 1142,
    "affairs": 14655,
    "Ġsymptoms": 8704,
    "na": 13758,
    "surv": 24212,
    "robust": 19725,
    "Ġcarr": 23087,
    "persons": 24171,
    "lance": 12478,
    "Ġhyp": 3872,
    "stall": 21642,
    "iries": 18167,
    "Ġregarding": 13206,
    "icking": 8910,
    "Ġmysterious": 7527,
    "Ġfert": 15578,
    "odox": 21812,
    "Ě": 219,
    "any": 3337,
    "Ġnieces": 8432,
    "Ġrelease": 19287,
    "vi": 2377,
    "magnitude": 17247,
    "Ġstockings": 19993,
    "difficulty": 12387,
    "Ġrumours": 24597,
    "Ġmasks": 23325,
    "metals": 24765,
    "ications": 4445,
    "Ġdreamed": 16627,
    "whose": 6852,
    "Ġconstable": 19068,
    "Ġalternating": 15029,
    "infor": 2963,
    "Ġdiscoursing": 26265,
    "Ġclicked": 22348,
    "Ġgallery": 10525,
    "Ġdestination": 19147,
    "Ġbreakers": 12052,
    "Ġphysiogn": 12385,
    "Ġbakers": 17864,
    "Ġknights": 15147,
    "Ġhoops": 9389,
    "which": 1706,
    "Ġbrotherly": 16525,
    "Ġwonderful": 4564,
    "Ġspite": 4155,
    "ron": 5216,
    "ile": 520,
    "collect": 16561,
    "Ġtrampled": 20327,
    "Ġunappalled": 22057,
    "Ġhurrying": 11992,
    "Ġire": 12665,
    "Ġstung": 21734,
    "Ġraiment": 22648,
    "Ġfulf": 6772,
    "2": 22,
    "Ġdisputing": 25823,
    "Ġhind": 9188,
    "Ġupd": 947,
    "consternation": 16910,
    "usion": 3301,
    "Ġlandlady": 10423,
    "Ġeel": 17999,
    "super": 5942,
    "Ġcranes": 20380,
    "pans": 13768,
    "Ġignor": 4013,
    "Ġpaste": 23416,
    "Ġraft": 16112,
    "Ġauthorized": 16733,
    "Ġrude": 7234,
    "Ġanyways": 22516,
    "prejudiced": 17295,
    "Ġ4": 3988,
    "Ġcanoe": 9723,
    "desper": 13066,
    "mp": 3727,
    "Ġreinforcement": 3240,
    "Ġunflinching": 26511,
    "Ġcontr": 1916,
    "ger": 1107,
    "reeable": 3610,
    "Ġatom": 18190,
    "evenings": 19459,
    "Ġabsurdities": 24877,
    "Ġhappiest": 11879,
    "Ġjem": 18400,
    "Ġwhose": 2009,
    "Ġdeserving": 14751,
    "covery": 11172,
    "stepfather": 19187,
    "Ġseas": 3077,
    "Ġcousins": 9915,
    "icting": 12847,
    "overcoat": 19049,
    "Ġexcavating": 23312,
    "illing": 8174,
    "Ġhandsomer": 20332,
    "helm": 12168,
    "Ġunexpected": 6841,
    "Ġyelled": 9694,
    "Ġpig": 5705,
    "Ġapothecary": 13657,
    "Ġslumbers": 18939,
    "cig": 17501,
    "Ġaccommod": 14211,
    "ernity": 18616,
    "relu": 17757,
    "Ġfrigate": 13079,
    "Ġsatir": 18792,
    "laid": 10110,
    "Ġobtained": 7432,
    "beheld": 11798,
    "Ġinseparable": 20686,
    "interests": 19705,
    "Ġsplashed": 23746,
    "Ġpark": 5465,
    "ivance": 22072,
    "Ġlounging": 10022,
    "eck": 20842,
    "Ġarranging": 11175,
    "Ġvariance": 1169,
    "linked": 17591,
    "inv": 8400,
    "heredit": 21207,
    "Ġconsisting": 8971,
    "Ġassured": 4369,
    "squ": 7809,
    "Ġcommit": 18653,
    "Ġhorses": 6385,
    "Ġbelieving": 8224,
    "gunwale": 20661,
    "Ġcommendation": 13608,
    "ram": 13970,
    "Ġhanged": 17922,
    "smile": 23902,
    "ouement": 21445,
    "Ġdrunken": 12047,
    "case": 5206,
    "Ġfoundering": 21416,
    "Ġedges": 3824,
    "Ġdistinguish": 2727,
    "aries": 6244,
    "Ġjoist": 19228,
    "Ġmurmured": 7480,
    "Ġconjugal": 25100,
    "Ġdeclare": 6614,
    "Ġlikeness": 11180,
    "viv": 17696,
    "Ġnocturnal": 20713,
    "Ġnatural": 1110,
    "Ġdiscovering": 13355,
    "ensions": 14257,
    "Ġround": 1370,
    "Ġbrine": 18767,
    "Ġrelationship": 2315,
    "Ġflurry": 18858,
    "Ġreminded": 9999,
    "etuous": 21579,
    "german": 11492,
    "windward": 24156,
    "Ġpink": 12614,
    "Ġside": 1388,
    "amid": 12720,
    "ada": 14009,
    "Ġquiescent": 26241,
    "bouton": 17499,
    "ur": 326,
    "Ġlodges": 19496,
    "Ġbildad": 3781,
    "Ġrecre": 22733,
    "embed": 18185,
    "Ġtim": 4579,
    "belated": 24033,
    "grampus": 18615,
    "solely": 19813,
    "Ġcharles": 11954,
    "tolerable": 17686,
    "Ġvastly": 23857,
    "angry": 18292,
    "wood": 5897,
    "Ġdecomp": 3810,
    "Ġunjustifiable": 25108,
    "Ġconcentrate": 25062,
    "Ġ16": 7926,
    "iousness": 4899,
    "Ġsteeple": 19284,
    "score": 18854,
    "cater": 20813,
    "Ġimperfectly": 25726,
    "illating": 22103,
    "Ġstil": 15714,
    "Ġfascinated": 25634,
    "Ġexhausting": 24709,
    "Ġneedless": 19226,
    "Ġmien": 17806,
    "Ġdenoted": 16563,
    "Ġpractice": 2797,
    "Ġful": 4295,
    "Ġpassenger": 14367,
    "Ġcommonplaces": 16285,
    "hour": 7340,
    "Ġprofundities": 20451,
    "Ġflitting": 13022,
    "inclination": 20054,
    "broad": 8642,
    "presented": 12988,
    "pertaining": 22184,
    "Ġbouton": 17866,
    "girdling": 26388,
    "è": 169,
    "Ġcurbstone": 26042,
    "Ġlegendary": 20535,
    "Ġfurniture": 6476,
    "Ġstall": 12692,
    "Ġanguish": 5583,
    "Ġpresumption": 10546,
    "Ġrejoined": 14925,
    "Ġsympt": 7013,
    "expl": 9283,
    "Ġz": 997,
    "comfortableness": 24524,
    "arcy": 1275,
    "polar": 24582,
    "ibbald": 18839,
    "Ġcompletion": 12144,
    "Ġcorruption": 15223,
    "onet": 12541,
    "Ġmagg": 18903,
    "Ġlabour": 7274,
    "](": 11467,
    "Ġhenry": 5197,
    "Ġ106": 24413,
    "Ġfoster": 18988,
    "Ġtho": 21510,
    "Ġgoverness": 8601,
    "Ġbands": 14882,
    "Ġdi": 6525,
    "Ġhast": 3153,
    "Ġreadability": 2725,
    "Ġexceedingly": 4615,
    "Ġastern": 6090,
    "Ġanalog": 12608,
    "aths": 22695,
    "warp": 17704,
    "mitting": 17600,
    "decided": 13213,
    "rid": 5137,
    "Ġcle": 1510,
    "creatures": 7517,
    "roofed": 26182,
    "ography": 13360,
    "ned": 3489,
    "._": 3219,
    "opposing": 24824,
    "necessities": 24305,
    "Ġgone": 2106,
    "Ġadvertising": 25388,
    "Ġdevils": 7230,
    "iling": 3093,
    "Ġspasmodically": 17312,
    "Ġradiant": 16807,
    "Ġcasualties": 25511,
    "Ġpermit": 9749,
    "Ġhair": 3313,
    "Ġconstrain": 2630,
    "®": 111,
    "Ġways": 5396,
    "Ġexerted": 15751,
    "bree": 15312,
    "Ġgrec": 18960,
    "Ġtyphoons": 20233,
    "Ġnations": 8809,
    "expanded": 23661,
    "Ġformula": 2867,
    "Ġcorrupt": 11920,
    "Ġequator": 7462,
    "Ġdogs": 7741,
    "Ġrigged": 16715,
    "Ġleadenhall": 16626,
    "pron": 9005,
    "walk": 5523,
    "Ġpompous": 20420,
    "Ġbearded": 15723,
    "Ġaim": 10146,
    "d": 72,
    "Ġtelescope": 17346,
    "raved": 18010,
    "Ġcollectively": 19964,
    "etymology": 14699,
    "Ġmout": 17796,
    "sprinkling": 24911,
    "Ġchiswick": 25559,
    "Ġsanely": 24979,
    "Ġunfailing": 24108,
    "cen": 17500,
    "Ġ134": 24783,
    "Ġbats": 13898,
    "Ġadroop": 26000,
    "Ġmachinations": 25766,
    "Ġmak": 10779,
    "overed": 2856,
    "Ġvancou": 22871,
    "ply": 6366,
    "Ġpenal": 1775,
    "Ġvolcano": 24143,
    "cham": 10854,
    "avers": 17478,
    "Ġcoasts": 12160,
    "Ġinvitation": 5189,
    "Ġending": 18187,
    "Ġunsocial": 18251,
    "Ġprouder": 18971,
    "browed": 25893,
    "mou": 10709,
    "specim": 23940,
    "Ġfowl": 11331,
    "Ġtry": 3135,
    "ent": 305,
    "ource": 5244,
    "Ġsec": 2075,
    "orous": 5292,
    "Ġ37": 24074,
    "Ġvote": 21943,
    "bethinking": 25744,
    "Ġpugn": 21477,
    "Ġdist": 680,
    "won": 7145,
    "tie": 21066,
    "arken": 18665,
    "vision": 5620,
    "need": 10980,
    "Ġdinners": 23978,
    "Ġclassify": 1624,
    "abbering": 21792,
    "Ġloomed": 12298,
    "Ġletter": 2197,
    "alarmed": 21499,
    "Ġdelight": 2549,
    "antically": 22092,
    "Ġtalent": 12294,
    "utional": 17981,
    "shed": 8094,
    "Ġsuperior": 2753,
    "Ġmarsh": 9821,
    "youn": 5690,
    "Ġwinking": 17791,
    "earthquakes": 24724,
    "Ġowner": 8921,
    "Ġnavies": 16898,
    "Ġbucket": 8787,
    "Ġheavily": 6740,
    "Ġimprecations": 25819,
    "ructive": 18527,
    "mantel": 26393,
    "twas": 15435,
    "adamite": 20590,
    "Ġtolerable": 6949,
    "Ġdemeanour": 17335,
    "Ć": 199,
    "frequented": 25899,
    "Ġmild": 4146,
    "exception": 9976,
    "Ġyielding": 12183,
    "Ġwinged": 16993,
    "fee": 12876,
    "gods": 13364,
    "ralian": 19597,
    "Ġflock": 21408,
    "regarding": 15069,
    "illum": 15865,
    "Ġtrivial": 10143,
    "Ġorgans": 15861,
    "Ġload": 14144,
    "Ġarmada": 23579,
    "Ġtraversed": 18890,
    "Ġvest": 8162,
    "Ġdined": 9176,
    "Ġentropy": 2031,
    "height": 21203,
    "few": 8203,
    "Ġmerited": 23728,
    "Ġindication": 22948,
    "Ġperth": 7023,
    "ckled": 9256,
    "Ġdetested": 14173,
    "impregn": 21710,
    "Ġcriminals": 19919,
    "Ġdespondence": 25868,
    "robustness": 26337,
    "diminished": 20837,
    "Ġregulate": 22571,
    "kn": 5791,
    "Ġangel": 4852,
    "Ġcomplied": 14732,
    "isp": 5528,
    "ouch": 2780,
    "definition": 23114,
    "Ġkeels": 11061,
    "Ġjulia": 22298,
    "acting": 22626,
    "Ġgliding": 8560,
    "Ġsciences": 15940,
    "vens": 21110,
    "hailed": 17563,
    "ignant": 11130,
    "Ġkey": 2101,
    "Ġponderous": 8354,
    "Ġknighthood": 25296,
    "influence": 13576,
    "erpillar": 5797,
    "Ġapologies": 25195,
    "Ġwarring": 16863,
    "Ġvice": 6548,
    "Ġporing": 21464,
    "arat": 9180,
    "Ġtraverse": 18889,
    "Ġfretfully": 25446,
    "Ġwilderness": 14838,
    "Ġpilgrimage": 17306,
    "Ġpresentation": 14479,
    "Ġallowance": 14387,
    "Ġestate": 6316,
    "Ġzoology": 22817,
    "alliance": 22196,
    "advance": 12153,
    "----": 4058,
    "stretched": 10208,
    "Ġpauper": 26178,
    "roused": 16650,
    "Ġdripping": 13145,
    "advise": 24216,
    "avor": 14275,
    "Ġpowerful": 1511,
    "ulum": 21859,
    "Ġgrave": 5100,
    "Ġphilips": 5410,
    "streamed": 25965,
    "Ġding": 12595,
    "iration": 4541,
    "dor": 12448,
    "Ġiroqu": 21620,
    "el": 306,
    "Ġmarking": 16467,
    "Ġinfidel": 13085,
    "Ġtall": 4039,
    "thoroughly": 26507,
    "elevating": 20403,
    "Ġfrankly": 16743,
    "Ġtheirs": 7025,
    "Ġfirst": 939,
    "Ġodorous": 19563,
    "Ġshame": 6410,
    "oot": 13763,
    "bottle": 20142,
    "Ġhopes": 4233,
    "urer": 18119,
    "Ġbodings": 21388,
    "cing": 1011,
    "Ġrevolutions": 23838,
    "Ġrecede": 25967,
    "urday": 13993,
    "Ġbarbara": 24817,
    "Ġdoor": 1740,
    "Ġrepublic": 14530,
    "Ġharmony": 16812,
    "Ġeveryone": 8917,
    "Ġlonger": 3358,
    "Ġinvolving": 18752,
    "cords": 25135,
    "Ġaccorded": 24085,
    "Ġheaviest": 23321,
    "Ġbelted": 22944,
    "la": 10706,
    "Ġs": 265,
    "Ġforbear": 17119,
    "Ġthrown": 4640,
    "Ġrepro": 7275,
    "known": 3566,
    "Ġmiraculous": 13545,
    "Ġinsufficient": 9673,
    "Ġbos": 4875,
    "rying": 3187,
    "Ġmerciless": 25245,
    "Ġnotwithstanding": 9714,
    "ization": 486,
    "Ġpuzzling": 14896,
    "hoping": 17564,
    "destined": 24111,
    "Ġleaf": 15719,
    "Ġentries": 22739,
    "Ġalas": 5921,
    "Ġvertically": 19376,
    "ctuous": 9205,
    "Ġhideousness": 16913,
    "histicated": 20899,
    "deserving": 17240,
    "Ġ69": 19658,
    "Ġwarriors": 19720,
    "Ġunmethodically": 22063,
    "unbidden": 21890,
    "Ġanew": 11431,
    "Ġdemanding": 16803,
    "Ġhopkins": 23125,
    "Ġpsal": 15612,
    "owder": 8448,
    "Ġunquestionable": 26220,
    "Ġproviding": 1359,
    "covenant": 23560,
    "Ġmorose": 18840,
    "Ġetext": 23946,
    "Ġwitnessed": 14842,
    "Ġfitly": 23995,
    "Ġpriority": 19759,
    "Ġstove": 6733,
    "Ġsweatings": 25709,
    "saving": 21057,
    "Ġintercepted": 25825,
    "Ġboard": 3381,
    "superstitiousness": 25507,
    "smiles": 14691,
    "Ġindex": 17047,
    "okingly": 22374,
    "trivial": 21090,
    "dition": 15338,
    "Ġraised": 4661,
    "ns": 751,
    "Ġindignity": 18831,
    "Ġamaz": 5385,
    "Ġpursued": 6328,
    "Ġhindrance": 25219,
    "Ġhour": 1812,
    "ree": 874,
    "Ġbridal": 14952,
    "sleeves": 26108,
    "Ġdistributions": 1051,
    "dwelling": 20562,
    "Ġtrousers": 12412,
    "Ġcosmetic": 23469,
    "alled": 5910,
    "Ġcocoanuts": 26361,
    "Ġsignals": 10586,
    "Ġghost": 6142,
    "Ġnautical": 17384,
    "Ġairs": 14510,
    "Ġvariations": 22662,
    "Ġsubord": 22784,
    "Ġwhir": 6393,
    "affording": 23775,
    "Ġdidst": 11846,
    "Ġgratitude": 5599,
    "Ġturkey": 19216,
    "Ġminister": 18749,
    "Ġsecure": 4912,
    "Ġoffers": 12942,
    "Ġthre": 2059,
    "Ġmischief": 8541,
    "Ġfaith": 5350,
    "Ġdro": 2770,
    "fluttering": 23969,
    "Ġfrom": 435,
    "iffs": 9021,
    "Ġromish": 19581,
    "ġ": 226,
    "iny": 4292,
    "experienced": 15119,
    "Ġvalidate": 3100,
    "unusual": 21875,
    "Ġ102": 24409,
    "Ġblankness": 24609,
    "Ġcran": 11998,
    "cottage": 9570,
    "Ġclifford": 22349,
    "Ġprelimin": 8860,
    "Ġhud": 10823,
    "Ġjourney": 3880,
    "Ġgigantic": 5914,
    "their": 2542,
    "Ġ18": 3404,
    "unicorn": 21885,
    "Ġgush": 10203,
    "Ġcourage": 4634,
    "Ġstupendous": 20498,
    "december": 25557,
    "Ġrounded": 14436,
    "Ġdeeds": 15755,
    "join": 12110,
    "Ġluck": 4880,
    "Ġstronger": 8578,
    "Ġdisagreeable": 9298,
    "Ġanomaly": 25635,
    "Ġweary": 5635,
    "Ġdungeon": 16994,
    "besides": 8695,
    "Ġtu": 6968,
    "representing": 25270,
    "ruction": 4355,
    "Ġdynam": 2824,
    "Ġtoilet": 13935,
    "Ġguide": 3215,
    "iosity": 2347,
    "wet": 15450,
    "Ġunresting": 25552,
    "Ġdair": 17887,
    "Ġtram": 11093,
    "Ġexplained": 5935,
    "Ġrashly": 20304,
    "els": 1766,
    "Ġgathers": 24742,
    "direction": 17522,
    "Ġfe": 490,
    "orrowed": 19286,
    "norm": 20983,
    "Ġoppressively": 25711,
    "Ġfr": 1695,
    "ernally": 22616,
    "Ġcommission": 6712,
    "flow": 2095,
    "Ġbewil": 11656,
    "Ġunseasonable": 26519,
    "liest": 6294,
    "ivil": 6411,
    "Ġmccarthys": 19659,
    "Ġtropics": 17064,
    "Ġaback": 22262,
    "Ġmaj": 3926,
    "Ġwithin": 2163,
    "murderer": 13391,
    "venison": 22624,
    "brimming": 23576,
    "erial": 4632,
    "Ġinsol": 10181,
    "oo": 7553,
    "Ġhorns": 11124,
    "ayed": 12708,
    "Ġunwe": 15835,
    "change": 6392,
    "fellows": 12270,
    "Ġfaintness": 24569,
    "Ġpolynesian": 26025,
    "Ġunwaning": 25169,
    "Ġessence": 13403,
    "Ġwaned": 17789,
    "content": 11198,
    "Ġattempted": 8000,
    "aked": 2016,
    "ineas": 15818,
    "Ġsufferer": 16256,
    "halloa": 17088,
    "Ġprogress": 5023,
    "Ġcretan": 22722,
    "Ġbarbary": 24215,
    "Ġconverts": 2808,
    "Ġbutler": 18268,
    "Ġpag": 6010,
    "lections": 4752,
    "Ġdestroying": 14727,
    "Ġnlp": 3062,
    "Ġindies": 22947,
    "Ġtoad": 21506,
    "roy": 7853,
    "houses": 9600,
    "Ġbulwarks": 5592,
    "Ġblush": 14400,
    "Ġeconomically": 25287,
    "thoughtfully": 24040,
    "ā": 194,
    "Ġinfinity": 23279,
    "Ġknotted": 17017,
    "Ġreal": 1638,
    "georgiana": 26019,
    "rut": 8091,
    "Ġbeheading": 21750,
    "beloved": 19457,
    "antarctic": 22095,
    "Ġrevelations": 25222,
    "Ġkeeps": 8266,
    "Ġattacks": 12201,
    "after": 2898,
    "itude": 1416,
    "Ġtests": 8957,
    "pigs": 17138,
    "Ġdrawback": 23986,
    "Ġwit": 3840,
    "Ġ127": 24471,
    "level": 2653,
    "larger": 24201,
    "Ġindolent": 13001,
    "odecimoes": 25317,
    "wretchedness": 17251,
    "Ġstripped": 10466,
    "enances": 10154,
    "Ġcoco": 11001,
    "Ġconverted": 16107,
    "Ġclaw": 22343,
    "avoid": 9305,
    "Ġbronze": 22864,
    "fted": 9118,
    "Ġtink": 9148,
    "originally": 24936,
    "Ġinferior": 8365,
    "Ġperhaps": 1913,
    "tears": 11037,
    "Ġdistinctly": 7311,
    "itect": 963,
    "Ġparamet": 607,
    "Ġgroup": 2038,
    "Ġsunset": 8962,
    "Ġbang": 17852,
    "Ġsquares": 11170,
    "Ġwat": 1288,
    "Ġpresto": 22226,
    "Ġcorroborated": 26053,
    "Ġchancing": 22244,
    "ancy": 4390,
    "ó": 180,
    "enge": 21278,
    "Ġmouths": 7491,
    "Ġcheat": 19021,
    "prejud": 11793,
    "ceed": 1077,
    "cannibal": 15222,
    "Ġtreble": 16502,
    "nailed": 20994,
    "Ġinterpre": 1588,
    "irable": 5776,
    "commander": 16985,
    "Ġprolong": 6832,
    "foreseen": 14252,
    "Ġtorrents": 20052,
    "Ġrepresented": 8938,
    "yra": 8102,
    "Ġpaltry": 16690,
    "hist": 7131,
    "Ġis": 347,
    "Ġinvent": 7165,
    "baden": 25614,
    "Ġdetermined": 2221,
    "Ġadver": 5641,
    "Ġarrived": 3746,
    "Ġentranced": 25832,
    "Ġphrenologically": 20391,
    "Ġtusks": 17252,
    "ĠĠĠĠĠĠĠĠĠĠĠĠĠĠĠĠĠĠĠĠĠĠĠĠĠĠĠĠĠĠĠ": 19697,
    "Ġdisobedience": 22531,
    "stiff": 12671,
    "Ġve": 1108,
    "Ġpigeon": 9516,
    "Ġdetestable": 15096,
    "uzz": 4525,
    "Ġconfidence": 6590,
    "Ġrendering": 16655,
    "ern": 772,
    "Ġcaps": 8414,
    "Ġaveraging": 2421,
    "Ġrestore": 9380,
    "Ġfluke": 14672,
    "instance": 24164,
    "Ġobserve": 4671,
    "lev": 1234,
    "Ġcreation": 6439,
    "Ġappear": 2486,
    "Ġbreathlessly": 24279,
    "itch": 10161,
    "Ġstayed": 7997,
    "vial": 17695,
    "skull": 24487,
    "Ġcommissioned": 19892,
    "Ġcro": 4873,
    "Ġproblems": 2851,
    "Ġlirra": 21556,
    "ille": 9219,
    "relative": 24009,
    "Ġcommencement": 12235,
    "sure": 5522,
    "saddest": 25526,
    "Ġimaginative": 19243,
    "Ġgathered": 8442,
    "Ġeclips": 20694,
    "behaviour": 11302,
    "Ġsteadfastly": 10652,
    "Ġstrings": 11826,
    "pudding": 17645,
    "Ġvalu": 5039,
    "Ġlearn": 363,
    "Ġnarrations": 24351,
    "Ġcorpus": 13028,
    "perishing": 22182,
    "Ġextraordinary": 5414,
    "Ġyonder": 7392,
    "'t": 3147,
    "Ġmorphology": 3012,
    "Ġyarman": 12701,
    "Ġacre": 22677,
    "Ġoutsk": 15952,
    "see": 3047,
    "Ġdisse": 18546,
    "Ġspeechless": 13351,
    "Ġplu": 8798,
    "antediluvian": 24345,
    "Ġresulting": 24197,
    "Ġdispositions": 13230,
    "Ġlightened": 23257,
    "tick": 17676,
    "Ġsuitable": 18280,
    "Ġhurled": 10430,
    "Ġworn": 6445,
    "rians": 21921,
    "despairing": 25073,
    "Ġgladstone": 23866,
    "arabian": 26445,
    "concluded": 11243,
    "rem": 1521,
    "naturalists": 23511,
    "Ġsolely": 9910,
    "magnificent": 20273,
    "eat": 11483,
    "Ġbolted": 12241,
    "Ġbun": 6006,
    "Ġlieu": 19561,
    "Ġtapering": 8770,
    "Ġnice": 6676,
    "Ġpoem": 22585,
    "ural": 503,
    "Ġcou": 5286,
    "persecut": 22185,
    "uncommonly": 25548,
    "Ġruined": 12950,
    "unks": 15771,
    "uning": 1312,
    "Ġmind": 1622,
    "Ġindelicacy": 25694,
    "upright": 23015,
    "boards": 23251,
    "irresist": 21908,
    "Ġetern": 7086,
    "Ġrenounce": 19464,
    "rences": 9272,
    "atics": 15520,
    "Ġeverlasting": 9337,
    "Ġget": 1626,
    "Ġklux": 22191,
    "Ġhonest": 7287,
    "Ġrepul": 16406,
    "Ġtree": 5284,
    "warmest": 25026,
    "Ġassu": 21893,
    "Ġmonosyllable": 20724,
    "Ġtranquillize": 24756,
    "recked": 17760,
    "cept": 554,
    "Ġjur": 12830,
    "Ġprocedures": 9412,
    "Ġfitzwilliam": 5771,
    "Ġenclosure": 20621,
    "Ġbrewed": 23343,
    "next": 5891,
    "led": 579,
    "Ġworm": 9162,
    "aboard": 21790,
    "commod": 16169,
    "Ġconcent": 8249,
    "Ġpo": 737,
    "Ġdamn": 11159,
    "Ġpleasanter": 19065,
    "Ġdisliked": 12887,
    "Ġbecalmed": 18084,
    "breast": 11247,
    "Ġbill": 4041,
    "sensible": 20048,
    "chance": 6827,
    "ers": 406,
    "Ġmem": 2069,
    "ł": 259,
    "rollable": 13943,
    "Ġgirdled": 19155,
    "vere": 4883,
    "tips": 13794,
    "Ġwearing": 12735,
    "Ġfrolic": 23920,
    "Ġjeroboam": 10601,
    "learnt": 23529,
    "merc": 19277,
    "Ġexpectations": 13141,
    "ways": 1441,
    "od": 355,
    "ashing": 4824,
    "steady": 14707,
    "Ġpill": 7845,
    "viating": 14578,
    "ather": 740,
    "unaccountable": 15775,
    "Ġchis": 11747,
    "behind": 6779,
    "Ġconstitution": 20105,
    "akes": 2218,
    "hardly": 6491,
    "shish": 11790,
    "Ġconscious": 7743,
    "bru": 12436,
    "Ġlordly": 23742,
    "Ġpeddler": 24799,
    "Ġrejection": 19980,
    "Ġfed": 5530,
    "Ġsecre": 5493,
    "two": 3859,
    "aid": 1923,
    "bon": 13682,
    "irited": 15783,
    "Ġmalignant": 14876,
    "Ġbru": 13893,
    "Ġkitchen": 8495,
    "Ġcard": 7363,
    "Ġhyper": 19736,
    "fier": 9594,
    "Ġtip": 15469,
    "Ġmorbid": 16230,
    "Ġsweating": 16461,
    "Ġgestic": 21604,
    "unwillingness": 25801,
    "Ġmour": 6973,
    "Ġgerm": 13962,
    "Ġretire": 10382,
    "Ġlit": 6246,
    "Ġcring": 15548,
    "stamp": 21650,
    "Ġproposed": 7460,
    "Ġdevotees": 25375,
    "Ġcivility": 4788,
    "Ġpirate": 14995,
    "characteristic": 24684,
    "Ġincalcul": 16059,
    "b": 70,
    "Ġpicking": 11260,
    "izzy": 3095,
    "audible": 17130,
    "thus": 5158,
    "Ġslowly": 3616,
    "Ġbison": 21385,
    "Ġbrit": 6289,
    "Ġbagging": 24538,
    "suggest": 20373,
    "astes": 11736,
    "goin": 23400,
    "interchange": 23736,
    "Ġexamine": 7734,
    "mediterranean": 16400,
    "weeks": 14314,
    "falling": 24360,
    "Ġaffording": 14818,
    "rop": 541,
    "doublo": 24659,
    "alter": 10827,
    "Ġnumber": 1982,
    "Ġrefreshed": 15288,
    "runs": 25414,
    "exped": 16522,
    "Ġbumping": 25279,
    "Ġtotally": 9471,
    "Ġhugh": 15003,
    "Ġreaching": 7303,
    "Ġgrandeur": 8627,
    "enormous": 26165,
    "mis": 4522,
    "Ġpursuing": 9438,
    "orers": 14101,
    "worm": 15451,
    "practised": 20246,
    "Ġsketch": 16161,
    "lux": 14225,
    "Ġswore": 10379,
    "Ġbreast": 8968,
    "vour": 17697,
    "Ġliterary": 25161,
    "Ġtwit": 12925,
    "ĠdÃ¦mon": 7844,
    "Ġgritted": 22801,
    "Ġcrack": 7709,
    "because": 4923,
    "8": 28,
    "Ġexisting": 12714,
    "Ġworsted": 19991,
    "Ġimminent": 11246,
    "Ġrises": 9713,
    "Ġgrope": 17992,
    "ale": 506,
    "Ġnoon": 6559,
    "dering": 5305,
    "Ġbalmy": 22901,
    "Ġquestions": 3974,
    "Ġlifts": 25357,
    "Ġadvers": 4887,
    "Ġinnocent": 4921,
    "Ġscreamed": 9524,
    "Ġdistinguishing": 16495,
    "Ġdiverse": 19206,
    "Ġcountenance": 3972,
    "Ġheels": 10851,
    "Ġpanthe": 19650,
    "Ġunassuming": 20506,
    "cott": 8073,
    "Ġforged": 12700,
    "sters": 6391,
    "Ġhabitual": 24789,
    "Ġensl": 19271,
    "Ġterra": 13114,
    "Ġsubsequent": 7658,
    "rebellum": 26164,
    "Ġthoroughly": 8347,
    "shutters": 20312,
    "Ġcounterpart": 24720,
    "australian": 20559,
    "Ġimper": 4503,
    "Ġexplanation": 6692,
    "Ġarrive": 6907,
    "accident": 11182,
    "icial": 12651,
    "ails": 6160,
    "naught": 20992,
    "club": 26379,
    "Ġmajest": 24056,
    "owing": 7601,
    "leads": 21367,
    "Ġconnexion": 11455,
    "Ġnailed": 10190,
    "burn": 8370,
    "Ġjack": 4653,
    "Ġrelating": 2706,
    "Ġsociable": 19399,
    "alions": 21497,
    "Ġstepdaughter": 22609,
    "Ġsetbacks": 11064,
    "sombre": 23851,
    "Ġleave": 2459,
    "istol": 6259,
    "Ġconversing": 14632,
    "summon": 23413,
    "estone": 18362,
    "Ġordin": 16648,
    "Ġfavourably": 16361,
    "Ġrequire": 898,
    "Ġsil": 1798,
    "Ġbuckler": 24858,
    "Ġcombing": 22845,
    "Ġconceited": 12087,
    "Ġentreated": 9951,
    "Ġeloped": 22642,
    "Ġunprofitable": 18262,
    "Ġsubmitted": 11868,
    "je": 11496,
    "Ġmayhew": 12946,
    "oar": 12494,
    "Ġmany": 1106,
    "derer": 4601,
    "wanderer": 25422,
    "Ġappe": 1538,
    "Ġboone": 11838,
    "hear": 10147,
    "lovely": 16042,
    "Ġdisent": 22519,
    "Ġdesirous": 8942,
    "clings": 23146,
    "abode": 21787,
    "comput": 1981,
    "ith": 330,
    "Ġsem": 1877,
    "Ġcolourless": 19566,
    "Ġfeat": 10938,
    "Ġaw": 2511,
    "Ġconsiderably": 7714,
    "supers": 22631,
    "Ġgi": 15662,
    "peleg": 16290,
    "Ġadventures": 7747,
    "treated": 21092,
    "Ġlaz": 7378,
    "Ġdescried": 7918,
    "horrible": 14599,
    "Ġrings": 11698,
    "Ġswears": 16462,
    "emberley": 4170,
    "Ġstuffed": 13407,
    "oking": 4607,
    "Ġvinc": 14083,
    "Ġphrensy": 25123,
    "Ġflush": 14422,
    "topic": 10528,
    "Ġfurnace": 19436,
    "rodden": 21531,
    "ronted": 14875,
    "Ġsubordinate": 18720,
    "Ġpredef": 18513,
    "hearty": 14832,
    "Ġadhes": 22098,
    "Ġstopped": 5956,
    "Ġintric": 9245,
    "smeer": 26146,
    "complexion": 14358,
    "Ġdome": 15585,
    "Ġshining": 8171,
    "Ġclothing": 18421,
    "Ġparticle": 18669,
    "Ġpretty": 3860,
    "Ġwine": 6810,
    "Ġgrating": 14353,
    "Ġabusive": 22269,
    "islands": 21373,
    "Ġbias": 1191,
    "otic": 15741,
    "unless": 9234,
    "ire": 492,
    "Ġbridges": 24681,
    "encoura": 15047,
    "Ġrushing": 7403,
    "warning": 25530,
    "Ġthump": 11610,
    "ĠĠĠĠĠĠĠĠĠĠĠĠĠĠĠĠĠĠĠĠĠĠĠĠĠĠĠĠĠĠĠĠĠĠĠĠĠĠĠĠĠĠĠĠĠĠ": 9953,
    "Ġsap": 18321,
    "acknowledging": 25475,
    "Ġscaramouch": 23824,
    "Ġunacquainted": 12771,
    "mock": 5174,
    "hook": 12050,
    "Ġed": 2143,
    "Ġardour": 8042,
    "ad": 337,
    "parameter": 3144,
    "ga": 17548,
    "Ġgets": 10840,
    "Ġintact": 21985,
    "Ġlethar": 21742,
    "romising": 18231,
    "Ġcastles": 16637,
    "Ĭ": 237,
    "Ġclapping": 14201,
    "Ġsources": 10148,
    "Ġboston": 22636,
    "Ġrus": 14091,
    "Ġfi": 938,
    "scattered": 22991,
    "laugh": 10109,
    "erer": 8731,
    "tremble": 17139,
    "othe": 2615,
    "knight": 20938,
    "cles": 8725,
    "Ġstrugg": 3216,
    "Ġundeceive": 25551,
    "Ġreser": 5170,
    "Ġinhuman": 13927,
    "ruff": 15891,
    "Ġordered": 5832,
    "Ġsum": 2699,
    "inea": 7622,
    "Ġbutcher": 18269,
    "deception": 22141,
    "awing": 18913,
    "Ġunreasoning": 15842,
    "Ġorigin": 4119,
    "Ġgroan": 13322,
    "Ġstiffness": 24829,
    "Ġclassifies": 11835,
    "Ġsupper": 4666,
    "Ġnantucketer": 6914,
    "Ġanalytical": 22896,
    "equal": 14991,
    "Ġphilosoph": 19648,
    "Ġalso": 1344,
    "Ġselected": 9710,
    "Ġoverlook": 10962,
    "carry": 19523,
    "Ġmethinks": 10393,
    "Ġpole": 6433,
    "Ġdiscourse": 9798,
    "Ġadapts": 3816,
    "**": 4686,
    "ferences": 10327,
    "Ġhandsomest": 20333,
    "Ġsword": 6732,
    "scept": 21051,
    "understood": 13214,
    "anim": 6522,
    "í": 174,
    "una": 21865,
    "pered": 4195,
    "Ġseveral": 2672,
    "studied": 17147,
    "batch": 1983,
    "shazz": 14240,
    "Ġsqu": 1037,
    "Ġastonishing": 10502,
    "Ġsgd": 3130,
    "Ġfarmhouse": 24983,
    "Ġexert": 5722,
    "Ġwoods": 5406,
    "Ġameric": 3852,
    "Ġbub": 8117,
    "Ġarches": 14159,
    "ized": 1527,
    "Ġprosper": 10229,
    "Ġwonder": 2116,
    "Ġmonomania": 17083,
    "Ġvoices": 7875,
    "strangely": 17275,
    "Ġcouples": 16850,
    "abriel": 6950,
    "Ġwear": 6030,
    "deduction": 23555,
    "presum": 12864,
    "rel": 3754,
    "Ġtrial": 6634,
    "Ġdescrying": 18613,
    "attachment": 13048,
    "Ġstatue": 23143,
    "peril": 18340,
    "Ġunderstood": 5655,
    "Ġevinced": 7101,
    "remains": 10399,
    "Ġtrifles": 16949,
    "dissatisfied": 26611,
    "Ġpriest": 7526,
    "Ġsens": 1853,
    "Ġidly": 16401,
    "ü": 189,
    "Ġwhereupon": 14294,
    "Ġcaptioning": 23021,
    "Ġimpulsive": 19959,
    "Ġperemptory": 25739,
    "Ġdimmed": 24266,
    "Ġcant": 17822,
    "Ġschedule": 2374,
    "Ġplaying": 6909,
    "Ġthe": 270,
    "gia": 20874,
    "Ġcorrob": 16263,
    "Ġrepugnance": 19084,
    "Ġoverwhel": 8196,
    "Ġcerem": 7078,
    "value": 18801,
    "arthur": 14828,
    "Ġ3": 3987,
    "Ġfactory": 23274,
    "Ġunspeakable": 10056,
    "yards": 9624,
    "Ġtwos": 18655,
    "Ġard": 5164,
    "venth": 9295,
    "Ġglim": 9344,
    "Ġdod": 6672,
    "Ġtask": 1310,
    "Ġawaken": 23585,
    "arer": 3969,
    "Ġfilthy": 13245,
    "##": 2316,
    "Ġdissimilar": 22527,
    "Ġemperors": 15157,
    "Ġimagine": 3923,
    "Ġhatchways": 24986,
    "Ġflail": 23003,
    "Ġlingo": 24902,
    "Ġcalculus": 23979,
    "ah": 1833,
    "proceeding": 20138,
    "Ġreeling": 18030,
    "Ġsplendid": 17212,
    "hetically": 21206,
    "Ġslice": 23155,
    "cat": 15322,
    "Ġsquat": 14365,
    "Ġban": 7157,
    "Ġcapering": 21351,
    "Ġminimum": 23038,
    "Ġhatchway": 13523,
    "Ġlucases": 9009,
    "Ġnursed": 16883,
    "brink": 23575,
    "Ġfacial": 10606,
    "Ġselects": 4382,
    "Ġbask": 8116,
    "Ġreasoned": 23059,
    "Ġcosine": 2375,
    "Ġwisest": 11233,
    "Ġoverlapping": 26237,
    "Ġrepeat": 7999,
    "ought": 831,
    "Ġdownwards": 8529,
    "anatory": 21360,
    "mistakable": 20651,
    "Ġleatherhead": 20010,
    "Ġaboard": 6697,
    "Ġlaud": 17965,
    "ective": 18172,
    "ression": 3403,
    "Ġtuileries": 24825,
    "Ġhoneymoon": 25644,
    "Ġender": 11688,
    "Ġcomprehensiveness": 25071,
    "Ġsaith": 14154,
    "Ġmeek": 21805,
    "Ġblaze": 16216,
    "Ġjoint": 12031,
    "snowy": 20282,
    "Ġpam": 21451,
    "acceptable": 25183,
    "Ġbacks": 8528,
    "drawing": 10487,
    "blubber": 15234,
    "Ġcommunic": 5751,
    "Ġpreside": 18363,
    "Ġplead": 14453,
    "Ġringbolts": 24195,
    "Ġcorps": 13029,
    "cused": 15330,
    "Ġscrew": 8867,
    "Ġlicense": 20087,
    "Ġuncontrollable": 25813,
    "Ġdescended": 7428,
    "Ġregrets": 18589,
    "Ġmethodically": 23183,
    "rowsers": 8694,
    "Ġgoverning": 2798,
    "ensity": 11810,
    "Ġleft": 1762,
    "Ġsoup": 7068,
    "Ġincensed": 18569,
    "unnatural": 15769,
    "B": 38,
    "Ġslaugh": 18935,
    "Ġinfluenced": 19629,
    "corrid": 24483,
    "conceal": 25113,
    "buff": 15316,
    "erringly": 16208,
    "Ġreality": 7058,
    "withstanding": 8945,
    "bweb": 20789,
    "Ġdifferently": 10389,
    "Ġthing": 1643,
    "Ġsounds": 5190,
    "Ġprick": 14476,
    "pardonable": 17216,
    "Ġeffected": 14352,
    "¹": 122,
    "Ġmyster": 5925,
    "Ġforgetting": 3433,
    "lege": 17839,
    "crowd": 25253,
    "Ġdissipate": 13631,
    "Ġtoller": 9090,
    "Ġshan": 9248,
    "Ġtemperate": 16159,
    "Ġmediocr": 24080,
    "Ġfellow": 2776,
    "Ġpuff": 6526,
    "Ġstriding": 16089,
    "sed": 4175,
    "Ġtruce": 24112,
    "Ġsilken": 16378,
    "Ġhelm": 5275,
    "Ġbordeaux": 24563,
    "ssian": 3398,
    "sorts": 21058,
    "sou": 12502,
    "Ġthom": 21512,
    "Ġindec": 13926,
    "mutually": 26135,
    "Ġimmortal": 8017,
    "lifeless": 24311,
    "sight": 5994,
    "threat": 10901,
    "Ġhungry": 10533,
    "preserving": 25303,
    "versed": 9825,
    "otograph": 5826,
    "alid": 13933,
    "Ġpreferred": 14964,
    "garet": 9598,
    "Ġtag": 15466,
    "Ġproflig": 23566,
    "althy": 8431,
    "Ġscratch": 25563,
    "Ġn": 300,
    "athans": 7433,
    "Ġwakeful": 24265,
    "Ġharris": 13925,
    "Ġsalut": 10510,
    "Ġrocks": 6863,
    "chain": 18037,
    "follow": 5680,
    "fool": 9047,
    "Ġattempt": 3483,
    "ivates": 18274,
    "Ġsuccessive": 10501,
    "Ġwarning": 9058,
    "repeating": 20125,
    "Ġforeseeing": 23448,
    "Ġimmut": 13295,
    "Ġposted": 16722,
    "Ġlap": 8436,
    "Ġslightest": 6092,
    "Ġweltering": 19582,
    "sav": 8096,
    "Ġthinker": 22805,
    "security": 26205,
    "Ġboisterous": 20440,
    "Ġaffirmative": 15220,
    "Ġdaboll": 25949,
    "Ġpetticoat": 15293,
    "Ġgratifying": 13303,
    "Ġbackwards": 12923,
    "Ġstretched": 5919,
    "icates": 11616,
    "Ġcommitted": 7431,
    "Ġofficial": 7082,
    "respond": 12540,
    "Ġsplendidly": 25326,
    "feather": 16041,
    "Ġsteel": 3889,
    "nantucketer": 24971,
    "Ġpours": 17909,
    "unities": 15767,
    "belonged": 25596,
    "rifle": 21044,
    "iscreet": 20680,
    "ished": 1425,
    "words": 7982,
    "Ġactions": 6278,
    "Ġonset": 12706,
    "Ġbelike": 18828,
    "Ġsnuff": 7991,
    "helmsman": 24286,
    "binnacle": 20785,
    "Ġadvent": 4354,
    "Ġprudent": 9185,
    "degra": 22137,
    "Ġconfidently": 24954,
    "Ġtreats": 19340,
    "Ġcaprice": 14576,
    "urable": 8924,
    "Ġconjure": 17121,
    "strongly": 24683,
    "heaving": 21205,
    "Ġhastening": 19333,
    "Ġpreference": 9733,
    "conditionally": 24833,
    "Ġpersecutor": 26095,
    "Ġanonymous": 26177,
    "Ġhorizont": 6937,
    "Ġbowls": 23768,
    "Ġrejoicing": 13419,
    "remorse": 14465,
    "Ġcommodores": 25373,
    "Ġfanny": 23388,
    "Ġbulge": 23854,
    "jud": 4483,
    "Ġranks": 21971,
    "Ġopp": 2696,
    "Ġaccused": 8507,
    "Ġviolence": 5962,
    "Ġemotion": 7689,
    "kings": 17581,
    "quality": 10233,
    "Ġdishes": 16045,
    "Ġmonogra": 22971,
    "uble": 21100,
    "Ġcustoms": 19649,
    "Ġscraggy": 24578,
    "Ġcontrols": 1733,
    "cous": 8721,
    "exciting": 19665,
    "grief": 13729,
    "Ġapproximation": 2341,
    "tacit": 21096,
    "rd": 17647,
    "conf": 4957,
    "ake": 748,
    "Ġpolitic": 23617,
    "Ġgrant": 11870,
    "ignity": 4371,
    "Ġunforeseen": 22045,
    "original": 9084,
    "Ġencourage": 10381,
    ")âĢĶâĢľ": 20741,
    "Ġyarn": 10869,
    "Ġrecoil": 18692,
    "Ì": 141,
    "moreover": 12965,
    "Ġemm": 18000,
    "azz": 8261,
    "earliest": 20116,
    "rusion": 11324,
    "Ġcrony": 23438,
    "Ġlocker": 16909,
    "sacrifice": 13490,
    "sher": 5217,
    "Ġbelief": 5855,
    "Ġsatire": 22897,
    "Ġwerter": 15237,
    "Ġyore": 21774,
    "Ġchannels": 26012,
    "Ġhastened": 9004,
    "chapter": 1402,
    "Ġxxxi": 24965,
    "Y": 61,
    "Ġcease": 7077,
    "Ġfamily": 1966,
    "Ġpoor": 1707,
    "Ġpliny": 11822,
    "Ġgarden": 3825,
    "savagery": 25024,
    "Ġdisabled": 18559,
    "Ġweighing": 20012,
    "Ġswan": 23047,
    "invincible": 25088,
    "Ġcocksure": 26257,
    "Ġcommerce": 11016,
    "particular": 5757,
    "Ġimbalanced": 18332,
    "Ġinsensible": 12322,
    "Ġwasn": 6998,
    "Ġindefatigable": 17175,
    "isted": 3299,
    "Ġrenow": 18025,
    "odings": 4396,
    "cru": 7127,
    "darkened": 24516,
    "parts": 14600,
    "dressed": 10696,
    "Ġsurmis": 23461,
    "iloqu": 11647,
    "Ġobserved": 3537,
    "historical": 20463,
    "Ġadaptively": 4462,
    "flatter": 23963,
    "leagues": 21370,
    "glimmer": 26320,
    "Ġscuff": 15938,
    "Ġdollars": 11456,
    "Ġcorpse": 6638,
    "Ġtypes": 8936,
    "notches": 22745,
    "Ġruthless": 15283,
    "elaborate": 21572,
    "silence": 8044,
    "endeavour": 17029,
    "vitality": 20476,
    "begging": 22493,
    "lengthwise": 19946,
    "Ġinitials": 11015,
    "Ġobserver": 11986,
    "Ġpriests": 15039,
    "Ġamuse": 5939,
    "µ": 118,
    "Ġcannibal": 7773,
    "Ġvalleys": 14917,
    "Ġbathing": 20198,
    "Ġsuits": 22084,
    "Ġtophet": 23572,
    "Ġturing": 7566,
    "Ġknots": 15007,
    "Ġprescribed": 26009,
    "Ġstillness": 12990,
    "Ġsagacious": 14969,
    "Ġpe": 854,
    "Ġtackle": 9513,
    "Ġmob": 16013,
    "Ġbestowed": 6593,
    "Ġspile": 22123,
    "Ġstrike": 4855,
    "Ġshocked": 9401,
    "Ġexcessive": 3892,
    "thirty": 12758,
    "know": 2318,
    "whosoever": 22236,
    "Ġfacilitate": 26097,
    "Ġoars": 3897,
    "Ġninetieth": 25356,
    "Ġeasiest": 23536,
    "Ġevidence": 5269,
    "Ġpleaded": 16295,
    "uther": 8816,
    "Ġnamed": 6139,
    "Ġpunishment": 9956,
    "eks": 4728,
    "Ġmet": 1878,
    "Ġcondem": 6338,
    "Ġaqu": 17740,
    "Ġessays": 19741,
    "smo": 10126,
    "nades": 20995,
    "precip": 14663,
    "uous": 4144,
    "<EOS>": 2,
    "Ġslow": 2382,
    "ces": 577,
    "stein": 5505,
    "weaknesses": 26029,
    "Ġquant": 6424,
    "kempt": 20939,
    ")âĢĶ": 20740,
    "Ġideal": 13118,
    "Ġbanks": 6814,
    "Ġpatched": 16355,
    "sherlock": 5422,
    "move": 11851,
    "ertain": 1207,
    "Ġnewfound": 22928,
    "iop": 20917,
    "syntax": 5866,
    "Ġmatlock": 18798,
    "_).": 5886,
    "acled": 16078,
    "Ġwheelbarrow": 17203,
    "Ġanimation": 11153,
    "Ġvowed": 14082,
    "abhorred": 17334,
    "Ġjoys": 13217,
    "hearing": 8402,
    "ker": 5792,
    "faint": 17543,
    "Ġanalyzing": 18791,
    "Ġhydraulic": 10064,
    "Ġreplacing": 3447,
    "described": 18892,
    "unted": 6999,
    "function": 4430,
    "Ġfabulous": 25947,
    "Ġports": 10819,
    "Ġinterrupted": 6343,
    "Ġcentrally": 23828,
    "Ġdebt": 12164,
    "susp": 10597,
    "icy": 6140,
    "arising": 17893,
    "Ġcourtesy": 9945,
    "Ġswells": 9827,
    "Ġpavement": 9578,
    "Ġidentified": 19148,
    "Ġseeks": 14301,
    "hem": 6663,
    "Ġwhitt": 18052,
    "Ġaspire": 21896,
    "tor": 15430,
    "Ġvol": 4187,
    "Ġmidships": 23632,
    "Ġinitialization": 1253,
    "Ġderives": 16304,
    "Ġmeantime": 6206,
    "your": 1985,
    "Ġcontrivance": 17182,
    "presumption": 20439,
    "numbers": 17614,
    "ician": 21561,
    "Ġdancing": 5703,
    "Ġripples": 25504,
    "ublic": 11228,
    "arbuck": 2025,
    "Ġmasterless": 23991,
    "Ġrather": 1493,
    "Ġfasc": 12594,
    "ument": 5240,
    "Ġbell": 4636,
    "Ġahab": 1216,
    "Ġnaught": 8127,
    "Ġfuller": 11157,
    "Ġtens": 17721,
    "Ġfraud": 19018,
    "Ġcircles": 7966,
    "Ġimpud": 18442,
    "arts": 6563,
    "æ": 167,
    "Ġnever": 1018,
    "Ġupbraiding": 26225,
    "Ġhandspike": 22692,
    "ĠcÃ¦": 15551,
    "Ġjour": 11761,
    "Ġquote": 18464,
    "mical": 9128,
    "forbid": 14349,
    "oried": 10803,
    "almost": 4943,
    "Ġvit": 10246,
    "Ġfor": 340,
    "icating": 15651,
    "boom": 18995,
    "Ġcruisings": 25863,
    "Ġlargely": 14284,
    "Ġpatriot": 23273,
    "Ġbravest": 23837,
    "cred": 9107,
    "Ġdiscourage": 3117,
    "ispiece": 19722,
    "Ġsees": 8842,
    "Ġpeak": 16122,
    "Ġinterested": 6458,
    "ving": 594,
    "Ġschol": 17375,
    "sartain": 25621,
    "Ġdiversity": 25283,
    "Ġsystematically": 4457,
    "Ġmaz": 15538,
    "berries": 22718,
    "Đ": 209,
    "uing": 17691,
    "penet": 11071,
    "Ġpearl": 20374,
    "Ġdisposal": 19372,
    "Ġignominy": 15083,
    "Ġ----": 7146,
    "Ġemperor": 15156,
    "ineff": 21962,
    "Ġlabel": 14514,
    "errand": 22905,
    "humiliation": 24017,
    "Ġdisguise": 10046,
    "started": 10846,
    "Ġscrolled": 22280,
    "Ġinn": 4591,
    "Ġquadr": 8199,
    "coarse": 16485,
    "Ġpistols": 17327,
    "Ġcranial": 25591,
    "Ġadmeasurements": 26224,
    "Ġrewards": 10849,
    "langu": 4807,
    "alarm": 15623,
    "Ġbul": 3294,
    "ò": 179,
    "Ġfight": 5366,
    "vineyard": 25420,
    "k": 79,
    "mond": 20971,
    "Ġunharmed": 15137,
    "ough": 470,
    "itics": 13870,
    "Ġoccasional": 7289,
    "Ġbrittle": 22861,
    "Ġshad": 3848,
    "Ġplacing": 8900,
    "soft": 12506,
    "oline": 6834,
    "Ġchamounix": 14862,
    "Ġconnivance": 25224,
    "miss": 3175,
    "long": 2914,
    "N": 50,
    "Ġbumpkins": 25280,
    "Ġtranslation": 3087,
    "Ġconcealed": 7495,
    "ost": 5360,
    "ase": 1160,
    "Ġgold": 3278,
    "eliest": 14744,
    "Ġk": 484,
    "Ġallowed": 4059,
    "Ġsister": 1472,
    "keepers": 16657,
    "Ġupon": 719,
    "Ġcrib": 21345,
    "Ġbowels": 9430,
    "reel": 21231,
    "Ġobstinate": 11337,
    "Ġ1828": 25719,
    "Ġsmokes": 22555,
    "Ġhams": 16610,
    "red": 396,
    "Ġoffspring": 16141,
    "Ġselecting": 16682,
    "alot": 15622,
    "Ġfaded": 10810,
    "Ġcanst": 8857,
    "condescended": 26247,
    "Ġacknowledges": 24687,
    "inglass": 21300,
    "Ġinsensibly": 20072,
    "theirs": 23601,
    "Ġchilian": 25562,
    "ender": 9160,
    "Ġdecomposition": 5342,
    "slipping": 25527,
    "convul": 24882,
    "Ġbottled": 23793,
    "Ġlatent": 19652,
    "Ġfail": 4148,
    "Ġlanyard": 26460,
    "Ġmornings": 16231,
    "rit": 21033,
    "Ġmagical": 23095,
    "Ġtendinous": 16929,
    "Ġstormy": 16726,
    "Ġemployment": 8628,
    "Ġcongratulate": 9063,
    "except": 5383,
    "Ġwidower": 24234,
    "suited": 22630,
    "client": 18929,
    "Ġcuriosities": 26288,
    "Ġassaulted": 25319,
    "Ġanimated": 7701,
    "Ġeloquence": 11839,
    "zors": 21145,
    "ibank": 6880,
    "Ġoutrid": 22311,
    "Ġcourtship": 24132,
    "inated": 6804,
    "allet": 11084,
    "Ġsepulchre": 20557,
    "Ġhandsomely": 25496,
    "Ġedition": 16431,
    "orse": 5806,
    "Ġpeasant": 13549,
    "Ġelopement": 10330,
    "customary": 25894,
    "propagation": 1257,
    "Ġsweetness": 9446,
    "Ġarcher": 22180,
    "Ġdisappointed": 7098,
    "Ġpatches": 4236,
    "Ġchristian": 6479,
    "Ġprocessing": 882,
    "courage": 17507,
    "icherry": 15133,
    "Ġconver": 805,
    "ellent": 3761,
    "Ġveteran": 17448,
    "servants": 15036,
    "tackle": 17319,
    "Ġsplit": 7992,
    "Ġmutually": 23953,
    "Ġmoved": 4839,
    "leaped": 17841,
    "Ġdrab": 13068,
    "Ġspurned": 12793,
    "Ġwouldst": 18499,
    "favourite": 15141,
    "ahead": 12431,
    "fitzwilliam": 11353,
    "fect": 2301,
    "Ġstuck": 9220,
    "nowadays": 22333,
    "physiogn": 26263,
    "Ġkn": 4547,
    "Ġthroats": 24574,
    "osed": 1961,
    "hanging": 10101,
    "Ġbye": 12734,
    "Ġunless": 4090,
    "miraculous": 26395,
    "Ġshaster": 21994,
    "Ġimpediments": 26239,
    "Ġlandscape": 12414,
    "pleasantness": 19767,
    "Ġsinister": 8568,
    "Ġbewitching": 25975,
    "tired": 21070,
    "Ġorphan": 12380,
    "Ġwhole": 1663,
    "Ġbedrooms": 19966,
    "Ġendued": 14075,
    "Ġshetland": 22155,
    "rucastle": 22174,
    "Ġentertainment": 12219,
    "Ġinv": 2223,
    "Ġgall": 4349,
    "Ġsimulation": 2752,
    "perceived": 8858,
    "apter": 1194,
    "freighted": 14890,
    "light": 3018,
    "Ø": 153,
    "waistcoat": 17359,
    "chooses": 23669,
    "joint": 24005,
    "Ġgift": 10841,
    "Ġnodes": 1968,
    "bbles": 13689,
    "Ġfielding": 16229,
    "Ġmistifying": 23717,
    "Ġcuff": 17827,
    "Ġwalrus": 14971,
    "Ġdepl": 14042,
    "elder": 21568,
    "study": 15115,
    "Ġsensationalism": 26065,
    "Ġstooping": 13058,
    "each": 7335,
    "Ġroad": 3881,
    "regular": 3042,
    "repro": 10771,
    "Ġcontinual": 6777,
    "Ġforget": 2635,
    "Ġkeys": 11994,
    "Ġseriously": 7062,
    "Ġreturn": 1708,
    "Ġsuperhuman": 23451,
    "Ġmansfield": 25937,
    "Ġmasters": 11574,
    "tomb": 21091,
    "billows": 20235,
    "Ġturnpike": 23027,
    "Ġmonster": 3793,
    "Ġnotable": 18220,
    "compared": 24029,
    "ounix": 14162,
    "Ġbesides": 3510,
    "ich": 469,
    "Ġconsummate": 25309,
    "gay": 11489,
    "Ġlim": 2383,
    "influences": 25249,
    "Ġplot": 14279,
    "Ġsquaw": 22833,
    "Ġclothed": 19603,
    "narrowly": 20346,
    "probably": 10020,
    "inhabited": 13618,
    "Ġsmitten": 12895,
    "haps": 1672,
    "Ġname": 2082,
    "Ġcleansed": 26292,
    "Ġgl": 1255,
    "Ġparallelization": 3429,
    "Ġswaying": 15045,
    "Ġly": 2269,
    "Ġreceipt": 20354,
    "Ġhiss": 15784,
    "Ġintervened": 25480,
    "ourse": 8869,
    "Ġdaybreak": 18725,
    "Ġmagazine": 23096,
    "ologist": 22886,
    "inj": 9151,
    "Ġmaty": 22906,
    "Ġendeavours": 8617,
    "akeman": 6267,
    "Ġforked": 11663,
    "Ġaug": 6234,
    "Ġlifeless": 8948,
    "Ġscreaming": 13421,
    "gunw": 17219,
    "instead": 14810,
    "Ġcentury": 8290,
    "Ġungover": 18250,
    "Ġcramped": 23528,
    "typewritten": 26037,
    "Ġbarbarously": 24818,
    "affectionate": 24920,
    "Ġadmir": 12019,
    "Ġuninterrupted": 22038,
    "Ġtreasures": 17045,
    "Ġcarelessness": 13073,
    "antucket": 2644,
    "swam": 24253,
    "Ġgenerates": 3661,
    "H": 44,
    "Ġventilator": 8713,
    "nam": 2438,
    "pute": 8844,
    "stri": 6249,
    "Ġsurvivors": 25731,
    "Ġentit": 22738,
    "Ġoccasions": 7987,
    "Ġmaw": 15536,
    "Ġcabinet": 23858,
    "abated": 14018,
    "Ġstudents": 23202,
    "Ġdata": 519,
    "Ġblowing": 10485,
    "Ġtattooing": 15026,
    "Ġeyelashes": 26105,
    "Ġclanging": 18420,
    "Ġgramm": 8170,
    "arity": 1303,
    "Ġconsolation": 6208,
    "skill": 24486,
    "Ġstalls": 25646,
    "Ġassociate": 13448,
    "ect": 381,
    "passenger": 24162,
    "ows": 1919,
    "snap": 24847,
    "verize": 21724,
    "Ġoptimizer": 5036,
    "Ġgothic": 17997,
    "Ġjets": 10288,
    "Ġstriving": 8996,
    "ounds": 4156,
    "Ġexploitation": 2348,
    "Ġvanished": 6874,
    "cork": 20794,
    "objection": 19912,
    "erman": 5108,
    "Ġbreed": 19071,
    "ounded": 9748,
    "Ġquadrant": 11405,
    "Ġunpleasing": 22047,
    "burning": 25077,
    "Ġdevouring": 11855,
    "Ġoblig": 3443,
    "Ġblown": 12082,
    "Ġsoften": 23119,
    "Ġris": 4886,
    "emy": 14073,
    "Ġjavel": 17082,
    "Ġcalendar": 18874,
    "quest": 4539,
    "networks": 2408,
    "Ġne": 389,
    "Ġgrounds": 6749,
    "Ġfarther": 5954,
    "whence": 23211,
    "Ġdecreas": 1651,
    "tubes": 25210,
    "Ġrestrictions": 20633,
    "Ġben": 1109,
    "Ġchoose": 5981,
    "word": 2489,
    "Ġenters": 11026,
    "victim": 25529,
    "Ġpresent": 1645,
    "Ġphantom": 8706,
    "bears": 22486,
    "msman": 9270,
    "Ġhowever": 1305,
    "Ġwilliam": 3479,
    "Ġthis": 382,
    "Ġpersonally": 8599,
    "humoured": 11237,
    "Ġthough": 991,
    "Ġgain": 4827,
    "Ġwards": 17787,
    "Ġteeth": 4166,
    "Ġchilled": 18380,
    "overlooked": 23320,
    "loveliness": 26548,
    "conc": 3947,
    "Ġflows": 13006,
    "Ġrule": 1533,
    "Ġcynical": 25769,
    "Ġebony": 18006,
    "persuaded": 15071,
    "remained": 8569,
    "Ġpossession": 5589,
    "ě": 220,
    "Ġfond": 4755,
    "flask": 12096,
    "Ġbefell": 14008,
    "related": 24008,
    "fingers": 17368,
    "done": 6500,
    "Ġmanif": 8870,
    "Ġxi": 16426,
    "Ġmum": 13856,
    "sheets": 14440,
    "Ġbattalions": 25775,
    "Ġgeorge": 3748,
    "silenced": 24422,
    "Ġpained": 19164,
    "Ġcontents": 7210,
    "elt": 4114,
    "wilful": 25085,
    "Ġintersect": 22573,
    "Ġchristendom": 16693,
    "ti": 8389,
    "Ġconstraints": 2740,
    "Ġhardest": 18910,
    "Ġtemporary": 7980,
    "Ġunspeakably": 25171,
    "Ġsloping": 11936,
    "Ġoverpow": 14206,
    "Ġflies": 13021,
    "axen": 22517,
    "boo": 16347,
    "Ġorganically": 3013,
    "Ġlegend": 14574,
    "boone": 23250,
    "Ġenduring": 16299,
    "Ġthese": 819,
    "Ġpopulation": 16825,
    "Ġvigorous": 10567,
    "Ġimply": 18441,
    "Ġtre": 2538,
    "Ġrefrain": 12939,
    "Ġreplying": 19578,
    "ictions": 14224,
    "Ġdimens": 3152,
    "Ġjoyful": 13218,
    "Ġluxury": 20128,
    "Ġgrotesque": 26328,
    "simultaneously": 19861,
    "Ġjun": 8505,
    "Ġlistened": 4471,
    "pence": 15407,
    "anced": 1266,
    "success": 6710,
    "Ġdomineering": 23674,
    "lizzy": 6651,
    "vult": 21111,
    "headers": 23105,
    "recovered": 19784,
    "Ġafford": 4363,
    "lier": 20947,
    "Ġhilarity": 20296,
    "Ġshells": 20361,
    "acing": 2718,
    "Ġaccomplish": 14874,
    "europe": 20663,
    "Ġpopulous": 16824,
    "inery": 17731,
    "Ġjoky": 18404,
    "sy": 2814,
    "Ġasserted": 16947,
    "Ġscratching": 20366,
    "Ġeh": 6988,
    "Ġscra": 5840,
    "Ġsecured": 6745,
    "Ġdistricts": 20262,
    "Ġsaluted": 14756,
    "Ġalfred": 21782,
    "construction": 19775,
    "<SOS>": 1,
    "skelter": 24489,
    "Ġicy": 10748,
    "Ġcontrad": 9755,
    "Ġveins": 8932,
    "Ġholmes": 1308,
    "Ġimm": 3966,
    "Ġcows": 15549,
    "Ġtold": 2184,
    "Ġthinks": 6169,
    "circumst": 5348,
    "turbaned": 24531,
    "Ġscorch": 20063,
    "reng": 4004,
    "influ": 9541,
    "Ġskills": 1838,
    "Ġmajestic": 8639,
    "Ġalabama": 14017,
    "civility": 17511,
    "ily": 1032,
    "Ġheroes": 10577,
    "irement": 18353,
    "Ġrehearsed": 25970,
    "Ġplayful": 19233,
    "rints": 12499,
    "gul": 12462,
    "warrior": 24797,
    "pronounce": 25191,
    "Ġthirds": 16706,
    "Ġexchange": 15750,
    "_âĢĶâĢĻ": 13680,
    "oda": 15746,
    "vil": 2732,
    "oysius": 14364,
    "Ġgap": 21595,
    "Ġyes": 2687,
    "Ġappertain": 22211,
    "Ġriding": 14093,
    "Ġunperceived": 22029,
    "Ġ112": 24436,
    "hunt": 20901,
    "happened": 9433,
    "Ġjuicy": 25369,
    "rank": 21039,
    "Ġbermud": 26438,
    "Ġacquiesce": 20328,
    "Ġorganization": 7983,
    "Ġshapes": 14107,
    "peculiarity": 23106,
    "odiac": 14030,
    "Ġgeography": 23369,
    "Ġpangs": 15611,
    "Ġgordon": 26466,
    "Ġdespite": 19349,
    "whew": 22865,
    "Ġcatch": 4441,
    ",--": 2479,
    "recogn": 13423,
    "Ġchase": 3945,
    "Ġoccup": 3739,
    "Ġgrain": 15828,
    "Ġmaker": 15539,
    "Ġroutine": 13506,
    "Ġfolly": 7940,
    "Ġdiligent": 25074,
    "Ġcommunication": 1870,
    "Ġdz": 4756,
    "Ġembodied": 25846,
    "Ġequivalent": 4802,
    "aut": 1914,
    "Ġwonderland": 23422,
    "Ġai": 3128,
    "securing": 19810,
    "Ġgrie": 3581,
    "Ġpaddles": 15145,
    "Ġpartiality": 9398,
    "george": 26018,
    "itancy": 21330,
    "rub": 15889,
    "tic": 8390,
    "Ġfreely": 7057,
    "Ġinvader": 23476,
    "Ġforehead": 5261,
    "Ġsadly": 7302,
    "carte": 25399,
    "Ġrome": 12152,
    "isite": 15559,
    "Ġimage": 3401,
    "Ġgeneral": 1862,
    "concent": 19476,
    "Ġfortitude": 9886,
    "qual": 8156,
    "Ġincredulous": 9987,
    "mant": 20963,
    "commence": 19988,
    "Ġbefitting": 15722,
    "isters": 11917,
    "Ġobedient": 20101,
    "arch": 1124,
    "adventurous": 25360,
    "Ġcocks": 18595,
    "taking": 5689,
    "Ġserious": 4320,
    "glings": 23848,
    "iations": 11495,
    "Ġattend": 5035,
    "Ġglance": 4232,
    "Ġ1869": 19380,
    "third": 8167,
    "Ġgodson": 23355,
    "goldsmith": 20144,
    "Ġhandwriting": 14317,
    "prolong": 23392,
    "yet": 3753,
    "Ġhints": 8429,
    "countryman": 24638,
    "cock": 12023,
    "Ġdecisive": 18483,
    "Ġriot": 14687,
    "right": 2768,
    "Ġactivations": 2721,
    "Ġbending": 12581,
    "Ġpractical": 3166,
    "branch": 23577,
    "mushroom": 26394,
    "biqu": 17495,
    "Ġfortresses": 23620,
    "Ġherd": 7887,
    "Ġradiating": 24334,
    "Ġexpensive": 12914,
    "netherfield": 9813,
    "Ġsarat": 21225,
    "rested": 13072,
    "Ġtimes": 2303,
    "Ġsleeves": 10661,
    "Ġ23": 13188,
    "Ġslu": 13834,
    "Ġdismasted": 15249,
    "Ġaccosted": 13670,
    "erve": 12545,
    ";âĢĶ": 3749,
    "wheeling": 22867,
    "Ġobliv": 16129,
    "adventure": 17232,
    "similar": 13451,
    "Ġstoop": 16306,
    "Ġspoil": 17005,
    "confined": 24331,
    "Ġinterruption": 9473,
    "Ġviolently": 6456,
    "necess": 4896,
    "Ġsneering": 24696,
    "Ġeleventh": 23366,
    "iracle": 11245,
    "Ġatonement": 21938,
    "Ġcapting": 23020,
    "Ġmr": 661,
    "gown": 9597,
    "Ġtwenty": 3949,
    "Ġbroadened": 23981,
    "Ġballarat": 14717,
    "Ġcracked": 8593,
    "Ġautom": 3563,
    "Ġclank": 15960,
    "Ġtormenting": 15102,
    "Ġreeds": 15692,
    "Ġdut": 2990,
    "÷": 184,
    "Ġwont": 9851,
    "Ġrenders": 13281,
    "Ġperu": 14221,
    "Ġaccumulated": 11928,
    "swe": 5995,
    "Ġide": 2121,
    "indispensable": 14208,
    "secure": 12232,
    "yard": 5899,
    "smallest": 23908,
    "Ġattic": 16091,
    "Ġannounced": 9034,
    "Ġloite": 22107,
    "Ġregret": 5561,
    "Ġrobbed": 23011,
    "erest": 10698,
    "Ġinquisitive": 26316,
    "Ġcounterbalance": 24721,
    "ear": 8730,
    ")(": 2983,
    "ross": 807,
    "meeting": 11019,
    "design": 18956,
    "Ġallev": 18098,
    "(-": 2982,
    "Ġexaggerate": 25648,
    "king": 3060,
    "Ġerad": 25027,
    "Ġaudio": 24771,
    "Ġsewing": 21950,
    "Ġglossy": 15225,
    "Ġchest": 5185,
    "Ġreduces": 2343,
    "argue": 21441,
    "Ġexample": 5096,
    "ook": 21002,
    "Ġthanks": 6707,
    "Ġfan": 2036,
    "Ġbecause": 2210,
    "jah": 17579,
    "thank": 4950,
    "Ġ]": 15457,
    "Ġparasol": 22117,
    "Ġperish": 8874,
    "Ġroy": 4228,
    "mistake": 24528,
    "delights": 19698,
    "harpoone": 6107,
    "orum": 12586,
    "annica": 24560,
    "Ġhappening": 14381,
    "cav": 17505,
    "equally": 19896,
    "preading": 18497,
    "Ġsnatches": 16542,
    "lively": 12481,
    "Ġscholars": 26111,
    "Ġexpectation": 6904,
    "Ġvideo": 25364,
    "ĠĠĠĠĠĠĠĠĠĠĠĠĠĠĠĠĠĠĠĠĠĠĠĠĠĠĠĠĠĠĠĠĠĠĠĠĠĠĠĠĠĠ": 24208,
    "boat": 3360,
    "narwhale": 17316,
    "Ġvehic": 8933,
    "uvier": 9068,
    "Ġdoors": 6418,
    "Ġembarkation": 25121,
    "transform": 8049,
    "impat": 11202,
    "Ġarsacides": 17292,
    "loat": 8886,
    "Ġdeputation": 21835,
    "Ġabominable": 12319,
    "Ġparamount": 15874,
    "Ġdemanded": 8326,
    "expectant": 24274,
    "Ġdisappearing": 22529,
    "Ġbutts": 15852,
    "Ġsatisf": 2809,
    "enced": 4294,
    "Ġkno": 5242,
    "coll": 23777,
    "Ġworking": 5574,
    "Ġlivid": 14987,
    "Ġmeditative": 25013,
    "Ġoctober": 17225,
    "lab": 3454,
    "Ġgateway": 24801,
    "Ġjudging": 16593,
    "Ġantichronical": 26608,
    "Ġmuttering": 10500,
    "Ġthrows": 14735,
    "Ġtorpor": 25030,
    "Ġstatements": 7516,
    "lonely": 20955,
    "Ġstaple": 26197,
    "chard": 21683,
    "Ġmuchness": 18706,
    "lessness": 5317,
    "Ġcomfor": 14052,
    "Ġamateur": 22481,
    "Ġsubur": 12952,
    "Ġcalmness": 12089,
    "Ġaccident": 5380,
    "Ġstoutly": 16922,
    "Ġtiny": 11552,
    "Ġduly": 13348,
    "Ġcheapside": 23286,
    "Ġnoisy": 13316,
    "¡": 99,
    "Ġimmensely": 13593,
    "Ġweedy": 15788,
    "Ġembodiment": 20525,
    "fleet": 15012,
    "Ġyield": 5093,
    "Ġdisgracing": 26254,
    "icles": 17970,
    "chancing": 22910,
    "Ġrouse": 15819,
    "Ġupward": 9721,
    "neys": 23581,
    "Ġresides": 22536,
    "Ġintim": 6838,
    "Ġ221": 25067,
    "ugging": 23288,
    "Ġlaying": 7907,
    "Ġstrides": 22613,
    "Ġpallet": 21478,
    "quiet": 6154,
    "race": 11630,
    "Ġfest": 10805,
    "Ġabounding": 12341,
    "Ġconfided": 19035,
    "Ġfre": 1566,
    "Ġexclaim": 11222,
    "superst": 11326,
    "iet": 1776,
    "sur": 4524,
    "moor": 22698,
    "uture": 1060,
    "Ġdeferred": 18823,
    "Ġcrash": 11999,
    "abern": 21786,
    "Ġ24": 13189,
    "huzza": 20911,
    "ston": 15679,
    "ÿ": 192,
    "Ġdeadly": 5405,
    "shriek": 20517,
    "Ġcolumn": 9328,
    "Ġcreativity": 2794,
    "splash": 25208,
    "jury": 15371,
    "Ġenv": 3097,
    "Ġxxi": 24475,
    "fem": 17535,
    "ove": 1744,
    "Ġreward": 6144,
    "Ġrecommended": 8667,
    "jer": 12477,
    "aled": 3944,
    "Ġtread": 9409,
    "Ġtok": 1243,
    "Ġreject": 7386,
    "dron": 17523,
    "Ġruminated": 24598,
    "Ġreckoned": 24743,
    "Ġringleader": 26211,
    "Ġsinking": 7307,
    "cake": 20802,
    "Ġbapt": 13894,
    "rics": 13034,
    "Ġgenerations": 10967,
    "Ġbrooding": 18905,
    ")": 13,
    "ellect": 7381,
    "asher": 15642,
    "Ġlab": 1871,
    "Ġbaff": 10800,
    "Ġcheery": 16367,
    "Ġillum": 9400,
    "rapt": 13971,
    "Ġspars": 3809,
    "Ġhessian": 3545,
    "Ġearthquake": 14627,
    "Ġouthouse": 22310,
    "actory": 8907,
    "Ġ86": 24460,
    "Ġwest": 5219,
    "Ġnile": 21517,
    "pretending": 17039,
    "Ġbears": 6829,
    "Ġmurderers": 16809,
    "Ġpredict": 673,
    "Ġsta": 18060,
    "slide": 24555,
    "Ġdur": 11591,
    "Ġnurse": 9517,
    "atus": 21258,
    "successfully": 14989,
    "Ġfeelings": 2455,
    "Ġglancing": 5399,
    "Ġsoftness": 18915,
    "ifix": 21899,
    "steering": 16633,
    "Ġbrace": 11212,
    "Ġmiserable": 3632,
    "ships": 5486,
    "Ġrelates": 12977,
    "thesize": 24905,
    "proportion": 16179,
    "Ġsome": 656,
    "Ġtoma": 7373,
    "Ġemblaz": 16234,
    "Ġhonourable": 10457,
    "spr": 7435,
    "Ġloggerhead": 13655,
    "Ġproud": 5654,
    "Ġmadden": 10448,
    "Ġkeeled": 18803,
    "Ġfurled": 22808,
    "front": 12167,
    "Ġfearing": 12811,
    "had": 1951,
    "Ġcuts": 14606,
    "Ġemaciated": 20636,
    "oa": 9613,
    "anyth": 5438,
    "rubbery": 17340,
    "deformity": 22142,
    "Ġdesign": 4131,
    "chari": 21685,
    "Ġbuying": 23992,
    "Ġshuttle": 12123,
    "Ġjustify": 11073,
    "happiness": 6469,
    "Ġostens": 25274,
    "esley": 17900,
    "ĠĠĠĠĠĠĠĠĠĠĠĠĠĠ": 22559,
    "dening": 22777,
    "Ġcompos": 22565,
    "minutely": 19590,
    "boys": 13357,
    "Ġclient": 5556,
    "Ġchoicest": 24219,
    "mor": 4213,
    "Ġabsorbed": 12328,
    "Ġmortal": 4682,
    "future": 13715,
    "majesty": 26279,
    "Ġdependency": 3484,
    "Ġqueens": 16704,
    "senses": 25021,
    "Ġclap": 10957,
    "Ġdesertion": 24786,
    "standing": 5558,
    "Ġosc": 2838,
    "Ġguilt": 6179,
    "Ġnew": 1196,
    "Ġtit": 8398,
    "Ġsecretly": 13269,
    "Ġwatson": 3595,
    "Ġreminding": 19794,
    "Ġgoble": 14229,
    "ifully": 13182,
    "sense": 11523,
    "Ġpeg": 22685,
    "Ġnational": 13940,
    "Ġlongitudes": 22632,
    "Ġpanted": 21469,
    "Ġimmediate": 6089,
    "ouraged": 22855,
    "Ġwhosoever": 21715,
    "Ġlifetime": 13600,
    "Ġoverlooked": 15970,
    "Ġconcerned": 5331,
    "Ġepit": 18004,
    "Ġcontinuously": 23203,
    "Ġparade": 18299,
    "misfortunes": 16754,
    "Ġcheerfulness": 10517,
    "Ġfilters": 3927,
    "Ġbeh": 1802,
    "Ġcot": 13875,
    "dancing": 12451,
    "hunted": 16830,
    "Ġmanhood": 22322,
    "Ġembrace": 16988,
    "af": 2379,
    "Ġspasmodic": 20395,
    "Ġcandelabra": 26601,
    "descried": 11926,
    "Ġgunwales": 12237,
    "Ġintrospective": 20598,
    "Ġdagger": 21434,
    "ologies": 18782,
    "cruising": 12276,
    "Ġhyperborean": 26338,
    "Ġperennial": 22690,
    "Ġexplo": 2287,
    "Ġfringe": 17270,
    "Ġisolated": 13557,
    "Ġpupp": 10821,
    "Ġunsupplied": 22035,
    "enger": 10774,
    "Ġpolar": 9411,
    "ince": 4338,
    "Ġinvis": 6902,
    "treatment": 20409,
    "urmountable": 15277,
    "Ġinstituted": 18699,
    "hro": 20889,
    "oms": 4594,
    "soup": 21056,
    "Ġjerk": 16948,
    "Ġaffair": 4465,
    "etite": 21575,
    "copy": 5133,
    "Ġconsisted": 10420,
    "ountain": 2920,
    "Ġamaze": 22479,
    "Ġprotested": 9934,
    "Ġsple": 21213,
    "Ġbarque": 23788,
    "Ġcasts": 19422,
    "Ġtrees": 4200,
    "etical": 13956,
    "Ġcrutch": 23444,
    "wart": 17703,
    "Ġco": 732,
    "Ġstranded": 9775,
    "Ġhos": 4942,
    "occur": 19572,
    "Ġeclipsed": 26375,
    "fanning": 20864,
    "Ġharry": 24570,
    "Ġtempestuous": 20067,
    "Ġhum": 1098,
    "Ġleaves": 5021,
    "ckets": 6843,
    "Ġfootmen": 23795,
    "Ġspout": 3282,
    "Ġpettiness": 24228,
    "Ġoriginally": 7304,
    "Ġcharger": 19001,
    "Ġconveys": 16853,
    "ogy": 22709,
    "deep": 1026,
    "shiver": 16022,
    "Ġfoam": 6891,
    "Ġpierce": 17034,
    "Ġheredit": 9216,
    "ouched": 4637,
    "Ġburly": 19246,
    "Ġflank": 8228,
    "ference": 1882,
    "Ġpromising": 10400,
    "Ġturtle": 4201,
    "Ġsatur": 1932,
    "best": 6111,
    "mccarthy": 15393,
    "Ġrepaid": 19080,
    "upper": 11538,
    "Ġowl": 20080,
    "aggo": 5097,
    "Ġcultured": 25153,
    "Ġresign": 18562,
    "Ġflowed": 10372,
    "Ġsimil": 2533,
    "mes": 1197,
    "ans": 458,
    "Ġfounder": 17881,
    "nor": 2741,
    "@": 36,
    "Ġwhist": 6021,
    "dest": 4102,
    "Ġxli": 14541,
    "Ġrefreshment": 17238,
    "Ġrigger": 19527,
    "Ġneur": 812,
    "others": 7669,
    "Ġloves": 10916,
    "prodigious": 17464,
    "Ġsneer": 13445,
    "Ġunconnected": 18237,
    "Ġshave": 21992,
    "Ġbalmoral": 16204,
    "rebell": 17761,
    "sorrows": 17318,
    "Ġtrumpet": 9574,
    "Ġskilful": 25836,
    "Ġraise": 6166,
    "finer": 17544,
    "Ġ78": 19610,
    "Ġfrenzy": 13620,
    "tempted": 26402,
    "buffalo": 20561,
    "nineteenth": 26137,
    "Ġrelev": 1715,
    "Ġpage": 6978,
    "Ġval": 968,
    "ģ": 228,
    "Ġearning": 23937,
    "subject": 6631,
    "Ġquieted": 23839,
    "sets": 17658,
    "tart": 21065,
    "ees": 13709,
    "ham": 1700,
    "Ġtepid": 26411,
    "Ġreplied": 2264,
    "Ġsemi": 11966,
    "Ġascending": 14852,
    "remark": 7261,
    "ative": 741,
    "Ġglad": 3325,
    "Ġhearse": 10421,
    "Ġproceeds": 12074,
    "Ġmerit": 9427,
    "Ġcontrivances": 12354,
    "observation": 17268,
    "otle": 21793,
    "Ġimprecate": 20515,
    "Ġtails": 9902,
    "Ġbleak": 10559,
    "Ġshot": 4545,
    "bout": 20771,
    "Ġpartial": 2127,
    "eg": 17527,
    "Ġpursu": 3238,
    "Ġsperma": 19046,
    "Ġspreading": 13376,
    "Ġcraven": 16468,
    "Ġ125": 24469,
    "Ġstoner": 7178,
    "ounding": 22388,
    "Ġunlock": 18238,
    "osop": 4401,
    "Ġhideous": 5982,
    "Ġoarsman": 8637,
    "sory": 17657,
    "pointing": 12221,
    "yourself": 6742,
    "Ġcared": 8782,
    "Ġplayfully": 19235,
    "Ġvisiting": 10357,
    "Ġirreducible": 5519,
    "Ġhardihood": 23108,
    "incess": 15480,
    "Ġrelatives": 12978,
    "deprived": 19895,
    "Ġblanket": 8342,
    "Ġfevers": 22203,
    "Ġburying": 19248,
    "gradu": 18614,
    "Ġpeas": 8533,
    "Ġcongratulated": 19763,
    "Ġindefinite": 17174,
    "Ġwonders": 7500,
    "Ġendowed": 18922,
    "Ġsinners": 18947,
    "Ġconcernment": 23643,
    "Ġglac": 9346,
    "Ġsurplus": 26302,
    "istan": 22104,
    "suspicions": 25390,
    "till": 6965,
    "000": 2561,
    "sleepers": 24729,
    "Ġsur": 2182,
    "ancholy": 5070,
    "ship": 1392,
    "Ġbressed": 21384,
    "ives": 1408,
    "orily": 15569,
    "Ġdict": 9175,
    "Ġeternally": 11370,
    "blasted": 20188,
    "ableness": 8148,
    "ī": 236,
    "Ġsimplest": 16330,
    "Ġevaporate": 26331,
    "Ġnosegay": 24189,
    "Ġsyn": 15909,
    "dually": 3283,
    "Ġfar": 1449,
    "Ġcasualty": 20340,
    "Ġmortally": 23913,
    "theast": 21744,
    "lounged": 26132,
    "Ġprovincial": 20648,
    "Ġsanguine": 25927,
    "ring": 1753,
    "Ġroots": 11186,
    "Ġapplicable": 19016,
    "piece": 6655,
    "Ġembarr": 7446,
    "Ġcomprehend": 6494,
    "beauty": 20100,
    "vity": 7815,
    "Ġofficers": 4424,
    "Ġincred": 5646,
    "Ġbiography": 22763,
    "depart": 12262,
    "Ġsanction": 20022,
    "Ġrejoice": 10209,
    "Ġarrant": 23295,
    "back": 2017,
    "Ġmess": 7831,
    "Ġcondescended": 19952,
    "vap": 13801,
    "dreadful": 11422,
    "Ġcolonnades": 26274,
    "Ġirresolution": 24914,
    "Ġcapable": 5054,
    "affect": 13210,
    "ise": 707,
    "cost": 19183,
    "Ġspl": 2986,
    "owed": 2270,
    "Ġreynolds": 10210,
    "Ġadmiring": 16478,
    "[": 63,
    "Ġaids": 12225,
    "Ġchapel": 9523,
    "inev": 21961,
    "Ġlory": 12648,
    "Ġshouted": 5347,
    "guilty": 19479,
    "Ġexcel": 3565,
    "Ġthrice": 10576,
    "Ġmock": 3690,
    "hither": 11493,
    "ieves": 4007,
    "Ġthankful": 14736,
    "Ġcrimson": 16438,
    "Ġorchard": 22090,
    "Ġplausible": 26552,
    "Ġaquiline": 26158,
    "ē": 212,
    "Ġberkshire": 16882,
    "belt": 24031,
    ",âĢĻ": 2327,
    "sof": 17655,
    "Ġapplications": 4784,
    "Ġdistress": 5844,
    "geor": 15974,
    "Ġdisturb": 7108,
    "Ġlivers": 18459,
    "orm": 425,
    "Ġamazing": 9977,
    "Ġback": 826,
    "Ġluckless": 16795,
    "rom": 420,
    "Ġartfully": 22606,
    "Ġoakshott": 12226,
    "Ġfourteen": 12007,
    "Ġopenshaw": 7954,
    "figure": 13553,
    "Ġloveliness": 13606,
    "Ġte": 1173,
    "Ġshower": 11708,
    "Ġbi": 920,
    "Ġtarget": 2825,
    "Ġendeavor": 16543,
    "Ġinex": 6528,
    "Ġadmirer": 16836,
    "Ġadvis": 9807,
    "comed": 8544,
    "pra": 15405,
    "Ġhunger": 8566,
    "Ġimputed": 12804,
    "Ġwanderings": 20140,
    "ved": 868,
    "Ġrides": 21970,
    "Ġnam": 17946,
    "Ġmonuments": 22973,
    "Ġconsc": 4273,
    "Ġmagn": 1551,
    "_.âĢĿ": 5885,
    "arson": 22743,
    "Ġwaning": 15531,
    "Ġridic": 7508,
    "james": 15370,
    "Ġwrites": 23194,
    "Ġdough": 8420,
    "Ġfoot": 3164,
    "ments": 1400,
    "Ġchased": 8861,
    "Ġlightnings": 16349,
    "Ġreach": 4047,
    "Ġcomfortless": 23909,
    "Ġadvocate": 13674,
    "Ġaimed": 20249,
    "Ġextant": 18696,
    "eminence": 20095,
    "Ġeverything": 3157,
    "Ġattendance": 12178,
    "Ġchina": 8039,
    "Ġcomprehending": 24444,
    "Ġlibr": 15997,
    "Ġnav": 5818,
    "irra": 15781,
    "Ġmat": 1147,
    "Ġarrang": 2470,
    "Ġoverthrow": 18430,
    "Ġlucifers": 16586,
    "Ġfugitives": 25633,
    "Ġact": 691,
    "eaten": 20343,
    "Ġcommenced": 8531,
    "Ġloathsome": 13526,
    "Ġstrangled": 24130,
    "Ġmus": 3395,
    "atha": 6572,
    "Ġdemi": 25547,
    "Ġwrapt": 24594,
    "Ġcalmer": 23040,
    "aks": 8506,
    "Ġstructural": 2801,
    "Ġattended": 5391,
    "»": 124,
    "Ġante": 17894,
    "Ġcapt": 1293,
    "Ġadequately": 15196,
    "Ġcontour": 18472,
    "Ġstealing": 18891,
    "wrong": 13202,
    "Ġdamned": 13129,
    "terms": 15747,
    "midnight": 14900,
    "scream": 11077,
    "libr": 22919,
    "thousands": 16870,
    "Ġposture": 24160,
    "sin": 21046,
    "Ġconjectures": 16923,
    "soo": 18683,
    "Ġviolin": 16425,
    "Ġrubbing": 9321,
    "approaching": 15010,
    "Ġincisive": 18568,
    "este": 15917,
    "swallow": 24256,
    "Ġsufferable": 16255,
    "Ġretirement": 25377,
    "Ġev": 4828,
    "Ġsurtout": 23463,
    "friend": 3862,
    "Ġhaunted": 10254,
    "Ġsentence": 6187,
    "Ġtowering": 16737,
    "Ġwhim": 13997,
    "cottagers": 20044,
    "ave": 979,
    "Ġcolleague": 17157,
    "ually": 2769,
    "Ġexhibited": 9544,
    "Ġbird": 3756,
    "Ġconsiderable": 4008,
    "yours": 7694,
    "Ġxliv": 23406,
    "Ġlog": 1677,
    "Ġnigh": 4878,
    "Ġmarch": 4082,
    "you": 1002,
    "Ġstoper": 14461,
    "iverse": 13113,
    "chron": 21690,
    "inferior": 12391,
    "Ġrafters": 22652,
    "fooled": 24418,
    "ĠĠĠĠĠĠĠĠĠĠĠĠĠĠĠĠĠĠĠĠĠĠ": 16223,
    "training": 2519,
    "Ġprecipices": 12274,
    "thankful": 16804,
    "whilst": 18369,
    "porpoise": 16435,
    "Ġranging": 8478,
    "keel": 14127,
    "impressions": 20696,
    "Ġgive": 1711,
    "Ġfurnishing": 16643,
    "Ġkrus": 18347,
    "regarded": 12005,
    "iastic": 12476,
    "Ġnewspaper": 12361,
    "bald": 16444,
    "okes": 9277,
    "Ġglimmering": 25239,
    "Ġdropt": 23671,
    "chose": 18038,
    "Ġwhitting": 18053,
    "Ġdistressed": 8513,
    "Ġscaled": 2105,
    "Ġscrawled": 24579,
    "Ġclanking": 20609,
    "ighb": 10424,
    "lower": 8879,
    "Ġcomparison": 7100,
    "fury": 17545,
    "close": 9986,
    "Ġfunny": 7637,
    "zetts": 17712,
    "Ġlizard": 12650,
    "estations": 22224,
    "Ġlavenza": 17968,
    "Ġslavery": 16303,
    "gratulation": 24348,
    "Ġbel": 1217,
    "Ġintelligence": 561,
    "turkish": 24532,
    "nursery": 26398,
    "Ġblasts": 19992,
    "ķ": 248,
    "Ġimbalance": 22170,
    "Ġmerchants": 23730,
    "Ġnow": 693,
    "ernal": 4310,
    "Ġirretrie": 23371,
    "Ġnay": 5711,
    "neck": 14233,
    "Ġcooped": 22579,
    "monkey": 19167,
    "Ġultimate": 12346,
    "Ġargument": 7099,
    "Ġ32": 19485,
    "epend": 3314,
    "lads": 20953,
    "Ġaisle": 21199,
    "Ġhyena": 24518,
    "Ġsouls": 6308,
    "Ġthrusts": 24349,
    "Ġsheet": 6262,
    "lesc": 11039,
    "Ġblasphemy": 26114,
    "combination": 25485,
    "Ġimplac": 24873,
    "Ġbouquet": 20681,
    "Ġbags": 24536,
    "Ġripe": 13232,
    "Ġloom": 7628,
    "Ġspiracle": 14148,
    "Ġilliterate": 26593,
    "manners": 16181,
    "Ġamusing": 11797,
    "Ġskill": 6872,
    "Ġprophesied": 26061,
    "Ġparticularly": 5056,
    "owers": 12680,
    "Ġfertile": 20580,
    "prosperity": 20733,
    "Ġforced": 4350,
    "Ġcorrespond": 6209,
    "reposed": 24491,
    "Ġyellowish": 24429,
    "Ġth": 299,
    "Ġrecollect": 8309,
    "alizing": 17937,
    "Ġthousandth": 23682,
    "Ġpersian": 11091,
    "Ġpersons": 6180,
    "Ġbrides": 22862,
    "rim": 7138,
    "Ġworshipping": 22924,
    "Ġoriginal": 6102,
    "social": 11023,
    "Ġbewildered": 15211,
    "Ġdespond": 14666,
    "Ġfavourable": 7958,
    "Ġcrew": 2497,
    "Ġenhancement": 23740,
    "marriage": 7744,
    "Ġmales": 17803,
    "murder": 10565,
    "Ġdenny": 9001,
    "nowhere": 18416,
    "Ġnoteworthy": 24158,
    "Ġfunction": 586,
    "c": 71,
    "Ġadvised": 16199,
    "Ġbre": 1915,
    "Ġalphabetical": 17200,
    "amed": 4448,
    "Ġplata": 25116,
    "Ġcourt": 4168,
    "Ġsign": 2496,
    "Ġintegral": 25007,
    "Ġconsoled": 18110,
    "Ġlabrador": 23328,
    "Ġhangs": 11605,
    "Ġunceasing": 20356,
    "Ġprove": 5231,
    "swallowed": 14851,
    "geneva": 13728,
    "Ġtut": 8769,
    "ref": 6515,
    "Ġwhip": 8451,
    "incing": 15483,
    "marks": 7346,
    "Ġhospitals": 24922,
    "plutarch": 21959,
    "Ġpods": 17912,
    "Ġpress": 5931,
    "ther": 482,
    "Ġchal": 18376,
    "Ġinsatiable": 19269,
    "Ġcastaways": 19424,
    "fail": 17538,
    "Ġshield": 21995,
    "Ġadoption": 24947,
    "Ġfa": 4819,
    "Ġmowers": 17810,
    "fanc": 20862,
    "Ġalien": 14016,
    "Ġtexas": 25921,
    "bethink": 25743,
    "zas": 17710,
    "Ġjustification": 22962,
    "Ġsplendour": 20223,
    "eric": 3467,
    "english": 2774,
    "Ġaccordance": 19494,
    "Ġmitig": 1337,
    "Ġdesperate": 7776,
    "Ġheel": 9684,
    "?--": 15301,
    "share": 14235,
    "Ġspiced": 22129,
    "Ġpedest": 14994,
    "Ġpoised": 22586,
    "accomplishment": 20222,
    "ience": 789,
    "Ġdegra": 2589,
    "Ġswear": 6461,
    "Ġmonkey": 8225,
    "kept": 11715,
    "Ġreluct": 14370,
    "nets": 9132,
    "rical": 11518,
    "Ġblinded": 13268,
    "Ġhated": 7584,
    "Ġson": 2985,
    "Ġcrush": 9422,
    "Ġtrusty": 24101,
    "Ġhumaneval": 25581,
    "allest": 5485,
    "Ġagencies": 18537,
    "filled": 9595,
    "lic": 17585,
    "Ġsunny": 13083,
    "Ġscandinav": 19957,
    "mits": 13754,
    "'(": 2981,
    "esteem": 26007,
    "unbounded": 21881,
    "mon": 2309,
    "knowing": 10438,
    "Ġdef": 1200,
    "Ġlasting": 18789,
    "Ġcurios": 18848,
    "explanations": 25233,
    "Ġpart": 860,
    "ols": 2415,
    "Ġopium": 8994,
    "four": 6113,
    "leading": 15558,
    "Ġshipping": 14102,
    "Ġsphy": 18309,
    "Ġskil": 14350,
    "Ġshine": 12762,
    "Ċ": 203,
    "alth": 3255,
    "Ġslily": 23159,
    "Ġfrigid": 17351,
    "Ġblushed": 12998,
    "Ġlurk": 13381,
    "Ġfulfil": 9551,
    "Ġantelope": 24177,
    "icken": 6711,
    "'": 11,
    "omp": 2473,
    "Ġjonah": 3477,
    "Ġweapon": 7775,
    "Ġinitial": 821,
    "gloom": 17137,
    "Ġforming": 7043,
    "Ġimpose": 22379,
    "report": 13397,
    "Ġassociation": 24710,
    "Ġperson": 2371,
    "murdered": 12199,
    "side": 2302,
    "Ġfort": 2578,
    "unt": 2044,
    "become": 14245,
    "wouldn": 23534,
    "Ġfug": 12591,
    "Ġmultitudinous": 26272,
    "Ġcaus": 1725,
    "hoist": 23711,
    "Ġstaves": 21736,
    "Ġornamented": 20160,
    "leather": 13888,
    "Ġsaws": 23045,
    "assembled": 21541,
    "Ġforb": 11662,
    "Ġmuttered": 7087,
    "Ġsubsequently": 16156,
    "«": 109,
    "Ġbelly": 10370,
    "Ġ97": 19771,
    "oth": 1185,
    "Ġspake": 18306,
    "Ġgallantry": 15101,
    "Ġleaders": 16625,
    "Ġmortification": 12090,
    "ising": 2254,
    "stache": 15686,
    "Ġalice": 1480,
    "locked": 7677,
    "fortun": 3535,
    "Ġjealousy": 13574,
    "Ġaddressing": 11165,
    "activation": 3230,
    "cri": 17503,
    "Ġplaned": 24051,
    "Ġheave": 7599,
    "creat": 20798,
    "bbs": 23690,
    "Ġinsects": 25645,
    "Ġlapse": 17118,
    "Ġdeduction": 14899,
    "Ġjog": 18402,
    "Ġsport": 6688,
    "Ġabridged": 26539,
    "Ġaberdeen": 26540,
    "Ġafter": 869,
    "Ġnaked": 8126,
    "Ġpillar": 21470,
    "Ġdemo": 10880,
    "Ġpoltro": 23618,
    "ivility": 12779,
    "Ġdiscretion": 10348,
    "Ġmincing": 18748,
    "network": 1941,
    "ipagos": 22355,
    "maker": 12489,
    "Ġconceivable": 16611,
    "quarrel": 20011,
    "Ġattain": 12743,
    "lilies": 20959,
    "Ġbanish": 15566,
    "Ġhush": 13207,
    "Ġintending": 11702,
    "what": 643,
    "Ġwarming": 23556,
    "Ġfins": 9664,
    "Ġlay": 582,
    "ason": 1264,
    "brous": 19195,
    "olidity": 18130,
    "Ġpenetrate": 12266,
    "mountains": 15178,
    "Ġmagnificence": 20630,
    "Ġintervene": 25479,
    "Ġconfed": 13095,
    "Ġapprehensiveness": 16875,
    "Ġconquered": 14024,
    "Ġthousands": 6748,
    "Ġpotent": 12061,
    "Ġlect": 9222,
    "Ġhelper": 24022,
    "Ġfearfully": 23508,
    "lake": 13747,
    "Ġunostentatious": 22062,
    "gely": 10701,
    "Ġdiscoveries": 13356,
    "Ġvital": 9242,
    "Ġsacri": 18326,
    "osy": 11755,
    "plexy": 18573,
    "Ġnat": 12641,
    "trust": 21076,
    "dispute": 23496,
    "Ġbursting": 8655,
    "avery": 13681,
    "Ġshrieked": 9548,
    "Ġrheumatic": 20703,
    "Ġarom": 15490,
    "Ġdropped": 4473,
    "malicious": 19899,
    "Ġperpendicular": 7209,
    "Ġtroubling": 26546,
    "Ġconfounded": 16380,
    "Ġpunct": 8660,
    "Ġswaths": 23054,
    "am": 367,
    "misery": 13341,
    "caus": 11477,
    "cheer": 9437,
    "parable": 16395,
    "ission": 6457,
    "ared": 771,
    "brandy": 19197,
    "Ġtistig": 26412,
    "Ġrenewing": 19807,
    "Ġfurnished": 6475,
    "Ġdesk": 11903,
    "wers": 12516,
    "oons": 12495,
    "Ġbulky": 13226,
    "Ġbreat": 3458,
    "blister": 24124,
    "Ġshocks": 16455,
    "Ġprinciple": 6770,
    "kshire": 13744,
    "Ġproduced": 2454,
    "era": 13845,
    "positive": 20565,
    "benefit": 24641,
    "etimes": 1988,
    "gravel": 22615,
    "Ġconfeder": 25707,
    "Ġmaintains": 2145,
    "Ġmoody": 8200,
    "Ġchick": 22243,
    "Ġgull": 15666,
    "Ġincludes": 2012,
    "Ġhoisted": 5959,
    "octial": 20001,
    "fl": 3598,
    "Ġjewelled": 20182,
    "Ġcreamy": 14327,
    "Ġfidgeted": 25888,
    "Ġdrunkard": 20176,
    "writer": 14647,
    "falsehood": 25900,
    "Ġbrought": 2518,
    "ibid": 18838,
    "down": 3466,
    "Ġblandly": 20322,
    "Ġsystem": 585,
    "Ġprotruding": 16656,
    "Ġinquiries": 5678,
    "crum": 17509,
    "Ġnone": 3222,
    "Ġfinishing": 23120,
    "arn": 357,
    "Ġtottenham": 24138,
    "leave": 7837,
    "Ġprejudice": 9075,
    "manifested": 20523,
    "nui": 20998,
    "oted": 4598,
    "Ġvessel": 3798,
    "resc": 21236,
    "tried": 13792,
    "Ġunnaturally": 24869,
    "iquette": 26131,
    "landsmen": 25058,
    "Ġaccents": 14209,
    "Ġarmitage": 23580,
    "Ġvarying": 15807,
    "Ġtenants": 23545,
    "Ġprodigy": 19789,
    "Ġrep": 1938,
    "ruin": 22172,
    "Ġwriting": 4668,
    "Ġpow": 4638,
    "Ġengravings": 15063,
    "Ġdense": 8122,
    "trowsers": 17689,
    "Ġfict": 21402,
    "bowl": 14889,
    "Ġslices": 23160,
    "distinguished": 10527,
    "Ġprudence": 13918,
    "Ġgreeks": 20009,
    "assistance": 20368,
    "Ġstepfather": 7221,
    "Ġwaterloo": 11978,
    "hopes": 15367,
    "peaceful": 20444,
    "eman": 5636,
    "Ġvelvet": 12395,
    "gossip": 23401,
    "Ġclink": 22341,
    "Ġclinch": 18422,
    "quarters": 24945,
    "threatened": 25461,
    "Ġcats": 8979,
    "Ġpressure": 13420,
    "several": 5544,
    "nothing": 3156,
    "Ġwarped": 25034,
    "----âĢĻ": 24093,
    "Ġdeliriously": 23226,
    "Ġmatrices": 4969,
    "eous": 13710,
    "O": 51,
    "Ġratt": 7880,
    "Ġdec": 642,
    "receive": 12538,
    "Ġcons": 953,
    "teak": 22811,
    "Ġdit": 21417,
    "wr": 3029,
    "encouragement": 17421,
    "Ġprecipice": 19937,
    "Ġstun": 11649,
    "och": 20999,
    "prudently": 21032,
    "changed": 7175,
    "flinging": 20866,
    "Ġbought": 8415,
    "Ġthoroughfare": 16942,
    "Ġcrevice": 22723,
    "away": 4626,
    "Ġunhallowed": 17178,
    "Ġnapoleons": 25884,
    "Ġcouns": 10521,
    "Ġadvise": 7934,
    "uneven": 23683,
    "Ġendurance": 23139,
    "Ġlung": 7168,
    "Ġguided": 10461,
    "Ġincreas": 1693,
    "test": 13790,
    "Ġcontribut": 12855,
    "Ġrate": 1062,
    "Ġrustic": 14963,
    "Ġuse": 838,
    "Ġsecondly": 14516,
    "Ġseemed": 1279,
    "uded": 6286,
    "Ġdoctor": 5067,
    "Ġindulge": 10583,
    "Ġclos": 4550,
    "Ġsluggish": 25889,
    "Ġardent": 9970,
    "reen": 21229,
    "Ġfishy": 16521,
    "Ġdivided": 8631,
    "Ġconsulted": 13428,
    "Ġavowed": 16631,
    "Ġteaching": 10365,
    "Ġdaughters": 4419,
    "Ġla": 5912,
    "september": 14034,
    "mentioning": 24884,
    "din": 8373,
    "Ġusing": 714,
    "elling": 5830,
    "Ġgrazed": 15830,
    "Ġrefrained": 14334,
    "Ġsell": 7825,
    "Ġanalyze": 1590,
    "Ġcoals": 16071,
    "forget": 11033,
    "Ġoptimal": 1857,
    "Ġholding": 4979,
    "Ġgathering": 14976,
    "Ġpunctures": 25132,
    "new": 1465,
    "Ġpride": 3822,
    "Ġfearlessness": 19158,
    "Ġsurging": 19131,
    "wrath": 23754,
    "Ġ54": 24321,
    "Ġoct": 10159,
    "Ġinflamed": 13471,
    "Ġinconsiderable": 21491,
    "aphys": 15199,
    "Ġemails": 13104,
    "earnestly": 17311,
    "Ġlatterly": 24081,
    "vicious": 21116,
    "rily": 7621,
    "Ġeverywhere": 9796,
    "Ġcasement": 25091,
    "bbing": 6323,
    "urious": 21699,
    "akers": 9739,
    "Ġindicate": 23720,
    "Ġrenewal": 12231,
    "Ġpertaining": 18448,
    "Ġmaggie": 26290,
    "plunging": 25986,
    "arrival": 15596,
    "Ġsaddest": 16660,
    "Ġcomposition": 1687,
    "Ġguineas": 16268,
    "Ġdecayed": 22821,
    "dled": 9110,
    "une": 2787,
    "âĢĻ!âĢĿ": 18165,
    "Ġbusks": 23336,
    "Ġpushing": 10820,
    "bolts": 11421,
    "Ġlecture": 13565,
    "gging": 7696,
    "Ġslackened": 15124,
    "dear": 6555,
    "Ġryder": 10259,
    "astrop": 3315,
    "Ġast": 2964,
    "Ġdevotion": 22714,
    "Ġsaints": 20672,
    "Ġencountering": 11270,
    "Ġscornful": 24995,
    "asses": 7017,
    "fulfilment": 26024,
    "ues": 2079,
    "Ġties": 12523,
    "ipl": 20916,
    "Ġhull": 5446,
    "Ġconsume": 12954,
    "enet": 10153,
    "Ġcentre": 5123,
    "Ġsweat": 13138,
    "clothes": 9057,
    "ethics": 8878,
    "Ġshel": 6847,
    "Ġsod": 11561,
    "Ġastronomy": 25925,
    "ickory": 22665,
    "Ġcav": 13878,
    "Ġfle": 3091,
    "Ġfluttered": 16244,
    "retrospect": 23132,
    "Ġdames": 23471,
    "Ġmarbles": 18870,
    "che": 3173,
    "Ġthoughtless": 16189,
    "Ġarrow": 10932,
    "Ġmonoton": 3634,
    "happen": 19328,
    "conception": 22470,
    "Ġdusk": 12324,
    "Ġunfitted": 24105,
    "whales": 5187,
    "urity": 8142,
    "Ġwrung": 14468,
    "Ġdriver": 16472,
    "anthrop": 17380,
    "Ġexhausted": 8693,
    "hounds": 20905,
    "Ġidiotic": 25587,
    "sat": 4810,
    "Ġpair": 5706,
    "xim": 1092,
    "flames": 14710,
    "Ġconqueror": 25795,
    "interview": 19295,
    "vener": 21109,
    "trick": 19409,
    "Ġlofty": 6217,
    "otted": 14022,
    "remind": 23184,
    "Ġdishonoured": 20388,
    "Ġliked": 5264,
    "been": 3343,
    "Ġoffence": 12941,
    "Ġcircumspect": 15082,
    "Ġply": 21450,
    "imet": 21702,
    "Ġoft": 9194,
    "bitterly": 20336,
    "Ġmace": 21307,
    "Ġcitadel": 25437,
    "disc": 4729,
    "discovered": 8324,
    "ashions": 16414,
    "Ġsteep": 2891,
    "Ġforger": 15729,
    "Ġsickness": 10539,
    "Ġtragedy": 10668,
    "Ġbubbles": 11399,
    "Ġbug": 11588,
    "Ġthem": 639,
    "Ġimitated": 18328,
    "dischar": 19149,
    "Ġ60": 14873,
    "Ġcables": 15554,
    "neighbour": 7211,
    "wolf": 26408,
    "Ġsteersman": 13038,
    "Ġbrand": 16183,
    "honor": 19897,
    "Ġstruck": 3387,
    "Ġdiscl": 9797,
    "grammar": 6434,
    "zar": 11547,
    "Ġharpoons": 5659,
    "Ġvenetian": 14845,
    "Ġdotted": 16790,
    "Ġsu": 433,
    "Ġ107": 24414,
    "Ġindul": 5856,
    "Ġfill": 5701,
    "Ġinjuring": 24267,
    "wishing": 21126,
    "Ġsorting": 3233,
    "Ġspoutings": 14674,
    "Ġbrushed": 15567,
    "late": 11499,
    "it": 276,
    "Ġmustering": 18660,
    "hom": 12470,
    "Ġmalady": 24391,
    "Ġchannel": 26011,
    "Ġuntoward": 19162,
    "Ġqueen": 3212,
    "interred": 23734,
    "bear": 10315,
    "Ġnortheast": 23198,
    "Ġca": 21336,
    "Ġdescend": 7427,
    "Ġglory": 6064,
    "Ġshudderings": 25199,
    "Ġindistinctly": 26116,
    "Ġinstrument": 7119,
    "Ġopinions": 9415,
    "Ġwarb": 17785,
    "Ġcopse": 17065,
    "Ġgreatly": 5849,
    "Ġmun": 12558,
    "Ġstag": 6148,
    "Ġfreemason": 23208,
    "Ġbehooves": 20731,
    "spot": 9789,
    "sa": 8756,
    "Ġswinging": 7449,
    "adagrad": 9691,
    "Ġinve": 17926,
    "Ġhandy": 12932,
    "Ġgourmand": 26465,
    "Ġdeliverance": 15155,
    "dman": 10089,
    "Ġinspired": 2520,
    "Ġbeings": 2491,
    "lips": 13748,
    "26": 10073,
    "Ġklan": 23658,
    "divided": 25017,
    "her": 488,
    "Ġwoke": 21287,
    "Ġacceded": 22375,
    "Ġbecomes": 6396,
    "Ġcringing": 25940,
    "Ġirreduc": 5491,
    "Ġtumultuous": 10616,
    "Ġen": 393,
    "Ġirons": 7695,
    "Ġrejected": 12291,
    "Ġpyramids": 15112,
    "event": 8076,
    "Ġwhistle": 9065,
    "consequ": 18504,
    "Ġcolossal": 11460,
    "Ġpudding": 17913,
    "Ġfish": 2711,
    "consuming": 25673,
    "consum": 12866,
    "Ġdug": 21427,
    "henomen": 10495,
    "Ġimmens": 9939,
    "Ġexp": 778,
    "Ġadieu": 10051,
    "subst": 12161,
    "Ġconceits": 19386,
    "relation": 19443,
    "Ġbachel": 7159,
    "flex": 24842,
    "ittle": 811,
    "Ġargosy": 24272,
    "shining": 18492,
    "Ġinfall": 7959,
    "fully": 2203,
    "Ġnarrative": 6215,
    "Ġamendment": 26023,
    "Ġ49": 24078,
    "Ġremarks": 7474,
    "Ġtusk": 25424,
    "Ġpomp": 12618,
    "Ġmagnifying": 16315,
    "Ġcrown": 5287,
    "Ġbrown": 6298,
    "Ġredundant": 16549,
    "iogn": 20919,
    "inting": 9814,
    "paid": 15412,
    "Ġmuscle": 14688,
    "Ġspur": 18301,
    "apes": 9741,
    "ux": 7813,
    "virtue": 20567,
    "Ġgorge": 13564,
    "Ġtap": 12522,
    "Ġinstinct": 6575,
    "fatig": 17087,
    "far": 5787,
    "asingly": 17958,
    "Ġvers": 7563,
    "Ġscuffle": 20606,
    "swept": 19783,
    "incident": 14590,
    "Ġcontemplate": 19889,
    "dee": 11730,
    "Ġardu": 22179,
    "Ġinvoluntarily": 8546,
    "enjoyments": 25432,
    "Ġblight": 18815,
    "azing": 7704,
    "miniature": 16763,
    "heads": 4094,
    "Ġupper": 5090,
    "Ġpian": 13915,
    "piled": 21013,
    "Ġunstructure": 2996,
    "zening": 21146,
    "bringing": 17164,
    "relate": 24007,
    "dozen": 23375,
    "Ġregain": 22570,
    "riety": 12740,
    "jack": 7344,
    "Ġeffectively": 2705,
    "Ġdart": 4586,
    "Ġvii": 13106,
    "calculating": 25688,
    "elements": 25202,
    "cruise": 24840,
    "child": 5538,
    "Ġgore": 17986,
    "ights": 8475,
    "rupt": 3210,
    "Ġbiological": 1934,
    "Ġderive": 10395,
    "Ġtitle": 11409,
    "Ġhelmsman": 10505,
    "Ġprotruded": 19466,
    "Ġbarriers": 23792,
    "Ġarbitrary": 4736,
    "Ġrequires": 1013,
    "Ġattack": 5478,
    "Ġaristotle": 25816,
    "Ġspoiled": 11364,
    "1": 21,
    "Ġextinguish": 14341,
    "uously": 7353,
    "life": 4932,
    "brew": 11474,
    "Ġinconceivable": 17935,
    "chel": 11208,
    "Ġrippling": 17276,
    "Ġtolland": 24987,
    "Ġpermission": 9279,
    "rely": 6123,
    "abominable": 20591,
    "comra": 16168,
    "Ġenjoys": 19446,
    "Ġpetrified": 19593,
    "Ġadler": 8173,
    "gallantry": 15057,
    "Ġarrogance": 26230,
    "istic": 981,
    "Ġbarren": 11207,
    "awe": 20763,
    "grew": 17553,
    "Ġtranced": 18424,
    "Ġmay": 924,
    "so": 890,
    "Ġinevitably": 17229,
    "Ġohio": 19126,
    "Ġarrows": 18336,
    "iem": 20915,
    "stud": 8819,
    "elter": 21567,
    "Ġdissolved": 18552,
    "Ġinferred": 14500,
    "Ġseen": 1369,
    "Ġfatally": 19390,
    "Ġextravagant": 17277,
    "eleg": 20847,
    "Ġjava": 12309,
    "Ġtoilings": 24741,
    "Ġcruises": 23703,
    "ivable": 10911,
    "Ġseal": 10255,
    "neighboring": 20614,
    "Ġspr": 4026,
    "Ġdecap": 16016,
    "Ġindividually": 22953,
    "Ġchallenges": 13628,
    "arded": 5029,
    "Ġconsulting": 13427,
    "Ġket": 18345,
    "continuance": 19715,
    "Ġwrap": 24593,
    "ĥ": 230,
    "Ġtenement": 23546,
    "Ġleaped": 8825,
    "refusal": 24735,
    "Ġwhisky": 23930,
    "Ġplayers": 12035,
    "Ġhurriedly": 11251,
    "Ġpalpitated": 26084,
    "Ġjustly": 11900,
    "Ġabundance": 17153,
    "Ġappropri": 2226,
    "rougham": 15989,
    "Ġdardanelles": 26442,
    "pit": 3985,
    "Ġrem": 955,
    "arily": 4125,
    "Ġfates": 15574,
    "advanced": 19585,
    "bo": 1689,
    "injury": 25212,
    "Ġapparition": 8066,
    "sincerely": 24583,
    "Ġdive": 10173,
    "Ġtrailing": 23076,
    "Ġrecip": 16137,
    "Ġducks": 25156,
    "Ġsymmet": 11744,
    "Ġappals": 22212,
    "xi": 17708,
    "Ġjacob": 1900,
    "Ġinternal": 2245,
    "lingering": 18599,
    "Ġfinny": 23122,
    "Ġterm": 2267,
    "Ġtestimony": 14477,
    "pale": 13770,
    "eed": 20839,
    "Ġalteration": 9546,
    "Ġquee": 1980,
    "Ġsubsiding": 23431,
    "Ġnormalizing": 1822,
    "Ġjolly": 6858,
    "Ġlangsdorff": 15274,
    "Ġ33": 16674,
    "compass": 9460,
    "Ġvindication": 25363,
    "Ġperusal": 14223,
    "Ġilluminating": 25244,
    "Ġsunshine": 14493,
    "Ġdirest": 22701,
    "Ġjagged": 18405,
    "Ġark": 10276,
    "etics": 21577,
    "south": 8758,
    "iana": 7049,
    "Ġpainting": 13139,
    "Ġkate": 15901,
    "america": 17095,
    "Ġunlocking": 20704,
    "erable": 1918,
    "Ġinspector": 6498,
    "deploy": 22139,
    "Ġerrand": 11086,
    "arse": 7161,
    "Ġhappily": 9331,
    "innocence": 15181,
    "Ġecon": 9678,
    "lessly": 4557,
    "Ġconsecrated": 26487,
    "Ġvenom": 24237,
    "cils": 20812,
    "Ġlaugh": 4112,
    "ages": 829,
    "slipped": 25528,
    "Ġshattered": 7883,
    "Ġspend": 5304,
    "Ġprovoke": 14823,
    "Ġtaffrail": 15474,
    "Ġphenomena": 21480,
    "Ġpremium": 23901,
    "Þ": 159,
    "Ġbrother": 2749,
    "Ġpalsy": 25777,
    "Ġskirts": 14351,
    "angible": 22101,
    "Ġimposs": 16614,
    "Ġspermaceti": 8967,
    "regard": 7972,
    "Ġexperienced": 6581,
    "natured": 7111,
    "Ġcontempl": 6701,
    "lers": 10107,
    "Ġswallowed": 7943,
    "Ġrecurring": 23229,
    "Ġass": 1504,
    "rie": 2788,
    "offensive": 16391,
    "Ġnaturally": 2468,
    "ve": 322,
    "befall": 22491,
    "Ġintroduces": 3269,
    "Ġarrog": 18337,
    "Ġnic": 7376,
    "irably": 13293,
    "Ġenterprise": 8641,
    "Ġhopeful": 19031,
    "Ġalpha": 13586,
    "Ġrazors": 22653,
    "culiar": 2823,
    "Ġtransformed": 22607,
    "Ġinvestigation": 9042,
    "bad": 12433,
    "Ġvillainous": 25130,
    "Ġstro": 4596,
    "Ġprompted": 23813,
    "Ġexamination": 8004,
    "Ġdouble": 4940,
    "Ġspaulding": 11728,
    "Ġprocession": 11772,
    "ufactured": 15179,
    "Ġdelivery": 18973,
    "Ġerecting": 24651,
    "uted": 7592,
    "Ġmerchantmen": 19857,
    "altern": 17939,
    "Ġundo": 15837,
    "baron": 24924,
    "Ġready": 3396,
    "Ġphysi": 9988,
    "Ġimpossibility": 20645,
    "Ġblows": 5972,
    "onsensical": 18574,
    "Ġmodels": 761,
    "Ġmoles": 22430,
    "Ġdiminishing": 4207,
    "Ġsystematic": 5245,
    "Ġutil": 4673,
    "Ġflea": 23771,
    "Ġeasiness": 23535,
    "Ġgenerate": 1499,
    "Ġcage": 17823,
    "oment": 921,
    "alike": 17940,
    "Ġlive": 2735,
    "indeed": 4489,
    "Ġoutward": 7903,
    "Ġunprinciple": 18249,
    "woes": 21131,
    "Ġguard": 6178,
    "interesting": 12198,
    "Ġhatter": 4111,
    "Ġhook": 6453,
    "orters": 21398,
    "ashed": 3784,
    "Ġexpedite": 24952,
    "question": 5418,
    "Ġcertain": 1553,
    "Ġwithheld": 18112,
    "======": 9833,
    "entions": 17972,
    "6": 26,
    "alescing": 23863,
    "Ġexagger": 12715,
    "Ġburn": 3681,
    "Ġslipper": 24264,
    "hed": 671,
    "Ġcoldness": 23757,
    "Ġeuropean": 20042,
    "Ġnoisier": 4625,
    "Ġexcuses": 19040,
    "Ġthen": 665,
    "Ġfreed": 7267,
    "separ": 9230,
    "Ġmodular": 12814,
    "Ġgallows": 12142,
    "Ġsharpen": 13567,
    "peculiarities": 13469,
    "Ġhing": 11603,
    "Ġdoubted": 7964,
    "Ġmerits": 13192,
    "Ġrolls": 8333,
    "oars": 9615,
    "Ġbehave": 23296,
    "Ġtreacherously": 25128,
    "Ġsusp": 2663,
    "ameter": 3081,
    "Ġled": 3518,
    "icacy": 15654,
    "quimaux": 21855,
    "Ġsurvive": 9066,
    "--------": 14778,
    "Ġeast": 5370,
    "Ġcommonly": 3263,
    "valley": 16209,
    "Ġsoot": 14128,
    "Ġreaches": 18029,
    "kington": 11203,
    "Ġclings": 15959,
    "ciousness": 20815,
    "mast": 3600,
    "practical": 17220,
    "Ġomin": 11576,
    "Ġstrangely": 5677,
    "jected": 22710,
    "Ġwhispered": 5337,
    "Ġsympathising": 24296,
    "ilst": 8143,
    "Ġbiggest": 24565,
    "copper": 19185,
    "Ġaright": 11737,
    "Ġgallied": 19553,
    "Ġembellish": 25847,
    "apable": 6422,
    "Ġintelligences": 12827,
    "Ġexquis": 9699,
    "sho": 6425,
    "Ġconfirming": 25320,
    "Ġreligious": 25120,
    "entering": 17974,
    "Ġfrigates": 25706,
    ",âĢĻâĢĶ": 23525,
    "cheerfulness": 20179,
    "Ġintended": 5548,
    "Ġprinces": 23218,
    "disappeared": 14569,
    "Ġschedules": 3384,
    "igms": 3046,
    "expressing": 16799,
    "Ġknock": 9973,
    "Ġtranquo": 14841,
    "aming": 5828,
    "pour": 17628,
    "Ġilleg": 21619,
    "Ġdispute": 16051,
    "Ġcanv": 7010,
    "Ġsoul": 2726,
    "Ġattraction": 18617,
    "Ġelse": 2482,
    "Ġhuff": 21486,
    "hau": 17560,
    "Ġcondu": 18107,
    "Ġindia": 10371,
    "Ġwatery": 6296,
    "Ġgames": 11625,
    "des": 1562,
    "ooped": 17621,
    "Ġrumors": 11322,
    "Ġcheese": 9377,
    "Ġlament": 7856,
    "Ġpicked": 6341,
    "Ġslumbering": 25700,
    "starbuck": 6018,
    "ded": 2424,
    "always": 5708,
    "Ġloop": 14145,
    "Ġinclude": 1874,
    "Ġchaise": 9076,
    "Ġorphans": 20203,
    "Ġnought": 21518,
    "Ġexceeding": 1577,
    "Ġbur": 2697,
    "Ġskulls": 12956,
    "Ġrespons": 2683,
    "Ġpublisher": 24061,
    "Ġcrawl": 11376,
    "Ġeliza": 6437,
    "Ġrecommendation": 17023,
    "nihil": 9855,
    "Ġashore": 5351,
    "making": 2572,
    "glow": 20872,
    "Ġwhirlwinds": 20462,
    "Ġsustained": 13480,
    "Ġsupre": 10271,
    "Ġintercept": 14267,
    "dissemble": 23489,
    "Ġapparent": 5466,
    "rederick": 14077,
    "pot": 10118,
    "Ġvelvets": 25392,
    "Ġautoregressive": 3430,
    "Ġaddition": 1146,
    "island": 10795,
    "Ġlighting": 13080,
    "doors": 19092,
    "rages": 15677,
    "Ġsternly": 16713,
    "Ġdances": 10813,
    "iably": 13736,
    "Ġpref": 14170,
    "Ġgrown": 5628,
    "mish": 17596,
    "Ġaffability": 14385,
    "omics": 21639,
    "Ġfollowed": 1794,
    "Ġtowers": 16736,
    "Ġimposing": 11778,
    "quake": 11679,
    "Ġminimizing": 3462,
    "Ġflora": 11417,
    "spoke": 11024,
    "fal": 17534,
    "ho": 2860,
    "Ġtales": 10142,
    "Ġtrotting": 19972,
    "Ġ43": 14767,
    "Ġbenjam": 22884,
    "ropout": 1321,
    "lakeman": 13749,
    "Ġexistence": 4707,
    "Ġagents": 9766,
    "Ġbelieve": 2147,
    "ap": 546,
    "exhibited": 18475,
    "pocket": 9811,
    "Ġheading": 8935,
    "occurrences": 26330,
    "cont": 2922,
    "Ġcaut": 6521,
    "Ġexped": 7650,
    "compliment": 11365,
    "Ġendured": 6072,
    "cares": 24308,
    "âĢľ": 344,
    "Ġsebastian": 11694,
    "Ġwhistles": 24623,
    "Ġtransp": 4770,
    "alvan": 21500,
    "Ġregard": 3067,
    "enes": 5218,
    "Ġpulley": 2978,
    "Ġhill": 5626,
    "Ġevol": 2818,
    "Ġobsequious": 17402,
    "accompanied": 12419,
    "information": 12390,
    "Ġyoun": 1407,
    "church": 8139,
    "Ġheaven": 3363,
    "Ġshrieks": 12196,
    "Ġencouragement": 13039,
    "Ġfootmarks": 19334,
    "street": 6495,
    "speps": 14332,
    "cream": 15329,
    "ousness": 10275,
    "Ġblan": 18814,
    "inite": 6001,
    "Ġpredicts": 2594,
    "roots": 15639,
    "aviour": 11006,
    "Ġfold": 5531,
    "tumult": 12420,
    "Ġencouraging": 2263,
    "address": 14879,
    "contr": 12054,
    "Ġwis": 3728,
    "consumed": 25674,
    "allowing": 24357,
    "cific": 10086,
    "Ġfollows": 7672,
    "Ġmediterranean": 12312,
    "Ġinclu": 1100,
    "ainted": 3656,
    "lands": 8240,
    "Ġsacrificed": 17420,
    "et": 307,
    "Ġsquall": 7044,
    "unpardonable": 21886,
    "Ġnuptial": 25781,
    "Ġeffects": 7236,
    "oton": 3605,
    "Ġphilosop": 5057,
    "Ġmomentum": 1601,
    "Ġdivined": 19439,
    "Ġlanguor": 12843,
    "Ġagitates": 22512,
    "Ġblunder": 18816,
    "Ġtravelling": 11308,
    "Ġresolving": 9419,
    "Ġcauldron": 25440,
    "Ġexceptional": 19367,
    "brown": 15315,
    "Ġsmelling": 16062,
    "enty": 2918,
    "stories": 18021,
    "Ġexercised": 24802,
    "ignorant": 13561,
    "Ġfamilies": 8026,
    "Ġalchemists": 26486,
    "unwholesome": 26496,
    "Ġgenerally": 4157,
    "science": 11906,
    "Ġgrapp": 14099,
    "Ġrespectful": 16342,
    "anqu": 4109,
    "Ġcreep": 22720,
    "Ġdemig": 20355,
    "Ġrails": 22649,
    "centred": 25016,
    "Ġassembly": 10643,
    "Ġdub": 13907,
    "Ġhousekeeping": 18941,
    "prison": 14661,
    "Ġfrantic": 7956,
    "Ġdesp": 3214,
    "worked": 19007,
    "Ġdisdain": 8359,
    "Ġunex": 11711,
    "lung": 17589,
    "Ġgoat": 16003,
    "Ġkirwin": 8496,
    "ulls": 8837,
    "tormented": 13643,
    "Ġhundredth": 16516,
    ",_": 11463,
    "Ġextracted": 16321,
    "Ġtremor": 24767,
    "Ġwaste": 9233,
    "Ġpoetry": 15078,
    "Ġchemist": 11135,
    "Ġprotesting": 14739,
    "fields": 14652,
    "Ġwherever": 8523,
    "Ġworked": 6583,
    "Ġrecollection": 6620,
    "Ġreproachfully": 25250,
    "Ġpumps": 8426,
    "Ġcondemn": 13442,
    "Ġaloft": 4301,
    "Ġwait": 4907,
    "Ġjupiter": 17453,
    "Ġpatiently": 19915,
    "Ġjuncture": 17127,
    "ocris": 23706,
    "Ġstudying": 9843,
    "ug": 1769,
    "Ġbrooded": 23100,
    "Ġsacred": 10931,
    "against": 5870,
    "barbar": 20237,
    "Ġagreed": 7030,
    "Ġbrooks": 25699,
    "Ġpaces": 13917,
    "heartily": 24214,
    "Ġpagoda": 19785,
    "Ġarabian": 9089,
    "Ġaffection": 2640,
    "Ġ104": 24411,
    "Ġfood": 5080,
    "expound": 23659,
    "dinah": 20077,
    "Ġbust": 10168,
    "Ġexhaust": 6399,
    "Ġarduous": 26528,
    "Ġcasual": 11410,
    "Ġall": 423,
    "Ġflower": 16227,
    "supervised": 1893,
    "Ġfishe": 15582,
    "Ġyounge": 16284,
    "Ġemploys": 19427,
    "Ġgives": 5018,
    "Ġprints": 16327,
    "Ġimposed": 14214,
    "ication": 1012,
    "unable": 14057,
    "Ġdefe": 21831,
    "Ġchanges": 2288,
    "entle": 1739,
    "Ġconvent": 11667,
    "safety": 20348,
    "Ġensued": 11395,
    "Ġrec": 899,
    "Ġpianoforte": 15271,
    "Ġofficio": 23812,
    "bons": 17484,
    "ordered": 8789,
    "Ġpeep": 6870,
    "kish": 20932,
    "Ġcheers": 16365,
    "otics": 10224,
    "Ġsample": 3179,
    "becomes": 22492,
    "Ġcoloss": 11047,
    "Ġwhat": 600,
    "Ġspouter": 12794,
    "Ġnewfoundland": 26568,
    "librarian": 26567,
    "Ġmorass": 22965,
    "necessary": 5881,
    "lings": 8745,
    "intim": 22930,
    "Ġmethod": 1519,
    "arrived": 12605,
    "Ġaye": 3351,
    "Ġdignified": 15594,
    "Ġresolved": 3797,
    "Ġefficiently": 3712,
    "interrupted": 11418,
    "Ġsummits": 14682,
    "creator": 26380,
    "grey": 14910,
    "vice": 15447,
    "Ġglut": 18851,
    "adopt": 25543,
    "Ġregarded": 5762,
    "determine": 19940,
    "effectually": 25127,
    "18": 20749,
    "Ġwelcome": 5604,
    "Ġdefici": 22939,
    "Ġimmaculate": 19482,
    "itted": 2444,
    "Ġclung": 10958,
    "voyage": 7785,
    "mindful": 19596,
    "Ġcit": 10784,
    "ium": 4864,
    "Ġcorporeally": 25728,
    "iom": 20913,
    "gration": 9121,
    "Ġpremises": 10488,
    "Ġam": 660,
    "greenland": 10021,
    "Ġfurnishes": 19437,
    "Ġkeener": 22909,
    "philosophers": 25251,
    "Ġhoped": 5488,
    "thick": 10261,
    "Ġcompanions": 5865,
    "Ġscare": 18394,
    "acters": 9309,
    "Ġsaves": 18322,
    "Ġbackbones": 22657,
    "Ġshoot": 11162,
    "Ġseize": 8165,
    "ck": 436,
    "orate": 10801,
    "possess": 5983,
    "Ġwore": 6377,
    "Ġalongside": 6311,
    "mmet": 10989,
    "Ġtroublesome": 23998,
    "Ġlassitude": 20584,
    "Ġdarkly": 19112,
    "Ġwretch": 6378,
    "Ġupbra": 22149,
    "Ġits": 706,
    "itt": 570,
    "unfortunate": 15773,
    "Ġunsub": 22015,
    "Ġsigmoid": 2464,
    "Ġdesiring": 14410,
    "Ġwhile": 606,
    "ĠĠĠĠĠĠĠĠĠĠĠĠĠĠĠĠĠĠĠĠĠĠĠĠĠĠ": 13386,
    "Ġfootpath": 19335,
    "Ġpersist": 16271,
    "Ġcondescending": 24867,
    "Ġfate": 4754,
    "fur": 6355,
    "hung": 8380,
    "Ġcapricious": 20536,
    "draw": 23895,
    "ignantly": 23261,
    "Ġpeculiar": 3155,
    "Ġrelevant": 1864,
    "Ġaccuracy": 1114,
    "aways": 15308,
    "Ġweakness": 9967,
    "Ġpolitics": 19221,
    "Ġforbearing": 25097,
    "anct": 21355,
    "ckery": 22086,
    "'d": 12424,
    "Ġwashington": 17201,
    "effort": 19211,
    "ired": 1445,
    "rating": 7808,
    "Ġscene": 3098,
    "Ġwriters": 13541,
    "Ġtechniques": 2869,
    "irons": 10239,
    "Ġbordering": 17227,
    "Ġlikely": 3596,
    "Ġbearing": 5298,
    "politeness": 16904,
    "recklessly": 25268,
    "became": 10515,
    "left": 6975,
    "Ġunnear": 22020,
    "Ġdisdained": 15008,
    "convenient": 12234,
    "mingled": 14711,
    "Ġstraw": 9429,
    "Ġearthy": 23710,
    "89": 20757,
    "speechless": 25394,
    "resh": 8403,
    "uts": 8815,
    "Ġswerve": 14435,
    "ien": 10102,
    "Ġheroic": 14906,
    "mming": 1172,
    "Ġdrown": 6815,
    "Ġconjectured": 9997,
    "Ġsavi": 18323,
    "seem": 10228,
    "Ġpicturesque": 14892,
    "Ġabsolut": 3910,
    "Ġheart": 1593,
    "atmosphere": 21262,
    "Ġcoil": 11815,
    "Ġinvests": 14866,
    "Ġtraveller": 8048,
    "Ġsequential": 2130,
    "Ġinsignific": 13178,
    "Ġintens": 7004,
    "Ġabundant": 17152,
    "Ġcove": 22578,
    "Ġcryst": 9917,
    "Ġtrespass": 23599,
    "albatross": 15626,
    "Ġday": 957,
    "twelve": 14621,
    "Ġ17": 5740,
    "nuts": 15396,
    "dipped": 20835,
    "Ġshall": 1143,
    "laws": 19804,
    "Ġwithhold": 18113,
    "ounts": 4652,
    "Ġloses": 15869,
    "Ġsuff": 1304,
    "dar": 20822,
    "Ġbony": 12583,
    "Ġbuffalo": 11430,
    "Ġhappy": 2467,
    "Ġshar": 9249,
    "recurrent": 4994,
    "Ġexpl": 487,
    "Ġprophecy": 25705,
    "Ġeternity": 12275,
    "nlp": 8750,
    "ither": 1544,
    "bus": 5354,
    "Ġsolicited": 20033,
    "Ġathe": 17739,
    "Ġnews": 3818,
    "Ġexercising": 19904,
    "whar": 15923,
    "Ġuncivil": 11156,
    "Ġ15": 9324,
    "arpaul": 14535,
    "they": 1880,
    "Ġcirculating": 23370,
    "Ġsuav": 22083,
    "Ġwhittling": 20697,
    "Ġexplain": 545,
    "Ġdistrusting": 25052,
    "Ġpew": 9315,
    "Ġvineyards": 25105,
    "jackets": 24894,
    "ething": 1600,
    "author": 9860,
    "Ġobtruded": 20720,
    "exe": 11786,
    "Ġhand": 859,
    "icism": 13954,
    "Ġunheard": 22017,
    "Ġcrocod": 19625,
    "dem": 10692,
    "profess": 10635,
    "Ġabst": 9266,
    "echo": 15346,
    "uncont": 15770,
    "bows": 10082,
    "Ġcontempt": 6275,
    "Ġapothe": 12372,
    "nose": 17608,
    "shattered": 22455,
    "cas": 20792,
    "Ġyawn": 7609,
    "ivot": 11716,
    "Ġpersonality": 16475,
    "icip": 6389,
    "Ġnarration": 13502,
    "Ġdol": 9665,
    "Ġsamples": 2965,
    "ateful": 5926,
    "ĠĠĠĠĠĠĠĠĠĠĠĠĠĠĠĠĠĠĠĠĠĠĠĠĠĠĠĠĠĠĠĠĠĠĠĠĠĠ": 16523,
    "ady": 994,
    "Ġcunning": 6238,
    "canonical": 22959,
    "Ġimpropriety": 17393,
    "Ġmystical": 12129,
    "brow": 15313,
    "fre": 5425,
    "Ġlaw": 3652,
    "Ġintolerably": 15826,
    "Ġuneasiness": 9484,
    "Ġheedless": 14901,
    "Ġsuspects": 16888,
    "Ġscrupled": 25048,
    "Ġrealism": 18981,
    "Ġhate": 5445,
    "Ġdriven": 6198,
    "Ġlobsters": 13515,
    "ensing": 12892,
    "Ġgloried": 22983,
    "anning": 10165,
    "archangel": 18788,
    "Ġdeserted": 8636,
    "lar": 4485,
    "venty": 6427,
    "Ġguiltless": 16938,
    "Ġmilitia": 13315,
    "fra": 8374,
    "Ġbeak": 18077,
    "Ġsensibly": 14513,
    "dler": 13704,
    "prove": 11148,
    "Ġwarrant": 17792,
    "Ġguess": 4903,
    "Ð": 145,
    "ppo": 18173,
    "Ġhoky": 17924,
    "shold": 2773,
    "Ġhom": 9186,
    "preserve": 25302,
    "Ġmarred": 23030,
    "Ġslime": 23156,
    "Ġvenge": 5420,
    "Ġaversion": 18864,
    "dist": 4482,
    "Ġscr": 11757,
    "Ġanecd": 20151,
    "Ġweakened": 16821,
    "sent": 760,
    "inates": 21178,
    "Ġsaloon": 24058,
    "Ġarrives": 23606,
    "Ġtwin": 12924,
    "Ġcritically": 23443,
    "wherefore": 19106,
    "gal": 15353,
    "presbyter": 20615,
    "Ġbracelets": 25501,
    "âĢĻ,": 14068,
    "fac": 17539,
    "Ġmurky": 19198,
    "Ġknowledge": 1446,
    "vard": 21108,
    "Ġsupplying": 19795,
    "Ġmichaelmas": 26373,
    "imitably": 21707,
    "Ġgibe": 25958,
    "Ġslippery": 12163,
    "ief": 2046,
    "ositories": 22260,
    "Ġcarriages": 11099,
    "steep": 19415,
    "emorial": 10244,
    "Ġbreadth": 10564,
    "Ġgloomily": 14798,
    "Ġrapid": 1455,
    "glanced": 19362,
    "Ġpieces": 7369,
    "Ġmildly": 9029,
    "Ġhandsome": 4906,
    "Ġoriental": 9096,
    "Ġdis": 695,
    "flowing": 14542,
    "Ġafrica": 12342,
    "varying": 13802,
    "Ġuninjured": 22048,
    "Ġacted": 7422,
    "vac": 15448,
    "Ġhemis": 21680,
    "mpt": 6653,
    "Ġunrival": 22039,
    "Ġnavigation": 9993,
    "Ġprehens": 22227,
    "fered": 5560,
    "shop": 14236,
    "ph": 925,
    "thomas": 18217,
    "Ġturks": 14597,
    "Ġmoderately": 22218,
    "Ġincalculable": 17458,
    "wal": 10134,
    "disposition": 10042,
    "Ġprepared": 5876,
    "inburgh": 15488,
    "umpled": 15872,
    "Ġfebruary": 15908,
    "asmuch": 10195,
    "Ġemail": 19072,
    "accessible": 13637,
    "Ġmetropolis": 17273,
    "Ġpaddington": 17093,
    "Ġsnapped": 9897,
    "Ġcotton": 17377,
    "Ġhereditarily": 25223,
    "Ġundulated": 19513,
    "bitt": 17483,
    "Ġmatted": 22907,
    "Ġmust": 846,
    "Ġcream": 22719,
    "Ġbubble": 13533,
    "hunter": 10556,
    "ive": 426,
    "gences": 20875,
    "hurst": 19876,
    "Ġturbulence": 26596,
    "entieth": 17976,
    "Ġward": 10156,
    "Ġprogressive": 5024,
    "Ġgallant": 8654,
    "agreeable": 5829,
    "Ġrisen": 9493,
    "Ġ45": 14768,
    "Ġclattering": 22347,
    "Ġworthy": 7241,
    "Ġgifts": 21608,
    "Ġbeads": 18081,
    "Ġsocieties": 20181,
    "nameless": 19900,
    "Ġjet": 5307,
    "Ġwithdrawing": 11341,
    "Ġwidest": 24233,
    "Ġnar": 7375,
    "Ġwidespread": 20673,
    "Ġgardener": 19132,
    "oquence": 11387,
    "Ġflapped": 23007,
    "ø": 185,
    "Ġmother": 2067,
    "anted": 5027,
    "orphans": 26439,
    "stocks": 23817,
    "sequence": 2858,
    "thro": 12757,
    "Ġrequiring": 2923,
    "Ġcuriously": 13010,
    "Ġchaff": 18381,
    "Ġdoesn": 7438,
    "Ġstout": 6024,
    "carpet": 25201,
    "Ġfrankness": 16744,
    "Ġissued": 10600,
    "Ġrecess": 10848,
    "keeping": 8634,
    "uned": 21867,
    "Ġsighing": 18671,
    "ologically": 22887,
    "Ġunfrequent": 24106,
    "Ġdarcy": 1343,
    "countenance": 6925,
    "Ġshared": 10264,
    "cure": 11475,
    "imental": 16531,
    "drawers": 19382,
    "unguarded": 23665,
    "Ġtwine": 14309,
    "activity": 22627,
    "separated": 20156,
    "Ġineffable": 17330,
    "Ġquadrille": 13539,
    "Ġmitt": 21305,
    "Ġtraditions": 11444,
    "Ġcourse": 2129,
    "Ġmagic": 8232,
    "Ġrecollections": 10513,
    "Ġbiases": 2400,
    "Ġascribed": 14853,
    "Ġerrone": 14428,
    "Ġneighbouring": 12115,
    "Ġrud": 8477,
    "Ġexcepting": 14679,
    "Ġquart": 11784,
    "ll": 1141,
    "Ġsiber": 17753,
    "anke": 15557,
    "antic": 1604,
    "Ġblotting": 25312,
    "Ġago": 3137,
    "Ġzodiac": 16171,
    "Ġhut": 15615,
    "Ġintentionally": 24522,
    "Ġhabitu": 19525,
    "Ġpostmark": 16723,
    "oard": 4809,
    "asy": 5294,
    "Ġsolemnly": 8023,
    "ickering": 22666,
    "Ġwheeled": 14137,
    "Ġmortals": 9916,
    "Ġunabated": 15849,
    "Ġmoulton": 17433,
    "islanders": 25441,
    "Ġscre": 9737,
    "Ġwand": 4340,
    "Ġunstructured": 3006,
    "ĠvertebrÃ¦": 11436,
    "Ġspam": 7630,
    "Ġincom": 9769,
    "announcement": 24561,
    "humour": 7498,
    "Ġgraces": 18223,
    "Ġvide": 10251,
    "Ġsmiles": 6706,
    "culous": 11142,
    "Ġtra": 1385,
    "mockery": 24377,
    "Ġcastle": 14715,
    "Ġvaulted": 25166,
    "Ġsto": 1498,
    "spent": 12938,
    "Ġignorantly": 19492,
    "Ġwhirlpool": 20653,
    "Ġcircle": 4977,
    "Ġspeedily": 7711,
    "Ġmoney": 3417,
    "Ġmitigates": 3051,
    "Ġbells": 19598,
    "Ġtarpaul": 17728,
    "Ġdeliverer": 11947,
    "Ġbelie": 14405,
    "famous": 16914,
    "agery": 21903,
    "eches": 8077,
    "Ġenorm": 5302,
    "Ġvainly": 9924,
    "tiger": 13795,
    "ri": 390,
    "bat": 8071,
    "opol": 12868,
    "Ġus": 493,
    "Ġlocations": 12410,
    "Ġnursing": 12211,
    "Ġapprobation": 10985,
    "Ġcontrast": 2117,
    "destroy": 19507,
    "satisfy": 16890,
    "Ġparliament": 18300,
    "Ġsweeping": 8985,
    "Ġstra": 2993,
    "ampl": 21838,
    "Ġtruest": 16701,
    "eted": 7591,
    "Ġdeformity": 11675,
    "Ġwriter": 11942,
    "Ġsearching": 13160,
    "Ġsk": 960,
    "take": 4577,
    "Ġparis": 8178,
    "Ġshud": 5461,
    "ĠĠĠĠĠĠĠĠĠĠĠĠĠĠĠĠĠĠĠĠĠĠĠĠĠĠĠ": 14884,
    "Ġrisks": 9964,
    "alling": 6036,
    "Ġconstitutional": 25124,
    "Ġferule": 24498,
    "Ġantagonist": 26327,
    "Ġentering": 6285,
    "Ġjelly": 22296,
    "Ġwearied": 15789,
    "51": 12428,
    "Ġsynthe": 26006,
    "Ġflanks": 11911,
    "withstand": 23025,
    "dug": 18460,
    "sample": 12503,
    "Ġchoked": 9264,
    "ductive": 23932,
    "Ġdorm": 4821,
    "Ġshorter": 4500,
    "Ġga": 4446,
    "Ġwho": 613,
    "Ġdispelling": 23877,
    "Ġresolve": 13168,
    "kingly": 20937,
    "anders": 18150,
    "Ġbeckoning": 20499,
    "accustomed": 13155,
    "hob": 20898,
    "Ġoccupation": 9931,
    "Ġpreposter": 12818,
    "Ġappearances": 10452,
    "Ġbecher": 18876,
    "Ġthoughtfulness": 18770,
    "woods": 13417,
    "card": 11476,
    "than": 4088,
    "screen": 22992,
    "Ġcrosswise": 18884,
    "Ġsystems": 825,
    "Ġshifted": 14105,
    "endous": 6850,
    "Ġaccumulation": 2692,
    "Ġhorse": 4725,
    "hello": 13361,
    "Ġimpass": 15981,
    "Ġfelt": 1747,
    "ryder": 18637,
    "angels": 22102,
    "Ġnear": 1717,
    "fresh": 13390,
    "tur": 5688,
    "ensical": 18565,
    "Ġcounters": 24136,
    "Ġglorious": 11076,
    "ellow": 3877,
    "Ġglu": 15664,
    "brated": 12024,
    "Ķ": 247,
    "ienced": 5685,
    "tranquil": 25869,
    "Ġfriend": 1297,
    "Ġseam": 3908,
    "Ġpropagating": 20631,
    "tains": 10963,
    "Ġisa": 14023,
    "iferous": 17290,
    "oric": 21393,
    "Ġrely": 8820,
    "unhappy": 10238,
    "Z": 62,
    "riers": 18180,
    "heard": 5009,
    "!âĢĻ": 3331,
    "Ġmortifying": 13242,
    "Ġchry": 22242,
    "Ġrachel": 11844,
    "disgu": 19151,
    "Ġpursuit": 4733,
    "rows": 6442,
    "constellation": 24606,
    "Ġcousin": 3703,
    "trad": 21074,
    "Ġ105": 24412,
    "Ġmalays": 19674,
    "Ġfortune": 4239,
    "Ġword": 1052,
    "Ġpills": 21463,
    "Ġperformed": 8547,
    "Ġhosmer": 6774,
    "Ġenergies": 25458,
    "Ġthickets": 24019,
    "Ġsuffers": 2976,
    "Ġconciliating": 19045,
    "Ġno": 510,
    "Ġjura": 14191,
    "Ġcheerily": 13305,
    "Ġbowsman": 11256,
    "hent": 12530,
    "Ġvener": 8163,
    "andes": 18149,
    "Ġeleven": 9390,
    "Ġstiff": 6993,
    "toes": 22560,
    "Ġcleared": 6074,
    "laying": 19769,
    "Ġbosom": 6939,
    "ositions": 10284,
    "Ġovercame": 9746,
    "Ġmarvelled": 18871,
    "unsuitable": 21889,
    "own": 746,
    "itors": 2916,
    "hes": 1398,
    "Ġblameless": 19856,
    "ig": 323,
    "rates": 21036,
    "ren": 549,
    "Ġcracks": 12017,
    "stranger": 9884,
    "additional": 20461,
    "splice": 17168,
    "Ġoust": 21321,
    "Ġra": 818,
    "Ġconcuss": 19044,
    "Ġlaure": 16907,
    "march": 13753,
    "Ġexecutioner": 12268,
    "Ġworld": 1595,
    "Ġfilm": 23921,
    "il": 329,
    "blows": 17163,
    "Ġexclusiveness": 23923,
    "Ġmud": 11572,
    "contrary": 23726,
    "Ġreligion": 11416,
    "cr": 4075,
    "Ġchip": 12821,
    "Ġhus": 3092,
    "arking": 16121,
    "Ġactual": 3737,
    "charles": 14697,
    "Ġmediocrity": 26607,
    "bone": 5612,
    "Ġmajor": 13289,
    "Ġsocket": 12781,
    "Ġshin": 18225,
    "Ġamphitheat": 26251,
    "solid": 16377,
    "Ġopt": 786,
    "69": 17472,
    "Ġbills": 17858,
    "Ġsensible": 4976,
    "Ġloud": 4701,
    "Ġgirls": 4278,
    "total": 17249,
    "arpo": 1756,
    "Ġprofanely": 23569,
    "Ġcurrents": 13012,
    "Ġorgan": 2503,
    "springing": 24888,
    "Ġmadness": 6601,
    "Ġspleen": 26420,
    "Ġbrief": 6976,
    "Ġexcl": 3471,
    "Ġwhirl": 13447,
    "Ġclimate": 9275,
    "atiable": 17772,
    "Ġ50": 24318,
    "uit": 8392,
    "pump": 21015,
    "Ġext": 910,
    "shapes": 22458,
    "Ġarticles": 7109,
    "forward": 2186,
    "Ġvisible": 4777,
    "arrow": 4178,
    "Ġrecumbent": 22736,
    "inable": 11555,
    "Ġ(": 595,
    "Ġproprietor": 12370,
    "constit": 24603,
    "Ġsurrounding": 12159,
    "Ġpent": 17901,
    "Ġground": 2849,
    "Ġcontemplation": 11358,
    "Ġtone": 4040,
    "favouring": 24761,
    "Ġhermits": 22070,
    "pleasing": 14740,
    "Ġencountered": 8321,
    "Ġsmells": 8889,
    "loa": 18532,
    "Ġxxxix": 24967,
    "Ġescaped": 6459,
    "Ġocc": 887,
    "urged": 18046,
    "spoutings": 25000,
    "Ġpaved": 17910,
    "kick": 20934,
    "winter": 10741,
    "plac": 15817,
    "outside": 12800,
    "Ġdown": 832,
    "skylight": 25622,
    "Ġtakes": 5007,
    "Ġendeavors": 16544,
    "Ġgo": 614,
    "Ġstolen": 14005,
    "hereafter": 19213,
    "market": 16837,
    "Ġinspect": 5963,
    "Ġfab": 15572,
    "Ġprocure": 9510,
    "Ġinconvenient": 20006,
    "slo": 17654,
    "ifiable": 18161,
    "iners": 4937,
    "Ġapprehen": 16827,
    "Ġsteps": 2865,
    "Ġsimilarity": 3169,
    "Ġvillages": 14746,
    "Ġscope": 15939,
    "irium": 8161,
    "Ġlustre": 15132,
    "Ġhelps": 9367,
    "Ġrace": 5847,
    "impetuous": 23761,
    "Ġconst": 1912,
    "Ġpr": 1598,
    "Ġbecoming": 4394,
    "evil": 11486,
    "otes": 15740,
    "irection": 2390,
    "Ġaston": 3700,
    "Ġkink": 22189,
    "Ġmomentary": 11036,
    "ases": 1522,
    "Ġriots": 23889,
    "Ġpatted": 16354,
    "title": 17286,
    "condemned": 26059,
    "Ġneighbour": 3807,
    "Ġshrubbery": 18230,
    "Ġincline": 18567,
    "towns": 24853,
    "killer": 20473,
    "athed": 7828,
    "Ġge": 1978,
    "upwards": 18862,
    "Ġimp": 580,
    "Ġshun": 11707,
    "Ġglobal": 2372,
    "Ġcaul": 10788,
    "wol": 21120,
    "respective": 19843,
    "Ġwanted": 4968,
    "pronouncing": 25192,
    "Ġhalting": 16270,
    "leader": 25350,
    "Ġnames": 4534,
    "Ġseren": 7401,
    "Ġswallows": 18880,
    "Ġcases": 3962,
    "rod": 10832,
    "Ġparts": 4164,
    "Ġappre": 5165,
    "Ġfalsehood": 10524,
    "Ġbeaks": 21751,
    "Ġjoker": 22294,
    "Ġtorrid": 25031,
    "Ġpaying": 9938,
    "isive": 10794,
    "Ġdu": 4585,
    "Ġdragg": 23212,
    "Ġerect": 6143,
    "Ġhol": 1182,
    "gems": 20882,
    "Ġadvice": 4901,
    "cus": 3982,
    "attempted": 20173,
    "Ġstrung": 22614,
    "leisure": 21368,
    "allingly": 22195,
    "caterpillar": 26382,
    "Ġtrif": 6269,
    "Ġprobably": 4312,
    "Ġtack": 5621,
    "Ġtranqu": 4606,
    "rigible": 24930,
    "Ġsurrender": 16447,
    "Ġgeor": 3385,
    "asting": 12802,
    "Ġspe": 820,
    "fashioned": 9571,
    "ww": 10738,
    "Ġpeeped": 10012,
    "collar": 19325,
    "een": 727,
    "eldom": 4411,
    "meal": 22705,
    "somewhat": 11161,
    "Ġtul": 21157,
    "Ġcaliforn": 14429,
    "Ġbeautiful": 3670,
    "Ġmultimodal": 18745,
    "Ġleather": 7606,
    "Ġlick": 21546,
    "character": 6331,
    "reduc": 5459,
    "queequeg": 4333,
    "Ġsuperlatively": 26074,
    "Ġsignal": 5944,
    "Ġtokens": 1774,
    "Ġthorough": 6245,
    "secur": 18124,
    "Ġtar": 2564,
    "cstasy": 11446,
    "tomahawk": 25914,
    "anean": 7443,
    "Ġchamp": 18379,
    "li": 1188,
    "lucifer": 25300,
    "Ġrabb": 4163,
    "Ġunfortunate": 5376,
    "Ġrending": 19463,
    "Ġprocessions": 18431,
    "Ġlieuten": 13324,
    "amplified": 26493,
    "otently": 21796,
    "Ġtwink": 8215,
    "Ġgoblets": 20516,
    "Ġgiver": 21601,
    "Ġsurvey": 13591,
    "Ġchambermaid": 24303,
    "Ġhed": 7387,
    "Ġgnashed": 20129,
    "Ġresources": 2938,
    "penetrate": 20323,
    "Ġcardboard": 19975,
    "Ġmaterial": 5178,
    "abb": 15735,
    "Ġunfortunately": 10909,
    "Ġcheap": 13087,
    "Ġmund": 21316,
    "Ġdiameter": 19864,
    "Ġgrunt": 18734,
    "brance": 7284,
    "Ġbeaut": 2395,
    "eland": 11619,
    "Ġaccost": 12842,
    "Ġeye": 2283,
    "Ġduc": 4697,
    "Ġspeckled": 14307,
    "uendoes": 26406,
    "Ġexternal": 8364,
    "create": 24155,
    "Ġslabs": 13057,
    "az": 2181,
    "Ġsamuel": 10033,
    "Ġpaul": 12059,
    "Ġexpected": 3695,
    "itering": 17816,
    "path": 10119,
    "Ġenchantment": 24868,
    "Ġthou": 1809,
    "mult": 8747,
    "reading": 12076,
    "Ġdestabilizing": 5053,
    "Ġtouching": 4681,
    "Ġcircular": 13108,
    "Ġvillagers": 19470,
    "Ġnetwork": 451,
    "ituted": 13871,
    "let": 2733,
    "Ġgases": 21598,
    "Ġ119": 24440,
    "Ġtreading": 16503,
    "Ġcontrive": 16006,
    "Ġstrand": 11825,
    "pan": 10717,
    "poises": 11886,
    "Ġnecess": 3472,
    "Ġchancery": 20714,
    "Ġale": 9154,
    "ý": 190,
    "capable": 13699,
    "Ġdangerous": 6612,
    "Ġshabby": 14109,
    "Ġdrowning": 19901,
    "Ġagreement": 18538,
    "seriously": 18902,
    "Ġengagements": 9978,
    "Ġdesper": 6176,
    "Ġoverhead": 11770,
    "ravelled": 18012,
    "lord": 3864,
    "Ġ181": 23891,
    "Ġcontinues": 18805,
    "bye": 5949,
    "Ġunidirectional": 3424,
    "Ġfetched": 24566,
    "Ġargued": 13627,
    "Ġannihil": 10175,
    "Ġcord": 5222,
    "slowly": 9088,
    "Ġapprovingly": 26249,
    "Ġadding": 2406,
    "Ġcas": 8410,
    "Ġchoice": 2165,
    "bulk": 19921,
    "L": 48,
    "Ġneighbourhood": 5126,
    "Ġwil": 4581,
    "terrific": 25039,
    "Ġpossible": 2584,
    "Ġcode": 1720,
    "Ġsuperlative": 26073,
    "Ġobliging": 13240,
    "Ġperfection": 19215,
    "ĠĠĠĠĠĠĠĠĠĠĠĠĠĠĠĠĠĠĠĠĠĠĠ": 18830,
    "method": 17283,
    "brace": 16940,
    "twelvemonth": 25861,
    "poling": 12216,
    "Ġput": 1799,
    "har": 20888,
    "mates": 5073,
    "Ġsayest": 22775,
    "Ġhostile": 19936,
    "Ġrevers": 21660,
    "ilege": 22252,
    "Ġoily": 13862,
    "Ġfingertips": 24013,
    "Ġtarshish": 12026,
    "Ġruffled": 25834,
    "bishop": 13692,
    "Ġplunged": 8692,
    "Ġrender": 8304,
    "^": 66,
    "oner": 6124,
    "Ġconcil": 23318,
    "Ġhackluyt": 25654,
    "Ġrequest": 6050,
    "Ġparlor": 13538,
    "Ġmatch": 4530,
    "Ġwelcomed": 9482,
    "france": 24281,
    "Ġclimax": 25050,
    "withdrawn": 23026,
    "Ġconstantly": 11970,
    "Ġlogits": 3448,
    "Ġrascal": 11699,
    "Ġtows": 19559,
    "Ġlimp": 19177,
    "Ġweeds": 21919,
    "Ġbuckle": 17031,
    "Ġlaborers": 19055,
    "fri": 20852,
    "Ġgreyish": 24207,
    "neath": 12862,
    "=": 33,
    "mopol": 15394,
    "bun": 12435,
    "our": 534,
    "Ġtale": 5142,
    "anch": 15556,
    "Ġanywhere": 8516,
    "Ġdefer": 18820,
    "Ġomitted": 12560,
    "Ġthereupon": 18432,
    "Ġencamp": 22796,
    "held": 3839,
    "Ġsect": 17749,
    "Ġunexplored": 26517,
    "Ġheavier": 13099,
    "quished": 21850,
    "birds": 15142,
    "âĢĶâĢĿ": 3300,
    "ead": 2600,
    "Ġsphynx": 20710,
    "Ġreader": 11931,
    "Ġcontradict": 12382,
    "Ġsilent": 3410,
    "Ġpurposes": 11169,
    "Ġshaking": 6551,
    "Ġranged": 10258,
    "Ġapprehension": 7114,
    "Ġcottagers": 6761,
    "crippled": 26383,
    "Ġprosperous": 15168,
    "harb": 9123,
    "omen": 4086,
    "humored": 19449,
    "incidentally": 20537,
    "Ġfist": 21401,
    "Ġwoodlands": 23519,
    "Ġchoke": 22245,
    "Ġoccupations": 9458,
    "lorn": 12484,
    "under": 3133,
    "Ġwondrous": 4735,
    "Ġunimaginable": 15244,
    "whether": 5319,
    "Ġlikewise": 5386,
    "rrh": 26143,
    "Ġwhipping": 21712,
    "Ġflashing": 13024,
    "Ġdearly": 10402,
    "Ġbounty": 26436,
    "built": 16823,
    "specul": 23939,
    "Ġunass": 14111,
    "Ġbarb": 4532,
    "Ġnumerous": 6920,
    "oubted": 5859,
    "extraordinary": 9094,
    "Ġdank": 21425,
    "Ġenig": 15796,
    "Ġbuoy": 8003,
    "Ġmetropolitan": 17274,
    "secre": 18125,
    "Ġginger": 9210,
    "Ġmari": 6813,
    "dz": 4739,
    "Ġheightened": 8648,
    "Ġgrasp": 4664,
    "Ġhogarth": 25779,
    "will": 1969,
    "civil": 7796,
    "Ġconsequently": 8059,
    "crimson": 24096,
    "oning": 7572,
    "eryton": 4093,
    "Ġoutcast": 18412,
    "whims": 22235,
    "sciss": 18855,
    "Ġsunwards": 19009,
    "Ġriverside": 25246,
    "hest": 3367,
    "leton": 5148,
    "Ġmeasures": 1206,
    "Ġstops": 3168,
    "enses": 10995,
    "Ġunprotected": 22059,
    "bidden": 19734,
    "Ġbows": 4083,
    "intellect": 18819,
    "dinner": 11407,
    "rog": 15636,
    "presbyterian": 26367,
    "useless": 14593,
    "impress": 18049,
    "Ġruss": 18717,
    "ports": 13772,
    "Ġimpute": 18330,
    "letters": 13172,
    "Ġdistillation": 16039,
    "Ġapart": 4746,
    "Ġgriev": 16632,
    "Ġlaboratory": 13610,
    "Ġcobweb": 22582,
    "embedding": 20702,
    "Ġdelineations": 26057,
    "Ġrecalled": 8538,
    "Ġracket": 22650,
    "Ġflew": 5587,
    "daughters": 13464,
    "fort": 1750,
    "Ġlurid": 19678,
    "Ġpyth": 21458,
    "Ġclerical": 25567,
    "monograph": 23524,
    "Ġhold": 2243,
    "cooee": 12415,
    "Ġsickened": 16773,
    "Ġconcepts": 4552,
    "downstairs": 23916,
    "Ġerud": 20051,
    "merry": 16534,
    "rian": 10242,
    "part": 2573,
    "Ġview": 2761,
    "Ġpurchase": 12256,
    "ifications": 9728,
    "Ġnavy": 14914,
    "presence": 18496,
    "Ġswung": 6449,
    "Ġcompassion": 6487,
    "calculation": 25687,
    "'s": 2471,
    "Ġlethargy": 26482,
    "Ġfeatureless": 22608,
    "engineer": 23142,
    "fall": 5135,
    "Ġangelic": 19624,
    "deliber": 17424,
    "Ġruefully": 17299,
    "Ġtoes": 10830,
    "Ġcontemplated": 13462,
    "Ġsimpler": 2048,
    "Ġepaulets": 24904,
    "Ġdamp": 8263,
    "Ġother": 758,
    "ks": 3148,
    "Ġsurpr": 2551,
    "Ġencounters": 19577,
    "Ġsagacity": 16972,
    "Ġsnoring": 23737,
    "Ġsurmisings": 26592,
    "Ġexecution": 6927,
    "ipped": 5790,
    "hated": 17559,
    "Ġattacking": 24464,
    "Ġhappened": 3713,
    "Ġundersampling": 19515,
    "disgrace": 16456,
    "stream": 15683,
    "itives": 17817,
    "oon": 6364,
    "isf": 2439,
    "Ġamongst": 8959,
    "Ġlaug": 3625,
    "Ġcister": 13880,
    "anyone": 16591,
    "Ġimprobable": 9794,
    "Ġlengthened": 25957,
    "coun": 10687,
    "Ġdy": 2281,
    "Ġcologne": 12971,
    "Ġscriptures": 26234,
    "Ġvegetables": 15219,
    "espe": 3495,
    "Ġfrowning": 13621,
    "Ġcoppers": 22581,
    "Ġforts": 21768,
    "Ġquarters": 8619,
    "joice": 9603,
    "Ġvestibule": 13535,
    "caps": 20805,
    "Ġunwinding": 22052,
    "uth": 3019,
    "Ġreckoning": 14977,
    "entered": 8814,
    "Ġfrench": 4939,
    "Ġsnatch": 14638,
    "Ġfur": 990,
    "Ġcompared": 2228,
    "poss": 4778,
    "consent": 18501,
    "endured": 22221,
    "affrail": 11205,
    "Ġconfirmation": 17209,
    "ment": 696,
    "Ġequilibrium": 4140,
    "Ġissuing": 16946,
    "Ġmississ": 18836,
    "ality": 2513,
    "Ġriveted": 13616,
    "Ġcharcoal": 19003,
    ";--": 8068,
    "Ġwhenever": 5166,
    "cask": 12443,
    "notwithstanding": 22746,
    "Ġmodeling": 2094,
    "Ġprovinc": 16740,
    "Ġcruelly": 13373,
    "Ġincrease": 9369,
    "inkled": 5477,
    "full": 7420,
    "Ġraw": 3320,
    "ceiling": 21623,
    "attendants": 25494,
    "100": 11465,
    "expectations": 24275,
    "hug": 17561,
    "Ġsolemnisation": 24110,
    "Ġheighten": 19526,
    "Ġwarnings": 16879,
    "Ġbitterness": 8024,
    "member": 20973,
    "Ġmonosy": 18842,
    "hap": 17557,
    "Ġprices": 15608,
    "Ġalpine": 18103,
    "Ġunsav": 18246,
    "Ġarabic": 24977,
    "Ġmagnified": 23199,
    "Ġloosed": 22108,
    "kinder": 24844,
    "Ġscotch": 12206,
    "Ġut": 2280,
    "reached": 13839,
    "confirm": 16805,
    "Ġsteward": 6584,
    "Ġdisagree": 22528,
    "itable": 5437,
    "athies": 22696,
    "Ġafric": 8905,
    "Ġwarsaw": 26166,
    "Ġboy": 3023,
    "calcul": 12985,
    "orange": 21397,
    "Ġcrippled": 25277,
    "utely": 8131,
    "schoolmaster": 15159,
    "Ġgums": 21607,
    "field": 3071,
    "hall": 8084,
    "Ġscandal": 9081,
    "hors": 9599,
    "Ġlance": 4879,
    "Ġequin": 14495,
    "Ġappalling": 8498,
    "Ġarsac": 11739,
    "Ġexcess": 3341,
    "ezing": 10574,
    "Ġsweet": 3463,
    "scruple": 26044,
    "Ġrisk": 8038,
    "Ġinsect": 12632,
    "concerted": 16669,
    "Ġtons": 11549,
    "inferences": 17737,
    "discredit": 24249,
    "ha": 3983,
    "Ġobscured": 15009,
    "Ġterminated": 23506,
    "cup": 10691,
    "Ġteneriffe": 26413,
    "Ġglasses": 9475,
    "icious": 7380,
    "osal": 11756,
    "Ġwantonly": 22889,
    "Ġspec": 1262,
    "discoveries": 25384,
    "Ġconf": 1820,
    "Ġdella": 21436,
    "Ġgidd": 25782,
    "Ġclasped": 17205,
    "Ġsalutation": 12394,
    "Ġused": 2060,
    "Ġhy": 5625,
    "Ġabruptness": 25298,
    "contains": 16027,
    "Ġconsumm": 15152,
    "Ġberries": 13405,
    "Ġhitherto": 5879,
    "considerable": 10549,
    "Ġsearch": 2590,
    "magistrate": 19860,
    "Ġdoc": 7200,
    "¤": 102,
    "takes": 21073,
    "singing": 24362,
    "tut": 15432,
    "irt": 3076,
    "Ġimpaling": 22380,
    "Ġdollar": 25282,
    "Ġfleeting": 19323,
    "Ġtension": 13822,
    "Ġluggage": 25956,
    "Ġsooty": 25814,
    "jumping": 20244,
    "feature": 4405,
    "imag": 6991,
    "Ġcounter": 6481,
    "quietude": 24654,
    "oured": 2671,
    "Ġmbpp": 21319,
    "Ġchildhood": 13136,
    "vag": 8764,
    "Ġeas": 2353,
    "ingly": 2133,
    "Ġcheever": 23282,
    "its": 1148,
    "itled": 7577,
    "put": 414,
    "Ġliar": 22404,
    "Ġconveniently": 20075,
    "Ġinsignificance": 20455,
    "haz": 17562,
    "appro": 7045,
    "former": 11745,
    "ently": 1618,
    "preserver": 20212,
    "eray": 21264,
    "Ġsog": 22078,
    "Ġreport": 6191,
    "Ġpositively": 13027,
    "Ġtowing": 9193,
    "Ġacc": 573,
    "uments": 5552,
    "Ġinterference": 8893,
    "Ġkentuckian": 26341,
    "actorily": 25575,
    "Ġintently": 8168,
    "rent": 1171,
    "Ġexciting": 23309,
    "Ġhusbands": 16640,
    "Ġmission": 13002,
    "suspicious": 25389,
    "Ġdialogue": 12401,
    "vellers": 16671,
    "gree": 10702,
    "sper": 4435,
    "Ġsable": 15498,
    "ified": 3225,
    "Ġconvul": 13199,
    "Ġlength": 2501,
    "Ġlife": 1352,
    "Ġrock": 5310,
    "Ġslugg": 15266,
    "Ġquery": 2481,
    "Ġsociety": 3979,
    "Ġsticking": 13425,
    "Ġsprain": 18303,
    "Ġmeth": 1488,
    "wind": 4251,
    "dire": 15334,
    "Ġdispatched": 23878,
    "atching": 8201,
    "Ġchairs": 12822,
    "Ġfrantically": 23254,
    "Ġrag": 18639,
    "pure": 17624,
    "<": 32,
    "Ġpersuas": 23943,
    "Ġpigs": 19744,
    "Ġcovent": 16070,
    "Ġaccomp": 4713,
    "Ġaccumulates": 2892,
    "make": 5793,
    "Ġbrisk": 9803,
    "app": 1040,
    "ob": 1419,
    "Ġslew": 23380,
    "ves": 692,
    "Ġallusions": 10910,
    "begin": 8883,
    "Ġprecipitate": 19938,
    "utarch": 15658,
    "Ġleaving": 3904,
    "Ġcusack": 26432,
    "Ġbohemian": 17131,
    "Ġpun": 4588,
    "impotence": 23759,
    "Ġpeeled": 14316,
    "rospect": 11611,
    "gammon": 20242,
    "Ġtrick": 7021,
    "amuse": 14050,
    "Ġham": 3420,
    "Ġfretfulness": 25447,
    "Ġpadd": 9670,
    "Ġpon": 10176,
    "Ġvag": 9708,
    "Ġsandwiched": 26609,
    "where": 2091,
    "Ġdynamically": 3487,
    "listener": 24929,
    "Ġesq": 15106,
    "point": 6062,
    "Ġmutilated": 23955,
    "shooting": 16963,
    "underneath": 23786,
    "Ġwield": 21288,
    "emph": 21924,
    "Ġaf": 780,
    "omas": 12667,
    "Ġprotecting": 24685,
    "insult": 16276,
    "ishing": 1144,
    "hurry": 24762,
    "Ġdespaired": 14667,
    "mr": 1902,
    "Ġdocument": 15017,
    "Ġprodu": 1205,
    "Ġoutstanding": 22312,
    "Ġhard": 1442,
    "Ġfiver": 22776,
    "agon": 7870,
    "Ġroused": 7623,
    "Ġfrayed": 23281,
    "afric": 19176,
    "raint": 18314,
    "Ġinarticulate": 21496,
    "Ġhack": 12752,
    "Ġcapacity": 10441,
    "Ġsensational": 16385,
    "glit": 23847,
    "Ġhunts": 23153,
    "violence": 16476,
    "Ġpack": 5444,
    "kered": 18272,
    "Ġguests": 12284,
    "Ġshoreless": 24294,
    "castle": 3348,
    "Ġserpent": 6737,
    "ansion": 10926,
    "sequently": 14582,
    "Ġpreternatural": 12819,
    "groom": 8739,
    "Ġicicles": 25263,
    "thrust": 10262,
    "Ġflounders": 23009,
    "Ġdynamic": 5121,
    "Ġfoundation": 4231,
    "Ġpovelson": 26551,
    "Ġloitering": 22112,
    "Ġsemicircular": 26067,
    "insufficient": 15487,
    "inion": 2877,
    "Ġgrip": 11626,
    "unching": 18156,
    "Ġdepose": 22590,
    "ner": 1373,
    "kne": 20933,
    "Ġwithered": 19461,
    "kindred": 24045,
    "Ġresolutely": 14608,
    "Ġ1950": 11360,
    "Ġdon": 1615,
    "evident": 25519,
    "arest": 4006,
    "suggested": 17297,
    "Ġinfinite": 8576,
    "Ġrel": 1096,
    "family": 7324,
    "Ġdest": 2236,
    "Ġwalking": 4322,
    "Ġnarrow": 5086,
    "Ġscorn": 7900,
    "Ġpetulance": 24226,
    "Ġmungo": 25630,
    "cies": 1815,
    "Ġensuing": 12306,
    "Ġglens": 18852,
    "Ġsails": 5256,
    "Ġabominably": 20062,
    "choose": 23668,
    "Ġask": 1491,
    "Ġconfiding": 19036,
    "communication": 25880,
    "Ġexcite": 11963,
    "evid": 11485,
    "Ġarrowy": 25468,
    "Ġinsincere": 26598,
    "ensities": 22542,
    "ains": 5094,
    "Ġtribes": 20478,
    "Ġrise": 5637,
    "Ġunalterable": 15848,
    "Ġretarded": 23069,
    "said": 4103,
    "irc": 1731,
    "Ġcultivation": 17143,
    "Ġdrawer": 13263,
    "ofs": 11827,
    "Ġlurks": 11291,
    "Ġproximity": 3218,
    "anned": 17837,
    "Ġtypewritten": 16418,
    "tem": 6369,
    "Ġreading": 5114,
    "Ġintention": 5638,
    "Ġinside": 5448,
    "Ġadmon": 15864,
    "Ġbrass": 11049,
    "ullen": 8234,
    "hoisted": 19279,
    "mathematics": 26303,
    "Ġbent": 5149,
    "Ġoverpowered": 15286,
    "noted": 22744,
    "gerine": 22882,
    "sperm": 5203,
    "Ġunite": 9253,
    "Ġherb": 15853,
    "lot": 3207,
    "Ġdisadvantages": 18556,
    "rarely": 21630,
    "handsome": 13174,
    "whispering": 26102,
    "forgetting": 25484,
    "fle": 7129,
    "Ġreconciliation": 25291,
    "Ġbec": 1349,
    "Ġdum": 10812,
    "whaling": 7898,
    "Ġintensified": 17016,
    "Ġrequirements": 9790,
    "Ġdropout": 1554,
    "Ġdeceitful": 25732,
    "Ġoverbearing": 12840,
    "Ġrefusing": 11025,
    "Ġlucy": 17967,
    "Ġcrossing": 7252,
    "ush": 3630,
    "Ġgriff": 22802,
    "Ġparent": 14644,
    "Ġendeared": 26497,
    "Ġmeat": 8151,
    "result": 12041,
    "Ġfow": 6133,
    "Ġlighted": 7064,
    "Ġfeasible": 22205,
    "Ġdistinctions": 18529,
    "Ġplucked": 15111,
    "Ġentirely": 3432,
    "Ġallegor": 25544,
    "ct": 309,
    "þ": 191,
    "Ġhypothesis": 14779,
    "Ġparacels": 13665,
    "message": 17370,
    "tout": 21063,
    "ifice": 7198,
    "roqu": 21530,
    "Ġbolt": 11335,
    "Ġmightier": 18728,
    "Ġseparate": 5778,
    "Ġknow": 631,
    "Ġexpost": 18623,
    "Ġcrumpled": 16439,
    "from": 1992,
    "Ġsuspicious": 9480,
    "Ġborrowed": 17228,
    "Ġthimble": 15633,
    "Ġsmiting": 12894,
    "Ġlimits": 3451,
    "xology": 21139,
    "globe": 25141,
    "ĠĠĠĠĠĠĠĠĠĠĠĠĠĠĠĠĠĠĠĠĠĠĠĠĠĠĠĠĠĠĠĠĠĠĠĠĠĠĠĠĠĠĠĠĠĠĠĠĠĠĠ": 20035,
    "Ġhark": 8427,
    "liked": 10509,
    "Ġkins": 22190,
    "beth": 13686,
    "Ġdelightful": 6320,
    "Ú": 155,
    "Ġbathed": 17863,
    "isen": 10793,
    "Ġoak": 6128,
    "tender": 14471,
    "Ġintricate": 15135,
    "tram": 19632,
    "Ġresort": 18561,
    "Ġunfolded": 10639,
    "aren": 10074,
    "born": 7543,
    "asol": 21536,
    "Ġkentuck": 19888,
    "Ġabsorbing": 17126,
    "Ġ115": 24438,
    "igations": 18041,
    "wild": 8766,
    "Ġraving": 16110,
    "Ġoffices": 14335,
    "Ġbended": 21382,
    "Ġincurable": 22548,
    "Ġdictator": 20150,
    "familiar": 19780,
    "ortunity": 4400,
    "dered": 2474,
    "Ġalms": 21776,
    "Ġsatiated": 22899,
    "Ã¦st": 24172,
    "Ġmonotonically": 3832,
    "Ġlinked": 15075,
    "i": 77,
    "Ġpush": 9184,
    "Ġinsinuating": 19268,
    "Ġsand": 6235,
    "ego": 4036,
    "ov": 15398,
    "Ġphrenologists": 25607,
    "Ħ": 231,
    "Ġbackground": 18647,
    "speeches": 25238,
    "Ġmanhandle": 22325,
    "blo": 6353,
    "Ġentra": 18695,
    "anchor": 13887,
    "Ġqualifications": 24674,
    "ills": 1633,
    "Ġmeadows": 11423,
    "ess": 409,
    "distinction": 19568,
    "Ġkeenly": 9485,
    ">": 34,
    "Ġpier": 7163,
    "Ġbackbone": 22656,
    "Ġsitting": 3603,
    "ention": 853,
    "ubines": 22955,
    "scene": 14418,
    "Ġincluding": 2850,
    "Ġsquee": 7928,
    "Ġpuffed": 14975,
    "Ġfacing": 10172,
    "Ġhumorously": 18775,
    "Ġimperson": 14218,
    "Ġpistol": 7846,
    "Ġdairy": 20684,
    "Ġshift": 2284,
    "Ġplease": 4723,
    "writ": 16551,
    "Ġincorpor": 13163,
    "Ġmaledictions": 26427,
    "Ġfinal": 5400,
    "Ġcrumb": 16437,
    "Ġalert": 18099,
    "Ġflesh": 5968,
    "studies": 25165,
    "Ġexceptions": 13227,
    "enjoy": 10775,
    "Ġavail": 11227,
    "shire": 3022,
    "sterdam": 19087,
    "folly": 20860,
    "superiority": 20184,
    "reast": 17756,
    "Ġplumber": 16081,
    "Ġtuck": 10141,
    "independent": 26020,
    "grained": 20881,
    "Ġtransmit": 10305,
    "itying": 21990,
    "Ġpairs": 4180,
    "newsp": 23129,
    "Ġcontrary": 5260,
    "Ġdictate": 20148,
    "uguese": 20730,
    "Ġavenue": 13619,
    "Ġinterruptions": 24183,
    "Ġnoticing": 18222,
    "Ġroods": 22400,
    "Ġgrunted": 16164,
    "Ġbreach": 11971,
    "Ġextravagance": 17278,
    "given": 8376,
    "ubb": 1652,
    "Ġhasty": 10478,
    "Ġdiscoverer": 26034,
    "Ġminiatures": 20320,
    "Ġspasmod": 12411,
    "limp": 20950,
    "credit": 12445,
    "idable": 8145,
    "Ġtweezers": 26555,
    "bull": 13688,
    "Ġsneeze": 24698,
    "Ġdams": 16453,
    "Ġcarries": 7673,
    "Ġsle": 2014,
    "Ġzone": 14359,
    "entary": 21563,
    "painter": 24895,
    "Ġunable": 4951,
    "Ġintent": 6409,
    "mercenary": 26314,
    "Ġinterment": 22572,
    "pond": 21011,
    "Ġintru": 15824,
    "Ġle": 333,
    "airs": 2220,
    "moonlight": 25374,
    "Ġpressed": 6041,
    "Ġdecreasing": 2446,
    "Ġunequal": 14840,
    "gird": 20877,
    "Ġunlo": 22004,
    "Ġburial": 16519,
    "Ġunsolved": 22025,
    "Ġwoollen": 12100,
    "Ġprincip": 5600,
    "Ġthreatening": 16826,
    "died": 10694,
    "Ġwhaleman": 4655,
    "scrape": 25697,
    "Ġspanish": 2831,
    "Ġreferences": 21670,
    "Ġcauses": 2562,
    "Ġzer": 1095,
    "dead": 8179,
    "Ġforwards": 12699,
    "Ġfurn": 3708,
    "cely": 3572,
    "Ġcosmopolitan": 20639,
    "Ġperilous": 7768,
    "Ġwoeful": 19616,
    "Ġaroused": 15895,
    "ories": 4753,
    "Ġgradually": 3399,
    "Ġpreceded": 13426,
    "Ġrocking": 10970,
    "understanding": 1137,
    "Ġgilt": 21602,
    "Ġburke": 19247,
    "chant": 4257,
    "rushing": 10018,
    "investigations": 25532,
    "Ġlabyrin": 13102,
    "Ġbroke": 5322,
    "Ġbirds": 5873,
    "Ġshrimp": 24153,
    "Ġembellished": 25848,
    "Ġcrotch": 9963,
    "itive": 6668,
    "rushed": 10585,
    "ouncing": 8494,
    "._]]": 5334,
    "coburg": 13596,
    "increasing": 20268,
    "Ġunshored": 25812,
    "whiteness": 18368,
    "Ġstifle": 18071,
    "Ġornam": 9257,
    "Ġwealth": 7620,
    "Ġtouch": 3394,
    "Ġ93": 24590,
    "sticks": 25964,
    "Ġotherwise": 4658,
    "Ġpythag": 26447,
    "Ġfile": 13901,
    "government": 25405,
    "Ġconcise": 23319,
    "house": 4077,
    "Ġplayfulness": 23635,
    "Ġste": 1390,
    "Ġsummit": 7730,
    "Ġloitered": 26524,
    "project": 16421,
    "Ġledgers": 23934,
    "Ġgoodness": 6058,
    "Ġkick": 5837,
    "Ġslop": 23157,
    "building": 17307,
    "Ġleech": 24151,
    "Ġfellows": 8256,
    "dressing": 11482,
    "Ġstoried": 18070,
    "Ġwinds": 5746,
    "Ġvineyard": 12327,
    "gain": 8736,
    "Ġbale": 7838,
    "generally": 9435,
    "Ġcomprehen": 5349,
    "Ġnoblest": 13239,
    "older": 15752,
    "harbors": 20145,
    "rell": 11563,
    "Ġmoran": 9341,
    "ivia": 22073,
    "Ġoverheard": 11771,
    "Ġstreat": 15717,
    "Ġhavoc": 15810,
    "Ġvulgar": 13602,
    "Ġlanded": 7469,
    "Ġflow": 1237,
    "lit": 9606,
    "spikes": 10341,
    "Ġamber": 7027,
    "fortnight": 13084,
    "izer": 2030,
    "sit": 13778,
    "Ġfact": 1729,
    "Ġice": 3602,
    "Ġreflections": 5945,
    "cheap": 23802,
    "Ġhop": 1460,
    "teringly": 21819,
    "ying": 1368,
    "Ġparagraph": 17451,
    "ĠâĢľ_": 6696,
    "Ġelizabeth": 1132,
    "Ġappalled": 22213,
    "Ġsettles": 22916,
    "shock": 19852,
    "Ġlacepede": 20492,
    "Ġidler": 16402,
    "Ġplat": 8520,
    "umber": 5241,
    "context": 3402,
    "ources": 2790,
    "Ġfly": 3869,
    "buckets": 26122,
    "Ġperadventure": 22394,
    "Ġpos": 1008,
    "Ġcoleridge": 18764,
    "rec": 6003,
    "Ġwhalebone": 10978,
    "eries": 6808,
    "ulate": 5233,
    "Ġ34": 16675,
    "Ġu": 324,
    "Ġpluck": 15610,
    "clu": 20797,
    "medical": 23338,
    "stript": 21653,
    "division": 20045,
    "ered": 1683,
    "derbyshire": 18319,
    "lue": 8508,
    "judge": 13334,
    "compassion": 12365,
    "Ġcrowd": 6336,
    "script": 11078,
    "Ġrelate": 6875,
    "restored": 18976,
    "Ġpalsied": 25778,
    "Ġlent": 21543,
    "Ġconsideration": 5191,
    "Ġswelled": 11088,
    "Ġbrag": 23830,
    "Ġpaced": 7583,
    "aving": 2409,
    "Ġwhaling": 2784,
    "Ġbesee": 19239,
    "tan": 4742,
    "Ġpilot": 5984,
    "Ġclosed": 4605,
    "Ġexactness": 23603,
    "Ġgermany": 25784,
    "feared": 11800,
    "Ġsunrise": 9372,
    "Ġtraged": 9352,
    "civilities": 24970,
    "Ġwestern": 10655,
    "Ġdeclining": 23960,
    "Ġdeaf": 12717,
    "onents": 8776,
    "crimin": 17506,
    "walked": 10571,
    "Ġguinea": 8947,
    "Ġheedful": 19737,
    "Ġobligations": 12088,
    "Ġfreshness": 23984,
    "cturn": 17984,
    "Ġmusty": 22676,
    "mell": 20962,
    "Ġgri": 17985,
    "row": 1066,
    "arance": 4698,
    "Ġincul": 22545,
    "Ġfarewell": 9520,
    "ruck": 6848,
    "Ġtransform": 749,
    "eded": 9674,
    "aneously": 4060,
    "prof": 7698,
    "prior": 21030,
    "stop": 11634,
    "omon": 10207,
    "Ġinheriting": 25353,
    "bble": 17482,
    "ward": 705,
    "Ġprecautions": 23724,
    "Ġwedged": 24067,
    "Ġbeheld": 4494,
    "agers": 5633,
    "confused": 19641,
    "Ġmoving": 1678,
    "Ġsmote": 18572,
    "gentleman": 7518,
    "Ġgips": 10842,
    "Ġpoints": 5248,
    "itoring": 21329,
    "lant": 20945,
    "Ġ>": 21149,
    "Ġunsupp": 22013,
    "Ġconfines": 23302,
    "Ġseated": 4542,
    "Ġbase": 5013,
    "Ġasser": 6257,
    "umps": 6317,
    "addition": 13382,
    "Ġfountain": 7365,
    "Ġvisit": 2583,
    "Ġcelestial": 10067,
    "Ġhamp": 12626,
    "Ġhope": 1790,
    "Ġmislead": 22753,
    "iliation": 10861,
    "|": 96,
    "Ġfortunately": 12176,
    "Ġemblem": 20495,
    "Ġexceptionable": 25502,
    "Ġundressed": 19510,
    "Ġplunge": 13441,
    "Ġhousekeeper": 7456,
    "occasionally": 13519,
    "Ġsubtlety": 24779,
    "cal": 1122,
    "Ġdigging": 14936,
    "Ġblanc": 11066,
    "drovand": 24759,
    "Ġrespite": 13152,
    "onely": 6516,
    "Ġtem": 804,
    "Ġrevol": 5537,
    "Ġconsolidation": 5060,
    "Ġglassy": 19557,
    "Ġchains": 8250,
    "represent": 9638,
    "Ġsacrificial": 24870,
    "distinguish": 19569,
    "Ġshank": 21993,
    "fun": 3956,
    "Ġinquired": 7485,
    "Ġinstructed": 19281,
    "passion": 11261,
    "Ġresponsible": 9887,
    "arrested": 15597,
    "ricted": 15418,
    "bitter": 11241,
    "bb": 2803,
    "Ġadequate": 20307,
    "utions": 1890,
    "iag": 20914,
    "Ġoverhung": 15971,
    "posture": 16925,
    "Ġjurors": 17342,
    "Ġthack": 21513,
    "pervised": 1603,
    "define": 1525,
    "Ġinch": 7849,
    "strangers": 20335,
    "Ġmiracle": 15091,
    "Ġtinge": 25086,
    "Ġviolent": 5117,
    "Ġperpendicularly": 11375,
    "Ġseparation": 11249,
    "likewise": 13103,
    "Ġencourages": 2061,
    "Ġsherry": 19447,
    "Ġleap": 5824,
    "Ġprizes": 13071,
    "Ġpoets": 11818,
    "Ġassailants": 20446,
    "Ġplug": 17145,
    "im": 327,
    "Ġpathways": 11154,
    "Ġcounsel": 13613,
    "reference": 13838,
    "Ġenraged": 10245,
    "elijah": 19469,
    "Ġhistor": 3388,
    "Ġblackness": 9393,
    "married": 9949,
    "Ġactiv": 834,
    "term": 3758,
    "Ġsallied": 12533,
    "Ġimparted": 15984,
    "Ġsnow": 3705,
    "Ġindisposed": 26286,
    "Ġlet": 1115,
    "Ġbulldog": 23856,
    "Ġsuccor": 25661,
    "balls": 12302,
    "Ġbert": 4583,
    "iffe": 21898,
    "itals": 17818,
    "charmed": 21692,
    "Ġmunro": 25629,
    "Ġtechn": 9373,
    "Ġmyth": 18218,
    "conducted": 25571,
    "Ġenormous": 5609,
    "Ġvariants": 1792,
    "spending": 18687,
    "Ġinexplicable": 12253,
    "Ġinsists": 23676,
    "Ġplaus": 22598,
    "Ġamerica": 6763,
    "Ġorgies": 18283,
    "Ġargemone": 24273,
    "unhes": 21871,
    "imin": 1771,
    "Ġdischarged": 15218,
    "icit": 3376,
    "Ġagrippa": 11803,
    "veral": 2354,
    "drifting": 19821,
    "Ġelated": 18632,
    "abs": 11666,
    "easy": 9593,
    "specimen": 26604,
    "Ġunderstand": 830,
    "Ġthey": 575,
    "Ġrallied": 14094,
    "Ġapologizing": 25196,
    "Ġopal": 23624,
    "Ġinventing": 24860,
    "Ġperuvian": 18450,
    "Ġdevotedly": 24749,
    "loun": 17586,
    "mil": 13750,
    "humorously": 24016,
    "iar": 2381,
    "marest": 20978,
    "Ġthrees": 23398,
    "desc": 1394,
    "aurs": 20767,
    "Ġneatly": 17014,
    "thinking": 9013,
    "Ġlatest": 16820,
    "Ġlanguage": 641,
    "Ġmountainous": 16597,
    "Ġriddle": 14817,
    "tray": 21075,
    "exper": 8877,
    "Ġauxiliary": 26417,
    "Ġaccept": 4408,
    "Ġcritics": 23442,
    "othic": 16212,
    "Ġdamning": 19137,
    "Ġfairy": 14626,
    "Ġbuoyancy": 20038,
    "steelkilt": 10047,
    "Ġprettier": 23763,
    "Ġcontrari": 23346,
    "Ġwalk": 1826,
    "Ġbeholding": 8668,
    "papers": 12498,
    "Ġexhibiting": 19835,
    "Ġaint": 17742,
    "Ġperseverance": 13595,
    "Ġunho": 18240,
    "Ġcorn": 9350,
    "etent": 10200,
    "Ġoccasioned": 13224,
    "expense": 22425,
    "Ġtempor": 2369,
    "omical": 9680,
    "itations": 17815,
    "Ġriotous": 20542,
    "Ġdirections": 1971,
    "Ġfigures": 8629,
    "anoke": 21358,
    "Ġpurely": 12228,
    "Č": 205,
    "ĠĠĠĠĠĠĠĠĠĠĠĠĠĠĠĠĠĠĠĠĠĠĠĠĠĠĠĠĠĠĠĠĠĠĠĠĠ": 14613,
    "arying": 9801,
    "Ġfren": 10806,
    "Ġattendant": 11286,
    "Ġapology": 8327,
    "Ġprecipitous": 24834,
    "Ġsickbed": 24245,
    "Ġadvisable": 11443,
    "Ġelbow": 12917,
    "amp": 2606,
    "Ġconquest": 15744,
    "Ġhovered": 12627,
    "Ġjane": 1758,
    "Ġbrothers": 13173,
    "Ġchim": 5932,
    "Ġcounterpane": 11344,
    "Ġhinting": 19646,
    "increased": 20269,
    "Ġsurgeon": 8981,
    "Ġcruising": 6913,
    "Ġprank": 23214,
    "Ġcottage": 4734,
    "Ġdefect": 8554,
    "Ġalternate": 19982,
    "Ġdepress": 14044,
    "porary": 14552,
    "sole": 6168,
    "forty": 9374,
    "cre": 4249,
    "story": 9212,
    "Ġadoration": 18288,
    "Ġsubsc": 22785,
    "decor": 23778,
    "reject": 21234,
    "ule": 6800,
    "ctive": 11622,
    "disapprobation": 19153,
    "Ġfling": 9661,
    "sings": 4250,
    "Ġspaniards": 25554,
    "Ġbid": 6131,
    "Ġchowders": 18384,
    "Ġmoulded": 16973,
    "Ġcask": 5527,
    "erately": 21271,
    "?âĢĻâĢĿ": 23641,
    "Ġalan": 10870,
    "Ġdegenerating": 25798,
    "unusually": 15776,
    "Ġfeasts": 25368,
    "Ġrecording": 24433,
    "Ġgasfitters": 25037,
    "?âĢĿ": 700,
    "eye": 6224,
    "Ġantics": 24175,
    "Ġcatches": 23424,
    "Ġfaintly": 14913,
    "Ġaccounts": 7207,
    "fear": 8514,
    "Ġhieroglyphic": 25586,
    "Ġexasper": 8466,
    "metal": 24764,
    "sneezes": 11447,
    "Ġstabbed": 25455,
    "Ġhar": 5814,
    "nels": 12492,
    "Ġprobable": 5570,
    "Ġexpansion": 22622,
    "by": 1159,
    "ingham": 21298,
    "Ġspectator": 19402,
    "Ġtestament": 23224,
    "Ġinconven": 7586,
    "Ġcalculate": 13261,
    "Ġspangled": 22131,
    "exercise": 17457,
    "Ġappo": 8497,
    "Ġrascally": 26506,
    "Ġlovers": 9720,
    "talk": 6656,
    "Ġregiment": 6432,
    "Ġcircumstance": 4987,
    "penn": 18824,
    "like": 1885,
    "Ġlangu": 574,
    "Ġlonging": 14298,
    "Ġharpoon": 3614,
    "Ġtrooped": 24898,
    "claps": 23147,
    "Ġpittance": 15613,
    "Ġduration": 20352,
    "Ġpeculiarities": 12067,
    "otions": 7180,
    "Ġignorant": 5343,
    "Ġamid": 4959,
    "Ġcrust": 21348,
    "Ġaltering": 18100,
    "stern": 8444,
    "Ġess": 5691,
    "Ġactually": 5389,
    "Ġbrick": 8925,
    "r": 86,
    "ingle": 1038,
    "Ġbone": 4695,
    "ork": 415,
    "ollen": 11299,
    "black": 6768,
    "Ġglimpse": 6944,
    "low": 652,
    "Ġfalsely": 20579,
    "Ġlodgings": 8311,
    "belong": 12119,
    "oin": 17615,
    "paralleled": 14518,
    "Ġislanders": 19498,
    "Ġpalpable": 15204,
    "Ġjune": 10289,
    "faith": 15023,
    "Ġevenness": 22829,
    "blow": 9103,
    "Ġsomnam": 23001,
    "Ġbeats": 21748,
    "Ġop": 2603,
    "Ġtoo": 1166,
    "ters": 1568,
    "marked": 9048,
    "semicirc": 26490,
    "Ġgenus": 24428,
    "Ġwaistcoat": 12267,
    "Ġpeevish": 26556,
    "Ġgaunt": 11269,
    "Ġvect": 1224,
    "strade": 5065,
    "Ġbaltic": 18793,
    "oniously": 21255,
    "Ġminutes": 3002,
    "Ġvow": 10247,
    "bs": 3750,
    "Ġsuppressed": 11908,
    "Ġfield": 1245,
    "fair": 10093,
    "sli": 11522,
    "scarcely": 12383,
    "Ġbor": 5804,
    "Ġdarling": 12600,
    "Ġconcealing": 23899,
    "Ġhatch": 7847,
    "Ġrobinson": 17461,
    "Ġstrateg": 1371,
    "Ġepid": 18002,
    "Ġandromeda": 21504,
    "Ġboscombe": 8325,
    "Ġcompliment": 5673,
    "board": 3562,
    "quietly": 10593,
    "Ġalt": 18096,
    "Ġimmediately": 3364,
    "hement": 13830,
    "Ġamel": 18508,
    "epilogue": 22099,
    "Ġzigzag": 26271,
    "Ġfast": 1716,
    "Ġsilver": 7464,
    "Ġmouldings": 24736,
    "shaven": 18494,
    "example": 16009,
    "Ġvigilance": 12368,
    "pol": 5892,
    "eer": 15345,
    "Ġwhales": 1828,
    "Ġexecutors": 19530,
    "Ġhumped": 19766,
    "Ġflooring": 23622,
    "Ġenquired": 21936,
    "clever": 20811,
    "Ġdiminished": 16663,
    "Ġproblem": 1272,
    "cc": 473,
    "Ġmacey": 12559,
    "Ġenvied": 19324,
    "Ġdiscontented": 16054,
    "Ġorlop": 22089,
    "90": 12429,
    "Ġiii": 7860,
    "ically": 841,
    "Ġglimp": 6065,
    "aging": 2238,
    "Ġcart": 11582,
    "Ġaustral": 12169,
    "conclude": 24062,
    "Ġbarrel": 23789,
    "Ġstump": 7602,
    "guess": 14759,
    "Ġirene": 8443,
    "resent": 10770,
    "Ġapparel": 20433,
    "Ġhapp": 1089,
    "gabriel": 15358,
    "dam": 7797,
    "Ġrobins": 16249,
    "Ġlavater": 20493,
    "Ġgolden": 5336,
    "hetic": 12200,
    "Ġhumbled": 16193,
    "str": 2577,
    "pow": 10718,
    "Ġmercifully": 20177,
    "Ġcommend": 10335,
    "Ġarc": 14157,
    "possible": 5743,
    "looked": 6083,
    "assed": 6421,
    "Ġinvariable": 13454,
    "caught": 8726,
    "akness": 14193,
    "stre": 5451,
    "Ġdesolate": 10013,
    "Ġyards": 5371,
    "Ġskylight": 24069,
    "Ġheedfulness": 24521,
    "Ġhardened": 14448,
    "outh": 2686,
    "Ġblindly": 12106,
    "mael": 6722,
    "Ġashen": 21895,
    "Ġsatisfaction": 5667,
    "Ġoverall": 4356,
    "Ġpulpit": 7470,
    "Ġflatt": 16242,
    ",âĢĶ": 3172,
    "drop": 15335,
    "Ġvigorously": 11300,
    "Ġsoc": 3521,
    "Ġhouses": 6138,
    "Ġshoals": 13132,
    "Ġdefy": 11894,
    "Ġvia": 2385,
    "stone": 5089,
    "Ġcomplying": 18584,
    "Ġpapered": 20127,
    "Ġoppressed": 11190,
    "Ġbeliever": 25844,
    "uries": 6147,
    "Ġlearns": 2643,
    "Ġaround": 3609,
    "Ġ156": 20169,
    "Ġwinc": 9643,
    "odd": 21810,
    "Ġborrow": 10171,
    "leaned": 21366,
    "flagged": 23968,
    "ulus": 21860,
    "ours": 3426,
    "Ġparaphrasing": 26525,
    "Ġimprinted": 22386,
    "Ġinjunctions": 24268,
    "Ġunsh": 14112,
    "Ġparticip": 16127,
    "summoned": 26590,
    "Ġgodlike": 23354,
    "Ġunderstanding": 1764,
    "features": 14824,
    "discover": 10540,
    "Ġwarden": 17223,
    "inn": 5363,
    "vering": 15712,
    "assin": 22301,
    "Ġdisregard": 22524,
    "leness": 4691,
    "Ġdeeply": 4717,
    "ushed": 2974,
    "Ġeccentric": 13647,
    "Ġnorm": 762,
    "Ġextended": 7923,
    "somewhere": 12010,
    "Ġcaved": 21350,
    "Ġpains": 5964,
    "obtained": 23092,
    "Ġshone": 7404,
    "Ġwhale": 628,
    "Ġsolomon": 11053,
    "benefact": 24640,
    "Ġsallow": 12532,
    "Ġcheek": 8577,
    "poise": 6171,
    "cap": 8372,
    "Ġmassac": 14734,
    "Ġspeeches": 22654,
    "Ġstrained": 10219,
    "ĠarchÃ¦": 22770,
    "Ġliving": 3063,
    "Ġicelandic": 25885,
    "Ġblot": 9812,
    "Ġhissing": 15786,
    "Ġjeopardized": 20229,
    "Ġcowardice": 17030,
    "Ġdodo": 9072,
    "Ġrept": 13981,
    "ault": 2307,
    "Ġpacifics": 24372,
    "Ġhoot": 19074,
    "Ġbaboon": 19690,
    "ined": 1260,
    "Ġcrowned": 16839,
    "Ġenjoined": 18189,
    "Ġargu": 10935,
    "oll": 5456,
    "Ġpassages": 12966,
    "Ġportents": 14678,
    "Ġgleaming": 24992,
    "prairies": 20564,
    "Ġcasked": 24496,
    "Ġhipp": 21488,
    "Ġidle": 8252,
    "Ġuseful": 3556,
    "Ġrun": 2355,
    "Ġparc": 10921,
    "assemblies": 25955,
    "?_": 8069,
    "Ġpremeditated": 22230,
    "Ġallows": 3232,
    "ances": 1338,
    "Ġtreachery": 15099,
    "Ġcell": 6237,
    "Ġhercules": 14126,
    "Ġlakes": 8130,
    "dog": 10693,
    "Ġtechnically": 12363,
    "Ġbritannica": 24679,
    "Ġspoon": 22130,
    "Ġunworthy": 11713,
    "times": 8098,
    "Ġcompromised": 22567,
    "Ġactuated": 18543,
    "Ġwakes": 11571,
    "rier": 9241,
    "Ġhearken": 21681,
    "elop": 1494,
    "Ġstood": 2552,
    "Ġyaw": 18092,
    "Ġhousemaid": 14463,
    "maritime": 24170,
    "Ġgrounded": 23709,
    "forming": 15913,
    "devilish": 17080,
    "igating": 21696,
    "peare": 18909,
    "witted": 17705,
    "whiskers": 12308,
    "Ġgrowled": 19280,
    "stood": 4115,
    ".âĢĶâĢľ": 20745,
    "Ġfastidious": 14491,
    "yder": 10139,
    "surgeon": 24213,
    "Ġconsequence": 5542,
    "omach": 11633,
    "Ġinsights": 13177,
    "likelihood": 4992,
    "Ġhauling": 14085,
    "Ġrattled": 15064,
    "arian": 10316,
    "Ġexecute": 7505,
    "beef": 18521,
    "aste": 4602,
    "iasm": 8060,
    "offices": 19061,
    "Ġrains": 24339,
    "ersburgh": 18213,
    "rew": 3646,
    "surely": 10570,
    "rmsprop": 4523,
    "Ġburnwell": 13265,
    "Ġdesol": 6881,
    "Ġdost": 7636,
    "Ġlane": 5627,
    "Ġwollstonecraft": 26424,
    "desol": 13065,
    "Ġgeomet": 3192,
    "addressed": 13383,
    "Ġrosy": 18456,
    "mankind": 14372,
    "Ġdefinitions": 22940,
    "Ġdre": 1745,
    "Ġtradeoff": 2658,
    "Ġface": 1721,
    "Ġadd": 630,
    "Ġrevenue": 26193,
    "Ġbowditch": 19319,
    "Ġperplexed": 23657,
    "Ġbluish": 23648,
    "screwed": 17186,
    "Ġhumility": 12981,
    "Ġhabitation": 14800,
    "Ġtwist": 11848,
    "willingly": 11980,
    "rennial": 22337,
    "sust": 15420,
    "usive": 8191,
    "repugnance": 16862,
    "draught": 12086,
    "difference": 13706,
    "pursu": 11393,
    "Ġreflect": 6574,
    "Ġbushes": 16397,
    "Ġproduces": 2092,
    "Ġpages": 15604,
    "Ġdesperation": 19815,
    "iment": 2819,
    "osely": 9265,
    "Ġbusy": 6189,
    "Ġretained": 7173,
    "Ġunwound": 25168,
    "Ġrefinement": 18691,
    "ourably": 14375,
    "Ġmau": 21308,
    "motion": 17604,
    "Ġnatives": 17948,
    "bod": 12434,
    "ch": 321,
    "ists": 4002,
    "fishery": 10032,
    "Ġprivately": 19520,
    "Ġdrinks": 24278,
    "Ġbrimstone": 25685,
    "Ġgaping": 13967,
    "Ġunhing": 18236,
    "Ġwitty": 21290,
    "ere": 6789,
    "quickly": 14960,
    "sne": 10125,
    "semic": 21817,
    "hab": 1079,
    "jointed": 24006,
    "bbings": 19273,
    "Ġopened": 3509,
    "Ġdiscre": 2419,
    "osc": 18385,
    "disagreeable": 11164,
    "Ġreef": 10850,
    "limin": 8383,
    "Ġsher": 3763,
    "Ġ\"": 6119,
    "avenza": 17102,
    "Ġsend": 4106,
    "Ġreturned": 2893,
    "buncle": 13690,
    "racted": 4776,
    "furn": 10092,
    "th": 408,
    "attempts": 17189,
    "ok": 571,
    "Ġpict": 3496,
    "ropes": 7902,
    "Ġbequeathed": 20699,
    "Ġdangling": 17172,
    "tru": 10730,
    "Ġindoors": 18834,
    "Ĉ": 201,
    "table": 5795,
    "wis": 12515,
    "Ġhow": 598,
    "Ġpost": 4271,
    "cul": 1901,
    "Ġdiscredit": 22779,
    "Ġmap": 2393,
    "Ġplatform": 17129,
    "mine": 5618,
    "an": 278,
    "contemplated": 20456,
    "Ġunallied": 22024,
    "pyramid": 21028,
    "exceeded": 24998,
    "Ġtrade": 2548,
    "Ġalternative": 19983,
    "Ġresol": 2665,
    "Ġsickening": 19601,
    "Ġexord": 21823,
    "Ġadventure": 5980,
    "gener": 3126,
    "dl": 20821,
    "Ġdelay": 5748,
    "Ġinverted": 12633,
    "ject": 875,
    "Ġdeacon": 18138,
    "Ġfound": 1244,
    "Ġinclinations": 19536,
    "ense": 2052,
    "Ġoccupied": 5272,
    "Ġpalace": 16688,
    "Ġconstructed": 9387,
    "Ġlances": 6984,
    "Ġwager": 17790,
    "deepest": 22830,
    "Ġlived": 3993,
    "Ġtam": 7821,
    "flight": 15350,
    "Ġbrook": 13044,
    "Ġgemini": 26468,
    "ilities": 6992,
    "tern": 4223,
    "Ġexchanged": 10879,
    "âĢĻ-": 18164,
    "ientific": 6547,
    "Ë": 140,
    "Ġgills": 17990,
    "Ġtides": 13819,
    "Ġmerely": 3770,
    "Ġsynd": 22206,
    "Ġlouder": 13466,
    "Ġinstant": 2704,
    "lined": 12480,
    "deal": 12795,
    "Ġsympathies": 14859,
    "Ġtist": 21160,
    "ament": 2515,
    "Ġhunters": 6300,
    "Ġchurches": 12824,
    "delay": 16696,
    "Ġlegisl": 23533,
    "Ġdeigned": 18136,
    "unc": 15765,
    "Ġagency": 11802,
    "umbled": 8492,
    "sing": 5138,
    "olic": 14040,
    "Ġundertone": 23237,
    "sentimental": 25680,
    "imen": 12682,
    "Ġinducements": 24964,
    "idirectional": 2423,
    "Ġpeasants": 12329,
    "ness": 855,
    "Ġcorpusants": 13675,
    "accur": 14592,
    "Ġsidel": 9636,
    "[_": 5131,
    "reluct": 26162,
    "Ġpuzz": 5533,
    "hatches": 19925,
    "cart": 10689,
    "infallibly": 26416,
    "sigma": 3004,
    "flitted": 23965,
    "Ġcommunicative": 24547,
    "replied": 11565,
    "Ġheeds": 24519,
    "fatigue": 20656,
    "theories": 18076,
    "Ġcircumst": 2977,
    "Ġleak": 2160,
    "Ġambitious": 18512,
    "Ġarrest": 7409,
    "Ġegotistical": 26190,
    "painting": 17044,
    "Ġboarders": 16598,
    "mering": 12487,
    "ple": 455,
    "itioned": 22465,
    "determined": 9079,
    "ailed": 3246,
    "Ġnetworks": 596,
    "Ġspect": 3549,
    "Ġpunish": 12156,
    "sleep": 6511,
    "A": 37,
    "Ġhuggins": 24827,
    "fel": 8733,
    "urously": 18048,
    "ira": 3958,
    "winds": 10522,
    "Ġtheir": 645,
    "Ġthanked": 9459,
    "Ġ73": 24259,
    "oam": 8751,
    "Ġbegin": 3099,
    "Ġprestige": 22232,
    "Ġdesperado": 19816,
    "Ġcul": 17820,
    "Ġspecks": 14306,
    "Ġ270": 25129,
    "Ġimpassable": 20610,
    "Ġleviathan": 3289,
    "shoe": 14965,
    "mers": 9611,
    "Ġbund": 17861,
    "Ġpapa": 10657,
    "Ġdrop": 4343,
    "ĠmanÅĵuv": 18415,
    "Ġremem": 4311,
    "Ġindepend": 3666,
    "Ġthirt": 13937,
    "Ġfee": 7199,
    "Ġgross": 11624,
    "Ġgrammars": 11403,
    "Ġlocket": 22109,
    "around": 12604,
    "Ġjinglers": 26017,
    "Ġmaelstrom": 19352,
    "bucket": 17491,
    "Ġprof": 2462,
    "Ġcongregation": 12326,
    "ailing": 7022,
    "disreputable": 23500,
    "cats": 17510,
    "dispositions": 25010,
    "Ġmccauley": 26426,
    "dings": 2188,
    "imprisonment": 23760,
    "heat": 15495,
    "ulsive": 10234,
    "Ġremembering": 14609,
    "Ġsoo": 15857,
    "Ġivory": 4478,
    "Ġemployed": 5200,
    "Ġdetermines": 2370,
    "wheel": 22866,
    "Ġaverred": 18863,
    "Ġpur": 2216,
    "lead": 10166,
    "hours": 9124,
    "altogether": 12635,
    "Ġrussia": 26266,
    "Ġprone": 18967,
    "Ġsepulch": 15282,
    "ister": 1296,
    "Ġgrammar": 1061,
    "Ġfogs": 25281,
    "Ġmethodology": 2621,
    "Ġneville": 7399,
    "Ġchemical": 10411,
    "Ġethere": 23947,
    "rect": 1597,
    "scot": 14416,
    "Ġjup": 15948,
    "Ġfighting": 12194,
    "roman": 22000,
    "Ġfleetness": 20178,
    "Ġpagan": 7118,
    "Ġaverages": 2401,
    "Ġsurmount": 19997,
    "osition": 1376,
    "Ġrunning": 3951,
    "Ġlegible": 23532,
    "ifle": 10892,
    "Ġconflagration": 26363,
    "Ġreplace": 14475,
    "required": 17028,
    "Ġdaft": 19660,
    "Ġsilently": 6895,
    "screw": 9347,
    "Ġwrithing": 11943,
    "Ġsemantic": 1959,
    "Ġimpl": 7195,
    "rations": 10724,
    "Ġlam": 21545,
    "Ġslack": 8955,
    "tallow": 21083,
    "glance": 16585,
    "broken": 8020,
    "Ġminds": 6303,
    "Ġgravesend": 15214,
    "gled": 10700,
    "noble": 7921,
    "Ġtumult": 7115,
    "Ġyouthful": 16721,
    "Ġrepe": 3280,
    "....": 11317,
    "kovoko": 20667,
    "prec": 3202,
    "ener": 563,
    "hecy": 21204,
    "Ġcommanders": 23865,
    "Ġlistening": 6318,
    "Ġeber": 18001,
    "Ġdemands": 19640,
    "Ġbewit": 15724,
    "contin": 16540,
    "Ġpir": 6818,
    "Ġafrican": 20134,
    "Ġadaptive": 1336,
    "Ġintimacy": 8700,
    "Ġambiguous": 20163,
    "Ġsafety": 6339,
    "thyself": 19294,
    "Ġassur": 6073,
    "Ġbitten": 21387,
    "quar": 7615,
    "therefore": 5953,
    "Ġsufficiently": 8973,
    "Ġunchanged": 22023,
    "Ġmaternal": 11059,
    "vent": 683,
    "Ġsalesman": 13666,
    "scotland": 20526,
    "ease": 12454,
    "Ġplaid": 22599,
    "worn": 13804,
    "adel": 15725,
    "Ġspinal": 12299,
    "Ġevangelists": 20338,
    "ersman": 11700,
    "Ġbraces": 14668,
    "uses": 11758,
    "Ġbig": 5805,
    "ach": 434,
    "Ġlabors": 23326,
    "Ġagony": 5388,
    "Ġalders": 21780,
    "Ġscoresby": 10462,
    "Ġacquaintance": 4132,
    "Ġdevote": 10339,
    "Ġoccurs": 1858,
    "Ġoverfitting": 1540,
    "Ġsisterly": 16298,
    "Ġbaleen": 10037,
    "Ġtablets": 13153,
    "Ĝ": 221,
    "Ġdrug": 11411,
    "Ġclosing": 11769,
    "Ġmiser": 18701,
    "Ġcompromising": 22569,
    "Ġservants": 6610,
    "Ġray": 18640,
    "larking": 17592,
    "Ġvisitors": 7984,
    "highest": 20405,
    "arthy": 4822,
    "İ": 241,
    "footsteps": 25198,
    "Ġroman": 8322,
    "Ġwishing": 7830,
    "Ġvivacious": 19812,
    "stead": 10847,
    "Ġmagnus": 18954,
    "Ġconfess": 3766,
    "Ġcharley": 19002,
    "Ġgryphon": 4298,
    "nearer": 22446,
    "Ġremedy": 18723,
    "Ġsteadily": 8051,
    "Ġshooting": 11163,
    "Ġdifferences": 18712,
    "Ġfooted": 23794,
    "Ġaltogether": 4831,
    "ariously": 18525,
    "Ġfastened": 7066,
    "welcome": 10001,
    "priv": 9620,
    "Ġcommanded": 6330,
    "large": 6625,
    "ogr": 18675,
    "Ġdifference": 1487,
    "call": 8722,
    "Ġfolds": 12203,
    "Ġbrazen": 23836,
    "oce": 10715,
    "Ġalle": 11665,
    "Ġrestraint": 15125,
    "Ġcostly": 23583,
    "Ġplains": 14622,
    "Ġrepentance": 15158,
    "Ġdepression": 21836,
    "Ġcents": 17826,
    "Ġshouting": 10523,
    "oud": 1943,
    "Ġrecommence": 16810,
    "retirement": 23133,
    "Ġgarments": 15191,
    "continually": 11303,
    "Ġbegone": 11914,
    "Ġdisquiet": 18550,
    "atherine": 2595,
    "etah": 12657,
    "spin": 22727,
    "Ġcooper": 16073,
    "Ġcalls": 6744,
    "Ġvillain": 8635,
    "allic": 12809,
    "Ġtempted": 9056,
    "Ġaloysius": 15734,
    "dawson": 26127,
    "Ġhumane": 11881,
    "lightning": 16550,
    "rential": 22914,
    "Ġmaintain": 857,
    "Ġprospect": 4706,
    "Ġuntutored": 19163,
    "Ġresuming": 12889,
    "Ġheaths": 25971,
    "Ġresearches": 13130,
    "Ġability": 2763,
    "Ġabated": 18388,
    "spears": 23938,
    "iner": 2670,
    "Ġinputs": 845,
    "pled": 7891,
    "Ġumb": 11645,
    "sledge": 21055,
    "Ġwond": 3939,
    "Ġmariners": 6067,
    "en": 271,
    "Ġjustine": 4970,
    "Ġknitting": 24217,
    "Ġsubl": 7235,
    "Ġhindoo": 17173,
    "rage": 10844,
    "bled": 5469,
    "Ġlucerne": 23861,
    "batt": 20776,
    "Ġpour": 13912,
    "Ġnecessity": 7296,
    "Ġdodge": 19883,
    "Ġbil": 15561,
    "Ġswimming": 5507,
    "Ġtr": 552,
    "oup": 2015,
    "Ġgunw": 6212,
    "Ġreposing": 23358,
    "rising": 7557,
    "Ġserve": 9368,
    "omitted": 18014,
    "Ġclose": 3037,
    "Ġach": 2622,
    "Ġoptimizers": 18626,
    "Ġundertake": 14478,
    "residual": 19259,
    "dutch": 17217,
    "Ġ56": 24323,
    "ow": 325,
    "disappointed": 25190,
    "Ġinterpret": 5490,
    "oul": 4699,
    "sequent": 6831,
    "Ġpasseng": 12967,
    "iarity": 8743,
    "Ġunfeeling": 14116,
    "Ġrecklessly": 16981,
    "ming": 3599,
    "ertips": 23638,
    "Ġevident": 6611,
    "yellow": 9625,
    "Ġ(`": 12849,
    "Ġconcerns": 11965,
    "Ġchapters": 10474,
    "Ġsubmission": 22786,
    "pilot": 25907,
    "anzas": 17838,
    "imod": 15706,
    "verse": 9688,
    "zor": 15456,
    "off": 1887,
    "Ġprevents": 2558,
    "itic": 11577,
    "âĢĿ": 353,
    "Ġholds": 7975,
    "Ġnewcom": 16218,
    "Ġreserves": 19667,
    "Ġchinks": 22247,
    "Ġsepul": 14087,
    "umberland": 16835,
    "tiness": 21069,
    "inary": 3274,
    "Ġoutlandish": 12834,
    "Ġobeisance": 19755,
    "ctor": 13958,
    "Ġmechanically": 14396,
    "carriage": 9946,
    "batim": 25015,
    "Ġfamiliarly": 11304,
    "Ġpleasantly": 14519,
    "ois": 9134,
    "â": 163,
    "Ġhands": 1664,
    "Ġposs": 1619,
    "lightened": 12062,
    "Ġalleys": 25977,
    "diver": 20829,
    "Ġtreatise": 19341,
    "greater": 13248,
    "banish": 20780,
    "break": 6101,
    "declared": 15116,
    "Ġvexed": 9994,
    "kward": 6958,
    "Ġimmort": 19480,
    "Ġodds": 13327,
    "Ġbelshazzar": 16222,
    "Ġalgorithm": 781,
    "Ġmultitud": 18744,
    "Ġintrepid": 11703,
    "iam": 2510,
    "ilt": 2971,
    "Ġvisited": 5947,
    "Ġadmirals": 20382,
    "Ġpassionate": 11274,
    "perceive": 12808,
    "Ġcarry": 4779,
    "Ġprivacy": 19521,
    "ravity": 21631,
    "Ġdifferen": 937,
    "Ġbeggar": 9349,
    "Ġdutch": 6327,
    "Ġvari": 833,
    "Ġseals": 11693,
    "Ġsatisfy": 6912,
    "Ġpebbles": 16125,
    "Ġwhitney": 11374,
    "relieved": 13274,
    "spiracle": 22732,
    "python": 4692,
    "Ġblinds": 8006,
    "Ġ(âĢľ": 15991,
    "Ġnovelties": 24777,
    "twenty": 6607,
    "suitable": 18628,
    "bale": 20772,
    "Ġbeen": 627,
    "bec": 4053,
    "Ġinfallible": 15068,
    "Ġsurmises": 17053,
    "rown": 2192,
    "Ġoccur": 1083,
    "Ġreally": 2159,
    "Ġinfant": 11958,
    "Ġestim": 3347,
    "iors": 9125,
    "Ġcruisers": 25862,
    "Ġvillas": 24049,
    "idered": 4554,
    ".]": 15296,
    "Ġbread": 5404,
    "glances": 23850,
    "Ġsho": 2244,
    "Ġmumbled": 17805,
    "Ġnash": 5819,
    "heed": 15496,
    "Ġexacted": 23602,
    "stupid": 12672,
    "resum": 17759,
    "Ġcomo": 21843,
    "Ġproducts": 5198,
    "secut": 7866,
    "Ġpocket": 4898,
    "grow": 10099,
    "aits": 20764,
    "Ġcomrade": 12280,
    "Ġadjusted": 23456,
    "Ġbatch": 889,
    "dining": 13703,
    "strip": 19827,
    "Ġty": 6657,
    "range": 3491,
    "Ġmule": 13860,
    "mer": 2836,
    "mystical": 25316,
    "Ġafloat": 9308,
    "Ġloadstone": 25815,
    "Ġforgo": 21769,
    "Ġrounding": 16272,
    "adier": 18087,
    "empl": 5724,
    "jabez": 20931,
    "._)": 10481,
    "aus": 1500,
    "Ġabominate": 20061,
    "Ġghostly": 24649,
    "fe": 681,
    "cleanliness": 25870,
    "Ġsore": 10765,
    "does": 6194,
    "Ġjudge": 5502,
    "kov": 17584,
    "Ġven": 4648,
    "rabbit": 20588,
    "rese": 15506,
    "Ġcarrying": 6071,
    "Ġfem": 6134,
    "ascal": 10193,
    "Ġgrapple": 25810,
    "inordinate": 21192,
    "inching": 21187,
    "Ġamb": 9292,
    "Ġwant": 1121,
    "wra": 11541,
    "eastward": 15127,
    "Ġstubborn": 10415,
    "Ġcanall": 10929,
    "Ġbulb": 23852,
    "ract": 1016,
    "Ġintertw": 18590,
    "beginning": 13559,
    "Ġrepresentation": 14403,
    "Ġprimal": 17105,
    "places": 7878,
    "Ġ1825": 25718,
    "Ġdishon": 12227,
    "Ġearliest": 9831,
    "bushes": 24446,
    "Ġmemories": 14540,
    "seventy": 10877,
    "iquet": 17573,
    "Ġunfinished": 19506,
    "Ġbehav": 3536,
    "six": 7142,
    "passed": 8025,
    "Ġdiscriminative": 4325,
    "iveness": 2469,
    "Ġexcused": 23310,
    "utherland": 9579,
    "Ġbrilliantly": 25119,
    "Ġtiles": 17724,
    "thinks": 16639,
    "Ġcouple": 5423,
    "sheet": 16282,
    "databases": 3026,
    "clim": 18927,
    "Ġbrahma": 26318,
    "carbuncle": 26381,
    "breathing": 25334,
    "Ġconfine": 14509,
    "Ġscrut": 15941,
    "Ġrect": 18023,
    "Ġmomentous": 16165,
    "fif": 9116,
    "Ġdetached": 10280,
    "Ġpoultry": 17439,
    "Ġbol": 6241,
    "Ġsized": 11562,
    "ni": 1710,
    "Ġv": 399,
    "Ġhearty": 9846,
    "mechan": 11854,
    "Ġtemporal": 2613,
    "Ġfron": 14486,
    "Ġexisted": 15749,
    "Ġguardian": 14940,
    "Ġwillingly": 8884,
    "boxes": 16886,
    "print": 23808,
    "Ġmoves": 14230,
    "Ġmisfortunes": 7042,
    "Ġemblematical": 25787,
    "Ġhelen": 16653,
    "Ġfaint": 5811,
    "Ġloading": 15870,
    "burned": 25078,
    "Ġpanic": 11287,
    "tim": 13789,
    "Ġforswe": 21770,
    "Ġrecom": 4556,
    "Ġinterests": 14568,
    "bet": 6109,
    "winding": 16718,
    "machine": 970,
    "tahit": 17690,
    "Ġjingling": 26016,
    "Ġkeepers": 23537,
    "Ġ74": 24260,
    "Ġradiance": 13368,
    "Ġhitting": 21484,
    "ouder": 17898,
    "Ġpoliteness": 8273,
    "Ġlacey": 10198,
    "Ġent": 904,
    "deficient": 23113,
    "Ġcalculating": 9925,
    "Ġdiabolically": 25512,
    "+": 15,
    "Ġeaglet": 19301,
    "whe": 1075,
    "ructed": 7028,
    "Ġeager": 3568,
    "Ġpassers": 18756,
    "ques": 2844,
    "Ġyoungster": 23174,
    "Ġlionel": 25285,
    "Ġrecesses": 17259,
    "Ġcasually": 25092,
    "Ġupheld": 22147,
    "bonnet": 25741,
    "Ġex": 361,
    "Ġdavy": 25950,
    "circumstance": 7763,
    "Ġwoll": 21291,
    "collins": 6916,
    "Ġsummers": 23870,
    "ute": 4643,
    "ower": 1031,
    "Ġrapture": 13494,
    "tempest": 16957,
    "Ġprocess": 560,
    "Ġreven": 18026,
    "Ġner": 1649,
    "ean": 20838,
    "Ġregions": 10324,
    "advantages": 11272,
    "Ġacquaint": 13041,
    "Ġstaff": 14004,
    "Ġarchy": 14344,
    "englishman": 23675,
    "trip": 21089,
    "lantern": 17426,
    "Ġimpact": 10297,
    "Ġadvance": 5484,
    "Ġrebellion": 26474,
    "ĠĊ": 12519,
    "Ġbag": 5699,
    "Ġalluded": 7886,
    "Ġunfair": 19504,
    "elihood": 4623,
    "Ġbreak": 2870,
    "¯": 112,
    "Ġsnodhead": 19298,
    "Ġobscure": 9554,
    "Ġcult": 8781,
    "Ġfore": 2152,
    "Ġcheer": 4067,
    "semble": 1524,
    "rifled": 21045,
    "Ġprayers": 12120,
    "xic": 9145,
    "Ġforthwith": 16616,
    "Ġgrimly": 17050,
    "Ġharb": 7370,
    "presents": 18795,
    "Ġsolic": 7932,
    "ior": 2040,
    "attery": 18487,
    "Ġexpectantly": 23523,
    "Ġinter": 729,
    "Ġbake": 21379,
    "butt": 15990,
    "Ġcigars": 12249,
    "hideous": 25406,
    "Ġexposed": 8522,
    "q": 85,
    "prit": 19338,
    "attending": 18914,
    "Ġmissed": 8555,
    "Ġfake": 5810,
    "Ġwithdrew": 9696,
    "Ġcasks": 7521,
    "needles": 20310,
    "Ġelegance": 11333,
    "_:": 17476,
    "Ġlif": 10196,
    "Ġamph": 18509,
    "destroyed": 15258,
    "recursion": 13326,
    "Ġlimping": 23544,
    "Ġstarbuck": 2194,
    "Ġsobs": 14131,
    "powder": 17643,
    "Ġlines": 4535,
    "precious": 12069,
    "Ġperceiving": 8875,
    "Ġattacked": 10568,
    "conceivable": 17128,
    "Ġsprings": 16685,
    "Ġenjoyed": 8007,
    "Ġmister": 22751,
    "charitable": 23929,
    "Ġbott": 3151,
    "society": 9972,
    "Ġdidn": 4360,
    "Ġcontracting": 16007,
    "Ġappar": 7411,
    "train": 2035,
    "irious": 15782,
    "Ġaud": 6661,
    "fixed": 7548,
    "ĕ": 214,
    "Ġcaulking": 20292,
    "kl": 4865,
    "Ġstables": 23653,
    "engagement": 14456,
    "uncomfortable": 18158,
    "sometimes": 5971,
    "who": 2448,
    "portent": 25411,
    "talked": 14983,
    "Ġseventh": 18202,
    "Ġmayhap": 18707,
    "ingolstadt": 21301,
    "Ġsleet": 8975,
    "Ġshake": 6033,
    "Ġlur": 5226,
    "lleg": 20949,
    "different": 6501,
    "beside": 19874,
    "be": 669,
    "Ġcomstock": 21847,
    "Ġwe": 387,
    "aws": 8236,
    "Ġ36": 14765,
    "concealed": 25114,
    "dried": 20825,
    "Ġeddy": 13121,
    "Ġfinancial": 23124,
    "Ġfits": 8790,
    "Ġexplore": 15904,
    "Ġspace": 1502,
    "Ġmists": 14629,
    "Ġelbows": 18634,
    "Ġboldly": 9501,
    "arrant": 10475,
    "Ġaskance": 23144,
    "corrob": 24484,
    "Ġdog": 4190,
    "Ġpresc": 15921,
    "Ġruddy": 17123,
    "Ġfiled": 15576,
    "Ġchildren": 3767,
    "Ġsallies": 21227,
    "osures": 22257,
    "extending": 22759,
    "Ġtun": 5998,
    "Ġlovel": 10272,
    "ishes": 6523,
    "Ġthursday": 12640,
    "Ġvain": 3627,
    "Ġsadness": 13284,
    "Ġprynne": 25539,
    "verity": 13999,
    "t": 88,
    "tal": 17668,
    "Ġhypocritical": 20736,
    "rendering": 22336,
    "Ġmisconduct": 22754,
    "Ġepo": 21615,
    "Ġjung": 12832,
    "Ġfacts": 2290,
    "Ġserenity": 10028,
    "rals": 21040,
    "woof": 21137,
    "Ġwaterward": 23364,
    "Ġtimbers": 14837,
    "Ġimmensities": 25329,
    "Ġgregarious": 18963,
    "Ġrefused": 6715,
    "Ġimportance": 4900,
    "Ġlevers": 18075,
    "Ġtrump": 8195,
    "abled": 12790,
    "Ġconventional": 25546,
    "Ġfails": 13311,
    "lyph": 10853,
    "Ġdreary": 10409,
    "Ġcasket": 19721,
    "Ġsteed": 13037,
    "bulkington": 19922,
    "Ġparcels": 25464,
    "Ġclerval": 4654,
    "round": 3366,
    "Ġtransformer": 2637,
    "owal": 13991,
    "difficult": 10058,
    "Ġdreaming": 11224,
    "folio": 10547,
    "tattoo": 21085,
    "Ġsupernatural": 9873,
    "Ġpreprocessing": 26535,
    "Ġrevellers": 21674,
    "Ġwintry": 17432,
    "Ġoverl": 18426,
    "Ġsocially": 22081,
    "mists": 17603,
    "Ü": 157,
    "Ġcoefficient": 2886,
    "Ġjoints": 12032,
    "Ġslaughter": 20728,
    "Ġcosy": 13128,
    "shell": 16283,
    "Ġcautiousness": 19863,
    "Ġsevered": 18201,
    "Ġflexible": 23773,
    "Ġdisconnected": 22521,
    "Ġsimilar": 4917,
    "Ġdetailed": 12820,
    "Ġgre": 1579,
    "avoiding": 25235,
    "Ġwindows": 4971,
    "league": 17842,
    "ounce": 6557,
    "conquerable": 17397,
    "Ġdismay": 11806,
    "Ġdesolated": 24811,
    "Ġtear": 6723,
    "orting": 9735,
    "phenomenon": 17646,
    "Ġnext": 2137,
    "itional": 22464,
    "calling": 12446,
    "av": 739,
    "Ġoverhear": 15972,
    "excuse": 13379,
    "dden": 1805,
    "Ġmile": 7152,
    "Ġredress": 23750,
    "Ġundoubtedly": 8312,
    "Ġden": 3108,
    "Ġwounds": 17788,
    "Ġsheets": 9722,
    "Ġdistance": 3480,
    "Ġhereabouts": 12974,
    "forecastle": 10991,
    "elze": 21569,
    "Ġmystic": 7503,
    "Ġcomparatively": 9490,
    "Ġslyness": 25265,
    "pardon": 10065,
    "bohem": 18998,
    "obser": 11100,
    "measured": 19986,
    "Ġjapan": 7639,
    "Ġwedded": 16672,
    "Ġrad": 4962,
    "Ġscrewed": 15118,
    "Ġclub": 8873,
    "Ġscores": 2715,
    "Ġfantastic": 10059,
    "(_": 7540,
    "Ġfairness": 9894,
    "Ġdissu": 18548,
    "Ġcorp": 5575,
    "oso": 12826,
    "Ġutensils": 23513,
    "intelligence": 5882,
    "Ġborder": 10170,
    "spade": 10340,
    "Ġdownstairs": 11225,
    "vess": 7354,
    "Ġxx": 5492,
    "Ġjac": 1899,
    "Ġwed": 3961,
    "Ġremoving": 12113,
    "Ġgrimesby": 11458,
    "spanish": 14330,
    "plish": 18206,
    "Ġseparating": 16683,
    "distinctive": 25725,
    "Ġprofile": 16487,
    "Ġchallenge": 25470,
    "Ġvirtual": 11240,
    "restraint": 18977,
    "stalk": 21646,
    "agatha": 21904,
    "Ġpraised": 19550,
    "Ġsanct": 15061,
    "Ġabased": 22264,
    "Ġshipwreck": 20443,
    "rible": 3226,
    "astic": 1868,
    "honest": 17001,
    "tranqu": 14704,
    "Ġsequences": 1752,
    "Ġrebounds": 25966,
    "Ġrequested": 14300,
    "Ġempire": 11146,
    "Ġdismissed": 12888,
    "honour": 13465,
    "Ġmassive": 9932,
    "Ġstake": 14001,
    "Ġinco": 14258,
    "Ġimpersonal": 17394,
    "Ġshoving": 23486,
    "Ġparl": 8177,
    "Ġjar": 15946,
    "animated": 14973,
    "Ġlead": 3519,
    "Ġgrammatical": 13537,
    "enc": 7574,
    "Ġbehaviour": 4381,
    "bloom": 24688,
    "Ġgrosvenor": 17416,
    "Ġdisengaged": 12885,
    "Ġancho": 15599,
    "Ġwoven": 9926,
    "model": 3855,
    "accurately": 25860,
    "eled": 2358,
    "asant": 17956,
    "Ġbricks": 13560,
    "Ġshoe": 14566,
    "Ġcovariate": 2351,
    "Ġvenerable": 9093,
    "hand": 2757,
    "Ġmidday": 23631,
    "settle": 16659,
    "ulates": 14053,
    "Ġarbit": 4651,
    "Ġdischarge": 18554,
    "Ġgrego": 18961,
    "Ġconsole": 8150,
    "Ġchristianity": 19858,
    "pp": 384,
    "purse": 20021,
    "Ġchestnuts": 24380,
    "hate": 20890,
    "Ġfrightened": 5341,
    "Ġagonizing": 17237,
    "Ġeventually": 8616,
    "country": 6103,
    "skirted": 24488,
    "Ġpreliminaries": 25175,
    "Ġinser": 6820,
    "contrivance": 26315,
    "Ġdegrees": 7294,
    "Ġblundering": 26282,
    "Ġrheum": 18212,
    "Ġenumerating": 15242,
    "Ġarthur": 7196,
    "Ġemigrant": 25858,
    "kill": 13742,
    "Ġcurrent": 13009,
    "agony": 14067,
    "enchant": 21281,
    "Ġdissect": 16048,
    "observing": 25493,
    "Ġfurnaces": 24001,
    "umphed": 23515,
    "Ġbadge": 16681,
    "Ġdirection": 1793,
    "musical": 25339,
    "Ġbree": 5012,
    "Ġforemast": 12003,
    "Ġbrougham": 17868,
    "Ġuncounted": 19114,
    "Ġvictims": 19801,
    "Ġsuperl": 16443,
    "bearers": 18522,
    "abiding": 21789,
    "Ġpeered": 18666,
    "Ġdescribe": 2765,
    "boiling": 18997,
    "âĢĶâĢĺ_": 24830,
    "shone": 22449,
    "sounded": 12263,
    "Ġspared": 7892,
    "Ġpickle": 16720,
    "Ġfidget": 15187,
    "obviously": 25241,
    "con": 655,
    "ancho": 4938,
    "Ġslay": 16302,
    "feeling": 6616,
    "Ġblend": 14397,
    "Ġroarings": 25301,
    "Ġprospects": 9959,
    "devouring": 24949,
    "Ġshirr": 18229,
    "Ġuncivilized": 25497,
    "mmar": 952,
    "effect": 8603,
    "Ġforeheads": 23446,
    "grand": 7969,
    "gaff": 20880,
    "Ġfrivolous": 26175,
    "Ġspoilt": 24806,
    "Ġunst": 18233,
    "Ġcups": 16880,
    "Ġsomeone": 6703,
    "Ġgentlemanly": 19312,
    "Ġblasp": 14399,
    "Ġdiminish": 14743,
    "Ġlistless": 16474,
    "imaux": 21708,
    "Ġassuring": 13060,
    "Ġfashionable": 19541,
    "Ġnecessitated": 23924,
    "gate": 12463,
    "wants": 21128,
    "Ġwaylaid": 22869,
    "ativeness": 15518,
    "Ġbarber": 23787,
    "aged": 2607,
    "Ġinfle": 16362,
    "Ġlisten": 4674,
    "Ġsubstantiated": 25874,
    "Ġinconsistency": 26181,
    "proof": 16420,
    "riages": 10243,
    "Ġlooks": 4165,
    "Ġendeavoured": 4918,
    "Ġyour": 633,
    "oled": 17617,
    "Ġwidows": 24235,
    "Ġhandles": 22691,
    "als": 2042,
    "elfare": 11774,
    "Ġprobed": 18731,
    "Ġalleviated": 26202,
    "Ġsit": 4214,
    "prodig": 16423,
    "istically": 14142,
    "imp": 3034,
    "ilet": 12825,
    "head": 1436,
    "Ġrail": 7226,
    "why": 2832,
    "Ġvoyages": 6908,
    "Ġimplicate": 24875,
    "earnest": 12396,
    "Ġsoothingly": 25046,
    "Ġheed": 5630,
    "Ġmissing": 6175,
    "Ġproper": 1380,
    "Ġstave": 11650,
    "tube": 20408,
    "Ġgene": 15668,
    "Ġcausing": 16357,
    "Ġcum": 21339,
    "Ġmodes": 22217,
    "Ġvalid": 1727,
    "fates": 20856,
    "we": 850,
    "Ġrevolver": 14898,
    "cutting": 23782,
    "hatred": 24820,
    "ieved": 3229,
    "Ġpretence": 13203,
    "Ġcredited": 25152,
    "Ġaware": 5756,
    "Ġsupported": 9818,
    "Ġparagra": 15875,
    "phology": 3010,
    "Ġmeditations": 25012,
    "_.âĢĻâĢĿ": 17477,
    "Ġjetted": 24430,
    "Ġsplitting": 4380,
    "Ġkeep": 2356,
    "crat": 24094,
    "Ġisles": 8459,
    "wall": 10137,
    "Ġtoward": 17944,
    "Ġtrunks": 15966,
    "naturedly": 24839,
    "Ġreap": 18024,
    "Ġsepulchral": 25891,
    "Ġstraightway": 9016,
    "sander": 11526,
    "Ġsquatted": 25840,
    "Ġsupplies": 20325,
    "Ġspecimens": 18856,
    "ssing": 3808,
    "Ġsockets": 22082,
    "Ġtrop": 7565,
    "Ġsailed": 4889,
    "Ġcompetent": 11813,
    "Ġpott": 21465,
    "laughed": 20280,
    "ifferent": 4261,
    "Ġsickle": 24244,
    "Ġhooded": 12403,
    "Ġbind": 12578,
    "Ġling": 7377,
    "Ġvap": 6837,
    "Ġclusters": 25231,
    "Ġshoes": 7072,
    "Ġabstract": 17180,
    "Ġintermission": 18591,
    "Ġfleet": 9432,
    "Ġdrugged": 12598,
    "Ġsurve": 9874,
    "Ġmines": 21306,
    "Ġlowly": 11122,
    "ingale": 21297,
    "neglect": 25667,
    "Ġchasing": 11751,
    "Ġkindliness": 23292,
    "Ġadjusting": 3411,
    "indisc": 22369,
    "Ġframework": 1967,
    "odecimo": 11445,
    "Ġplaced": 3442,
    "Ġhanover": 20583,
    "Ġcurtains": 22981,
    "tempt": 21077,
    "emotions": 15793,
    "Ġmishap": 20574,
    "Ġhers": 7888,
    "soles": 18684,
    "pl": 402,
    "ev": 6952,
    "Ġlace": 13947,
    "remed": 18950,
    "slack": 16892,
    "Ġexposure": 16095,
    "scra": 13018,
    "Ġnine": 5369,
    "formality": 22216,
    "Ġboarded": 13231,
    "Ġtoll": 7851,
    "Ġmadame": 13148,
    "Ġming": 9646,
    "metallic": 19877,
    "sequ": 2403,
    "Ġbuzz": 23993,
    "abez": 10223,
    "Ġdegradation": 2632,
    "Ġpulled": 5660,
    "Ġyoke": 18093,
    "perform": 15897,
    "Ġintrodu": 1927,
    "Ġattentions": 5877,
    "Ġforesaw": 19125,
    "felicity": 25139,
    "excitement": 19666,
    "amiable": 14051,
    "Ġnantucket": 2841,
    "Ġtwisting": 18656,
    "mod": 1068,
    "afford": 14653,
    "Ġintellect": 8169,
    "Ġaccepted": 7750,
    "Ġcaterpillar": 5864,
    "Ġchorus": 10947,
    "Ġcatastrophic": 3539,
    "Ġpercept": 14222,
    "Ġfurthermore": 1170,
    "live": 7550,
    "again": 3397,
    "repid": 11564,
    "Ġmomentarily": 22807,
    "Ġquadruped": 17456,
    "Ġremembered": 5276,
    "Ġtamely": 24976,
    "forgotten": 12413,
    "Ġgenerative": 5644,
    "outs": 7009,
    "enthus": 17975,
    "prehend": 14241,
    "È": 137,
    "persuasion": 20040,
    "Ġstyled": 24670,
    "Ġbased": 3338,
    "Ġfloundered": 18859,
    "izens": 18141,
    "Ġmagnet": 10390,
    "Ġdents": 13909,
    "Ġsinusoidal": 4801,
    "Ġspaniard": 20360,
    "application": 12360,
    "legs": 13180,
    "ict": 592,
    "Ġrendered": 5773,
    "Ġdigest": 24646,
    "protested": 13472,
    "indef": 17733,
    "Ġsimultaneous": 22584,
    "prepar": 22463,
    "Ġvind": 10250,
    "ľ": 255,
    "remarked": 12285,
    "Ġforce": 5092,
    "Ġ117": 19694,
    "eked": 16399,
    "Ġadjust": 2154,
    "accomplishments": 25325,
    "glue": 17554,
    "itical": 5801,
    "Ġspermacetti": 19047,
    "act": 783,
    "Ġcontradicted": 20210,
    "Ġdoubly": 16382,
    "Ġdexter": 9701,
    "Ġtrembling": 7481,
    "Ġcries": 7155,
    "beat": 10987,
    "continual": 20642,
    "!_âĢĿ": 11377,
    "Ġreturns": 11923,
    "het": 5435,
    "Ġbacking": 16113,
    "Ġconstables": 19070,
    "ley": 1817,
    "âĢĶ.": 11752,
    "Ġgroans": 14821,
    "lid": 20943,
    "irting": 11684,
    "principal": 20658,
    "Ġoccupies": 24004,
    "supposed": 13313,
    "scotch": 25849,
    "Ġexempl": 21826,
    "Ġgleam": 12305,
    "Ġsenses": 8251,
    "spirits": 8054,
    "downward": 16617,
    "Ġaddu": 22097,
    "Ġfind": 1457,
    "Ġslips": 23161,
    "Ġcry": 3493,
    "Ġghostliness": 24650,
    "sixty": 24851,
    "Ġplanisp": 24053,
    "blending": 24125,
    "Ġ39": 19486,
    "both": 5785,
    "Ġdissuade": 26255,
    "Ġunra": 18232,
    "Ġgrind": 18733,
    "Ġminutest": 14559,
    "umbered": 22113,
    "Ġwing": 6665,
    "vacancies": 25918,
    "Ġimages": 1599,
    "using": 5468,
    "Ġstoutest": 24627,
    "Ġquivering": 12854,
    "Ġmetal": 9384,
    "Ġsoundings": 13131,
    "Ġlig": 21544,
    "Ġhuman": 1319,
    "Ġrelations": 5852,
    "Ġmerrily": 23729,
    "ek": 1909,
    "provoke": 26070,
    "negro": 18489,
    "tu": 12508,
    "Ġwalton": 14970,
    "immediately": 10049,
    "myster": 16261,
    "Ġimbecile": 17390,
    "included": 19205,
    "Ġfix": 2509,
    "trunk": 23944,
    "Ġflag": 7242,
    "mons": 17598,
    "Ġapartments": 19611,
    "Ġprayer": 16664,
    "Ġfurrow": 22809,
    "Ġpotency": 14645,
    "Ġsour": 21214,
    "Ġcath": 17824,
    "Ġtor": 8105,
    "itories": 15545,
    "Ġuncle": 3193,
    "Ġacknowledged": 7534,
    "Ġterrified": 14670,
    "Ġazores": 20192,
    "Ġforbid": 7864,
    "Ġcounteracted": 19859,
    "Ġlascar": 9199,
    "ĭ": 238,
    "cases": 12444,
    "stretching": 20496,
    "Ġstow": 21726,
    "exact": 7909,
    "Ġaffidavit": 20722,
    "Ġmiserably": 12944,
    "`": 68,
    "lost": 8887,
    "tables": 19754,
    "Ġspin": 7629,
    "Ġabomination": 22274,
    "Ġpallor": 13514,
    "speech": 10667,
    "Ġken": 22187,
    "isc": 6239,
    "waited": 24584,
    "Ġpossessing": 16573,
    "ben": 4926,
    "Ġwherein": 14293,
    "Ġdoubled": 19639,
    "Ġ61": 24363,
    "Ġstrategy": 2435,
    "Ġcontribute": 12857,
    "Ġautumnal": 19034,
    "Ġoverflowing": 17236,
    "osing": 3687,
    "Ġparcel": 15197,
    "worship": 19383,
    "Ġbraw": 23831,
    "Ġdem": 11673,
    "sailors": 9922,
    "Ġmaze": 23827,
    "osite": 4893,
    "Ġtradesman": 20069,
    "\":": 9582,
    "Ġacquaintances": 17348,
    "Ġbeaver": 18083,
    "Ġcyl": 15553,
    "Ġsab": 10763,
    "ab": 345,
    "Ġdeportment": 22592,
    "Ġ64": 24366,
    "Ġsledge": 8110,
    "Ġdiadem": 24740,
    "husband": 8041,
    "Ġrugged": 18718,
    "Ġnearest": 8469,
    "intu": 22929,
    "Ġshrouds": 11345,
    "coo": 11171,
    "heartedness": 24826,
    "Ġmysticetus": 24921,
    "igated": 15703,
    "Ġcub": 8413,
    "Ġsane": 21219,
    "Ġtreacherous": 13552,
    "coward": 13698,
    "mystery": 15153,
    "Ġstraining": 11328,
    "clouded": 20330,
    "Ġslender": 11937,
    "eping": 5833,
    "otam": 21794,
    "fen": 20848,
    "Ġhoney": 12628,
    "Ġtougher": 21174,
    "Ġabroad": 8865,
    "commendation": 26347,
    "Ġchaldee": 26233,
    "Ġconsummation": 17423,
    "thanking": 24329,
    "mush": 20975,
    "Ġhunting": 7259,
    "Ġpalmy": 19495,
    "Ġhills": 6527,
    "Ġsandwic": 24663,
    "icant": 21558,
    "Ġrattling": 11396,
    "accountable": 7110,
    "Ġpiratical": 24800,
    "animation": 16977,
    "Ġflourishing": 25186,
    "Ġconverse": 11841,
    "untarily": 6312,
    "Ġcordage": 19675,
    "Ġmalay": 24390,
    "degree": 12797,
    "Ġwedding": 4858,
    "Ġbowsprit": 16558,
    "Ġsouth": 4911,
    "Ġhotels": 19533,
    "Ġsched": 2337,
    "Ġrevived": 11369,
    "Ġsoda": 25533,
    "inations": 7567,
    "sp": 894,
    "Ġcomfortably": 16613,
    "introduction": 15121,
    "Ġdeified": 18135,
    "Ġwick": 2006,
    "colour": 9903,
    "grave": 16090,
    "Ġimmortality": 26324,
    "Ġsets": 8773,
    "Ġconvinced": 4203,
    "Ġanoint": 25536,
    "sweep": 24616,
    "Ġnewcastle": 16219,
    "crated": 16694,
    "Ġinner": 9671,
    "Ġsuck": 15859,
    "Ġreeled": 13984,
    "clad": 14457,
    "Ġway": 1086,
    "london": 9610,
    "Ġwhistled": 24622,
    "Ġ183": 13235,
    "Ġcensus": 15094,
    "ullied": 23101,
    "bted": 7793,
    "constant": 11325,
    "Ġgreenland": 5761,
    "Ġscreams": 24602,
    "pemberley": 9621,
    "Ġhospit": 7514,
    "Ġstubbs": 23293,
    "fetch": 12461,
    "agre": 18162,
    "Ġcaptured": 7245,
    "darkness": 9512,
    "Ġ63": 24365,
    "Ġcursory": 18849,
    "Ġancestry": 25640,
    "ctic": 8441,
    "Ġrake": 18641,
    "strang": 11184,
    "naturally": 14570,
    "Ġextra": 4056,
    "Ġpitiable": 9914,
    "Ġcreeping": 18682,
    "fluke": 25203,
    "Ġglowing": 12279,
    "Ġsque": 18755,
    "Ġinsensibility": 17108,
    "or": 282,
    "income": 15484,
    "tallied": 21087,
    "oided": 11508,
    "Ġcannon": 14152,
    "Ġeddying": 16432,
    "Ġshillings": 15832,
    "Ġtrout": 22350,
    "byshire": 6172,
    "Ġoutlines": 15953,
    "Ġadjusts": 8980,
    "Ġinhaled": 25450,
    "Ġunaffected": 14119,
    "header": 11930,
    "Ġnewly": 9338,
    "Ġhig": 755,
    "Ġpurchasing": 19872,
    "Ġforeshad": 23450,
    "Ġrepl": 1592,
    "7": 27,
    "Ġtelesc": 12993,
    "Ġstamping": 20027,
    "Ġappare": 12812,
    "Ġslain": 8953,
    "Ġspokes": 18311,
    "Ġrnns": 2396,
    "murderers": 25727,
    "Ġhon": 2539,
    "Ġinestimable": 17440,
    "inhab": 10758,
    "Ġmeanness": 22595,
    "Ġcigaret": 16974,
    "aft": 9584,
    "Ġmisgiv": 14343,
    "Ġchained": 16384,
    "Ġgrap": 11705,
    "Ġagainst": 1697,
    "Ġvisions": 12972,
    "========": 2312,
    "Ġsometimes": 2167,
    "the": 334,
    "sympathy": 20540,
    "Ġengaged": 3428,
    "idean": 14261,
    "hill": 15360,
    "storm": 9682,
    "Ġbetokened": 18794,
    "compan": 7301,
    "Ġrover": 18453,
    "agrad": 2747,
    "bered": 4506,
    "acity": 5735,
    "Ġstaving": 21733,
    "Ġprize": 11945,
    "ittered": 18437,
    "Ġbathe": 25442,
    "reclining": 20572,
    "Ġsurmise": 12292,
    "Ġsurface": 5119,
    "violent": 14579,
    "Ġemotions": 8969,
    "Ġowns": 22820,
    "band": 3059,
    "dece": 11731,
    "soc": 5175,
    "Ġgurgling": 17444,
    "Ġregression": 4407,
    "Ġsmoke": 4715,
    "Ġusher": 22209,
    "education": 20300,
    "Ġfloat": 12029,
    "Ġdeposited": 25483,
    "Ġwith": 349,
    "77": 15298,
    "Ġassociations": 14961,
    "frequent": 15351,
    "Ġwhereas": 3853,
    "bearded": 18520,
    "Ġdiet": 13908,
    "Ġprivileges": 25131,
    "Ġeels": 21616,
    "Ġtearless": 24785,
    "rasing": 21043,
    "precipitance": 25866,
    "Ġassistance": 6333,
    "impl": 21703,
    "wander": 17707,
    "Ġcompression": 18143,
    "ibly": 2997,
    "ugn": 9378,
    "Ġcool": 5734,
    "iamond": 14589,
    "Ġillustrate": 25064,
    "Ġsupposition": 9817,
    "solitude": 23294,
    "Ġcircumnavigation": 20397,
    "olly": 3224,
    "Ġfavours": 23278,
    "mighty": 9467,
    "uel": 6966,
    "Ġinexorable": 12252,
    "perv": 1574,
    "Ġcompute": 2908,
    "sprang": 19987,
    "belais": 24034,
    "elastic": 17978,
    "Ġmagistrate": 8233,
    "wife": 8100,
    "Ġlandlessness": 23377,
    "clothed": 19735,
    "Ġrecogn": 2703,
    "enesis": 24387,
    "ous": 477,
    "Ġtornado": 24620,
    "Ġkrempe": 10670,
    "Ġpossibilities": 18974,
    "tornadoes": 26152,
    "pips": 21018,
    "Ġconsoling": 19453,
    "Ġrocky": 13385,
    "bench": 16801,
    "*": 14,
    "amouch": 21841,
    "Ġfollowing": 4063,
    "itty": 3551,
    "teness": 23200,
    "Ġgriefs": 16769,
    "Ġcorresponding": 13436,
    "Ġug": 8140,
    "Ġuninter": 18241,
    "Ġunconcern": 14114,
    "Ġoscillations": 2900,
    "approached": 13483,
    "Ġheadstrong": 14386,
    "wit": 7817,
    "Ġimprove": 1852,
    "Ġcity": 4531,
    "cracy": 24689,
    "arranted": 19316,
    "Ġlard": 13945,
    "meanwhile": 10610,
    "Ġmadam": 5663,
    "Ġinvolved": 8922,
    "weakness": 16120,
    "acetty": 24463,
    "Ġglow": 7170,
    "Ġtablet": 19201,
    "aust": 15307,
    "Ġar": 480,
    "Ġcrouching": 23441,
    "arding": 22153,
    "Ġconse": 21800,
    "Ġdoubting": 13097,
    "Ġoverladen": 22362,
    "Ġneglect": 7941,
    "nings": 9131,
    "Ġmiddle": 4137,
    "Ġspacious": 18310,
    "Ò": 147,
    "worthy": 7732,
    "Ġprogramming": 1183,
    "Ġlookest": 22711,
    "shaken": 16021,
    "iceland": 21562,
    "voy": 7144,
    "Ġtrample": 20326,
    "satisfactory": 16891,
    "Ġclattered": 22345,
    "Ġplun": 6281,
    "Ġcrews": 8990,
    "Ġeducation": 5128,
    "Ġnurtured": 19746,
    ".âĢĻ": 1718,
    "headed": 4316,
    "ulous": 4450,
    "enched": 10155,
    "Ġfireside": 23530,
    "roc": 9675,
    "Ġcubs": 20083,
    "peter": 24297,
    "uttering": 12658,
    "Ġextending": 11029,
    "Ġtell": 1467,
    "Ġperpetual": 12300,
    "hyena": 24251,
    "Ġlarboard": 11010,
    "creature": 5346,
    "Ġmiller": 19880,
    "Ġangles": 23587,
    "Ġstigma": 25790,
    "Ġmartyr": 26359,
    "vocabulary": 25084,
    "Ġsheltered": 19908,
    "Ġillinois": 19134,
    "Ġballasted": 23976,
    "Ġleaky": 2346,
    "Ġdwelling": 7322,
    "Ġretort": 23067,
    "Ġimplement": 3141,
    "Ġsegmentation": 17338,
    "Ġtwelvemonth": 12174,
    "Ġmoral": 6578,
    "Ġdivert": 23592,
    "Ġdisinterested": 16052,
    "Ġsnarled": 25715,
    "Ġlexic": 15720,
    "prosper": 19098,
    "augh": 1784,
    "Ġcannibals": 10588,
    "Ġlod": 4043,
    "Ġhurrah": 9869,
    "ian": 1236,
    "Ġevaluate": 2959,
    "mens": 20967,
    "driven": 19768,
    "Ġsouthern": 7688,
    "exc": 5169,
    "Ġsharks": 4499,
    "Ġenvirons": 13209,
    "Ġoxford": 11372,
    "limbs": 20190,
    "Ġdisorder": 16046,
    "Ġunprincipled": 20706,
    "Ġwar": 5526,
    "Ġthrills": 24541,
    "Ġquakers": 22412,
    "invite": 25087,
    "Ġtranslates": 12048,
    "Ġembra": 6579,
    "Ġencourag": 1393,
    "Ġthreats": 13375,
    "ife": 1023,
    "mean": 6438,
    "Ġfootsteps": 16570,
    "Ġfisheries": 17436,
    "Ġ179": 19751,
    "dis": 2250,
    "ager": 6546,
    "ampling": 12722,
    "ierce": 14389,
    "Ġherbage": 25995,
    "Ġmoderate": 10940,
    "ws": 7355,
    "Ġslaves": 23164,
    "Ġshell": 11733,
    "erie": 21269,
    "Ġadequ": 10914,
    "mand": 3894,
    "pious": 17631,
    "request": 21239,
    "Ġdeclaration": 16634,
    "Ġsorrow": 4629,
    "Ġstir": 5823,
    "Ġmarchant": 14783,
    "cheon": 23801,
    "cabin": 8362,
    "rever": 21233,
    "Ġabstracted": 17181,
    "Ġwaterproof": 19086,
    "asc": 6386,
    "Ġmotions": 8280,
    "Ġboundary": 11223,
    "Ġtoken": 2039,
    "Ġsli": 4748,
    "vulgar": 25917,
    "Ġforwarded": 19041,
    "Ġhowling": 8509,
    "Ġdried": 7367,
    "Ġeight": 3901,
    "fly": 13712,
    "merchant": 10468,
    "furthermore": 20000,
    "Ġkrusenstern": 26376,
    "Ġredu": 1353,
    "wail": 21123,
    "guarded": 13292,
    "Ġgenealogies": 25960,
    "Ġcontinue": 5398,
    "encoun": 12295,
    "Ġethiopian": 26612,
    "Ġtricks": 13482,
    "Ġinfancy": 10410,
    "Ġdetest": 8500,
    "lungs": 26134,
    "go": 2063,
    "aternity": 21263,
    "Ġrequ": 799,
    "Ġexamples": 2605,
    "Ġ100": 14360,
    "that": 852,
    "char": 3500,
    "begone": 12874,
    "pray": 5429,
    "ascertaining": 26459,
    "weekly": 25683,
    "Ġdeductions": 19730,
    "fits": 13716,
    "Ġdisadvantage": 12886,
    "Ġcalifornia": 20527,
    "Ġrushed": 4087,
    "centre": 17085,
    "Ġdefection": 22938,
    "Ġcondense": 21804,
    "eel": 11484,
    "Ġpenalty": 1840,
    "Ġconduct": 3733,
    "Ġobservable": 25125,
    "Ġsubmerged": 11869,
    "Ġdeplored": 20502,
    "shunned": 22461,
    "Ġextract": 1576,
    "obli": 23091,
    "Ġcautiously": 16975,
    "Ġshrieking": 24757,
    "Ġblotches": 25313,
    "Ġbu": 3680,
    "Ġoftentimes": 20152,
    "Ġsubsisting": 23432,
    "Ġwhisper": 6205,
    "enial": 17778,
    "awn": 3833,
    "Ġum": 10212,
    "Ġroylott": 7305,
    "rapidly": 15241,
    "Ġlengthen": 15650,
    "Ġacquitted": 18896,
    "Ġafghan": 22625,
    "avering": 24792,
    "Ġbeating": 8144,
    "Ġclaims": 13371,
    "upid": 6582,
    "Ġdegenerated": 20503,
    "Ġmort": 3457,
    "gris": 8259,
    "Ġphren": 8571,
    "ells": 5303,
    "Ġsidelong": 11439,
    "Ġsheer": 14149,
    "ot": 346,
    "Ġsabbath": 17253,
    "years": 6883,
    "Ġglimpses": 13430,
    "Ġabout": 632,
    "Ġtrans": 640,
    "Ġforever": 14553,
    "Ġdefined": 11895,
    "itated": 4440,
    "osp": 6854,
    "Ġbend": 9170,
    "Ġaltered": 7393,
    "Ġcount": 1816,
    "Ġbrad": 8786,
    "unquiet": 21877,
    "urry": 13992,
    "Ġgirl": 3086,
    "orient": 2880,
    "no": 891,
    "Ġwives": 12551,
    "Ġmanage": 7640,
    "¼": 125,
    "trained": 4238,
    "Ġfrighten": 13276,
    "tawny": 26403,
    "Ġoverjoy": 15968,
    "Ġcareer": 11119,
    "!âĢĶâĢĻ": 23564,
    "representativeness": 25271,
    "prow": 15409,
    "Ġessentially": 24923,
    "Ġfinger": 5273,
    "Ġwondering": 7970,
    "der": 468,
    "Ġoutside": 5554,
    "Ġlawless": 19431,
    "Ġlime": 13946,
    "Ġ103": 24410,
    "Ġtheory": 5798,
    "Ġmillar": 13859,
    "Ġresponses": 23647,
    "age": 505,
    "Ġstrain": 6023,
    "Ġcrawling": 17043,
    "nur": 11506,
    "Ġbrix": 12579,
    "Ġexterior": 19984,
    "attain": 21259,
    "Ġstray": 18067,
    "Ġrare": 7037,
    "Ġloathed": 15871,
    "Ġsubstitute": 16724,
    "Ġboats": 2638,
    "service": 15035,
    "Ġlimit": 10444,
    "Ġorganize": 8991,
    "ould": 428,
    "impulse": 20643,
    "Ġdownstream": 3774,
    "Ġthink": 986,
    "Ġdeliberate": 15021,
    "continuing": 24478,
    "Ġashamed": 6403,
    "itary": 4751,
    "Ġdirectly": 2104,
    "exposure": 19253,
    "Ġcareless": 11120,
    "Ġspans": 18302,
    "Ġinadequate": 17934,
    "rimin": 2426,
    "forbidding": 25835,
    "Ġploughing": 26258,
    "Ġpre": 507,
    "easily": 17532,
    "Ġfeedforward": 2326,
    "breat": 10078,
    "oology": 21004,
    "antique": 18285,
    "Ġmo": 629,
    "Ġwrapping": 19772,
    "Ġheightens": 24150,
    "======================================================================": 10068,
    "Ġmorocc": 22968,
    "Ġwheel": 9718,
    "Ġtrap": 7671,
    "Ġcircumvent": 25063,
    "Ġ7": 4745,
    "Ġconductor": 24003,
    "Ġparish": 8854,
    "Ġconfl": 11138,
    "Ġvoice": 2190,
    "Ġintense": 6157,
    "Ġdews": 21834,
    "del": 4076,
    "Ġcol": 1057,
    "riet": 18178,
    "sofa": 26145,
    "unconquerable": 21887,
    "Ġpan": 5082,
    "dropping": 14980,
    "Ġdefects": 12330,
    "Ġindolence": 16225,
    "neighbourhood": 10025,
    "Ġseeming": 8540,
    "Ġnerve": 16337,
    "Ġcringed": 25941,
    "agings": 18163,
    "Ġexasperate": 20094,
    "Ġgen": 5296,
    "isticated": 1585,
    "gathered": 13730,
    "harbor": 13562,
    "Ġtalks": 23367,
    "dream": 8727,
    "eers": 20841,
    "Ġentertaining": 16924,
    "Ġswings": 11087,
    "Ġindulging": 16902,
    "dies": 15336,
    "illed": 2625,
    "elev": 12455,
    "âĢĶ(": 15934,
    "Ġcomprehension": 15084,
    "ortal": 6265,
    "Ġlend": 17960,
    "ifting": 6545,
    "Ġinjustice": 9190,
    "Ġhelter": 24021,
    "Ġinspire": 11993,
    "Ġkindly": 6077,
    "Ġpainful": 6462,
    "Ġveritable": 19377,
    "Ġstile": 21728,
    "prevailed": 17343,
    "Ġantarctic": 19549,
    "Ġlover": 7193,
    "desolate": 25702,
    "Ġinches": 5845,
    "Ġnimble": 21524,
    "Ġthirty": 4944,
    "shows": 22452,
    "exasper": 22423,
    "Ġmince": 22826,
    "Ġhelmet": 19684,
    "Ġexclusion": 19392,
    "Ġconveying": 19711,
    "endeavoured": 12277,
    "Ġmurmur": 14588,
    "Ġfluctuations": 5516,
    "Ġsequ": 983,
    "Ġruggedness": 26267,
    "Ġviewing": 19261,
    "Ġdismal": 11807,
    "Ġhushed": 13923,
    "Ġbureau": 11589,
    "state": 13977,
    "Ġquench": 22415,
    "etts": 12656,
    "Ġvacancies": 24344,
    "Ġspectacles": 12094,
    "Ġsimpleton": 16331,
    "Ġtalker": 23368,
    "Ġalacrity": 15733,
    "glorious": 19363,
    "Ġclutched": 13517,
    "kitty": 10106,
    "Ġ116": 24439,
    "Ġtrowsers": 9628,
    "shipping": 10308,
    "Ġwes": 8778,
    "Ġcalamity": 17347,
    "Ġfulfilled": 11363,
    "Ġcollapsed": 15079,
    "Ġambition": 11433,
    "Ġhadn": 9719,
    "Ġpeaked": 2297,
    "Ġthine": 7374,
    "sex": 12709,
    "Ġid": 1911,
    "Ġcracking": 14573,
    "59": 17471,
    "Ġ[": 6967,
    "Ġpartaking": 22693,
    "bildad": 9587,
    "lays": 14920,
    "Ġhorseman": 19604,
    "circumstantial": 24443,
    "ads": 5718,
    "trimmed": 23945,
    "discovering": 24250,
    "Ġformerly": 7493,
    "T": 56,
    "ahawk": 23313,
    "iver": 2049,
    "oters": 21795,
    "Ġtasted": 12525,
    "answer": 11729,
    "Ġinexperience": 26098,
    "ivial": 15856,
    "anche": 10789,
    "wheels": 14379,
    "Ġabused": 22265,
    "Ġdesist": 16232,
    "Ġkneel": 14804,
    "acquainted": 7313,
    "Ġtrustees": 24104,
    "Ġmature": 17797,
    "augment": 18827,
    "atre": 17768,
    "ouble": 2661,
    "Ġdoings": 18374,
    "earn": 10697,
    "vand": 21106,
    "Ġedinburgh": 16433,
    "Ġislands": 6766,
    "Ġfair": 2840,
    "Ġprecip": 7075,
    "rol": 5713,
    "Ġrol": 3552,
    "Ġeffusion": 22513,
    "Ġcatastrop": 3346,
    "itage": 17814,
    "Ġlean": 7605,
    "Ġhypocr": 19468,
    "Ġnavel": 24575,
    "Ġcarpent": 4467,
    "Ġiroquois": 26471,
    "Ġroundabout": 23057,
    "proud": 9904,
    "nial": 20982,
    "Ġdisc": 944,
    "Ġunrecorded": 17465,
    "Ġprair": 7746,
    "dark": 5614,
    "Ġhasten": 10479,
    "Ġlabelled": 23327,
    "Ġvindictiveness": 25737,
    "Ġorder": 1685,
    "barrel": 17058,
    "Ġmissionary": 25695,
    "Ġoversight": 22358,
    "ato": 17767,
    "unbe": 21868,
    "Ġtomorrow": 21509,
    "uplifted": 17693,
    "Ġcandle": 8291,
    "Ġasiatics": 20428,
    "Ġcanal": 8181,
    "unciation": 25981,
    "impregnable": 26480,
    "Ġvexations": 24608,
    "Ġincorruption": 26308,
    "Ġminiature": 11040,
    "Ġvolcanoes": 24142,
    "engthen": 14455,
    "Ġcoopers": 20519,
    "Ġdisputes": 25824,
    "_).âĢĶ": 8681,
    "Ġbarrow": 12066,
    "Ġelderly": 13493,
    "notice": 16144,
    "icha": 11735,
    "some": 2234,
    "C": 39,
    "Ġsoph": 1587,
    "awake": 14450,
    "pless": 6260,
    "Ġwhich": 504,
    "Ġreappearance": 21663,
    "Ġinscrutable": 10673,
    "generous": 16566,
    "Ġrates": 1403,
    "Ġbranches": 6776,
    "species": 13253,
    "Ġsingled": 23770,
    "Ġheaped": 18035,
    "achable": 14136,
    "gins": 12465,
    "Ġbattery": 21391,
    "ć": 200,
    "writhed": 26079,
    "Ġdressing": 7091,
    "Ġstuff": 5717,
    "Ġgaily": 16746,
    "Ġhaught": 10253,
    "Ġdry": 5624,
    "Ġdress": 4021,
    "Ġpunctually": 17136,
    "Ġharrow": 17923,
    "Ġmyself": 1453,
    "Ġell": 17713,
    "Ġbalances": 2340,
    "fil": 12459,
    "Ġdrowned": 9552,
    "Ġrespectable": 6736,
    "Ġwhirlp": 16961,
    "Ġgovernor": 16489,
    "arthly": 8029,
    "Ġreads": 23109,
    "Ġcelerity": 17434,
    "Ġadjac": 18290,
    "Ġversion": 10630,
    "Ġinfatuation": 25856,
    "Ġpersever": 10003,
    "quee": 4129,
    "inex": 14090,
    "ourney": 3550,
    "Ġchristmas": 6924,
    "Ġglided": 7447,
    "depths": 25662,
    "Ġvengeance": 5884,
    "izard": 10884,
    "Ġknowing": 4458,
[...]
