{
  "metadata": {
    "vocab_size": 26616,
    "algorithm": "BPE",
    "created_at": "2026-08-14 04:05:29",
    "special_tokens": [
      "<PAD>",
      "<SOS>",
      "<EOS>",
      "<UNK>",
      "<MASK>"
    ]
  },
  "vocab": {
    "Ġjerk": 16952,
    "Ġpivot": 13926,
    "favour": 9552,
    "Ġstormy": 16730,
    "Ġrepresents": 4903,
    "penny": 22948,
    "eternal": 17985,
    "Ġmanly": 22328,
    "Ġburnwell": 13271,
    "Ġancestry": 25642,
    "recur": 4440,
    "Ġboone": 11845,
    "usation": 18402,
    "grieved": 17320,
    "Ġplucked": 15117,
    "Ġcomparing": 14267,
    "compar": 14361,
    "oubled": 23647,
    "leeward": 15214,
    "Ġcomposing": 16071,
    "arus": 13915,
    "olerably": 11676,
    "Ġoverspread": 14209,
    "Ġages": 7029,
    "ots": 3292,
    "Ġresume": 18566,
    "fins": 13722,
    "Ġintercepted": 25828,
    "Ġramble": 9316,
    "Ġ27": 8618,
    "Ġgenerating": 12856,
    "doesn": 19823,
    "Ġsnows": 14729,
    "Ġstacks": 18077,
    "Ġspitzbergen": 15291,
    "earthly": 24723,
    "resembled": 21249,
    "Ġearl": 7675,
    "Ġnorris": 23204,
    "Ġgifts": 21615,
    "ostentatious": 20654,
    "Ġtheories": 13852,
    "Ġpeep": 6869,
    "Ġduly": 13355,
    "arks": 2843,
    "Ġmoby": 3664,
    "rying": 3182,
    "coach": 23562,
    "ioneer": 15636,
    "Ġminutes": 2996,
    "Ġtranscend": 25668,
    "Ġears": 4493,
    "crucible": 24843,
    "Ġbitterly": 8315,
    "Ġstriding": 16097,
    "Ġconfused": 7964,
    "Ġrecords": 12200,
    "Ġkentuck": 19893,
    "Ġgained": 4537,
    "ibank": 6879,
    "Ġsuffocated": 20730,
    "Ġsundry": 20077,
    "Ġexplored": 23521,
    "soundest": 24796,
    "Ġinvolved": 8926,
    "Ġparents": 6753,
    "Ġreasonably": 11095,
    "Ġclothes": 4997,
    "Ġcreated": 2708,
    "Ġenable": 687,
    "Ġsurveying": 25326,
    "Ġutter": 3977,
    "afternoon": 13191,
    "setting": 13290,
    "Ġink": 8807,
    "Ġhumor": 11053,
    "harpooned": 24288,
    "Ġbelief": 5856,
    "Ġreproofs": 24893,
    "Ġproud": 5654,
    "Ġheedfully": 24521,
    "Ġdollars": 11457,
    "Ġswamp": 14439,
    "twist": 23704,
    "stooped": 23824,
    "Ġspecimen": 13028,
    "Ġplants": 22601,
    "Ġclubbed": 26548,
    "dat": 1672,
    "Ġtottenham": 24145,
    "practical": 17224,
    "Ġorganization": 7984,
    "Ġcomplaints": 12269,
    "ois": 9137,
    "ipelagoes": 13675,
    "Ġmah": 15545,
    "Ġnorms": 3665,
    "absent": 21794,
    "Ġmourn": 8707,
    "Ġseeks": 14306,
    "company": 9464,
    "Ġindolent": 13010,
    "supplemental": 25875,
    "urring": 21708,
    "resnet": 4071,
    "ĠĠĠĠĠĠĠĠĠĠĠĠĠĠĠĠĠĠĠĠĠĠĠĠĠĠĠĠĠĠĠĠĠĠĠĠĠĠĠĠĠ": 19585,
    "Ġcorrectly": 9407,
    "swing": 15432,
    "Ġargu": 10936,
    "Ġfretfully": 25448,
    "Ġkrempe": 10672,
    "Ġproviding": 1358,
    "Ġmadame": 13154,
    "Ġvanishing": 1345,
    "ć": 200,
    "Ġhind": 9191,
    "Ġcoaxing": 18595,
    "Ġphysiognomical": 25612,
    "Ġquadru": 16008,
    "Ġiron": 3231,
    "Ġbloodshed": 23802,
    "Ġsuccour": 20438,
    "Ġaware": 5756,
    "Ġrome": 12160,
    "Ġsurpassed": 25268,
    "Ġdeplored": 20508,
    "Ġtash": 13823,
    "batch": 1982,
    "atherley": 7219,
    "Ġmodular": 12821,
    "larking": 17596,
    "Ġvaried": 11852,
    "Ġinhale": 20303,
    "mits": 13759,
    "Ġcordial": 16837,
    "produced": 25415,
    "Ġcanoe": 9726,
    "Ġzoned": 22823,
    "Ġch": 513,
    "consol": 9765,
    "Ġboiling": 8527,
    "Ġpittance": 15621,
    "het": 5435,
    "Ġsevent": 18201,
    "Ġneeded": 7717,
    "Ġtent": 15470,
    "Ġvisible": 4778,
    "inst": 4297,
    "Ġinfall": 7960,
    "parts": 14603,
    "money": 8753,
    "Ġhush": 13215,
    "disgu": 19157,
    "Ġ18": 3407,
    "Ġremonstr": 16165,
    "Ġdoes": 942,
    "Ġmallet": 17812,
    "Ġagonies": 14254,
    "seek": 8841,
    "Ġconsequence": 5542,
    "threaten": 25462,
    "Ġfrightened": 5342,
    "harb": 9126,
    "Ġcrime": 4618,
    "Ġretain": 7863,
    "Ġcap": 2362,
    "urches": 12690,
    "Ġhalloa": 13321,
    "uccas": 21109,
    "Ġencouragement": 13048,
    "Ġcomfortably": 16617,
    "respectively": 24699,
    "Ġwerter": 15243,
    "ser": 1427,
    "Ġbalmy": 22908,
    "Ġinsolent": 13604,
    "nonsense": 17617,
    "Ġwaterward": 23370,
    "Ġtreacher": 8608,
    "âĢĿ)": 21818,
    "Ġplan": 3883,
    "intend": 16228,
    "Ġderision": 16312,
    "Ġcrevice": 22730,
    "Ġchord": 22249,
    "Ġeffects": 7235,
    "Ġbark": 10800,
    "flutter": 23974,
    "Ġintegration": 9871,
    "Ġpressed": 6042,
    "Ġclothed": 19609,
    "upper": 11541,
    "fac": 17543,
    "Ġdifficulty": 5770,
    "Ġecho": 12673,
    "ratulations": 20129,
    "clad": 14462,
    "Ġcaprice": 14579,
    "Ġdexterous": 15152,
    "Ġfully": 6343,
    "Ġillustrious": 17110,
    "Ī": 235,
    "Ġcarriage": 3953,
    "Ġdeposed": 16091,
    "Ġsentiment": 6589,
    "Ġlogical": 14489,
    "Ġlean": 7605,
    "aching": 5832,
    "Ġclatter": 22349,
    "_âĢĶâĢĻâĢĿ": 25742,
    "Ġsultry": 20291,
    "iced": 3903,
    "Ġresurrection": 12899,
    "Ġwhisper": 6206,
    "heartily": 24218,
    "Ġreasonable": 7252,
    "prit": 19345,
    "large": 6627,
    "ologically": 22887,
    "Ġfusion": 21417,
    "cceed": 4144,
    "Ġhosmer": 6774,
    "Ġvineyard": 12334,
    "hears": 12538,
    "Ġhoe": 23354,
    "Ġpresentation": 14483,
    "Ġtattoo": 7358,
    "Ġpulse": 13119,
    "stood": 4117,
    "Ġrecurred": 18978,
    "Ġinserted": 8356,
    "Ġclusters": 25233,
    "Ġbushy": 16405,
    "cour": 4482,
    "deserts": 25382,
    "lit": 9608,
    "cherries": 19759,
    "continuing": 24479,
    "Ġbenevol": 5962,
    "buffalo": 20566,
    "Ġdischarge": 18557,
    "ampl": 21846,
    "meaning": 2906,
    "Ġsulkily": 25882,
    "ny": 4017,
    "ÿ": 192,
    "Ġenvironments": 24038,
    "rets": 12546,
    "uts": 8820,
    "che": 3167,
    "Ġestimate": 19376,
    "ome": 535,
    "Ġpurch": 6600,
    "Ġhoped": 5488,
    "Ġprophesied": 26063,
    "summoned": 26593,
    "perpendicular": 14165,
    "Ġsunda": 13547,
    "Ġfly": 3870,
    "Ġmanifested": 17160,
    "Ġconsisting": 8974,
    "Ġcurled": 8226,
    "response": 25763,
    "dangerous": 20243,
    "dropped": 12267,
    "Ġfocuses": 8653,
    "Ġseventy": 7878,
    "nose": 17612,
    "Ġphysical": 7521,
    "Ġobjectionable": 16993,
    "Ġclair": 6269,
    "lower": 8884,
    "Ġpedestrian": 25884,
    "Ġdeposition": 18612,
    "paradise": 20640,
    "Ġpulley": 2972,
    "Ġcyl": 15561,
    "inquir": 9539,
    "Ġlucifers": 16590,
    "Ġidler": 16408,
    "Ġflat": 8228,
    "achus": 18284,
    "Ġneighbor": 25806,
    "gratification": 24348,
    "mistress": 14908,
    "sledge": 21060,
    "Ġstrike": 4857,
    "Ġcrosswise": 18889,
    "Ġen": 392,
    "Ġnecessarily": 13253,
    "###": 3827,
    "Ġfritters": 23259,
    "Ġfixed": 2686,
    "Ô": 149,
    "solution": 14688,
    "seized": 14038,
    "rabbit": 20594,
    "Ġdeaden": 23462,
    "acetti": 13400,
    "cnns": 3621,
    "Ġinterruption": 9476,
    "Ġfejee": 18355,
    "Ġfriends": 2654,
    "Ġbree": 5012,
    "Ġexcuses": 19039,
    "Ġpatentee": 25587,
    "Ã¦st": 24178,
    "domestic": 19828,
    "Ġcraven": 16472,
    "ac": 740,
    "Ġmatrimonial": 25490,
    "Ġjaws": 5593,
    "smallest": 23915,
    "Ġdungeon": 16998,
    "Ġdup": 21430,
    "fil": 12467,
    "Ġassuming": 16694,
    "Ġstiff": 6992,
    "Ġautumnal": 19041,
    "Ġartist": 12917,
    "Ġsally": 15505,
    "post": 6062,
    "Ġmixed": 6974,
    "Ġalternating": 15033,
    "rin": 10124,
    "69": 17477,
    "Ġheadlong": 11892,
    "Ġishmael": 7394,
    "Ġjurors": 17347,
    "bott": 9109,
    "Ġearls": 18905,
    "Ġdemanding": 16807,
    "Ġadmirable": 8269,
    "Ġfrenchman": 11285,
    "Ġpedest": 15067,
    "ver": 331,
    "Ġpeaceable": 14726,
    "Ġbeats": 21756,
    "guinea": 16675,
    "investments": 25533,
    "marvell": 24175,
    "Ġdisciple": 22786,
    "pit": 3985,
    "Ġmaintenance": 17464,
    "impl": 21710,
    "Ġparsee": 6413,
    "specul": 23946,
    "log": 18536,
    "Ġlvi": 21556,
    "stalls": 26475,
    "commun": 15036,
    "Ġassizes": 11110,
    "ignant": 11131,
    "cheerful": 13579,
    "ats": 4255,
    "Ġsoldiers": 8690,
    "Ġpads": 21477,
    "atically": 2641,
    "ias": 6363,
    "Ġproprietor": 12377,
    "ittle": 813,
    "Ġintentionally": 24523,
    "Ġhereditarily": 25225,
    "Ġneglig": 18879,
    "mistaken": 12215,
    "jephro": 26394,
    "Ġstubbornness": 25380,
    "pered": 4200,
    "ford": 2821,
    "'t": 3141,
    "Ġinnumerable": 13356,
    "excellent": 8044,
    "orously": 8420,
    "Ġcorporeally": 25729,
    "loat": 8890,
    "Ġignominy": 15089,
    "brimming": 23579,
    "Ġfavoured": 16364,
    "Ġtuck": 10143,
    "Ġfriesland": 26444,
    "aggoo": 5130,
    "Ġlombardy": 26465,
    "Ġshout": 4266,
    "Ġartificial": 795,
    "umerable": 11729,
    "scent": 13026,
    "alescence": 15928,
    "Ġhonest": 7286,
    "Ġalps": 10872,
    "bug": 17495,
    "Ġmonument": 16243,
    "aciousness": 18607,
    "Ġdeaths": 14539,
    "Ġlady": 1588,
    "Ġbranch": 8332,
    "Ġexecute": 7504,
    "C": 39,
    "izes": 885,
    "Ġadvantageously": 19548,
    "iamond": 14592,
    "romeda": 17265,
    "ermaid": 14299,
    "Ġoften": 1955,
    "ifford": 15788,
    "Ġ1950": 11361,
    "ufact": 10735,
    "Ġcheerfulness": 10519,
    "Ġconcealment": 16916,
    "Ġneck": 4886,
    "Ġterrier": 23402,
    "Ġwhelm": 25999,
    "Ġblessed": 6930,
    "st": 316,
    "destiny": 16701,
    "Ġlogic": 13082,
    "Ġinsp": 2099,
    "tumult": 12427,
    "Ġdawn": 6816,
    "Ġenergies": 25460,
    "Ġresembled": 18036,
    "sometimes": 5972,
    "Ġeffectually": 16171,
    "Ġdeepest": 8213,
    "sequence": 2854,
    "Ġcottages": 14730,
    "Ġstrangely": 5677,
    "writ": 16555,
    "Ġtwisting": 18659,
    "abby": 14024,
    "word": 2487,
    "thinking": 9017,
    "\\": 64,
    "urable": 8927,
    "Ġbrig": 11049,
    "coal": 12029,
    "new": 1464,
    "Ġsant": 21217,
    "irect": 5553,
    "ented": 4352,
    "Ġlawyers": 25249,
    "Ġbetter": 1175,
    "Ġgener": 592,
    "Ġmedical": 9473,
    "court": 7510,
    "Ġladyship": 5046,
    "keel": 14131,
    "Ġ73": 24263,
    "origin": 7581,
    "glim": 19368,
    "Ġmaking": 1779,
    "Ġrifled": 21980,
    "Ġindic": 2885,
    "seated": 11675,
    "trained": 4241,
    "tempt": 21082,
    "peter": 24300,
    "Ġmadam": 5663,
    "uce": 11538,
    "Ġhomeless": 23390,
    "Ġcivilly": 19606,
    "wickham": 5884,
    "marrying": 19550,
    "breathing": 25336,
    "Ġbecalmed": 18089,
    "Ġsnapped": 9900,
    "omit": 13977,
    "happiness": 6469,
    "separ": 9233,
    "Ġlongest": 18631,
    "ieces": 4773,
    "?--": 15307,
    "outh": 2689,
    "pause": 12505,
    "orus": 10803,
    "Ġmerrily": 23734,
    "rupt": 3207,
    "den": 939,
    "reluct": 26164,
    "Ľ": 254,
    "ortunity": 4407,
    "Ġpair": 5706,
    "became": 10517,
    "kempt": 20943,
    "Ġwoeful": 19622,
    "Ġvalued": 12187,
    "burst": 10540,
    "Ġeligible": 10673,
    "Ġcivilised": 24247,
    "Ġlikelihood": 16503,
    "Ġbrit": 6290,
    "take": 4578,
    "Ġoutside": 5554,
    "has": 4015,
    "onet": 12550,
    "Ġfast": 1715,
    "Ġsavoury": 23879,
    "Ġswiss": 18882,
    "Ġdelirium": 10407,
    "viating": 14581,
    "sleeve": 26109,
    "Ġsevere": 6032,
    "Ġentranced": 25835,
    "T": 56,
    "Ġenlist": 21940,
    "onings": 21255,
    "Ġverse": 16604,
    "Ġunprovided": 18258,
    "phant": 6288,
    "Ġcomrades": 9236,
    "Ġlexicon": 25975,
    "Ġallowing": 2174,
    "Ġspans": 18305,
    "ette": 15663,
    "same": 5362,
    "Ġstre": 2106,
    "hom": 12478,
    "Ġslipper": 24268,
    "Ġwhirling": 12253,
    "Ġod": 4442,
    "Ġlabour": 7273,
    "Ġfoundation": 4234,
    "Ġmaxim": 3081,
    "Ġhardened": 14453,
    "Ġmonsieur": 12425,
    "Ġprovince": 24192,
    "ul": 371,
    "Ġgodfrey": 15297,
    "Ġdeck": 2138,
    "talk": 6658,
    "exceedingly": 9569,
    "nuee": 17433,
    "kered": 18275,
    "Ġafrican": 20140,
    "Ġdeline": 16336,
    "Ġencompassed": 15257,
    "Ġbringing": 5870,
    "Ġprediction": 2192,
    "Ġbowing": 10477,
    "esteem": 26009,
    "quin": 21857,
    "Ġfleetness": 20182,
    "Ġdavis": 25953,
    "Ġwhichever": 14003,
    "cheerfulness": 20183,
    "iel": 11496,
    "Ġarranging": 11176,
    "Ġmemo": 18119,
    "Ġsuspect": 5758,
    "gast": 20873,
    "pretending": 17042,
    "lover": 18538,
    "Ġunwarrantable": 26346,
    "hib": 15371,
    "Ġencouraging": 2264,
    "Ġass": 1501,
    "Ġestates": 16462,
    "Ġindia": 10373,
    "Ġcoherent": 3260,
    "metallic": 19882,
    "Ġreliably": 22881,
    "Ġburton": 23657,
    "Ġexhaled": 19685,
    "iliating": 12700,
    "Ġfitness": 24003,
    "Ġaffect": 1384,
    "Ġentit": 22744,
    "Ġindignant": 12244,
    "Ġitself": 2521,
    "retch": 4375,
    "pidation": 18887,
    "Ġequivalent": 4803,
    "Ġbun": 6007,
    "Ġincludes": 2010,
    "Ġblown": 12090,
    "finish": 24384,
    "Ġostent": 13588,
    "Ġwhy": 1759,
    "acetty": 24464,
    "Ġwings": 9166,
    "declined": 25175,
    "Ġboy": 3019,
    "Ġsnap": 11202,
    "Ġpoet": 8208,
    "Ġauthoritative": 19564,
    "Ġyoun": 1409,
    "Ġslang": 23162,
    "Ġfreshet": 25704,
    "Ġlandau": 16423,
    "Ġsunk": 5752,
    "Ġtwain": 16123,
    "Ġwounded": 8661,
    "ouched": 4638,
    "Ġcollege": 11426,
    "laws": 19810,
    "Ġtroop": 24898,
    "Ġstirred": 12222,
    "Ġnegatived": 23051,
    "idays": 21774,
    "income": 15489,
    "Ġrich": 2989,
    "Ġfreed": 7266,
    "Ġstaple": 26200,
    "Ġoriginally": 7303,
    "indirect": 22376,
    "Ġcaved": 21356,
    "Ġweariness": 19797,
    "bred": 11471,
    "Ġhearty": 9848,
    "Ġtrance": 12846,
    "Ġshoal": 12020,
    "Ġconsolation": 6209,
    "Ġprecise": 7076,
    "atered": 22076,
    "speed": 19412,
    "Ġbowled": 23771,
    "iltrated": 19308,
    "Ġwal": 6517,
    "Ġsummer": 4791,
    "Ġpeeping": 16131,
    "aintance": 3570,
    "Ġkindest": 23295,
    "h": 76,
    "finally": 9502,
    "osc": 18388,
    "Ġprofited": 19194,
    "os": 523,
    "excitement": 19672,
    "Ġgorgeous": 20470,
    "Ġwalled": 15538,
    "Ġagonizing": 17241,
    "Ġancho": 15607,
    "Ġcapable": 5054,
    "inities": 21188,
    "Ġkink": 22197,
    "Ġbeau": 9227,
    "Ġfog": 9664,
    "Ġembodied": 25848,
    "Ġexercised": 24800,
    "Ġtutored": 20131,
    "Ġsubmission": 22793,
    "Ġdominic": 25381,
    "Ġrested": 9382,
    "Ġbalmoral": 16210,
    "Ġstrengthen": 20703,
    "q": 85,
    "Ġpredict": 682,
    "Ġunprejudiced": 18267,
    "ceased": 21629,
    "Ġmethod": 1494,
    "dish": 12457,
    "Ġthundering": 24293,
    "Ġnotes": 7188,
    "Ġpod": 15608,
    "Ġroutine": 13511,
    "carp": 9113,
    "rades": 8592,
    "concluded": 11245,
    "ental": 7168,
    "Ġpretence": 13211,
    "quickly": 14965,
    "Ġregent": 18598,
    "Ġdaft": 19666,
    "Ġfrancisco": 26065,
    "Ġfa": 4821,
    "ik": 17573,
    "Ġwarbling": 26169,
    "Ġmaintained": 12939,
    "abriel": 6949,
    "maj": 18803,
    "Ġalb": 14019,
    "Ġblacksmith": 6596,
    "Ġmicrosc": 20679,
    "Ġsnuff": 7992,
    "pendicular": 6499,
    "Ġbasin": 19850,
    "Ġfloundered": 18863,
    "Ġimport": 981,
    "Ġvary": 15811,
    "Ġaccompanied": 6780,
    "brushing": 20790,
    "Ġhopelessly": 16379,
    "shape": 10983,
    "s": 87,
    "Û": 156,
    "Ġcolder": 22860,
    "alcul": 15632,
    "Ġdominion": 16518,
    "Ġexercise": 8359,
    "Ġlearning": 387,
    "latitude": 25260,
    "Ġselfishness": 12293,
    "Ġcrushed": 9426,
    "oe": 7551,
    "Ġdilated": 24703,
    "Ġtars": 21167,
    "inf": 6233,
    "Ġsadness": 13291,
    "assistance": 20374,
    "Ġinflexibly": 26372,
    "Ġconcealing": 23905,
    "een": 726,
    "Ġimpartial": 15223,
    "Ġsidel": 9638,
    "let": 2733,
    "mutually": 26137,
    "Ġbetray": 7441,
    "Ġscand": 7202,
    "Ġconst": 1911,
    "alloyed": 22205,
    "Ġpale": 4534,
    "Ġmoodily": 19837,
    "judging": 24204,
    "abilities": 3232,
    "Ġisles": 8461,
    "ample": 1362,
    "Ġpaste": 23422,
    "terbury": 21828,
    "dor": 12456,
    "Ġfrosty": 14938,
    "ace": 719,
    "Ġpredicted": 2043,
    "Ġsemantic": 1959,
    "ids": 21767,
    "Ġmail": 17802,
    "she": 1395,
    "Ġreciprocating": 26371,
    "Ġswallow": 8953,
    "Ġcreaking": 14331,
    "Ġwrinkles": 8573,
    "I": 45,
    "Ġmagnificence": 20635,
    "despicable": 24638,
    "Ġlye": 21554,
    "vag": 8768,
    "Ġinsects": 25647,
    "sof": 17659,
    "audible": 17135,
    "<EOS>": 2,
    "Ġnlp": 3058,
    "anybody": 12087,
    "Ġcautious": 12258,
    "Ġperman": 10966,
    "Ġconcil": 23323,
    "twas": 15440,
    "smiled": 16616,
    "Ġoverdone": 22364,
    "impression": 15715,
    "boots": 11128,
    "mell": 20966,
    "Ġsped": 22129,
    "Ġas": 374,
    "Ġslopes": 18943,
    "Ġstatistical": 11106,
    "Ġmorality": 22981,
    "Ġdrooping": 9423,
    "contrivance": 26317,
    "Ġproflig": 23569,
    "Ġprovincial": 20652,
    "luent": 16000,
    "dread": 8732,
    "batim": 25019,
    "grace": 5847,
    "Ġbrain": 2087,
    "Ġtolerable": 6948,
    "Ġoak": 6129,
    "brown": 15321,
    "Ġaven": 10761,
    "Ġdelight": 2547,
    "Ġfoe": 7679,
    "follow": 5680,
    "Ġdressing": 7091,
    "Ġissues": 9545,
    "Ġrelig": 8552,
    "lections": 4753,
    "Ġmajesty": 5201,
    "Ġgossip": 18470,
    "actually": 14298,
    "industrious": 26241,
    "detained": 24382,
    "Ġjest": 18404,
    "Ġinex": 6528,
    "sych": 9890,
    "Ġruss": 18720,
    "relu": 17761,
    "worn": 13809,
    "Ġmounting": 19980,
    "Ġforeshad": 23454,
    "Ġwestward": 24389,
    "impotence": 23763,
    "pyramid": 21032,
    "Ġdeficiency": 14406,
    "Ġvisibly": 22858,
    "Ġur": 5540,
    "wild": 8771,
    "Ġaccusations": 22393,
    "ping": 9618,
    "Ġdeposited": 25485,
    "Ġexplaining": 15964,
    "Ġorph": 9720,
    "ox": 9136,
    "Ġhey": 11644,
    "Ġwounds": 17792,
    "Ġunheeded": 18259,
    "birth": 15325,
    "Ġdeactivates": 20706,
    "Ġcommencement": 12243,
    "Ġmyster": 5926,
    "Ġweighing": 20019,
    "Ġwarmer": 19188,
    "Ġknob": 24407,
    "Ġstoried": 18075,
    "Ġapp": 497,
    "Ġgasp": 7172,
    "Ġunimpeachable": 26524,
    "pipe": 8700,
    "Ġoffence": 12949,
    "pumps": 21029,
    "dorff": 15241,
    "Ġcalmed": 16272,
    "Ġcrystal": 17217,
    "Ġfrost": 6096,
    "rocket": 13947,
    "Ġvirginia": 13503,
    "Ġvehemence": 26568,
    "attentive": 17192,
    "Ġdecapitated": 20619,
    "Ġunra": 18235,
    "ateful": 5927,
    "anean": 7442,
    "Ġrattled": 15070,
    "Ġstrides": 22621,
    "dial": 20827,
    "opatra": 22481,
    "Ġdetail": 635,
    "Ġcommissioned": 19897,
    "osa": 22263,
    "Ġelixir": 26557,
    "Ġand": 295,
    "culiarity": 11144,
    "Ġmovable": 22439,
    "Ġencourage": 10383,
    "Ġgravity": 9251,
    "Ġrug": 16161,
    "Ġunceasing": 20361,
    "heaving": 21210,
    "Ġrevolving": 9986,
    "Ġseeking": 7036,
    "Ġcomparatively": 9493,
    "Ġberm": 21386,
    "cle": 3958,
    "Ġpunishment": 9959,
    "itary": 4752,
    "denial": 18718,
    "mense": 4781,
    "wers": 12524,
    "Ġblan": 18818,
    "imens": 1747,
    "getic": 12971,
    "Ġelopement": 10332,
    "Ġinclud": 1509,
    "memory": 13621,
    "Ġsharp": 2415,
    "Ġmaster": 3680,
    "Ġwaking": 11573,
    "der": 468,
    "Ġtradesmen": 17106,
    "Ġgibe": 25960,
    "Ġinstrum": 6055,
    "Ġlobes": 22119,
    "Ġtreble": 16506,
    "fold": 7545,
    "Ġregretted": 13404,
    "Ġbequest": 21757,
    "Ġwin": 9644,
    "Ġthinnest": 24186,
    "Ġfired": 16158,
    "Ġpumps": 8428,
    "Ġgallied": 19559,
    "Ġsailed": 4890,
    "Ġlink": 8130,
    "Ġcombined": 8549,
    "99": 1897,
    "otograph": 5827,
    "Ġtrifle": 10604,
    "Ġcondesc": 7181,
    "Ġtested": 23224,
    "henomen": 10497,
    "dog": 10696,
    "Ġexploding": 2108,
    "Ġhad": 443,
    "reed": 6373,
    "decor": 23782,
    "Ġobtru": 18673,
    "Ġbet": 1136,
    "Ġretribution": 16285,
    "idered": 4555,
    "Ġgaieties": 24198,
    "Ġcatching": 9481,
    "fury": 17549,
    "Ġnet": 3626,
    "Ġchoicest": 24223,
    "ial": 412,
    "tranqu": 14709,
    "Ġmeryton": 4441,
    "Ġcetace": 14991,
    "Ġtransf": 22441,
    "Ġsociety": 3980,
    "swiftly": 20554,
    "salis": 25150,
    "Ġforg": 3788,
    "surgeon": 24217,
    "Ġlaunched": 14929,
    "wander": 17711,
    "istical": 8491,
    "putation": 7624,
    "Ġchancing": 22252,
    "Ġabating": 22271,
    "âĢĻ": 378,
    "Ġjustine": 4970,
    "Ġfurnished": 6475,
    "Ġcomplain": 6686,
    "Ġsufferable": 16263,
    "Ġstruggle": 3674,
    "Ġmemoirs": 26206,
    "idol": 21770,
    "hus": 5072,
    "attered": 4020,
    "Ġtear": 6724,
    "Ġmovements": 24359,
    "anish": 2617,
    "Ġspray": 7894,
    "Ġsuffice": 18871,
    "Ġspare": 5102,
    "omical": 9683,
    "Ġputs": 19030,
    "Ġcrowds": 14742,
    "Ġperseus": 10606,
    "reflections": 24734,
    "Ġultimately": 17167,
    "Ġthunder": 4825,
    "instantly": 7505,
    "Ġphrenolog": 12338,
    "Ġlead": 3524,
    "Ġgradu": 15836,
    "Ġassisting": 13261,
    "Ġconfederate": 17356,
    "history": 15017,
    "turkish": 24533,
    "Ġportent": 12086,
    "Ġgentleness": 8713,
    "ineer": 11706,
    "securing": 19816,
    "Ġdestroyer": 13417,
    "Ġbigot": 24566,
    "Ġrobots": 11084,
    "Ġawkward": 7074,
    "remembered": 17354,
    "remorse": 14470,
    "Ġsucked": 14139,
    "Ġve": 1107,
    "whales": 5187,
    "Ġinvolves": 1104,
    "bloom": 24690,
    "whalers": 17266,
    "ple": 455,
    "Ġregularization": 1185,
    "Ġrep": 1938,
    "Ġwonderful": 4565,
    "ners": 3269,
    "Ġroofs": 16987,
    "even": 3838,
    "Ġsupported": 9821,
    "ciousness": 20819,
    "rant": 11519,
    "alot": 15630,
    "rigging": 20009,
    "Ġdrawing": 3920,
    "changing": 10856,
    "Ġann": 4492,
    "Ġpermitted": 9281,
    "Ġshave": 22000,
    "Ġgin": 13964,
    "Ġfemales": 14940,
    "Ġharvard": 24574,
    "Ġserm": 9636,
    "Ġquiescent": 26244,
    "together": 3557,
    "Ġimpropriety": 17398,
    "conviction": 19968,
    "orses": 6052,
    "shutters": 20314,
    "Ġbuoy": 8004,
    "Ġstirs": 14920,
    "Ġcaves": 15558,
    "thread": 15830,
    "Ġcharged": 9857,
    "Ġobli": 9319,
    "Ġfactor": 19013,
    "Ġarbitrary": 4737,
    "Ġtr": 554,
    "talking": 10010,
    "banish": 20784,
    "tarpaul": 21100,
    "Ġmilitary": 11260,
    "Ġexhilarating": 26339,
    "wor": 3416,
    "ards": 2503,
    "Ġcultivated": 17367,
    "Ġthough": 993,
    "Ġfrolic": 23928,
    "Ġhousings": 21496,
    "purposes": 25024,
    "Ġpace": 9186,
    "Ġshreds": 12775,
    "Ġchoked": 9267,
    "scorn": 22994,
    "pat": 10119,
    "Ġunfelt": 24113,
    "splice": 17173,
    "Ġimpetus": 25570,
    "Ġdav": 15594,
    "Ġbowl": 11205,
    "twelve": 14624,
    "Ġringbolts": 24199,
    "Ġgun": 4703,
    "Ġstead": 5650,
    "lantern": 17431,
    "Ġacquaintance": 4134,
    "Ġconvert": 11850,
    "unts": 12736,
    "Ġrecept": 1521,
    "ves": 696,
    "Ġsatin": 12993,
    "Ġcanvassed": 19938,
    "lic": 17589,
    "Ġquoin": 22422,
    "etieth": 21587,
    "contemplated": 20461,
    "fisher": 7546,
    "cripp": 20821,
    "Ġsagaciously": 24730,
    "Ġhopeful": 19029,
    "Ġbawling": 25946,
    "nament": 11509,
    "Ġconfusion": 7272,
    "Ġsinister": 8571,
    "Ġabruptly": 15154,
    "mindful": 19602,
    "Ġclergy": 7642,
    "Ġintention": 5638,
    "doublo": 24661,
    "Ġtusk": 25426,
    "hurriedly": 25511,
    "Ġdynamically": 4099,
    "Ġit": 339,
    "lydon": 13992,
    "Ġconcentration": 25065,
    "msgate": 18413,
    "Ġ1828": 25720,
    "Ġdozing": 22247,
    "Ġtranslation": 3083,
    "throne": 25658,
    "Ġbounding": 19403,
    "Ġwards": 17791,
    "Ġsimply": 7217,
    "vest": 6231,
    "Ġamber": 7027,
    "Ġdescribe": 2765,
    "experienced": 15125,
    "Ġlowerings": 23648,
    "Ġfeeble": 12288,
    "rably": 21636,
    "luding": 6701,
    "Ġfinds": 6300,
    "Ġoppose": 16522,
    "Ġaims": 15499,
    "Ġtrusting": 24108,
    "ifferent": 4264,
    "Ġdescended": 7427,
    "oured": 2672,
    "Ġwhere": 785,
    "Ġfidget": 15193,
    "Ġtracing": 18892,
    "Ġrepaired": 13112,
    "painted": 17641,
    "Ġremoved": 5275,
    "))": 1514,
    "Ġcourt": 4171,
    "impropriety": 21716,
    "Ġappo": 8500,
    "Ġelse": 2480,
    "Ġbucket": 8792,
    "Ġrejoicing": 13425,
    "Ġsuffoc": 18872,
    "as": 302,
    "Ġplease": 4724,
    "iminished": 19022,
    "semble": 1522,
    "Ġinherent": 4593,
    "Ġadversarial": 5607,
    "Ġbrass": 11050,
    "Ġadvertisement": 6940,
    "aux": 14292,
    "Ġroused": 7622,
    "Ġimputable": 22170,
    "usal": 7638,
    "bod": 12441,
    "Ġwilfully": 16768,
    "Ġchis": 11754,
    "Ġbags": 24537,
    "Ġsphy": 18312,
    "Ġgnashed": 20136,
    "nd": 11506,
    "plenty": 14094,
    "Ġirrad": 19095,
    "Ġaglow": 22518,
    "tarpaulins": 26407,
    "succeeded": 15179,
    "strained": 21661,
    "Ġcoolness": 16888,
    "Ġtheory": 5799,
    "amet": 584,
    "Ġalpine": 18108,
    "deaux": 22152,
    "rec": 6004,
    "withdrawn": 23031,
    "Ġkrusen": 20716,
    "Ġfrench": 4939,
    "Ġover": 555,
    "Ġporus": 24398,
    "ieged": 22581,
    "Ġleaving": 3907,
    "Ġcommunicating": 16891,
    "homage": 25617,
    "Ġcruise": 12053,
    "arch": 1125,
    "Ġdoctor": 5067,
    "Ġplay": 2626,
    "precision": 4334,
    "§": 105,
    "Ġthirteen": 15278,
    "O": 51,
    "poke": 18800,
    "Ġtheoretically": 3567,
    "custom": 15336,
    "Ġfiftieth": 24702,
    "histor": 13495,
    "Ġmot": 2981,
    "Ġ123": 24468,
    "Ġconsulting": 13433,
    "Ġsoftware": 18920,
    "Ġtandem": 26413,
    "Ġblackest": 19100,
    "Ġjerked": 19835,
    "ires": 6038,
    "waste": 21137,
    "Ġpersuasion": 10501,
    "rubber": 12814,
    "Ġamiss": 18512,
    "Ġbubb": 12589,
    "Ġac": 845,
    "Ġquohog": 10974,
    "Ġplaid": 22603,
    "Ġthroughout": 8880,
    "count": 4215,
    "Ġflor": 8564,
    "secured": 16940,
    "«": 109,
    "image": 9689,
    "Ġfundament": 2925,
    "Ġpleasurable": 23343,
    "anthrop": 17385,
    "Ġanointing": 25540,
    "ordinate": 12880,
    "Ġwedded": 15539,
    "Ġchal": 18379,
    "ifying": 5252,
    "Ġdif": 871,
    "Ġbetake": 22909,
    "american": 11402,
    "interested": 9509,
    "aly": 1074,
    "Ġnobleman": 19395,
    "Ġding": 12604,
    "inridge": 11563,
    "ley": 1814,
    "Ġdimens": 3146,
    "Ġwere": 557,
    "Ġobser": 2069,
    "Ġvari": 832,
    "Ġpacing": 8427,
    "Ġinert": 15626,
    "influ": 9544,
    "Ġ\"": 6120,
    "Ġswearing": 16467,
    "Ġbenefit": 8294,
    "blind": 16704,
    "rust": 2580,
    "Ġinc": 702,
    "troubled": 17113,
    "Ġregulate": 22590,
    "iling": 3089,
    "Ġnind": 17952,
    "Ġplaced": 3444,
    "assisted": 22311,
    "Ġhinges": 15216,
    "anted": 5027,
    "chronicle": 26482,
    "spout": 7922,
    "gris": 8260,
    "Ġcontrad": 9758,
    "Ġintimacy": 8704,
    "jammed": 25907,
    "asburgh": 15651,
    "Ġprehens": 22235,
    "Ġkin": 15908,
    "Ġrun": 2355,
    "pillar": 5619,
    "Ġocc": 887,
    "lied": 6507,
    "clifford": 23158,
    "dried": 20829,
    "Ġresolving": 9422,
    "bitts": 26123,
    "Ġstamped": 13530,
    "mag": 6508,
    "Ĳ": 243,
    "avoid": 9308,
    "Ġfanc": 6744,
    "oman": 2016,
    "castle": 3347,
    "Ġpraised": 19556,
    ">": 34,
    "hours": 9127,
    "Ġcondemned": 7778,
    "Ġchannel": 26013,
    "travellers": 24339,
    "Ġbrigandish": 25488,
    "allies": 14168,
    "Ġsky": 3972,
    "Ħ": 231,
    "Ġhousemaid": 14467,
    "Ġmasters": 11578,
    "Ġunsafe": 22041,
    "pencil": 18829,
    "Ġindolence": 16232,
    "Ġbanish": 15574,
    "Ġalmost": 1655,
    "Ġreasoner": 14444,
    "Ġsaturn": 22905,
    "Ġsum": 2701,
    "Ġentail": 9795,
    "standers": 18479,
    "Ġglaciers": 20176,
    "Ġsain": 17752,
    "Ġpretension": 23766,
    "Ġmuskets": 17057,
    "Ġswinging": 7448,
    "Ġautom": 3693,
    "imately": 12693,
    "magnificent": 20277,
    "Ġdedicated": 19228,
    "Ġagon": 10323,
    "Ġginger": 9213,
    "Ġdelayed": 9521,
    "apped": 5395,
    "Ġ**": 4722,
    "shriek": 20523,
    "prot": 6898,
    "queg": 1769,
    "Ġvictory": 16656,
    "Ġowners": 7662,
    "Ġgarn": 13966,
    "objection": 19917,
    "Ġglossy": 15231,
    "Ġresting": 7962,
    "Ġsays": 3562,
    "ounds": 4158,
    "Ġdaughters": 4425,
    "Ġstubborn": 10416,
    "Ġscoresby": 10464,
    "isure": 6241,
    "exciting": 19671,
    "itters": 10783,
    "Ġfoam": 6890,
    "cape": 13701,
    "Ġlack": 17966,
    "Ġrequisition": 22644,
    "Ġbeseeching": 26312,
    "diver": 20833,
    "Ġunnatural": 7189,
    "morland": 24156,
    "roar": 17955,
    "anche": 10790,
    "affected": 10478,
    "holloa": 19467,
    "Ġdespaired": 14671,
    "telescope": 26564,
    "Ġfervently": 25878,
    "Ġdeftly": 26495,
    "Ġilluminating": 25246,
    "fiend": 13665,
    "Ġ90": 24589,
    "Ġapr": 12537,
    "except": 5383,
    "Ġrender": 8305,
    "Ġfountain": 7364,
    "borrowed": 20794,
    "ain": 343,
    "Ġsternly": 16717,
    "Ġconveyed": 8335,
    "Ġresponsiveness": 2896,
    "Ġoutline": 15958,
    "charmed": 21699,
    "Ġspermacetti": 19048,
    "Ġcurrents": 13014,
    "unknown": 10892,
    "Ġabsolut": 3913,
    "Ġconfess": 3767,
    "Ġcombination": 22853,
    "Ġcontext": 1680,
    "erns": 8782,
    "green": 7116,
    "Ġbedford": 7474,
    "drink": 10598,
    "emb": 11693,
    "Ġdangers": 12358,
    "Ġstretch": 6993,
    "Ġeleventh": 23372,
    "ubb": 1646,
    "Ġlur": 5226,
    "opic": 22480,
    "azore": 23464,
    "queen": 12732,
    "Ġgoes": 3854,
    "Ġtorrent": 17093,
    "Ġunfathom": 14792,
    "disputed": 23502,
    "estion": 18363,
    "moil": 22706,
    "copyright": 5278,
    "Ġmund": 21321,
    "Ġsorts": 6886,
    "Ġperemptorily": 17370,
    "Ġbapt": 13899,
    "Ġejaculated": 15173,
    "Ġstars": 6150,
    "Ġjoined": 4566,
    "tackles": 25625,
    "bbings": 19278,
    "Ġreligions": 20111,
    "sweeping": 24619,
    "Ġ122": 24467,
    "parameter": 3050,
    "Ġrenounce": 19471,
    "requirements": 24858,
    "ufactured": 15185,
    "Ġwond": 3942,
    "afflicted": 23780,
    "aguy": 21914,
    "possibility": 13366,
    "Ġshutting": 14762,
    "Ġadded": 2717,
    "Ġepic": 15032,
    "cre": 4252,
    "Ġplug": 17150,
    "acting": 22634,
    "Ġcrushing": 20179,
    "Ġaround": 3611,
    "âĢĶ_": 3196,
    "Ġblasted": 7938,
    "Ġgrampus": 21997,
    "Ġampl": 22484,
    "Ġpostponed": 20393,
    "rev": 17758,
    "rolling": 9063,
    "Ġhaggard": 17333,
    "outer": 9671,
    "Ġexpectantly": 23528,
    "shunned": 22459,
    "Ġparamet": 607,
    "Ġgans": 5822,
    "acters": 9312,
    "istrate": 7405,
    "Ġproportions": 16470,
    "dressing": 11484,
    "Ġattracted": 8908,
    "germ": 15360,
    "lin": 9606,
    "vengeance": 13361,
    "Ġacquainted": 5179,
    "bud": 10686,
    "insufficient": 15492,
    "Ġponderous": 8355,
    "ural": 505,
    "Ġfolk": 10378,
    "atural": 925,
    "irms": 18171,
    "Ġarom": 15495,
    "Ġbales": 21392,
    "Ġsummits": 14685,
    "Ġrejoined": 14930,
    "Ġlesson": 7275,
    "Ġraw": 3318,
    "Ġplunging": 14955,
    "conjecturing": 20137,
    "etical": 13961,
    "etrics": 21588,
    "Ġbricks": 13566,
    "Ġinquest": 16549,
    "collins": 6915,
    "Ġcaught": 3730,
    "Ġ105": 24413,
    "Ġresides": 22544,
    "Ġclos": 4551,
    "staking": 21651,
    "cturn": 17989,
    "Ġsordid": 26424,
    "forced": 11033,
    "culine": 19067,
    "Ġunfeeling": 14121,
    "sum": 2086,
    "100": 11466,
    "Ġsubproblems": 12962,
    "firmly": 20283,
    "Ġretreating": 19802,
    "Ġherring": 14129,
    "Ġwickham": 2206,
    "Ġsolved": 8934,
    "Ġdesirable": 8944,
    "shabb": 18489,
    "Ġelastic": 4365,
    "Ġcastaway": 16643,
    "Ġpagoda": 19791,
    "Ġsoles": 22080,
    "Ġmoods": 14954,
    "Ġmoot": 22436,
    "Ġsucc": 12791,
    "Ġabreast": 18395,
    "Ġdemoniacal": 20559,
    "similar": 13457,
    "Ġshipwrecked": 25688,
    "liberal": 26283,
    "Ġsharpen": 13573,
    "congreg": 25399,
    "Ġscra": 5841,
    "Ġgot": 2281,
    "lantic": 6364,
    "Ġveil": 7934,
    "tr": 3580,
    "Ġstyled": 24672,
    "Ġclassification": 1094,
    "ased": 1266,
    "idled": 21772,
    "Ġmix": 7576,
    "Ġsleepers": 13153,
    "Ġaw": 2508,
    "Ġfriendly": 9823,
    "turning": 8317,
    "conquerable": 17402,
    "apering": 8041,
    "Ġring": 4455,
    "ķ": 248,
    "Ġvolition": 14801,
    "Ġundisturbed": 19522,
    "edy": 2858,
    "Ġstrewed": 23425,
    "Ġcommis": 22674,
    "umbled": 8494,
    "Ġeaster": 15679,
    "Ġinexpressible": 17336,
    "ĠĠĠĠĠĠĠĠĠĠĠĠĠĠĠĠĠĠĠĠĠĠĠĠĠĠĠĠĠĠĠĠĠĠĠĠĠĠĠĠĠĠĠĠĠĠĠĠ": 7989,
    "Ġflashed": 11917,
    "anded": 5923,
    "Ġburns": 16525,
    "Ġhides": 16269,
    "antucket": 2644,
    "Ġdeserts": 10510,
    "period": 15906,
    "Ġdur": 11595,
    "isition": 11589,
    "Ġcharnel": 22256,
    "Ġbad": 3989,
    "Ġatonement": 21946,
    "Ġanaly": 1111,
    "Ġappropriated": 23486,
    "ood": 960,
    "Ġrav": 14308,
    "plifted": 9714,
    "Ġyarn": 10870,
    "nered": 18495,
    "waters": 11335,
    "Ġrouse": 15825,
    "plate": 18208,
    "Ġdispersed": 16599,
    "bethink": 25745,
    "(-": 2976,
    "Ġexceptional": 19374,
    "anqu": 4111,
    "sequently": 14585,
    "situ": 9624,
    "Ġfidelity": 15245,
    "fights": 20867,
    "religion": 20578,
    "Ġarchy": 14349,
    "astonished": 15035,
    "Ġtapering": 8775,
    "Ġrocky": 13391,
    "Ġdisk": 22526,
    "sorrow": 12513,
    "Ġdecipher": 22464,
    "thou": 4710,
    "anous": 21362,
    "Ġpaid": 5015,
    "rain": 459,
    "Ġantagonist": 26330,
    "Ġdair": 17891,
    "Ġgnawed": 25168,
    "imental": 16536,
    "Ġoccupies": 24011,
    "Ġcamberwell": 25351,
    "Ġwife": 2587,
    "Ġfishe": 15590,
    "Ġsequences": 1751,
    "Ġguidance": 9420,
    "makes": 10713,
    "Ġcollectively": 19971,
    "Ġabsurd": 7201,
    "Ġdeliverer": 11954,
    "Ġpartial": 2127,
    "ren": 550,
    "Ġentic": 16149,
    "fun": 3750,
    "Ġsufferer": 16264,
    "Ġhansom": 13668,
    "Ġfinger": 5274,
    "Ġquietude": 19363,
    "urer": 18124,
    "Ġeven": 1026,
    "Ġcaravan": 26292,
    "ė": 216,
    "Ġturkish": 12266,
    "Ġeastern": 11632,
    "Ġpear": 11856,
    "tures": 21072,
    "complained": 25840,
    "sively": 13789,
    "rowing": 7931,
    "Ġregularity": 22788,
    "Ġcorrespondence": 10597,
    "Ġphyset": 23203,
    "Ġattempts": 10493,
    "ingle": 1036,
    "Ġunerringly": 18263,
    "Ġunjustly": 17129,
    "Ġthrill": 24541,
    "Ġfeeling": 3080,
    "Ġreception": 9842,
    "introduction": 15127,
    "ceptible": 10957,
    "tro": 15436,
    "Ġanonymous": 26179,
    "'re": 12432,
    "Ġtranquill": 6632,
    "Ġabound": 8867,
    "indispensable": 14212,
    "iably": 13741,
    "Ġverdict": 13479,
    "asted": 4651,
    "Ġunh": 9256,
    "welt": 12525,
    "Ġgu": 1328,
    "Ġunwearied": 20605,
    "Ġjeopard": 9946,
    "Ġmajority": 13297,
    "pile": 17631,
    "pass": 4293,
    "Ġvir": 7001,
    "pling": 8476,
    "ositories": 22267,
    "fowl": 17551,
    "ute": 4644,
    "Ġable": 3077,
    "Ġegot": 18010,
    "are": 638,
    "Ġindulgence": 11321,
    "Ġactor": 16053,
    "Ġblubber": 5666,
    "Ġmethinks": 10395,
    "Ġpremeditated": 22238,
    "Ġsuccession": 12106,
    "Ġthirst": 7589,
    "Ġgeorgia": 23888,
    "Ġimagenet": 19248,
    "Ġmine": 3175,
    "angles": 18291,
    "Ġsupposing": 6730,
    "avering": 24792,
    "Ġgrip": 11630,
    "Ġhunsford": 6302,
    "rebellum": 26166,
    "Ġflung": 8565,
    "Ġwidth": 16774,
    "Ġtinkling": 25213,
    "Ġgrandfather": 19425,
    "Ġdre": 1744,
    "Ġiroquois": 26472,
    "Ġarise": 7896,
    "nest": 10116,
    "Ġbenignity": 18784,
    "Ġpreferment": 19855,
    "Ġcarpets": 18904,
    "threw": 21988,
    "Ġsynd": 22210,
    "Ġvortex": 26210,
    "bond": 17492,
    "Ġsub": 950,
    "inkling": 16094,
    "zing": 7820,
    "Ġwindow": 2993,
    "iver": 2047,
    "Ġintermix": 25827,
    "Ġdaintiest": 25954,
    "Ġmo": 629,
    "respond": 12549,
    "vig": 15449,
    "olets": 21010,
    "Ġdatasets": 2391,
    "Ġendeavour": 4679,
    "suggest": 20379,
    "Ġsed": 10763,
    "Ġplaited": 14286,
    "blast": 9590,
    "why": 2827,
    "Ġimprovements": 14510,
    "Ġadviser": 25313,
    "Ġsurprising": 14599,
    "Ġplainpal": 19279,
    "jub": 20931,
    "oam": 8755,
    "Ì": 141,
    "ked": 5616,
    "Ġwhimsical": 20431,
    "Ġmortifying": 13249,
    "mess": 13756,
    "Ġrequesting": 24633,
    "Ġbrushed": 15575,
    "acter": 2505,
    "Ġnovelties": 24777,
    "Ġugliness": 20430,
    "Ġantics": 24181,
    "Ġeurope": 8062,
    "Ġoutputs": 2884,
    "erde": 21271,
    "Ġdiver": 2529,
    "appin": 18759,
    "Ġawa": 7713,
    "Ġjeer": 24126,
    "Ġlike": 668,
    "Ġpauses": 14818,
    "Ġsunwards": 19012,
    "bodily": 17318,
    "Ġsly": 9635,
    "Ġfled": 6672,
    "Ġfict": 21408,
    "lying": 7174,
    "Ġheaving": 7600,
    "Ġunequal": 14845,
    "plumed": 21965,
    "Ġresembling": 4098,
    "Ġprehensile": 26536,
    "Ġcasked": 24497,
    "Ġominous": 12428,
    "ists": 4002,
    "Ġhonestly": 19975,
    "Ġamb": 9295,
    "hing": 980,
    "Ġard": 5164,
    "Ġmodeling": 2094,
    "Ġmay": 924,
    "Ġscandinavian": 26347,
    "remarked": 12292,
    "Ġsmallest": 6430,
    "anging": 3552,
    "Ġwindpipe": 23108,
    "Ġwreak": 16819,
    "Ġnerve": 16343,
    "reward": 15512,
    "disaster": 23495,
    "olen": 9703,
    "Ġmodesty": 12822,
    "Ġunrival": 22047,
    "Ġimmemorially": 25384,
    "Ġescape": 2647,
    "Ġattempting": 14699,
    "ription": 5676,
    "Ġshouts": 19540,
    "Ġcorroborated": 26055,
    "finer": 17548,
    "Ġtower": 8319,
    "situation": 11439,
    "dri": 5888,
    "Ġtrad": 9831,
    "Ġusages": 15920,
    "Ġvineyards": 25109,
    "gins": 12473,
    "Ġbrightness": 16578,
    "Ġpork": 21460,
    "sides": 12512,
    "nett": 16225,
    "solving": 3095,
    "distrustful": 26332,
    "Ġhomage": 12359,
    "Ġcher": 6130,
    "Ġslew": 23386,
    "appropri": 22844,
    "octial": 20008,
    "ilib": 4118,
    "Ġinvested": 7278,
    "iscient": 17853,
    "Ġtrowsers": 9630,
    "last": 3803,
    "isher": 2876,
    "Ġstrangled": 24136,
    "Ġoct": 10161,
    "than": 4089,
    "Ġquestionable": 19268,
    "Ġclosed": 4606,
    "ellect": 7380,
    "Ġ40": 14772,
    "Ġexe": 3996,
    "Ġarrang": 2469,
    "Ġdrinking": 12173,
    "flask": 12104,
    "Ġembellished": 25850,
    "Ġafrica": 12349,
    "Ġcreating": 2992,
    "univers": 15776,
    "iod": 3840,
    "otes": 15748,
    "Ġcrew": 2495,
    "herself": 4891,
    "Ġpossible": 2584,
    "Ġshaved": 22006,
    "Ġburtons": 19255,
    "Ġtune": 17727,
    "mountains": 15184,
    "Ġstands": 5259,
    "Ġ&": 6513,
    "Ġroarings": 25303,
    "Ġpiqu": 21480,
    "sin": 21051,
    "Ġspacious": 18313,
    "Ġed": 2242,
    "Ġremoval": 12122,
    "Ġsple": 21218,
    "Ġtreading": 16507,
    "Ġinnoc": 3795,
    "Ġbluff": 16520,
    "Ġstone": 4647,
    "Ġrural": 21971,
    "avern": 24791,
    "hies": 17562,
    "Ġtrace": 6182,
    "Ġafar": 14295,
    "ineas": 15826,
    "Ġporch": 19683,
    "tre": 8764,
    "brothers": 17026,
    "Ġempire": 11147,
    "Ġprize": 11952,
    "Ġphrenologically": 20397,
    "urg": 8142,
    "Ġmonth": 2847,
    "Ġdecidedly": 9512,
    "Ġhuggins": 24826,
    "quished": 21858,
    "Ġpaying": 9941,
    "cating": 20804,
    "atively": 2697,
    "ions": 449,
    "ivance": 22085,
    "Ġdirectly": 2103,
    "putable": 10903,
    "Ġ182": 13241,
    "Ġbridegroom": 10607,
    "evil": 11488,
    "convenient": 12242,
    "anite": 17839,
    "Ġextravagant": 17281,
    "Ġwitness": 4623,
    "Ġmoran": 9345,
    "idious": 11665,
    "Ġcosmopol": 16455,
    "Ġoutwardly": 25001,
    "Ġdisdained": 15012,
    "Ġlake": 5227,
    "Ġslept": 8259,
    "examined": 17269,
    "Ġmetaphysical": 26068,
    "Ġclaim": 5106,
    "Ġoverjoyed": 17461,
    "Ġyork": 11668,
    "Ġhospitality": 13516,
    "Ġbackward": 7654,
    "itates": 13872,
    "transform": 8050,
    "inexplicable": 25810,
    "Ġencountering": 11271,
    "resting": 23236,
    "browed": 25895,
    "Ġgrowing": 6751,
    "Ġmayhew": 12954,
    "Ġhessian": 3549,
    "encoun": 12302,
    "ensing": 12901,
    "Ġwouldn": 6046,
    "Ġolive": 12570,
    "ksome": 10107,
    "Ġdejected": 20307,
    "fits": 13721,
    "crossed": 16635,
    "apothe": 22338,
    "Ġaccuracy": 1098,
    "Ġdesolated": 24809,
    "iline": 21724,
    "Ġseeth": 21957,
    "consciously": 19628,
    "Ġmerciless": 25247,
    "Ġgroping": 13669,
    "adam": 15734,
    "hurst": 19881,
    "soldiers": 25912,
    "card": 11477,
    "salesman": 20674,
    "Ġpictures": 5503,
    "Ġtam": 7821,
    "Ġcomfort": 3439,
    "Ġrepugnance": 19088,
    "fever": 22505,
    "Ġvillanous": 24058,
    "Ġappro": 662,
    "Ġcampaign": 20663,
    "Ġrat": 4357,
    "Ġrhone": 25231,
    "pad": 13771,
    "Ġflourished": 15129,
    "uous": 4146,
    "Ġdiffused": 12073,
    "Ġhoarsely": 26303,
    "Ġprovinc": 16744,
    "inde": 17733,
    "Ġrag": 18639,
    "Ġlegitimate": 20644,
    "Ġimparted": 15991,
    "schoolmaster": 15165,
    "ract": 1022,
    "magnetic": 20555,
    "inquiries": 13581,
    "Ġcontinu": 1167,
    "Ġcandle": 8292,
    "Ġprofounder": 23571,
    "Ġsized": 11565,
    "Ġrespectable": 6737,
    "Ġexploit": 19164,
    "Ġvis": 1053,
    "Ġmultimodal": 18749,
    "jure": 20926,
    "Ġtalent": 12301,
    "Ġrecesses": 17263,
    "customary": 25896,
    "Ġmalignity": 10559,
    "Ġintroduction": 8973,
    "Ġlaborers": 19058,
    "worth": 8630,
    "Ġragged": 11848,
    "Ġvast": 3294,
    "Ġdiscussion": 17197,
    "Ġfloating": 6605,
    "Ġmediocrity": 26610,
    "Ġtried": 3647,
    "Ġstrength": 4261,
    "Ġcursed": 6727,
    "Ġdented": 17893,
    "umber": 5240,
    "onent": 21251,
    "Ġlimbs": 5966,
    "Ġpatroness": 13513,
    "Ġsagacious": 14974,
    "leaned": 21372,
    "Ġcoals": 16077,
    "Ġgips": 10843,
    "Ġunfortunately": 10910,
    "Ġdecision": 2676,
    "Ġnatural": 1109,
    "Ġwithdrawing": 11342,
    "baden": 25616,
    "rep": 5525,
    "rem": 1519,
    "rat": 8759,
    "Ġsinners": 18952,
    "Ġcott": 3708,
    "Ġbaked": 21389,
    "lift": 15388,
    "Ġquarto": 17299,
    "Ġexisted": 15757,
    "Ġbeholding": 8672,
    "Ġrepugn": 23366,
    "Ġhams": 16614,
    "Ġmisery": 3814,
    "Ġvac": 5025,
    "Ġexerting": 21836,
    "taller": 26151,
    "contempl": 13195,
    "Ġsundering": 23277,
    "Ġdiscoveries": 13363,
    "imate": 4223,
    "painful": 13505,
    "Ġexclaiming": 13645,
    "Ġdispleasure": 16056,
    "Ġterrific": 6755,
    "Ġdomes": 23650,
    "onian": 17769,
    "Ġcomrade": 11682,
    "Ġtyphoon": 12393,
    "Ġchann": 15939,
    "Ġholmes": 1307,
    "active": 16107,
    "Ġdubious": 17386,
    "Ġthreading": 23405,
    "Ġreplaced": 13076,
    "geons": 15983,
    "Ġcaulking": 20296,
    "Ġhunter": 5401,
    "west": 10741,
    "Ġtransparent": 9492,
    "obedience": 17413,
    "Ġeuroc": 14962,
    "sw": 4742,
    "Ġepo": 21624,
    "rested": 13079,
    "Ġcounter": 6481,
    "limbs": 20194,
    "Ġtravel": 5953,
    "otherwise": 7670,
    "enjoy": 10776,
    "lives": 12490,
    "epend": 3312,
    "Ġcomplete": 4386,
    "Ġhails": 21954,
    "ouder": 17902,
    "Ġrover": 18457,
    "inisc": 15491,
    "Ġdepends": 1121,
    "Ġfilm": 23929,
    "Ġamounts": 6705,
    "Ġredress": 23754,
    "onist": 21253,
    "Ġmosses": 20166,
    "at": 268,
    "Ġcomprehensiveness": 25075,
    "Ġempty": 5354,
    "Ġabundance": 17158,
    "observing": 25495,
    "arthur": 14833,
    "Ġlongitudes": 22639,
    "Ġmagnus": 18959,
    "rison": 13782,
    "Ġgaining": 9495,
    "Ġdreamed": 16632,
    "Ġrival": 10488,
    "Ġcredulous": 17147,
    "step": 2457,
    "Ġdelusion": 18975,
    "Ġbarber": 23791,
    "omuch": 21643,
    "Ġlun": 7856,
    "Ġincorporated": 25710,
    "aneously": 4060,
    "scure": 22991,
    "Ġperish": 8878,
    "Ġfragmentary": 25859,
    "¨": 106,
    "approb": 11043,
    "Ġperception": 9753,
    "faint": 17547,
    "springing": 24890,
    "Ġsuperhuman": 23455,
    "nineteenth": 26139,
    "Ġbrazen": 23842,
    "Ġwarm": 2426,
    "Ġquebec": 24135,
    "Ġadmin": 23556,
    "Ġ102": 24410,
    ".âĢĿ": 464,
    "instances": 13324,
    "Ġinsulted": 14995,
    "Ġhearses": 20063,
    "bone": 5612,
    "otent": 8836,
    "degrees": 22154,
    "Ġpenet": 6887,
    "Ġmundane": 26431,
    "Ġcold": 3029,
    "Ġpomp": 12627,
    "Ġtombed": 25164,
    "ichever": 13960,
    "reeling": 21247,
    "Ġweep": 7619,
    "Ġticking": 25036,
    "Ġportions": 19372,
    "needle": 20316,
    "thirds": 25049,
    "athered": 6972,
    "Ġpalms": 8647,
    "Ġblanched": 26284,
    "Ġstretched": 5920,
    "Ġsig": 868,
    "Ġslime": 23164,
    "educ": 10830,
    "semic": 21825,
    "iluvian": 18063,
    "Ġcoer": 22582,
    "osing": 3688,
    "chemical": 23810,
    "punct": 20195,
    "Ġveritable": 19384,
    "onness": 21257,
    "Ġfunny": 7637,
    "Ġsocieties": 20185,
    "Ġdit": 21423,
    "Ġdeigned": 18144,
    "Ġsinking": 7306,
    "Ġhawk": 15177,
    "Ġinforming": 18744,
    "province": 26073,
    "Ġafford": 4369,
    "Ġbigness": 19763,
    "Ġillustrations": 17109,
    "cro": 13700,
    "oth": 1186,
    "Ġsimil": 2530,
    "tattoo": 21090,
    "Ġdesperado": 19822,
    "Ġ59": 24323,
    "whether": 5320,
    "Ġdevilish": 11230,
    "Ġclink": 22350,
    "Ġhouses": 6139,
    "Ġ44": 16681,
    "Ġconjectures": 16927,
    "Ġlinked": 15081,
    "Ġhumour": 7932,
    "gpt": 5356,
    "ergy": 2361,
    "Ġhimmale": 18335,
    "Ġrepro": 7274,
    "Ġbeneficial": 23934,
    "Ġposted": 16726,
    "Ġbrown": 6299,
    "thunder": 10265,
    "Ġmultiple": 1189,
    "Ġ78": 19616,
    "consciousness": 13370,
    "Ġencapsulate": 13678,
    "Ġportcullis": 26605,
    "Ġdismantled": 20219,
    "transformers": 8718,
    "Ġungod": 22024,
    "|": 96,
    "feels": 22506,
    "insurance": 18891,
    "wond": 8772,
    "Ġdl": 3374,
    "Ġawhile": 13833,
    "Ġunlabeled": 3800,
    "Ġwick": 2004,
    "Ġembodiment": 20531,
    "Ġharpoon": 3616,
    "Ġhandfuls": 17212,
    "Ġhval": 21491,
    "lads": 20957,
    "**": 4687,
    "Ġdined": 9179,
    "uble": 21105,
    "icates": 11620,
    "Ġcorresponds": 19824,
    "expressive": 24307,
    "Ġtunnels": 24621,
    "gl": 3288,
    "dig": 4930,
    "fing": 13716,
    "Ġtask": 1309,
    "Ġcompromised": 22575,
    "Ġwaif": 9378,
    "distinctive": 25726,
    "Ġoutfits": 22325,
    "Ġrowing": 10303,
    "actions": 8910,
    "Ġwallowing": 24047,
    "icable": 6388,
    "Ġmutters": 23959,
    "Ġskrimshander": 22801,
    "appalled": 18761,
    "Ġloading": 15878,
    "ourably": 14380,
    "Ġkiller": 19571,
    "pots": 11516,
    "Ġdoc": 7199,
    "vious": 1783,
    "Ġtorch": 25033,
    "tashtego": 9625,
    "proves": 23397,
    "Ġdol": 9667,
    "Ġcarr": 23093,
    "Ġheavenly": 12089,
    "fted": 9121,
    "Ġhateful": 19716,
    "valued": 2852,
    "resp": 13842,
    "pale": 13775,
    "Ġconvolutions": 21811,
    "Ġtreating": 4286,
    "Ġdecently": 22460,
    "Ġdan": 8797,
    "Ġcongregation": 12333,
    "bre": 3981,
    "tubs": 15134,
    "Ġdelicious": 14796,
    "Ġoverpower": 12847,
    "Ġlod": 4043,
    "dun": 17518,
    "kily": 20939,
    "Ġ132": 19898,
    "Ġ30": 10514,
    "Ġunwonted": 15010,
    "Ġtackle": 9516,
    "ij": 7801,
    "Ġmeans": 699,
    "Ġpermanently": 25474,
    "Ġcaused": 5048,
    "Ġhop": 1459,
    "Ġcontact": 9284,
    "mockery": 24378,
    "Ġcoins": 11823,
    "Ġcountless": 16386,
    "Ġmultiplied": 23693,
    "Ġwr": 1543,
    "disposition": 10045,
    "Ġadvert": 10574,
    "deep": 1033,
    "Ġpromoting": 3157,
    "Ġhelen": 16658,
    "australian": 20564,
    "merely": 16138,
    "Ġshrunk": 16720,
    "Ġconfirm": 9859,
    "Ġfearfulness": 23516,
    "Ġcar": 1419,
    "Ġ1890": 23899,
    "oment": 921,
    "Ġdoubloon": 6944,
    "Ġspoke": 2747,
    "sch": 21053,
    "directed": 20408,
    "Ġresumed": 11816,
    "Ġmarshalled": 25316,
    "Ġultimate": 12353,
    "Ġveter": 15815,
    "Ġmeasurement": 19426,
    "dist": 4483,
    "Ġvel": 7185,
    "Ġreproof": 24891,
    "Ġunconcerned": 20513,
    "!âĢĻ": 3330,
    "speaks": 19722,
    "kee": 18274,
    "strate": 12679,
    "Ġvind": 10252,
    "Ġarguments": 8037,
    "waiter": 24587,
    "odox": 21817,
    "ifled": 14066,
    "ulance": 15771,
    "Ġclum": 8876,
    "Ġlandowner": 23384,
    "Ġwails": 21299,
    "behaved": 24463,
    "Ġarthur": 7195,
    "concealed": 25118,
    "Ġhairs": 13235,
    "--âĢľ": 12977,
    "represented": 20198,
    "enjoyment": 17260,
    "Ġpursuit": 4734,
    "becoming": 18517,
    "antic": 1606,
    "Ġexhausting": 24709,
    "medi": 2629,
    "Ġplunged": 8696,
    "stave": 21652,
    "Ġcerem": 7078,
    "bench": 16805,
    "threat": 10902,
    "Ġconsiderably": 7714,
    "Ġarrest": 7408,
    "thouse": 21986,
    "arranging": 19320,
    "spermaceti": 12198,
    "Ġpaced": 7583,
    "ersburgh": 18216,
    "Ġsaint": 15510,
    "wondered": 17118,
    "Ġcuring": 21347,
    "olly": 3221,
    "Ġprophes": 16352,
    "darcy": 5208,
    "Ġabaft": 22278,
    "Ġarchipelagoes": 14350,
    "Ġspas": 10924,
    "Ġconsc": 4276,
    "Ġdocument": 15021,
    "Ġbrixton": 13667,
    "Ġglories": 16244,
    "gen": 6503,
    "Ġperemptory": 25741,
    "Ġdoct": 4458,
    "Ġdestitute": 14568,
    "Ġdangling": 17177,
    "Ġindifference": 6726,
    "mpus": 13760,
    "Ġlazarus": 15031,
    "goose": 19103,
    "cig": 17506,
    "Ġmice": 13862,
    "Ġheavily": 6741,
    "ü": 189,
    "is": 280,
    "Ġteaching": 10367,
    "Ġfeed": 2126,
    "thoroughly": 26510,
    "Ġsweep": 8266,
    "beaut": 8514,
    "Ġsomeone": 6704,
    "Ġruled": 22789,
    "Ġmisty": 16542,
    "Ġlottery": 19890,
    "Ġsinned": 18953,
    "Ġinferior": 8366,
    "Ġenergy": 2551,
    "alogue": 25163,
    "Ġuncivilized": 25499,
    "istic": 971,
    "daring": 20831,
    "ĠâĢĶ_": 3458,
    "apse": 14201,
    "Ġ7": 4746,
    "Ġkate": 15909,
    "Ġsincere": 11138,
    "Ġbeam": 2878,
    "Ġevaporate": 26334,
    "lacings": 26135,
    "Ġsh": 419,
    "Ġderive": 10397,
    "Ġvoc": 4454,
    "Ġwis": 3728,
    "Ġcabin": 3300,
    "Ġpreceding": 7527,
    "Ĭ": 237,
    "Ġhymn": 24518,
    "Ġshrine": 19534,
    "Ġpill": 7846,
    "prince": 23817,
    "addition": 13388,
    "aet": 15311,
    "Ġecl": 18008,
    "Ġinputs": 843,
    "Ġblunt": 11898,
    "rud": 4192,
    "related": 24015,
    "wester": 21141,
    "Ġoutweigh": 22326,
    "Ġdegenerating": 25800,
    "Ġterm": 2267,
    "boil": 19000,
    "vers": 1326,
    "cellar": 20280,
    "Ġsash": 17756,
    "Ġdifferently": 10391,
    "Ġsmart": 11819,
    "imitably": 21714,
    "Ġsemicircular": 26070,
    "stands": 22434,
    "Ġmistifying": 23722,
    "Ġquench": 22423,
    "Ġback": 827,
    "ream": 2710,
    "Ġsallied": 12542,
    "oub": 1631,
    "waving": 21134,
    "Ġanticipation": 17058,
    "Ġcoincidences": 26365,
    "Ġsolutions": 1947,
    "verted": 10220,
    "erring": 11059,
    "Ġarrive": 6906,
    "Ġentertainment": 12227,
    "meas": 7433,
    "Ġinconsist": 17938,
    "Ġpredestinated": 18527,
    "Ġacting": 10993,
    "construction": 19781,
    "Ġwaters": 3596,
    "Ġruthless": 15289,
    "ļ": 253,
    "dued": 7909,
    "conject": 8883,
    "endeavouring": 15018,
    "hood": 2659,
    "Ġrational": 8481,
    "andes": 18154,
    "Ġlinear": 3432,
    "conve": 14246,
    "Ġtheirs": 7025,
    "flesh": 13494,
    "generally": 9438,
    "aunted": 20772,
    "inations": 7566,
    "Ġla": 5913,
    "Ġclutched": 13522,
    "Ġdisturbed": 8675,
    "clouds": 25497,
    "94": 4804,
    "Ġyards": 5371,
    "Ġperils": 6273,
    "fro": 8736,
    "uteronomy": 15668,
    "Ġcomforter": 20510,
    "Ġhail": 7399,
    "artificial": 1013,
    "oran": 8793,
    "Ġopine": 19230,
    "deprived": 19900,
    "Ġhark": 8429,
    "Ġquality": 3529,
    "Ġtut": 8774,
    "intervals": 10640,
    "Ġclosely": 6488,
    "Ġsort": 1504,
    "ast": 474,
    "Ġaccent": 10298,
    "Ġinconveniences": 24942,
    "Ġplainpalais": 20739,
    "Ġburned": 8634,
    "ibid": 18848,
    "Ġdoran": 9182,
    "painting": 17047,
    "Ġoccasioned": 13232,
    "momentum": 4991,
    "turned": 7305,
    "Ġcigars": 12257,
    "_)âĢĶ": 20147,
    "vously": 23508,
    "Ġstave": 11654,
    "Ġranging": 8480,
    "Ġspecialized": 3923,
    "dense": 18717,
    "adem": 21761,
    "arian": 10319,
    "Ġkirwin": 8498,
    "Ġthirt": 13942,
    "petulance": 24301,
    "nson": 16092,
    "Ġjackson": 24243,
    "Ġability": 2763,
    "Ġridicule": 13515,
    "reement": 15514,
    "Ġwhistling": 19793,
    "Ġdisturbance": 15015,
    "Ġwound": 4530,
    "Ġunacquainted": 12780,
    "Ġlif": 10198,
    "Ġincidentally": 16956,
    "sters": 6391,
    "Ġoffing": 16146,
    "Ġconfound": 23305,
    "Ġcontour": 18475,
    "Ġpilgrim": 25600,
    "Ġgowns": 25360,
    "older": 15760,
    "Ġprotracted": 19472,
    "Ġ65": 24368,
    "Ġdimly": 9491,
    "Ġunworth": 22036,
    "Ġafore": 10760,
    "Ġgaped": 13970,
    "Ġlurking": 11291,
    "Ġfossils": 20225,
    "Ġapex": 24342,
    "Ġhabit": 6771,
    "inate": 6234,
    "Ġardent": 9973,
    "Ġdistorted": 14252,
    "lovel": 22514,
    "Ġoctober": 17229,
    "glass": 9912,
    "Ġbowed": 6243,
    "distinguish": 19575,
    "Ġemail": 19076,
    "luxur": 25823,
    "Ġdeified": 18143,
    "Ġconcent": 8250,
    "Ġday": 956,
    "Ġundone": 24120,
    "ening": 3100,
    "wide": 10140,
    "akened": 7414,
    "Ġmurderer": 4980,
    "due": 22414,
    "Ġtattooed": 11380,
    "Ġopp": 2698,
    "Ġsuperseded": 26226,
    "Ġsign": 2494,
    "horrors": 20544,
    "Ġaft": 5737,
    "Ġostentatiously": 20472,
    "Ġcrockery": 24303,
    "pest": 6964,
    "Ġtimbers": 14842,
    "Ġbegins": 7243,
    "Ġslanting": 23175,
    "aky": 18412,
    "Ġ36": 14771,
    "Ġteeth": 4168,
    "Ġprolong": 6831,
    "Ġrose": 3443,
    "Ġshuddered": 11302,
    "Ġrem": 954,
    "subject": 6633,
    "Ġdisinclination": 22540,
    "ength": 2313,
    "Ġnavel": 24577,
    "Ġexploitation": 2348,
    "Ġclaw": 22352,
    "Ġknee": 7094,
    "plendent": 21968,
    "variance": 2655,
    "obed": 14449,
    "Ġcheerless": 16695,
    "virt": 15454,
    "stating": 21650,
    "Ġsimultaneously": 4313,
    "rayed": 23565,
    "Ġfacilitate": 26099,
    "âĢĶâĢľ_": 13208,
    "Ġpaddling": 25286,
    "Ġprovoked": 13330,
    "strip": 19833,
    "Ġsurpass": 13587,
    "betrayed": 24641,
    "Ġdrinks": 24282,
    "Ġcondition": 6764,
    "Ġsocial": 7007,
    "Ġfirmness": 11240,
    "Ġfifteen": 6946,
    "Ġcompression": 18148,
    "Ġdesertion": 24786,
    "ashed": 3785,
    "highest": 20411,
    "Ġyet": 1027,
    "hunt": 20905,
    "asc": 6386,
    "Ġinfidel": 13092,
    "sp": 894,
    "gracious": 11835,
    "Ġmaritime": 23041,
    "housekeeping": 24105,
    "Ġproofs": 19817,
    "Ġlanguid": 14222,
    "aton": 21261,
    "Ġwithered": 19468,
    "Ġrisen": 9496,
    "Ġincreases": 3796,
    "Ġfarm": 7840,
    "tomorrow": 25915,
    "Ġhid": 1318,
    "closing": 23157,
    "Ġdrugg": 17122,
    "Ġmines": 21311,
    "Ġirish": 14536,
    "vices": 21119,
    "ision": 1854,
    "admire": 24946,
    "Ġconstraint": 16515,
    "Ġauthor": 4379,
    "Ġroving": 22407,
    "Ġacquire": 2724,
    "hid": 13737,
    "Ġsigns": 2443,
    "imprudence": 16559,
    "ampled": 18885,
    "Ġfur": 992,
    "Ġraved": 22651,
    "ilations": 21725,
    "Ġpasses": 2680,
    "Ġknights": 15153,
    "Ġundesired": 12783,
    "Ġcrying": 10788,
    "Ġcrad": 21352,
    "delay": 16697,
    "Ġcheat": 19019,
    "ingley": 1546,
    "Ġprey": 6415,
    "Ġincorrect": 2729,
    "Ġslumber": 13065,
    "ifting": 6546,
    "ikes": 8087,
    "adays": 14016,
    "Ġteaches": 18808,
    "Ġsulk": 15048,
    "Ġdiscovered": 4416,
    "Ġlifeless": 8951,
    "Ġreceiving": 4883,
    "Ġmar": 1310,
    "cords": 25139,
    "Ġwraps": 19779,
    "plete": 10921,
    "jabez": 20935,
    "Ġintellig": 527,
    "urance": 10859,
    "Ġcongregated": 20100,
    "mers": 9613,
    "Ġpistol": 7847,
    "retreat": 23140,
    "Ġcounters": 24143,
    "Ġdistinguished": 8273,
    "Ġslee": 8977,
    "Ġships": 3713,
    "Ġhungry": 10535,
    "Ġdemoniac": 15068,
    "beginning": 13565,
    "Ġstays": 16563,
    "Ġnupt": 13946,
    "Ġbusks": 23342,
    "Ġinmost": 17933,
    "Ġcrystals": 20230,
    "that": 851,
    "Ġdissipate": 13637,
    "Ġhappening": 14386,
    "whis": 7898,
    "Ġgnarled": 25169,
    "Ġsensit": 2944,
    "set": 3866,
    "Ġruins": 16162,
    "Ġremorselessly": 16969,
    "Ġslope": 14463,
    "ross": 809,
    "Ġsuch": 792,
    "Ġprot": 3849,
    "akness": 14197,
    "Ġavalanche": 17436,
    "lakeman": 13754,
    "shoals": 24716,
    "Ġboyhood": 23757,
    "char": 3504,
    "istle": 15874,
    "Ġfirmest": 16667,
    "Ġreproachfully": 25252,
    "Ġhalting": 16278,
    "Ġrambled": 20171,
    "Ġfrighted": 24032,
    "Ġplane": 11827,
    "Ġgrizzled": 11452,
    "Ġseconds": 16398,
    "Ġunostentatious": 22069,
    "Ġbought": 8417,
    "Ġbaltic": 18797,
    "div": 8076,
    "Ġfolks": 14429,
    "caused": 25520,
    "Ġskipper": 22800,
    "boom": 18999,
    "icles": 17975,
    "Ġsurging": 19135,
    "Ġmessages": 24984,
    "slight": 10729,
    "rics": 13043,
    "Ġdesirous": 8945,
    "Ġaffidav": 18791,
    "Ġmazes": 25941,
    "Ġcoverage": 4290,
    "Ġpreparing": 8651,
    "sales": 17669,
    "Ġhelm": 5276,
    "Ġshot": 4546,
    "Ġaccommod": 14221,
    "resolved": 9642,
    "Ġinsists": 23681,
    "boats": 6205,
    "),": 1346,
    "ells": 5305,
    "Ġfield": 1243,
    "ralian": 19603,
    "Ġdestroy": 5772,
    "home": 7340,
    "Ġroaring": 10970,
    "Ġmaelstrom": 19359,
    "ulus": 21868,
    "Ġcompan": 2173,
    "Ġtoilette": 20496,
    "agged": 9240,
    "Ġhackluyt": 25656,
    "silver": 19693,
    "Ġpianoforte": 15277,
    "Ġbeware": 8832,
    "abez": 10225,
    "comm": 7439,
    "india": 22375,
    "acc": 2533,
    "iven": 1236,
    "Ġflying": 5413,
    "member": 20977,
    "ipelag": 12849,
    "ulatory": 15772,
    "Ġsqualls": 17022,
    "Ġvelocity": 10623,
    "Ġlangu": 575,
    "narr": 12501,
    "Ġprobabilities": 4966,
    "Ġincor": 2611,
    "Ġwalton": 14975,
    "Ġsupply": 6067,
    "Ġtons": 11552,
    "Ġglancing": 5399,
    "Ġsurrounding": 12167,
    "Ġswaying": 15049,
    "Ġstalk": 12702,
    "Ġfowl": 11332,
    "Ġeducation": 5128,
    "Ġgoat": 16010,
    "fem": 17539,
    "Ġsomewhere": 5384,
    "ened": 1386,
    "Ġrefinement": 18712,
    "Ġgroan": 13329,
    "Ġclinging": 10294,
    "uncontrollable": 20599,
    "Ġrubbing": 9324,
    "wandering": 20287,
    "tw": 2811,
    "Ġcandid": 4100,
    "ock": 15405,
    "uc": 1878,
    "suff": 4961,
    "Ġsentiments": 7961,
    "Ġturks": 14600,
    "Ġquiet": 3258,
    "batt": 20780,
    "handkerchief": 14620,
    "Ġjan": 11766,
    "Ġequally": 5258,
    "ladder": 19787,
    "Ġgiddy": 20500,
    "Ġhopeless": 7461,
    "Ġdoubtful": 19143,
    "awe": 20767,
    "Ġcomplacency": 19451,
    "formality": 22219,
    "Ġindividually": 22960,
    "Ġmonomania": 17086,
    "ignominious": 26589,
    "assembled": 21548,
    "Ġsuddenly": 2646,
    "Ġdeclaration": 16639,
    "Ġappeal": 16317,
    "circled": 24190,
    "Ġgraphs": 25464,
    "fitters": 24760,
    "Ġflank": 8229,
    "variety": 23189,
    "Ġaccurately": 4335,
    "Ġenjoyment": 7299,
    "alizing": 17942,
    "vine": 10736,
    "Ġmuslin": 19386,
    "overfitting": 13104,
    "forgot": 11035,
    "mission": 5970,
    "illation": 14144,
    "iquet": 17577,
    "Ġminister": 18753,
    "Ġvarieties": 14313,
    "icate": 9204,
    "idence": 4304,
    "capitals": 25083,
    "Ġkith": 22196,
    "Ġrudeness": 17127,
    "Ġruth": 14096,
    "Ġdarling": 12609,
    "Ġideas": 5494,
    "obstructed": 15230,
    "Ġcomp": 724,
    "joining": 19449,
    "Ġportcull": 23865,
    "nursery": 26401,
    "Ġprestige": 22240,
    "web": 18665,
    "Ġemergencies": 17365,
    "Ġlearnedly": 23389,
    "abular": 4763,
    "Ġnocturnal": 20717,
    "Ġcedars": 20295,
    "Ġmystery": 5509,
    "Ġcobb": 14275,
    "our": 534,
    "gled": 10701,
    "Ġjoints": 12040,
    "aph": 10956,
    "taught": 17686,
    "Ġgums": 21614,
    "Ġgross": 11628,
    "Ġguid": 2638,
    "Ġspear": 9317,
    "B": 38,
    "Ġsamples": 2959,
    "Ġcrate": 19121,
    "Ġceased": 6468,
    "Ġpred": 674,
    "mmed": 7914,
    "peasant": 23113,
    "ocr": 10470,
    "Ġsocks": 14134,
    "Ġfix": 2506,
    "unhappy": 10240,
    "Ġaltering": 18105,
    "Ġlivelong": 25512,
    "Ġartful": 22613,
    "Ġbehave": 23300,
    "ak": 539,
    "qual": 8157,
    "ff": 462,
    "Ġmim": 3101,
    "hide": 10705,
    "Ġswash": 23058,
    "features": 14766,
    "Ġglimmered": 20174,
    "mid": 5617,
    "avast": 8900,
    "Ġpratt": 23218,
    "Ġago": 3131,
    "Ġbuffalo": 11431,
    "Ġdearest": 5457,
    "Ġreproached": 24892,
    "Ġchip": 12830,
    "lement": 10169,
    "Ġachieve": 3672,
    "Ġbelonged": 6921,
    "want": 8770,
    "Ġpaintings": 15058,
    "Ġentities": 11868,
    "Ġlung": 7167,
    "spond": 5567,
    "again": 3399,
    "Ġannual": 14835,
    "oms": 4595,
    "Ġaccomp": 4714,
    "itz": 6006,
    "Ġindies": 22954,
    "Ġveins": 8935,
    "Ġrider": 24188,
    "rot": 21535,
    "Ġmoderation": 12823,
    "Ġreplenished": 13640,
    "Ġdiligence": 17115,
    "Ġvagueness": 25738,
    "Ġsolemnly": 8023,
    "Ġ116": 24440,
    "persuaded": 15077,
    "Ġwhom": 1828,
    "arming": 8954,
    "toss": 22570,
    "burgh": 6773,
    "Ġbeautiful": 3671,
    "ving": 593,
    "bye": 5950,
    "mped": 16650,
    "Ġkent": 6692,
    "desperate": 17360,
    "Ġankles": 17901,
    "erland": 9643,
    "Ġtort": 5902,
    "diligence": 26111,
    "Ġcasts": 19429,
    "Ġcommerce": 11017,
    "speptic": 23949,
    "Ġmaria": 7125,
    "Ġbesee": 19245,
    "Ġneat": 6999,
    "spark": 18690,
    "Ġdevoid": 18683,
    "gir": 8083,
    "kicked": 20945,
    ");": 7329,
    "woods": 13423,
    "Ġjudge": 5502,
    "streets": 13399,
    "athy": 14326,
    "Ġfollow": 1394,
    "Ġrust": 6408,
    "Ġadrift": 11727,
    "establishment": 26114,
    "accountable": 7110,
    "rential": 22922,
    "cture": 15669,
    "consum": 12875,
    "Ġpays": 13301,
    "Ġspring": 4122,
    "Ġreality": 7058,
    "Ġpl": 742,
    "manners": 16189,
    "Ġrepairing": 25590,
    "Ġcowardice": 17033,
    "Ġdurst": 20355,
    "suit": 18629,
    "Ġdelights": 14598,
    "Ġce": 3028,
    "ban": 9587,
    "||": 4870,
    "libra": 22928,
    "Ġc": 277,
    "belongs": 25597,
    "Ġwarp": 8113,
    "Ġoblivious": 26033,
    "Ġwarehouse": 20420,
    "mates": 5073,
    "isen": 10794,
    "Ġsuspending": 19246,
    "Ġlascar": 9202,
    "Ę": 217,
    "Ġdrop": 4348,
    "Ġhoard": 23355,
    "Ġexposing": 11838,
    "question": 5418,
    "Ġkindliness": 23296,
    "Ġadmirer": 16840,
    "Ġunthink": 18245,
    "Ġprompt": 3185,
    "Ġconfessor": 24022,
    "Ġdecorated": 22463,
    "Ġidolator": 20001,
    "Ġtorment": 8677,
    "Ġhypocr": 19475,
    "Ġdiverted": 14594,
    "continu": 5501,
    "Ġcowards": 12578,
    "Ġdeliberately": 10627,
    "Ġquestioned": 14622,
    "Ġpoets": 11825,
    "grass": 23416,
    "iza": 6256,
    "ums": 10275,
    "tub": 9146,
    "Ġletting": 10365,
    "Ġcomfits": 21856,
    "ò": 179,
    "bly": 6111,
    "Ġ110": 24435,
    "Ġquarters": 8623,
    "Ġsheer": 14153,
    "Ġinstruction": 14344,
    "Ġselection": 18203,
    "Ġdisplayed": 10611,
    "Ġparticular": 2449,
    "pierced": 26142,
    "Ġwithin": 2164,
    "ule": 6800,
    "Ġbubble": 13538,
    "Ġinfl": 6892,
    "scept": 21056,
    "roded": 17958,
    "onde": 21254,
    "Ġexaggerated": 25651,
    "Ġ1836": 25721,
    "Ġlouder": 13472,
    "Ġcrows": 24034,
    "Ġexhib": 6350,
    "Ġfeathers": 15123,
    "gressive": 2753,
    "Ġzeros": 3322,
    "iter": 4395,
    "Ġtransl": 2828,
    "abeth": 905,
    "Ġprofoundest": 16862,
    "Ġleading": 7296,
    "dissemble": 23494,
    "Ġvain": 3629,
    "Ġrequires": 1014,
    "Ġgro": 4400,
    "Đ": 209,
    "Ġderivative": 2995,
    "Ġprodu": 1205,
    "Ġahab": 1214,
    "Ġprodigy": 19795,
    "Ġign": 8295,
    "Ġtwinkle": 12327,
    "Ġforemast": 12010,
    "verdict": 21733,
    "Ġassign": 11111,
    "hated": 17563,
    "ahit": 9385,
    "Ġbo": 796,
    "Ġreader": 11938,
    "Ġawed": 23587,
    "ore": 418,
    "Ġwash": 9706,
    "Ġvehemently": 26040,
    "gall": 6360,
    "Ġship": 1090,
    "acet": 5476,
    "Ġevol": 2814,
    "hurt": 19880,
    "ressed": 3020,
    "Ġwinding": 8236,
    "shoulder": 16586,
    "Ġvol": 4191,
    "fixed": 7547,
    "nar": 12498,
    "Ġdenny": 9004,
    "Ġattractive": 25576,
    "ĠÂ£": 5006,
    "smo": 10128,
    "Ġhelps": 9370,
    "Ġnodes": 1968,
    "anc": 6379,
    "âĢĿ;": 11673,
    "Ġabusing": 18394,
    "Ġtreatment": 12076,
    "Ġpresc": 15929,
    "Ġunmannerly": 26519,
    "Ġducks": 25161,
    "Ġauthorized": 16737,
    "Ġleaders": 16630,
    "benevolent": 15237,
    "Ġincompatible": 25681,
    "innocence": 15187,
    "Ġneedle": 8275,
    "Ġhurtling": 24960,
    "Ġanyways": 22524,
    "Ġplayers": 12043,
    "Ġtahit": 10756,
    "ulent": 21866,
    "Ġmuffled": 10643,
    "Ġvales": 21950,
    "ď": 208,
    "Ġv": 399,
    "3": 23,
    "Ġsteady": 4849,
    "Ġvisitors": 7985,
    "Ġhurrah": 9872,
    "piled": 21017,
    "Ġfrank": 4423,
    "Ġbeth": 9660,
    "oury": 22308,
    "Ġwat": 1286,
    "sails": 7496,
    "ipt": 12483,
    "Ġsir": 1573,
    "iverer": 11720,
    "Ġ200": 19298,
    "Ġunseasonable": 26522,
    "ccarthy": 4889,
    "Ġunre": 3478,
    "chancing": 22921,
    "Ġwarmth": 6904,
    "young": 7320,
    "Ġhunting": 7258,
    "Ġcop": 7579,
    "Ġthames": 13941,
    "Ġcleaning": 23184,
    "Ġapparel": 20439,
    "unconquerable": 21895,
    "Ġriots": 23894,
    "clo": 5613,
    "Ġindependence": 12109,
    "cess": 537,
    "Ġfloor": 4382,
    "Ġgrievous": 13264,
    "Ġdanger": 3520,
    "gaining": 20127,
    "beneath": 9538,
    "Ġintensity": 10019,
    "osp": 6853,
    "wretched": 10743,
    "Ġalthough": 4152,
    "Ġdismember": 20218,
    "arranged": 19321,
    "razor": 21640,
    "lean": 21368,
    "Ġsoundings": 13137,
    "jointed": 24013,
    "Ġhapless": 15816,
    "Ġdiddled": 22670,
    "ident": 3378,
    "Ġsomehow": 4843,
    "Ġsuper": 2154,
    "secre": 18130,
    "claimed": 9839,
    "accordingly": 19215,
    "Ġsore": 10766,
    "ropy": 1101,
    "54": 15303,
    "Ġdeliverance": 15161,
    "Ġextremity": 8991,
    "specimen": 26607,
    "Ġsen": 9159,
    "Ġreminisc": 18726,
    "Ġbarrens": 25502,
    "Ġprofession": 6208,
    "Ġdisenc": 22530,
    "Ġbreathe": 9015,
    "received": 9641,
    "boone": 23256,
    "Ġnerves": 2627,
    "Ġamazing": 9980,
    "suppose": 8648,
    "unciation": 25983,
    "mentioning": 24886,
    "mn": 3577,
    "fen": 20852,
    "Ġsolution": 9808,
    "renewed": 19707,
    "Ġridic": 7507,
    "Ġunsur": 22022,
    "Ġcorrected": 10450,
    "brought": 7284,
    "reat": 618,
    "Ġendured": 6073,
    "vour": 17701,
    "Ġpugnacious": 26453,
    "Ġfluke": 14676,
    "Ġphilipp": 23886,
    "Ġscept": 15506,
    "clim": 18932,
    "Ġassailed": 23180,
    "Ġunusual": 6554,
    "Ġprints": 16334,
    "Ġpecks": 18670,
    "ispens": 8336,
    "Ġpiny": 21473,
    "Ġcasual": 11411,
    "Ġbring": 3321,
    "ane": 1179,
    "Ġlingu": 11617,
    "ool": 17620,
    "fordshire": 4678,
    "fork": 20859,
    "total": 17253,
    "Ġprospects": 9962,
    "barbar": 20241,
    "Ġrelieve": 8224,
    "burning": 25081,
    "Ġpopularly": 12246,
    "omas": 12676,
    "Ġwade": 17786,
    "jeroboam": 25620,
    "Ġassemblage": 26354,
    "duck": 22416,
    "Ġdevout": 14330,
    "Ġpursuits": 12081,
    "Ġarchitect": 967,
    "Ġglass": 4373,
    "entropy": 1438,
    "Ġprogramming": 1184,
    "Ġsuperl": 16446,
    "Ġcured": 21350,
    "Ġfooted": 23798,
    "itaries": 21339,
    "Ġnephews": 24713,
    "phon": 4128,
    "weekly": 25685,
    "welcomed": 24645,
    "Ġdrowned": 9555,
    "Ġentreated": 9954,
    "piling": 15418,
    "Ġdepart": 4658,
    "Ġmoreover": 6164,
    "Ġgrinning": 9056,
    "ç": 168,
    "forecastle": 10992,
    "Ġscorched": 17102,
    "Ġbumps": 21395,
    "Ġprofess": 3698,
    "Ġelemental": 19921,
    "Ġpond": 13919,
    "Ġunerring": 15851,
    "scra": 13027,
    "Ġcurls": 22963,
    "Ġtoward": 17949,
    "Ġcheers": 16369,
    "Ġcommod": 10336,
    "Ġshag": 9254,
    "deepest": 22837,
    "ives": 1410,
    "Ġskirts": 14355,
    "remind": 23191,
    "Ú": 155,
    "Ġfuneral": 10286,
    "cing": 1012,
    "Ġimpelling": 22385,
    "Ġimaginative": 19249,
    "Ġintruding": 21995,
    "Ġsympt": 7013,
    "ushing": 5731,
    "Ġbourgh": 5069,
    "Ġmomentary": 11038,
    "moment": 3579,
    "Ġpines": 12622,
    "Ġskip": 1844,
    "perquisites": 26533,
    "Ġinferred": 14502,
    "confused": 19642,
    "Ġcaul": 10789,
    "Ġrect": 18028,
    "Ù": 154,
    "Ġdimmed": 24270,
    "stay": 9684,
    "Ġelectric": 15198,
    "Ġfit": 3683,
    "Ġcanal": 8182,
    "Ġfunctional": 3044,
    "ained": 3061,
    "Ġgothic": 18002,
    "hot": 8084,
    "Ġpersuading": 19413,
    "Ġdissatisfied": 14259,
    "tray": 21080,
    "Ġinclinations": 19542,
    "Ġrejection": 19987,
    "Ġenig": 15803,
    "Ġcompleted": 9000,
    "?âĢĶ": 3467,
    "mystic": 25317,
    "passion": 11262,
    "Ġmeantime": 6207,
    "acled": 16085,
    "deemed": 18317,
    "Ġstrokes": 16771,
    "Ġfuel": 13907,
    "irregular": 21915,
    "thr": 12765,
    "Ġyoke": 18098,
    "Ġelect": 10844,
    "exped": 16527,
    "bag": 7541,
    "Ġwane": 21291,
    "Ġpraises": 16732,
    "who": 2446,
    "Ġconcuss": 19045,
    "Ġplush": 18610,
    "âĢĺ": 940,
    "Ġclerical": 25569,
    "draught": 12095,
    "^": 66,
    "Ġepid": 18007,
    "ryder": 18648,
    "geneva": 13733,
    "Ġmake": 1284,
    "Ġnorthumbria": 24174,
    "Ġlungless": 24864,
    "Ġarrival": 4732,
    "aying": 15754,
    "ien": 10104,
    "vicinity": 20483,
    "Ġemaciated": 20641,
    "Ġvegetables": 15225,
    "Ġthy": 2512,
    "Ġreverend": 15263,
    "Ġdynamic": 5122,
    "Ġstraits": 7994,
    "hoisting": 23719,
    "Ġof": 298,
    "Ġdrow": 21429,
    "ate": 424,
    "Ġattractions": 12921,
    "german": 11494,
    "hew": 5286,
    "uted": 7592,
    "Ġthistle": 21920,
    "Ġlulled": 17971,
    "folly": 20864,
    "Ġante": 17898,
    "rical": 11521,
    "Ġcrimin": 6900,
    "Ġepistle": 24905,
    "accepting": 20138,
    "Ġallev": 18103,
    "Ġfairly": 6326,
    "alliance": 22204,
    "arted": 2202,
    "Ġshrinking": 14808,
    "Ġfifty": 4625,
    "burg": 16775,
    "Ġlying": 4828,
    "Ġfierceness": 26267,
    "inence": 15484,
    "Ġpoison": 7218,
    "ortion": 11761,
    "attering": 7418,
    "Ġgales": 12670,
    "Ġstature": 10865,
    "Ġbrotherly": 16530,
    "inspect": 11561,
    "conduct": 11801,
    "phys": 18703,
    "Ġcentrally": 23834,
    "oton": 3607,
    "zes": 11551,
    "Ġgloom": 4204,
    "Ġweaver": 11691,
    "Ġwithdrawn": 10609,
    "Ġoft": 9197,
    "Ġmounttop": 19981,
    "non": 9614,
    "chant": 4260,
    "Ġbu": 3681,
    "icacy": 15662,
    "Ġmogul": 12867,
    "Ġdecanting": 22461,
    "Ġantagon": 19553,
    "Ġcolumb": 22862,
    "wherever": 13123,
    "Ġgrasp": 4665,
    "ingale": 21302,
    "preced": 10312,
    "Ġguests": 12291,
    "unt": 2042,
    "co": 2434,
    "Ġfem": 6135,
    "Ġcoarse": 14277,
    "zealand": 26048,
    "Ġsheath": 14154,
    "Ġgrimesby": 11459,
    "Ġradiance": 13375,
    "Ġpositive": 2298,
    "jonah": 11499,
    "Ġsecurity": 8980,
    "Ġ15": 9327,
    "Ġtour": 9150,
    "Ġcentury": 8291,
    "Ġproperty": 6450,
    "abounding": 25980,
    "achalot": 15867,
    "Ġmud": 11576,
    "ike": 5000,
    "Ġash": 4834,
    "ild": 1155,
    "Ġbakers": 17868,
    "Ġnavigation": 9996,
    "Ġtrading": 23080,
    "Ġ45": 14774,
    "Ġomen": 11579,
    "Ġimpelled": 11786,
    "kes": 3677,
    "Ġwhe": 439,
    "degree": 12806,
    "Ġdoomed": 11344,
    "Ġunho": 18243,
    "Ġropes": 10750,
    "Ġ25": 13198,
    "pleasures": 24050,
    "Ġunprecedented": 15858,
    "successful": 11360,
    "Ġintolerable": 8483,
    "causing": 25519,
    "Ġnearly": 3361,
    "knew": 9129,
    "exp": 2737,
    "Ġgoing": 2064,
    "Ġmeant": 3551,
    "inced": 3334,
    "Ġdisguises": 25058,
    "solute": 16600,
    "Ġrespects": 7268,
    "Ġsurvivor": 17366,
    "hall": 8085,
    "Ġbarbara": 24815,
    "Ġindiscriminately": 20630,
    "unworthy": 18164,
    "stud": 8824,
    "Ġunwarrant": 19936,
    "Ġsaucer": 20608,
    "Ġappet": 9734,
    "wal": 10136,
    "Ġweigh": 10896,
    "expression": 10550,
    "itations": 17819,
    "aping": 8194,
    "Ġwithdraw": 16966,
    "Ġhellaswag": 24343,
    "Ġprim": 8244,
    "Ġfloats": 9416,
    "miserable": 8660,
    "Ġexertions": 13414,
    "Ġcastor": 19430,
    "vered": 4832,
    "Ġsubterraneous": 20268,
    "Ġsuppl": 11080,
    "sweep": 24618,
    "9": 29,
    "Ġmacey": 12568,
    "Ġleaks": 16448,
    "Ġpiled": 8426,
    "Ġcreative": 9833,
    "meadow": 18680,
    "Ġward": 10158,
    "with": 1297,
    "oky": 8199,
    "gent": 7130,
    "Ġblaming": 22933,
    "Ġumbrella": 15269,
    "bits": 17491,
    "whar": 15931,
    "bling": 10685,
    "Ġcode": 1719,
    "Ġrecommence": 16814,
    "brill": 16493,
    "Ġcompanion": 3643,
    "midnight": 14905,
    "rapt": 13976,
    "libr": 22926,
    "arthly": 8030,
    "Ġgidd": 25784,
    "Ġredeemed": 25790,
    "Ġattached": 5392,
    "Ġexclusiveness": 23931,
    "Ġsomething": 1793,
    "Ġsinusoidal": 4802,
    "Ġholidays": 22925,
    "whips": 22242,
    "executed": 25740,
    "Ġtreacherously": 25132,
    "Ġobviously": 16812,
    "difficult": 10061,
    "Ġpanther": 16821,
    "Ġperformed": 8548,
    "Ġlowered": 6736,
    "Ġopulent": 23630,
    "Ġdidn": 4366,
    "Ġmasses": 10506,
    "Ġloom": 7628,
    "oubtedly": 6942,
    "Ġfullest": 14817,
    "Ġspine": 7406,
    "Ġmild": 4148,
    "reserve": 17767,
    "Ġgrotes": 19566,
    "heaven": 8053,
    "crew": 7543,
    "Ġagreeing": 20022,
    "Ġbrack": 23838,
    "ffic": 22155,
    "Ġfoundations": 11075,
    "recl": 15513,
    "Ġloads": 22118,
    "table": 5795,
    "Ġpersonified": 19180,
    "already": 6980,
    "Ġnoses": 18374,
    "conspicuous": 26249,
    "yond": 2330,
    "ashions": 16421,
    "Ġtree": 5285,
    "Ġfinish": 7949,
    "Ġlimb": 9405,
    "Ġaudits": 24769,
    "Ġstreet": 2955,
    "Ġstreatham": 17452,
    "Ġmoved": 4841,
    "Ġcounterbalance": 24721,
    "Ġmun": 12567,
    "dashing": 20838,
    "Ġvery": 636,
    "flung": 16641,
    "ushes": 22295,
    "æ": 167,
    "udg": 22757,
    "Ġsperma": 19047,
    "Ġreplace": 14478,
    "Ġconnecting": 18634,
    "Ġpitiless": 19391,
    "Ġply": 21456,
    "Ġengravings": 15069,
    "Ġbrow": 3990,
    "Ġwag": 10777,
    "Ġovertaken": 18430,
    "Ġeldest": 6572,
    "Ġintroduced": 7690,
    "Ġcool": 5734,
    "Ġloitered": 26527,
    "Ġvide": 10253,
    "Ġtinged": 20086,
    "Ġperceived": 4715,
    "Ġwilds": 16511,
    "]": 65,
    "amplified": 26496,
    "Ġactionable": 24560,
    "Ġancest": 12619,
    "gives": 15361,
    "networks": 2406,
    "Ġstooping": 13067,
    "orton": 11760,
    "Ġsunday": 7269,
    "arthy": 4824,
    "Ġmomentous": 16175,
    "omited": 21644,
    "miraculous": 26398,
    "Ġgoin": 18469,
    "Ġnewfoundland": 26571,
    "Ġdrawback": 23993,
    "Ġdistributes": 4197,
    "Ġstray": 18072,
    "Ġeye": 2282,
    "Ġdisgusting": 19896,
    "Ġoftener": 13569,
    "ust": 495,
    "ning": 949,
    "Ġremarks": 7472,
    "Ġshining": 8172,
    "Ġtusks": 17256,
    "pitching": 24080,
    "Ġincognita": 26553,
    "study": 15121,
    "Ġwed": 7574,
    "Ġsuspicion": 6212,
    "Ġsoliloquized": 17305,
    "Ġoily": 13867,
    "bation": 9106,
    "Ġlysander": 13143,
    "tal": 17672,
    "Ġsouth": 4912,
    "Ġceaseless": 13492,
    "Ġsheeted": 19834,
    "Ġdoubly": 16389,
    "Ġtranquil": 7309,
    "scream": 11078,
    "Ġcolleg": 22861,
    "hopeless": 16919,
    "Ġfreezing": 23885,
    "Ġabused": 22273,
    "oso": 12835,
    "Ġgrounds": 6750,
    "Ġdistrustful": 25057,
    "Ġdisadvantages": 18559,
    "Ġbattering": 13904,
    "Ġdisgusted": 14993,
    "final": 19679,
    "Ġpoetical": 25059,
    "displayed": 20738,
    "Ġtrif": 6270,
    "Ġgpt": 4354,
    "Ġtransitory": 16022,
    "reading": 12084,
    "iving": 1724,
    "Ġquito": 24408,
    "loath": 22512,
    "avery": 13687,
    "Ġshrill": 12146,
    "Ġwhereon": 16105,
    "Ġconfirming": 25322,
    "Ġstag": 6149,
    "Ġpane": 21466,
    "accurately": 25862,
    "Ġstim": 18066,
    "Ġendure": 5956,
    "affairs": 14658,
    "hav": 20899,
    "usiveness": 22297,
    "repid": 11567,
    "Ġshamefully": 24715,
    "Ġtang": 13817,
    "Ġtable": 2498,
    "isco": 12586,
    "Ġwarmup": 3924,
    "Ġjoker": 22302,
    "justified": 19004,
    "Ġspar": 10923,
    "Ġarduous": 26531,
    "opinion": 10986,
    "Ġhur": 2098,
    "Ġmiracle": 15097,
    "russian": 22183,
    "threatened": 25463,
    "Ġdiversity": 25285,
    "Ġcomposure": 7216,
    "Ġtying": 15476,
    "either": 6791,
    "regular": 3038,
    "something": 4287,
    "Ġtemper": 955,
    "Ġpages": 15612,
    "pense": 10371,
    "ality": 2511,
    "jets": 20930,
    "Ġconjugal": 25104,
    "Ġannouncing": 16756,
    "proportion": 16186,
    "shrugged": 22454,
    "Ġcogent": 14276,
    "league": 17846,
    "Ġflush": 14427,
    "Ġaggregate": 25678,
    "Ġzeal": 9101,
    "Ġcontentment": 14873,
    "wic": 21123,
    "Ġbelted": 22951,
    "wonders": 17146,
    "lingering": 18602,
    "elijah": 19476,
    "atious": 10154,
    "Ġhier": 1896,
    "Ġoverfitting": 1540,
    "Ġstop": 2500,
    "Ġexpense": 7651,
    "Ġerrors": 2597,
    "Ġexile": 12722,
    "Ġmumbling": 11577,
    "Ġrenowned": 26195,
    "Ġtotally": 9474,
    "feared": 11806,
    "Ġproportional": 2524,
    "Ġestab": 6316,
    "fi": 12466,
    "Ġdigesting": 19812,
    "Ġscrut": 15949,
    "Ġclosing": 11776,
    "Ġconquest": 15752,
    "Ġsharing": 3477,
    "Ġrelics": 16199,
    "Ġindoors": 18838,
    "particular": 5757,
    "Ġglorious": 11077,
    "phew": 6368,
    "extinguished": 16153,
    "Ġgardiners": 11159,
    "Ġy": 341,
    "Ġjost": 23632,
    "Ġindistinct": 17411,
    "Ġstrip": 9424,
    "places": 7879,
    "aloons": 20014,
    "Ġinvolving": 18764,
    "alous": 7371,
    "Ġharpooned": 13265,
    "Ġperpet": 7644,
    "Ġfreshly": 23990,
    "Ġpea": 14320,
    "ru": 478,
    "Ġshrink": 14807,
    "Ġcourting": 23293,
    "woman": 5899,
    "bar": 7540,
    "objects": 13474,
    "Ġconquered": 14029,
    "insist": 23066,
    "sper": 4438,
    "paws": 21031,
    "Ġpovels": 22595,
    "chat": 21689,
    "Ġannoyance": 20664,
    "outward": 22164,
    "Ġretention": 23073,
    "Ġcape": 5146,
    "Ġlangs": 13957,
    "Ġxl": 11994,
    "Ġactually": 5389,
    "ourselves": 9014,
    "dle": 3303,
    "Ġlonged": 6436,
    "Ġconfining": 23307,
    "Ġviolent": 5117,
    "Ġincensed": 18572,
    "Ġvagabond": 20206,
    "Ġaccepted": 7750,
    "sincerely": 24585,
    "icorn": 15661,
    "unning": 4496,
    "þ": 191,
    "Ġarrived": 3746,
    "Ġsod": 11564,
    "Ġsuppressing": 23004,
    "neighbourhood": 10028,
    "abiding": 21797,
    "owe": 15712,
    "Ġacqu": 1417,
    "Ġbrick": 8929,
    "repeat": 25155,
    "Ġhotel": 8654,
    "Ġpractised": 23326,
    "irst": 878,
    "Ġmuchness": 18707,
    "Ġpolynes": 16083,
    "ditch": 17530,
    "Ġdisse": 18549,
    "Ġoverlapping": 26240,
    "Ġpartner": 6715,
    "Ġparchment": 13656,
    "decided": 13219,
    "Ġtrying": 4840,
    "Ġunhallowed": 17183,
    "Ġprejudices": 13473,
    "Ġtests": 8960,
    "Ġ55": 24319,
    "spades": 14335,
    "Ġeffort": 8205,
    "forget": 11034,
    "Ġvertu": 23892,
    "Ġrides": 21975,
    "late": 11501,
    "Ġscarcely": 4010,
    "virtue": 20572,
    "Ġjutting": 22305,
    "Ġimpossible": 3544,
    "arcy": 1273,
    "ierce": 14394,
    "gam": 10098,
    "ibbald": 18849,
    "Ġpoising": 22594,
    "Ġkiss": 8183,
    "regards": 23468,
    "Ġlegible": 23537,
    "iscre": 17852,
    "mency": 18928,
    "freighted": 14895,
    "esteemed": 26010,
    "Ġfrock": 10492,
    "vulgar": 25919,
    "Ġhappy": 2466,
    "Ġrepl": 1594,
    "Ġpitched": 9447,
    "ivation": 3105,
    "quered": 11058,
    "melted": 25207,
    "ignomin": 23269,
    "nor": 2741,
    "Ġdining": 6977,
    "Ġdifficult": 3572,
    "Ġimpatient": 5603,
    "Ġnaturalist": 22894,
    "Ġforbearing": 25101,
    "Ġsailors": 4279,
    "putting": 14103,
    "inous": 8776,
    "alarm": 15631,
    "Ġexquisite": 12386,
    "modesty": 22856,
    "therly": 18347,
    "professional": 20278,
    "holland": 24045,
    "Ġact": 691,
    "Ġagitated": 7647,
    "Ġserve": 9371,
    "Ġha": 400,
    "Ġprovocation": 24194,
    "Ġinno": 1487,
    "Ġcarrying": 6072,
    "Ġunsounded": 15853,
    "Ġrichest": 26213,
    "pier": 17637,
    "Ġeat": 4645,
    "Ġskin": 5038,
    "Ġattitudes": 16100,
    "smitten": 23912,
    "Ġloath": 7891,
    "Ġcod": 8413,
    "Ġmagnanim": 14475,
    "Ġhopes": 4236,
    "Ġfiery": 6870,
    "flames": 14715,
    "Ġtopmost": 14589,
    "lik": 3918,
    "nikin": 23247,
    "aution": 9391,
    "Ġhysterics": 26094,
    "15": 12434,
    "drawing": 10489,
    "ev": 6951,
    "Ġcredit": 4820,
    "Ġwiping": 25766,
    "Ġreflect": 6576,
    "ellig": 525,
    "ounts": 4653,
    "Ġtoilet": 13940,
    "Ġpreparations": 12314,
    "Ġunnear": 22028,
    "Ġsole": 3295,
    "Ġobserving": 6080,
    "buckets": 26124,
    "Ġeclips": 20699,
    "jac": 8382,
    "Ġaccountability": 10440,
    "Ġriot": 14690,
    "Ġspell": 8859,
    "Ġgases": 21605,
    "ely": 624,
    "Ġsermons": 20197,
    "Ġprovinces": 24193,
    "Ġvishnoo": 12758,
    "Ġgripping": 26188,
    "Ġmetropolis": 17277,
    "Ġincommun": 25309,
    "Ġneedn": 19231,
    "Ġchina": 8040,
    "Ġcapricious": 20541,
    "Ġtumbling": 13828,
    "Ġquest": 2000,
    "Ġequ": 1733,
    "pus": 3415,
    "Ġdisorder": 16055,
    "problems": 11436,
    "Ġachieves": 4383,
    "Ġlace": 13952,
    "uniform": 18160,
    "utored": 15667,
    "Ġmood": 6277,
    "Ġescorted": 23510,
    "uy": 21102,
    "Ġsolace": 16203,
    "Ġswish": 23056,
    "Ġtypes": 8939,
    "Ġlig": 21551,
    "complet": 11385,
    "interruption": 20115,
    "Ġconducting": 16652,
    "Ġmisgivings": 15294,
    "Ġcapital": 7980,
    "magn": 10613,
    "angled": 6843,
    "Ġparish": 8858,
    "penn": 18828,
    "Ġdetest": 8502,
    "mentioned": 10626,
    "Ġupdate": 2464,
    "Ġmoses": 21318,
    "Ġtobacc": 7853,
    "Ġmuttered": 7087,
    "themselves": 6541,
    "Ġdomineer": 23651,
    "Ġsteeply": 23726,
    "Ġpertaining": 18451,
    "reference": 13843,
    "Ġsimon": 5172,
    "pre": 650,
    "Ġbind": 12587,
    "ommod": 13980,
    "yp": 1043,
    "Ġfears": 5729,
    "refusal": 24735,
    "uber": 15448,
    "penetrate": 20327,
    "sweetly": 25137,
    "ilight": 12698,
    "Ġconvenient": 8346,
    "ility": 622,
    "Ġdated": 10941,
    "Ġinwards": 15625,
    "Ġnailed": 10192,
    "france": 24284,
    "culiar": 2819,
    "Ġarithmetic": 18341,
    "Ġcompiled": 22574,
    "Ġexactly": 2767,
    "Ġcompl": 3759,
    "Ġcruelty": 9972,
    "Ġmountainous": 16601,
    "Ġwhims": 12697,
    "Ġminority": 18754,
    "atching": 8202,
    "Ġdiscomp": 11870,
    "leton": 5148,
    "Ġmechanically": 14401,
    "string": 15690,
    "contriv": 19295,
    "Ġparasol": 22125,
    "Ġindulged": 13421,
    "Ġwritten": 4170,
    "rict": 8093,
    "Ġunwinding": 22060,
    "Ġpairs": 4184,
    "Ġhorr": 3186,
    "Ġfreely": 7057,
    "Ġfake": 5811,
    "Ġstrove": 9960,
    "Ġxxxii": 24973,
    "Ġobjection": 6586,
    "vain": 15450,
    "cup": 10694,
    "asper": 7855,
    "ounce": 6558,
    "feature": 3971,
    "Ġinclination": 6625,
    "Ġremark": 2144,
    "Ġxerxes": 23414,
    "Ġtobacco": 8367,
    "Ġleviathans": 8282,
    "Ġdirections": 1971,
    "Ġburgled": 23658,
    "Ġregards": 16081,
    "Ġimmensities": 25331,
    "Ġbol": 6242,
    "ognit": 19184,
    "Ġadequ": 10915,
    "Ġappetites": 20209,
    "Ġprophesy": 26062,
    "obvious": 9360,
    "wins": 21132,
    "Ġcontract": 18476,
    "Ġlodgings": 8312,
    "Ġslain": 8956,
    "Ġconsideration": 5191,
    "Ġwhilst": 9221,
    "Ġmarch": 4083,
    "Ġexasperated": 11414,
    "Ġflip": 11916,
    "Ġspence": 22130,
    "Ġlads": 8601,
    "Ġregularizer": 2339,
    "algorith": 3375,
    "Ġsustenance": 19937,
    "Ġgover": 2462,
    "Ġfleet": 9435,
    "ster": 1952,
    "weigh": 18666,
    "Ġnantucketers": 9898,
    "Ġharris": 13930,
    "Ġsheaves": 22162,
    "onze": 21258,
    "ignified": 14492,
    "Ġram": 11014,
    "Ġceremonious": 24838,
    "Ġ1000": 3112,
    "Ě": 219,
    "Ġdupl": 9957,
    "dington": 12070,
    "Ġreason": 1391,
    "Ġarabian": 9093,
    "Ġfurn": 3709,
    "Ġtwo": 1041,
    "castles": 14638,
    "Ġsuccessful": 9926,
    "Ġordering": 18998,
    "Ġattitude": 8907,
    "grey": 14915,
    "Ġnoises": 18375,
    "unity": 4153,
    "kick": 20938,
    "Ġbarred": 9005,
    "Ġcircumference": 13548,
    "Ġingenuity": 17166,
    "igantic": 5539,
    "Ġmisunderstood": 18706,
    "Ġcows": 15557,
    "Ġref": 926,
    "Ġsignal": 5945,
    "Ġprov": 4404,
    "Ġintens": 7003,
    "nav": 17613,
    "Ġburn": 3682,
    "Ġcannib": 6036,
    "rived": 5373,
    "Ġ81": 24457,
    "Ġvolume": 6769,
    "Ġtrucks": 19515,
    "Ġimprobable": 9796,
    "Ġbillow": 14784,
    "ship": 1389,
    "Ġwell": 900,
    "ce": 313,
    "Ġxxxix": 24971,
    "emph": 21932,
    "Ġardu": 22187,
    "ees": 13714,
    "Ġuttering": 16464,
    "Ġsongs": 13424,
    "ancholy": 5070,
    "astonishment": 10033,
    "Ġcharging": 23270,
    "kovoko": 20672,
    "Ġtwinkling": 12328,
    "du": 604,
    "gabriel": 15364,
    "Ġchronic": 9932,
    "Ġtiger": 11557,
    "Ġconstantinople": 19840,
    "Ġmaddened": 17246,
    "Ġcovered": 5171,
    "Ġruin": 6056,
    "osely": 9268,
    "Ġexempt": 21832,
    "Ġpalpitated": 26086,
    "knife": 6941,
    "Ġunknown": 4456,
    "Ġundo": 15844,
    "Ġintensely": 17019,
    "enderby": 25216,
    "Ġespe": 21158,
    "jewell": 25524,
    "strils": 10460,
    "gain": 8740,
    "mor": 4217,
    "altogether": 12644,
    "hor": 2571,
    "exasper": 22431,
    "Ġmoney": 3418,
    "Ġbustle": 17230,
    "Ġsixteen": 8283,
    "Ġalex": 15137,
    "Ġwearer": 21927,
    "Ġamazed": 14892,
    "icial": 12660,
    "Ġportents": 14681,
    "Ġpenn": 11113,
    "Ġrec": 890,
    "Ġsleeping": 6320,
    "ahawk": 23317,
    "Ġalacrity": 15741,
    "acher": 6867,
    "Ġconscious": 7743,
    "asting": 12812,
    "Ġtreat": 3172,
    "Ġornaments": 17455,
    "Ġexterm": 21833,
    "Ġaudio": 24771,
    "Ġdyspeps": 16498,
    "Ġgifted": 17999,
    "Ġenergetic": 15201,
    "Ġcomprised": 14270,
    "Ġdisquis": 22531,
    "Ġcrouched": 23442,
    "Ġtechn": 9372,
    "xi": 17712,
    "icil": 17974,
    "oard": 4810,
    "onsensical": 18577,
    "verse": 9691,
    "Ġdismal": 11814,
    "Ġslop": 23165,
    "necessary": 5882,
    "Ġgrew": 5182,
    "Ġsymbol": 7716,
    "Ġpoor": 1708,
    "chance": 6826,
    "Ġcolumn": 9331,
    "Ġlondon": 2837,
    "Ġsprout": 24093,
    "Ġgermany": 25786,
    "iastic": 12484,
    "leman": 21371,
    "Ġcoronet": 6345,
    "prick": 19346,
    "Ġheadstrong": 14391,
    "Ġniece": 5712,
    "band": 3055,
    "Ġworker": 23042,
    "Ġwired": 17788,
    "Ġuninterrupted": 22046,
    "Ġelbow": 12926,
    "Ġadagrad": 2902,
    "shell": 16290,
    "decan": 22145,
    "Ġsudden": 1998,
    "Ġcoff": 3508,
    "Ġhyp": 3873,
    "belief": 13286,
    "Ġinconven": 7586,
    "tish": 17679,
    "Ġsurf": 19133,
    "Ġregret": 5561,
    "Ġdrawling": 19440,
    "Ġfeatureless": 22615,
    "Ġwelded": 9574,
    "nns": 1895,
    "feit": 16046,
    "Ġmachines": 1776,
    "iform": 2201,
    "Ġsutherland": 10151,
    "Ġravines": 25833,
    "Ġclams": 19992,
    "pens": 17634,
    "_,âĢĻ": 12437,
    "Ġcrackling": 24961,
    "Ġmagnifying": 16323,
    "Ġgem": 21597,
    "Ġartfully": 22614,
    "fearfully": 25119,
    "unnecessary": 21884,
    "promising": 24725,
    "Ġmodest": 15922,
    "Ġtrembling": 7480,
    "Ġproceeding": 9909,
    "Ġclad": 12844,
    "Ġshadowed": 24049,
    "Ġcatches": 23430,
    "Ġbedrooms": 19973,
    "wantonly": 25153,
    "Ġsleeve": 20143,
    "Ġrecommending": 24333,
    "ames": 2951,
    "Ġcompressed": 21854,
    "Ġadventure": 5981,
    "Ġsensitiveness": 23737,
    "Ġchimer": 24603,
    "Ġactual": 3737,
    "servants": 15040,
    "Ġcommanded": 6331,
    "Ġsignificance": 13285,
    "Ġstamp": 7864,
    "Ġsoft": 1457,
    "bers": 2570,
    "Ġgovern": 10452,
    "raged": 9214,
    "Ġheav": 1850,
    "Ġuneasiness": 9487,
    "Ġhieroglyph": 11975,
    "ivered": 7006,
    "Ġensemble": 1610,
    "Ġagony": 5388,
    "Ġdiscoverer": 26036,
    "Ġchoosing": 19593,
    "Ġextort": 22754,
    "Ġpremature": 3725,
    "Ġproducing": 11903,
    "Ġthirty": 4944,
    "reclining": 20577,
    "Ġriding": 14097,
    "stirring": 20429,
    "Ġyours": 4125,
    "Ġtruly": 4797,
    "continually": 11304,
    "Ġforeshadowing": 26594,
    "Ġhighway": 14351,
    "Ġpacket": 14896,
    "Ġsavesoul": 26230,
    "broad": 8646,
    "Ġfair": 2835,
    "detective": 24383,
    "Ġdistressed": 8516,
    "ator": 1924,
    "Ġmercenary": 17196,
    "Ġhappiest": 11886,
    "Ġident": 2241,
    "Ġindelicacy": 25696,
    "Ġvoices": 7876,
    "oried": 10804,
    "description": 11096,
    "ase": 1161,
    "pig": 8756,
    "Ġdilatory": 24704,
    "Ġcrimson": 16440,
    "Ġundertake": 14482,
    "Ġhardships": 14454,
    "Ġaries": 21200,
    "stri": 6250,
    "Ġminimize": 7051,
    "satisfactory": 16895,
    "axed": 8892,
    "¤": 102,
    "Ġlangsdorff": 15280,
    "Ġbeef": 6829,
    "oro": 21398,
    "Ġloomed": 12305,
    "Ġvigorously": 11301,
    "dreams": 12341,
    "Ġlull": 15655,
    "uated": 10134,
    "Ġincred": 5646,
    "readily": 19365,
    "Ġstow": 21734,
    "Ġaccounts": 7207,
    "Ġbrimstone": 25687,
    "ý": 190,
    "Ġpicking": 11261,
    "likewise": 13109,
    "Ġbreed": 19075,
    "Ġbrother": 2748,
    "Ġallude": 12785,
    "Ġjustify": 11074,
    "Ġdomestic": 6909,
    "Ġpupp": 10822,
    "cain": 15329,
    "silenced": 24423,
    "Ġgovernor": 16492,
    "Ġirritation": 20269,
    "gus": 13728,
    "Ġmist": 2875,
    "underneath": 23790,
    "Ġinsult": 6748,
    "mounting": 25208,
    "Ġconsisted": 10421,
    "ture": 7557,
    "Ġbutts": 15859,
    "hement": 13835,
    "Ġtransient": 18482,
    "peddling": 21034,
    "Ġofficial": 7082,
    "oft": 3591,
    "Ġsavages": 9915,
    "binder": 17502,
    "Ġascribed": 14858,
    "Ġascribe": 16784,
    "jud": 4484,
    "art": 589,
    "equal": 14996,
    "Ġtouches": 20573,
    "Ġpluck": 15618,
    "ties": 2758,
    "contin": 16544,
    "Ġdiminished": 16668,
    "Ġmysteries": 11324,
    "intense": 22939,
    "Ġmissionary": 25697,
    "catch": 17509,
    "Ġcanes": 22173,
    "Ġparticle": 18672,
    "Ġadjusting": 3413,
    "Ġconclusions": 10556,
    "Ġlone": 11616,
    "sius": 13791,
    "wholly": 10943,
    "loaded": 22515,
    "Ġmonstr": 7667,
    "horn": 8086,
    "Ġvowed": 14087,
    "concerted": 16674,
    "Ġaccelerate": 23229,
    "Ġscant": 22284,
    "Ġdraw": 3670,
    "sho": 6425,
    "Ġbreath": 4792,
    "Ġ67": 19663,
    "miss": 3170,
    "philosop": 9570,
    "infallibly": 26419,
    "Ġlap": 8438,
    "Ġeffeminacy": 20720,
    "Ġfight": 5366,
    "Ġdrowsy": 26446,
    "Ġcircumnavigation": 20403,
    "ohn": 4563,
    "Ġproceed": 3240,
    "linging": 16082,
    "Ġdec": 642,
    "orable": 8120,
    "Ġportly": 14680,
    "loving": 18539,
    "Ġsurvivors": 25732,
    "itching": 21338,
    "acks": 11792,
    "infliction": 25925,
    "Ġcontrols": 1731,
    "sig": 2873,
    "Ġhoney": 12637,
    "Ġindian": 4132,
    "Ġreleased": 2974,
    "Ġhom": 9189,
    "Ġtennes": 23552,
    "}": 97,
    "Ġunfaltering": 24115,
    "separately": 25228,
    "Ġpensive": 21478,
    "network": 1852,
    "Ġeyelids": 26108,
    "Ġfads": 21419,
    "ctuous": 9208,
    "descend": 23088,
    "yours": 7694,
    "Ġextract": 1598,
    "Ġcounsell": 25385,
    "absolut": 8460,
    "Ġtouch": 3396,
    "Ġfollies": 16259,
    "big": 13689,
    "enary": 12556,
    "Ġturkey": 19221,
    "Ġchain": 1843,
    "onom": 9161,
    "Ġexceeded": 14436,
    "Ġblu": 2688,
    "Ġwhat": 598,
    "Ġsit": 4218,
    "Ġimbecile": 17394,
    "import": 5668,
    "Ġchas": 18380,
    "lacing": 17592,
    "Ġimplore": 24872,
    "opes": 10313,
    "develop": 13521,
    "Ġwashes": 21865,
    "Ġbeat": 4494,
    "Ġcruising": 6912,
    "Ġwow": 15532,
    "Ġdesire": 3716,
    "ut": 308,
    "rasing": 21048,
    "Ġlecture": 13571,
    "Ġincisive": 18571,
    "Ġlocker": 16913,
    "was": 1423,
    "Ġdragg": 23215,
    "official": 24915,
    "hens": 3940,
    "Ġembeddings": 2156,
    "Ġcro": 4874,
    "Ġexpressed": 4470,
    "aint": 2541,
    "Ġdeb": 4765,
    "arrant": 10476,
    "Ġtall": 4039,
    "aciously": 12912,
    "Ġcommend": 10337,
    "Ġpositively": 13036,
    "Ġthrew": 3976,
    "ure": 356,
    "Ġsquint": 22839,
    "Ġsecond": 1883,
    "ashion": 3860,
    "Ġintric": 9249,
    "occ": 4487,
    "Ġinboard": 17935,
    "Ġscript": 18399,
    "Ġj": 533,
    "Ġabandoned": 8352,
    "Ġelder": 7223,
    "Ġvineyarder": 25607,
    "aways": 15314,
    "Ġgar": 10840,
    "change": 6392,
    "Ġrearing": 12682,
    "Ġfare": 5810,
    "onse": 21252,
    "insulting": 26056,
    "Ġpound": 12621,
    "hidden": 17374,
    "isol": 17848,
    "Ġdodging": 19889,
    "ĠĠĠĠĠĠĠĠĠĠĠĠĠĠĠĠĠĠĠĠĠĠĠĠĠĠĠĠĠĠĠĠ": 2738,
    "apart": 15965,
    "hack": 20898,
    "blister": 24130,
    "merchant": 10469,
    "Ġabstained": 25232,
    "arrangement": 17418,
    "keeper": 5597,
    "hyp": 15370,
    "oat": 13767,
    "isance": 17849,
    "abhor": 12712,
    "Ġcell": 6238,
    "Ġunfolding": 17087,
    "Ġindisp": 18836,
    "estim": 14172,
    "Ġcharted": 22254,
    "Ġincoherent": 17403,
    "Ġjoppa": 12041,
    "Ġrespectful": 16349,
    "fts": 18695,
    "overed": 2851,
    "stad": 7597,
    "Ġconsecutive": 20705,
    "anke": 15565,
    "tin": 6117,
    "phur": 16154,
    "Ġwinking": 17795,
    "Ġresentment": 7529,
    "mody": 16188,
    "wich": 11546,
    "furn": 10094,
    "visible": 10536,
    "twill": 21077,
    "indef": 17737,
    "Ġtuesday": 9629,
    "Ġbackpropagation": 1264,
    "Ġfrom": 434,
    "Ġfavourable": 7959,
    "Ġwharf": 9562,
    "animate": 12582,
    "Ġesteemed": 10591,
    "shipping": 10310,
    "Ġinsanity": 12051,
    "Ġmaty": 22914,
    "Ġkelson": 18351,
    "Ġgrimes": 11036,
    "Ġhempen": 13554,
    "Ġjohnson": 18410,
    "Ġtongs": 9964,
    "Ġgraces": 18226,
    "tomb": 21096,
    "Ġbread": 5404,
    "Ġhandspikes": 12943,
    "iners": 4937,
    "Ġgoodness": 6059,
    "Ġben": 1108,
    "Ġperiodically": 19497,
    "Ġspleen": 26423,
    "Ġenthusiasm": 8065,
    "Ġling": 7376,
    "ificial": 611,
    "Ġdisplay": 6428,
    "Ġhour": 1810,
    "liv": 9610,
    "Ġimmemorial": 10513,
    "Ġvulgarity": 25364,
    "Ġcoat": 4556,
    "read": 3273,
    "Ġchocks": 13350,
    "Ġthr": 5709,
    "Ġtep": 21164,
    "Ġdeclares": 16994,
    "Ġbehaviour": 4388,
    "Ġhaunted": 10256,
    "fainting": 20476,
    "idy": 21768,
    "abb": 15743,
    "Ġguido": 2973,
    "Ġgenial": 12199,
    "arrested": 15605,
    "chester": 23808,
    "grateful": 10430,
    "Ġspeechless": 13358,
    "every": 2810,
    "Ġtrades": 8232,
    "orphans": 26442,
    "Ġaversion": 18867,
    "Ġaugment": 8695,
    "Ġcomely": 21852,
    "umed": 6555,
    "Ġdesp": 3211,
    "apparently": 15208,
    "mortals": 25410,
    "Ġduplicate": 17218,
    "Ġmont": 8561,
    "Ġreserved": 7514,
    "amp": 2607,
    "Ġledgers": 23941,
    "Ġcoppers": 22586,
    "Ġpresumably": 19627,
    "Ġorphans": 20207,
    "Ġboundary": 11224,
    "tically": 3393,
    "ula": 2824,
    "Ġlikeness": 11181,
    "Ġnewly": 9341,
    "Ġabhorrence": 9055,
    "Ġgriefs": 16773,
    "awk": 23116,
    "Ġstony": 21743,
    "Ġconception": 10316,
    "Ġscandal": 9084,
    "Ġinflamed": 13477,
    "Ġdetect": 1219,
    "Ġprotect": 6338,
    "Ġwithdrew": 9699,
    "Ġregions": 10326,
    "distance": 12157,
    "Ġcomprehens": 8320,
    "Ġvest": 8163,
    "quest": 4540,
    "Ġopium": 8998,
    "Ġcorrespondent": 19825,
    "Ġtresses": 21178,
    "wart": 17707,
    "Ġploughing": 26261,
    "imes": 1301,
    "impatient": 13644,
    "limin": 8384,
    "probable": 17023,
    "Ġcoffee": 6760,
    "Ġque": 4160,
    "Ġaloysius": 15742,
    "nobody": 16151,
    "Ġfollows": 7672,
    "Ġcling": 11775,
    "Ġcommands": 16591,
    "Ġexceeding": 1583,
    "bourne": 19104,
    "fes": 20853,
    "ivided": 22088,
    "Ġtribes": 20484,
    "turn": 4294,
    "Ġcarpet": 9359,
    "Ġspl": 2980,
    "women": 15459,
    "usage": 12838,
    "gings": 7548,
    "Ġsm": 704,
    "quadr": 15768,
    "misery": 13348,
    "urmount": 13999,
    "roused": 16655,
    "Ġjackal": 24242,
    "ĠĠĠĠĠĠĠĠĠĠĠĠĠĠĠĠĠĠĠĠĠĠĠĠĠĠĠĠĠĠĠĠĠĠĠĠĠĠĠĠĠĠĠĠĠĠĠ": 16757,
    "Ġfourteen": 12014,
    "appro": 7045,
    "Ġcottagers": 6761,
    "Ġtaught": 6803,
    "Ġgleamed": 17078,
    "Ġreflections": 5947,
    "proceeding": 20144,
    "unerative": 21900,
    "surv": 24216,
    "osition": 1373,
    "sou": 12510,
    "Ġnoblest": 13246,
    "Ġdropping": 7482,
    "Ġleft": 1760,
    "Ġexpressions": 7705,
    "Ġfurlongs": 20725,
    "Ġwolfish": 25936,
    "Ġhaste": 9006,
    "Ġeducated": 16787,
    "especially": 3573,
    "Ġwager": 17794,
    "ics": 3254,
    "Ġcontribute": 12866,
    "skirted": 24489,
    "Ġcomprising": 16072,
    "Ġrom": 4527,
    "Ġdes": 1249,
    "Ġforty": 5719,
    "jam": 15375,
    "Ġcorresponding": 13442,
    "nect": 663,
    "ell": 398,
    "Ġev": 4830,
    "iously": 2677,
    "Ġbeginning": 4245,
    "driven": 19774,
    "ro": 301,
    "_).âĢĶ": 8685,
    "Ġimpress": 6860,
    "inated": 6804,
    "Ġremarkable": 4916,
    "Ġinspire": 12000,
    "Ġdiffident": 23785,
    "Ġdrily": 23543,
    "longbourn": 9899,
    "Ġpipes": 9852,
    "pled": 7892,
    "Ġmanx": 7905,
    "expense": 22433,
    "Ġforced": 4356,
    "Ġemac": 16411,
    "piece": 6657,
    "Ġtransported": 11281,
    "oline": 6833,
    "Ġflexible": 23777,
    "Ġlimp": 19182,
    "craft": 12251,
    "Ġcanada": 22175,
    "Ġashamed": 6403,
    "Ġbeale": 12704,
    "Ġwarming": 23560,
    "ptember": 10895,
    "Ġcivility": 4789,
    "Ġdens": 21427,
    "ine": 406,
    "clinging": 20824,
    "teness": 23207,
    "Ġstates": 1851,
    "eds": 6530,
    "Ġgeological": 14535,
    "Ġgreece": 17070,
    "Ġrepositories": 23367,
    "Ġcompact": 2263,
    "Ġapplying": 13096,
    "secret": 12241,
    "Ġcasks": 7520,
    "Ġdespond": 14670,
    "Ġannounced": 9037,
    "Ġfoolscap": 24161,
    "Ġheightens": 24157,
    "mselves": 2861,
    "Ġsurm": 7475,
    "poises": 11893,
    "Ġnavy": 14919,
    "Ġsame": 1341,
    "Ġperched": 10302,
    "ips": 2593,
    "revolver": 25628,
    "ocation": 14628,
    "Ġplun": 6282,
    "Ġshowing": 7731,
    "Ġcab": 2633,
    "Ġspears": 12929,
    "Ġfamed": 16329,
    "slowly": 9092,
    "chapter": 1403,
    "Ġpaddled": 20204,
    "Ġirresolute": 24917,
    "iem": 20919,
    "Ġashes": 7616,
    "Ġpromontory": 11945,
    "Ġdeception": 18145,
    "shall": 4552,
    "Ġtraversed": 18895,
    "vo": 11542,
    "surf": 24215,
    "Ġdepending": 14302,
    "urre": 10858,
    "Ġchrist": 4074,
    "ribbed": 16416,
    "Ġconflagration": 26366,
    "vocabulary": 25088,
    "sold": 15429,
    "Ġafter": 870,
    "Ġoccupied": 5273,
    "t": 88,
    "Ġpeasants": 12336,
    "Ġwavering": 23282,
    "greeting": 24554,
    "Ġworshipping": 22931,
    "Ġstepped": 7052,
    "._]]": 5335,
    "Ġdecomp": 3811,
    "Ġawful": 6200,
    "Ġbackground": 18650,
    "Ġceleb": 20228,
    "Ġinterval": 4054,
    "Ġsalvation": 14760,
    "Ġnuptial": 25783,
    "Ġjonah": 3481,
    "uits": 21107,
    "Ġreducing": 1958,
    "Ġstock": 7454,
    "Ġintervened": 25482,
    "need": 10985,
    "Ġsour": 21219,
    "Ġloosened": 26003,
    "pleasanter": 24051,
    "Ġmotives": 7485,
    "400": 20757,
    "inserted": 18890,
    "married": 9952,
    "Ġchanc": 18385,
    "Ġgreenland": 5761,
    "Ġgamming": 25543,
    "Ġshops": 22005,
    "Ġchurchyard": 16779,
    "Ġperem": 12937,
    "ean": 20842,
    "Ġalbino": 20506,
    "fabulous": 20477,
    "Ġcretan": 22729,
    "Ġextend": 18697,
    "Ġdoze": 14179,
    "Ġisn": 7866,
    "Ġunkindness": 22042,
    "Ġem": 1925,
    "Ġswings": 11088,
    "Ġtragedy": 10670,
    "wonder": 6371,
    "create": 24162,
    "Ġascending": 14857,
    "Ġcharming": 6630,
    "Ġdefray": 22944,
    "accursed": 20543,
    "ige": 12684,
    "onts": 15522,
    "apidated": 22340,
    "Ġadoration": 18293,
    "Ġdiameter": 19869,
    "newsp": 23136,
    "kindness": 10508,
    "Ġscenes": 5730,
    "Ġcarefully": 6305,
    "Ġdestroying": 14732,
    "Ġrallied": 14098,
    "ĠĠĠĠĠĠĠĠĠĠĠĠĠĠĠĠĠĠĠĠĠĠĠĠĠĠ": 13392,
    "Ġhears": 8139,
    "Ġminers": 22834,
    "Ġguards": 16273,
    "Ġnapoleons": 25886,
    "Ġboys": 5194,
    "Ġassembl": 20064,
    "riors": 18185,
    "Ġfreshets": 25705,
    "wharf": 20609,
    "Ġcognitive": 13638,
    "lay": 5891,
    "Ġsignature": 16495,
    "Ġforswe": 21778,
    "Ġcompassion": 6487,
    "Ġassures": 14468,
    "feather": 16047,
    "propriety": 14374,
    "Ġneighbours": 8303,
    "Ġaction": 5797,
    "Ġspades": 12801,
    "Ġpositions": 2055,
    "Ġended": 7950,
    "liable": 3818,
    "baked": 20781,
    "Ġseats": 14091,
    "usual": 5842,
    "Ġsystemat": 18448,
    "Ġwednesday": 9087,
    "Ġmaw": 15544,
    "odecimoes": 25319,
    "Ġknelt": 12163,
    "Ġfortunes": 12183,
    "creator": 26383,
    "stern": 8446,
    "perfectly": 9089,
    "drown": 13708,
    "Ġwillingly": 8888,
    "risonment": 17378,
    "intim": 22937,
    "Ġ80": 24456,
    "soo": 18687,
    "Ġchorus": 10949,
    "Ġcircumnav": 12430,
    "Ġdiscredit": 22785,
    "Ġagitates": 22521,
    "Ġreced": 15696,
    "quis": 7870,
    "Ġpenetrated": 13476,
    "muttered": 13762,
    "Ġslim": 18939,
    "Ġru": 948,
    "Ġgibberish": 25787,
    "fug": 17545,
    "Ġredness": 19314,
    "eness": 2291,
    "neath": 12871,
    "atum": 21262,
    "Ġsane": 21224,
    "Ġsweating": 16465,
    "Ġpertin": 18450,
    "Ġdra": 1593,
    "satisfy": 16894,
    "Ġadvisable": 11444,
    "Ġfarthest": 23119,
    "Ġinserting": 19908,
    "Ġrisks": 9967,
    "26": 10076,
    "Ġamaze": 22487,
    "Ġdedu": 5584,
    "august": 11073,
    "creat": 20802,
    "Ġdiscrimination": 23607,
    "Ġmedd": 15543,
    "anatory": 21366,
    "Ġsuperstitions": 17073,
    "Ġarc": 14161,
    "dering": 5307,
    "Ġpapers": 4023,
    "Ġgliding": 8563,
    "Ġnour": 10832,
    "mayhew": 23995,
    "Ġwrit": 8242,
    "Ġtransfer": 2210,
    "Ġcrony": 23441,
    "Ġqueer": 4481,
    "brandy": 19203,
    "Ġspirits": 3697,
    "Ġtrapped": 23078,
    "Ġlifelessly": 23053,
    "Ġhabitual": 24789,
    "breath": 15166,
    "Ġaltogether": 4833,
    "hurrying": 14986,
    "shipmates": 11932,
    "Ġthing": 1637,
    "Ġextrem": 2475,
    "matter": 5136,
    "Ġotherwise": 4659,
    "turbable": 24531,
    "Ġvapor": 8703,
    "alk": 1153,
    "Ġbenches": 18783,
    "lac": 17591,
    "Ġcomprise": 18584,
    "conceivable": 17133,
    "Ġjaw": 3316,
    "Ġscream": 5935,
    "Ġgrazed": 15837,
    "Ġexpression": 4518,
    "¸": 121,
    "Ġhushed": 13928,
    "Ġretains": 20033,
    "Ġacross": 1330,
    "Ġperson": 2370,
    "Ġmuscles": 12093,
    "Ġshrew": 22004,
    "Ġwestern": 10657,
    "belong": 12127,
    "Ġsecure": 4913,
    "Ġexhausted": 8697,
    "haustible": 16893,
    "Ġsanely": 24983,
    "Ġgle": 7859,
    "unless": 9238,
    "Ġnaval": 16901,
    "kind": 3864,
    "base": 20779,
    "Ġsufficient": 2002,
    "Ġreconcile": 25292,
    "Ġsprung": 11250,
    "anders": 18155,
    "Ġbloody": 9892,
    "Ġbiographical": 22774,
    "germans": 20568,
    "uit": 8393,
    "Ġpiratical": 24798,
    "Ġthro": 5818,
    "fortunate": 4793,
    "Ġmasterly": 23997,
    "Ġcircumspect": 15088,
    "Ġdischar": 11812,
    "strong": 6323,
    "handedness": 24921,
    "Ġshape": 5639,
    "ological": 1886,
    "Ġappals": 22224,
    "Ġgrievances": 20650,
    "kles": 17586,
    "perfect": 7634,
    "asht": 4085,
    "gust": 6361,
    "erpillar": 5798,
    "Ġkeeps": 8267,
    "Ġender": 11694,
    "ows": 1919,
    "Ġcomplex": 745,
    "prom": 6509,
    "âĢĶ(": 15942,
    "Ġmeasured": 9807,
    "Ġlurid": 19684,
    "imag": 6990,
    "windows": 19537,
    "irection": 2390,
    "renched": 7907,
    "mast": 3602,
    "belated": 24041,
    "Ġcoarsely": 25830,
    "Ġloveliness": 13612,
    "properly": 24919,
    "crippled": 26386,
    "Ġineff": 12639,
    "Ġtraining": 528,
    "downward": 16621,
    "Ġsibbald": 21233,
    "agatha": 21912,
    "encounter": 20395,
    "Ġprovid": 1006,
    "imen": 12691,
    "Ġscruples": 15082,
    "athan": 2954,
    "Ġdrive": 5055,
    "Ġcocked": 12909,
    "uity": 12522,
    "cas": 20796,
    "scand": 18857,
    "Ġcapabilities": 4381,
    "Ġplat": 8522,
    "Ġgoodge": 22826,
    "Ġglens": 18856,
    "Ġbutcher": 18272,
    "Ġexpecting": 10438,
    "urpr": 2288,
    "ã": 164,
    "Ġtrusty": 24107,
    "conclude": 24071,
    "leader": 25352,
    "Ġassistance": 6334,
    "pless": 6261,
    "Ġperform": 1034,
    "Ġremo": 3786,
    "databases": 3021,
    "dw": 3331,
    "Ġgrud": 17998,
    "Ġirons": 7695,
    "Ġmalady": 24392,
    "Ġrepeating": 11215,
    "Ġseptember": 18206,
    "abled": 12799,
    "Ġhumble": 8553,
    "east": 9118,
    "false": 15358,
    "Ġeluc": 16113,
    "Ġblushed": 13007,
    "Ġrambles": 17187,
    "dear": 6556,
    "Ġfrankness": 16748,
    "Ġjove": 9271,
    "Ġbeheld": 4495,
    "Ġapoplexy": 25266,
    "Ġresid": 22542,
    "details": 19678,
    "Ġgasped": 11374,
    "reporting": 24494,
    "Ġsmell": 7215,
    "Ġdirected": 5579,
    "Ġreputation": 11643,
    "Ġvideo": 25366,
    "discernible": 20553,
    "Ġprized": 23219,
    "Ġmoritz": 11910,
    "Ġtrains": 10946,
    "Ġhundred": 2695,
    "Ġsurrender": 16450,
    "Ġdown": 831,
    "Ġcolt": 11046,
    "Ġinexhaustible": 16983,
    "Ġhorn": 6186,
    "Ġsixth": 16561,
    "steps": 9408,
    "Ġgrotesque": 26331,
    "Ġarms": 3968,
    "Ġuniform": 2227,
    "prosper": 19102,
    "Ġwasted": 9707,
    "Ġadapts": 3817,
    "Ġlist": 2365,
    "Ġdash": 8122,
    "throw": 14101,
    "entials": 22662,
    "reas": 990,
    "deck": 4503,
    "Ġbanks": 6814,
    "cen": 17505,
    "Ġstrainings": 24628,
    "Ġspan": 11732,
    "Ġashore": 5352,
    "mph": 20974,
    "verb": 10219,
    "Ġindestruct": 22961,
    "Ġfaithfulness": 24446,
    "Ġmarvel": 23038,
    "eli": 3874,
    "Ġevalu": 3238,
    "Ġsuggestions": 24453,
    "Ġsneezes": 24697,
    "Ġda": 5150,
    "Ġmaintain": 856,
    "Ŀ": 256,
    "sm": 3436,
    "arpo": 1755,
    "Ġcomprehension": 15090,
    "Ġtatters": 21180,
    "Ġstocks": 23179,
    "Ġforbidden": 17079,
    "Ġsubject": 2465,
    "Ġplague": 11828,
    "Ġbreast": 8971,
    "ricane": 16282,
    "itated": 4443,
    "eties": 10839,
    "if": 376,
    "classification": 4391,
    "Ġreclining": 26034,
    "Ġtemperature": 1003,
    "Ġplates": 11008,
    "might": 4079,
    "facts": 19845,
    "Ġane": 9184,
    "Ġpropri": 6739,
    "Ġharpooning": 23982,
    "awful": 23117,
    "Ġsporting": 17001,
    "Ó": 148,
    "Ġregrets": 18601,
    "frock": 20124,
    "friends": 8306,
    "Ġdisliked": 12896,
    "Ġchap": 5934,
    "Ġspouts": 7729,
    "ife": 1024,
    "arat": 9183,
    "Ġvomit": 21952,
    "Ġopposition": 16523,
    "Ġgreenwich": 19323,
    "Ġrussia": 26269,
    "Ġneighbors": 25807,
    "irited": 15791,
    "Ġrather": 1492,
    "Ġlashed": 9201,
    "Ġpron": 6451,
    "Ġcult": 8786,
    "Ġglistening": 12369,
    "Ġunbending": 25465,
    "Ġsculpt": 15950,
    "conditional": 9081,
    "ron": 5216,
    "cast": 2926,
    "thyself": 19300,
    "Ġbegging": 11081,
    "Ġor": 437,
    "Ġconveniently": 20082,
    "teenth": 11878,
    "Ġinhab": 5083,
    "Ġmaz": 15546,
    "trowsers": 17693,
    "aired": 8369,
    "aut": 1913,
    "ye": 1406,
    "reproach": 15190,
    "Ġalms": 21784,
    "rious": 11692,
    "doubtful": 24790,
    "Ġinhabitant": 19758,
    "Ġcomprehen": 5350,
    "hammad": 23266,
    "caroline": 24152,
    "Ġwaterloo": 11985,
    "Ġste": 1387,
    "ially": 9250,
    "Ġvicious": 24403,
    "sat": 4811,
    "unimportant": 18162,
    "advent": 10223,
    "Ġcardboard": 19982,
    "Ġfatigued": 13469,
    "Ġcronies": 23443,
    "Ġouthouse": 22318,
    "Ġvector": 1972,
    "Ġryder": 10261,
    "Ġsne": 6372,
    "Ġstump": 7602,
    "crawling": 16960,
    "Ġamusement": 8056,
    "Ġsteal": 16287,
    "pos": 15413,
    "Ġheroes": 10579,
    "Ġinterested": 6458,
    "Ġbewitching": 25977,
    "Ġwanted": 4968,
    "Ġuncertain": 4068,
    "violence": 16480,
    "orand": 21400,
    "Ġnecess": 3476,
    "R": 54,
    "Ġpudding": 17918,
    "Ġmur": 2488,
    "ouncement": 11749,
    "-------": 20392,
    "Ġdet": 509,
    "Ġcomfortable": 6095,
    "ede": 21509,
    "compassion": 12372,
    "Ġdarts": 16770,
    "ution": 4353,
    "slipped": 25530,
    "subtle": 24246,
    "agon": 7871,
    "oblivious": 26584,
    "perpetually": 20516,
    "Ġrichness": 19313,
    "cet": 15328,
    "disappeared": 14572,
    "Ġsupreme": 13611,
    "Ġbriefly": 11369,
    "sigma": 2998,
    "z": 94,
    "Ġtolerably": 8068,
    "Ġposterity": 17405,
    "Ġdisappeared": 5645,
    "Ġsling": 21223,
    "Ġchristian": 6479,
    "Ġfierc": 18715,
    "Ġnarr": 5085,
    "Ġalleg": 14020,
    "protected": 19923,
    "Ġimprec": 14216,
    "Ġanomalously": 25639,
    "swiss": 24258,
    "Ġappl": 1739,
    "vib": 21118,
    "impetuous": 23765,
    "Ġagric": 22519,
    "Ġprairies": 20024,
    "Ġboundless": 10498,
    "Ġdeep": 802,
    "Ġextremities": 19198,
    "Ġindomit": 22958,
    "extending": 22760,
    "ants": 1388,
    "Ġlower": 2662,
    "Ġdiscrimin": 2545,
    "Ġfrightful": 7735,
    "press": 1729,
    "least": 8789,
    "ric": 1375,
    "amid": 12729,
    "Ġorthodox": 22099,
    "onym": 14651,
    "Ġcongratulate": 9066,
    "Ġmarks": 6747,
    "loveliness": 26551,
    "hmael": 7341,
    "Ġplow": 21462,
    "Ġproposition": 23252,
    "Ġfastening": 16360,
    "alling": 6037,
    "befall": 22498,
    "Ġfashions": 17887,
    "Ġwearisome": 19798,
    "ived": 1531,
    "Ġflashing": 13033,
    "Ġpresumed": 10547,
    "berish": 22719,
    "Ġchurned": 18386,
    "Ġhunger": 8569,
    "Ġtoma": 7372,
    "discovery": 12021,
    "Ġtight": 8108,
    "readers": 23850,
    "Ġreluct": 14375,
    "Ġ48": 24085,
    "Ġeight": 3904,
    "Ġhinted": 6012,
    "?": 35,
    "Ġregal": 16080,
    "isbury": 21380,
    "Ġvap": 6836,
    "Ġtemptation": 8681,
    "Ġvia": 2383,
    "hos": 15367,
    "isis": 12584,
    "forth": 9325,
    "otic": 15749,
    "Ġunnecessary": 8855,
    "Ġremain": 1875,
    "Ġsord": 21222,
    "Ġterrified": 14674,
    "Ġintend": 12769,
    "Ġboasting": 19939,
    "eding": 7165,
    "guessed": 25873,
    "Ġgracious": 8851,
    "Ġpython": 1069,
    "takes": 21079,
    "Ġclassify": 1564,
    "Ġsturgeon": 20595,
    "Ġdisco": 3428,
    "cription": 20820,
    "Ġsabbath": 17257,
    "Ġunivers": 2124,
    "Ġoverhear": 15980,
    "Ġgloves": 8577,
    "shoe": 14970,
    "Ġrus": 14095,
    "Ġrates": 1404,
    "Ġright": 1502,
    "addressed": 13389,
    "Ġringed": 16752,
    "Ġfle": 3087,
    "Ġplentiful": 12916,
    "Ġconfirmed": 11141,
    "Ġtale": 5142,
    "rance": 5994,
    "Ġangle": 8606,
    "Ġalterations": 19873,
    "Ġarrogance": 26233,
    "Ġsaddest": 16665,
    "Ġarts": 11010,
    "Ġtaller": 16689,
    "entions": 17977,
    "Ġattribute": 16101,
    "Ġvanity": 7046,
    "Ġunit": 1847,
    "ceiling": 21630,
    "mass": 12494,
    "thought": 3850,
    "delight": 5345,
    "Ġeffemin": 18542,
    "Ġpleased": 4064,
    "--------": 14786,
    "Ġamericans": 14746,
    "Ġpropriety": 10013,
    "Ġvague": 6406,
    "rougham": 15997,
    "Ġtomahawk": 7538,
    "call": 8726,
    "Ġthroat": 7770,
    "Ġunprotected": 22067,
    "Ġever": 1181,
    "Ġquant": 6424,
    "Ġengaging": 9339,
    "Ġgrasshopper": 24380,
    "keeping": 8638,
    "Ġrespect": 1666,
    "mology": 12496,
    "Ġcaring": 23094,
    "Ġwinchester": 10069,
    "Ġjonas": 20612,
    "mountain": 10715,
    "Ġbuff": 9175,
    "Ġextracting": 11116,
    "ilated": 18060,
    "azz": 8262,
    "Ò": 147,
    "Ġbreathes": 13250,
    "Ġhugh": 15006,
    "front": 12175,
    "Ġbones": 4585,
    "Ġsubjected": 23574,
    "Ġantichron": 24184,
    "irons": 10241,
    "Ġ70": 11278,
    "consult": 24172,
    "Ġcongrat": 5828,
    "Ġprincip": 5600,
    "Ġnic": 7375,
    "Ġarea": 14189,
    "Ġbordeaux": 24565,
    "it": 276,
    "Ġfitting": 21411,
    "Ġgallant": 8658,
    "Ġsome": 656,
    "hereabouts": 23608,
    "Ġentitled": 8540,
    "aphs": 22339,
    "mes": 1198,
    "groom": 8743,
    "wick": 5363,
    "along": 6013,
    "mpt": 6655,
    "Ġexcell": 10417,
    "Ġencamp": 22802,
    "Ġanyhow": 14257,
    "Ġsuffering": 8949,
    "Ġcopies": 24938,
    "atch": 673,
    "Ġending": 18924,
    "rim": 7138,
    "Ġbrahma": 26321,
    "Ġmeditating": 20046,
    "Ġfriendless": 23029,
    "pol": 5893,
    "Ġlengthwise": 10454,
    "Ġpatent": 11967,
    "lively": 12489,
    "Ġshort": 2226,
    "Ġpict": 3500,
    "convers": 6568,
    "Ġauxiliary": 26420,
    "nour": 20990,
    "Ġvacant": 9498,
    "put": 414,
    "Ġhealed": 21686,
    "igh": 2027,
    "Ġwedding": 4817,
    "Ġmountains": 4430,
    "Ġelephant": 8256,
    "angel": 5726,
    "Ġkick": 5838,
    "Ġcalves": 13040,
    "una": 21873,
    "Ġpeculiarity": 12938,
    "Ġmouldings": 24736,
    "subs": 14300,
    "Ġwrest": 11574,
    "Ġharshly": 25250,
    "infidel": 24664,
    "Ġexploring": 4307,
    "enched": 10157,
    "Ġhurt": 7700,
    "Ġofficious": 19351,
    "mastod": 23977,
    "Ġriv": 10748,
    "raise": 18014,
    "Ġpods": 17917,
    "turbaned": 24532,
    "Ġbrawny": 13617,
    "harbors": 20151,
    "Ġberkshire": 16886,
    "gather": 20877,
    "Ġcautiously": 16979,
    "Ġinj": 4761,
    "erect": 20850,
    "gently": 13732,
    "Ġtoilings": 24741,
    "Ġkill": 4457,
    "Ġenormous": 5609,
    "Ġrefrained": 14348,
    "Ġsuff": 1303,
    "omeness": 18018,
    "Ġmagic": 8233,
    "Ġmaimed": 21319,
    "Ġphilipses": 24452,
    "Ġdrops": 9035,
    "Ġswallows": 18883,
    "Ġmother": 2065,
    "Ġgroves": 16742,
    "Ġeasier": 11167,
    "¾": 127,
    "'d": 12431,
    "Ġunravel": 26216,
    "Ġilliterate": 26596,
    "idel": 5301,
    "negro": 18496,
    "Ġstarbuck": 2195,
    "izers": 18137,
    "Ġlunacy": 20031,
    "Ġhanged": 17927,
    "Ġgaz": 4044,
    "Ġaverse": 11082,
    "bergen": 14329,
    "Ġcatholic": 20684,
    "Ġgeorgiana": 8629,
    "ibly": 2991,
    "Ġrazor": 22655,
    "march": 13758,
    "words": 7983,
    "pour": 17632,
    "Ġbro": 1431,
    "hastening": 24448,
    "atters": 18501,
    "Ġcircus": 19093,
    "Ġlatent": 19658,
    "plentiful": 21966,
    "Ġshadow": 5596,
    "Ġilliter": 23470,
    "suited": 22637,
    "Ġregulations": 18600,
    "Ġanticipatingly": 26103,
    "Ġimbedded": 18326,
    "Ġdeficiencies": 26572,
    "Ġmizen": 17261,
    "Ġartic": 5315,
    "ractions": 11636,
    "irra": 15789,
    "Ġhealthcare": 8016,
    "Ġoutlandish": 12843,
    "mansion": 20985,
    "squee": 15433,
    "Ġprotested": 9937,
    "wore": 21127,
    "otted": 14027,
    "kitchen": 17587,
    "odhead": 18123,
    "<UNK>": 3,
    "Ġhall": 4186,
    "dition": 15342,
    "epilogue": 22104,
    "Ġinterpretation": 19719,
    "Ġsinews": 20290,
    "Ġincalcul": 16067,
    "ailed": 3245,
    "vial": 17699,
    "Ġhelped": 7458,
    "Ġsadly": 7301,
    "Ġtul": 21162,
    "Ġpervading": 20616,
    "doubted": 17528,
    "Ġlawn": 7378,
    "suffered": 24330,
    "Ġdepressions": 25799,
    "dramatic": 19388,
    "Ġsealed": 15819,
    "contrad": 19294,
    "Ġloses": 15877,
    "Ġerror": 1765,
    "Ġsag": 6514,
    "headers": 23111,
    "Ġnicely": 8712,
    "Ġinflict": 15003,
    "Ġneur": 814,
    "anyth": 5438,
    "viv": 17700,
    "frequent": 15357,
    "Ġpursuing": 9441,
    "pardon": 10068,
    "plain": 1356,
    "chair": 5917,
    "eskye": 21453,
    "empt": 2619,
    "Ġwood": 2292,
    "Ġcombat": 16187,
    "most": 1255,
    "Ġthick": 3783,
    "Ġawfulness": 23589,
    "roofed": 26185,
    "đ": 210,
    "Ġunansw": 22058,
    "Ġwhaleboats": 18480,
    "10": 17475,
    "Ġdirest": 22710,
    "Ġmention": 2982,
    "Ġobtained": 7431,
    "written": 7995,
    "resh": 8405,
    "springs": 24912,
    "stool": 23822,
    "remonstr": 23194,
    "Ġsubfield": 11873,
    "Ġcit": 10785,
    "disguise": 26307,
    "Ġschooner": 16749,
    "Ġhelmsman": 10507,
    "Ġwithout": 1124,
    "Ġtink": 9151,
    "Ġ115": 24439,
    "Ġfiend": 4415,
    "spring": 7230,
    "Ġdeterm": 1269,
    "relate": 24014,
    "rels": 6666,
    "oce": 10716,
    "eted": 7591,
    "sound": 6799,
    "Ġproduce": 4370,
    "ized": 1525,
    "rule": 15898,
    "Ġseizing": 7877,
    "arranted": 19322,
    ";âĢĿâĢĶ": 20762,
    "Ġflanks": 11918,
    "Ġfeminine": 15267,
    "Ġmoments": 4847,
    "Ġagencies": 18543,
    "Ġensuing": 12313,
    "Ġanalog": 12617,
    "Ġbears": 6828,
    "Ġcontriv": 9285,
    "Ġtapers": 11554,
    "varying": 13807,
    "gryphon": 15362,
    "yellow": 9627,
    "Ġowing": 6005,
    "arers": 12134,
    "Ġknock": 9976,
    "flex": 24844,
    "brew": 11475,
    "Ġcollecting": 12290,
    "Ġamusements": 16915,
    "Ġgenerally": 4159,
    "Ġcompute": 2904,
    "Ġrack": 9315,
    "mathemat": 19139,
    "Ġel": 803,
    "Ġlik": 2522,
    "Ġconjecture": 9535,
    "Ġcomplied": 14737,
    "Ġop": 2604,
    "Ġhyperborean": 26341,
    "Ġremarkably": 7702,
    "Ġusing": 716,
    "Ġwoody": 23522,
    "Ġabated": 18391,
    "sh": 639,
    "Ġtoiled": 12647,
    "itional": 22472,
    "tles": 10732,
    "very": 498,
    "Ġobtaining": 16136,
    "Ġrafters": 22656,
    "Ġgamesome": 17292,
    "discoveries": 25386,
    "countryman": 24640,
    "Ġstranded": 9778,
    "interrupted": 11419,
    "cottage": 9572,
    "Ġwhole": 1660,
    "seems": 10877,
    "iscreet": 20685,
    "knives": 14916,
    "tick": 17680,
    "Ġfoolishly": 19785,
    "condite": 23249,
    "Ġheadache": 22903,
    "eline": 2437,
    "perpet": 14164,
    "lake": 13752,
    "quadrille": 20598,
    "circumstances": 8047,
    "representation": 20199,
    "Ġjour": 11768,
    "Ġeliminating": 20623,
    "aws": 8237,
    "Ġbusiness": 2233,
    "Ġirre": 7467,
    "Ġaberdeen": 26543,
    "neying": 22467,
    "Ġapologies": 25197,
    "alle": 1294,
    "Ġsurrounds": 24234,
    "Ġsab": 10764,
    "Ġbluish": 23654,
    "Ġcasualties": 25513,
    "oker": 10965,
    "inn": 5364,
    "endless": 22230,
    "Ġsw": 1354,
    "Ġsidelong": 11440,
    "Ġeel": 18004,
    "Ġprone": 18969,
    "Ġwishing": 7830,
    "Ġdecoding": 3078,
    "Ġcombining": 22854,
    "Ġinexpress": 12640,
    "Ġeddy": 13550,
    "Ġpainful": 6462,
    "Ġpassions": 7930,
    "beth": 13692,
    "Ġundeviating": 15221,
    "Ġforebodings": 17307,
    "pocket": 9812,
    "Ġfold": 5531,
    "stuff": 15692,
    "Ġvolumes": 14803,
    "Ġsymph": 22211,
    "airing": 16180,
    "qualities": 25046,
    "Ġracket": 22654,
    "Ġ52": 24317,
    "fth": 20858,
    "msprop": 2625,
    "Ġsisters": 3640,
    "rrh": 26145,
    "hatchet": 24819,
    "Ġstabbing": 20306,
    "ings": 632,
    "Ġgrief": 4622,
    "mixed": 17607,
    "Ġstumbling": 21746,
    "animal": 16980,
    "Ġsurpl": 19134,
    "Ġreplen": 11115,
    "Ġdates": 6694,
    "Ġ16": 7927,
    "rimsh": 17029,
    "render": 10293,
    "Ġnew": 1197,
    "Ġmortally": 23920,
    "Ġabhorrent": 16858,
    "agation": 1251,
    "Ġsensational": 16392,
    "foundered": 20869,
    "approbation": 11460,
    "Ġshe": 466,
    "Ġpart": 860,
    "Ġbidirectional": 3755,
    "Ġstories": 10867,
    "Ġpell": 21459,
    "ientiously": 21945,
    "instead": 14816,
    "Ġans": 1642,
    "fool": 9050,
    "Ġgoug": 17993,
    "monster": 8595,
    "Ġmoccas": 22440,
    "Ġhumans": 8933,
    "A": 37,
    "Ġtil": 12529,
    "Ġcontent": 5034,
    "Ġfancies": 10426,
    "Ġadopt": 10634,
    "week": 12936,
    "Ġtrespass": 23602,
    "Ġbrandy": 11051,
    "blows": 17168,
    "maltese": 24794,
    "Ġimpressions": 9556,
    "Ġagainst": 1696,
    "Ġsearch": 2591,
    "Ġunmolested": 15249,
    "Ġunderstood": 5655,
    "ayed": 12717,
    "Ġwidower": 24238,
    "ĺ": 251,
    "Ġhum": 1097,
    "ribute": 7226,
    "Ġlethargy": 26485,
    "ultaneously": 4195,
    "Ġundertaken": 18987,
    "cely": 3575,
    "Ġfins": 9666,
    "Ġsmelling": 16070,
    "sy": 2687,
    "Ġmechanical": 7937,
    "Ġmerged": 19299,
    "Ġle": 333,
    "indul": 22374,
    "force": 12968,
    "Ġsquared": 1381,
    "Ġbottom": 3673,
    "Ġinvoked": 19146,
    "grinder": 23418,
    "Ġsoften": 23126,
    "Ġgoblets": 20522,
    "title": 17290,
    "Ġremnants": 22796,
    "mile": 17599,
    "Ġtuning": 3069,
    "Ġmenaces": 23109,
    "Ġcens": 8414,
    "Ġbullion": 24986,
    "Ġtissu": 25921,
    "riend": 1187,
    "Ġcome": 1240,
    "Ġround": 1368,
    "Ġinsert": 19907,
    "sequ": 2402,
    "rab": 7596,
    "makers": 20984,
    "Ġfearing": 12820,
    "solved": 7684,
    "cherish": 24552,
    "Ġswaths": 23061,
    "Ġfee": 7197,
    "nowadays": 22342,
    "Ġprominence": 18956,
    "Ġembarrassment": 10629,
    "Ġrang": 9248,
    "europe": 20668,
    "Ġgash": 15675,
    "Ġjury": 5378,
    "Ġlids": 12280,
    "choice": 21694,
    "Ġentreaties": 9038,
    "Ġhurrying": 11999,
    "Ġabutted": 22279,
    "Ġlees": 18078,
    "Ġoccurrences": 11052,
    "arp": 2025,
    "vedale": 22713,
    "Ġrending": 19470,
    "Ġroast": 18458,
    "Ġdragon": 14947,
    "volutions": 16325,
    "blow": 9107,
    "thanked": 24327,
    "Ġdistrust": 8204,
    "¦": 104,
    "red": 397,
    "desol": 13222,
    "Ġunqualified": 22061,
    "Ġconvulsive": 19309,
    "Ġlamb": 8817,
    "usable": 22293,
    "Ġbrilliantly": 25123,
    "Ġheavens": 5050,
    "Ġskewer": 19623,
    "acquired": 24298,
    "Ġprecipitate": 19945,
    "answering": 26005,
    "g": 75,
    "Ġsets": 8778,
    "zors": 21150,
    "Ġhundreds": 4331,
    "Ġintolerably": 15833,
    "Ġbuilding": 8063,
    "Ġweapon": 7775,
    "Ġfol": 1287,
    "meantime": 9095,
    "Ġlurch": 21558,
    "dipped": 20839,
    "Ġundec": 22019,
    "below": 12126,
    "Ġmizzen": 20292,
    "Ġindel": 13009,
    "shown": 22448,
    "Ġbled": 17858,
    "iary": 15374,
    "ientious": 11695,
    "acious": 5562,
    "bennet": 5353,
    "Ġsweeter": 23921,
    "Ġsettee": 22924,
    "velling": 14765,
    "Ġlife": 1351,
    "Ġmilky": 9950,
    "Ġaddressing": 11166,
    "mant": 20967,
    "Ġparsonage": 7124,
    "cut": 3119,
    "Ġeager": 3571,
    "training": 2516,
    "Ġpatches": 4239,
    "Ġforbearance": 12332,
    "ĠâĢĺ_": 11119,
    "knowing": 10439,
    "fiercely": 25257,
    "Ġblind": 3715,
    "Ġcistern": 17384,
    "Ġallurements": 22074,
    "Ġ133": 24782,
    "Ġaint": 17746,
    "tur": 5688,
    "Ġraptures": 13500,
    "sort": 6798,
    "ining": 3217,
    "Ġtradesman": 20076,
    "Ġpencils": 23198,
    "persuade": 13536,
    "Ġsmiling": 5474,
    "Ġ": 225,
    "fo": 5279,
    "Ġacceptance": 14830,
    "Ġobliging": 13247,
    "ributed": 8215,
    "ching": 5156,
    "python": 4693,
    "Ġleviathanic": 12085,
    "william": 4564,
    "walls": 25346,
    "ascertain": 21546,
    "Ġostlers": 25277,
    "Ġslighter": 18942,
    "studies": 25170,
    "Ġarrayed": 25665,
    "meth": 11505,
    "Ġvict": 3762,
    "contracting": 19296,
    "Ġesquimaux": 25154,
    "Ġunsupp": 22021,
    "ext": 916,
    "gun": 10099,
    "tables": 19760,
    "Ġcumul": 4181,
    "Ġhorrid": 7999,
    "Ġbrothers": 13179,
    "Ġscatter": 18398,
    "Ġbidding": 9540,
    "opence": 18508,
    "Ġbou": 17854,
    "Ġsympathise": 16796,
    "Ġmeditations": 25016,
    "Ġherd": 7888,
    "rier": 9245,
    "Ġvic": 5236,
    "Ġsounded": 8594,
    "thed": 8831,
    "ark": 849,
    "ezing": 10576,
    "sitting": 8387,
    "Ġtrunks": 15975,
    "Ġcounterpane": 11345,
    "Ġzealand": 12354,
    "Ġspires": 11734,
    "Ġgrammars": 11404,
    "Ġpredecessor": 26255,
    "Ġexplo": 2286,
    "Ġwheels": 10914,
    "Ġpolynesian": 26027,
    "covenant": 23564,
    "thodox": 21992,
    "oided": 11511,
    "Ġvaults": 17156,
    "Ġindomitableness": 26573,
    "irene": 15918,
    "Ġfeet": 2259,
    "mber": 7803,
    "X": 60,
    "inarticulate": 21198,
    "ways": 1441,
    "Ġexhaust": 6399,
    "including": 23592,
    "Ġheed": 5630,
    "hundreds": 25076,
    "Ġcyn": 13889,
    "Ġfeedback": 23436,
    "Ġcent": 3251,
    "considered": 9583,
    "backed": 9869,
    "vous": 2253,
    "familiar": 19786,
    "work": 1831,
    "garden": 15028,
    "Ġswandam": 11090,
    "Ġfootfall": 14663,
    "Ġinvented": 17038,
    "Ġconsole": 8151,
    "uncommon": 11685,
    "ratches": 20128,
    "Ġlacepede": 20498,
    "Ġbegan": 2020,
    "Ġtumultuous": 10618,
    "ă": 196,
    "Ġvolcanoes": 24149,
    "Ġcunning": 6239,
    "Ġrises": 9716,
    "txt": 12520,
    "Ġallows": 3229,
    "Ġodd": 6626,
    "flame": 16640,
    "keenest": 25662,
    "Ġstud": 1608,
    "warks": 5004,
    "make": 5793,
    "xter": 9149,
    "Ġhans": 12631,
    "inc": 2520,
    "commer": 22814,
    "Ġhappen": 5571,
    "Ġshows": 8484,
    "Ġprofessor": 11232,
    "Ġplayfully": 19241,
    "pregn": 18499,
    "Ġrear": 6536,
    "Ġflowers": 8943,
    "Ġmulti": 1042,
    "Ġskylarking": 19490,
    "counter": 20281,
    "](": 11468,
    "Ġimplicate": 24876,
    "advice": 12162,
    "Ġincreas": 1692,
    "Ġlane": 5627,
    "Ġboarding": 12091,
    "hind": 20896,
    "stem": 570,
    "exper": 8882,
    "Ġupset": 22157,
    "Ġdrink": 4788,
    "Ġrecumbent": 22734,
    "Ġsubsisted": 19119,
    "Ġmistaking": 23721,
    "Ġconcl": 5095,
    "Ġheadsman": 13278,
    "Ġfrequently": 4681,
    "Ġfavour": 3641,
    "ional": 1084,
    "could": 2871,
    "oup": 2013,
    "Ġdismast": 12893,
    "Ġquadruped": 20618,
    "prejud": 11800,
    "Ġdev": 886,
    "apable": 6422,
    "Ġsyllables": 25299,
    "Ġweakened": 16825,
    "!âĢĻâĢĿ": 16594,
    "ascended": 24705,
    "Ġcorpusants": 13681,
    "scattered": 22998,
    "Ġmart": 10781,
    "Ġglittering": 10056,
    "itar": 15551,
    "rigible": 24932,
    "embedding": 20360,
    "reve": 12544,
    "tic": 8391,
    "privilege": 25264,
    "Ġusually": 6264,
    "Ġfoiled": 23245,
    "ues": 2079,
    "Ġdear": 1536,
    "Ġinsurmountable": 16534,
    "atha": 6573,
    "Ġran": 3341,
    "escript": 18472,
    "Ġenglish": 3614,
    "iss": 2176,
    "Ġfell": 1977,
    "Ġneedles": 11186,
    "diversity": 25898,
    "Ġexperienced": 6583,
    "Ġreusability": 13562,
    "itors": 2912,
    "Ġharrow": 17928,
    "Ġfel": 1516,
    "Ġcup": 5697,
    "Ġnumerical": 4247,
    "Ġcreditable": 19625,
    "caught": 8730,
    "Ġperiodical": 14776,
    "inement": 11560,
    "Ġsplashing": 16552,
    "Ġsque": 18757,
    "fears": 18529,
    "Ġnantucketer": 6913,
    "Ġgorge": 13570,
    "4": 24,
    "overcome": 19049,
    "ĠĠĠĠĠĠĠĠĠĠĠĠĠ": 22566,
    "trees": 10733,
    "dropping": 14985,
    "lat": 9607,
    "ladyship": 14832,
    "Ġmechanis": 1216,
    "anque": 13891,
    "Ġbene": 2030,
    "blazing": 24134,
    "cart": 10692,
    "Ġtens": 17725,
    "Ġplantation": 11425,
    "Ġafterwards": 3532,
    "stains": 11640,
    "idge": 14017,
    "oll": 5456,
    "precaution": 23825,
    "Ġcracked": 8598,
    "despond": 19803,
    "omach": 11637,
    "tling": 9145,
    "Ġfurious": 10356,
    "cannon": 22970,
    "Ġpsal": 15620,
    "Ġhired": 10180,
    "retched": 3065,
    "Ġexalted": 12416,
    "Ġdecided": 5471,
    "ding": 3023,
    "Ġband": 5292,
    "Ġsullen": 9160,
    "Ġtruthful": 23869,
    "aborate": 14025,
    "Ġenough": 1761,
    "Ġmuhammad": 26170,
    "Ġcommanding": 16592,
    "Ġgerman": 6142,
    "Ġmaximizing": 3165,
    "Ġtrip": 16790,
    "Ġlanguor": 12853,
    "Ġproc": 5545,
    "Ġdesolate": 10016,
    "Ġdwelling": 7321,
    "Ġhands": 1662,
    "Ġwallet": 21301,
    "Ġcharges": 23271,
    "plexy": 18576,
    "ology": 1612,
    "Ġdozen": 8186,
    "mouse": 15396,
    "Ġskeletons": 16793,
    "expressed": 9044,
    "passing": 14815,
    "Ġinstead": 2790,
    "Ġpopulation": 16829,
    "umbs": 14692,
    "Ġswiftness": 9930,
    "Ġbravest": 23843,
    "Ġregained": 18599,
    "Ġvisitor": 5331,
    "Ġrighteous": 18948,
    "rage": 10845,
    "Ġbenjamin": 26569,
    "Ġrepining": 23363,
    "Ġdusk": 12331,
    "presence": 18497,
    "Ġisinglass": 21806,
    "Ġmiriam": 25274,
    "Ġdifferen": 937,
    "vari": 1515,
    "Ġ117": 19700,
    "Ġdefend": 9343,
    "clings": 23153,
    "Ġoat": 21326,
    "lucifer": 25302,
    "sideways": 14574,
    "Ġsummoning": 23876,
    "bern": 20777,
    "rect": 1599,
    "Ġserved": 8246,
    "Ġfid": 10805,
    "source": 11528,
    "Ġleech": 24158,
    "Ġsurround": 4619,
    "surface": 10533,
    "Ġmerited": 23733,
    "Ġascertaining": 17206,
    "Ġthews": 21280,
    "Ġtomorrow": 21516,
    "Ġhag": 12630,
    "isms": 12585,
    "Ġpersuas": 23950,
    "watches": 14950,
    "Ġstab": 10864,
    "ipp": 10105,
    "^{": 15308,
    "Ġfore": 2152,
    "Ġobeying": 13418,
    "room": 2178,
    "awned": 19463,
    "Ġstrict": 7221,
    "Ġlaughed": 5059,
    "true": 2586,
    "Ġprescribed": 26011,
    "Ġdashes": 21437,
    "injury": 25214,
    "Ġcrossed": 6069,
    "persu": 8028,
    "Ġrecol": 4029,
    "consid": 4925,
    "Ġmedicine": 15210,
    "Ġought": 3419,
    "Ġoper": 2119,
    "Ġconducted": 10505,
    "Ġkentuckian": 26344,
    "Ġpled": 17909,
    ")(": 2977,
    "Ġarchbishop": 18713,
    "movable": 14327,
    "Ġflirting": 16254,
    "Ġ103": 24411,
    "Ġstated": 9692,
    "arial": 5532,
    "Ġwafted": 14500,
    "Ġdissect": 16057,
    "Ġbefell": 14013,
    "Ġexhilar": 19686,
    "Ġtoday": 12648,
    "Ġstings": 21738,
    "me": 882,
    "yielded": 25757,
    "Ġill": 2194,
    "oko": 18446,
    "susp": 10599,
    "less": 930,
    "Ġretrogress": 23075,
    "Ġplaint": 10328,
    "Ġlivel": 11357,
    "Ġused": 2058,
    "Ġdownward": 10334,
    "desc": 1392,
    "whenever": 11885,
    "tempestuous": 26098,
    "enc": 7573,
    "itect": 962,
    "cost": 19189,
    "Ġreplete": 15702,
    "Ġreply": 4517,
    "Ġcocksure": 26260,
    "among": 6257,
    "Ġventure": 7739,
    "tem": 6369,
    "Ġreaction": 15699,
    "elevating": 20409,
    "Ġjollies": 20373,
    "enormous": 26167,
    "Ġwest": 5219,
    "iard": 9604,
    "Ġwhereas": 3856,
    "endar": 18365,
    "lesome": 12970,
    "cab": 7332,
    "Ġprelimin": 8864,
    "Ġsuited": 12792,
    "cl": 1491,
    "Ġsurpasses": 25269,
    "Ġsqueezing": 25009,
    "Ġfloundering": 16255,
    "Ġlid": 6983,
    "Ġinducement": 16845,
    "give": 4690,
    "announced": 19762,
    "cannot": 5745,
    "Ġcarried": 3692,
    "Ġmartyr": 26362,
    "Ġrecognise": 12034,
    "Ġdisgrace": 7214,
    "Ġobeisance": 19761,
    "Ġrelevance": 5184,
    "Ġscot": 5643,
    "ub": 1226,
    "ek": 1909,
    "Ġfeather": 8863,
    "Ġnon": 1624,
    "Ġliberal": 12195,
    "Ġweeps": 24950,
    "probably": 10023,
    "omically": 13979,
    "mistak": 16880,
    "Ġpoignant": 22596,
    "Ġexpose": 10330,
    "Ġperdition": 15996,
    "ve": 323,
    "satisfaction": 9995,
    "corners": 17371,
    "Ġham": 3421,
    "worshipping": 16612,
    "wont": 21135,
    "ignorantly": 25190,
    "ä": 165,
    "sleeves": 26110,
    "Ġsystems": 799,
    "Ġoaken": 13868,
    "felicity": 25143,
    "Ġintending": 11708,
    "Ġiceland": 15150,
    "Ġpa": 2985,
    "Ġheart": 1595,
    "Ġsideboard": 10388,
    "Ġdies": 11596,
    "Ġloadstone": 25817,
    "Ġportraits": 20145,
    "Ġutil": 4674,
    "called": 6293,
    "cient": 4571,
    "mosp": 8089,
    "Ġparaph": 22124,
    "Ġsurp": 9637,
    "Ġresent": 6049,
    "avish": 22597,
    "Ġgarnery": 17390,
    "Ġblanche": 18821,
    "Ġphaet": 16321,
    "Ġaccustomed": 6861,
    "bro": 4035,
    "writhed": 26081,
    "Ġguided": 10462,
    "Ġcountries": 13100,
    "Ġhandsomest": 20337,
    "raction": 8138,
    "Ġgranting": 18738,
    "Ġdoubling": 23321,
    "ads": 5718,
    "erve": 12554,
    "Ġprinces": 23221,
    "Ġpassionately": 16766,
    "Ġireland": 17338,
    "Ġdependency": 3488,
    "Ġmu": 17797,
    "rut": 8092,
    "Ġaffectionately": 13172,
    "scans": 22992,
    "Ġcanterbury": 22177,
    "Ġunanswerable": 26523,
    "fluttering": 23976,
    "Ġtherein": 11780,
    "Ġbus": 1906,
    "dred": 2526,
    "Ġloos": 15875,
    "Ġnight": 1463,
    "Ġelud": 22647,
    "Ġaffair": 4466,
    "Ġanybody": 5314,
    "Ġreckoned": 24743,
    "sherlock": 5422,
    "Ġscholar": 26112,
    "Ġrosings": 4609,
    "Ġadmon": 15872,
    "bable": 8722,
    "Ġumbrell": 13654,
    "Ġsombre": 18861,
    "phantoms": 24680,
    "attendants": 25496,
    "illating": 22111,
    "Ġdun": 6675,
    "Ġstaircase": 20099,
    "Ġpau": 17910,
    "Ġevolved": 9895,
    "Ġcruel": 5121,
    "Ġxxv": 19720,
    "Ġfinancier": 26585,
    "Ġ26": 10472,
    "singing": 24363,
    "Ġork": 18285,
    "Ġutilize": 4799,
    "boy": 4739,
    "Ġunfortunate": 5376,
    "rudently": 16712,
    "phology": 3004,
    "Ġsuccor": 25663,
    "Ġscenari": 22291,
    "Ġbusied": 19068,
    "morning": 4860,
    "Ġgap": 21602,
    "Ġsoup": 7068,
    "squeezing": 25914,
    "mingled": 14716,
    "cheered": 23807,
    "Ġwedge": 24935,
    "Ġlegendary": 20540,
    "Ġpol": 2576,
    "Ġdescried": 7919,
    "ihood": 20924,
    "Ġscenery": 11458,
    "ortal": 6266,
    "Ġstorm": 4303,
    "Ġ124": 24469,
    "Ġbattered": 17864,
    "Ġbristol": 14383,
    "Ġswap": 23055,
    "Ġvocabulary": 4995,
    "draw": 23902,
    "Ġcomparative": 10545,
    "Ġhearsed": 25042,
    "shish": 11797,
    "rossing": 18649,
    "Ġtransferred": 16456,
    "Ġrealising": 18983,
    "Ġgrat": 4057,
    "Ġfireplace": 13149,
    "Ġvacuous": 24344,
    "damp": 15347,
    "rack": 18013,
    "Ġslammed": 20451,
    "Ġpropos": 7063,
    "desp": 6093,
    "eyeing": 14949,
    "Ġlory": 12657,
    "iner": 2670,
    "Ġxxxi": 24969,
    "ef": 5134,
    "Ġblood": 3164,
    "act": 786,
    "Ġaccordingly": 6621,
    "Ġpulpit": 7469,
    "isk": 9170,
    "Ġapologize": 15132,
    "emotions": 15800,
    "arnel": 18127,
    "izing": 1068,
    "Ġdiscomposure": 20382,
    "road": 6678,
    "Ġdescribes": 3117,
    "Ġpitied": 14694,
    "Ġsitt": 21220,
    "Ġreveren": 13201,
    "ck": 436,
    "quakes": 21860,
    "anges": 1673,
    "Ġpearl": 20380,
    "Ġmour": 6973,
    "Ġze": 8547,
    "filled": 9597,
    "Ġnich": 21523,
    "ench": 21282,
    "Ġvent": 3999,
    "Ġexult": 10232,
    "Ġapologized": 25199,
    "Ġuproar": 22159,
    "splash": 25210,
    "Ġdescend": 7426,
    "Ġmoonshine": 19600,
    "Ġbarrow": 12074,
    "Ġbits": 11591,
    "transom": 19738,
    "Ġsale": 14159,
    "Ġconven": 6152,
    "Ġverge": 23889,
    "Ġenvied": 19284,
    "Ġtruth": 3317,
    "ys": 3962,
    "Ġled": 3523,
    "my": 1315,
    "Ġvilla": 14750,
    "quit": 15766,
    "Ġtrailing": 23081,
    "aw": 1447,
    "Ġglobu": 23274,
    "Ġwestmorland": 24390,
    "ople": 2319,
    "Ġorder": 1685,
    ").âĢĿ": 20743,
    "remains": 10401,
    "Ġorlop": 22097,
    "Ġemblazonings": 26044,
    "Ġslipping": 13365,
    "uther": 8821,
    "neglected": 25670,
    "herds": 22207,
    "perai": 10279,
    "Ġopened": 3513,
    "Ġuser": 15919,
    "atory": 6126,
    "Ġmerchants": 23735,
    "Ġske": 4816,
    "character": 6332,
    "tru": 10731,
    "Ġcritical": 7473,
    "stochastic": 3774,
    "y": 93,
    "Ġextinguish": 14343,
    "Ġgentle": 1892,
    "Ġrepeatedly": 9024,
    "Ġbushes": 16404,
    "Ġfig": 3624,
    "Ġdeject": 10883,
    "Ġpastures": 23423,
    "Ġcost": 2504,
    "Ġhartshorn": 26182,
    "Ġcraft": 4380,
    "watch": 6119,
    "isive": 10795,
    "Ġexploded": 15913,
    "Ġcomplimented": 14907,
    "Ġinspiring": 19114,
    "Ġrevers": 21667,
    "hors": 9601,
    "Ġsunbeam": 23278,
    "Ġstrictly": 12289,
    "Ġexhibition": 14960,
    "Ġgirls": 4282,
    "Ġnaked": 8127,
    "Ġspatial": 2730,
    "abases": 3001,
    "Ġthinker": 22812,
    "Ġimage": 3404,
    "try": 7812,
    "suggested": 17302,
    "icken": 6712,
    "Ġconvent": 11671,
    "stories": 18026,
    "armed": 7250,
    "poverty": 22911,
    "atical": 10773,
    "Ġpawnbroker": 13662,
    "ó": 180,
    "Ġwhir": 6393,
    "snow": 10726,
    "Ġanswered": 2850,
    "fatigue": 20660,
    "prospect": 23399,
    "Ġrail": 7224,
    "Ġerskine": 17435,
    "m": 81,
    "Ġplaintiffs": 13613,
    "ceive": 3060,
    "thrusting": 20262,
    "Ġisland": 4049,
    "Ġtantamount": 25626,
    "Ġruinous": 24634,
    "avo": 8519,
    "Ġhighland": 18714,
    "strike": 14952,
    "consuming": 25675,
    "Ġpaunch": 23751,
    "Ġideal": 13125,
    "Ġbaronial": 23795,
    "igns": 8449,
    "Ġhooked": 19081,
    "Ġe": 312,
    "Ġpropont": 16353,
    "gue": 12472,
    "Ġruddy": 17128,
    "Ġstraight": 3702,
    "Ġoverwhelming": 17103,
    "grasp": 16434,
    "Ġassertion": 13493,
    "article": 22403,
    "Ġcake": 12575,
    "Ġquies": 18465,
    "whiteness": 18371,
    "Ġdeeps": 16111,
    "Ġembattled": 26291,
    "oarsman": 25262,
    "Ġunpardonable": 22062,
    "Ġcolonnades": 26277,
    "weaknesses": 26031,
    "asol": 21543,
    "umphed": 23520,
    "Ġinherited": 25354,
    "Ġillustrate": 25068,
    "shott": 11798,
    "Ġstack": 21737,
    "Ġconventional": 25548,
    "Ġhug": 6979,
    "window": 7742,
    "Ġfondly": 19619,
    "Ġmurmured": 7479,
    "Ġoverall": 4362,
    "Ġjuicy": 25371,
    "iters": 21332,
    "Ġdevelopments": 23246,
    "still": 4221,
    "Ġcor": 1322,
    "lances": 15387,
    "attoo": 6807,
    "Ġpolite": 9885,
    "Ġskilfully": 20527,
    "swim": 16781,
    "alleled": 14432,
    "unwholesome": 26499,
    "cutting": 23786,
    "ov": 15403,
    "Ġreluctant": 20528,
    "Ġtamely": 24980,
    "pulous": 15419,
    "eastern": 17535,
    "though": 2115,
    "Ġrejoinder": 24598,
    ";âĢĶ": 3749,
    "Ġstride": 22620,
    "usive": 8192,
    "Ġmoles": 22438,
    "Ġbureau": 11593,
    "Ġundu": 15841,
    "Ġfought": 12598,
    "neg": 12870,
    "inhab": 10759,
    "Ġshooting": 11164,
    "Ġforthwith": 16620,
    "Ġsor": 4147,
    "Ġirksome": 13116,
    "possesses": 24617,
    "Ġdifference": 1486,
    "Ġconsiderable": 4008,
    "Ġcakes": 13887,
    "flour": 23969,
    "Ġpuzzling": 14901,
    "delights": 19704,
    "Ġdrank": 16538,
    "Ġcrystall": 20229,
    "cross": 3576,
    "Ġshrieked": 9551,
    "Ġexclam": 6758,
    "etuous": 21586,
    "Ġdescription": 7428,
    "Ġbillows": 7501,
    "storied": 18027,
    "Ġweighted": 2089,
    "Ġobjections": 8567,
    "Ġlament": 7857,
    "contents": 12062,
    "atra": 17773,
    "Ġremonstrance": 20626,
    "Ġlighting": 13087,
    "laz": 15389,
    "Ġleague": 6539,
    "Ġsettled": 3741,
    "Ġthankful": 14741,
    "Ġcircumstantial": 14645,
    "argue": 21447,
    "Ġsnuffing": 25015,
    "Ġunexpectedly": 19911,
    "Ġpromethe": 14471,
    "chase": 11648,
    "pain": 7349,
    "mong": 15393,
    "miles": 10714,
    "test": 13795,
    "Ġomit": 17817,
    "Ġluc": 3308,
    "Ġhousekeeper": 7455,
    "Ġprofile": 16490,
    "Ġexpressing": 12013,
    "which": 1707,
    "Ġnodded": 11974,
    "Ġslave": 7453,
    "Ġjug": 12840,
    "Ļ": 252,
    "isted": 3296,
    "Ġsuperiors": 23457,
    "Ġnecks": 18189,
    "Ġgild": 15673,
    "individual": 18437,
    "Ġ101": 24409,
    "charitable": 23936,
    "Ġessence": 13409,
    "esley": 17904,
    "aco": 12911,
    "eter": 11624,
    "beef": 18521,
    "Ġembracing": 14983,
    "searching": 25106,
    "Ġhole": 6079,
    "Ġpagans": 16924,
    "stoke": 18025,
    "rus": 5930,
    "during": 6787,
    "somers": 19371,
    "Ġquote": 18467,
    "Ġindividuals": 24546,
    "Ġadventures": 7747,
    "Ġelijah": 9103,
    "Ġhussey": 7724,
    "Ġdataset": 12826,
    "Ġsingularly": 12153,
    "Ġholding": 4979,
    "contrast": 25595,
    "Ġlam": 21552,
    "Ġresolved": 3798,
    "Ġcoils": 9306,
    "dripping": 16907,
    "chie": 21693,
    "Ġdelineate": 26058,
    "Ġvarious": 3510,
    "rich": 11520,
    "Ġweight": 657,
    "Ġold": 1060,
    "Ġderbyshire": 6587,
    "Ġhorizont": 6936,
    "Ġpupella": 20425,
    "drawers": 19389,
    "ulated": 6030,
    "ele": 9117,
    "aim": 2755,
    "Ġsolicitude": 10043,
    "Ġlaug": 3627,
    "Ġbasement": 24701,
    "killing": 20944,
    "ckles": 22093,
    "Ġderived": 8239,
    "Ġhouse": 1500,
    "Ġstupidity": 15052,
    "Ġcirclings": 26433,
    "Ġisolation": 17153,
    "air": 1002,
    "ĠĠĠĠĠĠĠĠĠĠĠĠĠĠĠĠĠĠĠĠĠĠĠĠĠĠĠĠĠĠ": 24443,
    "fully": 2203,
    "Ġappend": 18361,
    "Ġagatha": 6865,
    "f": 74,
    "musical": 25341,
    "Ġfill": 5701,
    "expl": 9286,
    "Ġbriskly": 25312,
    "Ġdemean": 12728,
    "Ġpredomin": 16045,
    "ne": 648,
    "Ġgay": 5535,
    "distinguished": 10529,
    "fatality": 25022,
    "ux": 7813,
    "remarks": 23192,
    "Ġostr": 21328,
    "Ġadroop": 26002,
    "Ġarr": 1797,
    "Ġbulwarks": 5592,
    "Ġrapid": 1422,
    "andy": 8158,
    "globe": 25145,
    "etency": 21585,
    "usions": 6160,
    "Ġspilling": 22141,
    "Ġlashing": 11619,
    "Ġreport": 6192,
    "Ġheartfelt": 18968,
    "unk": 4541,
    "Ġconsecrate": 26491,
    "Ġrestricted": 19026,
    "Ġcreditors": 20133,
    "itioned": 22473,
    "decease": 25558,
    "Ġagain": 815,
    "mming": 1173,
    "ascal": 10195,
    "Ġwept": 7183,
    "Ġwarb": 17789,
    "Ġcrowd": 6337,
    "Ġcoldly": 14652,
    "interesting": 12206,
    "Ġtide": 6660,
    "Ġstartling": 14673,
    "Ġours": 4614,
    "ladies": 9532,
    "Ġcock": 11001,
    "Ġglide": 22989,
    "Ġferocity": 16868,
    "Ġpath": 2113,
    "achable": 14140,
    "direful": 25897,
    "valley": 16218,
    "Ġther": 17780,
    "Ġabased": 22272,
    "hercules": 22208,
    "better": 7120,
    "Ġspasmodic": 20401,
    "oquence": 11388,
    "cousin": 10655,
    "Ġtube": 15005,
    "Ġbias": 1193,
    "Ġpuffs": 14979,
    "51": 12435,
    "unctuous": 21886,
    "Ġpens": 21463,
    "!_âĢĶ": 19976,
    "sensibility": 25026,
    "Ġnewspaper": 12368,
    "Ġphren": 8574,
    "carb": 20812,
    "allingly": 22203,
    "Ġbusy": 6190,
    "Ġclimax": 25054,
    "happily": 14659,
    "Ġstepping": 9357,
    "Ġaddressed": 5263,
    "Ġfear": 2277,
    "idable": 8146,
    "Ġadjusts": 8983,
    "Ġdeity": 18140,
    "arson": 22750,
    "Ġoctavo": 15167,
    "Ġxiv": 23411,
    "darted": 20834,
    "Ġmob": 16021,
    "mock": 5174,
    "Ġemblaz": 16238,
    "Ġvib": 8165,
    "hung": 8381,
    "breakfast": 8691,
    "Ġdisclose": 16160,
    "Ġwealthy": 18181,
    "Ġassociation": 24710,
    "towards": 5003,
    "ually": 2770,
    "Ġinterrupted": 6344,
    "gg": 1995,
    "swallow": 24260,
    "Ġhammers": 13245,
    "Ġcomposed": 8895,
    "Ġbob": 22641,
    "Ġott": 13869,
    "Ġsat": 1133,
    "Ġcrawford": 24894,
    "fortnight": 13091,
    "smug": 23911,
    "Ġshell": 11740,
    "Ġbrood": 23103,
    "ten": 1558,
    "Ġhatchways": 24990,
    "Ġwore": 6377,
    "Ġponies": 21479,
    "Ġtheology": 21279,
    "Ġstarboard": 7604,
    "humor": 19455,
    "Ġshameful": 19854,
    "Ġtalk": 1970,
    "Ġninetieth": 25358,
    ")âĢĶ": 20744,
    "pressing": 19014,
    "ģ": 228,
    "links": 20960,
    "Ġbeneath": 3233,
    "Ġfalsely": 20585,
    "Ġepaulets": 24906,
    "Ġmichaelmas": 26376,
    "enses": 10996,
    "Ġcabman": 14607,
    "Ġprodigiously": 14935,
    "Ġuncounted": 19118,
    "Ġswam": 6448,
    "Ġkrem": 9729,
    "Ġasyl": 12739,
    "Ġgirl": 3082,
    "Ġpent": 17905,
    "ped": 6963,
    "robotics": 11308,
    "Ġpropensity": 18997,
    "Ġqueens": 16705,
    "Ġsuggested": 8321,
    "Ġwilling": 7420,
    "Ġbestowed": 6594,
    "Ġincites": 22555,
    "Ġsurve": 9877,
    "tain": 558,
    "Ġrelent": 18776,
    "Ġfing": 3757,
    "Ġbelt": 13008,
    "Ġunch": 18237,
    "minutely": 19596,
    "Ġmind": 1620,
    "Ġcirculating": 23376,
    "Ġbased": 3337,
    "isticated": 1542,
    "Ġwears": 10243,
    "Ġscolding": 15204,
    "Ġpunctual": 17140,
    "70": 17478,
    "resolution": 17768,
    "Ġteacup": 16216,
    "Ġtub": 7146,
    "Ġviol": 2071,
    "orative": 21401,
    "Ġrecovering": 11865,
    "Ġfanciful": 24787,
    "Ġher": 426,
    "unhesitatingly": 26498,
    "Ġbirch": 26175,
    "Ġinfallible": 15074,
    "Ġwidows": 24239,
    "perquis": 22194,
    "Ġdisconsol": 18558,
    "Ġlancaster": 26342,
    "exclaimed": 11794,
    "nades": 20999,
    "Ġassaulted": 25321,
    "Ġcetacea": 20556,
    "Ġlectures": 17181,
    "uv": 6230,
    "Ġblasts": 19999,
    "Ġhorsey": 24252,
    "dishonourable": 26367,
    "Ġdismasted": 15255,
    "Ġsweetness": 9449,
    "Ġrecording": 24434,
    "Ġstilly": 25974,
    "eps": 12795,
    "com": 989,
    "Ġcast": 3606,
    "possession": 12226,
    "works": 6591,
    "lifted": 15390,
    "Ġrenegades": 26478,
    "Ġdisgust": 6706,
    "Ġecon": 9680,
    "Ġcontaining": 2232,
    "deal": 12804,
    "broke": 14782,
    "ssian": 3400,
    "boast": 23255,
    "Ġwretchedly": 19509,
    "Ġbronze": 22871,
    "Ġwonderfully": 10432,
    "uries": 6148,
    "Ġwrig": 13073,
    "devilish": 17083,
    "Ġder": 1496,
    "cele": 21628,
    "Ġaffability": 14390,
    "Ġsegmentation": 17343,
    "Ġalleghan": 25796,
    "Ġgrappling": 25813,
    "Ġalt": 18101,
    "erable": 1918,
    "much": 3705,
    "ĠĊ": 12528,
    "Ġclay": 7019,
    "Ġuncovered": 23435,
    "Ġquadrille": 13544,
    "N": 50,
    "rospect": 11615,
    "aus": 1498,
    "Ġmalignant": 14881,
    "rapidly": 15247,
    "Ġpronounced": 8351,
    "Ġpilot": 5985,
    "understood": 13220,
    "itting": 1152,
    "civilities": 24974,
    "Ġopenshaw": 7955,
    "Ġmarrying": 6178,
    "stige": 21664,
    "Ġindependently": 4248,
    "Ġgenerously": 22405,
    "Ġovertook": 18429,
    "Ġconcluding": 9860,
    "beholding": 16043,
    "direct": 12461,
    "Ġunf": 4090,
    "Ġsplendidly": 25328,
    "Ġferguson": 17472,
    "und": 4119,
    "aged": 2608,
    "Ġapt": 9158,
    "Ġ76": 24265,
    "Ġtorm": 5434,
    "ment": 686,
    "Ġambitious": 18514,
    "Ġluff": 15657,
    "Ġstate": 1809,
    "Ġburying": 19254,
    "ag": 377,
    "Ġintense": 6158,
    "Ġmournfully": 20120,
    "Ġimperfect": 13344,
    "Ġal": 342,
    "Ġposter": 14278,
    "Ġfates": 15582,
    "zar": 11550,
    "Ġbel": 1215,
    "Ġliberally": 16832,
    "sticking": 21663,
    "Ġhavoc": 15817,
    "fif": 9119,
    "Ġinhabit": 5782,
    "Ġappointed": 20106,
    "!_": 7328,
    "spass": 18689,
    "Ġpersisted": 13042,
    "Ġcastaways": 19431,
    "Ġfailed": 6673,
    "Ġenter": 4031,
    "Ġincredulity": 11313,
    "Ġlandsman": 11352,
    "Ġclattering": 22356,
    "grounds": 11153,
    "Ġagree": 7646,
    "Ġbarricade": 14662,
    "Ġcross": 1372,
    "Ġnormalization": 1242,
    "regularly": 13212,
    "partiality": 13164,
    "Ġtoe": 13939,
    "agitation": 14071,
    "prepare": 20215,
    "surd": 6933,
    "Ġsaleve": 17395,
    "Ġshade": 6551,
    "Ġasser": 6258,
    "Ġtooks": 23329,
    "umbrance": 22122,
    "Ġfastidious": 14494,
    "Ġdisplays": 19859,
    "Ġtalks": 23373,
    "Ġpitches": 23904,
    "Ġreputed": 18038,
    "Ġsounds": 5190,
    "Ġarmitage": 23583,
    "coat": 5407,
    "Ġsatisfy": 6911,
    "crazy": 24692,
    "arrange": 23768,
    "Ġflurry": 18862,
    "Ġvapory": 17008,
    "Ġgarments": 15197,
    "oul": 4700,
    "Ġundertaking": 8576,
    "Ġwondered": 11127,
    "Ġproceedings": 9910,
    "Ġber": 5698,
    "Ġrefres": 14347,
    "Ġbeheaded": 11659,
    "departure": 15238,
    "Ġrelated": 3714,
    "Ġcre": 888,
    "view": 5896,
    "adopt": 25545,
    "Ġsince": 1794,
    "Ġglow": 7170,
    "Ġinnocence": 6477,
    "Ġpoetic": 17104,
    "Ġsmiting": 12903,
    "Ġcarted": 21353,
    "utely": 8132,
    "Ġimmovable": 15890,
    "ably": 1846,
    "Ġmoment": 991,
    "society": 9975,
    "nable": 13765,
    "Ġburke": 19253,
    "Ġconsidered": 4613,
    "Ġcame": 1300,
    "Ġventil": 8019,
    "Ġaper": 17745,
    "Ġmarvell": 7247,
    "natural": 2252,
    "Ġslumbering": 25702,
    "Ġplutarch": 22606,
    "Ġvalue": 2084,
    "companies": 24895,
    "Ġseparated": 9467,
    "Ġspake": 18309,
    "Ġaccordance": 19501,
    "without": 4848,
    "Ġdeadly": 5405,
    "Ġnetwork": 452,
    "Ġvolcano": 24150,
    "Ġconsum": 9802,
    "hence": 16627,
    "Ġhol": 1183,
    "Ġtangle": 25761,
    "Ġsick": 4694,
    "shri": 14237,
    "Ġsprinkled": 19500,
    "insult": 16283,
    "Ġthreatened": 8330,
    "enged": 23148,
    "Ġfighting": 12202,
    "Ġgrand": 3593,
    "Ġhoisted": 5960,
    "cable": 20799,
    "Ġpendulous": 25956,
    "Ġcomplexity": 1693,
    "future": 13720,
    "Ġblundering": 26285,
    "Ġcapsizing": 20092,
    "carrying": 16714,
    "Ġwor": 1191,
    "gress": 2214,
    "oss": 10118,
    "umbent": 12094,
    "Ġfurnish": 9022,
    "Ġrapt": 7225,
    "Ġthen": 665,
    "agreeable": 5830,
    "Ġgills": 17995,
    "Ġcostly": 23586,
    "Ġaback": 22270,
    "Ġlast": 1126,
    "Ġhamper": 19392,
    "sheets": 14445,
    "Ġadro": 15871,
    "icating": 15659,
    "mr": 1903,
    "Ġcommunication": 1869,
    "Ġshore": 4836,
    "Ġsavage": 4012,
    "Ġunfitted": 24111,
    "ething": 1602,
    "uneven": 23688,
    "cular": 15331,
    "Ġsaintly": 25932,
    "Ġfavoring": 2345,
    "sank": 17664,
    "Ġparm": 15881,
    "Ġshudder": 9053,
    "Ġhelplessly": 20081,
    "circumamb": 26088,
    "antingly": 22102,
    "alf": 4640,
    "Ġslumbers": 18944,
    "mankind": 14377,
    "datasets": 11957,
    "Ġaust": 4872,
    "spirit": 11315,
    "indignation": 18439,
    "ð": 177,
    "Ġapproaching": 6284,
    "Ġwaved": 9647,
    "tossed": 10998,
    "ologies": 18782,
    "Ġparalle": 1411,
    "offered": 14520,
    "han": 12477,
    "Ġbit": 2961,
    "Ġjoosy": 23633,
    "secure": 12240,
    "Ġfootpath": 19340,
    "Ġdeportment": 22612,
    "Ġemir": 23353,
    "Ġowner": 8925,
    "doubtless": 17004,
    "Ġwisest": 11234,
    "Ġsought": 5010,
    "dutch": 17221,
    "Ġmanners": 3791,
    "join": 12118,
    "Ġ235": 25712,
    "Ġstandpoint": 23280,
    "Ġbitt": 10798,
    "hump": 12482,
    "preserver": 20216,
    "Ġmeanness": 22599,
    "âĢľâĢĶ": 10874,
    "Ġcomputes": 4769,
    "Ġcondescending": 24869,
    "Ġindecision": 25782,
    "ontory": 10461,
    "furthermore": 20007,
    "Ġworaciousness": 22932,
    "joice": 9605,
    "Ġscience": 1545,
    "Ġsolemnisation": 24116,
    "Ġgrate": 12969,
    "early": 20122,
    "ssip": 14082,
    "Ġoffensive": 18693,
    "Ġbooks": 4677,
    "affectionate": 24922,
    "Ġdistinguish": 2727,
    "Ġghast": 9212,
    "Ġjav": 7902,
    "weakness": 16128,
    "Ġvoracity": 25987,
    "iancy": 13018,
    "Ġwax": 10778,
    "having": 5211,
    "Ġdetective": 14411,
    "sea": 4764,
    "Ġsciences": 15948,
    "Ġlany": 21557,
    "Ġpreparation": 13532,
    "caves": 20818,
    "oy": 1029,
    "Ġuses": 1209,
    "happ": 3099,
    "Ġbearded": 15731,
    "bushes": 24447,
    "Ġlater": 6017,
    "chers": 11319,
    "Ġbattery": 21397,
    "Ġstiffest": 24827,
    "Ġassail": 13068,
    "Ġpalpable": 15209,
    "voices": 21120,
    "iriously": 18174,
    "Ġglobe": 6076,
    "Ġenumer": 12750,
    "n": 82,
    "Ġapprised": 18362,
    "Ġsequential": 2132,
    "proble": 9397,
    "Ġincorrupt": 19237,
    "Ġcents": 17830,
    "Ġconvince": 14644,
    "Ġhatter": 4113,
    "Ġdisappears": 18561,
    "Ġdoesn": 7437,
    "purse": 20028,
    "Ġventured": 7500,
    "doing": 8587,
    "doub": 6224,
    "Ġsignificantly": 4521,
    "itious": 8784,
    "Ġmeditate": 16709,
    "kerchief": 7524,
    "Ġchanced": 8187,
    "Ġweights": 897,
    "leagued": 26437,
    "consumed": 25676,
    "cham": 10855,
    "Ġvillainous": 25134,
    "Ġborder": 10172,
    "knowledge": 7477,
    "Ġenquired": 21944,
    "died": 11482,
    "Ġdub": 13912,
    "Ġencirc": 18731,
    "knell": 24555,
    "ensions": 14261,
    "Ġsecrets": 9057,
    "Ġmeek": 21813,
    "Ġmoving": 1676,
    "bride": 19202,
    "Ġsilver": 7462,
    "Ġexplore": 15912,
    "Ġhuddled": 20302,
    "ony": 3026,
    "Ġhost": 7069,
    "Ġmetal": 9387,
    "cadence": 26126,
    "onah": 3335,
    "poles": 16212,
    "Ġdissembling": 26256,
    "Ġalluding": 18270,
    "control": 16545,
    "Ġmitig": 1335,
    "rucastle": 22182,
    "ishmael": 18421,
    "Ġcut": 2642,
    "accompan": 11454,
    "hook": 12057,
    "Ġgrounded": 23714,
    "nearer": 22468,
    "beside": 19879,
    "ezes": 9994,
    "Ġprayer": 16669,
    "Ġwrongfully": 24251,
    "Ġabruptness": 25300,
    "Ġvolley": 24148,
    "etime": 12664,
    "Ġshan": 9252,
    "ishe": 13894,
    "seven": 8465,
    "Ġsoothing": 8173,
    "Ġviews": 7289,
    "altering": 12645,
    "sentiment": 12919,
    "Ġseize": 8166,
    "Ġunfavourable": 17420,
    "Ġtelegraph": 25584,
    "Ġmoulton": 17438,
    "leful": 17844,
    "Ġvice": 6549,
    "apter": 1195,
    "Ġuniversity": 13126,
    "Ġchace": 14181,
    "izzy": 3091,
    "igating": 21702,
    "Ġcurvature": 3574,
    "Ġtastes": 15480,
    "Ġafghan": 22633,
    "Ġtreacle": 14597,
    "Ġcaucus": 17383,
    "Ġegyptians": 25290,
    "wit": 7817,
    "ivility": 12790,
    "Ġtransportation": 13646,
    "ict": 595,
    "Ġenlarge": 21939,
    "arpaul": 14538,
    "laden": 14932,
    "characteristic": 24686,
    "sisters": 13380,
    "Ġfooting": 14485,
    "ourers": 21452,
    "withstand": 23030,
    "Ġleyden": 21751,
    "Ġtenement": 23551,
    "Ġcould": 703,
    "Ġuncl": 22016,
    "x": 92,
    "Ġelasticity": 19561,
    "Ġcorpore": 13405,
    "button": 10967,
    "Ġmaps": 2960,
    "Ġineffable": 17335,
    "Ġpositives": 4320,
    "smoking": 23914,
    "uine": 13802,
    "Ġ24": 13197,
    "dum": 17520,
    "Ġtol": 6676,
    "Ġdefinition": 14407,
    "Ġvoice": 2191,
    "sharpening": 22458,
    "Ġromish": 19587,
    "ays": 6684,
    "ired": 1444,
    "brain": 13691,
    "Ġslouched": 13064,
    "asserted": 22313,
    "Ġnewspapers": 17189,
    "formal": 14169,
    "vanity": 24977,
    "difficulty": 12394,
    "page": 13774,
    "Ġorchard": 22098,
    "Ġfolds": 12211,
    "Ġcogn": 11004,
    "Ġvisit": 2583,
    "fired": 20862,
    "Ġmagical": 23101,
    "Ġmartial": 20294,
    "inclination": 20061,
    "Ġpostp": 12148,
    "discharging": 26306,
    "Ġstoke": 10398,
    "crimes": 16686,
    "spirited": 19756,
    "ho": 2857,
    "attent": 9362,
    "Ġpurchases": 24755,
    "Ġpresentiment": 18989,
    "Ġcam": 10164,
    "Ġbuildings": 24719,
    "Ġbitterest": 12406,
    "remote": 23193,
    "utterly": 20015,
    "Ġpainter": 19170,
    "ouri": 21450,
    "tout": 21068,
    "leap": 21370,
    "Ġgilded": 17448,
    "achines": 1721,
    "Ġneural": 623,
    "Ġmace": 21312,
    "Ġfacial": 10608,
    "Ġspecific": 2001,
    "Ġcurves": 18842,
    "Ġ50": 24315,
    "conducted": 25573,
    "Ġthoughts": 3133,
    "Ġmichigan": 26428,
    "isturbed": 18298,
    "Ġfrankenstein": 7096,
    "Ġeyeing": 6460,
    "deav": 2674,
    "Ġpersonally": 8603,
    "Ġcrater": 16439,
    "Ġeyebrows": 23519,
    "Ġdispirited": 23884,
    "Ġaudacity": 19884,
    "Ġkidnapping": 26358,
    "beh": 5472,
    "Ġpelt": 15614,
    "Ġtake": 1581,
    "Ġfreedom": 9085,
    "Ġforeheads": 23450,
    "Ġwreaths": 25938,
    "whip": 22241,
    "aloes": 21505,
    "diff": 9116,
    "Ġge": 1978,
    "Ġgrowl": 16540,
    "Ġcare": 1635,
    "Ġintelligences": 12836,
    "Ġaudience": 24768,
    "perils": 22191,
    "Ġstage": 7388,
    "Ġembellish": 25849,
    "iance": 5280,
    "Ġstowed": 21740,
    "Ġencaps": 12966,
    "Ġchest": 5185,
    "Ġrepresentation": 14408,
    "Ġstra": 2987,
    "hetically": 21211,
    "Ġweeds": 21928,
    "vint": 21117,
    "cary": 10693,
    "Ġbox": 5109,
    "Ġcetology": 10012,
    "Ġsuperiority": 14619,
    "Ġbermud": 26441,
    "Ġfamous": 5256,
    "Ġclicked": 22357,
    "Ġcolours": 12980,
    "shad": 10982,
    "Ġliv": 6680,
    "Ġattics": 22624,
    "instinctively": 26329,
    "Ġjewelled": 20186,
    "chanced": 18811,
    "Ġath": 15805,
    "build": 12192,
    "Ġdogs": 7741,
    "Ġtechnique": 2420,
    "Ġaudacious": 13464,
    "{": 95,
    "max": 1684,
    "Ġthanks": 6708,
    "olera": 21837,
    "rusted": 16509,
    "Ġshaping": 22007,
    "Ġnavigators": 19766,
    "Ġterms": 2561,
    "Ġwished": 3729,
    "ceptibly": 22343,
    "Ġ38": 24083,
    "ately": 1722,
    "portuguese": 25414,
    "Ġmiseries": 10347,
    "Ġencoder": 3635,
    "bedded": 12447,
    "roc": 9677,
    "Ġepis": 19985,
    "racted": 4777,
    "Ġintrepidity": 25551,
    "Ġequalled": 13317,
    "Ġwapping": 21297,
    "Ġsur": 2183,
    "sme": 17660,
    "Ġcrabs": 19176,
    "rimin": 2424,
    "danish": 20835,
    "Ġunclasp": 26513,
    "Ġirreproachable": 24918,
    "pull": 6796,
    "Ġsincerity": 13682,
    "Ġsingular": 4427,
    "Ġdromedary": 17442,
    "Ġordered": 5833,
    "Ġoperations": 2300,
    "wilful": 25152,
    "Ġwhipping": 21719,
    "Ġquivered": 18468,
    "Ġcapst": 8600,
    "Ġservox": 23872,
    "bermaid": 20792,
    "Ġhandling": 8916,
    "conscience": 14863,
    "Ġclifford": 22358,
    "ficial": 17550,
    "âĢĻ,": 14073,
    "Ġbreaking": 6311,
    "W": 59,
    "horse": 8609,
    "Ġmeekly": 26492,
    "Ġemblem": 20501,
    "Ġvigil": 9510,
    "ificant": 22215,
    "Ġsubstitute": 16728,
    "Ġdisregarded": 22534,
    "Ġconfine": 14509,
    "bearer": 18519,
    "Ġ97": 19777,
    "50": 6784,
    "Ġmischie": 22771,
    "astrop": 3313,
    "acity": 5735,
    "Ġly": 2269,
    "Ġcopper": 7424,
    "Ġemotions": 8972,
    "ske": 13785,
    "cream": 15334,
    "broken": 8020,
    "Ġplans": 7918,
    "Ġcoast": 4657,
    "ime": 625,
    "Ġchopping": 24222,
    "cious": 6645,
    "Ġsail": 1671,
    "Ġdistances": 22507,
    "Ġoutput": 931,
    "Ġelated": 18635,
    "Ġangry": 5498,
    "pivot": 21033,
    "counters": 25398,
    "Ġforever": 14555,
    "Ġheaps": 11645,
    "Ġreminding": 19800,
    "first": 3937,
    "Ġsomnam": 23008,
    "Ġmisconduct": 22769,
    "Ġvalid": 1735,
    "Ġimpenet": 14218,
    "Ġsimultaneous": 22591,
    "swear": 16920,
    "Ġexamined": 6335,
    "Ġabund": 8868,
    "floating": 12232,
    "/`)": 13664,
    "Ġgrapple": 25812,
    "Ġparticularly": 5056,
    "lop": 20950,
    "Ġcarter": 18902,
    "ationally": 15709,
    "bted": 7793,
    "Ġarrange": 3116,
    "devouring": 24953,
    "Ġconsiderations": 9413,
    "Ġunrelieved": 20548,
    "Ġreflected": 2907,
    "Ġnut": 12651,
    "Ġhardly": 2433,
    "Ġamendment": 26025,
    "Ġabsolutely": 4859,
    "Ġchurning": 15941,
    "distant": 13339,
    "Ġcitations": 25438,
    "Ġapplies": 11963,
    "homely": 25618,
    "Ġsubstantiated": 25876,
    "other": 1313,
    "Ġtaffrail": 15479,
    "Ġpyramid": 8806,
    "Ġsophisticated": 1552,
    "Ġdomin": 10463,
    "Ġdefection": 22945,
    "Ġtraveller": 8049,
    "Ġsecret": 3719,
    "Ġconceits": 19393,
    "Ġphantoms": 13490,
    "walk": 5523,
    "Ġhap": 18196,
    "Ġmisfortune": 5569,
    "Ġdeserve": 8309,
    "prodig": 16430,
    "pha": 22763,
    "Ġfrightens": 24033,
    "likeness": 19481,
    "Ġdoubt": 2224,
    "Ġdinner": 4246,
    "Ġactivity": 7920,
    "uteness": 17988,
    "Ġrecede": 25969,
    "vent": 684,
    "approach": 24834,
    "Ġunforgiving": 25996,
    "Ġhear": 1966,
    "ique": 8746,
    "Ġnegro": 6447,
    "Ġsatisf": 2806,
    "Ġbank": 4878,
    "Ġarched": 10934,
    "Ġ104": 24412,
    "Ġinto": 649,
    "Ġsustaining": 25334,
    "ick": 837,
    "teak": 22820,
    "rodden": 21538,
    "Ġshouting": 10525,
    "serious": 14451,
    "Ġremedy": 18725,
    "admitted": 18094,
    "Ġdoub": 1836,
    "Ġlicence": 25099,
    "Ġcollar": 11883,
    "dwelt": 23873,
    "Ġstro": 4597,
    "Ġpretended": 19316,
    "pushed": 21025,
    "vult": 21116,
    "Ġimpediments": 26242,
    "Ġivory": 4479,
    "aking": 976,
    "sartain": 25623,
    "Ġscratch": 25565,
    ":--": 5784,
    "careful": 14869,
    "Ġmadden": 10449,
    "sol": 1789,
    "mighty": 9469,
    "combe": 7660,
    "dden": 1802,
    "ounix": 14166,
    "Ġtrappings": 23084,
    "ravelled": 18017,
    "Ġconvulsively": 25716,
    "Ġviciss": 11294,
    "Ġirregularly": 25324,
    "nurtured": 25525,
    "Ġfist": 21407,
    "abashed": 21796,
    "matic": 4620,
    "Ġexecuted": 9475,
    "Ġheaded": 11056,
    "Ġinfluences": 14868,
    "Ġdanced": 7842,
    "Ġvehicles": 10662,
    "Ġdaw": 21432,
    "cher": 5786,
    "Ġresolve": 13174,
    "southern": 20412,
    "ateral": 19380,
    "derest": 18316,
    "Ġghost": 6143,
    "ration": 2003,
    "affold": 16564,
    "previously": 17210,
    "world": 5058,
    "colour": 9906,
    "Ġcircumstance": 4987,
    "Ġbraved": 23840,
    "plague": 21963,
    "orters": 21404,
    "afford": 14656,
    "erc": 5905,
    "Ġre": 317,
    "Ġcomstock": 21855,
    "Ġthigh": 10189,
    "Ġfrigate": 13086,
    "Ġclassifies": 11840,
    "Ġinsane": 19271,
    "restrained": 16339,
    "ath": 862,
    "Ġbills": 17862,
    "Ġsherlock": 3894,
    "unch": 14061,
    "Ġapprehens": 5682,
    "Ġsluggishly": 25892,
    "Ġwhereby": 11841,
    "rote": 4594,
    "hil": 8379,
    "everywhere": 23701,
    "Ġdevouring": 11863,
    "Ġpartaking": 22700,
    "Ġbulkington": 14679,
    "Ġlevels": 12703,
    "Ġobscure": 9557,
    "Ġarter": 22186,
    "meant": 7921,
    "benefit": 24643,
    "gates": 20874,
    "Ġequatorial": 13512,
    "pits": 15415,
    "pate": 21012,
    "tan": 4743,
    "really": 6971,
    "naught": 20996,
    "ividual": 5463,
    "Ġbatch": 889,
    "kill": 13747,
    "Ġtearing": 14399,
    "Ġwrinkled": 7263,
    "Ġstubb": 1785,
    "slouched": 24557,
    "Ġshouldn": 14328,
    "Ġjeopardized": 20233,
    "laid": 10112,
    "abouts": 9455,
    "Ġzigzag": 26274,
    "imperturbable": 25791,
    "Ġfine": 1316,
    "Ġvoids": 25808,
    "Ġsqualidness": 25844,
    "profitable": 17072,
    "teen": 6370,
    "acceptable": 25185,
    "Ġengrossed": 13002,
    "pro": 2048,
    "Ġdistracted": 11807,
    "Ġscrawled": 24581,
    "Ġentra": 18694,
    "Ġdiadem": 24740,
    "disgrace": 16461,
    "Ġapparelled": 20440,
    "Ġlooks": 4167,
    "Ġgently": 7171,
    "Ġnarrow": 5086,
    "pole": 9336,
    "Ġwhitened": 24868,
    "Ġindisposed": 26289,
    "fourth": 11330,
    "Ġcoding": 8116,
    "Ġjapanese": 10635,
    "reader": 23849,
    "Ġterror": 5124,
    "vener": 21114,
    "Ġshudderings": 25201,
    "Ġbubblingly": 25633,
    "Ġcommun": 1705,
    "Ġbecause": 2211,
    "Ġwondering": 7971,
    "Ġshiver": 12772,
    "Ġscreening": 25301,
    "Ġencounters": 19583,
    "Ġpauper": 26180,
    "ctu": 5088,
    "emed": 3379,
    "Ġduplicity": 25332,
    "estone": 18364,
    "aces": 2066,
    "fect": 2301,
    "Ġcorp": 5575,
    "Ġinsensible": 12329,
    "Ġclubb": 22353,
    "Ġnational": 13945,
    "arched": 10817,
    "Ġlevi": 3031,
    "Ġinqu": 2962,
    "Ġincantation": 26259,
    "isting": 5551,
    "Ġarsacidean": 20368,
    "Ġfret": 10808,
    "asher": 15650,
    "medium": 23640,
    "Ġparad": 2841,
    "Ġgleam": 12312,
    "Ġbeating": 8145,
    "Ġfelt": 1746,
    "boys": 13364,
    "Ġsummary": 19407,
    "Ġfragments": 19066,
    "Ġshop": 9255,
    "furnished": 20244,
    "ivened": 22973,
    "Ġproficiency": 19195,
    "iates": 13740,
    "Ġexercising": 19909,
    "write": 14649,
    "lod": 15382,
    "Ġbenefactor": 14700,
    "Ġminut": 2204,
    "ĠvertebrÃ¦": 11437,
    "horror": 13163,
    "Ġbent": 5149,
    "learning": 2518,
    "dead": 8180,
    "Ġacknowledge": 13406,
    "Ġhabitu": 19531,
    "life": 4933,
    "sex": 12718,
    "Ġglad": 3323,
    "Ġspars": 3810,
    "Ġefficient": 1051,
    "Ġthom": 21519,
    "Ġscrews": 25178,
    "Ġtablets": 13159,
    "london": 9612,
    "mp": 3727,
    "mbly": 9797,
    "taken": 7559,
    "Ġclumsy": 9582,
    "Ġfancying": 12117,
    "Ġicebergs": 23978,
    "Ġfingertips": 24020,
    "orns": 12597,
    "manner": 6171,
    "Ġspared": 7893,
    "ld": 385,
    "had": 1950,
    "Ġfeelingly": 23000,
    "Ġswiftly": 5670,
    "Ġapproximation": 2342,
    "Ġinvoluntary": 18765,
    "Ġquarrels": 16568,
    "Ġselling": 21227,
    "naturedly": 24841,
    "mortal": 10115,
    "Ġspectacles": 12102,
    "Ġveneration": 25047,
    "Ġ500": 24324,
    "Ġensure": 23691,
    "Ġmatter": 1732,
    "high": 6651,
    "tut": 15437,
    "spirits": 8055,
    "isons": 17851,
    "difference": 13711,
    "Ġvirtuous": 14758,
    "Ġunwillingness": 20035,
    "Ġsupre": 10273,
    "Ġrewarding": 13441,
    "Ġaromatic": 25926,
    "Ġremind": 6058,
    "jury": 15377,
    "clothed": 19741,
    "Ġprincely": 24151,
    "strang": 11185,
    "dispositions": 25014,
    "Ġcorner": 4374,
    "lur": 13750,
    "iate": 6505,
    "Ġsanguinary": 25930,
    "Ġsubtile": 20383,
    "tle": 2410,
    "Ġrecursive": 4783,
    "Ġcuba": 25098,
    "ospit": 22266,
    "Ġatmosphere": 10899,
    "ress": 932,
    "Ġherein": 16194,
    "former": 11752,
    "thine": 15828,
    "Ġnimble": 21531,
    "summer": 11998,
    "Ġeddies": 25089,
    "Ġdesperately": 24657,
    "Ġphenomena": 21487,
    "height": 21208,
    "Ġwhisky": 23937,
    "Ġchimneys": 16974,
    "emic": 18186,
    "Ġregression": 4413,
    "caus": 11478,
    "inglass": 21305,
    "Ġforts": 21776,
    "Ġgenerations": 10968,
    "yingly": 23118,
    "ribe": 1223,
    "Ġmurderers": 16813,
    "Ġtack": 5621,
    "ë": 172,
    "Ġreal": 1632,
    "Ġobstetrics": 24679,
    "Ġperforming": 7928,
    "ositions": 10285,
    "various": 10400,
    "Ġquivers": 22417,
    "Ġtapping": 10754,
    "comprehens": 16174,
    "Ġunfailing": 24114,
    "Ġsabbee": 17258,
    "Ġpushed": 5910,
    "Ġlawyer": 10671,
    "vate": 21112,
    "Ġincurable": 22556,
    "Ġsends": 14793,
    "Ġgrimly": 17053,
    "travelling": 24338,
    "canonical": 22971,
    "ms": 540,
    "au": 777,
    "Ġbour": 4877,
    "Ġguest": 7248,
    "looks": 12022,
    "ims": 7176,
    "Ġbroods": 23105,
    "Ġthence": 8885,
    "-": 17,
    "Ġpolic": 13165,
    "scuttle": 11914,
    "palms": 25263,
    "Ġsoil": 9258,
    "ogy": 22709,
    "Ġnoiseless": 10360,
    "cri": 17508,
    "powder": 17647,
    "Ġam": 660,
    "Ġrout": 7401,
    "learned": 8596,
    "Ġunlock": 18241,
    "Ġconsequences": 11337,
    "Ġindef": 9192,
    "pon": 17627,
    "Ġhistor": 3390,
    "roses": 17959,
    "spikes": 10343,
    "sterdam": 19091,
    "Ġresolution": 5500,
    "Ġcordially": 16838,
    "Ġvaliant": 9803,
    "Ġhairy": 23867,
    "Ġdepended": 9780,
    "Ġlazy": 17051,
    "aan": 20766,
    "Ġmcc": 21309,
    "Ġrent": 11642,
    "ropes": 7903,
    "_,âĢĻâĢĿ": 20404,
    "god": 4864,
    "Ġarchitecture": 1103,
    "Ġdealer": 23980,
    "Ġtelescope": 17351,
    "Ġdisreputable": 22538,
    "Ġhay": 11608,
    "Ġhackney": 20436,
    "Ġexpand": 9310,
    "Ġdishes": 16054,
    "Ġchamber": 6214,
    "Ġbelieving": 8225,
    "meal": 22717,
    "Ġdiscussing": 5202,
    "ective": 18177,
    "glo": 8741,
    "Ġcolourless": 19572,
    "namely": 23677,
    "Ġdeser": 3888,
    "willing": 6593,
    "Ġfainting": 16899,
    "Ġannealing": 1556,
    "igner": 21704,
    "nowled": 5470,
    "Ġproport": 2299,
    "Ġtierce": 15481,
    "Ġwaste": 9237,
    "Ġglo": 1713,
    "il": 329,
    "Ġvicissitudes": 12423,
    "Ġcompose": 12907,
    "Ġdin": 3625,
    "ter": 359,
    "Ġis": 347,
    "frame": 17117,
    "male": 15392,
    "rugged": 6848,
    "Ġcanallers": 13631,
    "Ġlima": 10444,
    "Ġschool": 5512,
    "Ġrick": 21974,
    "Ġconciliating": 19046,
    "dough": 15338,
    "spouting": 25003,
    "fuller": 22503,
    "Ġcandelab": 23851,
    "Ġanalyze": 1526,
    "Ġrotterdam": 25476,
    "Ġimpute": 18325,
    "Ġspoon": 22138,
    "Ġabounding": 12348,
    "Ġcrowned": 16843,
    "Ġgoring": 21607,
    "Ġnorthward": 13326,
    "ictions": 14228,
    "mbles": 23091,
    "cho": 2760,
    "Ġknives": 14840,
    "Ġmuseum": 15275,
    "Ġastr": 15497,
    "Ġconveying": 19717,
    "pse": 21011,
    "hol": 3839,
    "Ġsoul": 2726,
    "Ġelig": 9781,
    "Ġgreatly": 5850,
    "Ġsatisfaction": 5667,
    "Ġmed": 4179,
    "ackinaw": 22429,
    "Ġcoupled": 16853,
    "Ġapparently": 6778,
    "Ġinherit": 25353,
    "veh": 12686,
    "recogn": 13429,
    "Ġresented": 22547,
    "Ġsworn": 14438,
    "nesday": 8706,
    "Ġemer": 5959,
    "Ġcompares": 20169,
    "Ġbutter": 6841,
    "Ġreceive": 4705,
    "Ġbas": 6380,
    "numbers": 17618,
    "ake": 748,
    "Ġnourishment": 15196,
    "Ġcubs": 20090,
    "gra": 769,
    "stra": 4046,
    "Ġcellar": 8059,
    "Ġsnatch": 14641,
    "serve": 13052,
    "Ġdeer": 12725,
    "Ġuninter": 18244,
    "Ġtwisted": 7227,
    "bbs": 23695,
    "numerous": 17434,
    "Ġusurpation": 18358,
    "Ġtumb": 21172,
    "wedding": 12526,
    "ß": 160,
    "Ġgraph": 10904,
    "bound": 6221,
    "Ġplu": 8803,
    "Ġperceptibly": 25822,
    "necessities": 24308,
    "Â": 131,
    "Ġwherein": 14296,
    "Ġsmoked": 10325,
    "Ġcircumnavigating": 25615,
    "Ġanim": 2112,
    "harm": 13738,
    "Ġsinful": 18951,
    "Ġcastors": 23979,
    "Ġprem": 3426,
    "bons": 17489,
    "Ġprogen": 14042,
    "Ġalbatross": 10873,
    "Ġwoollen": 12108,
    "Ġagonized": 25373,
    "alleging": 23028,
    "Ġheadsmen": 14735,
    "Ġmoisture": 12363,
    "Ġcommentators": 25230,
    "patter": 3841,
    "ornament": 23490,
    "umst": 2502,
    "Ġgroup": 2036,
    "treated": 21097,
    "Ġunsh": 14117,
    "Ġvincent": 15287,
    "Ġren": 3847,
    "Ġwhirlp": 16965,
    "Ġsupposition": 9820,
    "Ġlethar": 21750,
    "Ġinsect": 12641,
    "Ġjabbering": 22307,
    "Ġtops": 14588,
    "Ġperhaps": 1912,
    "Ġacknowledges": 24689,
    "Ġoccur": 1082,
    "Ġenvironment": 3895,
    "Ġbeads": 18086,
    "stun": 18021,
    "Ġdisadvantage": 12895,
    "Ġtaking": 3247,
    "Ġsimilar": 4918,
    "le": 279,
    "Ġintersect": 22579,
    "Ġtribute": 15478,
    "cks": 3076,
    "Ġfaded": 10811,
    "par": 1870,
    "excepting": 19709,
    "Ġhammock": 5768,
    "orers": 14106,
    "Ġallusions": 10911,
    "name": 6795,
    "scot": 14421,
    "Ġholds": 7976,
    "Ġdeprec": 15762,
    "alogies": 25162,
    "Ġtwin": 12933,
    "Ġriggers": 24159,
    "Ġcolony": 18768,
    "zers": 21149,
    "Ġgestic": 21611,
    "Ġpar": 456,
    "Ġbehaves": 23301,
    "Ġhim": 476,
    "Ġsequence": 1976,
    "ura": 1058,
    "Ġinexperienced": 26101,
    "Ġpavement": 9580,
    "indifferent": 14211,
    "Ġprocure": 9513,
    "engineer": 23149,
    "Ġclinch": 18425,
    "Ġimpotently": 22390,
    "Ġalley": 15740,
    "clam": 13060,
    "Ġbargain": 23794,
    "Ġconverts": 2805,
    "ause": 1312,
    "courage": 17512,
    "Ġnoble": 3440,
    "Ġtartar": 17325,
    "lightened": 12069,
    "suspicious": 25391,
    "Ġbreaks": 13189,
    "icilian": 20694,
    "aft": 9586,
    "Ġapartment": 6635,
    "Ġsilently": 6893,
    "Ġsublim": 19970,
    "youn": 5690,
    "important": 7113,
    "Ġagitation": 6864,
    "circumst": 5349,
    "arrang": 14654,
    "bast": 10080,
    "Ġsneering": 24696,
    "Ġgomorrah": 21618,
    "Ġfires": 16474,
    "Ġtunes": 24620,
    "Ġlakes": 8131,
    "Ġduplicates": 17219,
    "ustomed": 6099,
    "Ġaspects": 4176,
    "Ġtex": 15475,
    ",âĢĶâĢĺ": 23804,
    "Ġson": 2979,
    "Ġpursued": 6329,
    "Ġneighbourhood": 5126,
    "Ġindirectly": 8942,
    "Ġanyone": 4462,
    "Ġblinded": 13274,
    "death": 6262,
    "Ġ88": 19714,
    "Ġdoted": 21436,
    "Ġklux": 22199,
    "Ġpious": 11602,
    "Ġperilous": 7768,
    "Ġvine": 8473,
    "Ġintrospective": 20603,
    "Ġspread": 5161,
    "Ġforeboding": 20387,
    "Ġboots": 5944,
    "hint": 12480,
    "Ġsim": 733,
    "deliber": 17429,
    "poor": 6061,
    "brous": 19201,
    "lorious": 17594,
    "touched": 15442,
    "Ġbraw": 23837,
    "Ġfists": 15587,
    "Ġinstinctively": 13463,
    "Ġviolin": 16432,
    "quake": 11684,
    "kindly": 14747,
    "Ġincrust": 22554,
    "Ġcobbler": 25831,
    "Ġasiatics": 20434,
    "pedest": 24823,
    "inaw": 21186,
    "Ġcompens": 14266,
    "Ġhospitals": 24924,
    "Ġramadans": 25122,
    "Ġforlorn": 14018,
    "killer": 20479,
    "Ġintermediate": 18589,
    "Ġdeparted": 5564,
    "Ġacceptable": 16746,
    "Ġbending": 12590,
    "Ġaud": 6663,
    "Ġwipe": 25765,
    "Ġjames": 6419,
    "Ġcherub": 23289,
    "tawn": 21083,
    "Ġ106": 24414,
    "Ġcringed": 25943,
    "Ġsupernatural": 9876,
    "av": 738,
    "Ġcrane": 23440,
    "Ġvulgar": 13608,
    "islands": 21379,
    "bordered": 17501,
    "Ġcongenial": 12415,
    "clu": 20801,
    "spoutings": 25004,
    "amusement": 15286,
    "ken": 2801,
    "Ġstup": 14008,
    "Ġtroubling": 26549,
    "Ġharness": 17930,
    "Ġcontinuous": 1565,
    "sery": 17663,
    "went": 6512,
    "Ġelizabeth": 1131,
    "charles": 14702,
    "Ġpy": 21454,
    "Ġcontinued": 2920,
    "Ġdisdain": 8360,
    "Ġnights": 7257,
    "Ġtough": 13818,
    "Ġfortifications": 23622,
    "extraordinary": 9098,
    "Ġquestioning": 10466,
    "events": 12321,
    "Ġpeculiar": 3149,
    "sixteen": 24854,
    "Ġox": 7153,
    "guest": 19485,
    "Ġchannels": 26014,
    "whaleman": 23439,
    "daggoo": 13710,
    "Ġembarked": 17137,
    "Ġabundantly": 17159,
    "Ġcities": 17829,
    "Ą": 197,
    "Ġsnarl": 25714,
    "Ġoblivion": 26032,
    "idation": 5022,
    "asily": 13949,
    "complied": 19915,
    "Ġcollapsed": 15085,
    "Ġchose": 7412,
    "Ġfiddle": 25445,
    "Ġspire": 18307,
    "tail": 8765,
    "Ġavert": 14428,
    "Ġbrowne": 13306,
    "pervised": 1589,
    "Ġwalked": 3136,
    "calculation": 25689,
    "Ġow": 8409,
    "Ġendeavor": 16547,
    "Ġroots": 11187,
    "leness": 4692,
    "Ġcottage": 4735,
    "umblings": 23896,
    "Ġhunts": 23159,
    "oftentimes": 19424,
    "Ġreplacing": 3449,
    "lashed": 20956,
    "Ġgoose": 5938,
    "ĠĠĠĠĠĠĠĠ": 711,
    "stamp": 21657,
    "ogra": 4575,
    "Ġsunrise": 9376,
    "Ġsuperst": 7703,
    "idea": 9304,
    "Ġrapture": 13499,
    "Ġmanipulated": 25179,
    "or": 282,
    "Ġdepress": 14051,
    "Ġseer": 21956,
    "Ġdoubts": 8582,
    "Ġinstant": 2705,
    "77": 15304,
    "Ġarve": 15902,
    "Ġretirement": 25379,
    "Ġfate": 4755,
    "deliberated": 26119,
    "Ġwalrus": 14976,
    "Ġassiduous": 26294,
    "penet": 11072,
    "Ġjudging": 16597,
    "Ġunconscious": 9550,
    "iop": 20921,
    "objections": 19918,
    "Ġmeridian": 25713,
    "Ġtawny": 20485,
    "Ġgentlemen": 3642,
    "sense": 11526,
    "Ġajar": 21205,
    "Ġintellectual": 11403,
    "Ġdrunken": 12054,
    "Ġbacks": 8530,
    "Ġdaniel": 15115,
    "Ġtracks": 18893,
    "Ġundertone": 23240,
    "bes": 6643,
    "hunsford": 24386,
    "Ġcareless": 11121,
    "Ġsomebody": 7912,
    "ference": 1884,
    "Ġtong": 4871,
    "Ġrudimental": 25111,
    "representing": 25272,
    "Ġpondered": 15170,
    "Ġconditions": 8307,
    "ynolds": 10039,
    "Ġscreams": 24604,
    "tiger": 13800,
    "histicated": 20903,
    "Ġrigid": 16718,
    "imson": 12694,
    "season": 14037,
    "tend": 17676,
    "iot": 9603,
    "Ġrele": 2915,
    "Ġbrigs": 20325,
    "Ġmerchant": 6467,
    "Ġjohn": 5032,
    "Ġrosy": 18460,
    "Ġindications": 14634,
    "Ġostentatious": 25737,
    "Ġernest": 8720,
    "igned": 5656,
    "Ġrake": 18641,
    "Ġchilian": 25564,
    "Ġremot": 8545,
    "swallowed": 14856,
    "eh": 13713,
    "ocity": 8278,
    "Ġlashes": 17969,
    "Ġtarshish": 12033,
    "Ġgovernment": 15180,
    "loops": 12888,
    "Ġsimpler": 2046,
    "ham": 1700,
    "Ġsanctioned": 26352,
    "elled": 3994,
    "Ġbelrive": 18832,
    "Ġlands": 6595,
    "south": 8762,
    "Ġsexes": 25172,
    "would": 2352,
    "Ġrelieved": 7665,
    "amongst": 24673,
    "Ġtokens": 1771,
    "Ġparson": 6688,
    "Ġimmense": 4952,
    "Ġnone": 3219,
    "Ġrelinquish": 17350,
    "Ġoccup": 3739,
    "Ġhearers": 15707,
    "Ġblackness": 9396,
    "Ġroom": 1461,
    "Ġflood": 7715,
    "Ġmiz": 10779,
    "Ġchair": 3661,
    "officers": 10630,
    "Ġfarewell": 9523,
    "existence": 16018,
    "Ġaccidental": 16850,
    "commence": 19995,
    "urements": 18126,
    "Ġisol": 8838,
    "Ġconqueror": 25797,
    "Ġpitiable": 9917,
    "yramid": 8368,
    "honorable": 19903,
    "Ġevaluate": 3329,
    "Ġcarved": 7947,
    "preference": 22471,
    "Ġmanufact": 22332,
    "Ġkitchen": 8497,
    "ensils": 22552,
    "deserted": 19344,
    "Ġrevolt": 24504,
    "Ġcharity": 8866,
    "Ġinside": 5448,
    "Ġgown": 10204,
    "Ġdesires": 9459,
    "Ġardour": 8043,
    "Ġtints": 17729,
    "Ġspouted": 14677,
    "Ġpursuers": 13231,
    "Ġkneel": 14810,
    "Ġdandy": 17894,
    "conception": 22478,
    "Ġglu": 15672,
    "Ġshutters": 9940,
    "Ġscreen": 17208,
    "enges": 13059,
    "Ġsubur": 12961,
    "Ġsaws": 23052,
    "strom": 15688,
    "Ġincluded": 8959,
    "Ġrhyme": 21982,
    "Ġneedless": 19232,
    "Ġentertained": 10001,
    "Ġdigging": 14941,
    "contempt": 13194,
    "Ġbeaks": 21759,
    "_),": 7126,
    "Ġrepaid": 19084,
    "Ġinsisted": 12050,
    "Ġcourtship": 24138,
    "soft": 12514,
    "Ġwearily": 18180,
    "Ġstowing": 18074,
    "vid": 915,
    "ult": 723,
    "Ġstubbs": 23297,
    "Ġperf": 12854,
    "anx": 8788,
    "Ġcarav": 18903,
    "Ġimplicit": 19961,
    "intelligent": 16846,
    "Ġpresto": 22234,
    "warn": 11545,
    "Ġmultipl": 2791,
    "Ġseen": 1367,
    "Ġfain": 5809,
    "Ġbrace": 11213,
    "Ġshifted": 14110,
    "Ġstochastic": 3264,
    "Ġman": 544,
    "Ġmotionless": 8324,
    "Ġfibres": 12956,
    "Ġcitizens": 25440,
    "terday": 4706,
    "Ġinquisitive": 26318,
    "Ġderives": 16311,
    "Ġunstructure": 2990,
    "cupboards": 25402,
    "Ġraiment": 22652,
    "apside": 22968,
    "Ġinvari": 6529,
    "arts": 6564,
    "Ġbreaching": 23350,
    "Ġprocessing": 881,
    "Ġfamilies": 8027,
    "Ġapplied": 6187,
    "Ġrivals": 20274,
    "Ġsegment": 12762,
    "positive": 20570,
    "sleet": 20152,
    "mered": 8218,
    "all": 486,
    "ĕ": 214,
    "consequence": 9766,
    "began": 6426,
    "orting": 9738,
    "Ġoffered": 5817,
    "Ġloomings": 24952,
    "Ġdependen": 1826,
    "Ġbaboon": 19696,
    "acceptance": 25186,
    "woe": 21138,
    "uncont": 15778,
    "Ġkeels": 11063,
    "Ġplacid": 11830,
    "Ġhovers": 19080,
    "bearance": 22497,
    "Ġflogged": 23626,
    "Ġhermits": 22078,
    "ancy": 4397,
    "disp": 7977,
    "Ġsarat": 21230,
    "opposing": 24822,
    "fallen": 19662,
    "Ġdrifted": 14627,
    "Ġvers": 7562,
    "Ġmeasures": 1206,
    "apping": 5852,
    "Ġeluded": 12927,
    "Ġfail": 4150,
    "Ġfreemason": 23211,
    "Ġdearly": 10404,
    "school": 10058,
    "Ġprof": 2461,
    "Ġbenevolent": 7772,
    "Ġeve": 13973,
    "Ġcanst": 8861,
    "Ġsponge": 26004,
    "Ġarticles": 7109,
    "Ġsermon": 12380,
    "Ġbreaths": 14860,
    "Ġunjustifiable": 25112,
    "destined": 24117,
    "formation": 22218,
    "Ġlistless": 16478,
    "71": 20758,
    "desired": 9008,
    "Ġexceedingly": 4616,
    "Ġhollow": 5648,
    "charlotte": 6473,
    "Ġslavish": 23176,
    ",âĢĻ": 2328,
    "uch": 876,
    "Ġinsure": 13182,
    "resc": 21241,
    "asable": 21544,
    "Ġberths": 20118,
    "Ġseriously": 7062,
    "sl": 5794,
    "match": 15394,
    "lessly": 4558,
    "nerable": 16280,
    "ruff": 15899,
    "maritime": 24176,
    "tanh": 5204,
    "Ġprotruding": 16661,
    "Ġdepos": 11009,
    "Ġwits": 15535,
    "ldog": 21921,
    "Ġobst": 6285,
    "Ġoptimal": 1856,
    "Ġsurely": 6308,
    "Ġclergyman": 8715,
    "appearing": 14639,
    "licted": 20958,
    "bony": 15323,
    "dischar": 19155,
    "Ġovers": 14208,
    "merc": 19282,
    "Ġairth": 23320,
    "Ġvoluntary": 14802,
    "paused": 17377,
    "Ġplanted": 9777,
    "Ġnathan": 21529,
    "Ġflushed": 13032,
    "possessed": 9531,
    "complexion": 14363,
    "Ġroute": 11383,
    "Ġamends": 14248,
    "'s": 2470,
    "igen": 4831,
    "Ġjon": 15952,
    "Ġfish": 2711,
    "Ġ14": 9326,
    "Ġtinker": 15135,
    "punctual": 26357,
    "cheon": 23805,
    "Ġmadly": 16487,
    "utch": 21589,
    "wandered": 20288,
    "Ġadvice": 4902,
    "Ġlordly": 23746,
    "prises": 23816,
    "Ġhatches": 12049,
    "Ġpantaloons": 20299,
    "Ġentertaining": 16928,
    "twenty": 6608,
    "police": 10586,
    "publ": 17640,
    "_.": 2213,
    "Ġmes": 17798,
    "Ġimpending": 22384,
    "Ġimag": 2675,
    "summon": 23419,
    "Ġdrug": 11412,
    "contented": 14636,
    "Ġoverwhelm": 25055,
    "Ġceler": 15555,
    "Ġuseless": 7038,
    "gown": 9599,
    "Ġessays": 19747,
    "Ġblasp": 14404,
    "irting": 11689,
    "prolong": 23398,
    "slack": 16896,
    "Ġwidespread": 20678,
    "ica": 10201,
    "Ġscan": 22283,
    "Ġthenceforth": 25183,
    "Ġhuzza": 12638,
    "Ġspoils": 24805,
    "dissatisf": 26130,
    "Ġdespise": 14668,
    "Ġweather": 3998,
    "chiefly": 14849,
    "Ġspot": 4156,
    "Ġunlike": 7005,
    "Ġpurse": 12015,
    "Ġwarden": 17227,
    "favourite": 15147,
    "Ġoverthrown": 18431,
    "Ġimpenitent": 26550,
    "Ġwer": 12557,
    "seem": 10230,
    "Ġantiquities": 25599,
    "driver": 14924,
    "Ġmortals": 9919,
    "Ġpanthe": 19656,
    "carry": 19529,
    "irm": 3103,
    "pherd": 13648,
    "letter": 6202,
    "encoura": 15051,
    "Ġsires": 21229,
    "Ġbegat": 18864,
    "Ġqualities": 7532,
    "anks": 3919,
    "nial": 20986,
    "Ġemployment": 8632,
    "Ġenlightened": 12751,
    "Ġelev": 5536,
    "mathematics": 26305,
    "uzz": 4526,
    "Ġbellies": 13360,
    "Ġstrongest": 11137,
    "chor": 6147,
    "Ġsimilarity": 3163,
    "resol": 17762,
    "next": 5892,
    "Ġtraged": 9355,
    "Ġinsatiable": 19274,
    "lung": 17593,
    "Ġsuffer": 4723,
    "Ġbats": 13903,
    "fters": 20863,
    "connected": 1308,
    "Ġsmothered": 20722,
    "Ġhonorable": 16878,
    "beryls": 25310,
    "Ġfeverish": 11350,
    "Ġawait": 17074,
    "ivot": 11722,
    "hatches": 19930,
    "waistcoat": 17364,
    "Ġbeadle": 26486,
    "Ġranged": 10260,
    "Ġgreeks": 20016,
    "Ġmultiplication": 2870,
    "Ġbehooves": 20735,
    "elag": 12663,
    "poky": 17646,
    "Ġprint": 18970,
    "Ġgam": 11627,
    "haired": 14770,
    "Ġstaggering": 20276,
    "pen": 1204,
    "Ġtrap": 7671,
    "narrated": 25622,
    "Ġpag": 6011,
    "Ġlanc": 19767,
    "gone": 6504,
    "thanking": 24326,
    "Ġadapt": 1048,
    "Ġhyena": 24519,
    "Ġchestnut": 19675,
    "Ġpassages": 12975,
    "Ġrecounted": 22732,
    "ruit": 22181,
    "Ġano": 11599,
    "itement": 7835,
    "Ġnoticed": 5549,
    "Ġark": 10278,
    "Ġsofas": 26225,
    "ullo": 12734,
    "Ġemigrant": 25860,
    "Ġcoldness": 23761,
    "Ġmotion": 4568,
    "Ġgreedily": 18966,
    "supposing": 24137,
    "secondly": 16986,
    "tormented": 13649,
    "Ġexpans": 18623,
    "Ġconstructed": 9390,
    "Ġdece": 6996,
    "long": 2910,
    "unsuitable": 21897,
    "Ġassuredly": 14825,
    "ernation": 8212,
    "Ġken": 22195,
    "Ġgush": 10205,
    "etence": 21580,
    "intment": 4721,
    "Ġmanip": 8875,
    "Ġimpose": 22382,
    "Ġactiv": 833,
    "Ġtriumphal": 24371,
    "Ġsoftness": 18919,
    "Ġspots": 11733,
    "Ġcooped": 22584,
    "riages": 10245,
    "itudes": 3011,
    "inent": 9631,
    "Ġcoll": 8222,
    "Ġteasing": 11895,
    "steel": 8299,
    "gy": 2095,
    "inion": 2874,
    "apt": 734,
    "bourine": 9399,
    "peaceful": 20450,
    "Ġpresent": 1639,
    "Ġbleak": 10561,
    "matical": 13132,
    "noted": 22751,
    "convalescence": 24885,
    "thinks": 16644,
    "Ġseizure": 21961,
    "Ġprosper": 10231,
    "ckets": 6842,
    "Ġunreason": 15846,
    "Ġdashing": 8800,
    "Ġyale": 21783,
    "Ġformerly": 7492,
    "terrors": 25044,
    "ols": 2413,
    "Ġavoided": 13262,
    "stubb": 6018,
    "Ġreaders": 18916,
    "Ġfut": 15579,
    "Ġethiopian": 26615,
    "Ġconvul": 13207,
    "Ġassistants": 9454,
    "Ġmatted": 22915,
    "lant": 20949,
    "Ġsettling": 11064,
    "Ġassert": 7121,
    "irious": 15790,
    "Ġpan": 5082,
    "atched": 6375,
    "Ġseasons": 9434,
    "Ġcrescentic": 20624,
    "Ġmonotonically": 3834,
    "Ġsafe": 5103,
    "Ġtopic": 9409,
    "vict": 11543,
    "Ġjudged": 12088,
    "humored": 19456,
    ",": 16,
    "Ġdangerous": 6615,
    "Ġindeed": 1678,
    "Ġcurds": 22965,
    "dwell": 15345,
    "Ġpreliminaries": 25177,
    "Ġsloping": 11943,
    "Ġgranite": 22811,
    "igms": 3042,
    "expound": 23665,
    "Ġadvancement": 24475,
    "Ġconjure": 17126,
    "Ġstammered": 26201,
    "irt": 3073,
    "Ġadaptively": 4277,
    "tales": 17688,
    "ruction": 4361,
    "Ġliable": 14231,
    "Ġacquired": 13049,
    "Ġomnipotent": 13552,
    "lan": 15381,
    "Ġinvitation": 5188,
    "aded": 3550,
    "Ġbranded": 14382,
    "Ġbottles": 16572,
    "Ġstill": 1159,
    "oped": 6047,
    "Ġpointed": 4774,
    "Ġappropri": 2228,
    "Ġinscrut": 10037,
    "attend": 11103,
    "Ġtomb": 8812,
    "Ġemployer": 19435,
    "ig": 322,
    "bert": 4664,
    "Ġdon": 1614,
    "Ġdecreas": 1645,
    "ging": 2602,
    "may": 3678,
    "Ġess": 5691,
    "Ġnews": 3819,
    "convinced": 10625,
    "quarried": 24948,
    "Ġdisagree": 22536,
    "although": 8810,
    "emotion": 21934,
    "Ġfragment": 14521,
    "Ġsorrows": 13359,
    "Ġshelter": 17010,
    "Ġdead": 2171,
    "ph": 917,
    "Ġsure": 1864,
    "Ġadapted": 11044,
    "Ġbuoyed": 20044,
    "dan": 17517,
    "Ġearthquake": 14630,
    "Ġsuccess": 3610,
    "Ġhusbands": 16645,
    "Ġapparatus": 24909,
    "pine": 13772,
    "Ġeleven": 9393,
    "Ġentangled": 10345,
    "Ġbreat": 3460,
    "acceler": 23600,
    "Ġwebster": 20164,
    "Ġrigging": 5601,
    "Ġir": 1992,
    "Ġsucking": 12793,
    "Ġmam": 8406,
    "tried": 13797,
    "Ġoccupation": 9934,
    "ales": 3314,
    "inted": 2649,
    "paddington": 20481,
    "Ġphantom": 8710,
    "Ġnaturally": 2467,
    "Ġcond": 3875,
    "Ġdoctors": 12156,
    "Ġjudiciously": 23880,
    "flukes": 25206,
    "Ġfoul": 7159,
    "Ġ112": 24437,
    "cannib": 11906,
    "Ġlodged": 11253,
    "Ġsimulation": 2751,
    "resist": 8276,
    "ald": 15629,
    "sculpt": 16248,
    "figure": 13559,
    "Ġwhenever": 5166,
    "Ġpractice": 2776,
    "Ġtiar": 21170,
    "Ġmungo": 25632,
    "congratulations": 20282,
    "Ġsyn": 15916,
    "involved": 25627,
    "rants": 13781,
    "hyme": 19612,
    "jack": 7343,
    "asmuch": 10197,
    "Ġtun": 5999,
    "Ġprophets": 20453,
    "Ġwar": 5526,
    "Ġconversing": 14635,
    "reen": 21234,
    "Ġpoul": 15617,
    "Ġearn": 3548,
    "cater": 20817,
    "Ġvag": 9711,
    "Ġshepherd": 14155,
    "gement": 13731,
    "Ġflorid": 17138,
    "glancing": 11216,
    "Ġadmirers": 19689,
    "Ġevils": 9023,
    "Ġbeliefs": 24583,
    "Ġspectrum": 4477,
    "Ġenveloped": 12213,
    "Ġsandwiched": 26612,
    "Ġascent": 19621,
    "Ġai": 3123,
    "adru": 15735,
    "Ġwhither": 10217,
    "leisure": 21374,
    "Ġpasseng": 12976,
    "Ġanswers": 7071,
    "Ġdance": 4445,
    "Ġpeaceful": 9458,
    "Ġhanging": 5447,
    "Ġjem": 18403,
    "stee": 21654,
    "utherland": 9581,
    "Ġsucceeded": 6106,
    "Ġrascal": 11704,
    "semicirc": 26493,
    "Ġbraced": 16582,
    "icirc": 15660,
    "Ġastonishing": 10504,
    "Ġph": 1549,
    "Ġwaifing": 25244,
    "Ġfew": 1188,
    "going": 6314,
    "andromeda": 21872,
    "Ġabove": 2934,
    "Ġmant": 9650,
    "Ġscale": 1551,
    "Ġanimal": 2497,
    "acca": 23599,
    "Ġguilty": 7249,
    "kington": 11204,
    "Ġlob": 7627,
    "Ġexclaim": 11223,
    "Ġevince": 24295,
    "Ġfood": 5080,
    "Ġlard": 13950,
    "eye": 6225,
    "Ġjogged": 26238,
    "Ġsighs": 22712,
    "Ġaltitude": 26204,
    "Ġtugged": 17291,
    "Ġpoltroon": 26600,
    "ylon": 24978,
    "Ġsuperstitious": 13523,
    "Ġmoderate": 10940,
    "Ġpeak": 16130,
    "ores": 2414,
    "Ġshivered": 14111,
    "o": 83,
    "Ġmaintains": 2143,
    "companion": 9560,
    "unicorn": 21893,
    "Ġthirds": 16710,
    "Ġsolemnity": 9944,
    "Ġwashing": 9708,
    "Ġsher": 3763,
    "Ġkindling": 19028,
    "Ġimpass": 15988,
    "ĠĠĠĠĠĠĠĠĠĠĠĠĠĠĠĠĠĠĠĠĠĠĠĠĠĠĠĠĠĠĠĠĠĠĠĠĠĠ": 16528,
    "parad": 16393,
    "Ġbrink": 18772,
    "Ġpreface": 18368,
    "circuit": 24191,
    "Ġoptimizers": 18628,
    "Ġunder": 1633,
    "Ġdetain": 14176,
    "Ġwatery": 6297,
    "Ġtalking": 3859,
    "Ġlambton": 10660,
    "per": 481,
    "Ġbig": 5806,
    "Ġknocking": 10562,
    "Ġmr": 661,
    "Ġchestnuts": 24381,
    "straw": 24100,
    "Ġyields": 19659,
    "Ġsteamer": 17191,
    "gangway": 20670,
    "Ġstrikes": 13185,
    "Ġoust": 21327,
    "Ġunprepared": 22050,
    "Ġoverwhel": 8197,
    "suspected": 12376,
    "aset": 10834,
    "representativeness": 25273,
    "Ġbilliard": 16690,
    "Ġfeigned": 22213,
    "fic": 20854,
    "rod": 10833,
    "ividually": 22090,
    "Ġmagnanimous": 17414,
    "interests": 19711,
    "Ġsage": 17754,
    "Ġhotels": 19539,
    "preserve": 25304,
    "Ġgrace": 5374,
    "Ġinterlude": 16074,
    "Ġdaring": 8121,
    "break": 6102,
    "Ġsiam": 13841,
    "Ġcontemptuously": 19836,
    "Ġdriving": 3617,
    "encouragement": 17426,
    "soul": 9143,
    "illed": 2624,
    "Ġxxii": 24478,
    "------": 12138,
    "Ġtrousers": 12419,
    "Ġthreatens": 24375,
    "Ġevening": 2652,
    "contr": 12061,
    "Ġliking": 23593,
    "shold": 2773,
    "ister": 1295,
    "Ġbrisk": 9806,
    "saying": 8644,
    "Ġquantity": 6947,
    "Ġtied": 7356,
    "Ġcomposedly": 25184,
    "iqu": 7802,
    "englishman": 23680,
    "Ġfacing": 10174,
    "university": 25984,
    "infant": 19830,
    "88": 20760,
    "Ġmedit": 8025,
    "consolatory": 25307,
    "ilogue": 21728,
    "Ġintently": 8169,
    "Ġsentences": 2683,
    "fetch": 12469,
    "Ġgardener": 19136,
    "urning": 12922,
    "iting": 2158,
    "Ġuns": 15840,
    "Ġvivid": 8058,
    "Ġconfirms": 23310,
    "impregn": 21717,
    "kinder": 24846,
    "Ġfinite": 2325,
    "Ġtowns": 11175,
    "abern": 21793,
    "mel": 9130,
    "abash": 18110,
    "deliver": 19507,
    "Ġapart": 4747,
    "posterity": 25489,
    "invest": 11562,
    "Ġdemocracy": 25459,
    "Ġaccused": 8509,
    "antly": 1988,
    "Ġcircumn": 11988,
    "respectable": 19849,
    "Ġadmits": 23557,
    "Ġcreator": 7253,
    "Ġthings": 1963,
    "Ġtorrid": 25035,
    "inclined": 10642,
    "Ġsplash": 16551,
    "Ġappertain": 22223,
    "Ġpers": 1359,
    "Ġhaven": 8475,
    "class": 4096,
    "Ġscandalous": 24880,
    "Ġphil": 3385,
    "Ġtrivial": 10145,
    "Ġbehind": 2807,
    "hair": 9125,
    "lighter": 20961,
    "Ġinsincere": 26601,
    "Ġbrimming": 22870,
    "Ġdomain": 3392,
    "agery": 21911,
    "Ġcocoanuts": 26364,
    "Ġunmethodically": 22070,
    "Ġhorse": 4726,
    "winds": 10524,
    "brink": 23578,
    "Ġprocedural": 12036,
    "thinness": 25811,
    "Ġflights": 24752,
    "reck": 9639,
    "Ġincessant": 15101,
    "Ġhealthy": 10853,
    "Ġhospital": 15042,
    "Ġcloser": 8663,
    "Ġfobbing": 26443,
    "Ġcourtesy": 9948,
    "Ġnormalizes": 1862,
    "Ġcompassionate": 24722,
    "Ġwicked": 5961,
    "cheeks": 23809,
    "Ġqualifications": 24676,
    "Ġresiding": 16065,
    "Ġapproach": 854,
    "Ġtotal": 4993,
    "ondescript": 22919,
    "Ġyell": 21781,
    "Ġsumat": 14138,
    "successfully": 14994,
    "malicious": 19904,
    "Ġhomeward": 9395,
    "shine": 9289,
    "Ġsurgeon": 8984,
    "Ġfinally": 4668,
    "Ġveracity": 23891,
    "rendering": 22345,
    "Ġpoliteness": 8274,
    "taffrail": 15445,
    "generations": 23787,
    "Ġpenalties": 10414,
    "Ġlodging": 24098,
    "almost": 4943,
    "bul": 6950,
    "Ġmounts": 17808,
    "Ġforest": 9874,
    "Ġcause": 2411,
    "Ġmag": 1430,
    "Ġaf": 781,
    "Ġsurv": 6081,
    "Ġvigilance": 12375,
    "Ġwitnessing": 19601,
    "fail": 17542,
    "female": 20669,
    "whaling": 7899,
    "Ġdetached": 10282,
    "Ġroundabout": 23063,
    "Ġwide": 4109,
    "Ġnecessitates": 23933,
    "Ġassociated": 12254,
    "Ġfloat": 12037,
    "Ġlimits": 3453,
    "Ġprolonged": 8358,
    "Ġflea": 23775,
    "people": 7676,
    "Ġobstinacy": 17424,
    "Ġinsol": 10183,
    "Ġphilistines": 26083,
    "Ġshrubbery": 18233,
    "Ġbulb": 23857,
    "injustice": 17739,
    "Ġinfatuation": 25857,
    "0": 20,
    "Ġisle": 8837,
    "Ġdazed": 15600,
    "Ġcontin": 5382,
    "Ġsubord": 22791,
    "idually": 21773,
    "romed": 10907,
    "Ġhope": 1788,
    "se": 358,
    "Ġrounded": 14441,
    "teringly": 21827,
    "Ġchapel": 9526,
    "effect": 8607,
    "haw": 6362,
    "(_": 7539,
    "fishermen": 17062,
    "Ġknitting": 24221,
    "Ġclustered": 25234,
    "Ġtags": 20574,
    "Ġreconciled": 13591,
    "Ġstil": 15722,
    "Ġrepetition": 8975,
    "Ġoverheard": 11778,
    "Ġte": 1154,
    "ateness": 15523,
    "Ġlegs": 4917,
    "wheels": 14384,
    "Ġdispelling": 23882,
    "Ġfull": 2177,
    "Ġdong": 17889,
    "Ġadmirably": 16483,
    "eng": 1485,
    "Ġbolted": 12249,
    "Ġdeclared": 5595,
    "Ġaunt": 3173,
    "fate": 17541,
    "Ġpenetration": 19919,
    "Ġendeavored": 19305,
    "Ġconstruct": 23344,
    "Ġinsular": 19270,
    "Ġpersecutor": 26097,
    "\",": 10681,
    "Ġequal": 4136,
    "Ġlaborious": 13107,
    "Ġextravagance": 17282,
    "weeks": 14319,
    "ben": 4927,
    "Ġgrosvenor": 17421,
    "Ġformality": 22831,
    "Ġsorrow": 4630,
    "Ġwil": 4582,
    "Ġmahogany": 20581,
    "Ġwounding": 19589,
    "Ġavailed": 23955,
    "farmer": 25900,
    "Ġmagg": 18907,
    "ances": 1336,
    "Ġ1883": 23900,
    "owards": 4596,
    "Ġcritically": 23446,
    "intimate": 22940,
    "Ġhumiliation": 16202,
    "igning": 12685,
    "Ġantichronical": 26611,
    "azing": 7704,
    "Ġeffectual": 18735,
    "Ġdone": 1815,
    "delirium": 14788,
    "aside": 10194,
    "Ġlucas": 3833,
    "Ġoverpowered": 15292,
    "garnished": 26390,
    "Ġwouldst": 18500,
    "Ġalpha": 13592,
    "pips": 21022,
    "Ġtroublesome": 24005,
    "Ġadam": 2125,
    "Ġspile": 22131,
    "ucy": 15447,
    "vely": 3867,
    "progress": 11992,
    "Ġwaggish": 25435,
    "endure": 22229,
    "inked": 12918,
    "hurried": 11355,
    "colonel": 8285,
    "Ġuncle": 3188,
    "Ġdropped": 4474,
    "Ġlabrador": 23333,
    "Ġinfant": 11964,
    "screen": 22999,
    "Ġcharley": 19007,
    "blood": 7779,
    "Ġlinks": 13958,
    "Ġlabeled": 3717,
    "Ġtenderness": 12220,
    "Ġincivility": 18573,
    "buncle": 13696,
    "buoy": 7760,
    "boiling": 19001,
    "Ġassuring": 13069,
    "Ġpreposter": 12827,
    "Ġsnail": 19302,
    "!--": 10680,
    "Ġabout": 633,
    "Ġuncont": 14118,
    "Ġdeceived": 6545,
    "under": 3127,
    "prodigious": 17469,
    "Ġburly": 19252,
    "Ġsheet": 6263,
    "amore": 21847,
    "yourselves": 24959,
    "Ġmocking": 24006,
    "ague": 3909,
    "Ġcalm": 3447,
    "Ġmarred": 23035,
    "iloquent": 21729,
    "Ġmolasses": 25629,
    "duchess": 18464,
    "Ġcabal": 23643,
    "attest": 23122,
    "Ġshook": 4471,
    "Ġgradients": 610,
    "nin": 17610,
    "oar": 12502,
    "Ġrevelation": 25223,
    "course": 6105,
    "Ġcord": 5222,
    "Ġadvantage": 4319,
    "Ġfurnace": 19443,
    "Ġglen": 18854,
    "Ġuttermost": 19491,
    "Ġdiscipline": 26563,
    "uend": 21104,
    "Ġinjury": 10543,
    "ruin": 22180,
    "educated": 17262,
    "ls": 1290,
    "sebastian": 21824,
    "advantage": 8662,
    "ll": 1141,
    "simple": 13456,
    "Ġsaxon": 25469,
    "Ġeffective": 1247,
    "?âĢĿâĢĶ": 12900,
    "Ġsprained": 15887,
    "Ġanteced": 26178,
    "plish": 18209,
    "Ġmessage": 13526,
    "Ġchrysalis": 26540,
    "Ġburst": 4384,
    "Ġgrapes": 15219,
    "autumn": 23345,
    "Ġheire": 18039,
    "bows": 10084,
    "ateg": 1405,
    "Ġflapped": 23014,
    "Ġconvenience": 11333,
    "Ġarrives": 23609,
    "Ġ121": 24466,
    "Ġobedience": 11415,
    "Ġmarine": 23036,
    "Ġenjoys": 19453,
    "Ġintimidated": 24802,
    "Ġbalanced": 12994,
    "Ġcatch": 4444,
    "cated": 20805,
    "Ġ(": 594,
    "comple": 7440,
    "Ġunresting": 25554,
    "Ġprevious": 2088,
    "path": 10121,
    "Ġinestimable": 17445,
    "stranger": 9886,
    "Ġdiffers": 23783,
    "Ġwing": 6667,
    "Ġaxe": 15064,
    "Ġfile": 13906,
    "abst": 21792,
    "Ġmicroscopic": 26375,
    "according": 12032,
    "Ġschemes": 11133,
    "Ġfuture": 1123,
    "Ġwad": 13854,
    "rad": 2153,
    "Ġdevices": 2939,
    "musket": 25342,
    "Ġapparition": 8067,
    "twelvemonth": 25863,
    "Ġsubmitted": 11875,
    "Ġsqualid": 14371,
    "Ġangles": 23590,
    "racts": 14366,
    "Ġcrawling": 17046,
    "Ġarist": 14162,
    "Ġresignation": 18567,
    "Ġformless": 22830,
    "Ġresponses": 23653,
    "private": 13586,
    "Ġvalidate": 3135,
    "Ġaspect": 3092,
    "ensical": 18568,
    "conside": 9293,
    "Ġsolely": 9913,
    "Ġdisapprobation": 16062,
    "Ġepicurean": 20558,
    "Ġimpersonal": 17399,
    "ience": 810,
    "nameless": 19905,
    "Ġsquat": 14370,
    "µ": 118,
    "yea": 23090,
    "Ġdragged": 6888,
    "Ġpersuade": 5873,
    "softened": 20413,
    "scythes": 26404,
    "employ": 10897,
    "Ġnarrations": 24352,
    "izar": 14046,
    "Ġsemantics": 2893,
    "Ġimmortality": 26327,
    "Ġsanct": 15065,
    "Ġlonging": 14301,
    "rol": 5713,
    "Ġspilled": 10926,
    "mine": 5618,
    "Ġpal": 4042,
    "oh": 1580,
    "Ġ127": 24472,
    "Ġalle": 11669,
    "uled": 11539,
    "Ġstranger": 3486,
    "Ġparticip": 16135,
    "ta": 13792,
    "Ġstain": 18067,
    "Ġlegit": 16475,
    "knows": 19174,
    "Ġkins": 22198,
    "unbe": 21876,
    "irous": 8843,
    "Ġhimmalehs": 26232,
    "reckoning": 25271,
    "naturalists": 23507,
    "Ġpractical": 3160,
    "Ġwrench": 12562,
    "neither": 9761,
    "urged": 18051,
    "Ġheedfulness": 24522,
    "Ġaffected": 5577,
    "Ġvint": 18195,
    "Ġpink": 12623,
    "anth": 13890,
    "fig": 8738,
    "begin": 8887,
    "Ġturner": 7050,
    "Ġworked": 6584,
    "Ġunimpe": 22072,
    "Ġendeavoured": 4919,
    "Ġendow": 23137,
    "Ġfisheries": 17441,
    "Ġsee": 804,
    "oin": 17619,
    "Ġpaper": 4285,
    "uth": 3014,
    "iliar": 15718,
    "largely": 19577,
    "Ġpreventing": 883,
    "Ġformation": 2941,
    "Ġcountry": 2532,
    "Ġmagnetic": 17243,
    "recursion": 13333,
    "Ġhistories": 14689,
    "taking": 5689,
    "raltar": 24236,
    "Ġdisobey": 18560,
    "irement": 18356,
    "Ġfishermen": 5971,
    "ree": 873,
    "Ġshaster": 22002,
    "Ġdents": 13914,
    "ounders": 22397,
    "miniature": 16767,
    "creature": 5347,
    "speech": 10669,
    "Ġdefinitions": 22947,
    "Ġdyspepsia": 20645,
    "reng": 4004,
    "Ġgoverness": 8605,
    "acqu": 4844,
    "Ġallowance": 14392,
    "Ġfactory": 23279,
    "Ġchanging": 11757,
    "Ġobsole": 22701,
    "Ġbeloved": 5572,
    "fish": 3516,
    "Ġeddying": 17119,
    ",_": 11464,
    "subjects": 19878,
    "Ġwrithed": 17107,
    "Ġdesigned": 7740,
    "Ġspasmod": 12418,
    "Ġconflag": 20338,
    "Ġmishap": 20579,
    "Ġcensured": 25097,
    "Ġflit": 23009,
    "Ġsilence": 3266,
    "Ġhanded": 8217,
    "shire": 3018,
    "Ġpicture": 4858,
    "Ġdiving": 12606,
    "Ġciv": 3306,
    "precisely": 6916,
    "Ġimputation": 22169,
    "Ġcharms": 11132,
    "rents": 5310,
    "Ġconse": 21808,
    "hur": 6650,
    "Ġpolice": 4676,
    "bourgh": 19105,
    "Ġswayed": 15050,
    "lines": 6958,
    "Ġparlor": 13543,
    "Ġmorrow": 9346,
    "Ġjumping": 13346,
    "Ġpleated": 16300,
    "Ġmeet": 2804,
    "ory": 1080,
    "Ġsummar": 3527,
    "Ġabatement": 22280,
    "recover": 24623,
    "Ġcobbling": 20526,
    "Ġresource": 10995,
    "Ġstalked": 20432,
    "Ġreigning": 15705,
    "fireside": 24693,
    "Ġdeserted": 8640,
    "Ġtease": 18806,
    "uncommonly": 25550,
    "beam": 16041,
    "Ġvisions": 12978,
    "telling": 14442,
    "Ġwolves": 25935,
    "Ġbagging": 24539,
    "secur": 18129,
    "Ġde": 365,
    "!âĢĶâĢĻ": 23567,
    "Ġgardiner": 3234,
    "mospheric": 17092,
    "rench": 3969,
    "get": 1020,
    "Ġdiscreet": 16484,
    "Ġ83": 24459,
    "condesc": 18506,
    "Ġwhose": 2007,
    "commanding": 24751,
    "Ġsanctified": 25883,
    "impress": 18054,
    "Ġlamentations": 17077,
    "animals": 24737,
    "ative": 746,
    "day": 1858,
    "Ġallured": 14127,
    "silly": 24422,
    "enterprise": 24995,
    "Ġactivations": 2721,
    "ice": 587,
    "Ġcreation": 6439,
    "Ġpicked": 6342,
    "Ġparlour": 12325,
    "Ġpeculiarities": 12075,
    "Ġsubstance": 5510,
    "ates": 518,
    "Ġspirit": 3723,
    "ruct": 677,
    "Ġscar": 3208,
    "Ġheroines": 19754,
    "Ġmou": 13858,
    "preading": 18498,
    "Ġfed": 5530,
    "Ġprecipitous": 24836,
    "eteenth": 20160,
    "Ġbamboo": 17440,
    "type": 16179,
    "concent": 19483,
    "Ġdaint": 15597,
    "Ġvanquished": 22879,
    "Ġbecher": 18880,
    "Ġsailor": 3537,
    "loom": 18537,
    "noble": 7924,
    "Ġtawn": 13826,
    "Ġant": 4349,
    "_âĢĶâĢĿ": 20765,
    "Ġcanopy": 18328,
    "Ġfleecy": 17025,
    "Ġninety": 13605,
    "Ġlirra": 21563,
    "bitterly": 20340,
    "pans": 13773,
    "Ġbeckoning": 20505,
    "ama": 11680,
    "Ġhalts": 3155,
    "Ġshallow": 14397,
    "Ġbast": 21382,
    "venge": 4660,
    "Ġcanall": 10930,
    "Ġconf": 1817,
    "sufferable": 12181,
    "Ġforesee": 19126,
    "Ġindefinitely": 25222,
    "Ġshared": 10266,
    "Ġadvertised": 17250,
    "Ġinterpreter": 23213,
    "signs": 16541,
    "Ġextensive": 12951,
    "ort": 519,
    "Ġdecisive": 18492,
    "Ġeigenvalues": 4998,
    "torm": 11533,
    "Ġarg": 4767,
    "Ġgleaming": 24996,
    "mem": 10711,
    "Ġadmired": 7982,
    "Ġconnected": 5393,
    "increase": 20271,
    "Ġmiscellaneous": 17465,
    "Ġembarr": 7445,
    "Ġshoes": 7072,
    "anation": 5804,
    "Ġexpeditions": 24957,
    "Ġcoiled": 11824,
    "Ġfad": 17878,
    "months": 9074,
    "Ġoutrageous": 20613,
    "Ġforb": 11666,
    "Ġcurtain": 14414,
    "mal": 6794,
    "ara": 12611,
    "Ġsiamese": 20486,
    "Ġornament": 11724,
    "Ġfre": 1574,
    "Ġpyth": 21464,
    "Ġflour": 8947,
    "Ġdeadliest": 14558,
    "surrounded": 26089,
    "Ġhappened": 3712,
    "Ġweal": 21924,
    "Ġrevolved": 9987,
    "interred": 23739,
    "appointment": 24064,
    "Ġexistence": 4708,
    "Ġreefed": 20305,
    "Ġdexter": 9704,
    "Q": 53,
    "immediately": 10052,
    "Ġremoving": 12121,
    "restoration": 23237,
    "leaves": 12583,
    "Ġuseful": 3559,
    "mering": 12495,
    "Ġstudies": 7956,
    "eers": 20845,
    "Ġbountiful": 25945,
    "Ġtongues": 14866,
    "Ġunfrequ": 19511,
    "ignorant": 13567,
    "Ġpop": 5151,
    "Ġpulverize": 23396,
    "Ġvesuvius": 26503,
    "Ġdegenerated": 20509,
    "Ġdood": 22246,
    "Ġembarrassed": 11386,
    "protruding": 24813,
    "Ġprep": 4193,
    "Ġdeceiving": 21842,
    "eous": 13715,
    "Ġcy": 13877,
    "Ġtriangular": 14862,
    "Ġoptim": 783,
    "Ġscheme": 7065,
    "exactly": 10639,
    "Ġkeeping": 7282,
    "Ġchoice": 2166,
    "intern": 23738,
    "Ġbrad": 8791,
    "Ġsnaky": 23744,
    "Ġburnished": 24001,
    "lude": 6162,
    "Ġcategor": 4141,
    "Ġcrust": 21354,
    "Ġwonderland": 23428,
    "run": 10723,
    "garn": 20872,
    "Ġthickness": 13282,
    "Ġexpedite": 24956,
    "Ġbiases": 2399,
    "sir": 5001,
    "ina": 21182,
    "Ġavocation": 23956,
    "ram": 13975,
    "conditionally": 24835,
    "Ġcharge": 5325,
    "writes": 4988,
    "ces": 579,
    "Ġcompanionship": 14923,
    "Ġlounged": 19957,
    "Ġindispensable": 11904,
    "Ġfree": 3373,
    "murderer": 13397,
    "flaming": 23973,
    "ez": 5683,
    "Ġevidently": 6759,
    "seaman": 25458,
    "Ġob": 861,
    "ines": 667,
    "Ġconcrete": 20639,
    "remental": 21250,
    "Ġlong": 793,
    "Ġmixture": 9565,
    "Ġtechnical": 17194,
    "fra": 8375,
    "¹": 122,
    "Ġcrucifix": 26080,
[...]
