{
  "metadata": {
    "vocab_size": 26616,
    "algorithm": "BPE",
    "created_at": "2026-09-13 07:09:09",
    "special_tokens": [
      "<PAD>",
      "<SOS>",
      "<EOS>",
      "<UNK>",
      "<MASK>"
    ]
  },
  "vocab": {
    "Ġroaring": 10970,
    "riend": 1186,
    "Ġconsc": 4274,
    "Ġmagic": 8233,
    "Ġunsophisticated": 25993,
    "telesc": 22821,
    "Ġsinew": 25432,
    "Ġcommissionaire": 17002,
    "ti": 8390,
    "host": 5868,
    "Ġhappily": 9334,
    "Ġstaving": 21744,
    "Ġaudacity": 19884,
    "Ġadmired": 7982,
    "Ġcritic": 19123,
    "Ġraiment": 22652,
    "Ġaccumul": 1413,
    "Ġdumb": 7843,
    "Ġnimble": 21531,
    "Ġshouts": 19540,
    "spin": 22731,
    "Ġsang": 12540,
    "iag": 20918,
    "Ġstrides": 22620,
    "Ġfound": 1248,
    "Ġtoo": 1166,
    "suggest": 20379,
    "Ġobservation": 6598,
    "Ġchina": 8040,
    "Ġhavoc": 15817,
    "Ġhermit": 15861,
    "tical": 10131,
    "wal": 10136,
    "Ġplus": 3883,
    "Ġdenny": 9004,
    "Ġsix": 3041,
    "Ġremind": 6058,
    "lungs": 26136,
    "spond": 5567,
    "ination": 2914,
    "Ġthrobbing": 16900,
    "desc": 1395,
    "Ġswept": 7978,
    "Ġjac": 1899,
    "hil": 8379,
    "aths": 22702,
    "Ġinst": 913,
    "Ġoverjoy": 15967,
    "Ġdecreas": 1647,
    "Ġseries": 7060,
    "hetically": 21211,
    "Ġcod": 8413,
    "Ġvariously": 18654,
    "ten": 1558,
    "Ġclutching": 24954,
    "Ġchance": 3320,
    "Ġextraction": 11254,
    "Ġskeletons": 16793,
    "after": 2897,
    "ary": 986,
    "Ġtechni": 1759,
    "meet": 11860,
    "Ġfootman": 8288,
    "Ġindia": 10373,
    "Ġskulls": 12965,
    "Ġspecksnyder": 17406,
    "Ġtus": 10751,
    "Ġdecreasing": 2439,
    "Ġantiqu": 12149,
    "Ġcrocod": 19631,
    "Ġtroublesome": 24005,
    "brevi": 24078,
    "Ġrequ": 794,
    "Ġextort": 22740,
    "opius": 18514,
    "Ġawa": 7713,
    "ening": 3104,
    "accident": 11183,
    "clergyman": 20731,
    "Ġdrooping": 9423,
    "Ġnapoleons": 25886,
    "Ġappro": 661,
    "accounted": 16503,
    "Ġpatroness": 13513,
    "Ġhenry": 5197,
    "Ġmess": 7831,
    "Ġclothe": 4713,
    "wheeling": 22872,
    "lins": 2027,
    "Ġtinge": 25090,
    "Ġflirting": 16252,
    "Ġcurbstone": 26043,
    "jer": 12485,
    "opement": 10314,
    "advise": 24220,
    "Ġcrowds": 14742,
    "asions": 12656,
    "Ġdesperately": 24657,
    "Ġmuseum": 15275,
    "Ġblackstone": 23392,
    "Ġletting": 10364,
    "sperm": 5203,
    "Ġunconquerable": 22067,
    "Ġdreaded": 8289,
    "Ġshake": 6034,
    "imate": 4221,
    "Ġrepentance": 15164,
    "Ġswearing": 16467,
    "Ġsinks": 19552,
    "Ġ47": 14775,
    "Ġobserved": 3542,
    "Ġscratches": 22295,
    "hawks": 24695,
    "Ġlanded": 7468,
    "Ġsubjects": 7073,
    "sold": 15429,
    "Ġwrig": 13073,
    "Ġcalmed": 16271,
    "Ġspir": 2425,
    "Ġsquatted": 25843,
    "better": 7120,
    "Ġplaying": 6909,
    "ropy": 1102,
    "Ġday": 958,
    "cc": 470,
    "Ġtransl": 2830,
    "Ġincident": 6281,
    "trained": 4239,
    "third": 8168,
    "Ġtoast": 21515,
    "Ġstooped": 14466,
    "Ġgo": 613,
    "aiian": 23594,
    "teen": 6370,
    "Ġreigned": 13990,
    "Ġswim": 3820,
    "Ġovers": 14203,
    "rained": 5162,
    "Ġug": 8141,
    "ib": 1235,
    "pend": 6367,
    "Ġow": 8409,
    "towards": 5003,
    "Ġhe": 318,
    "Ġdelivery": 18976,
    "omb": 10208,
    "Ġsubstit": 19543,
    "Ġbeliefs": 24583,
    "Ġcapering": 21357,
    "Ġcircles": 7967,
    "Ġprofusion": 23570,
    "Ġsympathy": 6347,
    "whales": 5187,
    "Ġknow": 632,
    "Ġunguarded": 15854,
    "Ġparadise": 11196,
    "Ġdifficulty": 5770,
    "erative": 21275,
    "Ġdial": 10812,
    "ores": 2410,
    "eridge": 15529,
    "Ġfretfulness": 25449,
    "rent": 1171,
    "weight": 2940,
    "rospect": 11615,
    "Ġdignified": 15602,
    "Ġshrink": 14807,
    "beheaded": 22498,
    "Ġnervously": 19186,
    "Ġsandwich": 19831,
    "espe": 3500,
    "Ġstrained": 10221,
    "thine": 15827,
    "rior": 12746,
    "Ġmumbled": 17809,
    "bus": 5355,
    "dling": 15343,
    "Ġthinker": 22812,
    "Ġnick": 21526,
    "Ġpass": 1040,
    "rid": 5137,
    "ĠâĢľâĢĺ": 8505,
    "Ġsim": 734,
    "Ġevents": 4475,
    "Ġtep": 21164,
    "Ġappals": 22222,
    "Ġcharmingly": 24224,
    "Ġminimum": 23043,
    "Ġstricken": 9779,
    "ppa": 10242,
    "nothing": 3154,
    "Ġunlock": 18244,
    "Ġdisgust": 6706,
    "appearing": 14639,
    "Ġextending": 11026,
    "cul": 1901,
    "Ġrejoicing": 13425,
    "Ġcruelty": 9972,
    "Ġtrespass": 23602,
    "Ġfeebly": 24878,
    "Ġdisturb": 7108,
    "Ġ39": 19493,
    "Ġriotous": 20547,
    "Ġamidst": 9497,
    "verted": 10220,
    "Ġannesley": 19580,
    "Ġquietude": 19363,
    "oe": 7551,
    "oman": 2019,
    "âĢĶâĢĻâĢĿ": 20067,
    "Ġeverybody": 4513,
    "Ġmarvelled": 18875,
    "Ġunrolled": 22042,
    "Ġstaggers": 24654,
    "ie": 728,
    "Ġleathern": 15052,
    "Ġpromises": 10403,
    "Ġmarried": 3410,
    "Ġrude": 7234,
    "Ġdiadem": 24740,
    "Ġmace": 21312,
    "Ġdespairing": 14777,
    "women": 15459,
    "Ġref": 923,
    "avo": 8521,
    "ights": 8477,
    "edmund": 17948,
    "common": 4129,
    "Ġdiverged": 23596,
    "behind": 6779,
    "Ġadmitted": 8989,
    "Ġincorruption": 26310,
    "Ġtransports": 24280,
    "Ġappearances": 10453,
    "Ġinfer": 7683,
    "Ġtrusty": 24107,
    "Ġmadly": 16487,
    "north": 14618,
    "Ġwal": 6517,
    "endous": 6849,
    "haired": 14770,
    "thousand": 5547,
    "Ġliberated": 19669,
    "Ġfolios": 23021,
    "Ġconsulted": 13434,
    "Ġoccasionally": 5590,
    "write": 14649,
    "Ġabstract": 17184,
    "Ġlanyard": 26463,
    "Ġtyph": 10011,
    "ah": 1833,
    "kov": 17588,
    "Ġcontinu": 1167,
    "Ġwin": 9644,
    "sme": 17660,
    "Ġchemistry": 11462,
    "Ġdinner": 4244,
    "slept": 17172,
    "necessarily": 19634,
    "most": 1259,
    "blo": 6354,
    "umbria": 23898,
    "Ġfrequently": 4681,
    "Ġdrew": 3538,
    "idirection": 2408,
    "mysterious": 26053,
    "intended": 11068,
    "Ġinmates": 15627,
    "Ġberkshire": 16886,
    "Ġfacility": 19852,
    "Ġmoon": 4610,
    "herfield": 3632,
    "Ġsweat": 13144,
    "Ġberry": 19749,
    "turtle": 12216,
    "Ġcringing": 25942,
    "sideways": 14573,
    "Ġcollectively": 19971,
    "Ġbald": 16209,
    "gement": 13731,
    "Ġremo": 3786,
    "Ġslice": 23161,
    "tern": 4224,
    "cas": 20796,
    "aguy": 21914,
    "Ġassured": 4372,
    "Ġdrifting": 19281,
    "reg": 2183,
    "Ġmacy": 19358,
    "Ġdrowsiness": 26447,
    "enborough": 21288,
    "Ġattentive": 9036,
    "Ġlane": 5627,
    "ĳ": 244,
    "Ġnormal": 1201,
    "Ġcurving": 16234,
    "Ġcontrivance": 17186,
    "irty": 4052,
    "otion": 4946,
    "Ġguido": 2976,
    "Ġgreen": 3050,
    "tomahawk": 25916,
    "Ġearthly": 7990,
    "Ġcovered": 5171,
    "varieties": 23187,
    "Ġclams": 19992,
    "Ġcandles": 9911,
    "Ġdivinest": 25722,
    "aternity": 21268,
    "Ġmuttered": 7087,
    "Ġballs": 9018,
    "meal": 22709,
    "Ġsentence": 6188,
    "beat": 10988,
    "Ġavenue": 13625,
    "Ġbrill": 8551,
    "umberland": 16839,
    "Ġsherlock": 3893,
    "Ġtwelvemonth": 12182,
    "Ġramsgate": 18649,
    "Ġstacks": 18080,
    "eric": 3471,
    "Ġsubmit": 11874,
    "Ġorganically": 3010,
    "quod": 2164,
    "derest": 18315,
    "Ġconstrued": 26302,
    "prophet": 16183,
    "Ġagrippa": 11811,
    "beings": 12882,
    "Ġtangle": 25761,
    "supp": 4162,
    "alcul": 15632,
    "Ġslices": 23166,
    "Ġrewarded": 14943,
    "afternoon": 13191,
    "Ġwars": 17787,
    "melancholy": 12357,
    "Ġodds": 13334,
    "Ġhorrors": 10482,
    "Ġreturn": 1712,
    "Ġwhitish": 24867,
    "Ġgarden": 3825,
    "Ġblasphemy": 26116,
    "Ġnotice": 4545,
    "ean": 20842,
    "oid": 3127,
    "waving": 21134,
    "Ġpan": 5082,
    "Ġmisfortune": 5569,
    "deav": 2674,
    "Ġimitated": 18330,
    "aet": 15311,
    "Ġhamper": 19392,
    "augment": 18830,
    "Ġabsurdities": 24879,
    "hens": 3939,
    "savor": 25027,
    "Ġadmitting": 19185,
    "achable": 14140,
    "Ġsilent": 3413,
    "Ġmisled": 22764,
    "insufficient": 15492,
    "Ġimprovement": 7966,
    "Ġoverhung": 15970,
    "Ġpavement": 9580,
    "vicious": 21121,
    "features": 14753,
    "Ġpompous": 20426,
    "Ġcalms": 23044,
    "sford": 5998,
    "duchess": 18464,
    "Ç": 136,
    "oko": 18441,
    "Ġgin": 13964,
    "Ġmild": 4147,
    "impulse": 20647,
    "Ġbiggest": 24567,
    "unconquerable": 21895,
    "Ġlivelong": 25512,
    "hos": 15367,
    "othe": 2613,
    "Ġindividual": 5744,
    "vial": 17699,
    "Ġseparation": 11249,
    "twelve": 14624,
    "Ġlaw": 3656,
    "âĢĶâĢĺ_": 24832,
    "beware": 16043,
    "Ġpursuing": 9441,
    "Ġabruptness": 25300,
    "Ġcontemptuous": 24677,
    "Ġcrack": 7709,
    "hog": 8380,
    "Ġventure": 7739,
    "\"": 6,
    "Ġsuite": 18279,
    "Ġbathe": 25444,
    "tting": 17682,
    "co": 2430,
    "Ġconcerns": 11972,
    "cer": 6644,
    "Ġcrate": 19121,
    "Ġwearing": 12744,
    "Ġbracing": 16583,
    "Ġtang": 13817,
    "frock": 20124,
    "Ġadvice": 4902,
    "Ġmoves": 14234,
    "liament": 16221,
    "Ġwits": 15535,
    "ent": 305,
    "Ġpush": 9187,
    "Ġencouragement": 13048,
    "ĠĠĠĠĠĠĠĠĠĠĠĠĠĠĠĠĠĠĠĠĠĠĠĠĠĠĠĠĠĠĠĠĠĠĠ": 19260,
    "Ġagon": 10323,
    "Ġfrankenstein": 7096,
    "Ġlessened": 19089,
    "Ġblameless": 19861,
    "starbuck": 6019,
    "ulated": 6030,
    "Ġletters": 3793,
    "Ġfem": 6135,
    "Ġdefile": 18825,
    "Ġenergetic": 15201,
    "Ġinterests": 14570,
    "Ġkey": 2100,
    "Ġserene": 8167,
    "danish": 20835,
    "Ġinfamous": 16368,
    "pull": 6796,
    "Ġcorn": 9353,
    "Ġdetested": 14177,
    "Ġiron": 3236,
    "subtle": 24246,
    "cket": 3688,
    "quietly": 10595,
    "icit": 3380,
    "Ġgrammars": 11404,
    "Ġcomput": 600,
    "Ġball": 3624,
    "Ġsullenly": 17175,
    "Ø": 153,
    "akeman": 6268,
    "ours": 3428,
    "frequented": 25901,
    "repeating": 20132,
    "Ġfisher": 3223,
    "compliment": 11366,
    "sympathy": 20545,
    "Ġobliv": 16137,
    "antic": 1603,
    "Ġbern": 17860,
    "otam": 21802,
    "tap": 17678,
    "Ġbench": 7237,
    "hammock": 16356,
    "Ġ109": 24416,
    "service": 15039,
    "bey": 10317,
    "bowed": 10687,
    "Ġdiabol": 11455,
    "legra": 10791,
    "Ġlakes": 8131,
    "isbury": 21380,
    "Ġarabian": 9093,
    "Ġconveniently": 20082,
    "box": 5749,
    "broke": 14782,
    "Ġbeast": 7179,
    "Ġ69": 19664,
    "morrow": 4574,
    "Ġrelig": 8552,
    "Ġbehave": 23302,
    "Ġdownstream": 3775,
    "Ġpledged": 20690,
    "ries": 3356,
    "cept": 551,
    "Ġparched": 11731,
    "Ġplight": 14285,
    "bellies": 19977,
    "Ġsash": 17756,
    "country": 6104,
    "Ġshiver": 12772,
    "Ġchecked": 9379,
    "J": 46,
    "reel": 21236,
    "Ġthing": 1637,
    "Ġtit": 8400,
    "Ġ91": 24590,
    "whaling": 7899,
    "some": 2235,
    "troubled": 17113,
    "Ġtipt": 21176,
    "ĠĠĠĠĠĠĠĠĠĠĠĠĠĠĠĠĠĠĠĠĠĠ": 16229,
    "rep": 5525,
    "Ġhardware": 4905,
    "Ġjavel": 17085,
    "Ġground": 2848,
    "attle": 4469,
    "poise": 6172,
    "Ġfreed": 7266,
    "natural": 2276,
    "Ġticklish": 25037,
    "Ġhoe": 23354,
    "Ġgratefully": 20448,
    "elves": 2158,
    "Ġreligions": 20111,
    "mies": 20970,
    "Ġlips": 3992,
    "Ġsacrificial": 24872,
    "Ġunabated": 15856,
    "olic": 14047,
    "ancial": 21365,
    "Ġfumes": 21421,
    "Ġadroit": 26001,
    "Ġweighing": 20019,
    "Ġ_": 839,
    "conclude": 24072,
    "Ġcrib": 21351,
    "mur": 5428,
    "ometer": 19328,
    "Ġparts": 4165,
    "bran": 23576,
    "Ġii": 7384,
    "Ġstaid": 21742,
    "emptied": 23637,
    "Ġouthouse": 22318,
    "Ġdarkened": 16436,
    "rap": 21631,
    "Ġapologies": 25197,
    "Ġsounding": 8265,
    "Ġanswerable": 23472,
    "Ġmap": 2390,
    "Ġforeb": 12008,
    "ri": 390,
    "wear": 22686,
    "ids": 21767,
    "Ġgroans": 14827,
    "Ġprovides": 1931,
    "Ġserious": 4320,
    "Ġcatholic": 20684,
    "seen": 2882,
    "Ġaltogether": 4833,
    "Ġanimation": 11154,
    "Ġdistorted": 14252,
    "ative": 735,
    "Ġadaptive": 1295,
    "Ġgenerator": 3384,
    "Ġplun": 6282,
    "Ġprofile": 16490,
    "ustry": 18359,
    "exposure": 19259,
    "Ġwashing": 9708,
    "Ġcalifornia": 20533,
    "punctual": 26357,
    "Ġadmirals": 20388,
    "represent": 9640,
    "Ġperusal": 14226,
    "Ġrepul": 16413,
    "Ġoperated": 14549,
    "Ġunshored": 25814,
    "garden": 15028,
    "Ġunaccountably": 26517,
    "Ġbruited": 25774,
    "Ġdeeds": 15763,
    "Ġunstructured": 3002,
    "Ġinsipid": 26314,
    "Ġansw": 2204,
    "Ġaisle": 21204,
    "Ġhilarious": 20301,
    "Ġstrikes": 13185,
    "Ġcorpore": 13405,
    "Ġbehalf": 14509,
    "Ġreveries": 11349,
    "Ġmove": 5107,
    "lot": 3208,
    "plutarch": 21967,
    "Ġdimly": 9491,
    "onse": 21252,
    "inex": 14101,
    "Ġmunro": 25631,
    "shipped": 18499,
    "endurable": 22230,
    "favourite": 15147,
    "aid": 1924,
    "Ġoverwhelmed": 11405,
    "Ġsell": 7825,
    "Ġsuperficial": 23458,
    "ource": 5244,
    "uries": 6148,
    "Ġsavory": 23879,
    "Ġleaving": 3905,
    "ructed": 7031,
    "peace": 13054,
    "Ġresided": 11815,
    "Ġdeactivates": 20706,
    "Ġhav": 12759,
    "arrang": 14654,
    "Ġstraight": 3703,
    "Ġstudded": 18959,
    "Ġhook": 6453,
    "Ġcloser": 8663,
    "Ġalways": 1697,
    "spade": 10341,
    "Ġpantheistic": 26337,
    "reat": 618,
    "Ġscrupulous": 20072,
    "rolling": 9063,
    "Ġtaught": 6803,
    "Ġclinched": 17397,
    "ĠĠĠĠĠĠĠĠĠĠĠĠĠĠĠĠĠĠĠĠĠĠĠĠĠĠĠĠĠĠĠĠĠĠĠĠ": 23668,
    "strom": 15688,
    "ward": 705,
    "mut": 17597,
    "Ġslugg": 15272,
    "Ġsy": 489,
    "conduct": 11801,
    "omely": 21642,
    "Ġvirtue": 4923,
    "mpt": 6655,
    "Ġlunatic": 24993,
    "Ġmonsters": 11076,
    "up": 1283,
    "Ġuneasy": 8665,
    "Ġcontribut": 12864,
    "30": 20756,
    "Ġassoc": 6402,
    "Ġconfessor": 24022,
    "Ġexhaled": 19685,
    "anous": 21362,
    "her": 488,
    "itor": 12571,
    "Ġfiner": 13058,
    "Ġdeclaration": 16639,
    "Ġashore": 5352,
    "Ġsite": 17755,
    "Ġconvenience": 11333,
    "Ġconsult": 6057,
    "Ġrnns": 2393,
    "Ġwapping": 21297,
    "Ġsleeve": 20143,
    "strugg": 21665,
    "ig": 323,
    "Ġderive": 10397,
    "Ġirre": 7467,
    "Ġdisgraceful": 15022,
    "Ġobtained": 7431,
    "Ġmute": 19419,
    "atmosphere": 21267,
    "Ġcautious": 12258,
    "Ġrelationships": 2926,
    "wondrous": 12342,
    "vul": 15451,
    "language": 5129,
    "blot": 20785,
    "Ġoverseeing": 22351,
    "Ġcoquet": 22586,
    "Ġtap": 12531,
    "Ġwork": 1386,
    "Ġquadrille": 13544,
    "Ġclapped": 9749,
    "ĠĠĠĠĠĠĠĠĠĠĠĠĠĠĠĠĠĠĠĠĠĠĠĠĠĠĠĠĠĠĠĠĠĠĠĠĠĠ": 16528,
    "Ġfellow": 2775,
    "Ġcompiled": 22575,
    "ulgent": 18152,
    "Ġclearness": 23184,
    "Ġcoherent": 3266,
    "Ġglit": 8562,
    "scept": 21056,
    "Ġrepelled": 19087,
    "Ġdiverse": 19210,
    "Ġdeliberation": 19972,
    "Ġrevolut": 3260,
    "Ġgovernment": 15180,
    "Ġperpendicularly": 11376,
    "Ġhurst": 5582,
    "Ġmovement": 9971,
    "Ġaid": 6123,
    "Ġjealous": 9471,
    "Ġpushed": 5910,
    "Ġgathers": 24742,
    "Ġremarking": 13128,
    "Ġsenior": 17174,
    "Ġaught": 8777,
    "Ġprejud": 6850,
    "Ġextremely": 2668,
    "settled": 10509,
    "Ġwhis": 3506,
    "ozy": 17624,
    "Ġlogical": 14489,
    "Ġeh": 6987,
    "Ġmeal": 9700,
    "otions": 7180,
    "aster": 1870,
    "note": 14343,
    "Ġresolving": 9422,
    "Ġlaud": 17970,
    "jah": 17583,
    "interval": 7991,
    "seek": 8841,
    "Ġsanguinary": 25930,
    "Ġapolog": 9046,
    "Ġsequ": 981,
    "Ġunwillingness": 20035,
    "Ġtendinous": 16933,
    "pad": 13771,
    "Ġattack": 5478,
    "Ġdeeper": 2083,
    "Ġsupposed": 4560,
    "lingly": 9776,
    "Ġbo": 795,
    "Ġcasement": 25095,
    "Ġunembarrassed": 22075,
    "hem": 6665,
    "Ġestimated": 16596,
    "lance": 12486,
    "Ġharbor": 10030,
    "Ġspiritual": 9933,
    "guinea": 16675,
    "Ġstru": 2169,
    "generosity": 23788,
    "Ġoriginated": 24125,
    "presbyterian": 26370,
    "persons": 24177,
    "inclined": 10642,
    "Ġcler": 11776,
    "upwards": 18865,
    "Ġsuit": 5725,
    "quimaux": 21863,
    "Ġbethink": 12383,
    "Ġsoo": 15865,
    "Ġcreep": 22725,
    "Ġmend": 8407,
    "Ġpaddle": 20062,
    "Ġforgetting": 3435,
    "Ġimagination": 5759,
    "Ġeffects": 7233,
    "rogress": 21539,
    "Ġdefence": 11069,
    "Ġvisibly": 22856,
    "Ġob": 861,
    "elab": 21573,
    "Ġunspeakably": 25173,
    "effect": 8607,
    "Ġprovid": 1007,
    "watch": 6119,
    "Ġmeaning": 1418,
    "Ġveil": 7934,
    "Ġoutcast": 18415,
    "Ġglistened": 20175,
    "Ġretire": 10384,
    "Ġvoyager": 16514,
    "Ġpelt": 15614,
    "Ġcir": 21344,
    "Ġstrand": 11832,
    "Ġstings": 21741,
    "Ġscuff": 15947,
    "daughter": 8354,
    "Ġgre": 1583,
    "bottom": 11428,
    "Ġanomalously": 25639,
    "Ġheavily": 6741,
    "Ġclutched": 13522,
    "Ġeas": 2350,
    "Ġdynamic": 5122,
    "iating": 3207,
    "Ġshutters": 9940,
    "Ġpotency": 14648,
    "spears": 23945,
    ",âĢĿâĢĶ": 14223,
    "rip": 9244,
    "Ġdishonoured": 20394,
    "arying": 9804,
    "Ġflooring": 23625,
    "Ġwarmup": 3922,
    "both": 5785,
    "Ġtorrent": 17093,
    "Ġsalut": 10512,
    "Ġvehem": 22890,
    "volutions": 16325,
    "neighb": 16027,
    "ĠĠĠĠĠĠĠĠ": 711,
    "Ġalbert": 12711,
    "Ġpitchpoling": 14914,
    "Ġvine": 8473,
    "waiter": 24587,
    "Ġgor": 9209,
    "Ġenglishmen": 19433,
    "care": 4929,
    "Ġcataract": 23431,
    "Ġearlier": 9090,
    "dissatisf": 26130,
    "Ġint": 411,
    "Ġhampshire": 15246,
    "Ġfaint": 5812,
    "Ġhugh": 15006,
    "used": 3263,
    "ested": 3480,
    "Ġmoran": 9345,
    "rab": 7596,
    "Ġcounty": 9033,
    "mansion": 20985,
    "Ġboyhood": 23757,
    "Ġprosecution": 12385,
    "Ġlinear": 3433,
    "Ġnorris": 23203,
    "Ġunmolested": 15249,
    "Ġwhittingham": 26199,
    "comprehensive": 20629,
    "Ġinnermost": 12165,
    "othic": 16219,
    "sided": 17666,
    "ornament": 23490,
    "Ġvac": 5025,
    "previous": 9763,
    "glings": 23854,
    "Ġinstantaneously": 23662,
    "È": 137,
    "Ġaper": 17745,
    "Ġtrue": 1338,
    "terns": 21826,
    "5": 25,
    "olstadt": 7788,
    "Ġselects": 4386,
    "oda": 15753,
    "ted": 790,
    "aker": 3664,
    "Ġindiam": 22956,
    "idly": 12705,
    "Ġanother": 1737,
    "Ġsouthwards": 19636,
    "Ġcomponents": 8897,
    "Ġsplintered": 11420,
    "distraction": 24203,
    "urch": 3994,
    "Ġtent": 15470,
    "Ġsaintly": 25932,
    "shazz": 14245,
    "Ġaskance": 23151,
    "Ġdescried": 7919,
    "Ġconsists": 11982,
    "Ġsuppress": 13029,
    "Ġlakeman": 6986,
    "Ġblot": 9815,
    "Ġpoltro": 23621,
    "officer": 17055,
    "mercenary": 26316,
    "Ġearned": 19408,
    "Ġequilib": 4137,
    "Ġbenefactor": 14700,
    "avast": 8901,
    "Ġdamned": 13136,
    "piteous": 21036,
    "eye": 6225,
    "bly": 6111,
    "bbing": 6324,
    "Ġcrosswise": 18887,
    "inced": 3339,
    "Ġdest": 2237,
    "Ġstirred": 12222,
    "thodox": 21989,
    "Ġexpectations": 13147,
    "Ġtired": 9152,
    "Ġcouch": 12576,
    "Ġbusier": 23341,
    "Ġpounds": 5368,
    "Ġgord": 21603,
    "stad": 7597,
    "Ġident": 2240,
    "Ġoffered": 5817,
    "Ġseclusion": 18207,
    "Ġsalutation": 12401,
    "Ġdepressions": 25799,
    "Ġstand": 1735,
    "Ġclusters": 25233,
    "Ġcascade": 20584,
    "ild": 1153,
    "perhaps": 4123,
    "merchant": 10469,
    "oundered": 14167,
    "Ġprodig": 6028,
    "Ġunchanged": 22035,
    "Ġfog": 9664,
    "continue": 16863,
    "Ġblank": 5951,
    "Ġcaterpillar": 5865,
    "Ġappear": 2479,
    "ppered": 15795,
    "Ġceremony": 8361,
    "Ġunfav": 14791,
    "shuff": 18497,
    "Ġblackest": 19100,
    "Ġunfulfilled": 26511,
    "Ġgratification": 24101,
    "suspended": 15181,
    "Ġleisure": 6540,
    "ĠcÃ¦sar": 20583,
    "Ġinterrupt": 4359,
    "magnetic": 20555,
    "Ġtire": 17722,
    "Ġoccasions": 7988,
    "pyramid": 21032,
    "Ġwrote": 5011,
    "Ġelimin": 16112,
    "Ġasking": 5651,
    "perpet": 14164,
    "access": 11182,
    "Ġstraw": 9432,
    "Ġwrit": 8242,
    "Ġbarbarous": 13480,
    "turning": 8317,
    "Ġsubsisting": 23438,
    "Ġthee": 2621,
    "Ġpewter": 17188,
    "Ġbully": 23859,
    "ą": 198,
    "Ġrighted": 23179,
    "Ġlapl": 19780,
    "laborers": 23919,
    "Ġsag": 6514,
    "hundred": 8331,
    "Ġprotect": 6338,
    "Ġintrospective": 20603,
    "Ġunsupervised": 2565,
    "Ġskip": 1846,
    "be": 671,
    "Ġbrad": 8791,
    "cess": 538,
    "Ġpersever": 10006,
    "Ġprivileges": 25135,
    "Ġstepdaughter": 22614,
    "Ġunwell": 22021,
    "Ġlife": 1353,
    "Ġsentences": 2682,
    "Ġcraft": 4376,
    "lying": 7174,
    "Ń": 260,
    "Ġstrait": 23752,
    "Ġbind": 12587,
    "bolts": 11422,
    "Ġmeasure": 3595,
    "ital": 4819,
    "Ġflattered": 10377,
    "Ġsombre": 18861,
    "acquaintance": 6937,
    "Ġarmies": 16494,
    "create": 24162,
    "Ġhedge": 8364,
    "Ġenrolled": 21941,
    "fow": 20855,
    "Ġineff": 12639,
    "Ġstriking": 6088,
    "Ġopium": 8997,
    "Ġballasted": 23983,
    "historical": 20469,
    "Ì": 141,
    "Ġspy": 22127,
    "swelled": 19613,
    "Ġevangelical": 25507,
    "flask": 12104,
    "ous": 477,
    "Ġhansom": 13668,
    "Ġperpetual": 12307,
    "gallantry": 15061,
    "among": 6257,
    "Ġyawning": 12304,
    "hopeless": 16919,
    "Ġmainmast": 9782,
    "Ġeddying": 17119,
    "dro": 6646,
    "Ġprofessional": 7298,
    "spouting": 25003,
    "ura": 1055,
    "Ġwithhold": 18118,
    "Ġlob": 7627,
    "harb": 9126,
    "unearthly": 19275,
    "Ġsubproblems": 12963,
    "icy": 6141,
    "sugg": 11846,
    "Ġshabby": 14114,
    "Ġfowl": 11332,
    "tiger": 13800,
    "Ġnorton": 12654,
    "Ġforeboding": 20387,
    "glad": 9011,
    "measure": 10034,
    "upon": 2722,
    "ineering": 21992,
    "Ġdiver": 2524,
    "Ġexclaim": 11223,
    "Ġconfines": 23309,
    "weary": 22689,
    "Ġflanks": 11918,
    "Ġdil": 6383,
    "Ġherds": 9719,
    "Ġoat": 21326,
    "gloomy": 25147,
    "Ġsurrounds": 24234,
    "Ġsaucer": 20608,
    "ateg": 1350,
    "Ġstains": 21748,
    "steelkilt": 10050,
    "Ġincor": 2609,
    "sleepers": 24729,
    "ubb": 1648,
    "Ġentitled": 8539,
    "Ġsighing": 18676,
    "marvell": 24175,
    "returning": 12210,
    "Ġshadow": 5596,
    "deploy": 22146,
    "iced": 3901,
    "Ġinequal": 21500,
    "izon": 18135,
    "Ġdebt": 12172,
    "flowing": 14590,
    "fering": 17544,
    "Ġpa": 2988,
    "Ġvile": 8474,
    "val": 1165,
    "Ġstanders": 19016,
    "Ġrang": 9248,
    "horrible": 14602,
    "Ġforesight": 13131,
    "despond": 19803,
    "ificant": 22215,
    "Ġevident": 6614,
    "Ġdiscl": 9800,
    "rubbed": 22194,
    "Ġended": 7950,
    "Ġsixty": 7722,
    "Ġeffort": 8202,
    "fig": 8738,
    "Ġrecollected": 8311,
    "mody": 16193,
    "Ġwreak": 16819,
    "almost": 4943,
    "Ġsatisfied": 4172,
    "tall": 17675,
    "Ġstrip": 9424,
    "pure": 17628,
    "Ġlime": 13951,
    "leep": 4636,
    "fanning": 20868,
    "Ġdemoniac": 15068,
    "Ġaccurate": 13251,
    "Ġindist": 14411,
    "narrative": 17322,
    "mistaken": 12215,
    "Ġcomment": 9235,
    "man": 1054,
    "fortune": 4975,
    "chors": 11647,
    "Ġruffled": 25838,
    "ific": 491,
    "injustice": 17739,
    "Ġlanding": 11989,
    "harpo": 4806,
    "Ġsquad": 22840,
    "Ġsqueezing": 25009,
    "Ġserpents": 13081,
    "Ġbronze": 22869,
    "Ġducks": 25161,
    "clifford": 23158,
    "horror": 13163,
    "Ġnoted": 15834,
    "awk": 23117,
    "shall": 4552,
    "Ġrespons": 2685,
    "hist": 7131,
    "waited": 24586,
    "Ġmoved": 4841,
    "dependence": 17170,
    "Ġtypes": 8939,
    "engagements": 25855,
    "Ġsmelt": 16072,
    "liness": 8750,
    "present": 1138,
    "reject": 21239,
    "Ġtailed": 21171,
    "Ġeldest": 6572,
    "Ġhardy": 8568,
    "Ġtwinkled": 14315,
    "Ġfriendless": 23026,
    "Ġendeavor": 16547,
    "Ġparadigms": 3054,
    "attempt": 9363,
    "Ġmart": 10781,
    "strike": 14952,
    "Ġlevel": 5020,
    "Ġmounttop": 19981,
    "Ġmantelpiece": 15211,
    "Ġconcealed": 7494,
    "Ġangel": 4854,
    "Ġinjuring": 24271,
    "Ġuntrodden": 23526,
    "Ġbut": 424,
    "Ġpaternal": 16384,
    "Ġpurchas": 19876,
    "Ġchannels": 26014,
    "Ġfig": 3625,
    "former": 11752,
    "Ġburden": 8611,
    "Ġerudite": 26353,
    "Ġpoker": 13925,
    "Ġtoils": 10188,
    "Ġdreading": 23801,
    "Ġdiminishing": 4209,
    "cery": 20810,
    "unch": 14061,
    "Ġtorn": 6000,
    "Ġspasmodic": 20401,
    "Ġdriving": 3618,
    "ight": 403,
    "Ġpour": 13917,
    "Ġfunny": 7637,
    "exclaimed": 11794,
    "Ġfinishing": 23127,
    "ogrand": 26263,
    "Ġbaker": 4697,
    "Ġstowed": 21743,
    "Ġtant": 12530,
    "Ġowner": 8925,
    "ulity": 10888,
    "Ġaccompanied": 6780,
    "Ġskiff": 16169,
    "concerted": 16674,
    "Ġrestrained": 16376,
    "converse": 22477,
    "studies": 25170,
    "Ġstem": 15726,
    "Ġenclosure": 20627,
    "Ġscuffle": 20611,
    "Ġecstasy": 11633,
    "Ġeber": 18006,
    "Ġsplit": 7993,
    "2": 22,
    "Ġabatement": 22280,
    "Ġmore": 678,
    "ollen": 11300,
    "Ġaustral": 12177,
    "Ġmim": 3105,
    "pents": 11515,
    "Ġsubjected": 23574,
    "repairing": 24495,
    "soc": 5175,
    "Ġconsole": 8151,
    "Ġbubbles": 11400,
    "ckery": 22094,
    "Ġboil": 16108,
    "belt": 24039,
    "Ġcastors": 23979,
    "Ġdescribe": 2765,
    "heavens": 19748,
    "Ġunsupplied": 22047,
    "Ġrabb": 4164,
    "Ġolive": 12570,
    "12": 20751,
    "Ġaud": 6663,
    "Ġdrunkard": 20180,
    "so": 890,
    "designated": 26320,
    "sample": 12511,
    "Ġruggedness": 26270,
    "Ġsucking": 12791,
    "Ġentire": 2555,
    "Ġhedgehog": 10647,
    "Ġprocedures": 9415,
    "blending": 24131,
    "idual": 1561,
    "ella": 12757,
    "dress": 17522,
    "revol": 12545,
    "Ġexecut": 4247,
    "hum": 3779,
    "mosphere": 10046,
    "Ġbrougham": 17872,
    "laugh": 10111,
    "Ġdeference": 10884,
    "relig": 15515,
    "Ġsucceeding": 16763,
    "Ġcommonplaces": 16292,
    "lott": 6652,
    "Ġsoften": 23126,
    "quitted": 21861,
    "ī": 236,
    "iqu": 7802,
    "Ġupdate": 2459,
    "Ġuniverse": 14127,
    "Ġcheer": 4069,
    "conquerable": 17402,
    "Ġshot": 4546,
    "Ġoak": 6129,
    "Ġobservant": 20113,
    "Ġhundredth": 16521,
    "Ġapprove": 12878,
    "Ġforgiven": 24030,
    "Ġimpulsive": 19966,
    "Ġhazarded": 25655,
    "Ġpieces": 7368,
    "Ġnic": 7375,
    "destruction": 11257,
    "Ġrekindled": 21680,
    "Ġcomplied": 14737,
    "Ġvenetian": 14850,
    "jammed": 25907,
    "bearded": 18523,
    "Ġfugitive": 17330,
    "Ġafter": 870,
    "Ġnumber": 1983,
    "educated": 17262,
    "itled": 7577,
    "few": 8204,
    "osy": 11762,
    "Ġstreet": 2958,
    "Ġwer": 12557,
    "Ġforth": 3462,
    "acup": 14262,
    "Ġglossy": 15231,
    "Ġnetwork": 451,
    "Ġboats": 2636,
    "sincerely": 24585,
    "Ġcommitted": 7430,
    "Ġtempestuous": 20074,
    "Ġpew": 9318,
    "remember": 7261,
    "sych": 9889,
    "presum": 12873,
    "heric": 15915,
    "Ġerect": 6144,
    "Ġnar": 7374,
    "intelligent": 16846,
    "alse": 4185,
    "Ġcharacters": 9374,
    "sorting": 17006,
    "scream": 11078,
    "belongs": 25597,
    "cra": 6355,
    "pro": 2050,
    "taught": 17686,
    "Ġpersisted": 13042,
    "dor": 12456,
    "Ġundaunted": 24122,
    "Ġgould": 17992,
    "uble": 21105,
    "pictures": 15094,
    "Ġpresence": 5031,
    "Ġresidence": 8207,
    "steady": 14712,
    "track": 24335,
    "Ġfish": 2711,
    "enty": 2917,
    "ulty": 22572,
    "Ġdirectors": 18923,
    "cruet": 17028,
    "danced": 20830,
    "illating": 22111,
    "Ġtradesman": 20076,
    "athy": 14326,
    "Ġsagaciously": 24730,
    "henry": 16628,
    "Ġeleventh": 23372,
    "adoes": 11663,
    "craft": 12251,
    "Ġsuffoc": 18871,
    "Ġhipp": 21495,
    "etch": 9207,
    "Ġreckoning": 14982,
    "ating": 666,
    "Ġbreaches": 14523,
    "Ġsteered": 11095,
    "Ġmungo": 25632,
    "keeping": 8638,
    "firm": 10700,
    "Ġremorselessly": 16969,
    "Ģ": 227,
    "Ġsucc": 12789,
    "Ġgrand": 3594,
    "Ġthree": 1371,
    "theories": 18081,
    "Ġshuddered": 11302,
    "Ġbroken": 3448,
    "gage": 13726,
    "Ġcasket": 19727,
    "links": 20960,
    "oin": 17619,
    "Ġbor": 5805,
    "awful": 23118,
    "conscientious": 19629,
    "breadth": 20279,
    "Ġneedle": 8275,
    "Ġfervent": 14899,
    "Ġinh": 10826,
    "Ġlevers": 18067,
    "chamber": 13629,
    "Ġunthink": 18248,
    "Ġhateful": 19716,
    "Ġbags": 24537,
    "Ġwhere": 785,
    "Ġyale": 21783,
    "notwithstanding": 22755,
    "rel": 3753,
    "reasoning": 9479,
    "agues": 8161,
    "Ġswerve": 14441,
    "Ġexperienced": 6583,
    "Ġred": 3003,
    "Ġeternity": 12283,
    "bold": 17490,
    "Ġfortifications": 23622,
    "rians": 21934,
    "Ġenter": 4031,
    "Ġfreemason": 23213,
    "\"]": 17473,
    "conject": 8883,
    "against": 5871,
    "typewritten": 26039,
    "unerative": 21900,
    "Ġawaited": 17075,
    "billiard": 25335,
    "Ġopposition": 16523,
    "may": 3680,
    "complaisance": 24808,
    "Ġpresented": 5183,
    "Ġpoints": 5249,
    "aim": 2755,
    "Ġchewed": 16373,
    "Ġmethodic": 23193,
    "Ġending": 18924,
    "ther": 480,
    "Ġmagnanimous": 17414,
    "Ġfile": 13906,
    "Ġsaxon": 25468,
    "Ġshaped": 15838,
    "Ġpicturesqueness": 24480,
    "Ġcannib": 6036,
    "Ġunperceived": 22041,
    "pton": 15796,
    "Ġrobinson": 17466,
    "queness": 18150,
    "crucible": 24843,
    "Ġunsav": 18252,
    "Ġflapped": 23014,
    "value": 18810,
    "divided": 25021,
    "yl": 7818,
    "Ġsoothe": 7404,
    "Ġreclining": 26035,
    "Ġfeet": 2258,
    "Ġtestified": 16333,
    "$": 8,
    "nets": 9135,
    "Ġlocal": 1198,
    "Ġproximity": 3220,
    "Ġsoup": 7068,
    "plac": 15824,
    "Ġaperture": 26161,
    "Ġattempts": 10493,
    "Ġconvey": 9984,
    "Ġample": 11802,
    "Ġabating": 22271,
    "Ġnobly": 22245,
    "Ġheedful": 19743,
    "Ġstruggled": 9908,
    "Ġneed": 2607,
    "loved": 14253,
    "Ġperfections": 23610,
    "downstairs": 23923,
    "Ġcontrivances": 12361,
    "ĠâĢľ": 516,
    "liest": 6295,
    "Ġsteel": 3889,
    "lies": 15385,
    "Ġxxx": 7766,
    "Ġdiscre": 2414,
    "Ġimaginations": 16519,
    "Ġpleasure": 2695,
    "vinegar": 25421,
    "blast": 9590,
    "Ġmrs": 1465,
    "Ġplayers": 12042,
    "Ġdecomposition": 5343,
    "Ġfrost": 6096,
    "Ġretarded": 23074,
    "Ġhereafter": 9333,
    "ppo": 18178,
    "Ġblood": 3168,
    "ernation": 8212,
    "choose": 23675,
    "rived": 5373,
    "quet": 6834,
    "Ġspoutings": 14678,
    "solved": 7684,
    "Ġbackbone": 22661,
    "inguish": 9400,
    "Ġempty": 5354,
    "Ġfunction": 594,
    "Ġimputation": 22176,
    "mblies": 24609,
    "innocence": 15187,
    "guard": 12133,
    "Ġconvincing": 19310,
    "Ġdisapprobation": 16062,
    "Ġtricks": 13488,
    "Ġrans": 21970,
    "Ġdawn": 6816,
    "Ġfingertips": 24020,
    "Ġshrugged": 12774,
    "aft": 9586,
    "leviathans": 19941,
    "abling": 1080,
    "Ġwrapping": 19778,
    "Ġplain": 2816,
    "Ġprophetic": 20023,
    "Ġdrawing": 3918,
    "Ġgoverned": 23573,
    "Ġhitherto": 5880,
    "ahead": 12438,
    "Ġhark": 8429,
    "pier": 17637,
    "Ġcognitive": 13638,
    "Ġgospel": 18003,
    "oga": 22716,
    "anxiously": 15114,
    "Ġready": 3399,
    "dinner": 11408,
    "Ġfort": 2578,
    "Ġmajestic": 8643,
    "Ġcap": 2360,
    "Ġlate": 3379,
    "mates": 5073,
    "Ġpack": 5444,
    "Ġpartly": 6714,
    "linen": 25258,
    "ago": 14068,
    "Ġdepress": 14051,
    "tiest": 21084,
    "Ġdeserved": 7736,
    "abetical": 15747,
    "carpet": 25203,
    "Ġswallow": 8953,
    "Ġ-": 1946,
    "friends": 8306,
    "Ġsurrounding": 12167,
    "Ġphysiogn": 12392,
    "acled": 16067,
    "Ġrelinqu": 12988,
    "Ġnails": 12653,
    "Ġindecision": 25782,
    "Ġvivacity": 14944,
    "bber": 4570,
    "Ġbold": 5293,
    "Ġwalrus": 14976,
    "acters": 9312,
    "Ġrolls": 8334,
    "Ġget": 1620,
    "Ġxli": 14544,
    "Ġvision": 1518,
    "dropping": 14985,
    "Ġslaughtered": 26586,
    "Ġstrolled": 16772,
    "Ġpunctually": 17141,
    "Ġsends": 14793,
    "Ġcheery": 16371,
    "Ġcausing": 16361,
    "Ġcried": 1484,
    "Ġcontinued": 2923,
    "here": 2544,
    "judging": 24204,
    "Ġcolle": 8927,
    "drawers": 19389,
    "Ġjudge": 5502,
    "Ġharsh": 9524,
    "Ġacquiesce": 20332,
    "Ġparcel": 15203,
    "puff": 21024,
    "Ġmutiny": 13264,
    "Ġrigid": 16718,
    "type": 16179,
    "Ġger": 21594,
    "shorn": 22463,
    "Ġnarration": 13507,
    "sword": 10728,
    "Ġaux": 21202,
    "Ġbelted": 22951,
    "nants": 17615,
    "wide": 10140,
    "can": 1233,
    "Ġaware": 5756,
    "Ġconnecting": 18632,
    "Ġepic": 15032,
    "ody": 1476,
    "Åĵuvre": 25888,
    "Ġstuck": 9225,
    "enemy": 15530,
    "Ġconcoct": 19050,
    "icide": 11621,
    "Ġjerking": 12250,
    "Ġaids": 12233,
    "Ġ275": 20114,
    "Ġwaste": 9237,
    "ont": 2620,
    "culine": 19067,
    "Ġdames": 23475,
    "Ġrefusing": 11031,
    "Ġexplaining": 15964,
    "disguise": 26307,
    "Ġrecollect": 8310,
    "Ġminut": 2203,
    "hunsford": 24386,
    "Ġapplications": 4785,
    "Ġstarts": 16585,
    "causing": 25519,
    "Ġminister": 18753,
    "retion": 9365,
    "icions": 21566,
    "Ġchil": 11755,
    "Ġalex": 15137,
    "Ġleyden": 21736,
    "Ġvirgin": 7327,
    "Ġfilm": 23929,
    "Ġslaugh": 18940,
    "Ġag": 684,
    "Ġdarkness": 4277,
    "Ġrepaid": 19084,
    "Ġumbrell": 13654,
    "society": 9975,
    "Ġze": 8547,
    "Ġprograms": 7238,
    "whip": 22241,
    "Ġvial": 10251,
    "Ġcounterpart": 24720,
    "Ġanswer": 2598,
    "Ġmors": 17803,
    "him": 1940,
    "clim": 18932,
    "pen": 1202,
    "Ġbase": 5013,
    "Ġsubaltern": 22795,
    "Ġdirector": 18922,
    "idled": 21772,
    "clever": 20815,
    "Ġobstinacy": 17424,
    "anzas": 17842,
    "Ġcommunicated": 9064,
    "Ġdissuade": 26258,
    "Ġharris": 13930,
    "Ġreckon": 19872,
    "Ġtheology": 21279,
    "Ġ184": 16609,
    "Ġessays": 19747,
    "Ġawed": 23587,
    "Ġinvestigated": 25387,
    "silver": 19693,
    "unction": 10237,
    "bro": 4037,
    "distinctive": 25726,
    "faint": 17547,
    "les": 1016,
    "Ġkl": 2736,
    ",)": 9104,
    "Ġdeer": 12725,
    "wants": 21133,
    "Ġsensations": 5260,
    "Ġannals": 17900,
    "Ġpredicting": 2412,
    "Ġhonorable": 16878,
    "Ġrested": 9382,
    "superstitious": 17283,
    "Ġwond": 3941,
    "Ġ94": 17719,
    "Ġelijah": 9103,
    "changing": 10856,
    "Ġgirls": 4279,
    "Ġgravely": 7883,
    "Ġconventional": 25548,
    "Ġunable": 4951,
    "Ġax": 7822,
    "Ġcaptioning": 23023,
    "Ġfork": 15736,
    "olstad": 7613,
    "Ġapr": 12537,
    "istence": 2385,
    "Ġbuck": 7157,
    "Ġrafters": 22656,
    "winds": 10524,
    "Ġhails": 21954,
    "reve": 12544,
    "Ġimagined": 8610,
    "Ġembod": 14416,
    "Ġpreser": 6041,
    "Ġcherished": 10593,
    "Ġ51": 24316,
    "Ġrobbed": 23033,
    "Ġeluc": 16113,
    "Ġresolve": 13174,
    "Ġsnarl": 25714,
    "whis": 7898,
    "Ġoutrageous": 20613,
    "deeply": 16181,
    "Ġcanoe": 9726,
    "Ġpickle": 16724,
    "Ġjig": 15955,
    "impatiently": 20474,
    "Ġimpulses": 19965,
    "Ġcontented": 9759,
    "Ġworsh": 13005,
    "ball": 7792,
    "wore": 21127,
    "orate": 10802,
    "atum": 21262,
    "hol": 3839,
    "Ġarchitect": 967,
    "gal": 15359,
    "Ġentertaining": 16928,
    "Ġlest": 6395,
    "Ġdescribes": 3121,
    "cannibals": 25585,
    "speaking": 12103,
    ".,": 5988,
    "Ġ78": 19616,
    "exp": 2737,
    "Ġunexpected": 6840,
    "Ġjewelled": 20186,
    "Ġwherefore": 8526,
    "Ġkinds": 14506,
    "Ġskilfully": 20527,
    "Ġkink": 22197,
    "Ġmarry": 4420,
    "Ġsuccess": 3611,
    "nder": 20989,
    "Ġdropping": 7482,
    "ich": 469,
    "Ġmale": 9651,
    "Ġcarefully": 6305,
    "Ġexulting": 20261,
    "meth": 11505,
    "Ġchatting": 24746,
    "hunter": 10558,
    "Ġacutely": 14317,
    "orative": 21401,
    "delighted": 10565,
    "Ġunfit": 14790,
    "Ġhandle": 3137,
    "Ġsigh": 10339,
    "Ġglo": 1715,
    "Ġlaughing": 5339,
    "Ġjungfrau": 15252,
    "key": 5462,
    "ascending": 24706,
    "Ġswore": 10381,
    "Ġpulley": 2975,
    "Ġway": 1088,
    "Ġfinest": 10394,
    "dances": 17523,
    "itories": 15553,
    "Ġphysiognomically": 25613,
    "Ġtwo": 1043,
    "irc": 1730,
    "engine": 18929,
    "Ġchick": 22251,
    "Ġheadache": 22903,
    "Ġledge": 19404,
    "Ġpint": 17911,
    "mouthful": 25209,
    "Ġbusy": 6190,
    "Ġestimates": 3747,
    "Ġdebts": 8036,
    "asher": 15650,
    "Ġlow": 1646,
    "Ġpull": 5152,
    "Ġtoilet": 13940,
    "gainst": 25144,
    "Ġencounter": 6629,
    "Ġ49": 24086,
    "Ġinno": 1380,
    "Ġdanes": 25160,
    "ock": 15405,
    "udg": 22751,
    "Ġinhuman": 13932,
    "dutch": 17221,
    "Ġevening": 2651,
    "Ġmathematical": 3353,
    "Ġpuff": 6526,
    "Ġpeering": 8536,
    "impregn": 21717,
    "batt": 20780,
    "osa": 22263,
    "teeth": 10357,
    "Ġtrucks": 19515,
    "fitzwilliam": 11354,
    "Ġabounding": 12348,
    "Ġtalked": 4423,
    "Ġshaken": 10267,
    "que": 1147,
    "Ġdubious": 17386,
    "Ġvit": 10248,
    "Ġinfl": 6892,
    "Ġcertainty": 6735,
    "Ġbutts": 15859,
    "illuminated": 17456,
    "insisted": 23069,
    "Ġ86": 24461,
    "Ġboards": 14304,
    "lucas": 15155,
    "Ġsignature": 16495,
    "Ġedinburgh": 16459,
    "Ġargu": 10936,
    "Ġrequires": 1008,
    "showing": 22467,
    "Ġtraitors": 23079,
    "Ġfrighten": 13283,
    "Ġconvert": 11847,
    "stay": 9684,
    "counterpart": 26361,
    "Ġflush": 14427,
    "hy": 4741,
    "Ġappl": 1751,
    "Ġrepented": 23365,
    "Ġteeth": 4167,
    "commotion": 24914,
    "Ġretired": 6071,
    "Ġante": 17898,
    "jeroboam": 25620,
    "Ġdrowning": 19906,
    "aried": 10989,
    "ricity": 23065,
    "Ġrevisit": 21673,
    "continuance": 19721,
    "Ġ**": 4722,
    "Ġrash": 10900,
    "Ġgemin": 21613,
    "Ġcircumference": 13548,
    "Ġsinned": 18953,
    "linked": 17595,
    "Ġdried": 7366,
    "Ġuniversal": 2234,
    "years": 6882,
    "Ġhistor": 3392,
    "Ġreasoner": 14437,
    "Ġbuzz": 24000,
    "acted": 11012,
    "Ġprospects": 9962,
    "Ġcommunication": 1873,
    "bbings": 19278,
    "ication": 995,
    "Ġgather": 6535,
    "vil": 2732,
    "Ġbegged": 8231,
    "Ġpriv": 4183,
    "Ġinsp": 2099,
    "Ġmiser": 18702,
    "esteem": 26009,
    "barbar": 20241,
    "pursued": 17284,
    "rush": 7011,
    "isol": 17848,
    "Ġjust": 1243,
    "Ġdim": 4758,
    "fl": 3601,
    "Ġwant": 1120,
    "Ġcarted": 21353,
    "Ġunderstanding": 1805,
    "Ġcongeal": 25981,
    "Ġcaucus": 17383,
    "squeezing": 25914,
    "Ġconducted": 10505,
    "umphed": 23521,
    "Ġpreposterous": 13673,
    "ï": 176,
    "shel": 11934,
    "Ġwavering": 23283,
    "Ġmalignity": 10559,
    "gon": 17554,
    "Ġunquestion": 18249,
    "Ġremembrance": 8318,
    "Ġhealthful": 24064,
    "Ġinconstant": 21499,
    "Ġmariners": 6068,
    "carte": 25401,
    "Ġcompleted": 9000,
    "Ġblessing": 11265,
    "hero": 21207,
    "Ġwildest": 16512,
    "earth": 6502,
    "ets": 1158,
    "Ġ33": 16678,
    "pan": 10718,
    "Ġproud": 5654,
    "Ġmummy": 25769,
    "Ġunconscious": 9550,
    "Ġly": 2268,
    "doublo": 24661,
    "Ġalche": 21787,
    "Ġadvoc": 13001,
    "Ġdeacon": 18146,
    "proper": 7470,
    "Ġleap": 5824,
    "Ġguest": 7248,
    "Ġcabin": 3305,
    "cial": 2647,
    "Ġtimely": 19597,
    "atics": 15526,
    "Ġsketches": 26272,
    "Ġstrangeness": 16706,
    "wid": 10137,
    "Ġdict": 9178,
    "oso": 12835,
    "Ġappertaining": 26535,
    "Ġamusement": 8056,
    "Ġpreparation": 13532,
    "classes": 12140,
    "simply": 20673,
    "magnet": 14973,
    "Ġtomahawk": 7538,
    "Ġnortheast": 23204,
    "Ġdisappeared": 5645,
    "Ġbake": 21385,
    "Ġaristocratic": 20515,
    "hall": 8085,
    "Ġbouton": 17870,
    "Ġdischarge": 18556,
    "Ġ31": 12135,
    "Ġcolleague": 17162,
    "Ġlatitudes": 9499,
    "rmsprop": 4524,
    "Ġsnatch": 14641,
    "Ġconceal": 5974,
    "Ġdiana": 21439,
    "Ġrol": 3556,
    "oline": 6833,
    "Ġcontrive": 16014,
    "Ġfisherman": 12080,
    "Ġpious": 11602,
    "Ġbird": 3755,
    "Ġcategor": 4140,
    "wedged": 24559,
    "Ġclapham": 17268,
    "writer": 14650,
    "qu": 369,
    "Ġcompress": 21848,
    "pate": 21012,
    "ocris": 23711,
    "masters": 16836,
    "onomy": 12552,
    "Ġunderstand": 833,
    "Ġbefallen": 12347,
    "ription": 5676,
    "Ġgayer": 24501,
    "Ġgentlemanlike": 12071,
    "Ġslightest": 6092,
    "Ġstig": 14006,
    "who": 2442,
    "iful": 2883,
    "Ġwatching": 4856,
    "Ġfrancis": 26064,
    "Ġcoppers": 22587,
    "claimed": 9839,
    "too": 4510,
    "Ġcooking": 16649,
    "Ġperadventure": 22401,
    "preserver": 20216,
    "excellent": 8044,
    "thankful": 16808,
    "Ġdeserts": 10510,
    "ements": 11109,
    "iece": 3230,
    "Ġlays": 15993,
    "Ġelegant": 7531,
    "capitals": 25083,
    "lashed": 20956,
    "steam": 23963,
    "Ġbrightened": 23832,
    "Ġpercept": 14225,
    "Ġbakers": 17868,
    "Ġpanthe": 19656,
    "ceptive": 15966,
    "gone": 6504,
    "Ġplate": 8902,
    "Ġmedit": 8025,
    "sprinkling": 24913,
    "Ġsorely": 17259,
    "Ġworm": 9165,
    "Ġglittering": 10056,
    "own": 745,
    "Ġconflag": 20338,
    "Ġharrow": 17928,
    "Ġundulating": 19520,
    "Ġdanger": 3521,
    "Ġfaintness": 24571,
    "Ġdissect": 16057,
    "Ġbreeds": 23351,
    "Ġthump": 11614,
    "riumph": 4920,
    "Ġstack": 21740,
    "Ġprof": 2456,
    "spikes": 10342,
    "Ġtattooing": 15030,
    "substance": 15235,
    "Ġcontract": 18476,
    "Ġdisagree": 22536,
    "Ġbegan": 2023,
    "Ġeternally": 11371,
    "Ġtorpor": 25034,
    "Ġ48": 24085,
    "Ġinteractions": 12911,
    "Ġsanctified": 25883,
    "Ġnine": 5369,
    "extrem": 18700,
    "Ġabide": 14190,
    "Ġfest": 10806,
    "Ġprotruding": 16661,
    "Ġpurchased": 12265,
    "Ġprovoked": 13330,
    "tled": 3457,
    "Ġcomple": 2840,
    "Ġourselves": 5127,
    "wrapped": 15213,
    "ained": 3062,
    "^{": 15308,
    "flow": 2482,
    "measured": 19993,
    "Ġmal": 5221,
    "alle": 1294,
    "bearance": 22499,
    "flex": 24844,
    "Ġhorn": 6186,
    "event": 8077,
    "Ġhapp": 1091,
    "Ġcarried": 3694,
    "summer": 11998,
    "clean": 14764,
    "pity": 17629,
    "Ġpad": 8125,
    "Ġdesperation": 19821,
    "Ġdesignated": 19524,
    "across": 10325,
    "Ġwhirlwinds": 20468,
    "erate": 7149,
    "Ġrepublican": 17415,
    "much": 3706,
    "ousness": 10277,
    "Ġlanterns": 24578,
    "Ġmovable": 22439,
    "opatra": 22487,
    "Ġswift": 3670,
    "head": 1437,
    "Ġinanimate": 13936,
    "Ġlimited": 23548,
    "renched": 7907,
    "match": 15394,
    "anqu": 4111,
    "oting": 2744,
    "Ġtemper": 957,
    "icirc": 15660,
    "terrific": 25043,
    "Ġduly": 13355,
    "lit": 9608,
    "Ġachieves": 4379,
    "Ġtry": 3134,
    "00": 1609,
    "Ġhoping": 11105,
    "Ġfict": 21408,
    "ouraged": 22863,
    "iferous": 17294,
    "Ġcelerity": 17439,
    "yth": 980,
    "Ġfundament": 2927,
    "Ġboast": 7035,
    "8": 28,
    "Ġmourn": 8707,
    "mond": 20976,
    "Ġabridged": 26542,
    "oam": 8755,
    "Ġsandwiched": 26612,
    "Ġbaling": 17861,
    "Ġslee": 8977,
    "Ġtheirs": 7025,
    "Ġseek": 4511,
    "Ġlabyrinth": 13683,
    "Ġadmire": 5264,
    "unwittingly": 25802,
    "Ġglanced": 5952,
    "atic": 4020,
    "Ġlisten": 4675,
    "necessities": 24308,
    "stealthily": 23965,
    "Ġpods": 17917,
    "Ġgrapple": 25812,
    "Ġgrounded": 23714,
    "ilty": 6394,
    "fuller": 22490,
    "bald": 16447,
    "Ġprocedural": 12035,
    "Ġpoliteness": 8274,
    "Ġthreshold": 2807,
    "Ġhonour": 3923,
    "Ġmerchant": 6467,
    "Ġexpression": 4518,
    "Ġrevellers": 21681,
    "Ġtraits": 23077,
    "Ġmira": 8408,
    "Ġsuperlatively": 26076,
    "Ġtro": 7355,
    "Ġinference": 9674,
    "âĢĻ,": 14073,
    "ob": 1422,
    "Ġescaping": 13139,
    "presently": 9810,
    "rule": 15904,
    "eur": 7544,
    "Ġattentions": 5878,
    "Ġflurry": 18862,
    "Ġasph": 21902,
    "tured": 13798,
    "emph": 21930,
    "Ġscroll": 14194,
    "Ġtenth": 13829,
    "Ġsigned": 11179,
    "izzy": 3094,
    "Ġexpiration": 22628,
    "Ġboldness": 24428,
    "Ġfame": 21409,
    "general": 7488,
    "Ġbinding": 20422,
    "Ġwatson": 3598,
    "Ġthrust": 5084,
    "Ġincivility": 18574,
    "Ġinforming": 18744,
    "jonah": 11499,
    "Ġche": 1764,
    "Ġinsanity": 12050,
    "Ġsluggish": 25891,
    "Ġjeroboam": 10603,
    "Ġincredulous": 9990,
    "sacred": 17030,
    "nature": 5360,
    "grand": 7970,
    "topp": 22570,
    "Ġintelligently": 3952,
    "full": 7419,
    "Ġcounterpane": 11345,
    "Ġdone": 1816,
    "Ġenabled": 9299,
    "Ġenvirons": 13188,
    "Ġscand": 7202,
    "Ġspacious": 18313,
    "._]]": 5335,
    "Ġattends": 19653,
    "ickory": 22672,
    "Ġcult": 8786,
    "Ġgri": 17990,
    "Ġbride": 6292,
    "mology": 12496,
    "caroline": 24152,
    "depart": 12270,
    "Ġm": 274,
    "Ġmaddening": 17245,
    "accompan": 11454,
    "Ġninety": 13605,
    "voyage": 7785,
    "ript": 4153,
    "Ġdamps": 23476,
    "Ħ": 231,
    "Ġcaresses": 26060,
    "announced": 19762,
    "braid": 17497,
    "Ġdrank": 16538,
    "Ġache": 18664,
    "meant": 7921,
    "Ġwitnesses": 9489,
    "Ġunique": 12783,
    "Ġirresistible": 13117,
    "Ġscarcity": 23830,
    "k": 79,
    "Ġsalesman": 13672,
    "Ġforgiveness": 16659,
    "erranean": 9337,
    "sailed": 17668,
    "Ġamount": 8513,
    "Ġborne": 6352,
    "published": 26143,
    "ichever": 13960,
    "Ġstudies": 7956,
    "mat": 2199,
    "Ġpressure": 13426,
    "whaler": 20312,
    "wrong": 13210,
    "Ġstung": 21745,
    "Ġprolonged": 8358,
    "step": 2452,
    "Ġintended": 5548,
    "inations": 7566,
    "finished": 10557,
    "Ġjar": 15954,
    "ww": 10739,
    "metals": 24765,
    "v": 90,
    "Ġscowl": 22294,
    "Ġpacific": 5153,
    "Ġgree": 7594,
    "disappointment": 11427,
    "Ġenveloped": 12213,
    "thinness": 25810,
    "Ġmidst": 7986,
    "dare": 12458,
    "Ġlicence": 25099,
    "Ġencourages": 2061,
    "ulating": 10889,
    "others": 7669,
    "encyclopÃ¦dia": 16666,
    "Ġfiltering": 23930,
    "Ġundue": 25994,
    "Ġdo": 512,
    "Ġoblivious": 26033,
    "Ġimmutable": 17361,
    "Ġpartners": 11857,
    "utility": 21590,
    "crat": 24089,
    "Ġmayhap": 18710,
    "Ġbob": 22639,
    "Ġcanaller": 25469,
    "Ġcharm": 4550,
    "find": 6953,
    "idy": 21768,
    "Ġobstetrics": 24679,
    "Ġpeaking": 22693,
    "thoroughly": 26509,
    "amet": 584,
    "/`": 12433,
    "Ġbecher": 18880,
    "Ġnear": 1719,
    "Ġdisguise": 10049,
    "Ġdownwards": 8531,
    "Ġspong": 15885,
    "ken": 2800,
    "Ġintegrity": 12317,
    "&": 10,
    "abhorred": 17339,
    "Ġinvesting": 19644,
    "Ġcarn": 17823,
    "ither": 1545,
    "Ġirresolute": 24917,
    "Ġvastly": 23863,
    "Ġseats": 14091,
    "Ġobli": 9319,
    "thrill": 25657,
    "vous": 2251,
    "Ġpassionate": 11275,
    "curious": 10485,
    "lyph": 10854,
    "Ġsliding": 9366,
    "Ġlust": 9200,
    "ks": 3146,
    "timidity": 25754,
    "Ġconnectivity": 3668,
    "Ġglimmer": 15145,
    "'": 11,
    "Ġ115": 24439,
    "Ġwondering": 7971,
    "Ġunmingled": 18264,
    "eh": 13713,
    "um": 454,
    "Ġbehaviour": 4384,
    "Ġsalad": 19482,
    "Ġidea": 2481,
    "Ġunluckily": 20105,
    "Ġmarble": 7668,
    "Ġnarrowly": 16822,
    "Ġunav": 18241,
    "Ġbraved": 23841,
    "cab": 7332,
    "mature": 20969,
    "Ġslate": 11942,
    "Ġshyness": 20309,
    "Ġrise": 5637,
    "Ġphyseter": 26588,
    "Ġrevolving": 9986,
    "Ġreserve": 9974,
    "cerem": 15682,
    "namely": 23701,
    "Ġindisposed": 26289,
    "Ġtexture": 19162,
    "e": 73,
    "Ġoversight": 22349,
    "Ġbusily": 9388,
    "Ġcruise": 12053,
    "expedition": 26079,
    "reserved": 13846,
    "Ġouter": 6858,
    "Ġmaxim": 3083,
    "Ġlist": 2363,
    "Ġdoth": 13911,
    "Ġdau": 21428,
    "situation": 11439,
    "Ġeighteenth": 14758,
    "Ġparticip": 16135,
    "rushed": 10587,
    "Ġfelt": 1746,
    "Ġmoses": 21318,
    "south": 8762,
    "are": 637,
    "Ġrecompense": 14841,
    "Ġprudence": 13923,
    "Ġspeaks": 11161,
    "Ġsouthern": 7688,
    "Ġmoney": 3419,
    "Ġglass": 4369,
    "Ġdon": 1611,
    "Ġregularly": 7657,
    "Ġmurderers": 16813,
    "picture": 11409,
    "semic": 21825,
    "observing": 25495,
    "Ġanticip": 7506,
    "matlock": 23471,
    "dog": 10696,
    "Ġprivile": 8649,
    "±": 114,
    "Ġexpected": 3697,
    "rs": 7807,
    "Ġdeserving": 14757,
    "Ġtour": 9150,
    "uring": 821,
    "Ġscents": 22291,
    "Ġaccomplishments": 13383,
    "Ġabstra": 22275,
    "Ġundiscovered": 18253,
    "Ġsatin": 12993,
    "Ġusual": 3945,
    "etimes": 1990,
    "Ġmending": 17806,
    "despairing": 25077,
    "Ġdependencies": 2313,
    "Ġlowers": 23242,
    "Ġvoyagings": 19238,
    "Ġship": 1092,
    "Ġimpl": 7194,
    "Ġcontrol": 13084,
    "estinated": 15927,
    "Ġargue": 16785,
    "Ġarab": 7823,
    "stupid": 12681,
    "Ġagitates": 22521,
    "Ġs": 265,
    "Ġcleaving": 23182,
    "Ġintroduction": 8973,
    "Ġdeprec": 15762,
    "cnns": 3622,
    "Ġquadruped": 20618,
    "ove": 1742,
    "(": 12,
    "Ġadduced": 26526,
    "Ġkicks": 19771,
    "Ġ71": 24262,
    "comfortableness": 24525,
    "Ġpecks": 18670,
    "Ġyer": 15738,
    "iability": 20922,
    "declaration": 25176,
    "Ġremarked": 3696,
    "Ġmiriam": 25274,
    "Ġrhone": 25231,
    "Ġrefreshing": 20267,
    "Ġinarticulate": 21503,
    "lace": 13751,
    "Ġgl": 1258,
    "Ġcreating": 2995,
    "Ġgurg": 15677,
    "hither": 11495,
    "urmountable": 15283,
    "Ġecc": 11631,
    "Ġbuttons": 12786,
    "Ġtragic": 15259,
    "Ġpalace": 16691,
    "utral": 12668,
    "Ġcask": 5527,
    "Ġjackets": 19605,
    "Ġhangs": 11609,
    "Ġlangu": 575,
    "Ġgrow": 2862,
    "Ġexploding": 2108,
    "Ġfebruary": 15917,
    "drab": 23902,
    "Ġfolk": 10378,
    "ackled": 22424,
    "iliary": 21730,
    "Ġstaff": 14010,
    "Ġspectrum": 4477,
    "Ġuncivil": 11157,
    "week": 12936,
    "Ġcompressed": 21849,
    "Ġpau": 17910,
    "umst": 2499,
    "arpaul": 14538,
    "frisco": 16789,
    "!": 5,
    "Ġmiddle": 4139,
    "tempestuous": 26098,
    "gressive": 2753,
    "Ġremoved": 5275,
    "Ġthorough": 6246,
    "Ġdisgu": 8206,
    "Ġcrisp": 12007,
    "Ġbeyond": 2454,
    "Ġ124": 24469,
    "mindful": 19602,
    "anelles": 26436,
    "hastily": 19705,
    "tips": 13799,
    "Ġinherent": 4593,
    "Ġreceived": 2951,
    "Ġmcc": 21309,
    "Ġstillness": 12997,
    "desire": 14664,
    "Ġcontroverted": 23253,
    "Ġlizz": 21560,
    "Ġgulf": 10638,
    "Ġpaper": 4282,
    "Ġtongues": 14866,
    "Ġdoom": 6417,
    "ersburgh": 18216,
    "reen": 21234,
    "ga": 17552,
    "Ġber": 5698,
    "Ġfainting": 16899,
    "oof": 15408,
    "scythes": 26404,
    "ears": 20847,
    "Ġeul": 21621,
    "cap": 8373,
    "Ġardently": 9501,
    "kin": 7132,
    "project": 16428,
    "ething": 1600,
    "improve": 15716,
    "fem": 17539,
    "Ġopposite": 5120,
    "Ġhills": 6527,
    "animal": 16980,
    "cav": 17510,
    "sinking": 17670,
    "rents": 5310,
    "Ġcamp": 9167,
    "atig": 13848,
    "Ġoarsman": 8641,
    "Ġrueful": 25582,
    "Ġshops": 22005,
    "Ġmor": 1252,
    "down": 3469,
    "romang": 22009,
    "Ġcopse": 17068,
    "Ġturnkeys": 23030,
    "Ġboarders": 16602,
    "Ġsnatching": 10474,
    "Ġflog": 23624,
    "plumed": 21965,
    "Ġdodo": 9075,
    "Ġtherefore": 2239,
    "Ġsmaller": 1886,
    "glancing": 11216,
    "Ġinestimable": 17445,
    "Ġwerter": 15243,
    "Ġheight": 4220,
    "Ġchambers": 16801,
    "Ġblaming": 22933,
    "tisement": 6767,
    "apothe": 22338,
    "deal": 12804,
    "Ġcurric": 22966,
    "Ġpronouncing": 16971,
    "driver": 14924,
    "listen": 13517,
    "Ġtower": 8319,
    "Ġconcent": 8250,
    "persecutor": 26532,
    "ude": 7561,
    "Ġfar": 1449,
    "Ġled": 3523,
    "rapt": 13976,
    "Ġexclude": 19044,
    "endom": 15924,
    "breckinridge": 24079,
    "Ġsm": 704,
    "Ġundertake": 14482,
    "Ġmut": 3583,
    "fac": 17543,
    "Ġeyelashes": 26107,
    "orange": 21403,
    "social": 11024,
    "Ġvenge": 5420,
    "tering": 3807,
    "Ġadorn": 12797,
    "Ġlegit": 16475,
    "Ġcus": 21346,
    "Ġbloodshot": 23802,
    "extending": 22760,
    "Ġoffend": 16145,
    "Ġclair": 6270,
    "elfare": 11781,
    "Ġfangs": 12602,
    "Ġaston": 3702,
    "Ġvagueness": 25738,
    "named": 9894,
    "Ġcomparative": 10545,
    "paused": 17377,
    "appalling": 22848,
    "Ġlengthen": 15658,
    "Ġinaccessible": 13937,
    "Ġengagement": 5397,
    "berwell": 22722,
    "Ġgiants": 25961,
    "Ġuttermost": 19491,
    "Ġemblematical": 25789,
    "ud": 905,
    "maker": 12497,
    "Ġscream": 5935,
    "regiment": 16452,
    "Ġwind": 1434,
    "ingolstadt": 21306,
    "Ġbrief": 6976,
    "Ġcirclings": 26433,
    "Ġties": 12532,
    "leader": 25352,
    "Ġmermaid": 17815,
    "Ġcontinues": 18811,
    "Ġhelps": 9370,
    "Ġindignation": 8347,
    "regards": 23468,
    "Ġbunger": 9999,
    "Ġdub": 13912,
    "Ġarched": 10934,
    "justified": 19005,
    "Ġschedu": 1823,
    "Ġstrateg": 1352,
    "Ġmari": 6813,
    "entiating": 3438,
    "Ġwas": 370,
    "symp": 14610,
    "flo": 6115,
    "Ġtemporarily": 11169,
    "Ġnecessitates": 23933,
    "metic": 14987,
    "gration": 9124,
    "glasses": 11217,
    "Ġneglig": 18879,
    "owal": 13999,
    "hes": 1400,
    "enge": 21283,
    "Ġstreets": 5864,
    "Ġbrink": 18772,
    "emporary": 15800,
    "<EOS>": 2,
    "========": 2311,
    "Ġdictate": 20154,
    "Ġjames": 6419,
    "Ġarmchair": 8271,
    "crated": 16685,
    "Ġaccidentally": 9508,
    "ensed": 10998,
    "Ġimminent": 11247,
    "Ġbleak": 10561,
    "Ġprofess": 3699,
    "Ġprob": 970,
    "wel": 6118,
    "Ġjost": 23632,
    "decor": 23782,
    "Ġelev": 5536,
    "Ġsordid": 26424,
    "evening": 7090,
    "Ġclues": 18429,
    "Ġoffended": 7041,
    "Ġtim": 4580,
    "report": 13403,
    "Ġunremitting": 26219,
    "oise": 15407,
    "eastern": 17535,
    "Ġmowers": 17814,
    "Ġthinnest": 24186,
    "philosop": 9570,
    "Ġbust": 10170,
    "Ġalacrity": 15741,
    "ugal": 19024,
    "Ġobjecting": 18898,
    "vard": 21113,
    "spanish": 14334,
    "Ġireland": 17338,
    "Ġknotted": 17021,
    "Ġblind": 3716,
    "Ġmisery": 3814,
    "Ġexpress": 2193,
    "Ġdetained": 18373,
    "osity": 14188,
    "Ġdeigned": 18144,
    "times": 8099,
    "Ġsnugly": 17112,
    "Ġengagements": 9981,
    "!_": 7328,
    "Ġunkindness": 22046,
    "exped": 16527,
    "Ġmoles": 22438,
    "Ġse": 401,
    "Ġungracious": 18259,
    "Ġoften": 1956,
    "restrained": 16339,
    "twas": 15440,
    "Ġestimate": 19376,
    "Ġdepicting": 22600,
    "Ġfaded": 10811,
    "Ġunwound": 24829,
    "Ġpratt": 23223,
    "Ġconsuming": 22796,
    "Ġpubl": 3942,
    "lead": 10168,
    "Ġexpressions": 7705,
    "Ġrepaired": 13112,
    "Ġrelieved": 7665,
    "Ġapartments": 19617,
    "Ġinevitable": 15171,
    "Ġabsorb": 25115,
    "Ġsupreme": 13611,
    "Ġlikewise": 5386,
    "Ġloading": 15878,
    "Ġthro": 5818,
    "couldn": 23720,
    "emotion": 21932,
    ".âĢĿ": 464,
    "expanded": 23667,
    "tered": 2231,
    "Ġgoes": 3853,
    "oner": 6125,
    "Ġbridegroom": 10607,
    "Ġambergris": 8709,
    "bler": 11474,
    "Ġholidays": 22924,
    "hills": 13739,
    "cool": 19189,
    "Ġsteep": 2890,
    "Ġentranced": 25836,
    "asant": 17961,
    "À": 129,
    "Ġcalls": 6745,
    "Ġtimidly": 11340,
    "Ġwhosoever": 21722,
    "Ġenjoined": 18192,
    "ploy": 2107,
    "Ġharb": 7369,
    "Ġcrown": 5289,
    "Ġadds": 1806,
    "Ġpatter": 819,
    "dissatisfied": 26614,
    "Ġstare": 10866,
    "Ġgreeting": 18964,
    "gaff": 20884,
    "Ġjerked": 19835,
    "hawk": 7122,
    "Ġrug": 16163,
    "Ġbefriend": 18084,
    "Ġcant": 17826,
    "actually": 14300,
    "Ġsurpr": 2545,
    "deliber": 17429,
    "because": 4924,
    "Ġhaunted": 10256,
    "Ġproficiency": 19194,
    "Ġoverhead": 11774,
    "Ġaghast": 16051,
    "apside": 22963,
    "Ġpronounce": 16970,
    "Ġescorted": 23508,
    "Ġsooty": 25816,
    "Ġroar": 9756,
    "Ġinvited": 6902,
    "Ġindepend": 3669,
    "Ġdocument": 15021,
    "Ġconsternation": 9862,
    "itheat": 21341,
    "Ġfetch": 7769,
    "pennies": 26287,
    "Ġcourses": 10413,
    "Ġjack": 4654,
    "Ġbeg": 1282,
    "them": 3017,
    "Ġenvironmental": 24063,
    "ert": 2631,
    "Ġtoe": 13939,
    "succeeded": 15179,
    "Ġadieus": 25113,
    "anx": 8788,
    "Ġatt": 776,
    "Ġquill": 12862,
    "Ġmanufact": 22332,
    "conversation": 7123,
    "Ġsay": 933,
    "Ġsword": 6733,
    "Ġtreatise": 19348,
    "Ġbigness": 19763,
    "Ġexpectation": 6903,
    "Ġunra": 18238,
    "cast": 2928,
    "Ġheightens": 24157,
    "Ġmany": 1105,
    "Ġworthless": 19568,
    "µ": 118,
    "Ġweight": 656,
    "Ġseren": 7400,
    "Ġoverfitting": 1539,
    "Ġalco": 21786,
    "Ĵ": 245,
    "Ġchronicle": 20231,
    "Ġimprudently": 22390,
    "icorn": 15661,
    "ays": 6684,
    "Ġconst": 1912,
    "ill": 447,
    "Ġlub": 15653,
    "Ġindolent": 13010,
    "spout": 7923,
    "thur": 7187,
    "Ġhilariously": 25451,
    "==": 944,
    "Ġresisted": 22545,
    "image": 9689,
    "Ġcommunications": 16357,
    "Ġbeaten": 10531,
    "weather": 7228,
    "binary": 20786,
    "Ġsheeted": 19834,
    "fab": 13719,
    "Ġ235": 25712,
    "Ġmoustache": 20487,
    "X": 60,
    "arrival": 15604,
    "owed": 2269,
    "Ġlbs": 11618,
    "ediction": 17947,
    "Ġembraced": 10009,
    "beth": 13692,
    "calling": 12454,
    "elsewhere": 19870,
    "chan": 1183,
    "rally": 17653,
    "ildad": 3533,
    "Ġstalked": 20432,
    "achine": 609,
    "Ġobst": 6285,
    "Ġmoonshine": 19600,
    "Ġaffronted": 22895,
    "stained": 21658,
    "ul": 371,
    "Ġbarriers": 23797,
    "Ġdrenched": 12608,
    "viating": 14580,
    "break": 6102,
    "rendering": 22344,
    "avor": 14282,
    "Ġconvenient": 8346,
    "Ġbreathless": 12174,
    "urday": 13997,
    "Ġapparatus": 24909,
    "elstrom": 17984,
    "backpropagation": 11990,
    "guilt": 24075,
    "ately": 1677,
    "lean": 21368,
    "ilar": 10218,
    "expressing": 16803,
    "pur": 7806,
    "Ġrheumatic": 20707,
    "enough": 6809,
    "ingley": 1543,
    "Ġclubb": 22365,
    "Ġincompatible": 25681,
    "Ġjulia": 22306,
    "Ġrequest": 6051,
    "Ġministers": 22836,
    "ĠĠĠĠĠĠĠĠĠĠĠĠĠĠĠĠĠĠĠ": 22953,
    "american": 11402,
    "Ġcross": 1373,
    "Ġillum": 9403,
    "Ġsuperb": 16445,
    "Ġcontriv": 9285,
    "maj": 18803,
    "Ġexecutioner": 12276,
    "Ġillust": 8263,
    "rob": 5534,
    "batim": 25019,
    "difficulty": 12394,
    "awing": 18917,
    "Ġpreparations": 12314,
    "gro": 10097,
    "unwilling": 14064,
    "Ġvouch": 15813,
    "Ġmorals": 22980,
    "albatross": 15634,
    "Ġrods": 9757,
    "ilst": 8144,
    "Ġharder": 14452,
    "Ġgritted": 22808,
    "Ġbreath": 4792,
    "Ġbuckets": 17035,
    "declared": 15122,
    "pencil": 18829,
    "Ġrecumbent": 22750,
    "warmest": 25030,
    "Ġmilk": 6485,
    "Ġtests": 8960,
    "Ġequator": 7460,
    "Ġpledge": 11604,
    "Ġtak": 15472,
    "Ġbattered": 17864,
    "Ġtolerable": 6948,
    "Ġlowermost": 23243,
    "Ġblades": 11899,
    "Ġpemberley": 4590,
    "something": 4284,
    "lay": 5891,
    "knight": 20942,
    "Ġgown": 10204,
    "repaid": 24491,
    "degree": 12806,
    "Ġ103": 24411,
    "Ġanaly": 1115,
    "Ġconscious": 7743,
    "Ġaccommodate": 20520,
    "Ġbelie": 14409,
    "Ġheightened": 8652,
    "K": 47,
    "Ġrivers": 9445,
    "oping": 5559,
    "Ġcedars": 20295,
    "sighted": 19788,
    "Ġlumber": 13955,
    "cturn": 17989,
    "borean": 25744,
    "Ġsinners": 18952,
    "Ġentra": 18695,
    "Ġbrush": 17866,
    "Ġluxur": 12345,
    "Ġoutrid": 22319,
    "Ġattempted": 8001,
    "Ġscorn": 7901,
    "Ġsqu": 1038,
    "Ġbutt": 14128,
    "Ġexotic": 21835,
    "Ġscene": 3096,
    "ified": 3227,
    "Ġergo": 25032,
    "Ġtrain": 515,
    "Ġtufted": 17016,
    "Ġgovern": 10452,
    "Ġbasis": 16963,
    "Ġastir": 14642,
    "69": 17477,
    "Ġexposes": 22627,
    "ipp": 10105,
    "Ġgamming": 25543,
    "Ġrecorded": 11295,
    "Ġgift": 10842,
    "Ġsign": 2490,
    "Ġpeasants": 12336,
    "Ġswung": 6449,
    "arson": 22752,
    "nights": 16449,
    "seamen": 13630,
    "pinn": 21028,
    "deli": 15348,
    "Ġuncertain": 4070,
    "Ġillness": 8593,
    "Ġsphere": 15886,
    "Ġparade": 18302,
    "Ġacquit": 18899,
    "Ġcasting": 12105,
    "otent": 8836,
    "Ġuncounted": 19118,
    "Ġsepulchral": 25893,
    "Ġbottle": 7489,
    "prejud": 11798,
    "ij": 7801,
    "Ġinglorious": 24424,
    "Ġdeb": 4765,
    "Ġungodly": 26515,
    "Ġpalmed": 24095,
    "posterity": 25489,
    "female": 20669,
    "ail": 565,
    "tinted": 17685,
    "Ġpoland": 23619,
    "Ġflashes": 11919,
    "Ġjolly": 6857,
    "Ġgamb": 18000,
    "Ġdestitute": 14567,
    "Ġthw": 21518,
    "encoun": 12302,
    "Ġlonger": 3362,
    "Ġtaller": 16689,
    "Ġoptimizers": 18620,
    "onet": 12550,
    "Ġeveryone": 8921,
    "Ġcre": 888,
    "Ġlord": 2966,
    "Ġopposing": 12044,
    "oused": 6557,
    "enjoyment": 17260,
    "Ġwow": 15532,
    "Ġwhereas": 3855,
    "Ġmirror": 12382,
    "Ġcomputation": 966,
    "divers": 15346,
    "Ġcall": 2074,
    "mere": 11859,
    "Ġpleasantest": 24140,
    "Ġmicrosc": 20679,
    "Ġconsisting": 8974,
    "ilities": 6991,
    "ows": 1920,
    "Ġretains": 20033,
    "prep": 9761,
    "Ġterti": 14540,
    "ats": 4253,
    "altogether": 12644,
    "simultaneously": 19866,
    "Ġlavater": 20499,
    "Ġsheep": 10928,
    "Ġcontention": 22430,
    "recover": 24623,
    "Ġtumble": 16881,
    "Ġtesting": 23219,
    "bone": 5612,
    "Ġgrieve": 14710,
    "Ġsworn": 14439,
    "Ġclim": 8197,
    "Ġhinted": 6012,
    "Ġstudied": 11116,
    "Ġsphynx": 20714,
    "Ġgeneric": 18454,
    "Ġrifts": 21979,
    "wives": 15458,
    "Ġabominable": 12326,
    "awned": 19463,
    "isticated": 1635,
    "Ġsc": 532,
    "peculiar": 6885,
    "spass": 18687,
    "Ġdraught": 9848,
    "Ġartist": 12917,
    "concern": 6100,
    "Ġunwe": 15842,
    "Ġunnearable": 26518,
    "Ġdrawling": 19440,
    "Ġmeditating": 20046,
    "ists": 4001,
    "Ġpo": 738,
    "Ġstars": 6150,
    "aring": 1474,
    "Ġdearest": 5457,
    "Ġreliability": 22882,
    "-": 17,
    "waiting": 12225,
    "Ġes": 8773,
    "narrated": 25622,
    "Ġparent": 14647,
    "Ġrepining": 23363,
    "Ġyanke": 18100,
    "Ġlowest": 11124,
    "Ġcaroline": 7254,
    "cord": 8727,
    "Ġscepticism": 25928,
    "Ġfurnaces": 24008,
    "Ġforming": 7043,
    "daggoo": 13710,
    "Ġproportions": 16470,
    "vius": 23545,
    "Ġuncouth": 14551,
    "Ġbenchmarks": 15024,
    "Ġglue": 15678,
    "mist": 5686,
    "Ġhans": 12631,
    "Ġceased": 6468,
    "Ġvolcanoes": 24149,
    "Ġpredicted": 2045,
    "windibank": 24164,
    "posted": 24636,
    "Ġhammered": 13244,
    "Ġthings": 1962,
    "scap": 22993,
    "Ġderiv": 1736,
    "Ġembatt": 18850,
    "alarmed": 21506,
    "befall": 22500,
    "necessary": 5882,
    "Ġpathetic": 19035,
    "Ġinser": 6819,
    "embraces": 25804,
    "Ġjoys": 13225,
    "Ġpropag": 16350,
    "start": 7598,
    "Ġcontrasting": 11156,
    "Ġestate": 6317,
    "Ġsucceed": 4547,
    "grey": 14915,
    "Ġinitialization": 1256,
    "Ġflexible": 23777,
    "Ġtraced": 10386,
    "Ġwrinkles": 8573,
    "Ġcott": 3709,
    "ocity": 8278,
    "Ġmingling": 20200,
    "Ġstructures": 2721,
    "omp": 2467,
    "Ġsupple": 23002,
    "Ġappare": 12825,
    "Ġdiddled": 22670,
    ".âĢĻ": 1720,
    "surpr": 5997,
    "Ġwater": 1949,
    "Ġunreasonably": 17454,
    "Ġjail": 22298,
    "Ġdenominated": 15232,
    "attery": 18488,
    "Ľ": 254,
    "Ġade": 22105,
    "oses": 3948,
    "Ġpier": 7162,
    "Ġsituations": 10494,
    "Ġbuttoned": 25369,
    "Ġfinding": 3268,
    "ired": 1445,
    "Ġflour": 8947,
    "Ġsullen": 9160,
    "Ġimprec": 14220,
    "Ġtunes": 24620,
    "quohog": 21862,
    "erably": 7572,
    "rem": 1519,
    "Ġloaf": 15876,
    "context": 3406,
    "Ġrealistic": 5861,
    "Ġprank": 23222,
    "fates": 20860,
    "reigned": 21245,
    "Ġconfederate": 17356,
    "Ġfifth": 11259,
    "christ": 10213,
    "Ġallusions": 10908,
    "Ġstoven": 23176,
    "Ġhonor": 5664,
    "Ġhideousness": 16917,
    "Ġlament": 7857,
    "rate": 2419,
    "Ġsunny": 13090,
    "lucifer": 25302,
    "Ġthickly": 12120,
    "Ġcrackling": 24961,
    "Ġspire": 18307,
    "Ġoy": 15550,
    "besides": 8699,
    "problems": 11436,
    "Ġalbino": 20506,
    "rock": 15645,
    "magn": 10613,
    "pagans": 25526,
    "Ġlulled": 17971,
    "Ġloun": 7166,
    "Ġcomforters": 25801,
    "lifted": 15390,
    "Ġanalyze": 1553,
    "Ġsovere": 9259,
    "contracting": 19296,
    "ographical": 16788,
    "Ġcister": 13885,
    "Ġpeevish": 26559,
    "ify": 1536,
    "Ġrecoil": 18696,
    "rief": 6203,
    "Ġutterance": 14767,
    "Ġalluding": 18237,
    "Ġhoofs": 14529,
    "Ġdrawled": 23992,
    "Ġfearfully": 23516,
    "Ġscaling": 3634,
    "ignantly": 23267,
    "etrics": 21588,
    "Ġcourtesy": 9948,
    "Ġhandsomer": 20336,
    "Ġworried": 22929,
    "databases": 3022,
    "Ġessentially": 24925,
    "Ġ$": 21153,
    "ory": 1083,
    "Ġmisanthropic": 26562,
    "flood": 19809,
    "Ġelevating": 19732,
    "deceiving": 22148,
    "Ġirregularity": 25325,
    ".": 18,
    "usions": 6160,
    "Ġrejoiced": 8687,
    "Ġgenial": 12199,
    "embarrassed": 20667,
    "fre": 5425,
    "Ġremonstrance": 20626,
    "Ġrefined": 18708,
    "Ġunlucky": 10053,
    "Ġdispleasure": 16056,
    "helm": 12176,
    "Ġagency": 11810,
    "Ġnewspapers": 17189,
    "isturbed": 18298,
    "Ġcomforts": 14696,
    "Ġbreaks": 13189,
    "whal": 10942,
    "Ġalchemists": 26489,
    "Ġgrowled": 19286,
    "Ġfolded": 7767,
    "Ġramadan": 9578,
    "Ġgaiters": 20464,
    "ck": 436,
    "ator": 1925,
    "Ġoperate": 19117,
    "Ġbi": 919,
    "Ġpreservative": 24630,
    "tastes": 21099,
    "Ġsemi": 11973,
    "Ġinflamed": 13477,
    "Ġyourself": 2593,
    "summit": 23420,
    "Ġdivision": 19447,
    "Ġwards": 17791,
    "flesh": 13494,
    "Ġambitious": 18512,
    "Ġforthwith": 16620,
    "Ġezek": 18012,
    "doub": 6224,
    "Ġarrow": 10933,
    "Ġcordial": 16837,
    "Ġexterm": 21833,
    "tattoo": 21090,
    "Ġlinn": 13956,
    "ilder": 15717,
    "!)": 10072,
    "Ġlod": 4045,
    "Ġgenerative": 5644,
    "prisoner": 20546,
    "Ġblu": 2687,
    "Ġantichron": 24184,
    "Ġgrasp": 4665,
    "Ġburying": 19254,
    "Ġneville": 7398,
    "iem": 20919,
    "fin": 5209,
    "Ġgoug": 17993,
    "flakes": 23971,
    "endure": 22227,
    "Ġcell": 6238,
    "Ġshakespeare": 20310,
    "99": 1897,
    "dost": 14537,
    "Ġvicious": 24403,
    "Ġcau": 13884,
    "--âĢĺ": 22851,
    "believed": 9936,
    "Ġtun": 5999,
    "Ġlexic": 15722,
    "Ġstop": 2497,
    "unbounded": 21889,
    "Ġnarrations": 24352,
    "¬": 110,
    "Ġdealer": 23980,
    "fifty": 12356,
    "ĠĠĠĠĠĠĠĠĠĠĠĠĠĠĠĠĠĠĠĠĠĠĠĠĠĠĠĠĠĠĠĠ": 2738,
    "Ġcrumbs": 19124,
    "Ġoriginate": 24124,
    "Ġunwelcome": 12785,
    "ount": 1114,
    "Ġlivid": 14992,
    "fashion": 8081,
    "west": 10741,
    "Ġimpertinent": 9080,
    "tranquillity": 20549,
    "england": 18931,
    "Ġchronicler": 20232,
    "Ġgetting": 4068,
    "Ġon": 350,
    "Ġpoint": 2056,
    "naturedly": 24841,
    "Ġsubfield": 11873,
    "Ġunconsc": 6553,
    "barbs": 20240,
    "Ġdetailed": 12829,
    "Ġschedule": 2369,
    "vit": 13804,
    "Ġtightly": 13537,
    "Ġfour": 2215,
    "Ġlocks": 11728,
    "Ġboun": 21383,
    "repugnance": 16866,
    "Ġmaz": 15546,
    "misfortunes": 16758,
    "shame": 16029,
    "wheeler": 16191,
    "ulged": 12735,
    "Ġpasture": 14545,
    "Ġfossils": 20225,
    "appear": 13202,
    "Ġpedro": 15066,
    "Ġinspector": 6498,
    "anely": 17838,
    "Ġvenom": 24241,
    "Ġinner": 9673,
    "Ġtanning": 17731,
    "Ġsmote": 18576,
    "Ġsummary": 19406,
    "Ġstubborn": 10416,
    "Ġparsonage": 7124,
    "dignity": 15349,
    "Ġcounsell": 25385,
    "results": 20390,
    "Ġgestic": 21611,
    "Ġmediocr": 24142,
    "Ġcompan": 2172,
    "mild": 15395,
    "Ġtough": 13818,
    "Ġexpand": 9310,
    "Ġshoving": 23491,
    "racts": 14364,
    "Ġlose": 5028,
    "Ġcluster": 13575,
    "Ġrashness": 25461,
    "Ġcobb": 14278,
    "axed": 8892,
    "calcul": 12992,
    "Ġbab": 5291,
    "Ġgenerous": 6274,
    "Ġlargest": 6283,
    "rous": 3751,
    "Ġspared": 7893,
    "Ġamend": 16037,
    "Ġtexel": 25924,
    "Ġsunshine": 14496,
    "Ġcongrat": 5828,
    "yet": 3752,
    "Ġledger": 19405,
    "Ġstiffly": 15007,
    "Ġburial": 16524,
    "Ġpoisoned": 24887,
    "Ą": 197,
    "anse": 12580,
    "Ġocc": 887,
    "Ġnow": 691,
    "bid": 5611,
    "onds": 12998,
    "alot": 15630,
    "Ġencountering": 11271,
    "Ġrivals": 20274,
    "modern": 1180,
    "pick": 17636,
    "sat": 4811,
    "Ġheroic": 14911,
    "izure": 21837,
    "ette": 15663,
    "Ġpause": 5707,
    "Ġunlab": 3789,
    "Ġswain": 18881,
    "Ġjets": 10290,
    "Ġfinanc": 23130,
    "Ġplacid": 11830,
    "medical": 23346,
    "remains": 10401,
    "testing": 12521,
    "Ġaverage": 3139,
    "ryphon": 4163,
    "Ġbildad": 3782,
    "ado": 11661,
    "Ġtopmost": 14588,
    "Ġshould": 864,
    "Ġtong": 4871,
    "Ġczar": 12579,
    "earnest": 12403,
    "Ġproportionably": 19974,
    "attempted": 20177,
    "showed": 16032,
    "ignified": 14492,
    "Ġpinched": 17036,
    "apprehens": 17409,
    "discredit": 24253,
    "Ġpalm": 10516,
    "Ġbestirred": 20454,
    "cure": 11476,
    "pense": 10371,
    "Ġbenignity": 18783,
    "sufficiently": 14984,
    "omical": 9683,
    "glanced": 19369,
    "Ġthine": 7373,
    "Ġreproach": 9559,
    "Ġey": 8135,
    "Ġrelieve": 8224,
    "whence": 23216,
    "Ġconstables": 19072,
    "remembered": 17354,
    "Ġgreenwich": 19323,
    "Ġcharging": 23269,
    "Ġmonomania": 17086,
    "Ġdrunk": 9427,
    "Ġinsurance": 23684,
    "Ġsped": 22129,
    "ignant": 11131,
    "Ġassuring": 13069,
    "utter": 7593,
    "Ġespecial": 26412,
    "Ġhuggins": 24826,
    "Ġshapes": 14112,
    "Ġwidespread": 20678,
    "Ġeastward": 13394,
    "Ġaft": 5737,
    "Ġwhy": 1761,
    "Ġperpetually": 17071,
    "enesis": 24388,
    "independent": 26022,
    "Ġ131": 24781,
    "Ġpound": 12621,
    "attachment": 13057,
    "Ġha": 400,
    "Ġcandidates": 4332,
    "Ġbehold": 5049,
    "Ġlook": 879,
    "rested": 13079,
    "amy": 8469,
    "Ġyears": 1894,
    "Ġwee": 21923,
    "idious": 11665,
    "usual": 5841,
    "Ġcannot": 1664,
    "Ġgrec": 18962,
    "Ġmagnificence": 20635,
    "this": 1440,
    "grow": 10101,
    "Ġwallow": 19469,
    "Ġconsequence": 5542,
    "Ġrehears": 15704,
    "Ġwhirlpool": 20657,
    "recur": 4440,
    "Ġglobules": 26590,
    "ifled": 14066,
    "Ġtemptations": 24508,
    "ounted": 5030,
    "Ġhandsome": 4907,
    "Ġcro": 4874,
    "Ġdejected": 20307,
    "Ġinstinctively": 13463,
    "jug": 17582,
    "embedding": 20360,
    "regularization": 3516,
    "gan": 2198,
    "Ġkate": 15909,
    "Ġsignificantly": 4521,
    "Ġinclusive": 24166,
    "Ġshowing": 7731,
    "Ġsatisfaction": 5667,
    "Ġinexperience": 26100,
    "gr": 2085,
    "Ġforefinger": 16444,
    "different": 6501,
    "Ġsocially": 22091,
    "affairs": 14658,
    "Ġsugg": 4502,
    "Ġauthorities": 11266,
    "Ġtrip": 16790,
    "Ġscolded": 25473,
    "seemed": 4303,
    "extinguished": 16153,
    "Ġsho": 2245,
    "Ġcheapside": 23291,
    "Ġoutbreak": 22321,
    "Ġrepublic": 14533,
    "Ġventilator": 8717,
    "riet": 18185,
    "excepting": 19709,
    "Ġsunday": 7269,
    "thence": 23403,
    "isk": 9170,
    "Ġputting": 5327,
    "Ġunprofitable": 18268,
    "Ġnoah": 10944,
    "time": 3147,
    "Ġperched": 10302,
    "?_âĢĿ": 12320,
    "simp": 17667,
    "Ġsticks": 14934,
    "Ġlect": 9223,
    "Ġdrown": 6815,
    "Ġones": 3018,
    "Ġcontinents": 16851,
    "Ġcurling": 9344,
    "inkling": 16094,
    "comb": 11037,
    "Ġlondon": 2839,
    "irts": 9241,
    "cripp": 20821,
    "Ġsque": 18758,
    "swear": 16920,
    "Ġcolt": 11045,
    "Ġexplanatory": 22206,
    "exhibited": 18478,
    "ition": 655,
    "Ġbale": 7838,
    "lilies": 20963,
    ")âĢĶâĢľ": 20745,
    "igned": 5656,
    "engineer": 23149,
    "Ġcarpent": 4468,
    "Ġtechnique": 2493,
    "Ġprevention": 16097,
    "Ġaround": 3612,
    "Ġdischar": 11812,
    "Ġclust": 9277,
    "Ġpreliminaries": 25177,
    "Ġforbidding": 17080,
    "ì": 173,
    "bag": 7541,
    "Ġfisheries": 17441,
    "Ġnegro": 6447,
    "orous": 5294,
    "Ġripp": 11221,
    "Ġbuoyant": 13535,
    "Ġid": 1911,
    "handed": 7481,
    "network": 1910,
    "queen": 12732,
    "Ġgoverning": 2794,
    "Ġtechnically": 12370,
    "Ġpurest": 14942,
    "useness": 22286,
    "crop": 20800,
    "Ġsermon": 12380,
    "Ġindividuals": 24546,
    "Ġpotential": 3620,
    "Ġpret": 3033,
    "Ġintrepid": 11709,
    "content": 11199,
    "sens": 8096,
    "satisfy": 16894,
    "brit": 19199,
    "idea": 9304,
    "Ġtidings": 11399,
    "Ġmary": 3844,
    "crawling": 16960,
    "Ġdestabilizing": 5053,
    "uch": 876,
    "Ġbonnet": 10658,
    "victim": 25531,
    ";": 31,
    "apprehension": 26115,
    "feit": 16045,
    "line": 1441,
    "mangled": 20983,
    "Ġscott": 22290,
    "Ġparameter": 881,
    "confined": 24328,
    "Ġriddle": 14823,
    "Ġengineering": 3023,
    "Ġwritten": 4168,
    "Ġbambooz": 26120,
    "Ġdepressed": 10885,
    "Ġsitt": 21220,
    "Ġdeceitfulness": 25734,
    "ardy": 22160,
    "Ġaction": 5797,
    "iveness": 2463,
    "meryton": 10114,
    "Ġlonged": 6436,
    "ander": 6401,
    "vineyard": 25422,
    "Ġclimes": 12849,
    "evinced": 19928,
    "square": 15062,
    "inter": 2948,
    "pid": 1381,
    "Ġreservo": 16833,
    "Ġfainted": 8796,
    "pherd": 13648,
    "Ġpot": 2989,
    "drove": 16995,
    "Ġinvitation": 5188,
    "Ġsauce": 15894,
    "c": 71,
    "Ġmultiplicity": 19277,
    "Ġw": 272,
    "ample": 1365,
    "Ġrandom": 1587,
    "Ġnever": 1019,
    "Ġcoins": 11823,
    "Ġdowry": 20688,
    "Ġfuriously": 9805,
    "Ġdrives": 14579,
    "dwelt": 23874,
    "Ġdeline": 16336,
    "rop": 539,
    "elled": 3993,
    "Ġscriptures": 26237,
    "Ġindependently": 4246,
    "Ġunquestionable": 26223,
    "Ġdazz": 11597,
    "Ġclanking": 20614,
    "E": 41,
    "Ġabstained": 25232,
    "Ġilluminating": 25246,
    "oub": 1630,
    "neural": 3064,
    "Ġyet": 1029,
    "itably": 10784,
    "Ġinhospit": 25453,
    "Ġcoupled": 16853,
    "Ġungovernable": 20711,
    "Ġvectors": 1772,
    "estone": 18365,
    "enthusiastic": 20695,
    "gorith": 552,
    "retaining": 21248,
    "ills": 1625,
    "sullenly": 26150,
    "Ġmassachusetts": 24025,
    "sand": 21055,
    "eld": 961,
    "Ġghastly": 10063,
    "threatened": 25463,
    "oriented": 2947,
    "repe": 8780,
    "glo": 8741,
    "emin": 8471,
    "ingham": 21303,
    "Ġdisp": 3361,
    "Ġsummons": 13236,
    "Ġpatients": 24810,
    "smoke": 17225,
    "tarpaul": 21100,
    "Ġethics": 15465,
    "Ġsensitivity": 3067,
    "rods": 21541,
    "Ġimprecations": 25821,
    "Ġdaint": 15597,
    "Ġimprudent": 12853,
    "Ġbuying": 23999,
    "malice": 17605,
    "Ġdescend": 7426,
    "aphys": 15205,
    "rative": 17654,
    "Ġcheese": 9380,
    "Ġforesaw": 19128,
    "seat": 18128,
    "Ġmot": 2984,
    "circumstances": 8047,
    "Ġprepare": 8650,
    "comp": 3816,
    "pigs": 17143,
    "Ġacquitted": 18900,
    "Ġsled": 21221,
    "Ġpacing": 8427,
    "Ġiv": 4047,
    "fainting": 20476,
    "Ġbush": 23340,
    "Ġfowler": 16939,
    "gates": 20874,
    "later": 20955,
    "ap": 546,
    "Ġalighted": 18106,
    "allic": 12818,
    "Ġbree": 5012,
    "Ġsaving": 15891,
    "Ġconjured": 25102,
    "Ġinsane": 19271,
    "Ġunwaning": 24830,
    "Ġexpressive": 8985,
    "Ġobedient": 20108,
    "Ġinscribed": 24941,
    "shelf": 20384,
    "istol": 6260,
    "satisfactory": 16895,
    "Ġstick": 6026,
    "opic": 22486,
    "Ġforemast": 12010,
    "Ġsta": 18068,
    "Ġcapting": 23022,
    "Ġbay": 9171,
    "Ġfreshets": 25705,
    "Ġgnashed": 20136,
    "Ġdeity": 18140,
    "Ġunrel": 14698,
    "Ġboxes": 13378,
    "ered": 1683,
    "gorge": 22341,
    "Ġtreacle": 14597,
    "harbor": 13568,
    "Ġsixpence": 19319,
    "Ġasks": 5115,
    "Ġassume": 10518,
    "obst": 11936,
    "vocation": 25087,
    "Ġfree": 3377,
    "Ġgloom": 4201,
    "Ġcerem": 7078,
    "ood": 963,
    "aint": 2537,
    "Ġcountless": 16386,
    "binnacle": 20789,
    "Ġpertaining": 18451,
    "wig": 17706,
    "Ġadd": 630,
    "Ġorange": 8488,
    "Ġgans": 5822,
    "Ġfragments": 19020,
    "Ġcave": 10787,
    "safie": 20351,
    "vap": 13806,
    "Ġdrought": 19280,
    "atters": 18487,
    "Ġfearful": 6198,
    "Ġdanish": 21434,
    "kward": 6957,
    "oundering": 11750,
    "Ġquoted": 22419,
    "Ġsupports": 3048,
    "Ġinvite": 14564,
    "Ġhaving": 1883,
    "reas": 987,
    "Ġargemone": 24277,
    "Ġincoherent": 17403,
    "Ġshare": 1655,
    "Ġendeavors": 16548,
    "pride": 11212,
    "Ġhorizont": 6936,
    "precipitance": 25868,
    "Ġyesterday": 5333,
    "Ġtouch": 3397,
    "dom": 6223,
    "springs": 24912,
    "Ò": 147,
    "Ġterminated": 23512,
    "Ġneuron": 1808,
    "Ġvariations": 22669,
    "consider": 6349,
    "fearfully": 25119,
    "kitchen": 17587,
    "Ġtie": 10752,
    "feeders": 25236,
    "opposing": 24822,
    "Ġflaw": 23013,
    "Ġharpooned": 13266,
    "Ġovercome": 6043,
    "Ġrubbing": 9325,
    "Ġtattooed": 11380,
    "Ġeasiest": 23541,
    "Ġtren": 17723,
    "occup": 7752,
    "ursday": 12281,
    "amplified": 26496,
    "mrs": 3744,
    "Ġintentions": 10610,
    "likes": 18816,
    "ø": 185,
    "Ġwindings": 18911,
    "phants": 9323,
    "endering": 21287,
    "Ġgazes": 24099,
    "fortunes": 6333,
    "approve": 19940,
    "Ġbitter": 4173,
    "dataset": 23236,
    "Ġwaiter": 16363,
    "Ġroarings": 25303,
    "Ġcoron": 4467,
    "Ġlucky": 7758,
    "Ġcould": 703,
    "anc": 6379,
    "Ġfoolishly": 19785,
    "Ġoutriders": 26545,
    "Ġpropriety": 10013,
    "ctions": 953,
    "Ġnovelty": 13467,
    "Ġhindrance": 25221,
    "ulate": 5233,
    "developed": 15268,
    "Ġjur": 12839,
    "Ġthundering": 24293,
    "flukes": 25206,
    "Ġsail": 1670,
    "Ġtweezers": 26558,
    "luc": 9755,
    "ö": 183,
    "Ġheaths": 25973,
    "Ġsoar": 18283,
    "Ġcaliforn": 14434,
    "aces": 2068,
    "Ġdisobey": 18559,
    "sorrows": 17323,
    "Ġribbed": 16806,
    "Ġschooner": 16749,
    "Ġdelay": 5748,
    "Ġhearses": 20063,
    "Ġlists": 11168,
    "cloudless": 20335,
    "expl": 9286,
    "objection": 19917,
    "Ġwanting": 6722,
    "Ġfurs": 18741,
    "Ġfamiliarly": 11305,
    "Ġexplanation": 6693,
    "Ġbites": 23745,
    "Ġtissu": 25921,
    "Ġconsidered": 4613,
    "Ġsumm": 3358,
    "confirm": 16809,
    "Ġundoubtedly": 8313,
    "Ġexceed": 1343,
    "Ġbow": 3058,
    "Ġinform": 996,
    "Ġwr": 1542,
    "Ġmacro": 25940,
    "Ġvigilant": 20187,
    "Ġyielding": 12191,
    "Ġenviron": 3831,
    "unctuous": 21886,
    "Ġventing": 19496,
    "Ġbeasts": 10620,
    "Ġcomprise": 18585,
    "Ġstiffest": 24827,
    "crowning": 25749,
    "Ġfairness": 9897,
    "Ġlullaby": 20591,
    "apping": 5852,
    "Ġavalanche": 17436,
    "tanh": 5204,
    "Ġstoop": 16313,
    "Ġman": 544,
    "Ġarguing": 25471,
    "Ġbrand": 16189,
    "Ġnecks": 18189,
    "Ġunforgiving": 25996,
    "crossing": 19414,
    "Ġnotwithstanding": 9717,
    "Ġxxxix": 24971,
    "stein": 5505,
    "oug": 431,
    ".--": 20748,
    "Ġcetus": 19887,
    "Ġcomfortable": 6095,
    "Ġem": 1926,
    "dischar": 19155,
    "unalterable": 21890,
    "readers": 23851,
    "Ġpuffing": 12259,
    "Ġsorrow": 4630,
    "Ġauger": 21206,
    "Ġgraceful": 11298,
    "Ġdrab": 13075,
    "Ġrejected": 12298,
    "Ġtime": 688,
    "cur": 3273,
    "Ġpink": 12623,
    "haust": 5777,
    "Ġcosmetic": 23473,
    "Ġrooms": 5180,
    "discover": 10542,
    "Ġvoluntary": 14802,
    "welcome": 10004,
    "Ġbolt": 11336,
    "ought": 829,
    "igning": 12686,
    "found": 4214,
    "Ġchemist": 11136,
    "Ġanguish": 5583,
    "Ġaccuse": 14214,
    "olet": 13769,
    "Ġmeddling": 21323,
    "ĠĠĠĠĠĠĠĠĠĠĠĠĠĠĠĠĠĠĠĠĠĠĠ": 18833,
    "Ġcurses": 13014,
    "Ġimpass": 15989,
    "watching": 16932,
    "Ġtwinkle": 12327,
    "Ġmonotonically": 3834,
    "wanted": 10745,
    "Ġchannel": 26013,
    "Ġfarther": 5955,
    "Ġcurled": 8226,
    "Ġduplicates": 17219,
    "_,âĢĻâĢĿ": 20404,
    "Ġcorpse": 6640,
    "rating": 7808,
    "Ġstore": 8455,
    "Ġlinks": 13958,
    "iour": 4040,
    "Ġhigh": 932,
    "Ġgrave": 5100,
    "grounds": 11153,
    "hilar": 25084,
    "Ġdedu": 5584,
    "Ġswords": 19899,
    "obedience": 17413,
    "Ġtemporal": 2612,
    "Ġlegitimate": 20644,
    "ambition": 13415,
    "lin": 9606,
    "Ġmouldings": 24736,
    "Ġguests": 12291,
    "Ġarchitects": 18733,
    "Ġrounding": 16278,
    "rimsh": 17029,
    "Ġbarbarously": 24816,
    "moving": 11018,
    "Ġpeninsula": 23198,
    "swing": 15432,
    "wn": 721,
    "ension": 6571,
    "travellers": 24339,
    "Ġhope": 1789,
    "russian": 22193,
    "lonely": 20959,
    "Ġwillingness": 24911,
    "similar": 13457,
    "suggested": 17302,
    "atha": 6573,
    "Ġanonymous": 26179,
    "tenderly": 20534,
    "Ġlingu": 11617,
    "Ġdundee": 16999,
    "tot": 10730,
    "Ġlowered": 6736,
    "Ġbeholding": 8672,
    "ires": 6038,
    "Ġcombining": 22854,
    "Ġcolleg": 22859,
    "fancy": 7336,
    "Ġspeeches": 22666,
    "spark": 18688,
    "Ġsplinter": 23749,
    "Ġcontrols": 1732,
    "Ġthoughtfulness": 18775,
    "take": 4578,
    "Ġinit": 820,
    "stories": 18026,
    "Ġfor": 340,
    "ladder": 19787,
    "Ġfut": 15579,
    "Ġplead": 14458,
    "vest": 6231,
    "Ġvale": 14085,
    "melted": 25207,
    "Ġwindsor": 16889,
    "Ġtingling": 15096,
    "Ġciv": 3311,
    "Ġembarr": 7445,
    "god": 4864,
    "Ġspoken": 4838,
    "conditionally": 24835,
    "retch": 4371,
    "Ġslashing": 23171,
    "Ġoccupy": 14734,
    "ego": 4038,
    "Ġframed": 19019,
    "Ġhimmalehs": 26232,
    "Ġsympath": 4862,
    "Ġscornful": 24999,
    "stayed": 25291,
    "Ġgasping": 17039,
    "Ġprints": 16334,
    "Ġgirdle": 19160,
    "Ġascendency": 20235,
    "bit": 3933,
    "Ġvows": 15812,
    "unt": 2044,
    "ains": 5094,
    "repeated": 12343,
    "Ġinspiring": 19114,
    "estion": 18364,
    "throwing": 11706,
    "Ġdodging": 19889,
    "Ġenraptured": 26502,
    "Ġri": 3396,
    "Â·": 21152,
    "comfortably": 16877,
    "cousin": 10655,
    "Ġdisregard": 22532,
    "happening": 16567,
    "Ġmusic": 5269,
    "borrowed": 20794,
    "Ġunworthy": 11719,
    "Ġdispositions": 13237,
    "Ġtempor": 2364,
    "Ġungenerous": 18267,
    "Ġjackson": 24243,
    "ipagos": 22359,
    "nailed": 20998,
    "Ġcarriages": 11100,
    "Ġvigil": 9510,
    "Ġdue": 3845,
    "Ġunfold": 8022,
    "Ġgracechurch": 12203,
    "Ġdef": 1199,
    "oftener": 23968,
    "eminently": 25108,
    "privilege": 25264,
    "Ġunimpeachable": 26524,
    "ressed": 3021,
    "Ġappeased": 23199,
    "icism": 13959,
    "Ġashamed": 6403,
    "Ġtol": 6676,
    "copy": 5133,
    "Ġannouncement": 14836,
    "Ġsupport": 6729,
    "Ġdoctors": 12156,
    "partner": 19224,
    "Ġexertion": 8054,
    "Ġendued": 14080,
    "Ġtruce": 24118,
    "Ġdesert": 6728,
    "Ġcrimes": 8591,
    "_).âĢĶ": 8685,
    "Ġdolphins": 20399,
    "pled": 7892,
    "disappearing": 23504,
    "Ġmeanwhile": 5736,
    "Ġmedic": 11258,
    "Ġtransformations": 3485,
    "Ġslender": 11944,
    "Ġcomprehending": 24445,
    "Ġsolution": 9808,
    "Ġposition": 1955,
    "Ġsymp": 4505,
    "float": 19808,
    "shoulders": 16587,
    "alleging": 23025,
    "Ġork": 18285,
    "Ġpassing": 4314,
    "clothed": 19741,
    "dition": 15342,
    "anging": 3552,
    "Ġrecommending": 24333,
    "Ġorganize": 8994,
    "greater": 13256,
    "Ġowest": 25094,
    "Ġenormous": 5609,
    "Ġshooting": 11164,
    "masts": 19428,
    "ones": 2742,
    "Ġpilgr": 12185,
    "prises": 23817,
    "mad": 5281,
    "Ġshore": 4836,
    "insupportable": 21196,
    "Ġreluct": 14375,
    "Ġrevenge": 5452,
    "Ġoverlooking": 22348,
    "Ġadorned": 15251,
    "intments": 18822,
    "Ġinduced": 8674,
    "Ġunworth": 22040,
    "asible": 21545,
    "Ġcuriosities": 26290,
    "Ġtribute": 15478,
    "itations": 17819,
    "Ġharpooneer": 3772,
    "Ġglistening": 12369,
    "Ġfrontispiece": 23917,
    "Ġcologne": 12981,
    "lengthwise": 19953,
    "Ġtroubles": 19442,
    "Ġawaken": 23588,
    "Ġ54": 24318,
    "reasonable": 7751,
    "imaux": 21715,
    "ushed": 2971,
    "Ġunclad": 22058,
    "Ġjeopardy": 13600,
    "vices": 21119,
    "accents": 19212,
    "Ġ42": 16680,
    "distinguish": 19575,
    "resent": 10771,
    "Ġ64": 24367,
    "Ġmonitors": 3157,
    "bent": 15315,
    "je": 11498,
    "Ğ": 223,
    "Ġcritical": 7473,
    "vanished": 15063,
    "lone": 11502,
    "hid": 13737,
    "Ġpatriot": 23300,
    "Ġsoothed": 10032,
    "Ġtrance": 12846,
    "Ġsensitive": 13203,
    "Ġcust": 11585,
    "Ġcrime": 4618,
    "Ġarray": 12814,
    "Ġimplements": 2480,
    "Ġprematurely": 24009,
    "avish": 22598,
    "Ġmutters": 23959,
    "trowsers": 17693,
    "Ġprognost": 15285,
    "###": 3827,
    "Ġbenches": 18782,
    "Ġcrop": 10165,
    "Ġsystemat": 18443,
    "ios": 2142,
    "remediable": 26296,
    "Ġscreamed": 9527,
    "Ġdistinguish": 2727,
    "Ġtiles": 17728,
    "Ġbanker": 8670,
    "Ġgradients": 611,
    "matic": 4620,
    "Ġrev": 6988,
    "alluring": 18353,
    "ernity": 18616,
    "love": 9297,
    "Ġlouis": 8357,
    "oubled": 23650,
    "Ġsings": 15508,
    "neglected": 25670,
    "oboam": 9361,
    "Ġjoll": 11769,
    "Ġpromising": 10402,
    "Ġgrant": 11877,
    "Ġassistance": 6334,
    "Ġinheritance": 25356,
    "Ġori": 8410,
    "Ġconstru": 19071,
    "Ġcynical": 25771,
    "Ġordinarily": 20651,
    "ipelag": 12847,
    "Ġmad": 2423,
    "Ġrescales": 5068,
    "oves": 15406,
    "tashtego": 9625,
    "Ġmultiple": 1187,
    "Ġah": 5075,
    "Ġvaguely": 17369,
    "cloth": 11941,
    "Ġmaritime": 23041,
    "ress": 931,
    "Ġsustained": 13486,
    "Ġrevenue": 26196,
    "Ġingenious": 12352,
    "promontory": 24727,
    "henomena": 20275,
    "Ġale": 9157,
    "Ġastonishing": 10504,
    "Ġsiam": 13841,
    "Ġsolemnly": 8023,
    "invari": 21187,
    "asserted": 22313,
    "wreck": 21139,
    "Ġsixteen": 8283,
    "age": 504,
    "Ġsembl": 19063,
    "Ġperformed": 8548,
    "Ġsensational": 16396,
    "Ġsmoothed": 23661,
    "Ġnormalization": 1245,
    "Ġvices": 14086,
    "berries": 22723,
    "{": 95,
    "oes": 4437,
    "log": 18538,
    "Ġcitations": 25438,
    "Ġbordeaux": 24565,
    "cro": 13700,
    "Ġwaning": 15537,
    "Ġtemptation": 8681,
    "Ġunbending": 25465,
    "Ġclings": 15976,
    "Ġinitialized": 3950,
    "allowance": 16826,
    "Ġbuckler": 24860,
    "Ġalluded": 7885,
    "Ġill": 2191,
    "Ġvincent": 15287,
    "ician": 21568,
    "rench": 3969,
    "sue": 2076,
    "azz": 8262,
    "Ġtune": 17727,
    "ms": 540,
    "Ġstifle": 18079,
    "tallow": 21088,
    "regard": 7973,
    "gypt": 8261,
    "Ġcrockery": 24303,
    "Ġgame": 3630,
    "ppery": 10894,
    "Ġnur": 5710,
    "resemblance": 25934,
    "Ġdepend": 781,
    "rive": 9710,
    "pay": 10720,
    "Ġ/*": 10142,
    "Ġestablishment": 13583,
    "odd": 21813,
    "Ġcarav": 18903,
    "Ġamazing": 9980,
    "Ġgreeks": 20016,
    "ked": 5616,
    "Ġalley": 15740,
    "accordingly": 19214,
    "Ġdep": 741,
    "Ġ65": 24368,
    "Ġdair": 17891,
    "Ġscreening": 25301,
    "Ġrending": 19470,
    "Ġdro": 2770,
    "Ġseparately": 13307,
    "ited": 1750,
    "utions": 1892,
    "moments": 19415,
    "ines": 668,
    "mass": 12494,
    "works": 6588,
    "aded": 3550,
    "Ġthroat": 7770,
    "Ġanalyzing": 18787,
    "Ġhesitated": 10005,
    "Ġcommitting": 22676,
    "Ġoxen": 19954,
    "Ġsymbolize": 24963,
    "mal": 6794,
    "dually": 3286,
    "Ġpanted": 21475,
    "Ġendeavored": 19305,
    "Ġquaff": 22418,
    "Ġsurmount": 20004,
    "right": 2768,
    "Ġdons": 17890,
    "Ł": 258,
    "cele": 21628,
    "rian": 10245,
    "joice": 9605,
    "Ġnovelties": 24777,
    "Ġdarling": 12609,
    "Ġdismasted": 15255,
    "Ġhackluyt": 25656,
    "Ġad": 443,
    "Ġaccorded": 24094,
    "Ġintolerably": 15833,
    "Ġtapering": 8775,
    "istical": 8491,
    "Ġswitching": 23059,
    "Ġped": 7845,
    "Ġshuddering": 9054,
    "Ġclung": 10963,
    "Ġdebar": 24274,
    "division": 20052,
    "Ġwhaleman": 4656,
    "Ġdeformity": 11679,
    "ley": 1815,
    "Ġgreat": 895,
    "needle": 20313,
    "İ": 241,
    "Ġsettee": 22923,
    "Ġbrain": 2087,
    "Ġheaven": 3367,
    "fe": 675,
    "Ġvigour": 24462,
    "alty": 17941,
    "enjoy": 10776,
    "conditional": 9081,
    "Ġoffer": 4845,
    "reward": 15512,
    "Ġsuspending": 19246,
    "contempl": 13195,
    "Ġplayful": 19239,
    "Ġdoctrine": 24200,
    "Ġcivilly": 19606,
    "Ġwarning": 9061,
    "younger": 11314,
    "Ġfoiled": 23245,
    "willingly": 11987,
    "rice": 13780,
    "unavoidable": 17393,
    "iosity": 2197,
    "Ġguns": 16778,
    "circumstantial": 24444,
    "Ġparagra": 15883,
    "iquet": 17577,
    "helped": 18927,
    "ounders": 22397,
    "Ġwhom": 1831,
    "Ġfraud": 19018,
    "object": 6883,
    "wheels": 14384,
    "orphans": 26442,
    "Ġentreated": 9954,
    "ieve": 1657,
    "Ġtranslates": 12055,
    "atived": 21265,
    "accept": 8893,
    "ens": 701,
    "Ġsant": 21217,
    "Ġpit": 3421,
    "Ġintrusted": 21996,
    "business": 5610,
    "Ġyoke": 18098,
    "allingly": 22203,
    "slowly": 9092,
    "Ġintim": 6837,
    "Ġvoice": 2189,
    "Ġ45": 14774,
    "ches": 2147,
    "Ġtenderly": 11316,
    "Ġavoided": 13263,
    "Ġdistinctions": 18536,
    "Ġsummar": 3526,
    "rily": 7621,
    "Ġremember": 2678,
    "ames": 2953,
    "stamp": 21657,
    "Ġinaudible": 21502,
    "levelled": 23648,
    "Ġshrouded": 14972,
    "ĠĠĠĠĠĠĠĠĠĠĠĠĠĠĠĠĠĠĠĠĠĠĠĠĠĠĠĠĠĠĠĠĠĠĠĠĠĠĠ": 19261,
    "Ġgro": 4397,
    "Ġhears": 8139,
    "ilated": 18060,
    "Ġfatigued": 13469,
    "dec": 3111,
    "elly": 17982,
    "Ġsprang": 5064,
    "Ġbubble": 13538,
    "hampshire": 23266,
    "Ġstructure": 859,
    "sales": 17669,
    "Ġmediocrity": 26610,
    "tempest": 16961,
    "azing": 7704,
    "poss": 4779,
    "Ġunsounded": 15853,
    "Ġupset": 22157,
    "Ġgoney": 14547,
    "Ġclay": 7020,
    "amaz": 21854,
    "Ġsiber": 17757,
    "Ġterritories": 23849,
    "Ġpines": 12622,
    "Ġmastiff": 23727,
    "Ġdiagon": 24739,
    "Ġlabrador": 23334,
    "Ġsteepest": 3086,
    "Ġtor": 8106,
    "ckinridge": 11723,
    "Ġ119": 24441,
    "Ġtoller": 9094,
    "Ġfury": 7661,
    "Ġsurmise": 12299,
    "Ġcous": 3437,
    "Ġhon": 2533,
    "Ġalph": 9698,
    "Ġspecific": 2004,
    "Ġswallows": 18883,
    "Ã¦mon": 7095,
    "stir": 12678,
    "shark": 14242,
    "Ġdozen": 8186,
    "Ġmerchantmen": 19862,
    "infl": 15490,
    "Ġeclips": 20699,
    "Ġfools": 14484,
    "father": 3777,
    "dun": 17518,
    "Ġcomplained": 17000,
    "ities": 1826,
    "Ġwallowed": 24046,
    "uts": 8820,
    "Ġexcuses": 19045,
    "Ġsets": 8778,
    "worship": 19390,
    "ch": 321,
    "¤": 102,
    "Ġsupplied": 8946,
    "Ġsomehow": 4843,
    "Ġtinker": 15135,
    "Ġnooks": 26012,
    "hanging": 10103,
    "Ġconfronted": 23312,
    "pun": 9620,
    "Ġincess": 8432,
    "brilliancy": 26078,
    "alike": 17945,
    "ena": 11571,
    "Ġplow": 21462,
    "thrusting": 20262,
    "Ġillustrations": 17109,
    "Ġlucas": 3833,
    "Ġfireboard": 23536,
    "Ġpretend": 7721,
    "foundered": 20869,
    "Ġburke": 19253,
    "Ġincluded": 8959,
    "windward": 24163,
    "agreeable": 5830,
    "Ġfills": 12599,
    "Ġaccumulation": 2693,
    "Ġfeelings": 2449,
    "Ġchaise": 9079,
    "Ġbounding": 19403,
    "Ġarrangements": 16518,
    "Ġmouthfuls": 20648,
    "ft": 911,
    "Ġmornings": 16241,
    "lude": 6162,
    "Ġhers": 7889,
    "rain": 462,
    "sphere": 22733,
    "Ġsagittarius": 24731,
    "Ġbuttoning": 17238,
    "Ġimpediments": 26242,
    "Ġretrogression": 26583,
    "ctu": 5088,
    "scores": 22995,
    "Ġagents": 9769,
    "shrugged": 22466,
    "akin": 11771,
    "obvious": 9360,
    "inates": 21183,
    "Ġperplexed": 23663,
    "Ġcleaned": 23183,
    "Ġd": 284,
    "elizabeth": 1989,
    "Ġconception": 10316,
    "Ġreply": 4517,
    "Ġpoultry": 17444,
    "Ġissuing": 16950,
    "Ġunravel": 26216,
    "permitted": 18345,
    "idable": 8146,
    "slack": 16896,
    "Ġendwise": 23138,
    "Ġfelix": 4850,
    "omeness": 18018,
    "Ġgulp": 20032,
    "anche": 10790,
    "Ġobstacles": 19838,
    "historian": 25735,
    "Ġvarieties": 14313,
    "Ġrepay": 19083,
    "Ġmixed": 6974,
    "Ġ110": 24435,
    "Ġsunbeam": 23278,
    "bird": 9588,
    "Ġcasualties": 25513,
    "Ġjudged": 12088,
    "Ġregret": 5562,
    "Ġconvergence": 973,
    "rist": 10125,
    "Ġsimple": 1618,
    "Ġashen": 21903,
    "pattern": 4434,
    "Ġof": 298,
    "Ġaccommod": 14215,
    "Ġpencils": 23197,
    "Ġmockery": 12112,
    "Ġpursue": 6315,
    "Ġskies": 8924,
    "Ġbanqu": 12593,
    "Ġpeleg": 3738,
    "Ġrokovoko": 22410,
    "ssed": 3734,
    "urously": 18052,
    "Ġsongs": 13424,
    "scarcely": 12390,
    "Ġexultation": 15175,
    "Ġwhitney": 11375,
    "Ġvicinity": 7314,
    "Ġassure": 4421,
    "hammad": 23265,
    "Ġwor": 1189,
    "Ġreverence": 12063,
    "Ġstreat": 15728,
    "Ġyonder": 7391,
    "Ġextravagant": 17281,
    "Ġpossessor": 23827,
    "oss": 10118,
    "tr": 3580,
    "Ġtreacherous": 13558,
    "Ġceaseless": 13492,
    "Ġpurring": 23477,
    "Ġquitting": 7645,
    "Ġsymphony": 26534,
    "Ġoccupation": 9934,
    "Ġknitting": 24221,
    "dread": 8732,
    "Ġvague": 6406,
    "Ġthen": 667,
    "rowsers": 8698,
    "Ġeducation": 5128,
    "Ġreeds": 15700,
    "Ġhuzza": 12638,
    "epend": 3317,
    "Ġoffic": 3188,
    "Ġmadden": 10449,
    "condesc": 18506,
    "particip": 23618,
    "h": 76,
    "Ġprotecting": 24687,
    "volous": 18601,
    "xic": 9148,
    "Ġproduced": 2448,
    "Ġpil": 5014,
    "Ġfling": 9663,
    "Ġiceberg": 14719,
    "Ġhereditarily": 25225,
    "Ġalmanac": 26487,
    "Ġthere": 563,
    "offing": 23337,
    "Ġtuileries": 24824,
    "Ġflowed": 10374,
    "Ġundeserving": 18269,
    "Ġunder": 1632,
    "Ġheave": 7599,
    "Ġperches": 18449,
    "Ġ1807": 26084,
    "Ġinvective": 26183,
    "unciation": 25983,
    "Ġdevoid": 18690,
    "Ġmarred": 23035,
    "Ġrigged": 16719,
    "Ġsins": 13840,
    "Ġcondescend": 19958,
    "vain": 15450,
    "Ġobscure": 9557,
    "Ġproof": 6154,
    "ips": 2592,
    "otle": 21801,
    "Ġlabeled": 3718,
    "hertfordshire": 10938,
    "Ġlight": 1700,
    "judgment": 16755,
    "Ġseizure": 21961,
    "Ġ36": 14771,
    "Ġproble": 1110,
    "wedding": 12526,
    "Ġhisself": 21919,
    "Ġflung": 8565,
    "Ġgeometric": 3219,
    "same": 5362,
    "Ġriggers": 24159,
    "dock": 16422,
    "icient": 778,
    "Ġconsoled": 18115,
    "Ġcombinations": 22855,
    "Ġperem": 12937,
    "nour": 20990,
    "Ġconnections": 972,
    "Ġbeeches": 9229,
    "combined": 20323,
    "Ġclubs": 25180,
    "Ġsomewhere": 5384,
    "Ġmol": 12566,
    "total": 17253,
    "Ġswings": 11089,
    "Ġprophe": 13083,
    "Ġsecurely": 16804,
    "Ġpretty": 3861,
    "Ġble": 5223,
    "Ġproposals": 10616,
    "iors": 9128,
    "months": 9074,
    "acknowled": 10976,
    "dishon": 20407,
    "Ġvancou": 22878,
    "emed": 3382,
    "erted": 7360,
    "Ġgossip": 18471,
    "consolatory": 25307,
    "part": 2573,
    "skirted": 24489,
    "lessly": 4558,
    "ay": 355,
    "Ġpang": 15609,
    "cadence": 26126,
    "glim": 19368,
    "Ġlav": 13953,
    "abb": 15743,
    "mid": 5617,
    "ampl": 21852,
    "Ġoutlandish": 12843,
    "acid": 10996,
    "Ġregions": 10327,
    "Ġdragon": 14947,
    "Ġglens": 18856,
    "Ġheadsmen": 14735,
    "Ġwholly": 4450,
    "use": 2530,
    "Ġconcert": 11971,
    "sofa": 26147,
    "anyth": 5438,
    "Ġmahogany": 20581,
    "Ġinnoc": 3795,
    "Ġarmy": 11745,
    "Ġprofession": 6208,
    "Ġpreside": 18366,
    "Ġtraditions": 11445,
    "Ġmeadow": 17154,
    "Ġglowed": 24865,
    "Ġrigger": 19533,
    "Ġpolicy": 10459,
    "Ġdreamy": 14706,
    "nant": 17611,
    "Ġdoubted": 7965,
    "difficult": 10061,
    "rose": 6014,
    "animals": 24737,
    "hyp": 15370,
    "Ġbriony": 9332,
    "ug": 1768,
    "agon": 7871,
    "Ġmab": 12565,
    "Ġamused": 11803,
    "Ġlit": 6247,
    "Ġscenes": 5731,
    "Ġfeverish": 11350,
    "Ġnewcomers": 26042,
    "Ġsummers": 23876,
    "finish": 24384,
    "Ġdeduced": 12212,
    "Ġsatisfying": 23699,
    "Ġwhir": 6393,
    "Ġringed": 16752,
    "Ġunbounded": 18260,
    "buckets": 26124,
    "Ġmetrics": 19047,
    "S": 55,
    "Ġdevoting": 22738,
    "preserve": 25304,
    "jud": 4484,
    "unvarying": 21891,
    "Ġwhittling": 20702,
    "ellent": 3761,
    "art": 595,
    "Ġtargets": 4204,
    "ere": 6789,
    "wake": 11548,
    "Ġshrunk": 16720,
    "Ġprefers": 20517,
    "existence": 16018,
    "opy": 4461,
    "herent": 2523,
    "Ġinstance": 2540,
    "Ġmarbank": 23040,
    "rets": 12546,
    "Ġcoiled": 11824,
    "Ġdeftly": 26495,
    "Ġconceits": 19393,
    "ologically": 22893,
    "Ġagreeable": 4554,
    "voyages": 24856,
    "inted": 2648,
    "advantage": 8662,
    "cleanliness": 25872,
    "suspicious": 25391,
    ">": 34,
    "Ġadvanced": 1563,
    "Ġmajor": 13296,
    "light": 3015,
    "Ġrenewing": 19813,
    "tort": 17677,
    "Ġenjoyment": 7299,
    "humored": 19456,
    "Ġunch": 18240,
    "Ġinher": 10182,
    "Ġxxi": 24476,
    "Ġbeating": 8145,
    "Ġexerting": 21836,
    "Ġlabels": 3290,
    "Ġsperma": 19053,
    "cheerful": 13579,
    "ositions": 10285,
    "Ġsheet": 6263,
    "Ġvindication": 25365,
    "questioning": 16852,
    "Ġpositional": 2597,
    "Ġcheck": 7270,
    "Ġringle": 18211,
    "saturday": 14861,
    "ster": 1953,
    "Ġunfelt": 24113,
    "etting": 21583,
    "Ġmasks": 23331,
    "Ġmathematics": 12078,
    "terbury": 21828,
    "Ġcoolly": 9775,
    "story": 9215,
    "Ġchilled": 18383,
    "_--": 20764,
    "unted": 6998,
    "Ķ": 247,
    "Ġcolonnades": 26277,
    "polar": 24584,
    "Ġgrassy": 24379,
    "ies": 582,
    "mus": 10113,
    "Ġfished": 21413,
    "Ġcheeks": 5958,
    "sur": 4525,
    "Ġrecess": 10849,
    "ounder": 11748,
    "Ġforked": 11667,
    "Ġtreat": 3177,
    "fs": 17537,
    "Ġduration": 20356,
    "rev": 17758,
    "Ġchag": 15935,
    "Ġaffirm": 11891,
    "daugh": 6788,
    "Ġdeserves": 13294,
    "Ġcanals": 22171,
    "Ġprolong": 6831,
    "Ġwarn": 5695,
    "Ġhelter": 24028,
    "Ġpossibility": 7457,
    "squall": 13525,
    "Ġgreatly": 5850,
    "Ġselected": 9713,
    "doesn": 19823,
    "Ġimpropriety": 17398,
    "Ġvillagers": 19477,
    "Ġlouisiana": 25079,
    "Ġbreathe": 9015,
    "ram": 13975,
    "Ġparr": 22123,
    "Ġwaterloo": 11985,
    "escape": 16011,
    "Ġ61": 24364,
    "Ġblew": 9048,
    "oped": 6047,
    "Ġomit": 17817,
    "invite": 25091,
    "Ġconclude": 8583,
    "Ġwhalers": 8048,
    "attending": 18918,
    "Ġanyhow": 14257,
    "ruct": 694,
    "op": 660,
    "vent": 683,
    "yramid": 8368,
    "Ġmust": 843,
    "asc": 6386,
    "Ġcomprehend": 6494,
    "finger": 10096,
    "Ġshares": 23246,
    "Ġune": 4600,
    "arers": 12134,
    "intelligence": 5883,
    "Ġspeakest": 23487,
    "Ġbulkington": 14679,
    "Ġappearance": 3700,
    "Ġcalhoun": 23046,
    "ys": 3962,
    "Ġskipper": 22802,
    "Ġstreams": 12197,
    "Ġwelcomed": 9485,
    "Ġconsideration": 5191,
    "itement": 7835,
    "Ġrequesting": 24633,
    "Ġpalpit": 16692,
    "Ġfilled": 4395,
    "Ġdeliber": 7267,
    "cooks": 25070,
    "xi": 17712,
    "Ġrepresent": 1209,
    "Ġpredicts": 2594,
    "rights": 23677,
    "hot": 8084,
    "distinct": 13340,
    "Ġvibrated": 25048,
    "Ġrounded": 14442,
    "Ġrippling": 17280,
    "Ġdexterity": 25295,
    "steep": 19422,
    "Ġbrick": 8929,
    "##": 2315,
    "determination": 19948,
    "Ġstatistics": 1682,
    "Ġgeneralization": 982,
    "iron": 3476,
    "iltrated": 19308,
    "Ġchiswick": 25561,
    "Ġaccounting": 14574,
    "Ġshoe": 14568,
    "Ġwisdom": 11235,
    "Ġpitching": 16613,
    "intimate": 22940,
    "discharging": 26306,
    "Ġwheels": 10914,
    "Ġloth": 17968,
    "Ġloafer": 18300,
    "Ġcher": 6130,
    "Ġflies": 13030,
    "Ġfixing": 13160,
    "Ġconj": 8462,
    "Ġsurmised": 24920,
    "Ġwriters": 13546,
    "rifled": 21050,
    "trust": 21081,
    "hies": 17562,
    "Ġstrongly": 5657,
    "Ġagony": 5388,
    "Ġnile": 21524,
    "pilot": 25909,
    "thick": 10263,
    "Ġleatherhead": 20017,
    "pointed": 9811,
    "Ġsupper": 4667,
    "fiery": 13585,
    "servants": 15040,
    "monograph": 23530,
    "Ġfrank": 4422,
    "westward": 25425,
    "complete": 15037,
    "Ġserves": 4670,
    "icles": 17975,
    "Ġmagnetic": 17243,
    "clothes": 9060,
    "bye": 5950,
    "Ġpail": 15611,
    "Ġlayer": 1011,
    "Ġeat": 4645,
    "Ġblown": 12090,
    "Ġpendulous": 25956,
    "Ġdem": 11677,
    "lled": 10110,
    "Ġprevented": 5942,
    "Ġvertical": 16606,
    "Ġpark": 5465,
    "Ġsurrender": 16450,
    "Ġsettling": 11064,
    "Ġtot": 4186,
    "Ġcaring": 23095,
    "iriously": 18174,
    "Ġcompetition": 14272,
    "Ġpain": 2302,
    "Ġrambled": 20171,
    "gain": 8740,
    "Ġdeg": 3284,
    "dishonourable": 26367,
    "Ġpips": 9854,
    "Ġexertions": 13414,
    "confidential": 25877,
    "Ġentering": 6286,
    "Ġstaple": 26200,
    "Ġclerks": 17298,
    "covenant": 23564,
    "ps": 4576,
    "Ġpliny": 11829,
    "rog": 15644,
    "Ġappeal": 16317,
    "Ġcham": 4893,
    "Ġconnexion": 11456,
    "Ġshelf": 12272,
    "Ġsurmises": 17056,
    "med": 1915,
    "Ġrefresh": 10349,
    "weeks": 14319,
    "card": 11477,
    "Ġdiscerned": 25006,
    "shutters": 20316,
    "Ġsuccour": 20438,
    "Ġlimbs": 5966,
    "Ġspr": 4027,
    "Ġneighbours": 8303,
    "Ġimmovable": 15896,
    "infer": 10147,
    "company": 9464,
    "Ġmental": 21322,
    "Ġscrutin": 26015,
    "Ġlanguages": 1569,
    "Ġrolled": 4432,
    "Ġdiscu": 4363,
    "Ġmechanis": 1249,
    "knowledge": 7477,
    "Ġflea": 23775,
    "Ġdisgusting": 19896,
    "Ġfiery": 6870,
    "sticking": 21663,
    "Ġburtons": 19255,
    "coward": 13704,
    "Ġembracing": 14983,
    "iber": 6506,
    "Ġunprepared": 22054,
    "Ġpor": 5225,
    "Ġmelancholy": 5606,
    "Ġvort": 18194,
    "formity": 10281,
    "Ġanswers": 7071,
    "erting": 17779,
    "hearth": 15502,
    "Ġreview": 18033,
    "Ġgrasping": 12170,
    "diminished": 20841,
    "Ġefficient": 1031,
    "Ġinstances": 5568,
    "uncont": 15778,
    "hib": 15371,
    "Ġcauldron": 25442,
    "Ġtimes": 2301,
    "Ġoust": 21327,
    "row": 1067,
    "Ġcritics": 23445,
    "approbation": 11460,
    "Ġdelicately": 24128,
    "Ġrecol": 4032,
    "Ġload": 14148,
    "Ġswelled": 11090,
    "Ġhoped": 5488,
    "fits": 13721,
    "saddest": 25528,
    "Ġcharger": 19007,
    "thrown": 8482,
    "proceeding": 20144,
    "slight": 10729,
    "Ġruined": 12960,
    "Ġfortun": 4982,
    "Ġdivided": 8635,
    "Ġdetest": 8502,
    "Ġruskin": 25809,
    "understanding": 1135,
    "Ġseeing": 2886,
    "Ġdecorum": 16024,
    "hurt": 19880,
    "arts": 6564,
    "Ġmystical": 12137,
    "Ġirreparable": 20002,
    "themselves": 6541,
    "bits": 17491,
    "Ġiroquois": 26474,
    "Ġrattle": 10901,
    "Ġwoke": 21292,
    "Ġsentimental": 24753,
    "Ġdissip": 10994,
    "Ġborrow": 10173,
    "stains": 11640,
    "agation": 1237,
    "Ġpatchwork": 24144,
    "chanced": 18814,
    "aned": 5147,
    "upid": 6582,
    "adopt": 25545,
    "mbly": 9797,
    "Ġperceive": 6700,
    "rocket": 13947,
    "Ġdusky": 13553,
    "ep": 441,
    "conside": 9293,
    "Ġbustle": 17230,
    "Ġfrosts": 19805,
    "well": 1690,
    "sm": 3436,
    "Ġcatastrop": 3350,
    "table": 5795,
    "Ġarg": 4767,
    "smiles": 14695,
    "Ġreckoned": 24743,
    "Ġcounting": 13100,
    "Ġpresumably": 19627,
    "Ġcollins": 2179,
    "Ġcatastrophic": 3543,
    "ist": 449,
    "chancing": 22925,
    "Ġexposure": 16103,
    "ignation": 11130,
    "Ġconsistent": 14530,
    "Ġdreaming": 11225,
    "ale": 506,
    "Ġmixing": 24937,
    "nels": 12500,
    "bul": 6950,
    "sartain": 25623,
    "Ġsank": 5076,
    "Ġdarted": 4759,
    "Ġeffective": 1251,
    "done": 6500,
    "Ġtrout": 22354,
    "bast": 10080,
    "Ġclasping": 20212,
    "recl": 15513,
    "Ġtrivial": 10145,
    "Ġnovel": 6696,
    "Ġdifferently": 10391,
    "cred": 9111,
    "Ġgushed": 21610,
    "french": 9122,
    "rigible": 24932,
    "Ġmetropolitan": 17278,
    "Ġtimbers": 14842,
    "iza": 6256,
    "Ġstage": 7388,
    "Ġpresum": 4839,
    "communication": 25881,
    "Ġhoars": 19079,
    "Ġrouted": 24908,
    "Ġcircumstantial": 14645,
    "Ġdiffidence": 14661,
    "Ġ34": 16679,
    "crow": 9593,
    "letter": 6202,
    "Ġlamb": 8817,
    "Ġawaiting": 11392,
    "Ġcobweb": 22588,
    "passion": 11262,
    "dil": 11480,
    "Ġunful": 22015,
    "ellations": 21952,
    "Ġmethinks": 10395,
    "bell": 7331,
    "ung": 2745,
    "Ġintrodu": 1927,
    "Ġbrimstone": 25687,
    "Ġworkmen": 23087,
    "Ġrap": 14307,
    "bru": 12443,
    "Ġbeginning": 4243,
    "gh": 3801,
    "ingu": 2118,
    "Ġthoughts": 3138,
    "Ġindu": 5295,
    "vell": 3961,
    "Ġ93": 24592,
    "Ġtrump": 8196,
    "Ġsinusoidal": 4802,
    "earn": 10698,
    "lacing": 17592,
    "iciency": 9577,
    "Ġspo": 6845,
    "Ġepid": 18007,
    "Ġwhaler": 7519,
    "Ġsummits": 14685,
    "oice": 1384,
    "Ġoffending": 22742,
    "Ġreminded": 10002,
    "uncomfortable": 18163,
    "suit": 18637,
    "Ġvesuvius": 26503,
    "put": 414,
    "sher": 5217,
    "Ġmoluccas": 25630,
    "sounded": 12271,
    "appeared": 4281,
    "Ġsweating": 16465,
    "Ġgoat": 16010,
    "assure": 9273,
    "Ġloomed": 12305,
    "Ġdisput": 14258,
    "stretch": 13984,
    "Ġanecdote": 26356,
    "Ġcheerfulness": 10519,
    "performances": 26007,
    "Ġhappier": 10362,
    "Ġcurrent": 13012,
    "ria": 15801,
    "month": 6463,
    "Ġthought": 1094,
    "Ġdut": 2987,
    "Ġcanallers": 13632,
    "Ġhopelessly": 16379,
    "Ġsmall": 892,
    "Ġsuperhuman": 23455,
    "plendent": 21968,
    "Ġwoody": 23523,
    "Ġ=": 1076,
    "houn": 20895,
    "Ġany": 687,
    "Ġferule": 24499,
    "Ġexquis": 9702,
    "Ġsepar": 4000,
    "Ġgravity": 9251,
    "Ġpant": 10819,
    "goodness": 19291,
    "Ġpeeped": 10015,
    "adier": 18092,
    "Ġbod": 4583,
    "Ġmuffled": 10643,
    "run": 10723,
    "Ġ2026": 12339,
    "_âĢĶâĢĻâĢĿ": 25742,
    "lested": 14886,
    "Ġwil": 4582,
    "Ġmustard": 12935,
    "Ġuniformly": 19149,
    "Ġbraces": 14672,
    "Ġkeel": 6444,
    "Ġantics": 24181,
    "Ġmanif": 8874,
    "insanity": 23070,
    "Ġslide": 10396,
    "Ġquick": 2581,
    "Ġtennessee": 26598,
    "Ġtrees": 4202,
    "Ġtam": 7821,
    "soul": 9143,
    "Ġlivers": 18462,
    "Ġpraying": 19557,
    "Ġutmost": 5496,
    "depth": 12805,
    "appearance": 5334,
    "Ġpencil": 11947,
    "wont": 21135,
    "Ġfolds": 12211,
    "cords": 25139,
    "Ġselecting": 16683,
    "rannical": 26403,
    "floated": 24644,
    "Ġsavann": 14686,
    "system": 4009,
    "Ġgesture": 11401,
    "Ġtaken": 2522,
    "Ġpedestrian": 25884,
    "Ġsnorting": 23743,
    "jar": 17579,
    "Ġpittance": 15621,
    "Ġexper": 1305,
    "dle": 3308,
    "ule": 6800,
    "Ġscores": 2715,
    "Ġglow": 7170,
    "purpose": 10047,
    "mering": 12495,
    "pans": 13773,
    "adm": 7608,
    "Ġattested": 22625,
    "Ġdispelling": 23883,
    "Ġalle": 11669,
    "ivility": 12788,
    "Ġwails": 21299,
    "Ġthin": 4347,
    "Ġvirtuous": 14759,
    "dam": 7797,
    "Ġacquired": 13049,
    "%": 9,
    "Ġbeer": 10222,
    "Ġbath": 9661,
    "59": 17476,
    "Ġdelivered": 11118,
    "Ġvisage": 18763,
    "Ġmuscle": 14691,
    "gans": 11492,
    "Ġisland": 4051,
    "Ġdazzling": 15215,
    "sounding": 24795,
    "Ġpoets": 11825,
    "Ġnapole": 15119,
    "Ġdisengaged": 12894,
    "Ġroy": 4229,
    "Ġannotations": 25955,
    "Ġgallons": 14821,
    "Ġdyspeps": 16507,
    "Ġshift": 2282,
    "leagues": 21376,
    "Ġhero": 5715,
    "Ġbelieve": 2145,
    "94": 4804,
    "unpardonable": 21894,
    "feature": 3881,
    "Ġcry": 3498,
    "Ġobligations": 12097,
    "Ġextracted": 16321,
    "Ġentangled": 10346,
    "Ġhang": 9190,
    "mped": 16650,
    "igms": 3044,
    "evil": 11488,
    "Ġsubterranean": 13615,
    "Ġcurios": 18844,
    "lue": 8510,
    "Ġtub": 7146,
    "Ġassailants": 20452,
    "Ġenvelope": 7318,
    "Ġwinged": 16997,
    "heum": 17749,
    "idate": 21771,
    "Ġorgies": 18286,
    "Ġpod": 15608,
    "Ġscant": 22289,
    "Ġbug": 11592,
    "Ġgrammar": 1061,
    "Ġexact": 2538,
    "Ġslipper": 24268,
    "Ġcommand": 3324,
    "Ġcomforted": 19394,
    "Ġbeautiful": 3673,
    "Ġcollapsed": 15085,
    "Ġper": 587,
    "Ġmonstr": 7667,
    "Ġprofit": 14586,
    "Ġimmeasurable": 26231,
    "Ġlazily": 11382,
    "trimmed": 23952,
    "Ġhiss": 15792,
    "Ġwinc": 9645,
    "zers": 21149,
    "Ġarranging": 11176,
    "Ġpenalizing": 13096,
    "ode": 1452,
    "urable": 8926,
    "elope": 14475,
    "pain": 7349,
    "Ġstump": 7605,
    "Ġmagg": 18907,
    "aur": 15312,
    "Ġfully": 6343,
    "noted": 22753,
    "swiftly": 20554,
    "Ġplant": 8903,
    "Ġstatement": 5255,
    "tacit": 21101,
    "Ġstature": 10865,
    "»": 124,
    "Ġdoubled": 19640,
    "allest": 5485,
    "ca": 20795,
    "Ġmanoir": 22335,
    "Ġplaid": 22606,
    "Ġnourishment": 15196,
    "turkish": 24533,
    "Ġsuspense": 9421,
    "Ġsparing": 22133,
    "Ġraises": 11849,
    "Ġascending": 14857,
    "Ġabraham": 18396,
    "harpoone": 6108,
    "Ġtendons": 19811,
    "Ġwo": 3652,
    "Ġmoonlight": 9961,
    "Ġexasperated": 11414,
    "Ġleaks": 16448,
    "Ġrehearsed": 25972,
    "Ġserve": 9371,
    "beaut": 8514,
    "Ġuncivilized": 25499,
    "horner": 23616,
    "Ġhandsomest": 20337,
    "Ġpumps": 8428,
    "Ġreception": 9842,
    "ole": 9616,
    "Ġplat": 8522,
    "Ġlobster": 11391,
    "Ġsurveying": 25326,
    "build": 12192,
    "Ġimpet": 11783,
    "ushing": 5730,
    "Ġdines": 21426,
    "Ġharness": 17930,
    "Ġwealthy": 18181,
    "bow": 5424,
    "Ġrides": 21975,
    "actory": 8911,
    "Ġmuttering": 10502,
    "Ġhandspike": 22699,
    "cater": 20817,
    "Ġhooped": 23358,
    "s": 87,
    "Ġvillain": 8639,
    "precision": 4330,
    "front": 12175,
    "Ġexec": 19495,
    "cest": 12449,
    "Ġaloft": 4302,
    "Ġside": 1389,
    "Ġheart": 1592,
    "nikin": 23249,
    "Ġemblaz": 16239,
    "Ġbefitting": 15730,
    "Ġender": 11694,
    "Ġoverpowering": 15253,
    "Ġoun": 13866,
    "Ġreport": 6192,
    "small": 6472,
    "Ġpersisting": 18884,
    "Ġmail": 17802,
    "attered": 4021,
    "Ġopening": 5045,
    "continued": 8679,
    "D": 40,
    "Ġabed": 22269,
    "Ġcasks": 7520,
    "mounting": 25208,
    "Ġmerciless": 25247,
    "anter": 9169,
    "Ġcrystal": 17217,
    "Ġpertur": 12855,
    "âĢĿ]": 21819,
    "romed": 10907,
    "to": 713,
    "Ġtablet": 19206,
    "Ġsoldiers": 8690,
    "Ġhabitations": 24788,
    "Ġslim": 18939,
    "fiend": 13665,
    "Ġloom": 7628,
    "eprints": 12796,
    "Ġours": 4614,
    "Ġsoil": 9258,
    "Ġtruth": 3322,
    "Ġindign": 6174,
    "Ġbeth": 9660,
    "sto": 3200,
    "Ġfif": 4217,
    "Ġskylight": 24077,
    "Ġbrimming": 22868,
    "Ġconversed": 13192,
    "awake": 14455,
    "grim": 19108,
    "Ġtarget": 2821,
    "autumn": 23345,
    "feed": 9296,
    "Ġpressed": 6042,
    ".âĢĶ": 4248,
    "humor": 19455,
    "Ġdisappointing": 19582,
    "af": 2374,
    "Ġtorments": 13398,
    "Ġlet": 1113,
    "pocket": 9812,
    "Ġpict": 3501,
    "ama": 11682,
    "Ġaccompan": 5513,
    "faith": 15027,
    "Ġconfide": 13104,
    "Ġforehead": 5262,
    "Ġmimic": 3144,
    "Ġsupremacy": 20263,
    "osoever": 17346,
    "remes": 21240,
    "trivial": 21095,
    "Ġriverside": 25248,
    "Ġrid": 4354,
    "Ġcorners": 18876,
    "trial": 20353,
    "Ġbert": 4584,
    "Ġcontext": 1681,
    "erson": 7002,
    "Ġmistress": 8615,
    "Ġoccupies": 24011,
    "occur": 19578,
    "Ġstrings": 11833,
    "liv": 9610,
    "meaning": 2908,
    "brother": 7092,
    "Ġcomputers": 2644,
    "mai": 22916,
    "Ġseeming": 8541,
    "advantages": 11273,
    "Ġoil": 3375,
    "Ġhumiliating": 22885,
    "conced": 22472,
    "Ġinestim": 15628,
    "Ġreplen": 11117,
    "how": 1643,
    "Ġretirement": 25379,
    "als": 2042,
    "inspect": 11561,
    "Ġbarb": 4533,
    "Ġthreat": 5154,
    "Ġapprehensiveness": 16879,
    "Ġshaved": 22006,
    "irm": 3107,
    "turned": 7305,
    "Ġlay": 583,
    "Ġwolfish": 25936,
    "cordiality": 25140,
    "Ġarid": 22180,
    "chel": 11209,
    "Ġgasps": 24866,
    "Ġcruc": 16537,
    "Ġstabbing": 20306,
    "binder": 17502,
    "Ġdeser": 3887,
    "15": 12434,
    "Ġseap": 15818,
    "Ġbarely": 16938,
    "Ġpunct": 8664,
    "ers": 405,
    "gi": 17553,
    "germans": 20568,
    "Ġoccur": 1085,
    "bbles": 13695,
    "Ġstum": 21738,
    "education": 20304,
    "Ġstates": 1854,
    "Ġaccents": 14213,
    "Ġschool": 5512,
    "cious": 6645,
    "Ġintercepted": 25828,
    "entirely": 7781,
    "Ġeste": 6084,
    "tumultuously": 25614,
    "Ġrio": 23894,
    "Ġperchance": 15995,
    "Ġcanterbury": 22174,
    "Ġrepeating": 11215,
    "Ġgay": 5535,
    "Ġcupboard": 16885,
    "bedroom": 14701,
    "Ġskylarking": 19490,
    "solely": 19819,
    "Ġsovereign": 10065,
    "Ġcommunicates": 24547,
    "Ġpebbles": 16133,
    "Ġencountered": 8322,
    "Ġimpose": 22386,
    "Ġprelimin": 8864,
    "Ġgold": 3281,
    "cock": 12030,
    "atherley": 7219,
    "Ġfollowing": 4065,
    "pping": 1426,
    "Ġtype": 2021,
    "penny": 22948,
    "stochastic": 3774,
    "Ġbigot": 24566,
    "Ġchooses": 13351,
    "Ġdangling": 17177,
    "Ġwrench": 12562,
    "Ġspool": 24803,
    "Ġjune": 10291,
    "Ġwashed": 15769,
    "eng": 1485,
    "Ġjackal": 24242,
    "Ġwaxed": 21300,
    "Ġtiny": 11555,
    "Ġbir": 17855,
    "Ġoffence": 12950,
    "tic": 8391,
    "Ġfrigates": 25707,
    "erial": 4633,
    "ously": 2486,
    "Ġsalmon": 24067,
    "Ġsandwic": 24665,
    "Ġ1778": 25730,
    "uses": 11764,
    "icuous": 10837,
    "ading": 5091,
    "Ġtul": 21162,
    "Ġeagle": 13206,
    "Ġreeled": 13989,
    "Ġmedium": 16708,
    "://": 11467,
    "oriental": 23723,
    "Ġairth": 23322,
    "Ġshouldn": 14328,
    "recollection": 25349,
    "Ġnailed": 10192,
    "Ġcorrespond": 6210,
    "Ġtroub": 22355,
    "Ġredundant": 16553,
    "Ġ(_": 3736,
    "Ġpeculiarity": 12938,
    "Ġprouder": 18974,
    "Ġrepast": 16415,
    "Ġvow": 10249,
    "Ġleeward": 6211,
    "creat": 20802,
    "wow": 21124,
    "battering": 20788,
    "ooped": 17625,
    "fever": 22505,
    "Ġtouching": 4682,
    "Ġpilgrim": 25600,
    "Ġpractically": 13102,
    "Ġirresolution": 24916,
    "Ġdancing": 5703,
    "Ġcapstan": 9102,
    "Ġsacrific": 15020,
    "rus": 5930,
    "Ġsli": 4749,
    "unforeseen": 21892,
    "Ġkind": 1785,
    "Ġlabour": 7273,
    "passenger": 24169,
    "omet": 3073,
    "intosh": 22943,
    "jane": 4485,
    "Ġconcept": 665,
    "Ġgratify": 19506,
    "edded": 8557,
    "roses": 17959,
    "Ġcurved": 18843,
    "Ġcongreg": 8464,
    "Ġmoderation": 12823,
    "Ġaqu": 17744,
    "Ġbattle": 5908,
    "osh": 18389,
    "Ġin": 291,
    "know": 2317,
    "Ġwheelbarrow": 17207,
    "Ġembarkation": 25125,
    "Ġavowal": 19418,
    "venor": 16104,
    "Ġagonizing": 17241,
    "Ġlonging": 14302,
    "Ġtradesmen": 17106,
    "Ġthey": 577,
    "ord": 669,
    "informed": 17738,
    "along": 6013,
    "ĠĠĠĠĠĠĠĠĠĠĠĠĠĠĠĠĠĠĠĠĠĠĠĠĠĠĠĠĠĠĠĠĠĠ": 14616,
    "Ġgate": 6824,
    "Ġberth": 8683,
    "bat": 8072,
    "Ġtriumph": 5143,
    "Ġmichigan": 26428,
    "Ġspain": 15884,
    "Ġdaboll": 25951,
    "Ġproceed": 3244,
    "Ġthankful": 14741,
    "Ġduplicate": 17218,
    "Ġunicorn": 22061,
    "Ġclam": 7415,
    "Ġfaced": 10810,
    "Ġcollection": 8223,
    "Ġwatery": 6297,
    "Ġenticements": 26034,
    "ban": 9587,
    "Ġlately": 6387,
    "Ġottoman": 17381,
    "Ġextensive": 12949,
    "une": 2784,
    "Ġer": 8105,
    "Ġconsented": 11297,
    "Ġreduced": 11928,
    "copyright": 5278,
    "Ġdivide": 12115,
    "Ġwayward": 22875,
    "Ġprofanely": 23572,
    "ography": 13367,
    "otted": 14027,
    "Ġcommonly": 3267,
    "Ġhumming": 12991,
    "Ġlayers": 816,
    "script": 11079,
    "Ġyounger": 5253,
    "gyric": 19111,
    "§": 105,
    "skylight": 25624,
    "detached": 19677,
    "venerable": 26410,
    "Ġchatbots": 11351,
    "Ġcontempt": 6276,
    "Ġ[_": 15464,
    "Ġ82": 24458,
    "Ġfather": 1450,
    "Ġforces": 12707,
    "Ġadhering": 14142,
    "Ġeternities": 19946,
    "uck": 1234,
    "Ġjeopard": 9946,
    "Ġinvestment": 24332,
    "family": 7323,
    "Ġensl": 19276,
    "anque": 13891,
    "ror": 7350,
    "Ġintense": 6158,
    "Ġrespected": 11957,
    "Ġpassion": 4559,
    "Ġpul": 2041,
    "entle": 1738,
    "Ġprocure": 9513,
    "imming": 9690,
    "expressive": 24307,
    "though": 2115,
    "ourage": 2447,
    "Ġimpenit": 22392,
    "ollion": 19718,
    "jet": 13745,
    "Ġgalvan": 21620,
    "Ġpeeping": 16131,
    "welcomed": 24645,
    "Ġmythologies": 26215,
    "soldiers": 25912,
    "Ġlacepede": 20498,
    "came": 4572,
    "Ġturk": 6604,
    "accustomed": 13161,
    "Ġcoffins": 13255,
    "le": 279,
    "Ġbestowed": 6594,
    "aract": 17896,
    "denial": 18716,
    "Ġcoincidence": 25484,
    "Ġpurchases": 24755,
    "Ġhor": 1659,
    "Ġwatched": 6298,
    "Ġgladstone": 23872,
    "Ġrelate": 6874,
    "Ġplans": 7918,
    "cob": 10089,
    "Ġtedious": 15271,
    "subs": 14306,
    "oughed": 22085,
    "Ġscenery": 11458,
    "mark": 5282,
    "Ġlivery": 16004,
    "Ġsyn": 15916,
    "Ġmoritz": 11910,
    "Ġzodiac": 16178,
    "Ġmanhood": 22330,
    "Ġunconcern": 14120,
    "Ġdown": 830,
    "Ġmalady": 24392,
    "feeder": 12365,
    "ideas": 18583,
    "Ġwantonly": 22897,
    "Ġuncovered": 23435,
    "Ġfootpaths": 26319,
    "Ġwindpipe": 23109,
    "Ġrepulsive": 14532,
    "Ġanvil": 11600,
    "Ġshirt": 8853,
    "chard": 21690,
    "pron": 9009,
    "describe": 1511,
    "self": 617,
    "Ġsimultaneous": 22592,
    "Ġcommunic": 5751,
    "ed": 293,
    "dangerous": 20243,
    "Ġdead": 2170,
    "crews": 15045,
    "Ġ14": 9326,
    "Ġusage": 9733,
    "Ġdumbly": 24988,
    "Ġbuckskin": 19955,
    "Ġunforeseen": 22057,
    "atious": 10154,
    "_.)": 7277,
    "Ġstated": 9692,
    "ohog": 9847,
    "critical": 19499,
    "Ġneatness": 19935,
    "Ġhandkerchief": 8917,
    "Ġbeheld": 4495,
    "Ġminor": 12973,
    "ze": 1293,
    "parlour": 16390,
    "Ġtempest": 8214,
    "ignity": 4374,
    "Ġbury": 12045,
    "Ġtal": 7563,
    "inn": 5364,
    "pets": 17638,
    "Ġhobbling": 25645,
    "Ġedges": 3826,
    "inders": 15984,
    "Ġglobular": 19012,
    "fatality": 25022,
    "Ġbegins": 7243,
    "Í": 142,
    "Ġabsolutely": 4859,
    "Ġalternative": 19990,
    "Ġcurv": 3513,
    "Ġhorseman": 19610,
    "vious": 1784,
    "Ġmizen": 17261,
    "swam": 24257,
    "instantly": 7505,
    "flying": 13724,
    "horizon": 23617,
    "ope": 4126,
    "Ġintegrated": 13534,
    "izing": 1068,
    "attacks": 23125,
    "Ġpoverty": 9307,
    "Ġmalicious": 10560,
    "Ġdirected": 5579,
    "Ġsoon": 1227,
    "eth": 623,
    "perquis": 22189,
    "labours": 16619,
    "tell": 1379,
    "flour": 23969,
    "Ġgen": 5298,
    "ithmetic": 18064,
    "Ġburnt": 9931,
    "peddling": 21034,
    "Ġprogramming": 1182,
    "Ġlens": 8439,
    "Ġupdating": 2691,
    "Ġdisplaying": 16968,
    "Ġspend": 5306,
    "grin": 19107,
    "Ġcocoa": 25483,
    "beholding": 16044,
    "obstructed": 15230,
    "Ġrambling": 18645,
    "Ġthrob": 21521,
    "Ġcentury": 8291,
    "ipped": 5790,
    "Ġstandards": 19017,
    "commodore": 20628,
    "Ġans": 1644,
    "Ġissu": 6254,
    "Ġbefall": 8833,
    "uguese": 20734,
    "agne": 21909,
    "probability": 17024,
    "falgar": 26131,
    "ult": 723,
    "Ġdeeps": 16111,
    "hs": 8378,
    "ĠĠĠĠĠĠĠĠĠĠĠĠĠĠĠĠĠĠĠĠĠĠĠĠĠĠĠĠĠĠĠ": 19703,
    "Ġvehicles": 10662,
    "Ġvanity": 7046,
    "Ġnavy": 14919,
    "Ġblueprints": 13175,
    "hered": 5623,
    "ultaneously": 4193,
    "sneezes": 11448,
    "itals": 17822,
    "Ġdigress": 24649,
    "Ġforget": 2633,
    "inary": 3277,
    "Ġste": 1391,
    "Åĵuv": 15186,
    "Ġbehavioral": 11398,
    "Ġreasons": 6020,
    "Ġmolasses": 25629,
    "Ġhish": 21918,
    "Ġexclaimed": 4684,
    "Ġsculpture": 26017,
    "forever": 22523,
    "Ġnorthwards": 19549,
    "Ġcrew": 2491,
    "Ġreminds": 13435,
    "Ġwinds": 5746,
    "Ġliveliness": 13647,
    "Ġfuneral": 10286,
    "Ġjuggl": 20441,
    "Ġapprehended": 26091,
    "ek": 1908,
    "Ġcrowded": 8012,
    "Ġparacelsus": 15270,
    "Ġ181": 23899,
    "Ġimperilled": 19581,
    "Ġhardship": 18915,
    "ivering": 7697,
    "ridden": 24362,
    "Ġcrystall": 20229,
    "Ġconversation": 3333,
    "Ġpennies": 17273,
    "Ġclouded": 13295,
    "fee": 12885,
    "yra": 8103,
    "output": 4402,
    "Ġlabyrin": 13109,
    "l": 80,
    "mou": 10710,
    "Ġfaultless": 24540,
    "Ġstraps": 19312,
    "Ġbewitched": 25976,
    "Ġdevote": 10343,
    "Ġhardihood": 23115,
    "Ġhush": 13215,
    "vari": 1513,
    "Ġth": 299,
    "Ġcopying": 17069,
    "recollect": 17226,
    "bestowed": 12230,
    "Ġhyena": 24519,
    "oran": 8793,
    "Ġfelicity": 7259,
    "Ġaromatic": 25926,
    "Ġinfallibly": 10044,
    "oblig": 16294,
    "Ġpropontis": 17468,
    "Ġtelesc": 13002,
    "ð": 177,
    "phur": 16157,
    "ige": 12685,
    "Ġcens": 8414,
    "intellect": 18823,
    "degrees": 22154,
    "seated": 11675,
    "Ġpreyed": 18367,
    "vol": 733,
    "alvan": 21507,
    "Ġexpon": 969,
    "Ġbal": 1134,
    "ÿ": 192,
    "Ġprovoking": 16745,
    "Ġentries": 22744,
    "Ġpollard": 20389,
    "Ġscalable": 1624,
    "Ġtranced": 18427,
    "utely": 8132,
    "Ġtrial": 6636,
    "Ġconsequ": 6255,
    "Ġconditions": 8307,
    "Ġfigured": 16646,
    "eck": 20846,
    "Ġremorse": 6441,
    "pence": 15412,
    "unquiet": 21885,
    "Ġliable": 14231,
    "Ġmechanically": 14408,
    "É": 138,
    "rible": 3228,
    "constant": 11326,
    "brink": 23578,
    "whosoever": 22244,
    "wanderer": 25424,
    "Ġstudious": 23205,
    "intense": 22939,
    "Ġraving": 16117,
    "'re": 12432,
    "Ġread": 1447,
    "Ġsatur": 1932,
    "Ġoldest": 12979,
    "Ġwrist": 8243,
    "Ġawoke": 7285,
    "batross": 9096,
    "resting": 23237,
    "Ġtablets": 13159,
    "madly": 24420,
    "Ġuse": 831,
    "between": 5071,
    "Ġfoundation": 4232,
    "wonders": 17146,
    "Ġpartner": 6715,
    "Ġroused": 7622,
    "Ġmodeling": 2094,
    "confusion": 13374,
    "Ġsubsequently": 16166,
    "ondency": 15273,
    "bill": 10079,
    "ampton": 18148,
    "Ġcanv": 7010,
    "Ġeff": 663,
    "thickness": 25368,
    "blow": 9107,
    "Ġbur": 2698,
    "Ġstrength": 4259,
    "Ġconnivance": 25226,
    "Ġfate": 4755,
    "Ġbouquet": 20686,
    "Ġunconcerned": 20513,
    "Ġbohemia": 10652,
    "quest": 4540,
    "Ġidentical": 10436,
    "Ġeaglet": 19307,
    "Ġaccomplice": 24376,
    "dÃ¦mon": 17529,
    "Ġtrifles": 16953,
    "Ġwhistle": 9068,
    "vic": 13805,
    "Ġdetermined": 2223,
    "tu": 12516,
    "aciously": 12901,
    "building": 17312,
    "Ġmechanical": 7938,
    "woman": 5899,
    "Ġstroke": 6935,
    "Ġxi": 16433,
    "Ġemma": 20697,
    "âĢĶâĢĻ": 8188,
    "Ġbroker": 23105,
    "Ġmaria": 7125,
    "jets": 20930,
    "Ġflank": 8229,
    "Ġadmon": 15872,
    "Ġiceland": 15150,
    "begin": 8887,
    "Ġruff": 14354,
    "Ġscience": 1575,
    "Ġbulk": 5591,
    "introduced": 15128,
    "Ġgunw": 6213,
    "exper": 8881,
    "Ġsad": 3867,
    "Ġoverthrow": 18426,
    "Ġmishap": 20579,
    "jam": 15375,
    "understand": 1111,
    "lover": 18540,
    "Ġpersuasion": 10501,
    "Ġlass": 15652,
    "Ġuniversally": 12004,
    "Ġjuly": 17239,
    "Ġdecidedly": 9512,
    "Ġdipping": 15596,
    "Ġlung": 7167,
    "lantic": 6364,
    "departed": 24793,
    "Ġghostliness": 24652,
    "Ġchivalrous": 20518,
    "boxes": 16890,
    "Ġsegment": 12762,
    "parameter": 2911,
    "Ġhouse": 1500,
    "canoes": 16236,
    "Ġmastery": 23996,
    "Ġpra": 4346,
    "Ġheel": 9687,
    "royal": 11395,
    "Ġcostly": 23586,
    "Ġstooping": 13067,
    "doc": 23379,
    "Ġformless": 22831,
    "Ġagonising": 25374,
    "Ġless": 1939,
    "Ġdie": 3964,
    "Ġcomical": 11680,
    "Ġlying": 4827,
    "design": 19343,
    "Ġimpulsively": 24881,
    "Ġidiot": 11976,
    "want": 8770,
    "treas": 17681,
    "Ġwhisker": 23938,
    "noo": 9790,
    "Ġuntoward": 19167,
    "Ġconnex": 10668,
    "Ġnodding": 23339,
    "Ġdistributes": 4195,
    "doors": 19096,
    "reds": 12753,
    "ĠĠĠĠĠĠĠĠĠĠĠĠĠĠĠĠĠĠĠĠĠĠĠĠ": 5322,
    "Ġphilosop": 5057,
    "Ġamusements": 16915,
    "sne": 10127,
    "Ġsuitable": 18281,
    "177": 20754,
    "Ġevaporate": 26334,
    "ĠĠĠĠĠĠ": 6414,
    "Ġgener": 589,
    "Ġelig": 9781,
    "Ġbeseeching": 26312,
    "ention": 849,
    "shabb": 18501,
    "ancient": 9658,
    "Ġwelfare": 12564,
    "Ġlizard": 12659,
    "Ġevery": 927,
    "Ġjog": 18405,
    "Ġcomparing": 14270,
    "Ġothers": 2582,
    "Ġmonogram": 26576,
    "Ġlungless": 24864,
    "Ġfurnace": 19443,
    "Ġcertain": 1559,
    "liber": 18815,
    "Ġcreaking": 14331,
    "Ġgets": 10841,
    "enth": 6681,
    "colour": 9906,
    "Ġinvisibly": 24814,
    "Ġextras": 22741,
    "nostril": 26561,
    "jac": 8382,
    "Ġprehensile": 26536,
    "gracechurch": 24582,
    "bewil": 22503,
    "arr": 3042,
    "handsome": 13180,
    "Ġoperations": 2298,
    "Ġnerves": 2626,
    "Ġsolving": 2477,
    "Ġprogeny": 17391,
    "pit": 3984,
    "Ġfemales": 14940,
    "Ġopulent": 23630,
    "urpr": 2287,
    "Ġbrow": 3989,
    "encounter": 20395,
    "Ġminimax": 5858,
    "elius": 13292,
    "bedstead": 23935,
    "Ġspam": 7630,
    "rified": 15422,
    "Ġn": 300,
    "Ġsystems": 817,
    "msprop": 2624,
    "Ġeating": 8136,
    "Ġtrick": 7019,
    "Ġalice": 1480,
    "pass": 4290,
    "Ġauthor": 4375,
    "ghan": 19458,
    "ient": 393,
    "bib": 17494,
    "Ġignorance": 6620,
    "organ": 15578,
    "billows": 20239,
    "Ġastern": 6090,
    "engaged": 7451,
    "Ġerrone": 14433,
    "Ġdyspepsia": 20645,
    "Ġcomplement": 23712,
    "ishments": 9276,
    "urry": 13996,
    "Ġcoinc": 11004,
    "Ġactive": 7915,
    "Ġretreated": 13437,
    "bench": 16805,
    "cils": 20816,
    "Ġparameters": 992,
    "Ġsolace": 16203,
    "Ġsisterly": 16307,
    "Ġheire": 18039,
    "Ġperishing": 22400,
    "imly": 12692,
    "ē": 212,
    "Ġcost": 2501,
    "spirited": 19756,
    "Ġclustered": 25234,
    "ological": 1887,
    "Ġthroes": 24575,
    "memory": 13621,
    "Ġstandpoint": 23280,
    "Ġlur": 5226,
    "ondescript": 22918,
    "Ġinex": 6528,
    "Ġprender": 22239,
    "Ġscale": 1547,
    "iastic": 12484,
    "Ġtass": 15473,
    "Ġimpersonal": 17399,
    "everywhere": 23700,
    "Ġregain": 22590,
    "Ġviol": 2071,
    "Ġancestry": 25642,
    "Ġwig": 9164,
    "Ġlaid": 3943,
    "vig": 15449,
    "Ġtwitch": 22679,
    "Ġobedience": 11415,
    "offended": 16401,
    "Ġenchantment": 24870,
    "Ġpatches": 4237,
    "Ġcheetah": 14505,
    "sebastian": 21824,
    "Ġenc": 968,
    "Ġirrevoc": 15041,
    "kinder": 24846,
    "ulations": 6029,
    "husband": 8042,
    "Ġresource": 10995,
    "Ġflowers": 8943,
    "icating": 15659,
    "Ġvitality": 15176,
    "entering": 17979,
    "Ġrespecting": 14486,
    "Ġstrasburgh": 18615,
    "Ġ117": 19700,
    "employed": 17264,
    "ecess": 17534,
    "Ġentity": 10345,
    "theless": 4260,
    "good": 2900,
    "ect": 380,
    "sustained": 20571,
    "Ġmathemat": 3204,
    "result": 12047,
    "Ġoriental": 9100,
    "elephant": 12355,
    "kshire": 13749,
    "Ġtalk": 1970,
    "heaved": 21213,
    "Ġsangu": 15507,
    "ince": 4339,
    "Ġcavity": 20491,
    "peare": 18913,
    "Ġpreserve": 7528,
    "³": 116,
    "uss": 8767,
    "Ġnupt": 13946,
    "Ġlighten": 23261,
    "spread": 8389,
    "Ġdefendants": 15144,
    "iah": 14420,
    "Ġtilted": 20416,
    "Ġmarching": 16698,
    "Ġbeam": 2881,
    "eag": 20844,
    "Ġimpatiently": 8338,
    "Ġruin": 6056,
    "Ġaccomplish": 14879,
    "Ġsorry": 4210,
    "grinder": 23418,
    "Ġphotograph": 6303,
    "itt": 571,
    "Ġhval": 21491,
    "Ġloft": 5642,
    "ashtego": 4103,
    "Ġgregarious": 18965,
    "qualified": 17099,
    "lasting": 8011,
    "conjectures": 25181,
    "exactly": 10639,
    "Ġre": 317,
    "swimming": 24261,
    "Ġsour": 21219,
    "Ġdupl": 9957,
    "Ġmould": 6519,
    "sad": 11523,
    "nns": 1895,
    "Ġremains": 4911,
    "Ġhealthy": 10853,
    "hark": 15369,
    "Ġgovernesses": 25130,
    "Ġrapidly": 3217,
    "Ġapparent": 5466,
    "Ġsettled": 3741,
    "Ġlikelihood": 16502,
    "yond": 2328,
    "proposal": 18756,
    "Ġjew": 9470,
    "alas": 8808,
    "Ġsisters": 3642,
    "Ġrevelry": 15140,
    "inhab": 10759,
    "Ġfaintly": 14918,
    "banish": 20784,
    "Ġdoubting": 13105,
    "Ġwarehouses": 20421,
    "Ġhearing": 4762,
    "Ġcomforter": 20510,
    "Ġawakened": 10455,
    "credit": 12453,
    "Ġhorizontal": 7782,
    "idents": 6151,
    "gers": 8376,
    "Ġworshippers": 25694,
    "conda": 18993,
    "penetrate": 20327,
    "oors": 17622,
    "Ġnurse": 9520,
    "Ġtransported": 11281,
    "Ġreflected": 2909,
    "pair": 21014,
    "apple": 22845,
    "ab": 345,
    "bears": 22495,
    "Ġmagnifying": 16323,
    "Ġsorrows": 13359,
    "ldog": 21921,
    "experience": 17161,
    "christmas": 20258,
    "Ġsubt": 11872,
    "successfully": 14994,
    "Ġunctuousness": 17237,
    "isome": 17850,
    "Ġdost": 7636,
    "Ġallowed": 4061,
    "Ġbushes": 16404,
    "Ġthrusting": 10555,
    "lascar": 20962,
    "Ġ": 225,
    "limbs": 20194,
    "Ġgreek": 10633,
    "establish": 17396,
    "wilful": 25152,
    "Ġforgotten": 5679,
    "Ġholland": 10368,
    "Ġcruising": 6912,
    "Ġprobabilities": 4966,
    "Ġundergone": 18986,
    "Ġcertainly": 2492,
    "Ġlifted": 6985,
    "Ġstring": 11831,
    "Ġindifference": 6726,
    "Ġthem": 638,
    "tarpaulins": 26407,
    "Ġsink": 4340,
    "Ġhorseback": 14853,
    "Ġspiracle": 14152,
    "meas": 7433,
    "leagued": 26437,
    "peaceful": 20450,
    "Ġjustification": 22976,
    "Ġfountain": 7364,
    "Ĥ": 229,
    "acity": 5734,
    "greatly": 16626,
    "rised": 10126,
    "Ġhurrying": 11999,
    "Ġfeared": 5931,
    "Ġindirect": 18836,
    "Ġextremity": 8991,
    "Ġgrace": 5374,
    "Ġcaus": 1725,
    "Ġinsignificant": 20459,
    "ore": 418,
    "Ġlees": 18065,
    "Ġgiant": 13971,
    "Ġpenet": 6887,
    "Ġbristling": 20530,
    "arranging": 19320,
    "Ġramad": 8529,
    "idean": 14268,
    "Ġsphy": 18312,
    "Ġtasted": 12534,
    "singular": 12193,
    "Ġflight": 6581,
    "william": 4564,
    "swim": 16781,
    "Ġspectators": 19410,
    "Ġalps": 10872,
    "petulance": 24301,
    "ability": 717,
    "speeches": 25240,
    "Ġmince": 22834,
    "Ġhammer": 6094,
    "Ġservice": 6471,
    "Ġdynamically": 4206,
    "Ġtainted": 21173,
    "idity": 8835,
    "Ġthickets": 24026,
    "wolf": 26411,
    "Ġbelongs": 8015,
    "Ġgamy": 18001,
    "Ġgone": 2105,
    "Ġebony": 18011,
    "Ġredness": 19314,
    "Ġproject": 5546,
    "Ġinfrequent": 3824,
    "Ã¦st": 24178,
    "chairs": 21696,
    "Ġtandem": 26413,
    "Ġtiller": 8968,
    "Ġexp": 782,
    "Ġdeny": 7487,
    "Ġstave": 11654,
    "Ġsharp": 2411,
    "Ġ116": 24440,
    "coast": 10451,
    "shout": 22458,
    "Ġkent": 6692,
    "unteered": 26497,
    "orrow": 2916,
    "Ġdiversity": 25285,
    "Ġstun": 11653,
    "forgot": 11034,
    "Ġperfidious": 25667,
    "urpation": 16304,
    "Ġentic": 16147,
    "Ġdefinite": 11071,
    "Ġscaled": 2104,
    "Ġactual": 3737,
    "Ġcommit": 18656,
    "ulous": 4453,
    "intention": 10370,
    "Ġdark": 2111,
    "Ġunnecessary": 8855,
    "Ġnut": 12651,
    "astonished": 15035,
    "Ġbritannica": 24681,
    "itying": 21998,
    "ellative": 21953,
    "Ġperish": 8878,
    "Ġemploys": 19434,
    "eteenth": 20160,
    "addition": 13388,
    "hemat": 3129,
    "anchor": 13892,
    "Ġpredefined": 20720,
    "Ġaccosted": 13676,
    "pagan": 17288,
    "sleepy": 24728,
    "Ġanchored": 17443,
    "Ġfondly": 19619,
    "onym": 14651,
    "Ġangels": 11180,
    "Ġjobs": 24833,
    "Ġteneriffe": 26416,
    "Ġpower": 1218,
    "Ġhud": 10824,
    "secondly": 16986,
    "Ġsafety": 6340,
    "Ġdiscernment": 15072,
    "Ġmach": 13860,
    "twelvemonth": 25863,
    "Ġtossed": 5816,
    "Ġresented": 22547,
    "Ġunrestrained": 25555,
    "Ġdrive": 5055,
    "Ġhilarity": 20300,
    "Ġheredit": 9219,
    "Ġwheeling": 18289,
    "Ġplanets": 24061,
    "thought": 3849,
    "Ġcruisings": 25865,
    "happen": 19333,
    "Ġranged": 10260,
    "ople": 2318,
    "Ġresp": 2489,
    "gest": 5426,
    "Ġevalu": 3043,
    "aired": 8369,
    "vens": 21115,
    "Ġchancing": 22252,
    "Ġprofane": 13156,
    "Ġweights": 896,
    "car": 4212,
    "Ġupd": 946,
    "tra": 5002,
    "oled": 17621,
    "Ġmaketh": 15191,
    "Ġgrating": 14358,
    "Ġglac": 9349,
    "Ġalabama": 14022,
    "70": 17478,
    "Ġtheatre": 21281,
    "cstasy": 11447,
    "youn": 5690,
    "Ġclutch": 15056,
    "Ġpalms": 8647,
    "men": 1483,
    "Ġaggregated": 25679,
    "âĢĻâĢĶ": 12741,
    "Ġchuckled": 10650,
    "cupboards": 25402,
    "Ġtrotting": 19979,
    "Ġcorpusants": 13681,
    "iousness": 4900,
    "warks": 5004,
    "Ġcramped": 23534,
    "Ġassented": 17341,
    "Ġsubur": 12962,
    "Ġfo": 1650,
    "÷": 184,
    "Ġpop": 5151,
    "dilig": 17285,
    "Ġanne": 1527,
    "connect": 1292,
    "cont": 2921,
    "Ġaltering": 18105,
    "Ġappo": 8500,
    "Ġhalls": 19528,
    "ittleness": 22380,
    "Ġto": 297,
    "Ġcommended": 18657,
    "atically": 2546,
    "despatched": 19804,
    "load": 12886,
    "biscuit": 17503,
    "Ġlaugh": 4114,
    "th": 407,
    "stop": 11638,
    "Ġworks": 5859,
    "missed": 11211,
    "Ġinsects": 25647,
    "Ġdivergence": 2728,
    "Ġtelescopes": 25691,
    "pike": 11517,
    "Ġoutrages": 18416,
    "mblings": 19783,
    "Ġresol": 2665,
    "idelburgh": 10564,
    "Ġinfinitely": 8966,
    "ounix": 14166,
    "Ġcombine": 4417,
    "Ġboldly": 9504,
    "warmth": 20056,
    "Ġyard": 5921,
    "Ġsuits": 22087,
    "Ġstating": 15729,
    "humoured": 11238,
    "deserts": 25382,
    "fetch": 12469,
    "Ġhesitating": 16949,
    "Ġinnovative": 1554,
    "Ġregiment": 6432,
    "Ġtossings": 25357,
    "Ġopposed": 11190,
    "Ġadditionally": 1175,
    "Ġeuroclydon": 15300,
    "Ġslew": 23386,
    "bre": 3980,
    "Ġexponentially": 1444,
    "Ġcounteracted": 19864,
    "'t": 3145,
    "?âĢĿ": 700,
    "Ġmariner": 7246,
    "Ġenig": 15803,
    "Ġquivers": 22417,
    "Ġsteadfast": 8682,
    "tasted": 17689,
    "even": 3838,
    "independ": 15985,
    "ieving": 7033,
    "Ġproportionate": 17044,
    "algorith": 3627,
    "Ġarbitrary": 4737,
    "except": 5383,
    "Ġwilt": 9646,
    "minutes": 7511,
    "Ġjustified": 11909,
    "partiality": 13164,
    "Ġsignification": 19204,
    "Ġbowl": 11205,
    "dismay": 19156,
    "opposition": 24820,
    "Ġone": 569,
    "Ġfleet": 9435,
    "Ġsolid": 6443,
    "Ġdominic": 25381,
    "anct": 21361,
    "Ġflattening": 26049,
    "Ġcha": 6852,
    "Ġwhim": 14002,
    "Ġdashing": 8800,
    "Ġnail": 9198,
    "Ġsoftly": 7948,
    "Ġendured": 6073,
    "poky": 17646,
    "Ġstalk": 12703,
    "Ġworshipped": 25692,
    "Ġneck": 4886,
    "Ġenlightened": 12751,
    "Ġcompanionship": 14923,
    "loat": 8890,
    "Ġcalamity": 17352,
    "Ġsnaky": 23744,
    "ĠĠĠĠĠĠĠĠĠĠĠĠĠĠĠĠĠĠĠĠĠĠĠĠĠĠĠĠĠĠĠĠĠĠĠĠĠĠĠĠĠĠĠ": 12159,
    "lotte": 3334,
    "Ġsex": 8846,
    "Ġmankind": 6699,
    "Ġmazes": 25941,
    "short": 6567,
    "Ġdays": 2077,
    "Ġres": 695,
    "Ġschoolboys": 24481,
    "sailing": 14717,
    "Ġwhipping": 21719,
    "Ġfrigid": 17355,
    "not": 910,
    "astonishment": 10033,
    "Ġbelt": 13008,
    "ccas": 15889,
    "inv": 8402,
    "next": 5892,
    "Ġlively": 5449,
    "Ġdespondency": 16580,
    "Ġtestimony": 14480,
    "Ġinterruptions": 24189,
    "Ġcolumb": 22860,
    "church": 8140,
    "Ġiterate": 13205,
    "Ġmaimed": 21319,
    "Ġobeyed": 12221,
    "bbs": 23694,
    "ruin": 22190,
    "Ġevian": 24294,
    "Ġca": 21342,
    "Ġburied": 7718,
    "Ġwhar": 7387,
    "Ġplanting": 16090,
    "Ġnostrils": 10945,
    "Ġsundering": 23277,
    "Ġengraving": 17081,
    "apothecary": 26547,
    "bra": 6220,
    "Ġdistressed": 8516,
    "Ġcucumber": 21359,
    "brandy": 19202,
    "Ġadvertised": 17250,
    "Ġwaldman": 11347,
    "lour": 15384,
    "eyeing": 14949,
    "english": 2773,
    "vate": 21112,
    "ney": 2488,
    "Ġhunch": 18937,
    "indef": 17737,
    "Ġerad": 25031,
    "swe": 5996,
    "Ġgemini": 26471,
    "Ġstro": 4597,
    "hold": 3983,
    "sleep": 6511,
    "Ġalman": 21785,
    "innocent": 20289,
    "itage": 17818,
    "Ġtyros": 26102,
    "Ġadvise": 7936,
    "Ġclaws": 15979,
    "Ġhorrible": 4906,
    "Ġcaulking": 20296,
    "Ġhercules": 14130,
    "deadly": 17101,
    "Ġostentatious": 25737,
    "chers": 11319,
    "Ġic": 9628,
    "Ġaffright": 9335,
    "cat": 15327,
    "infallibly": 26419,
    "Ġvictoria": 14876,
    "great": 3518,
    "Ġglowing": 12287,
    "Ġsurgeon": 8984,
    "asses": 7017,
    "Ġbelonged": 6921,
    "Ġequin": 14497,
    "instinct": 19546,
    "emberley": 4171,
    "Ġhorns": 11125,
    "Ġhumane": 11888,
    "Ġcreative": 9833,
    "Ġactuated": 18545,
    "avating": 18607,
    "Ġperturbation": 20444,
    "Ġevol": 2814,
    "Ġanybody": 5314,
    "Ġdespatched": 23833,
    "ipelagoes": 13675,
    "Ġretreats": 16930,
    "Ġpictured": 16625,
    "enchant": 21286,
    "Ġcrowding": 13284,
    "ĥ": 230,
    "ched": 1544,
    "Ġmultitudinous": 26275,
    "Ġholder": 6725,
    "Ġhood": 10825,
    "regularly": 13212,
    "Ġloftiest": 16876,
    "ruck": 6847,
    "sixteen": 24854,
    "crack": 19843,
    "Ġvindictive": 20473,
    "ris": 9140,
    "ux": 7813,
    "Ġrabbit": 4288,
    "Ġvacant": 9498,
    "thus": 5158,
    "Ġconcisely": 19049,
    "Ġequinoctial": 20535,
    "Ġchose": 7412,
    "Ġbohemian": 17136,
    "sell": 13784,
    "endured": 22229,
    "rope": 3186,
    "abroad": 18111,
    "Ġaccompany": 9490,
    "Ġtyp": 1132,
    "rather": 5430,
    "Ġpeas": 8535,
    "Ġlieuten": 13331,
    "Ġsomnam": 23008,
    "Ġchecking": 23289,
    "gra": 769,
    "Ġobliged": 4285,
    "tor": 15435,
    "..": 5783,
    "atiable": 17776,
    "Ġpianoforte": 15277,
    "angle": 22108,
    "Ġchristianity": 19863,
    "Ġprincipally": 11311,
    "formality": 22226,
    "Ġrum": 5924,
    "Ġromish": 19587,
    "silenced": 24423,
    "Ġyarns": 15199,
    "Ġpossession": 5589,
    "Ġorthodox": 22099,
    "Ġcaved": 21356,
    "Ġmansion": 17811,
    "lu": 597,
    "tenham": 16324,
    "Ġdedication": 3100,
    "indirectly": 18438,
    "Ġflann": 23015,
    "Ġcontinually": 5042,
    "Ġclearing": 8240,
    "Ġprotesting": 14744,
    "hatch": 15368,
    "lads": 20957,
    "edd": 1226,
    "Ġcomposed": 8896,
    "Ġthinking": 4033,
    "Ġchurned": 18386,
    "Ġcred": 8785,
    "Ġoppose": 16522,
    "interview": 19301,
    "ivorous": 22083,
    "Ġarthur": 7195,
    "Ġyarn": 10870,
    "Ġscold": 10952,
    "ifix": 21907,
    "riv": 3108,
    "Ġwild": 2601,
    "coat": 5407,
    "Ġannealing": 1555,
    "Ġdistant": 5387,
    "miserable": 8660,
    "Ġboneless": 19608,
    "Ġjuggler": 26368,
    "Ġcollecting": 12290,
    "Ġhand": 858,
    "Ġheaviest": 23329,
    "Ġdisposition": 5409,
    "Ġretiring": 16283,
    "Ġhookah": 16972,
    "upt": 13801,
    "scales": 22997,
    "Ġappeals": 16318,
    "parts": 14603,
    "true": 2586,
    "magistrate": 19865,
    "Ġsubtile": 20383,
    "Ġthemselves": 3254,
    "Ġweeds": 21928,
    "response": 25763,
    "breeding": 16677,
    "ibly": 2994,
    "Ġniagara": 26460,
    "Ġwilson": 6631,
    "Ġlumps": 21559,
    "ĠĠĠĠĠĠĠĠĠĠĠĠĠĠĠĠĠĠĠĠĠĠĠĠĠĠĠĠĠĠĠĠĠĠĠĠĠĠĠĠ": 4519,
    "points": 14396,
    "bies": 15316,
    "male": 15392,
    "Ġsublimity": 26348,
    "Ġyields": 19659,
    "Ġoptim": 774,
    "Ġunresting": 25554,
    "Ġbalm": 22907,
    "nui": 21002,
    "sea": 4764,
    "borough": 20787,
    "Ġbored": 16109,
    "Ġshow": 3403,
    "loo": 10322,
    "fishery": 10035,
    "Ġartistic": 18613,
    "Ġwhalebone": 10979,
    "hoping": 17568,
    "Ġsatiated": 22906,
    "ledge": 1329,
    "Ġuncork": 23433,
    "a": 69,
    "Ġprinciples": 10014,
    "Ġcredit": 4820,
    "dead": 8180,
    "elastic": 17983,
    "party": 8995,
    "practical": 17224,
    "Ġunintermitted": 26221,
    "burned": 25082,
    "manners": 16188,
    "Ġbattering": 13904,
    "Ġoverthrown": 18425,
    "Ġcet": 6671,
    "relieved": 13280,
    "Ġpalpable": 15209,
    "Ġdiary": 24738,
    "fle": 7129,
    "en": 271,
    "Ġcigaret": 16978,
    "Ġkilburn": 18352,
    "zz": 4292,
    "xible": 13811,
    "Ġmachines": 1777,
    "acet": 5474,
    "abashed": 21796,
    "Ġdisk": 22526,
    "Ġliterature": 17151,
    "uce": 11538,
    "dramatic": 19388,
    "Ġinstigated": 18699,
    "Ġamaze": 22483,
    "oil": 7805,
    "Ġrock": 5311,
    "Ġav": 3582,
    "Ġlogic": 13082,
    "based": 2960,
    "Ġflash": 8230,
    "Ġattractions": 12921,
    "nearest": 16026,
    "Ġ6": 5141,
    "Ġlanguid": 14216,
    "circ": 4389,
    "Ġconstable": 19070,
    "Ġtout": 17721,
    "hing": 979,
    "resist": 8276,
    "du": 604,
    "Ġjon": 15952,
    "Ġirreproachable": 24918,
    "Ġphren": 8574,
    "Ġarea": 14189,
    "aggoo": 5130,
    "supplied": 10522,
    "ull": 1432,
    "Ġact": 690,
    "umbered": 22121,
    "Ġservox": 23873,
    "Ġunre": 3479,
    "usion": 3303,
    "Ġboasted": 16110,
    "Ġbumpkins": 25282,
    "Ġfemin": 13440,
    "Ġbeds": 14554,
    "culiar": 2820,
    "igantic": 5539,
    "ruction": 4357,
    "Ġlodging": 24098,
    "Ġclattered": 22366,
    "Ġraising": 8913,
    "prejudice": 25572,
    "Ġlicense": 20094,
    "Ġinclined": 6624,
    "Ġblessings": 24179,
    "Ġtrap": 7671,
    "ľ": 255,
    "Ġmisunderstood": 18704,
    "Ġstreamed": 14548,
    "Ġdisposal": 19379,
    "Ġacceptable": 16746,
    "ertain": 1205,
    "aunted": 20772,
    "iform": 2200,
    "atical": 10773,
    "Ġalpine": 18108,
    "Ġcorps": 13038,
    "harpooneers": 8693,
    "Ġsord": 21222,
    "atter": 643,
    "mortar": 25409,
    "Ġamsterdam": 22484,
    "Ġevaluate": 3123,
    "fo": 5279,
    "Ġcorrid": 9827,
    "attest": 23122,
    "ick": 836,
    "ashion": 3859,
    "Ġminus": 18751,
    "Ġsubmission": 22794,
    "Ġfirmness": 11239,
    "atigable": 15274,
    "zeal": 16260,
    "Ġshol": 21999,
    "swaying": 25911,
    "Ġdeeply": 4718,
    "Ġgrief": 4622,
    "Ġmarbles": 18874,
    "Ġexposing": 11838,
    "Ġtarpaulin": 26158,
    "Ġtrim": 15972,
    "Ġfanning": 23393,
    "Ġrobbery": 11924,
    "Ġbook": 2702,
    "Ġbesides": 3515,
    "Ġindicated": 10471,
    "saved": 15434,
    "visited": 13352,
    "Ġcontrad": 9758,
    "Ġsaw": 1348,
    "Ġcolder": 22858,
    "Ġpremeditated": 22238,
    "Ġforbearing": 25101,
    "Ġvig": 5460,
    "Ġjones": 7203,
    "ns": 749,
    "Ġjud": 3360,
    ",âĢĻ": 2326,
    "Ġunimaginable": 15250,
    "friend": 3862,
    "84": 15305,
    "Ġbegone": 11920,
    "Ġrigging": 5601,
    "lik": 3916,
    "Ġcensured": 25097,
    "Ġoptimizer": 5035,
    "Ġisa": 14028,
    "Ġrubbed": 12961,
    "Ġunderwent": 23240,
    "Ġfals": 15585,
    "Ġatmosphere": 10899,
    "Ġjealousy": 13580,
    "onah": 3340,
    "oring": 1864,
    "Ġlashed": 9201,
    "high": 6651,
    "Ġcoals": 16080,
    "Ġspaulding": 11735,
    "Ġwillingly": 8888,
    "Ġhumanity": 6732,
    "lift": 15388,
    "Ġapartment": 6635,
    "Ġconstitutes": 13556,
    "Ġdelighted": 5499,
    "Ġinexplicable": 12261,
    "poured": 17639,
    "Ġtid": 8107,
    "Ġaint": 17746,
    "Ġvaried": 11852,
    "securing": 19816,
    "inate": 6234,
    "Ġimmut": 13302,
    "reated": 10305,
    "judged": 14834,
    "Ġcorner": 4370,
    "Ġdisrespect": 18553,
    "qualities": 25046,
    "Ġcring": 15556,
    "dron": 17527,
    "Ġroll": 5381,
    "guest": 19485,
    "Ġhypotheses": 4387,
    "Ġacquaintances": 17353,
    "Ġfunctional": 3046,
    "Ġdespise": 14668,
    "Ġshirr": 18232,
    "bulkington": 19927,
    "Ġemployed": 5200,
    "Ġgroaned": 11268,
    "Ġdilig": 8350,
    "Ġprotectors": 9073,
    "Ġemployments": 12107,
    "Ġhumorously": 18780,
    "rr": 17652,
    "Ġabandon": 12262,
    "strong": 6323,
    "ace": 714,
    "Ġclosest": 16765,
    "Ġcondescended": 19959,
    "alling": 6037,
    "giving": 8742,
    "Ġpleadings": 25854,
    "Ġisolation": 17153,
    "Ġsmothe": 18575,
    "ow": 326,
    "lim": 9609,
    "Ġdefer": 18824,
    "Ġvisits": 8221,
    "Ġfrom": 434,
    "hardly": 6491,
    "Ġpeels": 22694,
    "uning": 1314,
    "milk": 20480,
    "Ġserving": 14488,
    "fool": 9050,
    "warrant": 21140,
    "Ġadmir": 12026,
    "Ġperth": 7023,
    "inferiors": 25347,
    "however": 4373,
    "Ġmarvell": 7247,
    "Ġbiscuit": 12594,
    "Ġlinen": 12411,
    "Ġgrope": 17997,
    "Ġestab": 6316,
    "Ġcuff": 17831,
    "kins": 7344,
    "aped": 3763,
    "plunging": 25988,
    "bouton": 17504,
    "Ġdeparture": 6490,
    "Ġjavelin": 26105,
    "Ġfalse": 4343,
    "Ġimproving": 1208,
    "Ġlighting": 13087,
    "boo": 16353,
    "forest": 22522,
    "Ġreflecting": 24750,
    "Ġdeficiencies": 26572,
    "Ġsauc": 15892,
    "Ġtarshish": 12033,
    "Ġdeputation": 21844,
    "suspicions": 25392,
    "Ġafghan": 22632,
    "sive": 4144,
    "Ġinspirited": 23424,
    "Ġuntutored": 19168,
    "deficient": 23120,
    "Ġindestruct": 22961,
    "¯": 112,
    "Ġensuing": 12313,
    "Ġimagine": 3924,
    "Ġearning": 23944,
    "ĠvertebrÃ¦": 11437,
    "Ġthat": 335,
    "gust": 6361,
    "Ġfuture": 1072,
    "Ġpersonages": 23544,
    "iness": 1281,
    "Ġrh": 9247,
    "delay": 16697,
    "sters": 6391,
    "discern": 14854,
    "gained": 20883,
    "Ġungover": 18256,
    "izings": 14046,
    "corn": 13703,
    "speech": 10669,
    "Ġimpassable": 20615,
    "clearer": 24074,
    "dles": 11483,
    "Ġpeople": 2539,
    "Ġvisitors": 7985,
    "otic": 15749,
    "Ġobsc": 7040,
    "osc": 18388,
    "Ġnoble": 3440,
    "Ġterr": 3276,
    "Ġbask": 8117,
    "appe": 2944,
    "Ġnearing": 15802,
    "security": 26208,
    "Ġdwelling": 7321,
    "dire": 15339,
    "Ġpiping": 23250,
    "Ġrestrain": 8967,
    "Ġmer": 2930,
    "why": 2829,
    "Ġcrumpled": 16441,
    "Ġorders": 5341,
    "uncle": 8159,
    "Ġestimable": 23875,
    "Ġchorus": 10948,
    "begging": 22502,
    "Ġbier": 22769,
    "Ġunexpl": 22043,
    "utarch": 15666,
    "Ġstructural": 2797,
    "feels": 22506,
    "specific": 10500,
    "sides": 12512,
    "rifle": 21049,
    "ustration": 2259,
    "Ġbeaver": 18088,
    "Ġmadness": 6602,
    "Ġspreading": 13382,
    "acing": 2718,
    "Ġfielding": 16235,
    "col": 3102,
    "Ġwhel": 15870,
    "manif": 14376,
    "atching": 8203,
    "Ġrecursive": 4783,
    "apprec": 22847,
    "roman": 22008,
    "Ġdislike": 6048,
    "Ġveteran": 17453,
    "Ġpredestinated": 18532,
    "ribe": 1222,
    "mediterranean": 16410,
    "Ġpostp": 12148,
    "Ġtorment": 8677,
    "Ġboughs": 20492,
    "Ġmildness": 9947,
    "Ġvapor": 8703,
    "Ġimposs": 16618,
    "Ġsunwards": 19013,
    "Ġbarrens": 25502,
    "savage": 15079,
    "pervading": 18969,
    "berg": 11862,
    "Ġincreasingly": 9373,
    "going": 6314,
    "arus": 13915,
    "endeav": 7150,
    "Ġprep": 4191,
    "ands": 21870,
    "Ġfly": 3869,
    "Ġunwearied": 20605,
    "vag": 8768,
    "distrustful": 26332,
    "Ġwestward": 24389,
    "Ġdirections": 1971,
    "customary": 25896,
    "Ġflap": 14425,
    "Ġmusty": 22683,
    "soled": 14333,
    "Ġstraining": 11329,
    "Ġrusty": 14967,
    "mic": 12493,
    "impressed": 12696,
    "counters": 25398,
    "bar": 7540,
    "pon": 17627,
    "Ġbrace": 11213,
    "Ġtranquillize": 24756,
    "morland": 24156,
    "pillar": 5619,
    "Ġcity": 4532,
    "Ġsides": 4581,
    "Ġbeautifully": 13271,
    "orders": 12880,
    "highest": 20411,
    "Ġsuavely": 26525,
    "treacle": 25151,
    "âĢĿ;": 11673,
    "Ġsteal": 16287,
    "Ġcordon": 24394,
    "Ġsustaining": 25334,
    "calm": 8937,
    "Ġwet": 6518,
    "Ġasser": 6258,
    "Ġapril": 13666,
    "Ġfishers": 19357,
    "Ġtend": 6121,
    "althily": 19362,
    "aced": 2413,
    "disappeared": 14571,
    "Ġdefiance": 11070,
    "Ġmicroscopic": 26375,
    "Ġgranting": 18738,
    "Ġwert": 12561,
    "Ġ270": 25133,
    "Ġplying": 17916,
    "Ġsolve": 4196,
    "irious": 15790,
    "Ġpulled": 5660,
    "desolate": 25717,
    "Ġshower": 11714,
    "isms": 12585,
    "Ġtracing": 18891,
    "forecastle": 10992,
    "cong": 10691,
    "Ġowing": 6005,
    "Ġshall": 1143,
    "planted": 11702,
    "Ġslips": 23167,
    "Ġobtru": 18673,
    "Ġshamefully": 24715,
    "eze": 20849,
    "Ġinsights": 13183,
    "inarticulate": 21198,
    "Ġprobable": 5570,
    "Ġexisted": 15757,
    "âĢĻ-": 18169,
    "bots": 10085,
    "ental": 7168,
    "Ġbegging": 11081,
    "Ġcaptured": 7244,
    "sockets": 22730,
    "Ġmaddened": 17246,
    "Ġsenseless": 12083,
    "Ġcontr": 1917,
    "Ġmourning": 13482,
    "cares": 24311,
    "numer": 15402,
    "Ġamendment": 26025,
    "Ġimpreg": 15991,
    "entions": 17977,
    "Ġlun": 7856,
    "pressed": 6589,
    "Ġturkish": 12266,
    "Ġfinds": 6300,
    "Ġchili": 25562,
    "Ġsavannah": 17419,
    "Ġexempt": 21832,
    "Ġwax": 10778,
    "Ġbelieved": 4367,
    "Ġpun": 4589,
    "cheerfulness": 20183,
    "Ġreward": 6145,
    "Ġperv": 15994,
    "Ġobject": 1396,
    "terogene": 21829,
    "ped": 6963,
    "Ġheavier": 13107,
    "Ġrecklessly": 16985,
    "unless": 9238,
    "Ġesc": 2252,
    "opes": 10313,
    "specimen": 26607,
    "Ġstrike": 4857,
    "Ġfasting": 16359,
    "prop": 1033,
    "Ġstriding": 16096,
    "christian": 17235,
    "bee": 16041,
    "pol": 5893,
    "Ġcaught": 3730,
    "mun": 20964,
    "Ġstarlight": 24627,
    "confirmed": 19643,
    "Ġsails": 5257,
    "comrade": 18740,
    "allows": 15911,
    "Ġproceeding": 9909,
    "Ġpassed": 2012,
    "Ġwis": 3728,
    "Ġtransfer": 2195,
    "Ġscholar": 26112,
    "osures": 22264,
    "Ġvesu": 21951,
    "ued": 7560,
    "Ġshoal": 12020,
    "Ġsky": 3971,
    "âĢĶ": 517,
    "Ġ96": 24593,
    "cheeked": 19342,
    "rying": 3187,
    "Ġindomitableness": 26573,
    "ĠâĢĻ": 3040,
    "Ġindividually": 22960,
    "Ġattach": 14291,
    "Ġfrantically": 23260,
    "Ġenlivened": 26209,
    "Ġpunctil": 20117,
    "irably": 13300,
    "wise": 2574,
    "iscreet": 20685,
    "!âĢĶâĢĻ": 23567,
    "Ġbutter": 6841,
    "unwillingly": 21888,
    "Ġclub": 8877,
    "fleet": 15016,
    "Ġcrocodile": 20742,
    "Ġexpands": 25238,
    "Ġhung": 4562,
    "Ġpointed": 4774,
    "Ġ100": 14366,
    "bout": 20775,
    "Ġparallel": 1417,
    "Ġcircum": 8258,
    "Ġtombed": 25164,
    "Ġegyptians": 25290,
    "Ġsupposition": 9820,
    "physiogn": 26267,
    "Ġunrem": 18245,
    "Ġtortures": 14926,
    "Ġchristian": 6479,
    "Ġredeem": 20503,
    "Ġinsist": 9893,
    "Ġunfitted": 24111,
    "ends": 6039,
    "Ġbounds": 9921,
    "Ġ0": 1904,
    "declare": 25174,
    "Ġsurvived": 14937,
    "Ġeffect": 948,
    "complacency": 19916,
    "Ġtorrid": 25035,
    "Ġcrow": 3805,
    "Ġinconveniences": 24942,
    "robber": 21540,
    "Ġhandwriting": 14322,
    "Ġdun": 6675,
    "blazing": 24134,
    "Ġserviceable": 24717,
    "Ġbattalions": 25777,
    "Ġhooks": 14971,
    "Ġdism": 9770,
    "dred": 2521,
    "Ġkicked": 10584,
    "heaven": 8053,
    "Ġcalam": 13039,
    "Ġdisquiet": 18552,
    "Ġstreng": 18076,
    "tranqu": 14709,
    "ipotence": 22358,
    "Ġhieroglyph": 11975,
    "absolut": 8460,
    "Ġstep": 750,
    "Ġsecretary": 19445,
    "Ġunprinciple": 18255,
    "Ġordinary": 6097,
    "Ġinsurgents": 26602,
    "ash": 1994,
    "Ġexplain": 545,
    "Ġfold": 5531,
    "lat": 9607,
    "Ġtransparency": 10679,
    "Ġbony": 12592,
    "Ġlocket": 22117,
    "Ġprovidence": 18747,
    "Ġgrowing": 6751,
    "mantel": 26396,
    "lose": 12887,
    "Ġreconsidered": 21676,
    "obed": 14449,
    "Ġcharacter": 2793,
    "ented": 4348,
    "Ġembarks": 22974,
    "dy": 4077,
    "//": 11465,
    "skill": 24487,
    "aks": 8508,
    "cary": 10693,
    "Ġtrowsers": 9630,
    "Ġboa": 22638,
    "Ġmasoned": 20254,
    "Ġquee": 1982,
    "Ġapologizing": 25198,
    "Ġsuperstitions": 17073,
    "mbles": 23092,
    "Ġpromotion": 23196,
    "Ġconfine": 14510,
    "tubes": 25212,
    "far": 5787,
    "zed": 8104,
    "Ġmurderous": 8316,
    "Ġmerited": 23733,
    "Ġasp": 15785,
    "Ġhint": 5016,
    "false": 15358,
    "Ġcracks": 12024,
    "Ġvalidate": 3192,
    "Ġpiling": 17913,
    "Ġruefully": 17304,
    "Ġprinc": 4199,
    "but": 590,
    "destined": 24117,
    "Ġautom": 3767,
    "Ġsaid": 578,
    "pire": 9138,
    "Ġtomorrow": 21516,
    "expectation": 14859,
    "chief": 4646,
    "Ġwoman": 2384,
    "hullo": 17572,
    "Ġreappearance": 21670,
    "Ġconjunction": 25103,
    "Ġpattered": 19034,
    "Ġpages": 15612,
    "Ġvolition": 14801,
    "opened": 7913,
    "Ġsale": 14156,
    "Ġtreas": 7357,
    "marry": 13328,
    "Ġenforced": 21942,
    "oment": 920,
    "Ġroot": 2649,
    "bourn": 3304,
    "resistible": 10646,
    "Ġdrawer": 13270,
    "Ġevanesc": 24296,
    "Ġoffences": 18693,
    "Ġezekiel": 26194,
    "Ġstriving": 8999,
    "Ġsoldier": 16922,
    "olera": 21838,
    "Ġhorrify": 23822,
    "Ġexclaiming": 13645,
    "whalemen": 10433,
    "Ġmiserable": 3636,
    "itching": 21338,
    "Ġfring": 11129,
    "atch": 674,
    "shining": 18498,
    "Ġadmirers": 19689,
    "Ġdraughts": 20224,
    "geneva": 13733,
    "Ġweeping": 11690,
    "Ġchagrin": 20610,
    "Ġlobsters": 13520,
    "Ġoverpower": 12844,
    "Ġmodular": 12821,
    "nep": 20988,
    "Ġunlocked": 14123,
    "Ġportraits": 20145,
    "iii": 14780,
    "names": 16535,
    "enchanted": 26426,
    "Ġincorpor": 13169,
    "Ġcarry": 4780,
    "Ġleak": 2160,
    "powder": 17647,
    "oons": 12503,
    "kindled": 16663,
    "Ġcoronation": 13338,
    "Ġmachine": 799,
    "pretending": 17042,
    "Ġgilded": 17448,
    "Ġtempted": 9059,
    "Ġdress": 4023,
    "Ġstudents": 23206,
    "Ġexhib": 6350,
    "Ġshattered": 7884,
    "anxious": 15113,
    "andes": 18154,
    "opotam": 22489,
    "herald": 22209,
    "ure": 356,
    "Ġdaughter": 2871,
    "Ġqueens": 16705,
    "relu": 17761,
    "removed": 15519,
    "Ġpassions": 7930,
    "intment": 4721,
    "Ġfactory": 23279,
    "Ġroylott": 7304,
    "ropri": 2178,
    "sery": 17663,
    "Ġecon": 9680,
    "Ġenvy": 13187,
    "Ġwhiting": 10861,
    "itates": 13872,
    "Ġmast": 2901,
    "Ġsynthe": 26008,
    "Ġcook": 3712,
    "Ġagreement": 18543,
    "Ġwherein": 14298,
    "Ġscraps": 16904,
    "Ġmaids": 19694,
    "Ġseaward": 22950,
    "Ġsodden": 25536,
    "Ġbabes": 24425,
    "zar": 11550,
    "Ġmorose": 18851,
    "Ġequ": 1734,
    "Ġtrifled": 24675,
    "bitt": 17488,
    "Ġmotionless": 8324,
    "ronted": 14880,
    "invincible": 25092,
    "Ġconceive": 8463,
    "mered": 8218,
    "Ġboys": 5194,
    "Ġpure": 6138,
    "Ġwickedness": 9529,
    "Ġabhorrence": 9055,
    "empty": 23636,
    "Ġtendency": 11331,
    "else": 6534,
    "Ġdiabolical": 20345,
    "Ġobvious": 4964,
    "Ġaback": 22270,
    "Ġcoronet": 6345,
    "Ġwarp": 8113,
    "Ġsway": 7570,
    "Ġboston": 22641,
    "alterable": 13628,
    "Ġnorms": 3667,
    "Ġdepos": 11008,
    "Ġconciliating": 19052,
    "Ġ221": 25071,
    "Ġinstructing": 3122,
    "Ġoffspring": 16146,
    "Ġresist": 7916,
    "gar": 5615,
    "Ġhatchways": 24990,
    "Ġmiz": 10779,
    "cut": 3124,
    "Ġcylinders": 25944,
    "Ġinasmuch": 10827,
    "Ġutil": 4674,
    "Ġtwentieth": 18660,
    "Ġceremonious": 24838,
    "Ġdenying": 14660,
    "treat": 12518,
    "girdling": 26391,
    "embraced": 25805,
    "Ġgases": 21605,
    "Ġscreaming": 13427,
    "Ġblo": 2734,
    "Ġalone": 2564,
    "Ġflourishing": 25188,
    "Ġbrit": 6290,
    "Ġtranspired": 16786,
    "oried": 10804,
    "getting": 12972,
    "Ġmanagement": 8193,
    "mechanical": 25579,
    "Ġassumptions": 5517,
    "Ġbegin": 3097,
    "Ġawhile": 13833,
    "quished": 21858,
    "comprehens": 16174,
    "persuaded": 15077,
    "Ġflinging": 13589,
    "Ġgirl": 3084,
    "inioned": 19289,
    "Ġintelligible": 15945,
    "Ġoutwardly": 25001,
    "Ġstripped": 10467,
    "ifully": 13190,
    "haven": 20914,
    "Ġswiftly": 5670,
    "daylight": 19059,
    "reement": 15514,
    "Ġramble": 9316,
    "afterwards": 7483,
    "Ġdash": 8122,
    "¦": 104,
    "shells": 26057,
    "hurrying": 14986,
    "Ġmurky": 19203,
    "Ġmississ": 18839,
    "Ġware": 12559,
    "Ġprecise": 7076,
    "Ġshrieks": 12204,
    "scans": 22992,
    "Ġcompose": 12910,
    "Ġspermacetti": 19054,
    "headsman": 16699,
    "Ġbedfellow": 16442,
    "heartily": 24218,
    "Ġmax": 2008,
    "combe": 7660,
    "Ġechoed": 20427,
    "arent": 4249,
    "richard": 17289,
    "Ġeyes": 1334,
    "iar": 2376,
    "Ġbear": 3659,
    "Ġapprehension": 7114,
    "Ġresponded": 13642,
    "inquiries": 13581,
    "Ġdeed": 7868,
    "Ġlawyers": 25249,
    "Ġattentively": 9953,
    "Ġinsol": 10183,
    "Ġwhaleboats": 18480,
    "ances": 1336,
    "Ġbengal": 18784,
    "dis": 2250,
    "arb": 1566,
    "Ġamb": 9294,
    "Ġblinding": 14731,
    "fairly": 17222,
    "Ġbonds": 17871,
    "Ġpours": 17914,
    "ahawk": 23320,
    "Ġinfallible": 15074,
    "Ġpur": 2217,
    "Ġgiven": 1623,
    "Ġfashionable": 19547,
    "fts": 18697,
    "Ġgoblet": 25824,
    "topic": 10530,
    "Ġimitation": 22175,
    "!âĢĻâĢĿ": 16594,
    "Ġontario": 26206,
    "Ġintelligences": 12836,
    "ho": 2860,
    "Ġrepairing": 25590,
    "Ġactively": 18655,
    "Ġoffering": 3005,
    "fal": 17538,
    "Ġshocked": 9404,
    "admit": 18093,
    "Ġriding": 14097,
    "child": 5538,
    "Ġfeasible": 22214,
    "thither": 21984,
    "Ġnet": 3628,
    "portent": 25413,
    "Ġhulls": 13929,
    "arer": 3970,
    "inging": 5907,
    "thrasher": 25659,
    "Ġringbolts": 24199,
    "sheet": 16289,
    "insufferable": 21195,
    "answering": 26005,
    "encies": 4082,
    "Ġopera": 23429,
    "Ġpaddling": 25286,
    "Ġstript": 23696,
    "Ġplatonian": 25121,
    "Ġclo": 6045,
    "Ġlaunched": 14929,
    "gment": 4391,
    "Ġ200": 19298,
    "amous": 15765,
    "Ġobserv": 8589,
    "Ġxiv": 23411,
    "vously": 23506,
    "utted": 15665,
    "Ġdemonstrate": 24997,
    "Ġtrading": 23080,
    "Ġoutlaws": 22327,
    "distinguished": 10529,
    "minute": 11276,
    "Ġrapturously": 24889,
    "Ġpromethe": 14470,
    "Ġgrazed": 15837,
    "Ġfoundations": 11075,
    "ades": 5631,
    "gging": 7696,
    "Ġmeek": 21816,
    "urg": 8142,
    "Ġmiles": 3804,
    "fear": 8515,
    "Ġfinally": 4668,
    "unities": 15775,
    "inkle": 22617,
    "Ġvideo": 25366,
    "Ġmaintains": 2143,
    "Ġshuttle": 12131,
    "izz": 7612,
    "taffrail": 15445,
    "Ġdisregarded": 22534,
    "aged": 2606,
    "Ġprecaution": 11198,
    "Ġshortened": 23484,
    "Ġwhitt": 18057,
    "Ġaver": 1285,
    "Ġsurging": 19135,
    "Ġreplenished": 13640,
    "test": 13795,
    "Ġwheel": 9721,
    "Ġstorms": 11264,
    "Ġpairs": 4182,
    "avering": 24792,
    "pardon": 10068,
    "Ġeffusion": 22491,
    "Ġphotography": 24684,
    "Ġinduce": 7762,
    "kindly": 14747,
    "Ġaw": 2505,
    "rically": 15420,
    "Ġbenevolence": 9530,
    "cen": 17505,
    "Ġpresentation": 14483,
    "Ġhospitals": 24924,
    "Ġreducing": 1958,
    "Ġponderous": 8355,
    "Ġastronomy": 25927,
    "Ġyoungster": 23180,
    "Ġvind": 10252,
    "Ġliberal": 12195,
    "Ġlamps": 14794,
    "desperate": 17360,
    "Ġcompasses": 11269,
    "Ġthunder": 4825,
    "Ġrealising": 18983,
    "Ġspar": 10923,
    "Ġsuggest": 5417,
    "principle": 10653,
    "Ġauthority": 7748,
    "arle": 21443,
    "Ġcongregation": 12333,
    "Ġdesperado": 19822,
    "mathemat": 19139,
    "diligence": 26111,
    "Ġcommod": 10336,
    "Ġeither": 2603,
    "Ġsoothing": 8173,
    "Ġvib": 8165,
    "Ġrogue": 22409,
    "'s": 2465,
    "ough": 471,
    "Ġegotistical": 26193,
    "Ġconstit": 8586,
    "insurance": 18889,
    "bearing": 9768,
    "addressed": 13389,
    "shell": 16290,
    "Ġnarwhales": 24903,
    "Ġtravelled": 7771,
    "Ġreigning": 15705,
    "Ġreliance": 14388,
    "Ġhue": 8430,
    "Ġcrouching": 23444,
    "situ": 9624,
    "Ġfant": 9176,
    "rack": 18013,
    "Ġreddening": 25971,
    "Ġrepetition": 8975,
    "Ġtask": 1312,
    "Ġvineyard": 12334,
    "committed": 18739,
    "Ġpainted": 7979,
    "Ġme": 353,
    "cracy": 24691,
    "Ġbrushed": 15575,
    "estim": 14172,
    "Ġslow": 2377,
    "Ġdiverted": 14594,
    "Ġdesper": 6177,
    "Ġidol": 7466,
    "Ġdoubly": 16393,
    "thunder": 10265,
    "Ġsuppose": 2868,
    "Ġinterposed": 20622,
    "Ġtruly": 4797,
    "outward": 22164,
    "Ġwhisky": 23937,
    "Ġestim": 3351,
    "Ġmed": 4177,
    "Ġhesitation": 13445,
    "Ġstubbs": 23298,
    "Ġturning": 3330,
    "Ġprem": 3427,
    "Ġoversampling": 20519,
    "Ġdiscovered": 4413,
    "leg": 2813,
    "Ġreputation": 11643,
    "single": 10129,
    "source": 11528,
    "Ġvirtual": 11241,
    "Ġmarched": 18873,
    "Ġwat": 1286,
    "Ġmultipl": 2790,
    "Ġconvul": 13207,
    "Ġblight": 18819,
    "Ġmagnus": 18960,
    "Ġrender": 8305,
    "Ġolfactories": 26172,
    "protection": 19922,
    "iloqu": 11651,
    "Ġoverhear": 15971,
    "dham": 20832,
    "Ġperch": 10301,
    "Ġfulfil": 9554,
    "dropped": 12267,
    "whiskers": 12315,
    "Ġfancying": 12117,
    "Ġprosecuted": 25294,
    "Ġpatron": 7462,
    "Ġtoad": 21513,
    "rod": 10833,
    "Ġtest": 1595,
    "Ġincognita": 26553,
    "Ġsights": 7471,
    "till": 6965,
    "Ġdisease": 14260,
    "Ġup": 463,
    "Ġclouds": 5775,
    "Ġrelease": 19293,
    "Ġunbecoming": 22068,
    "wick": 5363,
    "Ġont": 18119,
    "solitary": 14507,
    "Ġselect": 3999,
    "roded": 17958,
    "Ġangry": 5498,
    "Ġpallidness": 25605,
    "ograph": 4798,
    "Ġswart": 14438,
    "Ġanteced": 26178,
    "pil": 15411,
    "Ġbuckle": 17034,
    "Ġrecover": 9796,
    "ois": 9137,
    "Ġinvests": 14871,
    "Ġsparkled": 13466,
    "lob": 22511,
    "Ġtrag": 13045,
    "heaving": 21210,
    "Ġdrinks": 24282,
    "Ġdashed": 6010,
    "ear": 8734,
    "Ġsmiling": 5475,
    "heeded": 13837,
    "mason": 17604,
    "Ġinfants": 16367,
    "Ġretrogress": 23075,
    "Ġlustre": 15138,
    "Ġwaves": 3919,
    "forgive": 18721,
    "Ġhalyards": 21497,
    "ativeness": 15524,
    "Ġbring": 3327,
    "Ġbatch": 889,
    "Ġglance": 4233,
    "Ġasserted": 16951,
    "Ġbrewed": 23349,
    "irksome": 18175,
    "Ġnetworks": 593,
    "profitable": 17072,
    "chor": 6147,
    "Ġpalp": 11252,
    "Ġcastle": 14720,
    "Ġsenses": 8252,
    "Ġthieves": 15640,
    "Ġmoderate": 10940,
    "Ġbelieving": 8225,
    "Ġfidget": 15193,
    "uture": 1065,
    "Ġinsinuating": 19273,
    "lers": 10109,
    "Ġsimultaneously": 4310,
    "Ġtelescope": 17351,
    "stripped": 16947,
    "Ġrecogn": 2788,
    "Ġent": 903,
    "Ġauthent": 14515,
    "Ġbressed": 21390,
    "Ġchron": 19441,
    "Ġintellectual": 11403,
    "Ġmonoman": 7939,
    "Ġfestival": 25446,
    "Ġlethar": 21735,
    "pie": 21013,
    "Ġconnection": 5479,
    "ouement": 21451,
    "neck": 14237,
    "isely": 4491,
    "Ġleaves": 5021,
    "Ġproposition": 23251,
    "isive": 10795,
    "Ġprow": 6685,
    "gradually": 12920,
    "Ġancest": 12619,
    "Ġmonth": 2850,
    "Ġgraces": 18226,
    "Ġreserves": 19673,
    "Ġtorrents": 20059,
    "pin": 13770,
    "Ġlogits": 3450,
    "Ġlast": 1125,
    "Ġthousand": 2780,
    "Ġhaunts": 18199,
    "Ġadult": 18290,
    "fugitive": 26132,
    "Ġride": 12763,
    "Ġbasin": 19850,
    "arius": 14251,
    "Ġhay": 11608,
    "Ġpolynesian": 26027,
    "Ġnominally": 17234,
    "stave": 21652,
    "rarely": 21637,
    "Ġdomineering": 23640,
    "urre": 10858,
    "agos": 21908,
    "Ġrud": 8479,
    "Ġtinkling": 25213,
    "izar": 14045,
    "Ġimmense": 4952,
    "Ġkingdom": 12023,
    "thin": 14099,
    "aking": 974,
    "Ġdrop": 4344,
    "rocious": 21542,
    "itz": 6006,
    "numerous": 17434,
    "Ġsust": 7007,
    "Ġshows": 8484,
    "Ġinsulted": 14995,
    "Ġswear": 6461,
    "sheltered": 25586,
    "Ġmalice": 7152,
    "ingly": 2133,
    "Ġbrave": 6330,
    "Ġsewing": 21958,
    "Ġhappiness": 2945,
    "Ġfel": 1514,
    "rimin": 2420,
    "Ġtrapped": 23078,
    "Ġunhe": 22014,
    "_,âĢĻ": 12437,
    "uracy": 1074,
    "Ġfled": 6672,
    "tuning": 1582,
    "uous": 4145,
    "Ġcreat": 1409,
    "Ġmorcar": 13020,
    "Ġheartless": 13077,
    "whew": 22870,
    "Ġat": 394,
    "magnifying": 25393,
    "Ġexcessively": 9443,
    "Ġsoda": 25535,
    "iverse": 13120,
    "Ġthis": 382,
    "ach": 435,
    "Ġencoding": 4775,
    "Ġmemorable": 16431,
    "Ġrolling": 5975,
    "Ġfootpath": 19340,
    "Ġeagerness": 6609,
    "sail": 3604,
    "Ġdoings": 18377,
    "Ġcrest": 12946,
    "lemagne": 26438,
    "Ġdelicious": 14796,
    "Ġhailed": 6407,
    "urous": 10215,
    "Ġdestructive": 23488,
    "Ġross": 2764,
    "deserted": 19344,
    "Ġhal": 1363,
    "cavity": 26127,
    "Ġsaints": 20677,
    "returned": 7765,
    "propriety": 14370,
    "usable": 22283,
    "Ġvalue": 2084,
    "Ġconflagration": 26366,
    "Ġunsuccessful": 18258,
    "Ġassent": 12738,
    "Ġslouched": 13064,
    "Ġsoothingly": 25050,
    "haut": 20904,
    "Ġdissol": 18551,
    "being": 3914,
    "arnel": 18127,
    "Ġcriminals": 19924,
    "Ġsuspicions": 9482,
    "Ġaugust": 10600,
    "Ġequinox": 25856,
    "Ġirrevocably": 15301,
    "Ġimperfectly": 25727,
    "killer": 20479,
    "Ġdissolved": 18554,
    "Ġfevers": 22212,
    "Ġcompanies": 14559,
    "Ġmature": 17801,
    "Ġ]": 15462,
    "Ġimpetuous": 25571,
    "desol": 13222,
    "fect": 2299,
    "Ġextra": 4058,
    "istically": 14146,
    "Ġaffidav": 18791,
    "putation": 7624,
    "Ġphaeton": 17467,
    "olently": 15761,
    "Ġravine": 18648,
    "Ġhours": 2819,
    "persu": 8028,
    "Ġwithdrew": 9699,
    "Ġinvoluntarily": 8550,
    "then": 2053,
    "arn": 357,
    "Ġphysiognomical": 25612,
    "Ġdaughters": 4424,
    "Ġreb": 15695,
    "worth": 8630,
    "Ġperseus": 10606,
    "throt": 25660,
    "Ġmajority": 13297,
    "fishers": 24929,
    "====": 1479,
    "ertion": 12043,
    "Ġwag": 10777,
    "Ġreynolds": 10212,
    "Ġaccident": 5380,
    "Ġforced": 4352,
    "destroyed": 15264,
    "Ġvalid": 1745,
    "Ġpraised": 19556,
    "Ġalleviated": 26205,
    "Ġadvocate": 13680,
    "Ġbravely": 23842,
    "ino": 15482,
    "Ġintroduces": 3272,
    "Ġphysi": 9991,
    "Ġboundary": 11224,
    "Ġemails": 13111,
    "user": 5105,
    "Ġtranscend": 25668,
    "delightful": 12201,
    "Ġmantel": 11441,
    "darker": 24516,
    "Ġdeserve": 8309,
    "Ġdoubtful": 19143,
    "Ġunduly": 25995,
    "mospheric": 17092,
    "Ġwedding": 4817,
    "Ġimmemorial": 10513,
    "moderate": 22874,
    "Ġlimping": 23549,
    "giana": 7800,
    "dee": 11737,
    "ribed": 7692,
    "Ġurged": 6781,
    "Ġfashions": 17887,
    "Ġstoner": 7178,
    "Ġgreas": 17994,
    "nurs": 21001,
    "Ġjabez": 11770,
    "Ġexploring": 4304,
    "Ġhen": 3504,
    "iel": 11496,
    "Ġerecting": 24653,
    "readily": 19365,
    "mess": 13756,
    "said": 4105,
    "cull": 20811,
    "Ġceasing": 23759,
    "draul": 9446,
    "Ġinducement": 16845,
    "Ġpurpose": 2709,
    "elder": 21575,
    "Ġdipped": 15599,
    "Ġabstracted": 17185,
    "Ġannihil": 10177,
    "Ġcasc": 15560,
    "geon": 6271,
    "enterprise": 24995,
    "Ġmannish": 26239,
    "Ġgrud": 17998,
    "Ġcountenances": 11969,
    "Ġhawaiian": 25367,
    "Ġmillar": 13864,
    "master": 5687,
    "Ġmaker": 15547,
    "Ġmoulded": 16977,
    "parad": 16388,
    "rough": 588,
    "importance": 9992,
    "ete": 9206,
    "mit": 4934,
    "snatched": 24851,
    "twill": 21077,
    "Ġneutral": 12749,
    "Ġzoned": 22823,
    "trampled": 26335,
    "Ġdrags": 16943,
    "Ġinvari": 6529,
    "ĠĠĠĠĠĠĠĠĠĠĠĠĠĠ": 22568,
    "Ġnatives": 17953,
    "rics": 13043,
    "Ġremorseless": 13455,
    "joining": 19449,
    "fingers": 17373,
    "Ġintermediate": 18590,
    "ath": 862,
    "should": 3265,
    "orial": 8418,
    "Ġemerging": 24613,
    "coach": 23562,
    "Ġdiscomposure": 20382,
    "C": 39,
    "one": 615,
    "Ġlurid": 19684,
    "delivered": 24103,
    "Ġhelen": 16658,
    "Ġhome": 2029,
    "vii": 13152,
    "Ġcocaine": 20723,
    "Ġwarring": 16867,
    "atural": 934,
    "Ġtigers": 25759,
    "Ġk": 485,
    "regarded": 12012,
    "pop": 17633,
    "footed": 19692,
    "cowardly": 25750,
    "retreat": 23140,
    "tack": 12517,
    "Ġnumerical": 4245,
    "Ġsocket": 12794,
    "Ġroots": 11187,
    "Ġcrozetts": 19632,
    "supportable": 12374,
    "consideration": 14958,
    "calmed": 16207,
    "Ġpreventing": 883,
    "Ġcharted": 22254,
    "interrupted": 11419,
    "oppressed": 24821,
    "Ġinstruct": 2866,
    "Ġdiscoloured": 15256,
    "worked": 19004,
    "Ġlimit": 10445,
    "Ġbrim": 12982,
    "Ġallev": 18103,
    "kye": 20940,
    "Ġcutting": 4983,
    "Ġfood": 5080,
    "Ġelopement": 10331,
    "kers": 7133,
    "Ġbabel": 24426,
    "ocr": 10470,
    "connections": 14431,
    "Ġspence": 22130,
    "less": 928,
    "Ġgrateful": 7659,
    "creation": 14809,
    "birds": 15148,
    "Ġservant": 5764,
    "Ġmoral": 6580,
    "worn": 13809,
    "walk": 5523,
    "exe": 11793,
    "Ġoath": 7833,
    "peril": 18342,
    "Ġdeveloped": 16358,
    "tried": 13797,
    "progression": 20385,
    "lost": 8891,
    "bab": 11470,
    "really": 6971,
    "wled": 15457,
    "Ġspat": 2664,
    "Ġfeeble": 12288,
    "ian": 1239,
    "Ġcorresponding": 13442,
    "div": 8076,
    "Ġpap": 8802,
    "metallic": 19882,
    "Ġevangel": 11282,
    "Ġlandsmen": 11353,
    "ell": 399,
    "Ġquickly": 4241,
    "Ġineffect": 13933,
    "kind": 3863,
    "ol": 364,
    "Ġind": 1219,
    "Ġcarriage": 3953,
    "Ġrather": 1491,
    "inte": 5144,
    "Ġignor": 4013,
    "usoid": 4768,
    "Ġworshipper": 25693,
    "Ġregards": 16084,
    "uvier": 9071,
    "Ġlunch": 13529,
    "yden": 21146,
    "Ġwhole": 1660,
    "Ġrisk": 8039,
    "resides": 23674,
    "spir": 5738,
    "Ġwes": 8783,
    "vo": 11542,
    "Ġdisappointed": 7098,
    "transition": 24513,
    "Ġaspect": 3095,
    "concerned": 24639,
    "heav": 5694,
    "Ġoutrage": 15962,
    "remed": 18955,
    "Ġletter": 2196,
    "Ġinferiority": 17116,
    "chains": 9688,
    "were": 2554,
    "hitherto": 17286,
    "Ġbend": 9173,
    "rat": 8759,
    "Ġunfolded": 10641,
    "Ġwarmly": 8990,
    "Ġacre": 22684,
    "Ġcovari": 2336,
    "Ġconfused": 7964,
    "Ġhungry": 10535,
    "Ġsteed": 13046,
    "Ġborder": 10172,
    "indignation": 18439,
    "Ġremedy": 18727,
    "laid": 10112,
    "keeper": 5597,
    "exciting": 19671,
    "Ġpudding": 17918,
    "rage": 10845,
    "Ġlearnable": 3996,
    "Ġsuccessful": 9926,
    "infliction": 25925,
    "Ġsharing": 3478,
    "bl": 4142,
    "ı": 242,
    "barn": 17485,
    "proportions": 22838,
    "walking": 9985,
    "Ġaffords": 16736,
    "nes": 6960,
    "usiveness": 22287,
    "Ġactions": 6279,
    "gale": 13727,
    "Ġscanning": 18401,
    "Ġushered": 18357,
    "Ġcup": 5697,
    "screw": 9350,
    "Ġset": 1176,
    "remarkable": 13501,
    "fa": 7335,
    "perceived": 8862,
    "Ġhatchet": 16531,
    "Ġinvestigation": 9045,
    "sensible": 20055,
    "Ġaversion": 18867,
    "Ġinferior": 8366,
    "Ġthames": 13941,
    "dist": 4483,
    "Ġrepeated": 3832,
    "ived": 1530,
    "Ġflit": 23009,
    "Ġxxxi": 24969,
    "Ġmessage": 13526,
    "roads": 17960,
    "Ġdat": 496,
    "retirement": 23143,
    "Ġpossesses": 19355,
    "nam": 2810,
    "enderby": 25216,
    "Ġbaptized": 25775,
    "Ġenderby": 13655,
    "breaking": 14768,
    "Ġgoethe": 22428,
    "Ġbarbs": 10534,
    "Ġswayed": 15050,
    "Ġelderly": 13498,
    "Ġingrat": 16842,
    "Ġconjectures": 16927,
    "possess": 5984,
    "Ġchapel": 9526,
    "Ġcomputes": 4769,
    "Ġsoap": 14135,
    "tawny": 26406,
    "intern": 23738,
    "Ġvestibule": 13540,
    "kick": 20938,
    "Ġtraverse": 18893,
    "apology": 22337,
    "oblivious": 26584,
    "Ġremembered": 5277,
    "Ġpatched": 16383,
    "increasing": 20272,
    "Ġways": 5396,
    "aswag": 21549,
    "Ġcanes": 22170,
    "Ġple": 1467,
    "Ġdisturbing": 19949,
    "omin": 4704,
    "Ġwrath": 16319,
    "Ġpet": 4588,
    "impatient": 13644,
    "warm": 8102,
    "Ġbracelets": 25503,
    "ignific": 11960,
    "subsided": 25832,
    "dressing": 11484,
    "mag": 6508,
    "Ġrephr": 21682,
    "eled": 2356,
    "Ġsat": 1133,
    "mpus": 13760,
    "butter": 11789,
    "Ġgrinning": 9056,
    "Ġscandinav": 19964,
    "embers": 21931,
    "Ġstumble": 26485,
    "touched": 15442,
    "ojo": 7348,
    "Ġsignal": 5945,
    "Ġclattering": 22368,
    "wood": 5898,
    "Ġbeech": 18085,
    "P": 52,
    "Ġpoison": 7218,
    "Ġfossil": 12391,
    "Ġfrightful": 7735,
    "za": 13813,
    "iled": 1766,
    "Ġrel": 1097,
    "onted": 11570,
    "Ġrecede": 25969,
    "Ġlifetime": 13606,
    "Ġoffices": 14341,
    "verbally": 25361,
    "Ġshipped": 9718,
    "uvian": 12247,
    "Ġcocked": 12912,
    "avenue": 25060,
    "Ġinsatiate": 19272,
    "hinting": 17571,
    "leaning": 10792,
    "Ġ132": 19898,
    "Ġlany": 21557,
    "Ġflor": 8564,
    "Ġpants": 21468,
    "Ġgraze": 18227,
    "Ġindelible": 25695,
    "sharks": 14243,
    "Ġslewed": 23388,
    "Ġplaintiffs": 13613,
    "Ġjutting": 22305,
    "Ġordained": 19448,
    "anatory": 21366,
    "shirt": 22464,
    "Ġdumplings": 15194,
    "Ġinvis": 6901,
    "Ġjiff": 22300,
    "Ġheathen": 10568,
    "Ġinject": 2712,
    "Ġhissed": 15793,
    "Ġofficious": 19351,
    "plenty": 14094,
    "Ġvolley": 24148,
    "Ġfield": 1232,
    "Ġturns": 4981,
    "Ġsmothered": 20722,
    "mouth": 9133,
    "Ġonto": 14031,
    "accompl": 9883,
    "Ġsteelkilt": 5675,
    "Ġbluff": 16520,
    "Ġtops": 14587,
    "Ġprosper": 10231,
    "Ġraven": 16118,
    "Ġcruelly": 13379,
    "several": 5544,
    "Ġsolicitude": 10043,
    "goes": 10428,
    "Ġgroping": 13669,
    "Ġafford": 4365,
    "loaded": 22516,
    "Ġrout": 7401,
    "Ġflights": 24752,
    "threat": 10902,
    "iciously": 17976,
    "G": 43,
    "fr": 4805,
    "closing": 23157,
    "Ġannihilation": 15169,
    "Ġannual": 14835,
    "Ġrural": 21971,
    "strangely": 17279,
    "regulated": 23469,
    "worthy": 7732,
    "Ġmissed": 8558,
    "Ġrepairs": 19085,
    "shattered": 22465,
    "Ġgush": 10205,
    "chronicle": 26482,
    "¶": 119,
    "instinctively": 26329,
    "Ġinstinct": 6575,
    "excitement": 19672,
    "misrepresented": 24214,
    "Ġsalutations": 25383,
    "Ġuttering": 16464,
    "Ġvisible": 4778,
    "influ": 9544,
    "gently": 13732,
    "Ġsurm": 7475,
    "Ġkeys": 12001,
    "Ġbaboon": 19696,
    "conclusions": 25673,
    "max": 1684,
    "Ġunit": 1850,
    "Ġflow": 1240,
    "Ġsailing": 5324,
    "Ġarduous": 26531,
    "Ġdetestable": 15102,
    "Ġdropt": 23678,
    "Ġprevious": 2088,
    "Ġcommerce": 11017,
    "Ġconsecut": 18114,
    "Ġtamer": 24979,
    "mechanically": 17303,
    "aulets": 18623,
    "Ġagent": 6278,
    "Ġanx": 3182,
    "Ġpromoting": 3161,
    "reflection": 13459,
    "compass": 9463,
    "del": 4078,
    "voc": 8394,
    "_.âĢĿ": 5886,
    "Ġhole": 6079,
    "Ġliberties": 19670,
    "Ġloosed": 22116,
    "sought": 15430,
    "Ġleaps": 14005,
    "Ġgladness": 16593,
    "Ġrespond": 11178,
    "angular": 11727,
    "Ġstubb": 1786,
    "Ġveneration": 25047,
    "Ġv": 398,
    "Ġsoph": 1638,
    "lemag": 21375,
    "help": 1475,
    "Ġperuvian": 18453,
    "Ġreciprocating": 26371,
    "Ġintimacy": 8704,
    "andromeda": 21872,
    "bread": 10688,
    "Ġrecording": 24434,
    "Ġfloat": 12036,
    "Ġcreeping": 18684,
    "wall": 10139,
    "Ġclaw": 22364,
    "Ġstruggle": 3676,
    "?--": 15307,
    "Ġpuffed": 14980,
    "Ġsighed": 10340,
    "Ġissue": 2309,
    "Ġcaps": 8416,
    "Ġrole": 16002,
    "Ġcircumstance": 4987,
    "Ġsentin": 16375,
    "overs": 17623,
    "Ġmistifying": 23722,
    "Ġinterior": 8899,
    "Ġattorney": 18622,
    "ippi": 20247,
    "Ġglories": 16244,
    "Ġelephant": 8256,
    "Ġmantle": 25275,
    "Ġremem": 4312,
    "Ġprofound": 5497,
    "Ġexploration": 2334,
    "mathematics": 26305,
    "Ġshrine": 19534,
    "vedale": 22713,
    "Ġfeeds": 16437,
    "plete": 10921,
    "Ġjot": 11767,
    "Ġsurve": 9877,
    "Ġsickness": 10541,
    "Ġspitz": 14151,
    "iards": 17576,
    "Ġterm": 2266,
    "Ġinexper": 16982,
    "rapid": 12675,
    "Ġtasks": 1788,
    "arling": 10816,
    "Ġlurking": 11291,
    "Ġpat": 1794,
    "Ġosc": 2835,
    "Ġ9": 5901,
    "Ġscientific": 6856,
    "allies": 14168,
    "Ġdoes": 942,
    "Ġobserve": 4672,
    "Ġanswering": 7476,
    "Ġoppressively": 25711,
    "your": 1987,
    "custom": 15336,
    "Ġdoze": 14179,
    "enter": 7858,
    "Ġoutlined": 22324,
    "supper": 12927,
    "Ġprofoundly": 16861,
    "Ġgard": 2188,
    "Ġdata": 519,
    "Ġbest": 1976,
    "Ġ81": 24457,
    "Ġsensationalism": 26068,
    "tomb": 21096,
    "Ġgeneralize": 3099,
    "Ġpresume": 8038,
    "arthly": 8030,
    "Ġbrotherhood": 23672,
    "Ġwoeful": 19622,
    "arched": 10817,
    "shoals": 24716,
    "entieth": 17981,
    "Ġadvers": 4888,
    "Ġamphitheat": 26253,
    "Ġrejecting": 17052,
    "stooped": 23825,
    "Ġsafie": 6619,
    "correspond": 13402,
    "Ġhonoured": 9884,
    "Ġtwitched": 20447,
    "Ġrescue": 13347,
    "Ġposit": 1308,
    "Ġattachment": 6050,
    "Ġbid": 6132,
    "Ġcommanding": 16592,
    "capital": 15092,
    "fred": 20857,
    "Ġsusp": 2663,
    "Ġdecline": 9290,
    "soles": 18686,
    "Ġnibbling": 17388,
    "Ġverse": 16604,
    "Ġexciting": 23316,
    "Ġgrew": 5182,
    "Ġsprain": 18306,
    "mod": 1082,
    "Ġimpulse": 10027,
    "young": 7320,
    "repent": 15516,
    "Ġpoul": 15617,
    "Ġpouch": 21472,
    "driven": 19774,
    "Ġbig": 5806,
    "bud": 10686,
    "dece": 11738,
    "Ġworkman": 16286,
    "rove": 21536,
    "Ġexplo": 2285,
    "Ġrespectfully": 18994,
    "Ġwrite": 3821,
    "alously": 15633,
    "Ġdemocracy": 25459,
    "Ġfoul": 7159,
    "Ġreduces": 2341,
    "Ġmortifying": 13249,
    "Ġcongratulations": 10583,
    "Ġcats": 8982,
    "Ġchanging": 11757,
    "networks": 2403,
    "asmuch": 10197,
    "Ġemergency": 25731,
    "Ġirksome": 13116,
    "Ġclink": 22362,
    "Ġcompare": 9305,
    "Ġdomestic": 6908,
    "Ġperfectly": 3701,
    "Ġfeigned": 22213,
    "Ġencodings": 4776,
    "rann": 21047,
    "Ġscoundrel": 13674,
    "port": 10721,
    "Ġindisc": 16230,
    "Ġvulgar": 13608,
    "itary": 4752,
    "Ġadvertisement": 6940,
    "inhabited": 13624,
    "Ġmoment": 989,
    "pits": 15415,
    "ag": 377,
    "Ġferoc": 14900,
    "Ġparamore": 22126,
    "Ġsallies": 21232,
    "eff": 2529,
    "Ġclue": 7021,
    "Ġfob": 21412,
    "Ġsignals": 10588,
    "shr": 10982,
    "widely": 25344,
    "extra": 8219,
    "housekeeper": 24104,
    "Ġ52": 24317,
    "Ġgoodness": 6059,
    "Ġterms": 2558,
    "Ġappertain": 22221,
    "brace": 16944,
    "Ġreferences": 21677,
    "Ġfighting": 12202,
    "Ġkettle": 26234,
    "acy": 3957,
    "Ġmud": 11576,
    "miserably": 24213,
    "Ġmotives": 7485,
    "Ġfinger": 5274,
    "Ġacts": 2294,
    "Ġtoy": 15638,
    "ridge": 9500,
    "Ġeludes": 26556,
    "Ġswinging": 7448,
    "cating": 20804,
    "Ġinsect": 12641,
    "Ġbedside": 19125,
    "Ġsus": 18278,
    "ugging": 23293,
    "Ġswears": 16466,
    "ways": 1442,
    "Ġpity": 4941,
    "Ġapproaching": 6284,
    "itious": 8784,
    "Ġspeech": 4612,
    "Ġdizzy": 21435,
    "Ġjet": 5309,
    "Ġprofund": 13157,
    "Ġmeditative": 25017,
    "mort": 10712,
    "Ġvapors": 19910,
    "Ġunidirectional": 3426,
    "Ġoccas": 2703,
    "Ġshelter": 17010,
    "unbidden": 21898,
    "Ġwalls": 6762,
    "Ġstood": 2547,
    "glass": 9912,
    "Ġconsecrate": 26491,
    "open": 7027,
    "thern": 4953,
    "Ġpersonality": 16479,
    "cheap": 23807,
    "Ġsweetest": 13252,
    "Ġbol": 6242,
    "moment": 3579,
    "Ġunsavory": 20709,
    "Ġdiamond": 15603,
    "absolute": 17125,
    "susceptible": 24662,
    "Ġhidden": 1375,
    "Ġtartar": 17325,
    "Ġcon": 348,
    "seems": 10877,
    "Ġtells": 9364,
    "ellow": 3877,
    "Ġ77": 24266,
    "tie": 21071,
    "gies": 13729,
    "Ġloungers": 24863,
    "Ġmour": 6973,
    "Ġchairs": 12831,
    "Ġsuicide": 12792,
    "Ġbetween": 791,
    "Ġpaddock": 25040,
    "Ġevermore": 18812,
    "Ġsatisfy": 6911,
    "bright": 8992,
    "Ġdoing": 3662,
    "respect": 6374,
    "prodig": 16430,
    "Ġmichaelmas": 26376,
    "Ġsqueaking": 26276,
    "Ġstages": 14008,
    "Ġcomposedly": 25186,
    "taller": 26151,
    "Ġluxuries": 25167,
    "whole": 6085,
    "sterdam": 19091,
    "Ġinjury": 10543,
    "delirium": 14788,
    "Ġaffording": 14824,
    "ais": 8071,
    "oking": 4608,
    "fthand": 26388,
    "Ġgenus": 24429,
    "Ġdigesting": 19812,
    "tps": 11537,
    "reflected": 24732,
    "Ġavocation": 23956,
    "went": 6512,
    "\"],": 26121,
    "Ġdoubtless": 6196,
    "terrors": 25044,
    "Ġamazement": 7764,
    "Ġrelating": 2705,
    "Ġfoolscap": 24161,
    "Ġbalance": 2022,
    "ripp": 6404,
    "Ġdiffered": 22714,
    "Ġinhabited": 12190,
    "cell": 10689,
    "Ġprospect": 4707,
    "Ġcarpet": 9359,
    "Ġincreasing": 8247,
    "Ġchancery": 20718,
    "nigh": 13766,
    "Ġvisions": 12978,
    "olds": 9314,
    "Ġspikes": 22140,
    "reserve": 17767,
    "Ġpope": 11605,
    "Ġfierceness": 26266,
    "Ġimmensity": 25330,
    "Ġsqueeze": 10042,
    "Ġtwinkling": 12328,
    "Ġcord": 5222,
    "Ġrecip": 16149,
    "grampus": 18618,
    "ullo": 12734,
    "pers": 4335,
    "Ġasiatic": 20433,
    "Ġclimate": 9278,
    "Ġglasses": 9478,
    "bes": 6643,
    "Ġspoke": 2747,
    "Ġven": 4649,
    "variety": 23186,
    "Ġstarboard": 7607,
    "move": 11858,
    "appl": 9329,
    "Ġpart": 860,
    "ishment": 3507,
    "Ġdetective": 14414,
    "prairies": 20569,
    "Ġselfishness": 12293,
    "sed": 4176,
    "Ġdespond": 14670,
    "Ġreverber": 19871,
    "Ġsweeter": 23921,
    "tailed": 17687,
    "appalled": 18762,
    "flutterings": 26608,
    "Ġparamet": 607,
    "**": 4687,
    "Ġdisastrous": 16064,
    "Ġcloak": 9537,
    "iring": 1707,
    "Ġresides": 22544,
    "_:": 17481,
    "Ġlombardy": 26465,
    "Ġdiabolism": 25515,
    "Ġadoption": 24951,
    "Ġthom": 21519,
    "Ġflorid": 17138,
    "pest": 6964,
    "absurd": 21799,
    "Ġcubic": 20091,
    "deepest": 22829,
    "Ġdeterm": 1270,
    "Ġaccidental": 16850,
    "Ġassistants": 9455,
    "masculine": 24387,
    "Ġherb": 15860,
    "oration": 2208,
    "Ġgigantic": 5915,
    "Ġaims": 15499,
    "hung": 8381,
    "Ġstacked": 21750,
    "Ġdeliriously": 23231,
    "gen": 6503,
    "Ġjoin": 4855,
    "oop": 10717,
    "Ġdidn": 4362,
    "ccarthy": 4889,
    "Ġtuning": 3070,
    "Ġviciss": 11294,
    "Ġinformed": 6718,
    "Ġpr": 1598,
    "Ġturban": 23615,
    "Ġpick": 4256,
    "istan": 22112,
    "below": 12126,
    "Ġeverlasting": 9340,
    "Ġmatrimonial": 25490,
    "Ġforgot": 4685,
    "leton": 5148,
    "barrel": 17061,
    "Ġfleets": 23776,
    "Ġter": 2051,
    "Ġheadland": 22901,
    "Ġamounted": 18511,
    "odecim": 9835,
    "comprehend": 14362,
    "Ġgips": 10843,
    "Ġwraps": 19779,
    "Ġposterity": 17405,
    "benefact": 24642,
    "ailing": 7022,
    "Ġdefection": 22945,
    "Ġgodlike": 23360,
    "Ġniece": 5712,
    "Ġbun": 6007,
    "Ġoverwrites": 5033,
    "Ġutter": 3976,
    "Ġdetain": 14176,
    "ouble": 2661,
    "Ġelastic": 4361,
    "make": 5793,
    "ourable": 4967,
    "riving": 21935,
    "Ġtormented": 8678,
    "Ġshilling": 18229,
    "Ġcoach": 6867,
    "smart": 23910,
    "civilized": 17076,
    "Ġpistols": 17332,
    "ouri": 21450,
    "Ġpotent": 12068,
    "Ġeyebrows": 23520,
    "Ġmuchness": 18705,
    "Ġpondered": 15170,
    "Ġfreshly": 23990,
    "become": 14249,
    "Ġol": 17816,
    "Ġpage": 6978,
    "usages": 22284,
    "ifling": 15787,
    "Ġperverseness": 13658,
    "Ġwisely": 13276,
    "queg": 1771,
    "Ġattendant": 11287,
    "Ġinput": 608,
    "ellig": 524,
    "fly": 13717,
    "relics": 24018,
    "oforte": 14289,
    "convers": 6568,
    "Ġblotting": 25314,
    "Ġparticular": 2445,
    "Ġlithe": 24669,
    "crimes": 16686,
    "Ġwilds": 16511,
    "Ġowned": 11880,
    "ss": 396,
    "consumed": 25676,
    "truck": 15444,
    "Ġseal": 10257,
    "Ġscud": 14193,
    "while": 2935,
    "remind": 23188,
    "swallow": 24260,
    "Ġrecurrent": 1803,
    "helping": 23144,
    "Ġcorrob": 16269,
    "Ġunsh": 14118,
    "Ġracket": 22654,
    "Ġspind": 18308,
    "Ġpond": 13919,
    "Ġreflect": 6576,
    "Ġhereabouts": 12983,
    "suffered": 24330,
    "Ġveritable": 19384,
    "Ġaloysius": 15742,
    "Ġpassages": 12975,
    "Ġscot": 5643,
    "Ġtranslations": 12056,
    "Ġcheek": 8580,
    "Ġlie": 4407,
    "Ġrefuge": 8543,
    "Ġdecoyed": 18485,
    "science": 11913,
    "icilian": 20694,
    "otherwise": 7670,
    "edding": 4368,
    "Ġstranger": 3486,
    "Ġfren": 10807,
    "Ġreadiness": 13055,
    "Ġsoaring": 22090,
    "Ġsympt": 7013,
    "Ġwhence": 5840,
    "din": 8374,
    "Ġevils": 9023,
    "othed": 16513,
    "Ġfoundling": 22978,
    "Ġstripping": 23698,
    "Ġshining": 8172,
    "Ġdoctor": 5067,
    "Ġnetherfield": 3932,
    "Ġlasted": 11055,
    "Ġfinite": 2323,
    "Ġmainland": 22660,
    "Ġsuperglue": 23459,
    "clair": 18935,
    "antial": 8489,
    "sig": 2876,
    "Ġgradient": 450,
    "Ġcreations": 18683,
    "Ġclicked": 22369,
    "Ġdeficiency": 14405,
    "million": 25752,
    "uc": 1879,
    "--------": 14786,
    "Ġpleases": 16301,
    "Ġbloodthirsty": 26603,
    "Ġrevolution": 3307,
    "Ġresc": 4509,
    "Ġ58": 24322,
    "Ġmaternal": 11061,
    "Ġgar": 10840,
    "Ġab": 528,
    "ling": 736,
    "Ġunaccount": 22031,
    "which": 1708,
    "Ġforetold": 23453,
    "uzza": 11272,
    "Ġdire": 865,
    "ersampling": 18217,
    "Ġconsol": 3815,
    "Ġcherish": 10592,
    "Ġconsec": 21809,
    "acceler": 23600,
    "Ġperception": 9753,
    "Ġalien": 14021,
    "it": 276,
    "Ġproductions": 22949,
    "please": 8177,
    "Ġtutored": 20131,
    "although": 8810,
    "Ġrag": 18642,
    "Ġrickety": 26507,
    "glance": 16589,
    "ske": 13785,
    "Ġglacier": 11435,
    "Ġorganizations": 12318,
    "Ġpartial": 2127,
    "lesc": 11041,
    "illing": 8175,
    "Ġicelandic": 25887,
    "sequence": 2857,
    "Ġdelic": 4135,
    "Ġsiamese": 20486,
    "Ġwings": 9166,
    "prof": 7698,
    "Ġzer": 1096,
    "Ġpoured": 8805,
    "Ġbenevolent": 7772,
    "irting": 11689,
    "Ġrepresenting": 4063,
    "their": 2536,
    "ories": 4754,
    "unnecessary": 21884,
    "Ġsponge": 26004,
    "Ġbishop": 13905,
    "Ġret": 1382,
    "Ġunfolding": 17087,
    "captains": 12132,
    "Ġdemoniacal": 20559,
    "Ġdesolated": 24809,
    "Ġroving": 22407,
    "Ġsplinters": 15106,
    "Ġpasseng": 12976,
    "Ġgenerations": 10967,
    "Ġgibberish": 25787,
    "Ġoppressive": 20458,
    "Ġtropics": 17067,
    "Ġsally": 15505,
    "Ġsuspend": 14611,
    "kingly": 20941,
    "Ġitself": 2516,
    "somers": 19371,
    "bitious": 16672,
    "model": 4418,
    "gs": 7337,
    "Ġintertw": 18588,
    "circuit": 24191,
    "Ġpictures": 5503,
    "Ġolder": 9330,
    "Ġstake": 14007,
    "Ġsqualls": 17022,
    "Ġphiladel": 23888,
    "Ġdespised": 14669,
    "Ġreplace": 14479,
    "ibbald": 18849,
    "Ġcharms": 11132,
    "Ġsolic": 7933,
    "Ġfreighted": 16326,
    "chants": 21695,
    "yielded": 25757,
    "stun": 18021,
    "Ġpursuits": 12081,
    "Ġpigeon": 9519,
    "Ġwithstand": 10228,
    "Ġprair": 7746,
    "`": 68,
    "Ġauto": 23328,
    "Ġthirt": 13942,
    "iable": 3337,
    "Ġreached": 4025,
    "Ġnugent": 26459,
    "odhead": 18121,
    "sorts": 21063,
    "indisc": 22377,
    "Ġburnished": 24001,
    "asked": 8915,
    "Ġinterview": 9773,
    "Ġmelting": 24290,
    "prepared": 13594,
    "Ġanimate": 23426,
    "Ġsmiled": 5941,
    "Ġfootmen": 23800,
    "Ġfull": 2176,
    "ratulations": 20129,
    "Ġful": 4296,
    ",âĢĶâĢĺ": 23805,
    "Ġincreases": 3796,
    "Ġfris": 23257,
    "Ġchain": 1845,
    "Ġconcl": 5095,
    "Ġsto": 1497,
    "Ġunholy": 26220,
    "Ġanno": 9670,
    "capting": 24043,
    "cloud": 11107,
    "sav": 8097,
    "ividually": 22084,
    "Ġregal": 16083,
    "Ġcheating": 16370,
    "century": 20050,
    "Ġcracking": 14575,
    "Ġbenefited": 19401,
    "teness": 23209,
    "Ġlevi": 3032,
    "Ġgrapes": 15219,
    "Ġaffability": 14390,
    "bantering": 25254,
    "utes": 5914,
    "Ġfastening": 16360,
    "article": 22405,
    "Ġ22": 8279,
    "Ġ1820": 25718,
    "heart": 4528,
    "Ġpenalties": 10414,
    "Ġlar": 765,
    "Ġshutting": 14763,
    "embow": 21933,
    "charge": 9452,
    "Ġturbul": 23614,
    "lingering": 18603,
    "Ġevangelist": 20341,
    "Ġmemories": 14543,
    "murder": 10567,
    "Ġerror": 1767,
    "yp": 1045,
    "Ġpremium": 23908,
    "imin": 1770,
    "Ġsnugness": 20080,
    "contrad": 19294,
    "Ġcough": 11584,
    "arms": 10176,
    "icular": 2024,
    "Ġhonestly": 19975,
    "Ġabhorred": 9511,
    "Ġperceptible": 18452,
    "happened": 9436,
    "storied": 18027,
    "Ġnecess": 3477,
    "Ġhad": 444,
    "occupations": 24967,
    "Ġunreason": 15846,
    "Ġspurn": 18310,
    "Ġepicures": 25880,
    "humoredly": 26326,
    "Ġshovel": 23493,
    "Ġbodings": 21394,
    "Ġmining": 22833,
    "0": 20,
    "Ġassid": 18947,
    "Ġchann": 15939,
    "Ġparmacetti": 20607,
    "!_âĢĶ": 19976,
    "terday": 4706,
    "89": 20761,
    "Ġdollar": 25284,
    "delirious": 19508,
    "cream": 15334,
    "coarse": 16489,
    "Ġxxxvi": 24972,
    "Ġemerged": 8688,
    "surely": 10572,
    "Ġannouncing": 16756,
    "Ġprior": 11320,
    "Ġunhallowed": 17183,
    "phia": 22783,
    "Ġjup": 15956,
    "Ġbead": 21754,
    "Ġchanged": 5243,
    "Ġconceited": 12096,
    "Ġ13": 6719,
    "oard": 4810,
    "superstitiousness": 25509,
    "Ġlegendary": 20540,
    "Ġreposing": 23364,
    "Ġbravest": 23844,
    "Ġheron": 22077,
    "exam": 10978,
    "procure": 23400,
    "Ġregular": 947,
    "haz": 17566,
    "Ġturn": 1299,
    "Ġusurpation": 18358,
    "Ġpunchbowl": 20234,
    "Ġeven": 1028,
    "Ġevidence": 5270,
    "ages": 828,
    "nett": 16224,
    "Ġkidn": 20208,
    "Ġrevered": 23736,
    "Ġresolved": 3798,
    "igner": 21705,
    "Ġglared": 13023,
    "Ġcaution": 11348,
    "still": 4219,
    "sent": 760,
    "eer": 15351,
    "Ġindignant": 12244,
    "roof": 17956,
    "Ġbias": 1191,
    "Ġbriefly": 11369,
    "Ġfanatic": 23395,
    "Ġandrew": 21510,
    "Ġshoot": 11163,
    "deduction": 23673,
    "Ġspas": 10924,
    "ufact": 10735,
    "Ġrelentless": 26279,
    "anned": 17841,
    "Ġinfluences": 14868,
    "acknowledged": 15206,
    "iary": 15374,
    "Ġmusical": 23896,
    "Ġdoubts": 8582,
    "Ġsafely": 9028,
    "sort": 6798,
    "ommod": 13980,
    "Ġboots": 5943,
    "smoking": 23914,
    "Ġsquire": 16185,
    "eked": 16406,
    "ropes": 7903,
    "Ġrank": 6259,
    "elijah": 19476,
    "Ġdistur": 5313,
    "Ġprodigious": 8057,
    "leeward": 15214,
    "Ġgranted": 22810,
    "Ġcoincid": 20320,
    "Ġcalled": 1973,
    "chemical": 23811,
    "Ġnews": 3819,
    "Ġvernal": 23891,
    "Ġinsert": 19907,
    "Ġbil": 15569,
    "Ġaged": 10324,
    "alk": 1152,
    "isance": 17849,
    "smooth": 20251,
    "Ġsplendour": 20227,
    "Ġclasses": 4057,
    "relation": 19450,
    "Ġheiress": 20700,
    "Ġpractice": 2683,
    "Ġslippers": 19618,
    "buck": 17493,
    "Ġdivulged": 16651,
    "Ġoutdone": 22322,
    "Ġdestruction": 6601,
    "mccarthy": 15398,
    "Ġfurrow": 22818,
    "Ġmonster": 3794,
    "Ġovertake": 15968,
    "Ġexecuted": 9475,
    "Ġsurvivors": 25732,
    "Ġsubmitted": 11875,
    "¡": 99,
    "amusement": 15286,
    "felix": 10656,
    "Ġassu": 21901,
    "Ġindependent": 9019,
    "Ġce": 3029,
    "entreaties": 26187,
    "Ġswamp": 14440,
    "Ġsi": 21215,
    "Ġhauling": 14090,
    "Ġmembrane": 20507,
    "Ġsufferable": 16261,
    "seemingly": 25363,
    "Ġcandour": 14675,
    "âĢ": 294,
    "if": 376,
    "Ġcame": 1301,
    "covery": 11173,
    "Ġhanded": 8217,
    "frequent": 15357,
    "Ġhaggerston": 26454,
    "cy": 640,
    "iliating": 12700,
    "quickly": 14965,
    "Ġeccentric": 13653,
    "regret": 16451,
    "merry": 16539,
    "Ġbabies": 19695,
    "renewed": 19707,
    "Ġis": 347,
    "countryman": 24640,
    "ibid": 18848,
    "alliance": 22204,
    "permission": 15902,
    "Ġinsignificance": 20460,
    "ings": 631,
    "L": 48,
    "Ġtrained": 8504,
    "Ġindelicacy": 25696,
    "Ġstruck": 3391,
    "Ġnice": 6677,
    "Ġdiffer": 18677,
    "Ġeliza": 6437,
    "Ġadvances": 13000,
    "pre": 650,
    "thest": 11657,
    "Ġmir": 9649,
    "Ġbachel": 7158,
    "fisher": 7546,
    "brad": 20782,
    "lust": 15383,
    "Ġenhancement": 23791,
    "Ġforswe": 21778,
    "Ġpenny": 16316,
    "Ġmonths": 3455,
    "Ġgracefully": 13395,
    "caut": 20814,
    "Ġparagraph": 17457,
    "Ġchoked": 9267,
    "Ġspoils": 24805,
    "mayhew": 23995,
    "Ġquieted": 23846,
    "Ġpout": 17908,
    "inder": 9155,
    "otograph": 5827,
    "inity": 5693,
    "Ġutterly": 6101,
    "Ġexhausting": 24709,
    "ifted": 4497,
    "Ġgruff": 21617,
    "ead": 2599,
    "Ġthroats": 24576,
    "Ġfeature": 754,
    "Ġnobler": 14178,
    "Ġhaught": 10255,
    "Ġdairy": 20689,
    "Ġthou": 1809,
    "libr": 22926,
    "chair": 5917,
    "Ġpriority": 19765,
    "Ġinfamy": 14504,
    "Ġsurprise": 3829,
    "Ġsepul": 14092,
    "ogy": 22717,
    "Ġconcentration": 25065,
    "Ġnum": 1346,
    "wish": 8100,
    "li": 1188,
    "Ġhertfordshire": 5377,
    "aments": 12730,
    "serve": 13052,
    "addressing": 24401,
    "mish": 17600,
    "Ġawful": 6200,
    "Ġpalpitated": 26086,
    "veil": 18045,
    "recked": 17764,
    "Ġproced": 2579,
    "occupied": 12308,
    "masterly": 24530,
    "Ġfavourable": 7959,
    "Ġholes": 16412,
    "Ġhussey": 7724,
    "Ġsimul": 1807,
    "Ġcomposing": 16074,
    "ught": 2750,
    "Ġrealities": 18982,
    "skin": 10571,
    "Ć": 199,
    "Ġtet": 21160,
    "Ġforb": 11666,
    "Ġbids": 24646,
    "Ġhopes": 4234,
    "Ġgret": 21604,
    "Ġconven": 6152,
    "Ġmaw": 15544,
    "Ġearliest": 9834,
    "Ġallurements": 22011,
    "Ġavenues": 25430,
    "objections": 19918,
    "Ġslumber": 13065,
    "Ġwarmed": 12028,
    "beating": 22494,
    "ants": 1392,
    ".;": 20746,
    "Ġdecisive": 18484,
    "Ġsporty": 19892,
    "Ġweigh": 10896,
    "itation": 1781,
    "Ġoppressed": 11191,
    "go": 2063,
    "wic": 21123,
    "genteel": 19952,
    "Ġmanxman": 9568,
    "Ġtrait": 23076,
    "eli": 3873,
    "Ġblush": 14404,
    "Ġscoresby": 10464,
    "Ġconveniences": 19815,
    "Ġsmallest": 6430,
    "Ġeditions": 19154,
    "gathered": 13735,
    "Ġintact": 21993,
    "chiefly": 14849,
    "Ġstam": 18071,
    "Ġhelpless": 8302,
    "anish": 2615,
    "Ġgall": 4351,
    "ective": 18177,
    "Ġreprehensible": 15703,
    "asets": 2308,
    "hound": 20897,
    "asily": 13949,
    "Ġchr": 3689,
    "Ġfloor": 4378,
    "Ġbell": 4637,
    "Ġobsole": 22701,
    "Ġprinciple": 6770,
    "Ġsloop": 25931,
    "Ġearly": 2078,
    "Ġbowing": 10477,
    "Ġteacher": 22919,
    "Ġsaturday": 6452,
    "Ġfasten": 11134,
    "100": 11466,
    "rison": 13782,
    "afric": 19181,
    "Ġconsummate": 25311,
    "Ġparsee": 6413,
    "Ġinverted": 12642,
    "az": 2181,
    "claims": 25320,
    "avers": 17483,
    "Ġsame": 1340,
    "ternatural": 12720,
    "Ġoh": 2174,
    "Ġpanelled": 19657,
    "Ġshrinking": 14808,
    "grees": 20888,
    "Ġdoomed": 11344,
    "Ġexpanding": 25239,
    "Ġattractive": 25576,
    "Ġterrors": 6917,
    "Ġtunnels": 24621,
    "shine": 9292,
    "Ġinvolving": 18768,
    "Ġscarce": 8625,
    "Ġsyrian": 18354,
    "Ġ74": 24264,
    "ority": 8419,
    "Ġpapers": 4024,
    "Ġreadability": 2725,
    "ruined": 18347,
    "Ġcoachman": 15002,
    "Ġcurls": 22965,
    "Ġanalogy": 25640,
    "ham": 1702,
    "Ġinstrument": 7119,
    "Ġmount": 7361,
    "gird": 20881,
    "Ġchoking": 15938,
    "Ġbrooded": 23107,
    "Ġcampa": 17176,
    "uming": 8493,
    "Ġabundance": 17158,
    "Ġcanal": 8182,
    "umer": 9261,
    "receiving": 12548,
    "satisf": 5781,
    "Ġreco": 9795,
    "ha": 3982,
    "sis": 1848,
    "itch": 10163,
    "Ġpince": 21474,
    "Ġmagnificent": 9846,
    "Ġseamen": 5063,
    "pict": 8386,
    "Ġbathing": 20202,
    "Ġgore": 17991,
    "Ġmonogra": 22985,
    "Ġstrong": 1787,
    "inct": 3295,
    "Ġsimpleton": 16338,
    "Ġgeorge": 3748,
    "Ġinsufferable": 13934,
    "Ġminded": 23232,
    "Ġcontrolled": 23252,
    "Ġcringed": 25943,
    "invest": 11562,
    "Ġhorse": 4726,
    "Ġsoftmax": 1688,
    "Ġmis": 917,
    "yd": 21145,
    "drifting": 19827,
    "Ġidly": 16408,
    "acqu": 4844,
    "Ġgrin": 5482,
    "Ġtucked": 12396,
    "Ġshipmates": 6721,
    "Ġarmed": 9263,
    "Ġessex": 20130,
    "immediately": 10052,
    "Ġcetacean": 25879,
    "Ġporing": 21470,
    "Ġcrawl": 11377,
    "quin": 21857,
    "Ġvillanous": 24058,
    "Ġpence": 17907,
    "Ġdiscredit": 22785,
    "commod": 16173,
    "Ġfierce": 7436,
    "Ġinitials": 11016,
    "Ġphysiognomy": 25611,
    "Ġgenerating": 12856,
    "Ġfearfulness": 23517,
    "fully": 2202,
    "Ġhedges": 19988,
    "Ġjer": 6267,
    "answered": 10276,
    "Ġsentinel": 26066,
    "fall": 5135,
    "ropout": 1321,
    "este": 15925,
    "Ġchurchyard": 16779,
    "Ġsand": 6236,
    "smith": 5669,
    "Ġsuffer": 4723,
    "stands": 22434,
    "Ġstarry": 16925,
    "Ġsil": 1797,
    "Ġridicule": 13515,
    "tent": 21067,
    "Ġdeepest": 8213,
    "Ġnotorious": 18224,
    "Ġveracity": 23892,
    "Ġfootsteps": 16575,
    "Ġgoing": 2066,
    "Ġentail": 9794,
    "Ġvote": 21949,
    "tw": 2811,
    "Ġalternating": 15033,
    "Ġcomputations": 16001,
    "overcoat": 19056,
    "Ġtradeoff": 2657,
    "ping": 9618,
    "glimmer": 26323,
    "Ġpeter": 10538,
    "omn": 15686,
    "wa": 5897,
    "Ġdevices": 2941,
    "Ġideas": 5494,
    "Ġexhibit": 14959,
    "Ġaspired": 25985,
    "Ġparis": 8179,
    "name": 6795,
    "americans": 25045,
    "Ġpreferred": 14969,
    "oce": 10716,
    "Ġdescent": 977,
    "ù": 186,
    "Ġrecesses": 17263,
    "Ġhil": 10823,
    "sch": 21053,
    "Ġgu": 1328,
    "Ġdissatisfied": 14259,
    "andy": 8158,
    "Ġgentlemanly": 19318,
    "Ġvestige": 20066,
    "Ġincul": 22554,
    "Ġharry": 24572,
    "Ġwithdra": 6398,
    "Ġcontinental": 19708,
    "Ġarsac": 11746,
    "unsupervised": 10891,
    "ively": 1275,
    "Ġtransmit": 10307,
    "Ġrailway": 15023,
    "exceed": 7911,
    "aze": 10078,
    "ket": 17584,
    "Ġoverdone": 22350,
    "uff": 2731,
    "Ġprecautions": 23729,
    "Ġindian": 4132,
    "Ġexerc": 6832,
    "executed": 25740,
    "aboard": 21798,
    "Ġantagon": 19553,
    "elements": 25204,
    "Ġactually": 5389,
    "ezes": 9994,
    "Ġfollies": 16257,
    "discoloured": 23500,
    "Ġrod": 9283,
    "Ó": 148,
    "Ġattics": 22624,
    "Ġunsafe": 22045,
    "Ġeddystone": 25736,
    "contempt": 13194,
    "toes": 22569,
    "newsp": 23136,
    "ength": 2312,
    "attain": 21264,
    "Ġwish": 2096,
    "develop": 13521,
    "Ġtars": 21167,
    "Ġages": 7028,
    "bony": 15323,
    "lances": 15387,
    "Ġexasper": 8468,
    "Ġpromise": 4198,
    "Ġreasoned": 23052,
    "Ġarrogance": 26233,
    "measureless": 20238,
    "Ġsnar": 13204,
    "fur": 6356,
    "Ġspeculations": 23001,
    "Ġclaims": 13377,
    "Ġchasing": 11758,
    "Ġrue": 11871,
    "Ġglut": 18855,
    "Ġhenceforth": 19645,
    "Ġplays": 12041,
    "fierce": 25256,
    "happ": 3103,
    "queequeg": 4333,
    "Ġtottenham": 24145,
    "Ġplutarch": 22609,
    "Ġdownst": 3559,
    "Ġquench": 22423,
    "Ġsquires": 16186,
    "tornadoes": 26154,
    "ason": 1254,
    "Ġhissing": 15794,
    "Ġpursued": 6329,
    "ining": 3222,
    "Ġopp": 2697,
    "lantern": 17431,
    "Ġsucceeded": 6106,
    "Ġcreditor": 24292,
    "Ġpress": 5932,
    "Ġbloss": 19258,
    "Ġbro": 1431,
    "Ġenergy": 2548,
    "Ġy": 341,
    "usations": 15946,
    "ihood": 20924,
    "Ġpig": 5705,
    "Ġvary": 15811,
    "Ġpython": 1069,
    "Ġdeep": 797,
    "Ġfronted": 23259,
    "Ġgrown": 5628,
    "Ġalternately": 15034,
    "Ġ(": 592,
    "77": 15304,
    "Ġcurve": 22964,
    "Ġtrampling": 25493,
    "ate": 422,
    "Ġbang": 17856,
    "ners": 3274,
    ".}": 20747,
    "Ġintending": 11708,
    "onstrate": 17770,
    "Ġflood": 7715,
    "Ġdefe": 21840,
    "Ġvide": 10253,
    "Ġcheap": 13094,
    "ern": 764,
    "Ġsuppl": 11080,
    "Ġrepute": 18037,
    "ix": 1800,
    "Ġappalling": 8501,
    "theirs": 23604,
    "Ġlanguor": 12852,
    "Ġpast": 2097,
    "Ġrepose": 6742,
    "Ġturks": 14600,
    "Ġprairies": 20024,
    "Ġmechan": 1210,
    "Ġmutter": 23957,
    "Ġformerly": 7492,
    "Ġharmony": 16816,
    "Ġenvelopes": 24510,
    "Ġdilatory": 24704,
    "disappointed": 25192,
    "Ġcountenance": 3972,
    "thrust": 10264,
    "Ġhos": 4942,
    "Ġestablish": 9546,
    "Ġswallowed": 7944,
    "Ġdistracted": 11808,
    "Ġresurrection": 12899,
    "iforn": 14067,
    "Å": 134,
    "Ġlastly": 16208,
    "holder": 13287,
    "asing": 5912,
    "Ġdra": 1590,
    "Ġedd": 8398,
    "Ġboat": 1278,
    "ailed": 3250,
    "uttering": 12667,
    "bedded": 12447,
    "Ġnosegay": 24195,
    "Ġaudacious": 13464,
    "Ġshrouds": 11346,
    "oved": 5215,
    "green": 7116,
    "Ġsunk": 5752,
    "Ġstate": 1810,
    "Ġsingled": 23774,
    "Ġhostile": 19943,
    "Ġmysteries": 11324,
    "Ġforfeit": 21779,
    "Ġattraction": 18621,
    "Ġ90": 24589,
[...]
