{
  "metadata": {
    "vocab_size": 26614,
    "algorithm": "BPE",
    "created_at": "2026-09-23 07:17:22",
    "special_tokens": [
      "<PAD>",
      "<SOS>",
      "<EOS>",
      "<UNK>",
      "<MASK>"
    ]
  },
  "vocab": {
    "Ġelect": 10842,
    "Ġcarelessness": 13074,
    "Ġreturned": 2890,
    "Ġmoody": 8200,
    "Ġstarve": 24625,
    "Ġwreat": 15529,
    "driven": 19770,
    "Ġexistence": 4707,
    "Ġradiating": 24335,
    "asters": 8433,
    "Ġfusion": 21412,
    "Ġrelieved": 7665,
    "Ġtexel": 25923,
    "acc": 2532,
    "Ġmusky": 19380,
    "Ġi": 312,
    "Ġemotion": 7689,
    "Ġink": 8802,
    "Ġjoyously": 19345,
    "Ġunra": 18237,
    "Ġproportionably": 19969,
    "bble": 17484,
    "Ġgrecian": 26296,
    "Ġanon": 9666,
    "nett": 16220,
    "iation": 7343,
    "Ġpeter": 10535,
    "india": 22368,
    "Ġcircumnav": 12424,
    "Ġunknown": 4453,
    "Ġleading": 7297,
    "Ġahoy": 12182,
    "Ġrat": 4354,
    "Ġfro": 3471,
    "Ġchurches": 12825,
    "Ġsprawling": 22136,
    "had": 1946,
    "ials": 11704,
    "Ġmichaelmas": 26374,
    "Ġhunter": 5401,
    "Ġpop": 5151,
    "Ġwhisker": 23932,
    "school": 10054,
    "Ġnarrations": 24352,
    "mightily": 24104,
    "tremendous": 20672,
    "Ġkindest": 23292,
    "compass": 9459,
    "Ġpainted": 7977,
    "idity": 8830,
    "Ġinstance": 2544,
    "aton": 21257,
    "Ġiv": 4046,
    "conscientious": 19625,
    "whip": 22234,
    "fish": 3518,
    "Ġdau": 21423,
    "omination": 21639,
    "itten": 3439,
    "Ġsherry": 19449,
    "Ġcomposedly": 25183,
    "shark": 14237,
    "mot": 17596,
    "Ġthrills": 24542,
    "ll": 1138,
    "Ġcontrive": 16008,
    "Ġdie": 3964,
    "hies": 17560,
    "Ġrounding": 16272,
    "Ġgratefully": 20443,
    "rist": 10122,
    "Ġpostponed": 20388,
    "Ġemblem": 20496,
    "Ġrocked": 12853,
    "Ġsleeve": 20139,
    "ĠĠĠĠĠĠĠĠĠĠĠĠĠĠĠĠĠĠĠĠĠĠĠĠĠĠĠĠĠĠ": 24443,
    "odecim": 9831,
    "Ġpettiness": 24229,
    "aborate": 14021,
    "Ġopportunity": 4786,
    "food": 12461,
    "eer": 15346,
    "Ġcommunion": 19007,
    "Ġboscombe": 8325,
    "sweet": 8685,
    "Ġhud": 10822,
    "Ġbearded": 15724,
    "Ġcr": 2151,
    "oker": 10963,
    "Ġdone": 1818,
    "foreign": 18544,
    "3": 23,
    "ksome": 10104,
    "Ġscud": 14190,
    "Ġinitials": 11014,
    "accepted": 20135,
    "venge": 4659,
    "Ġfrogs": 23920,
    "mason": 17603,
    "Ġregular": 947,
    "istic": 971,
    "Ġfab": 15573,
    "w": 91,
    "Ġtowed": 11265,
    "Ġglaring": 11906,
    "Ġsubmit": 11868,
    "ĠĠĠĠĠĠĠĠĠĠĠĠĠĠĠĠĠĠĠĠĠĠĠĠĠĠĠĠĠĠĠĠĠĠĠĠĠĠĠĠĠĠĠĠĠĠ": 9952,
    "Ġair": 1837,
    "wants": 21129,
    "Ġskull": 6288,
    "Ġbounding": 19398,
    "Ġconsequently": 8059,
    "reflected": 24733,
    "icted": 5936,
    "dev": 7631,
    "assistant": 25567,
    "Ġ1836": 25721,
    "Ġliber": 5168,
    "Ġamerica": 6763,
    "Ġsage": 17752,
    "win": 6801,
    "Ġfrequ": 3327,
    "Ġbeliefs": 24582,
    "Ġhawk": 15172,
    "ahawk": 23316,
    "Ġpositives": 4318,
    "Ġgid": 13961,
    "bergs": 18681,
    "Ġcogn": 11002,
    "Ġpurposes": 11168,
    "Ġplus": 3883,
    "10": 17472,
    "Ġvoices": 7875,
    "ide": 723,
    "deserving": 17241,
    "spike": 16136,
    "wander": 17709,
    "Ġincompatible": 25680,
    "maged": 15392,
    "Ġev": 4828,
    "tin": 6116,
    "sand": 21051,
    "pinn": 21025,
    "develop": 13517,
    "Ġperusal": 14223,
    "complexion": 14361,
    "lins": 2026,
    "Ġbland": 11064,
    "Ġbrowne": 13300,
    "Ġventured": 7501,
    "Ġagreement": 18542,
    "Ġseveral": 2674,
    "Ġtwinkle": 12321,
    "Ġbeak": 18079,
    "Ġrefer": 18696,
    "Ġshreds": 12767,
    "Ġhartshorn": 26180,
    "Ġplainer": 23703,
    "Ġbery": 13897,
    "Ġperverseness": 13653,
    "Ġclap": 10956,
    "Ġsleeves": 10660,
    "Ġconfide": 13097,
    "gged": 3777,
    "title": 17287,
    "ourable": 4967,
    "Ġreserve": 9970,
    "Ġsmells": 8889,
    "Ġdisenc": 22523,
    "Ġrecording": 24434,
    "emotions": 15792,
    "lotts": 23823,
    "Ġbeast": 7179,
    "Ġdeuteronomy": 15757,
    "Ġalas": 5921,
    "Ġkeep": 2351,
    "Ġloom": 7628,
    "pursued": 17281,
    "generations": 23784,
    "Ġlikened": 16498,
    "Ġunfailing": 24112,
    "Ġpardon": 5727,
    "Ġtribes": 20479,
    "venor": 16098,
    "Ġhoars": 19075,
    "blending": 24129,
    "Ġwarp": 8112,
    "persecutor": 26530,
    "esy": 9185,
    "Ġreduce": 7942,
    "Ġpir": 6818,
    "ý": 190,
    "Ġrelinqu": 12980,
    "Ġvelv": 10619,
    "loaded": 22509,
    "Ġimpressions": 9552,
    "Ġbel": 1216,
    "heaved": 21209,
    "Ġjewelled": 20182,
    "Ġbethinking": 25279,
    "supper": 12917,
    "âĢľâĢĺ": 1483,
    "Ġgang": 9207,
    "Ġimpersonal": 17395,
    "readers": 23845,
    "Ġsalut": 10509,
    "finds": 19926,
    "frightened": 17195,
    "Ġfugitive": 17326,
    "Ġclutching": 24951,
    "Ġclearly": 6897,
    "Ġflit": 23003,
    "Ġ53": 19639,
    "Ġsunshine": 14494,
    "Ġintact": 21986,
    "blows": 17165,
    "Ġnovelist": 24777,
    "pents": 11512,
    "Ġdisastrous": 16057,
    "Ġforetold": 23450,
    "Ġlaughed": 5059,
    "Ġconviction": 6326,
    "Ġruined": 12951,
    "Ġpathetic": 19017,
    "Ġreign": 13984,
    "apter": 1195,
    "Ġindividual": 5744,
    "ho": 2857,
    "Ġsupple": 22991,
    "Ġce": 3027,
    "Ġheedless": 14902,
    "Ġeel": 18001,
    "Ġintrospective": 20599,
    "Ġceti": 24773,
    "Ġcomprehens": 8319,
    "Ġdrops": 9032,
    "Ġelephant": 8255,
    "Ġnamed": 6139,
    "Ġcontributes": 15249,
    "Ġclicked": 22349,
    "acles": 8519,
    "Ġsch": 13834,
    "Ġcreditor": 24290,
    "Ġenh": 3045,
    "Ġwhaling": 2783,
    "Ġmatlock": 18799,
    "Ġclaret": 22348,
    "Ġmanxman": 9565,
    "Ġlarge": 1064,
    "Ġhaws": 21948,
    "Ġfrog": 23918,
    "stately": 18021,
    "acetti": 13395,
    "Ġxxx": 7766,
    "Ġdarkly": 19114,
    "Ġxli": 14542,
    "Ġimagination": 5759,
    "Ġharmony": 16814,
    "ø": 185,
    "Ġprairies": 20019,
    "Ġhalts": 3156,
    "Ġexhibit": 14955,
    "Ġmusty": 22677,
    "ly": 319,
    "kinder": 24845,
    "Ġpry": 11598,
    "Ġfi": 935,
    "Ġazores": 20192,
    "ifix": 21900,
    "Ġointment": 21324,
    "bolt": 25135,
    "Ġmiseries": 10346,
    "dle": 3246,
    "bloom": 24689,
    "embarr": 15794,
    "land": 1529,
    "Ġboy": 3019,
    "Ġdistrusted": 13541,
    "Ġclaims": 13372,
    "Ġisolation": 17150,
    "relics": 24012,
    "Ġimper": 4502,
    "f": 74,
    "wishes": 13806,
    "Ġsticks": 14930,
    "Ġprocedure": 2809,
    "trick": 19411,
    "Ġphilips": 5410,
    "Ġ67": 19659,
    "deceit": 25556,
    "Ġvi": 1949,
    "Ġhandling": 8912,
    "Ġlessen": 14532,
    "Ġincl": 4271,
    "Ġancient": 5443,
    "macy": 18801,
    "philosophy": 13579,
    "Ġirreducible": 5519,
    "Ġshrine": 19530,
    "Ġost": 9649,
    "tur": 5688,
    "Ġmariners": 6067,
    "Ġvalu": 5039,
    "Ġgreedily": 18965,
    "Ġprinciple": 6770,
    "Ġshaking": 6551,
    "remes": 21236,
    "âĢĶâĢĿ": 3300,
    "Ġbruised": 25772,
    "full": 7420,
    "Ġpassing": 4316,
    "Ġbulldog": 23857,
    "Ġgaunt": 11268,
    "Ġscar": 3209,
    "Ġpruning": 18970,
    "Ġprep": 4190,
    "avering": 24793,
    "Ġfort": 2577,
    "cellar": 20276,
    "commencement": 26347,
    "ercial": 21273,
    "Ġbehaved": 13253,
    "istered": 14144,
    "R": 54,
    "Ġluxuriant": 20393,
    "Ġembrace": 16990,
    "Ġphysiognomy": 25610,
    "Ġillustrate": 25065,
    "Ġresided": 11809,
    "Ġsandwiched": 26610,
    "dilig": 17282,
    "Ġsquat": 14367,
    "Ġfanned": 19099,
    "Ġhunted": 7453,
    "Ġinexhaustible": 16981,
    "ales": 3316,
    "buried": 14848,
    "usions": 6159,
    "lips": 13749,
    "Ġscales": 4849,
    "Ġswish": 23048,
    "Ġgrappling": 25812,
    "Ġpines": 12614,
    "Ġunre": 3478,
    "Ġsagacious": 14970,
    "Ġnar": 7375,
    "smile": 23903,
    "Ġinfinity": 23280,
    "proceeded": 25190,
    "Ġpretensions": 16558,
    "Ġnarration": 13503,
    "declaration": 25175,
    "Ġderives": 16307,
    "Ġinanimate": 13932,
    "Ġ*/": 10373,
    "anation": 5803,
    "iantly": 13738,
    "upon": 2724,
    "Ġbrilliantly": 25120,
    "Ġostentatious": 25736,
    "bedroom": 14676,
    "closing": 23153,
    "0": 20,
    "news": 23129,
    "Ġwal": 6517,
    "Ġfurious": 10354,
    "extraordinary": 9094,
    "Ġcult": 8781,
    "Ġturtles": 19219,
    "Ġwretchedly": 19505,
    "rear": 21231,
    "Ĵ": 245,
    "Ġopposite": 5120,
    "Ġstrongest": 11135,
    "determined": 9079,
    "âĢĶ.": 11753,
    "ast": 473,
    "knot": 13744,
    "Ġthrow": 3783,
    "london": 9609,
    "Ġpudding": 17913,
    "Ġinterconnected": 1337,
    "Ġicelandic": 25886,
    "Ġdiver": 2529,
    "Ġsir": 1570,
    "Ġdraught": 9843,
    "Ġinev": 10181,
    "must": 3579,
    "Ġetext": 23947,
    "isive": 10793,
    "stranger": 9882,
    "Ġdesmarest": 22971,
    "ulties": 12898,
    "ampled": 18883,
    "Ġextra": 4057,
    "tiness": 21070,
    "Ġanat": 8123,
    "perform": 15899,
    "Ġdromed": 15594,
    "avail": 18604,
    "Ġhealthcare": 8015,
    "Ġraiment": 22653,
    "c": 71,
    "obser": 11099,
    "Ġshapeless": 24524,
    "Ġmine": 3176,
    "mitted": 5213,
    "Ġhark": 8427,
    "Ġ57": 24325,
    "joice": 9602,
    "hammer": 14489,
    "Ġantelope": 24180,
    "need": 10983,
    "inted": 2649,
    "Ġgoal": 10301,
    "Ġcouch": 12568,
    "Ġmor": 1249,
    "Ġessence": 13404,
    "Ġbrad": 8786,
    "strikes": 24670,
    "Ġaid": 6122,
    "Ġmultiple": 1189,
    "seated": 11671,
    "december": 25558,
    "Ġcrimes": 8588,
    "Ġmembrane": 20502,
    "Ġmeanest": 12907,
    "harbor": 13563,
    "Ġvales": 21943,
    "Ġgem": 21591,
    "ded": 2415,
    "den": 938,
    "Ġnav": 5818,
    "Ġlodgings": 8311,
    "aren": 10073,
    "duck": 22409,
    "Ġburgl": 13172,
    "gument": 20884,
    "Ġrecommend": 7102,
    "Ġthrice": 10575,
    "ieve": 1657,
    "Ġemph": 14525,
    "Ġcome": 1240,
    "behaved": 24463,
    "ariously": 18530,
    "child": 5538,
    "Ġknave": 11272,
    "iqu": 7802,
    "Ġmumbled": 17807,
    "Ġgeological": 14533,
    "Ġamazing": 9976,
    "Ġliable": 14228,
    "threw": 21981,
    "Ġseasons": 9430,
    "Ġimpulses": 19960,
    "Ġauxiliary": 26418,
    "walks": 19720,
    "half": 4931,
    "nels": 12493,
    "Ġaerial": 21197,
    "eryton": 4095,
    "Ġinterpre": 1589,
    "treas": 17679,
    "shock": 19854,
    "Ġcontemptuous": 24676,
    "Ġaugment": 8691,
    "Ġengagement": 5397,
    "Ġpaid": 5015,
    "Ġrevolved": 9983,
    "<MASK>": 4,
    "Ġgenerates": 3666,
    "totally": 25417,
    "Ġgardener": 19134,
    "Ġconstables": 19070,
    "aboard": 21791,
    "Ġdreadful": 4920,
    "Ġconve": 5455,
    "irted": 14071,
    "Ġmissionary": 25696,
    "Ġplaything": 19236,
    "Ġuntimely": 16465,
    "rocket": 13943,
    "Ġiceberg": 14715,
    "Ġphren": 8571,
    "clerval": 7950,
    "Ġkneeling": 12140,
    "Ġcommenting": 25228,
    "Ġspeechless": 13352,
    "Ġpush": 9183,
    "Ġfedallah": 6108,
    "Ġalready": 2715,
    "playing": 19656,
    "fall": 5135,
    "Ġlawyers": 25248,
    "suitableness": 26260,
    "Ġprecious": 5760,
    "Ġconvince": 14642,
    "gaff": 20881,
    "Ġverily": 16603,
    "ermost": 7430,
    "circumamb": 26087,
    "Ġsaith": 14155,
    "ancy": 4394,
    "cceed": 4143,
    "justice": 7957,
    "injury": 25213,
    "Ġprint": 18969,
    "Ġsuffered": 5649,
    "mber": 7803,
    "Ġsooty": 25815,
    "Ġtapering": 8770,
    "ipt": 12476,
    "ridge": 9496,
    "Ġalteration": 9545,
    "Ġmanilla": 15957,
    "Ġforemost": 12003,
    "consciousness": 13364,
    "Ġstunsail": 25543,
    "Ġwritten": 4168,
    "Ġupper": 5090,
    "Ġprofusion": 23564,
    "Ġeludes": 26554,
    "Ġtotally": 9470,
    "fitting": 1509,
    "icking": 8910,
    "Ġmonica": 22977,
    "chest": 11208,
    "more": 1034,
    "aps": 1227,
    "crack": 19839,
    "Ġresources": 2936,
    "Ġsupreme": 13606,
    "stri": 6249,
    "Ġmiriam": 25273,
    "Ġamph": 18511,
    "Ġintersect": 22572,
    "jep": 20925,
    "commun": 15033,
    "Ġroad": 3881,
    "Ġphyset": 23197,
    "Ġunfeeling": 14118,
    "Ġchink": 15930,
    "doctor": 19095,
    "Ġplaus": 22599,
    "Ġcaves": 15551,
    "othed": 16510,
    "Ġmar": 1312,
    "Ġdiscove": 16153,
    "Ġindecision": 25781,
    "ě": 220,
    "bourne": 19102,
    "Ġadd": 629,
    "Ġach": 2618,
    "strate": 12671,
    "Ġreduced": 11922,
    "dish": 12450,
    "Ġhorns": 11123,
    "Ġfund": 2842,
    "Ġrole": 15995,
    "Ġmonotonically": 3832,
    "beaten": 20314,
    "Ġmemo": 18117,
    "appeared": 4282,
    "Ġsteeple": 19287,
    "Ġfavoring": 2340,
    "Ġapprised": 18360,
    "Ġclassical": 22624,
    "ize": 759,
    "Ġnoble": 3438,
    "Ġdisplays": 19856,
    "ensions": 14259,
    "iness": 1282,
    "fulness": 4311,
    "Ġknitting": 24218,
    "cowardly": 25749,
    "Ġsumm": 3354,
    "Ġgardeners": 12118,
    "ially": 9246,
    "Ġregression": 4410,
    "brows": 17496,
    "Ġcasualties": 25512,
    "surgeon": 24214,
    "Ġtrait": 23070,
    "screen": 22988,
    "Ġthings": 1961,
    "Ġobliquely": 12360,
    "Ġane": 9181,
    "Ġkne": 4267,
    "Ġtwitched": 20442,
    "threadbare": 25989,
    "Ġcreator": 7254,
    "Ġdisrespect": 18553,
    "Ġconcrete": 20636,
    "Ġclimax": 25051,
    "worshipping": 16610,
    "Ġaver": 1287,
    "naturalists": 23580,
    "Ġlists": 11166,
    "Ġers": 15459,
    "Ġprank": 23216,
    "unbounded": 21882,
    "Ġcarbuncle": 14444,
    "Ġpillows": 24986,
    "Ġorganisation": 23582,
    "Ġnought": 21519,
    "Ġexpectations": 13141,
    "unvarying": 21884,
    "scissors": 20726,
    "Ġpeninsula": 23193,
    "Ġpier": 7162,
    "dation": 2611,
    "west": 10739,
    "Ġcap": 2358,
    "zealand": 26054,
    "Ġsepulch": 15283,
    "eenth": 12458,
    "Ġbeaut": 2388,
    "wat": 6231,
    "continu": 5501,
    "undertaking": 23786,
    "pute": 8844,
    "Ġpolitical": 19222,
    "bearded": 18525,
    "Ġtrumpet": 9573,
    "Ġadvised": 16199,
    "Ġaltogether": 4831,
    "Ġlar": 766,
    "Ġhearsed": 25039,
    "distrust": 19569,
    "darkness": 9511,
    "elab": 21567,
    "inching": 21188,
    "Ġcro": 4873,
    "Ġadmeasure": 18293,
    "Ġchinks": 22248,
    "Ġwreaths": 25937,
    "Ġtahiti": 13618,
    "erxes": 21274,
    "Ġmarchant": 14785,
    "july": 20473,
    "Ġdilatory": 24705,
    "Ġapprehended": 26091,
    "Ġhorner": 8958,
    "Ġbelie": 14405,
    "Ġturbul": 23611,
    "chan": 1155,
    "Ġschol": 17376,
    "ieving": 7031,
    "Ġpierce": 17036,
    "liament": 16217,
    "time": 3144,
    "Ġanecd": 20153,
    "dispute": 23497,
    "niest": 19013,
    "amples": 1823,
    "irr": 12734,
    "easily": 17534,
    "Ġimprisonment": 22385,
    "Ġsources": 10147,
    "ignor": 8961,
    "Ġslam": 13055,
    "Ġmitt": 21306,
    "Ġexcurs": 23314,
    "Ġburning": 5976,
    "oran": 8788,
    "Ġbarriers": 23793,
    "Ġcedars": 20291,
    ")âĢĶ": 20741,
    "otion": 4946,
    "octial": 20003,
    "ates": 519,
    "Ġbennett": 16323,
    "emporary": 15793,
    "quit": 15759,
    "son": 2325,
    "Ġuncivil": 11155,
    "Ġjup": 15950,
    "Ġuntouched": 16464,
    "awned": 19458,
    "Ġcontour": 18474,
    "Ġ35": 24076,
    "Ġendeavored": 19302,
    "Ġchall": 10944,
    "Ġresolved": 3797,
    "Ġimproper": 22739,
    "Ġthere": 562,
    "Ġbacks": 8527,
    "Ġfainted": 8791,
    "Ġvacant": 9494,
    "stupid": 12673,
    "Ġstabbing": 20302,
    "enderby": 25215,
    "âĢ": 294,
    "Ġreliance": 14384,
    "Ġfiendish": 13326,
    "Ġnonsense": 6982,
    "Ġdisgra": 18549,
    "Ġunho": 18245,
    "sailor": 14714,
    "utherland": 9578,
    "Ġheartfelt": 18967,
    "Ġthinks": 6169,
    "Ġsinging": 7723,
    "Ġclout": 22340,
    "practical": 17221,
    "Ġpowers": 5419,
    "intend": 16223,
    "itance": 13867,
    "Ġperturbation": 20439,
    "Ġgospel": 18000,
    "monograph": 23523,
    "ulsive": 10233,
    "Ġstill": 1153,
    "Ġcared": 8782,
    "urches": 12682,
    "ogue": 9784,
    "Ġintroducing": 11974,
    "whispered": 20032,
    "handsome": 13175,
    "inter": 2947,
    "approb": 11042,
    "Ġunfitted": 24109,
    "xim": 1093,
    "whisper": 17083,
    "dom": 6222,
    "recked": 17762,
    "Ġprized": 23218,
    "uling": 2254,
    "combined": 20319,
    "Ġhonest": 7287,
    "Ġlifts": 25358,
    "Ġsemicircle": 26067,
    "orously": 8418,
    "Ġknocking": 10559,
    "ities": 1827,
    "become": 14246,
    "isa": 17845,
    "Ġevince": 24293,
    "Ġhorribly": 16341,
    "Ġgenerate": 1614,
    "Ġarm": 2489,
    "Ġfinds": 6299,
    "Ġunfathomable": 20547,
    "ourse": 8869,
    "bab": 11468,
    "Ġglass": 4369,
    "tree": 11533,
    "Ġtenderly": 11314,
    "Ġbristol": 14379,
    "Ġcrossed": 6068,
    "level": 2653,
    "Ġlengthwise": 10452,
    "heavily": 24534,
    "Ġdrama": 16328,
    "Ġlife": 1350,
    "Ġdirector": 18920,
    "Ġsaleve": 17390,
    "Ġtrick": 7020,
    "Ġloomings": 24949,
    "afric": 19178,
    "Ġunconditional": 15842,
    "_.âĢĶ": 23471,
    "Ġq": 1086,
    "uttermost": 24940,
    "Ġtranqu": 4605,
    "Ġspire": 18306,
    "Ġsimultaneous": 22585,
    "Ġrepelled": 19083,
    "puzz": 17640,
    "etieth": 21581,
    "Ġcollection": 8221,
    "Ġdestined": 7973,
    "inates": 21179,
    "give": 4689,
    "Ġconsiderable": 4009,
    "Ġblow": 3372,
    "Ġjackson": 24240,
    "Ġpre": 505,
    "Ġimmens": 9938,
    "Ġcapst": 8595,
    "Ġinvestment": 24336,
    "imod": 15707,
    "bb": 2800,
    "talked": 14984,
    "bright": 8989,
    "eches": 8077,
    "advance": 12154,
    "Ġwides": 17788,
    "Ġvastly": 23858,
    "Ġacceptable": 16744,
    "ric": 1373,
    "Ġsan": 7824,
    "ishly": 14199,
    "ĠĠĠĠĠĠĠĠĠĠĠĠĠĠĠĠĠĠĠĠĠĠĠĠĠĠĠĠĠĠĠĠĠĠĠĠĠĠ": 16525,
    "Ġphil": 3383,
    "Ġprepar": 7896,
    "Ġhoot": 19074,
    "Ġfeature": 748,
    "Ġnobleman": 19390,
    "Ġincisive": 18571,
    "ighted": 8476,
    "Ġbreat": 3459,
    "perpet": 14161,
    "Ġexperiences": 13027,
    "repeat": 25151,
    "Ġglit": 8559,
    "Ġunscrew": 22035,
    "capable": 13700,
    "Ġsilver": 7464,
    "Ġtalker": 23369,
    "Ġusher": 22209,
    "sight": 5994,
    "voice": 7816,
    "neying": 22460,
    "Ġmaxim": 3082,
    "paying": 25411,
    "Ġcavity": 20486,
    "iating": 3203,
    "Ġheaths": 25972,
    "long": 2912,
    "Ġmistake": 6203,
    "atre": 17770,
    "Ġneskye": 21528,
    "aking": 974,
    "ensing": 12893,
    "Ġlicence": 25096,
    "wherefore": 19108,
    "Ġalternately": 15031,
    "Ġmetaphys": 16411,
    "Ġtotal": 4993,
    "itatingly": 25277,
    "fam": 5988,
    "Ġchanced": 8186,
    "Ġ73": 24260,
    "haut": 20901,
    "Ġswashing": 23051,
    "Ġordin": 16650,
    "wreat": 21126,
    "Ġthereby": 7643,
    "striking": 13439,
    "Ġstake": 14003,
    "Ġlurid": 19680,
    "Ġcorn": 9349,
    "Ġglimpse": 6944,
    "acknowledge": 18468,
    "Ġmanaged": 7905,
    "Ġdiscover": 4718,
    "Ġquench": 22416,
    "drunk": 24659,
    "Ġcaps": 8414,
    "rant": 11516,
    "Ġradiant": 16809,
    "standing": 5558,
    "Ġcampaign": 20660,
    "cost": 19185,
    "Ġtasselled": 25921,
    "Ġprotectors": 9070,
    "Ġfrenz": 25446,
    "says": 13298,
    "youngest": 19742,
    "Ġblankness": 24610,
    "itively": 21329,
    "bidden": 19736,
    "Ġapproved": 16030,
    "archbishop": 22901,
    "Ġprotruded": 19468,
    "Ġsale": 14154,
    "ile": 521,
    "Ġgap": 21596,
    "eding": 7165,
    "trad": 21075,
    "lively": 12482,
    "gratulation": 24349,
    "Ġhearing": 4761,
    "vanished": 15060,
    "Ġfailing": 12135,
    "Ġchaff": 18383,
    "Ġexhale": 24402,
    "oved": 5215,
    "flood": 19805,
    "Ġcomprehensiveness": 25072,
    "Ġhad": 443,
    "Ġplace": 1650,
    "Ġchuckled": 10647,
    "Ġhook": 6453,
    "embers": 21924,
    "ghan": 19453,
    "frank": 7757,
    "Ġfervent": 14895,
    "Ġlurking": 11289,
    "ready": 2356,
    "venant": 22625,
    "Ġbitter": 4173,
    "abomin": 15739,
    "Ġplan": 3882,
    "rings": 10722,
    "Ġinquisitive": 26317,
    "Ġwilt": 9643,
    "Ġscolding": 15199,
    "Ġpetticoat": 15294,
    "Ġsealed": 15813,
    "Ġconting": 18472,
    "vo": 11539,
    "Ġselfish": 7272,
    "par": 1830,
    "Ġhurrah": 9868,
    "Ġsubfield": 11867,
    "Ġraging": 14305,
    "alongside": 19788,
    "Ġblemish": 19678,
    "Ġenthus": 7232,
    "Ġexp": 781,
    "Ġsummits": 14683,
    "Ġpupils": 20419,
    "Ġtook": 1856,
    "Ġcarefully": 6304,
    "Ġrendering": 16657,
    "Ġthw": 21512,
    "Ġbeef": 6830,
    "Đ": 209,
    "orus": 10801,
    "Ġbrink": 18769,
    "forward": 2185,
    "ley": 1817,
    "Ġquietly": 4567,
    "Ġsummer": 4790,
    "¸": 121,
    "Ġprinted": 11947,
    "Ġrestore": 9379,
    "Ġf": 283,
    "dry": 13702,
    "enance": 3369,
    "laid": 10109,
    "Ġnapole": 15114,
    "Ġcond": 3874,
    "Ġovertake": 15970,
    "Ġaccur": 3508,
    "Ġsinking": 7307,
    "Ġdais": 24372,
    "Ġcursory": 18858,
    "Ġstretch": 6993,
    "sorrows": 17319,
    "Ġpallid": 12297,
    "safety": 20348,
    "Ġfrig": 13079,
    "Ġpropos": 7062,
    "anks": 3917,
    "agne": 21902,
    "hug": 17563,
    "Ġ1846": 26084,
    ",*": 17471,
    "Ġcowardice": 17032,
    "powers": 25410,
    "Ġmurderer": 4980,
    "Ġwrist": 8242,
    "Ġriggers": 24156,
    "Ġloathed": 15873,
    "Ġ49": 24081,
    "Ġrevolve": 19729,
    "Ġ[": 6967,
    "Ġgarb": 21600,
    "pence": 15408,
    "Ġavocation": 23950,
    "Ġrepaid": 19080,
    "Ġdrinks": 24279,
    "Ġkuiperai": 10935,
    "col": 3101,
    "Ġrepaired": 13106,
    "atmosphere": 21263,
    "Ġamiss": 18512,
    "Ġfibres": 12948,
    "Ġhis": 380,
    "mortal": 10112,
    "Ġbox": 5109,
    "gressive": 2756,
    "Ġaspire": 21897,
    "liest": 6294,
    "ource": 5243,
    "Ġtantamount": 25625,
    "Ġverte": 9440,
    "amb": 5723,
    "bows": 10081,
    "lose": 12878,
    "Ġrecogn": 2691,
    "gods": 13365,
    "sebastian": 21817,
    "Ġ116": 24440,
    "Ġperpet": 7644,
    "Ġgeometric": 3215,
    "Ġvictory": 16653,
    "Ġstraps": 19309,
    "Ġinjuring": 24268,
    "Ġours": 4612,
    "Ġfastidious": 14492,
    "Ġalways": 1696,
    "Ġsteak": 9828,
    "Ġireland": 17334,
    "Ġunexpected": 6841,
    "Ġgra": 415,
    "Ġinexorable": 12253,
    "Ġcheerfulness": 10516,
    "Ġcreditors": 20128,
    "image": 9685,
    "catch": 17506,
    "Ġcoleman": 22582,
    "Ġfaced": 10808,
    "inserted": 18886,
    "ī": 236,
    "Ġaustral": 12170,
    "alter": 10826,
    "Ġcalmer": 23039,
    "Ġgrammatical": 13538,
    "sledge": 21056,
    "Ġbehavior": 8001,
    "Ġrelationships": 2925,
    "Ġvowed": 14083,
    "ohog": 9842,
    "Ġpersonally": 8598,
    "Ġcapric": 14574,
    "Ġcurved": 18856,
    "dataset": 23238,
    "Ġrusty": 14963,
    "fifth": 20145,
    "ckery": 22087,
    "Ġcistern": 17380,
    "Ġkingdom": 12017,
    "Ġselling": 21223,
    "Ġchallenge": 25471,
    "irresistible": 18173,
    "ist": 448,
    "inating": 9153,
    "Ġgent": 7383,
    "Ġroads": 13287,
    "Ġauthors": 10411,
    "signed": 21060,
    "mis": 4521,
    "Ġwashed": 15762,
    "ond": 1158,
    "tarpaul": 21096,
    "quohog": 21855,
    "Ġtoward": 17946,
    "Ġ&": 6513,
    "Ġweighted": 2091,
    "Ġfall": 2984,
    "Ġlounging": 10021,
    "Ġcongrat": 5827,
    "una": 21866,
    "Ġmend": 8405,
    "avenue": 25057,
    "Ġbecame": 2693,
    "Ġveneration": 25044,
    "Ġwearisome": 19794,
    "Ġcivil": 4679,
    "clothed": 19737,
    "Ġausten": 5880,
    "influence": 13577,
    "Ġresearches": 13142,
    "Ġfath": 7364,
    "Ġregardless": 19323,
    "gloom": 17139,
    "Ġexclam": 6757,
    "Ġswimming": 5507,
    "vengeance": 13355,
    "Ġworse": 4719,
    "Ġsubdivisions": 26037,
    "Ġoccasionally": 5590,
    "Ġappointed": 20101,
    "poison": 14391,
    "commanders": 16989,
    "razor": 21634,
    "showed": 16020,
    "Ġlimit": 10443,
    "Ġwhoever": 10975,
    "Ġcobweb": 22581,
    "generative": 4331,
    "Ġassociated": 12247,
    "Ġsliding": 9363,
    "ieces": 4772,
    "Ġbarb": 4531,
    "Ġbushes": 16398,
    "onial": 11566,
    "overed": 2853,
    "perfectly": 9085,
    "Ġbounds": 9917,
    "Ġdenoted": 16565,
    "lesc": 11039,
    "Ġresc": 4507,
    "Ġmasking": 2413,
    "Ġhy": 5625,
    "Ġdispirited": 23880,
    "Ġperpendicularly": 11374,
    "Ġfrench": 4939,
    "phil": 7924,
    "network": 1960,
    "Ġmont": 8558,
    "Ġreminding": 19796,
    "Ġaper": 17743,
    "speckled": 23942,
    "Ġfocus": 4237,
    "Ġheadway": 18790,
    "transformers": 8714,
    "Ġmostly": 7663,
    "Ġunnearable": 26516,
    "Ġpresumed": 10544,
    "Ġangrily": 9406,
    "Ġtough": 13814,
    "Ġsacrificial": 24871,
    "knife": 6942,
    "nib": 5214,
    "Ġyard": 5920,
    "Ġ28": 19294,
    "Ġexpect": 2301,
    "expl": 9282,
    "Ġemma": 20693,
    "Ġworkman": 16273,
    "iless": 10281,
    "surd": 6934,
    "Ġemployment": 8628,
    "Ġstrugg": 3214,
    "Ġpersian": 11091,
    "Ğ": 223,
    "Ġmummy": 25768,
    "Ġheavenly": 12082,
    "nyder": 16686,
    "Ġtrem": 6659,
    "'m": 9582,
    "Ġrapt": 7226,
    "Ġdevious": 22719,
    "Ġweighty": 16029,
    "fedallah": 25522,
    "stains": 11636,
    "transform": 8049,
    "dreadful": 11421,
    "Ġ130": 24781,
    "Ġglimp": 6065,
    "olerably": 11672,
    "Ġharp": 17923,
    "Ġexterm": 21826,
    "Ġhumanity": 6731,
    "Ġconfidence": 6590,
    "Ġincorrupt": 19233,
    "collecting": 26081,
    "Ġwhalebone": 10977,
    "Ġbelonging": 8307,
    "Ġmerryweather": 9521,
    "scratch": 26043,
    "erer": 8731,
    "Ġattaining": 15801,
    "weeks": 14315,
    "Ġuncl": 22011,
    "Ġitems": 9691,
    "enances": 10153,
    "omist": 21635,
    "hack": 20895,
    "Ġvalued": 12180,
    "**:": 4737,
    "Ġsy": 489,
    "Ġgiver": 21602,
    "Ġimaginary": 11186,
    "Ġamel": 18510,
    "ance": 478,
    "Ġchaps": 14179,
    "endeav": 7150,
    "Ġaf": 785,
    "Ġjohnson": 18409,
    "Ġperch": 10298,
    "Ġparticle": 18671,
    "rior": 12738,
    "Ġcommotion": 9779,
    "Ġscrape": 14917,
    "Ġprotection": 9461,
    "Ġreminds": 13430,
    "Ġissues": 9541,
    "linked": 17593,
    "Ġshad": 3848,
    "touch": 8391,
    "Ġhaunted": 10253,
    "Ġtransf": 22434,
    "Ġprecipitous": 24835,
    "utting": 17984,
    "Ġdinah": 9453,
    "Ġjabbering": 22300,
    "erman": 5108,
    "Ġah": 5075,
    "iest": 4038,
    "Ġadvantages": 9806,
    "Ġprair": 7746,
    "Ġgossiping": 26243,
    "Ġhooped": 23353,
    "Ġsmiled": 5940,
    "Ġrecommence": 16812,
    "Ġscanning": 18399,
    "Ġminuteness": 19138,
    "Ġcosmopol": 16454,
    "Ġinputs": 845,
    "Ġschedu": 1824,
    "Ġquestionable": 19265,
    "begin": 8883,
    "Ġimposing": 11779,
    "Ġclut": 7641,
    "Ġhumming": 12983,
    "Ġvortex": 26208,
    "Ġplanets": 24054,
    "Ġvariants": 1791,
    "Ġaug": 6234,
    "upid": 6581,
    "out": 467,
    "Ġpomp": 12619,
    "Ġrokovoko": 22403,
    "ony": 3025,
    "Ġphilosop": 5057,
    "Ġsummary": 19402,
    "Ġjib": 14193,
    "Ġrestrictions": 20634,
    "Ġsmell": 7216,
    "Ġvisibly": 22862,
    "oing": 15400,
    "Ġhasn": 12924,
    "attle": 4467,
    "Ġpalpable": 15205,
    ";âĢĶ": 3750,
    "Ġcostly": 23583,
    "Ġramadan": 9575,
    "Ġerected": 12231,
    "Ġbinding": 20417,
    "stolidity": 21660,
    "Ġmoulton": 17434,
    "Ġmo": 628,
    "Ġearls": 18903,
    "prec": 3198,
    "Ġdishon": 12228,
    "Ġlan": 5820,
    "Ġfree": 3373,
    "Ġrav": 14304,
    "Ġwave": 7575,
    "Ġrevenue": 26194,
    "Ġcurled": 8226,
    "Ġdelayed": 9517,
    "Ġcriminal": 7537,
    "er": 269,
    "Ġdireful": 11017,
    "Ġworn": 6445,
    "Ġchildish": 13135,
    "Ġspecks": 14306,
    "arpo": 1752,
    "Ġresulting": 24198,
    "Ġknowingly": 18480,
    "unsupervised": 10889,
    "Ġnew": 1197,
    "folly": 20861,
    "Ġwhite": 1536,
    "Ġbranches": 6776,
    "Ġsain": 17750,
    "hereafter": 19215,
    "Ġcruellest": 19657,
    "Ġforswe": 21771,
    "punctual": 26355,
    "Ġdisgu": 8205,
    "Ġlines": 4534,
    "persuasion": 20042,
    "robotics": 11306,
    "Ġvillas": 24051,
    "vere": 4883,
    "Ġordinary": 6096,
    ",âĢĻ": 2324,
    "ason": 1275,
    "Ġsiamese": 20481,
    "Ġcalifornian": 25851,
    "client": 18931,
    "Ġ78": 19612,
    "ighter": 7967,
    "usal": 7638,
    "Ġexamining": 8005,
    "Ġshocks": 16456,
    "Ġdescent": 1014,
    "susp": 10596,
    "Ġrange": 9711,
    "hot": 8083,
    "Ġguernsey": 9350,
    "antarctic": 22096,
    "believing": 19460,
    "?_âĢĿ": 12314,
    "suffered": 24334,
    "Ġs": 265,
    "Ġforbidding": 17079,
    "olstad": 7612,
    "head": 1435,
    "Ġswerve": 14436,
    "drawing": 10486,
    "tps": 11534,
    "woes": 21132,
    "Ġtul": 21158,
    "Ġfashionable": 19543,
    "Ġexperienced": 6582,
    "ething": 1602,
    "Ġindignity": 18832,
    "pol": 5892,
    "Ġthee": 2620,
    "Ġunaccountably": 26515,
    "added": 11658,
    "Ġconsiderably": 7714,
    "hurst": 19878,
    "Ġmovable": 22430,
    "bearance": 22491,
    "aces": 2069,
    "Ġexpecting": 10436,
    "Ġangry": 5498,
    "Ġmutter": 23951,
    "Ġeternally": 11369,
    "Ġflush": 14423,
    "kindred": 24047,
    "bohem": 19001,
    "aws": 8236,
    "Ġfrequencies": 4789,
    "Ġstudying": 9845,
    "Ġdefici": 22940,
    "aven": 8209,
    "Ġinequal": 21494,
    "Ġoverthrow": 18432,
    "Ġnorthumbria": 24171,
    "Ġequilib": 4137,
    "Ġperman": 10964,
    "heartedness": 24827,
    "Ġredress": 23750,
    "Ġmodern": 3225,
    "twice": 14621,
    "Ġresentment": 7530,
    "hideous": 25407,
    "Ġhesitating": 16947,
    "readily": 19360,
    "disp": 7975,
    "Ġsulky": 13514,
    "Ġdisd": 7030,
    "Ġretreat": 6069,
    "Ġrecollected": 8310,
    "Ġunintermitted": 26219,
    "Ġtrembling": 7481,
    "26": 10072,
    "Ġwaterproof": 19086,
    "Ġoutwardly": 24998,
    "fool": 9047,
    "Ġruddy": 17125,
    "Ġdeaf": 12718,
    "Ġcrawling": 17045,
    "ulia": 18148,
    "Ġwood": 2287,
    "whosoever": 22237,
    "seas": 14032,
    "Ġquestioning": 10464,
    "Ġplacid": 11824,
    "sails": 7497,
    "Ġnorthwards": 19545,
    "antial": 8487,
    "linen": 25257,
    "Ġmassa": 19452,
    "Ġparadigms": 3054,
    "Ġreel": 9213,
    "wam": 10135,
    "Ġblew": 9045,
    "Ġsiber": 17755,
    "Ġdepending": 14291,
    "cious": 6643,
    "epend": 3314,
    "Ġcant": 17824,
    "Ġang": 2510,
    "Ġcomplaints": 12262,
    "Ġoblivious": 26032,
    "Ġglu": 15665,
    "Ġbewil": 11656,
    "Ġtub": 7146,
    "Ġdescribe": 2767,
    "Ġravings": 18648,
    "Ġfiery": 6871,
    "Ġnlp": 3059,
    "Ġdemeanour": 17336,
    "Ġrational": 8479,
    "alarm": 15624,
    "swing": 15428,
    "Ġgenial": 12192,
    "Ġinsomuch": 23681,
    "Ġmortals": 9915,
    "consol": 9761,
    "Ġunacquainted": 12773,
    "Ġhieroglyphics": 17302,
    "Ġdifferent": 1426,
    "gazing": 12469,
    "Ġsuperlative": 26074,
    "Ġtheore": 1831,
    "spe": 3562,
    "Ġinco": 14260,
    "Ġbutton": 10267,
    "Ġpuffed": 14976,
    "Ġ58": 24326,
    "Ġcruising": 6913,
    "inde": 17731,
    "spout": 7922,
    "addressed": 13384,
    "chess": 16573,
    "Ġdiscontented": 16056,
    "Ġnatural": 1124,
    "Ġpaced": 7583,
    "arest": 4007,
    "Ġunlucky": 10049,
    "other": 1315,
    "legs": 13181,
    "Ġkind": 1785,
    "Ġbasics": 13447,
    "prevailed": 17344,
    "Ġworthless": 19564,
    "Ġextrem": 2470,
    "\\": 64,
    "clearly": 25195,
    "torm": 11530,
    "Ġbabies": 19691,
    "enjoy": 10774,
    "Ġapartments": 19613,
    "Ġsolemnisation": 24114,
    "Ġdaresay": 14703,
    "Ġjavelins": 26105,
    "fugitive": 26131,
    "Ġprivacy": 19523,
    "Ġcha": 6853,
    "Ġtrifle": 10601,
    "Ġlug": 15649,
    "alously": 15626,
    "Ġsincere": 11136,
    "Ġforb": 11662,
    "Ġengraved": 17081,
    "buttons": 22397,
    "Ġmess": 7831,
    "Ġscale": 1546,
    "Ġcomplement": 23708,
    "inkled": 5477,
    "Ġdat": 498,
    "figures": 20120,
    "Ġresisted": 22538,
    "scales": 22986,
    "Ġhem": 8445,
    "Ġexcess": 3341,
    "æ": 167,
    "Ġcalms": 23038,
    "Ġcourses": 10413,
    "alous": 7372,
    "offic": 7466,
    "Ġcandelabra": 26602,
    "Ġcommun": 1705,
    "Ġvehemently": 26039,
    "Ġceler": 15548,
    "Ġmystical": 12130,
    "Ġoun": 13862,
    "Ġunreason": 15840,
    "Ġthinnest": 24183,
    "Ġconfess": 3767,
    "Ġprynne": 25540,
    "âĢĿ": 353,
    "bed": 3290,
    "Ġperchance": 15989,
    "Ġagile": 22510,
    "Ġdropping": 7483,
    "thin": 14096,
    "precaution": 23820,
    "mill": 13753,
    "Ġlowly": 11121,
    "Ġheading": 8935,
    "Ġswelling": 11923,
    "Ġledger": 19400,
    "Ġpushing": 10819,
    "tled": 3456,
    "Ġattics": 22618,
    "Ġret": 1378,
    "Ġwilful": 10534,
    "Ġseptember": 18205,
    "ivot": 11716,
    "Ġmowers": 17812,
    "hit": 20888,
    "rote": 4592,
    "Ġpin": 7161,
    "hitherto": 17283,
    "Ġcruisers": 25863,
    "Ġrisk": 8038,
    "Ġrallied": 14095,
    "endure": 22222,
    "contained": 22469,
    "feels": 22500,
    "Ġpiled": 8424,
    "game": 11490,
    "x": 92,
    "solved": 7684,
    "Ġwine": 6810,
    "Ġbars": 13896,
    "Ġstabbed": 25456,
    "Ġentic": 16143,
    "Ġsomnam": 23002,
    "university": 25983,
    "Ġobjects": 5578,
    "lic": 17587,
    "Ġsuperstitious": 13519,
    "Ġboxed": 24360,
    "Ġ2": 2928,
    "Ġapprehension": 7113,
    "Ġexcell": 10417,
    "moments": 19410,
    "Ġshore": 4834,
    "Ġsteps": 2863,
    "regular": 3038,
    "valu": 1698,
    "Ġgems": 9208,
    "contracting": 19293,
    "Ġconquest": 15745,
    "zar": 11547,
    "Ġkins": 22191,
    "Ġwoll": 21292,
    "deceiving": 22141,
    "terrors": 25041,
    "rust": 2579,
    "avating": 18605,
    "Ġabsolut": 3911,
    "Ġamaz": 5385,
    "Ġreeling": 18032,
    "Ġwindsor": 16887,
    "istence": 2467,
    "Ġinward": 11606,
    "des": 1567,
    "walked": 10570,
    "both": 5785,
    "Ġupbraiding": 26226,
    "Ġconcerning": 4071,
    "Ġtint": 13816,
    "Ġlift": 8810,
    "Ġshriek": 6637,
    "presumption": 20440,
    "bable": 8718,
    "Ġticklish": 25034,
    "Ġcomply": 8890,
    "gies": 13725,
    "Ġexpectantly": 23522,
    "annica": 24561,
    "Ġsorely": 17256,
    "Ġcries": 7154,
    "Ġtoday": 12640,
    "fisher": 7547,
    "Ġdavy": 25951,
    "affa": 23775,
    "Ġfits": 8790,
    "Ġnurtured": 19748,
    "Ġstiggs": 25792,
    "Ġfurthest": 22812,
    "Ġeluc": 16106,
    "rad": 2253,
    "ouring": 6420,
    "pump": 21016,
    "Ġvolition": 14797,
    "practised": 20246,
    "Ġstil": 15718,
    "Ġbordeaux": 24564,
    "Ġclient": 5556,
    "Ġunheard": 22020,
    "Ġrobins": 16252,
    "Ġshoulders": 5566,
    "Ġsubs": 2130,
    "irs": 14070,
    "waiting": 12218,
    "Ġrespectfully": 18993,
    "Ġmutable": 23952,
    "Ġprovoke": 14825,
    "oked": 4309,
    "ryder": 18639,
    "union": 15767,
    "ogy": 22704,
    "comm": 7440,
    "Ġpence": 17903,
    "grate": 23410,
    "Ġchanging": 11751,
    "guilt": 24068,
    "jure": 20923,
    "Ġsobbing": 14134,
    "Ġcarpets": 18902,
    "Ġfive": 2835,
    "Ġnodding": 23333,
    "aphs": 22333,
    "best": 6111,
    "Ġconversed": 13187,
    "inferences": 17739,
    "idual": 1559,
    "Ġagricultural": 26550,
    "Ġconduct": 3734,
    "charles": 14698,
    "54": 15298,
    "pit": 3985,
    "Ġshot": 4544,
    "proved": 11985,
    "augmented": 26286,
    "Ġrecorded": 11293,
    "Ġcumul": 4178,
    "betrayed": 24640,
    "Ġledge": 19399,
    "Ġphilosophical": 26334,
    "Ġ108": 19683,
    "Ġdog": 4191,
    "Ġcognitive": 13633,
    "hint": 12473,
    "Ġyouth": 4262,
    "ud": 913,
    "true": 2584,
    "nue": 15396,
    "construction": 19777,
    "Ġmasks": 23326,
    "persu": 8027,
    "indirectly": 18437,
    "Ġinmates": 15620,
    "Ġcareless": 11119,
    "Ġdreadfully": 7725,
    "Ġexposing": 11832,
    "Ġactive": 7914,
    "flitted": 23966,
    "Ġbi": 919,
    "Ġfists": 15580,
    "Ġvener": 8163,
    "Ġpigeon": 9515,
    "Ġsmaller": 1882,
    "Ġfinite": 2321,
    "Ġdeprec": 15755,
    "Ġentertain": 6053,
    "consid": 4924,
    "Ġwit": 3840,
    "Ġlandsmen": 11351,
    "Ġfitly": 23996,
    "Ġlooked": 1801,
    "vacancies": 25919,
    "million": 25751,
    "ain": 343,
    "Ġminutes": 2998,
    "riumph": 4919,
    "tolerably": 21094,
    "Ġmournful": 12334,
    "Ġsupercil": 23453,
    "Ġannesley": 19576,
    "Ġincumbent": 16060,
    "Ġobstinacy": 17420,
    "Ġvindictiveness": 25738,
    "ssian": 3397,
    "Ġconveniences": 19811,
    "fourth": 11328,
    "hertfordshire": 10936,
    "Ġbidding": 9536,
    "iteness": 4393,
    "minutely": 19592,
    "castle": 3348,
    "Ġanaly": 1165,
    "Ġwidespread": 20674,
    "Ġskylight": 24072,
    "Ġsymph": 22204,
    "doors": 19094,
    "Ġbrick": 8925,
    "Ġoverdone": 22359,
    "Ġencounters": 19579,
    "Ġmassachusetts": 24019,
    "Ġdare": 3547,
    "Ġrural": 21967,
    "take": 4576,
    "Ġpurchased": 12258,
    "Ġrule": 1533,
    "Ġunwearied": 20601,
    "Ġsymmetry": 20364,
    "fleece": 19946,
    "shattered": 22446,
    "paradise": 20635,
    "fen": 20849,
    "Ġburke": 19250,
    "Ġdom": 2700,
    "Ġbear": 3660,
    "Ġinnoc": 3794,
    "Ġpicking": 11259,
    "concerns": 24066,
    "voices": 21116,
    "su": 799,
    "Ġwarning": 9058,
    "pursu": 11392,
    "Ġrespite": 13153,
    "Ġstared": 8454,
    "Ġencouragement": 13040,
    "Ġirons": 7695,
    "Ġhellish": 10550,
    "crucible": 24842,
    "conspicuous": 26247,
    "Ġsqualls": 17020,
    "nelson": 25620,
    "Ġork": 18284,
    "Ġhitherto": 5879,
    "Ġdictionaries": 12338,
    "Ġdiscovering": 13356,
    "orse": 5806,
    "Ġdiving": 12598,
    "wn": 722,
    "Ġways": 5396,
    "Ġnasty": 17442,
    "necessarily": 19630,
    "Ġdoran": 9179,
    "Ġoverwhel": 8196,
    "Ġrattling": 11395,
    "Ġhastening": 19335,
    "Ġimbib": 22172,
    "Ġstain": 18067,
    "Ġsisters": 3643,
    "quently": 9701,
    "Ġhypocr": 19470,
    "Ġlad": 2360,
    "Ġunfortunate": 5376,
    "Ġarrow": 10931,
    "Ġfault": 5702,
    "erated": 21269,
    "Ġunaccountable": 7886,
    "stepfather": 19189,
    "Ġprevention": 16089,
    "adow": 18087,
    "blow": 9103,
    "Ġaddressed": 5262,
    "ish": 551,
    "Ġass": 1503,
    "Ġfishery": 4175,
    "Ġgrowled": 19282,
    "Ġcomponents": 8892,
    "Ġlaid": 3943,
    "Ġushered": 18355,
    "Ġbeach": 6541,
    "Ġblasts": 19994,
    "reason": 4415,
    "Ġcards": 7580,
    "Ġanswered": 2851,
    "Ġhopes": 4235,
    "incredible": 16497,
    "Ġbloss": 19255,
    "Ġlatest": 16822,
    "ledge": 1329,
    "door": 6193,
    "Ġperse": 6271,
    "Ġfragrant": 13098,
    "concluding": 19479,
    "Ġpassion": 4557,
    "oded": 11669,
    "Ġdut": 2985,
    "Ġundivided": 24121,
    "crime": 14782,
    "cies": 1815,
    "Ġproceedings": 9906,
    "))": 1516,
    "diver": 20830,
    "Ġspile": 22124,
    "Ġbetake": 22902,
    "Ġceremonies": 24836,
    "Ġobsc": 7039,
    "Ġjuly": 17236,
    "Ġdepicted": 14279,
    "Ġmayhap": 18709,
    "Ġbressed": 21385,
    "Ġnorm": 764,
    "z": 94,
    "Ġdealer": 23974,
    "ar": 285,
    "Ġbench": 7238,
    "swed": 24253,
    "Ġkidn": 20204,
    "nor": 2743,
    "cur": 3270,
    "orand": 21395,
    "consc": 4840,
    "sometimes": 5971,
    "Ġanomaly": 25636,
    "Ġtranquilly": 12288,
    "splice": 17170,
    "bern": 20774,
    "Ġcommonly": 3262,
    "Ġalive": 4399,
    "Ġaudacity": 19881,
    "Ġkindly": 6077,
    "led": 579,
    "summit": 23415,
    "Ġsimilar": 4917,
    "system": 4203,
    "Ġhit": 7163,
    "Ġselects": 4386,
    "preserver": 20212,
    "Ġtendinous": 16931,
    "rity": 13775,
    "Ġpossession": 5589,
    "Ġespecially": 3938,
    "converse": 22472,
    "Ġmisunderstand": 18704,
    "Ġcologne": 12972,
    "Ġnetworks": 599,
    "Ġweighed": 8710,
    "Ġtransport": 11278,
    "Ġdevotion": 22721,
    "Ġsailor": 3538,
    "boat": 3360,
    "assistance": 20369,
    "Ġwafted": 14499,
    "Ġsegment": 12754,
    "icacy": 15655,
    "Ġrepresents": 4902,
    "followed": 8338,
    "Ġbitt": 10796,
    "Ġoutstanding": 22313,
    "Ġvinc": 14084,
    "Ġloth": 17965,
    "zing": 7820,
    "Ġdemand": 4947,
    "Ġbended": 21383,
    "deduction": 23553,
    "Ġinv": 2222,
    "Ġbatch": 888,
    "Ġab": 528,
    "#": 7,
    "Ġattributed": 11831,
    "Ġbefitting": 15723,
    "beginning": 13560,
    "Ġparting": 9782,
    "Ġserve": 9367,
    "Ġdaily": 5986,
    "Ġfair": 2836,
    "Ġthrobbing": 16898,
    "elijah": 19471,
    "sort": 6798,
    "Ġcapsized": 20088,
    "Ġpilgr": 12178,
    "Ġforth": 3461,
    "Ġwindows": 4971,
    "Ġpersuading": 19408,
    "accomplishment": 20222,
    "Ġhereditarily": 25224,
    "conjectures": 25180,
    "Ġinclement": 22550,
    "Ġpoison": 7219,
    "Ġunfaltering": 24113,
    "Ġannouncement": 14832,
    "Ġquivering": 12855,
    "tremble": 17141,
    "Ġtomb": 8807,
    "Ġconsult": 6056,
    "dient": 442,
    "Ġevidence": 5269,
    "power": 7136,
    "Ġdegree": 3705,
    "Ġbert": 4582,
    "ared": 772,
    "minutes": 7512,
    "Ġbrim": 12973,
    "Ġdescription": 7429,
    "Ġmonoman": 7938,
    "Ġravine": 18649,
    "Ġcollateral": 20070,
    "Ġsufficiently": 8973,
    "spades": 14334,
    "Ġexpansion": 22623,
    "Ġschool": 5512,
    "Ġoriginally": 7304,
    "increas": 10454,
    "pet": 4867,
    "Ġenglishman": 11229,
    "guarded": 13293,
    "Ġchorus": 10946,
    "Ġmabel": 17323,
    "Ġrehearsed": 25971,
    "Ġappropri": 2225,
    "keeper": 5597,
    "Ġlashed": 9198,
    "social": 11023,
    "Ġembattled": 26288,
    "reflections": 24735,
    "Ġgolden": 5336,
    "Ġsignification": 19202,
    "Ġinfle": 16364,
    "Ġrudimental": 25108,
    "Ġforget": 2631,
    "chemical": 23807,
    "Ġrepeat": 7999,
    "Ġscrutin": 26014,
    "wrinkled": 16553,
    "Ġlucerne": 23862,
    "Ġtransaction": 22436,
    "ectual": 21912,
    "Ġdoings": 18375,
    "Ġtheories": 13848,
    "âĢĿ;": 11668,
    "Ġgardens": 16452,
    "ilogue": 21721,
    "Ġstudded": 18973,
    "hurrying": 14982,
    "Ġinter": 728,
    "wondering": 19844,
    "Ġthen": 665,
    "Ġincreasingly": 9369,
    "Ġcucumber": 21354,
    "Ġmyster": 5925,
    "erect": 20847,
    "preserving": 25304,
    "ula": 2825,
    "Ġfreely": 7056,
    "masters": 16834,
    "Ġcurtains": 23000,
    "Ġroyals": 19531,
    "retch": 4371,
    "imp": 3030,
    "Ġbiographical": 22763,
    "machine": 933,
    "Ġframed": 19041,
    "Ġcetacea": 20552,
    "breeding": 16675,
    "asant": 17958,
    "shame": 16017,
    "Ġsav": 3355,
    "ce": 313,
    "aet": 15306,
    "floated": 24643,
    "Ġturbulence": 26597,
    "prov": 16421,
    "Ġensemble": 1611,
    "Ġchocks": 13344,
    "billows": 20235,
    "steps": 9404,
    "pred": 2802,
    "performances": 26006,
    "Ġponder": 6819,
    "Ġarea": 14186,
    "Ġbankers": 24302,
    "Ġtendency": 11329,
    "Ġrecede": 25968,
    "har": 20889,
    "Ġwrithed": 17106,
    "Ġpalsied": 25779,
    "six": 7141,
    "Ġbecher": 18878,
    "Ġforbe": 8457,
    "grie": 12468,
    "Ġindestructible": 26572,
    "ena": 11567,
    "rmsprop": 4522,
    "Ġrepentance": 15159,
    "Ġguar": 23041,
    "poise": 6171,
    "feeder": 12359,
    "Ġstroll": 13351,
    "Ġtap": 12523,
    "Ġsublime": 8065,
    "Ġunmethodically": 22066,
    "Ġneur": 812,
    "Ġcompared": 2226,
    "Ġwalks": 8966,
    "Ġwhistled": 24623,
    "Ġshadowed": 24042,
    "Ġabsorbed": 12329,
    "Ġrenders": 13282,
    "Ġmerchantmen": 19859,
    "Ġdard": 21420,
    "Ġfolded": 7767,
    "Ġtemptations": 24508,
    "Ġconsciousness": 9947,
    "Ġnatives": 17950,
    "Ġ19": 6719,
    "inglass": 21301,
    "Ġswiftly": 5670,
    "zeal": 16270,
    "ĠâĢľâĢĺ_": 25111,
    "ricane": 16276,
    "Ġcooked": 13268,
    "Ġcho": 4547,
    "meetings": 20376,
    "Ġrejected": 12292,
    "Ġfool": 4236,
    "Ġaccumulated": 11929,
    "Ġoccasions": 7987,
    "Ġsatin": 12987,
    "Ġsoph": 1551,
    "Ġhelter": 24022,
    "Ġremembrance": 8317,
    "baked": 20778,
    "bles": 7017,
    "Ġbranded": 14378,
    "collins": 6916,
    "Ġconse": 21801,
    "promote": 24727,
    "Ġcares": 9365,
    "reasoning": 9475,
    "Ġassist": 3566,
    "ead": 2597,
    "Ġstages": 14004,
    "silenced": 24423,
    "Ġaustrian": 24300,
    "springs": 24911,
    "Ġpreaching": 15924,
    "Ġthackeray": 26455,
    "Ġheathenish": 13615,
    "Ġrewards": 10848,
    "swinging": 25912,
    "mes": 1198,
    "glim": 19363,
    "Ġdemean": 12720,
    "shad": 10980,
    "engthen": 14456,
    "Ġpatience": 2667,
    "Ġdrawled": 23986,
    "pulling": 25146,
    "waiter": 24586,
    "hemat": 3126,
    "Ġretrogress": 23069,
    "Ġwhimsical": 20426,
    "Ġblunt": 11892,
    "luyt": 18453,
    "Ġrepairs": 19081,
    "gam": 10095,
    "good": 2898,
    "5": 25,
    "Ġexempt": 21825,
    "insula": 23062,
    "Ġimpulsively": 24880,
    "reflection": 13454,
    "revenge": 13841,
    "uit": 8392,
    "Ġfur": 992,
    "rell": 11563,
    "respective": 19845,
    "confirmation": 26089,
    "Ġcoronet": 6344,
    "Ġlens": 8437,
    "Ġagric": 22512,
    "Ġcolossal": 11459,
    "zwilliam": 5074,
    "Ġhunt": 6183,
    "Ġunb": 10907,
    "9": 29,
    "Ġadaptation": 3153,
    "Ġborrowed": 17229,
    "ķ": 248,
    "rock": 15638,
    "Ġcurric": 22998,
    "Ġarticle": 9501,
    "Ġbecause": 2208,
    "Ġremind": 6057,
    "gallery": 24693,
    "Ġblotted": 20216,
    "Ġunprofitable": 18267,
    "omy": 6248,
    "Ġprograms": 7239,
    "Ġadventure": 5980,
    "Ġaffrighted": 13571,
    "Ġdome": 15586,
    "Ġlust": 9197,
    "istle": 15868,
    "Ġconcerned": 5331,
    "confined": 24332,
    "Ġstirring": 10579,
    "Ġstranded": 9774,
    "fare": 7798,
    "proud": 9903,
    "assment": 9738,
    "Ġdimensions": 16571,
    "romeda": 17262,
    "Ġperpetual": 12301,
    "Ġselected": 9709,
    "Ġmaimed": 21315,
    "Ġclank": 15962,
    "Ġallusion": 7625,
    "Ġtattooing": 15027,
    "Ġapparent": 5466,
    "Ġcharcoal": 19006,
    "ston": 15680,
    "į": 240,
    "apology": 22331,
    "forming": 15915,
    "preservation": 25305,
    "steep": 19417,
    "Ġrandom": 1588,
    "Ġaccusation": 22375,
    "sol": 1790,
    ";--": 8068,
    "Åĵuv": 15181,
    "Ġimpetuously": 20370,
    "joining": 19444,
    "é": 170,
    "Ġtossings": 25356,
    "ta": 13788,
    "Ġgermany": 25785,
    "Ġsuffocated": 20727,
    "Ġclenched": 14203,
    "Ġtr": 553,
    "Ġcontradicted": 20210,
    "Ġaversion": 18865,
    "Ġasser": 6257,
    "Ġpoetical": 25056,
    "Ġhisself": 21911,
    "Ġalthough": 4151,
    "Ġfoolish": 5979,
    "Ġhorizontal": 7782,
    "kinson": 10025,
    "Ġdiscoverer": 26035,
    "wrote": 11546,
    "Ġcalam": 13031,
    "chose": 18040,
    "oting": 2747,
    "Ġpotential": 3622,
    "Ġdistorted": 14249,
    "Ġapparatus": 24908,
    "september": 14035,
    "Ġsashes": 21224,
    "Ġholland": 10365,
    "Ġperformer": 18755,
    "Ġalco": 21779,
    "Í": 142,
    "Ġoutfits": 22318,
    "Ġreplenished": 13635,
    "Ġreference": 2564,
    "Ġhum": 1100,
    "Ġhue": 8428,
    "read": 3275,
    "Ġwintry": 17433,
    "Ġjeopardy": 13595,
    "Ġexacted": 23602,
    "conjecture": 15121,
    "mon": 2304,
    "mies": 20967,
    "floating": 12225,
    "Ġdiamond": 15596,
    "Ġsweep": 8265,
    "Ġintimacy": 8700,
    "Ġnobody": 6158,
    "countenances": 24151,
    "ster": 1948,
    "Ġbite": 10797,
    "Ġreaped": 18029,
    "Ġopenly": 8572,
    "Ġcenturies": 8622,
    "Ġaim": 10145,
    "Ġsmelt": 16063,
    "Ġcable": 11579,
    "glow": 20873,
    "Ġresign": 18564,
    "supervised": 1954,
    "writes": 4988,
    "Ġbusks": 23337,
    "Ġinterior": 8894,
    "Ġofficers": 4426,
    "Ġboards": 14299,
    "Ġprovid": 1007,
    "Ġpalmy": 19497,
    "Ġpitches": 23899,
    "clinging": 20821,
    "Ġcommissionaire": 17000,
    "Ġcandid": 4100,
    "apping": 5851,
    "arranged": 19318,
    "youn": 5690,
    "Ġarts": 11008,
    "Ġemail": 19072,
    "pendicular": 6499,
    "sutherland": 21061,
    "Ġannum": 24203,
    "Ġinsurg": 23679,
    "poles": 16208,
    "Ġhinges": 15211,
    "cast": 2927,
    "mut": 17595,
    "Ġrambled": 20167,
    "Ġchased": 8861,
    "Ġengra": 7873,
    "Ġwarnings": 16881,
    "comfortably": 16875,
    "evidently": 20344,
    "Ġslightest": 6092,
    "Ġdestroying": 14728,
    "Ġecc": 11627,
    "drowned": 17368,
    "Ġ16": 7926,
    "Ġit": 339,
    "Ġdesired": 4665,
    "Ġdis": 694,
    ");": 7330,
    "roqu": 21531,
    "Ġlacepede": 20493,
    "desirable": 23204,
    "shut": 10979,
    "Ġsubst": 4274,
    "Ġapology": 8327,
    "Ġwomanly": 23547,
    "Ġdiscu": 4364,
    "has": 4015,
    "resist": 8275,
    "ib": 1234,
    "Ġ112": 24437,
    "Ġtand": 21159,
    "Ġdecaying": 2244,
    "Ġmoonlight": 9957,
    "feed": 9292,
    "compl": 6873,
    "Ġbloody": 9887,
    "rubber": 12806,
    "Ġfad": 17876,
    "Ġwalked": 3138,
    "Ġsurgeon": 8981,
    "pidation": 18896,
    "ruin": 22173,
    "Ġcomplain": 6685,
    "Ġplanisp": 24055,
    "intervals": 10637,
    "ifications": 9728,
    "Ġanswering": 7477,
    "Ġelastic": 4362,
    "Ġprimitive": 25061,
    "Ġdigesting": 19808,
    "reve": 12536,
    "Ġrefuge": 8539,
    "alog": 8804,
    "Ġaccent": 10293,
    "Ġdriver": 16472,
    "Ġholy": 6591,
    "angs": 5834,
    "sales": 17667,
    "resolution": 17766,
    "Ġlies": 5295,
    "Ġrival": 10485,
    "Ġsolemn": 4101,
    "Ġneutral": 12741,
    "Ġhailed": 6407,
    "Ġvirtual": 11239,
    "oyed": 14365,
    "Ġwhence": 5839,
    "Ġbrotherhood": 23669,
    "Ġwhispering": 14944,
    "Ġsongs": 13419,
    "Ġbegone": 11914,
    "Ġzero": 1202,
    "prevent": 11793,
    "Ġhooded": 12404,
    "Ġender": 11688,
    "Ġwer": 12549,
    "Ġanteced": 26177,
    "Ġfull": 2175,
    "Ġsqueaking": 26274,
    "Ġsubset": 9869,
    "Ġfirmament": 19469,
    "Ġconfining": 23305,
    "Ġpequod": 2319,
    "Ġquantization": 19853,
    "Ġwanting": 6721,
    "Ġscalable": 1554,
    "kl": 4865,
    "ivance": 22077,
    "Ġcurves": 18855,
    "to": 714,
    "uff": 2733,
    "Ġharpo": 1938,
    "Ġparameter": 889,
    "Ġincredulous": 9986,
    "Ġforbade": 15213,
    "Ġdepress": 14047,
    "Ġfidget": 15188,
    "Ġassembly": 10642,
    "Ġscaffold": 18400,
    "Ġadmitting": 19182,
    "ishnoo": 10955,
    "Ġsuccess": 3612,
    "84": 15300,
    "liberal": 26281,
    "Ġribbons": 24329,
    "Ġdiverged": 23593,
    "Ġsurveying": 25325,
    "reserved": 13842,
    "Ġreligions": 20106,
    "rospect": 11611,
    "verted": 10217,
    "Ġinterview": 9769,
    "Ġindies": 22948,
    "illar": 5101,
    "Ġpuzzling": 14897,
    "Ġlaughing": 5338,
    "Ġlinear": 3430,
    "motives": 26137,
    "quent": 2095,
    "Ġenthusiastic": 19964,
    "ò": 179,
    "quake": 11679,
    "Ġrealism": 18983,
    "Ġunful": 22006,
    "Ġstress": 18069,
    "Ġwalled": 15533,
    "ville": 6087,
    "Ġreverber": 19868,
    "ability": 717,
    "Ġsailors": 4277,
    "Ġdisputing": 25824,
    "Ġsurviving": 24637,
    "Ġefforts": 11799,
    "imen": 12683,
    "Ġensuring": 11191,
    "Ġpince": 21468,
    "}": 97,
    "alleled": 14428,
    "backs": 9390,
    "Ġruled": 22783,
    "stirred": 20423,
    "Ġdelicacy": 6340,
    "circumstance": 7763,
    "chance": 6827,
    "Ġtarts": 10753,
    "Ġshade": 6550,
    "pair": 21011,
    "itching": 21333,
    "Ġsteals": 23081,
    "lord": 3864,
    "Ġappears": 5402,
    "Ġwherever": 8523,
    "Ġabide": 14187,
    "Ġconfl": 11137,
    "ail": 565,
    "Ġdisput": 14255,
    "notches": 22749,
    "Ġserpent": 6737,
    "ob": 1418,
    "Ġrow": 5309,
    "unknown": 10890,
    "Ġow": 8407,
    "acing": 2720,
    "ush": 3635,
    "inal": 15479,
    "Ġemble": 13970,
    "Ġwhat": 601,
    "Ġcanallers": 13626,
    "Ġexploring": 4306,
    "narwhale": 17317,
    "Ġtop": 2465,
    "geneva": 13729,
    "Ġraft": 16115,
    "reply": 19721,
    "buck": 17490,
    "itely": 5365,
    "Ġerudite": 26350,
    "ptember": 10893,
    "Ġdrowsy": 26444,
    "Ġunc": 2125,
    "Ġcheshire": 13088,
    "Ġgeneva": 5450,
    "Ġcondense": 21805,
    "urg": 8141,
    "Ġbrief": 6976,
    "Ġidentified": 19150,
    "Ġhatchway": 13524,
    "mention": 7215,
    "Ġmystery": 5509,
    "Ġglobular": 19009,
    "Ġdefects": 12331,
    "Ġraising": 8909,
    "brushing": 20787,
    "varied": 23182,
    "ay": 354,
    "Ġcompatibility": 2957,
    "Ġpredicting": 2409,
    "Ġbenjamin": 26567,
    "Ġcrav": 19172,
    "Ġbold": 5291,
    "oters": 21796,
    "Ġregarded": 5762,
    "Ġvoluntary": 14798,
    "ison": 3072,
    "Ġwriter": 11943,
    "arded": 5029,
    "Ġhelmsman": 10504,
    "fatal": 17088,
    "mechan": 11855,
    "Ġwisdom": 11233,
    "Ġbowl": 11203,
    "city": 15326,
    "Ġesc": 2249,
    "Ġnightmare": 18919,
    "Ġoffers": 12943,
    "fairly": 17219,
    "Ġcandelab": 23846,
    "blast": 9587,
    "Ġdisposition": 5409,
    "sings": 4252,
    "Ġexc": 1834,
    "Ġkith": 22189,
    "Ġdespond": 14667,
    "emptied": 23634,
    "Ġ103": 24411,
    "Ġchronicled": 25328,
    "dinah": 20079,
    "Ġandes": 12638,
    "'(": 2976,
    "sunlight": 24851,
    "Ġblue": 3452,
    "Ġlower": 2663,
    "Ġflorid": 17135,
    "Ġdispel": 16596,
    "lead": 10165,
    "Ġezekiel": 26192,
    "Ġdiscriminator": 3389,
    "vice": 15448,
    "azed": 9398,
    "Ġinvoluntary": 18763,
    "Ġeveryone": 8917,
    "Ġrelaxed": 12981,
    "Ġphilosophy": 7103,
    "Ġsomewhat": 4897,
    "stained": 21652,
    "Ġviolin": 16427,
    "pl": 403,
    "Ġyour": 633,
    "ditch": 17528,
    "vain": 15446,
    "classification": 4388,
    "Ġdiscussion": 17194,
    "Ġspl": 2981,
    "friends": 8305,
    "Ġunjustly": 17126,
    "Ġcaged": 21350,
    "beating": 22486,
    "pits": 15411,
    "others": 7669,
    "Ġromish": 19583,
    "vac": 15449,
    "gr": 2087,
    "Ġnovels": 15927,
    "Ġpanelled": 19653,
    "domestic": 19824,
    "Ġpel": 17902,
    "ator": 1920,
    "cary": 10689,
    "Ġwaiting": 4324,
    "Ġfertile": 20581,
    "marching": 25752,
    "caut": 20811,
    "Ġtwig": 11848,
    "Ġinform": 997,
    "caus": 11476,
    "complained": 25838,
    "countenance": 6925,
    "Ġbehave": 23297,
    "Ġcab": 2630,
    "augh": 1782,
    "Ġdiameter": 19866,
    "_.âĢĿ": 5885,
    "ĠÂ£": 5006,
    "Ġmulti": 1043,
    "confess": 12173,
    "Ġone": 570,
    "surrounded": 26088,
    "Ġstrangled": 24134,
    "Ġvivacious": 19814,
    "racing": 21628,
    "Ġfunction": 584,
    "Ġduration": 20352,
    "Ġnews": 3818,
    "Ġincognita": 26551,
    "dham": 20829,
    "rayed": 23559,
    "Ġhogshead": 26367,
    "Ġiii": 7860,
    "Ġmanners": 3790,
    "mouth": 9130,
    "gor": 544,
    "Ġthrusting": 10552,
    "hide": 10703,
    "Ġtobacco": 8366,
    "erate": 7149,
    "Ġcruc": 16534,
    "Ġventure": 7739,
    "Ġsailing": 5323,
    "Ġtending": 17724,
    "Ġacquiring": 2768,
    "isome": 17848,
    "?--": 15302,
    "^": 66,
    "oping": 5559,
    "Ġlick": 21547,
    "acies": 14276,
    "Ġrespective": 16343,
    "Ġheels": 10850,
    "Ġcircumstance": 4987,
    "residual": 19261,
    "somewhere": 12011,
    "Ġstony": 21739,
    "Ġconv": 2967,
    "Ġrespectable": 6736,
    "Ġbrine": 18768,
    "Ġjumping": 13340,
    "confused": 19643,
    "Ġmyself": 1454,
    "cream": 15330,
    "30": 20753,
    "blocks": 25517,
    "success": 6710,
    "Ġsuper": 2153,
    "Ġleave": 2452,
    "Ġnoted": 15828,
    "Ġequival": 4784,
    "Ġbulky": 13228,
    "Ġsurviv": 13434,
    "incidentally": 20538,
    "Ġtests": 8957,
    "Ġpermitting": 22395,
    "Ġv": 399,
    "Ġvomit": 21945,
    "Ġgrizz": 10352,
    "Ġflowers": 8940,
    "train": 2034,
    "soever": 11858,
    "Ġgallant": 8654,
    "Ġuninjured": 22051,
    "levelled": 23642,
    "Ġshabby": 14110,
    "Ġmanagement": 8192,
    "ú": 187,
    "mantel": 26394,
    "Ġzodiac": 16171,
    "Ġeddy": 13122,
    "Ġcringed": 25942,
    "written": 7994,
    "ues": 2081,
    "Ġdangers": 12352,
    "Ġcannib": 6035,
    "Ġgentlemanlike": 12064,
    "Ġsoliloquized": 17301,
    "Ġabiding": 22267,
    "examination": 25478,
    "origin": 7581,
    "speptic": 23943,
    "Ġcontinually": 5041,
    "vict": 11540,
    "Ġfoolishly": 19781,
    "Ġdecomp": 3810,
    "chastic": 2330,
    "Ġens": 2788,
    "Ġvane": 22871,
    "tahit": 17692,
    "Ġfringed": 17272,
    "Ġhil": 10821,
    "heavenly": 20043,
    "Ġprometheus": 15291,
    "trem": 17681,
    "completed": 19992,
    "happening": 16564,
    "Ġ$": 21149,
    "Ġintentions": 10607,
    "Ġbug": 11588,
    "Ġfavoured": 16362,
    "drawers": 19384,
    "Ġchag": 15929,
    "Ġminor": 12965,
    "uture": 1069,
    "Ġridic": 7508,
    "Ġ42": 16678,
    "Ġappal": 18358,
    "Ġhastily": 5763,
    "Ġterritories": 23843,
    "ignity": 4374,
    "uation": 17694,
    "Ġundeviating": 15216,
    "Ġhid": 1320,
    "ashes": 6015,
    "Ġimag": 2676,
    "adjust": 21757,
    "Ġinglorious": 24424,
    "Ġsaville": 15887,
    "itia": 11578,
    "Ġinex": 6528,
    "ac": 741,
    "Ġcolle": 8924,
    "Ġverdict": 13474,
    "Ġpriv": 4182,
    "Ġdeafened": 25651,
    "dered": 2468,
    "terms": 15748,
    "tack": 12510,
    "Ġfeathers": 15118,
    "Ġrigging": 5601,
    "Ġfatal": 5871,
    "Ġincoherent": 17399,
    "Ġplaintiffs": 13608,
    "sustained": 20567,
    "affrail": 11205,
    "ensive": 6279,
    "positive": 20566,
    "Ġcredit": 4818,
    "Ġperfect": 2555,
    "osed": 1958,
    "Ġlaughs": 24117,
    "Ġmiscellaneous": 17462,
    "niece": 20994,
    "understood": 13215,
    "Ġbreak": 2868,
    "Ġcorruption": 15224,
    "Ġimputed": 12805,
    "Ġbreckinridge": 14523,
    "ocratic": 17245,
    "Ġfrightful": 7735,
    "Ġmidst": 7985,
    "Ġhandsomer": 20332,
    "lorious": 17592,
    "Ġdrow": 21424,
    "sleepy": 24729,
    "Ġpleasing": 6190,
    "sed": 4176,
    "Ġmist": 2876,
    "Ġblanched": 26282,
    "Ġexciting": 23312,
    "Ġvenge": 5420,
    "formality": 22212,
    "Ġcanal": 8181,
    "Ġforeseeing": 23449,
    "advantages": 11271,
    "leful": 17842,
    "Ġate": 8839,
    "presently": 9808,
    "Ġsystematically": 3880,
    "Ġ31": 12128,
    "cher": 5786,
    "Ġsharp": 2408,
    "Ġattendant": 11285,
    "regard": 7972,
    "Ġshe": 466,
    "Ġphantoms": 13485,
    "progra": 9394,
    "confid": 14866,
    "Ġsuggests": 12198,
    "Ġfasting": 16354,
    "derness": 11735,
    "Ġsepulchre": 20558,
    "Ġunimportant": 22025,
    "obey": 11509,
    "Ġundergone": 18985,
    "Ġtit": 8398,
    "clear": 9023,
    "Ġgifts": 21609,
    "Ġconstantly": 11971,
    "burnt": 20078,
    "Ġkings": 7197,
    "Ġstrata": 26027,
    "Ġhoof": 23351,
    "Ġinquiring": 8999,
    "Ġshark": 5550,
    "eline": 2299,
    "phenomenon": 17648,
    "Ġloved": 4599,
    "Ġconfeder": 25708,
    "crowd": 25254,
    "Ġdaugh": 2288,
    "Ġappe": 1538,
    "Ġcontinental": 19704,
    "Ġoverladen": 22362,
    "Ġaccurate": 13249,
    "Ġxavier": 2854,
    "Ġthirds": 16708,
    "unken": 10236,
    "occupation": 15056,
    "angel": 5726,
    "Ġmissing": 6175,
    "vult": 21112,
    "Ġlieu": 19563,
    "Ġanswerable": 23469,
    "Ġcranes": 20381,
    "Ġcheek": 8577,
    "Ġtrifling": 10602,
    "infl": 15486,
    "Ġfoiled": 23242,
    "brought": 7285,
    "dwell": 15340,
    "Ġcivility": 4788,
    "õ": 182,
    "Ġtastes": 15476,
    "Ġentra": 18695,
    "Ġslept": 8258,
    "Ġcorrespond": 6209,
    "Ġmanned": 9270,
    "Ġfaint": 5811,
    "Ġfilling": 13407,
    "Ġhookah": 16970,
    "Ġscandinav": 19959,
    "rubbed": 22177,
    "missionary": 24615,
    "Ġcetace": 14987,
    "jerked": 25618,
    "Ġcreates": 2008,
    "clearer": 24067,
    "Ġexpedition": 10633,
    "Ġnib": 13939,
    "bermaid": 20789,
    "Ġencapsulate": 13673,
    "Ġcompromising": 22570,
    "intended": 11066,
    "Ġupset": 22150,
    "Ġmartial": 20290,
    "icuous": 10835,
    "Ġherd": 7887,
    "gazed": 15360,
    "vocation": 25084,
    "Ġhalloa": 13315,
    "Ġtyphoon": 12387,
    "Ġsl": 1497,
    "Ġsnug": 8279,
    "washed": 13043,
    "propriety": 14364,
    "Ġhorsey": 24249,
    "Ġmightier": 18729,
    "Ġdiverse": 19208,
    "yder": 10138,
    "solic": 16378,
    "Ġjagged": 18407,
    "Ġsides": 4579,
    "employed": 17261,
    "inople": 13828,
    "shri": 14234,
    "Ġ87": 19709,
    "¨": 106,
    "imprudent": 14651,
    "estim": 14169,
    "ilet": 12826,
    "Ġdepression": 21838,
    "ersman": 11700,
    "ignominious": 26587,
    "q": 85,
    "esteemed": 26009,
    "Ġprogrammed": 11057,
    "Ġjoosy": 23630,
    "Ġsecre": 5493,
    "Ġfought": 12590,
    "Ġlaborers": 19057,
    "Ġnameless": 7699,
    "Ġentitled": 8538,
    "ishmael": 18420,
    "Ġhoofs": 14527,
    "Ġhandsome": 4906,
    "ustry": 18361,
    "Ġwoven": 9925,
    "bellies": 19972,
    "Ġconversations": 9424,
    "Ġdemo": 10880,
    "Ġ4": 3988,
    "Ġfor": 340,
    "hetic": 12201,
    "Ġlub": 15646,
    "wearing": 22684,
    "Ġash": 4832,
    "Ġsplinters": 15101,
    "Ġsleepers": 13148,
    "Ġrecomm": 4996,
    "Ġfriesland": 26442,
    "substance": 15230,
    "hooked": 23714,
    "Ġcoldly": 14650,
    "marriage": 7744,
    "disinterested": 23499,
    "Ġalternating": 15030,
    "hurt": 19877,
    "Ġsoftness": 18917,
    "Ġcalculus": 23980,
    "Ġsleepy": 8267,
    "pher": 11511,
    "lever": 2931,
    "joke": 20929,
    "encoun": 12296,
    "Ġgrounded": 23710,
    "example": 16011,
    "riot": 18184,
    "ancies": 11583,
    "Ġentering": 6285,
    "Ġfearful": 6197,
    "indispensable": 14209,
    "Ġcontemplate": 19891,
    "Ġsermons": 20193,
    "extreme": 11029,
    "Ġhearses": 20058,
    "axing": 18547,
    "custom": 15332,
    "Ġimportant": 1119,
    "oking": 4606,
    "powder": 17645,
    "Ġtriangular": 14858,
    "convalescence": 24884,
    "Ġceases": 19312,
    "haul": 14764,
    "Ġvector": 1970,
    "Ġusage": 9729,
    "Ġscroll": 14191,
    "Ġhumour": 7931,
    "jointed": 24007,
    "without": 4846,
    "Ġvan": 1089,
    "Ġsucceed": 4545,
    "found": 4214,
    "Ġcalls": 6744,
    "ibly": 2993,
    "Ġfriendly": 9819,
    "appalled": 18760,
    "Ġsoda": 25534,
    "Ġwounds": 17790,
    "addition": 13383,
    "Ġengineering": 3022,
    "fa": 7336,
    "Ġcow": 13875,
    "rivial": 9433,
    "worthy": 7732,
    "Ġbanqu": 12585,
    "Ġphr": 2682,
    "Ġrounds": 18884,
    "Ġboom": 9309,
    "fow": 20852,
    "tuning": 1583,
    "Ġlessons": 7691,
    "Ġusing": 707,
    "Ġsuff": 1305,
    "orange": 21398,
    "Ġchips": 14181,
    "Ġaltern": 7394,
    "ifully": 13185,
    "pacific": 17641,
    "lungs": 26135,
    "greenland": 10020,
    "sch": 21049,
    "ipagos": 22356,
    "Ġmosses": 20162,
    "ai": 2525,
    "Ĺ": 250,
    "asc": 6386,
    "drop": 15336,
    "Ġdevilish": 11228,
    "Ġartful": 22608,
    "Ġhose": 12624,
    "Ġpouring": 12621,
    "Ġprevents": 2556,
    "Ġsurvivor": 17362,
    "ior": 2039,
    "Ġnoblest": 13241,
    "inquire": 16932,
    "Ġcursed": 6729,
    "Ġnin": 10187,
    "Ġmonarchs": 25849,
    "Ġpangs": 15612,
    "Ġneatly": 17016,
    "Ġexcite": 11964,
    "atmospheric": 17776,
    "ned": 3492,
    "Ġquit": 5245,
    "Ġshaggy": 13569,
    "Ġswamp": 14435,
    "Ġinstructive": 19285,
    "Ġsiam": 13837,
    "cele": 21622,
    "Ġcigarette": 20655,
    "Ġhaste": 9003,
    "suit": 18631,
    "roof": 17953,
    "conjectured": 25181,
    "Ġintegrity": 12311,
    "Ġeyes": 1334,
    "Ġblanche": 18819,
    "Ġintimidated": 24805,
    "Ġconqueror": 25796,
    "Ġstump": 7605,
    "Ġpapered": 20129,
    "hampshire": 23261,
    "Ġinhabited": 12183,
    "Ġerect": 6143,
    "Ġpenetrate": 12267,
    "produced": 25414,
    "Ġbullion": 24983,
    "Ġfra": 1832,
    "Ġcan": 469,
    "reen": 21230,
    "Ö": 151,
    "Ġpainfully": 13140,
    "Ġmomentous": 16168,
    "Ġdecapitated": 20614,
    "puzzling": 26143,
    "Ġjoky": 18406,
    "tipt": 25083,
    "Ġpredefined": 20717,
    "however": 4373,
    "uel": 6966,
    "Ġmuslin": 19381,
    "Ġaccustomed": 6861,
    "Ġpriests": 15040,
    "crated": 16696,
    "Ġextending": 11021,
    "Ġinput": 608,
    "straight": 9939,
    "imag": 6990,
    "Ġvanished": 6874,
    "garnished": 26388,
    "Â": 131,
    "Ġneeded": 7717,
    "Ġinclu": 1101,
    "inspector": 13645,
    "Ġpart": 860,
    "protest": 24815,
    "Ġconceal": 5973,
    "Ġent": 902,
    "pleasantness": 19769,
    "Ġghosts": 12230,
    "aste": 4601,
    "Ġclothe": 4712,
    "Ġaids": 12226,
    "Ġendless": 7053,
    "ague": 3907,
    "pyramid": 21029,
    "Ġduplicate": 17215,
    "Ġnatures": 16505,
    "Ġwick": 2004,
    "ernally": 22616,
    "Ġquenched": 22414,
    "Ġfug": 12592,
    "Ġtechnical": 17191,
    "Ġintelligences": 12828,
    "Ġliver": 14227,
    "Ġoverfitting": 1540,
    "tailed": 17685,
    "Ġsucceeding": 16761,
    "purposes": 25021,
    "Ġpython": 1067,
    "Ġcondem": 6338,
    ".;": 20743,
    "Ġdecipher": 22457,
    "Ġrequested": 14308,
    "otics": 10223,
    "observing": 25494,
    "Ġcleanse": 24527,
    "Ġthreatening": 16828,
    "prophet": 16178,
    "ans": 458,
    "ousand": 2423,
    "neurons": 3132,
    "Ġgrasp": 4664,
    "Ġcontrad": 9754,
    "Ġupd": 946,
    "Ġscandal": 9081,
    "adventures": 20255,
    "Ġvault": 8840,
    "blazing": 24132,
    "Ġthursday": 12641,
    "Ġinjection": 3467,
    "immediate": 20092,
    "Ġsayest": 22773,
    "Ġshudder": 9050,
    "forget": 11032,
    "llable": 6879,
    "Ġmeekly": 26490,
    "Ġlivid": 14988,
    "attempted": 20173,
    "Ġlouder": 13467,
    "inst": 4296,
    "Ġamusing": 11798,
    "olstadt": 7788,
    "Ġ_": 842,
    "Ġadmon": 15866,
    "shooting": 16965,
    "Ġsentin": 16373,
    "Ġlighter": 12650,
    "Ġstigma": 25791,
    "pondicherry": 26400,
    "Ġ6": 5141,
    "Ġcounsell": 25384,
    "moonlight": 25375,
    "leagues": 21371,
    "ort": 523,
    "looking": 4035,
    "ellest": 21571,
    "gaze": 17557,
    "Ġadded": 2719,
    "throughout": 24086,
    "Ġobtained": 7432,
    "Ġmonument": 16236,
    "Ġgladness": 16591,
    "Ġarriving": 19216,
    "Ġaffectionate": 5584,
    "atered": 22069,
    "Ġrestraint": 15126,
    "ropes": 7902,
    "Ġviol": 2073,
    "persecut": 22186,
    "isl": 21373,
    "mology": 12489,
    "Ġexhib": 6349,
    "itig": 1331,
    "eyed": 11486,
    "ause": 1314,
    "seventh": 12711,
    "scenes": 16240,
    "Ġremorseless": 13450,
    "Ġleviathanic": 12078,
    "Ġislets": 21798,
    "moreover": 12966,
    "Û": 156,
    "crews": 15042,
    "usation": 18401,
    "Ġtobacc": 7852,
    "Ġsabbee": 17255,
    "furnished": 20240,
    "Ġethiopian": 26613,
    "derbyshire": 18322,
    "commanding": 24752,
    "Ġpromptly": 23815,
    "Ġmovement": 9967,
    "Ġoutputs": 2885,
    "Ġdominic": 25381,
    "Ġcler": 11768,
    "Ġtranslation": 3084,
    "Ġdeclares": 16992,
    "emy": 14072,
    "Ġguns": 16776,
    "Ġbeth": 9657,
    "published": 26142,
    "opinion": 10984,
    "Ġsuperb": 16444,
    "Ġblacksmith": 6595,
    "Ġdaunt": 19663,
    "Ġcon": 349,
    "Ġmomentary": 11035,
    "dock": 16417,
    "vers": 1327,
    "ental": 7168,
    "ploy": 2109,
    "slide": 24556,
    "Ġprodigies": 19792,
    "politeness": 16906,
    "prob": 7069,
    "Ġinjustice": 9190,
    "Ġbrawn": 10481,
    "Ġrate": 1063,
    "cd": 15322,
    "ĠâĢĻ": 3040,
    "welt": 12518,
    "rily": 7621,
    "Ġcassock": 20485,
    "merry": 16536,
    "Ġsizes": 1520,
    "Ġexerting": 21829,
    "Ġappetite": 12382,
    "Ġcharming": 6628,
    "Ġpiteous": 17915,
    "Ġindel": 13001,
    "friend": 3862,
    "Ġtore": 6530,
    "delay": 16698,
    "Ġpulpit": 7470,
    "Ġreaders": 18914,
    "Ġrustic": 14964,
    "european": 26371,
    "Ġlin": 10833,
    "Ġfixed": 2686,
    "Ġburly": 19249,
    "cial": 2648,
    "¢": 100,
    "Ġthreaten": 24374,
    "Ġmoney": 3415,
    "Ġseen": 1365,
    "rians": 21927,
    "Ġcomes": 3420,
    "Ġhears": 8138,
    "Ġvalue": 2086,
    "Ġpers": 1383,
    "Ġ132": 19895,
    "cavity": 26126,
    "Ġarches": 14160,
    "Ġcapital": 7979,
    "Ġbachelor": 7786,
    "Ġalbert": 12703,
    "Ġlustre": 15133,
    "Ġimperson": 14219,
    "Ġbow": 3058,
    "eastern": 17533,
    "Ġagainst": 1697,
    "kee": 18273,
    "Ġsewing": 21951,
    "rudently": 16710,
    "Ġappeared": 2776,
    "Ġmeantime": 6206,
    "Ġgaped": 13966,
    "Ġenveloping": 19733,
    "Ġtrunk": 7205,
    "Ġundulations": 19514,
    "Ġreally": 2158,
    "Ġvinegar": 20098,
    "devils": 20031,
    "Ġstrangest": 14795,
    "Ġfut": 15572,
    "mph": 20971,
    "oles": 21004,
    "onel": 3087,
    "meaning": 2906,
    "readiness": 19361,
    "Ġcentrally": 23829,
    "prepar": 22463,
    "Ġturbid": 23610,
    "sweeping": 24618,
    "Ġpolice": 4675,
    "Ġremoter": 20104,
    "waited": 24585,
    "Ġoarsman": 8637,
    "Ġalgorithm": 769,
    "Ġ106": 24414,
    "breadth": 20275,
    "Ġresounded": 22541,
    "Ġintegrated": 13530,
    "Ġgle": 7858,
    "Ġconvul": 13202,
    "Ġlengthened": 25958,
    "Ġoccurs": 1858,
    "depth": 12797,
    "hist": 7130,
    "Ġabsurdly": 19958,
    "Ġsteal": 16282,
    "Ġirreparable": 19997,
    "Ġgrind": 18734,
    "Ġreciprocating": 26369,
    "Ġneighbour": 3807,
    "Ġbook": 2704,
    "Ġelbow": 12918,
    "dl": 20822,
    "Ġgulp": 20027,
    "Ġmathemat": 3199,
    "Ġsavag": 19372,
    "Ġstraighten": 24001,
    "Ġforeshadowing": 26592,
    "heum": 17747,
    "hopper": 23713,
    "Ġoutrid": 22312,
    "Ġsteady": 4847,
    "inery": 17733,
    "Ġcultivated": 17363,
    "oda": 15747,
    "carb": 20809,
    "¦": 104,
    "------": 12131,
    "glorious": 19365,
    "Ġnam": 17948,
    "Ġyankees": 26201,
    "drifting": 19823,
    "Ġstates": 1853,
    "Ġindomitableness": 26571,
    "Ġprofundity": 20451,
    "iality": 8843,
    "Ġwhales": 1828,
    "iastic": 12477,
    "clothes": 9057,
    "castles": 14636,
    "remental": 21246,
    "Ġmutual": 8296,
    "Ġswiss": 18881,
    "osy": 11756,
    "Ġaslant": 21898,
    "lotte": 3330,
    "clut": 23148,
    "cab": 7333,
    "Ġride": 12755,
    "Ġchimney": 6497,
    "Ġresemblance": 7978,
    "Ġantiqu": 12142,
    "Ġcaptain": 1605,
    "Ġsaratoga": 26423,
    "Ġsanta": 26420,
    "Ġheavier": 13101,
    "Ġawa": 7713,
    "arrange": 23764,
    "Ġaristocratic": 20510,
    "Ġbreaks": 13184,
    "magnificent": 20273,
    "rep": 5525,
    "Ġbaling": 17859,
    "Ġreported": 11978,
    "Ġallusions": 10906,
    "station": 10844,
    "omb": 10205,
    "princ": 8620,
    "contr": 12055,
    "Ġvictoria": 14872,
    "cred": 9107,
    "Ġsuicide": 12786,
    "Ġpeculiarity": 12930,
    "uger": 21102,
    "Ġirene": 8443,
    "Ġriot": 14688,
    "Ġwoodlands": 23518,
    "weep": 22681,
    "Ġbumps": 21390,
    "Ġcitizens": 25439,
    "mortar": 25408,
    "puted": 8845,
    "Ġhills": 6527,
    "Ġcompletion": 12145,
    "Ġchuck": 8501,
    "repent": 15512,
    "heric": 15909,
    "Ġconvent": 11667,
    "Ġmajority": 13291,
    "Ġprincely": 24148,
    "Ġmortar": 19391,
    "Ġgam": 11623,
    "ĠcÃ¦": 15552,
    "Ġhunks": 18935,
    "Ġjonas": 20608,
    "Ġpunct": 8660,
    "constit": 24604,
    "ports": 13773,
    "Ġstore": 8453,
    "apparatus": 26563,
    "Ġdimmed": 24267,
    "considerably": 13444,
    "small": 6472,
    "Ġforebodings": 17303,
    "Ġcuvier": 9165,
    "Ġpew": 9314,
    "Ġbaff": 10799,
    "Ġpe": 853,
    "Ġstaid": 21735,
    "Ġwhiteness": 5918,
    "iza": 6255,
    "Ġdisputes": 25825,
    "Ġadmire": 5263,
    "Ġsom": 1277,
    "distinct": 13334,
    "chors": 11643,
    "Ġtents": 13817,
    "eling": 6681,
    "Ġexaggerate": 25649,
    "Ġlabyrin": 13103,
    "Ġfangs": 12594,
    "attention": 2111,
    "uing": 17693,
    "Ġadult": 18289,
    "Ġsalted": 14755,
    "late": 11498,
    "verest": 13990,
    "poss": 4778,
    "heavy": 10574,
    "yp": 1044,
    "Ġprophecy": 25706,
    "Ġunabated": 15850,
    "Ġbuild": 6474,
    "Ġcranial": 25592,
    "Ġterminated": 23507,
    "Ġallowing": 2172,
    "theories": 18078,
    "Ġbetter": 1173,
    "Ġsmiting": 12895,
    "Ġtickled": 20055,
    "Ġmention": 2983,
    "Ġequilibrium": 4141,
    "Ġlob": 7627,
    "Ġmuffled": 10640,
    "urities": 18049,
    "Ġroast": 18456,
    "Ġprophetic": 20018,
    "boo": 16349,
    "Ġchamp": 18381,
    "tram": 19634,
    "Ġfish": 2713,
    "ook": 21003,
    "Ġtopsails": 19192,
    "alling": 6036,
    "contriv": 19292,
    "Ġchivalrous": 20513,
    "brous": 19197,
    "M": 49,
    "Ġcoaxing": 18594,
    "Ġenlightened": 12743,
    "cond": 1667,
    "Ġalps": 10870,
    "Ġbrightened": 23826,
    "Ġconnection": 5479,
    "Ġbiological": 1929,
    "blue": 13692,
    "conveyed": 20519,
    "objection": 19914,
    "Ġblush": 14401,
    "private": 13581,
    "Ġcomprised": 14267,
    "disciple": 16778,
    "Ġvenom": 24238,
    "Ġstays": 16561,
    "aying": 15746,
    "Ġfixing": 13155,
    "she": 1396,
    "Ġexclude": 19043,
    "Ġabsurd": 7202,
    "Ġslugg": 15267,
    "Ġfatigued": 13464,
    "watches": 14946,
    "Ġhey": 11640,
    "Ġcor": 1323,
    "Ġprovoked": 13324,
    "Ġmuscles": 12086,
    "robber": 21534,
    "Ġstead": 5650,
    "Ġdined": 9176,
    "Ġhero": 5715,
    "Ġbra": 3253,
    "Ġaudible": 19880,
    "Ġswandam": 11088,
    "Ġmiscell": 16147,
    "]": 65,
    "ersed": 10259,
    "tossing": 18580,
    "oboam": 9357,
    "big": 13684,
    "Ġnapoleons": 25885,
    "Ġcol": 1060,
    "Ġunlike": 7004,
    "enges": 13051,
    "gloomy": 25144,
    "zetts": 17714,
    "Ġhim": 475,
    "commence": 19990,
    "Ġhuge": 4700,
    "Ġsadly": 7302,
    "Ġremnants": 22790,
    "Ġlikewise": 5386,
    "travellers": 24318,
    "ertips": 23638,
    "combe": 7661,
    "Ġtiller": 8965,
    "contact": 23726,
    "lipped": 16216,
    "Ġatrocious": 21940,
    "Ġstealing": 18893,
    "Ġfreedom": 9082,
    "miles": 10712,
    "Ġneglected": 10377,
    "i": 77,
    "Ġcastle": 14716,
    "Ġhistories": 14687,
    "decl": 8856,
    "arned": 21814,
    "infer": 10144,
    "traversed": 19638,
    "Ġluckily": 16798,
    "claim": 9834,
    "sequently": 14581,
    "aching": 5831,
    "Ġimperilled": 19577,
    "struck": 7861,
    "isle": 13891,
    "phia": 22760,
    "mary": 8748,
    "Ġconversing": 14633,
    "Ġalms": 21777,
    "Ġamput": 16032,
    "desolate": 25703,
    "Ġappear": 2482,
    "Ġconditions": 8306,
    "Ġfrantic": 7956,
    "Ġbrows": 13299,
    "otted": 14023,
    "purse": 20023,
    "Ġdiligently": 11405,
    "Ġenemies": 9038,
    "Ġgeorgia": 23884,
    "adam": 15727,
    "conject": 8879,
    "Ġsettlement": 19835,
    "Ġchrysalis": 26538,
    "gon": 17552,
    "Ġhanover": 20584,
    "Ġwhelmed": 25999,
    "Ġneedles": 11184,
    "increasing": 20268,
    "Ġfergus": 16867,
    "german": 11491,
    "Ġdisconsol": 18557,
    "ails": 6160,
    "Ġgenerations": 10966,
    "Ġhappiest": 11880,
    "Ġscript": 18398,
    "Ġashen": 21896,
    "estinated": 15919,
    "Ġaberdeen": 26541,
    "Ġtouches": 20569,
    "Ġunusually": 15844,
    "Ġpapers": 4023,
    "Ġinterval": 4055,
    "Ġdetestable": 15097,
    "Ġnortheast": 23199,
    "Ġprouder": 18972,
    "geese": 22364,
    "Ġirre": 7468,
    "Ġinducement": 16843,
    "enced": 4297,
    "fashion": 8080,
    "drown": 13703,
    "Ġarrangements": 16514,
    "Ġpuzzled": 7317,
    "tal": 17670,
    "Ġglue": 15671,
    "enes": 5218,
    "Ġsmoke": 4715,
    "Ġpages": 15605,
    "unconquerable": 21888,
    "intentions": 22936,
    "neighbouring": 19962,
    "Ġpublicly": 13321,
    "Ġimputable": 22170,
    "Ġheathen": 10565,
    "Ġdistribut": 844,
    "Ġtrowsers": 9627,
    "Ġpanther": 16819,
    "etween": 775,
    "Ġabrid": 22269,
    "finish": 24384,
    "coburg": 13597,
    "Ġworkflow": 2644,
    "Ġrevolt": 24504,
    "Ġrope": 4339,
    "S": 55,
    "Ġoverseeing": 22360,
    "enesis": 24388,
    "Ġpost": 4273,
    "Ġforgive": 8009,
    "draul": 9442,
    "Ġthomson": 26454,
    "opposition": 24823,
    "Ġasp": 15778,
    "Ġembra": 6579,
    "Ġinexper": 16980,
    "occurred": 13336,
    "Ġstriding": 16091,
    "Ġcharger": 19004,
    "Ġunfl": 22015,
    "Ġrome": 12153,
    "Ġsnar": 13199,
    "invol": 12527,
    "Ġapproximation": 2337,
    "Ġperilous": 7768,
    "Ġapprehending": 26090,
    "Ġmagnus": 18956,
    "arched": 10815,
    "clay": 18930,
    "Ġglacier": 11433,
    "call": 8722,
    "Ġpassengers": 13674,
    "Ġexpected": 3698,
    "Ġsixteen": 8282,
    "Ġexertion": 8053,
    "Ġfejee": 18354,
    "Ġgriff": 22803,
    "flowing": 14583,
    "Ġexponential": 1058,
    "Ġproblems": 2848,
    "Ġsteed": 13038,
    "entions": 17974,
    "quimaux": 21856,
    "Ġglad": 3325,
    "Ġmuttering": 10499,
    "Ġaghast": 16045,
    "Ġpow": 4638,
    "Ġobeying": 13413,
    "Ġthrusts": 24350,
    "rically": 15416,
    "Ġalbino": 20501,
    "Ġanalogy": 25639,
    "vocabulary": 25085,
    "Ġgrip": 11626,
    "Ġbeginning": 4244,
    "Ġinfrequent": 3823,
    "Ġpennies": 17270,
    "conce": 8510,
    "oug": 434,
    "Ġtempt": 5565,
    "Ġxii": 11989,
    "Ġdictated": 25218,
    "Ġpenal": 1773,
    "Ġbottom": 3676,
    "Ġgleams": 17309,
    "lilies": 20960,
    "Ġfrenchman": 11283,
    "Ġtemptation": 8677,
    "Ġportrait": 10661,
    "Ġemploy": 3617,
    "Ġfri": 17878,
    "Ġthem": 642,
    "Ġbusied": 19064,
    "Ġpurchases": 24756,
    "Ġbowels": 9429,
    "Ġfrigates": 25707,
    "Ġital": 10866,
    "unteered": 26495,
    "Ġenergy": 2551,
    "Ġmaps": 2961,
    "Ġtelegraph": 25583,
    "Ġperceive": 6699,
    "Ġsang": 12532,
    "Ġincline": 18570,
    "wondered": 17029,
    "Ġslighted": 16567,
    "Ġglued": 20587,
    "Ġexchanged": 10878,
    "Ġloveliest": 20260,
    "ging": 2598,
    "yea": 23084,
    "Ġheavily": 6740,
    "aggo": 5097,
    "ulations": 6028,
    "//": 11463,
    "Ġspe": 822,
    "Ġmoulded": 16975,
    "Ġcrews": 8990,
    "thousand": 5547,
    "omon": 10206,
    "enough": 6809,
    "etts": 12657,
    "Ġosc": 2834,
    "Ġcongregation": 12327,
    "estation": 15918,
    "Ġknowest": 12860,
    "olera": 21830,
    "fl": 3602,
    "Ġsmokes": 22556,
    "Ġfossils": 20221,
    "Ġcheer": 4069,
    "Ġrefers": 1565,
    "Ġwrenched": 12555,
    "Ġaquiline": 26159,
    "le": 279,
    "Ġintrepid": 11703,
    "inkles": 7426,
    "Ġaverred": 18864,
    "anke": 15558,
    "menced": 23141,
    "Ġshiver": 12764,
    "Ġdoubt": 2221,
    "Ġperpendicular": 7209,
    "Ġsurprise": 3828,
    "Ġfacts": 2284,
    "ivided": 22080,
    "Ġgrudge": 20692,
    "share": 14235,
    "Ġbro": 1428,
    "Ł": 258,
    "Ġthames": 13937,
    "Ġwow": 15527,
    "Ġsine": 10763,
    "cro": 13695,
    "tooth": 18579,
    "reading": 12077,
    "Ġforeign": 9871,
    "6": 26,
    "Ġflu": 3277,
    "12": 20748,
    "Ġundet": 16704,
    "Ġepoch": 26471,
    "Ġrules": 1916,
    "Ġexpose": 10327,
    "poky": 17644,
    "slave": 16895,
    "stump": 21650,
    "Ġceasing": 23755,
    "Ġramble": 9312,
    "build": 12185,
    "Ġsplend": 9897,
    "loved": 14250,
    "will": 1967,
    "ece": 17531,
    "gle": 20868,
    "accessory": 25499,
    "solution": 14686,
    "Ġvilest": 20099,
    "Ġyards": 5371,
    "Ġburtons": 19252,
    "Ġhomeless": 23385,
    "Ġforthwith": 16618,
    "perceive": 12809,
    "âĢľ": 344,
    "Ġproperly": 7944,
    "irene": 15914,
    "Ġdevelop": 1651,
    "heaving": 21206,
    "Ġdairy": 20685,
    "Ġboldness": 24428,
    "commotion": 24913,
    "Ġtraverse": 18890,
    "increase": 20267,
    "Ġwithout": 1118,
    "Ġpride": 3822,
    "Ġcre": 887,
    "Ġintellig": 527,
    "Ġvessels": 6755,
    "Ġstorm": 4302,
    "Ġadmiring": 16479,
    "Ġhysterical": 26092,
    "spiracle": 22734,
    "Ġtempered": 12920,
    "bery": 9786,
    "Ġmodeling": 2096,
    "billiard": 25334,
    "disc": 4729,
    "Ġpreparations": 12308,
    "Ġreinforcement": 3473,
    "Ġminds": 6303,
    "Ġzoology": 22817,
    "Ġretains": 20028,
    "bale": 20773,
    "Ġplough": 18609,
    "Ġenterprise": 8641,
    "oughed": 22085,
    "Ġwednesday": 9024,
    "ultaneously": 4192,
    "Ġaven": 10759,
    "Ġimpenetrable": 17396,
    "Ġunaccount": 22022,
    "Ġfood": 5080,
    "year": 11095,
    "cou": 13694,
    "Ġgardiner": 3236,
    "Ġlagged": 21555,
    "Ġfurnishing": 16645,
    "Ġmin": 1026,
    "history": 15014,
    "proportions": 22832,
    "Ġmr": 661,
    "ral": 4628,
    "though": 2117,
    "Ġattachment": 6049,
    "turtle": 12209,
    "Ġwestern": 10654,
    "Ġmeasurement": 19421,
    "ientific": 6547,
    "inces": 13827,
    "Ġblossom": 26312,
    "Ġrode": 15996,
    "local": 22507,
    "Ġawkward": 7073,
    "Ġnicely": 8708,
    "putation": 7624,
    "connection": 18867,
    "Ġromantic": 8030,
    "Ġbarrel": 23790,
    "regret": 16450,
    "edged": 15628,
    "Ġexecuted": 9471,
    "ordered": 8789,
    "Ġreproach": 9556,
    "emorial": 10241,
    "avery": 13682,
    "taking": 5689,
    "igation": 5917,
    "Ġphilist": 16601,
    "Ġwholly": 4447,
    "Ġquarrelling": 13498,
    "Ġowners": 7662,
    "Ġ120": 16858,
    "Ġlod": 4044,
    "Ġsuggestion": 19706,
    "grounds": 11151,
    "ruct": 686,
    "takes": 21074,
    "attering": 7417,
    "murderers": 25728,
    "belonged": 25597,
    "Ġacquiesced": 25493,
    "falling": 24361,
    "gained": 20880,
    "Ġreigning": 15698,
    "Ġbagging": 24539,
    "toes": 22561,
    "quarter": 11388,
    "gpt": 5355,
    "Ġwin": 9641,
    "avier": 2830,
    "impatience": 25500,
    "Ġalex": 15132,
    "Ġpossibly": 4514,
    "Ġexclaimed": 4683,
    "Ġparties": 7038,
    "Ġappare": 12813,
    "Ġmedium": 16681,
    "come": 2373,
    "ercely": 12547,
    "Ġflann": 23009,
    "Ġcarved": 7946,
    "Ġbanks": 6814,
    "Ġnice": 6676,
    "Ġidiot": 11970,
    "four": 6113,
    "Ġlittle": 866,
    "ction": 499,
    "Ġproportions": 16466,
    "grew": 17555,
    "Ġabout": 632,
    "reme": 2418,
    "unte": 21870,
    "wholly": 10941,
    "nearer": 22461,
    "malicious": 19901,
    "Ġplayers": 12036,
    "Ġmathematics": 12071,
    "Ġflinging": 13584,
    "enter": 7857,
    "Ġawaiting": 11390,
    "ounted": 5030,
    "Ġbrighton": 6470,
    "Ġinduce": 7762,
    "Ġsky": 3971,
    "educ": 10828,
    "Ġrare": 7036,
    "Ġshift": 2278,
    "Ġtamely": 24977,
    "exagger": 22425,
    "mine": 5618,
    "Ġcrop": 10162,
    "Ġbattered": 17862,
    "Ġdarling": 12601,
    "Ġbrutality": 26276,
    "Ġducks": 25157,
    "seemingly": 25362,
    "Ġtopic": 9405,
    "Ġjo": 2606,
    "Ġperception": 9749,
    "Ġunseen": 3526,
    "Ġdisguises": 25055,
    "kish": 20933,
    "contempl": 13190,
    "Ġexam": 3712,
    "Ġnational": 13941,
    "Ġfacility": 19849,
    "Ġcott": 3710,
    "deploy": 22140,
    "Ġdeliberation": 19967,
    "Ġinhabit": 5782,
    "Ġconsecrated": 26488,
    "rance": 5993,
    "Ġattent": 4361,
    "Ġthirdly": 24143,
    "Ġlament": 7856,
    "Ġcompensated": 17400,
    "Ġhedgehogs": 25394,
    "Ġidly": 16402,
    "holmes": 4431,
    "fol": 4862,
    "Ġassembl": 20059,
    "cutting": 23783,
    "Ġoppressive": 20454,
    "onsensical": 18576,
    "Ġlimited": 23541,
    "Ġscope": 15941,
    "bitts": 26122,
    "Ġimmemorial": 10510,
    "Ġmead": 8834,
    "Ġyojo": 7610,
    "Ġoutside": 5554,
    "Ġst": 333,
    "Ġmerciless": 25246,
    "alluring": 18352,
    "Ġdexterity": 25294,
    "Ġfruit": 12324,
    "Ġprecisely": 6466,
    "ashion": 3857,
    "Ġunthink": 18247,
    "Ġparagra": 15877,
    "arity": 1303,
    "Ġpraised": 19552,
    "Ġprivate": 5345,
    "Ġirretrie": 23372,
    "Ġsurrounded": 5878,
    "Ġ1883": 23894,
    "Ġrecursive": 4782,
    "Ġunsophisticated": 25992,
    "Ġcanst": 8857,
    "lovel": 22508,
    "danced": 20827,
    "separately": 25227,
    "Ġpuppy": 12403,
    "Ġsaf": 4004,
    "Ġcontortions": 18476,
    "Ġconcentration": 25062,
    "seen": 2880,
    "promised": 12249,
    "Ġunderwent": 23236,
    "Ġexamine": 7734,
    "unaccountable": 15776,
    "ered": 1683,
    "î": 175,
    "Ġrushing": 7403,
    "ising": 2251,
    "Ġfools": 14481,
    "aug": 1213,
    "Ġcounting": 13094,
    "Ġintroduced": 7690,
    "Ġtrib": 13818,
    "Ġunsupp": 22016,
    "hung": 8380,
    "antucket": 2642,
    "Ġenlivened": 26207,
    "astrous": 15884,
    "landsmen": 25059,
    "ameter": 2843,
    "pron": 9005,
    "Ġwelfare": 12556,
    "Ġsecrecy": 7316,
    "leep": 4635,
    "wait": 11320,
    "Ġjewell": 19519,
    "Ġomnipotent": 13547,
    "Ġcatastrop": 3346,
    "triumph": 15439,
    "harpooneers": 8689,
    "Ġunsuccessful": 18257,
    "Ġ1869": 19382,
    "agger": 7871,
    "Ġcorporeally": 25729,
    "turner": 19540,
    "Ġsuspending": 19243,
    "Ġbridge": 8348,
    "Ġarri": 2552,
    "ĠĠĠĠĠĠĠĠĠĠĠĠĠĠĠĠĠĠĠĠĠĠĠĠ": 5321,
    "derer": 4600,
    "Ġsheep": 10926,
    "Ġpeaked": 2291,
    "Ġenrapt": 21936,
    "Ġpunishment": 9955,
    "Ġmilk": 6485,
    "Ġtruck": 19510,
    "arris": 13208,
    "Ġredoubled": 23751,
    "Ġstochastic": 3264,
    "snatched": 24850,
    "mate": 5358,
    "mushroom": 26395,
    "Ġgetting": 4068,
    "Ġdoub": 1838,
    "Ġjapan": 7639,
    "Ġlangs": 13953,
    "Ġsprinkled": 19495,
    "Ġsuperfluous": 17413,
    "Ġhandsom": 11124,
    "Ġhercules": 14127,
    "Ġprovide": 7749,
    "Ġdiscoursing": 26266,
    "Ġsufferings": 7513,
    "Ġdrawling": 19435,
    "Ġbreathe": 9011,
    "Ġshocking": 10435,
    ",": 16,
    "ilst": 8143,
    "Ġor": 437,
    "Ġhig": 755,
    "greatest": 10493,
    "Ġunearthly": 9036,
    "Ġlogs": 16345,
    "copy": 5133,
    "Ġremorse": 6441,
    "Ġshook": 4469,
    "Ġembarrassment": 10626,
    "frequented": 25900,
    "Ġloadstone": 25816,
    "cement": 2988,
    "Ġcrawford": 24893,
    "Ġworaciousness": 22926,
    "Ġornam": 15862,
    "coil": 23555,
    "Ġdenominated": 15227,
    "Ġlights": 8960,
    "customary": 25895,
    "sence": 3306,
    "peculiarities": 13470,
    "Ġwages": 13853,
    "Ġdoxology": 22241,
    "england": 18928,
    "end": 502,
    "Ġacquiescence": 20329,
    "felicity": 25140,
    "Ġinterpret": 5490,
    "Ġaddu": 22098,
    "Ġcausal": 3407,
    "Ġinstant": 2706,
    "oder": 2454,
    "Ġwarriors": 19722,
    "loose": 11803,
    "Ġenveloped": 12206,
    "itect": 982,
    "ieties": 19024,
    "Ġdepicting": 22595,
    "Ġpour": 13913,
    "place": 4154,
    "Ġwires": 21294,
    "usiveness": 22290,
    "enary": 12548,
    "Ġscarcely": 4011,
    "Ġconsp": 10225,
    "saw": 5893,
    "Ġrates": 1402,
    "Ġimmeas": 18332,
    "izure": 21831,
    "vision": 5620,
    "Ġapproximate": 2338,
    "Ġexceeding": 1582,
    "anc": 6379,
    "incible": 16496,
    "ĠâĢľâĢĺ": 8503,
    "Ġter": 2050,
    "Ġreputation": 11639,
    "Ġlap": 8436,
    "Ġexhaustion": 14960,
    "tasted": 17687,
    "Ġvigorously": 11299,
    "Ġbowsprit": 16560,
    "abroad": 18108,
    "Ġselection": 18202,
    "wand": 10738,
    "Ġshut": 3944,
    "Ġlesson": 7276,
    "Ġcottagers": 6761,
    "Ġextravagant": 17278,
    "exper": 8878,
    "Ġmans": 15534,
    "Ġangels": 11178,
    "passed": 8025,
    "Ġappeals": 16315,
    "plendent": 21964,
    "Ġgrounds": 6749,
    "rupt": 3208,
    "Ė": 215,
    "connected": 1310,
    "Ġdep": 743,
    "Ġmaiden": 13385,
    "Ġslung": 23165,
    "Ġlengths": 19205,
    "Ġcord": 5222,
    "Ġconjoined": 21803,
    "Ġlonely": 6823,
    "Ġtesting": 23208,
    "sto": 3195,
    "goodbye": 12054,
    "Ġcharles": 11955,
    "noticed": 14342,
    "hastily": 19701,
    "anyone": 16593,
    "Ġdevoured": 16133,
    "metal": 24765,
    "Ġinspired": 2518,
    "Ġmeditate": 16682,
    "Ġbolted": 12242,
    "oct": 7554,
    "Ġshank": 21994,
    "Ġamours": 22478,
    "Ġdesp": 3212,
    "helm": 12169,
    "Ġvict": 3763,
    "unavoidable": 17389,
    "Ġtropical": 17065,
    "problems": 11434,
    "Ġstolen": 14007,
    "Ġnaut": 13940,
    "Ġknight": 9726,
    "sar": 12502,
    "Ġdew": 14044,
    "sion": 8093,
    "Ġfolding": 19726,
    "ppings": 18176,
    "Ġbarrow": 12067,
    "Ġstatue": 23146,
    "Ġplaced": 3442,
    "Ġslouched": 13056,
    "return": 5489,
    "cooee": 12416,
    "Ġclouds": 5775,
    "commodore": 20624,
    "Ġseamen": 5063,
    "Ġpremeditated": 22231,
    "Ġimpressed": 8198,
    "message": 17371,
    "Ġhammock": 5768,
    "angling": 14140,
    "Ġplaited": 14283,
    "Ġfluctuating": 24417,
    "Ġexceptional": 19369,
    "Ġamazement": 7764,
    "sp": 893,
    "Ġspangled": 22132,
    "Ġbled": 17856,
    "Ġtrivial": 10142,
    "Ġunbending": 25464,
    "Ġballarat": 14718,
    "Ġoverhear": 15973,
    "stonecraft": 24356,
    "influ": 9540,
    "³": 116,
    "Ġintroduces": 3268,
    "ore": 418,
    "Ġjoes": 19229,
    "Ġuncle": 3189,
    "oms": 4593,
    "neville": 22462,
    "Ġtriumph": 5143,
    "rey": 12535,
    "embarrassed": 20595,
    "Ġdiscipline": 26561,
    "Ġvariety": 8530,
    "interested": 9505,
    "Ġtearless": 24786,
    "Ġtalent": 12295,
    "deli": 15343,
    "hy": 4740,
    "Ġjacket": 6489,
    "Ġjovial": 19232,
    "ira": 3959,
    "Ġreason": 1387,
    "aders": 21755,
    "Ġattentively": 9949,
    "uv": 6229,
    "arer": 3970,
    "Ġrudder": 25107,
    "Ġ1820": 25718,
    "Ġweigh": 10894,
    "Ġprayers": 12121,
    "Ġfluke": 14673,
    "Ġprecise": 7075,
    "pounds": 21024,
    "Ġbroad": 3642,
    "nder": 20986,
    "tures": 21068,
    "Ġinjury": 10540,
    "Ġgraves": 11706,
    "Ġfluctu": 5267,
    "mole": 22698,
    "Ġsovereign": 10061,
    "isc": 6239,
    "Ġgri": 17987,
    "discrimin": 19607,
    "urmount": 13995,
    "Ġsignific": 3827,
    "Ġbelf": 21379,
    "Ġbreath": 4791,
    "exceed": 7910,
    "Ġvirtues": 9935,
    "ozy": 17622,
    "Ġultimate": 12347,
    "Ġmust": 846,
    "Ġzeal": 9097,
    "conceive": 16027,
    "Ġassembled": 9235,
    "contrast": 25594,
    "ofs": 11828,
    "Ġblan": 18816,
    "Ġwomen": 4750,
    "fearing": 18532,
    "boilers": 26297,
    "loun": 17588,
    "garity": 17554,
    "Ġregarding": 13209,
    "Ġtype": 2019,
    "Ġpaying": 9937,
    "corners": 17367,
    "Ġachieve": 3675,
    "adopt": 25544,
    "Ġwedged": 24070,
    "Ġsee": 802,
    "Ġvoids": 25807,
    "Ġasia": 11681,
    "Ġappend": 18359,
    "Ġperishing": 22393,
    "Ġcarcase": 14443,
    "Ġparacels": 13666,
    "oriental": 23719,
    "ĠâĢĶâĢľ_": 17718,
    "ron": 5216,
    "eff": 2533,
    "enc": 7574,
    "Ġevery": 927,
    "Ġeconomically": 25288,
    "L": 48,
    "detached": 19673,
    "Ġreliability": 22878,
    "Ġbells": 19600,
    "bit": 3933,
    "Ġfirst": 937,
    "solitude": 23295,
    "joined": 13274,
    "Ġwrung": 14469,
    "philosophers": 25252,
    "Ġilliter": 23467,
    "Ġfished": 21408,
    "danish": 20832,
    "Ġinspecting": 24613,
    "Ġbordered": 24563,
    "Ġfleetness": 20178,
    "Ġlordly": 23742,
    "Ġletter": 2196,
    "wicked": 24449,
    "Ġglimmering": 25240,
    "nam": 2811,
    "scence": 14417,
    "Ġfleecy": 17023,
    "cupboards": 25401,
    "king": 3057,
    "enty": 2916,
    "Ġpainful": 6462,
    "ynolds": 10035,
    "Ġcurling": 9346,
    "Ġhugh": 15004,
    "Ġtransom": 22435,
    "Ġethere": 23948,
    "ĠĠĠĠĠĠĠĠĠĠĠĠĠĠĠĠĠ": 22946,
    "cooks": 25067,
    "Ġanimated": 7701,
    "Ġcommis": 22668,
    "Ġweld": 8111,
    "Ġshores": 8847,
    "Ġstaggering": 20272,
    "Ġconcert": 11965,
    "feeders": 25235,
    "Ġpetulance": 24227,
    "Ġplaguy": 22604,
    "Ġeverywhere": 9795,
    "coast": 10449,
    "Ġnervous": 2398,
    "Ġpainting": 13139,
    "Ġpreservation": 24630,
    "Ġemotions": 8969,
    "sullen": 17669,
    "isf": 2430,
    "ante": 11719,
    "Ġregimentals": 19857,
    "Ġelevating": 19728,
    "Ġawake": 8271,
    "Ġuprising": 12799,
    "Ġwestward": 24389,
    "flow": 2429,
    "Ġflourished": 15124,
    "Ġiroqu": 21621,
    "Ġalph": 9694,
    "Ġslid": 7951,
    "morning": 4859,
    "Ġrepugn": 23361,
    "Ġtarn": 21157,
    "Ġpresumption": 10545,
    "ute": 4643,
    "narrow": 11507,
    "Ħ": 231,
    "Ġbuzz": 23994,
    "Ġepisode": 26346,
    "Ġextract": 1487,
    "income": 15485,
    "ware": 3937,
    "Ġoysters": 20577,
    "Ġtypes": 8936,
    "imin": 1769,
    "willingly": 11981,
    "Ġgradients": 610,
    "Ġfling": 9660,
    "Ġconspicuous": 13602,
    "Ġplight": 14281,
    "Ġmythologies": 26213,
    "Ġcrystall": 20225,
    "Ġclams": 19987,
    "Ġcorpse": 6638,
    "Ġthyself": 6602,
    "Ġresnet": 5473,
    "Ġseparated": 9464,
    "ums": 10272,
    "Ġautonomous": 10675,
    "Ġpeas": 8533,
    "Ġoutlandish": 12835,
    "Ġmargaret": 10376,
    "clifford": 23154,
    "Ġsteward": 6584,
    "Ġgourmand": 26466,
    "Ġmottled": 20677,
    "Ġrele": 2917,
    "itals": 17820,
    "Ġamounted": 18513,
    "pier": 17635,
    "Ġdisappears": 18560,
    "ites": 3899,
    "bennet": 5352,
    "Ġperplexity": 2757,
    "Ġartistic": 18612,
    "Ġblinds": 8006,
    "mindful": 19598,
    "Ġintricate": 15136,
    "Ġott": 13865,
    "Ġglens": 18848,
    "according": 12026,
    "Ġpoll": 12028,
    "Ġstuck": 9222,
    "Ġmoved": 4839,
    "Ġburial": 16520,
    "Ġplane": 11821,
    "Ġbam": 15563,
    "Ġdull": 6384,
    "soup": 21057,
    "particip": 23615,
    "Ġoffensive": 18694,
    "schoolmaster": 15160,
    "Ġledgers": 23935,
    "access": 11180,
    "tee": 16169,
    "Ġweave": 21918,
    "Ġbooks": 4676,
    "Ġhoist": 11975,
    "Ġfleece": 10614,
    "Ġcreep": 22723,
    "oid": 3124,
    "Ġorganizations": 12312,
    "shells": 26056,
    "rador": 19158,
    "igen": 4830,
    "Ġoutline": 15952,
    "Ġsharpen": 13568,
    "Ġtennessee": 26596,
    "attain": 21260,
    "Ġrepute": 18034,
    "Ġslumber": 13057,
    "Ġconstructed": 9385,
    "isol": 17846,
    "Ġboot": 11837,
    "Ġinfants": 16365,
    "Ġperceptible": 18451,
    "cross": 3577,
    "Ġacceded": 22373,
    "Ġannoy": 17198,
    "Ġconsist": 1930,
    "Ġdeclaring": 19418,
    "Ġcollections": 22850,
    "Ġproceeded": 5335,
    "Ġeffect": 969,
    "Ġouter": 6859,
    "Ġchalk": 15931,
    "pots": 11513,
    "Ġcharts": 12824,
    "sery": 17661,
    "Ġpaltry": 16692,
    "nal": 1901,
    "Ġfoe": 7679,
    "Ġprehens": 22228,
    "Ġhistorical": 3648,
    "incident": 14591,
    "Ġensuing": 12307,
    "d": 72,
    "Ġgenteel": 19979,
    "Ġobsequ": 14319,
    "Ġfigure": 4207,
    "reduc": 5459,
    "ief": 2045,
    "Ġdrags": 16941,
    "Ġwhom": 1833,
    "Ġtowing": 9193,
    "Ġcongregational": 25102,
    "Ġecstasy": 11629,
    "Ġwaste": 9233,
    "penn": 18826,
    "Ġweal": 21917,
    "Ġnat": 12642,
    "humanity": 24839,
    "Ġgoes": 3851,
    "gallantry": 15058,
    "Ġemphasis": 20535,
    "Ġmainz": 22644,
    "Ġpiny": 21467,
    "angular": 11721,
    "Ġshapes": 14108,
    "Ġjustification": 22963,
    "Ġballasted": 23977,
    "Ġamuse": 5939,
    "umpled": 15874,
    "Ġhunts": 23155,
    "Ġindustry": 18836,
    "Ġdomin": 10461,
    "Ġgraph": 10902,
    "Ġreferences": 21671,
    "Ġrifled": 21976,
    "Ġtransition": 14233,
    "Ġxi": 16428,
    "Ġports": 10818,
    "taste": 10129,
    "Ġundoubtedly": 8312,
    "Ġcate": 4110,
    "Ġ9": 5900,
    "Ġneed": 2605,
    "rosc": 17954,
    "Ġjolly": 6858,
    "riage": 2124,
    "Ġquality": 3530,
    "Ġmot": 2982,
    "Ġhushed": 13924,
    "strang": 11183,
    "Ġsecuring": 11990,
    "A": 37,
    "Ġeleventh": 23367,
    "Ġweeping": 11685,
    "wind": 4253,
    "final": 19675,
    "suddenly": 6493,
    "anoke": 21359,
    "moil": 22700,
    "alcul": 15625,
    "Ġstooping": 13059,
    "Ġstrides": 22614,
    "evident": 25520,
    "conv": 7213,
    "kered": 18274,
    "oped": 6046,
    "Ġreceptacle": 23189,
    "girl": 12316,
    "Ġmayhew": 12947,
    "Ġscrew": 8867,
    "Ġrom": 4525,
    "Ġtim": 4578,
    "ule": 6800,
    "âĢĶ_": 3197,
    "Ġice": 3606,
    "Ġtens": 17723,
    "ober": 15405,
    "riv": 3107,
    "Ġdere": 21832,
    "Ġauger": 21202,
    "Ġjuggler": 26366,
    "Ġpolynes": 16077,
    "breathing": 25335,
    "Ġpatronage": 17053,
    "arrow": 4179,
    "Ġhulls": 13925,
    "intending": 22932,
    "Ġstrikes": 13180,
    "abez": 10222,
    "abs": 11666,
    "saying": 8640,
    "admirably": 24944,
    "Ġspeaking": 4029,
    "Ġunfavourable": 17416,
    "Ġ63": 24366,
    "Ġtroubled": 6615,
    "Ġpole": 6433,
    "Ġbarricade": 14660,
    "Ġowning": 18744,
    "sam": 21050,
    "Ġscrupulous": 20067,
    "Ġrect": 18025,
    "Ġfoundering": 21417,
    "doc": 23374,
    "Ġan": 286,
    "ograph": 4797,
    "Ġmocking": 24000,
    "Ġsubterranean": 13610,
    "uplifted": 17695,
    "Ġcombing": 22863,
    "Ġfaults": 12210,
    "ojo": 7349,
    "Ġdead": 2169,
    "crow": 9590,
    "Ġshag": 9250,
    "thoroughly": 26508,
    "whole": 6085,
    "Ġsomehow": 4841,
    "Ġremote": 8919,
    "Ġthread": 14539,
    "Ġmagician": 25058,
    "anter": 9166,
    "Ġfin": 1461,
    "pest": 6964,
    "Ġbequeathed": 20700,
    "ker": 5792,
    "Ġmutinous": 23955,
    "lorn": 12485,
    "outs": 7008,
    "Ġignorantly": 19494,
    "Ġadhering": 14139,
    "Ġra": 820,
    "Ġonce": 1492,
    "Ġhorrid": 7998,
    "Ġservices": 11217,
    "Ġdamps": 23473,
    "Ġmagnetic": 17240,
    "Ġreadiness": 13047,
    "Ġvary": 15805,
    "ro": 301,
    "Ġsteered": 11093,
    "Ġrogue": 22402,
    "etch": 9204,
    "hearts": 13343,
    "Ġdown": 832,
    "Ġcarav": 18901,
    "Ġwaiter": 16361,
    "Ġache": 18663,
    "Ġxxxi": 24966,
    "Ġsto": 1499,
    "Ġcocaine": 20720,
    "height": 21204,
    "roar": 17952,
    "Ġchronicler": 20228,
    "Ġpunctual": 17137,
    "strade": 5065,
    "Ġpostscript": 14807,
    "Ġhab": 4219,
    "Ġparadise": 11194,
    "Ġthank": 3791,
    "Ġcases": 3963,
    "luxur": 25822,
    "congreg": 25398,
    "waist": 13417,
    "face": 3679,
    "Ġfathoms": 9083,
    "Ġhuggins": 24828,
    "icts": 22398,
    "Ġsevent": 18200,
    "Ġemaciated": 20637,
    "ppers": 7617,
    "Ġtunnels": 24620,
    "Ġscramble": 24578,
    "Ġconsulted": 13429,
    "phr": 18706,
    "Ġgravely": 7882,
    "Ġoccasional": 7289,
    "Ġguardianship": 17419,
    "Ġtoll": 7851,
    "Ġunresting": 25553,
    "Ġgently": 7171,
    "Ġpert": 22391,
    "onents": 8776,
    "knew": 9126,
    "Ġgloried": 22979,
    "oons": 12496,
    "duty": 20238,
    "Ġsetting": 7046,
    "Ġsinusoidal": 4801,
    "Ġbed": 2144,
    "Ġassailants": 20447,
    "Ġnearer": 5301,
    "acled": 16079,
    "overcoat": 19053,
    "erred": 6376,
    "gen": 6503,
    "uncommon": 11680,
    "Ġfactor": 19011,
    "Ġneglect": 7941,
    "Ġcount": 1816,
    "rigible": 24931,
    "Ġdrinking": 12166,
    "Ġpersons": 6181,
    "Ġwra": 5905,
    "discover": 10539,
    "Ġfulf": 6772,
    "Ġbeau": 9224,
    "Ġchanc": 18384,
    "boy": 4738,
    "know": 2314,
    "ropri": 2177,
    "Ġplain": 2817,
    "Ġlistening": 6318,
    "andish": 18153,
    "fishing": 20858,
    "laug": 10707,
    "summer": 11992,
    "twelvemonth": 25862,
    "considering": 12172,
    "Ġtogether": 1878,
    "executed": 25739,
    "Ġmainten": 16110,
    "shel": 11928,
    "Ġmasterly": 23991,
    "Ġsoftmax": 1688,
    "Ġhorseback": 14849,
    "Ġmurmuring": 23575,
    "carries": 19526,
    "africa": 26308,
    "brew": 11473,
    "Ġprofessed": 14723,
    "Ġprobability": 1123,
    "Ġmetropol": 11145,
    "ouncement": 11743,
    "Ġtask": 1311,
    "Ġinches": 5845,
    "Ġproverb": 12713,
    "encountered": 20391,
    "Ġparliament": 18302,
    "neg": 12862,
    "Ġcompar": 4771,
    "Ġstudious": 23222,
    "Ġmorris": 18843,
    "Ġfig": 3627,
    "barb": 10080,
    "Ġspending": 10923,
    "Ġoscillations": 2897,
    "Ġwoodcock": 19162,
    "dreaded": 25138,
    "Ġpads": 21471,
    "Ġtossing": 8125,
    "wins": 21128,
    "Ġadversarial": 5607,
    "overspreading": 26139,
    "onely": 6516,
    "ave": 980,
    "Ġfr": 1695,
    "shuff": 18486,
    "invest": 11559,
    "stead": 10846,
    "Ġask": 1493,
    "Ġcanv": 7009,
    "Ġmice": 13858,
    "Ġsorrows": 13353,
    "Ġacting": 10991,
    "yes": 986,
    "Ġrotation": 25474,
    "et": 307,
    "desired": 8956,
    "Ġcharged": 9852,
    "thrust": 10261,
    "Ġdesigned": 7740,
    "Ġ46": 19489,
    "rence": 5555,
    "ution": 4350,
    "Ġyer": 15731,
    "Ġsord": 21218,
    "W": 59,
    "Ġlearnt": 7611,
    "Ġcountenance": 3972,
    "digger": 24310,
    "Ġamends": 14245,
    "Ġransacked": 26505,
    "Ġspace": 1511,
    "oted": 4597,
    "Ġdizzy": 21430,
    "yl": 7818,
    "Ġwallowing": 24040,
    "Ġdetermining": 14420,
    "osures": 22258,
    "iod": 3838,
    "Ġhome": 2028,
    "Ġsem": 1877,
    "Ġkill": 4454,
    "barrels": 15041,
    "Ġbending": 12582,
    "Ġcompute": 2904,
    "nowadays": 22335,
    "Ġwo": 3653,
    "Ġcircumspect": 15083,
    "ber": 882,
    "Ġcruisings": 25864,
    "expense": 22426,
    "Ġanim": 2114,
    "Ġhollowly": 24526,
    "Ġselves": 21221,
    "Ġdescrib": 2721,
    "Ġretarded": 23068,
    "Ġune": 4598,
    "Ġsank": 5076,
    "Ġyork": 11664,
    "Ġvalid": 1759,
    "Ġinner": 9670,
    "Ġconcocted": 26299,
    "asserted": 22306,
    "odious": 21812,
    "Ġliberated": 19665,
    "Ġlizzy": 3548,
    "length": 7134,
    "loa": 18536,
    "Ġcoal": 18589,
    "Ġbreeding": 14522,
    "Ġtwos": 18657,
    "antediluvian": 24346,
    "Ġsquires": 16181,
    "Ġcorpusants": 13676,
    "Ġperseus": 10603,
    "Ġcast": 3608,
    "Ġpropontis": 17465,
    "describe": 1515,
    "Ġmoluccas": 25629,
    "Ġheedful": 19739,
    "untary": 9866,
    "nial": 20983,
    "Ġunpleasant": 7191,
    "Ġirr": 10421,
    "lucky": 24545,
    "ately": 1692,
    "Ġelsewhere": 7712,
    "ĠĠĠĠĠĠĠĠĠĠ": 18577,
    "omeness": 18015,
    "cob": 10086,
    "dece": 11732,
    "Ġmantelpiece": 15206,
    "Ġpraises": 16730,
    "Ġconveys": 16855,
    "Ġmeddling": 24082,
    ",âĢĿâĢĶ": 14213,
    "Ġori": 8408,
    "Ġimpotently": 22388,
    "ĠĠĠĠĠĠĠĠĠĠĠĠĠĠĠĠĠĠĠĠĠĠĠĠĠĠĠĠĠĠĠĠĠĠĠĠĠĠĠĠĠĠĠĠĠĠĠĠ": 7988,
    "Ġridge": 14818,
    "Ġsmacking": 20164,
    "tired": 21071,
    "Ġfancying": 12110,
    "historian": 25735,
    "respectable": 19846,
    "Ġ75": 19611,
    "Ġsab": 10762,
    "Ġglove": 14491,
    "Ġarduous": 26529,
    "Ġgall": 4352,
    "Ġbounded": 16626,
    "exhibited": 18477,
    "civilized": 17075,
    "Ġeclipsed": 26376,
    "queg": 1770,
    "Ġunimag": 12772,
    "imble": 10858,
    "ls": 1291,
    "Ġgilt": 21603,
    "Ġsnuffed": 15071,
    "Ġesq": 15107,
    "included": 19207,
    "ĥ": 230,
    "Ġparis": 8178,
    "og": 867,
    "itation": 1780,
    "Ġcur": 1267,
    "Ġpreviously": 3920,
    "Ġvesture": 20060,
    "Ġhint": 5016,
    "bs": 3751,
    "Ġconvict": 23743,
    "ife": 1025,
    "Ġbourgh": 5069,
    "urements": 18124,
    "pointed": 9809,
    "Ġdevoted": 6573,
    "ct": 309,
    "icilian": 20690,
    "Ġstick": 6025,
    "Ġendeavoured": 4918,
    "Ġimprinted": 22387,
    "Ġinsc": 7585,
    "heat": 15496,
    "henomenon": 13613,
    "Ġregards": 16075,
    "Ġthou": 1808,
    "row": 1065,
    "ove": 1740,
    "shapes": 22449,
    "Ġhail": 7400,
    "Ġquitted": 5311,
    "Ġfears": 5729,
    "erial": 4632,
    "Ġfeet": 2255,
    "elling": 5830,
    "Ġsenate": 25214,
    "shabbily": 26246,
    "Ġdeck": 2138,
    "confirmed": 19644,
    "spot": 9787,
    "Ġcarries": 7673,
    "Ġhanging": 5447,
    "Ġrecess": 10847,
    "Ġmourn": 8703,
    "Ġgiving": 4087,
    "ources": 2789,
    "Ġjen": 9266,
    "Ġvaliantly": 22800,
    "operation": 13500,
    "Ġsorts": 6887,
    "Ġknee": 7093,
    "Ġ221": 25068,
    "Ġman": 545,
    "anim": 6522,
    "Ġprediction": 2237,
    "constantinople": 25507,
    "Ġspies": 22125,
    ")(": 2978,
    "happen": 19330,
    "Ġdeceased": 15006,
    "despond": 19799,
    "Ġel": 801,
    "Ġyesterday": 5332,
    "Ġy": 341,
    "several": 5544,
    "Ġcannot": 1666,
    "cooper": 19188,
    "Ġdrab": 13069,
    "Ġnoiselessly": 22854,
    "drawn": 9912,
    "trifling": 19412,
    "Ġentity": 10342,
    "Ġshallow": 14393,
    "Ġupbra": 22151,
    "Ġcharms": 11130,
    "Ġhelpless": 8301,
    "Ġaboriginal": 14188,
    "Ġstreaked": 19113,
    "Ġoft": 9194,
    "prof": 7698,
    "Ġnotice": 4543,
    "Ġpelt": 15607,
    "urious": 21700,
    "Ġ115": 24439,
    "Ġpregn": 22229,
    "Ġprophets": 20449,
    "vely": 3866,
    "Ġhapless": 15810,
    "Ġb": 281,
    "Ġadvancing": 6877,
    "Ġordered": 5832,
    "irc": 1727,
    "Ġspot": 4155,
    "Ġbreathlessly": 24280,
    "pick": 17634,
    "wore": 21123,
    "Ġlancaster": 26340,
    "gathered": 13731,
    "reporting": 24494,
    "Ġobliging": 13242,
    "Ġdeclare": 6614,
    "Ġfarm": 7840,
    "Ġcollect": 7237,
    "Ġunidirectional": 3422,
    "Ġadroop": 26001,
    "Ġjav": 7901,
    "Ġdefault": 3035,
    "cask": 12444,
    "names": 16532,
    "Ġmanaging": 22323,
    "Ġspacious": 18312,
    "Ġagon": 10320,
    "Ġprecautions": 23725,
    "Ġtutored": 20126,
    "quick": 6400,
    "Ġrum": 5923,
    "tically": 3390,
    "Ġtall": 4040,
    "Ġunh": 9252,
    "Ġjet": 5307,
    "apparat": 22843,
    "shiver": 16019,
    "ultaneous": 18582,
    "ith": 330,
    "Ġhow": 598,
    "Ġleech": 24155,
    "Ġwhist": 6021,
    "Ġquieted": 23840,
    "Ġfanc": 6743,
    "constable": 24605,
    "Ġpours": 17909,
    "Ġbuilding": 8062,
    "Ġbounty": 26437,
    "Ġtip": 15470,
    "elter": 21568,
    "Ġenormous": 5609,
    "Ġoppression": 23649,
    "Ġdashed": 6009,
    "stay": 9680,
    "Ġcotton": 17378,
    "injured": 15131,
    "procure": 23395,
    "scand": 18849,
    "Ġnantucketers": 9894,
    "ladyship": 14828,
    "Ġrake": 18645,
    "Ġexamples": 2602,
    "Ġmeat": 8151,
    "nals": 16397,
    "george": 26019,
    "jol": 20924,
    "delighted": 10562,
    "Ġrobert": 10970,
    "Ġkeepers": 23535,
    "Ġhelplessness": 25071,
    "Ġsingers": 23769,
    "Ġprophet": 7680,
    "Ġhelped": 7459,
    "telescope": 26562,
    "Ġgratitude": 5599,
    "meant": 7920,
    "Ġpooh": 18603,
    "yra": 8102,
    "Ġconcepts": 4551,
    "Ġ77": 24263,
    "Ġinsect": 12633,
    "!)": 10068,
    "Ġbelief": 5855,
    "Ġcombined": 8549,
    "Ġqu": 606,
    "Ġupward": 9720,
    "Ġfift": 6382,
    "sweep": 24617,
    "Ġplayful": 19235,
    "Ġche": 1763,
    "Ġquantity": 6948,
    "captain": 3955,
    "cord": 8723,
    "Ġconclude": 8580,
    "Ġadmirer": 16838,
    "Ġimpious": 15985,
    "Ġsleeping": 6319,
    "sequence": 2855,
    "ink": 756,
    "Ġwire": 13851,
    "Ġexactly": 2769,
    "engineer": 23145,
    "88": 20757,
    "Ġlouisiana": 25076,
    "Ġmisunderstood": 18705,
    "Ġlarboard": 11009,
    "Ġforbearing": 25098,
    "Ġdividing": 12109,
    "uer": 21099,
    "Ġembodiment": 20526,
    "asht": 4086,
    "Ġmysticetus": 24922,
    "Ġimprudently": 22384,
    "Ġcondescending": 24868,
    "forbidding": 25837,
    "Ġqualifications": 24675,
    "probably": 10019,
    "whal": 10940,
    "Ġd": 284,
    "Ġprosecution": 12379,
    "rot": 21529,
    "Ġdisregarded": 22527,
    "ctuous": 9205,
    "Ġcreation": 6439,
    "Ġspear": 9313,
    "Ġfinery": 23122,
    "Ġexile": 12714,
    "Ġflaw": 23007,
    "alogue": 25159,
    "rushing": 10017,
    "Ġsunset": 8962,
    "Ġroute": 11381,
    "Ġishmael": 7395,
    "barr": 15319,
    "Ġvap": 6837,
    "amaz": 21847,
    "atched": 6375,
    "banked": 25337,
    "unearthly": 19272,
    "prick": 19341,
    "Ġunparalleled": 15851,
    "Ġforegoing": 23448,
    "supplement": 14796,
    "Ġdistension": 22502,
    "Ġcreativity": 3008,
    "Ġhearty": 9844,
    "Ġdefinitions": 22941,
    "Ġsherlock": 3894,
    "Ġapparelled": 20435,
    "dire": 15335,
    "Ġflutter": 16245,
    "Ġconfession": 11235,
    "furthermore": 20002,
    "Ġvolume": 6769,
    "rudential": 16709,
    "Ġsurv": 6081,
    "Ġrenowned": 26193,
    "Ġmagnanim": 14471,
    "Ġchagrin": 20606,
    "Ġpillow": 10037,
    "wish": 8099,
    "ortunity": 4404,
    "abular": 4762,
    "ass": 537,
    "Ġslim": 18936,
    "ax": 693,
    "Ġparametric": 2390,
    "nineteenth": 26138,
    "Ġawhile": 13829,
    "text": 1972,
    "Ġincome": 7916,
    "Ġslay": 16305,
    "Ġdragging": 14475,
    "Ġawe": 7147,
    "besides": 8695,
    "Ġnavigation": 9992,
    "Ġcompetition": 14266,
    "Ġconfirms": 23308,
    "Ġhand": 859,
    "Ġmerged": 19296,
    "Ġsoundings": 13131,
    "scruple": 26044,
    "Ġlist": 2361,
    "Ġintimate": 6549,
    "Ġvexations": 24609,
    "×": 152,
    "Ġlegitimate": 20641,
    "ĠĠĠĠĠĠĠĠĠĠĠĠĠĠĠĠĠĠĠĠĠĠĠĠĠĠĠĠĠĠĠĠĠĠĠĠĠĠĠĠ": 4517,
    "Ġingolstadt": 8332,
    "Ġshri": 5375,
    "Ġaccompany": 9486,
    "forever": 22516,
    "Ġsulphur": 24933,
    "Ġserpentine": 11360,
    "Ġpest": 13912,
    "Ġguest": 7249,
    "grat": 5052,
    "erest": 10697,
    "Ġshears": 18319,
    "Ġnumer": 3641,
    "Ġslack": 8955,
    "quickly": 14961,
    "Ġflapp": 23005,
    "Ġrecklessly": 16983,
    "entered": 8814,
    "aur": 15307,
    "gratitude": 16816,
    "?âĢĻâĢĿ": 23641,
    "these": 3239,
    "equal": 14992,
    "odecimoes": 25318,
    "savagery": 25025,
    "nostril": 26559,
    "Ġrescued": 24206,
    "Ġdriven": 6198,
    "Ġascertained": 25296,
    "Ġchild": 2257,
    "Ġgilder": 21610,
    "track": 24314,
    "Ġcons": 953,
    "Ġfeminine": 15262,
    "conceivable": 17130,
    "Ġoccasion": 3244,
    "Ġmercifully": 20177,
    "fits": 13717,
    "Ġrestless": 10415,
    "vember": 10855,
    "extinguished": 16150,
    "Ġcigaret": 16976,
    "inated": 6804,
    "Ġmildly": 9029,
    "Ġlicensing": 20091,
    "Ġlur": 5226,
    "iliating": 12692,
    "<UNK>": 3,
    "Ġhumiliation": 16197,
    "Ġfourteen": 12008,
    "awk": 23110,
    "Ġarab": 7823,
    "Ġjig": 15949,
    "Ġconverts": 2805,
    "Ġtaffrail": 15475,
    "Ġcalculated": 4476,
    "Ġshivering": 10265,
    "asons": 6014,
    "Ġstraggling": 23749,
    "Ġbrisk": 9802,
    "Ġisle": 8832,
    "ole": 9613,
    "sacred": 17028,
    "Ġendeavors": 16545,
    "nable": 13761,
    "Ġcandle": 8291,
    "ulated": 6029,
    "Ġaqu": 17742,
    "ß": 160,
    "Ġdazzling": 15210,
    "Ġpeleg": 3739,
    "Ġadvert": 10571,
    "Ġscorch": 20065,
    "Ġsembl": 19059,
    "Ġexpiring": 16096,
    "Ġseventeen": 26210,
    "Ġabhorrent": 16856,
    "althily": 19357,
    "Ġagonies": 14251,
    "results": 20385,
    "leness": 4691,
    "Ġdissect": 16050,
    "Ġexcused": 23313,
    "Ġgrandfather": 19420,
    "Ġum": 10211,
    ",âĢĶâĢĺ": 23801,
    "Ġmarbles": 18872,
    "principal": 20659,
    "thouse": 21979,
    "sleeping": 13453,
    "``": 15305,
    "oul": 4699,
    "sus": 6228,
    "Ġwhalers": 8047,
    "Ġslain": 8953,
    "Ġdesolated": 24812,
    "inion": 2875,
    "hours": 9124,
    "eminent": 25104,
    "Ġdedicated": 19242,
    "Ġperv": 15988,
    "Ġdaniel": 15110,
    "Ġslappin": 18942,
    "Ġprepare": 8646,
    "traces": 24315,
    "Ġbeating": 8144,
    "Ġparchment": 13651,
    "Ġcoat": 4554,
    "Ġmisfortune": 5569,
    "Ġsupervised": 3207,
    "Ġduodecimo": 16767,
    "Ġsilent": 3408,
    "ficial": 17548,
    "Ġmetropolitan": 17275,
    "Ġremembering": 14610,
    "Ġextraordinary": 5414,
    "ishes": 6523,
    "atic": 4019,
    "erness": 6434,
    "acted": 11010,
    "treat": 12511,
    "Ġforbearance": 12326,
    "Ġhold": 2241,
    "leviathan": 7784,
    "ifts": 12732,
    "Ġoverlook": 10960,
    "Ġguests": 12285,
    "Ġungover": 18255,
    "oriously": 17874,
    "ca": 20792,
    "Ġfresher": 23206,
    "gled": 10699,
    "ondency": 15268,
    "withstand": 23023,
    "Ġformless": 22825,
    "cad": 17504,
    "Ġunsatisfied": 22039,
    "Ġconcentrate": 25063,
    "Ġcheeks": 5957,
    "arily": 4127,
    "ion": 296,
    "Ġpalmed": 24090,
    "prodig": 16425,
    "Ġbids": 24645,
    "what": 644,
    "Ġbarely": 16936,
    "Ġchimneys": 16972,
    "Ġtransplanted": 22438,
    "Ġwhims": 12689,
    "Ġattorney": 18619,
    "profess": 10634,
    "affectionate": 24921,
    "Ġposture": 24164,
    "Ġfid": 10803,
    "Ġconcer": 23320,
    "opening": 10312,
    "Ġarr": 1798,
    "Ġgallon": 24184,
    "Ġflog": 23621,
    "itud": 2930,
    "person": 7745,
    "enth": 6680,
    "Ġrequisite": 18651,
    "Ġtumb": 21168,
    "comprehend": 14360,
    "Ġcabman": 14605,
    "Ġsubmission": 22787,
    "Ġtherein": 11773,
    "elfare": 11775,
    "Ġbl": 1192,
    "Ġcompose": 12899,
    "Ġrugged": 18720,
    "Ġfain": 5808,
    "Ġscratching": 20367,
    "Ġstumped": 24942,
    "mud": 20970,
    "amiable": 14053,
    "ount": 1112,
    "½": 126,
    "uteronomy": 15661,
    "Ġshoes": 7071,
    "Ġendued": 14076,
    "ivation": 3108,
    "rog": 15637,
    "Ġthews": 21276,
    "Ġprom": 1526,
    "receiving": 12540,
    "Ġtart": 12525,
    "Ġemperor": 15157,
    "oquence": 11386,
    "prehend": 14242,
    "Ġmutters": 23953,
    "anging": 3553,
    "Ġtraged": 9351,
    "Ġsetbacks": 11063,
    "kingly": 20938,
    "Ġcrutch": 23445,
    "urance": 10857,
    "admitted": 18091,
    "cannot": 5745,
    "Ġprophe": 13077,
    "itious": 8779,
    "following": 10572,
    "Ġlegit": 16471,
    "address": 14880,
    "Ġrecently": 11860,
    "cell": 10685,
    "Ġphysiogn": 12386,
    "Ġsplendid": 17213,
    "osoever": 17342,
    "response": 25762,
    "Ġcomfortless": 23910,
    "Ġ70": 11276,
    "Ġgodfre": 14529,
    "shaw": 6864,
    "iceland": 21563,
    "Ġsilently": 6895,
    "Ġinduced": 8670,
    "Ġcells": 13884,
    "Ġejaculated": 15168,
    "rit": 21034,
    "Ġridges": 16731,
    "aust": 15308,
    "Ġrud": 8477,
    "orters": 21399,
    "Ġhanding": 16128,
    "Ġpiratical": 24801,
    "sect": 8152,
    "Ġrambles": 17184,
    "Ġdefection": 22939,
    "oso": 12827,
    "Ġbreaths": 14856,
    "cull": 20808,
    "Ġorb": 22088,
    "grass": 23411,
    "lan": 15376,
    "degree": 12798,
    "Ġcounteracted": 19861,
    "hero": 21203,
    "pire": 9135,
    "Ġfrock": 10489,
    "seriously": 18904,
    "Ġsucked": 14137,
    "Ġgrim": 7439,
    "Ġadviser": 25312,
    "Ġ76": 24262,
    "iting": 2156,
    "Ġevangel": 11280,
    "Ġpaste": 23417,
    "Ġrickety": 26506,
    "Ġinmost": 17930,
    "Ġvale": 14081,
    "Ġiceland": 15145,
    "hatchet": 24822,
    "Ġtackle": 9512,
    "Ġconsequences": 11335,
    "Ġmemorand": 23403,
    "exp": 2739,
    "Ġbetween": 793,
    "onings": 21251,
    "Ġmadness": 6601,
    "Ġlatent": 19654,
    "Ġperfectly": 3702,
    "Ġvind": 10249,
    "Ġimpenit": 22386,
    "nothing": 3151,
    "amplified": 26494,
    "Ġasiatic": 20428,
    "che": 3168,
    "it": 276,
    "childhood": 16868,
    "eps": 12788,
    "icide": 11617,
    "solemn": 19816,
    "pivot": 21030,
    "ording": 9763,
    "Ġlanguages": 1569,
    "Ġconvalescence": 23744,
    "Ġfixedly": 19247,
    "Ġlighting": 13081,
    "±": 114,
    "Ġsworn": 14434,
    "Ġlashes": 17966,
    "uries": 6147,
    "Ġdolphins": 20394,
    "Ġraises": 11843,
    "Ġstun": 11649,
    "¼": 125,
    "Ġarbit": 4651,
    "Ġdecreases": 3406,
    "Ġhence": 4989,
    "oysius": 14366,
    "Ġblasphemer": 26116,
    "Ġthousands": 6748,
    "uttle": 6247,
    "Ġknown": 1641,
    "fic": 20851,
    "Ġwithheld": 18110,
    "Ġopened": 3515,
    "Ġlater": 6016,
    "Ġdeified": 18140,
    "pered": 4196,
    "Ġvolat": 24144,
    "Ġafterwards": 3533,
    "spermaceti": 12191,
    "Ġcommod": 10333,
    "Ġlouis": 8356,
    "Ġcircle": 4977,
    "Ġpounds": 5368,
    "inexplicable": 25808,
    "iary": 15369,
    "Ġcouns": 10520,
    "Ġexecution": 6927,
    "Ġsinew": 25431,
    "ato": 17769,
    "follows": 24528,
    "~": 98,
    "ishing": 1141,
    "Ġodds": 13328,
    "Ġrevers": 21661,
    "which": 1707,
    "Ġenjoy": 3761,
    "leisure": 21369,
    "Ġsheltered": 19910,
    "Ġbiscuit": 12586,
    "Ġvideo": 25365,
    "Ġboiling": 8525,
    "inkers": 22612,
    "Ġmasterless": 23992,
    "Ġpear": 11850,
    "Ġinns": 17929,
    "Ġcomprehen": 5349,
    "Ġexploit": 19161,
    "Ġdominion": 16522,
    "interest": 5421,
    "Ġperplexed": 23660,
    "Ġskewer": 19619,
    "dri": 5887,
    "auley": 22620,
    "witness": 10034,
    "Ġfriends": 2654,
    "Ġgritted": 22802,
    "Ġbroods": 23099,
    "Ġcandour": 14672,
    "Ġspeakest": 23484,
    "Ġendeavour": 4678,
    "ment": 695,
    "Ġpity": 4941,
    "thumb": 18218,
    "itage": 17816,
    "Ġfelt": 1742,
    "Ġvisits": 8222,
    "Ġcottage": 4734,
    "pure": 17626,
    "hers": 7635,
    "mark": 5281,
    "Ġplanting": 16084,
    "Ġtombed": 25160,
    "Ġdelivered": 11116,
    "Ġfaithfulness": 24446,
    "upwards": 18863,
    "semicirc": 26491,
    "ishment": 3507,
    "Ġestim": 3347,
    "Ġsyllable": 9727,
    "hess": 4747,
    "branch": 23574,
    "Ġinvariable": 13455,
    "Ġbrigandish": 25487,
    "aggoo": 5130,
    "Ġshaved": 21999,
    "Ġalan": 10869,
    "Ġbrix": 12580,
    "glasses": 11215,
    "perquisites": 26531,
    "tawny": 26404,
    "Ġsubstances": 24165,
    "Ġindiscriminately": 20626,
    "Ġaccident": 5380,
    "Ġspin": 7629,
    "Ġerie": 20052,
    "zz": 4294,
    "Ġbase": 5013,
    "Ġbenefit": 8292,
    "Ġdangling": 17174,
    "Ġtru": 4107,
    "Ġabundant": 17154,
    "taffrail": 15441,
    "Ġkeel": 6444,
    "Ġdirectors": 18921,
    "Ġaffinity": 18785,
    "Ġstrategies": 1842,
    "flames": 14711,
    "handed": 7482,
    "ountain": 2918,
    "Ġslide": 10393,
    "Ġetc": 7084,
    "bouton": 17501,
    "kitchen": 17585,
    "spect": 3229,
    "successful": 11358,
    "Ġconc": 1844,
    "spirited": 19752,
    "treatment": 20410,
    "Ġchronicle": 20227,
    "Ġoverthrown": 18431,
    "Ġhos": 4942,
    "irresist": 21909,
    "Ġoblique": 20168,
    "enemy": 15525,
    "Ġdetection": 3597,
    "Ġcordially": 16836,
    "Ġseparation": 11248,
    "imony": 12687,
    "Ġthreshold": 2808,
    "Ë": 140,
    "material": 13128,
    "ologies": 18773,
    "Ġundeniable": 26510,
    "Ġimminent": 11245,
    "athom": 12936,
    "Ġeve": 13969,
    "objections": 19915,
    "Ġresidence": 8206,
    "purpose": 10043,
    "Ġcontinuous": 1561,
    "Ġserm": 9633,
    "Ġseconds": 16396,
    "infall": 21187,
    "Ġsystems": 813,
    "Ġspermaceti": 8967,
    "Ġvac": 5025,
    "anelles": 26434,
    "agement": 4187,
    "Ġmask": 1866,
    "Ġelement": 6898,
    "admon": 21758,
    "Ġreefed": 20301,
    "Ġimmediately": 3364,
    "Ġbouton": 17868,
    "Ġnavel": 24576,
    "surround": 16758,
    "Ġlean": 7602,
    "Ġresiding": 16059,
    "ind": 568,
    "inguish": 9396,
    "Ġmeans": 700,
    "utional": 17983,
    "bound": 6220,
    "Ġdissip": 10992,
    "ateg": 1377,
    "Ġinconsist": 17935,
    "Ġtongs": 9960,
    "Ġsound": 2239,
    "Ġaffidav": 18787,
    "hau": 17562,
    "nep": 20985,
    "Ġbirch": 26174,
    "Ġbegins": 7244,
    "consent": 18503,
    "itations": 17817,
    "Ġwhaler": 7520,
    "tumultuously": 25613,
    "Ġwidow": 8662,
    "Ġdiscern": 7925,
    "idel": 5299,
    "itigated": 23042,
    "braid": 17494,
    "beheld": 11800,
    "Ġdeline": 16331,
    "Ġwretchedness": 9026,
    "Ġsoftware": 18918,
    "stretch": 13980,
    "named": 9890,
    "Ġounce": 15271,
    "Ġhappened": 3714,
    "Ġpaints": 23521,
    "depart": 12263,
    "Ġlothario": 26184,
    "ensation": 22542,
    "gave": 7799,
    "Ġpossesses": 19350,
    "semic": 21818,
    "Ġconjured": 25099,
    "Ġhe": 318,
    "Ġbewitching": 25976,
    "Ġlatitude": 8328,
    "stayed": 25290,
    "Ġdollars": 11455,
    "Ġapiece": 16813,
    "Ġtinker": 15130,
    "Ġparr": 22116,
    "Ġdisconsolate": 20718,
    "Ġhell": 5019,
    "Ġold": 1057,
    "Ġdisliked": 12888,
    "eminence": 20097,
    "Ġheightens": 24154,
    "Ġ1890": 23893,
    "Ġexpressed": 4468,
    "?âĢĿ": 701,
    "Ġringbolts": 24196,
    "Ġspaulding": 11729,
    "Ġutterance": 14762,
    "Ġtheory": 5798,
    "Ġapply": 1777,
    "Ġoverwhelming": 17102,
    "Ġbanish": 15567,
    "Ġnoiseless": 10356,
    "thr": 12757,
    "cats": 17512,
    "Ġprodigiously": 14931,
    "Ġsilly": 7685,
    "Ā": 193,
    "Ġcharnel": 22249,
    "Ġneat": 6999,
    "volous": 18595,
    "Ġfairly": 6325,
    "umbrance": 22115,
    "Ġensigns": 23687,
    "view": 5895,
    "ambition": 13410,
    "treated": 21093,
    "Ġfebruary": 15911,
    "Ġword": 1052,
    "wantonly": 25149,
    "Ġgnashed": 20131,
    "Ġsaluted": 14757,
    "isition": 11585,
    "Ġplaces": 5390,
    "prev": 12864,
    "y": 93,
    "Ġhob": 12626,
    "Ġburden": 8607,
    "Ġcollapsed": 15080,
    "cherish": 24552,
    "icism": 13955,
    "fig": 8734,
    "stream": 15684,
    "uity": 12515,
    "cong": 10687,
    "Ġthousandth": 23682,
    "Ġsublim": 19965,
    "Ġcheered": 16370,
    "Ġnear": 1716,
    "Ġtribe": 10751,
    "nesday": 8702,
    "orient": 2878,
    "harb": 9123,
    "ting": 1333,
    "ine": 402,
    "important": 7112,
    "ernity": 18615,
    "imprisonment": 23760,
    "perfect": 7634,
    "Ġinclude": 1874,
    "Ġshrill": 12139,
    "curious": 10482,
    "Ġspires": 11728,
    "accompanied": 12420,
    "Ġimplicate": 24876,
    "southern": 20407,
    "Ġcaulking": 20292,
    "Ġstruggled": 9904,
    "adding": 21756,
    "Ġphilosophers": 10551,
    "Ġoverflow": 10292,
    "Ġunexpl": 22034,
    "Ġliking": 23590,
    "leader": 25351,
    "raise": 18011,
    "ogn": 2492,
    "Ġguineas": 16267,
    "Ġcurly": 18854,
    "alth": 3254,
    "Ġfeedback": 23431,
    "angry": 18294,
    "ĠâĢľâĢĶ": 9733,
    "Ġcorrect": 2425,
    "Ġbeside": 5192,
    "Ġcaprice": 14575,
    "orting": 9734,
    "Ġsar": 21212,
    "Ġforg": 3787,
    "unreasonable": 18162,
    "Ġgrowth": 14629,
    "divers": 15341,
    "Ġexplicit": 3590,
    "wling": 11544,
    "dor": 12449,
    "Ġstall": 12694,
    "singular": 12186,
    "Ġincom": 9768,
    "Ġshrunk": 16718,
    "Ġhonoured": 9880,
    "shipping": 10307,
    "Ġbison": 21386,
    "gging": 7696,
    "apes": 9740,
    "Ġformations": 18748,
    "Ġallowance": 14388,
    "python": 4692,
    "Ġsweetheart": 19393,
    "Ġcandidates": 4334,
    "Ġcore": 13877,
    "Ġinterlacing": 22573,
    "Ġdashing": 8795,
    "Ġjoppa": 12034,
    "Ġ71": 24259,
    "Ġcommunicated": 9061,
    "het": 5435,
    "Ġdisappearing": 22530,
    "romising": 18233,
    "Ġmail": 17800,
    "iverer": 11714,
    "Ġindolent": 13002,
    "Ġaverage": 3136,
    "brave": 19822,
    "Ġcracked": 8593,
    "atiable": 17774,
    "balance": 12005,
    "Ġreynolds": 10209,
    "Ġimpassable": 20611,
    "ioning": 21506,
    "sheets": 14441,
    "Ġpopularly": 12239,
    "Ġyanke": 18097,
    "Ġted": 13811,
    "accomp": 10455,
    "obvious": 9356,
    "Ġintrusion": 12762,
    "wherein": 19107,
    "pha": 22758,
    "occur": 19574,
    "appear": 13197,
    "Ġpeered": 18668,
    "anesc": 21358,
    "forgetting": 25485,
    "Ġrefine": 2907,
    "fuller": 22497,
    "possess": 5983,
    "should": 3260,
    "Ġappals": 22215,
    "icate": 9201,
    "Ġhur": 2100,
    "bet": 6109,
    "Ġhatches": 12043,
    "Ġdevelopment": 7058,
    "Ġbale": 7838,
    "Ġcounties": 23302,
    "Ġgreenness": 23765,
    "Ġclosing": 11770,
    "Ġspeeding": 23560,
    "Ġadoption": 24948,
    "Ġbraided": 16581,
    "Ġscolded": 25472,
    "ientious": 11689,
    "Ġtuning": 3070,
    "utions": 1888,
    "impetuous": 23761,
    "Ġobliv": 16131,
    "Ġsober": 10910,
    "ys": 3961,
    "acca": 23596,
    "Ī": 235,
    "Ġbeings": 2487,
    "Ġfowl": 11330,
    "Ġcounterpart": 24721,
    "adequately": 20318,
    "Ġpropri": 6738,
    "relative": 24010,
    "comfort": 5647,
    "ħ": 232,
    "Ġ62": 24365,
    "blame": 14793,
    "Ġeleven": 9389,
    "Ġbrid": 6290,
    "trowsers": 17691,
    "Ġadorned": 15246,
    "market": 16839,
    "Ġbully": 23854,
    "Ġbrit": 6289,
    "Ġfurnished": 6475,
    "Ġobliged": 4286,
    "utored": 15660,
    "Ġirish": 14534,
    "ullen": 8234,
    "Ġconsumm": 15153,
    "answered": 10273,
    "Ġfanny": 23389,
    "Ġreach": 4048,
    "Ġwitnessing": 19597,
    "reck": 9636,
    "Ġcoinc": 11001,
    "speechless": 25395,
    ":âĢĶâĢĺ": 24193,
    "ribut": 816,
    "v": 90,
    "Ġeternities": 19941,
    "ceptive": 15974,
    "trap": 24313,
    "Ġprincess": 23221,
    "Ġwoes": 23983,
    "steady": 14708,
    "Ġpassive": 22838,
    "ccas": 15883,
    "Ġoffending": 22741,
    "Ġtraps": 23076,
    "Ġinconven": 7586,
    "solely": 19815,
    "Ġalluded": 7884,
    "acrity": 14278,
    "Ġack": 5622,
    "Ġwrite": 3820,
    "Ġfrightens": 24027,
    "Ġsought": 5010,
    "Ġsteepest": 3085,
    "wl": 17702,
    "Ġarsac": 11740,
    "Ġswears": 16462,
    "Ġjonah": 3481,
    "Ġphantom": 8706,
    "lemency": 21372,
    "Ġ43": 14768,
    "Ġcrunched": 19123,
    "Ġtwentieth": 18659,
    "Ġtypewritten": 16420,
    "Ġxxxiv": 24967,
    "Ġbos": 4875,
    "Ġlodge": 5779,
    "opence": 18507,
    "Ġmadly": 16484,
    "circuit": 24188,
    "ulous": 4450,
    "Ġstopped": 5956,
    "atching": 8202,
    "shipped": 18488,
    "ompl": 4536,
    "ease": 12455,
    "Ġamendment": 26024,
    "Ġterrible": 5327,
    "Ġguide": 3213,
    "eks": 4728,
    "Ġpoets": 11819,
    "Ġg": 310,
    "Ġantique": 19550,
    "Ġbrightness": 16576,
    "Ġperilously": 24507,
    "Ġoutrageous": 20609,
    "ancing": 1755,
    "ructive": 18543,
    "Ġcorpus": 13029,
    "Ġpark": 5465,
    "Ġsobs": 14133,
    "fere": 10989,
    "irably": 13294,
    "Ġcalm": 3445,
    "rifle": 21045,
    "Ġ65": 24368,
    "Ġcease": 7076,
    "Ġcongratulations": 10580,
    "atisf": 21262,
    "00": 1613,
    "gno": 13726,
    "conducted": 25572,
    "Ġstores": 18071,
    "Ġ104": 24412,
    "grieved": 17316,
    "Ġindicated": 10469,
    "Ġbleached": 24396,
    "complacency": 19913,
    "Ġabject": 18391,
    "Ġdispatched": 23879,
    "fourths": 25509,
    "Ġbehavioral": 11396,
    "Ġsite": 17753,
    "Ġeffaced": 18515,
    "burg": 16773,
    "rees": 5436,
    "Ġtranquil": 7310,
    "Ġoutrages": 18415,
    "embraces": 25803,
    "Ġwonderful": 4563,
    "Ġtemple": 7653,
    "Ġpreparing": 8647,
    "Ġopium": 8994,
    "ocity": 8277,
    "Ġbidden": 24646,
    "Ġbandaged": 16842,
    "Ġfrenzy": 13621,
    "Ġdavis": 25952,
    "christmas": 20254,
    "Ġlisten": 4674,
    "infallibly": 26417,
    "itude": 1416,
    "Ġgaping": 13968,
    "Ġdependen": 1829,
    "Ġsidelong": 11438,
    "probable": 17021,
    "Ġstaggered": 9538,
    "last": 3802,
    "Ġadler": 8173,
    "Ġoriginated": 24123,
    "Ġfist": 21402,
    "division": 20047,
    "point": 6062,
    "Ġundue": 25993,
    "Ġnest": 10188,
    "education": 20300,
    "chiefly": 14845,
    "bantering": 25253,
    "Ġprescribed": 26010,
    "gallant": 7780,
    "acle": 4716,
    "scho": 8759,
    "_,âĢĻâĢĿ": 20399,
    "Ġgale": 5822,
    "Ġbumpkins": 25281,
    "hands": 5966,
    "Ġberth": 8679,
    "Ġohio": 19128,
    "Ġchal": 18378,
    "Ġforlorn": 14014,
    "lone": 11499,
    "cott": 8073,
    "Ġprocession": 11774,
    "Ġherbage": 25996,
    "orders": 12871,
    "Ġaint": 17744,
    "dil": 11478,
    "swift": 14851,
    "Ġagreed": 7028,
    "crowded": 20189,
    "Ġwaggish": 25434,
    "Ġthief": 11609,
    "Ġbegat": 18862,
    "butt": 15992,
    "Ġporch": 19679,
    "Ġeager": 3572,
    "Ġisrael": 21800,
    "ific": 491,
    "Ġhel": 3786,
    "Ġmamma": 10047,
    "Ġwealthy": 18178,
    "guilty": 19481,
    "Ġprime": 10404,
    "disappointment": 11425,
    "arian": 10315,
    "insanity": 23064,
    "kington": 11202,
    "impud": 23758,
    "Ġaccompanied": 6780,
    "Ġhaul": 11690,
    "Ġchancery": 20715,
    "narr": 12494,
    "Ġoppressed": 11189,
    "Ġpersonality": 16475,
    "Ġdidn": 4363,
    "Ġfearing": 12812,
    "Ġversion": 10629,
    "plans": 21958,
    "pass": 4292,
    "traced": 19636,
    "Ġtragedies": 25241,
    "Ġmediterranean": 12313,
    "Ġgpt": 4351,
    "Ġrain": 5005,
    "Ġcottages": 14726,
    "Ġimpropri": 14216,
    "âĢĻâĢĶ": 12733,
    "Ġstim": 18066,
    "Ġprogno": 14039,
    "staring": 18020,
    "Ġsolicited": 20035,
    "Ġbid": 6131,
    "Ġpickle": 16722,
    "body": 2303,
    "Ġgrain": 15829,
    "Ġhosts": 19937,
    "countless": 24150,
    "Ġdrove": 4984,
    "Ġriding": 14094,
    "ittingly": 18802,
    "ositions": 10283,
    "Ġpaces": 13918,
    "Ġdil": 6383,
    "Ġcreat": 1413,
    "increased": 20269,
    "its": 1145,
    "Ġclos": 4549,
    "Ġhabitu": 19527,
    "Ġghost": 6142,
    "Ġcoronation": 13332,
    "Ġpredomin": 16034,
    "Ġhas": 825,
    "Ġyoked": 15732,
    "Ġvisual": 5741,
    "soldiers": 25911,
    "Ġbub": 8117,
    "redit": 3875,
    "insurance": 18887,
    "tha": 15821,
    "inside": 23061,
    "Ġelevated": 7318,
    "Ġamend": 16033,
    "Ġtho": 21511,
    "(-": 2977,
    "Ġfeatures": 1431,
    "Ġrudeness": 17124,
    "eager": 12457,
    "Ġferoc": 14896,
    "Ġrephrased": 26477,
    "Ġcastors": 23973,
    "Ġquaker": 10971,
    "Ġshouting": 10522,
    "Ġstruck": 3387,
    "Ġasked": 2274,
    "simp": 17665,
    "Ġsurrender": 16449,
    "rential": 22915,
    "breast": 11246,
    "mency": 18925,
    "Ġdy": 2536,
    "here": 2548,
    "Ġquill": 12854,
    "Ġsmack": 9299,
    "itioned": 22466,
    "ez": 5683,
    "squee": 15429,
    "allah": 5838,
    "alloyed": 22198,
    "Ġembeddings": 2189,
    "ung": 2748,
    "ssible": 2990,
    "fee": 12876,
    "Ġlearnedly": 23384,
    "Ġswaying": 15046,
    "arrang": 14652,
    "Ġprender": 22232,
    "Ġcourtiers": 24137,
    "Ġagain": 814,
    "15": 12428,
    "Ġresistance": 13529,
    "Ġhermit": 15855,
    "ralian": 19599,
    "Ġsooner": 5573,
    "unching": 18158,
    "Ġintercept": 14268,
    "elves": 2157,
    "Ġvelocity": 10620,
    "Ġrock": 5310,
    "e": 73,
    "plague": 21959,
    "continuing": 24479,
    "Ġprejudice": 9075,
    "Ġharry": 24571,
    "Ġtrump": 8195,
    "Ġgamesome": 17289,
    "Ġalmighty": 18104,
    "model": 4613,
    "Ġcondemn": 13443,
    "Ġhovering": 10178,
    "ible": 1113,
    "Ġfavourite": 5270,
    "Ġnominal": 15167,
    "awn": 3833,
    "iable": 3333,
    "culiar": 2820,
    "Ġpinch": 15016,
    "Ġturban": 23612,
    "ides": 2160,
    "Ġearning": 23938,
    "Ġtainted": 21169,
    "Ġprice": 10403,
    "Ġtedious": 15266,
    "Ġlingo": 24903,
    "related": 24009,
    "missing": 13217,
    "Ġproductions": 22943,
    "despatched": 19800,
    "crippled": 26384,
    "oundered": 14164,
    "Ġspleen": 26421,
    "Ġexasperated": 11412,
    "apside": 22957,
    "Ġoarsmen": 7737,
    "Ġdrank": 16535,
    "Ġwedding": 4858,
    "Ġgraceful": 11296,
    "Ġubiquitous": 26195,
    "nect": 662,
    "Ġruins": 16156,
    "Ġwink": 11568,
    "Ġhier": 1894,
    "Ġquiver": 16001,
    "icions": 21560,
    "Ġdisadvantage": 12887,
    "Ġbeaten": 10528,
    "subs": 14300,
    "Ġrent": 11638,
    "rain": 462,
    "Ġsoup": 7067,
    "Ġbeauty": 3770,
    "merely": 16132,
    "cannon": 22959,
    "Ġvia": 2378,
    "Ġsubject": 2459,
    "Ġascribe": 16782,
    "Ġced": 10784,
    "bond": 17489,
    "Ġcrests": 25685,
    "Ġduncan": 13460,
    "Ġinsular": 19267,
    "iii": 14773,
    "Ġinfatuated": 20533,
    "Ġhaggard": 17329,
    "Ġpursuit": 4733,
    "Ġcamp": 9164,
    "Ġinsignificance": 20456,
    "fin": 5209,
    "Ġshowing": 7731,
    "contemplated": 20457,
    "Ġcirc": 1984,
    "Ġserpents": 13075,
    "ress": 930,
    "ha": 3983,
    "Ġdistraction": 22503,
    "Ġcurb": 16242,
    "possibly": 10543,
    "Ġsunny": 13084,
    "Ġmaledictions": 26428,
    "Ġtheoretically": 3568,
    "Ġaided": 17745,
    "Ġaccents": 14210,
    "Ġbeaufort": 13567,
    "Ġinterrupt": 4360,
    "Ġinterposed": 20617,
    "Ġprick": 14477,
    "match": 15389,
    "Ġdiscourage": 3114,
    "inent": 9628,
    "Ġis": 347,
    "Ġhazard": 20430,
    "Ġboast": 7034,
    "hroom": 12474,
    "Ġexpense": 7651,
    "Ġpendulous": 25955,
    "robust": 19727,
    "Ġleaves": 5021,
    "meet": 11854,
    "Ġascertaining": 17203,
    "Ġ101": 24409,
    "Ġbrace": 11211,
    "humour": 7498,
    "Ġallurements": 22004,
    "Ġrejoicing": 13420,
    "oology": 21005,
    "gan": 2197,
    "Ġsore": 10764,
    "Ġtorrents": 20054,
    "Ġpromontory": 11939,
    "Ġproposed": 7460,
    "partner": 19220,
    "Ġad": 440,
    "Ġjuicy": 25370,
    "Ġprecipice": 19939,
    "tempted": 26403,
    "la": 10705,
    "thro": 12758,
    "absurd": 21792,
    "hatch": 15363,
    "Ġtenderest": 23546,
    "Ġdrag": 6184,
    "Ġskilfully": 20522,
    "Ġveritable": 19379,
    "ex": 623,
    "Ġcurt": 18853,
    "Ġplaned": 24053,
    "Ġfow": 6133,
    "accurately": 25861,
    "Ġreflecting": 24751,
    "Ġdiversion": 17197,
    "Ġpar": 456,
    "phur": 16148,
    "Ġnobler": 14173,
    "Ġcyn": 13885,
    "Ġterror": 5124,
    "Ġoutriders": 26543,
    "Ġchoke": 22246,
    "anywhere": 14682,
    "icity": 2539,
    "Ġstoried": 18075,
    "Ġtrack": 7450,
    "placidity": 25988,
    "Ġtimely": 19593,
    "lying": 7174,
    "Ġgable": 15664,
    "Ġcontrari": 23347,
    "Ġtinge": 25087,
    "Ġarmitage": 23577,
    "pemberley": 9620,
    "complete": 15034,
    "Ġconsc": 4275,
    "Ġfolks": 14425,
    "Ġtowns": 11173,
    "inqu": 6121,
    "Ġrepay": 19079,
    "ĠâĢĶ_": 3457,
    "Ġtempor": 2362,
    "Ġjudgment": 5765,
    "Ġappl": 1677,
    "Ġwandered": 6930,
    "Ġactually": 5389,
    "Ġparmacetti": 20603,
    "remind": 23185,
    "Ġdutch": 6327,
    "sticking": 21657,
    "Ġelemental": 19918,
    "erative": 21271,
    "Ġ47": 14770,
    "Ġund": 4120,
    "rates": 21037,
    "halfway": 24311,
    "Ġreck": 6537,
    "Ġmidday": 23631,
    "rium": 3130,
    "vitality": 20477,
    "mic": 12486,
    "Ġfuneral": 10282,
    "labours": 16617,
    "Ġlays": 15983,
    "Ġbird": 3757,
    "Ġdollar": 25283,
    "Ġcircumn": 11982,
    "Ġdoubloons": 13433,
    "Ġinspection": 14544,
    "Ġkate": 15903,
    "Ġhideousness": 16915,
    "Ġtransfer": 2371,
    "Ġsalutations": 25382,
    "Ġlargely": 14284,
    "Ġtrusting": 24106,
    "Ġunsafe": 22036,
    "Ġvisage": 18770,
    "Ġploughed": 22605,
    "Ġengland": 3855,
    "Ġsuav": 22083,
    "ugl": 23288,
    "interference": 23736,
    "stricken": 9883,
    "vap": 13802,
    "emotion": 21925,
    "tre": 8760,
    "ras": 21035,
    "Ġoriginate": 24122,
    "Ġeddying": 16434,
    "iquette": 26132,
    "Ġfang": 21401,
    "Ġschoolboys": 24481,
    "Ġbulls": 23856,
    "Ġmiser": 18703,
    "itics": 13871,
    "Ġbust": 10167,
    "Ġeu": 6390,
    "Ġantagonist": 26328,
    "Ġindex": 17049,
    "Ġmaid": 5285,
    "phren": 22759,
    "Ġautoregressive": 3429,
    "Ġencourages": 2060,
    "Ġmoby": 3667,
    "Ġdeclared": 5595,
    "queen": 12724,
    "impenet": 18053,
    "kindness": 10505,
    "Ġsorry": 4210,
    "iot": 9600,
    "Ġapologized": 25198,
    "Ġcalifornia": 20528,
    "Ġmab": 12557,
    "contents": 12056,
    "Ġbone": 4695,
    "Ġbreathed": 11220,
    "entreaties": 26185,
    "Ġsitt": 21216,
    "Ġmusical": 23891,
    "Ġxxiv": 24477,
    "val": 1160,
    "Ġsharing": 3477,
    "Ġtenement": 23544,
    "service": 15036,
    "Ġremot": 8543,
    "beware": 16037,
    "tis": 4106,
    "gone": 6504,
    "Ġhussey": 7724,
    "ishments": 9272,
    "cheerful": 13574,
    "Ġdepends": 1080,
    "Ġfooted": 23795,
    "Ġutmost": 5496,
    "Ġsighing": 18676,
    "Ġpiqu": 21474,
    "Ġreserved": 7515,
    "Ġexpands": 25237,
    "Ġexcl": 3475,
    "blooded": 20021,
    "Ġpondering": 17005,
    "itty": 3556,
    "enge": 21279,
    "Ġcocks": 18591,
    "Ġplaying": 6909,
    "Ġswims": 12117,
    "Ġslates": 11107,
    "Ġmagnificence": 20631,
    "opard": 9290,
    "igations": 18043,
    "Ġelucidated": 26029,
    "Ġspurn": 18309,
    "consolatory": 25306,
    "Ġalabama": 14018,
    "Ġunjustifiable": 25109,
    "Ġdick": 3497,
    "created": 12448,
    "Ġarrest": 7409,
    "Ġcopies": 24935,
    "Ġcomplex": 735,
    "Ġwhose": 2007,
    "Ġdipping": 15589,
    "Ġrehears": 15697,
    "blades": 24131,
    "Ġrh": 9243,
    "displeasure": 23493,
    "interchange": 23737,
    "Ġconvergence": 973,
    "pre": 649,
    "Ġtrap": 7671,
    "Ġdint": 15588,
    "byshire": 6172,
    "oman": 2017,
    "Ġbecome": 3155,
    "Ġarmies": 16491,
    "sides": 12505,
    "Ġproficiency": 19191,
    "physiogn": 26263,
    "Ġartificial": 792,
    "Ġprevent": 757,
    "Ġtipt": 21172,
    "arrived": 12606,
    "viii": 12019,
    "conclusion": 25671,
    "Ġliked": 5264,
    "impenetrable": 26196,
    "Ġintervals": 5598,
    "sneezes": 11446,
    "voyage": 7785,
    "Ġpenalties": 10414,
    "Ġmission": 13003,
    "daugh": 6788,
    "Ġhairs": 13230,
    "Ġsink": 4341,
    "Ġchaos": 17009,
    "Ġresponsiveness": 2896,
    "Ġcot": 13876,
    "Ġwrath": 16316,
    "Ġcocoa": 25482,
    "brimmed": 14587,
    "Ġtooth": 9192,
    "finer": 17546,
    "Ġdevotedly": 24750,
    "cod": 12441,
    "oment": 921,
    "mouthed": 12398,
    "interrupt": 8615,
    "elihood": 4623,
    "direful": 25896,
    "Ġapt": 9155,
    "Ġserenely": 13506,
    "Ġsaxon": 25468,
    "Ġgoverning": 2795,
    "still": 4220,
    "Ġscarcity": 23824,
    "Ġpoky": 21476,
    "ries": 3352,
    "Ġaccord": 4027,
    "unmistakable": 21892,
    "remained": 8569,
    "quet": 6835,
    "sherlock": 5422,
    "Ġcouldn": 7648,
    "Ġsays": 3563,
    "itering": 17818,
    "Ġdefines": 1739,
    "Ġseparate": 5778,
    "urred": 8449,
    "Ġdromedary": 17438,
    "Ġduty": 4073,
    "aced": 2401,
    "Ġma": 3251,
    "frozen": 25139,
    "Ġmand": 21303,
    "Ġunfav": 14787,
    "Ġcrammed": 16469,
    "Ġcompat": 2937,
    "Ġbillow": 14778,
    "used": 3258,
    "opÃ¦": 12869,
    "Ġprofoundest": 16860,
    "Ġprimary": 25060,
    "Ġprosecuted": 25293,
    "Ġturned": 2133,
    "answers": 22137,
    "Ġfitting": 21406,
    "Ġhugest": 17015,
    "existence": 16012,
    "Ġmurmured": 7480,
    "Ġwife": 2585,
    "Ġcaptioning": 23019,
    "Ġcoupled": 16851,
    "Ġjoy": 3181,
    "Ġhyper": 19738,
    "Ġsatisfactory": 11192,
    "Ġarc": 14158,
    "Ġimpul": 7208,
    "Ġhowl": 12851,
    "archical": 1923,
    "ressed": 3020,
    "Ġluggage": 25957,
    "Ġmccauley": 26426,
    "Ġresponsible": 9885,
    "Ġimpute": 18333,
    "Ġbellies": 13354,
    "Ġnecessarily": 13248,
    "suspect": 9539,
    "viating": 14577,
    "Ġmatter": 1731,
    "flu": 9117,
    "Ġlamented": 24991,
    "Ġmarine": 23030,
    "Ġdepos": 11006,
    "Ġjoin": 4853,
    "Ġrecumbent": 22738,
    "conclusions": 25672,
    "Ġload": 14145,
    "mers": 9610,
    "cousin": 10652,
    "[": 63,
    "Ġupbraid": 18318,
    "Ġmouths": 7491,
    "gre": 5788,
    "Ġgranite": 22805,
    "Ġtypewriting": 16419,
    "feature": 4028,
    "Ġfrolic": 23921,
    "Ġunsocial": 18256,
    "Ġdenied": 9000,
    "Ġtahit": 10754,
    "urried": 21701,
    "chat": 21683,
    "Ġprotecting": 24686,
    "mblings": 19779,
    "veral": 2349,
    "lantic": 6363,
    "theirs": 23601,
    "iety": 2818,
    "rusion": 11323,
    "Ġscuffle": 20607,
    "Ġlic": 8435,
    "spirit": 11313,
    "ption": 7398,
    "Ġdoth": 13907,
    "Ġemb": 1251,
    "Ġsunbeam": 23272,
    "Ġusurpation": 18356,
    "Ġbarbara": 24818,
    "Ġoffices": 14336,
    "Ġtransformations": 3485,
    "Ġendeavor": 16544,
    "indifferent": 14208,
    "Ġassault": 9836,
    "Ġenc": 965,
    "Ġsemantics": 2893,
    "Ġprecipitate": 19940,
    "bus": 5354,
    "mas": 5212,
    "Ġchancing": 22245,
    "m": 81,
    "Ġantiquity": 15229,
    "super": 5943,
    "Ġspectacle": 10496,
    "Ġincorpor": 13164,
    "Ġesteemed": 10588,
    "Ġunallied": 22027,
    "Ġhilarious": 20297,
    "Ġbulwarks": 5592,
    "Ġmitig": 1335,
    "Ġconstable": 19068,
    "pression": 10407,
    "closed": 23151,
    "Ġarise": 7895,
    "º": 123,
    "invisible": 17740,
    "Ġmaterial": 5178,
    "Ġbaptized": 25774,
    "aired": 8368,
    "Ġplug": 17147,
    "ige": 12677,
    "Ġsatisfy": 6912,
    "Ġtrotting": 19974,
    "supernatural": 19778,
    "Ġtragic": 15254,
    "Ġcommunic": 5751,
    "cra": 6354,
    "Ġhenry": 5197,
    "Ġcommonplace": 11096,
    "Ġcaravan": 26290,
    "Ġcanoe": 9722,
    "Ġhelp": 1639,
    "Ġequator": 7461,
    "Ġtis": 15464,
    "Ġsequence": 1974,
    "decor": 23779,
    "Ġmerited": 23729,
    "mitting": 17602,
    "Ġpleasantest": 24138,
    "bbles": 13690,
    "Ġunex": 11711,
    "Ġstrolled": 16770,
    "suspicions": 25391,
    "Ġdemanded": 8326,
    "itch": 10160,
    "Ġprocessions": 18434,
    "meal": 22710,
    "Ġbanking": 19629,
    "hastening": 24448,
    "ģ": 228,
    "Ġremonstr": 16159,
    "bacc": 7794,
    "Ġrecovering": 11861,
    "Ġultimately": 17164,
    "Ġhysterics": 26093,
    "Ġstrainings": 24627,
    "Ġhusband": 3623,
    "lined": 12481,
    "ike": 5000,
    "libr": 22920,
    "rr": 17650,
    "Ġere": 3687,
    "sius": 13787,
    "Ġfloundered": 18861,
    "99": 1895,
    "disappearing": 23500,
    "ivility": 12782,
    "Ġpuzzle": 11305,
    "Ġspam": 7630,
    "shorn": 22444,
    "Ġswings": 11086,
    "Ġcompl": 3760,
    "Ġmarch": 4084,
    "Ġbrilliant": 11414,
    "Ġsincerely": 7962,
    "Ġpetty": 19594,
    "fug": 17543,
    "stuff": 15685,
    "Ġelizabeth": 1127,
    "Ġscorn": 7900,
    "Ġpri": 5813,
    "Ġblurred": 22928,
    "Ġcovari": 2334,
    "Ġcode": 1719,
    "Ġcomfits": 21844,
    "whaleman": 23434,
    "prophecy": 22833,
    "Ġlamb": 8812,
    "Ġcell": 6237,
    "tri": 11529,
    "Ġmourning": 13477,
    "autumn": 23341,
    "rimin": 2417,
    "Ġthat": 335,
    "tide": 11532,
    "phon": 4128,
    "Ġpunctilious": 26352,
    "awed": 10390,
    "Ġfour": 2212,
    "]]": 5205,
    "Ġmonotonous": 13262,
    "jet": 13741,
    "ills": 1628,
    "Ġconcealment": 16914,
    "Ġexec": 19491,
    "howling": 18989,
    "Ġribs": 7101,
    "squeezing": 25913,
    "Ġdatasets": 2384,
    "knowledge": 7478,
    "excepting": 19705,
    "grammar": 6435,
    "restrained": 16334,
    "Ġbottomless": 12104,
    "Ġse": 401,
    "iving": 1723,
    "Ġnail": 9195,
    "cursed": 23841,
    "Ġhen": 3503,
    "against": 5870,
    "Ġyourselves": 9028,
    "<EOS>": 2,
    "warmth": 20051,
    "Ġcommunication": 1870,
    "Ġexception": 11216,
    "Ġwaif": 9373,
    "Ġbut": 423,
    "Ġinhaled": 25451,
    "reshold": 21238,
    "Ġcusack": 26433,
    "ord": 666,
    "Ġrepresent": 1212,
    "Ġdramat": 23215,
    "Ġtiny": 11552,
    "altern": 17941,
    "Ġeasy": 3450,
    "dually": 3283,
    "henomena": 20271,
    "ying": 1448,
    "armon": 23054,
    "Ġostentatiously": 20467,
    "inarticulate": 21194,
    "Ġshoreless": 24295,
    "Ġap": 5008,
    "Ġrefreshing": 20263,
    "Ġdivulged": 16648,
    "remains": 10398,
    "onds": 12992,
    "Ġleaks": 16447,
    "Ġwish": 2098,
    "oard": 4809,
    "Ġdifference": 1490,
    "iance": 5279,
    "Ġmeant": 3552,
    "departed": 24794,
    "Ġunobstructed": 18264,
    "Ġantagon": 19549,
    "grin": 19105,
    "Ġpocket": 4898,
    "Ġmerchant": 6467,
    "Ġheighten": 19528,
    "Ġpig": 5705,
    "Ġlaurel": 20653,
    "Ġdance": 4442,
    "avo": 8517,
    "user": 5105,
    "Ġdocks": 14175,
    "Ġjump": 4504,
    "Ġtease": 18808,
    "glanced": 19364,
    "Ġrush": 5924,
    "icha": 11736,
    "Ġhalyards": 21491,
    "seam": 10874,
    "umber": 5240,
    "Ġconsid": 1814,
    "mystical": 25317,
    "Ġsuperior": 2755,
    "escaped": 14230,
    "bly": 6110,
    "Ġcontrols": 1729,
    "Ġblankets": 24611,
    "Ġpat": 1743,
    "Ġarrows": 18338,
    "Ġplu": 8798,
    "Ġfootpaths": 26318,
    "lass": 5992,
    "Ġskul": 22792,
    "Ġbolts": 16943,
    "Ġgr": 977,
    "ork": 417,
    "Ġmerrily": 23730,
    "Ġavail": 11226,
    "Ġchase": 3947,
    "pressed": 6587,
    "Ġdiffers": 23780,
    "astic": 1868,
    "Ġadam": 2127,
    "stationed": 25453,
    "Ġinstigated": 18702,
    "Ġaffronted": 22888,
    "sets": 17660,
    "hold": 3984,
    "Ġfurnishes": 19439,
    "uteness": 17985,
    "ma": 1147,
    "Ġaway": 1243,
    "sixty": 24852,
    "Ġmaintainable": 12932,
    "Ġcolonies": 14374,
    "Ġlodged": 11252,
    "Ġspots": 11727,
    "fle": 7128,
    "Ġsympathising": 24297,
    "Ġdeclines": 23960,
    "Ġstartled": 7082,
    "Ġmock": 3693,
    "Ġunavailing": 26215,
    "stood": 4117,
    "lacing": 17590,
    "headed": 4319,
    "invariably": 26416,
    "Ġlivelihood": 24774,
    "Ġtornado": 24621,
    "erie": 21270,
    "irting": 11684,
    "ard": 465,
    "Ġourselves": 5127,
    "Ġspectacles": 12095,
    "Ġdissolved": 18554,
    "Ġfoundling": 22965,
    "great": 3519,
    "Ġmish": 15535,
    "ē": 212,
    "animate": 12574,
    "Ġrevol": 5537,
    "surf": 24212,
    "Ġcolouring": 16751,
    "culiarity": 11141,
    "Ġsuffering": 8946,
    "condition": 7059,
    "Ġchilly": 25562,
    "Ġlayers": 817,
    "Ġevap": 19622,
    "Ġbasis": 16961,
    "Ġcontracting": 16009,
    "Ġfrost": 6095,
    "speech": 10666,
    "iture": 5696,
    "hyp": 15365,
    "Ġanxiously": 8289,
    "Ġbenches": 18780,
    "hypothe": 25905,
    "nowledge": 10289,
    "ustomed": 6098,
    "Ġsatisfying": 23695,
    "Ġgushed": 21604,
    "Ġstructured": 2970,
    "Ġbeheld": 4493,
    "Ġclo": 6042,
    "Ġbir": 17853,
    "Ġnotorious": 18223,
    "Ġsacrific": 15017,
    "Ġmagnitudes": 3821,
    "Ġlistless": 16474,
    "ezing": 10573,
    "observation": 17269,
    "Ġunostentatious": 22065,
    "Ġraven": 16114,
    "irksome": 18172,
    "unc": 15766,
    "Ġquar": 3111,
    "races": 21627,
    "Ġoffences": 18693,
    "Ġdiscernible": 15068,
    "Ġshelves": 14998,
    "Ġnarwhale": 12291,
    "br": 2473,
    "Ġautumn": 14503,
    "begged": 18523,
    "Ġloitering": 22113,
    "Ġwhirlwinds": 20463,
    "plifted": 9710,
    "Ġfled": 6670,
    "Ġchildhood": 13136,
    "maybe": 23988,
    "gast": 20870,
    "ronted": 14876,
    "Ġannihilation": 15164,
    "Ġmainly": 22645,
    "Ġwager": 17792,
    "Ġuniversity": 13120,
    "Ġlady": 1587,
    "bastian": 10673,
    "Ġpleased": 4066,
    "orate": 10800,
    "inous": 8771,
    "Ġmour": 6973,
    "Ġenduring": 16301,
    "Ġfailure": 13313,
    ".)": 6783,
    "Ä": 133,
    "savage": 15074,
    "Ġneighbors": 25806,
    "pton": 15789,
    "Ġpass": 1039,
    "Ġeul": 21615,
    "Ġperiods": 13302,
    "icates": 11616,
    "istically": 14143,
    "Ġfeather": 8859,
    "Ġdragged": 6889,
    "ht": 375,
    "larking": 17594,
    "Ġmorality": 22968,
    "Ġreliably": 22877,
    "Ġjesty": 18405,
    "Ġhadn": 9718,
    "Ġjam": 10951,
    "Ġsouls": 6308,
    "Ġboisterous": 20441,
    "europe": 20664,
    "Ġwaterloo": 11979,
    "athan": 2955,
    "Ġunsounded": 15847,
    "Ġsuite": 18280,
    "Ġshol": 21992,
    "Ġsleep": 2394,
    "Ġentreat": 4510,
    "Ġhardship": 18913,
    "Ġadequ": 10913,
    "agre": 18164,
    "devilish": 17082,
    "Ġpolluted": 25593,
    "rrh": 26144,
    "Ġphrenologically": 20392,
    "asol": 21537,
    "goldsmith": 20146,
    "Ġthoughtfulness": 18772,
    "abilities": 3234,
    "Ġbroken": 3446,
    "Ġabuse": 18392,
    "interesting": 12199,
    "Ġbrack": 23833,
    "approach": 24833,
    "iah": 14415,
    "Ġinaccessible": 13933,
    "Ġvote": 21944,
    "richard": 17286,
    "Ġprizes": 13072,
    "âĢĻ!âĢĿ": 18167,
    "Ġbouquet": 20682,
    "earnestly": 17312,
    "Ġsust": 7007,
    "Ġsloop": 25930,
    "Ġmixed": 6974,
    "Ġstreets": 5863,
    "Ġpermitted": 9277,
    "Ġrunning": 3953,
    "eon": 8729,
    "Ġconfusion": 7273,
    "lessly": 4556,
    "Ġsharks": 4498,
    "Ġprevious": 2090,
    "Ġimpatiently": 8337,
    "Ġstood": 2550,
    "fal": 17536,
    "watson": 12241,
    "parsee": 14511,
    "uneasy": 23684,
    "omet": 3073,
    "Ġpollard": 20384,
    "queer": 10363,
    "thence": 23398,
    "Ġrewarding": 13436,
    "Ġmisgiv": 14344,
    "Ġthirt": 13938,
    "Ġmuhammad": 26169,
    "Ġensl": 19273,
    "japan": 15373,
    "Ġsolving": 2478,
    "Ġdressed": 5081,
    "laughing": 15178,
    "Ġunrel": 14695,
    "Ġdug": 21428,
    "willing": 6592,
    "Ġcoopman": 25827,
    "Ġbedford": 7473,
    "affect": 13211,
    "ĵ": 246,
    "»": 124,
    "Ġhabitual": 24790,
    "Ġsplashing": 16549,
    "canst": 22958,
    "aned": 5147,
    "Ġknob": 24407,
    "Ġcontented": 9755,
    "Ġexotic": 21828,
    "eray": 21265,
    "Ġwrecks": 16818,
    "Ġexaggerated": 25650,
    "Ġrevelation": 25222,
    "over": 1848,
    "romed": 10905,
    "Ġpromised": 5181,
    "Ġdiscussed": 19558,
    "Ġboots": 5942,
    "Ġassu": 21894,
    "Ġmislead": 22754,
    "historical": 20464,
    "Ġincreases": 3795,
    "Ġefficient": 1009,
    "Ġfielding": 16231,
    "Ġprisoner": 8672,
    "Ġglorious": 11075,
    "terrific": 25040,
    "ensity": 11811,
    "Ġappalling": 8498,
    "Ġsemi": 11967,
    "condem": 16342,
    "Ġsalmon": 24060,
    "Ġstone": 4646,
    "Ġof": 298,
    "pul": 8753,
    "Ġaccomplishment": 19664,
    "Ġgoblet": 25823,
    "ace": 716,
    "Ġheadsman": 13273,
    "links": 20957,
    "Ġsubstituting": 26326,
    "Ġmilitia": 13316,
    "Ġbutterfly": 19909,
    "leaves": 12575,
    "henomen": 10494,
    "Ġlingu": 11613,
    "twig": 23698,
    "bout": 20772,
    "piling": 15414,
    "meryton": 10111,
    "Ġslammed": 20446,
    "lifeless": 24312,
    "scorn": 22983,
    "lur": 13746,
    "Ġwr": 1541,
    "illuminated": 17452,
    "amid": 12721,
    "lascar": 20959,
    "Ġsenior": 17171,
    "ç": 168,
    "squall": 13521,
    "tern": 4225,
    "ulate": 5233,
    "Ġgrasping": 12163,
    "Ġlearned": 2023,
    "cho": 2762,
    "Ġsounds": 5190,
    "ring": 1749,
    "labour": 23912,
    "haps": 1671,
    "unfortunate": 15774,
    "Ġfancy": 3746,
    "Ġclothing": 18423,
    "keen": 12779,
    "Ġresult": 4460,
    "ading": 5091,
    "Ġkin": 15902,
    "Ġsplintered": 11418,
    "ufact": 10733,
    "possibility": 13360,
    "Ġniag": 21527,
    "Ġamounts": 6704,
    "Ġdecreed": 18492,
    "Ġprophesy": 26061,
    "Ġomitted": 12561,
    "receive": 12539,
    "Ġoccupations": 9457,
    "frau": 15088,
    "onym": 14649,
    "screw": 9345,
    "udg": 22751,
    "icant": 21559,
    "etence": 21574,
    "Ġinnocent": 4921,
    "Ġbought": 8415,
    "ces": 577,
    "Ġratt": 7880,
    "der": 470,
    "covering": 15333,
    "Ġdit": 21418,
    "Ġklux": 22192,
    "ĠĠĠĠĠĠĠĠĠĠĠĠĠĠĠĠĠĠĠĠĠĠĠĠĠĠĠĠĠĠĠĠĠ": 12041,
    "philosop": 9567,
    "deliberated": 26118,
    "izzy": 3092,
    "mble": 1404,
    "Ġpassionate": 11273,
    "Ġfiercely": 12949,
    "ulity": 10886,
    "othe": 2612,
    "Ġbecomes": 6396,
    "Ġinsects": 25646,
    "encoura": 15048,
    "attended": 8952,
    "Ġproprietors": 20185,
    "Ġvint": 18194,
    "Ġjoists": 19231,
    "Ġcats": 8979,
    "Ġ2026": 12333,
    "Ġagonized": 25372,
    "cold": 9589,
    "ings": 634,
    "Ġwreak": 16817,
    "Ġceaseless": 13487,
    "Ġconciliating": 19049,
    "awakened": 14452,
    "Ġlung": 7167,
    "Ġnewspaper": 12362,
    "recol": 10150,
    "https": 11682,
    "Ġseparating": 16685,
    "Ġstepfather": 7221,
    "Ġconstrued": 26301,
    "Ġintend": 12761,
    "Ġwhosoever": 21716,
    "Ġdiscompose": 25579,
    "ella": 12746,
    "Ġmusk": 7494,
    "car": 4212,
    "Ġpurposed": 23548,
    "achine": 595,
    "Ġbedrooms": 19968,
    "proble": 9393,
    "Ġmisanthropic": 26560,
    "Ġ126": 24471,
    "bu": 5132,
    "Ġthither": 6821,
    "Ġineff": 12631,
    "ascal": 10192,
    "Ġfilial": 16620,
    "cas": 20793,
    "Ġmontan": 22975,
    "hawk": 7121,
    "Ġobliterated": 17404,
    "Ġshy": 10903,
    "thread": 15824,
    "Ġcrest": 12939,
    "Ġdanger": 3522,
    "Ġgoney": 14545,
    "Ġworms": 25216,
    "requiem": 24856,
    "hog": 8379,
    "cheer": 9436,
    "Ġsanely": 24980,
    "ĠĠĠĠĠĠĠĠĠĠĠĠĠĠĠĠĠĠĠĠĠĠĠĠĠĠĠĠĠĠĠĠĠĠ": 14613,
    "Ġcommon": 1411,
    "delirium": 14784,
    "Ġwisest": 11232,
    "Ġserenity": 10027,
    "ourably": 14376,
    "Ġrobinson": 17463,
    "Ġfounder": 17883,
    "aud": 8521,
    "Ġpeculiar": 3150,
    "aset": 10832,
    "Ġisles": 8459,
    "hark": 15364,
    "entirely": 7781,
    "Ġfritters": 23254,
    "Ġdebar": 24271,
    "Ġvehicles": 10659,
    "Ġinterpreter": 23212,
    "uction": 15442,
    "arm": 1354,
    "Ġshower": 11708,
    "ick": 839,
    "Ġintercourse": 10998,
    "Ġillustrious": 17109,
    "just": 1699,
    "Ġ}": 21152,
    "isure": 6240,
    "cy": 636,
    "Ġranks": 21972,
    "machines": 8384,
    "christ": 10210,
    "ourers": 21447,
    "countryman": 24639,
    "Ġcompares": 20165,
    "Ġdesist": 16234,
    "Ġcont": 620,
    "Ġchilian": 25563,
    "commanded": 16988,
    "Ġ95": 19772,
    "Ġpaths": 2568,
    "ously": 2488,
    "Ġaccumulating": 2725,
    "pening": 2831,
    "especially": 3574,
    "Ġjur": 12831,
    "Ġcou": 5286,
    "Ġproposition": 23247,
    "Ġinnermost": 12158,
    "Ġinflict": 15001,
    "oes": 4434,
    "Ġunt": 2289,
    "loud": 11500,
    "Ġabund": 8864,
    "Ġunique": 12775,
    "Ġslime": 23158,
    "operations": 19973,
    "Ġtin": 15462,
    "gangway": 20666,
    "cules": 12389,
    "Ġmarks": 6746,
    "vel": 2380,
    "Ġfurrow": 22811,
    "shout": 22439,
    "Ġfaculties": 14957,
    "phology": 3005,
    "Ġrecord": 5316,
    "Ġdisgracing": 26255,
    "Ġbeer": 10219,
    "Ġby": 383,
    "Ġmum": 13857,
    "shr": 10978,
    "neighb": 16025,
    "Ġbehaviors": 13254,
    "vings": 9750,
    "Ġroar": 9752,
    "Ġredness": 19311,
    "uments": 5552,
    "Ġgrunted": 16166,
    "Ġseries": 7060,
    "Ġpipes": 9847,
    "Ġassertion": 13488,
    "Ġself": 1778,
    "Ġmannish": 26237,
    "looked": 6083,
    "meth": 11502,
    "Ġunheeded": 18261,
    "cheered": 23804,
    "Ġregularizer": 2335,
    "Ġpresent": 1640,
    "Ġwalrus": 14972,
    "atters": 18483,
    "interests": 19707,
    "Ġtumble": 16879,
    "Ġpredictions": 1455,
    "ickory": 22666,
    "asis": 12647,
    "Ġreciproc": 20620,
    "eled": 2353,
    "unwholesome": 26497,
    "arthly": 8029,
    "Ġproprietor": 12371,
    "congratulations": 20278,
    "arious": 10316,
    "Ġenthr": 22745,
    "itime": 15545,
    "chased": 18041,
    "Ġjobs": 24832,
    "rift": 11519,
    "ezes": 9990,
    "Ġprove": 5231,
    "twenty": 6607,
    "Ġbracelets": 25502,
    "chari": 21686,
    "Ġwork": 1367,
    "Ġvaults": 17153,
    "comparison": 25840,
    "max": 1684,
    "Ġoptimizers": 18621,
    "Ġprofile": 16487,
    "nowhere": 18418,
    "Ġberg": 24536,
    "suspended": 15176,
    "Ġbackward": 7654,
    "'t": 3142,
    "Ġlombardy": 26463,
    "anything": 5518,
    "Ġdrowning": 19903,
    "pregn": 18500,
    "contains": 16028,
    "osis": 18389,
    "Ġelegant": 7532,
    "Ġbarbed": 14834,
    "luding": 6700,
    "Ġeulogy": 26470,
    "Ġeffeminacy": 20716,
    "forbid": 14353,
    "mush": 20976,
    "cottage": 9569,
    "Ġslip": 8954,
    "Ġcheap": 13087,
    "Ġgrop": 12661,
    "enial": 17780,
    "Ġphaeton": 17464,
    "verb": 10216,
    "mock": 5174,
    "Ġassured": 4372,
    "Ġdemoniac": 15063,
    "let": 2735,
    "cloudless": 20331,
    "Ġcabaco": 13166,
    "Ġcents": 17828,
    "Ġtennes": 23545,
    "Ġprincipally": 11309,
    "Ġprovince": 24189,
    "court": 7511,
    "Ġillust": 8262,
    "Ġjane": 1754,
    "Ġ96": 24592,
    "cordiality": 25137,
    "stamp": 21651,
    "secure": 12233,
    "Ġcaresses": 26059,
    "Ġ89": 19711,
    "retched": 3066,
    "Ġminiature": 11040,
    "Ġdisturbed": 8671,
    "Ġgames": 11625,
    "base": 20776,
    "ortment": 22255,
    "arch": 1132,
    "remem": 13064,
    "Ġcrab": 13143,
    "Ġreeled": 13985,
    "Ġhearth": 11980,
    "Ġlate": 3375,
    "perv": 1564,
    "Ġterrier": 23397,
    "speak": 5504,
    "Ġpieces": 7369,
    "Ġarrives": 23606,
    "lives": 12483,
    "Ġunequal": 14841,
    "Ġpresuming": 16793,
    "Ġservants": 6610,
    "Ġjeopard": 9942,
    "delights": 19700,
    "Ġbab": 5289,
    "Ġdiscerning": 25002,
    "Ġcoopers": 20520,
    "comfortableness": 24525,
    "Ġdoes": 942,
    "Ġastronomy": 25926,
    "scar": 9815,
    "Ġhypothesis": 14781,
    "Ġalike": 8146,
    "Ġaffair": 4463,
    "wail": 21124,
    "arance": 4698,
    "Ġsharkish": 24506,
    "kin": 7131,
    "Ġwondrous": 4735,
    "Ġepit": 18006,
    "Ġconsidering": 4616,
    "Ġgazes": 24094,
    "revival": 26162,
    "Ġcos": 2206,
    "Ġbeque": 18080,
    "Ġstepmother": 16087,
    "ither": 1544,
    "Ġlethargy": 26482,
    "precious": 12070,
    "Ġdisinclined": 22526,
    "ision": 1855,
    "Ġcrib": 21346,
    "Ġboisterously": 25682,
    "movable": 14323,
    "every": 2810,
    "77": 15299,
    "pause": 12498,
    "onies": 6806,
    "village": 25422,
    "Ġtremble": 6906,
    "Ġloud": 4701,
    "Ġsluggish": 25890,
    "Ġattic": 16093,
    "usage": 12830,
    "erted": 7361,
    "ets": 1157,
    "ese": 4444,
    "Ġmast": 2899,
    "uesday": 8587,
    "nurs": 20998,
    "Ġeng": 1159,
    "aped": 3765,
    "ich": 471,
    "Ġabove": 2935,
    "due": 22407,
    "till": 6965,
    "Ġwinged": 16995,
    "Ġtrail": 16280,
    "Ġcorrected": 10448,
    "perth": 22182,
    "interval": 7990,
    "Ġdownward": 10331,
    "boast": 23250,
    "Ġunrivalled": 26519,
    "cket": 3689,
    "Ġgrass": 5177,
    "Ġrainbows": 19647,
    "continuance": 19717,
    "ence": 395,
    "Ġclass": 782,
    "itions": 4148,
    "Ġbundles": 26175,
    "Ġelectric": 15193,
    "ourselves": 9010,
    "Ġzealand": 12348,
    "Å": 134,
    "Ġstrenuously": 17447,
    "barn": 17482,
    "Ġcould": 704,
    "none": 6962,
    "Ġtragedy": 10667,
    "Ġmajesty": 5201,
    "Ġunconcerned": 20508,
    "Ġslavish": 23170,
    "brink": 23572,
    "Ġindulgence": 11319,
    "was": 1419,
    "Ġminister": 18751,
    "Ġmysteriously": 24601,
    "expectation": 14855,
    "!_": 7329,
    "leads": 21368,
    "uten": 11621,
    "Ġjumped": 7096,
    "roman": 22001,
    "whether": 5319,
    "Ġheron": 22070,
    "orney": 17873,
    "angle": 22101,
    "Ġlatitudes": 9495,
    "_.)": 7278,
    "pane": 10120,
    "tout": 21064,
    "Ġedge": 5188,
    "Ġwield": 21289,
    "Ġanything": 2184,
    "msgate": 18410,
    "Ġfeared": 5930,
    "semble": 1524,
    "ann": 5802,
    "Ġattends": 19649,
    "Ġwhirl": 13448,
    "Ġreconciliation": 25292,
    "smith": 5669,
    "bular": 15312,
    "Ġsecretly": 13270,
    "Ġforefinger": 16443,
    "getic": 12963,
    "Ġstroke": 6936,
    "Ġsult": 10767,
    "Ġ10": 5248,
    "Ġscrutiny": 26015,
    "izar": 14042,
    "slo": 17656,
    "Ġcatch": 4441,
    "Ġjudge": 5502,
    "Ġtransformer": 2633,
    "Ġbig": 5805,
    "Ġemer": 5958,
    "Ġbutter": 6842,
    "elly": 17979,
    "Ġrank": 6258,
    "Ġabsolute": 6765,
    "arter": 17893,
    "subsided": 25830,
    "ual": 945,
    "Ġforgiveness": 16656,
    "produ": 10720,
    "Ġwitnesses": 9485,
    "Ġsupper": 4666,
    "Ġdwelling": 7322,
    "argue": 21442,
    "franch": 24284,
    "Ġpushed": 5909,
    "Ġevaporate": 26332,
    "dles": 11480,
    "Ġnegatived": 23043,
    "Ġsugg": 4500,
    "hor": 2570,
    "Ġmonstrous": 7789,
    "zza": 24167,
    "Ġdespair": 4012,
    "Ġaries": 21196,
    "Ġwarring": 16865,
    "Ġprotesting": 14740,
    "Ġinquis": 19303,
    "Ġinvisible": 7327,
    "Ġsummit": 7730,
    "testing": 12514,
    "Ġwoe": 4793,
    "oqu": 7555,
    "called": 6292,
    "swiftly": 20550,
    "luded": 4229,
    "Ġantarctic": 19551,
    "asper": 7854,
    "hig": 12472,
    "Ġvertical": 16604,
    "Ġloading": 15872,
    "Ġhaz": 12752,
    "aciously": 12904,
    "notwithstanding": 22750,
    "Ġbarmaid": 19334,
    "forgive": 18731,
    "Ġpractised": 23299,
    "Ġheire": 18036,
    "Ġwarped": 25035,
    "Ġgrieve": 14706,
    "Ġenderby": 13650,
    "Ġsubproblems": 12954,
    "disappo": 8984,
    "Ġharriet": 24572,
    "Ġsystematic": 5244,
    "Ġproclaim": 18130,
    "iem": 20916,
    "Ġkeels": 11060,
    "Ġscorching": 20066,
    "Ġcollar": 11877,
    "pulous": 15415,
    "resting": 23233,
    "Ġoctavo": 15162,
    "Ġadopt": 10631,
    "various": 10397,
    "Ġminiatures": 20320,
    "unworthy": 18161,
    "Ġdissembling": 26254,
    "counter": 20277,
    "Ġanatomy": 12318,
    "Ġaxe": 15061,
    "Ġbapt": 13895,
    "limping": 26393,
    ".âĢĻ": 1717,
    "sooner": 14775,
    "Ġdevelopments": 23243,
    "Ġinterested": 6458,
    "rabb": 15677,
    "Ġbil": 15562,
    "freighted": 14891,
    "harrow": 20907,
    "Ġcommended": 18656,
    "Ġchambermaid": 24304,
    "Ġnovelties": 24778,
    "Ġtuesday": 9626,
    "Ġpoem": 22586,
    "Ġuntidy": 23520,
    "guess": 14760,
    "Ġinvolve": 11043,
    "Ġflame": 7448,
    "Ġabundantly": 17156,
    "Ġled": 3524,
    "Ġstuff": 5717,
    "ceived": 1963,
    "Ġsulkily": 25882,
    "el": 306,
    "posture": 16927,
    "Ġslyness": 25266,
    "Ġheroines": 19750,
    "Ġfloat": 12030,
    "considered": 9580,
    "books": 8663,
    "Ġdiana": 21434,
    "Ġentirely": 3431,
    "Ġhorseman": 19606,
    "farewell": 12304,
    "Ġturnpike": 23025,
    "Ġtepid": 26412,
    "Ġtram": 11090,
    "Ġscold": 10950,
    "meditated": 19067,
    "ascending": 24707,
    "Ġsnapped": 9896,
    "Ġlooks": 4166,
    "ws": 7355,
    "Ġcontents": 7210,
    "Ġroving": 22400,
    "Ġpecks": 18669,
    "iter": 4392,
    "Ġverse": 16602,
    "Ġcopying": 17068,
    "Ġet": 3582,
    "dressing": 11481,
    "Ġharm": 5017,
    "izes": 883,
    "Ġextinguish": 14328,
    "Ġfav": 1751,
    "Ġreasoned": 23080,
    "Ġback": 811,
    "irectly": 6940,
    "Ġver": 3391,
    "alf": 4639,
    "Ġchaise": 9076,
    "Ġscrews": 25177,
    "Ġhereabouts": 12975,
    "Ġinqu": 2963,
    "Ġstruggle": 3677,
    "Ġhardened": 14449,
    "Ġcaptive": 14426,
    "unforeseen": 21885,
    "Ġambition": 11432,
    "eridge": 15524,
    "Ġdreaminess": 23937,
    "Ġhousekeeping": 18943,
    "Ġchicha": 15934,
    "Ġdreamt": 23936,
    "Ġexposure": 16097,
    "irwin": 8468,
    "aring": 1476,
    "therly": 18346,
    "Ġcav": 13879,
    "Ġenlarge": 21932,
    "hyme": 19608,
    "metallic": 19879,
    "Ġdiscre": 2410,
    "Ġtruthful": 23865,
    "Ġglow": 7170,
    "Ġrobbed": 23013,
    "astron": 22166,
    "Ġbildad": 3781,
    "Ġworkmen": 23057,
    "Ġnegro": 6447,
    "explained": 23137,
    "Ġornament": 11718,
    "Ġunreasonably": 17450,
    "ampton": 18145,
    "Ġentit": 22742,
    "paus": 13772,
    "eprints": 12789,
    "Ġextremities": 19194,
    "Ġneck": 4885,
    "Ġchick": 22244,
    "reproach": 15185,
    "surely": 10569,
    "honour": 13466,
    "atiously": 15520,
    "nourished": 26398,
    "Ġtrade": 2546,
    "uous": 4145,
    "Ġzer": 1097,
    "Ġfer": 5529,
    "Ġaloft": 4304,
    "Ġworshipped": 25691,
    "Ġcelebrated": 13593,
    "Ġenjoys": 19448,
    "Ġwayward": 22869,
    "Ġeels": 21617,
    "bra": 6219,
    "pract": 10119,
    "Ġsub": 950,
    "Ġgrown": 5628,
    "icit": 3376,
    "Ġmagical": 23095,
    "Ġchr": 3690,
    "Ġrespected": 11951,
    "Ġsorrow": 4629,
    "Ġintervened": 25481,
    "igms": 3043,
    "ally": 529,
    "Ġrefreshed": 15289,
    "truck": 15440,
    "Ġprairie": 8712,
    "inate": 6233,
    "Ġer": 8104,
    "Ġquivers": 22410,
    "zen": 5140,
    "Ġsheaves": 22155,
    "heav": 5694,
    "Ġaskance": 23147,
    "Ġabomination": 22275,
    "Ġ275": 20109,
    "valued": 2852,
    "Ġmonosyllable": 20725,
    "moral": 14801,
    "Ġidol": 7467,
    "ontory": 10459,
    "Ġbrazen": 23837,
    "Ġcontributed": 16007,
    "Ġsoftened": 11101,
    "Ġard": 5164,
    "en": 271,
    "Ġtablets": 13154,
    "unerative": 21893,
    "Ġcategorization": 12134,
    "Ġestimates": 3748,
    "Ġineffectual": 17383,
    "Ġcyl": 15554,
    "edy": 2858,
    "ium": 4864,
    "Ġtoils": 10185,
    "Ġreflections": 5945,
    "Ġviolation": 23404,
    "Ġ184": 16607,
    "Ġdecline": 9287,
    "ni": 1730,
    "Ġthereupon": 18433,
    "Ġwel": 4527,
    "Ġstray": 18072,
    "´": 117,
    "Ġseedy": 21952,
    "Ġlandsman": 11350,
    "Ġobservant": 20108,
    "well": 1690,
    "Ġcrying": 10786,
    "Ġperils": 6272,
    "Ġaright": 11738,
    "Ġepistle": 24904,
    "Ġperches": 18448,
    "Ġeaster": 15672,
    "Ġcousin": 3706,
    "Ġdest": 2234,
    "utility": 21584,
    "Ġdenny": 9001,
    "tornadoes": 26153,
    "Ġproblem": 1272,
    "aration": 12604,
    "belt": 24032,
    "Ġpriest": 7526,
    "promising": 24726,
    "sure": 5522,
    "Ġbrook": 13045,
    "Ġsuggested": 8320,
    "tone": 8762,
    "Ġconcern": 2656,
    "Ġwatched": 6297,
    "Ġalien": 14017,
    "acquaintance": 6938,
    "uned": 21868,
    "dining": 13704,
    "Ġthinkings": 22808,
    "Ġdetest": 8500,
    "Ġhunch": 18934,
    "Ġmemb": 14028,
    "actor": 11836,
    "Ġdoubled": 19641,
    "Ġconversation": 3329,
    "Ġinconsiderable": 21492,
    "ö": 183,
    "akened": 7415,
    "ĠĠĠĠĠĠĠĠĠĠĠĠĠĠĠĠĠĠĠĠĠĠĠĠĠĠĠĠĠĠĠĠĠĠĠĠĠĠĠĠĠĠĠĠĠĠĠĠĠ": 20036,
    "sworn": 24256,
    "ority": 8417,
    "Ġamsterdam": 22481,
    "Ġimbec": 14156,
    "Ġelbowed": 16107,
    "evening": 7089,
    "Ġshaping": 22000,
    "extra": 8218,
    "Ġmouthfuls": 20645,
    "Ġoccas": 2705,
    "Ġgenuine": 14884,
    "ifle": 10891,
    "Ġreply": 4515,
    "instinctively": 26327,
    "Ġnovember": 11747,
    "Ġhatchet": 16528,
    "Ġdusk": 12325,
    "Ġadvance": 5484,
    "Ġsemantic": 1956,
    "Ġengineer": 11973,
    "olets": 21007,
    "Ġdevices": 2940,
    "adays": 14012,
    "Ġmounted": 7832,
    "Ġevaluate": 3098,
    "Ġmanage": 7640,
    "Ġbegged": 8230,
    "Ġaval": 15492,
    "homage": 25616,
    "Ġappellation": 22217,
    "Ġabruptly": 15149,
    "harmony": 25750,
    "uding": 16146,
    "Ġterra": 13115,
    "Ġcemet": 20679,
    "Ġbills": 17860,
    "depths": 25663,
    "Ġfolios": 23017,
    "Ġpretended": 19313,
    "Ġrelaps": 18775,
    "Ġpreceded": 13427,
    "Ġingenuity": 17163,
    "unting": 21871,
    "ffic": 22148,
    "Ġsunday": 7270,
    "aster": 1867,
    "hib": 15366,
    "Ġprolonged": 8357,
    "Ġpopulous": 16826,
    "Ġinteraction": 7424,
    "Ġaugust": 10597,
    "designated": 26295,
    "Ġcontextual": 3743,
    "Ġgret": 21598,
    "Ġrighted": 23175,
    "war": 6802,
    "jug": 17580,
    "ius": 5789,
    "ography": 13361,
    "Ġomn": 8409,
    "stone": 5089,
    "Ġunbroken": 18250,
    "bred": 11469,
    "ative": 747,
    "ensibility": 22544,
    "Ġhealthy": 10851,
    "etent": 10199,
    "Ġbay": 9168,
    "sterdam": 19087,
    "Ġinsufferable": 13930,
    "unusual": 21876,
    "Ġmultitudinous": 26273,
    "Ġthreatened": 8329,
    "Ġpenetrating": 17011,
    "Ġbower": 15564,
    "Ġestate": 6316,
    "Ġvancouver": 26565,
    "drive": 8682,
    "Ġhorn": 6185,
    "tranquil": 25870,
    "ifted": 4495,
    "Ġsole": 3298,
    "pil": 15407,
    "Ġskylarking": 19485,
    "Ġharem": 9708,
    "swiss": 24255,
    "Ġthr": 5709,
    "Ġhobbling": 25644,
    "Ġclearing": 8239,
    "instrument": 15237,
    "Ġshoved": 23488,
    "rences": 9271,
    "Ġstupid": 7606,
    "hole": 5586,
    "Ġattended": 5391,
    "ubines": 22956,
    "leton": 5148,
    "Ġ1828": 25720,
    "Ġappet": 9730,
    "Ġjustine": 4970,
    "Ġlanguid": 14214,
    "Ġbag": 5699,
    "fro": 8732,
    "Ġdiversity": 25284,
    "Ġfreezing": 23881,
    "Ġhousekeeper": 7456,
    "Ġfirmness": 11237,
    "thinks": 16641,
    "Ġif": 698,
    "Ġcardboard": 19977,
    "Ġwhilst": 9218,
    "Ġothers": 2581,
    "cu": 10083,
    "wondrous": 12336,
    "Ġcoding": 8115,
    "offices": 19061,
    "Ġwilliam": 3483,
    "Ġpliny": 11823,
    "Ġcurve": 22996,
    "urmountable": 15278,
    "iet": 1774,
    "explanations": 25234,
    "gossip": 23402,
    "arrested": 15598,
    "rine": 21036,
    "leading": 15559,
    "older": 15753,
    "Ġlulled": 17968,
    "mercenary": 26315,
    "Ġtreacle": 14595,
    "Ġadmires": 19684,
    "help": 1477,
    "Ġproofs": 19813,
    "Ġformed": 3884,
    "Ġepis": 19980,
    "Ġess": 5691,
    "Ġsnugly": 17111,
    "moderate": 22868,
    "Ġmarking": 16467,
    "iger": 8446,
    "Ġrealised": 18980,
    "Ġidentifies": 12013,
    "ards": 2504,
    "Ġeste": 6084,
    "Ġmak": 10778,
    "Ġdispleasure": 16049,
    "Ļ": 252,
    "Ġexplo": 2281,
    "Ġcope": 17830,
    "oke": 1860,
    "appointment": 24057,
    "Ġ123": 24468,
    "Ġexpiration": 22622,
    "Ġrattler": 24995,
    "Ġmalays": 19676,
    "Ġtortured": 14923,
    "lucases": 20209,
    "beries": 22714,
    "phere": 21018,
    "allow": 5104,
    "opportunity": 12272,
    "deal": 12796,
    "Ġpeevish": 26557,
    "Ġxviii": 23408,
    "Ġdisinclination": 22533,
    "Ġpenn": 11112,
    "une": 2786,
    "abominable": 20592,
    "Ġanoint": 25537,
    "Ġsins": 13836,
    "precipitance": 25867,
    "Ġsmut": 22553,
    "Ġlumps": 21553,
    "Ġlottery": 19887,
    "feit": 16040,
    "affected": 10476,
    "simple": 13451,
    "Ġcommonplaces": 16287,
    "trembling": 17142,
    "misfortunes": 16756,
    "Ġvitality": 15171,
    "mming": 1169,
    "Ġoblong": 14320,
    "eldom": 4414,
    "Ġashore": 5351,
    "Ġroods": 22401,
    "Ġunsupplied": 22038,
    "currents": 23842,
    "Ġredu": 1351,
    "Ġsped": 22122,
    "Ġincessantly": 11411,
    "inced": 3335,
    "Ġreality": 7057,
    "Ġ94": 17717,
    "slept": 17169,
    "glances": 23851,
    "Ġimpulsive": 19961,
    "official": 24914,
    "Ġflogged": 23623,
    "Ġplunge": 13442,
    "Ġought": 3416,
    "Ġnaturalist": 22894,
    "Ġprosper": 10228,
    "Ġmitigating": 1619,
    "five": 6356,
    "Ġprospect": 4706,
    "Ġanytime": 12882,
    "nour": 20987,
    "Ġknock": 9972,
    "Ġgain": 4827,
    "osition": 1371,
    "Ġsubterraneous": 20264,
    "Ġadmiration": 5328,
    "Ġaught": 8772,
    "Ġhip": 17920,
    "eaten": 20343,
    "Ġpercept": 14222,
    "Ġoverjoy": 15969,
    "speeches": 25239,
    "Ġw": 272,
    "ĠĠĠĠĠĠĠĠĠĠĠĠĠĠĠĠĠĠĠĠĠĠĠĠĠĠĠĠĠĠĠĠ": 2740,
    "Ġgun": 4702,
    "Ġcurtain": 14419,
    "Ġjournal": 15217,
    "abama": 12706,
    "observed": 7674,
    "Ġanalogical": 25640,
    "Ġloops": 8852,
    "Ġlargest": 6282,
    "Ġleviathans": 8281,
    "Ġspanish": 2827,
    "Ġlionel": 25286,
    "afford": 14654,
    "Ġsuffoc": 18870,
    "rets": 12538,
    "Ġassail": 13060,
    "dying": 10694,
    "umul": 1290,
    "Ĕ": 213,
    "belais": 24035,
    "lo": 680,
    "Ġtyp": 1128,
    "Ġdiffused": 12066,
    "anded": 5922,
    "redible": 15802,
    "wards": 1278,
    "Ð": 145,
    "Ġdisreputable": 22531,
    "Ġblooming": 17212,
    "ier": 1134,
    "Ġbask": 8116,
    "ginger": 13162,
    "Ġlowered": 6735,
    "Ġunconquerable": 22058,
    "ouses": 5163,
    "Ġexists": 14040,
    "abond": 15738,
    "Ġlou": 6822,
    "lady": 4433,
    "Ġinject": 2714,
    "Ġforgo": 21770,
    "chamber": 13624,
    "Ġwhitewashed": 14468,
    "Ġloveliness": 13607,
    "horizon": 23614,
    "remonstr": 23188,
    "Ġtide": 6658,
    "Ġaccounted": 10294,
    "arthur": 14829,
    "artic": 14224,
    "Ġrough": 7187,
    "Ġagrippa": 11805,
    "Ġsimplest": 16332,
    "Ġinconsistency": 26182,
    "heart": 4526,
    "Ġclump": 15963,
    "ċ": 204,
    "Ġhopelessly": 16377,
    "Ġwarned": 16880,
    "Ġveteran": 17449,
    "gener": 3123,
    "covery": 11171,
    "Ġshameful": 19851,
    "Ġcontext": 1714,
    "Ġcharted": 22247,
    "Ġscraggy": 24579,
    "Ġreduces": 2339,
    "sharks": 14238,
    "Ġviv": 6156,
    "Ġtopmost": 14586,
    "Ġrealise": 16335,
    "Ġindefinitely": 25221,
    "acute": 22592,
    "invested": 17117,
    "uguese": 20731,
    "conven": 6162,
    "Ġbright": 3211,
    "Ġbread": 5404,
    "Ġscenes": 5730,
    "icious": 7380,
    "actions": 8906,
    "Ġsibbald": 21229,
    "Ġvernal": 23886,
    "ash": 1990,
    "Ġdeepest": 8213,
    "ara": 12603,
    "Ġpossessing": 16575,
    "weed": 14314,
    "seek": 8836,
    "Ġcorpor": 23036,
    "Ġwag": 10775,
    "Ġbend": 9170,
    "arn": 356,
    "ounix": 14163,
    "Ġgodson": 23356,
    "Ġreconc": 9682,
    "Ġmu": 17795,
    "shudder": 26245,
    "iability": 20919,
    "Ġpoint": 2055,
    "rap": 21625,
    "Ġblind": 3717,
    "histicated": 20900,
    "Ġunmanner": 22024,
    "bask": 20775,
    "Ġunlabeled": 3799,
    "Ġperiod": 4006,
    "lake": 13748,
    "Ġpoultry": 17440,
    "ically": 837,
    "Ġarms": 3968,
    "Ġsay": 932,
    "Ġreside": 22536,
    "Ġtrample": 20326,
    "Ġreview": 18030,
    "Ġseaward": 22944,
    "Ġdodge": 19885,
    "inder": 9152,
    "tw": 2812,
    "Ġgrud": 17995,
    "fetch": 12462,
    "Ġlot": 6678,
    "Ġbuttoned": 25368,
    "Ġbell": 4636,
    "watching": 16930,
    "Ġmultimodal": 18747,
    "Ġdrives": 14576,
    "Ġfoam": 6891,
    "lays": 14921,
    "Ġdivineness": 25724,
    "bestow": 16929,
    "persuade": 13532,
    "Ġhealthful": 24056,
    "from": 1989,
    "Ġadapts": 3815,
    "Ġcarn": 17821,
    "Ġrenounce": 19466,
    "sense": 11523,
    "Ġcomely": 21840,
    "Ġcomputes": 4768,
    "itters": 10781,
    "oo": 7553,
    "Ġmes": 17796,
    "Ġseeth": 21950,
    "Ġbrawny": 13612,
    "Ġxxxix": 24968,
    "Ġimprecate": 20516,
    "Ġshield": 21996,
    "Ġmod": 496,
    "words": 7982,
    "Ġturner": 7049,
    "comed": 8545,
    "otently": 21797,
    "Ġnetwork": 452,
    "Ġpractices": 19034,
    "asted": 4650,
    "Ġsolitude": 6876,
    "Ġapplication": 2025,
    "Ġharbors": 24901,
    "Ġidentical": 10434,
    "lie": 12480,
    "anite": 17837,
    "Ġepo": 21616,
    "Ġinfinitely": 8963,
    "ough": 472,
    "Ġenem": 4708,
    "lantern": 17427,
    "Ġsteelkilt": 5675,
    "mews": 22711,
    "Ġcomputers": 2643,
    "Ġbarbaric": 10013,
    "Ġfragment": 14513,
    "suffer": 24333,
    "Ġsubaltern": 22788,
    "Ġcinque": 20484,
    "Ġpaddle": 20057,
    "clim": 18929,
    "rank": 21040,
    "Ġimparted": 15987,
    "izers": 18134,
    "conf": 4957,
    "Ġfancies": 10424,
    "Ġlawyer": 10668,
    "Ġunprincipled": 20707,
    "Ġreturn": 1709,
    "ĠĠĠĠĠĠ": 6414,
    "despicable": 24636,
    "Ġsuppress": 13017,
    "Ġdefy": 11895,
    "Ġrefrained": 14339,
    "Ġgreeks": 20011,
    "tails": 21085,
    "peculiarity": 23106,
    "Ġunst": 18238,
    "Ġneither": 3688,
    "Ġdreaming": 11223,
    "Ġundisturbed": 19518,
    "Ġbanished": 10616,
    "acity": 5735,
    "cil": 8720,
    "mmar": 952,
    "okers": 18441,
    "red": 397,
    "Ġwilson": 6629,
    "Ġrucastle": 5176,
    "fed": 11487,
    "Ġantics": 24178,
    "Ġrem": 954,
    "Ġfix": 2507,
    "Ġpinched": 17035,
    "Ġprofessors": 14724,
    "Ġinsincere": 26599,
    "Ġcashier": 20197,
    "seventy": 10876,
    "Ġcrushed": 9422,
    "gradually": 12912,
    "Ġnoisy": 13317,
    "Ġlanding": 11983,
    "Ġterrified": 14671,
    "ifford": 15781,
    "wretch": 17708,
    "atement": 17773,
    "sust": 15421,
    "infor": 3173,
    "inquiries": 13576,
    "Ġseeing": 2884,
    "doing": 8584,
    "uendoes": 26407,
    "claims": 25319,
    "Ġbehold": 5049,
    "axed": 8888,
    "Ġdoors": 6418,
    "Ġverdure": 10612,
    "Ġanecdote": 26354,
    "Ġsignal": 5944,
    "Ġsinusoid": 4781,
    "perceived": 8858,
    "Ġcharley": 19005,
    "oper": 7347,
    "Ġreplied": 2261,
    "Ġborrow": 10170,
    "ats": 4254,
    "Ġconsummation": 17424,
    "Ġsuspicions": 9478,
    "orated": 12588,
    "Ġnewcastle": 16222,
    "regiment": 16451,
    "Ġzeros": 3324,
    "scure": 22980,
    "Ġunless": 4092,
    "Ġbolt": 11334,
    "Ġcritical": 7475,
    "jer": 12478,
    "Ġproc": 5545,
    "walking": 9981,
    "Ġ181": 23892,
    "silver": 19689,
    "Ġscept": 15502,
    "judged": 14830,
    "Ġentropy": 2031,
    "Ġcaptains": 7457,
    "Ġgravity": 9247,
    "Ġ82": 24458,
    "Ġensu": 7874,
    "Ġdanish": 21429,
    "flask": 12097,
    "silly": 24422,
    "Ġexplaining": 15958,
    "monster": 8591,
    "Ġexerc": 6833,
    "whis": 7897,
    "pressing": 19012,
    "representing": 25271,
    "Ġmistaking": 23717,
    "Ġregulations": 18599,
    "battle": 12440,
    "apt": 720,
    "eted": 7591,
    "Ġelijah": 9099,
    "concerned": 24638,
    "boards": 23252,
    "Ġswain": 18880,
    "Ġinadequate": 17936,
    "carefully": 13367,
    "Ġirritation": 20265,
    "book": 4670,
    "Ġsentiment": 6588,
    "Ġprotracted": 19467,
    "aphys": 15200,
    "Ġvicissitudes": 12417,
    "exclaimed": 11788,
    "Ġmerit": 9426,
    "Ġembark": 8557,
    "Ġattribute": 16095,
    "confusion": 13368,
    "Ġrever": 6536,
    "towns": 24854,
    "Ġvisited": 5947,
    "Ġturns": 4981,
    "tried": 13793,
    "surprised": 9530,
    "Ġperpetually": 17070,
    "Ġdirest": 22702,
    "Ġ17": 5740,
    "Ġunattended": 15841,
    "Ġglo": 1712,
    "Ġcadiz": 17324,
    "Ġpoet": 8208,
    "silence": 8044,
    "Ġviolates": 3162,
    "Ġsticking": 13426,
    "Ġreposing": 23359,
    "Ġsutherland": 10148,
    "tum": 11531,
    "Ġdates": 6693,
    "nes": 6961,
    "visible": 10533,
    "emper": 18180,
    "Ġnovelty": 13462,
    "Ġdomineering": 23655,
    "gal": 15354,
    "Ġtypically": 1534,
    "Ġkindling": 19030,
    "Ġsung": 23269,
    "entiful": 10836,
    "Ġdispelling": 23878,
    "Ġwickedness": 9525,
    "herfield": 3633,
    "ificial": 612,
    "trained": 4240,
    "helmsman": 24287,
    "Ġlamentations": 17076,
    "pans": 13769,
    "painful": 13501,
    "Ġlogger": 11952,
    "Ġvoc": 4451,
    "Ġrevolutionized": 3365,
    "for": 966,
    "usually": 10285,
    "Ġscrewed": 15119,
    "Ġfate": 4754,
    "Ġnote": 4264,
    "Ġexe": 3998,
    "Ġpreventing": 881,
    "anced": 1262,
    "Ġregrets": 18600,
    "Ġadvertisement": 6941,
    "Ġyield": 5093,
    "Ġwarsaw": 26167,
    "Ġdru": 8421,
    "Ġwrapping": 19774,
    "Ġgloom": 4200,
    "Ġwhaleboats": 18478,
    "borough": 20784,
    "dron": 17525,
    "Ġcommission": 6712,
    "Ġhave": 445,
    "Ġdeeps": 16111,
    "Ġslacked": 25188,
    "ppo": 18175,
    "Ġmexic": 14030,
    "Ġlithe": 24668,
    "sulphur": 25909,
    "Ġhypocritical": 20737,
    "Ġboarders": 16600,
    "Ġpom": 21449,
    "Ġest": 2262,
    "Ġwe": 388,
    "Ġresidual": 1679,
    "Ġtelescopes": 25690,
    "iment": 2816,
    "Ġrephr": 21676,
    "izard": 10879,
    "Ġlik": 2522,
    "Ġsultanism": 25888,
    "Ġentreating": 24207,
    "Ġcircumference": 13544,
    "Ġerror": 1766,
    "Ġviii": 16410,
    "Ġfrigid": 17352,
    "happened": 9432,
    "Ġclubb": 22345,
    "hab": 1076,
    "Ġescaping": 13133,
    "Ġforgetting": 3432,
    "Ġbrother": 2751,
    "Ġinferences": 17934,
    "intern": 23734,
    "brim": 23571,
    "ology": 1596,
    "combination": 25486,
    "rugged": 6849,
    "Ġpond": 13915,
    "Ġpet": 4586,
    "Ġjura": 14192,
    "Ġevenly": 4130,
    "Ġdeserts": 10507,
    "dripping": 16905,
    "Ġtusk": 25425,
    "Ġoverhanging": 22361,
    "Ġhigh": 931,
    "Ġretired": 6070,
    "Ġsouthwards": 19632,
    "Ġreplace": 14476,
    "deemed": 18315,
    "Ġpap": 8797,
    "dr": 6221,
    "Ġtravell": 5576,
    "Ġabstracted": 17182,
    "bos": 17483,
    "Ġproposal": 10018,
    "isturbed": 18297,
    "Ġdeployment": 11204,
    "Ġtipped": 17728,
    "Ġneared": 14074,
    "enterprise": 24992,
    "Ġint": 409,
    "Ġstag": 6148,
    "irt": 3074,
    "Ġdaft": 19662,
    "equ": 6790,
    "reast": 17758,
    "Ġresort": 18563,
    "Ġaudacious": 13459,
    "pine": 13768,
    "sleep": 6511,
    "Ġunfold": 8022,
    "cried": 8724,
    "ĭ": 238,
    "Ġarsacides": 17293,
    "Ġinit": 818,
    "frantic": 24283,
    "Ġalternate": 19984,
    "Ġunconscious": 9546,
    "tent": 21063,
    "atch": 673,
    "orified": 21400,
    "alarms": 21502,
    "Ġlost": 2632,
    "rid": 5137,
    "omp": 2466,
    "Ġstool": 14460,
    "term": 3759,
    "Ġcass": 13878,
    "Ġcumbrous": 26432,
    "Ġissued": 10599,
    "upper": 11538,
    "iamond": 14590,
    "enthus": 17977,
    "Ġcrosses": 23058,
    "Ġrows": 10561,
    "gaining": 20122,
    "Ġdangerous": 6613,
    "imely": 13997,
    "augment": 18828,
    "Ġpreserved": 9261,
    "Ġheartily": 6890,
    "Ġpeace": 3694,
    "ouched": 4637,
    "Ġconstru": 19069,
    "urously": 18050,
    "Ġbass": 17855,
    "values": 4973,
    "men": 1485,
    "Ġdarker": 13118,
    "postp": 24634,
    "Ġbefore": 808,
    "Ġauthorities": 11264,
    "Ġtube": 15003,
    "O": 51,
    "Ġdemig": 20355,
    "of": 768,
    "itz": 6005,
    "pointing": 12222,
    "infant": 19826,
    "Ġshave": 21993,
    "Ġhval": 21485,
    "Ġenchant": 7185,
    "Ġesquimaux": 25150,
    "iver": 2048,
    "Ġmagnifying": 16319,
    "Ġhams": 16612,
    "Ġour": 1010,
    "Ġglistened": 20171,
    "Ġgasps": 24865,
    "cruise": 24841,
    "Ġappo": 8497,
    "Ġvelvets": 25393,
    "Ġcet": 6669,
    "Ġfreed": 7267,
    "Ġrelied": 16193,
    "```": 25893,
    "Ġbart": 17857,
    "Ġdisciple": 22780,
    "Ġlandless": 23377,
    "Ġimpression": 5732,
    "Ġrider": 24185,
    "rapt": 13972,
    "Ġroots": 11185,
    "infernal": 24662,
    "rogress": 21533,
    "Ġfog": 9661,
    "Ġabstraction": 26539,
    "Ġsucceeded": 6105,
    "Ġprocopius": 19730,
    "Ġcomputation": 963,
    "angu": 572,
    "determination": 19943,
    "encies": 4082,
    "Ġservant": 5764,
    "Ġinevitable": 15166,
    "Ġtranquillize": 24757,
    "ander": 6401,
    "Ġbremen": 23343,
    "Ġarch": 939,
    "obstructed": 15225,
    "clever": 20812,
    "Ġmout": 17798,
    "Ġgrief": 4621,
    "Ġgrows": 4985,
    "Ġwept": 7184,
    "Ġ-": 1940,
    "join": 12111,
    "anean": 7443,
    "Ġadoration": 18290,
    "bethinking": 25745,
    "Ġdelicately": 24126,
    "Ġmeasuring": 22879,
    "Ġwickham": 2204,
    "Ġplatonian": 25118,
    "geon": 6270,
    "stealthily": 23959,
    "false": 15353,
    "Ġpresumably": 19623,
    "Ġmoods": 14950,
    "Ġful": 4298,
    "Ġ79": 24264,
    "eric": 3470,
    "Ġgurglings": 26465,
    "peddling": 24696,
    "Ġhowever": 1306,
    "Ġfifth": 11257,
    "Ġcorps": 13030,
    "Ġhereby": 10358,
    "insisted": 23063,
    "Ġoriginal": 6102,
    "pulled": 25145,
    "enses": 10994,
    "sensibility": 25023,
    "Ġchill": 11750,
    "sinking": 17668,
    "Ġstrong": 1787,
    "Ġinvoking": 19145,
    ",)": 9100,
    "Ġdine": 7366,
    "Ġsympathised": 14861,
    "Ġsol": 1103,
    "Ġenchantment": 24869,
    "Ġinher": 10179,
    "Ġcoming": 2615,
    "Ġpurchasing": 19874,
    "prints": 23810,
    "Ġchrist": 4075,
    "coloured": 7291,
    "Ġexcited": 5580,
    "achment": 5463,
    "Ġmors": 17801,
    "Ġcommunications": 16353,
    "Ġrushes": 20506,
    "omitted": 18016,
    "Ġcrescent": 16134,
    "clo": 5613,
    "Ġpreluding": 18368,
    "somebody": 14564,
    "highest": 20406,
    "aviour": 11004,
    "Ġsemicircular": 26068,
    "regarded": 12006,
    "heidelburgh": 21210,
    "Ġextinction": 14327,
    "Ġ60": 14874,
    "Ġploughing": 26259,
    "Ġmachines": 1776,
    "Ġendured": 6072,
    "Ġpigs": 19746,
    "onsense": 6431,
    "Ġbias": 1193,
    "portent": 25412,
    "Ġchaplain": 19911,
    "hairs": 20903,
    "Ġcurvature": 3575,
    "Ġthorough": 6245,
    "felt": 5888,
    "slack": 16894,
    "Ġundiscovered": 18252,
    "oa": 9612,
    "gee": 15975,
    "Ġfurn": 3711,
    "generosity": 23785,
    "Ġtales": 10141,
    "Ġchemistry": 11460,
    "ont": 2619,
    "Ġthunder": 4823,
    "Ġquarter": 3978,
    "accomplishments": 25326,
    "Ġellenborough": 26154,
    "Ġpau": 17906,
    "Ġpoltro": 23618,
    "Ġargosy": 24273,
    "Ġgentle": 1889,
    "event": 8076,
    "bud": 10682,
    "iferous": 17291,
    "Ġlab": 1871,
    "onious": 15517,
    "foolish": 12345,
    "Ġbeckoning": 20500,
    "Ġmarching": 16699,
    "Ġactively": 18654,
    "Ġrolled": 4430,
    "foundation": 16714,
    "Ġabsorb": 25112,
    "Ġbirds": 5873,
    "Ġaglow": 22511,
    "arnel": 18121,
    "Ġlocked": 6034,
    "Ġlessened": 19085,
    "Ġanno": 9667,
    "Ġpr": 1599,
    "Ġkrempe": 10669,
    "apply": 18759,
    "âĢĿâĢĶ": 5721,
    "Ġfrayed": 23311,
    "Ġslumbering": 25701,
    "Ġpeak": 16124,
    "Ġorlop": 22090,
    "Ġstiffly": 15005,
    "¤": 102,
    "Ġmacro": 25939,
    "Ġexecutors": 19532,
    "Ġdismasted": 15250,
    "ads": 5718,
    "Ġunremitting": 26217,
    "Ġstrained": 10218,
    "Ġbeech": 18082,
    "Ġrefinement": 18699,
    "thee": 9689,
    "Ġdust": 5908,
    "Ġstepdaughter": 22610,
    "indulged": 22372,
    "Ġastr": 15493,
    "Ġroared": 7023,
    "Ġexpl": 486,
    "Ġbears": 6829,
    "vered": 4829,
    "seem": 10227,
    "Ġhearts": 4972,
    "brown": 15316,
    "ired": 1444,
    "Ġbestowed": 6593,
    "Ġleak": 2159,
    "lift": 15383,
    "Ġlakes": 8130,
    "Ġfanatic": 23390,
    "inno": 10756,
    "Ġbestir": 13108,
    "Ġharpoons": 5659,
    "appo": 3915,
    "Ġtheatre": 21277,
    "Ġmetrics": 19090,
    "Ġdrawing": 3918,
    "fold": 7546,
    "reed": 6373,
    "Ġthickly": 12113,
    "Ġconfiding": 19037,
    "aculate": 16080,
    "Ġcaulk": 25440,
    "Ġtints": 17727,
    "itating": 9650,
    "ä": 165,
    "Ġprimal": 17107,
    "courage": 17509,
    "Ġtingling": 15091,
    "Ġrheum": 18214,
    "Ġdared": 5440,
    "Ġrecre": 22735,
    "mselves": 2862,
    "swam": 24254,
    "Ġdiscriminative": 4328,
    "Ġren": 3844,
    "Ġthoughtful": 16190,
    "bank": 10079,
    "Ġsig": 868,
    "51": 12429,
    "Ġcasement": 25092,
    "Ġtraining": 530,
    "glancing": 11214,
    "hook": 12051,
    "laborers": 23913,
    "Ġrelent": 18774,
    "Ġcomment": 9232,
    "Ġgrove": 12144,
    "ised": 1088,
    "Ġenlar": 15798,
    "Ġmoth": 17802,
    "Ġfairy": 14627,
    "Ġpast": 2099,
    "Ġheavens": 5050,
    "cheeked": 19339,
    "Ġmccarthys": 19661,
    "Ġgirth": 13134,
    "aisance": 15073,
    "Ġlam": 21546,
    "keeping": 8634,
    "Ġproduct": 3536,
    "matters": 14873,
    "Ġpick": 4257,
    "oak": 21002,
    "wes": 17703,
    "reasonable": 7751,
    "Ġmild": 4147,
    "arming": 8951,
    "somers": 19366,
    "Ġdistribution": 2018,
    "Ġembellish": 25847,
    "preading": 18499,
    "Ġiterate": 13200,
    "greeting": 24554,
    "gul": 12463,
    "inting": 9813,
    "Ġqueequeg": 2011,
    "Ġnash": 5819,
    "expedition": 26078,
    "Ġlye": 21548,
    "||": 4869,
    "ere": 6789,
    "Ġescorted": 23504,
    "Ġmince": 22828,
    "Ġhap": 18195,
    "Ą": 197,
    "finished": 10554,
    "atter": 639,
    "Ġverses": 17063,
    "Ġallen": 5160,
    "Ġpatched": 16359,
    "eyeing": 14945,
    "Ġjun": 8505,
    "Ġinflicted": 11365,
    "resent": 10769,
    "Ġindividuality": 14908,
    "Ġdawn": 6816,
    "quis": 7869,
    "ĠĠĠ": 2116,
    "idence": 4303,
    "Ġcommunity": 19008,
    "quite": 4647,
    "laden": 14928,
    "heavens": 19744,
    "fun": 3935,
    "language": 5129,
    "Ġimple": 1840,
    "Ġexplore": 15906,
    "Ġpleaded": 16297,
    "Ġbeholding": 8668,
    "Ġchose": 7413,
    "Ġ107": 24415,
    "Ġcolleague": 17159,
    "Ġcondensed": 24050,
    "Ġeats": 15674,
    "Ġhomage": 12353,
    "Ġcorridor": 10671,
    "Ď": 207,
    "omas": 12668,
    "Ġstrewed": 23420,
    "goodness": 19288,
    "Ġwaldman": 11345,
    "Ġdecent": 10982,
    "Ġassisting": 13257,
    "Ġgene": 15669,
    "asions": 12648,
    "noon": 5037,
    "strange": 6086,
    "Ġnaught": 8127,
    "izon": 18133,
    "Ġcomrade": 12281,
    "Ġwooded": 23517,
    "ositories": 22261,
    "Ġtaken": 2527,
    "Ġdash": 8121,
    "ributed": 8214,
    "Ġdefinition": 14403,
    "Ġnot": 413,
    "Ġdesperate": 7776,
    "Ġlightness": 23257,
    "Ġcabin": 3303,
    "control": 16542,
    "officer": 17054,
    "Ġsummar": 3528,
    "im": 327,
    "Ġcorpulence": 24509,
    "Ġsensibly": 14516,
    "work": 1784,
    "bird": 9585,
    "methodically": 20663,
    "twain": 23699,
    "Ġbricks": 13561,
    "Ġstalked": 20427,
    "Ġweep": 7619,
    "pate": 21009,
    "catherine": 7127,
    "Ġburgled": 23652,
    "Ġfishing": 9662,
    "function": 4385,
    "Ġattained": 14077,
    "Ġcongealed": 25981,
    "Ġhandspikes": 12935,
    "heed": 15497,
    "footsteps": 25199,
    "Ġsatisfaction": 5667,
    "Ġlaug": 3630,
    "Ġtreacher": 8604,
    "Ġparac": 12792,
    "Ġmach": 13856,
    "Ġarmchair": 8270,
    "Ġtrying": 4838,
    "Ġacutely": 14313,
    "Ġnations": 8809,
    "Ġruff": 14348,
    "Ġgained": 4535,
    "Ġasiatics": 20429,
    "Ġastonishing": 10501,
    "Ġretort": 23066,
    "Ġopal": 23624,
    "Ġguardians": 14942,
    "Ġpoltroon": 26598,
    "ood": 961,
    "Ġglared": 13011,
    "umed": 6554,
    "Ġegg": 8818,
    "ittle": 810,
    "poises": 11887,
    "go": 2062,
    "fit": 6645,
    "blot": 20782,
    "Ġcling": 11769,
    "ommod": 13976,
    "dishonourable": 26365,
    "Ġimpertinent": 9077,
    "russian": 22176,
    "hangs": 15367,
    "Ġcup": 5697,
    "Ġtet": 21156,
    "Ġcompassion": 6487,
    "Ġrumours": 24598,
    "Ġcruises": 23704,
    "U": 57,
    "Ġwives": 12552,
    "Ġpaddles": 15146,
    "Ġruth": 14093,
    "fixed": 7548,
    "Ġxvi": 19104,
    "Ġyarman": 12702,
    "phant": 6287,
    "Ġpeeping": 16125,
    "Ġepic": 15029,
    "rable": 11631,
    "Ġdistress": 5844,
    "Ġintertw": 18586,
    "Ġstrangeness": 16707,
    "new": 1467,
    "Ġcharmingly": 24221,
    "benevolently": 25600,
    "Ġfaith": 5350,
    "Ġon": 350,
    "difficulty": 12388,
    "Ġphrenolog": 12332,
    "writhed": 26080,
    "Ġeber": 18003,
    "Ġsympathy": 6346,
    "Ġarrangement": 2657,
    "arrival": 15597,
    "Ġassiduous": 26292,
    "apable": 6422,
    "critters": 14783,
    "Ġsaucer": 20604,
    "weave": 22682,
    "iel": 11493,
    "acknowledged": 15201,
    "astonished": 15032,
    "ram": 13971,
    "Ġindispensable": 11898,
    "Ġadvertising": 25389,
    "Ġbows": 4085,
    "indirect": 22369,
    "Ġvide": 10250,
    "ignation": 11128,
    "Ġlapl": 19776,
    "Ġunrecorded": 17467,
    "duodecimo": 16000,
    "Ġcommenced": 8531,
    "Ġhappen": 5571,
    "Ġtested": 23209,
    "dramatic": 19383,
    "by": 1154,
    "Ġretrieval": 10674,
    "Ġrejoined": 14926,
    "lished": 8382,
    "Ġuntutored": 19165,
    "Ġ134": 24784,
    "adders": 24400,
    "Ġtelescope": 17347,
    "Ġwatchman": 23667,
    "ulls": 8837,
    "Ġspare": 5102,
    "conc": 3949,
    "Ġhamp": 12627,
    "idy": 21761,
    "Ġtortures": 14922,
    "Ġmarty": 20289,
    "Ġcrackling": 24958,
    "eting": 7169,
    "Ġbrides": 22856,
    "impropriety": 21710,
    "Ġthemselves": 3250,
    "Ġmarble": 7668,
    "Ġrelieve": 8223,
    "type": 16175,
    "Ġrib": 4936,
    "destined": 24115,
    "Ġexecut": 4248,
    "ospel": 17010,
    "Ġgrasped": 8033,
    "Ġstair": 8455,
    "Ġarrive": 6907,
    "ines": 681,
    "Ġhairy": 23863,
    "initions": 21186,
    "Ġfaithful": 9502,
    "allest": 5485,
    "Ġreproachfully": 25251,
    "Ġunctuous": 10266,
    "activation": 3228,
    "pedest": 24695,
    "Ġrespond": 11176,
    "Ġjavelin": 26104,
    "ault": 2302,
    "rece": 21233,
    "Ġsquad": 22834,
    "exercise": 17459,
    "ceremony": 20588,
    "windlass": 16721,
    "Ġlovel": 10271,
    "Ġruffled": 25835,
    "Ġprocure": 9509,
    "Ġsocietal": 11436,
    "mael": 6722,
    "Ġunwilling": 7885,
    "Ġbitterly": 8314,
    "Ġfarther": 5954,
    "Ġcrumpled": 16441,
    "sively": 13785,
    "Ġvill": 3877,
    "abil": 2006,
    "Ġcoroner": 7510,
    "Ġprison": 5403,
    "Ġcrushing": 20175,
    "Ġexpanded": 14289,
    "Ġassent": 12730,
    "Ġempires": 19073,
    "Ġhaught": 10252,
    "feared": 11801,
    "ĠĠĠĠĠĠĠĠ": 712,
    "Ġkicked": 10581,
    "Ġtables": 9877,
    "Ġargemone": 24274,
    "cest": 12442,
    "Ġmethodic": 23142,
    "Ġdood": 22239,
    "upp": 10130,
    "Ġprovides": 1926,
    "Ġnast": 15636,
    "merit": 19280,
    "Ġdod": 6672,
    "things": 6032,
    "Ġwhile": 607,
    "Ġdad": 12597,
    "Ġdante": 21436,
    "Ġspecimen": 13016,
    "Ġconstitutional": 25125,
    "putable": 10901,
    "Ġpsalmody": 20583,
    "Ġunspeak": 8850,
    "decan": 22139,
    "Ġsacred": 10930,
    "Ġcircumnavigation": 20398,
    "Ġstrain": 6023,
    "Ġbadge": 16683,
    "vic": 13801,
    "Ġstern": 4224,
    "Ġarguing": 25470,
    "Ġovercame": 9745,
    "loss": 22505,
    "Ġknife": 7309,
    "Ġabraham": 18395,
    "Ġships": 3715,
    "Ġgreenland": 5761,
    "thomas": 18219,
    "ost": 5360,
    "Ġvult": 12749,
    "13": 20749,
    "Ġexpedite": 24953,
    "Ġrash": 10898,
    "lot": 3204,
    "Ġimpossible": 3545,
    "Ġforged": 12701,
    "Ġprices": 15609,
    "Ġcovering": 13255,
    "Ġfa": 4819,
    "ted": 791,
    "Ġmississ": 18837,
    "Ġlubber": 17443,
    "Ġlearnable": 3997,
    "iries": 18169,
    "Ġlimbs": 5965,
    "Ġmasses": 10503,
    "ą": 198,
    "dare": 12451,
    "Ġcharacters": 9370,
    "Ġsplice": 19308,
    "ā": 194,
    "Ġprecision": 13188,
    "Ġargument": 7098,
    "Ġlabour": 7274,
    "Ġyellowish": 24430,
    "Ġinvestigated": 25386,
    "Ġob": 861,
    "pieces": 8754,
    "str": 2576,
    "althy": 8431,
    "articulate": 17397,
    "Ġtechn": 9374,
    "Ġspray": 7893,
    "scythes": 26402,
    "Ġmaty": 22906,
    "ents": 1896,
    "F": 42,
    "Ġcrowd": 6336,
    "ravelled": 18014,
    "abated": 14019,
    "therefore": 5953,
    "yden": 21142,
    "Ġsires": 21225,
    "Ġrep": 1933,
    "Ġpane": 21460,
    "Ġbucket": 8787,
    "Ġbands": 14883,
    "Ġuseful": 3561,
    "urning": 12914,
    "blunder": 24130,
    "Ġfordham": 21773,
    "Ġcosy": 13129,
    "amped": 12031,
    "Ġimitated": 18331,
    "Ġimbalanced": 18335,
    "Ġmaternal": 11058,
    ";âĢĿ": 7790,
    "herent": 2528,
    "madam": 24421,
    "corner": 13396,
    "Ġtalents": 15044,
    "Ġornamented": 20360,
    "Ġconveying": 19713,
    "Ġaltering": 18102,
    "Ġpain": 2298,
    "Ġalarm": 4049,
    "Ġsparkling": 11356,
    "incl": 8109,
    "Ġrattled": 15065,
    "Ġclust": 9273,
    "Ġcomp": 725,
    "Ġplunder": 22602,
    "Ġprosperity": 20256,
    "Ġcause": 2404,
    "brimming": 23573,
    "Ġadopted": 15177,
    "Ġcountries": 13095,
    "Ġgloves": 8574,
    "Ġcongratulated": 19765,
    "ill": 447,
    "Ġrecklessness": 24745,
    "Ġcharacter": 2794,
    "habit": 16186,
    "Ġmould": 6519,
    "aly": 1137,
    "Ġeffusions": 18516,
    "thrusting": 20258,
    "revolver": 25627,
    "Ġnarrowly": 16820,
    "ev": 6952,
    "Ġforge": 8456,
    "Ġscal": 1532,
    "icip": 6389,
    "Ġramadans": 25119,
    "Ġghostly": 24650,
    "oundering": 11744,
    "_.âĢĻâĢĿ": 17479,
    "Ġbrought": 2516,
    "ga": 17550,
    "footed": 19688,
    "lers": 10106,
    "vapor": 25755,
    "ivened": 22962,
    "ele": 9114,
    "restraint": 18979,
    "grasping": 20638,
    "Ġexponentially": 1443,
    "volume": 18596,
    "Ġbump": 9659,
    "Ġrefill": 18697,
    "avers": 17480,
    "mits": 13755,
    "Ġrather": 1495,
    "Ġlane": 5627,
    "Ġentreaties": 9035,
    "Ġfortunes": 12176,
    "failed": 20862,
    "rough": 589,
    "Ġexcel": 3569,
    "Ġshoot": 11161,
    "Ġpretend": 7721,
    "Ġdecency": 18491,
    "usion": 3301,
    "Ġfever": 6558,
    "Ġfuriously": 9801,
    "atha": 6572,
    "Ġadjac": 18292,
    "Ġpondered": 15165,
    "Ġfeast": 10277,
    "Ġtie": 10750,
    "Ġimpart": 11778,
    "Ġunfulfilled": 26509,
    "Ġnegative": 1465,
    "lesson": 22770,
    "Ġclutch": 15053,
    "Ġarrayed": 25664,
    "Ġsymbols": 2796,
    "Ġwoeful": 19618,
    "Ġlanded": 7469,
    "Ġshouldn": 14324,
    "Ġcat": 2122,
    "ckles": 22086,
    "Ġits": 708,
    "Ġaffliction": 25844,
    "Ġextravag": 11254,
    "Ġleaping": 8340,
    "dec": 3110,
    "jam": 15370,
    "Ġart": 749,
    "Ġflukes": 5266,
    "obst": 11930,
    "Ġcask": 5527,
    "proposal": 18754,
    "Ġafar": 14293,
    "smo": 10125,
    "organ": 15571,
    "Ġdeformity": 11675,
    "folding": 24927,
    "lording": 24048,
    "eed": 20840,
    "Ġroy": 4230,
    "country": 6103,
    "Ġmodified": 14168,
    "Ġfeeding": 7971,
    "mists": 17605,
    "Ġvindication": 25364,
    "Ġaffect": 1384,
    "Ġmiraculous": 13546,
    "Ġsuppressed": 11909,
    "Ġalphabetical": 17201,
    "solitary": 14507,
    "Ġlaborious": 13102,
    "Ġexpost": 18625,
    "Ġ45": 14769,
    "Ġprolong": 6832,
    "Ġrepast": 16408,
    "Ġtrains": 10947,
    "Ġblending": 14399,
    "likely": 9022,
    "Ġalluding": 18236,
    "Ġnecess": 3476,
    "gement": 13727,
    "Ġcentral": 7727,
    "C": 39,
    "Ġphenomena": 21480,
    "Ġpythag": 26448,
    "judges": 19572,
    "mix": 20973,
    "Ġsympath": 4861,
    "boys": 13358,
    "elag": 12655,
    "Ġencodings": 4776,
    "Ġbeing": 1161,
    "Ġgreas": 17991,
    "Ġfastening": 16355,
    "Ġremain": 1873,
    "ductive": 23933,
    "dimensional": 2344,
    "Ġincorruption": 26309,
    "Ġsog": 22072,
    "cherries": 19755,
    "Ġdetect": 1246,
    "Ġrecollections": 10512,
    "cking": 4266,
    "cour": 4480,
    "aloons": 20009,
    "Ġbelong": 3886,
    "letons": 14612,
    "Ġrecurring": 23230,
    "Ġtoo": 1162,
    "misery": 13342,
    "Ġexpressly": 16453,
    "Ġwonders": 7500,
    "irm": 3106,
    "Ġjetted": 24431,
    "using": 5468,
    "Ġdropt": 23674,
    "Ġthrees": 23399,
    "abashed": 21789,
    "Ġloft": 5642,
    "century": 20045,
    "Ġaccess": 9746,
    "Ġwildness": 14603,
    "Ġpa": 2986,
    "bes": 6641,
    "conditional": 9078,
    "Ġflashing": 13025,
    "abiding": 21790,
    "ancho": 4938,
    "Ġinvaluable": 10182,
    "slow": 7810,
    "Ġthroughout": 8876,
    "patched": 17643,
    "anish": 2614,
    "Ġfed": 5530,
    "fights": 20864,
    "Ġintric": 9245,
    "Ġdated": 10939,
    "Ġpemberley": 4588,
    "ê": 171,
    "Ġmotion": 4566,
    "Ġdanes": 25156,
    "Ġdrunk": 9423,
    "Ġspinal": 12300,
    "peaceful": 20445,
    "Ġloaded": 8490,
    "host": 5867,
    "Ġgladstone": 23867,
    "Ġvaulted": 25167,
    "jaw": 13742,
    "Ġwindibank": 7257,
    "Ġcannibals": 10587,
    "reject": 21235,
    "Ġbash": 12583,
    "barrow": 15320,
    "descend": 23082,
    "Ġcaut": 6521,
    "Ġspell": 8855,
    "Ġsi": 21211,
    ".,": 5987,
    "ailing": 7021,
    "Ġuncounted": 19116,
    "Ġgroups": 3720,
    "Ġsharpened": 17364,
    "Ġcensus": 15095,
    "Ġmanx": 7904,
    "strongly": 24684,
    "movement": 25577,
    "reputation": 15514,
    "Ġpeaks": 16126,
    "Ġdownright": 16116,
    "ellig": 524,
    "igating": 21697,
    "Ġking": 2300,
    "Ġpreside": 18365,
    "Ġlees": 18062,
    "Ġbrightly": 13222,
    "Ġoptimizer": 5036,
    "Ġuproar": 22152,
    "Ġpredicted": 2044,
    "Ġdisquis": 22524,
    "tolerable": 17688,
    "echo": 15347,
    "Ġgallows": 12143,
    "Ġhandspike": 22693,
    "north": 14615,
    "Ġdespise": 14665,
    "centred": 25017,
    "================": 3724,
    "severe": 21816,
    "Ġdaggoo": 5441,
    "Ġbamboo": 17436,
    "'": 11,
    "Ġpurchase": 12257,
    "Ġ90": 24588,
    "endeavoured": 12278,
    "this": 1439,
    "hun": 5210,
    "Ġtechnically": 12364,
    "Ġregulate": 22584,
    "/*": 10070,
    "swimming": 24258,
    "Ġdecidedly": 9508,
    "Ġundeserving": 18268,
    "Ġtenderness": 12213,
    "Ġpersuade": 5872,
    "abilizing": 2924,
    "Ġboxes": 13373,
    "makes": 10711,
    "Ġquaint": 18465,
    "windward": 24160,
    "clad": 14458,
    "Ġdinners": 23979,
    "upt": 13797,
    "Ġextravagance": 17279,
    "Ġgasped": 11372,
    "igns": 8447,
    "tender": 14472,
    "sitting": 8386,
    "matic": 4619,
    "Ġevolve": 2999,
    "Ġostr": 21323,
    "animation": 16979,
    "rious": 11687,
    "Ġlimits": 3451,
    "Ġsparsity": 4208,
    "Ġreplying": 19580,
    "feeling": 6616,
    "ackinaw": 22418,
    "Ġcoun": 4177,
    "/": 19,
    "expose": 23663,
    "Ġchart": 10945,
    "Ġarisen": 11741,
    "Ġnosegay": 24192,
    "Ġirresolution": 24915,
    "Ġvibrated": 25045,
    "utral": 12660,
    "Ġem": 1921,
    "lands": 8240,
    "renched": 7906,
    "Ġunsav": 18251,
    "Ġprone": 18968,
    "Ġmiz": 10777,
    "umn": 5835,
    "cries": 17510,
    "Ġrigid": 16716,
    "Ġdeacon": 18143,
    "Ġaverse": 11081,
    "Ġpricking": 23219,
    "field": 3069,
    "apothecary": 26545,
    "batt": 20777,
    "Ġdreaded": 8288,
    "Ġsnatched": 10471,
    "cially": 3490,
    "Ġolder": 9326,
    "roc": 9674,
    "ried": 926,
    "Ġflashed": 11911,
    "darcy": 5208,
    "Ġsocket": 12781,
    "Ġadmission": 23551,
    "Ġcarried": 3695,
    "ens": 702,
    "Ġampl": 22477,
    "Ġbank": 4877,
    "Ġknotted": 17019,
    "Ġeavesdroppers": 25963,
    "Ġthrew": 3975,
    "james": 15371,
    "broken": 8020,
    "esu": 17918,
    "igned": 5656,
    "Ġtowers": 16738,
    "Ġuncommonly": 7759,
    "Ġprogen": 14038,
    "blister": 24128,
    "Ġproviding": 1358,
    "Ġvest": 8162,
    "Ġhumorously": 18778,
    "ve": 322,
    "ark": 851,
    "Ġcalculates": 13264,
    "Ġsodden": 25535,
    "Ġplays": 12035,
    "Ġrejection": 19982,
    "spade": 10340,
    "Ġsenses": 8251,
    "midnight": 14901,
    "Ġsocieties": 20181,
    "mechanically": 17299,
    "Ġviolent": 5117,
    "Ġinstantaneously": 23659,
    "Ġvial": 10248,
    "Ġnarrated": 14870,
    "oub": 1632,
    "Ġdifferen": 936,
    "Ġepicures": 25880,
    "impotence": 23759,
    "ifference": 5632,
    "endured": 22224,
    "Ġimpenitent": 26548,
    "Ġrightly": 13062,
    "pad": 13767,
    "offing": 23331,
    "Ġtusks": 17253,
    "Ġhan": 15615,
    "Ġlively": 5449,
    "Ġoce": 3026,
    "Ġmutiny": 13259,
    "net": 1196,
    "Ġhush": 13210,
    "fear": 8513,
    "ments": 1399,
    "Ġlose": 5028,
    "Ġearliest": 9830,
    "discharging": 26305,
    "Ġtransformed": 22606,
    "Ġstraining": 11327,
    "ais": 8070,
    "Ġforming": 7042,
    "Ġrestrain": 8964,
    "Ġstrongly": 5657,
    "Ġascended": 8665,
    "erce": 6126,
    "Ġinscrut": 10033,
    "Ġofficially": 24838,
    "Ġliterature": 17148,
    "surprising": 16919,
    "burgh": 6773,
    "Ġhauling": 14086,
    "aution": 9386,
    "burning": 25078,
    "Ġconfined": 7465,
    "dug": 18462,
    "ushion": 14719,
    "Ġlethar": 21728,
    "Ġspasmodic": 20396,
    "orrow": 2915,
    "Ġincomplete": 17208,
    "Ġdiscourse": 9797,
    "Ġwitty": 21291,
    "Ġsickle": 24245,
    "Ġdistributes": 4194,
    "kes": 3680,
    "Ġhoe": 23349,
    "Ġabstained": 25231,
    "Ġmassac": 14735,
    "Ġhalf": 1670,
    "fashioned": 9570,
    ";": 31,
    "Ġattain": 12744,
    "Ġshowers": 16605,
    "Ġuneasiness": 9483,
    "Ġwheel": 9717,
    "Ġundergo": 23235,
    "Ġfaintness": 24570,
    "Ġgoose": 5937,
    ",âĢĻâĢĶ": 23524,
    "ogene": 18674,
    "_).": 5886,
    "Ġcrouching": 23442,
    "Ġcarpent": 4465,
    "ĠĠĠĠĠĠĠ": 7632,
    "Ġintervening": 17267,
    "Ġidolator": 19996,
    "Ġecho": 12663,
    "Ġencamp": 22796,
    "Ġwalking": 4325,
    "fra": 8374,
    "whel": 7664,
    "functions": 11241,
    "Ġsensations": 5259,
    "Ġisol": 8833,
    "Ġrhyme": 21978,
    "inclined": 10639,
    "Ġven": 4648,
    "Ġverdant": 15002,
    "ĠâĢĺ": 1630,
    "Ġhung": 4560,
    "Ġsimilitude": 19209,
    "Ġfantastic": 10058,
    "Ġscaramouch": 23825,
    "Ġaft": 5737,
    "manners": 16182,
    "Ġeasterly": 25962,
    "Ġaperture": 26160,
    "Ġtree": 5284,
    "Ġthrust": 5084,
    "Ġclasped": 17206,
    "Ġbursting": 8655,
    "Ġdeb": 4764,
    "Ġassociates": 24712,
    "imprudence": 16557,
    "Ġshared": 10263,
    "Ġaccepted": 7750,
    "Ġmortifying": 13244,
    "Ġdumbly": 24985,
    "Ġconfines": 23304,
    "Ġadmin": 23549,
    "Ġthough": 993,
    "iam": 2508,
    "Ġwhisky": 23931,
    "://": 11465,
    "Ġfainting": 16897,
    "iminished": 19023,
    "Ġxxxvi": 24969,
    "throwing": 11701,
    "Ġincredulity": 11311,
    "Ġgoverness": 8600,
    "Ġcircumst": 2972,
    "impat": 11201,
    "Ġsallies": 21228,
    "Ġsaves": 18324,
    "visited": 13346,
    "Ġdispute": 16053,
    "Ġjealously": 24125,
    "aky": 18412,
    "Ġburnished": 23995,
    "Ġanatomical": 15075,
    "Ġsqualidness": 25842,
    "Ġprematurely": 24003,
    "immense": 18052,
    "Ġdescribing": 19253,
    "mmet": 10988,
    "Ġcourt": 4169,
    "susceptible": 24661,
    "Ġcrosswise": 18885,
    "Ġzoned": 22816,
    "fif": 9116,
    "Ġfollies": 16254,
    "Ġsnatch": 14639,
    "Ġhappy": 2460,
    "Ġ13": 6718,
    "Ġengrossed": 12993,
    "Ġgirls": 4280,
    "Ġbroadened": 23982,
    "oury": 22301,
    "your": 1983,
    "Ġmagnific": 16318,
    "desol": 13066,
    "\":": 9581,
    "atever": 3076,
    "Ġ69": 19660,
    "allions": 22195,
    "Ġmorrow": 9341,
    "Ġstig": 14002,
    "Ġupdating": 2692,
    "ir": 379,
    "orte": 14184,
    "ellation": 12747,
    "band": 3056,
    "Ġbigness": 19759,
    "Ġgenerously": 22399,
    "Ġtrim": 15966,
    "Ġbaltic": 18792,
    "thed": 8826,
    "iop": 20918,
    "arson": 22747,
    "Ġsplashed": 23746,
    "def": 1451,
    "sprit": 11382,
    "sun": 7139,
    "Ġladies": 3190,
    "Ġconvenient": 8345,
    "ĠcÃ¦sar": 20578,
    "Ġdeliberate": 15022,
    "Ġannoyance": 20661,
    "Ġbott": 3146,
    "Ġsakes": 18326,
    "Ġsaved": 6690,
    "Ġshamefully": 24716,
    "strom": 15681,
    "Ġgiant": 13967,
    "fulfil": 16039,
    "broke": 14776,
    "Ġcrowned": 16841,
    "Ġaltitude": 26202,
    "glass": 9908,
    "Ġmac": 15536,
    "Ġhatred": 8608,
    "Ġdeliverance": 15156,
    "hamlet": 23259,
    "isticated": 1547,
    "Ġdolphin": 17311,
    "Ġext": 884,
    "Ġmungo": 25631,
    "Ġfolio": 11916,
    "Ġnor": 1549,
    "Ġimpose": 22380,
    "mpt": 6653,
    "verdict": 21726,
    "isting": 5551,
    "Ġdeficient": 18824,
    "solute": 16598,
    "Ġhelmet": 19686,
    "Ġcork": 12566,
    "Ġuppermost": 15277,
    "went": 6512,
    "Ġindian": 4132,
    "Ġderived": 8238,
    "Ġcanaller": 25467,
    "discovered": 8324,
    "satisfaction": 9991,
    "Ġdiscomposure": 20377,
    "enched": 10154,
    "Ġunanswerable": 26521,
    "Ġhurst": 5582,
    "irium": 8161,
    "Ġbody": 2431,
    "Ġspectator": 19404,
    "insufferable": 21191,
    "Ġempt": 5051,
    "eze": 20846,
    "Ġinfidel": 13086,
    "smallest": 23909,
    "Ġbeam": 2879,
    "ratulations": 20124,
    "humoured": 11236,
    "Ġbuilt": 8300,
    "Ġslight": 3117,
    "Ġjost": 23629,
    "Ġmonuments": 22976,
    "mentioning": 24885,
    "Ġreasonably": 11092,
[...]
