{
  "metadata": {
    "vocab_size": 26616,
    "algorithm": "BPE",
    "created_at": "2026-08-31 08:04:02",
    "special_tokens": [
      "<PAD>",
      "<SOS>",
      "<EOS>",
      "<UNK>",
      "<MASK>"
    ]
  },
  "vocab": {
    "Ġamericans": 14745,
    "Ġcorridor": 10674,
    "Ġmund": 21321,
    "alcul": 15632,
    "hever": 13833,
    "gracious": 11835,
    "Ġcome": 1240,
    "ulance": 15771,
    "itted": 2440,
    "Ġausten": 5882,
    "hew": 5286,
    "Ġtypewriter": 19099,
    "Ġfools": 14484,
    "Ġaccost": 12851,
    "itively": 21334,
    "Ġmodel": 508,
    "Ġaid": 6124,
    "Ġaccompanied": 6781,
    "Ġbite": 10799,
    "depart": 12270,
    "Ġbridal": 14956,
    "disp": 7977,
    "wl": 17704,
    "Ġlima": 10444,
    "Ġalliance": 18236,
    "Ġcare": 1638,
    "Ġroads": 13292,
    "Ġproperty": 6450,
    "ferent": 4195,
    "mun": 20964,
    "Ġkingdom": 12023,
    "ribbed": 16416,
    "Ġthoroughly": 8348,
    "Ġhighly": 4846,
    "Ġobedience": 11415,
    "Ġacts": 2295,
    "Ġinspirited": 23423,
    "Ġcrushed": 9427,
    "Ġarabic": 24981,
    "ropri": 2185,
    "Ġpor": 5225,
    "Ġtransparency": 10679,
    "Ġlight": 1701,
    "eon": 8733,
    "Ġevermore": 18813,
    "Ġhorsey": 24252,
    "ordinate": 12879,
    "Ġsublim": 19970,
    "bec": 4053,
    "Ġyonder": 7393,
    "Ġdevotedly": 24749,
    "Ġsnows": 14729,
    "Ġtyphoon": 12393,
    "Ġveget": 11890,
    "Ġenvy": 13186,
    "foundered": 20869,
    "Ġconductor": 24013,
    "Ġtitle": 11410,
    "Ġaccuracy": 1097,
    "queen": 12732,
    "kitty": 10108,
    "Ġwrinkled": 7265,
    "ful": 668,
    "Ġcoopers": 20525,
    "Ġfrance": 7683,
    "holes": 12057,
    "Ġwooing": 19437,
    "Ġlimping": 23549,
    "Ġunabated": 15856,
    "mm": 676,
    "strange": 6087,
    "Ġindifferent": 6176,
    "ondescript": 22918,
    "Ġaffrighted": 13575,
    "particip": 23618,
    "Ġenvironments": 24051,
    "forecastle": 10992,
    "include": 23591,
    "lacing": 17592,
    "Ġmusket": 12300,
    "Ġspreading": 13381,
    "Ġpoisoned": 24887,
    "greek": 25405,
    "Ġbritannica": 24681,
    "gown": 9599,
    "Ġhardship": 18915,
    "Ġsar": 21216,
    "Ġmantel": 11441,
    "Ġwarrant": 17796,
    "philosophers": 25253,
    "Ġkins": 22198,
    "gin": 4931,
    "ulence": 15770,
    "Ġsubst": 4275,
    "woes": 21136,
    "iary": 15374,
    "Ġfl": 1281,
    "Ġclothed": 19609,
    "Ġassumptions": 5517,
    "sing": 5138,
    "os": 525,
    "Ġphiladel": 23888,
    "Ġbrand": 16189,
    "Ġregularity": 22782,
    "honor": 19902,
    "Ġhorrid": 7999,
    "Ġsubmerged": 11876,
    "Ġclump": 15978,
    "spl": 9143,
    "Ġharb": 7371,
    "Ġmuscle": 14690,
    "safie": 20351,
    "Ġmorocc": 22982,
    "commence": 19995,
    "volous": 18601,
    "Ġstruggled": 9908,
    "excited": 13383,
    "leaving": 10793,
    "han": 12477,
    "Ġinstances": 5568,
    "Ġcolumns": 14379,
    "rified": 15422,
    "Ġheaved": 9387,
    "Ġleviathanic": 12085,
    "smiled": 16616,
    "Ġtresses": 21178,
    "distraction": 24203,
    "Ġsulky": 13517,
    "treat": 12518,
    "zek": 16274,
    "igin": 3660,
    "Ġraved": 22649,
    "Ġhackney": 20436,
    "Ġsuspicions": 9482,
    "Ġattempting": 14698,
    "Ġventure": 7740,
    "disciple": 16780,
    "ishing": 1141,
    "humoredly": 26326,
    "Ġunheeded": 18262,
    "irited": 15791,
    "acqu": 4844,
    "ario": 14250,
    "Ġindisp": 18842,
    "Ġensemble": 1603,
    "Ġtune": 17727,
    "off": 1889,
    "Ġaffl": 14389,
    "ject": 874,
    "Ġdictated": 25219,
    "carefully": 13372,
    "der": 468,
    "Ġheel": 9687,
    "Ġreason": 1354,
    "Ġdoctor": 5067,
    "Ġincome": 7917,
    "Ġwharf": 9562,
    "Ġeat": 4644,
    "exerc": 16019,
    "Ġhopeful": 19033,
    "Ġexclude": 19042,
    "Ġjewell": 19523,
    "metals": 24765,
    "Ġfacility": 19852,
    "norm": 20987,
    "Ġphantoms": 13489,
    "Ġbranded": 14382,
    "Ġwonderful": 4563,
    "ay": 355,
    "Ġphilosophy": 7105,
    "ğ": 224,
    "Ġcandelab": 23852,
    "Ġhanover": 20589,
    ":--": 5784,
    "arthur": 14832,
    "Ġunfailing": 24113,
    "fatality": 25022,
    "hued": 20913,
    "soul": 9144,
    "Ġdimin": 3873,
    "age": 505,
    "Ġol": 17816,
    "Ġreceived": 2950,
    "impregnable": 26483,
    "Ġte": 1162,
    "etts": 12665,
    "Ġmethods": 3157,
    "dragging": 16611,
    "interruption": 20115,
    "Ġsplice": 19311,
    "nnight": 20995,
    "Ġsides": 4580,
    "Ġrucastle": 5176,
    "sc": 1258,
    "Ġpestilent": 25778,
    "Ġneg": 1332,
    "Ġbuckets": 17035,
    "Ġhorizontal": 7783,
    "Ġperturbed": 20443,
    "Ġhe": 318,
    "exasper": 22431,
    "Ġall": 421,
    "hemat": 3127,
    "Ġmuscles": 12093,
    "ap": 546,
    "oss": 10118,
    "Ġgesture": 11401,
    "below": 12126,
    "Ġfires": 16474,
    "nur": 11508,
    "haven": 20914,
    "lodged": 25908,
    "whales": 5187,
    "Ġchanged": 5243,
    "Ġmisery": 3817,
    "Ġboister": 12924,
    "Ġtartar": 17325,
    "Ġgoodness": 6060,
    "Ġdisagree": 22536,
    "Ġnewly": 9342,
    "Ġplaintiffs": 13612,
    "Ġmeekly": 26492,
    "tempest": 16961,
    "too": 4508,
    "Ġbruised": 25773,
    "cious": 6646,
    "inity": 5693,
    "Ġcollege": 11426,
    "Ġapology": 8328,
    "Ġflour": 8947,
    "inordinate": 21197,
    "Ġdismantled": 20219,
    "sockets": 22730,
    "greenland": 10024,
    "Ġappointed": 20106,
    "Ġgoing": 2068,
    "Ġconveys": 16857,
    "Ġsundering": 23278,
    "erc": 5906,
    "Ġmilliner": 19886,
    "abetical": 15747,
    "ĠcÃ¦sar": 20583,
    "eked": 16407,
    "rug": 18341,
    "ynolds": 10039,
    "Ġsubsequently": 16164,
    "where": 2093,
    "Ġken": 22195,
    "clim": 18932,
    "emotion": 21934,
    "Ġreconciled": 13590,
    "Ġcomforter": 20510,
    "Ġsundry": 20077,
    "Ġmatrimony": 13638,
    "Ġglasses": 9478,
    "Ġnosegay": 24195,
    "Ġprovocation": 24194,
    "Ġbanquet": 15244,
    "Ġluxury": 20135,
    "ernation": 8212,
    "string": 15690,
    "Ġ1836": 25721,
    "cturn": 17989,
    "Ġgra": 416,
    "shadow": 20317,
    "Ġmamm": 25093,
    "Ġcountryside": 23598,
    "Ġsongs": 13423,
    "Ġscreams": 24604,
    "Ġ121": 24466,
    "Ġindic": 2885,
    "behind": 6780,
    "Ġprincely": 24150,
    "Ġmachines": 1778,
    "wh": 509,
    "Ġnoting": 18222,
    "Ġrelatives": 12986,
    "hecy": 21209,
    "Ġsmaller": 1886,
    "Ġsucceeded": 6107,
    "define": 1525,
    "unicorn": 21893,
    "Ġexhaust": 6399,
    "done": 6500,
    "Ġeludes": 26556,
    "Ġtrembled": 8705,
    "Ġmixing": 24937,
    "Ġflog": 23624,
    "Ġadvantage": 4318,
    "Ġreverie": 13460,
    "beam": 16043,
    "ker": 5792,
    "Ġrely": 8825,
    "course": 6106,
    "Ġreluctant": 20528,
    "Ġscal": 1607,
    "Ġsketch": 16169,
    "Ġplanets": 24060,
    "Ġcompar": 4772,
    "Ġinterpre": 1582,
    "Ġmaintaining": 1507,
    "Ġoverladen": 22356,
    "Ġoutrage": 15962,
    "braces": 24659,
    "Ġforb": 11666,
    "----": 4058,
    "Ġleather": 7608,
    "Ġ126": 24471,
    "Ġbenef": 3489,
    "Ġmam": 8406,
    "lands": 8241,
    "Ġ$": 21153,
    "evinced": 19928,
    "bantering": 25254,
    "ier": 1134,
    "hig": 12479,
    "rent": 1169,
    "uted": 7594,
    "sal": 8761,
    "Ġcourt": 4169,
    "Ġvomit": 21952,
    "enough": 6810,
    "icit": 3380,
    "projecting": 26074,
    "Ġhysterics": 26094,
    "Ġsoapstone": 20514,
    "Ġboisterous": 20446,
    "twig": 23702,
    "Ġdetected": 18850,
    "oft": 3595,
    "rollable": 13947,
    "shooting": 16967,
    "ift": 1602,
    "inders": 15984,
    "Ġprint": 18969,
    "Ġkith": 22196,
    "Ġrecol": 4030,
    "Ġtruly": 4797,
    "Ġwithdrawing": 11342,
    "Ġmumbled": 17809,
    "Ġstealing": 18895,
    "Ġwhirling": 12253,
    "Ġerskine": 17435,
    "Ġthundering": 24293,
    "Ġinterpreter": 23216,
    "Ġattic": 16099,
    "dark": 5614,
    "morn": 20978,
    "anned": 17841,
    "ogrand": 26263,
    "Ġresolute": 19247,
    "vex": 21701,
    "waste": 21137,
    "Ġecon": 9680,
    "Ġingen": 9053,
    "Ġscramble": 24579,
    "return": 5489,
    "Ġpurses": 23478,
    "Ġencounters": 19583,
    "rue": 1127,
    "Ġblame": 6446,
    "dischar": 19155,
    "Ġneeded": 7718,
    "Ġdoubted": 7964,
    "Ġfavourite": 5271,
    "Ġterra": 13120,
    "Ġmistake": 6205,
    "Ġobservant": 20113,
    "Ġrad": 4961,
    "ropout": 1321,
    "Ġinformation": 1048,
    ":âĢĶ": 4433,
    "mmed": 7914,
    "Ġgiving": 4086,
    "Ġdone": 1820,
    "houn": 20895,
    "Ġprocedure": 2807,
    "Ġtravelling": 11309,
    "Ġpursuit": 4734,
    "Ġchoicest": 24223,
    "archical": 1931,
    "ĠĠĠĠĠĠĠĠĠĠĠĠĠĠĠĠĠĠĠĠĠĠĠĠĠĠĠĠĠĠĠĠĠĠĠ": 19260,
    "Ġloadstone": 25817,
    "ult": 723,
    "Ġjoyously": 19350,
    "Ġgardener": 19136,
    "Ġjoosy": 23633,
    "rown": 2196,
    "clearly": 25196,
    "pret": 7213,
    "Ġshrimp": 24159,
    "Ġforeshadowing": 26594,
    "Ġkrem": 9729,
    "Ġpredecess": 18517,
    "Ġtemporarily": 11169,
    "ary": 989,
    "Ġabroad": 8869,
    "Ġfishy": 16525,
    "Ġhindoo": 17178,
    "Ġfrog": 23925,
    "Ġchemistry": 11462,
    "Ġdejection": 15200,
    "Ġdair": 17891,
    "Ġgamb": 18000,
    "Ġstock": 7456,
    "Ġweig": 7620,
    "Ġdeclare": 6617,
    "somers": 19371,
    "Ġcapering": 21357,
    "chari": 21692,
    "Ġworthless": 19568,
    "Ġrinal": 21981,
    "Ġdarcy": 1341,
    "balance": 12011,
    "outer": 9671,
    "Ġgi": 15670,
    "cific": 10088,
    "aples": 20770,
    "deeply": 16182,
    "Ġknock": 9976,
    "rels": 6667,
    "lake": 13751,
    "Ġcircum": 8258,
    "Ġpractice": 2831,
    "Ġpremeditated": 22238,
    "Ġtenth": 13828,
    "Ġpunctil": 20117,
    "Ġjoppa": 12040,
    "Ġemotion": 7690,
    "tornadoes": 26154,
    "boiling": 19002,
    "Ġnetworks": 596,
    "177": 20754,
    "braid": 17497,
    "Ġcrags": 23530,
    "Ġbrick": 8929,
    "Ġmonoman": 7939,
    "Ġmicroscopic": 26375,
    "Ġchast": 18380,
    "english": 2772,
    "Ġinheriting": 25355,
    "dimens": 2317,
    "Ġgoring": 21607,
    "Ġhelm": 5276,
    "Ġ86": 24461,
    "dle": 3308,
    "Ġswamp": 14440,
    "agree": 14069,
    "Ġshyness": 20309,
    "ude": 7563,
    "Ġhunts": 23159,
    "Ġclapping": 14209,
    "Ġschedule": 2371,
    "Ġcrawford": 24894,
    "Ġimperial": 9484,
    "opatra": 22481,
    "gle": 20871,
    "Ġfitting": 21411,
    "Ġtow": 4397,
    "Ġplate": 8902,
    "impetuous": 23765,
    "Ġjob": 7017,
    "achusetts": 20712,
    "Ġpand": 21458,
    "impud": 23762,
    "whips": 22242,
    "ishop": 9745,
    "====": 1480,
    "collecting": 26082,
    "Ġphren": 8575,
    "grate": 23414,
    "Ġnails": 12653,
    "Ġblaze": 16223,
    "Ø": 153,
    "prepared": 13593,
    "pate": 21012,
    "Ġintimate": 6551,
    "Ġform": 1021,
    "Ġbrighter": 16190,
    "Ġpave": 8804,
    "shabbily": 26248,
    "jephro": 26394,
    "Ġluxuries": 25167,
    "relapse": 24022,
    "Ġubiqu": 18049,
    "Ġchaplain": 19914,
    "Ġnon": 1623,
    "ower": 1035,
    "Ġvaluable": 5608,
    "Ġtoiled": 12647,
    "eat": 11485,
    "quakes": 21860,
    "Ġbarbarously": 24816,
    "Ġpuffing": 12259,
    "Ġassisted": 11113,
    "Ġheire": 18039,
    "epilogue": 22104,
    "Ġsophisticated": 1592,
    "suffered": 24331,
    "presume": 25671,
    "life": 4933,
    "aulets": 18622,
    "Ġspong": 15885,
    "Ġestablishment": 13582,
    "Ġstrict": 7223,
    "Ġem": 1929,
    "Ġbid": 6133,
    "enit": 17781,
    "Ġgun": 4703,
    "orable": 8120,
    "Ġscant": 22289,
    "icles": 17975,
    "Ġreiterating": 26476,
    "gers": 8376,
    "Ġimport": 978,
    "Ġunrelieved": 20548,
    "Ġtalked": 4422,
    "Ġost": 9652,
    "Ġmeditating": 20046,
    "Ġdagger": 21440,
    "enderby": 25216,
    "walls": 25346,
    "princ": 8624,
    "Ġmysteriously": 24602,
    "Ġ": 225,
    "Ġfolded": 7768,
    "Ġdesolation": 12273,
    "www": 17254,
    "Ġvindication": 25365,
    "Ġearnestly": 5980,
    "Ġreversed": 15701,
    "Ġvain": 3634,
    "Ġcupboard": 16885,
    "Ġgamy": 18001,
    "Ġdegree": 3708,
    "astrop": 3318,
    "Ġsodden": 25536,
    "Ġtorrent": 17093,
    "Ġshillings": 15839,
    "icant": 21565,
    "winds": 10524,
    "Ġkeys": 12001,
    "driver": 14923,
    "pred": 2799,
    "Ġcapric": 14577,
    "Ġdetection": 3411,
    "Ġhelter": 24031,
    "shudder": 26247,
    "Ġneighbouring": 12123,
    "Ġindign": 6175,
    "Ġunsur": 22024,
    "Ġpuzzling": 14900,
    "maintained": 25023,
    "Ĝ": 221,
    "mere": 11858,
    "Ġprop": 1681,
    "resolved": 9642,
    "Ġwhale": 627,
    "queg": 1771,
    "Ġactivations": 2716,
    "Ġawaited": 17075,
    "active": 16107,
    "Ġrescued": 24209,
    "Ġreally": 2162,
    "blubber": 15240,
    "Ġdefects": 12337,
    "mechanical": 25578,
    "Ġelemental": 19921,
    "Ġprudential": 17922,
    "Ġtouched": 6002,
    "Ġtall": 4039,
    "unbidden": 21898,
    "ript": 4153,
    "Ġgent": 7384,
    "Ġbud": 10171,
    "Ġtreasure": 9561,
    "nor": 2737,
    "cet": 15328,
    "Ġcrowd": 6338,
    "ographical": 16788,
    "Ġbless": 4344,
    "Ġscream": 5936,
    "imen": 12691,
    "Ġjunior": 15103,
    "t": 88,
    "ontory": 10461,
    "/(": 2979,
    "mopol": 15399,
    "Ġbass": 17857,
    "othe": 2612,
    "corpse": 24486,
    "ber": 903,
    "Ġ14": 9327,
    "Ġmontan": 22986,
    "Ġextinguished": 10341,
    "Ġvelv": 10622,
    "milk": 20480,
    "tomahawk": 25916,
    "Ġcarve": 23096,
    "seem": 10230,
    "Ġcabaco": 13170,
    "Ġshrunk": 16720,
    "Ġtales": 10144,
    "ender": 9164,
    "Ġfavoring": 2343,
    "Ġpersevering": 20236,
    "insupportable": 21196,
    "solved": 7685,
    "Ġjer": 6268,
    "Ġprediction": 2131,
    "tured": 13797,
    "Ġtranspointed": 22444,
    "gr": 2087,
    "Ġmeddle": 20580,
    "Ġcorporeally": 25729,
    "Ġcaved": 21356,
    "ization": 487,
    "various": 10400,
    "Ġnightmare": 18921,
    "Ġprairies": 20024,
    "Ġexecutioner": 12276,
    "Ġcredited": 25157,
    "neath": 12871,
    "Ġoppressively": 25711,
    "Ġchann": 15939,
    "Ġdivine": 6921,
    "Ġchances": 9267,
    "excellent": 8044,
    "Ġattics": 22624,
    "Ġtypically": 1536,
    "Ġresnet": 5473,
    "ti": 8390,
    "Ġimaginations": 16518,
    "Ġrightly": 13069,
    "Ġstatistical": 11107,
    "thread": 15830,
    "prehens": 9293,
    "Ġstars": 6151,
    "Ġineffectual": 17387,
    "luckily": 19755,
    "Ġpossible": 2584,
    "conceive": 16034,
    "breaths": 25337,
    "compared": 23991,
    "attentions": 13577,
    "Ġapothe": 12379,
    "Ġhumanity": 6733,
    "(_": 7541,
    "Ġcocked": 12912,
    "Ġcy": 13876,
    "Ġarrayed": 25665,
    "Ġrover": 18456,
    "Ġsuccor": 25663,
    "ulation": 5458,
    "Ġpeculiarities": 12075,
    "Ġduty": 4071,
    "Ġtr": 552,
    "am": 367,
    "huzza": 20915,
    "Ġgranting": 18739,
    "Ġexisting": 12722,
    "Ġexasperated": 11414,
    "spect": 3231,
    "Ġmyth": 18221,
    "Ġjac": 1902,
    "Ġdeserved": 7737,
    "chan": 1172,
    "Ġimpenitent": 26550,
    "ested": 3480,
    "onomy": 12552,
    "Ġtheology": 21279,
    "umbered": 22121,
    "finding": 17015,
    "Ġundecided": 22050,
    "Ġelderly": 13497,
    "Ġsoundings": 13136,
    "İ": 241,
    "clever": 20815,
    "Ġconsistent": 14529,
    "faces": 13722,
    "Ġendured": 6074,
    "Ġhearers": 15707,
    "games": 20882,
    "@": 36,
    "loops": 12888,
    "rive": 9710,
    "Ġwrath": 16321,
    "penn": 18828,
    "Ġmatrim": 11062,
    "Ġgen": 5298,
    "Ġremain": 1876,
    "regard": 7974,
    "Ġmurmured": 7481,
    "Ġmeasured": 9807,
    "Ġrestrictions": 20637,
    "bott": 9110,
    "Ġoverhung": 15973,
    "Ġunalterable": 15855,
    "fail": 17542,
    "oved": 5215,
    "Ġunlo": 22014,
    "Ġphrenologist": 25608,
    "Ġxl": 11994,
    "Ġimputed": 12813,
    "Ġindestruct": 22968,
    "impenetrable": 26198,
    "backs": 9395,
    "Ġexpenses": 11839,
    "alleled": 14432,
    "Ġoffices": 14340,
    "Ġnaked": 8127,
    "Ġbountiful": 25945,
    "Ġrubber": 22788,
    "Ġinfidel": 13104,
    "Ġruthless": 15289,
    "Ġdilig": 8350,
    "Ġconclusion": 5987,
    "Ġunbroken": 18251,
    "Ġpatted": 16384,
    "Ġbreathes": 13250,
    "ñ": 178,
    "Ġinsignific": 13183,
    "Ġnoble": 3442,
    "Ġwoe": 4794,
    "hent": 12539,
    "Ġdeductions": 19736,
    "Ġfishery": 4175,
    "\\": 64,
    "senses": 25025,
    "Ġscaled": 2106,
    "Ġimpropri": 14217,
    "loud": 11503,
    "Ġconce": 3425,
    "Ġsingled": 23775,
    "love": 9298,
    "Ġsuccession": 12106,
    "Ġemploys": 19434,
    "bar": 7542,
    "Ġlavater": 20499,
    "Ġvehement": 16205,
    "ils": 3179,
    "Ġlinen": 12411,
    "Ġmahogany": 20581,
    "Ġsly": 9635,
    "Ġbengal": 18784,
    "Ġemerg": 13427,
    "Ġphotography": 24684,
    "Ġoverwhelm": 25053,
    "Ġfrancisco": 26065,
    "Ġsuited": 12790,
    "Ġoceans": 7996,
    "Ġpurposed": 23555,
    "Ġhart": 17924,
    "Ġsanguinary": 25930,
    "Ġtruest": 16702,
    "Ġpaul": 12066,
    "À": 129,
    "Ġloomings": 24952,
    "memory": 13620,
    "ans": 458,
    "ictions": 14224,
    "Ġgroom": 13968,
    "ĠĠĠĠĠĠĠĠĠĠĠĠĠ": 22567,
    "Ġcongreg": 8464,
    "ok": 572,
    "doublo": 24661,
    "wives": 15458,
    "Ġimagenet": 19248,
    "gments": 12474,
    "Ġinher": 10182,
    "Ġunerring": 15851,
    "formation": 22219,
    "aling": 1034,
    "Ġforward": 1839,
    "Ġincognita": 26553,
    "chose": 18043,
    "speps": 14338,
    "oms": 4594,
    "Ġcoolly": 9775,
    "Ġcrippled": 25279,
    "Ġbrains": 2627,
    "Ġsling": 21223,
    "Ġserpents": 13080,
    "Ġlatter": 3990,
    "Ġadored": 18292,
    "rect": 1593,
    "Ġrole": 16001,
    "Ġtransmit": 10307,
    "irty": 4050,
    "Ġgirls": 4281,
    "prejudiced": 17300,
    "gangway": 20670,
    "Ġseemed": 1278,
    "Ġbingleys": 18996,
    "Ġtraditions": 11445,
    "greeting": 24554,
    "ientiously": 21945,
    "Ġrazor": 22653,
    "fair": 10095,
    "harpooneers": 8693,
    "pshaw": 21030,
    "obstructed": 15230,
    "larger": 24205,
    "iteness": 4394,
    "garden": 15028,
    "Ġeng": 1160,
    "Ġsavage": 4011,
    "ins": 1378,
    "Ġbraw": 23838,
    "board": 3569,
    "stamp": 21657,
    "objects": 13473,
    "Ġvisits": 8221,
    "Ġbitterest": 12406,
    "Ġswimmer": 19462,
    "attentive": 17192,
    "Ġmim": 3104,
    "Ġdoubled": 19640,
    "measureless": 20238,
    "Ġwednesday": 9088,
    "Ġliving": 3061,
    "Ġstepfather": 7222,
    "considering": 12179,
    "Ġspecialized": 3921,
    "hunting": 24385,
    "Ġobscurely": 20191,
    "Ġast": 2959,
    "Ġegg": 8823,
    "Ġdelightful": 6322,
    "Ġchoked": 9268,
    "recursion": 13332,
    "Ġxxxix": 24971,
    "wling": 11547,
    "urns": 10216,
    "Ġsingers": 23774,
    "Ġlighting": 13086,
    "Ġrides": 21975,
    "Ġire": 12674,
    "Ġvicious": 24403,
    "Ġheredit": 9220,
    "Ġnorms": 3670,
    "Ġrigid": 16718,
    "Ġenter": 4029,
    "man": 1055,
    "Ġremarking": 13127,
    "oder": 2457,
    "Ġglimp": 6067,
    "Ġbowled": 23771,
    "Ġpanther": 16821,
    "Ġseldom": 4630,
    "Ġwomen": 4751,
    "Ġhookah": 16972,
    "Ġincalcul": 16070,
    "je": 11498,
    "valued": 2851,
    "Ġoccasional": 7290,
    "Ġunfortunate": 5376,
    "blades": 24132,
    "Ġshelf": 12272,
    "Ë": 140,
    "gaze": 17559,
    "Ġwhispered": 5338,
    "advise": 24220,
    "Ġvolcanoes": 24148,
    "repaid": 24491,
    "remorse": 14470,
    "Ġnasty": 17446,
    "Ġsubs": 2133,
    "Ġimprecations": 25821,
    "Ġtrappings": 23086,
    "Ġmundane": 26431,
    "Ġperish": 8878,
    "Ġrelied": 16198,
    "fellow": 6793,
    "Ġwaifing": 25244,
    "acted": 11012,
    "cried": 8728,
    "Ġnaught": 8128,
    "Ġpolitical": 19225,
    "Ġbeating": 8145,
    "nosed": 20994,
    "_?âĢĿ": 15309,
    "Ġdenying": 14659,
    "Ġreflected": 2908,
    "happening": 16566,
    "successfully": 14994,
    "ridden": 24362,
    "Ġvessels": 6757,
    "Ġ3": 3986,
    "Ġtinkling": 25213,
    "Ġornament": 11724,
    "Ġconviction": 6328,
    "hun": 5210,
    "Ġellenborough": 26155,
    "Ġuseful": 3563,
    "anged": 3591,
    "Ġessays": 19747,
    "Ġvir": 7002,
    "ourse": 8873,
    "Ġdan": 8797,
    "leader": 25352,
    "ech": 4391,
    "takes": 21079,
    "acetty": 24464,
    "aited": 12439,
    "horses": 17569,
    "Ġinert": 15626,
    "Ġcried": 1485,
    "Ġbreakers": 12058,
    "Ġcolony": 18766,
    "Ġinj": 4761,
    "Ġselecting": 16683,
    "mature": 20969,
    "Ġaunt": 3174,
    "Ġcollar": 11883,
    "Ġweariness": 19797,
    "Ġmayhap": 18706,
    "gaz": 20880,
    "Ġwilling": 7422,
    "george": 26020,
    "Ġinstantly": 3596,
    "cutting": 23787,
    "Ġexe": 3995,
    "Ġcir": 21344,
    "tap": 17678,
    "streamed": 25967,
    "Ġlung": 7169,
    "Ġsentiments": 7960,
    "Ġhost": 7070,
    "Ġpairs": 4182,
    "Ġread": 1447,
    "Ġbarrens": 25502,
    "Ġdragging": 14478,
    "Ġburying": 19254,
    "Ġsw": 1355,
    "throwing": 11707,
    "Ġpaint": 7708,
    "'(": 2976,
    "Ġsplinters": 15106,
    "Ġchace": 14179,
    "Ġjeroboam": 10603,
    "Ġaffront": 18789,
    "heidelburgh": 21214,
    "Ġwhite": 1538,
    "Ġalders": 21788,
    "Ġhood": 10825,
    "Ġinsignificance": 20460,
    "Ġabsorb": 25115,
    "Ġver": 3396,
    "exposure": 19259,
    "Ġhunch": 18937,
    "Ġdames": 23475,
    "Ġvenetian": 14849,
    "Ġgo": 613,
    "Ġattends": 19653,
    "î": 175,
    "indul": 22374,
    "Ġinsist": 9893,
    "xology": 21144,
    "afterwards": 7485,
    "numer": 15402,
    "Ġthousandth": 23686,
    "woods": 13422,
    "Ġpays": 13300,
    "Ġblotting": 25314,
    "Ġportent": 12086,
    "Ġpursuers": 13230,
    "consequential": 26251,
    "Ġtaller": 16689,
    "Ġfor": 340,
    "chant": 4259,
    "honey": 20907,
    "hide": 10705,
    "Ġsilence": 3267,
    "Ġinn": 4591,
    "Ġcommenced": 8534,
    "Ġfowler": 16939,
    "jerked": 25619,
    "couldn": 23720,
    "Ġhunger": 8570,
    "Ġut": 2280,
    "musical": 25341,
    "Ġrav": 14307,
    "ü": 189,
    "Ġtrout": 22348,
    "jonah": 11499,
    "rid": 5137,
    "Ġhalloa": 13320,
    "Ġsilken": 16380,
    "whaling": 7899,
    "prospect": 23399,
    "alley": 23028,
    "Ġdisquiet": 18553,
    "complied": 19915,
    "Ġtrampled": 20331,
    "Ġcaucus": 17383,
    "netherfield": 9816,
    "Ġevangel": 11282,
    "emptied": 23637,
    "Ġfavour": 3646,
    "staff": 21659,
    "Ġowl": 20087,
    "ship": 1392,
    "gs": 7339,
    "Ġsoup": 7069,
    "Ġtriangular": 14861,
    "Ġsuck": 15864,
    "Ġbush": 23340,
    "Ġhereditary": 10667,
    "Ġaffirm": 11891,
    "Ġgam": 11627,
    "Ġgreenhorn": 23770,
    "Ġjabbering": 22307,
    "departed": 24793,
    "_âĢĶâĢĻ": 13685,
    "ther": 480,
    "Ġdoubtless": 6197,
    "avering": 24792,
    "Ġcompassionate": 24722,
    "Ġgermany": 25786,
    "bearded": 18523,
    "Ġlad": 2363,
    "plans": 21962,
    "Ġ]": 15462,
    "Ġplantation": 11425,
    "Ġcabs": 23642,
    "swallow": 24260,
    "body": 2308,
    "thur": 7189,
    "irations": 18173,
    "ilst": 8144,
    "Ġdecomp": 3814,
    "aire": 10683,
    "Ġsymmetrical": 20370,
    "rivial": 9438,
    "insufferable": 21195,
    "Ġaspects": 4174,
    "Ġappar": 7413,
    "courageous": 26128,
    "Ġwing": 6668,
    "begins": 18526,
    "until": 6598,
    "Ġpacific": 5153,
    "Ġpark": 5465,
    "Ġpeculiar": 3150,
    "evade": 24817,
    "Ġinvisibly": 24814,
    "Ġlesson": 7277,
    "base": 20779,
    "ette": 15663,
    "lik": 3916,
    "Ġcrooked": 11283,
    "original": 9089,
    "Ġblushed": 13006,
    "Ġvindictiveness": 25739,
    "Ġbarrowful": 25596,
    "Ġmaker": 15547,
    "Ġgambler": 26192,
    "brad": 20782,
    "Ġboldly": 9504,
    "Ġbefitting": 15730,
    "stool": 23823,
    "Ġguards": 16271,
    "upwards": 18865,
    "Ġdreams": 7497,
    "Ġhands": 1664,
    "Ġarray": 12814,
    "adam": 15734,
    "Ġaspect": 3094,
    "Ġclim": 8197,
    "Ġmosses": 20166,
    "hval": 20900,
    "Ġsickened": 16777,
    "impart": 21712,
    "avating": 18608,
    "ulsive": 10236,
    "clopÃ¦dia": 15259,
    "Ġenticements": 26034,
    "congreg": 25399,
    "Ġmbpp": 21325,
    "ĠâĢĶ": 13813,
    "Ġdissatisfied": 14259,
    "wor": 3419,
    "visited": 13351,
    "elze": 21576,
    "Ġspermaceti": 8969,
    "Ġsparkled": 13465,
    "promising": 24725,
    "Ġscolding": 15204,
    "Ġmeagre": 21817,
    "Ġpool": 5173,
    "soled": 14335,
    "isting": 5551,
    "common": 4128,
    "Ġcontin": 5382,
    "Ġgrows": 4985,
    "Ġaugmentation": 20119,
    "Ġmadame": 13153,
    "Ġyoungster": 23180,
    "Ġstumbling": 21746,
    "Ġinvulnerable": 19148,
    "Ġduties": 6611,
    "Ġtradesmen": 17106,
    "Ġunobstructed": 18265,
    "thanked": 24327,
    "ital": 4819,
    "Ġwreak": 16819,
    "isance": 17849,
    "Ń": 260,
    "iverse": 13119,
    "Ġremember": 2676,
    "Ġmccarthy": 5145,
    "grass": 23415,
    "atural": 946,
    "L": 48,
    "prisoner": 20546,
    "Ġdrank": 16538,
    "lower": 8883,
    "Ġcalmed": 16270,
    "Ġlod": 4043,
    "function": 4568,
    "ulpt": 10887,
    "Ġpers": 1390,
    "Ġarmitage": 23583,
    "Ġenglish": 3619,
    "Ġperform": 1036,
    "Ġforbearance": 12332,
    "Ġworsted": 19998,
    "declare": 25174,
    "yth": 982,
    "Ġoverdone": 22353,
    "spoutings": 25004,
    "Ġunrel": 14697,
    "reckoning": 25271,
    "tu": 12516,
    "Ġglu": 15672,
    "Ġslaught": 23168,
    "Ġgalvan": 21620,
    "venth": 9299,
    "Ġpart": 859,
    "Ġdeal": 3613,
    "Ġsultry": 20291,
    "Ġmildly": 9033,
    "ara": 12611,
    "mit": 4934,
    "Ġlexic": 15728,
    "Ġdit": 21423,
    "Ġdiabolical": 20345,
    "Ġrevealed": 6753,
    "Ġconcoct": 19046,
    "inctions": 17734,
    "track": 24335,
    "Ġstronger": 8581,
    "descending": 16288,
    "ahab": 4292,
    "Ġ85": 24460,
    "Ġintervals": 5598,
    "Ġsystemat": 18448,
    "Ġcall": 2075,
    "ositions": 10286,
    "Ġrelics": 16199,
    "atches": 13848,
    "oting": 2740,
    "bohem": 19003,
    "Ġlurk": 13386,
    "Ġapproximates": 2415,
    "Ġcovent": 16079,
    "prevailed": 17348,
    "Ġbaffled": 12407,
    "Ġexpressions": 7706,
    "Ġrent": 11642,
    "Ġeh": 6988,
    "atherley": 7221,
    "reve": 12544,
    "vitality": 20482,
    "ordered": 8794,
    "chard": 21690,
    "god": 4864,
    "Ġoccurring": 2789,
    "advice": 12162,
    "Ġlug": 15656,
    "Ġimpetuously": 20375,
    "Ġfestival": 25446,
    "Ġtoils": 10188,
    "mouthful": 25209,
    "Ġintercourse": 11001,
    "Ġhieroglyphic": 25588,
    "ised": 1106,
    "airs": 2224,
    "properly": 24919,
    "vert": 15719,
    "Ġtip": 15474,
    "weigh": 18666,
    "Ġjourneying": 25566,
    "Ġhaving": 1883,
    "Ġlibraries": 20617,
    "Ġdiminished": 16668,
    "poss": 4779,
    "palms": 25263,
    "Ġfare": 5810,
    "Ġjoined": 4564,
    "Ġserenely": 13509,
    "Ġperth": 7024,
    "avier": 2829,
    "ĠĠĠĠĠĠĠĠĠĠĠĠ": 12908,
    "Ċ": 203,
    "lets": 7836,
    "inhabited": 13623,
    "pent": 3495,
    "ic": 304,
    "Ġlanguid": 14222,
    "Ġmysteries": 11324,
    "Ġgarnery": 17390,
    "Ġobsequious": 17407,
    "Ġswish": 23057,
    "Ġchains": 8251,
    "Ġdeformed": 14049,
    "inous": 8776,
    "Ġwalker": 23305,
    "passenger": 24169,
    "Ġaltered": 7394,
    "Ġhastening": 19338,
    "Ġsign": 2491,
    "Ġdistinguish": 2723,
    "Ġsuburban": 17349,
    "Ġchowders": 18386,
    "best": 6113,
    "Ġ5": 4935,
    "Ġrichness": 19313,
    "Ġwines": 21290,
    "Ġrocks": 6863,
    "Ġacquired": 13048,
    "Ġhump": 5855,
    "Ġwake": 4750,
    "Ġblanc": 11067,
    "illar": 5101,
    "Ġpockets": 8900,
    "Ġspecial": 2103,
    "Ġforemast": 12010,
    "abby": 14023,
    "Ġcarried": 3698,
    "Ġpremature": 3729,
    "Ġcomposed": 8896,
    "Ġinduce": 7763,
    "Ġsaintsbury": 26374,
    "Ġcommerce": 11017,
    "Ġamaze": 22487,
    "Ġexclam": 6759,
    "Ġsmacking": 20168,
    "cating": 20804,
    "adie": 18091,
    "Ġfitness": 24006,
    "wit": 7817,
    "Ġreap": 18029,
    "ificent": 8184,
    "wid": 10137,
    "claps": 23154,
    "overspreading": 26140,
    "sme": 17660,
    "simple": 13455,
    "Ġhospitality": 13515,
    "Ġpraise": 6486,
    "Ġeyford": 10644,
    "waist": 13421,
    "Ġquadruped": 20618,
    "Ġrepute": 18037,
    "tray": 21080,
    "Ġwhiteness": 5920,
    "sleepers": 24729,
    "riages": 10245,
    "Ġopenness": 18958,
    "Ġident": 2243,
    "ifix": 21907,
    "chambers": 25455,
    "oftener": 23968,
    "born": 7544,
    "Ġfreshe": 13073,
    "Ġheroes": 10579,
    "Ġgrope": 17997,
    "Ġrust": 6408,
    "reck": 9639,
    "Ġeconomical": 25288,
    "Ġpoles": 11006,
    "Ġconvers": 2905,
    "Ġcouldn": 7650,
    "Ġbeget": 9229,
    "Ġfejee": 18354,
    "Ġbeheaded": 11659,
    "pra": 15410,
    "Z": 62,
    "Ġwavering": 23283,
    "Ġpadded": 25039,
    "Ġspam": 7632,
    "Ġlikelihood": 16502,
    "Ġbattle": 5909,
    "Ġhoped": 5488,
    "Ġordin": 16653,
    "larking": 17596,
    "Ġallusion": 7627,
    "sheets": 14445,
    "currents": 23848,
    "unconquerable": 21895,
    "know": 2318,
    "metal": 24764,
    "Ġanalytical": 22915,
    "tumbled": 21093,
    "Ġperfidious": 25667,
    "Ġannoyance": 20664,
    "Ġegyptian": 13589,
    "Ġshaped": 15838,
    "Ġcontingency": 26246,
    "thinking": 9017,
    "Ġgreek": 10633,
    "continual": 20646,
    "Ġmarchant": 14787,
    "Ġyielding": 12191,
    "Ġlaughed": 5059,
    "Ġrepose": 6743,
    "Ġsins": 13839,
    "Ġbount": 15572,
    "Ġrecord": 5317,
    "Ġwoof": 14723,
    "provided": 13640,
    "Ġcove": 22584,
    "Ġunlocked": 14123,
    "steady": 14711,
    "asses": 7018,
    "Ġsepul": 14092,
    "hands": 5968,
    "Ġsmut": 22561,
    "Ġunderstanding": 1814,
    "fa": 7337,
    "Ġenchantment": 24870,
    "Ġcoleman": 22589,
    "sea": 4764,
    "Ġdoes": 941,
    "Ġglad": 3328,
    "bodily": 17318,
    "Ġdisregard": 22532,
    "ider": 21769,
    "Ġinboard": 17935,
    "Ġuncounted": 19118,
    "immed": 9221,
    "ĠĠĠĠĠĠĠĠĠĠĠĠĠĠĠĠĠĠĠĠĠĠĠĠĠĠĠĠĠĠĠĠĠĠĠĠĠĠĠĠĠĠĠĠĠĠĠĠĠĠĠĠĠĠĠĠĠĠĠĠ": 19262,
    "warks": 5004,
    "Ġrepair": 11983,
    "itty": 3558,
    "Ġcouns": 10523,
    "Ġquarrel": 7293,
    "Ġwalk": 1827,
    "unaccountable": 15783,
    "discovery": 12021,
    "Ġgreatness": 12949,
    "Ġdrowned": 9555,
    "Ġinvestig": 10552,
    "Ġsubdued": 11032,
    "Ġformidable": 8220,
    "Ġoccupied": 5273,
    "Ġhammered": 13244,
    "Ġcutting": 4983,
    "Ġschoolmasters": 19723,
    "opened": 7913,
    "less": 928,
    "Ġconsummate": 25311,
    "Ġinhospit": 25453,
    "severe": 21823,
    "Ġsmothe": 18575,
    "Ġounce": 15275,
    "Ġclimate": 9279,
    "Ġclung": 10963,
    "Ġadm": 2399,
    "Ġshowing": 7732,
    "Ġalteration": 9549,
    "Ġfluffy": 19367,
    "Ġsurvivor": 17366,
    "adow": 18090,
    "Ġstoutest": 24629,
    "chants": 21695,
    "luck": 5733,
    "Ġresign": 18565,
    "Ġunsophisticated": 25993,
    "Ġaye": 3355,
    "Ġthreaten": 24374,
    "Ġbingley": 1675,
    "Ġeddystone": 25736,
    "coff": 9113,
    "Ġawaiting": 11392,
    "Ġprofoundly": 16861,
    "Ġcorner": 4372,
    "Ġsor": 4146,
    "encounter": 20395,
    "Ġperennial": 22697,
    "Ġtomahawk": 7540,
    "last": 3806,
    "arm": 1356,
    "Ġcovariate": 2349,
    "Ġtiger": 11557,
    "Ġcouch": 12576,
    "Ġdaylight": 10353,
    "gorge": 22347,
    "Ġunfav": 14789,
    "parm": 21016,
    "Ġdivergence": 2724,
    "ittance": 12850,
    "Ġsoftware": 18920,
    "Ġslily": 23165,
    "violets": 23547,
    "Ġchoke": 22253,
    "Ġupbraiding": 26228,
    "Ġneural": 621,
    "´": 117,
    "Ġconjunction": 25103,
    "Ġpatter": 809,
    "stains": 11640,
    "Ġdifficult": 3575,
    "Ġsinging": 7724,
    "Ġinitialization": 1253,
    "Ġeternity": 12283,
    "Ġdarted": 4759,
    "Ġnet": 3631,
    "Ġadjusted": 23459,
    "nameless": 19905,
    "apparatus": 26565,
    "Ġchas": 18379,
    "Ġburgled": 23655,
    "Ġincommunicable": 26613,
    "appropri": 22844,
    "Ġcracking": 14574,
    "Ġcommentaries": 20163,
    "ench": 21282,
    "murderers": 25728,
    "barn": 17485,
    "Ġcruise": 12052,
    "gences": 20879,
    "oise": 15407,
    "v": 90,
    "Ġassured": 4374,
    "preserve": 25304,
    "Ġcontr": 1920,
    "writ": 16555,
    "Ġacknowledgment": 16959,
    "Ġexperienced": 6585,
    "nigh": 13765,
    "Ġguide": 3213,
    "Ġinaccessible": 13936,
    "Ġsympath": 4862,
    "ute": 4643,
    "Ġcares": 9370,
    "Ġwallow": 19469,
    "Ġcompose": 12910,
    "Ġmassive": 9935,
    "S": 55,
    "Ġpict": 3501,
    "oblivious": 26584,
    "Ġ117": 19700,
    "Ġtranslates": 12054,
    "Ġhaunt": 18198,
    "afforded": 25866,
    "Ġprodigiously": 14934,
    "Ġdevil": 3618,
    "content": 11199,
    "Ġteach": 8556,
    "oppressed": 24821,
    "Ġflames": 7940,
    "ingle": 1039,
    "Ġadmitted": 8989,
    "Ġpoison": 7220,
    "Ġwhites": 21720,
    "allowing": 24358,
    "binder": 17502,
    "redit": 3877,
    "Ġdegraded": 19228,
    "Ġattent": 4362,
    "Ġdiscoveries": 13362,
    "retirement": 23143,
    "entrance": 12662,
    "Ġseal": 10257,
    "Ġstoper": 14465,
    "Ġcomm": 838,
    "Ġhon": 2536,
    "meditated": 19074,
    "imprudent": 14652,
    "Ġprevailed": 7778,
    "Ġpleasure": 2692,
    "coil": 23561,
    "Ġbeaten": 10531,
    "Ġsun": 1720,
    "orified": 21405,
    "Ġcollinses": 19131,
    "rium": 3131,
    "Ġvehicles": 10662,
    "Ġdropped": 4472,
    "Ġhempen": 13553,
    "animate": 12582,
    "talked": 14988,
    "resnet": 4070,
    "Ġcrawled": 17045,
    "Ġfled": 6673,
    "Ġvariants": 1793,
    "occupied": 12308,
    "Ġfold": 5531,
    "fitters": 24760,
    "Ġmaximizing": 3166,
    "Ġstratag": 26029,
    "Ġlur": 5226,
    "Ġso": 433,
    "Ġmanhat": 22331,
    "Ġtissu": 25921,
    "lude": 6163,
    "fil": 12467,
    "Ġvide": 10253,
    "Ġbids": 24646,
    "Ġbestir": 13113,
    "justified": 19005,
    "Ġaged": 10324,
    "Ġbremen": 23348,
    "Ġaverse": 11083,
    "Ġadvise": 7936,
    "Ġinvoking": 19147,
    "langu": 4808,
    "cket": 3692,
    "mosp": 8089,
    "Ġprogno": 14043,
    "Ġdistinguished": 8273,
    "tr": 3583,
    "appearing": 14638,
    "ooping": 21009,
    "Ġboasted": 16111,
    "Ġbishop": 13904,
    "Ġleaping": 8341,
    "Ġsheet": 6264,
    "Ġdiscernment": 15072,
    "Ġiter": 2951,
    "ourers": 21452,
    "natured": 7112,
    "Ġfolds": 12211,
    "Ġdogs": 7742,
    "Ġcontributes": 15254,
    "Ġemaciated": 20641,
    "Ġcompromising": 22578,
    "·": 120,
    "tattoo": 21090,
    "Ġornamented": 20365,
    "ĕ": 214,
    "Ġshouldn": 14328,
    "aet": 15311,
    "Ġbowls": 23772,
    "Ġejac": 10206,
    "Ġdevotion": 22728,
    "Ġket": 18348,
    "abilities": 3235,
    "Ġgunwale": 7326,
    "Ġimplement": 2910,
    "Ġcovering": 13259,
    "gh": 3804,
    "Ġtore": 6532,
    "Ġninetieth": 25358,
    "Ġimitated": 18330,
    "game": 11493,
    "Ġstrainings": 24628,
    "Ġinnumerable": 13355,
    "Ġvehemently": 26040,
    "Ġtheoretically": 3570,
    "Ġfrequently": 4681,
    "westward": 25425,
    "urn": 776,
    "Ġassoc": 6402,
    "bearers": 18525,
    "consciously": 19628,
    "Ġcomputes": 4769,
    "Ġsought": 5010,
    "watch": 6120,
    "sigma": 3000,
    "Ġha": 400,
    "Ġcrowded": 8012,
    "ouse": 1192,
    "murmured": 24455,
    "Ġgreat": 894,
    "Ġlistener": 16477,
    "Ġdisappointment": 6629,
    "nothing": 3151,
    "Ġasked": 2279,
    "Ġclassify": 1640,
    "alf": 4639,
    "Ġquart": 11791,
    "fluttering": 23976,
    "l": 80,
    "Ġflip": 11917,
    "Ġconvincing": 19310,
    "Ġassembled": 9240,
    "honest": 17005,
    "Ġratio": 5066,
    "Ġprofane": 13155,
    "Ġmanagement": 8193,
    "Ġfriday": 14490,
    "endure": 22229,
    "Ġrattled": 15070,
    "monkey": 19172,
    "Ġskeletons": 16793,
    "Ġpositive": 2297,
    "Ġrational": 8482,
    "skill": 24487,
    "ascal": 10195,
    "rane": 17655,
    "Ġhemp": 9219,
    "tout": 21068,
    "Ġgibraltar": 25788,
    "urpr": 2288,
    "59": 17476,
    "_,âĢĿ": 6220,
    "ind": 566,
    "day": 1860,
    "Ġstruct": 2781,
    "ò": 179,
    "mushroom": 26397,
    "Ġdiscomp": 11870,
    "rived": 5373,
    "pro": 2050,
    "Ġfriendship": 7247,
    "Ġbrist": 14381,
    "pus": 3418,
    "whereby": 23420,
    "dict": 15341,
    "urring": 21708,
    "Ġroses": 11790,
    "how": 1645,
    "irting": 11689,
    "possessed": 9531,
    "Ġaristotle": 25818,
    "character": 6333,
    "Ġchased": 8865,
    ",âĢĶ": 3167,
    "Ġimmeasurable": 26231,
    "aboard": 21798,
    "Ġpunctures": 25136,
    "Ġaffright": 9336,
    "species": 13260,
    "Ġremonstr": 16165,
    "Ġbiscuit": 12594,
    "pans": 13772,
    "Ġsatisf": 2803,
    "Ġnorton": 12654,
    "Ġinterchange": 16078,
    "Ġbrothers": 13178,
    "anct": 21361,
    "Ġuseless": 7039,
    "Ġshameful": 19854,
    "Ġhan": 15622,
    "Ġaccused": 8510,
    "Ġhieroglyphics": 17306,
    "Ġworship": 10369,
    "Ġburied": 7719,
    "engagement": 14461,
    "dear": 6557,
    "Ġobtruded": 20724,
    "Ġrefined": 18709,
    "this": 1440,
    "procure": 23400,
    "Ġplainly": 4383,
    "Ġbale": 7838,
    "inkling": 16094,
    "Ġjuncture": 17132,
    "Ġtennes": 23552,
    "Ġengagement": 5397,
    "Ġknives": 14839,
    "Ġaggregated": 25679,
    "Ġincumbent": 16069,
    "Ġcolon": 18765,
    "Ġrejection": 19987,
    "Ġreckoning": 14982,
    "Ġunconquerable": 22065,
    "Ġ38": 24082,
    "Ġhill": 5626,
    "Ġholmes": 1310,
    "mar": 4337,
    "Ġfamine": 16331,
    "Ġstun": 11653,
    "Ġclay": 7021,
    "Ġ76": 24265,
    "Ġprovoking": 16745,
    "also": 7851,
    "Ġjenkinson": 11433,
    "reflection": 13458,
    "Ġerrors": 2595,
    "Ġpredictions": 1455,
    "naturally": 14576,
    "Ġmanhood": 22330,
    "did": 3194,
    "fing": 13715,
    "iceland": 21569,
    "Ġwanting": 6723,
    "Ġnocturnal": 20717,
    "Ġgestic": 21611,
    "Ġburgl": 13176,
    "Ġspaniards": 25556,
    "slow": 7810,
    "Ġposs": 1612,
    "Ġknows": 4160,
    "Ġoptimization": 1436,
    "Ġfierc": 18715,
    "Ġhurriedly": 11250,
    "sive": 4144,
    "Ġrustling": 24714,
    "Ġthrone": 12218,
    "Ġ6": 5141,
    "Ġlessened": 19089,
    "Ġheightened": 8652,
    "moid": 2448,
    "Ġbankers": 24304,
    "Ġmistaken": 4986,
    "Ġsprang": 5064,
    "Ġprairie": 8716,
    "Ġadded": 2713,
    "flaming": 23973,
    "creat": 20802,
    "shelf": 20384,
    "Ġshivered": 14111,
    "Ġstolen": 14009,
    "Ġ22": 8279,
    "Ġsummary": 19406,
    "Ġovertaken": 18425,
    "Ġprized": 23222,
    "Ġamaz": 5385,
    "Ġsincerely": 7962,
    "Ġmummy": 25769,
    "Ġquadru": 16008,
    "latitudes": 17199,
    "ĠĠĠĠĠĠĠĠĠĠĠĠĠĠĠĠĠĠĠĠĠĠĠĠĠĠĠĠĠĠĠĠĠĠĠĠĠĠĠĠĠ": 19585,
    "cially": 3490,
    "Ġtries": 9154,
    "Ġ**": 4722,
    "Ġhundredth": 16520,
    "Ġwax": 10778,
    "Ġhorribly": 16345,
    "Ġsnugly": 17112,
    "Ġsuch": 794,
    "Ġpoverty": 9308,
    "Ġab": 528,
    "Ġfoliage": 18868,
    "Ġcoll": 8222,
    "corrid": 24484,
    "boast": 23255,
    "Ġample": 11802,
    "ill": 447,
    "asional": 17962,
    "Ġslowly": 3623,
    "Ġclaim": 5106,
    "Ġfeared": 5932,
    "Ġgar": 10840,
    "delivered": 24102,
    "Ġsurpl": 19134,
    "Ġgoblets": 20522,
    "Ġcrowds": 14742,
    "Ġnomin": 10193,
    "else": 6535,
    "Ġlaid": 3943,
    "Ġenclosure": 20629,
    "Ġvocation": 10528,
    "icy": 6142,
    "Ġbackpropagation": 1283,
    "Ġsociet": 9453,
    "Ġafresh": 18627,
    "european": 26373,
    "Ġyea": 8919,
    "Ġ63": 24366,
    "cheer": 9441,
    "cooper": 19191,
    "police": 10586,
    "irmed": 9243,
    "give": 4690,
    "weary": 22689,
    "_)âĢĶ": 20147,
    "niest": 18997,
    "Ġsatin": 12992,
    "Ġarrange": 3118,
    "ighb": 10425,
    "Ġlooked": 1803,
    "Ġott": 13868,
    "Ġmuteness": 19420,
    "Ġflows": 13018,
    "Ġguessed": 11284,
    "Ġweighing": 20019,
    "Ġinquis": 19306,
    "Ġaccountability": 10440,
    "Ġspasmodically": 17317,
    "Ġluck": 4881,
    "ashions": 16421,
    "Ġribbons": 24325,
    "Ġconcuss": 19047,
    "aviour": 11008,
    "Ġhem": 8447,
    "Ġjutting": 22305,
    "changing": 10856,
    "Ġblowing": 10487,
    "Ġnoses": 18373,
    "construction": 19781,
    "Ġsummit": 7731,
    "Ġswap": 23056,
    "Ġprophes": 16352,
    "sol": 1792,
    "Åĵuvre": 25888,
    "Ġwitty": 21295,
    "frisco": 16789,
    "enances": 10156,
    "isticated": 1583,
    "Ġmau": 21313,
    "Ġcheetah": 14502,
    "Ġshipping": 14107,
    "vitiated": 25755,
    "Ġfondly": 19619,
    "Ġdevoured": 16140,
    "mons": 17602,
    "charles": 14701,
    "Ġpul": 2041,
    "Ġtranspired": 16786,
    "Ġnatural": 1132,
    "Ġsalmon": 24066,
    "Ġrule": 1535,
    "ger": 1104,
    "brain": 13690,
    "Ġcousin": 3709,
    "Ġinfluenced": 19635,
    "Ġpersuasion": 10501,
    "Ġrestricted": 19030,
    "Ġsince": 1797,
    "wled": 15457,
    "Ġimped": 18443,
    "Ġeffective": 1249,
    "Ġkiss": 8183,
    "Ġatlantic": 7001,
    "power": 7138,
    "eteenth": 20160,
    "Ġbumping": 25281,
    "landish": 11946,
    "Ġward": 10158,
    "Ġpiling": 17913,
    "Ġrenounce": 19471,
    "Ġsea": 1208,
    "Ġsports": 18311,
    "eness": 2291,
    "pl": 402,
    "mes": 1197,
    "neville": 22455,
    "shorn": 22461,
    "much": 3710,
    "ified": 3225,
    "Ġscandal": 9085,
    "itar": 15551,
    "Ġfinny": 23129,
    "angled": 6844,
    "structure": 2365,
    "Ġgorge": 13569,
    "Ġmeas": 1096,
    "Ġreaction": 15699,
    "Ġsaws": 23052,
    "Ġsources": 10150,
    "plexy": 18577,
    "Ġcomely": 21852,
    "Ġphantom": 8710,
    "Ġunwarranted": 24831,
    "Ġdigress": 24649,
    "Ġardu": 22182,
    "Ġsemicircular": 26070,
    "Ġaveraging": 2417,
    "Ġhumorousness": 25378,
    "ortunity": 4405,
    "just": 1699,
    "stand": 628,
    "Ġstuff": 5717,
    "ding": 3025,
    "Ġassociations": 14965,
    "Ġmoritz": 11910,
    "Ġpromotion": 23200,
    "Ġurging": 24505,
    "mor": 4216,
    "Ġdiving": 12606,
    "rapid": 12675,
    "Ġshipwreck": 20449,
    "kindness": 10508,
    "Ġalien": 14020,
    "muttered": 13761,
    "Ġfow": 6135,
    "ustom": 3793,
    "found": 4215,
    "neither": 9760,
    "Ġperiod": 4004,
    "tiness": 21074,
    "Ġmining": 22832,
    "Ġcreatures": 4138,
    "Ġanalysis": 1921,
    "Ġcaliforn": 14434,
    "Ġindex": 17050,
    "idge": 14016,
    "Ġlapse": 17123,
    "Ġparacels": 13670,
    "ieved": 3229,
    "ouring": 6420,
    "Ġimmediate": 6090,
    "vously": 23506,
    "Ġcleanse": 24527,
    "Ğ": 223,
    "pt": 386,
    "Ġfirmly": 8014,
    "Ġnaturalists": 10365,
    "Ġannals": 17900,
    "ved": 869,
    "Ġprehensile": 26536,
    "Ġincognit": 22559,
    "aches": 6571,
    "Ġexcused": 23314,
    "Ġtowards": 1728,
    "Ġrogue": 22409,
    "fain": 13717,
    "acca": 23599,
    "Ġlengthwise": 10454,
    "Ġformer": 3325,
    "Ġbricks": 13565,
    "Ġdoxology": 22248,
    "Ġprize": 11952,
    "Ġjon": 15952,
    "pitch": 13302,
    "Ġsinister": 8572,
    "Ġdetails": 6567,
    "Ġfruits": 17121,
    "abling": 1077,
    "incl": 8110,
    "Ġbutler": 18271,
    "Ġblackstone": 23392,
    "Ġwildly": 9418,
    "Ġintermission": 18589,
    "uting": 15664,
    "itime": 15552,
    "batch": 1984,
    "Ġbou": 17854,
    "Ġharpooned": 13266,
    "Ġbenjam": 22893,
    "Ġupset": 22157,
    "Ġformation": 2942,
    "Ġfreckled": 18960,
    "precise": 19354,
    "Ġskylarking": 19490,
    "aspect": 10196,
    "Ġhesitating": 16949,
    "Ġoat": 21326,
    "Ġnap": 8813,
    "Ġclaps": 22363,
    "Ġfond": 4756,
    "returns": 23141,
    "smoking": 23914,
    "Ġmeans": 699,
    "cleanliness": 25872,
    "spike": 16142,
    "money": 8753,
    "Ġjapanese": 10635,
    "ching": 5156,
    "Ġend": 1472,
    "Ġcocksure": 26260,
    "Ġexploring": 4307,
    "Ġdig": 6137,
    "Ġaffronted": 22896,
    "preading": 18500,
    "chest": 11210,
    "Ġslain": 8956,
    "uttering": 12667,
    "Ġnecessitates": 23933,
    "rinted": 21046,
    "arctic": 12615,
    "Ġthroat": 7771,
    "Ġlying": 4827,
    "Ġnorris": 23207,
    "op": 659,
    "Ġflowery": 16238,
    "obli": 23098,
    "Ġrises": 9716,
    "Ġimbalance": 22178,
    "Ġscorched": 17102,
    "Ġmornings": 16241,
    "Ġsustain": 10020,
    "Ġsmote": 18576,
    "rest": 1630,
    "Ġtreas": 7359,
    "Ġprosper": 10232,
    "Ġrosings": 4608,
    "Ġaccidents": 10298,
    "magnifying": 25393,
    "chased": 18044,
    "Ġvillain": 8639,
    "dron": 17527,
    "Ġhelmeted": 19691,
    "silly": 24422,
    "Ġleave": 2455,
    "introduction": 15127,
    "Ġvillas": 24057,
    "ultaneous": 18584,
    "Ġincomp": 12905,
    "Ġensure": 23690,
    "journey": 8748,
    "Ġpalsy": 25779,
    "Ġdiscove": 16159,
    "sham": 9761,
    "secured": 16940,
    "Ġbanners": 24859,
    "guinea": 16675,
    "Ġadds": 1808,
    "noise": 14339,
    "encouragement": 17426,
    "isher": 2876,
    "Ġforeman": 23448,
    "Ġsenor": 20153,
    "Ġusages": 15922,
    "rote": 4593,
    "Ġassociates": 24711,
    "mat": 2204,
    "Ġsuccess": 3615,
    "Ġtransportation": 13645,
    "Ġprudence": 13922,
    "impl": 21710,
    "Ġlimbs": 5967,
    "iancy": 13017,
    "Ġlizz": 21560,
    "Ġlowermost": 23244,
    "Ġrecourse": 22753,
    "Ġtragedy": 10670,
    "risonment": 17378,
    "Ġ37": 24081,
    "fourth": 11330,
    "extinguish": 22760,
    "Ġnast": 15643,
    "Ġpresume": 8038,
    "affection": 7488,
    "Ġpurpose": 2705,
    "Ġbrood": 23104,
    "airing": 16180,
    "ilies": 18059,
    "Ġsiber": 17757,
    "Ġpalpitated": 26086,
    "Ġdus": 8424,
    "laz": 15389,
    "ainted": 3663,
    "Ġinvestment": 24332,
    "Ġstomach": 11656,
    "Ġjackson": 24243,
    "Ġfortunately": 12184,
    "Ġ125": 24470,
    "machine": 998,
    "stache": 15694,
    "tell": 1380,
    "Ġpenet": 6888,
    "vers": 1327,
    "Ġconvert": 11846,
    "Ġtranquillize": 24756,
    "Ġopine": 19229,
    "Ġscore": 9741,
    "Ġpip": 1632,
    "announcement": 24563,
    "Ġrandomly": 1925,
    "circumstance": 7764,
    "estic": 4956,
    "Ġmeanly": 12915,
    "drawn": 9916,
    "draw": 23903,
    "Ġwidower": 24238,
    "Ġobserving": 6081,
    "ĠĠĠĠĠĠĠĠĠĠ": 18579,
    "Ġadv": 1168,
    "Ġresolve": 13173,
    "convolutional": 4958,
    "Ġhousekeeping": 18946,
    "Ġpastures": 23422,
    "Ġpaddled": 20204,
    "Ġmisconduct": 22765,
    "Ġcomes": 3426,
    "describe": 1514,
    "Ġspending": 10925,
    "appe": 2943,
    "calculation": 25689,
    "addressing": 24401,
    "Ġpathetic": 19037,
    "laughed": 20284,
    "Ġbrigs": 20325,
    "Ġsquires": 16184,
    "quarters": 24949,
    "Ġdrawback": 23996,
    "Ġshrouds": 11346,
    "ouching": 13180,
    "Ġscre": 9740,
    "Ġportly": 14679,
    "84": 15305,
    "activity": 22634,
    "ousand": 2427,
    "Ġautumnal": 19027,
    "Ġstricken": 9779,
    "avoiding": 25237,
    "Ġblows": 5974,
    "ting": 1333,
    "Ġhandspikes": 12943,
    "Ġconsequently": 8060,
    "ouncement": 11749,
    "oured": 2670,
    "ided": 2782,
    "Ġrash": 10900,
    "Ġpractically": 13106,
    "Ġunexpectedly": 19911,
    "plish": 18209,
    "Ē": 211,
    "cim": 8723,
    "Ġlegendary": 20540,
    "Ġvoy": 2617,
    "Ġthought": 1093,
    "Ġerad": 25031,
    "Ġbodings": 21394,
    "Ġinjuring": 24271,
    "Ġriot": 14689,
    "dee": 11737,
    "Ġkate": 15909,
    "Ġgrosvenor": 17421,
    "representativeness": 25273,
    "arken": 18668,
    "Ġschedules": 3389,
    "paper": 9140,
    "Ġlashes": 17969,
    "browed": 25895,
    "Ġnonsense": 6983,
    "Ġcandid": 4099,
    "Ġmoisture": 12364,
    "affairs": 14657,
    "Ġenlivened": 26209,
    "Ġrevolver": 14902,
    "Ġoblig": 3447,
    "owed": 2271,
    "Ġinstructed": 19287,
    "eneva": 5118,
    "Ġcant": 17826,
    "sander": 11529,
    "Ġwrecked": 9969,
    "Ġobjection": 6587,
    "organic": 25947,
    "Ġhawaiian": 25367,
    "rit": 21038,
    "Ġfiends": 14830,
    "yield": 13811,
    "Ġencoura": 1366,
    "gaining": 20127,
    "Ġinsane": 19271,
    "Ġgeneration": 2242,
    "Ġpeaked": 2296,
    "Ġcaus": 1724,
    "oc": 2833,
    "Ġbakers": 17868,
    "ric": 1377,
    "illuminated": 17456,
    "Ġguard": 6180,
    "Ġpoetic": 17104,
    "Ġhurtling": 24960,
    "Ġunche": 23431,
    "Ġnought": 21525,
    "Ġwon": 1665,
    "Ġinferred": 14980,
    "Ġextinguish": 14331,
    "Ġvivid": 8058,
    "Ġfears": 5729,
    "Ġunanswerable": 26523,
    "riminately": 16485,
    "Ġmult": 1020,
    "Ġflora": 11418,
    "clifford": 23158,
    "Ġexciting": 23313,
    "Ġassailants": 20452,
    "away": 4626,
    "Ġlieutenant": 15264,
    "Ġsamuel": 10036,
    "Ġhypothesis": 14785,
    "ended": 1836,
    "Ġsorry": 4211,
    "Ġbegone": 11921,
    "abst": 21792,
    "augmented": 26288,
    "Ġtriumphant": 12194,
    "Ġmultiple": 1186,
    "Ġdeemed": 7614,
    "Ġalongside": 6313,
    "Ġredoubled": 23755,
    "happen": 19333,
    "Ġcop": 7581,
    "combination": 25487,
    "Ġforemost": 12009,
    "wic": 21123,
    "Ġflowed": 10374,
    "path": 10121,
    "Ġtaught": 6804,
    "Ġreview": 18033,
    "licted": 20958,
    "Ġhandsomer": 20336,
    "Ġputs": 19034,
    "disapprobation": 19159,
    "Ġshared": 10266,
    "È": 137,
    "Ġdisposition": 5409,
    "Ġsoar": 18283,
    "opp": 6963,
    "Ġparticulars": 5754,
    "Ġfireplace": 13148,
    "emph": 21932,
    "Ġanomalous": 25638,
    "Ġgladness": 16593,
    "Ġbrawny": 13616,
    "Ġharpo": 1946,
    "symp": 14619,
    "Ġenglishman": 11231,
    "abode": 21795,
    "Ġhighlands": 22778,
    "taffrail": 15445,
    "Ġmacey": 12568,
    "Ġquoin": 22422,
    "Ġexaggerate": 25650,
    "aged": 2605,
    "Ġskrimshander": 22802,
    "Ġpunishment": 9959,
    "Ġmainz": 22656,
    "Ġmetal": 9388,
    "Ġarter": 22181,
    "sink": 11524,
    "rank": 21044,
    "cuniary": 26381,
    "oot": 13767,
    "ductive": 23939,
    "circumstantial": 24444,
    "bag": 7543,
    "Ġbigness": 19763,
    "Ġfeasible": 22213,
    "Ġinquiry": 6484,
    "relative": 24019,
    "Ġwithal": 18116,
    "pulous": 15419,
    "Ġglorious": 11077,
    "against": 5872,
    "rift": 11522,
    "Ġlifting": 10199,
    "antage": 3880,
    "Ġrepresentation": 14408,
    "coat": 5407,
    "Ġsnapped": 9900,
    "Ġtombed": 25164,
    "Ġcharacters": 9375,
    "Ġmadness": 6603,
    "Ġphara": 23205,
    "Ġcrozetts": 19632,
    "Ġacute": 16127,
    "Ġ132": 19898,
    "Ġshade": 6552,
    "Ġjustine": 4970,
    "Ġdefect": 8558,
    "Ġuntimely": 16469,
    "Ġyellowish": 24430,
    "Ġhyper": 19742,
    "bed": 3492,
    "crimin": 17511,
    "Ġzer": 1094,
    "childhood": 16870,
    "Ġliquid": 22413,
    "Ġdol": 9667,
    "Ġscheming": 23274,
    "Ġandromeda": 21511,
    "Ġspectators": 19410,
    "Ġpilgrimage": 17311,
    "soon": 4028,
    "Ġshaved": 22006,
    "Ġproduce": 4369,
    ")âĢĶâĢľ": 20745,
    "gunw": 17223,
    "Ġpang": 15609,
    "Ġimpul": 7209,
    "actorily": 25577,
    "lifeless": 24314,
    "having": 5211,
    "Ġavalanche": 17436,
    "gon": 17554,
    "Ġaudible": 19883,
    "frequently": 9982,
    "Ġpersons": 6184,
    "rel": 3758,
    "Ġcommitted": 7432,
    "leeward": 15214,
    "Ġinstruct": 2863,
    "shipped": 18496,
    "Ġswaying": 15049,
    "Ġmethodically": 23182,
    "yonder": 21147,
    "up": 1286,
    "Ġinsupportable": 13934,
    "Ġrelative": 11887,
    "estim": 14171,
    "Ġenjoined": 18192,
    "Ġflashed": 11918,
    "Ġwronged": 24250,
    "Ġsideways": 6183,
    "flood": 19809,
    "Ġlaure": 16911,
    "computer": 1899,
    "Ġharpoone": 2911,
    "Ġinscriptions": 20012,
    "Ġcamberwell": 25351,
    "independ": 15985,
    "Ġpictured": 16625,
    "Ġclanking": 20614,
    "Ġexamination": 8005,
    "emotions": 15801,
    "Ġrifled": 21980,
    "encyclopÃ¦dia": 16666,
    "igning": 12686,
    "Ġcontempl": 6703,
    "Ġxv": 23409,
    "Ġknitted": 19592,
    "Ġath": 15805,
    "Ġbust": 10170,
    "storm": 9685,
    "ights": 8478,
    "never": 3149,
    "Ġhidden": 1375,
    "Ġsurprised": 3832,
    "Ġsailed": 4890,
    "Ġlifelessly": 23053,
    "Ġfigures": 8633,
    "Ġscuff": 15947,
    "Ġrumours": 24599,
    "Ġsphy": 18312,
    "Ġscratch": 25565,
    "vineyard": 25422,
    "Ġpersisting": 18896,
    "Ġmilk": 6485,
    "ac": 698,
    "Ġchambermaid": 24306,
    "tete": 10734,
    "Ġbrowne": 13305,
    "Ġmischief": 8543,
    "Ġgentlemen": 3647,
    "icates": 11620,
    "Ġbrew": 23347,
    "Ġmonitors": 3154,
    "imble": 10860,
    "Ġworkmen": 23012,
    "Ġcripple": 11442,
    "30": 20756,
    "bidden": 19740,
    "mises": 20980,
    "Ġsummits": 14684,
    "app": 1041,
    "iction": 4269,
    "destruction": 11257,
    "asse": 15649,
    "Ġirresistible": 13116,
    "retrie": 18926,
    "Ġentertainment": 12227,
    "Ġtemperature": 1005,
    "Ġide": 2124,
    "irr": 12742,
    "Ġsovere": 9260,
    "inously": 21189,
    "Ġfashions": 17887,
    "ched": 1545,
    "Ġprevention": 16095,
    "Ġgod": 1940,
    "Ġnur": 5710,
    "Ġvary": 15811,
    "Ġgravely": 7883,
    "Ġordered": 5833,
    "behaved": 24463,
    "Ġweapons": 10596,
    "civilities": 24974,
    "Ġcandidate": 16700,
    "Ġfoolishly": 19785,
    "roll": 9200,
    "Ġmonths": 3457,
    "blind": 16704,
    "Ġchecked": 9380,
    "Ġromantic": 8031,
    "advent": 10223,
    "Ġtouching": 4682,
    "Ġbuilding": 8063,
    "Ġ-": 1948,
    "pshire": 21026,
    "Ġwhen": 514,
    "uning": 1314,
    "Ġseeth": 21957,
    "sworn": 24259,
    "bald": 16447,
    "Ġlasting": 18793,
    "Ġfind": 1457,
    "hours": 9128,
    "Ġprecious": 5760,
    "hook": 12056,
    "fisher": 7548,
    "inkled": 5477,
    "Ġauthor": 4377,
    "Ġwithdra": 6398,
    "thomas": 18220,
    "Ġpulpit": 7471,
    "ĝ": 222,
    "additional": 20467,
    "whispered": 20037,
    "intending": 22938,
    "Ġportions": 19372,
    "Ġsepar": 4000,
    "Ġhomely": 25220,
    "Ġoffered": 5817,
    "ass": 538,
    "sticks": 25966,
    "lished": 8383,
    "Ġbeech": 18085,
    "Ġevaluation": 16581,
    "Ġsubmit": 11874,
    "Ġthomson": 26456,
    "Ġceased": 6468,
    "pour": 17632,
    "Ġluxurious": 17314,
    "Ġmarked": 4620,
    "Ġphant": 7057,
    "Ġcuring": 21347,
    "Ġsuperfluous": 17417,
    "Ġclimates": 25054,
    "Ġrashly": 20308,
    "Ġlouisiana": 25079,
    "Ġproposals": 10616,
    "asets": 2310,
    "Ġrobes": 16249,
    "Ġcounsell": 25385,
    "possess": 5985,
    "singular": 12193,
    "choose": 23675,
    "Ġstumble": 26484,
    "Ġrecommendation": 17027,
    "Ġsadder": 24055,
    "cerem": 15682,
    "Ġimprudence": 10300,
    "Ġvolume": 6770,
    "Ġlee": 4224,
    "iscreet": 20685,
    "Ġwallet": 21301,
    "substance": 15235,
    "Ġeasterly": 25963,
    "Ġhumorously": 18779,
    "Ġtogether": 1881,
    "Ġprec": 2919,
    "Ġadequ": 10915,
    "Ġpersistence": 3186,
    "Ġpossibility": 7459,
    "Ġharmless": 9968,
    "Ġdreaminess": 23943,
    "Ġracket": 22652,
    "gaffman": 26392,
    "Ġworshipper": 25693,
    "Ġarrog": 18338,
    "Ġcarpet": 9360,
    "scy": 21058,
    "Ġmultipl": 2788,
    "pal": 9619,
    "Ġnumbers": 2886,
    "Ġnearer": 5303,
    "Ġunt": 2294,
    "Ġunsatisfied": 22046,
    "ut": 308,
    "Ġrestlessness": 23294,
    "Ġreleased": 2975,
    "Ġcasualty": 20344,
    "Ġpulley": 2973,
    "Ġspilled": 10926,
    "V": 58,
    "Ġtaurus": 21181,
    "legged": 10468,
    "Ġexord": 21831,
    "preserving": 25305,
    "Ġtwelfth": 22681,
    "Ġtea": 5041,
    "sh": 647,
    "traced": 19648,
    "Ġalive": 4400,
    "Ġwide": 4108,
    "ish": 550,
    "winding": 16722,
    "Ġrippling": 17280,
    "Ġslave": 7455,
    "trouble": 8296,
    "Ġmassachusetts": 24028,
    "Ġanalyzing": 18802,
    "urrection": 12413,
    "thesize": 24907,
    "oregressive": 3427,
    "itancy": 21336,
    "Ġchal": 18378,
    "Ġrivals": 20274,
    "Ġsubsiding": 23436,
    "Ġlasted": 11055,
    "Ġbracelets": 25503,
    "weather": 7230,
    "Ġadieus": 25113,
    "resolution": 17768,
    "Ġ97": 19777,
    "Ġhour": 1815,
    "Ġstandpoint": 23281,
    "sprit": 11384,
    "Ġstack": 21737,
    "Ġreassure": 21675,
    "close": 9989,
    "Ġcopy": 10166,
    "Ġsnatch": 14640,
    "Ġsubord": 22789,
    "Ġwatching": 4856,
    "oration": 2213,
    "arbuck": 2026,
    "Ġunrecord": 16623,
    "Ġinexhaustible": 16983,
    "mental": 16052,
    "akeman": 6269,
    "Ġcleans": 18950,
    "nment": 20992,
    "Ġunjust": 8486,
    "Ġsacri": 18329,
    "Ġnecks": 18186,
    "maltese": 24794,
    "Ġpol": 2575,
    "Ġ25": 13197,
    "Ġanticipatingly": 26103,
    "gul": 12470,
    "eronomy": 15528,
    "Ġporthole": 24399,
    "maker": 12497,
    "Ġknob": 24407,
    "cowardly": 25750,
    "Ġcollateral": 20075,
    "cused": 15335,
    "Ġevening": 2651,
    "Ġvinc": 14088,
    "bedstead": 23935,
    "jer": 12485,
    "stretch": 13983,
    "overhearing": 19053,
    "Ġcruisers": 25864,
    "Ġseriously": 7062,
    "Ġwarmest": 16486,
    "Ġbegrimed": 26580,
    "Ġfatal": 5873,
    "watches": 14949,
    "mountain": 10715,
    "somehow": 12016,
    "hum": 3782,
    "cated": 20805,
    "tan": 4743,
    "beginning": 13564,
    "Ġflit": 23013,
    "Ġreasoner": 14437,
    "sherlock": 5422,
    "Ġsweat": 13143,
    "Ġlimited": 23548,
    "Ġpicture": 4858,
    "repairing": 24495,
    "Ġcast": 3611,
    "Ġan": 286,
    "Ġseclusion": 18207,
    "Ġbroke": 5323,
    "Ġtelegra": 11896,
    "oin": 17619,
    "Ġocc": 886,
    "composure": 23992,
    "Ġjungfrau": 15252,
    "endured": 22231,
    "Ġcoarse": 14280,
    "animals": 24737,
    "Ġpartner": 6716,
    "itt": 569,
    "Ġunostentatious": 22071,
    "Ġdanes": 25160,
    "distant": 13338,
    "Ġplainpal": 19279,
    "Ġourselves": 5127,
    "Ġshores": 8852,
    "pet": 4868,
    "Ġunp": 12777,
    "concerned": 24639,
    "Ġdepresses": 25798,
    "Ġquite": 1739,
    "adding": 21765,
    "begging": 22501,
    "wn": 721,
    "noo": 9792,
    "Ġlane": 5627,
    "confidential": 25877,
    "Ġexplanation": 6694,
    "Ġfrighted": 24035,
    "rooms": 10434,
    "ifling": 15787,
    "Ġdifferently": 10391,
    "Ġcomplicated": 14738,
    "ord": 667,
    "Ġharsh": 9524,
    "Ġchord": 22249,
    "Ġconstruction": 9390,
    "Ġwit": 3843,
    "ulous": 4451,
    "Ġpebbles": 16133,
    "elements": 25204,
    "hammered": 19006,
    "Ġmankind": 6700,
    "Ġwar": 5526,
    "Ġphyset": 23206,
    "Ġtempered": 12927,
    "Ġwoody": 23520,
    "Ġcertainly": 2493,
    "Ġlips": 3992,
    "shaven": 18497,
    "Ġpedro": 15066,
    "Ġamendment": 26025,
    "Ġconnex": 10668,
    "giana": 7801,
    "sooner": 14779,
    "Ġimmovable": 15896,
    "ishmael": 18421,
    "fedallah": 25523,
    "Ġtroublesome": 24008,
    "ickory": 22672,
    "Ġbas": 6380,
    "Ġpoured": 8805,
    "Ġbridle": 24682,
    "Ġgreenwich": 19323,
    "Ġsinusoidal": 4802,
    "Ġpittance": 15621,
    "ees": 13713,
    "Ġtread": 9413,
    "Ġglobules": 26590,
    "Ġsufficiently": 8976,
    "Ġmanaging": 22329,
    "Ġcheek": 8580,
    "gossip": 23407,
    "Ġexquisitely": 20205,
    "Ġinspect": 5965,
    "Ġprobabilities": 4966,
    "might": 4079,
    "Ġten": 2384,
    "Ġfresh": 3675,
    "olerably": 11676,
    "Ġalphabetical": 17204,
    "Ġawe": 7148,
    "Ġfrantically": 23261,
    "Ġostlers": 25277,
    "sample": 12511,
    "ners": 3270,
    "Ġdebts": 8036,
    "Ġdesp": 3212,
    "Ġresuming": 12898,
    "kl": 4866,
    "riot": 18183,
    "ois": 9138,
    "Ġstamped": 13529,
    "corrob": 24485,
    "tempt": 21082,
    "Ġfist": 21407,
    "Ġactionable": 24560,
    "Ã": 132,
    "goodbye": 12059,
    "tained": 4407,
    "Ġstamping": 20034,
    "title": 17290,
    "Ġbusied": 19068,
    "lightning": 16554,
    "Ġwhitish": 24867,
    "cigar": 26125,
    "orously": 8420,
    "Ġmajest": 24064,
    "Ġinherited": 25354,
    "folly": 20864,
    "Ġforeshad": 23453,
    "Ġignited": 25072,
    "Ġconsequ": 6256,
    "Ġwhis": 3506,
    "thank": 4950,
    "Ġsembl": 19063,
    "Ġkissed": 10048,
    "Ġexpressing": 12013,
    "Ġintervening": 17270,
    "owl": 12688,
    "Ġsombre": 18861,
    "Ġsympt": 7014,
    "garnished": 26390,
    "Ġseven": 4542,
    "Ġgayer": 24501,
    "Ġmeasurement": 19426,
    "tube": 20414,
    "Ġiteratively": 3056,
    "Ġlonely": 6823,
    "riving": 21930,
    "Ġriver": 5411,
    "convinced": 10625,
    "sided": 17666,
    "consolatory": 25307,
    "Ġhorn": 6187,
    "Ġthe": 270,
    "ix": 1801,
    "clut": 23152,
    "send": 15426,
    "pen": 1204,
    "Ġclamped": 18433,
    "Ġstrand": 11832,
    "Ġinside": 5448,
    "Ġbreach": 11978,
    "Ġmute": 19419,
    "arth": 4444,
    "shall": 4550,
    "Ġprobability": 1125,
    "Ġbaleen": 10040,
    "Ġcustoms": 19655,
    "Ġdestro": 3726,
    "Ġjustify": 11074,
    "chance": 6827,
    "tale": 10130,
    "dham": 20832,
    "Ġraven": 16118,
    "Ġscents": 22291,
    "Ġsobs": 14137,
    "Ġone": 567,
    "buffalo": 20566,
    "Ġfacet": 15589,
    "vels": 5432,
    "Ġsmile": 4273,
    "Ġpunctually": 17141,
    "Ġnoises": 18374,
    "circ": 4390,
    "Ġfatigued": 13468,
    "attacked": 23124,
    "looking": 4033,
    "sk": 5521,
    "Ġlouisa": 13548,
    "Ġhaw": 10254,
    "Ġambiguous": 20167,
    "Ġvowed": 14087,
    "ulations": 6030,
    "improve": 15716,
    "Ġelevated": 7319,
    "Ġseptember": 18206,
    "phia": 22774,
    "Ġfrayed": 23268,
    "leading": 15566,
    "Ġexceedingly": 4615,
    "Ġrepetition": 8975,
    "turned": 7307,
    "Ġportrait": 10664,
    "Ġstreets": 5865,
    "Ġresolution": 5500,
    "Ġbending": 12590,
    "Ġunmethodically": 22072,
    "pips": 21022,
    "Ġboun": 21383,
    "Ġmaw": 15544,
    "Ġskewer": 19623,
    "forgotten": 12420,
    "seaman": 25458,
    "Ġbehoo": 19035,
    "touched": 15442,
    "Ġobtain": 8918,
    "ty": 1002,
    "christmas": 20258,
    "Ġclutching": 24954,
    "Ġply": 21456,
    "Ġbroken": 3450,
    "motion": 17608,
    "Ġlectures": 17181,
    "ors": 854,
    "Ġsurely": 6309,
    "isons": 17851,
    "real": 10152,
    "mblies": 24609,
    "Ġpopularly": 12246,
    "Ġearned": 19408,
    "Ġreckon": 19872,
    "Ġoath": 7833,
    "Ġpirate": 14998,
    "el": 306,
    "Ġdeception": 18142,
    "ize": 772,
    "Ġlights": 8963,
    "Ġimprisonment": 22391,
    "Ġbaltic": 18796,
    "Ġunpardonable": 22064,
    "Ġcontemplated": 13467,
    "Ġlain": 17964,
    "Ġne": 390,
    "Ġtrous": 10959,
    "Ġrecompense": 14840,
    "story": 9216,
    "unexpected": 15782,
    "Ġlivelihood": 24773,
    "Ġoffing": 16144,
    "Ġsilvery": 13097,
    "Ġtragic": 15258,
    "persecut": 22193,
    "Ġhaul": 11696,
    "tinted": 17685,
    "burned": 25082,
    "own": 745,
    "Ġglimpse": 6944,
    "Ġweek": 2825,
    "bbings": 19278,
    "Ġburton": 23654,
    "Ġcetus": 19887,
    "Ġryder": 10261,
    "Ġcronies": 23442,
    "Ġhol": 1182,
    "Ġhaggard": 17333,
    "Ġscattered": 6856,
    "Ġappropri": 2230,
    "Ġcontention": 22430,
    "world": 5058,
    "linen": 25258,
    "Ġexig": 21830,
    "Ġcooper": 16082,
    "Ġafraid": 3533,
    "Ġdelic": 4135,
    "Ġendeav": 2953,
    "Ġquieted": 23846,
    "Ġsteward": 6586,
    "Ġtrial": 6637,
    "slackened": 26095,
    "myself": 5113,
    "omp": 2528,
    "Ġmuskets": 17057,
    "Ġorphan": 12387,
    "Ġrenow": 18030,
    "Ġdisconsol": 18558,
    "Ġemployments": 12107,
    "Ġtight": 8108,
    "opence": 18508,
    "Ġeternally": 11371,
    "Ġimmeas": 18331,
    "Ġtraffic": 23087,
    "Ġantagon": 19553,
    "Ġbreathe": 9015,
    "uttermost": 24943,
    "Ġarmies": 16494,
    "slo": 17658,
    "Ġveil": 7934,
    "abash": 18110,
    "fell": 6953,
    "oken": 4309,
    "Ġwhether": 2001,
    "Ġsin": 1513,
    "timidity": 25754,
    "eck": 20846,
    "test": 13794,
    "Ġobviously": 16812,
    "Ġshrivelled": 19706,
    "idled": 21772,
    "Ġwindward": 6885,
    "develop": 13520,
    "oda": 15753,
    "five": 6358,
    "Ġsaying": 3242,
    "Ġalbertus": 25649,
    "istically": 14146,
    "Ġinestimable": 17445,
    "iasm": 8061,
    "vanished": 15063,
    "erranean": 9338,
    "Ġcoefficient": 2882,
    "Ġvirgin": 7329,
    "Ġflower": 16237,
    "sense": 11526,
    "Ġvor": 15810,
    "Ġtherein": 11779,
    "boom": 19000,
    "Ġsm": 704,
    "Ġwarsaw": 26168,
    "jolly": 20933,
    "nal": 1907,
    "fetch": 12469,
    "Ġarchy": 14352,
    "Ġhowl": 12860,
    "Ġavail": 11228,
    "recogn": 13428,
    "ivot": 11722,
    "Ġhumiliating": 22885,
    "arling": 10816,
    "nical": 20993,
    "Ġuniversal": 2236,
    "arnel": 18127,
    "Ġunintellig": 22028,
    "Ġloggerhead": 13660,
    "ious": 769,
    "eur": 7546,
    "duty": 20242,
    "Ġincapable": 7424,
    "Ġconsisted": 10421,
    "Ġgranite": 22813,
    "Ġhearses": 20063,
    "Ġvisibly": 22849,
    "others": 7671,
    "Ġhydraul": 9517,
    "Ġrequest": 6052,
    "process": 11150,
    "Ġlass": 15652,
    "Ġcontribut": 12864,
    "distrustful": 26332,
    "Ġtus": 10751,
    "france": 24284,
    "Ġapprehended": 26091,
    "Ġlodgings": 8312,
    "Ġjunks": 25116,
    "Ġquick": 2580,
    "stige": 21664,
    "animal": 16980,
    "Ġplayed": 9420,
    "liber": 18815,
    "sig": 2873,
    "Ġfarther": 5956,
    "otent": 8836,
    "gunpowder": 25340,
    "onds": 12997,
    "erson": 7003,
    "Ġparcels": 25466,
    "Ġconsolidation": 5060,
    "Ġimmutable": 17361,
    "Ġafrica": 12349,
    "stating": 21650,
    "Ġtrees": 4203,
    "advanced": 19591,
    "glimmer": 26323,
    "Ġkl": 2732,
    "young": 7322,
    "Ġfrequencies": 4790,
    "Ġmorsel": 20680,
    "antically": 22100,
    "intolerable": 22941,
    "Ġguineas": 16273,
    "trying": 15441,
    "Ġpre": 507,
    "oid": 3125,
    "Ġenig": 15803,
    "Ġamiable": 4270,
    "Ġforts": 21776,
    "Ġlucky": 7759,
    "libr": 22926,
    "flask": 12104,
    "Ġsultanism": 25889,
    "ferences": 10329,
    "marry": 13327,
    "sciss": 18859,
    "Ġmusty": 22683,
    "Ġexposure": 16103,
    "Ġreading": 5114,
    "Ġsqueeze": 10042,
    "Ġclings": 15976,
    "enthusiastic": 20695,
    "Ġaccuse": 14214,
    "Ġbaleful": 24985,
    "venison": 22631,
    "pequod": 7054,
    "Ġexchange": 15757,
    "remote": 23195,
    "Ġlatin": 16823,
    "Ġcarriages": 11100,
    "Ġvictory": 16656,
    "ificial": 607,
    "Ġhusband": 3625,
    "Ġtaking": 3249,
    "Ġwhistling": 19793,
    "girls": 12323,
    "period": 15906,
    "Ġclad": 12848,
    "Ġaffidav": 18790,
    "Ġdenoted": 16567,
    "Ġfoolish": 5981,
    "Ġbund": 17865,
    "Ġlinear": 3435,
    "Ġclinched": 17397,
    "versed": 9828,
    "Ġconstrained": 19241,
    "Ġsinews": 20290,
    "Ġthousands": 6750,
    "Ġskip": 1846,
    "Ġincantation": 26259,
    "Ġcasualties": 25513,
    "Ġplague": 11828,
    "Ġstabbing": 20306,
    "facts": 19845,
    "Ġvalidation": 2355,
    "Ġmurderous": 8316,
    "shazz": 14244,
    "Ġsake": 4092,
    "Ġdestabilizing": 5053,
    "reng": 4003,
    "Ġinjunction": 19620,
    "Ġtempestuous": 20074,
    "pha": 22772,
    "Ġgarb": 21606,
    "Ġentire": 2557,
    "Ġcomputations": 16003,
    "derness": 11741,
    "whosoever": 22244,
    "ourably": 14380,
    "glings": 23854,
    "Ġblu": 2684,
    "Ġclam": 7417,
    "Ġflaming": 8567,
    "Ġgunwales": 12245,
    "Ġblasts": 19999,
    "Ġgrizz": 10355,
    "berish": 22743,
    "arying": 9804,
    "Ġdescribes": 3120,
    "Ġspecksnyder": 17406,
    "nals": 16404,
    "Ġhos": 4942,
    "Ġballasted": 23983,
    "precedented": 15178,
    "county": 25397,
    "Ġwer": 12557,
    "ateg": 1365,
    "Ġhonorable": 16878,
    "patched": 17645,
    "circumamb": 26088,
    "Ġwithered": 19468,
    "Ġunerringly": 18266,
    "Ġrelation": 2144,
    "Ġartistic": 18606,
    "Ġduplicate": 17218,
    "Ġneighbours": 8303,
    "Ġhing": 11607,
    "byshire": 6174,
    "Ġafar": 14295,
    "Ġthrows": 14740,
    "Ġlargely": 14288,
    "Ġconduct": 3737,
    "Ġantique": 19554,
    "¨": 106,
    "Ġpatches": 4238,
    "ectual": 21919,
    "Ġdumb": 7843,
    "Ġmcc": 21309,
    "Ġwrenched": 12563,
    "convers": 6569,
    "sister": 5139,
    "Ġlunch": 13528,
    "Ġcontrasting": 11156,
    "Ġweight": 657,
    "ĠâĢĶâĢĶ": 25758,
    "Ġunmolested": 15249,
    "getting": 12971,
    "Ġmarrying": 6179,
    "yond": 2329,
    "prophet": 16186,
    "heedful": 20576,
    "lantern": 17431,
    "Ġlikeness": 11181,
    "oglyph": 11021,
    "Ġsteering": 10390,
    "didst": 19352,
    "encoura": 15051,
    "Ġphrenolog": 12338,
    "unvarying": 21891,
    "Ġcalendar": 18878,
    "mews": 22703,
    "vid": 913,
    "etime": 12664,
    "embarr": 17295,
    "Ġagrees": 22520,
    "Ġobedient": 20108,
    "hearty": 14836,
    "._)": 10483,
    "obst": 11936,
    "represent": 9640,
    "Ġbuckler": 24860,
    "Ġferguson": 17472,
    "Ġtaffrail": 15479,
    "sunlight": 24852,
    "Ġringed": 16752,
    "Ġdeserted": 8640,
    "Ġloosened": 26003,
    "Ġalbert": 12711,
    "Ġtre": 2534,
    "Ġmace": 21312,
    "favourable": 12268,
    "Ġcondescended": 19959,
    "Ġletter": 2201,
    "ceased": 21629,
    "smug": 23911,
    "Ġpropont": 16353,
    "Ġgratify": 19506,
    "Ġtidings": 11399,
    "Ġstaircase": 20099,
    "Ġforgotten": 5679,
    "Ġpartial": 2132,
    "sentiment": 12919,
    "Ġasia": 11686,
    "harrow": 20910,
    "Ġwrecks": 16820,
    "loving": 18538,
    "Ġanswering": 7478,
    "Ġcrucifix": 26080,
    "Ġsequences": 1750,
    "Ġfearfully": 23513,
    "Ġaunts": 21203,
    "Ġmazes": 25941,
    "Ġindepend": 3673,
    "Ġass": 1503,
    "Ġcoars": 14277,
    "Ġ59": 24323,
    "magn": 10613,
    "Ġhousemaid": 14467,
    "Ġ156": 20173,
    "Ġbert": 4583,
    "Ġmuse": 13862,
    "movable": 14327,
    "sed": 4176,
    "Ġ114": 24438,
    "Ġrecognise": 12060,
    "Ġtobacco": 8367,
    "Ġtriumph": 5143,
    "Ġcask": 5527,
    "Ġdevelopment": 7063,
    "express": 4896,
    "Ġbulky": 13232,
    "Ġma": 3252,
    "Ġaction": 5797,
    "tish": 17679,
    "Ġoutward": 7904,
    "Ġsincere": 11138,
    "Ġdepicted": 14287,
    "Ġtrustworthy": 24108,
    "iters": 21332,
    "handsome": 13179,
    "plenty": 14094,
    "Ġmonogram": 26576,
    "drop": 15340,
    "unhappy": 10240,
    "Ġ68": 24370,
    "Ġseizure": 21961,
    "Ġgramm": 8171,
    "asted": 4650,
    "writhed": 26081,
    "Ġapparelled": 20440,
    "Ġclubb": 22365,
    "_)": 9106,
    "Ġservants": 6612,
    "Ġ107": 24415,
    "henomen": 10497,
    "Ġunhappily": 18263,
    "glancing": 11216,
    "terror": 18131,
    "onday": 6065,
    "Ġrays": 10332,
    "onent": 21251,
    "Ġaddition": 1143,
    "Ġadversarial": 5607,
    "fect": 2300,
    "sufferable": 12181,
    "Ġsatur": 1935,
    "Ġthigh": 10189,
    "Ġsus": 18278,
    "seemingly": 25363,
    "field": 3070,
    "Ġwillingly": 8888,
    "Ġcircumvent": 25067,
    "Ġfire": 2332,
    "ational": 5716,
    "omical": 9683,
    "ective": 18177,
    "Ġfeast": 10280,
    "resol": 17762,
    "Ġstim": 18066,
    "Ġlory": 12657,
    "Ġtumultuous": 10618,
    "Ġinches": 5846,
    "credit": 12453,
    "imet": 21709,
    "Ġgeorge": 3753,
    "Ġeasiness": 23538,
    "Ġcondensed": 24056,
    "Ġtattered": 21174,
    "Ġdeftly": 26495,
    "Ġnobly": 22245,
    "endeavoured": 12285,
    "Ġjournal": 15222,
    "ibid": 18848,
    "Ġwharves": 13508,
    "physiogn": 26266,
    "Ġindolence": 16235,
    "Ġjud": 3360,
    "build": 12192,
    "Ġseasons": 9435,
    "building": 17312,
    "Ġagitated": 7649,
    "renched": 7907,
    "Ġadroit": 26001,
    "Ġconspicuous": 13606,
    "adays": 14015,
    "anation": 5804,
    "Ġclaw": 22364,
    "Ġindu": 5295,
    "inf": 6234,
    "atically": 2573,
    "astonishment": 10033,
    "Ġkirwin": 8499,
    "numbers": 17618,
    "pipe": 8700,
    "Ġberth": 8683,
    "icions": 21566,
    "Ġinaudible": 21502,
    "travelling": 24338,
    "Ġjavan": 25000,
    "Ġbored": 16110,
    "worship": 19390,
    "war": 6803,
    "Ġnine": 5369,
    "Ġsigmoid": 2460,
    "Ġdews": 21842,
    "Ġriding": 14097,
    "relieved": 13280,
    "column": 19331,
    "Ġyer": 15738,
    "rodu": 1821,
    "Ġelect": 10844,
    "cooee": 12422,
    "Ġindignation": 8347,
    "Ġresembled": 18036,
    "Ġsum": 2697,
    "Ġsticking": 13430,
    "Ġtrunk": 7206,
    "behold": 12883,
    "please": 8177,
    "Ġsemicircle": 26069,
    "Ġbomb": 17869,
    "Ġrail": 7226,
    "irable": 5776,
    "mell": 20966,
    "Ġregiment": 6432,
    "Ġcrisp": 12007,
    "Ġlangsdorff": 15279,
    "supers": 22660,
    "Ġjury": 5378,
    "pict": 8386,
    "ognit": 19243,
    "Ġoozy": 21330,
    "Ġexposed": 8525,
    "Ġshallow": 14397,
    "Ġrepresent": 1211,
    "Ġdoctors": 12156,
    "islands": 21379,
    "Ġopal": 23627,
    "Ġshiny": 14109,
    "standing": 5558,
    "Ġvaulted": 25171,
    "batim": 25019,
    "Ġchin": 4892,
    "ager": 6548,
    "ular": 715,
    "Ġinqu": 2963,
    "ellect": 7382,
    "Ġinclude": 1877,
    "Ġremark": 2148,
    "icherry": 15139,
    "shape": 10985,
    "mate": 5359,
    "Ġsecond": 1884,
    "ushed": 2969,
    "Ġhelplessly": 20081,
    "inople": 13831,
    "boy": 4739,
    "Ġcombined": 8550,
    "Ġ13": 6720,
    "Ġunsh": 14118,
    "whalers": 17266,
    "Ġyielded": 14874,
    "Ġfervour": 19729,
    "impressed": 12696,
    "Ġsandwiched": 26612,
    "Ġlimits": 3455,
    "impulse": 20647,
    "Ġscorching": 20071,
    "oro": 21398,
    "Ġinfirm": 19054,
    "varieties": 23189,
    "ius": 5789,
    "Ġpretence": 13210,
    "Ġluxuriant": 20398,
    "Ġtiara": 26417,
    "Ġlime": 13950,
    "Ġdash": 8122,
    "horizon": 23617,
    "stars": 18022,
    "Ġothers": 2581,
    "Ġslighted": 16569,
    "Ġintensely": 17019,
    "ļ": 253,
    "Ġsays": 3565,
    "ensity": 11817,
    "thin": 14100,
    "side": 2301,
    "shirt": 22462,
    "Ġensue": 18191,
    "Ġdood": 22246,
    "Ġfav": 1754,
    "Ġvehemence": 26568,
    "afer": 17484,
    "pled": 7892,
    "Ġviewing": 19266,
    "rig": 7557,
    "Ġstript": 23696,
    "Ġunhappiness": 14121,
    "Ġchronic": 9932,
    "Ġgravity": 9252,
    "Ġimmortal": 8018,
    "Ġbrightest": 13229,
    "Ġworkflow": 2202,
    "remarkable": 13500,
    "Ġcustomary": 8673,
    "Ġforced": 4354,
    "Ġdeclined": 9924,
    "Ġclean": 5652,
    "rot": 21535,
    "Ġlif": 10198,
    "Ġprodu": 1205,
    "assuming": 22314,
    "Ġconverts": 2802,
    "Ġexp": 778,
    "Ġformerly": 7494,
    "country": 6105,
    "Ġbackwoods": 22665,
    "draught": 12095,
    "Ġtruck": 19514,
    "Ġstake": 14005,
    "ser": 1424,
    "considerably": 13448,
    "forbid": 14354,
    "Ġjew": 9470,
    "agony": 14071,
    "Ġcouple": 5423,
    "Ġscrawled": 24581,
    "Ġsurvive": 9070,
    "holloa": 19467,
    "ilations": 21725,
    "Ġfootfall": 14662,
    "Ġtwelve": 4963,
    "Ġslice": 23161,
    "Ġloafer": 18300,
    "access": 11182,
    "Ġdefiance": 11070,
    "ssian": 3402,
    "--âĢľ": 12977,
    "Ġseating": 18200,
    "Ġdearer": 14051,
    "Ġhuman": 1319,
    "Ġplants": 22603,
    "Ġconsumm": 15158,
    "Ġbec": 1348,
    "Ġmistifying": 23722,
    "sensations": 20054,
    "performances": 26007,
    "Ġrattling": 11397,
    "Ġexagger": 12723,
    "Ġanticipation": 17058,
    "sadly": 25527,
    "recovered": 19790,
    "kill": 13746,
    "Ġpretending": 19317,
    "shiver": 16030,
    "Ġbattered": 17864,
    "partly": 14603,
    "idol": 21770,
    "Ġunprofitable": 18268,
    "Ġhaught": 10255,
    "orious": 6009,
    "steelkilt": 10050,
    "Ġuncle": 3191,
    "cun": 20797,
    "cig": 17506,
    "visits": 24226,
    "rians": 21929,
    "sto": 3197,
    "Ġrest": 1783,
    "Ġapologize": 15132,
    "Ġintroduction": 8973,
    "Ġacid": 22685,
    "Ġknowledge": 1446,
    "Ġmutable": 23958,
    "Ġamusement": 8056,
    "Ġdeclining": 23967,
    "Ġdirect": 1470,
    "Ġtyrant": 24766,
    "Ġmol": 12566,
    "Ġinhabit": 5782,
    "Ġjets": 10290,
    "Ġhawk": 15177,
    "Ġcards": 7582,
    "ckery": 22094,
    "Ġevery": 927,
    "Ġlizzy": 3550,
    "Ġworking": 5574,
    "Ġnooks": 26012,
    "Ġhereafter": 9334,
    "Ġhorror": 3776,
    "zen": 5140,
    "Ġvesuvius": 26503,
    "hung": 8381,
    "Ġcaul": 10789,
    "Ġwore": 6377,
    "Ġacquirement": 19257,
    "entreaties": 26187,
    "service": 15039,
    "fowl": 17551,
    "Ġadhes": 22107,
    "riage": 2125,
    "Ġfreshets": 25705,
    "Ġmutineer": 19421,
    "Ġlighten": 23262,
    "torm": 11533,
    "Ġmarriage": 3185,
    "Ġexpert": 18872,
    "Ġ110": 24435,
    "Ġplot": 14283,
    "Ġunfl": 22022,
    "caps": 20809,
    "Ġsyllables": 25299,
    "Ġencourages": 2062,
    "Ġelev": 5536,
    "Ġshriek": 6640,
    "Ġepidemic": 20698,
    "plutarch": 21967,
    "itect": 999,
    "twas": 15440,
    "Ġoffering": 3004,
    "Ġtop": 2468,
    "rist": 10125,
    "Ġgordon": 26469,
    "egypt": 15353,
    "Ġdreamy": 14705,
    "Ġdistrustful": 25057,
    "Ġendurance": 23139,
    "Ġswarming": 16276,
    "Ġevenly": 4129,
    "Ġunconditional": 15848,
    "..": 5783,
    "Ġrecesses": 17263,
    "Ġsouls": 6310,
    "address": 14883,
    "reinforcement": 7826,
    "Ġswallowed": 7944,
    "Ġinterlacing": 22581,
    "Ġpersonality": 16479,
    "Ġcaravan": 26292,
    "Ġacross": 1330,
    "Ġsignific": 3830,
    "Ġleaning": 5228,
    "smith": 5669,
    "Ġcomprising": 16075,
    "Ġperceived": 4715,
    "us": 531,
    "owners": 16091,
    "plings": 11701,
    "Ġinquir": 4243,
    "Ġsprawling": 22143,
    "Ġplanks": 5563,
    "hau": 17564,
    "Ġinnoc": 3798,
    "partiality": 13163,
    "Ġunfit": 14788,
    "Ġcle": 1510,
    "Ġkramm": 26235,
    "separation": 25227,
    "Ġseethings": 26505,
    "Ġrecept": 1523,
    "Ġstrings": 11833,
    "begged": 18521,
    "Ġconquest": 15752,
    "Ġcuriosity": 2278,
    "Ġinterruption": 9476,
    "Ġsash": 17756,
    "Ġexplanatory": 22206,
    "oam": 8755,
    "ronted": 14879,
    "Ġloved": 4600,
    "Ġagreement": 18543,
    "Ġdetached": 10283,
    "Ġisol": 8838,
    "Ġextreme": 2513,
    "determine": 19947,
    "Ġcher": 6131,
    "illes": 12699,
    "Ġexhibiting": 19841,
    "which": 1709,
    "Ġarrant": 23299,
    "handedness": 24921,
    "particulars": 11317,
    "veh": 12684,
    "Ġshank": 22001,
    "articulate": 17401,
    "Ã¦": 4339,
    "generous": 16570,
    "Ġlxi": 21564,
    "Ġweights": 896,
    "Ġbreakfast": 3976,
    "Ġadvert": 10574,
    "repeated": 12343,
    "Ġwriter": 11949,
    "ron": 5216,
    "Ġmast": 2899,
    "kers": 7134,
    "descend": 23089,
    "Ġreceipt": 20358,
    "ides": 2164,
    "Ġbruited": 25774,
    "oted": 4598,
    "Ġsevere": 6033,
    "Ġreveries": 11349,
    "Ġinclusive": 24166,
    "Ġtrans": 632,
    "Ġcoop": 14276,
    "Ġhooded": 12410,
    "Ġboscombe": 8326,
    "itous": 13869,
    "Ġfr": 1696,
    "Ġrelieved": 7667,
    "Ġubiquitous": 26197,
    "ib": 1234,
    "Ġinterrupt": 4361,
    "adoes": 11663,
    "================": 3727,
    "Ġimpute": 18332,
    "Ġsitt": 21220,
    "Ġtrod": 15029,
    "Ġaxe": 15064,
    "investigations": 25534,
    "sm": 3438,
    "Ġprometheus": 15296,
    "Ġequivalent": 4803,
    "header": 11937,
    "ulls": 8842,
    "tahit": 17694,
    "ounded": 9751,
    "Ġverd": 6919,
    "conjecturing": 20137,
    "Ġjig": 15955,
    "solitude": 23298,
    "Ġnorth": 4321,
    "discovered": 8325,
    "station": 10846,
    "ivered": 7007,
    "lested": 14885,
    "Ġenlar": 15804,
    "Ġremotest": 10055,
    "Ġstaring": 8829,
    "Ġfiend": 4413,
    "cous": 8725,
    "Ġlivid": 14992,
    "Ġwhich": 503,
    "Ġenl": 18190,
    "Ġderision": 16313,
    "Ġgreedily": 18965,
    "Ġbro": 1430,
    "Ġintegrity": 12317,
    "Ġrome": 12160,
    "Ġharshly": 25250,
    "Ġeas": 2351,
    "Ġlightness": 23263,
    "Ġtask": 1312,
    "Ġevangelist": 20341,
    "Ġpassing": 4317,
    "Ġtyros": 26102,
    "Ġsou": 1890,
    "Ġidentify": 12018,
    "Ġmonomania": 17086,
    "Ġsteadfast": 8682,
    "iarity": 8747,
    "organ": 15578,
    "oqu": 7556,
    "urned": 9310,
    "Ġworth": 4418,
    "Ġsuffering": 8949,
    "Ġdevice": 1933,
    "Ġsuspects": 16892,
    "religion": 20578,
    "90": 12436,
    "fire": 6359,
    "urday": 13997,
    "far": 5787,
    "Ġbrook": 13052,
    "Ġmoulton": 17438,
    "atter": 638,
    "Ġspirits": 3702,
    "Ġfetched": 24568,
    "Ġassaulted": 25321,
    "Ġclin": 14207,
    "Ġdelivery": 18975,
    "Ġbearded": 15731,
    "Ġphilosopher": 12188,
    "Ġrowing": 10303,
    "naturalist": 23541,
    "Ġgreatly": 5851,
    "outh": 2685,
    "Ġintegral": 25011,
    "Ġdivin": 13277,
    "Ġcoral": 11926,
    "Ġdy": 2535,
    "Ġinspired": 2516,
    "masters": 16836,
    "stave": 21652,
    "Ġinfirmity": 26301,
    "iloqu": 11651,
    "whiteness": 18371,
    "cases": 12452,
    "Ġintending": 11708,
    "Ġmidst": 7986,
    "garious": 17560,
    "Ġsaratoga": 26425,
    "Ġoccasions": 7988,
    "mystic": 25317,
    "Ġinvite": 14564,
    "Ġnation": 12652,
    "Ġancestry": 25642,
    "theless": 4261,
    "volutions": 16326,
    "Ġintricate": 15141,
    "Ġhighest": 3532,
    "hear": 10149,
    "Ġbracing": 16583,
    "Ġconfidential": 9092,
    "erably": 7574,
    "ittered": 18440,
    "friend": 3864,
    "Ġtunnel": 14932,
    "fixed": 7549,
    "Ġincline": 18571,
    ").": 1271,
    "Ġsales": 12812,
    "Ġnile": 21524,
    "endering": 21287,
    "sake": 13785,
    "Ġclaimed": 14208,
    "Ġscraped": 16905,
    "terday": 4706,
    "Ġhelpless": 8302,
    "gro": 10097,
    "Ġconvergence": 972,
    "ilent": 21723,
    "governed": 25406,
    "Ġrecumbent": 22754,
    "Ġevil": 3809,
    "Ġappal": 18362,
    "stubb": 6019,
    ",âĢĿ": 579,
    "Ġseated": 4541,
    "Ġaquiline": 26160,
    "programming": 10066,
    "Ġdome": 15593,
    "Ġinglorious": 24424,
    "Ġclear": 1952,
    "Ġsteer": 10389,
    "Ġgratifying": 13309,
    "Ġfanc": 6745,
    "scor": 13024,
    "Ġgets": 10841,
    "Ġmajestic": 8643,
    "Ġmildness": 9947,
    "strugg": 21665,
    "ease": 12462,
    "kye": 20940,
    "Ġtendons": 19811,
    "Ġadvised": 16217,
    "ĠĊ": 12528,
    "ire": 493,
    "Ġtremor": 24767,
    "Ġtransition": 14236,
    "Ġinnocent": 4922,
    "contin": 16544,
    "Ġdemig": 20359,
    "Ġalterations": 19873,
    "Ġvulgarity": 25364,
    "Ġstepping": 9358,
    "Ġauthorities": 11266,
    "purposes": 25024,
    "Ġdebt": 12172,
    "screw": 9351,
    "ogy": 22717,
    "Ġphotograph": 6304,
    "ulated": 6031,
    "Ġindulge": 10585,
    "tol": 17674,
    "taking": 5689,
    "Ġperceiving": 8879,
    "amid": 12729,
    "Ġhonors": 23603,
    "Ġblind": 3720,
    "flame": 16640,
    "holland": 24044,
    "ß": 160,
    "compasses": 19439,
    "interred": 23739,
    "Ġdegrees": 7295,
    "bber": 4569,
    "within": 6732,
    "Ġpointing": 5661,
    "Ġselfish": 7273,
    "pulling": 25149,
    "Ġcryst": 9920,
    "dec": 3110,
    "Ġoutright": 18414,
    "thumb": 18219,
    "iled": 1766,
    "Ġentries": 22740,
    "halfway": 24313,
    "Ġhardware": 4905,
    "ound": 585,
    "Ġpersu": 3567,
    "Ġallusions": 10908,
    "Ġcalves": 13039,
    "delirious": 19508,
    "nearly": 8684,
    "Ġtrappers": 23085,
    "Ġdespondency": 16579,
    "Ġcontinued": 2922,
    "Ġaust": 4872,
    "Ġpinioned": 21486,
    "Ġplatform": 17134,
    "Ġy": 341,
    "deserted": 19344,
    "utmost": 21591,
    "Ġcontemptible": 16955,
    "Ġmemorand": 23461,
    "Ġbird": 3760,
    "Ġdeposit": 17271,
    "Ġrake": 18641,
    "Ġoccasion": 3246,
    "poises": 11893,
    "Ġprofundities": 20456,
    "acquired": 24298,
    "Ġheh": 21683,
    "Ġdried": 7368,
    "Ġsomewhere": 5384,
    "Ġcontented": 9759,
    "Ġplains": 14624,
    "Ġpronounced": 8351,
    "treated": 21097,
    "mult": 8751,
    "Ġunravel": 26216,
    "Ġern": 8397,
    "Ġverify": 12092,
    "knives": 14915,
    "Ġfixedly": 19250,
    "cess": 540,
    "Ġprecipice": 19944,
    "clay": 18933,
    "^": 66,
    "Ġsangu": 15507,
    "Ġsunda": 13546,
    "Ġunhe": 22012,
    "Ġterrific": 6756,
    "Ġenjoy": 3764,
    "Ġstrategies": 1841,
    "abond": 15745,
    "Ġestimate": 19376,
    "!âĢĿâĢĶ": 8535,
    "Ġcounterpart": 24720,
    "library": 13003,
    "Ġsinew": 25432,
    "Ġwast": 21864,
    "vice": 15452,
    "Ġparent": 14646,
    "bo": 1690,
    "port": 10721,
    "Ġir": 1994,
    "ologically": 22890,
    "Ġinfl": 6895,
    "awe": 20767,
    "Ġeconomically": 25289,
    "hill": 15366,
    "Ġpatched": 16385,
    "aking": 975,
    "Ġextinct": 14329,
    "Ġdashes": 21437,
    "Ġpost": 4274,
    "Ġext": 881,
    "Ġframework": 1903,
    "Ġmod": 492,
    "azz": 8262,
    "Ġbundles": 26176,
    "desolate": 25717,
    "Ġinsert": 19907,
    "Ġphysiognomically": 25613,
    "Ġjollity": 25567,
    "Ġethiopian": 26615,
    "raised": 15683,
    "Ġillinois": 19138,
    "Ġstre": 2109,
    "ividual": 5463,
    "Ġunful": 22013,
    "Ġwipe": 25765,
    "Ġkeenly": 9488,
    "Ġchamp": 18381,
    "Ġpiteous": 17920,
    "Ġradiance": 13374,
    "Ġserved": 8246,
    "practical": 17224,
    "springs": 24912,
    "Ġcul": 17824,
    "agation": 1266,
    "Ġtravell": 5576,
    "Ġtemples": 18637,
    "Ġanecd": 20157,
    "conditional": 9082,
    "stud": 8824,
    "Ġplans": 7918,
    "eag": 20844,
    "Ġconsoling": 19461,
    "Ġton": 15467,
    "Ġimpressive": 15001,
    "Ġastonishing": 10504,
    "Ġvortex": 26210,
    "Ġheadlong": 11892,
    "Ġcurios": 18839,
    "ought": 829,
    "beware": 16044,
    "regarded": 12012,
    "resc": 21241,
    "elect": 20848,
    "alled": 5912,
    "hip": 8744,
    "bert": 4663,
    "Ġmoot": 22436,
    "ouched": 4637,
    "umbrance": 22122,
    "Ġsworn": 14439,
    "Ġgloomily": 14802,
    "Ġfinery": 23128,
    "deadly": 17101,
    "possibly": 10546,
    "Ġheadway": 18794,
    "mistakable": 20655,
    "Ġtortured": 14926,
    "Ġrolls": 8334,
    "Ġweap": 6157,
    "bern": 20777,
    "Ġreservoir": 20653,
    "Ġsnoo": 21231,
    "manned": 18764,
    "Ġavoided": 13262,
    "Ġtable": 2497,
    "hastening": 24448,
    "arial": 5532,
    "Ġhimself": 1351,
    "assist": 11772,
    "Ġdoubtfully": 23479,
    "Ġexecuted": 9475,
    "ĭ": 238,
    "ferred": 16363,
    "Ġbegging": 11082,
    "Ġbedford": 7476,
    "Ġfriendly": 9823,
    "Ġupon": 720,
    "Ġdistressing": 12223,
    "Ġdedicated": 19207,
    "Ġgreenness": 23769,
    "flow": 2067,
    ";âĢĿâĢĶ": 20762,
    "marrying": 19550,
    "Ġrepressed": 21671,
    "Ġcreat": 1429,
    "Ġmo": 629,
    "Ġobjections": 8568,
    "Ġmidships": 23635,
    "Ġskull": 6290,
    "Ġmonument": 16243,
    "Ġswiss": 18883,
    "cheeked": 19342,
    "added": 11662,
    "sych": 9892,
    "Ġpolitics": 19226,
    "Ġoriginal": 6104,
    "Ġledgers": 23941,
    "ont": 2619,
    "Ġwithstand": 10228,
    "zening": 21151,
    "Ġpeninsula": 23202,
    "pe": 1438,
    "ming": 3606,
    "itically": 21333,
    "deepest": 22837,
    "Ġfiles": 21416,
    "Ġconject": 6028,
    "Ġbecher": 18881,
    "Ġtongs": 9964,
    "cross": 3579,
    "Ġopinions": 9419,
    "Ġplaning": 22606,
    "Ġlined": 15654,
    "Ġapartments": 19617,
    "Ġenforced": 21942,
    "otle": 21801,
    "Ġobligation": 13248,
    "Ġsending": 8779,
    "anth": 13889,
    "Ġoverheard": 11775,
    "Ġdelight": 2546,
    "died": 11482,
    "Ġpeels": 22694,
    "Ġowner": 8925,
    "Ġcoloured": 11046,
    "Ġbressed": 21390,
    "Ġincomplete": 17211,
    "umbs": 14691,
    "Ġspain": 15884,
    "corners": 17371,
    "Ġminute": 4280,
    "pad": 13770,
    "unting": 21878,
    "Ġbul": 3294,
    "Ġcru": 2821,
    "Ġrestoration": 19029,
    "rus": 5931,
    "Ġporter": 15615,
    "nib": 5214,
    "Ġnecessarily": 13253,
    "Ġslippers": 19618,
    "Ġuncork": 23432,
    "murder": 10567,
    "Ġbraz": 19361,
    "Ġprophesied": 26063,
    "Ġsatire": 22902,
    "ork": 415,
    "quohog": 21862,
    "Ġsubjects": 7074,
    "orts": 2553,
    "Ġpoem": 22593,
    "disposed": 25013,
    "iferous": 17294,
    "Ġslipping": 13364,
    "Ġsuff": 1304,
    "Ġmodular": 12821,
    "kilt": 4867,
    "poling": 12224,
    "Ġdefinite": 11071,
    "Ġcultured": 25158,
    "commanders": 16991,
    "Ġprofounder": 23571,
    "sery": 17663,
    "Ġquitted": 5312,
    "spite": 16141,
    "Ġobtained": 7433,
    "cho": 2757,
    "Ġmetrics": 19057,
    "Ġvictim": 6099,
    "Ġgibe": 25960,
    "Ġmode": 8500,
    "ences": 1262,
    "strikes": 24671,
    "Ġeasier": 11167,
    "ridge": 9500,
    "ø": 185,
    "Ġgeor": 3390,
    "Ġlength": 2499,
    "Ġentrance": 7234,
    "Ġnarr": 5085,
    "tackle": 17324,
    "Ġeffaced": 18539,
    "ruck": 6848,
    "Ġdiscourage": 3114,
    "Ġadvisable": 11444,
    "conversation": 7124,
    "iag": 20918,
    "Ġcourse": 2134,
    "orph": 21402,
    "onze": 21258,
    "po": 1136,
    "orders": 12878,
    "Ġnotorious": 18224,
    "Ġu": 324,
    "ĠĠĠĠĠĠĠĠĠĠĠĠĠĠĠĠĠĠĠĠĠĠĠĠĠĠĠĠĠĠĠĠĠĠĠĠĠĠĠĠĠĠĠĠĠĠĠ": 16757,
    "Ġexhilarating": 26339,
    "Ġmaterially": 12196,
    "esting": 7412,
    "Ġeu": 6390,
    "Ġlust": 9201,
    "isp": 5528,
    "princip": 17139,
    "Ġcareer": 11120,
    "Ġturbul": 23614,
    "ping": 9618,
    "what": 643,
    "Ġhurst": 5582,
    "Ġob": 860,
    "Ġexplained": 5937,
    "Ġder": 1497,
    "Ġ81": 24457,
    "Ġpause": 5707,
    "unw": 14059,
    "Ġharvard": 24574,
    "Ġcriminal": 7538,
    "Ġstroll": 13356,
    "Ġdam": 2219,
    "Ġconvivial": 16550,
    "Ġdispleased": 18556,
    "undertaking": 23790,
    "Ġtangled": 13829,
    "Ġkra": 18349,
    "their": 2539,
    "cut": 3122,
    "Ġconducted": 10505,
    "nowledge": 10292,
    "Ġprecision": 13192,
    "burst": 10540,
    "Ġpigs": 19750,
    "Ġjerking": 12250,
    "unsupervised": 10891,
    "nets": 9136,
    "imprisonment": 23764,
    "ird": 2425,
    "Ġpips": 9851,
    "admire": 24946,
    "Ġred": 3002,
    "Ġlodges": 19503,
    "Ġaudience": 24768,
    "Ġjar": 15954,
    "clam": 13059,
    "Ġusurpation": 18359,
    "Ġbump": 9662,
    "terdam": 18132,
    "ard": 465,
    "Ġcheating": 16368,
    "Ġimpose": 22386,
    "Ġbehind": 2804,
    "Ġcritical": 7475,
    "Ġpatients": 24810,
    "Ġdecency": 18486,
    "Ġexplaining": 15964,
    "Ġlichen": 20095,
    "Ġscreaming": 13426,
    "Ġpines": 12622,
    "Ġcalms": 23046,
    "Ġprogra": 1142,
    "Ġdebated": 9044,
    "Ġthrust": 5084,
    "bast": 10080,
    "plate": 18208,
    "espe": 3500,
    "Ġvisitors": 7985,
    "opolising": 25677,
    "Ġpity": 4941,
    "Ġnumberless": 16419,
    "Ġbon": 8790,
    "Ġdisinterested": 16061,
    "Ġevidence": 5270,
    "Ġcurls": 22957,
    "ied": 940,
    "Ġn": 300,
    "Ġpreviously": 3920,
    "al": 292,
    "acles": 8521,
    "Ġdisapprobation": 16062,
    "bery": 9794,
    "Ġimperfectly": 25727,
    "Ġlegit": 16475,
    "Ġpetticoat": 15299,
    "Ġrio": 23894,
    "Ġdrifted": 14626,
    "Ġbabes": 24425,
    "prince": 23818,
    "preser": 9763,
    "Ġchristendom": 16696,
    "idelburgh": 10564,
    "Ġemperors": 15163,
    "Ġextracted": 16299,
    "oves": 15406,
    "Ġflap": 14425,
    "Ġpugnacious": 26453,
    "bub": 15320,
    "Ġadvocate": 13679,
    "Ġbizarre": 17873,
    "Ġbesides": 3516,
    "protested": 13477,
    "Ġebony": 18011,
    "Ġarticles": 7110,
    "pleased": 8857,
    "Ġcanoe": 9726,
    "Ġvill": 3879,
    "Ġdwelt": 12610,
    "ustration": 2261,
    "Ġbackstays": 22666,
    "Ġgri": 17990,
    "amy": 8470,
    "Ġspread": 5161,
    "Ġheroine": 24543,
    "ilogue": 21728,
    "Ġbuffaloes": 25218,
    "Ġmir": 9649,
    "Ġdiscre": 2414,
    "Ġwindsor": 16889,
    "Ġcleansed": 26295,
    "osity": 14188,
    "ane": 1178,
    "Ġtwo": 1044,
    "Ġincessant": 15101,
    "somewhere": 12017,
    "Ġske": 4816,
    "Ġathe": 17743,
    "rec": 6005,
    "Ġirritation": 20269,
    "Ġspectacles": 12102,
    "Ġadvent": 4358,
    "Ġpromised": 5181,
    "Ġanticipated": 13513,
    "ants": 1391,
    "Ġkrusenstern": 26379,
    "accept": 8893,
    "Ġcore": 13880,
    "relics": 24021,
    "Ġgobern": 22427,
    "visitor": 15060,
    "Ġfrock": 10492,
    "mology": 12496,
    "trembling": 17145,
    "Ġpaddington": 17096,
    "Ġaverred": 18866,
    "Ġsaucer": 20608,
    "bug": 17495,
    "rights": 23677,
    "rennial": 22345,
    "Ġrambled": 20171,
    "Ġunwilling": 7886,
    "Ġcracks": 12024,
    "multiple": 15111,
    "Ġlocking": 18299,
    "Ġ150": 22829,
    "Ġhumbled": 16200,
    "Ġunsocial": 18257,
    "Ġanomalously": 25639,
    "Ġroods": 22408,
    "Ġaglow": 22518,
    "Ġspite": 4156,
    "Ġ44": 16681,
    "ury": 3314,
    "Ġjo": 2607,
    "leag": 21369,
    "Ġaudibly": 24770,
    "barbar": 20241,
    "stiff": 12680,
    "Ġpacing": 8427,
    "Ġrainy": 24341,
    "flung": 16641,
    "Ġdismay": 11813,
    "Ġtakings": 20575,
    "blog": 19842,
    "Ġperdition": 15996,
    "Ġspo": 6846,
    "Ġquestioning": 10466,
    "Ġforfeit": 21779,
    "Ġpr": 1594,
    "Ġremarks": 7474,
    "Ġunconnected": 18243,
    "bye": 5951,
    "Ġalco": 21786,
    "Ġeluded": 12926,
    "Ġwriters": 13545,
    "Ġarchitect": 1003,
    "splice": 17173,
    "opes": 10314,
    "awake": 14455,
    "ha": 3982,
    "Ġhut": 15623,
    "Ġmainly": 22657,
    "Ġgnarled": 25169,
    "Ġsuspense": 9422,
    "ds": 4689,
    "Ġmountain": 3374,
    ":": 30,
    "Ġalleged": 17293,
    "Ġprayed": 16670,
    "Ġhistorically": 19381,
    "<MASK>": 4,
    "adru": 15735,
    "Ġbirds": 5875,
    "introduce": 25187,
    "ss": 397,
    "Ġoverjoy": 15970,
    "Ġexceeding": 1575,
    "roman": 22008,
    "urean": 18125,
    "Ġlakeman": 6987,
    "Ġcanada": 22170,
    "Ġchildish": 13140,
    "mag": 6508,
    "Ġappearance": 3704,
    "knell": 24555,
    "Ġbeneath": 3236,
    "Ġmealy": 18123,
    "Ġgravel": 14105,
    "Ġdestruction": 6602,
    "friendship": 24052,
    "Ġstreng": 18073,
    "Ġkitty": 3910,
    "Ġpemberley": 4589,
    "_,": 2796,
    "Ġbrush": 17866,
    "Ġsomething": 1796,
    "iners": 4937,
    "Ġwindigate": 18912,
    "Ġpeeling": 22695,
    "Ġhun": 1495,
    "Ġdaybreak": 18727,
    "Ġobscure": 9557,
    "Ġcompanions": 5867,
    "Ġwants": 5742,
    "Ġdozen": 8186,
    "Ġnobler": 14176,
    "Ġaudits": 24769,
    "acies": 14261,
    "Ġpaddle": 20062,
    "Ġconveniently": 20082,
    "Ġdeficiencies": 26572,
    "Ġfordham": 21780,
    "Ġresented": 22547,
    "Ĥ": 229,
    "walton": 20252,
    "reen": 21234,
    "Ġshipmate": 8932,
    "Ġcomput": 601,
    "Ġshort": 2228,
    "ories": 4754,
    "Ġenjoyment": 7302,
    "ivation": 3108,
    "Ġcastaways": 19431,
    "Ġidentical": 10436,
    "Ġwaves": 3919,
    "accursed": 20543,
    "Ġcollect": 7238,
    "Ġcompared": 2231,
    "Ġmidnight": 5266,
    "Ġglory": 6066,
    "oles": 21007,
    "urre": 10858,
    "ructure": 764,
    "Ġoldest": 12978,
    "Ġthanking": 18604,
    "Ġcoast": 4656,
    "Ġcottagers": 6762,
    "forever": 22523,
    "Ġsalesman": 13671,
    "ving": 594,
    "Ġhudson": 15195,
    "Ġdistension": 22508,
    "ising": 2257,
    "xes": 21143,
    "Ġparametric": 2393,
    "commission": 22804,
    "Ġbaw": 15573,
    "Ġthird": 4187,
    "Ġloitered": 26527,
    "cription": 20820,
    "Ġ1778": 25730,
    "Ġshop": 9256,
    "Ġlest": 6395,
    "therly": 18340,
    "Ġfade": 21410,
    "Ġcripp": 9656,
    "'d": 12431,
    "lone": 11502,
    "Ġdesigned": 7741,
    "Ġvintage": 26211,
    "Ġnautical": 17389,
    "Ġdazed": 15600,
    "Ġwherein": 14298,
    "Ġclassifies": 11844,
    "intellig": 5321,
    "sincerely": 24585,
    "Ġinsensibly": 20079,
    "Ġresemblance": 7973,
    "Ġmanly": 22328,
    "vessel": 11379,
    "gorith": 557,
    "Ġtime": 689,
    "refuge": 24733,
    "Ġexclaimed": 4684,
    "Ġdaughters": 4423,
    "Ġezek": 18012,
    "Ġfru": 8421,
    "Ġset": 1176,
    "Ġupd": 945,
    "accomp": 10457,
    "Ġbites": 23745,
    "even": 3839,
    "Ġde": 363,
    "Ġsecurity": 8980,
    "Ġadversary": 12178,
    "Ġtending": 17726,
    "Ġinex": 6528,
    "Ġunprecedented": 15858,
    "Ġbushy": 16406,
    "whether": 5320,
    "Ġgrew": 5182,
    "Ġcomparative": 10545,
    "minds": 24235,
    "ellig": 524,
    "Ġglades": 19375,
    "ascertain": 21546,
    "Ġoutside": 5554,
    "adr": 6995,
    "e": 73,
    "Ġpurporting": 19184,
    "falgar": 26131,
    "encies": 4081,
    "vac": 15453,
    "Ġferrule": 24500,
    "Ġsocial": 7009,
    "Ġanalogy": 25640,
    "Ġcontained": 7680,
    "hit": 20891,
    "Ġdest": 2239,
    "Ġpaltry": 16693,
    "Ġgriefs": 16773,
    "Ġcash": 9655,
    "yingly": 23064,
    "Ġcommunicates": 24547,
    "Ġdism": 9770,
    "oo": 7554,
    "Ġsenseless": 12083,
    "Ġplays": 12041,
    "stopping": 19353,
    "Ġenlarge": 21939,
    "Ġchamber": 6215,
    "Ġcompute": 2904,
    "Ġpersonified": 19180,
    "Ġpreceding": 7529,
    "crooked": 25747,
    "heaven": 8053,
    "Ġdemoniac": 15068,
    "Ġ96": 24593,
    "Ġencountering": 11271,
    "inform": 10146,
    "inconsiderable": 21194,
    "Ġforeb": 12008,
    "Ġproximity": 3217,
    "touching": 15095,
    "marest": 20982,
    "Ġimpediments": 26242,
    "vulgar": 25919,
    "kicked": 20945,
    "Ġliberties": 19670,
    "Ġbegg": 16258,
    "Ġcopying": 17069,
    "Ġindignity": 18841,
    "Ġghostly": 24651,
    "Ġproviding": 1359,
    "Ġcaptive": 14430,
    "Ġpurchasing": 19877,
    "Ġhabitation": 14804,
    "Ġpattering": 18648,
    "knight": 20942,
    "functions": 11251,
    "fulfil": 16040,
    "uish": 5431,
    "Ġhammer": 6095,
    "Ġcharger": 19010,
    "Ġexchanged": 10880,
    "Ġstrokes": 16771,
    "Ġrefreshment": 17242,
    "Ġwil": 4581,
    "difficult": 10061,
    "94": 4804,
    "rates": 21041,
    "included": 19210,
    "Ġbones": 4584,
    "capting": 24042,
    "Ġdisreputable": 22538,
    "venge": 4659,
    "trained": 4240,
    "industrious": 26241,
    "bering": 18694,
    "detective": 24383,
    "Ġscru": 8192,
    "Ġflask": 3038,
    "Ġvolumes": 14801,
    "Ġpew": 9319,
    "Ġbenevol": 5963,
    "Ġreligious": 25124,
    "ried": 925,
    "Ġtechnically": 12371,
    "Ġparty": 3513,
    "Ġinstrument": 7120,
    "puff": 21024,
    "Ġsmallest": 6430,
    "Ġspect": 3556,
    "towing": 17691,
    "Ġjuicy": 25371,
    "Ġdomin": 10464,
    "Ġphysi": 9991,
    "18": 20753,
    "Ġpunctilious": 26355,
    "lege": 17843,
    "Ġthorough": 6247,
    "ification": 1031,
    "osoever": 17346,
    "Ġpouch": 21472,
    "halloa": 17091,
    "Ġslid": 7952,
    "fashion": 8081,
    "Ġgardeners": 12125,
    "Ġreplen": 11116,
    "garity": 17556,
    "Ġclosed": 4606,
    "Ġthrob": 21521,
    "proceeded": 25191,
    "Ġpray": 3900,
    "Ġpovelson": 26554,
    "Ġsquare": 2394,
    "uding": 16154,
    "Ġdesc": 771,
    "Ġrequisite": 18636,
    "Ġdraught": 9847,
    "Ġprofits": 16491,
    "Ġcapture": 3387,
    "Ġimprecate": 20521,
    "yp": 1046,
    "frank": 7758,
    "oriental": 23723,
    "continu": 5501,
    "Ġlab": 1874,
    "Ġjacket": 6489,
    "Ġripe": 13239,
    "99": 1900,
    "Ġwet": 6518,
    "Ġspans": 18305,
    "Ġcounterpane": 11345,
    "Ġstaple": 26200,
    "Ġgreen": 3051,
    "Ġsolely": 9913,
    "ě": 220,
    "Ġstamp": 7864,
    "Ġrefinement": 18710,
    "nable": 13764,
    "Ġedge": 5189,
    "Ġprovince": 24192,
    "Ġcrowder": 19460,
    "acon": 10684,
    "Ġreplenished": 13639,
    "women": 15459,
    "Ġraptures": 13499,
    "Ġcosy": 13134,
    "Ġwebster": 20164,
    "Ġsabbee": 17258,
    "Ġvisible": 4778,
    "lest": 5290,
    "Ġheightens": 24156,
    "official": 24915,
    "jo": 3755,
    "Ġplus": 3884,
    "persuasion": 20047,
    "Ġuncovered": 23434,
    "Ġpine": 8801,
    "Ġpassengers": 13678,
    "compassion": 12351,
    "extent": 22757,
    "Ġleads": 12101,
    "terr": 8154,
    "Ġjavel": 17085,
    "Ġattend": 5035,
    "Ġgemini": 26471,
    "Ġembarkation": 25125,
    "Ġlearning": 387,
    "Ġdisappoint": 24208,
    "critters": 14777,
    "bond": 17492,
    "coffin": 10665,
    "ez": 5683,
    "snowy": 20286,
    "Ġsway": 7572,
    "Ġgroping": 13668,
    "lue": 8511,
    "pherd": 13647,
    "Ġdiscipl": 22786,
    "button": 10968,
    "estab": 14172,
    "Ġdrawling": 19441,
    "rodden": 21538,
    "Ġtransl": 2828,
    "Ġexhibited": 9547,
    "Ġviolet": 19092,
    "Ġdampening": 2894,
    "Ġar": 479,
    "Ġmiguel": 25767,
    "Ġirrad": 19095,
    "Ġlake": 5227,
    "Ġfootfalls": 25867,
    "condemned": 26061,
    "Ġrec": 910,
    "Ġaugmented": 15109,
    "Ġremoved": 5275,
    "make": 5793,
    "Ġascribe": 16784,
    "Ġgaiters": 20464,
    "Ġrounding": 16278,
    "sombre": 23857,
    "Ġsecretly": 13275,
    "iz": 365,
    "pass": 4293,
    "Ġhyena": 24519,
    "ractions": 11636,
    "Ġsuperlatively": 26076,
    "Ġdented": 17893,
    "Ġagonies": 14254,
    "Ġbelongs": 8015,
    "Ġoverbearing": 12846,
    "Ġwill": 678,
    "Ġhurried": 4032,
    "Ġolive": 12570,
    "Ġxli": 14543,
    "barbs": 20240,
    "instruct": 19545,
    "erxes": 21278,
    "Ġsubstit": 19543,
    "Ġcooped": 22585,
    "3": 23,
    "omically": 13978,
    "Ġhandle": 3135,
    "Ġran": 3346,
    "Ġamerica": 6764,
    "Ġoutrageous": 20613,
    "zy": 2668,
    "act": 784,
    "swimming": 24261,
    "Ġassisting": 13261,
    "Ġmainmast": 9782,
    "Ġtap": 12531,
    "Ġsurvived": 14936,
    "Ġvibrated": 25048,
    "Ġawa": 7714,
    "rail": 10207,
    "Ġmoran": 9346,
    "Ġpretty": 3863,
    "wearing": 22690,
    "Ġregularly": 7659,
    "assured": 10954,
    "battering": 20788,
    "Ġbelfry": 26440,
    "Ġrepay": 19083,
    "regulated": 23469,
    "Ġdetestable": 15102,
    "stricken": 9887,
    "Ġdishes": 16054,
    "Ġhover": 15624,
    "Ġst": 332,
    "```": 25894,
    "teen": 6371,
    "Ġcharts": 12831,
    "brated": 12031,
    "ingale": 21302,
    "Ġscroll": 14194,
    "door": 6195,
    "veral": 2352,
    "contracting": 19296,
    "7": 27,
    "Ġethiop": 26156,
    "Ġretarded": 23076,
    "Ġaffectionate": 5585,
    "witness": 10038,
    "regiment": 16453,
    "Ġcamp": 9168,
    "Ġsinful": 18951,
    "pigs": 17143,
    "blazing": 24133,
    "Ġquarrels": 16568,
    "Ġsnuffing": 25015,
    "Ġmasoned": 20254,
    "clearer": 24073,
    "Ġve": 1105,
    "waters": 11335,
    "Ġpredecessor": 26254,
    "<SOS>": 1,
    "Ġencountered": 8322,
    "Ġped": 7845,
    "Ġpencil": 11947,
    "ral": 4628,
    "solic": 16378,
    "Ġresembling": 4098,
    "Ġjames": 6419,
    "Ġstatue": 23150,
    "once": 5905,
    "Ġrehears": 15704,
    "Ġburnished": 24004,
    "Ġbowl": 11206,
    "Ġskirts": 14356,
    "Ġdevout": 14334,
    "Ġleaps": 14010,
    "Ġpassion": 4557,
    "Ġimmortality": 26327,
    "Ġrigger": 19533,
    "Ġcubs": 20090,
    "Ġexhilar": 19686,
    "Ġbrig": 11049,
    "Ġceleb": 20228,
    "Ġbehavior": 8002,
    "Ġpatchwork": 24143,
    "especially": 3576,
    "clusion": 16309,
    "Ġmoody": 8201,
    "Ġx": 2074,
    "Ġcomple": 2839,
    "irresistible": 18176,
    "Ġminimizes": 2047,
    "Ġjelly": 22304,
    "fanning": 20868,
    "Ġdemonstrate": 24997,
    "feet": 6570,
    "Ġsal": 3940,
    "ĠĠĠĠĠĠĠĠĠĠĠĠĠĠĠĠĠĠĠĠĠĠĠĠĠĠĠĠ": 9978,
    "Ġembatt": 18833,
    "za": 13812,
    "Ġsigh": 10339,
    "nelson": 25621,
    "comfortableness": 24525,
    "Ġpropensity": 18998,
    "snap": 24849,
    "Ġauthentic": 20536,
    "instead": 14815,
    "Ġartfully": 22599,
    "bennet": 5353,
    "Ġranges": 2881,
    "eager": 12464,
    "Ġclatter": 22361,
    "gir": 8083,
    "abiding": 21797,
    "derment": 22165,
    "matter": 5136,
    "Ġevident": 6614,
    "Ġexulting": 20260,
    "quake": 11684,
    "Ġcompelled": 14271,
    "Ġtiresome": 26157,
    "influences": 25251,
    "ers": 405,
    "Ġsculpt": 15951,
    "Ġparadise": 11196,
    "cry": 12450,
    "chat": 21689,
    "Ġemblematical": 25789,
    "ogr": 18678,
    "Ġvenom": 24241,
    "misery": 13347,
    "Ġberm": 21386,
    "Ġdenomin": 12072,
    "Ġflail": 23014,
    "Ġxlvi": 25591,
    "Ġmisanthropic": 26562,
    "ready": 2359,
    "Ġinvest": 4978,
    "ially": 9251,
    "Ġdecently": 22446,
    "Ġdarker": 13123,
    "gged": 3781,
    "irect": 5553,
    "Ġadduced": 26526,
    "Ġdrawers": 12110,
    "+": 15,
    "iriously": 18174,
    "conditionally": 24835,
    "Ġmerit": 9431,
    "Ġalb": 14018,
    "Ġaustral": 12177,
    "Ġchapel": 9526,
    "Ġdazz": 11597,
    "Ġtheme": 16023,
    "ality": 2510,
    "eps": 12795,
    "ĠĠĠĠĠĠĠĠĠĠĠĠĠĠĠĠĠĠĠĠĠĠĠ": 18834,
    "Ġ1869": 19387,
    "Ġcomo": 21851,
    "exp": 2733,
    "Ġtokens": 1773,
    "Ĉ": 201,
    "Ġtraps": 23084,
    "Ġlabor": 10420,
    "geneva": 13732,
    "doms": 20837,
    "Ġexotic": 21835,
    "Ġsympathise": 16796,
    "Ġhelps": 9371,
    "inioned": 19289,
    "ople": 2319,
    "wishes": 13809,
    "unfortunate": 15781,
    "Ġapiece": 16815,
    "jam": 15375,
    "evening": 7091,
    "Ġowes": 20088,
    "spiracle": 22736,
    "Ġnoisier": 4625,
    "Ġschol": 17380,
    "Ġwrists": 11115,
    "chop": 21691,
    "son": 2328,
    "Ġinf": 1849,
    "fiery": 13584,
    "Ġrefill": 18708,
    "before": 3112,
    "Ġmargaret": 10379,
    "Ġmissing": 6177,
    "thest": 11657,
    "Ġ116": 24440,
    "acting": 22633,
    "Ġmischie": 22767,
    "Ġcombination": 22852,
    "Ġbelted": 22951,
    "Ġ90": 24589,
    "using": 5468,
    "msprop": 2622,
    "wrinkles": 16557,
    "?âĢĻâĢĿ": 23644,
    "Ġmemb": 14032,
    "Ġcetology": 10012,
    "stalk": 21653,
    "Ġxvi": 19106,
    "waited": 24586,
    "Ġcolonnades": 26277,
    "Ġele": 1965,
    "Ġexperiences": 13035,
    "gloom": 17142,
    "Ġrucastles": 18721,
    "Ġsurpassed": 25268,
    "results": 20390,
    "Ġwintry": 17437,
    "Ġinclosed": 19541,
    "Ġlustrous": 20159,
    "arer": 3969,
    "Ġnoisy": 13322,
    "Ġfoss": 9853,
    "Ġmoustache": 20487,
    "nurtured": 25525,
    "histicated": 20903,
    "Ġlirra": 21563,
    "Ġdepends": 1089,
    "Ġasser": 6259,
    "Ġrefres": 14347,
    "pieces": 8758,
    "Ġgrap": 11711,
    "forgive": 18728,
    "Ġpreyed": 18367,
    "Ġslyness": 25267,
    "Ġcells": 13887,
    "Ġunrest": 11718,
    "Ġbab": 5291,
    "Ġresided": 11815,
    "Ġmodest": 15918,
    "sculpt": 16248,
    "thereby": 14450,
    "Ġunwarrant": 19936,
    "(-": 2977,
    "Ġdiscours": 18718,
    "Ġrattle": 10901,
    "Ġdataset": 12826,
    "atiate": 12553,
    "Ġunduly": 25995,
    "Ġhove": 17925,
    "Ġwondrous": 4736,
    "unpardonable": 21894,
    "Ġsurpass": 13586,
    "Ġillustrious": 17110,
    "Ġpossessions": 23828,
    "pleasure": 5979,
    "Ġstrip": 9425,
    "Ġlan": 5821,
    "Ġornaments": 17455,
    "Ġgodfre": 14530,
    "orient": 2877,
    "Ġmumbling": 11577,
    "Ġdiffused": 12073,
    "Ġsoftened": 11105,
    "y": 93,
    "club": 26382,
    "ely": 620,
    "Ġslouched": 13063,
    "Ġtyphoons": 20237,
    "sembled": 7264,
    "belong": 12127,
    "Ġarrow": 10933,
    "great": 3520,
    "Ġmerid": 13198,
    "aust": 15313,
    "armon": 23063,
    "eze": 20849,
    "harpooned": 24288,
    "Ġslates": 11109,
    "Ġfactory": 23280,
    "Ġmaster": 3686,
    "Ġnothing": 1358,
    "Ġextra": 4056,
    "Ġthre": 2060,
    "Ġdisaster": 12892,
    "eded": 9676,
    "Ġchagrin": 20610,
    "Ġloveliness": 13611,
    "Ġfooting": 14485,
    "bod": 12441,
    "ills": 1627,
    "Ġpleasurable": 23343,
    "skeleton": 17379,
    "hastily": 19705,
    "Ġdexterous": 15152,
    "ener": 561,
    "Ġholiday": 13002,
    "Ġanomaly": 25637,
    "dropping": 14985,
    "athies": 22705,
    "Ġtame": 17724,
    "Ġtour": 9151,
    "cules": 12395,
    "officer": 17055,
    "Ġsymp": 4503,
    "bon": 13687,
    "pur": 7806,
    "Ġundiscovered": 18253,
    "Ġwrites": 23204,
    "ipped": 5790,
    "Ġangles": 23590,
    "Ġveiled": 16204,
    "Ġpromote": 23199,
    "Ġscarce": 8625,
    "guess": 14763,
    "I": 45,
    "Ġcorrespond": 6211,
    "Ġbelieving": 8225,
    "different": 6501,
    "travellers": 24339,
    "hailed": 17567,
    "culiar": 2818,
    "solemn": 19820,
    "Ġlim": 2379,
    "waves": 10744,
    "Ġchurchyard": 16779,
    "stri": 6251,
    "Ġisa": 14027,
    "Ġstreaming": 19676,
    "Ġbeautifully": 13271,
    "inuating": 16206,
    "ads": 5718,
    "germ": 15360,
    "Ġnewton": 3537,
    "abled": 12799,
    "Ġanyhow": 14257,
    "despairing": 25077,
    "Ġ*/": 10376,
    "Ġwhy": 1760,
    "fatal": 17089,
    "Ġswan": 23055,
    "Ġloose": 4649,
    "Ġinterruptions": 24189,
    "Ġresponded": 13641,
    "founded": 16715,
    "ir": 379,
    "Ġdeficient": 18826,
    "Ġslappin": 18945,
    "Ġgaze": 6932,
    "Ġdurst": 20355,
    "unwittingly": 25802,
    "rew": 3653,
    "Ġchap": 5935,
    "Ġabsurdities": 24879,
    "Ġports": 10820,
    "Ġridges": 16733,
    "Ġstopping": 2745,
    "Ġmillion": 14990,
    "Ġcoherent": 3262,
    "Ġglancing": 5399,
    "Ġmassacre": 20550,
    "Ġmultiplied": 23692,
    "endar": 18365,
    "instances": 13323,
    "Ġtar": 2561,
    "Ġgrowth": 14630,
    "lizzy": 6654,
    "Ġdelightfully": 13161,
    "Ġfuneral": 10285,
    "Ġemotions": 8972,
    "Ġopenly": 8576,
    "Ġignoble": 19402,
    "Ġdecisions": 6704,
    "Ġminiatures": 20324,
    "accompan": 11454,
    "inisc": 15491,
    "ames": 2952,
    "admiration": 11389,
    "betrayed": 24641,
    "Ġoutlines": 15961,
    "Ġadvantages": 9814,
    "Ġtown": 2453,
    "Ġsaleve": 17394,
    "smiles": 14694,
    "Ġboa": 22637,
    "rer": 3627,
    "Ġdirt": 15598,
    "Ġclasping": 20212,
    "fill": 15354,
    "Ġwound": 4528,
    "Ġsignificantly": 4519,
    "Ġoccasionally": 5590,
    "Ć": 199,
    "rabb": 15684,
    "Ġcurrent": 13008,
    "lock": 1469,
    "Ġdiffered": 22714,
    "Ġpapered": 20134,
    "stairs": 5155,
    "Ġcivilities": 14850,
    "searching": 25106,
    "Ġpresents": 8245,
    "Ġarranged": 9880,
    "Ġgrop": 12669,
    "Ġmatch": 4529,
    "overcome": 19051,
    "Ġguitar": 16272,
    "Ġcoolness": 16888,
    "readers": 23851,
    "Ġnursery": 19753,
    "thick": 10263,
    "Ġposterity": 17405,
    "Ġkindled": 19031,
    "lorn": 12492,
    "ering": 1264,
    "Ġwrapping": 19778,
    "Ġdying": 2139,
    "nights": 16450,
    "Ġfergus": 16869,
    "ignant": 11131,
    "Ġventilator": 8717,
    "ezes": 9994,
    "lydia": 6826,
    "oner": 6126,
    "Ġcreations": 18683,
    "Ġwhatsoever": 18461,
    "december": 25559,
    "Ġwretched": 4082,
    "discernible": 20553,
    "pagan": 17288,
    "udding": 11869,
    "Ġscorch": 20070,
    "Ġirregularity": 25325,
    "ture": 7559,
    "destroy": 19513,
    "Ġbarber": 23792,
    "Ġharem": 9712,
    "Ġparasol": 22125,
    "Ġaccording": 5508,
    "Ġsagittarius": 24731,
    "backed": 9869,
    "Ġinjured": 9043,
    "accusations": 23601,
    "assed": 6421,
    "ras": 21039,
    "soc": 5175,
    "attendants": 25496,
    "pronounced": 12350,
    "Ġforlorn": 14017,
    "teenth": 11878,
    "Ġwishing": 7830,
    "Ġdist": 680,
    "Ġinsects": 25647,
    "Ġsadly": 7303,
    "Ġpsychology": 11450,
    "Ġpier": 7164,
    "disgraceful": 26077,
    "Ġbatt": 13901,
    "umed": 6556,
    "proof": 16427,
    "Ġcontaining": 2234,
    "!âĢĶâĢĻ": 23567,
    "script": 11079,
    "Ġtenderly": 11316,
    "uction": 15446,
    "Ġdropt": 23678,
    "Ġsomnambul": 26578,
    "Ġruth": 14096,
    "och": 21003,
    "Ġwillow": 18529,
    "Ġcand": 3275,
    "provid": 11151,
    "Ġsymphony": 26534,
    "ics": 3256,
    "Ġtypes": 8939,
    "Ġdisinclination": 22540,
    "ocation": 14627,
    "Ġbrilliant": 11416,
    "Ġrus": 14095,
    "ians": 2357,
    "Ġstagger": 10594,
    "Ġtormenting": 15108,
    "Ġconsecutive": 20705,
    "utarch": 15666,
    "Ġscott": 22290,
    "previously": 17210,
    "Ġsphere": 15886,
    "Ġin": 291,
    "here": 2547,
    "err": 1138,
    "Ġhit": 7165,
    "like": 1888,
    "Ġlonger": 3362,
    "ph": 926,
    "comed": 8547,
    "Ġinanimate": 13935,
    "Ġscare": 18399,
    "Ġreverend": 15262,
    "Ġdarkness": 4279,
    "izarre": 17392,
    "Ġmock": 3696,
    "Ġdispose": 23882,
    "lleg": 20953,
    "Ġimmured": 24075,
    "Ġsequence": 1977,
    "Ġdesmarest": 22984,
    "ye": 1405,
    "Ġprodigy": 19795,
    "Ġtasks": 1790,
    "Ġquaker": 10973,
    "Ġtimidity": 24688,
    "Ġhovers": 19080,
    "cons": 4311,
    "Ġshadow": 5596,
    "Ġpiping": 23239,
    "Ġprecipitous": 24836,
    "Ġnowhere": 12891,
    "events": 12321,
    "Ġsecret": 3724,
    "Ġboast": 7036,
    "mbling": 3348,
    "Ġimbued": 17458,
    "Ġshocks": 16460,
    "Ġagreeing": 20022,
    "Ġdella": 21442,
    "caut": 20814,
    "Ġelbow": 12925,
    "Ġenem": 4709,
    "qualities": 25046,
    "Ġramadan": 9578,
    "Ġsimplicity": 2923,
    "conce": 8513,
    "Ġalex": 15137,
    "Ġthickly": 12120,
    "Ġbows": 4084,
    "ultural": 22573,
    "Þ": 159,
    "Ġears": 4491,
    "lie": 12487,
    "Ġarve": 15897,
    "Ġfireboard": 23534,
    "Ġmarshal": 20222,
    "Ġrock": 5311,
    "Ġhalting": 16277,
    "Ġpinched": 17036,
    "questions": 16762,
    "Ġcenturies": 8626,
    "pemberley": 9623,
    "Ġappl": 1744,
    "black": 6769,
    "Ġrailway": 15023,
    "Ġlays": 15993,
    "dun": 17518,
    "Ġplainer": 23707,
    "Ġwow": 15532,
    "Ġsporting": 17001,
    "hib": 15371,
    "Ġanointing": 25540,
    "bath": 13692,
    "Ġnations": 8814,
    "Ġpulverize": 23396,
    "Ġinfant": 11971,
    "Ġthrough": 603,
    "Ġsymptom": 13486,
    "Ġtol": 6677,
    "Ġshame": 6410,
    "Ġtrivial": 10145,
    "Ġallow": 1126,
    "cruise": 24842,
    "Ġthing": 1639,
    "Ġ124": 24469,
    "Ġmalicious": 10560,
    "ipelagoes": 13674,
    "Ġoverthrow": 18427,
    "Ġcurled": 8226,
    "accompanied": 12426,
    "Ġshuttle": 12131,
    "Ġflattening": 26049,
    "Ġstig": 14004,
    "rief": 6204,
    "Ġconstraint": 16515,
    "embarrassed": 20667,
    "devouring": 24953,
    "spoke": 11026,
    "inridge": 11563,
    "Ġfrenchman": 11285,
    "Ġsour": 21219,
    "Ġfoaming": 18992,
    "bushes": 24447,
    "ginger": 13166,
    "bread": 10688,
    "Ġprompt": 3188,
    "Ġfilling": 13411,
    "Ġextras": 22720,
    "begone": 12884,
    "ousings": 18336,
    "Ġdz": 4757,
    "Ġcasually": 25096,
    "Ġhip": 17923,
    "gings": 7550,
    "choice": 21694,
    "Ġjoyful": 13225,
    "Ġrates": 1404,
    "porary": 14552,
    "Ġproprietor": 12377,
    "Ġhundreds": 4330,
    "Ġperson": 2368,
    "Ġassurance": 7775,
    "Ġstrategy": 2430,
    "mid": 5617,
    "Ġchivalrous": 20518,
    "Ġardent": 9973,
    "Ġportcull": 23866,
    "Ġgetting": 4066,
    "Ġmethodology": 2583,
    "mighty": 9469,
    "contain": 18503,
    "Ġep": 7385,
    "Ġcleaned": 23185,
    "Ġdisregarded": 22534,
    "beryls": 25310,
    "Ġlifeless": 8951,
    "Ġmaterial": 5178,
    "rative": 17654,
    "Ġgrammatical": 13541,
    "Ġunceasing": 20361,
    "Ġadventurous": 16735,
    "Ġancest": 12619,
    "Ġmeantime": 6208,
    "Ġdepend": 781,
    "ernsey": 8905,
    "Ġcrockery": 24303,
    "Ġasp": 15785,
    "Ġvon": 14084,
    "Ġconvulsive": 19309,
    "mies": 20970,
    "gage": 13726,
    "ped": 6964,
    "Ġgenerally": 4158,
    "Ġexploding": 2110,
    "gen": 6503,
    "ader": 14014,
    "Ġstranded": 9778,
    "ulating": 10889,
    "Ġblew": 9049,
    "housekeeper": 24103,
    "Ġselling": 21227,
    "Ġmurderers": 16813,
    "Ġaut": 1776,
    "Ġeuroc": 14961,
    "Ġvi": 1956,
    "Ġstabbed": 25457,
    "unks": 15779,
    "Ġgenerative": 5644,
    "Ġli": 602,
    "proachable": 23401,
    "ouses": 5163,
    "Ġloops": 8856,
    "quiet": 6156,
    "Ġsupplied": 8946,
    "Ġushered": 18358,
    "subtle": 24246,
    "Ġbarbara": 24815,
    "suggested": 17302,
    "Ġpatroness": 13512,
    "Ġhedgehogs": 25395,
    "eks": 4729,
    "Ġsubterraneous": 20268,
    "hon": 6794,
    "Ġpolicy": 10459,
    "Ġbegin": 3096,
    "ears": 20847,
    "ignorant": 13566,
    "Ġfulf": 6773,
    "Ġunaccount": 22029,
    "Ġunthink": 18248,
    "erland": 9643,
    "Ġtis": 15468,
    "artic": 14228,
    "Ġdreadfully": 7726,
    "ubb": 1650,
    "remental": 21250,
    "Ġspoke": 2743,
    "Ġconfusing": 23309,
    "Ġmend": 8407,
    "roqu": 21537,
    "wreat": 21130,
    "Ġmou": 13857,
    "Ġthw": 21518,
    "names": 16535,
    "cats": 17514,
    "pivot": 21033,
    "ated": 725,
    "Ġtested": 23191,
    "search": 8467,
    "Ġgenuine": 14887,
    "Ġmann": 18417,
    "Ġsentence": 6189,
    "Ġhosea": 17334,
    "Ġcastaway": 16643,
    "Ġlightened": 23264,
    "Ġrepining": 23363,
    "Ġ87": 19713,
    "Ġperpetually": 17071,
    "duing": 22415,
    "itten": 3443,
    "Ġchestnuts": 24381,
    "Ġcistern": 17384,
    "evil": 11488,
    "idation": 5022,
    "ody": 1477,
    "Ġpresumption": 10548,
    "syntax": 5868,
    "Ġram": 11014,
    "pride": 11212,
    "Ġinconsiderable": 21498,
    "Ġshrieks": 12204,
    "Ġard": 5164,
    "Ġoutskirts": 17460,
    "remained": 8573,
    "Ġefforts": 11809,
    "Ġcontortions": 18477,
    "Ġbern": 17860,
    "±": 114,
    "pence": 15412,
    "englishman": 23679,
    "cher": 5786,
    "virtue": 20572,
    "Ġpell": 21459,
    "blacksmith": 17003,
    "speaking": 12103,
    "assisted": 22311,
    "Ġdefy": 11902,
    "Ġtender": 5753,
    "around": 12613,
    "Ġunderstood": 5655,
    "Ġweary": 5635,
    "Ġbarbary": 24219,
    "longbourn": 9899,
    "Ġperiods": 13307,
    "ckled": 9261,
    "Ġbear": 3662,
    "Ġdetermining": 14424,
    "03": 20750,
    "Ġissu": 6255,
    "Ġincreased": 2215,
    "envelope": 17784,
    "value": 18812,
    "!âĢĿ": 845,
    "Ġequ": 1733,
    "empt": 2616,
    "Ġtrusted": 10520,
    "Ġefficient": 1052,
    "Ġsaves": 18325,
    "whence": 23217,
    "subject": 6634,
    "onted": 11570,
    "rougham": 15997,
    "Ġvalue": 2086,
    "Ġrestored": 7068,
    "tons": 7560,
    "rannical": 26403,
    "Ġmountains": 4428,
    "Ġmal": 5221,
    "Ġunlabeled": 3803,
    "swing": 15432,
    "Ġexceptions": 13233,
    "Ġpledged": 20690,
    "sailing": 14716,
    "Ġ&": 6513,
    "Ġcellars": 24666,
    "Ġsideboard": 10388,
    "Ġvertically": 19383,
    "Ġklux": 22199,
    "spouter": 22734,
    "mering": 12495,
    "Ġvisions": 12976,
    "Ġinvolving": 18768,
    "australian": 20564,
    "seven": 8466,
    "client": 18934,
    "Ġpallidness": 25605,
    "bid": 5611,
    "study": 15121,
    "Ġstrives": 23697,
    "Ġafforded": 8029,
    "Ġsnap": 11202,
    "Ġpromethe": 14472,
    "Ġdangerously": 23940,
    "Ġutterance": 14765,
    "neat": 22452,
    "inese": 12881,
    "Ġbenevolence": 9530,
    "transition": 24513,
    "Ġredness": 19314,
    "hump": 12482,
    "Ġjingling": 26018,
    "ribution": 14310,
    "claimed": 9839,
    "phr": 18711,
    "Ġlogic": 13081,
    "Ġsuperiority": 14617,
    "ays": 6685,
    "Ġknee": 7095,
    "wel": 6119,
    "Ġdisliked": 12896,
    "Ġeastern": 11632,
    "Ġthence": 8885,
    "Ġcet": 6672,
    "anel": 21360,
    "urious": 21706,
    "feels": 22506,
    "Ġpounds": 5368,
    "diversity": 25898,
    "resemblance": 25934,
    "magistrate": 19865,
    "Ġappet": 9734,
    "Ġmuhammad": 26170,
    "suspected": 12376,
    "estone": 18361,
    "chel": 11209,
    "Ġsuperiors": 23456,
    "laug": 10709,
    "droppers": 24758,
    "ained": 3063,
    "Ġcave": 10787,
    "Ġmajesty": 5201,
    "Ġtout": 17721,
    "D": 40,
    "Ġcomputing": 2223,
    "Ġashore": 5352,
    "Ġcost": 2504,
    "========": 2312,
    "aut": 1917,
    "Ġguns": 16778,
    "Ġembellished": 25850,
    "Ġchinks": 22255,
    "bres": 11473,
    "Ġundeserving": 18269,
    "ĠĠĠĠĠĠĠĠĠĠĠĠĠĠ": 22568,
    "Ġagrippa": 11811,
    "throne": 25658,
    "brown": 15321,
    "Ġmccauley": 26429,
    "Ġopen": 1549,
    "Ġmislead": 22764,
    "Ġunav": 18241,
    "Ġcolossal": 11461,
    "Ġwonders": 7501,
    "Ġhinting": 19652,
    "you": 1006,
    "Ġpaying": 9941,
    "Ġsteeply": 23726,
    "jury": 15377,
    "Ġwaiter": 16364,
    "term": 3762,
    "raction": 8138,
    "Ġscor": 8191,
    "Ġwaistcoat": 12275,
    "Ġfunction": 581,
    "Ġclusters": 25233,
    "russian": 22187,
    "Ġcard": 7364,
    "asing": 5913,
    "neglect": 25669,
    "glasses": 11217,
    "miraculous": 26398,
    "Ġbadge": 16682,
    "Ġfixing": 13159,
    "entieth": 17981,
    "Ġvex": 5950,
    "Ġwrist": 8243,
    "permitted": 18347,
    "Ġallured": 14116,
    "Ġpeeping": 16131,
    "Ġmalays": 19680,
    "Ġladder": 8602,
    "Ġunseason": 22054,
    "Ġforty": 5719,
    "iastic": 12484,
    "Ġper": 588,
    "fred": 20857,
    "Ġding": 12604,
    "fl": 3605,
    "Ġsperma": 19049,
    "Ġdedication": 3008,
    "Ġdepended": 9780,
    "Ġsumat": 14132,
    "Ġgracefully": 13394,
    "Ġbloodless": 19341,
    "hardly": 6491,
    "Ġangrily": 9411,
    "momentum": 4991,
    "Ġ1828": 25720,
    "Ġcaresses": 26060,
    "pennies": 26287,
    "bows": 10084,
    "chiefly": 14848,
    "Ġcad": 12573,
    "lounged": 26134,
    "Ġreflecting": 24750,
    "Ġcrosses": 23066,
    "âĢĶ(": 15942,
    "Ġloses": 15877,
    "Ġwidth": 16774,
    "ples": 6845,
    "masculine": 24387,
    "Ġaloud": 6254,
    "Ġmonosyllable": 20728,
    "Ġpages": 15612,
    "baby": 25516,
    "riend": 1185,
    "Ġwhenever": 5166,
    "Ġputting": 5327,
    "shutters": 20316,
    "Ġtarshish": 12033,
    "----âĢĿ": 13310,
    "Ġstruggle": 3680,
    "isome": 17850,
    "ning": 948,
    "Ġinform": 997,
    "Ġtwee": 22678,
    "itself": 7834,
    "Ġhail": 7401,
    "ivided": 22082,
    "Ġupheld": 22156,
    "pockets": 16213,
    "Ġfaithful": 9506,
    "Ġjenny": 20165,
    "Ġlazarus": 15031,
    "Ġinstead": 2787,
    "Ġcellar": 8059,
    "Ġmarvels": 11086,
    "Ġbus": 1909,
    "Ġthrowing": 6337,
    "Ġmilan": 19538,
    "Ġcedar": 15192,
    "Ġhumbly": 16201,
    "Ġsmooth": 2776,
    "Ġcomputational": 1624,
    "Ġeaster": 15679,
    "parable": 16382,
    "Ġbrought": 2514,
    "Ġcomposition": 1688,
    "jol": 20927,
    "northern": 23666,
    "X": 60,
    "Ġdestination": 19151,
    "notice": 16148,
    "Ġequalled": 13316,
    "person": 7746,
    "77": 15304,
    "Ġconceit": 7296,
    "Ġunden": 22015,
    "rely": 6125,
    "increas": 10456,
    "Ġresembles": 25970,
    "importance": 9992,
    "Ġty": 6660,
    "Ġtotal": 4993,
    "Ġinsult": 6749,
    "superst": 11327,
    "Ġeddying": 17119,
    "iem": 20919,
    "crews": 15045,
    "intelligence": 5884,
    "Ġintelligence": 560,
    "Ġinsure": 13181,
    "accepting": 20138,
    "Ġmild": 4147,
    "Ġcondescending": 24869,
    "Ġemigrant": 25860,
    "Ġtouch": 3398,
    "Ġgrown": 5628,
    "Ġcontrast": 2120,
    "âĢľâĢĺ": 1483,
    "izens": 18146,
    "civilized": 17076,
    "Ġdock": 15934,
    "Ġshrieked": 9551,
    "Ġdrawing": 3918,
    "Ġdescent": 979,
    "Ġsearched": 15820,
    "Ġrage": 5110,
    "Ġdaresay": 14706,
    "trem": 17683,
    "Ġluckless": 16799,
    "Ġenvelopes": 24510,
    "Ġparalle": 1409,
    "formality": 22220,
    "Ġreduces": 2342,
    "onsible": 22566,
    "Ġquadrant": 11406,
    "Ġqualified": 14952,
    "Ġhollowly": 24526,
    "Ġcrown": 5289,
    "isol": 17848,
    "Ġspeedily": 7712,
    "Ġremained": 3139,
    "Ġadult": 18290,
    "thine": 15828,
    "tender": 14477,
    "Ġrob": 1274,
    "lish": 1954,
    "canallers": 22974,
    "Ġharpooneers": 4733,
    "Ġresentful": 24632,
    "Ġpretension": 23766,
    "Ġscript": 18400,
    "Ġspin": 7631,
    "sideways": 14572,
    "attended": 8955,
    "Ġsliding": 9368,
    "aned": 5147,
    "Ġavocation": 23956,
    "Ġadjac": 18293,
    "happened": 9437,
    "idy": 21768,
    "Ġunfathomable": 20551,
    "Ġleast": 2065,
    "screen": 22999,
    "Ġincrease": 9373,
    "Ġbravery": 23840,
    "Ġresiding": 16065,
    "Ġpoultry": 17444,
    "Ġacquiesce": 20332,
    "Ġrecl": 16149,
    "Ġcousins": 9918,
    "Ġemail": 19076,
    "Ġnear": 1718,
    "Ġwent": 1537,
    "ingham": 21303,
    "attached": 11939,
    "Ġethere": 23954,
    "Ġfoundling": 22978,
    "Ġhy": 5625,
    "merged": 11195,
    "hauled": 20671,
    "Ġinequal": 21500,
    "ignomin": 23270,
    "Ġhansom": 13667,
    "Ġlevi": 3033,
    "Ġsunbeam": 23279,
    "Ġmister": 22762,
    "Ġroared": 7025,
    "carries": 19530,
    "ead": 2598,
    "Ġans": 1646,
    "Ġqueequeg": 2013,
    "Ġgaped": 13969,
    "Ġtooth": 9196,
    "Ġdeafened": 25652,
    "rant": 11519,
    "Ġtold": 2190,
    "converse": 22477,
    "Ġbravest": 23844,
    "Ġconstable": 19070,
    "Ġgnashed": 20136,
    "Ġcharacteristically": 23693,
    "Ġimpaling": 22387,
    "oa": 9615,
    "Ġimpress": 6862,
    "Ġcaution": 11348,
    "Ġsisterly": 16308,
    "pain": 7351,
    "Ġsymb": 2590,
    "Ġvillains": 14751,
    "althily": 19362,
    "Ġconsiderations": 9414,
    "Ġnibbling": 17388,
    "sheet": 16289,
    "ram": 13974,
    "uments": 5552,
    "Ġcringing": 25942,
    "Ġideas": 5494,
    "Ġmiserably": 12952,
    "putable": 10903,
    "oology": 21008,
    "Ġchicha": 15940,
    "Ġits": 706,
    "Ġmale": 9651,
    "Ġknave": 11274,
    "Ġly": 2270,
    "Ġmutually": 23960,
    "Ġstil": 15722,
    "ast": 473,
    "Ġschedu": 1825,
    "Ġmed": 4177,
    "tled": 3459,
    "linearity": 1651,
    "Ġbelonged": 6922,
    "Ġbandaged": 16844,
    "turbaned": 24532,
    "Ġindelible": 25695,
    "Ġdecorated": 22449,
    "Ġdirector": 18922,
    "Ġbran": 5252,
    "Ġsuffusing": 23035,
    "efficient": 2869,
    "onian": 17769,
    "Ġcasts": 19429,
    "Ġchaff": 18383,
    "Ġpressure": 13425,
    "gallantry": 15061,
    "Ġlion": 9678,
    "Ġalgorithm": 783,
    "Ġproficiency": 19194,
    "Ġalternately": 15034,
    "J": 46,
    "Ġimposs": 16618,
    "ornamented": 26597,
    "meas": 7434,
    "disgrace": 16461,
    "ssible": 2990,
    "Ġbu": 3687,
    "Ġimmediately": 3368,
    "Ġawoke": 7287,
    "Ġhowever": 1306,
    "Ġamounts": 6706,
    "Ġdimly": 9491,
    "terrors": 25044,
    "Ġprick": 14480,
    "squee": 15433,
    "mblings": 19783,
    "Ġvertu": 23893,
    "anyone": 16595,
    "Ġrapidity": 11102,
    "Ġbrooded": 23107,
    "ination": 2913,
    "Ġstiggs": 25793,
    "heavy": 10577,
    "Ġtransports": 24280,
    "Ġextent": 7657,
    "Ġguarded": 9829,
    "windows": 19537,
    "Ġtrace": 6182,
    "Ġbeau": 9228,
    "dr": 6223,
    "Ġspectre": 16633,
    "tw": 2810,
    "Ġinvol": 1062,
    "Ġglut": 18855,
    "adamite": 20596,
    "capt": 3838,
    "Ġfuss": 13907,
    "offensive": 16403,
    "Ġinde": 7372,
    "Ġabaft": 22278,
    "Ġimple": 1763,
    "fortunate": 4793,
    "cence": 9591,
    "Ġtying": 15476,
    "rict": 8093,
    "Ġgallons": 14820,
    "Ġsteep": 2887,
    "Ġborne": 6353,
    "Ġworld": 1591,
    "Ġpass": 1040,
    "Ġunfrequent": 24111,
    "ws": 7356,
    "vable": 10135,
    "aments": 12730,
    "¶": 119,
    "Ġeffusion": 22516,
    "Ġgrandfather": 19425,
    "agon": 7871,
    "Ġmour": 6974,
    "Ġshan": 9253,
    "prejudice": 25572,
    "meryton": 10114,
    "Ġaffectionately": 13171,
    "Ġfalls": 14645,
    "spending": 18690,
    "Ġadvertisement": 6941,
    "Ġquiet": 3260,
    "Ġimpertinent": 9081,
    "Ġchoosing": 19593,
    "rison": 13781,
    "otently": 21804,
    "precious": 12077,
    "Ġsting": 10863,
    "distance": 12157,
    "disaster": 23495,
    "Ġ36": 14769,
    "forbearance": 22798,
    "Ġdidn": 4364,
    "Ġconclude": 8583,
    "ivable": 10912,
    "incidentally": 20542,
    "Ġlashing": 11619,
    "eer": 15351,
    "Ġvillanous": 24058,
    "berwell": 22745,
    "freely": 16856,
    "azed": 9403,
    "Ġdiabolically": 25514,
    "volutional": 1939,
    "Ġborn": 5224,
    "ien": 10104,
    "Ġchip": 12829,
    "Ġtransported": 11281,
    "Ġoff": 901,
    "Ġchemical": 10411,
    "igantic": 5539,
    "Ġignorantly": 19498,
    "riers": 18184,
    "Ġstung": 21742,
    "Ġporus": 24398,
    "Ġawake": 8272,
    "condem": 16346,
    "Ġverte": 9445,
    "Ġdemon": 7869,
    "brous": 19200,
    "Ġspe": 820,
    "Ġescort": 23507,
    "Ġsighing": 18676,
    "excuse": 13384,
    "Ġgunw": 6214,
    "Ġpick": 4257,
    "Ġavert": 14428,
    "Ġhurricane": 16434,
    "Ġadorn": 12797,
    "Ġvales": 21950,
    "Ġforgery": 25978,
    "ĠĠĠĠĠĠĠĠĠĠĠĠĠĠĠĠĠ": 22954,
    "Ġconsequences": 11337,
    "Ġartful": 22598,
    "Ġlearnedly": 23389,
    "darkness": 9515,
    "rifice": 12508,
    "ses": 3026,
    "untarily": 6314,
    "Ġcrevice": 22725,
    "Ġembalmed": 13659,
    "drive": 8686,
    "beheld": 11805,
    "Ġprolong": 6833,
    "Ġneighbour": 3811,
    "Ġwithdrawn": 10609,
    "needles": 20314,
    "Ġoutcast": 18415,
    "Ġdecay": 1012,
    "================================": 5671,
    "Ġalleghan": 25796,
    "Ġsuppression": 23003,
    "Ġarmada": 23582,
    "holding": 7739,
    "Ġrecklessness": 24744,
    "Ġabstraction": 26541,
    "rem": 1521,
    "Ġage": 3897,
    "Ġroving": 22407,
    ".âĢĶâĢľ": 20749,
    "ument": 5240,
    "Ġmust": 843,
    "Ġversion": 10632,
    "esu": 17903,
    "Ġjoyous": 14665,
    "Ġcompasses": 11269,
    "Ġgreeting": 18963,
    "Ġconjugal": 25104,
    "Ġreads": 23116,
    "Ġexception": 11218,
    "ifting": 6547,
    "oper": 7348,
    "Ġspokes": 18314,
    "Ġcommonplaces": 16292,
    "Åĵ": 10746,
    "Ġstoner": 7180,
    "Ġra": 806,
    "sius": 13790,
    "Ġent": 902,
    "Ġcrouching": 23443,
    "frequented": 25901,
    "Ġstray": 18072,
    "Ġstreaked": 19115,
    "umnal": 18301,
    "papers": 12506,
    "Ġrespected": 11957,
    "Ġpersuasions": 16634,
    "Ġsunny": 13090,
    "Ġfeedforward": 2326,
    "Ġcrocodile": 20742,
    "Ġroyals": 19535,
    "Ġbal": 1131,
    "Ġbree": 5012,
    "Ġvapor": 8703,
    "Ġsettlement": 19839,
    "Ġjib": 14196,
    "Ġangelic": 19630,
    ")": 13,
    "Ġtruth": 3322,
    "abil": 2008,
    "Ġwrest": 11574,
    "Ġrelig": 8553,
    "allet": 11085,
    "Ġgovernor": 16492,
    "ran": 11518,
    "hopeless": 16919,
    "Ġstochastic": 3265,
    "fav": 6649,
    "Ġexceptional": 19374,
    "Ġeclipsed": 26378,
    "Ġtouches": 20573,
    "Ġcane": 10929,
    "soup": 21061,
    "Ġbarmaid": 19337,
    "fs": 17537,
    "Ġwre": 5077,
    "aug": 1213,
    "cil": 8724,
    "Ġburning": 5978,
    "destiny": 16701,
    "Ġrestraint": 15131,
    "Ġmainland": 22658,
    "Ġreveren": 13200,
    "Ġgrazed": 15837,
    "Ġpea": 14320,
    "Ġcaterpillar": 5866,
    "velope": 17703,
    "Ġvig": 5460,
    "subs": 14309,
    "Ġantelope": 24183,
    "wil": 8769,
    "Ġoverpower": 12845,
    "unaffected": 21887,
    "something": 4287,
    "ashing": 4826,
    "Ġemployed": 5200,
    "notches": 22749,
    "oquence": 11388,
    "Ġdiscernible": 15073,
    "Ġtars": 21167,
    "Ġbeamed": 23724,
    "ack": 617,
    "Ġagency": 11810,
    "Ġcease": 7078,
    "constant": 11326,
    "Ġforked": 11667,
    "Ġinstant": 2701,
    "Ġbarbed": 14837,
    "Ġhelmet": 19690,
    "Ġdiversity": 25285,
    "Ġshunned": 17296,
    "Ġaudio": 24771,
    "Ġwhaler": 7521,
    "Ġmine": 3176,
    "bu": 5132,
    "Ġsleek": 23387,
    "compar": 14358,
    "Ġimpunity": 14218,
    "unbounded": 21889,
    "Ġcoinc": 11004,
    "Ġpet": 4587,
    "Ġbethink": 12383,
    "Ġveneration": 25047,
    "Ġsurgeons": 23466,
    "Ġgree": 7596,
    "Ġfoiled": 23246,
    "Ġdevils": 7231,
    "harbors": 20151,
    "Ġruff": 14350,
    "icher": 9206,
    "Ġexcluded": 16389,
    "ounder": 11748,
    "learning": 2496,
    "ask": 856,
    "Ġdavy": 25952,
    "ai": 2523,
    "Ġturning": 3329,
    "Ġthumb": 6982,
    "straw": 24099,
    "Ġtide": 6661,
    "Ġoy": 15550,
    "Ġsubaltern": 22792,
    "Ġresources": 2936,
    "il": 329,
    "belated": 24040,
    "Ġtapers": 11554,
    "diff": 9117,
    "Ġpricking": 23223,
    "Ġtyph": 10011,
    "Ġdespite": 19356,
    "Ġcandour": 14674,
    "Ġah": 5075,
    "Ġadrift": 11726,
    ",)": 9105,
    "danish": 20835,
    "Ġraise": 6168,
    "Ġperseverance": 13600,
    "wester": 21141,
    "Ġlinks": 13957,
    "Ġcheerily": 13311,
    "ipelag": 12847,
    "goose": 19103,
    "Ġcould": 703,
    "Ġslashing": 23171,
    "Ġende": 21936,
    "Ġfluke": 14675,
    "Ġexpanding": 25239,
    "idious": 11665,
    "Ġwhalers": 8048,
    "Ġpatagon": 14510,
    "tailed": 17687,
    "arily": 4126,
    "ys": 3961,
    "daggoo": 13709,
    "Ġpushing": 10821,
    "do": 1996,
    "Ġgoal": 10304,
    "ĠmanÅĵuv": 18418,
    "renew": 24450,
    "Ġfaulty": 14909,
    "Ġjun": 8508,
    "Ġeating": 8136,
    "Ġslumbering": 25702,
    "trade": 19647,
    "Ġresolutely": 14610,
    "stripped": 16947,
    "Ġdivinely": 25723,
    "jar": 17579,
    "Ġmiles": 3807,
    "Ġking": 2305,
    "Ġimpropriety": 17398,
    "Ġencamp": 22806,
    "Ġassociated": 12254,
    "Ġexpands": 25238,
    "Ġdressing": 7092,
    "Ġobsequ": 14323,
    "Ġelimin": 16112,
    "Ġengraving": 17081,
    "Ġbeckoned": 25794,
    "Ġworn": 6445,
    "Ġnearing": 15800,
    "Ġact": 690,
    "Ġmut": 3586,
    "Ġinstituted": 18698,
    "Ġbo": 796,
    "Ġdispleasure": 16056,
    "position": 15416,
    "Ġindistinct": 17411,
    "Ġmoulded": 16977,
    "Ġrelev": 1716,
    "Ġcontains": 2790,
    "Ġforbid": 7865,
    "Ġwelfare": 12564,
    "irons": 10241,
    "effort": 19216,
    "Ġspoutings": 14677,
    "Ġscrews": 25178,
    "save": 13787,
    "Ġcharing": 14181,
    "Ġpsal": 15620,
    "feeling": 6619,
    "Ġcontinents": 16851,
    "Ġmuffled": 10643,
    "scent": 13025,
    "Ġagree": 7648,
    "brim": 23577,
    "Ġoriginate": 24123,
    "Ġscand": 7204,
    "Ġ9": 5902,
    "electricity": 26387,
    "Ġhence": 4989,
    "Ġmorbidness": 20631,
    "Ġwrinkles": 8574,
    "Ġadmits": 23557,
    "Ġbred": 9173,
    "Ġcurses": 13010,
    "Ġglove": 14494,
    "Ġdu": 4585,
    "gunwale": 20665,
    "discredit": 24253,
    "cream": 15334,
    "hies": 17562,
    "Ġwager": 17794,
    "magnificent": 20277,
    "Ġcoins": 11823,
    "Ġinstinct": 6576,
    "Ġpoets": 11825,
    "rally": 17653,
    "dwell": 15345,
    "Ġexordium": 26494,
    "Ġchair": 3666,
    "Ġloos": 15875,
    "======================================================================": 10071,
    "Ġeigenvalues": 4998,
    "Ġfainter": 14916,
    "Ġthistle": 21920,
    "Ġwillingness": 24911,
    "Ġtallest": 15477,
    "Ġnind": 17952,
    "bottom": 11428,
    "itching": 21338,
    "scap": 22993,
    "held": 3842,
    "Ġsolomon": 11054,
    "Ġviol": 2072,
    "zor": 15461,
    "urg": 8142,
    "Ġunharmed": 15143,
    "º": 123,
    "mmar": 952,
    "Ġliked": 5265,
    "Ġshining": 8172,
    "chor": 6148,
    "Ġunperceived": 22039,
    "declined": 25175,
    "com": 963,
    "Ġprudent": 9189,
    "Ġentrapped": 26264,
    "w": 91,
    "Ġrespectability": 14487,
    "Ġdiscrete": 2472,
    "above": 8148,
    "Ġresearches": 13131,
    "ascribed": 24707,
    "Ġlethargy": 26485,
    "Ġunfitted": 24110,
    "vii": 13151,
    "Ġwonderfully": 10432,
    "inement": 11560,
    "reat": 618,
    "Ġdivers": 9668,
    "Ġanytime": 12890,
    "Ġdi": 6525,
    "earthly": 24723,
    "Ġattitudes": 16100,
    "ted": 788,
    "Ġconverse": 11847,
    "onial": 11569,
    "Ġobliged": 4288,
    "Ġcompanionship": 14922,
    "orough": 5700,
    "Ġsurmisings": 26595,
    "nest": 10116,
    "ized": 1528,
    "Ġfaith": 5351,
    ")âĢĶ": 20744,
    "Ġtuileries": 24824,
    "Ġd": 284,
    "Ġslighter": 18942,
    "Ġxliv": 23411,
    "contained": 22474,
    "iom": 20917,
    "Ġabased": 22272,
    "Ġ20": 8617,
    "Ġstarlight": 24627,
    "winter": 10742,
    "lady": 4434,
    "Ġassemblage": 26354,
    "Ġthereupon": 18434,
    "itage": 17818,
    "Ġthinker": 22814,
    "Ġexult": 10231,
    "buncle": 13695,
    "Ġheav": 1853,
    "driven": 19774,
    "Ġtiny": 11555,
    "Ġmates": 4873,
    "Ġsignals": 10588,
    "sharks": 14242,
    "Ġsulkily": 25882,
    "Ġconve": 5455,
    "Ġembod": 14411,
    "Ġcarefully": 6306,
    "Ġlevelled": 11286,
    "Ġpalmed": 24094,
    "Ġprolonged": 8360,
    "blo": 6355,
    "ula": 2824,
    "haustible": 16893,
    "Ġjumbled": 22301,
    "Ġexceeded": 14436,
    "oes": 4435,
    "supportable": 12374,
    "Ġentail": 9793,
    "told": 7811,
    "Ġpott": 21471,
    "Ġabsolutely": 4859,
    "Ġconjecture": 9535,
    "Ġdistress": 5845,
    "Ġgard": 2194,
    "jour": 20929,
    "Ġsparsity": 4209,
    "Ġclient": 5556,
    "Ġashes": 7618,
    "Ġblasphemy": 26116,
    "arding": 22161,
    "kov": 17588,
    "arrang": 14653,
    "Ġache": 18664,
    "Ġconcepts": 4551,
    "distinctive": 25726,
    "Ġpaddling": 25286,
    "urry": 13996,
    "ann": 5803,
    "Ġtackles": 8051,
    "Ġaugust": 10600,
    "anous": 21362,
    "Ġdecap": 16024,
    "supplementary": 20552,
    "Ġplumage": 17301,
    "servant": 15038,
    "ods": 8839,
    "car": 4213,
    "Ġamend": 16038,
    "Ġmurmuring": 23581,
    "aked": 2016,
    "Ġpat": 1807,
    "Ġdoran": 9183,
    "Ġmanned": 9275,
    "Ġencl": 16173,
    "Ġvoice": 2195,
    "Ġpir": 6818,
    "Ġxxii": 24478,
    "Ġmighty": 4231,
    "Ġmeth": 1481,
    "Ġwhitened": 24868,
    "Ġpipes": 9852,
    "pardonable": 17220,
    "Ġdefection": 22945,
    "Ġtyro": 16996,
    "raint": 18317,
    "violence": 16480,
    "originally": 24940,
    "dreadful": 11423,
    "Ġidolator": 20001,
    "Ġrobbery": 11916,
    "Ġfacing": 10174,
    "Ġencouraged": 9359,
    "assemblies": 25957,
    "onged": 18411,
    "ladies": 9532,
    "Ġlunacy": 20031,
    "Ġanxiety": 5408,
    "forehead": 8518,
    "Ġsubstant": 14811,
    "Ġpeddling": 21485,
    "Ġspleen": 26423,
    "cen": 17505,
    "cra": 6356,
    "Ġbetrayed": 9564,
    "auley": 22626,
    "Ġwafted": 14501,
    "ag": 377,
    "uary": 11540,
    "inev": 21983,
    "Ġpolluted": 25594,
    "istic": 984,
    "tarpaulins": 26407,
    "missionary": 24616,
    "Ġdiabolism": 25515,
    "Ġbachelor": 7787,
    "Ġcanst": 8861,
    "independent": 26022,
    "Ġlongitudes": 22636,
    "Ġthoughtlessness": 16197,
    "caroline": 24151,
    "maj": 18803,
    "swelled": 19613,
    "Ġcontinual": 6778,
    "geons": 15983,
    "distressed": 24202,
    "Ġmalady": 24392,
    "nantucketer": 24975,
    "eight": 9594,
    "Ĺ": 250,
    "Ġampl": 22484,
    "Ġhigh": 931,
    "Ġwasn": 6998,
    "fortun": 3543,
    "Ġdents": 13913,
    "Ġprevail": 13445,
    "Ġfighting": 12202,
    ".)": 6784,
    "Ġspectrum": 4475,
    "Ġvult": 12757,
    "Ġ275": 20114,
    "Ġyawned": 15054,
    "Ġwalking": 4326,
    "pyramid": 21032,
    "Ġostr": 21328,
    "four": 6115,
    "Ġworshippers": 25694,
    "ctuous": 9209,
    "fee": 12885,
    "O": 51,
    "Ġfirm": 3872,
    "theast": 21752,
    "Ġscrupulous": 20072,
    "rog": 15644,
    "peasant": 23114,
    "Ġmadman": 13154,
    "impressions": 20701,
    "Ġfurther": 1057,
    "Ġprophet": 7682,
    "beer": 22492,
    "Ġlocket": 22117,
    "Ġcontextual": 3747,
    "Ġcontents": 7211,
    "iff": 3906,
    "suspect": 9543,
    "Ġtal": 7565,
    "yourselves": 24959,
    "Ġdairy": 20689,
    "Ġdisasters": 16058,
    "paid": 15417,
    "85": 13684,
    "Ġloving": 8176,
    "Ġunimpeachable": 26524,
    "pounds": 21027,
    "ressing": 8922,
    "Ġpenetrating": 17013,
    "Ġnecessity": 7297,
    "Ġforg": 3791,
    "heavenly": 20048,
    "Ġdestroyer": 13416,
    "Ġvault": 8845,
    "wards": 1276,
    "turkish": 24533,
    "Ġilliterate": 26596,
    "Ġglances": 10375,
    "Ġdecisive": 18488,
    "dick": 11481,
    "Ġundec": 22021,
    "inities": 21188,
    "Ġable": 3079,
    "Ġfairness": 9897,
    "Ġprodig": 6029,
    "Ġeach": 891,
    "accur": 14594,
    "Ġdigging": 14940,
    "Ġscold": 10952,
    "Ġswords": 19899,
    "Ġchasing": 11758,
    "ober": 15409,
    "begin": 8887,
    "Ġbluff": 16519,
    "Ġapprove": 12880,
    "Ġinternal": 2249,
    "Ġdiscontented": 16063,
    "Ġsleeping": 6321,
    "fainting": 20476,
    "ands": 21870,
    "Ġbaronial": 23796,
    "Ġnoiselessly": 22865,
    "its": 1149,
    "Ġappend": 18363,
    "Ġvacantly": 16817,
    "Ġspeakest": 23487,
    "Ġhur": 2100,
    "Ġcorrected": 10450,
    "uling": 2259,
    "need": 10981,
    "Ġdespatched": 23833,
    "Ġrazors": 22655,
    "would": 2350,
    "groom": 8743,
    "Ġmeanwhile": 5736,
    "gentlemen": 9507,
    "Ġcommend": 10337,
    "Ġviolently": 6456,
    "pious": 17635,
    "Ġdad": 12605,
    "Ġtechniques": 2866,
    "ged": 1512,
    "Ġbash": 12591,
    "Ġhauled": 11698,
    "Ġhilarity": 20300,
    "letter": 6203,
    "Ġbos": 4876,
    "immense": 18055,
    "Ġadopt": 10634,
    "Ġinconvenience": 9566,
    "Ġrun": 2353,
    "Ġstupid": 7605,
    "pencil": 18829,
    "Ġseizing": 7877,
    "Ġencirc": 18736,
    "ersampling": 18217,
    "Ġpepper": 9784,
    "tered": 2233,
    "bell": 7333,
    "Ġdue": 3846,
    "tort": 17677,
    "Ġpainter": 19170,
    "ather": 740,
    "bruary": 15239,
    "Ġarchipelagoes": 14353,
    "Ġroyalty": 19739,
    "Ġwearing": 12744,
    "response": 25763,
    "Ġsignificance": 13284,
    "Ġanimals": 8981,
    "Ġrider": 24188,
    "deceptive": 22153,
    "supposed": 13319,
    "Ġaverted": 16259,
    "Ġshutter": 16673,
    "Ġrings": 11703,
    "strangers": 20339,
    "hangs": 15372,
    "detached": 19677,
    "Ġinherent": 4592,
    "Ġfunctional": 3047,
    "ust": 494,
    "ath": 862,
    "goes": 10428,
    "nui": 21002,
    "prosper": 19102,
    "âĢ": 294,
    "den": 937,
    "Ġsparkling": 11358,
    "av": 739,
    "Ġanim": 2115,
    "Ġmarlings": 23041,
    "Ġice": 3609,
    "Ġwr": 1543,
    "situation": 11439,
    "Ġfinal": 5400,
    "Ġreasonable": 7252,
    "Ġsenses": 8252,
    "antages": 7193,
    "Ġdrinking": 12173,
    "mblance": 7324,
    "suff": 4962,
    "Ġringing": 13335,
    "Ġsafely": 9029,
    "Ġconnection": 5479,
    "Ġshiver": 12772,
    "Ġhearty": 9848,
    "½": 126,
    "Ġbulge": 23860,
    "Ġsteals": 23088,
    "ulties": 12909,
    "rule": 15900,
    "Ġplunging": 14954,
    "Ġinfall": 7965,
    "cd": 15326,
    "Ġtons": 11552,
    "suspended": 15181,
    "Ġdevoid": 18685,
    "ateur": 22075,
    "Ġpanted": 21475,
    "Ġinterconnected": 1337,
    "Ġbasis": 16963,
    "Ġvague": 6406,
    "Ġsubstantial": 14812,
    "Ġlay": 583,
    "pictures": 15094,
    "Ġguilt": 6181,
    "Ġgay": 5535,
    "racted": 4775,
    "Ġbet": 1133,
    "aneously": 4060,
    "Ġphrase": 11189,
    "receiving": 12548,
    "quietly": 10595,
    "Ġmerely": 3774,
    "Ġclothes": 4997,
    "Ġje": 4123,
    "¦": 104,
    "heart": 4526,
    "Ġcauses": 2559,
    "wooden": 24588,
    "Ġstated": 9692,
    "Ġexultation": 15174,
    ".;": 20746,
    "Ġexpired": 18624,
    "acknowledging": 25477,
    "Ġclair": 6271,
    "Ġecho": 12671,
    "Ġinput": 610,
    "Ġsuffer": 4723,
    "Ġnetherfield": 3931,
    "Ġaccounting": 14573,
    "Ġloss": 822,
    "^{": 15308,
    "Ġconception": 10313,
    "say": 3985,
    "Ġsine": 10765,
    "justine": 7684,
    "Ġmowers": 17814,
    "perfectly": 9090,
    "Ġrepented": 23365,
    "Ġseasoned": 24405,
    "Ġwindibank": 7258,
    "Ġshould": 864,
    "ropes": 7903,
    "intment": 4721,
    "charming": 15710,
    "Ġ111": 24436,
    "ergy": 2360,
    "Ġdisappo": 4506,
    "rade": 9682,
    "gar": 5615,
    "tt": 13792,
    "Ġafloat": 9312,
    "Ġdoc": 7201,
    "Ġstum": 21735,
    "Ġreven": 18031,
    "Ġalas": 5923,
    "likelihood": 4992,
    "Ġstudies": 7956,
    "Ġsquall": 7045,
    "Ġsinks": 19552,
    "Ġfelt": 1745,
    "Ġtransaction": 22443,
    "Ġrecommended": 8671,
    "Ġsloop": 25931,
    "Ġdesist": 16242,
    "ression": 3408,
    "Ġchildren": 3771,
    "Ġdaw": 21432,
    "Ġremot": 8546,
    "Ġinspiring": 19114,
    "mentioned": 10626,
    "Ġregulations": 18599,
    "asol": 21543,
    "Ġconceivable": 16615,
    "https": 11687,
    "Ġmalignity": 10559,
    "wholly": 10943,
    "Ġallev": 18103,
    "Ġpanic": 11288,
    "Ġkneel": 14808,
    "Ġchildhood": 13141,
    "unts": 12736,
    "Ġmarry": 4419,
    "due": 22414,
    "Ġinmates": 15627,
    "Ġbedroom": 7278,
    "Ġpenalizing": 13094,
    "ion": 296,
    "encing": 21285,
    "Ġwork": 1280,
    "Ġaccents": 14213,
    "irement": 18356,
    "Ġtranquill": 6633,
    "Ġwhisper": 6207,
    "Ġdeer": 12725,
    "photograph": 16156,
    "Ġinhabitant": 19758,
    "Ġreplay": 5047,
    "angel": 5726,
    "Ġoverspread": 14205,
    "Ġencoun": 4512,
    "Ġpassage": 3886,
    "brothers": 17026,
    "rigible": 24932,
    "flour": 23969,
    "anque": 13890,
    "trick": 19416,
    "Ġrealistic": 5862,
    "ured": 1654,
    "aston": 7409,
    "Ġshuddered": 11302,
    "ores": 2410,
    "Ġdefray": 22944,
    "Ġfinanc": 23130,
    "escape": 16011,
    "Ġvectors": 1772,
    "Ġlegs": 4917,
    "Ġtrooped": 24900,
    "ĠlinnÃ¦us": 15278,
    "mot": 17598,
    "Ġtough": 13817,
    "Ġhearts": 4972,
    "omuch": 21643,
    "iscuits": 24667,
    "Ġsneer": 13450,
    "clergyman": 20731,
    "Ġgilder": 21616,
    "Ġshape": 5639,
    "Ġomit": 17817,
    "Ġbrow": 3989,
    "cripp": 20821,
    "Ġwho": 612,
    "Ġmunro": 25631,
    "viv": 17700,
    "Ġexamples": 2603,
    "devilish": 17083,
    "cannibals": 25585,
    "Ġschemes": 11133,
    "Ġwinding": 8236,
    "Ġleaks": 16448,
    "Ġextending": 11022,
    "Ġpref": 14174,
    "Ġade": 22105,
    "Ġdrove": 4984,
    "Ġsmiting": 12906,
    "thunder": 10265,
    "town": 7144,
    "osite": 4894,
    "run": 10723,
    "Ġplacing": 8904,
    "eastward": 15133,
    "atisf": 21266,
    "odox": 21815,
    "Ġdilated": 24703,
    "Ġinfinitely": 8970,
    "Ġroasted": 18460,
    "rs": 7807,
    "countenances": 24153,
    "antial": 8490,
    "hurrying": 14986,
    ".}": 20747,
    "icient": 786,
    "Ġcalhoun": 23048,
    "Ġbelonging": 8308,
    "Ġbelieved": 4370,
    "Ġshoes": 7073,
    "Ġarise": 7896,
    "Ġfort": 2577,
    "sensibility": 25026,
    "Ġexterm": 21833,
    "because": 4924,
    "Ġpri": 5814,
    "grown": 10102,
    "glue": 17558,
    "comple": 7441,
    "plendent": 21968,
    "meanwhile": 10612,
    "Ġdusty": 14927,
    "Ġskirting": 22800,
    "Ġmanufact": 22332,
    "persuade": 13535,
    "Ġbelief": 5857,
    "Ġmapp": 2083,
    "andes": 18154,
    "consciousness": 13369,
    "Ġcho": 4547,
    "Ġsecuring": 11996,
    "hound": 20897,
    "Ġbedside": 19125,
    "Ġarrest": 7410,
    "Ġmushroom": 13240,
    "Ġuncomfortable": 8488,
    "Ġpresentiment": 18989,
    "Ġkindred": 16376,
    "Ġguise": 14435,
    "Ġinvented": 17038,
    "Ġmincing": 18752,
    "Ġdecomposition": 5343,
    "Ġupstairs": 5837,
    "Ġnotice": 4543,
    "Ġanalogical": 25641,
    "Ġcentrally": 23835,
    "arers": 12134,
    "satisf": 5781,
    "Ġfaltering": 17886,
    "carried": 16713,
    "Ġconsp": 10227,
    "Ġsprain": 18306,
    "Ġfeeble": 12288,
    "Ġoppress": 13175,
    "Ġther": 17780,
    "Ġcry": 3498,
    "cor": 5520,
    "Ġauthorized": 16737,
    "hateful": 20911,
    "Ġeleven": 9394,
    "Ġdeliber": 7269,
    "Ġgrizzled": 11452,
    "Ġmanage": 7642,
    "ivery": 17574,
    "Ġface": 1722,
    "stranded": 19227,
    "ring": 1752,
    "Ġmeek": 21816,
    "Ġmaternal": 11061,
    "carpenter": 11429,
    "Ġtrop": 7566,
    "eagerly": 17319,
    "Ġpeasant": 13554,
    "surprise": 9533,
    "sorts": 21063,
    "Ġasleep": 6836,
    "Ġembrace": 16992,
    "preference": 22471,
    "bus": 5355,
    "faith": 15027,
    "servants": 15040,
    "Ġscarlet": 13227,
    "eridge": 15529,
    "craft": 12251,
    "Ġsurpasses": 25269,
    "Ġconvenience": 11333,
    "brary": 5755,
    "Ġblacks": 23391,
    "Ġneither": 3691,
    "Ġsemi": 11973,
    "rons": 21042,
    "Ġfishe": 15590,
    "Ġcounties": 23304,
    "Ġmott": 17805,
    "Ġwerter": 15243,
    "Ġrepine": 16414,
    "utored": 15667,
    "ester": 11601,
    "Ġbeginning": 4244,
    "Ġvictoria": 14875,
    "Ġgretna": 26470,
    "Ġkrusen": 20716,
    "Ġbrazen": 23843,
    "archbishop": 22895,
    "odecimo": 11446,
    "Ġhoneymoon": 25646,
    "Ġstru": 2175,
    "Ġmorals": 22980,
    "Ġgrinning": 9057,
    "Ġunremitting": 26219,
    "Ġded": 2498,
    "Ġoft": 9198,
    "Ġcasked": 24497,
    "Ġbra": 3254,
    "Ġseething": 18202,
    "hos": 15367,
    "Ġaisle": 21204,
    "_.)": 7279,
    "unciation": 25983,
    "unearthly": 19275,
    "dashed": 12460,
    "has": 4014,
    "tha": 15827,
    "unnecessary": 21884,
    "Ġdies": 11596,
    "Ġclapped": 9749,
    "É": 138,
    "million": 25752,
    "although": 8810,
    "vity": 7815,
    "Ġshouts": 19540,
    "Ġmitigates": 3050,
    "Ġwheeling": 18289,
    "mur": 5428,
    "Ġdecoding": 3080,
    "Ġpencils": 23201,
    "Ġcapting": 23026,
    "sim": 6510,
    "Ġinvoluntarily": 8551,
    "secur": 18129,
    "Ġchorus": 10948,
    "bud": 10686,
    "Ġdownright": 16122,
    "ł": 259,
    "Ġrelations": 5854,
    "rawling": 21639,
    "Ġobscured": 15013,
    "Ġprescribed": 26011,
    "ith": 330,
    "Ġcreating": 2994,
    "Ġsite": 17755,
    "uff": 2727,
    "Ġsundial": 15086,
    "Ġ99": 10747,
    "Ġkeen": 4614,
    "Ġenigmatical": 20600,
    "Ġplan": 3883,
    "Ġeffort": 8205,
    "Ġtwinkling": 12328,
    "Ġhuff": 21493,
    "iony": 9195,
    "proble": 9398,
    "orate": 10802,
    "Ġneedles": 11186,
    "peddling": 21034,
    "smeer": 26148,
    "Ġthine": 7375,
    "Ġsab": 10764,
    "iably": 13740,
    "ips": 2591,
    "ined": 1259,
    "Ġestab": 6317,
    "Ġprojects": 9514,
    "Ġjewelled": 20186,
    "gun": 10099,
    "Ġunassuming": 20512,
    "Ġtimes": 2302,
    "disgu": 19157,
    "ady": 996,
    "Ġshown": 5159,
    "Ġirksome": 13115,
    "Ġmorass": 22979,
    "remes": 21240,
    "some": 2237,
    "Ġ135": 24784,
    "Ġactivation": 918,
    "Ġunrecorded": 17470,
    "Ġcat": 2123,
    "arpaul": 14537,
    "Ġfling": 9663,
    "tese": 21086,
    "Ġrevenge": 5452,
    "nervous": 16280,
    "Ġkink": 22197,
    "factories": 19846,
    "Ġcha": 6853,
    "glanced": 19369,
    "Ġdisp": 3361,
    "ements": 11110,
    "Ġto": 297,
    "Ġexecutors": 19536,
    "lances": 15387,
    "Ġdes": 1251,
    "Ġdoleful": 18377,
    "Ġstrike": 4857,
    "Ġforetold": 23452,
    "Ġunrestrained": 25555,
    "hood": 2658,
    "onious": 15521,
    "sudden": 5316,
    "Ġtwisting": 18659,
    "Ġcream": 22721,
    "Ġimper": 4502,
    "Ġthoughtless": 16196,
    "hoist": 23716,
    "Ġreigns": 21674,
    "÷": 184,
    "Ġannounced": 9038,
    "Ġdetest": 8504,
    "Ġbar": 3145,
    "opÃ¦": 12877,
    "Ġalbatross": 10873,
    "inno": 10758,
    "Ġadoption": 24951,
    "Ġpit": 3423,
    "impatience": 25501,
    "Ġemph": 14526,
    "tossed": 10999,
    "Ġpartly": 6715,
    "Ġsummoned": 9914,
    "Ġcem": 17825,
    "Ġpredict": 665,
    "really": 6972,
    "Ġfields": 2145,
    "Ġappear": 2480,
    "Ġcrowned": 16843,
    "Ġinclud": 1511,
    "Ġhealthy": 10853,
    "calcul": 12991,
    "illation": 14144,
    "Ġmarvelled": 18875,
    "Ġpowers": 5419,
    "Ġbounty": 26439,
    "Ġbefallen": 12347,
    "Ġsog": 22088,
    "Ġbouton": 17870,
    "remem": 13071,
    "enth": 6682,
    "Ġfancying": 12117,
    "pig": 8756,
    "Ġforwarded": 19044,
    "Ġdespised": 14668,
    "Ġlose": 5028,
    "bb": 2797,
    "erpillar": 5798,
    "Ġbecoming": 4399,
    "accountable": 7111,
    "Ġcapstan": 9103,
    "Ġpleases": 16302,
    "horror": 13162,
    "Ġscreening": 25301,
    "simp": 17667,
    "Ġtwisted": 7229,
    ",--": 2473,
    "Ġantiqu": 12149,
    "Ġcott": 3713,
    "Ġdissuade": 26258,
    "Ġambergris": 8709,
    "Ġantichronical": 26611,
    "Ġplaced": 3446,
    "Ġfiss": 21415,
    "Ġgeneva": 5450,
    "Ġinvited": 6903,
    "puted": 8850,
    "perseus": 26006,
    "Ġascertained": 25297,
    "Ġrotterdam": 25476,
    "brow": 15319,
    "objections": 19918,
    "underneath": 23791,
    "Ġproclaim": 18134,
    "interval": 7991,
    "Ġfreshly": 23993,
    "consequ": 18507,
    "Ġhesitated": 10005,
    "Ġdisappears": 18561,
    "boone": 23256,
    "brows": 17499,
    "Ġgore": 17991,
    "Ġdepartments": 24245,
    "beaten": 20318,
    "Ġworked": 6582,
    "owards": 4595,
    "Ġingolstadt": 8333,
    "acceptance": 25185,
    "guessed": 25873,
    "hing": 981,
    "ince": 4341,
    "Ġcoat": 4554,
    "Ġpubl": 3942,
    "Ġfem": 6136,
    "dued": 7909,
    "ė": 216,
    "akin": 11771,
    "ru": 481,
    "pane": 10123,
    "Ġbaling": 17861,
    "Ġpartaking": 22700,
    "Ġfinishing": 23127,
    "Ġwantonly": 22897,
    "Ġconsternation": 9862,
    "Ġstings": 21738,
    "lesome": 12969,
    "Ġpenalties": 10413,
    "Ġline": 1852,
    "turbable": 24531,
    "ibbald": 18849,
    "elev": 12463,
    "Ġsunrise": 9377,
    "bears": 22494,
    "Ġworst": 7445,
    "Ġannouncing": 16756,
    "Ġwoven": 9929,
    "Ġsociable": 19407,
    "pression": 10409,
    "Ġmason": 10160,
    "ca": 20795,
    "bur": 4688,
    "stumps": 21662,
    "Ġquenched": 22421,
    "Ġmeat": 8152,
    "ek": 1912,
    "Ġcanterbury": 22172,
    "stealthily": 23965,
    "Ġconfronted": 23310,
    "Ġattentive": 9037,
    "Ġpainted": 7979,
    "announce": 24561,
    "shining": 18495,
    "Ă": 195,
    "dozen": 23381,
    "Ġpratt": 23221,
    "Ġ71": 24262,
    "Ġdint": 15595,
    "Ġtusks": 17256,
    "Ġadvancing": 6879,
    "Ġunforeseen": 22055,
    "Ġpainting": 13144,
    "Ġpositional": 2596,
    "devils": 20036,
    "Ġuneasy": 8665,
    "Ġforesight": 13130,
    "sequ": 2398,
    "Ġsensible": 4976,
    "pped": 1999,
    "regards": 23468,
    "slouched": 24557,
    "Ġlouis": 8358,
    "advantage": 8662,
    "octavo": 11387,
    "Ġmines": 21311,
    "Ġcrad": 21352,
    "Ġdrowsy": 26446,
    "Ġbrine": 18771,
    "Ġgathered": 8444,
    "Ġlegitimate": 20644,
    "ceiling": 21630,
    "Ġdisease": 14260,
    "Ġfeeling": 3082,
    "Ġpur": 2220,
    "Ġevian": 24294,
    "Ġdomes": 23672,
    "Ġshaft": 18230,
    "prob": 7071,
    "isles": 15568,
    "Ġhartshorn": 26182,
    "amplified": 26496,
    "Ġcarelessly": 11122,
    "Ġretained": 7175,
    "mistak": 16880,
    "kept": 11721,
    "Ġcommanded": 6332,
    "renewed": 19707,
    "Ġfoe": 7681,
    "Ġoverboard": 6045,
    "Ġsurround": 4618,
    ".âĢĻ": 1719,
    "Ġsub": 949,
    "cannib": 11907,
    "Ġbald": 16209,
    "innocent": 20289,
    "racing": 21634,
    "emed": 3382,
    "seemed": 4306,
    "silenced": 24423,
    "warm": 8102,
    "ream": 2706,
    "Ġconsum": 9802,
    "Ġsporty": 19892,
    "Ġsecondly": 14518,
    "Ġnational": 13944,
    "fishing": 20861,
    "atmospheric": 17778,
    "confirmation": 26090,
    "Ġdoze": 14177,
    "Ġindividual": 5744,
    "affold": 16564,
    "Ġape": 21199,
    "contempt": 13193,
    "hurt": 19880,
    "Ġfreshness": 23994,
    "Ġsaf": 4002,
    "Ġomnipotent": 13551,
    "parsee": 14508,
    "4": 24,
    "Ġfronted": 23260,
    "beh": 5472,
    "that": 850,
    "Ġbrut": 18770,
    "Ġaudacious": 13463,
    "except": 5383,
    "apolog": 22336,
    "Ġdew": 14045,
    "Ġsteepest": 3086,
    "vill": 10737,
    "spoken": 11864,
    "sleeping": 13457,
    "Ġgull": 15674,
    "ousness": 10277,
    "lic": 17589,
    "Ġsuggestive": 11299,
    "Ġharrow": 17928,
    "Ġforbidding": 17080,
    "Ġnail": 9199,
    "inquiry": 15146,
    "pest": 6965,
    "Ġceler": 15555,
    "Ġcandelabra": 26604,
    "Ġchocks": 13349,
    "Ġliable": 14231,
    "Ġescorted": 23508,
    "Ġuses": 1209,
    "ĠĠĠĠĠĠĠĠĠĠĠĠĠĠĠĠĠĠĠĠĠĠĠĠĠĠĠĠĠĠĠĠĠĠĠĠĠĠĠĠĠĠĠĠĠĠĠĠĠ": 20041,
    "Ġfree": 3377,
    "Ġspitzbergen": 15291,
    "beating": 22493,
    "monster": 8596,
    "sure": 5522,
    "Ġundivided": 24122,
    "Ġcareless": 11121,
    "ling": 735,
    "new": 1465,
    "Ġautonom": 10414,
    "Ġblasp": 14403,
    "long": 2912,
    "Ġemerged": 8688,
    "event": 8077,
    "Ġtolerable": 6949,
    "conceal": 25117,
    "Ġboards": 14303,
    "Ġsequentially": 4915,
    "ocity": 8278,
    "Ġtug": 11553,
    "Ġbuttons": 12786,
    "Ġmemorable": 16449,
    "Ġlandau": 16423,
    "Ġch": 512,
    "Ġtrophy": 20010,
    "Ġwedged": 24936,
    "¢": 100,
    "mantel": 26396,
    "Ġoccur": 1082,
    "Ġscud": 14193,
    "Ġzodiac": 16178,
    "Ġscraggy": 24580,
    "embraces": 25806,
    "Ġstrongly": 5657,
    "Ġpresumably": 19627,
    "Ġmasters": 11578,
    "application": 12368,
    "Ġserve": 9372,
    "agre": 18167,
    "Ġpains": 5966,
    "itaries": 21339,
    "Ġstur": 15721,
    "Ġor": 437,
    "Ġfinds": 6301,
    "Ġflor": 8565,
    "ur": 326,
    "Ġdull": 6384,
    "overing": 6308,
    "copyright": 5278,
    "sledge": 21060,
    "mentioning": 24886,
    "Ġwhe": 439,
    "Ġescape": 2646,
    "Ġpotent": 12068,
    "Ġretire": 10384,
    "Ā": 193,
    "Ġarchbishop": 18723,
    "Ġforces": 12707,
    "Ġ26": 10472,
    "harpoon": 9494,
    "occurred": 13341,
    "Ġreappeared": 21668,
    "roylott": 20030,
    "whar": 15931,
    "Ġwat": 1289,
    "Ġtranscend": 25668,
    "Ġmocking": 24009,
    "weight": 2939,
    "Ġkeel": 6444,
    "Ġboats": 2634,
    "Ġchristianity": 19863,
    "Ġsyntax": 957,
    "falsehood": 25902,
    "Ġpossibilities": 18976,
    "Ġevent": 2949,
    "ibilities": 13016,
    "Ġdaily": 5988,
    "Ġtransitory": 16022,
    "fashioned": 9573,
    "mysterious": 26052,
    "professor": 17252,
    "Ġknitting": 24221,
    "Ġinsincere": 26601,
    "Ġswayed": 15050,
    "Ġquivering": 12863,
    "remember": 7263,
    "hearth": 15502,
    "occur": 19578,
    "surrounded": 26089,
    "mention": 7215,
    "rossed": 11015,
    "Ġwhim": 14001,
    "Ġlive": 2731,
    "Ġencoding": 4776,
    "Ġstubbornness": 25380,
    "Ġbeckoning": 20505,
    "Ġeffect": 968,
    "Ġfumbling": 21420,
    "no": 895,
    "constantly": 24607,
    "Ġwaxed": 21300,
    "formity": 10281,
    "Ġessential": 7524,
    "esy": 9186,
    "Ġbreed": 19075,
    "Ġbehaviour": 4386,
    "Ġnich": 21523,
    "Ġtertiary": 15298,
    "otic": 15749,
    "luent": 16000,
    "Ġclink": 22362,
    "Ġsecluded": 11997,
    "Ġamazing": 9980,
    "Ġcrumpled": 16441,
    "z": 94,
    "Ġdidst": 11853,
    "ivities": 22081,
    "Ġsweeping": 8988,
    "Ġfill": 5701,
    "ermost": 7431,
    "Ġwhitt": 18057,
    "Ġjeopard": 9946,
    "Ġflies": 13029,
    "Ġcountless": 16387,
    "Ġhob": 12634,
    "Ġcivilly": 19606,
    "possesses": 24617,
    "ror": 7352,
    "Ġmeanings": 18609,
    "Ġtoll": 7852,
    "aciously": 12901,
    "Ġorder": 1685,
    "unders": 13314,
    "mas": 5212,
    "waistcoat": 17364,
    "thrown": 8483,
    "Ġhelp": 1641,
    "hunter": 10558,
    "oided": 11511,
    "Ġspr": 4025,
    "Ġkeeping": 7284,
    "Ġpyramid": 8806,
    "presented": 12994,
    "Ġrobert": 10972,
    "Ī": 235,
    "romised": 14115,
    "Ġottoman": 17381,
    "Ġhappy": 2463,
    "pier": 17637,
    "Ġinfants": 16394,
    "Ġtoller": 9095,
    "Ġsands": 14950,
    "Ġdescend": 7428,
    "elephant": 12356,
    "Ġdenominated": 15232,
    "Ġ(`": 12858,
    "Ġglim": 9348,
    "vine": 10736,
    "typewritten": 26039,
    "inde": 17733,
    "Ġcorrid": 9827,
    "Ġmingled": 12381,
    "Ġbel": 1216,
    "bree": 15318,
    "Ġlegisl": 23536,
    "contrary": 23731,
    "Ġalarming": 14783,
    "Ġreefed": 20305,
    "Ġ104": 24412,
    "Ġgravesend": 15220,
    "Ġdespond": 14669,
    "Ġdormouse": 4926,
    "Ġprem": 3429,
    "Ġ58": 24322,
    "progression": 20385,
    "Ġtahit": 10756,
    "alk": 1152,
    "Ġyoun": 1407,
    "fur": 6357,
    "Ġornam": 15868,
    "Ġdiscrimin": 2544,
    "arded": 5029,
    "Ġcelebrate": 26359,
    "Ġsnugness": 20080,
    "kick": 20938,
    "Ġbapt": 13898,
    "Ġaven": 10761,
    "Ġinterpretation": 19719,
    "sorrow": 12513,
    "Ġlingering": 11381,
    "trunk": 23951,
    "Ġdepths": 4328,
    "Ġcultivation": 17148,
    "dep": 6787,
    "Ġregrets": 18600,
    "Ġnailed": 10192,
    "another": 5439,
    "Ġrepulsive": 14531,
    "land": 1532,
    "Ġpoised": 22594,
    "ise": 707,
    "Ġspoils": 24805,
    "lestrade": 9659,
    "measure": 10034,
    "Ġpenetrated": 13475,
    "Ġstiffest": 24827,
    "Ġpractises": 23331,
    "Ġinflex": 20640,
    "Ġtemptation": 8681,
    "Ġ31": 12135,
    "pond": 21015,
    "account": 5330,
    "squ": 7809,
    "Ġsmoothed": 23658,
    "Ė": 215,
    "Ġamiss": 18512,
    "Ġcomment": 9236,
    "Ġviolation": 23408,
    "Ġabomination": 22282,
    "etymology": 14703,
    "Ġpreluding": 18369,
    "Ġundoubtedly": 8313,
    "oh": 1572,
    "Ġpreparation": 13531,
    "Ġintruder": 25992,
    "elzebub": 26466,
    "Ġrespective": 16347,
    "Ġdaint": 15597,
    "Ġprovidence": 18747,
    "Ġedd": 8398,
    "crippled": 26386,
    "Ġnug": 21528,
    "hearse": 17750,
    "Ġrepugnance": 19088,
    "Ġfid": 10805,
    "Ġfigured": 16646,
    "bit": 3933,
    "Ġwitness": 4622,
    "Ġcolour": 4462,
    "creator": 26383,
    "cy": 642,
    "quarter": 11390,
    "H": 44,
    "wet": 15455,
    "erred": 7150,
    "ouble": 2660,
    "honour": 13470,
    "Ġmystical": 12137,
    "Ġson": 2980,
    "Ġtwist": 11855,
    "down": 3470,
    "being": 3914,
    "Ġflourishing": 25188,
    "Ġbulls": 23861,
    "Ġfine": 1318,
    "Ġcontrols": 1731,
    "emason": 18189,
    "thinks": 16644,
    "Ġannihilation": 15169,
    "result": 12047,
    "twelve": 14623,
    "Ġlies": 5297,
    "Ġwig": 9165,
    "hullo": 17572,
    "Ġintrusion": 12770,
    "Ġrecess": 10849,
    "uzza": 11272,
    "Ġdistricts": 20266,
    "Ġpun": 4588,
    "loa": 18534,
    "Ġcolleg": 22859,
    "Ġmanufactured": 22334,
    "Ġpassers": 18758,
    "Ġmercy": 9001,
    "Ġexponential": 1059,
    "kovoko": 20672,
    "Ġapprehensions": 13407,
    "Ġminutes": 2998,
    "frock": 20124,
    "kempt": 20943,
    "Ġrenegades": 26478,
    "Ġ179": 19757,
    "inexplicable": 25810,
    "desol": 13221,
    "aster": 1869,
    "Ġcontrived": 10306,
    "Ġswearing": 16467,
    "Ġsuperglue": 23458,
    "destro": 13313,
    "Ġsignal": 5946,
    "speeches": 25240,
    "Ġatone": 15806,
    "Ġarrows": 18337,
    "silent": 9977,
    "Ġnegatived": 23051,
    "Ġpaddock": 25040,
    "ulus": 21868,
    "Ġmutilated": 23962,
    "surprised": 9534,
    "famous": 16918,
    "aping": 8194,
    "Ġcastles": 16642,
    "Ġconsisting": 8974,
    "Ġalps": 10872,
    "Ġgown": 10204,
    "Ġfading": 15588,
    "Ġgentleness": 8713,
    "04": 10682,
    "Ġcauldron": 25442,
    "Ġvehic": 8936,
    "Ġastronomy": 25927,
    "Ġpunctual": 17140,
    "glad": 9011,
    "occasionally": 13523,
    "Ġoarsman": 8641,
    "Ġcommunity": 19014,
    "Ĕ": 213,
    "Ġwin": 9644,
    "Ġalph": 9698,
    "Ġsystems": 823,
    "Ġzero": 1202,
    "Ġdiscriminator": 3394,
    "knew": 9130,
    "Ġsaving": 15891,
    "Ġboat": 1277,
    "Ġbodies": 8032,
    "Ġclearness": 23186,
    "Ġeveryday": 22775,
    "Ġtearing": 14399,
    "Ġdrag": 6186,
    "Ġhoops": 9393,
    "Ġdoll": 10815,
    "dually": 3284,
    "iences": 6957,
    "Ġdied": 4111,
    "Ġforge": 8458,
    "Ġzeal": 9102,
    "foreseen": 14256,
    "Ġstump": 7604,
    "Ġtrampling": 25493,
    "Ġprecautions": 23729,
    "lamps": 25261,
    "Ġinflu": 4910,
    "drew": 7335,
    "Ġpolynes": 16086,
    "aph": 10956,
    "isure": 6242,
    "nowled": 5470,
    "Ġauxiliary": 26420,
    "entitled": 21571,
    "curiosity": 8627,
    "Ġrh": 9248,
    "tain": 558,
    "Ġgame": 3633,
    "Ġbeast": 7181,
    "Ġvinegar": 20103,
    "Ġuniversity": 13125,
    "Ġlifted": 6986,
    "Ġmisty": 16542,
    "Ġmatrix": 1600,
    "Ġcorrectly": 9408,
    "Ġimplies": 24874,
    "ulent": 21866,
    "delight": 5345,
    "Ġinsol": 10183,
    "Ġcred": 8785,
    "Ġhardihood": 23115,
    "ogue": 9789,
    "scornful": 26577,
    "Ġlayer": 1011,
    "whatsoever": 18490,
    "Ġcosmopolitan": 20643,
    "leness": 4692,
    "Ġaside": 5234,
    "classification": 4389,
    "Ġshaping": 22007,
    "whiskers": 12315,
    "Ġsuspected": 9066,
    "est": 497,
    "ghan": 19459,
    "Ġcarved": 7947,
    "overs": 17623,
    "Ġinterest": 2251,
    "Ġcoding": 8116,
    "ically": 848,
    "Ġroutine": 13510,
    "Ġtossings": 25357,
    "Ġreceiving": 4883,
    "Ġoutput": 929,
    "Ġcultivated": 17367,
    "Ġexpense": 7653,
    "abouts": 9456,
    "Ġjacob": 1904,
    "Ġspake": 18309,
    "Ġsymmetry": 20369,
    "relu": 17761,
    "Ġdiscussed": 19562,
    "idents": 6152,
    "Ġempty": 5354,
    "back": 2017,
    "rat": 8759,
    "contriv": 19295,
    "gre": 5788,
    "ks": 3143,
    "Ġnephews": 24713,
    "charge": 9452,
    "Ġmate": 3712,
    "girdling": 26391,
    "vely": 3868,
    "Ġgraphs": 25464,
    "Ġguar": 23049,
    "Ġcrest": 12947,
    "Ġvale": 14085,
    "Ġdesires": 9462,
    "nt": 921,
    "Ġclinging": 10295,
    "imagine": 19934,
    "elaborate": 21579,
    "opard": 9295,
    "fre": 5425,
    "Ġchall": 10946,
    "Ġepit": 18009,
    "ruction": 4359,
    "neighb": 16027,
    "Ġspy": 22127,
    "Ġclanging": 18430,
    "putation": 7626,
    "Ġentertained": 10001,
    "high": 6652,
    "Ġunprovided": 18261,
    "Ġguido": 2974,
    "Ġnursing": 12219,
    "Ġbarbarians": 19590,
    "rebell": 17765,
    "deduction": 23670,
    "Ġplutarch": 22608,
    "ollion": 19718,
    "Ġexclusion": 19399,
    "Ġmurmur": 14590,
    "Ġcumberland": 21358,
    "anders": 18155,
    "Ġlearn": 364,
    "mission": 5971,
    "Ġinitial": 821,
    "acled": 16067,
    "kin": 7133,
    "offended": 16402,
    "Ġhatter": 4112,
    "Ġavenues": 25430,
    "Ġflorida": 20661,
    "antique": 18288,
    "Ġupper": 5090,
    "zz": 4295,
    "inkers": 22618,
    "Ġadmir": 12026,
    "does": 6196,
    "prudently": 21037,
    "endous": 6850,
    "Ġ1846": 26085,
    "Ġspots": 11733,
    "Ġfluid": 11214,
    "10": 17475,
    "Ġrand": 1578,
    "Ġdespairing": 14775,
    "Ġcertain": 1555,
    "Ġdisobedience": 22539,
    "answ": 15888,
    "Ġgallon": 24187,
    "spe": 3564,
    "Ġturbulence": 26599,
    "Ġspout": 3283,
    "Ġlonged": 6436,
    "Ġitaly": 10869,
    "Ġcatastrophic": 3546,
    "elag": 12663,
    "Ġgerm": 13966,
    "Ġcomplain": 6687,
    "azore": 23464,
    "Ġbark": 10800,
    "Ġconsumed": 10352,
    "Ġach": 2618,
    "Ġthreading": 23405,
    "Ġgloomy": 7505,
    "Ġthee": 2620,
    "Ġfortun": 4982,
    "roc": 9677,
    "Ġharbors": 24902,
    "Ġplaid": 22605,
    "fitting": 1509,
    "Ġundertake": 14482,
    "ode": 1453,
    "unt": 2044,
    "Ġstraining": 11329,
    "Ġgently": 7173,
    "Ġcraggy": 23531,
    "Ġmajority": 13296,
    "Ġdotted": 16794,
    "dropped": 12267,
    "Ġdevelopments": 23250,
    "Ġrafters": 22654,
    "cursed": 23847,
    "##": 2316,
    "Ġcheerfulness": 10519,
    "middle": 11312,
    "Ġchaos": 17011,
    "Ġcrosswise": 18887,
    "ispens": 8336,
    "tically": 3395,
    "Ġsuccessive": 10503,
    "unte": 21877,
    "Ġrevived": 11370,
    "Ġletting": 10364,
    "exhibited": 18478,
    "iday": 8834,
    "Ġneedless": 19231,
    "billiard": 25335,
    "Ġsagacity": 16976,
    "ssed": 3738,
    "assumed": 22312,
    "umes": 10919,
    "gratulation": 24349,
    "Ġunique": 12783,
    "uns": 21874,
    "re": 266,
    "comb": 11036,
    "Ġsouthwards": 19636,
    "Ġniece": 5712,
    "Ġpostp": 12148,
    "small": 6472,
    "Ġink": 8807,
    "avish": 22600,
    "stooped": 23825,
    "Ġnote": 4264,
    "Ġcatholic": 20684,
    "Ġfund": 2842,
    "worn": 13808,
    "piteous": 21036,
    "ĠâĢľâĢĶ": 9737,
    "Ġfiercely": 12957,
    "othic": 16219,
    "Ġseem": 912,
    "intentions": 22942,
    "Ġbitterly": 8315,
    "Ġproble": 1108,
    "Ġbigot": 24566,
    "Ġsashes": 21228,
    "Ġdevious": 22726,
    "sax": 21059,
    "affa": 23779,
    "Ġgenerate": 1530,
    "Ġthreads": 13121,
    "ugl": 23290,
    "tle": 2405,
    "hester": 9634,
    "spout": 7923,
    "Ġbubbles": 11400,
    "Ġdisabled": 18562,
    "Ġplough": 18610,
    "Ġessex": 20130,
    "noted": 22748,
    "Ġpolished": 11184,
    "atives": 2238,
    "Ġrue": 11871,
    "Ġspices": 22134,
    "Ġmorphology": 3007,
    "Ġweal": 21924,
    "Ġthunders": 15642,
    "ingolstadt": 21306,
    "Ġunreasonable": 12782,
    "Ġinte": 2066,
    "Ġsciences": 15949,
    "ued": 7562,
    "Ġpresently": 5116,
    "executed": 25740,
    "Ġporpoises": 13385,
    "Ġconscientious": 16729,
    "Ġillum": 9404,
    "Ġconsid": 1816,
    "Ġtoward": 17949,
    "iling": 3091,
    "itated": 4441,
    "Ġcoff": 3510,
    "Ġillustrative": 25069,
    "fore": 686,
    "Ġvice": 6550,
    "bled": 5469,
    "Ġmerrily": 23734,
    "Ġundertone": 23242,
    "Ġhumped": 19772,
    "Ġvic": 5237,
    "vision": 5620,
    "Ġadvice": 4902,
    "uracy": 1079,
    "right": 2766,
    "Ġgene": 15676,
    "law": 6117,
    "Ġconqueror": 25797,
    "Ġhappier": 10362,
    "Ġsubordinate": 18722,
    "uncont": 15778,
    "Ġpupils": 20424,
    "Ġproposed": 7461,
    "considered": 9583,
    "Ġplaguy": 22609,
    "Ġbitten": 21393,
    "fast": 3069,
    "Ġobstetrics": 24679,
    "Ġcupidity": 24535,
    "Ġwonderland": 23427,
    "Ġhunsford": 6303,
    "Ġendowed": 18925,
    "Ġeverywhere": 9799,
    "igations": 18046,
    "Ġof": 298,
    "Ġicelandic": 25887,
    "umpled": 15880,
    "Ġnext": 2142,
    "Ġpreparing": 8651,
    "icorn": 15661,
    "Ġyards": 5371,
    "Ġrains": 24340,
    "achines": 1723,
    "mayhew": 23998,
    "eprints": 12796,
    "entreat": 17978,
    "incess": 15485,
    "Ġindependence": 12109,
    "Ġhelen": 16658,
    "Ġcorroborated": 26054,
    "Ġstow": 21734,
    "Ġnervously": 19186,
    "Ġapoplexy": 25266,
    "Ġwhiff": 21721,
    "despond": 19803,
    "Ġrepeatedly": 9025,
    "Ġterritories": 23849,
    "bable": 8722,
    "Ġmechanism": 2416,
    "Ġintens": 7004,
    "Ġheadache": 22901,
    "arab": 21444,
    "camp": 15333,
    "Ġmoses": 21318,
    "Ġinterpret": 5490,
    "Ġkeeps": 8267,
    "Î": 143,
    "Ġ221": 25071,
    "Ġspend": 5306,
    "Ġgladly": 14682,
    "quickly": 14964,
    "Ġcobb": 14278,
    "esley": 17904,
    "Ġtroubles": 19443,
    "shop": 14240,
    "Ġt": 261,
    "Ġflash": 8230,
    "Ġretain": 7863,
    "lynes": 15708,
    "Ġaddresses": 3772,
    "Ġmarlingspike": 26581,
    "thirty": 12767,
    "Ġgrandeur": 8631,
    "hole": 5586,
    "iven": 1236,
    "Ġwoll": 21296,
    "Ġwhalemen": 3913,
    "vative": 1615,
    "Ġrace": 5848,
    "Ġam": 660,
    "Ġfashionable": 19547,
    "thoughtfully": 24047,
    "lung": 17593,
    "Ġcorre": 3889,
    "Ġsensitivity": 3067,
    "Ġsubsc": 22790,
    "ception": 6564,
    "Ġwelcomed": 9485,
    "Ġmart": 10781,
    "Ġpertur": 12856,
    "inian": 21185,
    "Ġbrill": 8552,
    "Ġbehave": 23300,
    "oked": 4310,
    "Ġherd": 7888,
    "attoo": 6808,
    "obvious": 9361,
    "such": 3081,
    "Ġsurmis": 23465,
    "chooses": 23676,
    "Ġtolerably": 8068,
    "cest": 12449,
    "Ġreposing": 23364,
    "Ġalthough": 4151,
    "Ġinclination": 6626,
    "dl": 20825,
    "acters": 9313,
    "Ġplaus": 22604,
    "Ġseventeen": 26212,
    "Ġwarring": 16867,
    "Ġallude": 12776,
    "Ġpresenting": 18988,
    "Ġcompletely": 4861,
    "vint": 21117,
    "itic": 11581,
    "Ġpod": 15608,
    "Ġembracing": 14983,
    "Ġpure": 6139,
    "Ġinclu": 1099,
    "contrivance": 26317,
    "calculating": 25690,
    "Ġrescue": 13346,
    "ature": 522,
    "americ": 8156,
    "Ġestimates": 3752,
    "Ġmournfully": 20120,
    "Ġprovoked": 13329,
    "Ġwarden": 17227,
    "Ġsignification": 19204,
    "Ġtail": 3087,
    "Ġsituated": 9451,
    "Ġ----": 7146,
    "knife": 6942,
    "iable": 3337,
    "Ġdiana": 21439,
    "Ġfarthest": 23119,
    "Ġglued": 20592,
    "lingering": 18603,
    "ounding": 22396,
    "Ġpleasant": 4170,
    "Ġfettered": 24569,
    "Ġcomparable": 24281,
    "Ġintellectual": 11403,
    "Ġyellow": 5302,
    "Ġsnuffed": 15076,
    "Ġensued": 11396,
    "aste": 4602,
    "Ġequality": 16362,
    "sole": 6170,
    "tooth": 18581,
    "Ġhumility": 12989,
    "uded": 6288,
    "Ġconvenient": 8346,
    "Ġanticip": 7508,
    "Ġelse": 2476,
    "shortened": 24747,
    "Ġglories": 16244,
    "rate": 2420,
    "Ġright": 1504,
    "Ġshrouded": 14971,
    "Ġexactness": 23606,
    "Ġherself": 1563,
    "Ġnamely": 20692,
    "isle": 13894,
    "Ġnupt": 13945,
    "meantime": 9096,
    "Ġabsent": 7016,
    "features": 14809,
    "ens": 701,
    "retched": 3066,
    "Ġlife": 1352,
    "wind": 4253,
    "closed": 23155,
    "iam": 2507,
    "Ġdisguises": 25058,
    "figured": 20126,
    "Ġdishon": 12235,
    "ones": 2738,
    "Ġperturbation": 20444,
    "Ġcylinders": 25944,
    "aloft": 8811,
    "Ġalpine": 18108,
    "Ġsupplies": 20329,
    "Ġvanish": 8931,
    "Ġapprehending": 26092,
    "Ġerror": 1767,
    "Ġcoer": 22583,
    "Ġhint": 5016,
    "fthand": 26388,
    "contact": 23730,
    "Ġruined": 12959,
    "slave": 16897,
    "Ġsolve": 4197,
    "Ġlatitude": 8329,
    "oury": 22308,
    "Ġadagrad": 2902,
    "Ġmultitude": 9329,
    "prom": 6509,
    "Ġreddening": 25971,
    "superiority": 20188,
    "ipper": 13742,
    "Ġglistening": 12370,
    "Ġeve": 13972,
    "Ġheart": 1587,
    "Ġexpedition": 10636,
    "bitious": 16672,
    "idity": 8835,
    "Ġpurely": 12236,
    "mouse": 15396,
    "utes": 5915,
    "Ġrehearsed": 25972,
    "Ġvint": 18195,
    "Ġtearless": 24785,
    "Ġpreternatural": 12828,
    "already": 6981,
    "Ġturtle": 4204,
    "Ġgeneralization": 985,
    "Ġlungless": 24864,
    "Ġimplicate": 24877,
    "punctual": 26357,
    "Ġreports": 19086,
    "R": 54,
    "Ġbuoyant": 13534,
    "Ġsent": 1777,
    "izings": 14053,
    "pul": 8757,
    "colnett": 19332,
    "Ġmouthful": 16576,
    "Ġundu": 15841,
    "showing": 22465,
    "Ġimpart": 11784,
    "Ġsequential": 2135,
    "Ġdey": 11678,
    "repugnance": 16866,
    "Ġneutral": 12749,
    "Ġbagging": 24539,
    "Ġconsiderable": 4007,
    "Ġlend": 17965,
    "Ġcarpenters": 16754,
    "Ġadmires": 19688,
    "Ġeber": 18006,
    "Ġhurt": 7701,
    "Ġmeeting": 5193,
    "Ġbiting": 17863,
    "supper": 12928,
    "Ġsignifies": 19205,
    "animation": 16981,
    "prodigious": 17469,
    "Ġcertainty": 6736,
    "Ġcontradict": 12389,
    "Ġfeelings": 2451,
    "quered": 11060,
    "ress": 930,
    "Ġbanqu": 12593,
    "cul": 1905,
    "Ġlimped": 19183,
    "Ġbefriend": 18084,
    "Ġfiendish": 13331,
    "Ġoftener": 13568,
    "dor": 12456,
    "Ġpleasing": 6192,
    "Ġaf": 780,
    "stem": 574,
    "Ġindifference": 6728,
    "yards": 9626,
    "Ġfood": 5080,
    "Ġphenomenon": 17919,
    "Ġexisted": 15756,
    "Ġblight": 18819,
    "jets": 20930,
    "Ġsparing": 22133,
    "ateral": 19380,
    "izard": 10885,
    "Ġcheerless": 16695,
    "Ġxxxi": 24969,
    "Ġreside": 22543,
    "Ġinevitably": 17233,
    "Ġcounter": 6481,
    "Ġestimable": 23875,
    "Ġpublisher": 24070,
    "Ġquantity": 6948,
    "Ġequatorial": 13511,
    "orial": 8418,
    "Ġphyseter": 26588,
    "Ġsalted": 14758,
    "Ġparched": 11731,
    "Ġexpanded": 14293,
    "Ġkeeled": 18806,
    "itary": 4752,
    "Ġflooring": 23625,
    "Ġmedic": 11258,
    "round": 3370,
    "Ġscound": 12838,
    "rumours": 23924,
    "Ġprinces": 23224,
    "Ġprofund": 13156,
    "Ġ46": 19494,
    "Ġtransform": 748,
    "Ġinquirer": 24964,
    "Ġagreeable": 4552,
    "ezing": 10576,
    "Ġostentatious": 25737,
    "Ġwakeful": 24269,
    "iate": 6505,
    "Ġbott": 3146,
    "Ġlin": 10835,
    "Ġworried": 22929,
    "uits": 21107,
    "Ġrough": 7188,
    "Ġdepressed": 10884,
    "Ġwished": 3733,
    "Ġinterior": 8899,
    "Ġimperson": 14220,
    "Ġpsych": 10179,
    "ster": 1955,
    "Ġfoot": 3159,
    "Ġinitialized": 3950,
    "Ġsprout": 24092,
    "Ġmartin": 25437,
    "Ġmail": 17802,
    "acknowledged": 15206,
    "ason": 1248,
    "Ġwinged": 16997,
    "Ġhailing": 11697,
    "old": 798,
    "Ġbursting": 8659,
    "Ġrode": 16002,
    "forget": 11034,
    "Ġwindow": 2995,
    "Ġdip": 13909,
    "respectable": 19849,
    "Ġsnaky": 23744,
    "Ġremarkable": 4916,
    "ounts": 4652,
    "Ġfastening": 16360,
    "Ġirregular": 9868,
    "amouch": 21849,
    "Ġdeliberation": 19972,
    "Ġoverjoyed": 17461,
    "Ġcorrect": 2429,
    "Ġmoon": 4609,
    "Ġutility": 23515,
    "Ġrestrain": 8966,
    "igan": 21702,
    "Ġextend": 18682,
    "Ġmind": 1616,
    "near": 5843,
    "mod": 1071,
    "Ġemperor": 15162,
    "tempered": 13449,
    "anch": 15564,
    "Ġyounge": 16291,
    "Ġilluminated": 20178,
    "Ġjunk": 15957,
    "G": 43,
    "Ġroom": 1462,
    "unnatural": 15777,
    "Ġmid": 2613,
    "knows": 19174,
    "Ġnumerical": 4246,
    "Ġdent": 13908,
    "Ġvii": 13112,
    "Ġrelieve": 8224,
    "Ġyojo": 7612,
    "Ġmodels": 760,
    "Ġcorpor": 23044,
    "ancies": 11587,
    "allions": 22202,
    "rying": 3183,
    "Ġofficio": 23819,
    "dist": 4481,
    "Ġheavier": 13105,
    "shire": 3020,
    "Ġoutdone": 22322,
    "Ġtattoo": 7360,
    "Ġcorpusants": 13680,
    "deal": 12804,
    "Ġfrigate": 13085,
    "vocation": 25087,
    "examine": 25478,
    "Ġhoist": 11981,
    "rences": 9276,
    "orus": 10803,
    "Ġbeards": 21755,
    "Ġreligion": 11417,
    "Ġtumb": 21172,
    "Ġunattended": 15847,
    "P": 52,
    "Ġinformed": 6719,
    "Ġapologized": 25199,
    "Ġfavourable": 7959,
    "Ġappals": 22226,
    "Ġmould": 6519,
    "frozen": 25142,
    "Ġexercised": 24800,
    "Ġtoday": 12648,
    "Ġintermix": 25827,
    "Ġrefer": 18707,
    "Ġcarry": 4780,
    "press": 1730,
    "Ġdelicate": 6480,
    "Ġincl": 4272,
    "Ġspeeding": 23566,
    "Ġuninter": 18247,
    "Ġdramatic": 4852,
    "Ġlimb": 9406,
    "Ġnoteworthy": 24164,
    "Ġbath": 9661,
    "Ġtestimony": 14469,
    "requ": 7149,
    "Ġsustaining": 25334,
    "Ġchisel": 20371,
    "Ġpatriot": 23302,
    "Ġlow": 1648,
    "Ġstandard": 14499,
    "Ġexcitement": 9385,
    "reception": 15517,
    "moil": 22708,
    "conf": 4957,
    "dreams": 12341,
    "Ġeliza": 6437,
    "asmuch": 10197,
    "Ġunreason": 15846,
    "perquisites": 26533,
    "Ġsherlock": 3894,
    "Ġ18": 3409,
    "Ġnose": 4404,
    "attery": 18485,
    "became": 10517,
    "Ġbasics": 13451,
    "Ġsque": 18757,
    "ioning": 21512,
    "hast": 5358,
    "itals": 17822,
    "lotts": 23829,
    "Ġdisposed": 7085,
    "scra": 13026,
    "proposal": 18763,
    "kered": 18275,
    "Ġarduous": 26531,
    "waiter": 24587,
    "isite": 15567,
    "methodically": 20666,
    "Ġexpansion": 22629,
    "Ġdrags": 16943,
    "Ġhypocritical": 20740,
    "Ġxxxii": 24973,
    "Ġmatted": 22914,
    "rin": 10124,
    "Ġtribute": 15478,
    "initely": 7569,
    "traversed": 19650,
    "Ġattitude": 8907,
    "Ġincredible": 9518,
    "Ġnewspapers": 17189,
    "hounds": 20909,
    "itia": 11582,
    "Ġprejudice": 9079,
    "Ġspace": 1486,
    "Ġcannot": 1666,
    "admit": 18093,
    "fairly": 17222,
    "Ġuttermost": 19491,
    "Ġcolumbus": 26566,
    "Ġblemish": 19682,
    "Ġswings": 11089,
    "Ġconceits": 19393,
    "object": 6884,
    "Ġcorpore": 13404,
    "Ġsome": 655,
    "Ġgeological": 14534,
    "elope": 14471,
    "mond": 20976,
    "cheerful": 13578,
    "Ġtext": 2269,
    "Ġgovernesses": 25130,
    "Ġobstructed": 24678,
    "enchant": 21286,
    "Ġchivalry": 25819,
    "mont": 19171,
    "landlord": 9843,
    "ernity": 18616,
    "Ġmusk": 7495,
    "twain": 23703,
    "Ġwallowing": 24046,
    "Ġhats": 14620,
    "Ġlessons": 7692,
    "su": 812,
    "Ġinvisible": 7328,
    "Ġenduring": 16306,
    "Ġdisplays": 19859,
    "Ġcobbler": 25831,
    "Ġlandsmen": 11353,
    "bank": 10082,
    "Ġunflinching": 26514,
    "Ġsummons": 13236,
    "Ġroll": 5381,
    "mic": 12493,
    "Ġfounded": 8561,
    "Ġdaft": 19666,
    "Ġstaving": 21741,
    "Ġlengthened": 25959,
    "Ġwra": 5907,
    "piled": 21017,
    "Ġfossil": 12391,
    "neural": 3064,
    "arter": 17895,
    "Ġgiddy": 20500,
    "Ġpursuing": 9442,
    "Ġmagistrate": 8234,
    "actory": 8911,
    "Ġepistle": 24905,
    "single": 10129,
    "Ġproxim": 3198,
    "lingly": 9776,
    "Ġgaping": 13971,
    "appeared": 4284,
    "raved": 18015,
    "Ġcurt": 18835,
    "Ġendeavor": 16547,
    "olstadt": 7789,
    "Ġsavor": 23878,
    "uned": 21875,
    "Ġabsorbed": 12335,
    "¤": 102,
    "olets": 21010,
    "wrapped": 15213,
    "Ġtrifle": 10604,
    "Ġreminds": 13434,
    "Ġgrievances": 20650,
    "Ġpals": 13920,
    "Ġbowditch": 19325,
    "Ġblasted": 7937,
    "hint": 12480,
    "Ġidly": 16408,
    "ie": 729,
    "rocket": 13946,
    "Ġsunshine": 14497,
    "ineff": 21984,
    "Ġinexpressible": 17336,
    "Ġelusive": 22647,
    "Ġbeliefs": 24583,
    "Ġsheep": 10928,
    "mole": 22706,
    "Ġkitchen": 8498,
    "Ġunreserved": 19400,
    "Ġmeridian": 25713,
    "Ġwhisky": 23937,
    "happily": 14658,
    "Ġsubstituting": 26328,
    "Ġparis": 8179,
    "Ġdescending": 8906,
    "Ġembarr": 7447,
    "vigorous": 25918,
    "sometimes": 5973,
    "punishment": 15149,
    "Ġill": 2197,
    "clings": 23153,
    "imprudence": 16559,
    "Ġclergy": 7644,
    "jammed": 25907,
    "Ġrecorded": 11295,
    "ately": 1700,
    "Ġchamounix": 14866,
    "Ġcreditors": 20133,
    "Ġexpressly": 16455,
    "Ġresource": 10995,
    "have": 2059,
    "Ġaccord": 4026,
    "Ġ101": 24409,
    "Ġthickets": 24029,
    "stuff": 15692,
    "scuttle": 11914,
    "urously": 18053,
    "iliating": 12700,
    "Ġfearless": 9878,
    "philips": 20038,
    "Ġmutinous": 23961,
    "Ġstalls": 25648,
    "Ġdubious": 17386,
    "Ġimplicated": 24876,
    "Ġremoval": 12122,
    "Ġpopular": 6218,
    "Ġfagged": 17884,
    "indifference": 15986,
    "misfortunes": 16758,
    "probably": 10023,
    "eyeing": 14948,
    "south": 8762,
    "hearted": 6971,
    "block": 11472,
    "Ġuncommonly": 7760,
    "ilight": 12698,
    "Ġverdict": 13478,
    "forks": 26389,
    "Ġgrated": 22809,
    "gentle": 5357,
    "ening": 3103,
    "Ġhire": 21488,
    "wolf": 26411,
    "phil": 7925,
    "falling": 24361,
    "Ġspaulding": 11735,
    "Ġferocity": 16868,
    "cannibal": 15228,
    "rix": 1569,
    "disputed": 23502,
    "Ġabstained": 25232,
    "amongst": 24673,
    "marriage": 7745,
    "Ġstraps": 19312,
    "Ġassid": 18947,
    "Ġhoping": 11106,
    "Ġunde": 11716,
    "Ġdie": 3963,
    "Ġkept": 3349,
    "Ġadmon": 15872,
    "Ġkicking": 16903,
    "colour": 9906,
    "Ġvertebra": 20184,
    "fier": 9596,
    "okers": 18442,
    "Ġsacred": 10932,
    "Ġnat": 12650,
    "Ġaval": 15496,
    "Ġinexorable": 12260,
    "Ġdiffer": 18677,
    "hic": 3248,
    "Ġapologies": 25197,
    "Ġhesitate": 16948,
    "ortions": 10950,
    "fearfully": 25119,
    "jointed": 24016,
    "Ġrem": 954,
    "note": 14343,
    "doesn": 19823,
    "Ġby": 383,
    "Ġtin": 15466,
    "anted": 5027,
    "itance": 13870,
    "Ġscuttle": 7415,
    "Ġromans": 16761,
    "disreputable": 23505,
    "Ġmakest": 25436,
    "Ġstrained": 10221,
    "thus": 5158,
    "Ġbeh": 1802,
    "Ġclutches": 20021,
    "icacy": 15662,
    "Ġrecomm": 4996,
    "Ġramble": 9317,
    "Ġstoke": 10398,
    "Ġslide": 10396,
    "istered": 14147,
    "intern": 23738,
    "Ġtrained": 8505,
    "Ġchuckled": 10650,
    "Ġinstantaneously": 23659,
    "Ġstared": 8456,
    "ify": 1499,
    "avo": 8522,
    "oug": 431,
    "aded": 3553,
    "prick": 19346,
    "mathemat": 19139,
    "rowed": 22864,
    "akness": 14197,
    "Ġpupp": 10822,
    "Ġxiv": 23410,
    "Ġdocile": 19962,
    "century": 20050,
    "Ġgazette": 19504,
    "Ġmountainous": 16601,
    "Ġsinners": 18952,
    "shoulder": 16586,
    "Ġbrimming": 22868,
    "beholding": 16045,
    "Ġdenny": 9004,
    "Ġfee": 7200,
    "is": 280,
    "Ġahead": 6665,
    "Ġclutch": 15056,
    "Ġexpressed": 4468,
    "Ġinterlude": 16077,
    "tot": 10730,
    "ogene": 18679,
    "Ġhorr": 3189,
    "Ġrevolving": 9986,
    "Ġexponentially": 1444,
    "free": 8739,
    "Ġsocieties": 20185,
    "plumed": 21965,
    "doubted": 17528,
    "Ġdictionaries": 12344,
    "Ġpredomin": 16039,
    "Ġterr": 3272,
    "Ġfrigates": 25707,
    "Ġnewfound": 22935,
    "Ġintercepted": 25828,
    "Ġlizard": 12659,
    "Ġpersuas": 23950,
    "Ġsavann": 14685,
    "Ġtracing": 18891,
    "Ġexcited": 5580,
    "carpet": 25203,
    "Ġscanning": 18401,
    "achable": 14140,
    "yramid": 8368,
    "Ġrender": 8305,
    "inaw": 21186,
    "Ġusual": 3945,
    "Ġdisagreeable": 9302,
    "Ġ133": 24782,
    "six": 7143,
    "Ġspecies": 5112,
    "Ġelevating": 19732,
    "Ġmeetings": 16534,
    "inion": 2874,
    "uendoes": 26409,
    "ippers": 17578,
    "Ġcheered": 16370,
    "Ġempires": 19077,
    "Ġbre": 1919,
    "Ġplaster": 16087,
    "Ġupbraided": 26530,
    "Ġidiot": 11976,
    "esteemed": 26010,
    "im": 327,
    "Ġsink": 4342,
    "anely": 17838,
    "Ġprodigies": 19796,
    "Ġchain": 1845,
    "Ġsuckling": 25998,
    "Ġwidows": 24239,
    "ile": 520,
    "Ġattention": 1161,
    "Ġspasmodic": 20401,
    "Ġfidget": 15193,
    "asant": 17961,
    "Ġendeavoured": 4919,
    "yielded": 25757,
    "precision": 4333,
    "Ġsplend": 9901,
    "Ġunreasoning": 15849,
    "Ġstarting": 7729,
    "ulum": 21867,
    "Ġadvance": 5484,
    "Ġthoughtfulness": 18774,
    "Ġcharacteristics": 8613,
    "Ġmetropolis": 17277,
    "Ġpoint": 2056,
    "Ġattach": 14291,
    "Ġcompressed": 21854,
    "Ġvernal": 23891,
    "narrow": 11510,
    "Ġscot": 5643,
    "shadows": 25480,
    "Ġconveying": 19717,
    "Ġgin": 13963,
    "Ġbraces": 14671,
    "thence": 23403,
    "Ġmember": 8465,
    "cour": 4480,
    "Ġstair": 8457,
    "Ġbewitching": 25977,
    "somewhat": 11162,
    "Ġregularization": 1181,
    "Ġunfor": 15843,
    "maid": 8555,
    "dried": 20829,
    "Ġdeepest": 8213,
    "Ġrecogn": 2907,
    "Ġdizzy": 21435,
    "planks": 21964,
    "Ġsnatches": 16546,
    "desire": 14663,
    "ounced": 4954,
    "Ġhummed": 18778,
    "Ġpants": 21468,
    "bunger": 20405,
    "Ġfemales": 14939,
    "ĠâĢľ": 516,
    "Ġcomplexity": 1695,
    "gover": 10704,
    "Ġuncivil": 11157,
    "Ġpollard": 20389,
    "Ġresent": 6050,
    "says": 13303,
    "imper": 13999,
    "prairies": 20569,
    "Ġnut": 12651,
    "12": 20751,
    "Ġrescales": 5068,
    "Ġeyel": 17097,
    "Ġstain": 18067,
    "Ġreserve": 9974,
    "Ġgestures": 13538,
    "Ġsuggested": 8321,
    "Ġunluckily": 20105,
    "Ġprogress": 5023,
    "Ġsleeve": 20143,
    "unhes": 21879,
    "dress": 17522,
    "protest": 24812,
    "Ġpostmark": 16727,
    "Ġ1820": 25718,
    "Ġpunct": 8664,
    "Ġrelevant": 1866,
    "itute": 9654,
    "Ġlunatic": 24993,
    "receive": 12547,
    "ana": 15563,
    "ailed": 3247,
    "ental": 7170,
    "otherwise": 7672,
    "Ġspeeches": 22661,
    "Ġwhitney": 11375,
    "Ġratt": 7881,
    "Ġinconven": 7588,
    "mbles": 23092,
    "Ġvirtue": 4923,
    "moor": 22707,
    "Ġperfections": 23610,
    "Ġcocks": 18593,
    "Ġglitter": 25126,
    "Ġfet": 5808,
    "Ġsupport": 6730,
    "Ġpower": 1247,
    "Ġtradeoff": 2657,
    "bred": 11471,
    "Ġcos": 2212,
    "ortal": 6267,
    "Ġsolemnisation": 24115,
    "teous": 16177,
    "Ġhole": 6080,
    "Ġbreeds": 23351,
    "Ġarctic": 12815,
    "Ġpasseng": 12975,
    "Ġdisplay": 6428,
    "Ġturks": 14599,
    "Ġfry": 17881,
    "Ġrushes": 20511,
    "Ġmention": 2983,
    "giving": 8742,
    "Ġarrogance": 26233,
    "occasion": 7754,
    "opy": 4459,
    "Ġflaw": 23017,
    "dum": 17520,
    "Ġinvested": 7280,
    "Ġirrevoc": 15041,
    "Ġrespectful": 16348,
    "puzz": 17642,
    "Ġswelling": 11929,
    "awk": 23117,
    "Ġfren": 10807,
    "material": 13133,
    "mber": 5850,
    "eping": 5834,
    "Ġpierced": 12286,
    "phur": 16155,
    "Ġattendance": 12186,
    "Ġinv": 2227,
    "Ġalarmed": 6923,
    "ĠĠĠ": 2117,
    "number": 10117,
    "Ġunite": 9258,
    "Ġpursuits": 12081,
    "Ġmortification": 12099,
    "september": 14038,
    "Ġclut": 7643,
    "Ġsalutations": 25383,
    "Ġwash": 9706,
    "Ġprow": 6686,
    "Ġhawsers": 26504,
    "connect": 1294,
    "Ġspell": 8859,
    "Ġtra": 1385,
    "Ġarmy": 11745,
    "Ġdaintiest": 25954,
    "Ġwedge": 24935,
    "Ġdivert": 23595,
    "Ġlawy": 9459,
    "requent": 3654,
    "bet": 6111,
    "romising": 18234,
    "Ġdeprec": 15762,
    "Ġ98": 24594,
    "Ġsweetest": 13251,
    "Ġoce": 3029,
    "Ġcopies": 24938,
    "Ġbenches": 18782,
    "architect": 22894,
    "ices": 2140,
    "design": 19343,
    "Ġerecting": 24653,
    "Ġcaress": 16342,
    "Ġsocially": 22091,
    "Ġsearching": 13165,
    "Ġimplements": 2481,
    "Ġchewing": 23286,
    "Ġcongratulated": 19769,
    "Ġpouring": 12629,
    "exercise": 17462,
    "Ġswelled": 11090,
    "Ġgives": 5018,
    "abb": 15743,
    "Ġproperties": 3116,
    "trap": 24334,
    "court": 7512,
    "Ġfisher": 3220,
    "Ġboots": 5944,
    "dough": 15338,
    "Ġtubs": 11372,
    "sloop": 26146,
    "ĠĠĠĠĠ": 3530,
    "Ġga": 4447,
    "Ġpudding": 17918,
    "Ġgloom": 4202,
    "Ġreeled": 13988,
    "Ġwhip": 8453,
    "dig": 4930,
    "======": 9836,
    "eds": 6531,
    "half": 4932,
    "Ġimportant": 1037,
    "iliary": 21730,
    "atherine": 2594,
    "lies": 15385,
    "farintosh": 24553,
    "Ġreputed": 18038,
    "certainly": 5340,
    "iocr": 20925,
    "Ġhatty": 19267,
    "shame": 16028,
    "Ġcents": 17830,
    "Ġcuriosities": 26290,
    "author": 9863,
    "Ġbristling": 20530,
    "Ġisles": 8461,
    "Ġunderground": 18985,
    "rics": 13041,
    "Ġdeny": 7489,
    "Ġdiscoverer": 26036,
    "Ġwhalebone": 10979,
    "Ġabused": 22273,
    "Ġdisobey": 18560,
    "Ġterminating": 23512,
    "Ġlash": 8440,
    "rusted": 16509,
    "Ġfootman": 8288,
    "Ġledger": 19405,
    "Ġremorseless": 13454,
    ";--": 8069,
    "etical": 13960,
    "thousand": 5547,
    "Ġalike": 8147,
    "twice": 14622,
    "entle": 1737,
    "Ġmythologies": 26215,
    "Ġwondering": 7971,
    "Ġprendergast": 26539,
    "ceiving": 3903,
    "load": 12886,
    "glorious": 19370,
    "Ġcompassion": 6487,
    "Ġtarn": 21161,
    "ct": 309,
    "Ġbi": 919,
    "Ġsupported": 9821,
    "Ġcommunic": 5751,
    "Ġcensured": 25097,
    "Ġdelayed": 9521,
    "Ġrefusing": 11031,
    "Ġlearned": 2025,
    "Ġbarren": 11208,
    "Ġtowed": 11267,
    "Ġheath": 15706,
    "wrong": 13209,
    "oice": 1384,
    "plifted": 9714,
    "int": 1198,
    "Ġbay": 9172,
    "Ġprofession": 6209,
    "foreign": 18544,
    "Ġclap": 10962,
    "ency": 3870,
    "Ġillustrations": 17109,
    "hopes": 15373,
    "Ġsecrets": 9058,
    "Ġlistened": 4470,
    "fancy": 7338,
    "Ġinhab": 5083,
    "Ġmist": 2875,
    "Ġfastened": 7067,
    "Ġgrip": 11630,
    "Ġlazily": 11382,
    "Ġentra": 18693,
    "ked": 5616,
    "Ġprying": 15613,
    "Ġexped": 7652,
    "Ġlabors": 23332,
    "Ġenhancement": 23773,
    "Ġblanket": 8343,
    "Ġsammy": 24933,
    "ushion": 14722,
    "Ġorgies": 18286,
    "Ġblotted": 20220,
    "Ġsafer": 22174,
    "Ġtrembling": 7482,
    "ains": 5094,
    "Ġcontain": 1551,
    "Ġamazement": 7765,
    "Ġundertaking": 8577,
    "Ġinfernal": 11972,
    "Ġassuredly": 14824,
    "Ġcomfortless": 23916,
    "Ġverge": 23890,
    "Ġfogs": 25283,
    "Ġliking": 23593,
    "Ġcaged": 21355,
    "Ġanyone": 4460,
    "Ġamidst": 9497,
    "Ġimbalanced": 18334,
    "Ġdisinclined": 22533,
    "Ġaustralia": 15236,
    "Ġeaglet": 19307,
    "Ġapologizing": 25198,
    "Ġrejoiced": 8687,
    "plex": 708,
    "Ġdistinction": 8889,
    "Ġunfolding": 17087,
    "Ġ78": 19616,
    "de": 460,
    "squeezing": 25914,
    "speak": 5504,
    "Ġprovid": 1008,
    "elfth": 22373,
    "measured": 19993,
    "Ġsigning": 22711,
    "dignity": 15349,
    "Ġcruel": 5121,
    "uplifted": 17697,
    "words": 7983,
    "Ġunrivalled": 26521,
    "plexion": 14266,
    "Ġstream": 5186,
    "hundred": 8331,
    "Ġecc": 11631,
    "outward": 22164,
    "Ġbasic": 24700,
    "Ġsqualidness": 25844,
    "angry": 18295,
    "rigging": 20009,
    "whaleman": 23438,
    "Ġsermons": 20197,
    "brushing": 20790,
    "Ġmilky": 9950,
    "antediluvian": 24346,
    "home": 7342,
    "Ġdolphin": 17315,
    "transom": 19738,
    "Ġlandsc": 11148,
    "together": 3560,
    "Ġhandwriting": 14322,
    "Ġslaughter": 20732,
    "Ġspas": 10924,
    "Ġmediterranean": 12319,
    "Ġturban": 23615,
    "rev": 17758,
    "superstitiousness": 25509,
    "ced": 746,
    "Ġheavy": 3748,
    "Ġrefuse": 5739,
    "Ġpriv": 4183,
    "Ġexceed": 1343,
    "Ġpork": 21460,
    "ý": 190,
    "oned": 4631,
    "Ġboughs": 20492,
    "bacc": 7795,
    "Ġtribes": 20484,
    "sounding": 24795,
    "henry": 16628,
    "ais": 8071,
    "Ġvoyages": 6908,
    "Ġvast": 3298,
    "alle": 1295,
    "Ġtongue": 6349,
    "9": 29,
    "dock": 16422,
    "fere": 10991,
    "expressive": 24307,
    "Ġcannon": 14156,
    "Ġprisoner": 8676,
    "Ġdevoutly": 25834,
    "howling": 18990,
    "Ġmic": 17799,
    "Ġappre": 5165,
    "Ġbrother": 2744,
    "forbidding": 25838,
    "aton": 21261,
    "Ġhandkerchief": 8917,
    "stays": 15693,
    "saying": 8644,
    "Ġrobberies": 23009,
    "again": 3401,
    "Ġrep": 1941,
    "Ġdistinguishing": 16498,
    "Ġwiser": 14733,
    "smooth": 20251,
    "Ġdodge": 19888,
    "ivened": 22975,
    "Į": 239,
    "unavoidable": 17393,
    "Ġchanced": 8187,
    "ours": 3430,
    "Ġswells": 9830,
    "rine": 21040,
    "Ġachieves": 4381,
    "Ġclinch": 18432,
    "notwithstanding": 22750,
    "Ġanguish": 5584,
    "Ġesteemed": 10591,
    "allers": 22201,
    "Ġnoticing": 18225,
    "Ġmaintained": 12939,
    "suspicious": 25391,
    "Ġdenied": 9003,
    "Ġsenior": 17174,
    "Ġresurrection": 12899,
    "Ġcreases": 22723,
    "figure": 13558,
    "Ġtint": 13819,
    "Ġsublime": 8066,
    "Ġgulp": 20032,
    "Ġjav": 7902,
    "venant": 22630,
    "apidated": 22340,
    "Ġsufferer": 16263,
    "Ġcharnel": 22256,
    "expense": 22433,
    "shipping": 10310,
    "duchess": 18464,
    "Ġweighed": 8714,
    "Ġstupidity": 15052,
    "Ġflutter": 16253,
    "bal": 2159,
    "floated": 24644,
    "Ġalexander": 17427,
    "Ġperplexed": 23660,
    "iza": 6257,
    "Ġadro": 15871,
    "fters": 20863,
    "oran": 8793,
    "ice": 590,
    "icuous": 10837,
    "Ġajar": 21205,
    "Ġrefine": 3386,
    "Ġcircle": 4977,
    "disinterested": 23503,
    "Ġinsolent": 13603,
    "Ġacquiring": 2764,
    "¯": 112,
    "Ġsincerity": 13681,
    "Ġtool": 21514,
    "Ġforger": 15737,
    "effectually": 25131,
    "Ġdifferences": 18714,
    "Ġgriff": 22811,
    "Ġbells": 19604,
    "ommod": 13979,
    "Ġflounders": 23020,
    "Ġredeem": 20503,
    "mansion": 20985,
    "star": 12677,
    "Ġnash": 5820,
    "Ġquitting": 7647,
    "Ġproud": 5654,
    "Ġapproximation": 2340,
    "limbs": 20194,
    "Ġod": 4440,
    "Ġarts": 11007,
    "iracle": 11245,
    "Ġdriver": 16476,
    "anced": 1364,
    "Ġgasfitters": 25041,
    "Ġsocietal": 11438,
    "Ġimprudently": 22390,
    "Ġapex": 24342,
    "Ġdeg": 3281,
    "Ġdiscern": 7926,
    "feared": 11806,
    "mselves": 2861,
    "Ġgorgeous": 20470,
    "securer": 25603,
    "_),": 7127,
    "joining": 19450,
    "aper": 4999,
    "Ġargued": 13632,
    "Ġembodiment": 20531,
    "ambition": 13414,
    "Ġcircumnavigation": 20403,
    "ativeness": 15524,
    "µ": 118,
    "fall": 5135,
    "Ġcandles": 9911,
    "Ġwondrously": 24069,
    "Ġmaid": 5287,
    "asserted": 22313,
    "acid": 10996,
    "byter": 16215,
    "Ġdollar": 25284,
    "Ġstops": 3163,
    "Ġtrample": 20330,
    "Ġhourly": 23303,
    "Ġconcil": 23322,
    "idays": 21774,
    "paradise": 20638,
    "Ġbun": 6008,
    "win": 6802,
    "Ġstile": 21736,
    "Ġfevers": 22211,
    "Ġbread": 5404,
    "ffy": 18318,
    "Ġrespect": 1668,
    "ii": 4015,
    "Ġbreaks": 13188,
    "Ġheading": 8938,
    "Ġreferred": 8920,
    "Ġliberated": 19669,
    "Ġinspire": 12000,
    "Ġarrives": 23609,
    "Ġhandspike": 22699,
    "Ġarchangel": 8545,
    "Ġbill": 4041,
    "Ġmill": 6669,
    "Ġhare": 5157,
    "salesman": 20674,
    "Ġrag": 18639,
    "keys": 15862,
    "Ġdictate": 20154,
    "Ġwithin": 2166,
    "Ġdomain": 3517,
    "ipl": 20920,
    "Ġ134": 24783,
    "Ġcrushing": 20179,
    "ctor": 13962,
    "Ġrevive": 13482,
    "Ġbubblingly": 25633,
    "Ġunspeakable": 10059,
    "Ġcrests": 25686,
    "Ġladyship": 5046,
    "haw": 6363,
    "Ġabandon": 12262,
    "Ġfair": 2836,
    "clerval": 7951,
    "itzerland": 9998,
    "Ġexpressive": 8985,
    "Ġouter": 6859,
    "hated": 17563,
    "Ġinner": 9673,
    "vember": 10857,
    "ires": 6039,
    "Ġtree": 5285,
    "Ġtantamount": 25626,
    "Ġclerical": 25569,
    "Ġ65": 24368,
    "Ġapt": 9159,
    "belled": 24039,
    "tallied": 21092,
    "Ġamusing": 11804,
    "Ġwhimsical": 20431,
    "Ġsentences": 2680,
    "Ġimproves": 22756,
    "Ġslewed": 23388,
    "Ġclattered": 22366,
    "kind": 3865,
    "Ġconsented": 11297,
    "Ġstirring": 10582,
    "mpus": 13759,
    "Ġbrink": 18772,
    "Ġsuperseded": 26225,
    "leviathan": 7785,
    "Ġfail": 4149,
    "Ġsec": 2076,
    "Ġchimneys": 16974,
    "na": 13762,
    "Ġfishing": 9665,
    "icate": 9205,
    "robe": 15646,
    "Ġseas": 3076,
    "Ġadequately": 15202,
    "conscience": 14862,
    "Ġblossom": 26313,
    "Ġtwos": 18658,
    "icing": 9204,
    "Ġimperilled": 19581,
    "Ġimmersed": 19488,
    "Ġtrinity": 22350,
    "chain": 18042,
    "Ġgliding": 8564,
    "Ġtusked": 25427,
    "Ġcigaret": 16978,
    "Ġmastery": 23999,
    "Ú": 155,
    "tuesday": 17692,
    "Ġrear": 6537,
    "Ġyet": 1027,
    "Ġgloss": 11962,
    "spring": 7232,
    "Ġallures": 22010,
    "excepting": 19709,
    "Ġstrands": 25575,
    "Ġantics": 24181,
    "agery": 21911,
    "from": 1992,
    "Ġsullen": 9161,
    "Ġdispel": 16598,
    "Ġcran": 12005,
    "Ġerudite": 26353,
    "Ġlaz": 7379,
    "Ġwings": 9167,
    "Ġmonth": 2847,
    "Ġglimpses": 13435,
    "Ġspitz": 14151,
    "Ġflowing": 14416,
    "injustice": 17739,
    "Ġlivelong": 25512,
    "perceived": 8862,
    "pr": 3172,
    "Ġprimal": 17108,
    "Ġcontradicted": 20214,
    "Ġsecondary": 23336,
    "sculptured": 26047,
    "Ġjoke": 8872,
    "Ġnuptials": 20497,
    "omely": 21642,
    "umberland": 16839,
    "Ġprevented": 5943,
    "Ġpondering": 17007,
    "Ġwhittling": 20702,
    "Ġmonomaniac": 9571,
    "Ġfrigid": 17355,
    "ipt": 12483,
    "Ġvanity": 7047,
    "amore": 21847,
    "john": 11500,
    "historical": 20469,
    "gment": 4392,
    "Ġsearch": 2589,
    "Ġchurch": 4712,
    "Ġorganization": 7984,
    "Ġblessings": 24179,
    "Ġlegible": 23535,
    "Ġdoors": 6418,
    "Ġgroup": 2038,
    "ected": 7873,
    "Ġrather": 1494,
    "Ġenough": 1762,
    "derest": 18315,
    "Ġfarm": 7840,
    "Ġinsensibility": 17111,
    "Ġcastle": 14719,
    "surround": 16760,
    "thickness": 25368,
    "truck": 15444,
    "Ġdynamically": 4207,
    "office": 16401,
    "Ġragged": 11849,
    "Ġcats": 8982,
    "Ġsuspicious": 9483,
    "Ġeverlasting": 9341,
    "Ġformula": 2864,
    "shut": 10983,
    "Ġmerry": 5870,
    "Ġmagnet": 10392,
    "Ġedged": 23489,
    "longer": 8616,
    "Ġshooting": 11164,
    "instr": 12536,
    "Ġendeavouring": 8035,
    "Ġcheever": 23285,
    "Ġenjoys": 19454,
    "Ġbandages": 24427,
    "Ġrebounds": 25968,
    "Ġ181": 23899,
    "vinegar": 25421,
    "mortar": 25409,
    "Ġresting": 7961,
    "Ġinfrequent": 3826,
    "Ġthem": 640,
    "itu": 1227,
    "Ġsenate": 25215,
    "fine": 10093,
    "leaped": 17845,
    "finally": 9502,
    "ï": 176,
    "xim": 1092,
    "Ġcakes": 13886,
    "wat": 6233,
    "Ġelixir": 26557,
    "Ġlegend": 14575,
    "ashtego": 4102,
    "furthest": 19844,
    "cking": 4266,
    "post": 6063,
    "Ġfossiliferous": 25610,
    "Ġscared": 14192,
    "aunted": 20772,
    "weaknesses": 26031,
    "Ġholds": 7976,
    "Ġcurved": 18838,
    "Ġunhallowed": 17183,
    "ood": 961,
    "Ġchill": 11756,
    "Ġrepul": 16413,
    "Ġlinguistic": 12429,
    "Ġacquaintances": 17353,
    "inch": 10757,
    "Ġengland": 3858,
    "Ġcomplete": 4384,
    "draughts": 20391,
    "Ġjen": 9271,
    "harpoons": 24287,
    "Ġunfrequ": 19511,
    "ifferent": 4263,
    "udg": 22768,
    "Ġmaria": 7126,
    "Ġsagaciously": 24730,
    "Ç": 136,
    "Ġserves": 4670,
    "Ġtutored": 20131,
    "Ġiv": 4045,
    "Ġcommendation": 13613,
    "fabulous": 20477,
    "Ġinconsistency": 26184,
    "Ġgratified": 8021,
    "ethics": 8882,
    "Ġyield": 5093,
    "Ġperceive": 6701,
    "scorn": 22994,
    "paint": 21020,
    "Ġrewarded": 14942,
    "Ġaux": 21202,
    "Ġhard": 1443,
    "Ġfits": 8795,
    "apside": 22970,
    "embers": 21933,
    "ident": 3381,
    "Ġchil": 11755,
    "Ġconn": 9233,
    "quely": 10234,
    "ep": 441,
    "Ġesc": 2255,
    "Ġsaith": 14158,
    "Ġoppressive": 20458,
    "Ġstiffness": 24828,
    "Ġdiscussion": 17197,
    "aunt": 8370,
    "pretending": 17042,
    "bers": 2568,
    "Ġvariously": 18654,
    "agra": 14068,
    "prevent": 11799,
    "Ġinferiority": 17116,
    "Ġcaptured": 7246,
    "Ġconstitutes": 13555,
    "Ġsusp": 2662,
    "Ġcommunicated": 9065,
    "Ġflannel": 26579,
    "Ġpartake": 18671,
    "comfortable": 7321,
    "forward": 2192,
    "Ġseparately": 13306,
    "bloom": 24690,
    "Ġslaugh": 18940,
    "valuable": 8249,
    "Ġbled": 17858,
    "pronouncing": 25194,
    "benefact": 24642,
    "iries": 18172,
    "Ġedinburgh": 16459,
    "inable": 11558,
    "gia": 20878,
    "Ġnorthward": 13325,
    "attending": 18918,
    "arson": 22747,
    "Ġmiracle": 15097,
    "despair": 8344,
    "visit": 7755,
    "âĢĶâĢĻâĢĿ": 20067,
    "Ġhosts": 19942,
    "Ġrepl": 1586,
    "Ġdisastrous": 16064,
    "silence": 8045,
    "Ġcontraction": 16012,
    "inclined": 10642,
    "Ġdelirium": 10407,
    "Ġsell": 7825,
    "Ġthou": 1812,
    "Ġoh": 2181,
    "Ġhab": 4219,
    "accomplishment": 20226,
    "Ġrelevance": 5184,
    "rob": 5534,
    "Ġtears": 4232,
    "neighbouring": 19967,
    "Ġvisitor": 5331,
    "corner": 13400,
    "Ġimitation": 22175,
    "Ġparac": 12800,
    "pires": 13777,
    "antled": 18287,
    "Ġagric": 22519,
    "Ġfloated": 7289,
    "¥": 103,
    "Ġperformance": 1309,
    "Ġwantest": 18791,
    "Ġretiring": 16283,
    "steering": 16638,
    "Ġautonomous": 10678,
    "Ġbudge": 15168,
    "sterns": 23371,
    "Ġsuavely": 26525,
    "Ġmotives": 7487,
    "Ġpequod": 2322,
    "Ġfad": 17878,
    "Ġgreenland": 5761,
    "Ġtranquilly": 12294,
    "Ġnotable": 18223,
    "Ġadding": 2400,
    "Ġshaking": 6553,
    "Ġ40": 14770,
    "Ġmemory": 2276,
    "retaining": 21248,
    "Ġaugment": 8695,
    "Ġunconcerned": 20513,
    "Ġstoven": 23176,
    "Ġimpelled": 11786,
    "Ġcomplement": 23712,
    "ean": 20842,
    "Ġconversed": 13191,
    "Ġautoregressive": 3434,
    "Ġruinous": 24634,
    "li": 1188,
    "fish": 3519,
    "Ġabated": 18391,
    "Ġconsciousness": 9951,
    "Ġexpatiate": 18626,
    "Ġacquiescence": 20333,
    "Ġthemselves": 3251,
    "Ġcurbstone": 26044,
    "oga": 22716,
    "Ġprob": 969,
    "Ġwhine": 21718,
    "alloyed": 22205,
    "Ġspoil": 17009,
    "Ġcontrol": 13083,
    "Ġadmiral": 17308,
    "ques": 2840,
    "dream": 8731,
    "girl": 12322,
    "Ġrain": 5005,
    "favouring": 24761,
    "Ġcontinuously": 23211,
    "ulled": 14058,
    "iosity": 2180,
    "ky": 4520,
    "Ġheavenly": 12089,
    "dev": 7634,
    "iment": 2814,
    "Ġprosecuted": 25294,
    "Ġcalculating": 9928,
    "Ġmedical": 9473,
    "Ï": 144,
    "Ġtracks": 18892,
    "Ġavowed": 16636,
    "Ġcoals": 16080,
    "smart": 23910,
    "jumped": 20249,
    "gled": 10701,
    "ctu": 5088,
    "Ġmerryweather": 9525,
    "rubbed": 22188,
    "Ġcapabilities": 4379,
    "month": 6463,
    "Ġmitig": 1335,
    "Ġcharmingly": 24224,
    "Ġodious": 12155,
    "Ġpoltroon": 26600,
    "uch": 876,
    "peculiar": 6886,
    "Ġsurrey": 14560,
    "Ġtamer": 24979,
    "ago": 14067,
    "Ġatmosphere": 10899,
    "wild": 8771,
    "Ġzealand": 12355,
    "consp": 18505,
    "Ġpersecutor": 26097,
    "Ġdefault": 3037,
    "Ġspoon": 22138,
    "flames": 14714,
    "gg": 1997,
    "uther": 8821,
    "Ġforbade": 15218,
    "Ġexerting": 21836,
    "Ġsally": 15505,
    "call": 8726,
    "Ġlap": 8438,
    "ft": 909,
    "Ġcourses": 10412,
    "Ġthinks": 6171,
    "Ġfeminine": 15266,
    "Ġconceal": 5975,
    "uctive": 17698,
    "good": 2898,
    "benevolent": 15237,
    "Ġembattled": 26289,
    "Ġtoad": 21513,
    "Ġrejecting": 17052,
    "Ġcontempt": 6277,
    "Ġcholera": 22257,
    "Ġwaste": 9238,
    "Ġmiser": 18702,
    "Ġbetween": 789,
    "Ġsimply": 7219,
    "Ġmermaid": 17815,
    "Ġbambooz": 26120,
    "orne": 17874,
    "glim": 19368,
    "Ġstep": 752,
    "Ġmich": 21308,
    "Ġstudent": 14481,
    "sequence": 2854,
    "Ġassumpt": 5415,
    "fab": 13718,
    "conclusions": 25673,
    "ourage": 2449,
    "Ġmirth": 15549,
    "Ġthreat": 5154,
    "Ġfeel": 1260,
    "isted": 3300,
    "imperturbable": 25791,
    "Ġlift": 8815,
    "cri": 17508,
    "Ġfris": 23258,
    "Ġdiverted": 14593,
    "Ġlanded": 7470,
    "Ġducking": 17149,
    "rench": 3968,
    "Ġarc": 14161,
    "Ġsings": 15508,
    "Ġakin": 15498,
    "Ġfaded": 10811,
    "Ġgateway": 24799,
    "Ġsitting": 3610,
    "Ġperils": 6274,
    "bab": 11470,
    "Ġcalam": 13038,
    "Ġbright": 3211,
    "Ġethics": 15465,
    "gerine": 22891,
    "Ġdeputation": 21843,
    "®": 111,
    "headers": 23112,
    "Ġdeprived": 8210,
    "Ġattested": 22625,
    "ampton": 18147,
    "Ġalcoves": 26488,
    "Ġmirror": 12382,
    "Ġgust": 21600,
    "culous": 11143,
    "Ġlam": 21552,
    "Ġparadigms": 3055,
    "vere": 4884,
    "fourths": 25510,
    "Ġhor": 1661,
    "Ġcomprehended": 11296,
    "Ġfounder": 17885,
    "nurs": 21001,
    "Ġbenjamin": 26569,
    "narrative": 17322,
    "islanders": 25443,
    "Ġrepeat": 8000,
    "Ġmccarthys": 19665,
    "Ġfewer": 16228,
    "Ġexpedite": 24956,
    "Ġiroqu": 21627,
    "Ġschool": 5512,
    "greatly": 16626,
    "Ġhal": 1360,
    "Ġkindliness": 23296,
[...]
