{
  "metadata": {
    "vocab_size": 26615,
    "algorithm": "BPE",
    "created_at": "2026-07-03 05:51:49",
    "special_tokens": [
      "<PAD>",
      "<SOS>",
      "<EOS>",
      "<UNK>",
      "<MASK>"
    ]
  },
  "vocab": {
    "hamed": 6306,
    "Ġbal": 1132,
    "grasp": 16433,
    "ratulations": 20129,
    "Ġexerting": 21837,
    "greek": 25405,
    "various": 10399,
    "Ġillustrate": 25068,
    "Ġstrangely": 5677,
    "erde": 21271,
    "Ġpallet": 21485,
    "Ġcaptured": 7244,
    "afforded": 25866,
    "Ġkidnapping": 26358,
    "Ġasks": 5115,
    "icip": 6389,
    "inf": 6233,
    "ago": 14067,
    "official": 24915,
    "Ġperse": 6273,
    "Ġshalt": 18231,
    "Ġgrasping": 12169,
    "Ġbranch": 8333,
    "Ġintrepidity": 25551,
    "Ġwindows": 4970,
    "gang": 17554,
    "lingering": 18602,
    "rack": 18013,
    "icates": 11619,
    "Ġsomewhere": 5384,
    "ä": 165,
    "agers": 5633,
    "&": 10,
    "nant": 17610,
    "Ġdimension": 3244,
    "Ġrazor": 22659,
    "Ġdey": 11676,
    "inting": 9816,
    "Ġblacksmith": 6596,
    "exact": 7912,
    "Ġ121": 24465,
    "Ġillust": 8264,
    "ĠĠĠĠĠĠĠĠĠĠ": 18579,
    "Ġbefell": 14012,
    "mbling": 3347,
    "Ġdelightful": 6321,
    "Ġethics": 15464,
    "imony": 12694,
    "admiration": 11388,
    "Ġbuffalo": 11430,
    "ssible": 2989,
    "Ġbillows": 7501,
    "Ġgaff": 17996,
    "uated": 10133,
    "Ġfig": 3625,
    "Ġinvolve": 11052,
    "americans": 25045,
    "fulness": 4311,
    "Ġlambton": 10659,
    "wh": 508,
    "Ġreview": 18033,
    "Ġrather": 1492,
    "Ġattain": 12751,
    "Ġvow": 10248,
    "Ġwished": 3730,
    "circumstances": 8048,
    "estruct": 22221,
    "Ġingen": 9051,
    "Ġineffectual": 17386,
    "Ġcowardice": 17032,
    "Ġnaked": 8128,
    "Ġresponsible": 9890,
    "Ġformations": 18750,
    "mp": 3728,
    "Ġbarnacled": 25537,
    "Ġtransportation": 13645,
    "travellers": 24338,
    "Ġmode": 8499,
    "Ġalmost": 1655,
    "Ġbro": 1431,
    "harpooneers": 8693,
    "infant": 19830,
    "Ġdeceive": 12726,
    "Ġfall": 2985,
    "Ġundisturbed": 19522,
    "volutional": 1936,
    "Ġsperm": 1842,
    "librarian": 26569,
    "draught": 12094,
    "Ġbolt": 11335,
    "Ġlaz": 7377,
    "rowing": 7932,
    "prospect": 23397,
    "Ġconcentrated": 15086,
    "otently": 21805,
    ";": 31,
    "ners": 3274,
    "Ġviolates": 3169,
    "gloom": 17141,
    "Ġmajest": 24064,
    "Ġjollies": 20373,
    "_).": 5888,
    "ailed": 3251,
    ";âĢĿâĢĶ": 20762,
    "Ġrestore": 9381,
    "Ġenraged": 10246,
    "Ġbigger": 19764,
    "eneva": 5118,
    "Ġhappened": 3714,
    "naturalist": 23553,
    "Ġclings": 15967,
    "exc": 5169,
    "itude": 1417,
    "conjectured": 25182,
    "Ġacknowledged": 7533,
    "Ġbrightest": 13230,
    "Ġvilest": 20104,
    "mistress": 14907,
    "Ġ1846": 26085,
    "Ġfeebly": 24878,
    "Ġfaithful": 9505,
    "utely": 8133,
    "indifferent": 14210,
    "í": 174,
    "Ġunf": 4092,
    "few": 8203,
    "ices": 2138,
    "Ġrejo": 5917,
    "Ġnobleman": 19395,
    "Ġwreath": 25937,
    "ic": 304,
    "'(": 2977,
    "dawson": 26129,
    "Ġbank": 4877,
    "Ġimmersed": 19488,
    "arman": 11597,
    "presented": 12994,
    "Ġimitation": 22176,
    "Ġdeserts": 10509,
    "Ġinstructing": 3127,
    "Ġyell": 21782,
    "Ġschemes": 11132,
    "Ġbeams": 14632,
    "Ġmimic": 3148,
    "laying": 19775,
    "Ġwithin": 2164,
    "settle": 16663,
    "Ġmachinations": 25768,
    "Ġ101": 24408,
    "Ġanimal": 2498,
    "Ġboldness": 24427,
    "Ġqualified": 14952,
    "Ġbowels": 9432,
    "sky": 12514,
    "deception": 22149,
    "he": 264,
    "Ġrecourse": 22743,
    "cated": 20805,
    "Ġfur": 992,
    "Ġextrem": 2475,
    "existence": 16017,
    "resentment": 15188,
    "dock": 16420,
    "Ġlies": 5297,
    "account": 5330,
    "Ġpowder": 11276,
    "Ġbitterly": 8316,
    "Ġderision": 16311,
    "Ġcondescending": 24869,
    "Ġforgiveness": 16658,
    "Ġstature": 10864,
    "Ã": 132,
    "Ġislanders": 19505,
    "sar": 12508,
    "Ġalternate": 19989,
    "Ġreplete": 15701,
    "Ġvolat": 24146,
    "Ġcondesc": 7181,
    "appeared": 4283,
    "Ġaudacious": 13463,
    "Ġelephants": 9866,
    "Ġlees": 18078,
    "Ġdesp": 3218,
    "aphys": 15204,
    "ators": 7830,
    "Ġcedar": 15191,
    "Ġconstitution": 20112,
    "Ġnightmare": 18921,
    "oices": 7347,
    "Ġcorroded": 18878,
    "tha": 15825,
    "Ġmetaphys": 16407,
    "Ġpeace": 3694,
    "Ġsentimental": 24753,
    "boscombe": 26122,
    "hunsford": 24385,
    "ĠĠĠĠĠĠĠĠĠĠĠĠĠĠĠĠĠĠĠĠĠĠĠĠĠĠĠĠĠĠĠ": 19703,
    "along": 6014,
    "seated": 11674,
    "Ġsubaltern": 22795,
    "Ġexterior": 19991,
    "Ġchasing": 11757,
    "nett": 16223,
    "az": 2184,
    "room": 2180,
    "Ġleather": 7606,
    "Ġsuspect": 5758,
    "erably": 7572,
    "Ġlaud": 17970,
    "protested": 13477,
    "Ġaustral": 12176,
    "Ġprying": 15612,
    "horizon": 23617,
    "Ġdrenched": 12607,
    "Ġfuneral": 10285,
    "ici": 8442,
    "Ġopenly": 8575,
    "Ġoccurrences": 11050,
    "Ġfavourite": 5271,
    "Ġmarshalled": 25316,
    "arded": 5029,
    "gladness": 25195,
    "rog": 15643,
    "doom": 23378,
    "Ġwilful": 10536,
    "Ġwashed": 15768,
    "wrote": 11548,
    "Ġwr": 1547,
    "Ġdepresses": 25798,
    "laughing": 15182,
    "Ġmacy": 19358,
    "subs": 14301,
    "adventures": 20259,
    "hoping": 17567,
    "entiating": 3441,
    "Ġchivalrous": 20518,
    "Ġlegitimate": 20644,
    "esty": 4307,
    "minds": 24234,
    "rust": 2579,
    "mission": 5971,
    "Ġdesper": 6177,
    "before": 3119,
    "vious": 1785,
    "Ġdining": 6977,
    "Ġoriginally": 7303,
    "Ġvehemently": 26040,
    "Ġunallied": 22037,
    "uberance": 25917,
    "imens": 1749,
    "dually": 3287,
    "Ġargosy": 24275,
    "like": 1885,
    "Ġbred": 9171,
    "Ġthrust": 5084,
    "Ġforebodings": 17306,
    "Ġimaginations": 16518,
    "impotence": 23763,
    "Ġback": 827,
    "Ġcocaine": 20723,
    "ĳ": 244,
    "Ġinvestment": 24331,
    "Ġdescribing": 19256,
    "value": 18811,
    "Ġencoder": 3637,
    "Ġbra": 3258,
    "ark": 848,
    "ending": 1990,
    "Ġdined": 9178,
    "Ġlanyard": 26462,
    "Ġform": 1022,
    "gay": 11490,
    "rested": 13078,
    "Ġjohn": 5032,
    "umber": 5241,
    "exposure": 19259,
    "Ġbec": 1350,
    "Ġshudder": 9052,
    "wheeler": 16191,
    "iro": 20916,
    "Ġpa": 3002,
    "peace": 13053,
    "Ġprotectors": 9072,
    "Ġkeenly": 9487,
    "Ġprone": 18969,
    "Ġtech": 1679,
    "Ġaffecting": 2321,
    "Ġparallel": 1413,
    "Ġportions": 19372,
    "Ġshowing": 7732,
    "grim": 19108,
    "Ġsurrounded": 5880,
    "Ġgrenadier": 21620,
    "Ġinfluence": 5515,
    "Ġdet": 509,
    "levi": 7048,
    "amid": 12728,
    "Ġhorseman": 19610,
    "Ġdependency": 3491,
    "b": 70,
    "speak": 5504,
    "rim": 7138,
    "Ġharpooneer": 3772,
    "histicated": 20903,
    "Ġlecture": 13570,
    "Ġbreeding": 14521,
    "Ġbrotherly": 16530,
    "Ġpointed": 4772,
    "Ġbread": 5404,
    "cred": 9110,
    "Ġinquiries": 5678,
    "Ġ93": 24593,
    "Ġpom": 21456,
    "Ġmariners": 6069,
    "Ġinsince": 23682,
    "Ġballasted": 23983,
    "Ġcreating": 2993,
    "Ġpirate": 14997,
    "brandy": 19203,
    "Ġinexorable": 12259,
    "ologist": 22887,
    "Ġclang": 15966,
    "Ġ16": 7928,
    "ety": 3524,
    "light": 3016,
    "lot": 3210,
    "Ġmonsie": 11448,
    "Ġprepare": 8650,
    "united": 14062,
    "Ġcongregational": 25105,
    "ginger": 13166,
    "gallant": 7781,
    "form": 499,
    "ospit": 22267,
    "folly": 20864,
    "Ġfashioned": 13324,
    "vag": 8768,
    "Ġhypocritical": 20740,
    "Ġinfinite": 8578,
    "Ġderive": 10396,
    "riend": 1187,
    "Ġpass": 1040,
    "igh": 2029,
    "Ġsoul": 2726,
    "Ġdrawing": 3919,
    "Ġostentatiously": 20472,
    "blo": 6354,
    "Ġlegend": 14575,
    "erpillar": 5798,
    "drunk": 24660,
    "Ġsluggish": 25891,
    "Ġfleetness": 20182,
    "Ġpound": 12620,
    "Ġtheme": 16021,
    "Ġinsol": 10182,
    "completed": 19997,
    "queer": 10365,
    "Ġanother": 1740,
    "Ġsagacious": 14973,
    "Ġabhorrent": 16857,
    "atiate": 12552,
    "Ġaccelerate": 23230,
    "Ġemployment": 8632,
    "Ġsar": 21216,
    "Ġgrapple": 25812,
    "Ġhappier": 10361,
    "Ġincorporate": 20457,
    "Ġappearance": 3701,
    "Ġhaggerston": 26453,
    "msman": 9272,
    "vity": 7816,
    "Ġ68": 24369,
    "patched": 17644,
    "Ġthump": 11613,
    "lorious": 17593,
    "anchor": 13891,
    "Ġcomprehended": 11295,
    "Ġseals": 11700,
    "Ġsailor": 3539,
    "itancy": 21336,
    "urs": 6989,
    "Ġbeing": 1167,
    "Ġwindibank": 7256,
    "Ġminds": 6304,
    "Ġcent": 3257,
    "natured": 7111,
    "gle": 20871,
    "Ġforbearance": 12331,
    "achment": 5464,
    "heartedness": 24825,
    "type": 16178,
    "Ġmustering": 18662,
    "onged": 18411,
    "Ġsaved": 6691,
    "Ġdepended": 9779,
    "Ġmortar": 19396,
    "Ġimplore": 24873,
    "Ġextras": 22751,
    "ingolstadt": 21306,
    "Ġglove": 14492,
    "Ġ179": 19757,
    "Ġsir": 1571,
    "Ġ132": 19898,
    "ues": 2080,
    "Ġhearken": 21689,
    "Ġtum": 5692,
    "traces": 24335,
    "Ġpersian": 11091,
    "yards": 9625,
    "Ġtransc": 12872,
    "Ġknees": 6927,
    "Ġimmured": 24073,
    "crime": 14777,
    "confused": 19642,
    "Ġrelied": 16197,
    "izabeth": 907,
    "prison": 14664,
    "Ġdiamond": 15602,
    "Ġsweep": 8267,
    "icating": 15658,
    "convinced": 10624,
    "Ġprovincial": 20652,
    "Ġslavish": 23175,
    "amuse": 14054,
    "Ġcumulative": 4214,
    "offic": 7465,
    "prodigious": 17468,
    "led": 580,
    "Ġunheeded": 18262,
    "Ġload": 14147,
    "ouched": 4636,
    "itance": 13870,
    "ppers": 7617,
    "Ġovercome": 6045,
    "Ġstaircase": 20099,
    "ourable": 4966,
    "Ġsam": 7568,
    "Ġasse": 8161,
    "iction": 4270,
    "flex": 24844,
    "Ġrheum": 18215,
    "Ġacquitted": 18900,
    "turtle": 12215,
    "Ġcrew": 2496,
    "Ġhorseback": 14852,
    "Ġtribe": 10752,
    "Ġunheard": 22030,
    "Ġadapts": 3820,
    "Ġbachelors": 24861,
    "Ġrun": 2353,
    "Ġ95": 19776,
    "Ġlivers": 18462,
    "Ġcreatures": 4140,
    "Ġstrongly": 5657,
    "Ġankers": 21449,
    "Ġalternative": 19990,
    "Ġintruder": 25992,
    "Ġrefers": 1568,
    "ulate": 5233,
    "neat": 22448,
    "noise": 14329,
    "+": 15,
    "Ġdelights": 14597,
    "Ġinviting": 19145,
    "Ġentire": 2558,
    "acceptance": 25186,
    "Ġthick": 3784,
    "Ġglac": 9348,
    "Ġstartled": 7083,
    "Ġmerid": 13196,
    "rep": 5525,
    "Ġexquisite": 12385,
    "ruck": 6847,
    "indian": 11781,
    "Ġisol": 8837,
    "Ġchildren": 3768,
    "Ġsofas": 26226,
    "Ġaver": 1286,
    "Ġowners": 7663,
    "Ġeffort": 8206,
    "amount": 10885,
    "ouch": 2782,
    "Ġrepublic": 14530,
    "elf": 565,
    "Ġrapt": 7226,
    "Ġsubproblems": 12961,
    "Ġaddu": 22107,
    "Ġresolution": 5500,
    "Ġinfinitely": 8965,
    "izings": 14045,
    "Ġfruitless": 25606,
    "owe": 15711,
    "Ġcounters": 24142,
    "Ġrevol": 5536,
    "asant": 17961,
    "Ġsle": 2014,
    "Ġactively": 18654,
    "task": 13795,
    "Ġrespond": 11177,
    "accompan": 11453,
    "Ġparac": 12799,
    "Ġgrandeur": 8631,
    "ii": 4015,
    "Ġnoses": 18374,
    "Ġess": 5691,
    "Ġmonkey": 8228,
    "Ġvent": 3996,
    "Ġmogul": 12866,
    "fiend": 13664,
    "Ġsleeping": 6320,
    "Ġprejud": 6850,
    "Ġpremature": 3726,
    "Ġgrudge": 20696,
    "Ġbeck": 14011,
    "orable": 8121,
    "Ġt": 261,
    "Ġecc": 11630,
    "Ġvindication": 25365,
    "Ġcontinent": 14890,
    "Ġasia": 11685,
    "eches": 8079,
    "each": 7334,
    "Ġxviii": 23413,
    "Ġneville": 7398,
    "Ġcivilities": 14850,
    "rene": 5379,
    "Ġintrepid": 11709,
    "Ġbeards": 21756,
    "erring": 11058,
    "Ġcomical": 11680,
    "persecutor": 26530,
    "ivorous": 22092,
    "rusted": 16508,
    "clerval": 7952,
    "sequent": 6830,
    "Ġpretending": 19317,
    "Ġsacri": 18329,
    "Ġteacher": 22919,
    "Ġcloud": 3913,
    "Ġdemig": 20359,
    "Ġporthole": 24398,
    "trifling": 19417,
    "wood": 5899,
    "Ġroyals": 19535,
    "disappo": 8986,
    "iliating": 12699,
    "Ġbanished": 10618,
    "Ġnigh": 4878,
    "Ġgreenness": 23769,
    "Ġcorrob": 16266,
    "Ġdefine": 9817,
    "Ġdaylight": 10352,
    "Ġpreprocess": 22238,
    "Ġinvoked": 19146,
    "Ġsymptoms": 8708,
    "Ġarchitects": 18733,
    "passed": 8027,
    "civility": 17514,
    "Ġfoolishly": 19785,
    "ation": 320,
    "Ġoblivious": 26033,
    "Ġnobly": 22246,
    "Ġresent": 6050,
    "making": 2571,
    "governed": 25406,
    "Ġclergyman": 8715,
    "zy": 2671,
    "breeze": 20565,
    "Ġmouths": 7490,
    "Ġprotracted": 19472,
    "Ġwat": 1287,
    "thanking": 24325,
    "dignity": 15348,
    "iv": 433,
    "Ġelucidated": 26030,
    "ice": 588,
    "Ġimplements": 2486,
    "direct": 12460,
    "conced": 22475,
    "handled": 19263,
    "Ġimplement": 3349,
    "Ġsurprise": 3832,
    "sulphur": 25910,
    "swelled": 19613,
    "Ġproportions": 16468,
    "Ġcaus": 1725,
    "Ġbloodless": 19341,
    "Ġpropontis": 17467,
    "Ġuntoward": 19167,
    "Ġinstinctively": 13462,
    "Ġemerging": 24614,
    "Ġdoubly": 16387,
    "Ġsphere": 15885,
    "Ġpotential": 3620,
    "Ġpersisting": 18885,
    "syntax": 5867,
    "Ġdem": 11675,
    "Ġundoing": 22040,
    "Ġlanguage": 649,
    "Ġsense": 3254,
    "kov": 17587,
    "Ġ107": 24414,
    "decor": 23783,
    "Ġimplac": 24875,
    "dripping": 16906,
    "ply": 6366,
    "Ġtrait": 23079,
    "fig": 8738,
    "delirium": 14787,
    "aggo": 5097,
    "orange": 21403,
    "Ġmystic": 7502,
    "ured": 1653,
    "Ġsaint": 15509,
    "Ġbrooded": 23108,
    "quohog": 21863,
    "Ġcope": 17832,
    "ciousness": 20819,
    "Ġdistinctly": 7310,
    ").âĢĿ": 20743,
    "Ġgrasped": 8035,
    "Ġemer": 5960,
    "Ġfusion": 21418,
    "avery": 13686,
    "Ġgould": 17992,
    "Ġfinding": 3268,
    "Ġoceans": 7997,
    "assistant": 25568,
    "Ġdebt": 12171,
    "lp": 898,
    "cooper": 19192,
    "Ġarri": 2552,
    "Ġbush": 23339,
    "Ġformless": 22831,
    "grateful": 10429,
    "Ġoct": 10160,
    "Ġpoints": 5249,
    "Ġplainpal": 19279,
    "merry": 16538,
    "saying": 8644,
    "Ġbattalions": 25777,
    "Ġmeth": 1471,
    "Ġpo": 736,
    "Ġlightning": 5750,
    "Ġrepulses": 26071,
    "Ġstacks": 18077,
    "Ġlikened": 16501,
    "pine": 13771,
    "Ġsubstitute": 16727,
    "Ġdatasets": 2389,
    "unwho": 21882,
    "Ġconvergence": 973,
    "wanderer": 25424,
    "Ġgallery": 10526,
    "Ġstaid": 21740,
    "Ġbusks": 23341,
    "Ġdevoutly": 25834,
    "obstructed": 15229,
    "pacing": 21023,
    "atural": 941,
    "ouching": 13180,
    "inative": 15486,
    "ten": 1559,
    "Ġimprisonment": 22394,
    "swept": 19789,
    "Ġrefresh": 10347,
    "Ġlizzie": 26463,
    "Ġomitted": 12568,
    "Ġadoption": 24951,
    "Ġmaddening": 17244,
    "Ġim": 477,
    "mediterranean": 16406,
    "Ġdeliberately": 10626,
    "barbar": 20241,
    "Ġagents": 9768,
    "beryls": 25310,
    "Ġfully": 6343,
    "Ġbankers": 24303,
    "Ġaccidentally": 9507,
    "Ġfolds": 12210,
    "Ġcontained": 7679,
    "Ġmenacing": 23112,
    "accomp": 10456,
    "iloquent": 21730,
    "Ġlashes": 17969,
    "Ġhopelessly": 16380,
    "Ġarduous": 26532,
    "Ġadam": 2125,
    "anct": 21361,
    "Ġalco": 21787,
    "Ġandes": 12645,
    "Ġbirth": 6524,
    "Ġscolded": 25473,
    "ieged": 22583,
    "emotions": 15798,
    "ales": 3319,
    "hole": 5585,
    "prepar": 22466,
    "skylight": 25624,
    "Ġnaturalist": 22896,
    "stretching": 20502,
    "Ġconceal": 5975,
    "Ġmadness": 6602,
    "complied": 19915,
    "ienced": 5685,
    "Ġlucy": 17972,
    "Ġtalks": 23371,
    "_;": 6642,
    "Ġflourish": 17162,
    "atived": 21265,
    "Ġextravagant": 17280,
    "idity": 8834,
    "Ġstreamed": 14547,
    "Ġbusiness": 2233,
    "Ġentrapped": 26264,
    "solut": 3366,
    "import": 5668,
    "interchange": 23741,
    "Ġkeeps": 8268,
    "Ġcompared": 2229,
    "Ġbenignity": 18783,
    "Ġrespectability": 14486,
    "mechanical": 25579,
    "ason": 1266,
    "Ġdepartments": 24244,
    "designated": 26320,
    "secure": 12239,
    "opolising": 25677,
    "Ġexercise": 8360,
    "ounders": 22399,
    "Ġpath": 2113,
    "Ġgold": 3281,
    "leep": 4634,
    "batt": 20780,
    "constable": 24607,
    "Ġnovember": 11752,
    "Ġchil": 11754,
    "Ġunusually": 15849,
    "twig": 23702,
    "Ġattent": 4361,
    "nyder": 16686,
    "Ġcanes": 22168,
    "Ġbroadway": 23987,
    "idge": 14016,
    "lake": 13751,
    "Ġbristling": 20530,
    "rail": 10206,
    "Ġchaise": 9078,
    "Ġmisconduct": 22765,
    "Ġtrif": 6270,
    "Ġphrenologically": 20397,
    "berwell": 22722,
    "urned": 9308,
    "Ġfolly": 7942,
    "Ġcubic": 20091,
    "Ġxliv": 23412,
    "Ġspoken": 4836,
    "Ġcul": 17824,
    "getic": 12970,
    "Ġtending": 17725,
    "bruary": 15238,
    "Ġpulley": 2974,
    "tisement": 6767,
    "Ġknots": 15010,
    "Ġbeads": 18086,
    "Ġconsid": 1812,
    "Ġbury": 12045,
    "Ġobserver": 11991,
    "ego": 4037,
    "desk": 23812,
    "Ġassures": 14468,
    "spoke": 11024,
    "Ġexploring": 4306,
    "building": 17311,
    "Ġsort": 1507,
    "ouncement": 11748,
    "Ġfeel": 1261,
    "Ġglassy": 19563,
    "Ġbeeches": 9228,
    "ituted": 13875,
    "Ġincorruption": 26310,
    "Ġconsume": 12962,
    "Ġwavering": 23407,
    "Ġhelps": 9369,
    "ense": 2052,
    "Ġgloomily": 14803,
    "eray": 21269,
    "O": 51,
    "Ġver": 3396,
    "ancient": 9657,
    "rable": 11634,
    "croquet": 25748,
    "cherish": 24551,
    "Ġfeast": 10279,
    "william": 4562,
    "jee": 17580,
    "³": 116,
    "Ġrows": 10562,
    "ded": 2759,
    "Ġdances": 10813,
    "Ġeu": 6390,
    "herself": 4890,
    "sort": 6798,
    "Ġfelony": 18955,
    "Ġcomprised": 14270,
    "viv": 17699,
    "Ġderiv": 1738,
    "Ġpraise": 6486,
    "Ġthews": 21280,
    "Ġshelter": 17009,
    "coun": 10689,
    "Ġvaulted": 25171,
    "culiarity": 11142,
    "Ġlobes": 22120,
    "Ġintrodu": 1927,
    "Ġneighbourhood": 5126,
    "Ġcomb": 1050,
    "aces": 2069,
    "Ġbarber": 23792,
    "wand": 10739,
    "besides": 8699,
    "Ġhyperborean": 26341,
    "Ġrio": 23894,
    "Ġstooped": 14466,
    "Ġdisse": 18549,
    "Ġseparate": 5778,
    "provoke": 26072,
    "Ġneeds": 6606,
    "Ġhummed": 18776,
    "akes": 2219,
    "highest": 20411,
    "ham": 1703,
    "isters": 11922,
    "Ġproceed": 3246,
    "Ġsubsiding": 23437,
    "Ġcoars": 14274,
    "steering": 16637,
    "Ġpin": 7161,
    "Ġsubterraneous": 20268,
    "Ġreservo": 16832,
    "Ġbreathing": 9447,
    "Ġconsideration": 5191,
    "Ġdeliciousness": 24128,
    "Ġcomparable": 24280,
    "Ġinstant": 2705,
    "Ġloveliest": 20264,
    "weigh": 18665,
    "Ġrequisition": 22646,
    "Ġtissu": 25921,
    "ĠĠĠĠĠĠĠĠĠĠĠĠĠĠĠĠĠĠĠĠĠĠĠĠĠĠĠĠĠĠĠĠĠĠĠĠĠĠĠĠĠĠĠ": 12158,
    "Ġjoist": 19233,
    "Ġsuav": 22080,
    "walls": 25346,
    "icide": 11620,
    "Ġtrained": 8504,
    "bishop": 13697,
    "tery": 14039,
    "Ġsuddenness": 23383,
    "Ġpersecutor": 26097,
    "Ġpeter": 10537,
    "Ġsorrows": 13358,
    "sadly": 25527,
    "ising": 2256,
    "Ġsatire": 22904,
    "Ġsneeze": 24698,
    "Ġinstincts": 16987,
    "Ġcalculating": 9927,
    "Ġrephr": 21683,
    "urry": 13996,
    "Ġindisposed": 26289,
    "Ġuses": 1209,
    "Ġrattled": 15071,
    "Ġdistinctions": 18533,
    "Ġafter": 870,
    "Ġcister": 13884,
    "Ġbaw": 15572,
    "Ġhoard": 23354,
    "Ġslugg": 15271,
    "Ġadver": 5641,
    "p": 84,
    "keep": 3853,
    "Ġfrequ": 3330,
    "Ġfactory": 23281,
    "Ġcontemptible": 16954,
    "uling": 2258,
    "Ġjobs": 24833,
    "Ġcheetah": 14506,
    "terday": 4704,
    "cleanliness": 25872,
    "Ġconceits": 19393,
    "congreg": 25399,
    "Ġsustain": 10019,
    "Ġboldly": 9503,
    "Ġrepeatedly": 9023,
    "conquerable": 17401,
    "Ġshed": 8182,
    "discovering": 24253,
    "ĝ": 222,
    "Ġdec": 639,
    "ities": 1825,
    "Ġcatherine": 2814,
    "Ġmultiplied": 23693,
    "Ġsidelong": 11439,
    "Ġhours": 2821,
    "rolled": 9061,
    "Ġawakened": 10454,
    "Ġalmanac": 26486,
    "aph": 10955,
    "Ġinfle": 16367,
    "Ġdependence": 18629,
    "Ġgave": 2217,
    "erated": 21273,
    "Ġheavily": 6741,
    "Ġcategories": 4477,
    "99": 1894,
    "eskye": 21454,
    "Ġflukes": 5267,
    "Ġwillow": 18531,
    "step": 2457,
    "Ġwondered": 11126,
    "liber": 18815,
    "retched": 3071,
    "Ġphrenologist": 25608,
    "Ġchestnut": 19675,
    "Ġrewards": 10849,
    "Ġgranted": 22813,
    "robber": 21541,
    "willingness": 24754,
    "Ġcosine": 2371,
    "cely": 3577,
    "others": 7670,
    "Ġquicker": 16509,
    "Ġencounter": 6629,
    "Ġ38": 24080,
    "Ġconcocted": 26300,
    "chants": 21696,
    "Ġexcellence": 11452,
    "Ġconjunction": 25103,
    "Ġattested": 22626,
    "Ġcomfits": 21857,
    "Ġrummaged": 16911,
    "Ġstreaked": 19115,
    "A": 37,
    "Ġcooped": 22588,
    "Ġbeheaded": 11658,
    "Ġinvariably": 8065,
    "ics": 3260,
    "Ġclank": 15968,
    "ĠĠĠĠĠĠĠĠĠĠĠĠĠĠĠĠĠĠĠĠĠĠĠĠĠĠĠĠ": 9977,
    "Ġdripping": 13150,
    "Ġtink": 9150,
    "ni": 1652,
    "Ġruminated": 24601,
    "hes": 1398,
    "Ġpumping": 25644,
    "cing": 1013,
    "Ġclasped": 17208,
    "modesty": 22839,
    "Ġidle": 8254,
    "inery": 17734,
    "caps": 20809,
    "imodal": 17449,
    "Ġinwards": 15624,
    "Ġbarrels": 9438,
    "terr": 8155,
    "Ġsimul": 1806,
    "inate": 6234,
    "dense": 18717,
    "Ġtread": 9411,
    "isf": 2437,
    "replied": 11567,
    "llable": 6877,
    "Ġthinking": 4032,
    "moran": 24154,
    "alloyed": 22206,
    "Ġdistrict": 10320,
    "Ġilliterate": 26595,
    "Ġchisel": 20371,
    "Ġnat": 12649,
    "Ġholmes": 1307,
    "paused": 17376,
    "Ġfuller": 11157,
    "Ġindomitableness": 26572,
    "believed": 9935,
    "buff": 15321,
    "anoke": 21364,
    "Ġfemin": 13439,
    "Ġdefe": 21840,
    "gling": 10099,
    "ority": 8420,
    "¦": 104,
    "Ġconsort": 18724,
    "Ġravines": 25833,
    "Ġquadr": 8201,
    "somebody": 14565,
    "Ġnodded": 11972,
    "ifted": 4494,
    "Ġmisgiv": 14347,
    "Ġpondering": 17006,
    "Ġmoon": 4608,
    "eminently": 25108,
    "Ġdug": 21434,
    "Ġneskyeuna": 26460,
    "Ġessays": 19747,
    "Ġstays": 16563,
    "Ġshortly": 6197,
    "Ġboisterous": 20446,
    "Ġthoroughly": 8349,
    "Ġloosened": 26003,
    "Ġviciss": 11293,
    "Ġref": 911,
    "Ġarose": 7359,
    "Ġ84": 19712,
    "social": 11023,
    "toed": 18581,
    "Ġinfants": 16368,
    "umbers": 10919,
    "intelligent": 16845,
    "abulary": 4799,
    "Ġcontroverted": 23254,
    "pip": 6656,
    "aration": 12611,
    "Ġclaims": 13376,
    "Ġattached": 5392,
    "Ġpeasant": 13554,
    "Ġneur": 813,
    "Ġdestroy": 5772,
    "Ġextend": 18696,
    "bbing": 6324,
    "Ġswords": 19899,
    "fuller": 22491,
    "Ġstumbling": 21747,
    "kins": 7344,
    "Ġcombining": 22857,
    "Ġbewit": 15731,
    "Ġvices": 14085,
    "uming": 8493,
    "Ġleaving": 3906,
    "quietly": 10594,
    "staff": 21654,
    "tempest": 16960,
    "Ġgratifying": 13309,
    "Ġpolic": 13164,
    "Ġtravelled": 7772,
    "Ġrods": 9754,
    "glue": 17557,
    "herfield": 3632,
    "perai": 10277,
    "un": 373,
    "remind": 23195,
    "Ġcountless": 16384,
    "Ġquite": 1743,
    "Ġunexpl": 22044,
    "sail": 3604,
    "Ġbourgh": 5069,
    "benefit": 24643,
    "worm": 15455,
    "Ġstopping": 2751,
    "Ġmysteries": 11323,
    "ders": 8076,
    "stop": 11636,
    "Ġholding": 4978,
    "cheerfulness": 20183,
    "ensities": 22552,
    "performed": 18340,
    "Ġcoins": 11822,
    "Ġbracing": 16582,
    "Ġdozing": 22248,
    "Ġpout": 17908,
    "Ġrecol": 4030,
    "ighbour": 3391,
    "kitty": 10107,
    "orified": 21405,
    "Ġstaying": 8285,
    "Ġworkflow": 2476,
    "Ġpick": 4258,
    "Ġherein": 16193,
    "Ġrent": 11641,
    "urrection": 12412,
    "Ġhate": 5445,
    "Ġcongratulations": 10582,
    "Ġleaky": 2345,
    "arian": 10318,
    "oke": 1859,
    "alliance": 22205,
    "ediction": 17947,
    "minute": 11275,
    "coarse": 16489,
    "Ġvalue": 2085,
    "Ġharsh": 9523,
    "Ġvictims": 19807,
    "Ġperpetual": 12306,
    "Ġaromatic": 25926,
    "Ġbind": 12586,
    "Ġaz": 9631,
    "Ġadvocate": 13679,
    "](": 11467,
    "sufficiently": 14983,
    "Ġhistories": 14688,
    "ustration": 2260,
    "ermaid": 14298,
    "Ġmightiest": 12965,
    "Ġattendant": 11286,
    "ivates": 18283,
    "Ġarrows": 18344,
    "apidated": 22342,
    "Ġshrieked": 9550,
    "Ġdistricts": 20266,
    "tains": 10962,
    "arch": 1119,
    "Ġloose": 4648,
    "backward": 2684,
    "Ġbanking": 19633,
    "cott": 8075,
    "vers": 1327,
    "lesc": 11039,
    "Ġoverflowing": 17239,
    "mas": 5212,
    "Ġcontented": 9758,
    "Ġtrusty": 24106,
    "Ġweal": 21925,
    "mes": 1198,
    "ws": 7354,
    "Ġwhale": 627,
    "Ġtransaction": 22472,
    "Ġrelinquish": 17349,
    "Ġspray": 7896,
    "atherley": 7219,
    "Ġgloried": 22993,
    "Ġident": 2242,
    "Ġsigh": 10338,
    "aust": 15312,
    "belong": 12126,
    "jour": 20929,
    "Ġminiature": 11041,
    "Ġdit": 21424,
    "Ġlect": 9224,
    "Ġsons": 10767,
    "morn": 20978,
    "squeezing": 25914,
    "feather": 16045,
    "Ġapproximation": 2340,
    "Ġpublic": 4333,
    "ĠĠĠĠĠĠĠĠĠĠĠĠĠĠĠĠĠĠĠĠĠĠĠĠĠĠĠĠĠĠĠĠĠĠĠĠĠĠĠĠ": 4516,
    "Ġarrest": 7408,
    "Ġdines": 21427,
    "Ġzig": 18745,
    "expected": 5780,
    "itiousness": 21337,
    "Ġsuspected": 9064,
    "Ġhumming": 12990,
    "arter": 17895,
    "Ġapologies": 25197,
    "Ġprofessions": 11232,
    "Ġaccelerating": 1618,
    "Ġelevation": 14899,
    "apan": 6859,
    "Ġsailing": 5324,
    "Ġwaned": 17793,
    "Ġnarr": 5085,
    "Ġspokes": 18314,
    "Ġentreating": 24209,
    "Ġincrease": 9372,
    "Ġshrine": 19534,
    "Ġadvert": 10573,
    "Ġbingleys": 18996,
    "shell": 16289,
    "Ġpop": 5151,
    "Ġdeck": 2139,
    "Ġste": 1387,
    "Ġcream": 22728,
    "top": 4485,
    "Ġperplexed": 23661,
    "remorse": 14470,
    "Ġgust": 21601,
    "incess": 15484,
    "Ġclinging": 10293,
    "Ġappointed": 20106,
    "clut": 23153,
    "intment": 4719,
    "Ġcalifornian": 25853,
    "Ġfill": 5701,
    "Ġchristmas": 6923,
    "Ġlull": 15654,
    "books": 8667,
    "explaining": 23146,
    "kine": 15378,
    "ilt": 2967,
    "Ġdefy": 11900,
    "enthusiastic": 20695,
    "Ġvolcanoes": 24148,
    "Ġprair": 7747,
    "Ġapartment": 6635,
    "Ġforced": 4353,
    "zening": 21151,
    "Ġcombines": 1151,
    "Ġoft": 9196,
    "arent": 4251,
    "Ġhanded": 8218,
    "preserver": 20216,
    "vineyard": 25422,
    "Ġdisplays": 19859,
    "zing": 7821,
    "ided": 2787,
    "companions": 15025,
    "Ġcritical": 7473,
    "Ġnormalizes": 1862,
    "Ġold": 1056,
    "hammer": 14490,
    "Ġwidth": 16773,
    "Ġcanallers": 13630,
    "magnificent": 20277,
    "extending": 22759,
    "ffic": 22156,
    "Ġheal": 21685,
    "Ġdusting": 24598,
    "Ġhomage": 12358,
    "warm": 8103,
    "rr": 17651,
    "Ġperem": 12936,
    "degrees": 22154,
    "Ġreel": 9215,
    "Ġ39": 19493,
    "Ġspend": 5306,
    "Ġsituated": 9449,
    "Ġbelieved": 4368,
    "Ġpresents": 8246,
    "Ġrevive": 13482,
    "rabbit": 20594,
    "conjecture": 15125,
    "Ġhear": 1966,
    "operation": 13503,
    "Ġbenef": 3492,
    "Ġstopped": 5958,
    "Ġquality": 3531,
    "Ġeventually": 8620,
    "Ġtaurus": 21181,
    "agos": 21909,
    "Ġfonder": 17882,
    "Ġunperceived": 22042,
    "Ġbosom": 6938,
    "weather": 7228,
    "irited": 15790,
    "visible": 10535,
    "satisfied": 10580,
    "Ġfals": 15584,
    "Ġharness": 17930,
    "iour": 4039,
    "Ġstreams": 12196,
    "Ġdifferences": 18715,
    "Ġstone": 4645,
    "Ġshoe": 14567,
    "Ġsorrow": 4628,
    "ickering": 22674,
    "olic": 14053,
    "Ġpleasanter": 19067,
    "Ġmag": 1430,
    "Ġjokes": 18409,
    "Ġgriff": 22812,
    "Ġperception": 9752,
    "elevating": 20409,
    "Ġcolds": 23760,
    "Ġrepairs": 19085,
    "resembling": 25933,
    "Ġske": 4814,
    "unsupervised": 10890,
    "Ġpant": 10818,
    "Ġinsufficient": 9674,
    "acled": 16084,
    "Ġfumbled": 17883,
    "87": 20759,
    "id": 338,
    "joining": 19449,
    "Ġsickle": 24247,
    "fer": 1974,
    "links": 20960,
    "Ġscaffold": 18401,
    "orily": 15576,
    "wharf": 20609,
    "atched": 6375,
    "Ġassociate": 13453,
    "nails": 17615,
    "Ġwarbling": 26169,
    "Ġfootmarks": 19339,
    "clings": 23154,
    "Ġdiver": 2528,
    "okingly": 22383,
    "Ġchink": 15935,
    "ography": 13366,
    "Ġprefers": 20517,
    "Ġsm": 704,
    "hear": 10148,
    "Ġsens": 1853,
    "Ġdegree": 3705,
    "Ġstructured": 2971,
    "putting": 14102,
    "Ġfestoon": 20297,
    "rinted": 21046,
    "Ġfurn": 3711,
    "Ġdauntless": 26338,
    "Ġoper": 2119,
    "_)": 9104,
    "Ġhopkins": 23133,
    "luded": 4231,
    "Ġslipping": 13364,
    "Ġdoc": 7199,
    "Ġweaver": 11690,
    "Ġcollapsed": 15084,
    "Ġagreeable": 4552,
    "Ġcous": 3440,
    "Ġhoneymoon": 25646,
    "revolver": 25628,
    "Ġconj": 8462,
    "Ġrelu": 1046,
    "offing": 23336,
    "Ġtenderly": 11315,
    "Ġdeduction": 14901,
    "joy": 3337,
    "Ġcell": 6238,
    "Ġmeantime": 6207,
    "Ġfrolic": 23928,
    "ached": 2319,
    "flatter": 23970,
    "Ġreal": 1633,
    "Ġclear": 1951,
    "buck": 17492,
    "ĠĠĠĠĠĠĠĠĠĠĠĠĠĠĠĠĠĠĠĠĠĠĠĠĠĠĠĠĠĠĠĠĠĠĠĠĠĠĠĠĠĠ": 24211,
    "Ġobtru": 18673,
    "Ġuncles": 23434,
    "chased": 18044,
    "atha": 6573,
    "Ġmonomania": 17085,
    "gan": 2199,
    "ulating": 10888,
    "orated": 12595,
    "Ġtakes": 5007,
    "Ġconsiderations": 9412,
    "Ġstaff": 14008,
    "Ġappearances": 10452,
    "preserve": 25304,
    "Ġforbear": 17123,
    "itious": 8783,
    "Ġkind": 1786,
    "Ġmonotonically": 3836,
    "Ġtease": 18807,
    "esteemed": 26010,
    "pul": 8757,
    "Ġkissed": 10047,
    "excuse": 13384,
    "Ġvehem": 22893,
    "Ġengineering": 3024,
    "Ġbrilliant": 11415,
    "Ġappeals": 16318,
    "Ġwronged": 24249,
    "Ġitself": 2520,
    "oda": 15752,
    "hetic": 12207,
    "Ġdeputation": 21844,
    "tting": 17681,
    "rut": 8093,
    "Ġsoliloqu": 11888,
    "hroom": 12480,
    "Ġcolony": 18766,
    "Ġwhar": 7387,
    "Ġpictures": 5503,
    "Ġsingularly": 12152,
    "Ġmeat": 8153,
    "Ġdanced": 7843,
    "wretched": 10743,
    "Ġdair": 17891,
    "inence": 15483,
    "Ġgeography": 23373,
    "Ġtimor": 24226,
    "Ġmoth": 17804,
    "Ġharder": 14451,
    "fel": 8737,
    "Ġconfiding": 19040,
    "Ġstrives": 23698,
    "Ġshares": 23248,
    "Ġsweat": 13143,
    "Ġhome": 2028,
    "Ġreverse": 16983,
    "forgot": 11034,
    "athom": 12943,
    "Ġdecorated": 22445,
    "impe": 21712,
    "inct": 3295,
    "cy": 645,
    "ster": 1961,
    "warmest": 25030,
    "Ġprosperity": 20260,
    "unalterable": 21891,
    "Ġoverlook": 10960,
    "Ġunable": 4950,
    "Ġadmirable": 8270,
    "Ġassemblage": 26354,
    "three": 5239,
    "cturn": 17989,
    "Ġpenetrated": 13475,
    "brace": 16943,
    "Ġaudio": 24771,
    "Ġcrags": 23529,
    "Ġwearied": 15797,
    "ently": 1422,
    "Ġcentrally": 23835,
    "Ġinnermost": 12164,
    "razor": 21641,
    "Ġserves": 4668,
    "eddling": 11905,
    "reduc": 5459,
    "Ġhail": 7399,
    "pedest": 24823,
    "conqu": 14246,
    "Ġvancou": 22879,
    "five": 6357,
    "flu": 9119,
    "Ġkuiperai": 10936,
    "xes": 21143,
    "Ġic": 9627,
    "Ġbloss": 19258,
    "Ġerrors": 2595,
    "iss": 2178,
    "inite": 6003,
    "uded": 6287,
    "iting": 2158,
    "ellow": 3878,
    "Ġgpus": 3733,
    "Ġalpha": 13591,
    "Ġdiabolically": 25514,
    "Ġinward": 11609,
    "Ġpatronage": 17053,
    "Ġmining": 22833,
    "provid": 11150,
    "Ġour": 1009,
    "orously": 8421,
    "Ġproprietor": 12376,
    "train": 2034,
    "oct": 7553,
    "marriage": 7745,
    "Ġtale": 5142,
    "¤": 102,
    "Ġhob": 12633,
    "befall": 22500,
    "Ġwell": 901,
    "Ġcadiz": 17327,
    "head": 1436,
    "restrained": 16338,
    "flinging": 20870,
    "gracechurch": 24581,
    "Ġtormented": 8678,
    "asmuch": 10196,
    "Ġcontro": 1687,
    "Ġser": 1671,
    "Ġperemptory": 25741,
    "Ġmin": 1027,
    "Ġborrow": 10172,
    "ogy": 22713,
    "Ġtour": 9149,
    "disappointed": 25192,
    "Ġsorts": 6886,
    "resh": 8406,
    "Ġseven": 4542,
    "osy": 11761,
    "Ġcognitive": 13637,
    "nonsense": 17616,
    "Ġrefuse": 5739,
    "unct": 18157,
    "Ġsacrificial": 24872,
    "Ġuniformity": 23485,
    "spread": 8390,
    "Ġcollection": 8224,
    "Ġincredulity": 11312,
    "tiger": 13799,
    "hundred": 8332,
    "Ġsqualid": 14370,
    "Ġafore": 10759,
    "Ġvisions": 12978,
    "Ġswallow": 8952,
    "nourished": 26399,
    "iant": 5427,
    "antarctic": 22104,
    "Ġbreaking": 6311,
    "Ġincreased": 2211,
    "mouthed": 12403,
    "Ġrepenting": 25323,
    "critters": 14778,
    "nial": 20986,
    "Ġpian": 13919,
    "Ġpraises": 16731,
    "Ġdams": 16455,
    "offended": 16398,
    "acked": 10975,
    "Ġclum": 8875,
    "Ġkingdom": 12021,
    "Ġmechanisms": 1577,
    "Ġstill": 1160,
    "curiosity": 8627,
    "bur": 4686,
    "Ġmoritz": 11910,
    "christmas": 20258,
    "poor": 6062,
    "Ġlowest": 11123,
    "eked": 16403,
    "Ġstatistical": 11105,
    "Ġcentury": 8292,
    "epend": 3317,
    "69": 17476,
    "Ġencapsulate": 13677,
    "Ġpel": 17906,
    "Ġcontention": 22431,
    "Ġpole": 6433,
    "Ġappearing": 9843,
    "loops": 12887,
    "urities": 18052,
    "wall": 10138,
    "rarely": 21638,
    "Ġthunder": 4823,
    "Ġfanned": 19101,
    "Ġconnex": 10667,
    "Ġavast": 9922,
    "Ġsteadfast": 8682,
    "icherry": 15138,
    "drove": 16994,
    "stream": 15689,
    "Ġgid": 13964,
    "Ġathirst": 20601,
    "Ġla": 5914,
    "Ġdexterously": 25296,
    "dug": 18463,
    "Ġle": 333,
    "bergs": 18682,
    "ivory": 10272,
    "Ġhills": 6527,
    "Ġencamp": 22804,
    "atmosphere": 21267,
    "sails": 7496,
    "Ġdetestable": 15101,
    "Ġexamples": 2603,
    "Ġservants": 6611,
    "Ġfascinating": 17330,
    "Ġcriminals": 19924,
    "gracious": 11834,
    "Ġthink": 987,
    "Ġpossessed": 5195,
    "negro": 18488,
    "Ġverdure": 10614,
    "prov": 16424,
    "st": 315,
    "Ġdegenerating": 25800,
    "allic": 12817,
    "feared": 11805,
    "Ġunstructured": 3000,
    "Ġexpression": 4515,
    "Ġdeeper": 2084,
    "Ġthom": 21520,
    "iece": 3231,
    "Ġimmeas": 18333,
    "Ġmissed": 8557,
    "Ġslam": 13062,
    "Ġundaunted": 24121,
    "asons": 6016,
    "Ġeternally": 11370,
    "Ġawful": 6200,
    "Ġriotous": 20547,
    "Ġsundry": 20077,
    "Ġcoils": 9306,
    "Ġsmothered": 20722,
    "Ġguardsmen": 20633,
    "Ġmiscell": 16153,
    "Ġparents": 6753,
    "Ġqueequeg": 2013,
    "score": 18858,
    "Õ": 150,
    "Ġimmortality": 26327,
    "Ġ0": 1901,
    "Ġobliged": 4287,
    "ue": 1181,
    "nearer": 22450,
    "Ġsinners": 18953,
    "viii": 12023,
    "Ġdisquis": 22532,
    "Ġsadness": 13290,
    "algorithms": 8294,
    "Ġdeclines": 23966,
    "q": 85,
    "Ġrealising": 18983,
    "Ġcorpora": 26581,
    "Ġfisherman": 12079,
    "weave": 22689,
    "Ġsprawling": 22144,
    "Ġship": 1087,
    "omit": 13980,
    "ledge": 1329,
    "Ġmorose": 18851,
    "Ġstock": 7454,
    "Ġmoccas": 22441,
    "Ġthings": 1963,
    "qual": 8158,
    "Ġfolding": 19729,
    "plexion": 14264,
    "Ġbount": 15571,
    "sticks": 25965,
    "mystical": 25318,
    "Ġcounty": 9032,
    "Ġaccept": 4411,
    "Ġsymph": 22212,
    "Ġvolley": 24147,
    "oters": 21804,
    "Ġdrinking": 12172,
    "Ġ98": 24595,
    "Ġprefer": 6416,
    "Ġjoll": 11768,
    "ocity": 8279,
    "Ġvengeance": 5886,
    "Ġimbec": 14158,
    "Ġer": 8106,
    "tur": 5688,
    "Ġintrusted": 21997,
    "Ġairs": 14511,
    "Ġinglorious": 24423,
    "Ġyonder": 7391,
    "Ġdiscrimination": 23607,
    "Ġpeddling": 21486,
    "ondency": 15272,
    "serious": 14450,
    "Ġhearties": 18967,
    "Ġbefriend": 18084,
    "Ġmarty": 20293,
    "ape": 1903,
    "Ġcompression": 18148,
    "Ġmuster": 16125,
    "Ġcorners": 18877,
    "Ġclump": 15969,
    "Ġdesist": 16243,
    "Ġhorrify": 23822,
    "ĠĠĠĠĠĠĠĠĠĠĠĠĠĠĠĠĠĠĠĠĠĠĠĠĠĠĠĠĠĠĠĠĠĠĠĠ": 23669,
    "Ġelaborate": 18638,
    "othed": 16512,
    "Ġclosest": 16764,
    "Ġ120": 16859,
    "Ġkindling": 19035,
    "ev": 6951,
    "Ġsafe": 5103,
    "Ġkirwin": 8498,
    "Ġhooped": 23357,
    "Ġpilot": 5986,
    "headers": 23113,
    "Ġsordid": 26423,
    "distinguished": 10528,
    "Ġremonstrance": 20626,
    "Ġwreaths": 25938,
    "wise": 2573,
    "onder": 3781,
    "placidity": 25989,
    "Ġgrowing": 6751,
    "Ġvultures": 25654,
    "Ġmetropolis": 17276,
    "Ġlomb": 21563,
    "Ġgaping": 13971,
    "keepers": 16661,
    "anelles": 26435,
    "Ġpersonality": 16478,
    "include": 23591,
    "Ġparcels": 25466,
    "Ġcas": 8413,
    "Ġgreenland": 5761,
    "Ġxii": 11993,
    "Ġmovement": 9970,
    "Ġearly": 2079,
    "Ġdisciple": 22788,
    "Ġpart": 859,
    "boone": 23256,
    "Ġlounging": 10024,
    "fam": 5990,
    "autumn": 23344,
    "ascertaining": 26461,
    "Ġdaughters": 4422,
    "Ġrim": 21970,
    "Ġsanely": 24985,
    "Ġchemist": 11135,
    "Ġexceptional": 19374,
    "Ġflor": 8564,
    "Ġcircular": 13114,
    "Ġclifford": 22359,
    "Ġtropical": 17065,
    "âĢĿ]": 21820,
    "Ġjune": 10290,
    "Ġrealise": 16339,
    "Ġirrevoc": 15040,
    "Ġbur": 2699,
    "Ġdeem": 18138,
    "Ġ46": 19494,
    "Ġtough": 13817,
    "yra": 8104,
    "Ġdraught": 9846,
    "determine": 19947,
    "Ġsupple": 23005,
    "hy": 4739,
    "windward": 24162,
    "aks": 8508,
    "Ġsmiting": 12902,
    "Ġbites": 23745,
    "feet": 6569,
    "mysterious": 26052,
    "Ġrally": 21973,
    "Ġsales": 12811,
    "Ġname": 2083,
    "women": 15458,
    "keys": 15861,
    "aged": 2605,
    "Ġrecording": 24433,
    "elve": 4641,
    "fine": 10092,
    "Ġinterment": 22580,
    "acknowled": 10976,
    "frisco": 16788,
    "inople": 13831,
    "Ġdad": 12604,
    "organic": 25947,
    "plicable": 10257,
    "Ġfettered": 24568,
    "Ġmatrix": 1607,
    "eli": 3875,
    "Ġinfluenced": 19635,
    "saturday": 14860,
    "Ġdisappointment": 6628,
    "ived": 1535,
    "tured": 13797,
    "Ġuttered": 7279,
    "Ġcircumstance": 4986,
    "benevolently": 25601,
    "gences": 20879,
    "teak": 22821,
    "Ġpsych": 10178,
    "our": 534,
    "Ġblundering": 26285,
    "Ġloomed": 12304,
    "Ġbodings": 21394,
    "lessly": 4556,
    "seemingly": 25363,
    "Ġtracks": 18892,
    "supers": 22639,
    "Ġcells": 13887,
    "Ġpreserved": 9264,
    "Ġgunwales": 12244,
    "Ġcontemplative": 19895,
    "Ġting": 8400,
    "derness": 11740,
    "Ġpush": 9186,
    "Ġmanly": 22329,
    "Ġbrave": 6330,
    "explained": 23147,
    "Ġcursed": 6727,
    "object": 6883,
    "Ġnothing": 1359,
    "Ġlayer": 1011,
    "Ġevolved": 9894,
    "Ġgurg": 15676,
    "Ġbennets": 9808,
    "does": 6195,
    "Ġfixing": 13159,
    "Ġdiscernible": 15057,
    "lleg": 20953,
    "tempted": 26404,
    "ignorant": 13566,
    "eu": 17531,
    "happiness": 6469,
    "Ġtransformer": 2636,
    "Ġwines": 21290,
    "Ġneskye": 21535,
    "Ġvari": 832,
    "Ġadopted": 15181,
    "Ġden": 3112,
    "acy": 3955,
    "rief": 6203,
    "subst": 12168,
    "gments": 12473,
    "Ġhoars": 19079,
    "fes": 20853,
    "Ġquestions": 3972,
    "utterly": 20015,
    "umberland": 16838,
    "Ġtartar": 17324,
    "pid": 1406,
    "Ġsucc": 12787,
    "ucket": 2484,
    "Ġbildad": 3783,
    "Ġjur": 12838,
    "wrapped": 15212,
    "deliber": 17428,
    "ris": 9139,
    "Ġdancing": 5703,
    "Ġqueerest": 16416,
    "Ġcarpenters": 16753,
    "Ġcompressed": 21855,
    "impulse": 20647,
    "Ġadds": 1805,
    "Ġcheery": 16372,
    "Ġcaught": 3731,
    "Ġtandem": 26412,
    "Ġrelationship": 2313,
    "Ġstiggs": 25793,
    "seems": 10876,
    "hearing": 8405,
    "Ġboarders": 16601,
    "assisted": 22312,
    "Ġsk": 960,
    "iline": 21725,
    "Ġfling": 9662,
    "Ġcomfort": 3442,
    "Ġbecame": 2692,
    "Ġobscurely": 20191,
    "Ġstreet": 2957,
    "pitch": 13302,
    "Ġheh": 21684,
    "Ġmanner": 2197,
    "Ġparmacetti": 20607,
    "Ġhonour": 3923,
    "Ġdonkey": 23231,
    "slackened": 26095,
    "reast": 17759,
    "Ġfo": 1650,
    "yramid": 8369,
    "Ġtester": 21175,
    "Ġshot": 4544,
    "dissatisf": 26130,
    "sc": 1259,
    "ject": 875,
    "Ġtrample": 20330,
    "Ġabstract": 17183,
    "Ġvagabond": 20206,
    "adler": 21767,
    "stay": 9682,
    "Ġsmack": 9303,
    "Ġinstinct": 6576,
    "Ġhansom": 13667,
    "Ġpossessing": 16577,
    "feeder": 12364,
    "Ġundone": 24119,
    "Ġphysiognomically": 25613,
    "Ġsol": 1100,
    "Ġimprecate": 20521,
    "Ġtrotting": 19979,
    "onts": 15521,
    "paper": 9138,
    "ish": 551,
    "ordinary": 4408,
    "Ġsavoury": 23880,
    "phantoms": 24680,
    "surd": 6933,
    "eldom": 4414,
    "objections": 19918,
    "che": 3175,
    "Ġspouted": 14676,
    "Ġlye": 21555,
    "ato": 17770,
    "Ġinclud": 1511,
    "dogs": 25403,
    "abs": 11669,
    "introdu": 8939,
    "Ġcontin": 5382,
    "Ġende": 21937,
    "childhood": 16867,
    "huzza": 20915,
    "Ġpretension": 23766,
    "Ġsentin": 16376,
    "itute": 9653,
    "Ġmake": 1285,
    "Ġaccord": 4026,
    "Ġeast": 5370,
    "Ġrem": 954,
    "Ġsqu": 1038,
    "Ġmeaning": 1414,
    "gu": 3957,
    "Ġgenerator": 3384,
    "forgive": 18727,
    "Ġjustify": 11074,
    "Ġcoron": 4464,
    "Ġexpectantly": 23526,
    "Ġdwell": 5813,
    "tinted": 17684,
    "Ġadrift": 11725,
    ",âĢĿ": 579,
    "Ġaspired": 25985,
    "Ġcompat": 2936,
    "Ġbeacon": 21761,
    "Ġmercy": 9000,
    "Ġtimber": 13353,
    "upright": 23022,
    "floating": 12231,
    "Ġlik": 2521,
    "Ġadvent": 4357,
    "Ġpattern": 1416,
    "Ġimprudence": 10299,
    "iz": 362,
    "intments": 18822,
    "Ġwashing": 9707,
    "Ġnamed": 6140,
    "stat": 21642,
    "Ġsides": 4579,
    "patter": 4867,
    "Ġall": 422,
    "Ġnobody": 6159,
    "Ġmachines": 1778,
    "Ġflock": 21415,
    "encing": 21285,
    "Ġexhib": 6350,
    "sell": 13783,
    "Ġcus": 21346,
    "Ġpossible": 2583,
    "Ġpredict": 673,
    "Ġjesty": 18406,
    "Ġwise": 6811,
    "su": 793,
    "Ġchurned": 18386,
    "conda": 18994,
    "Ġstow": 21735,
    "absolute": 17124,
    "Ġlig": 21552,
    "Ġdivinest": 25722,
    "nailed": 20998,
    "sloop": 26146,
    "ute": 4642,
    "Ġsimilitude": 19212,
    "Ġsmart": 11818,
    "Ġfort": 2577,
    "Ġjealousy": 13579,
    "Ġinstructed": 19286,
    "med": 1913,
    "cul": 1898,
    "peare": 18913,
    "Ġrounded": 14440,
    "Ġpoor": 1710,
    "Ġbang": 17856,
    "Ġphyseter": 26587,
    "Ġintens": 7003,
    "Ġscant": 22285,
    "Ġsneer": 13450,
    "Ġrepose": 6742,
    "dev": 7632,
    "Ġtreat": 3180,
    "stumps": 21657,
    "ious": 771,
    "Ġstrategy": 2223,
    "destined": 24116,
    "Ġhumane": 11887,
    "n": 82,
    "Ġdol": 9666,
    "legs": 13185,
    "erland": 9642,
    "atively": 2697,
    "agation": 1257,
    "Ŀ": 256,
    "Ġcollections": 22864,
    "Ġhurrying": 11997,
    "bitts": 26123,
    "Ġtroub": 22370,
    "moored": 22708,
    "vapor": 25756,
    "Ġcondense": 21813,
    "royal": 11394,
    "summer": 11996,
    "Ġglanced": 5953,
    "Ġreck": 6538,
    "Ġstove": 6734,
    "stern": 7863,
    "Ġtro": 7355,
    "experienced": 15124,
    "Ġdoors": 6418,
    "Ġprovidence": 18747,
    "consum": 12874,
    "aye": 3661,
    "Ġdivided": 8635,
    "dancing": 12458,
    "Ġdepending": 14299,
    "aneous": 7239,
    "fifty": 12355,
    "garious": 17559,
    "Ġmedium": 16707,
    "Ġunrecord": 16622,
    "attending": 18918,
    "Ġtip": 15473,
    "Ġpaddle": 20062,
    "Ġparcel": 15202,
    "bucket": 17495,
    "Ġmeditation": 16706,
    "Ġdrawn": 4277,
    "Ġunsophisticated": 25993,
    "Ġclimes": 12844,
    "Ġrheumatic": 20707,
    "sphere": 22737,
    "Ġintroducing": 11978,
    "canonical": 22969,
    "Ġwounds": 17792,
    "cement": 2817,
    "Ģ": 227,
    "Ġsurrounds": 24233,
    "ĠĠĠĠĠĠĠĠĠĠĠĠĠĠĠĠĠĠĠĠĠĠ": 16231,
    "john": 11499,
    "Ġchildhood": 13141,
    "?_": 8071,
    "Ġstepmother": 16093,
    "Ġviciously": 24403,
    "buoy": 7761,
    "put": 414,
    "apprehension": 26115,
    "iards": 17575,
    "listened": 15045,
    "Ġharmless": 9967,
    "Ġfanciful": 24787,
    "Ġassuming": 16693,
    "explanation": 12361,
    "riors": 18188,
    "antediluvian": 24345,
    "regards": 23468,
    "Ġdetails": 6566,
    "pull": 6796,
    "itates": 13871,
    "Ġelastic": 4362,
    "Ġtilted": 20416,
    "bree": 15317,
    "Ġgreas": 17994,
    "lynes": 15707,
    "maid": 8554,
    "Ġbakers": 17868,
    "Ġpuzzle": 11306,
    "dispute": 23501,
    "alogue": 25163,
    "Ġaffidav": 18790,
    "attributed": 23124,
    "Ġupp": 13994,
    "Ġk": 485,
    "Ġpistol": 7848,
    "03": 20750,
    "tling": 9144,
    "Ġlatent": 19658,
    "Ġmeditating": 20046,
    "antages": 7191,
    "Ġappeased": 23204,
    "Ġundec": 22024,
    "Ġre": 317,
    "Ġlung": 7167,
    "eded": 9675,
    "Ġraise": 6167,
    "Ġhovering": 10180,
    "Ġyore": 21783,
    "Ġtill": 1823,
    "ie": 729,
    "Ġlivery": 16002,
    "mouse": 15395,
    "hereditary": 26420,
    "Ġmout": 17800,
    "lamps": 25261,
    "athered": 6972,
    "Ġadler": 8175,
    "tish": 17678,
    "Ġexhaustion": 14963,
    "Ġunspeakable": 10058,
    "Ġguided": 10461,
    "Ġcombination": 22856,
    "give": 4688,
    "Ġreserves": 19673,
    "Ġregal": 16075,
    "eks": 4727,
    "Ġcurios": 18848,
    "Ġregular": 935,
    "Ġnovels": 15932,
    "Ġgree": 7594,
    "Ġanimate": 23426,
    "Ġoccasional": 7288,
    "Ġeucl": 24708,
    "Ġestimate": 19376,
    "collins": 6915,
    "isance": 17849,
    "oce": 10715,
    "Ġretiring": 16283,
    "Ġsuperhuman": 23455,
    "omn": 15693,
    "ges": 2873,
    "Ġinsurg": 23684,
    "Ġinterview": 9772,
    "Ġjollity": 25567,
    "Ġbits": 11590,
    "assistance": 20374,
    "Ġhousekeeper": 7455,
    "Ġfoot": 3166,
    "dia": 2135,
    "Ġ41": 24081,
    "Ġadvantages": 9813,
    "treat": 12517,
    "enchanted": 26425,
    "Ġsoil": 9257,
    "Ġcoquet": 22589,
    "Ġstrangled": 24135,
    "Ġchamounix": 14866,
    "cles": 8729,
    "Ġdate": 7842,
    "Ġpeculiarity": 12937,
    "Ġvanity": 7046,
    "Ġappend": 18363,
    "baggage": 24927,
    "Ġitem": 12705,
    "Ġgrievous": 13264,
    "Ġthinkings": 22816,
    "Ġcrate": 19121,
    "Ġemblematical": 25789,
    "val": 1168,
    "Ġmister": 22762,
    "Ġgobern": 22428,
    "unavoid": 14064,
    "discern": 14853,
    "Ġdetestation": 17129,
    "Ġstarlight": 24628,
    "Ġadversary": 12177,
    "Ġseventh": 18207,
    "Ġparametric": 2395,
    "Ġchuckled": 10649,
    "incl": 8111,
    "Ġrepresented": 8940,
    "Ġfools": 14483,
    "got": 6954,
    "Ġboone": 11844,
    "Ġcased": 21349,
    "stubb": 6019,
    "Ġprotesting": 14744,
    "naturally": 14583,
    "generations": 23788,
    "Ġinsertion": 26345,
    "Ġinferiority": 17115,
    "Ġdis": 693,
    "Ġwinds": 5746,
    "Ġformation": 2941,
    "Ġreveries": 11348,
    "out": 467,
    "Ġepaulets": 24906,
    "reply": 19725,
    "Ġinduced": 8674,
    "Ġconveying": 19717,
    "Ġclothe": 4711,
    "Ġexertion": 8055,
    "apter": 1195,
    "Ġhungry": 10534,
    "Ġmonica": 22991,
    "europe": 20668,
    "Ġeveryone": 8920,
    "Ġcompacted": 23510,
    "Ġintelligences": 12835,
    "Ġmotions": 8282,
    "Ġquantization": 19856,
    "comb": 11035,
    "Ġoppressive": 20458,
    "Ġtexas": 25923,
    "Ġimitated": 18332,
    "Ġtreas": 7357,
    "Ġinstructive": 19287,
    "Ġnaught": 8129,
    "ler": 3495,
    "Ġminutely": 14561,
    "Ġhunters": 6301,
    "Ġaloud": 6253,
    "Ġforlorn": 14017,
    "passing": 14814,
    "eringly": 23009,
    "Ġwester": 25156,
    "Ġcircumference": 13547,
    "fact": 6359,
    "supplement": 14799,
    "nson": 16096,
    "Ġexist": 9233,
    "Ġghast": 9211,
    "Ġadventures": 7748,
    "Ġfurnaces": 24008,
    "precise": 19354,
    "trad": 21078,
    "Ġunprecedented": 15857,
    "Ġmun": 12566,
    "Ġbuy": 8301,
    "Ġcheeks": 5959,
    "Ġworm": 9164,
    "figures": 20125,
    "Ġdigging": 14940,
    "Ġforgetfulness": 14607,
    "beside": 19879,
    "charm": 13992,
    "Ġpause": 5707,
    "weaving": 18666,
    "smo": 10127,
    "daw": 17523,
    "strade": 5065,
    "Ġunhinged": 26218,
    "Ġpacked": 9982,
    "apprehens": 17408,
    "count": 4216,
    "Ġrenow": 18030,
    "Ġyield": 5093,
    "Ġwantest": 18791,
    "Ġcalifornia": 20533,
    "punishment": 15148,
    "Ġwaved": 9646,
    "Ġlevi": 3035,
    "ppa": 10241,
    "Ġwhaler": 7519,
    "Ġleap": 5825,
    "Ġpanther": 16820,
    "Ġarchitecture": 1103,
    "urning": 12921,
    "Ġinsignificant": 20459,
    "Ġheart": 1596,
    "Ġeasiness": 23537,
    "Ġindignant": 12243,
    "Ġmade": 1049,
    "Ġintensified": 17019,
    "Ġwilds": 16510,
    "Ġenigmatical": 20600,
    "Ġlubber": 17446,
    "Ġlug": 15655,
    "Ġplunging": 14954,
    "Ġtales": 10143,
    "consciously": 19628,
    "Ġrending": 19470,
    "arming": 8953,
    "Ġwarring": 16866,
    "Ġrossum": 3012,
    "ually": 2772,
    "Ġwalked": 3145,
    "Ġslew": 23384,
    "Ġunfathomable": 20551,
    "Ġclut": 7641,
    "partner": 19223,
    "warn": 11544,
    "Ġsakes": 18327,
    "Ġdescribed": 6607,
    "relig": 15514,
    "Ġlangu": 576,
    "Ġdest": 2238,
    "affect": 13216,
    "Ġimputation": 22177,
    "iber": 6506,
    "Ġportents": 14680,
    "Ġresembles": 25970,
    "Ġassumed": 9467,
    "ins": 1376,
    "Ġhus": 3096,
    "separated": 20162,
    "unhappy": 10239,
    "Ď": 207,
    "ich": 470,
    "Ġinsensible": 12328,
    "Ġsupposed": 4558,
    "Ġorphan": 12386,
    "Ġgeese": 7694,
    "Ġamericans": 14746,
    "bohem": 19002,
    "Ġbrightly": 13229,
    "Ġcheapside": 23292,
    "Ġrhone": 25231,
    "ases": 1524,
    "Ġshivered": 14110,
    "cont": 2918,
    "Ġworthy": 7240,
    "baden": 25616,
    "Ġdepression": 21845,
    "Ġextended": 7926,
    "rible": 3230,
    "Ġsibbald": 21233,
    "Ġtorn": 6001,
    "thank": 4949,
    "usal": 7638,
    "fishing": 20861,
    "Ġdiscretion": 10349,
    "Ġaffirmative": 15225,
    "Ġwork": 1335,
    "Ġbelshazzar": 16228,
    "press": 1733,
    "Ġheaviest": 23328,
    "Ġinvincible": 23481,
    "etite": 21583,
    "anks": 3918,
    "invest": 11561,
    "Ġdevoid": 18683,
    "hammock": 16356,
    "Ġstones": 9223,
    "gd": 3130,
    "utored": 15666,
    "Ġdistantly": 18532,
    "Ġcrabs": 19176,
    "Ġoptimal": 1856,
    "Ġwithheld": 18117,
    "Ġvel": 7185,
    "Ġcities": 17829,
    "Ġfired": 16157,
    "li": 1189,
    "Ġgardeners": 12124,
    "Ġovercame": 9748,
    "Ġapart": 4745,
    "Ġgaol": 19570,
    "Ġprayer": 16668,
    "Ġdeer": 12724,
    "Ġbritain": 16957,
    "Ġaugment": 8695,
    "Ġcorpore": 13404,
    "ustry": 18357,
    "Ġeager": 3573,
    "igen": 4830,
    "medium": 23641,
    "allen": 22201,
    "urre": 10857,
    "Ġtottenham": 24144,
    "Ġcents": 17830,
    "Ġlawyers": 25249,
    "Ġtemperature": 1003,
    "frank": 7758,
    "Ġastonishing": 10503,
    "expression": 10549,
    "scattered": 23001,
    "Ġincapable": 7422,
    "Ġmapple": 11151,
    "Ġcommanding": 16591,
    "digger": 24311,
    "Ġdef": 1201,
    "rug": 18342,
    "rength": 4104,
    "aceti": 7112,
    "pride": 11211,
    "scans": 22995,
    "ns": 756,
    "Ġoverseeing": 22363,
    "Ġare": 527,
    "dost": 14535,
    "Ġbuying": 23999,
    "urously": 18053,
    "Ġbought": 8418,
    "otted": 14026,
    "tw": 2813,
    "Ġpersuasion": 10500,
    "Ġlandsc": 11147,
    "Ġconsp": 10226,
    "Ġsan": 7825,
    "ened": 1386,
    "Ġinterpretation": 19719,
    "ory": 1079,
    "Ġasiatic": 20433,
    "Ġswam": 6448,
    "Ġemployed": 5200,
    "Ġminim": 1324,
    "Ġindependence": 12108,
    "depth": 12804,
    "erer": 8735,
    "Ġfle": 3095,
    "Ġbelongs": 8016,
    "Ġattend": 5035,
    "Ġtroubles": 19442,
    "ividual": 5463,
    "Ġdestined": 7976,
    "ource": 5244,
    "Ġattaining": 15806,
    "Ġclerical": 25569,
    "quarried": 24948,
    "Ġcrunched": 19122,
    "Ġexercised": 24800,
    "Ġloomings": 24952,
    "Ġfathoms": 9085,
    "Ġblessed": 6930,
    "born": 7542,
    "Ġbuildings": 24719,
    "baboon": 25517,
    "Ġmeanwhile": 5736,
    "Ġscotland": 6641,
    "ven": 781,
    "Ġwake": 4748,
    "make": 5793,
    "Ġsavag": 19377,
    "Ġbeach": 6542,
    "leo": 21367,
    "uarded": 21108,
    "stout": 21643,
    "Ġrashly": 20308,
    "Ġconsecut": 18114,
    "Ġpolluted": 25594,
    "Ġmeek": 21814,
    "Ġconting": 18473,
    "Ġsusp": 2665,
    "Ġmanx": 7907,
    "Ġattitudes": 16099,
    "Ġbodiless": 24228,
    "Ġbye": 12742,
    "presbyterian": 26370,
    "Ġfolios": 23024,
    "at": 268,
    "regularization": 3518,
    "iah": 14419,
    "Ġ83": 24458,
    "Ġpalmy": 19502,
    "Ġnearer": 5303,
    "lilies": 20963,
    "Ġcenturies": 8626,
    "Ġpushed": 5911,
    "Ġexplanations": 15913,
    "Ġcosy": 13133,
    "Ġod": 4439,
    "Ġcause": 2412,
    "Ġwarp": 8114,
    "Ġavalanche": 17435,
    "hed": 671,
    "Ġpills": 21470,
    "Ġbuck": 7157,
    "paus": 13775,
    "cuniary": 26380,
    "Ġottoman": 17380,
    "quid": 18149,
    "Ġgrace": 5374,
    "Ġadmeasurements": 26227,
    "Ġsurpassing": 20471,
    "sebastian": 21825,
    "Ġgesture": 11400,
    "Ġparted": 5930,
    "scoured": 22999,
    "Ġ500": 24323,
    "Ġblotted": 20220,
    "suggest": 20379,
    "rig": 7555,
    "Ġdearest": 5456,
    "urpation": 16303,
    "iries": 18172,
    "Ġminutest": 14560,
    "Ġgips": 10842,
    "embra": 14076,
    "couldn": 23720,
    "Ġcondensed": 24056,
    "Ġtangle": 25761,
    "Ġdiscomposed": 25581,
    "order": 1960,
    "Ġcant": 17826,
    "sub": 4659,
    "Ġontario": 26207,
    "Ġfronts": 19004,
    "Ġrushes": 20511,
    "Ġterrific": 6755,
    "Ġbuffaloes": 25218,
    "dw": 3335,
    "onely": 6516,
    "Ġstrictly": 12288,
    "Ġlip": 6533,
    "Ġ24": 13194,
    "Ġfather": 1449,
    "Ġpossibilities": 18977,
    "Ġanalyzing": 18802,
    "makes": 10712,
    "oused": 6557,
    "Ġinno": 1391,
    "pumps": 21029,
    "where": 2092,
    "Ġlime": 13950,
    "Ġrelationships": 2923,
    "Ġchairs": 12830,
    "Ġclimax": 25054,
    "eg": 17530,
    "Ġveiled": 16203,
    "Ġhurtling": 24962,
    "raction": 8139,
    "Ġsing": 3076,
    "Ġponder": 6818,
    "Ġrecede": 25969,
    "grown": 10101,
    "Ġburnished": 24001,
    "Ġlandsman": 11351,
    "Ġbounding": 19403,
    "Ġfable": 15580,
    "Ġvoyagings": 19237,
    "izure": 21838,
    "henomena": 20275,
    "Ġmetrics": 19075,
    "Ġtedious": 15270,
    "Ġcupidity": 24534,
    "Ġoysters": 20582,
    "amongst": 24673,
    "Ġgradient": 450,
    "signed": 21064,
    "take": 4576,
    "Ġbare": 6133,
    "Ġtoes": 10830,
    "Ġtotally": 9473,
    "stiff": 12678,
    "hurry": 24762,
    "Ġgladness": 16592,
    "Ġvertu": 23893,
    "tormented": 13648,
    "Ġconcert": 11970,
    "Ġoffending": 22745,
    "Ġexclude": 19043,
    "Ġreminiscences": 26271,
    "Ġet": 3583,
    "Ġpeered": 18668,
    "Ġsepulch": 15287,
    "Ġimmemorial": 10512,
    "Ġsurvivors": 25732,
    "Ġdefects": 12336,
    "Ġexpeditions": 24957,
    "wered": 2690,
    "Ġbour": 4876,
    "Ġserviceable": 24717,
    "Ġbingley": 1675,
    "ble": 542,
    "Ġmerryweather": 9524,
    "Ġjavelins": 26106,
    "sides": 12511,
    "Ġyourselves": 9030,
    "istan": 22113,
    "Ġcanals": 22169,
    "afer": 17483,
    "still": 4222,
    "Ġcallest": 17834,
    "laws": 19810,
    "Ġmead": 8838,
    "Ġrescued": 24208,
    "Ġbo": 797,
    "air": 1002,
    "icing": 9202,
    "Ġargument": 7099,
    "perse": 15896,
    "itement": 7836,
    "Ġinst": 912,
    "Ġcrack": 7710,
    "Ġbirds": 5874,
    "Ġdirty": 9180,
    "vic": 13804,
    "Ġtightly": 13536,
    "Ġoppressed": 11190,
    "Ġvideos": 13609,
    "sul": 15423,
    "ises": 3655,
    "Ġcolleague": 17161,
    "ilities": 6991,
    "Ġspades": 12800,
    "Ġstruggle": 3677,
    "Ġcleanse": 24526,
    "Ġchopping": 24221,
    "carpet": 25203,
    "Ġquivers": 22418,
    "Ġbounty": 26438,
    "brevi": 24075,
    "Ġpeeped": 10014,
    "Ġfat": 3465,
    "Ġramsgate": 18649,
    "sworn": 24258,
    "Ġshapes": 14111,
    "Ġupbra": 22159,
    "Ġfrederick": 15590,
    "Ġabhorrence": 9054,
    "Ġcherished": 10592,
    "Ġinsect": 12640,
    "uction": 15445,
    "Ġpierced": 12285,
    "Ġ35": 24078,
    "untarily": 6313,
    "Ġgods": 6454,
    "Ġdissimilar": 22536,
    "grained": 20885,
    "Ġrival": 10487,
    "dying": 15343,
    "procure": 23398,
    "cad": 17506,
    "Ġinvestigation": 9044,
    "Ġpleadings": 25854,
    "Ġjewelled": 20186,
    "ibilities": 13012,
    "user": 5105,
    "undoubtedly": 13315,
    "usually": 10287,
    "Ġanalog": 12616,
    "Ġdraw": 3673,
    "Ġderived": 8240,
    "below": 12125,
    "Ġstare": 10865,
    "Ġeluded": 12926,
    "Ġeffaced": 18541,
    "Ġsiberia": 26162,
    "Ġsynd": 22211,
    "Ġaberdeen": 26542,
    "Ġopium": 8996,
    "Ġsucceed": 4545,
    "Ġprogramming": 1185,
    "tort": 17676,
    "ink": 754,
    "Ġbellies": 13359,
    "Ġexhaled": 19685,
    "Ġconversed": 13189,
    "Ġreposing": 23363,
    "susp": 10598,
    "Ġshaster": 22003,
    "generative": 4331,
    "Ġgret": 21605,
    "Ġentitled": 8540,
    "Ġconsummation": 17427,
    "Ġtransform": 759,
    "Ġcreditors": 20133,
    "Ġrational": 8481,
    "itory": 12571,
    "Ġoverflowed": 20265,
    "Ġdisgraceful": 15021,
    "partly": 14603,
    "Ġaerial": 21201,
    "bits": 17490,
    "lakeman": 13753,
    "suspect": 9542,
    "Ġdivined": 19446,
    "Ġmanxman": 9567,
    "lish": 1953,
    "Ġomen": 11578,
    "Ġuncle": 3196,
    "Ġbewitching": 25977,
    "Ġmerit": 9429,
    "i": 77,
    "Ġmechanism": 2130,
    "Ġbright": 3217,
    "contains": 16033,
    "Ġnowadays": 18547,
    "Ġreduces": 2342,
    "Ġenables": 725,
    "Ġcult": 8785,
    "Ġhorizontal": 7783,
    "Ġtennessee": 26597,
    "Ġnumerical": 4247,
    "Ġsaves": 18325,
    "Ġbully": 23859,
    "Ġlouisiana": 25079,
    "Ġalph": 9697,
    "owers": 12688,
    "Ġheiress": 20700,
    "Ġindolence": 16233,
    "abominable": 20597,
    "Ġneighbors": 25807,
    "Ġsullenly": 17174,
    "Ġejac": 10205,
    "suff": 4960,
    "Ġrejected": 12297,
    "Ġreverence": 12062,
    "Ġranging": 8480,
    "Ġpredecess": 18517,
    "Ġsutherland": 10150,
    "Ġnetworks": 597,
    "Ġplaguy": 22608,
    "Ġunw": 7004,
    "ld": 384,
    "Ġwouldst": 18498,
    "Ġunansw": 22063,
    "itching": 21338,
    "itt": 571,
    "Ġ30": 10513,
    "Ġdeficient": 18826,
    "Ġnature": 2536,
    "camp": 15332,
    "Ġoutlaws": 22328,
    "ĠĠĠĠĠĠĠĠĠĠĠĠĠĠĠĠ": 1220,
    "Ġpolynes": 16082,
    "Ġsincer": 13070,
    "Ġwhimsical": 20431,
    "Ġrecollected": 8312,
    "Ġstrangeness": 16705,
    "tack": 12516,
    "Ġincarn": 11817,
    "spent": 12946,
    "Ġfejee": 18355,
    "round": 3370,
    "Ġsymbol": 7717,
    "rowed": 22867,
    "Ġdiscoverers": 26037,
    "Ġcolours": 12979,
    "Ġsheets": 9724,
    "fishers": 24929,
    "Ġindisc": 16232,
    "Ġdecreas": 1647,
    "Ġhistorically": 19381,
    "Ġstalls": 25648,
    "Ġseconds": 16395,
    "osely": 9267,
    "stays": 15691,
    "illating": 22112,
    "Ġtalents": 15046,
    "tete": 10733,
    "Ġfacts": 2288,
    "Ġtreats": 19347,
    "Ġopposed": 11189,
    "sneezes": 11447,
    "Ġaroused": 15906,
    "Ġpythag": 26449,
    "lass": 5994,
    "Ġwishes": 4794,
    "former": 11751,
    "dra": 3416,
    "awakened": 14455,
    "Ġendured": 6074,
    "ructure": 760,
    "Ġtrades": 8233,
    "Ġindefinitely": 25222,
    "Ġmurderer": 4979,
    "Ġsingular": 4424,
    "wet": 15454,
    "Ġshroud": 6483,
    "Ġdishes": 16052,
    "âĢĿ": 354,
    "Ġambergris": 8709,
    "Ġcruisers": 25864,
    "fleet": 15015,
    "iana": 7049,
    "Ġgross": 11627,
    "Ġanxiety": 5408,
    "Ġgazed": 6478,
    "Ġdisreputable": 22539,
    "utmost": 21592,
    "Ġlurks": 11291,
    "ected": 7875,
    "text": 1975,
    "ulation": 5458,
    "Ġinestimable": 17444,
    "Ġremembrance": 8319,
    "Ġsympat": 13344,
    "Ġhideousness": 16916,
    "Ġrepel": 23361,
    "aston": 7407,
    "Ġbluish": 23652,
    "Ġembodiment": 20531,
    "kered": 18275,
    "aspect": 10195,
    "Ġ75": 19615,
    "arranging": 19320,
    "Ġstep": 751,
    "Ġgratefully": 20448,
    "Ġtruth": 3322,
    "Ġtand": 21163,
    "Ġepo": 21623,
    "ented": 4349,
    "Ġpelt": 15613,
    "Ġremotest": 10054,
    "branch": 23580,
    "Ġmerchant": 6467,
    "Ġrebell": 21673,
    "Ġthan": 735,
    "ul": 371,
    "Ġamerican": 5061,
    "Ġaffirm": 11890,
    "Ġloving": 8177,
    "lott": 6652,
    "eler": 1573,
    "worn": 13808,
    "Ġphotography": 24684,
    "threadbare": 25990,
    "Ġchord": 22250,
    "Ġshipmate": 8930,
    "ckles": 22094,
    "contrivance": 26317,
    "Ġpreternatural": 12827,
    "Ġluc": 3313,
    "Ġrueful": 25582,
    "intimate": 22941,
    "Ġhist": 2446,
    "Ġtooth": 9194,
    "Ġstro": 4595,
    "need": 10980,
    "arabian": 26447,
    "match": 15393,
    "Ġgeneralize": 3105,
    "Ġquohog": 10973,
    "Ġassure": 4419,
    "Ġshaking": 6552,
    "perhaps": 4125,
    "Ġcorrupt": 11926,
    "Ġbehav": 3543,
    "rels": 6666,
    "Ġchocks": 13349,
    "frozen": 25142,
    "Ġliter": 8815,
    "tim": 13793,
    "darcy": 5208,
    "Ġeaves": 15679,
    "Ġaccomplished": 7105,
    "Ġfanning": 23391,
    "revival": 26163,
    "civilized": 17075,
    "Ġadmission": 23557,
    "Ġcontempl": 6702,
    "xt": 2081,
    "Ġmediterranean": 12318,
    "tu": 12515,
    "Ġvalleys": 14921,
    "Ġjinglers": 26019,
    "Ġpride": 3826,
    "became": 10516,
    "Ġcomely": 21853,
    "Ġimprove": 1948,
    "utral": 12667,
    "acles": 8521,
    "impressions": 20701,
    "circum": 16738,
    "Ġdividing": 12115,
    "Ġsulkily": 25882,
    "Ġcocoan": 20319,
    "Ġmeanly": 12913,
    "Ġsuckling": 25998,
    "Ġgreatly": 5850,
    "Ġmillion": 14989,
    "ional": 1081,
    "Ġnois": 4269,
    "umphed": 23518,
    "gate": 12470,
    "arius": 14250,
    "Ġpieces": 7368,
    "white": 4602,
    "encies": 4083,
    "Ġeverything": 3159,
    "sin": 21051,
    "immortal": 21714,
    "Ġdisrespect": 18554,
    "Ġreliance": 14387,
    "inations": 7566,
    "opy": 4458,
    "Ġtuning": 3075,
    "Ġundiscernible": 22073,
    "Ġpencil": 11946,
    "Ġorgies": 18286,
    "Ġfer": 5623,
    "Ġfob": 21413,
    "Ġscreening": 25301,
    "times": 8100,
    "Ġverdant": 15003,
    "Ġimpulsively": 24881,
    "Ġimparts": 18447,
    "Ġtheoretically": 3569,
    "Ġdelayed": 9520,
    "began": 6426,
    "isted": 3301,
    "Ġvale": 14084,
    "elaborate": 21580,
    "Ġenough": 1763,
    "Ġdaybreak": 18728,
    "egyptians": 25899,
    "Ġze": 8547,
    "Ġplacid": 11829,
    "thus": 5158,
    "icilian": 20694,
    "Ġwisdom": 11234,
    "Ġelder": 7223,
    "Ġnext": 2140,
    "Ġjest": 18404,
    "Ġdiligent": 25078,
    "Ġgangway": 20161,
    "ognit": 19187,
    "gin": 4930,
    "Ġdisd": 7031,
    "gage": 13725,
    "Ġcaptive": 14429,
    "Ġseats": 14091,
    "Ġnewcastle": 16225,
    "activity": 22635,
    "Ġdreaming": 11224,
    "abases": 3004,
    "ste": 3587,
    "Ġmoments": 4845,
    "batross": 9095,
    "Ġaperture": 26161,
    "Ġwall": 3845,
    "Ġtreachery": 15104,
    "ased": 1268,
    "ips": 2591,
    "Ġblotches": 25315,
    "ly": 319,
    "filled": 9596,
    "ellig": 523,
    "Ġattempted": 8002,
    "Ġstaple": 26200,
    "Ġsob": 12791,
    "Ġburied": 7719,
    "Ġimpute": 18334,
    "labours": 16618,
    "Ġventilator": 8717,
    "Ġeliza": 6437,
    "neighbouring": 19967,
    "Ġusurpation": 18359,
    "cold": 9591,
    "Ġperfections": 23610,
    "Ġcandidate": 16699,
    "Ġhopeless": 7462,
    "Ġvineyard": 12333,
    "Ġcorner": 4371,
    "Ġtable": 2499,
    "ons": 708,
    "anum": 17837,
    "Ġmeasure": 3596,
    "Į": 239,
    "people": 7677,
    "Ġcrab": 13147,
    "itigated": 23049,
    "Ġdiscours": 18719,
    "Ġuniform": 2227,
    "seven": 8465,
    "trucks": 25420,
    "Ġsenior": 17173,
    "fail": 17541,
    "rine": 21040,
    "ular": 712,
    "ctors": 21594,
    "el": 306,
    "Ġsupplied": 8945,
    "ifice": 7197,
    "Ġcoolly": 9774,
    "Ġmcc": 21309,
    "Ġbit": 2963,
    "prot": 6897,
    "Ġgrow": 2860,
    "Ġfragments": 19021,
    "access": 11181,
    "sl": 5794,
    "Ġmournfully": 20120,
    "Ġunfolded": 10640,
    "pin": 13769,
    "Ġprofessional": 7298,
    "Ġcompares": 20169,
    "char": 3507,
    "Ġslily": 23166,
    "composed": 14743,
    "twilight": 23705,
    "turkish": 24532,
    "yn": 7820,
    "Ġpurple": 10434,
    "Ġmainland": 22654,
    "covery": 11172,
    "Ġdesperado": 19822,
    "conclusions": 25673,
    "poles": 16211,
    "Ġobe": 5801,
    "Ġrags": 18646,
    "Ġmedical": 9472,
    "Ġaccomplice": 24375,
    "Ġescapes": 23509,
    "sher": 5217,
    "Ġtransmit": 10311,
    "inter": 2946,
    "Ġcath": 17828,
    "Ġmemo": 18119,
    "riminately": 16485,
    "Ġexisting": 12722,
    "Ġbuoyant": 13534,
    "Ġpresently": 5116,
    "sample": 12510,
    "garity": 17555,
    "Ġemboldened": 22980,
    "Ġmeddle": 20580,
    "Ġoffend": 16147,
    "ousings": 18331,
    "Ġarriving": 19219,
    "Ġslewed": 23386,
    "Ġstudded": 18974,
    "Ġmappings": 2148,
    "Ġrele": 2915,
    "Ġuntutored": 19168,
    "Ġquadrant": 11405,
    "falling": 24360,
    "Ġpiercing": 13496,
    "Ġoutrid": 22320,
    "what": 640,
    "Ġbetokened": 18797,
    "discharging": 26306,
    "Ġadm": 2403,
    "Ġcable": 11582,
    "Ġinstance": 2543,
    "icit": 3380,
    "Ġjurymen": 16848,
    "Ġsketches": 26272,
    "Ġutilize": 4797,
    "ķ": 248,
    "Ġchased": 8864,
    "Ġformidable": 8221,
    "Ġmasoned": 20254,
    "Ġlord": 2965,
    "Ġhurled": 10430,
    "Ġlanc": 19767,
    "Ġramad": 8529,
    "ernally": 22613,
    "Ġrequesting": 24634,
    "mad": 5281,
    "Ġlaugh": 4116,
    "otam": 21803,
    "Ġbeg": 1283,
    "wed": 5796,
    "uesday": 8590,
    "ela": 21573,
    "Ġrelaxed": 12988,
    "Ġwalrus": 14975,
    "Ġhudson": 15194,
    "Ġrussian": 14352,
    "ressing": 8921,
    "Ġrestraint": 15130,
    "emed": 3382,
    "Ġrolls": 8335,
    "Ġaverted": 16257,
    "love": 9296,
    "cular": 15330,
    "Ġcasc": 15559,
    "Ġtroubled": 6617,
    "Ġterrors": 6917,
    "Ġoverl": 18427,
    "Ġreusable": 13560,
    "loa": 18534,
    "Ġbreathe": 9014,
    "Ġinternal": 2248,
    "Ġmouthful": 16576,
    "Ġconstantly": 11975,
    "Ġinmost": 17933,
    "Ġdavy": 25952,
    "Ġexpansion": 22630,
    "Ġstories": 10866,
    "Ġuncont": 14118,
    "Ġpenalty": 1838,
    "Ġwhosoever": 21723,
    "Ġtol": 6676,
    "Ġdemonstrate": 24999,
    "ª": 108,
    "Ġgnawed": 25168,
    "Ġvarieties": 14312,
    "Ġprivately": 19526,
    "Ġbegins": 7243,
    "Ġbremen": 23347,
    "ulgent": 18152,
    "Ġxlix": 25861,
    "Ġbows": 4086,
    "Ġtou": 15468,
    "trust": 21081,
    "impatience": 25501,
    "Ġrainbows": 19651,
    "Ġbefore": 811,
    "Ġswarm": 23058,
    "complexion": 14359,
    "Ġmasking": 2422,
    "Ġfireplace": 13148,
    "ittleness": 22381,
    "tot": 10729,
    "Ġbrid": 6291,
    "Ġswitching": 23061,
    "Ġnatur": 17336,
    "anxiously": 15113,
    "zes": 11550,
    "Ġfabulous": 25949,
    "l": 80,
    "Ġcolour": 4461,
    "Ġinsurgents": 26601,
    "cig": 17505,
    "beh": 5472,
    "Ġmarling": 23038,
    "Ġvelvets": 25394,
    "Ġreceived": 2949,
    "Ġsupers": 18278,
    "Ġkeepers": 23539,
    "due": 22415,
    "Ġscare": 18397,
    "Ġlavenza": 17973,
    "]": 65,
    "Ġgroaned": 11267,
    "Ġconsc": 4276,
    "Ġcaliforn": 14433,
    "Ġever": 1183,
    "latitude": 25260,
    "Ġinclemency": 22561,
    "Ġshriek": 6639,
    "Ġlessened": 19089,
    "Ġshel": 6846,
    "aciousness": 18605,
    "Ġreigning": 15704,
    "Ġluxurious": 17313,
    "rougham": 15996,
    "ethe": 9678,
    "Ġmission": 13010,
    "ram": 13974,
    "Ġnostrils": 10944,
    "Ġporter": 15614,
    "Ġmanned": 9273,
    "Ġfain": 5809,
    "Ġenhancement": 23778,
    "network": 1907,
    "Ġcleared": 6076,
    "disinterested": 23503,
    "Ġunreasoning": 15848,
    "concerned": 24584,
    "terbury": 21829,
    "Ġgeological": 14533,
    "istry": 22114,
    "Ġself": 1780,
    "na": 13762,
    "Ġhilarious": 20301,
    "Ġintertw": 18589,
    "Ġhemp": 9217,
    "Ġadequ": 10914,
    "itals": 17822,
    "amiable": 14055,
    "Ġdictionary": 15115,
    "oriental": 23723,
    "beholding": 16043,
    "ā": 194,
    "Ġfoolscap": 24160,
    "ĠĠĠĠĠĠĠĠĠĠĠĠĠ": 22568,
    "Ġearthy": 23715,
    "frequently": 9981,
    "binary": 20786,
    "Ġneedles": 11185,
    "Ġphysical": 7521,
    "Ġeffectively": 2749,
    "Ġunwinding": 22065,
    "Ġhusband": 3621,
    "Ġexpatiate": 18627,
    "Ġwalker": 23312,
    "gress": 2213,
    "Ġdiscomposure": 20382,
    "Ġi": 312,
    "Ġmethodology": 2546,
    "Ġinsulted": 14994,
    "Ġexplicit": 3591,
    "Ġtoilet": 13939,
    "Ġgardens": 16452,
    "Ġrewarded": 14942,
    "Ġsubs": 2129,
    "Ġjumbled": 22302,
    "Ĺ": 250,
    "Ġwager": 17794,
    "irm": 3113,
    "weeks": 14318,
    "Ġabruptly": 15153,
    "Ġcaucus": 17382,
    "Ġenglishman": 11230,
    "Ġsale": 14156,
    "tons": 7558,
    "Ġspectrum": 4474,
    "Ġdeity": 18139,
    "Ġabuse": 18393,
    "Ġlawless": 19438,
    "asht": 4087,
    "arrang": 14653,
    "tle": 2411,
    "Ġheaded": 11055,
    "intern": 23738,
    "erm": 785,
    "Ġheroic": 14910,
    "burnt": 20083,
    "Ġtalked": 4421,
    "Ġgiants": 25961,
    "crucible": 24843,
    "tained": 4406,
    "Ġyounger": 5253,
    "leful": 17844,
    "ingle": 1039,
    "Ġinve": 17931,
    "Ġman": 544,
    "Ġplaster": 16086,
    "anc": 6379,
    "Ġult": 9076,
    "Ġstruck": 3392,
    "Ġavenues": 25430,
    "ordered": 8793,
    "lives": 12489,
    "proachable": 23399,
    "orers": 14105,
    "Ġ25": 13195,
    "ate": 421,
    "Ġsupply": 6068,
    "intentions": 22943,
    "bet": 6110,
    "Ġvariations": 22670,
    "Ġquant": 6424,
    "superst": 11326,
    "Ġcripple": 11441,
    "Ġmouldings": 24736,
    "Ġslumbers": 18944,
    "dislike": 23496,
    "Ġcomrades": 9235,
    "Ġreceive": 4703,
    "Ġvarious": 3513,
    "Ġcourage": 4633,
    "money": 8753,
    "civil": 7797,
    "Ġcommonplace": 11097,
    "Ġinexhaustible": 16982,
    "stead": 10847,
    "Ġ108": 19687,
    "extric": 22758,
    "Ġintegr": 7970,
    "Ġpoetry": 15083,
    "Ġgallop": 19558,
    "Ġpagan": 7118,
    "cabin": 8364,
    "Ġmysticetus": 24923,
    "sam": 21054,
    "jah": 17582,
    "Ġreve": 2931,
    "Ġrisen": 9495,
    "Ġstanzas": 21749,
    "Ġdears": 18141,
    "Ġsky": 3969,
    "Ġalex": 15136,
    "Ġdisinterested": 16059,
    "liv": 9609,
    "Ġhabitu": 19531,
    "ancing": 1760,
    "Ġshuddering": 9053,
    "ose": 718,
    "meas": 7433,
    "mology": 12495,
    "fth": 20858,
    "Ġforbe": 8459,
    "sorrows": 17322,
    "Ġkicking": 16902,
    "compasses": 19461,
    "Ġfollies": 16258,
    "engagements": 25855,
    "atious": 10153,
    "Ġenglish": 3615,
    "iew": 2448,
    "Ġscrew": 8870,
    "Ġstruggles": 16580,
    "Ġcumbrous": 26433,
    "Ġfame": 21409,
    "Ġignoble": 19402,
    "judge": 13340,
    "Ġprudential": 17922,
    "ification": 1015,
    "electricity": 26386,
    "Ġrevenge": 5452,
    "Ġadorned": 15250,
    "Ġgale": 5823,
    "orand": 21400,
    "whole": 6086,
    "Ġentranced": 25835,
    "nurse": 15211,
    "Ġenumer": 12749,
    "Ġcub": 8416,
    "Ġpar": 456,
    "Ġdoct": 4455,
    "7": 27,
    "waves": 10741,
    "Ġcobbling": 20526,
    "Ġcart": 11585,
    "Ġhouses": 6139,
    "reliable": 21243,
    "Ġeliminating": 20623,
    "dat": 1658,
    "Ġencoun": 4511,
    "ti": 8391,
    "Ġuncertain": 4070,
    "Ġalleys": 25979,
    "voyages": 24856,
    "soon": 4029,
    "wit": 7818,
    "Ġincluding": 2851,
    "Ġtoss": 10186,
    "Ġenhance": 3106,
    "indeed": 4487,
    "Ġunconquerable": 22068,
    "Ġmortals": 9918,
    "Ġviolently": 6456,
    "Ġhanged": 17927,
    "Ġimpat": 4456,
    "Ġclasping": 20212,
    "Ġcaptain": 1605,
    "Ġplaces": 5390,
    "Ġflapped": 23017,
    "ishe": 13893,
    "goodness": 19290,
    "Ġclanging": 18423,
    "Ġimages": 1602,
    "Ġblow": 3376,
    "culine": 19065,
    "Ġchorus": 10947,
    "Ġdistant": 5387,
    "Ġdisplay": 6428,
    "Ġmethodically": 23181,
    "Ġheartless": 13076,
    "Ġfluke": 14675,
    "Ġpeleg": 3739,
    "Ġimpact": 10298,
    "Ġcosmopol": 16454,
    "Ġinjure": 16782,
    "possession": 12225,
    "Ġfl": 1281,
    "por": 2150,
    "Ġsheer": 14152,
    "Ġjac": 1896,
    "begin": 8886,
    "Ġbroad": 3641,
    "Ġjeopardy": 13599,
    "lording": 24054,
    "Ġmagnet": 10391,
    "Ġrefreshment": 17241,
    "Ġchron": 19441,
    "Ġsad": 3869,
    "Ġimpunity": 14220,
    "Ġshells": 20367,
    "Ġjun": 8507,
    "Ġforcibly": 10063,
    "justified": 19005,
    "using": 5468,
    "Ġenl": 18190,
    "Ġfatality": 12099,
    "Ġomn": 8412,
    "Ġescorted": 23508,
    "Ġconc": 1841,
    "Ġhip": 17923,
    "urious": 21707,
    "front": 12174,
    "Ġtransition": 14244,
    "Ġroasted": 18459,
    "Ġlinguistic": 12428,
    "Ġrespite": 13157,
    "ized": 1529,
    "league": 17846,
    "Ġplying": 17916,
    "Ġimbu": 15894,
    "eager": 12463,
    "Ġdinah": 9455,
    "Ġconquered": 14028,
    "spl": 9141,
    "Ġsignificance": 13284,
    "Ġprovoked": 13329,
    "Ġpods": 17917,
    "ites": 3900,
    "pered": 4201,
    "Ġsleeve": 20143,
    "uttural": 21593,
    "Ġimprovements": 14532,
    "Ġlooked": 1802,
    "Ġtoller": 9093,
    "Ġholiest": 18814,
    "Ï": 144,
    "Ġembracing": 14982,
    "reel": 21236,
    "Ġcalled": 1973,
    "Ġgestures": 13538,
    "parad": 16390,
    "Ġclapham": 17267,
    "pure": 17627,
    "Ġdiary": 24738,
    "Ġdistributes": 4199,
    "innocent": 20289,
    "omely": 21663,
    "arthy": 4822,
    "arling": 10815,
    "Ġwhistled": 24625,
    "Ġgratification": 24099,
    "Ġtroubling": 26548,
    "inav": 15485,
    "meetings": 20381,
    "Ġmistaking": 23721,
    "Ġlost": 2635,
    "july": 20478,
    "Ġimperial": 9483,
    "apes": 9743,
    "Ġaffection": 2639,
    "Ġshadowed": 24049,
    "Ġforgery": 25978,
    "Ġsplashed": 23750,
    "Ġpanting": 11605,
    "read": 3278,
    "Ġturtle": 4207,
    "ohn": 4561,
    "itories": 15552,
    "Ġsch": 13837,
    "Ġrefrained": 14345,
    "Ġcharacteristics": 8613,
    "relation": 19450,
    "beth": 13691,
    "Ġreckon": 19872,
    "invite": 25091,
    "Ġunwaning": 24830,
    "rubbed": 22191,
    "Ġblooming": 17214,
    "Ġrh": 9246,
    "Ġexacted": 23605,
    "Ġfad": 17878,
    "Ġago": 3141,
    "Ġsupernatural": 9875,
    "Ġbrings": 11883,
    "Ġperpendicular": 7208,
    "Ġfiles": 21417,
    "Ġsocks": 14135,
    "Ġbridle": 24682,
    "key": 5462,
    "beer": 22493,
    "ceiving": 3904,
    "consolation": 15155,
    "Ġvexations": 24611,
    "Ġhighland": 18714,
    "Ġdeveloped": 16342,
    "Ġune": 4598,
    "Ġmainmast": 9781,
    "frau": 15092,
    "Ġbarely": 16937,
    "Ġcompetition": 14269,
    "Ġbelfry": 26439,
    "sir": 5001,
    "rub": 15900,
    "despairing": 25077,
    "Ġhur": 2099,
    "icism": 13958,
    "ience": 799,
    "party": 8994,
    "Ġdevoured": 16139,
    "Ġnomin": 10192,
    "Ġpictured": 16624,
    "Ġleaders": 16629,
    "Ġphys": 5653,
    "there": 1424,
    "cod": 12447,
    "Ġcasked": 24496,
    "Ġgrammatical": 13541,
    "purpose": 10046,
    "deli": 15347,
    "algorith": 3424,
    "racts": 14364,
    "haustible": 16892,
    "akin": 11770,
    "meadow": 18675,
    "staking": 21646,
    "Ġsignal": 5946,
    "iers": 5992,
    "Ġintroduce": 3208,
    "Ġdisembow": 22542,
    "Ġventured": 7500,
    "Ġparis": 8180,
    "Ġroar": 9753,
    "mist": 5686,
    "Ġspell": 8858,
    "Ġundet": 16702,
    "Ġviolence": 5964,
    "urp": 1470,
    "Ġcrust": 21354,
    "Ġscholars": 26113,
    "spin": 22735,
    ".âĢĶâĢľ": 20749,
    "Ġcomposed": 8895,
    "iterranean": 15553,
    "Ġcondescension": 10620,
    "Ġplug": 17149,
    "Ġelated": 18635,
    "Ġtens": 17724,
    "overlooked": 23327,
    "sters": 6391,
    "Ġeaglet": 19307,
    "Ġrealistic": 5861,
    "enari": 21284,
    "Ġhazard": 20435,
    "Ġalert": 18104,
    "ascertain": 21547,
    "Ġindividuality": 14911,
    "uttle": 6248,
    "visitor": 15061,
    "Ġmeditations": 25016,
    "|": 96,
    "omon": 10209,
    "Ġflannel": 26578,
    "Ġlovely": 4709,
    "Ġbass": 17857,
    "Ġoverfitting": 1545,
    "Ġram": 11014,
    "Ġbenefits": 4288,
    "oy": 1006,
    "distrustful": 26332,
    "dering": 5307,
    "mant": 20967,
    "onet": 12549,
    "Ġbreaching": 23349,
    "isson": 23463,
    "scruple": 26046,
    "idirection": 2413,
    "plan": 15817,
    "anqu": 4113,
    "Ġdisplaying": 16967,
    "Ġencodings": 4774,
    "Ġkelson": 18351,
    "Ġadv": 1157,
    "pane": 10122,
    "Ġleathern": 15052,
    "Ġuser": 15918,
    "happening": 16566,
    "Ġsmaller": 1883,
    "Ġnowhere": 12890,
    "do": 1995,
    "mill": 13756,
    "Ġinvite": 14563,
    "Ġagitates": 22521,
    "ada": 14013,
    "til": 17672,
    "Ġsnatched": 10472,
    "reflection": 13458,
    "nx": 17608,
    "Ġnocturnal": 20717,
    "Ġspeed": 2449,
    "unvarying": 21892,
    "Ġdilig": 8351,
    "Ġpoetic": 17104,
    "itudes": 3014,
    "Ġspur": 18304,
    "Ġpron": 6451,
    "flowing": 14571,
    "Ġorlop": 22098,
    "Ġjames": 6419,
    "Ġbackbone": 22664,
    "Ġaback": 22271,
    "this": 1439,
    "gree": 10702,
    "och": 21003,
    "detained": 24381,
    "Ġpaus": 4300,
    "Ġthem": 638,
    "Ġcompan": 2174,
    "Ġhos": 4941,
    "kempt": 20943,
    "Ġheadstrong": 14390,
    "Ġanalogical": 25641,
    "Ġdegener": 14051,
    "Ġcreases": 22730,
    "club": 26381,
    "Ġequivalent": 4801,
    "Ġjewels": 12372,
    "uttering": 12666,
    "Ġroads": 13292,
    "Ġprocessions": 18434,
    "Ġborn": 5224,
    "cannib": 11906,
    "onness": 21257,
    "onian": 17768,
    "Ġsem": 1877,
    "Ġspecies": 5112,
    "clifford": 23159,
    "seals": 21823,
    "Ġswaying": 15048,
    "Ġpagoda": 19791,
    "embraced": 25805,
    "Ġpatiently": 19920,
    "Ġcompunction": 18588,
    "Ġjourneys": 19478,
    "Ġblasp": 14403,
    "Ġmagnific": 16322,
    "Ġbusily": 9385,
    "spe": 3563,
    "swimming": 24260,
    "ither": 1550,
    "Ġsoutherly": 23337,
    "wards": 1277,
    "ernal": 4313,
    "^{": 15307,
    "Ġoutlandish": 12842,
    "Ġbreaths": 14859,
    "brated": 12029,
    "Ġsunshine": 14497,
    "Ġwaist": 6898,
    "must": 3580,
    "Ġrepetition": 8974,
    "Ġboarding": 12090,
    "countless": 24152,
    "Ġpalm": 10515,
    "Ġplayful": 19238,
    "Ġfamiliarity": 16730,
    "Ġrepul": 16410,
    "enc": 7573,
    "Ġminute": 4280,
    "ater": 3372,
    "Ġanomalously": 25639,
    "Ġpall": 7582,
    "Ġtruce": 24117,
    "Ġcivilised": 24246,
    "Ġblunt": 11897,
    "Ġploughed": 22609,
    "ifer": 11687,
    "slave": 16896,
    "ĠÂ£": 5006,
    "irene": 15917,
    "mental": 16063,
    "Ġscholar": 26112,
    "testing": 12520,
    "Ġemphasis": 20539,
    "track": 24334,
    "critical": 19499,
    "Ġbedfellows": 23448,
    "arm": 1357,
    "Ġhydraulic": 10066,
    "Ġmice": 13861,
    "milk": 20480,
    "waist": 13421,
    "Ġamounted": 18511,
    "Ġestim": 3351,
    "Ġprince": 18972,
    "Ġowen": 15097,
    "Ġvac": 5025,
    "obliged": 20634,
    "Ġserpents": 13080,
    "word": 2488,
    "Ġfore": 2153,
    "lacing": 17591,
    "Ġindirect": 18836,
    "Ġcatastrophe": 10485,
    "Ġepic": 15031,
    "Ġreign": 13987,
    "Ġsermon": 12379,
    "Ġcapable": 5054,
    "supervised": 1904,
    "Ġdecanter": 22444,
    "icient": 786,
    "Ġvault": 8844,
    "leviathans": 19941,
    "Ġcracked": 8597,
    "Ġxl": 11992,
    "Ġfurs": 18741,
    "Ġprognost": 15284,
    "inion": 2875,
    "Ġpumps": 8429,
    "Ġshipmates": 6721,
    "foreign": 18545,
    "Ġconflict": 17275,
    "Ġaccomp": 4712,
    "Ġgilder": 21617,
    "whiskers": 12314,
    "obliv": 23101,
    "unbounded": 21890,
    "Ġbrigs": 20325,
    "Ġringed": 16751,
    "Ġportrait": 10663,
    "Ġchis": 11753,
    "stands": 22435,
    "Ġdromed": 15600,
    "minutes": 7511,
    "Ġassurance": 7775,
    "Ġdarcy": 1344,
    "Ġhowl": 12859,
    "readers": 23851,
    "Ġcombinations": 22858,
    "Ġdressed": 5081,
    "aze": 10077,
    "Ġtimidity": 24688,
    "Ġpraying": 19557,
    "Ġajar": 21205,
    "Ġprof": 2461,
    "shape": 10984,
    "Ġresource": 10994,
    "dreams": 12340,
    "Ġjig": 15954,
    "consult": 24171,
    "hotel": 20053,
    "iot": 9602,
    "Ġrattler": 25000,
    "Ġphysiogn": 12391,
    "Ġblend": 14401,
    "Ġfrankly": 16746,
    "Ġespecial": 26411,
    "Ġbridal": 14956,
    "Ġhauled": 11697,
    "Ġcomplimented": 14906,
    "Ġmiller": 19885,
    "Ġentropy": 2031,
    "Ġ123": 24467,
    "urday": 13997,
    "Ġscorched": 17101,
    "Ġwiping": 25766,
    "Ġvehemence": 26567,
    "ensical": 18570,
    "uneven": 23688,
    "deceiving": 22148,
    "Ġmirror": 12381,
    "urg": 8143,
    "Ġwoeful": 19622,
    "atmospheric": 17777,
    "Ġcrucifix": 26080,
    "Ġpeels": 22695,
    "Ġprobed": 18734,
    "Ġ199": 3007,
    "agings": 18168,
    "Ġpity": 4940,
    "Ġamerica": 6763,
    "hing": 982,
    "pray": 5429,
    "Ġjen": 9269,
    "angible": 22110,
    "missing": 13224,
    "Ġsouth": 4909,
    "Ġbrit": 6290,
    "Ġmockery": 12111,
    "Ġcrowned": 16842,
    "Ġavowed": 16635,
    "cr": 4012,
    "Ġkey": 2101,
    "Ġtoken": 2038,
    "Ġmatch": 4529,
    "revenge": 13844,
    "prosperity": 20737,
    "oss": 10117,
    "Ġsoup": 7068,
    "ü": 189,
    "ateness": 15522,
    "Ġdreaded": 8290,
    "Ġmines": 21311,
    "Ġoperated": 14548,
    "solid": 16382,
    "tr": 3582,
    "Ġtyros": 26102,
    "Ġprodigy": 19795,
    "ult": 722,
    "insulting": 26056,
    "Ġsacred": 10931,
    "za": 13812,
    "Ġunwarrantable": 26346,
    "Ġezekiel": 26194,
    "Ġmungo": 25632,
    "Ġcurrents": 13016,
    "son": 2326,
    "gled": 10700,
    "Ġconvinced": 4209,
    "thickness": 25368,
    "Ġbos": 4875,
    "<": 32,
    "Ġrecklessness": 24744,
    "disc": 4728,
    "richard": 17288,
    "national": 21000,
    "Ġobjections": 8567,
    "Ġpersistence": 3009,
    "Ġroof": 6565,
    "Ġdetail": 635,
    "@": 36,
    "Ġsensitive": 13200,
    "Ġextremities": 19198,
    "Ġcredited": 25157,
    "Ġsinister": 8571,
    "ols": 2414,
    "Ġdeficiencies": 26571,
    "roses": 17959,
    "Ġxerxes": 23414,
    "ington": 21304,
    "icity": 2537,
    "don": 3547,
    "come": 2375,
    "orting": 9737,
    "Ġr": 405,
    "Ġclassify": 1621,
    "Ġresemble": 15696,
    "Ġknew": 2055,
    "Ġpleased": 4066,
    "Ġdistinct": 4609,
    "Ġdownst": 3562,
    "Ġconvers": 2905,
    "endous": 6849,
    "Ġfleets": 23776,
    "Ġratt": 7883,
    "Ġalfred": 21791,
    "Ġattacks": 12208,
    "Ġlater": 6018,
    "Ġlocks": 11727,
    "Ġwrong": 4723,
    "arness": 11673,
    "bub": 15319,
    "resent": 10770,
    "Ġinhabit": 5782,
    "Ġwhittling": 20702,
    "Ġdistur": 5313,
    "traversed": 19650,
    "Ġpovels": 22597,
    "oundering": 11749,
    "Ġimmortal": 8019,
    "Ġgomorrah": 21619,
    "Ġbeen": 626,
    "Ġwatchful": 16529,
    "Ġey": 8136,
    "Ġpatagonian": 20537,
    "vocation": 25087,
    "atiously": 15524,
    "Ġsultry": 20291,
    "Ġgas": 8134,
    "joined": 13279,
    "Ġresponded": 13641,
    "Ġintrusion": 12769,
    "Ġestimation": 11219,
    "embraces": 25804,
    "Ġtaste": 5524,
    "ĩ": 234,
    "Ġrevisit": 21674,
    "information": 12396,
    "Ġmildness": 9946,
    "oforte": 14288,
    "Ġswears": 16464,
    "Ġharpoone": 2909,
    "entric": 11621,
    "gossip": 23405,
    "Ġkno": 5242,
    "honorable": 19903,
    "Ġthose": 1175,
    "Ġploughing": 26261,
    "Ġheads": 3741,
    "Ġuncl": 22021,
    "Ġelusive": 22651,
    "gall": 6360,
    "Ġresistance": 13532,
    "moral": 14804,
    "kingly": 20941,
    "instruct": 19545,
    "Ġgramm": 8172,
    "Ġwax": 10777,
    "Ġinsanity": 12050,
    "Ġspies": 22133,
    "slept": 17171,
    "intention": 10369,
    "Ġunintelligible": 26515,
    "Ġspiracle": 14151,
    "Ġaristotle": 25818,
    "Ġmar": 1310,
    "âĢĻ-": 18169,
    "Ġpalace": 16690,
    "estab": 14170,
    "Ġbracelets": 25503,
    "?--": 15306,
    "Ġrenowned": 26195,
    "Ġmeditative": 25017,
    "Ġsensitivity": 3072,
    "br": 2479,
    "Ġhails": 21955,
    "Ġcomp": 723,
    "rane": 17654,
    "Ġwheelbarrow": 17206,
    "Ġcheerfully": 12138,
    "Ġanoints": 25539,
    "scept": 21056,
    "encounter": 20395,
    "Ġhessian": 3551,
    "Ġdeportment": 22612,
    "Ġfanc": 6744,
    "Ġdocumentation": 20557,
    "tical": 10130,
    "ateful": 5928,
    "Ġsinging": 7724,
    "iring": 1708,
    "Ġhydraul": 9516,
    "Ġpitchpoling": 14913,
    "Ġfeatures": 1433,
    ",": 16,
    "consid": 4924,
    "scand": 18857,
    "wag": 21126,
    "Ġthoughtlessness": 16196,
    "Ġ1000": 3122,
    "sur": 4523,
    "Ġshark": 5549,
    "usoid": 4766,
    "Ġshout": 4266,
    "Ġbroiled": 18910,
    "reinforcement": 7827,
    "Ġhabitations": 24788,
    "Ġlimped": 19183,
    "Ġentra": 18694,
    "Ġsuff": 1302,
    "Ġesquimaux": 25154,
    "Ġneat": 6999,
    "pire": 9137,
    "keenest": 25662,
    "ary": 988,
    "warmly": 25029,
    "Ġperry": 22402,
    "Ġbitten": 21393,
    "Ġlurid": 19684,
    "mor": 4218,
    "Ġquebec": 24134,
    "Ġhovers": 19080,
    "isbury": 21380,
    "lightened": 12068,
    "transom": 19737,
    "Ġmummy": 25769,
    "Ġfet": 5808,
    "Ġinsomuch": 23686,
    "carriage": 9948,
    "omitted": 18026,
    "Ġalgorithm": 758,
    "england": 18931,
    "crated": 16684,
    "Ġprimitive": 25064,
    "haut": 20904,
    "Ġcoincidence": 25484,
    "Ġminister": 18753,
    "hens": 3937,
    "arrant": 10475,
    "ittingly": 18806,
    "Ġoutbreak": 22322,
    "steaks": 23964,
    "culiar": 2822,
    "Ġforesaw": 19128,
    "letter": 6202,
    "Ġunderground": 18985,
    "Ġparameter": 881,
    "history": 15016,
    "Ġinhale": 20303,
    "Ġnodding": 23338,
    "Ġteacup": 16214,
    "windlass": 16722,
    "Ġannum": 24205,
    "Ġstrung": 22618,
    "Ġhaunts": 18199,
    "Ġdiscourage": 3121,
    "Ġwrongfully": 24250,
    "Ġsteered": 11094,
    "Ġnam": 17951,
    "Ġturbulence": 26598,
    "rosc": 17957,
    "attent": 9361,
    "Ġunder": 1634,
    "Ġcourses": 10414,
    "Ġstorms": 11263,
    "Ġfellows": 8258,
    "his": 1411,
    "Ġroses": 11788,
    "onents": 8781,
    "Ġdifficulty": 5770,
    "Ġtyro": 16995,
    "Ġesq": 15111,
    "Ġneared": 14077,
    "command": 6577,
    "animals": 24737,
    "Ġcommands": 16590,
    "Ġlirra": 21564,
    "Ġrelics": 16198,
    "Ġide": 2121,
    "Ġdenoted": 16567,
    "Ġdoubloon": 6944,
    "Ġthanks": 6708,
    "Ġchapel": 9525,
    "Ġrang": 9247,
    "Ġclasses": 4056,
    "Ġlic": 8438,
    ".âĢĻ": 1719,
    "afric": 19181,
    "rule": 15901,
    "Ġpreservation": 24632,
    "Ġoccur": 1080,
    "used": 3263,
    "Ġactivations": 2720,
    "Ġdarting": 7757,
    "vely": 3868,
    "Ġcash": 9654,
    "Ġpain": 2302,
    "berg": 11861,
    "ö": 183,
    "Ġanguish": 5582,
    "Ġpunchbowl": 20234,
    "drew": 7333,
    "effort": 19216,
    "Ġbelie": 14408,
    "tastes": 21099,
    "Ġblubber": 5666,
    "Ġsilver": 7463,
    "edmund": 17948,
    "Ġvirgin": 7327,
    "licted": 20958,
    "hid": 13736,
    "nowledge": 10291,
    "gir": 8084,
    "Ġbathe": 25444,
    "Ġlarboard": 11010,
    "Ġunthinkingly": 26222,
    "Ġsensitiveness": 23737,
    "Ġprint": 18970,
    "Ġworldly": 16332,
    "metic": 14986,
    "ignantly": 23269,
    "Ġstatue": 23151,
    "sighted": 19788,
    "Ġtombed": 25164,
    "protected": 19923,
    "Ġdeformity": 11677,
    "##": 2314,
    "Ġhairy": 23868,
    "Ġunce": 11714,
    "Ġheld": 3588,
    "achable": 14139,
    "ivable": 10912,
    "straight": 9942,
    "attentive": 17191,
    "Ġinsurance": 23685,
    "Ġseethe": 21968,
    "Ġlongitude": 11012,
    "witness": 10037,
    "Ġdeeps": 16110,
    "Ġmort": 3463,
    "Ġxxiv": 24476,
    "loose": 11807,
    "Ġswe": 2289,
    "Ġsize": 1217,
    "latin": 25259,
    "Ġirish": 14534,
    "Ġlens": 8440,
    "Ġwhispering": 14947,
    "Ġexercising": 19909,
    "consequ": 18505,
    "chop": 21692,
    "Ġrokovoko": 22409,
    "de": 459,
    "Ġdescended": 7427,
    "Ġprofile": 16490,
    "also": 7852,
    "expressed": 9043,
    "everybody": 8614,
    "Ġtumbled": 13409,
    "Ġtrap": 7672,
    "Ġgracious": 8850,
    "Ġbuttoned": 25369,
    "Ġhorizontally": 17013,
    "Ġchurchyard": 16778,
    "Ġletting": 10363,
    "oked": 4309,
    "lu": 598,
    "hist": 7131,
    "endeavour": 17031,
    "Ġexplain": 545,
    "Ġsuffer": 4721,
    "Ġmelting": 24289,
    "written": 7996,
    "dest": 4106,
    "Ġmood": 6277,
    "Ġconvalescence": 23748,
    "string": 15688,
    "malice": 17604,
    "Ġfreshness": 23991,
    "Ġcurve": 22971,
    "Ġoccas": 2704,
    "Ġwedged": 24936,
    "Ġgans": 5822,
    "shrugged": 22460,
    "Ġislands": 6766,
    "Ġweaken": 21927,
    "Ġviolation": 23409,
    "Ġmingling": 20200,
    "cour": 4479,
    "result": 12047,
    "Ġstrike": 4855,
    "iety": 2820,
    "uble": 21105,
    "Ġtemperate": 16165,
    "nur": 11507,
    "Ġmonuments": 22990,
    "live": 7549,
    "Ġclearer": 16314,
    "Ġwhirling": 12252,
    "Ġbravery": 23840,
    "attest": 23123,
    "Ġdew": 14046,
    "int": 1199,
    "Ġcanaller": 25468,
    "Ġglittering": 10055,
    "Ġeyeing": 6460,
    "Ġcoiling": 12909,
    "descending": 16287,
    "Ġestimates": 3748,
    "Ġwaxed": 21300,
    "Ġfrank": 4420,
    "prudently": 21037,
    "Ġafterwards": 3534,
    "enth": 6681,
    "Ġunrem": 18245,
    "transferred": 24510,
    "Ġtempt": 5564,
    "bloom": 24690,
    "Ġxxxix": 24973,
    "Ġdischar": 11811,
    "Ġsuns": 23278,
    "erie": 21274,
    "Ġoccurs": 1857,
    "concluding": 19484,
    "Ġmelbourne": 24290,
    "wick": 5363,
    "parlour": 16392,
    "hullo": 17571,
    "Ġgn": 8821,
    "zetts": 17715,
    "jewell": 25524,
    "Ġy": 341,
    "Ġmilitia": 13321,
    "raved": 18015,
    "Ġstrife": 18615,
    "Ġhoriz": 4725,
    "ctu": 5088,
    "Ġoakum": 16935,
    "ustomed": 6100,
    "Ġcoronation": 13337,
    "Ġmisunderstand": 18707,
    "esley": 17904,
    "romised": 14114,
    "inforcement": 3026,
    "Ġpromise": 4202,
    "dron": 17526,
    "sister": 5139,
    "lines": 6958,
    "Ġcriminal": 7536,
    "ubb": 1648,
    "Ġpettiness": 24231,
    "iron": 3630,
    "pretending": 17041,
    "Ġexistence": 4706,
    "Ġrowing": 10302,
    "alse": 4188,
    "sequence": 2856,
    "Ġbat": 10796,
    "riety": 12747,
    "Ġincrust": 22556,
    "reated": 10305,
    "Ġfra": 1739,
    "real": 10151,
    "Ġreasoned": 23074,
    "Ġimprovement": 7967,
    "Ġpopular": 6217,
    "Ġhumble": 8552,
    "Ġdoctors": 12155,
    "axen": 22526,
    "Ġdistinguish": 2727,
    "Ġendow": 23138,
    "Ġnoises": 18375,
    "Ġfro": 3476,
    "queness": 18150,
    "Ġtahit": 10755,
    "ensing": 12900,
    "Ġdrowned": 9554,
    "Ġerroneous": 17411,
    "Ġcommodore": 12398,
    "mariners": 19551,
    "Ġzealand": 12353,
    "steelkilt": 10049,
    "continuing": 24478,
    "Ġfloating": 6605,
    "Ġdiverted": 14593,
    "Ġpurpose": 2709,
    "Ġcorroborated": 26054,
    "abbering": 21801,
    "Ġschoolmaster": 16863,
    "þ": 191,
    "flung": 16640,
    "abode": 21796,
    "Ġdirecting": 16302,
    "Ġretained": 7173,
    "Ġbusier": 23340,
    "Ġpour": 13916,
    "Ġfortifications": 23622,
    "Ġruskin": 25809,
    "Ġwint": 15535,
    "ourse": 8872,
    "Ġpoverty": 9307,
    "Ġchat": 6561,
    "Ġmurderous": 8317,
    "drop": 15339,
    "deformity": 22150,
    "Ġalways": 1697,
    "Ġfreckled": 18961,
    "spirited": 19756,
    "igators": 18048,
    "murdered": 12206,
    "Ġpaddles": 15150,
    "Ġbarque": 23793,
    "Ġbrook": 13052,
    "any": 3340,
    "Ġridicule": 13514,
    "Ġsuggestions": 24452,
    "Ġwilderness": 14842,
    "Ġexter": 7396,
    "Ġcranial": 25593,
    "another": 5439,
    "Ġappet": 9733,
    "Ġactive": 7917,
    "Ġsaxon": 25469,
    "wherever": 13122,
    "Ġkicks": 19771,
    "Ġprematurely": 24009,
    "Ġcolle": 8925,
    "Ġchoice": 2166,
    "Ġfrenzy": 13625,
    "Ġazores": 20196,
    "tone": 8766,
    "relieved": 13280,
    "Ġdub": 13911,
    "Ġcup": 5697,
    "allied": 7409,
    "Ġseeks": 14305,
    "Ġconstable": 19068,
    "cused": 15334,
    "Ġskirting": 22801,
    "Ġrequired": 7222,
    "Ġstabbed": 25457,
    "window": 7743,
    "Ġnarrow": 5086,
    "Ġencouragement": 13047,
    "Ġawoke": 7285,
    "Ġmoves": 14233,
    "interference": 23740,
    "ateur": 22011,
    "Ġoctavo": 15166,
    "Ġapples": 22225,
    "Ġexpon": 966,
    "Ġcrocodile": 20742,
    "know": 2316,
    "Ġconflag": 20338,
    "trap": 24333,
    "dreadful": 11422,
    "Ġstocks": 23179,
    "Ġspurned": 12801,
    "Ġlearnedly": 23387,
    "Ġsmiles": 6707,
    "Ġcourse": 2131,
    "Ġemployer": 19435,
    "Ġlate": 3379,
    "specim": 23947,
    "Ġbouton": 17870,
    "nered": 18487,
    "Ġcrescentic": 20624,
    "seek": 8840,
    "Ġmusic": 5269,
    "bushes": 24446,
    "Ġshuddered": 11301,
    "oons": 12502,
    "Ġpiny": 21474,
    "hate": 20894,
    "ated": 724,
    ")": 13,
    "Ġsque": 18757,
    "wished": 13807,
    "Ġwails": 21299,
    "educated": 17261,
    "analy": 17840,
    "Ġfiss": 21416,
    "Ġcomplied": 14736,
    "ender": 9162,
    "inois": 17739,
    "Ġsteer": 10388,
    "Ġperpet": 7644,
    "unk": 4539,
    "Ġtechniques": 2867,
    "Ġtastes": 15479,
    "rival": 12746,
    "Ġcatching": 9480,
    "Ġhated": 7584,
    "Ġkilled": 4954,
    "Ġcronies": 23443,
    "Ġempire": 11146,
    "Ġinspired": 2517,
    "medi": 2628,
    "Ġbenevol": 5963,
    "fins": 13721,
    "Ġcum": 21345,
    "lean": 21368,
    "Ġpatron": 7461,
    "Ġorphans": 20207,
    "elled": 3991,
    "unexpected": 15781,
    "ckery": 22095,
    "Ġmuttering": 10501,
    "tenham": 16324,
    "Ġsow": 17750,
    "Ġassiduous": 26294,
    "ĠâĢľâĢĶ": 9736,
    "Ġbrazen": 23843,
    "sad": 11522,
    "Ġexploded": 15912,
    "sleepy": 24728,
    "complained": 25840,
    "Ġconven": 6152,
    "Ġventing": 19496,
    "Ġlavater": 20498,
    "Ġpeas": 8535,
    "Ġelect": 10843,
    "Ġrefreshing": 20267,
    "Ġwhose": 2009,
    "Ġshattered": 7886,
    "Ġdynamic": 5122,
    "ody": 1477,
    "ogr": 18676,
    "Ġended": 7951,
    "Ġchips": 14183,
    "bedded": 12446,
    "Ġglistened": 20175,
    "ividually": 22093,
    "plac": 15819,
    "Ġimperilled": 19581,
    "chance": 6826,
    "oard": 4808,
    "Ġhaught": 10254,
    "izon": 18135,
    "Ġdagger": 21441,
    "guard": 12132,
    "Ġlee": 4225,
    "Ġunlike": 7005,
    "Ġmeant": 3553,
    "dep": 6786,
    "âĢĻ!âĢĿ": 18170,
    "Ġexpensive": 12922,
    "moon": 10337,
    "Ġolder": 9329,
    "flagged": 23975,
    "rate": 2424,
    "Ġchace": 14180,
    "Ġannals": 17900,
    "====": 1480,
    "Ġcrawled": 17044,
    "illuminated": 17455,
    "Ġperturbed": 20443,
    "Ġsweeping": 8987,
    "Ġrampart": 20321,
    "Ġyouth": 4263,
    "Ġarmchair": 8272,
    "heeded": 13836,
    "lad": 5993,
    "Ġvows": 15811,
    "uning": 1311,
    "Ġimpenetrable": 17400,
    "Ġsaturation": 2062,
    "Ġsight": 2110,
    "Ġimp": 582,
    "Ġoffices": 14337,
    "reflected": 24732,
    "Ġengaging": 9338,
    "Ġampl": 22485,
    "Ġemph": 14524,
    "Ġlumps": 21560,
    "Ġwerter": 15242,
    "ably": 1846,
    "penny": 22949,
    "Ġharpoon": 3617,
    "Ġheave": 7599,
    "Ġlatter": 3988,
    "Ġyer": 15737,
    "carrying": 16714,
    "agonies": 21914,
    "through": 4024,
    "icted": 5938,
    "tar": 8099,
    "lie": 12486,
    "Ġadvisable": 11443,
    "Ġimagenet": 19248,
    "Ġquies": 18465,
    "bitt": 17487,
    "nothing": 3158,
    "fatigue": 20660,
    "Ġsocieties": 20185,
    "ć": 200,
    "Ġsuggest": 5417,
    "Ġaugmentation": 20119,
    "daughter": 8355,
    "foam": 24417,
    "spoutings": 25006,
    "anite": 17839,
    "Ġstraightened": 12112,
    "ement": 1501,
    "rably": 21637,
    "Ġans": 1644,
    "Ġsuperst": 7704,
    "Ġdetain": 14175,
    "vell": 3959,
    "Ġcoverage": 4289,
    "mering": 12494,
    "commend": 19996,
    "Ġfrequencies": 4788,
    "exceedingly": 9568,
    "nostril": 26560,
    "Ġeverywhere": 9798,
    "Ġdemanding": 16806,
    "Ġsympathetic": 17361,
    "Ġstubb": 1787,
    "Ġsigmoid": 2463,
    "Ġexecute": 7504,
    "sp": 893,
    "Ġsomnambul": 26577,
    "Ġincarnate": 20378,
    "Ġsepulchral": 25893,
    "compar": 14357,
    "Ġperson": 2367,
    "sych": 9889,
    "Ġimpotently": 22397,
    "rote": 4592,
    "Ġbutton": 10269,
    "Ġbou": 17854,
    "Ġimpet": 11782,
    "Ġundoubted": 19517,
    "Ġincreas": 1693,
    "Ġthird": 4190,
    "inement": 11559,
    "Ġdiet": 13912,
    "Ġwhal": 5454,
    "Ġlady": 1588,
    "pour": 17631,
    "Ġexpressed": 4467,
    "Ġyou": 366,
    "Ġignor": 4011,
    "reserved": 13845,
    "Ġdarts": 16769,
    "os": 524,
    "Ġspouts": 7730,
    "Ġ550": 19639,
    "Ġdeformed": 14050,
    "Ġawe": 7147,
    "Ġcharacteristically": 23694,
    "nings": 9133,
    "painted": 17640,
    "Ġgrimes": 11036,
    "Ġimposs": 16617,
    "Ġchanging": 11756,
    "Ġframe": 1848,
    "Ġsavi": 18326,
    "fooled": 24418,
    "Ġoccurred": 4462,
    "companion": 9559,
    "Ġhigher": 1819,
    "Ġexempl": 21835,
    "Ġminiatures": 20324,
    "Ġreceptive": 1565,
    "gerine": 22892,
    "Ġrevers": 21668,
    "Ġireland": 17337,
    "Ġconnected": 5393,
    "Ġzeal": 9100,
    "Ġseaward": 22951,
    "Ġneurons": 977,
    "Ġhereditary": 10666,
    "exciting": 19671,
    "Ġmo": 629,
    "Ġsideways": 6183,
    "Ġenters": 11025,
    "Ġtreble": 16505,
    "Ġhonestly": 19975,
    "ifferent": 4264,
    "Ġequival": 4782,
    "Ġtemporary": 7982,
    "Ġequilib": 4139,
    "Ġattempts": 10492,
    "appo": 3916,
    "Ġstarry": 16924,
    "Ġwel": 4527,
    "Ġparallelization": 3433,
    "departed": 24793,
    "oker": 10964,
    "Ġblackstone": 23390,
    "Ġdeferred": 18827,
    "Ġfifteen": 6946,
    "indebted": 26159,
    "Ġtricks": 13487,
    "ty": 1000,
    "Ġpinioned": 21487,
    "burgh": 6773,
    "ameter": 2955,
    "Ġcanada": 22170,
    "felix": 10655,
    "stood": 4119,
    "itu": 1227,
    "enhall": 13852,
    "Ġcatholic": 20684,
    "antique": 18288,
    "humoured": 11237,
    "Ġhide": 4589,
    "Ġinseparable": 20691,
    "div": 8077,
    "Ġmeryton": 4438,
    "Ġobser": 2071,
    "pet": 4866,
    "Ġapo": 9632,
    "Ġhug": 6979,
    "Ġobliv": 16136,
    "Ġunman": 12778,
    "presently": 9809,
    "Ġspring": 4124,
    "Ġaddressing": 11165,
    "Ġthro": 5818,
    "Ġmishap": 20579,
    "Ġcalmed": 16268,
    "invol": 12534,
    "Ġdignified": 15601,
    "consp": 18503,
    "Ġspirits": 3699,
    "Ġembellished": 25850,
    "Ġunrest": 11717,
    "Ġpostmark": 16726,
    "Ġbecher": 18881,
    "mole": 22705,
    "Ġfeathers": 15122,
    "racing": 21635,
    "Ġluxur": 12344,
    "Ġmule": 13864,
    "Ġreus": 8825,
    "Ġcrammed": 16471,
    "Ġargu": 10935,
    "murderer": 13396,
    "fields": 14654,
    "Ġinvective": 26183,
    "Ġjamming": 17266,
    "Ġdrunk": 9426,
    "Ġquickly": 4243,
    "swim": 16780,
    "Ġ43": 14772,
    "Ġimmensities": 25331,
    "Ġtwin": 12932,
    "raise": 18014,
    "Ġounce": 15275,
    "Ġexasperate": 20101,
    "Ġdoze": 14178,
    "Ġunintermitted": 26221,
    "Ġcandid": 4102,
    "Ġabout": 633,
    "priv": 9621,
    "ching": 5156,
    "Ġintently": 8170,
    "avoiding": 25237,
    "Ġmarks": 6747,
    "Ġwight": 12557,
    "strikes": 24671,
    "murderers": 25728,
    "Ġhospitals": 24924,
    "plex": 713,
    "blast": 9589,
    "Ġlestrade": 5826,
    "oko": 18441,
    "Ġpeeping": 16130,
    "Ġh": 290,
    "derick": 22167,
    "Ġintroduces": 3272,
    "arying": 9803,
    "Ġfundament": 2925,
    "Ġlucifers": 16589,
    "pick": 17635,
    "Ġintercepted": 25828,
    "Ġallow": 1126,
    "Ġlanguages": 1570,
    "fellows": 12277,
    "nable": 13764,
    "Ġshield": 22004,
    "Ġtracing": 18891,
    "kshire": 13748,
    "Ġaggreg": 12888,
    "Ġlunging": 24994,
    "Ġfamous": 5256,
    "ench": 21282,
    "Ġsullen": 9159,
    "detached": 19677,
    "Ġadditional": 7936,
    "itional": 22468,
    "Ġheredit": 9218,
    "bill": 10078,
    "Ġweight": 656,
    "instant": 8655,
    "Ġpract": 1840,
    "bres": 11472,
    "Ġsomebody": 7914,
    "Ġscaled": 2105,
    "Ġhysterical": 26093,
    "Ġresides": 22545,
    "organ": 15577,
    "Ġlunatic": 24995,
    "thrown": 8482,
    "went": 6512,
    "Ġproced": 2578,
    "Ġadroop": 26002,
    "Ġgreenwich": 19323,
    "Ġsuffoc": 18872,
    "ivation": 3115,
    "Ġseams": 12128,
    "Ġdock": 15933,
    "Ġdomineer": 23663,
    "neural": 3068,
    "Ġticklish": 25037,
    "Ġdante": 21442,
    "dued": 7911,
    "Ġdashes": 21438,
    "Ġdorm": 4821,
    "atisf": 21266,
    "trunk": 23951,
    "Ġnonsensical": 21533,
    "Ġcyp": 21348,
    "Ġvaried": 11851,
    "ascending": 24706,
    "Ġcuring": 21347,
    "Ġcrop": 10164,
    "Ġnetherfield": 3931,
    "Ġalternating": 15032,
    "sequ": 2402,
    "Ġdread": 3167,
    "Ġannoy": 17200,
    "Ġregarded": 5762,
    "Ġwhirlpool": 20657,
    "Ġpoles": 11005,
    "Ġmonsters": 11076,
    "Ġwatching": 4854,
    "Ġalluded": 7887,
    "wait": 11321,
    "Ġmanhood": 22331,
    "Ġsung": 23277,
    "Ġbern": 17860,
    "Ġgerm": 13966,
    "Ġdetection": 3386,
    "Ġweek": 2828,
    "Ġtopic": 9408,
    "Ġirreduc": 5491,
    "oro": 21398,
    "Ġsucking": 12789,
    "cord": 8727,
    "Ġsteps": 2863,
    "Ġcinque": 20489,
    "ete": 9205,
    "Ġbeggars": 20632,
    "orphans": 26441,
    "Ġassociates": 24711,
    "Ġkitchen": 8497,
    "measure": 10033,
    "Ġoaken": 13867,
    "iscuits": 24667,
    "Ġhatherley": 7850,
    "Ġexpressive": 8984,
    "entary": 21571,
    "source": 11527,
    "Ġcore": 13880,
    "Ġcou": 5288,
    "Ġimplicated": 24876,
    "Ġdome": 15592,
    "sensations": 20054,
    "Ġellenborough": 26155,
    "bidden": 19739,
    "Ġimpregnable": 26024,
    "september": 14038,
    "Ġfurnishes": 19444,
    "Ġweighted": 2090,
    "cri": 17507,
    "Ġruddy": 17127,
    "Ġworshipping": 22932,
    "utional": 17986,
    "Ġduodecimo": 16768,
    "impl": 21711,
    "mod": 1034,
    "Ġgraves": 11711,
    "Ġdost": 7636,
    "Ġissue": 2309,
    "Ġsanguine": 25929,
    "Ġrests": 13097,
    "Ġslaught": 23170,
    "ó": 180,
    "ractions": 11635,
    "Ġprophets": 20453,
    "explain": 1479,
    "move": 11857,
    "Ġrevolver": 14900,
    "Ġstim": 18066,
    "Ġsemantic": 1959,
    "Ġlegal": 10440,
    "Ġmisgivings": 15294,
    "Ġannounce": 13342,
    "Ġpunctilious": 26355,
    "Ġvalley": 5851,
    "Ġpreparation": 13531,
    "Ġpurposes": 11169,
    "Ġengra": 7876,
    "Ġhish": 21918,
    "uring": 819,
    "lac": 17590,
    "helm": 12175,
    "Ġcomplexity": 1694,
    "rints": 12506,
    "Ġthousand": 2784,
    "atherine": 2594,
    "Ġenh": 3049,
    "Ġfil": 3477,
    "Ġdishonoured": 20394,
    "Ġcommentaries": 20163,
    "Ġwollstonecraft": 26426,
    "oubted": 5860,
    "Ġparticle": 18672,
    "Ġconjugal": 25104,
    "Ġsabbee": 17257,
    "difficult": 10060,
    "cun": 20797,
    "Ġpolar": 9413,
    "yesterday": 10354,
    "superiority": 20188,
    "Ġenvironmental": 24101,
    "wealth": 22692,
    "Ġdownstairs": 11225,
    "Ġinvent": 7164,
    "Ġslave": 7453,
    "Ġfading": 15587,
    "Ġunembarrassed": 22076,
    "pede": 19932,
    "Ġdampening": 2894,
    "ce": 313,
    "opard": 9293,
    "Ġneither": 3688,
    "Ġdiscredit": 22787,
    "Ġpresenting": 18988,
    "hester": 9633,
    "Ġunappe": 22023,
    "ut": 308,
    "Ġwards": 17791,
    "dilig": 17284,
    "Ġiii": 7862,
    "Ġsnug": 8281,
    "Ġvictim": 6099,
    "burned": 25082,
    "Ġtolerably": 8069,
    "Ġmott": 17805,
    "Ġcellar": 8060,
    "Ġbewitched": 25976,
    "Ġmaker": 15546,
    "vast": 10737,
    "Ġpals": 13920,
    "Ġcurving": 16236,
    "Ġunwillingly": 15851,
    "redit": 3877,
    "pier": 17636,
    "irra": 15788,
    "ifference": 5632,
    "Ġbar": 3152,
    "Ġwhaleman": 4654,
    "itled": 7577,
    "gainst": 25144,
    "Ġyoun": 1407,
    "unhesitatingly": 26497,
    "appalled": 18761,
    "Ġlewis": 15728,
    "covering": 15336,
    "begins": 18525,
    "empt": 2616,
    "Ġfriend": 1295,
    "Ġmultitudinous": 26275,
    "estic": 4955,
    "eldest": 22807,
    "belated": 24041,
    "Ġintensely": 17018,
    "izzy": 3099,
    "Ġoffered": 5817,
    "Ġunrivalled": 26520,
    "Ġpovelson": 26553,
    "man": 1053,
    "f": 74,
    "Ġgrowth": 14630,
    "involved": 25627,
    "saving": 21062,
    "Ġpittance": 15620,
    "Ġeaster": 15678,
    "Ġbid": 6132,
    "Ġresisted": 22546,
    "Ġlion": 9677,
    "pped": 1998,
    "Ġgib": 13967,
    "tier": 12518,
    "Ġcham": 4892,
    "strate": 12677,
    "Ġslips": 23169,
    "carpenter": 11428,
    "shirt": 22458,
    "umul": 1289,
    "Ġhereafter": 9332,
    "Ġarrested": 9562,
    "lads": 20957,
    "Ġprotruded": 19473,
    "Ġsecretly": 13275,
    "helping": 23145,
    "Ġunreasonable": 12781,
    "ily": 1032,
    "Ġenumerating": 15247,
    "irious": 15789,
    "Ġsecluded": 11995,
    "Ġcombine": 4416,
    "ged": 1512,
    "Ġsuggests": 12204,
    "Ġbawling": 25946,
    "Ġ1890": 23900,
    "Ġhier": 1893,
    "Ġinsulated": 23683,
    "Ġforming": 7043,
    "Ġleads": 12100,
    "Ġadvers": 4887,
    "Ġcontemporary": 16015,
    "pagan": 17287,
    "Ġsurplus": 26304,
    "Ġ1836": 25721,
    "rumours": 23924,
    "Ġnic": 7375,
    "Ġharp": 17926,
    "etics": 21585,
    "Ġpaddington": 17095,
    "Ġprofess": 3700,
    "Ġholds": 7977,
    "Ġslipper": 24267,
    "idence": 4303,
    "provided": 13640,
    "Ġtorch": 25033,
    "Ġpure": 6138,
    "gammon": 20246,
    "iter": 4392,
    "aloft": 8810,
    "Ġneedlessly": 23632,
    "Ġirons": 7696,
    "Ġsnapped": 9899,
    "urn": 778,
    "aled": 3944,
    "Ġ270": 25133,
    "ications": 4445,
    "Ġcashier": 20201,
    "shoes": 14241,
    "Ġfry": 17881,
    "¶": 119,
    "Ġansw": 2205,
    "Ġnut": 12650,
    "shut": 10982,
    "Ġanat": 8125,
    "sequently": 14584,
    "Ġrout": 7401,
    "Ġhem": 8447,
    "aking": 974,
    "Ġdeclining": 23967,
    "<UNK>": 3,
    "Ġhero": 5715,
    "Ġstate": 1809,
    "Ġaudibly": 24770,
    "prof": 7699,
    "Ġcemeteries": 26377,
    "Ġpearl": 20380,
    "wond": 8772,
    "Ġmeasureless": 14712,
    "Ġpermanently": 25474,
    "himself": 3971,
    "plentiful": 21961,
    "subtle": 24245,
    "Ġreport": 6192,
    "Ġtangled": 13829,
    "Ġfeverish": 11349,
    "warrant": 21140,
    "Ġconsists": 11980,
    "04": 10681,
    "ross": 809,
    "Ġsquint": 22842,
    "Ġxi": 16432,
    "Ġyale": 21784,
    "scythes": 26403,
    "Ġderives": 16310,
    "Ġconv": 2968,
    "rian": 10244,
    "nearest": 16024,
    "whether": 5320,
    "Ġunsocial": 18257,
    "Ġtest": 1522,
    "Ġbeamed": 23724,
    "Ġmig": 13858,
    "Ġsublime": 8067,
    "Ġtiger": 11556,
    "Ġheroine": 24542,
    "Ġskeletons": 16792,
    "for": 956,
    "ineff": 21992,
    "gunw": 17222,
    "Ġmanifold": 13563,
    ".,": 5989,
    "Ġexcess": 3344,
    "Ġapplication": 2134,
    "Ġspy": 22128,
    "uments": 5551,
    "Ġmute": 19419,
    "Ġsensibility": 14514,
    "Ġdes": 1250,
    "Ġbearing": 5300,
    "tub": 9145,
    "Ġpolitics": 19226,
    "urried": 21708,
    "Ġedges": 3829,
    "ashions": 16419,
    "tremendous": 20676,
    "Ġwip": 13855,
    "Ġsummer": 4789,
    "Ġgrounded": 23714,
    "Ġpriv": 4186,
    "Ġherring": 14128,
    "learn": 2429,
    "Ġrepl": 1595,
    "Ġmoonshine": 19600,
    "Ġpained": 19169,
    "Ġdissolved": 18555,
    "Ġladder": 8601,
    "Ġinto": 647,
    "mists": 17605,
    "Ġbeak": 18082,
    "Ġremembr": 24172,
    "Ġ88": 19714,
    "Ġretention": 23076,
    "hour": 7339,
    "netherfield": 9815,
    "grew": 17556,
    "mut": 17596,
    "supplied": 10521,
    "Ġcheers": 16370,
    "conven": 6163,
    "floor": 14938,
    "Ġutterance": 14766,
    "icacy": 15661,
    "ipelag": 12847,
    "fever": 22505,
    "Ġolive": 12569,
    "Ġlower": 2664,
    "Ġmunro": 25631,
    "Ġdescribes": 3126,
    "Ġengineer": 11977,
    "ooping": 21009,
    "Ġpartial": 2128,
    "uts": 8819,
    "determ": 7106,
    "Ġbabel": 24425,
    "Ġbringing": 5870,
    "Ġcolumb": 22863,
    "Ġscenery": 11457,
    "better": 7120,
    "Ġcry": 3500,
    "Ġtables": 9880,
    "Ġimmovable": 15895,
    "incidentally": 20542,
    "pe": 1437,
    "Ġunprofitable": 18268,
    "penet": 11071,
    "captain": 3954,
    "Ġunprincipled": 20710,
    "Ġbodily": 6107,
    "Ġdecomp": 3814,
    "inioned": 19288,
    "hast": 5358,
    "Ġdistrusting": 25056,
    "proceeding": 20144,
    "Ġsnow": 3708,
    "plutarch": 21962,
    "clopÃ¦dia": 15259,
    "Ġrepresenting": 4063,
    "remaining": 20223,
    "model": 4096,
    "10": 17474,
    "worship": 19390,
    "Ġlabrador": 23333,
    "Ġlovel": 10273,
    "gorith": 549,
    "Ġhurst": 5581,
    "Ġgaze": 6931,
    "Ġwretch": 6378,
    "unks": 15778,
    "Ġlevelled": 11285,
    "Ġinconsistency": 26184,
    "Ġtoilings": 24741,
    "picture": 11408,
    "Ġcanoe": 9725,
    "Ġjeopardized": 20233,
    "83": 13683,
    "Ġlaurel": 20656,
    "Ġimaginative": 19249,
    "'s": 2470,
    "bib": 17493,
    "cil": 8724,
    "inger": 6812,
    "Ġrestlessness": 23296,
    "nigh": 13765,
    "Ġharm": 5017,
    "Ġmagnifying": 16323,
    "angu": 570,
    "recurring": 24196,
    "lengths": 24847,
    "Ġxxv": 19720,
    "Ġcarbuncle": 14447,
    "volutions": 16325,
    "remediable": 26296,
    "putation": 7624,
    "iac": 6226,
    "Ġconfound": 23306,
    "visits": 24225,
    "orrowed": 19291,
    "successfully": 14993,
    "shoals": 24716,
    "Ġeuroclydon": 15299,
    "example": 16016,
    "billows": 20239,
    "Ġbands": 14886,
    "Ġhimmalehs": 26231,
    "Ġany": 688,
    "additional": 20467,
    "glorious": 19370,
    "Ġbanners": 24859,
    "Ġrecord": 5317,
    "Ġcordon": 24393,
    "Ġexamine": 7735,
    "Ġhumor": 11051,
    "Ġspl": 2982,
    "practised": 20250,
    "Ġwaves": 3898,
    "Ġprairie": 8716,
    "Ġdashed": 6011,
    "console": 22478,
    "brave": 19826,
    "Ġfootsteps": 16574,
    "Ġtight": 8109,
    "alot": 15629,
    "Ġskipper": 22802,
    "Ġ1950": 11360,
    "Ġoriginate": 24123,
    "ipt": 12482,
    "ext": 915,
    "etent": 10201,
    "Ġweights": 897,
    "est": 497,
    "Ġtrad": 9830,
    "droppers": 24758,
    "Ġfrocks": 23926,
    "Ġsilence": 3271,
    "Ġ27": 8618,
    "Ġhigh": 932,
    "gunwale": 20665,
    "aky": 18412,
    "Ġglim": 9346,
    "Ġhaughty": 11450,
    "Ġhorsey": 24251,
    "Ġswimming": 5507,
    "Ġsent": 1777,
    "washed": 13050,
    "coat": 5407,
    "Ġcasually": 25096,
    "Ġunbending": 25465,
    "Ġpurchasing": 19877,
    "Ġric": 18210,
    "Ġdomains": 6613,
    "Ġleaped": 8829,
    "previously": 17209,
    "Ġkate": 15908,
    "Ġclap": 10958,
    "committed": 18735,
    "Ġvillage": 5774,
    "inities": 21188,
    "Ġfixed": 2686,
    "illes": 12698,
    "Ġswing": 13040,
    "superstitiousness": 25509,
    "Ġyielded": 14874,
    "Ġvolume": 6769,
    "poverty": 22912,
    "Ġhatches": 12048,
    "Ġtwelfth": 22682,
    "extrem": 18704,
    "Ġdata": 518,
    "bride": 19202,
    "ounded": 9750,
    "Ġviewing": 19266,
    "Ġwhelm": 25999,
    "Ġcool": 5734,
    "inching": 21192,
    "Ġfoundations": 11075,
    "Ġrails": 22657,
    "semic": 21826,
    "discernible": 20553,
    "Ġtoo": 1169,
    "Ġappeared": 2778,
    "rosings": 15647,
    "Ġridiculous": 10630,
    "Ġhart": 17924,
    "Ġthirds": 16709,
    "admire": 24946,
    "gl": 3293,
    "Ġspatial": 2730,
    "Ġjoes": 19232,
    "Ġ28": 19296,
    "bed": 3494,
    "Ġkindred": 16379,
    "Ġsammy": 24933,
    "condesc": 18504,
    "Ġreturns": 11929,
    "ineer": 11706,
    "Ġwoodcock": 19165,
    "Ġsinking": 7306,
    "Ġevery": 927,
    "wheeling": 22875,
    "Ġmerited": 23733,
    "hatchet": 24819,
    "Ġbulldog": 23862,
    "Ġaffectation": 14443,
    "uss": 8767,
    "Ġconsulting": 13432,
    "down": 3473,
    "Ġtreacher": 8608,
    "Ġmonosy": 18853,
    "clad": 14461,
    "Ġsto": 1497,
    "Ġuncompromised": 20606,
    "Ġbear": 3659,
    "Ġassert": 7121,
    "Ġdifficult": 3574,
    "rights": 23678,
    "civilities": 24976,
    "Ġtraffic": 23088,
    "Ġsincerity": 13681,
    "deployment": 26528,
    "Ġbundle": 13429,
    "Ġsubmitted": 11874,
    "ethics": 8881,
    "Ġwhatever": 3478,
    "Ġencompassed": 15256,
    "Ġid": 1908,
    "Ġachieve": 3675,
    "Ġvort": 18194,
    "Ġobstacles": 19838,
    "Ġcontrad": 9757,
    "Ġcannibals": 10589,
    "Ġabide": 14189,
    "lived": 12490,
    "Ġswart": 14436,
    "awe": 20767,
    "Ġintact": 21994,
    "Ġissuing": 16949,
    "Ġcompar": 4770,
    "Ġenable": 685,
    "underneath": 23791,
    "Ġelapsed": 7652,
    "Ġvoice": 2192,
    "Ġconspicuous": 13606,
    "Ġshillings": 15838,
    "il": 329,
    "aulets": 18623,
    "'d": 12430,
    "Ġadequately": 15201,
    "Ġjour": 11767,
    "Ġanger": 5442,
    "Ġties": 12532,
    "Ġabilities": 8869,
    "Ġintegrated": 13533,
    "Ġ1894": 5196,
    "arising": 17897,
    "rank": 21044,
    "Ġclaps": 22352,
    "Ġcorresponds": 19824,
    "Ġlac": 17967,
    "Ġallev": 18103,
    "dances": 17522,
    "Ġunflinching": 26513,
    "trade": 19647,
    "Ġlieutenant": 15264,
    "Ġexponentially": 1443,
    "fairly": 17221,
    "sight": 5996,
    "Ġxxxii": 24975,
    "Ġemb": 1241,
    "Ġturtles": 19222,
    "Ġhearth": 11984,
    "grees": 20888,
    "ahab": 4291,
    "inch": 10756,
    "Ġcollateral": 20075,
    "Ġ94": 17718,
    "Ġshavings": 14112,
    "Ġfed": 5529,
    "Ġappropriated": 23486,
    "Ġmuskets": 17056,
    "Ġfielding": 16240,
    "Ġruth": 14095,
    "adoes": 11662,
    "Ġassailants": 20452,
    "Ġread": 1446,
    "respect": 6374,
    "ir": 379,
    "iltrated": 19308,
    "gates": 20874,
    "sue": 2077,
    "Ġproc": 5544,
    "Ġmorris": 18852,
    "Ġbaboon": 19696,
    "Ġstrategies": 1837,
    "gee": 15980,
    "Ġgovernments": 20270,
    "Ġgamb": 18000,
    "handle": 11191,
    "Ġoverladen": 22365,
    "Ġdoor": 1742,
    "ures": 838,
    "careful": 14868,
    "miserably": 24212,
    "Ġflushed": 13031,
    "Ġentering": 6286,
    "ĠĠĠĠĠĠĠĠĠĠĠĠĠĠ": 22569,
    "Ġcombat": 16187,
    "Ġ18": 3409,
    "Ġcoll": 8223,
    "Ġheat": 5453,
    "haired": 14769,
    "Ġlashed": 9200,
    "Ġslay": 16308,
    "Ġportcullis": 26604,
    "Ġgeomet": 3195,
    "Ġprimal": 17107,
    "wled": 15456,
    "Ġstarvation": 19794,
    "ultaneously": 4197,
    "Ġplates": 11007,
    "Ġ109": 24415,
    "dread": 8732,
    "ensity": 11816,
    "Ġsplashing": 16551,
    "Ġmumbled": 17809,
    "Ġslaugh": 18940,
    "Ġleft": 1762,
    "Ġportent": 12085,
    "âĢĶâĢĿ": 3302,
    "leaned": 21372,
    "pate": 21012,
    "dr": 6222,
    "Ġprofited": 19194,
    "Ġgrizzled": 11451,
    "context": 3407,
    "Ġimpression": 5732,
    "Ġjam": 10952,
    "Ġauthorized": 16736,
    "Ġtrampling": 25493,
    "Ġcleans": 18951,
    "achel": 7033,
    "Ġcried": 1485,
    "entitled": 21572,
    "Ġscrewed": 15123,
    "detective": 24382,
    "rann": 21047,
    "aging": 2239,
    "Ġrudimental": 25111,
    "Ġretrogress": 23078,
    "Ġstyled": 24672,
    "Ġassigned": 16313,
    "threatened": 25463,
    "Ġdelicate": 6480,
    "Ġbelly": 10371,
    "sheet": 16288,
    "Ġbucket": 8791,
    "Ġremem": 4314,
    "dozen": 23379,
    "repro": 10771,
    "metals": 24765,
    "Ġwrinkled": 7263,
    "oboam": 9360,
    "Ġcongratulatory": 19770,
    "Ġblotting": 25314,
    "ccess": 3187,
    "Ġfergus": 16873,
    "Ġenclosure": 20627,
    "Ġcuriously": 13014,
    "Ġmutiny": 13263,
    "call": 8726,
    "Ġsee": 805,
    "talked": 14987,
    "rannical": 26402,
    "Ġnone": 3226,
    "hyena": 24254,
    "suspicious": 25391,
    "carp": 9112,
    "ositories": 22268,
    "Ġclothed": 19609,
    "Ġtruly": 4795,
    "Ġrepeating": 11214,
    "Ġseasoned": 24404,
    "Ġeyelids": 26108,
    "ressed": 3022,
    "Ġchemical": 10413,
    "Ġpupp": 10821,
    "Ġcondescend": 19958,
    "Ġwrithed": 17106,
    "desperate": 17359,
    "ruin": 22187,
    "Ġrecre": 22741,
    "Ġchatbots": 11350,
    "Ġhelped": 7458,
    "Ġfunctions": 1341,
    "dl": 20825,
    "rebellum": 26166,
    "Ġclubbed": 26547,
    "Ġglobules": 26589,
    "arse": 7160,
    "Ġagreeably": 24955,
    "shott": 11797,
    "Ġsatisfaction": 5667,
    "Ġuseless": 7037,
    "Ġas": 374,
    "rippa": 11342,
    "harpoons": 24286,
    "lengthwise": 19953,
    "blog": 19842,
    "Ġprompted": 23820,
    "commer": 22808,
    "Ġwrist": 8244,
    "mock": 5174,
    "Ġsuccession": 12105,
    "mantel": 26395,
    "suited": 22638,
    "Ġfactor": 19015,
    "Ġmultitud": 18748,
    "osen": 6854,
    "Ġdepart": 4656,
    "Ġdiscriminator": 3394,
    "ivided": 22091,
    "Ġweeps": 24950,
    "Ġlawy": 9456,
    "pay": 10719,
    "approb": 11043,
    "trimmed": 23952,
    "Ġacute": 16126,
    "Ġcem": 17825,
    "gast": 20873,
    "ipl": 20920,
    "Ġplanks": 5562,
    "Ġmechanical": 7937,
    "protection": 19922,
    "declared": 15121,
    "Ġinmates": 15626,
    "Ġaut": 1720,
    "dar": 20826,
    "Ġmanufact": 22333,
    "Ġconsiderably": 7715,
    "Ġantilles": 24181,
    "Ġspit": 22129,
    "cracy": 24691,
    "poison": 14394,
    "Ġwhispers": 14702,
    "Ġprodigiously": 14934,
    "Ġwhe": 440,
    "nder": 20989,
    "Ġpattered": 19023,
    "Ġfamine": 16330,
    "inces": 13830,
    "fortune": 4974,
    "Ġnormal": 1203,
    "Ġunreason": 15845,
    "constellation": 24609,
    "ladder": 19787,
    "Ġappointment": 10648,
    "Ġliking": 23593,
    "Ġbrad": 8790,
    "Ġdif": 871,
    "with": 1296,
    "Ġbandages": 24426,
    "noted": 22753,
    "Ġstamped": 13529,
    "mass": 12493,
    "Ġoverhung": 15975,
    "Ġovertaken": 18429,
    "Ġilleg": 21627,
    "trial": 20353,
    "ĠĠĠĠĠĠĠĠĠĠĠĠĠĠĠĠĠĠĠĠĠĠĠĠĠĠĠĠĠĠĠĠĠĠĠĠĠĠĠĠĠĠĠĠ": 12157,
    "received": 9640,
    "Ġsurp": 9636,
    "Ġve": 1105,
    "exception": 9978,
    ":âĢĶâĢĺ": 24195,
    "Ġshare": 1656,
    "swiss": 24257,
    "Ġtolland": 24993,
    "imper": 13999,
    "manners": 16188,
    "anean": 7442,
    "nals": 16400,
    "derbyshire": 18322,
    "bedroom": 14700,
    "Ġeh": 6987,
    "Ġadversity": 24304,
    "beheaded": 22498,
    "Ġconfederate": 17355,
    "rd": 17650,
    "onde": 21254,
    "tum": 11533,
    "Ġenormous": 5608,
    "prisoner": 20546,
    "publ": 17639,
    "Ġfitted": 6244,
    "brill": 16493,
    "omet": 3078,
    "wearing": 22691,
    "!--": 10679,
    "Ġhazarded": 25655,
    "Ġjoy": 3188,
    "grieved": 17319,
    "Ġveins": 8934,
    "Ġresolute": 19247,
    "Ġimperson": 14222,
    "pond": 21015,
    "Ġmale": 9650,
    "Ġchin": 4891,
    "Ġcomposing": 16070,
    "ildad": 3535,
    "Ġwestern": 10656,
    "Ġcheerless": 16694,
    "Ġcommunicative": 24547,
    "atch": 675,
    "tubes": 25212,
    "Ġthese": 821,
    "Ġchaldee": 26236,
    "Ġmabel": 17326,
    "marching": 25753,
    "Ġminor": 12972,
    "Ġpail": 15610,
    "Ġdownward": 10333,
    "Ġdiscoveries": 13362,
    "Ġmy": 412,
    "instrument": 15241,
    "Ġapplying": 13096,
    "seriously": 18906,
    "jabez": 20935,
    "Ġchalk": 15936,
    "desirable": 23813,
    "Ġinfant": 11964,
    "abular": 4761,
    "maj": 18804,
    "ulls": 8841,
    "Ġwantonly": 22897,
    "Ġlowering": 7988,
    "thinks": 16643,
    "iteous": 14263,
    "Ġincluded": 8958,
    "fortunately": 9452,
    "R": 54,
    "Ġrefrain": 12951,
    "Ġvictor": 5125,
    "stove": 21650,
    "Ġphilist": 16602,
    "eon": 8733,
    "Ġsalted": 14759,
    "Ġconsidering": 4615,
    "acher": 6867,
    "Ġconsoled": 18115,
    "asper": 7856,
    "Ġproximity": 3222,
    "ounding": 22398,
    "Ġlapl": 19780,
    "Ġn": 300,
    "occurred": 13341,
    "Ġlysander": 13142,
    "Ġexpectations": 13146,
    "chastic": 2332,
    "Ġtemporal": 2611,
    "Ġdrily": 23540,
    "Ġpeculiar": 3157,
    "quadr": 15767,
    "ĠvertebrÃ¦": 11436,
    "ways": 1441,
    "Ġsouthampton": 24308,
    "Ġserpentine": 11361,
    "ah": 1831,
    "anxious": 15112,
    "pig": 8756,
    "laz": 15388,
    "Ġpool": 5173,
    "Ġintim": 6837,
    "bred": 11470,
    "Ġnantucketer": 6913,
    "Ġrocky": 13390,
    "Ġawake": 8273,
    "Ġexcited": 5579,
    "Ġdistracted": 11806,
    "Ġarthur": 7195,
    "code": 15331,
    "Ġhisself": 21919,
    "Ġbrah": 19360,
    "Ġyellow": 5302,
    "Ġbambooz": 26120,
    "wild": 8771,
    "Ġchr": 3690,
    "Ġstroke": 6935,
    "Ġautoregressive": 3435,
    "Ġcare": 1637,
    "Ġtell": 1466,
    "atement": 17774,
    "Ġahoy": 12188,
    "Ġhen": 3506,
    "Ġflounders": 23019,
    "ologies": 18781,
    "mira": 20981,
    "grand": 7971,
    "improve": 15715,
    "Ġlimp": 19182,
    "ominy": 13984,
    "orus": 10802,
    "Ġassembl": 20064,
    "Ġumb": 11648,
    "alive": 10828,
    "Ġ1825": 25719,
    "drowned": 17371,
    "witted": 17708,
    "Ġwealthy": 18181,
    "proof": 16425,
    "V": 58,
    "Ġhunger": 8569,
    "Ġdeserving": 14756,
    "estim": 14169,
    "Ġobsole": 22702,
    "caroline": 24151,
    "ition": 650,
    "ignified": 14491,
    "Ġfold": 5530,
    "alleled": 14431,
    "spermaceti": 12197,
    "Ġconfirmation": 17212,
    "Ġuppermost": 15281,
    "Ġshore": 4834,
    "Ġobjection": 6586,
    "Ġcomforter": 20510,
    "Ġsoften": 23127,
    "Ġpurchased": 12264,
    "Ġdone": 1816,
    "ishment": 3509,
    "hol": 3841,
    "Ġtheories": 13851,
    "Ġbel": 1216,
    "uracy": 1091,
    "Ġclaim": 5106,
    "Ġshivering": 10267,
    "skinned": 25388,
    "avenue": 25059,
    "osoever": 17345,
    "Ġbethinking": 25280,
    "Ġenabling": 1078,
    "gradient": 2274,
    "Ġsixpence": 19319,
    "inging": 5908,
    "Ġproud": 5654,
    "Ġblaming": 22934,
    "mun": 20964,
    "sand": 21055,
    "Ġshiny": 14108,
    "owal": 13995,
    "ban": 9586,
    "borean": 25744,
    "Ġmir": 9648,
    "Ġtasks": 1789,
    "define": 1527,
    "coming": 3565,
    "finger": 10095,
    "Ġstirs": 14919,
    "Ġvulgarity": 25364,
    "Ġgrease": 26191,
    "Ġenter": 4031,
    "Ġdangerous": 6615,
    "Ġsanct": 15066,
    "Ġreced": 15695,
    "ollen": 11299,
    "Ġduc": 4696,
    "Ġpoison": 7218,
    "narwhale": 17320,
    "acceler": 23600,
    "Ġplainly": 4382,
    "Ġflowing": 14414,
    "Ġlethar": 21751,
    "Ġcharmingly": 24223,
    "Ġwraps": 19779,
    "Ġhuddled": 20302,
    "Ġpuzzled": 7316,
    "Ġinches": 5846,
    "Ġsharing": 3481,
    "ohog": 9845,
    "chari": 21693,
    "Ġwee": 21924,
    "Ġredness": 19314,
    "ixed": 4851,
    "umst": 2503,
    "Ġdaunt": 19667,
    "Ġsubst": 4275,
    ")âĢĶâĢľ": 20745,
    "Ġyon": 9695,
    "Ġtass": 15472,
    "Ġstraight": 3704,
    "Ġwidest": 24236,
    "oid": 3132,
    "Ġfond": 4754,
    "Ġtuck": 10142,
    "Ġhood": 10824,
    "angled": 6843,
    "Ġdirected": 5578,
    "Ġsteadily": 8053,
    "Ġimmort": 19487,
    "Ġconference": 15750,
    "shel": 11933,
    "Ġdevotees": 25377,
    "stealthily": 23965,
    "law": 6116,
    "bewil": 22503,
    "Ġtop": 2471,
    "Ġwonderland": 23428,
    "Ġpilgr": 12184,
    "Ġjib": 14195,
    "feels": 22506,
    "Ġrejoice": 10210,
    "Ġsummons": 13236,
    "Ġbashee": 19851,
    "complete": 15036,
    "Ġtongues": 14865,
    "Ġseparation": 11247,
    "opposite": 19931,
    "Ġwondering": 7972,
    "Ġinquirers": 24967,
    "osque": 22266,
    "olog": 1098,
    "allions": 22203,
    "Ġchaff": 18384,
    "ething": 1603,
    "Ì": 141,
    "Ġcreate": 2091,
    "Ġsmoke": 4714,
    "Ġstair": 8457,
    "Ġconception": 10315,
    "Ġensuing": 12312,
    "buffalo": 20566,
    "tor": 15434,
    "solitude": 23300,
    "Ġtolerable": 6948,
    "sford": 5999,
    "Ġearnestness": 12129,
    "Ġfeatureless": 22622,
    "Ġextracting": 11114,
    "Ġupbraided": 26529,
    "Ġconquest": 15751,
    "Ġelab": 22647,
    "Ġcetology": 10011,
    "embedding": 20360,
    "embarrassed": 20667,
    "ieties": 19030,
    "Ġbosoms": 16796,
    "ana": 15562,
    "Ġfishery": 4177,
    "Ġexploration": 2334,
    "Ġcrushing": 20179,
    "Ġsuspecting": 14912,
    "Ġentic": 16149,
    "Ġbeginning": 4245,
    "Ġimpertinence": 11367,
    "Ġrepelled": 19087,
    "Ġconstit": 8585,
    "Ġdolphin": 17314,
    "Ġportable": 19373,
    "Ġuncovered": 23435,
    "Ġasking": 5651,
    "Ġexplanation": 6693,
    "Ġcharger": 19007,
    "joint": 24012,
    "Ġtipped": 17729,
    "omnipotent": 25967,
    "imagine": 19934,
    "Ġxiii": 25592,
    "aren": 10076,
    "Ġdictionaries": 12343,
    "tails": 21089,
    "Ġwestmorland": 24389,
    "Ġsparing": 22134,
    "Ġinjuries": 11278,
    "wide": 10139,
    "experience": 17160,
    "Ġdevelopments": 23242,
    "yellow": 9626,
    "Ġsecretary": 19445,
    "Ġsund": 8250,
    "ternatural": 12719,
    "Ġdash": 8123,
    "forbid": 14353,
    "Ġmen": 1435,
    "ox": 9135,
    "intend": 16226,
    "Ġscriptures": 26237,
    "entials": 22663,
    "Ġdisregarded": 22535,
    "Ġchance": 3320,
    "flour": 23969,
    "Ġways": 5396,
    "ows": 1918,
    "Ġalley": 15739,
    "as": 302,
    "Ġante": 17898,
    "Ġinfl": 6892,
    "Ġbert": 4582,
    "Ġcompl": 3759,
    "Ġgratitude": 5598,
    "Ġsublimity": 26348,
    "Ġtidy": 17093,
    "Ġmainly": 22653,
    "aps": 1229,
    "cele": 21629,
    "een": 726,
    "Ġoverwrites": 5033,
    "Ġerad": 25031,
    "Ġverse": 16603,
    "succeeded": 15178,
    "Ġevangelical": 25507,
    "scra": 13026,
    "Ġener": 10897,
    "wing": 2518,
    "Ġprivileged": 20116,
    "Ġsquare": 2396,
    "Ġlocket": 22118,
    "barbaric": 26360,
    "Ġminers": 22835,
    "addition": 13387,
    "Ġspont": 22136,
    "Ġplum": 11825,
    "lotts": 23829,
    "Ġharbor": 10029,
    "Ġworlds": 11950,
    "Ġsanctified": 25883,
    "Ġgaieties": 24197,
    "contrad": 19293,
    "Ġimpatiently": 8339,
    "Ġheedfulness": 24521,
    "Ġthroes": 24574,
    "Ġpluck": 15617,
    "Ġnaturalists": 10364,
    "Ġshades": 9465,
    "Ġfeeble": 12287,
    "Ġdressing": 7091,
    "Ġroylott": 7304,
    "Ġfoliage": 18869,
    "Ġquestioning": 10465,
    "Ġcrawling": 17045,
    "gaz": 20880,
    "Ġmoderation": 12822,
    "shadow": 20317,
    "Ġiteratively": 3059,
    "assure": 9271,
    "Ġexig": 21831,
    "pict": 8387,
    "Ġfre": 1572,
    "Ġparad": 2843,
    "Ġthundering": 24292,
    "Ġsolely": 9912,
    "Ġevil": 3809,
    "Ġsatur": 1932,
    "eag": 20844,
    "Ġcalculus": 23986,
    "owed": 2270,
    "Ġchose": 7412,
    "ile": 520,
    "dry": 13706,
    "Ġlest": 6395,
    "Ġnug": 21529,
    "Ġstruct": 2786,
    "Ġentity": 10343,
    "Ġbutts": 15858,
    "Ġdetermined": 2222,
    "Ġwhiskers": 10494,
    "appointment": 24063,
    "devouring": 24953,
    "Ġopposing": 12044,
    "Ġcalcul": 3639,
    "Ġcables": 15561,
    "Ġdarkly": 19116,
    "guarded": 13298,
    "Ġtropics": 17066,
    "Ġgrew": 5182,
    "Ġfirmament": 19474,
    "uce": 11537,
    "Ġspitzbergen": 15290,
    "Ġvishnoo": 12757,
    "Ġde": 364,
    "Ġfringed": 17274,
    "Ġdrowsy": 26445,
    "Ġhurrah": 9871,
    "Ġsupp": 1265,
    "Ġunfortunately": 10910,
    "oken": 4308,
    "excepting": 19709,
    "Ġforger": 15736,
    "Ġencircling": 26273,
    "Ġjets": 10289,
    "hill": 15365,
    "monsters": 19173,
    "Ġbutt": 14127,
    "pierced": 26142,
    "Ġtranscend": 25671,
    "bit": 3932,
    "bug": 17494,
    "tiest": 21084,
    "Ġsignification": 19205,
    "seen": 2880,
    "pocket": 9811,
    "Ġsewing": 21966,
    "Ġirritation": 20269,
    "notches": 22754,
    "velled": 9878,
    "Ġsupremacy": 20263,
    "Ġmultipl": 2793,
    "Ġtrace": 6182,
    "Ġsweeter": 23921,
    "Ġplaything": 19239,
    "opotam": 22484,
    "Ġboyhood": 23757,
    "Ġsuccessful": 9925,
    "box": 5749,
    "Ġlessen": 14531,
    "Ġhut": 15622,
    "Ġhumiliation": 16201,
    "edily": 17946,
    "Ġgills": 17995,
    "Ġcryst": 9919,
    "Ġsteak": 9831,
    "Ġfragrant": 13090,
    "chambers": 25455,
    "Ġed": 2243,
    "Ġexhausted": 8697,
    "Ġinspire": 11998,
    "quarrel": 20018,
    "Ġter": 2051,
    "Ġobed": 8537,
    "interested": 9508,
    "rudent": 6482,
    "Ġsoon": 1228,
    "Ġanomaly": 25637,
    "Ġcuba": 25098,
    "atching": 8204,
    "alled": 5912,
    "oup": 2015,
    "Ġprendergast": 26538,
    "Ġrescue": 13346,
    "Ġconceivable": 16614,
    "jointed": 24013,
    "amy": 8469,
    "sigma": 2999,
    "Ġfigured": 16645,
    "Ġremember": 2679,
    "Ġinconven": 7586,
    "Ġmistress": 8615,
    "Ġtantamount": 25626,
    "Ġcred": 8784,
    "Ġmutinous": 23961,
    "Ġjeopard": 9945,
    "rary": 4575,
    "min": 4571,
    "overs": 17622,
    "Ġplant": 8902,
    "avern": 24791,
    "Ġgirl": 3090,
    "Ġtimorous": 24227,
    "Ġappl": 1747,
    "Ġknows": 4162,
    "Ġtamely": 24982,
    "Ġmightier": 18731,
    "x": 92,
    "Ġthrough": 603,
    "Ġoverhead": 11776,
    "Ġpetticoat": 15298,
    "Ġdaft": 19666,
    "Ġfid": 10804,
    "typewritten": 26039,
    "Ġspark": 6690,
    "men": 1484,
    "Ġcanoes": 12809,
    "Ġmaritime": 23042,
    "Ġkentuckian": 26344,
    "ads": 5718,
    "port": 10720,
    "Ġretrogression": 26582,
    "Ġpettic": 14843,
    "Ġsublim": 19970,
    "Ġfetch": 7770,
    "ilations": 21726,
    "stir": 12676,
    "Ġdreaminess": 23943,
    "abil": 2008,
    "rise": 6227,
    "Ġbegg": 16256,
    "Ġcleat": 18950,
    "Ġlandlady": 10423,
    "Ġprocured": 8680,
    "Ġperforms": 11880,
    "rences": 9274,
    "Ġvane": 22878,
    "Ġpequod": 2320,
    "Ġgrain": 15834,
    "Ġmap": 2391,
    "hers": 7635,
    "elope": 14463,
    "Ġawkward": 7074,
    "deserts": 25382,
    "Ġdirection": 1793,
    "should": 3265,
    "ook": 21006,
    "iture": 5696,
    "ability": 717,
    "fleece": 19951,
    "sex": 12717,
    "Ë": 140,
    "Ġah": 5075,
    "Ġattracted": 8907,
    "circumamb": 26088,
    "father": 3778,
    "Ġhuff": 21494,
    "Ġsoot": 14133,
    "Ġalleghan": 25796,
    "Ġlexicon": 25975,
    "Ġunimpe": 22077,
    "introduce": 25187,
    "Ġsprout": 24091,
    "spike": 16142,
    "Ġhappy": 2466,
    "ingu": 2118,
    "retrie": 18926,
    "Ġhog": 13926,
    "ĠâĢľâĢĺ_": 25114,
    "Ġtranspired": 16785,
    "springs": 24912,
    "Ġcomparing": 14267,
    "Ġchristians": 13312,
    "insensibility": 23073,
    "Ġimpetuously": 20375,
    "ċ": 204,
    "taken": 7559,
    "Ġconfused": 7965,
    "Ġelizabeth": 1129,
    "Ġalso": 1345,
    "odes": 18122,
    "hateful": 20911,
    "afflicted": 23781,
    "etymology": 14703,
    "eyeing": 14948,
    "Ġunidirectional": 3428,
    "Ġshrivelled": 19706,
    "lipped": 16219,
    "aths": 22703,
    "Ġpromises": 10402,
    "leap": 21370,
    "Ġunique": 12782,
    "rised": 10125,
    "ches": 2149,
    "Ġscrut": 15948,
    "Ġwipe": 25765,
    "Ġopera": 23429,
    "Ġrephrased": 26478,
    "dan": 17516,
    "Ġcanal": 8183,
    "Ġenderby": 13654,
    "Ġjoky": 18407,
    "Ġaverred": 18867,
    "pie": 21013,
    "encyclopÃ¦dia": 16665,
    "weekly": 25685,
    "Ġtribute": 15477,
    "succeed": 10330,
    "footsteps": 25200,
    "Ġconstrued": 26302,
    "Ġclapped": 9747,
    "Ġsmothe": 18576,
    "Ġsinusoid": 4780,
    "adjust": 21764,
    "Ġconfess": 3767,
    "Ġbarbarous": 13479,
    "Ġunnecessary": 8854,
    "Ġdivert": 23595,
    "Ġamongst": 8961,
    "Ġinarticulate": 21504,
    "Ġdesperate": 7777,
    "alions": 21505,
    "excitement": 19672,
    "speechless": 25396,
    "stirring": 20429,
    "Ġdormouse": 4925,
    "Ġstriking": 6089,
    "Ġwrists": 11113,
    "Ġreconciled": 13590,
    "Ġbrahma": 26321,
    "Ġwharf": 9561,
    "Ġrecogn": 2618,
    "Ġcuff": 17831,
    "Ġemblaz": 16239,
    "Ġdaughter": 2869,
    "Ġnegatived": 23050,
    "importance": 9991,
    "Ġmitt": 21310,
    "degrad": 22147,
    "pers": 4337,
    "Ġsignificantly": 4518,
    "sixteen": 24854,
    "Ġfairest": 20466,
    "Ġlogic": 13081,
    "otes": 15747,
    "possessed": 9530,
    "header": 11936,
    "ique": 8746,
    "Ġrelate": 6874,
    "headsman": 16698,
    "Ġconfronted": 23310,
    "Ġcuriosities": 26290,
    "itar": 15550,
    "ard": 465,
    "pr": 3179,
    "Ġcannon": 14155,
    "peddling": 21034,
    "board": 3568,
    "Ġproper": 1377,
    "Ġexecution": 6926,
    "hatch": 15367,
    "Ġstoven": 23178,
    "hinting": 17570,
    "Ġconfusion": 7272,
    "wooden": 24589,
    "Ġostrich": 26431,
    "promontory": 24727,
    "Ġdenomin": 12071,
    "Ġseize": 8167,
    "Ġfa": 4819,
    "Ġdescending": 8905,
    "Ġembrace": 16991,
    "Ġwholesome": 16008,
    "eridge": 15528,
    "observed": 7675,
    "Ġstepdaughter": 22619,
    "cceed": 4145,
    "othic": 16218,
    "blunder": 24131,
    "idly": 12704,
    "hereafter": 19218,
    "Ġknife": 7308,
    "Ġhabitation": 14805,
    "Ġimpose": 22389,
    "uncomfortable": 18163,
    "Ġmaimed": 21319,
    "Ġtener": 21166,
    "Ġwhile": 606,
    "Ġstar": 6024,
    "Ġmagnitude": 1945,
    "Ġgleamed": 17077,
    "Ġalleg": 14019,
    "Ġdomes": 23662,
    "pres": 16030,
    "hanging": 10102,
    "Ġalter": 6543,
    "Ġpy": 21455,
    "avier": 2832,
    "Ġeconomical": 25288,
    "hint": 12479,
    "Ġforswe": 21779,
    "Ġextravag": 11254,
    "Ġpursuers": 13231,
    "mindful": 19602,
    "Ġdick": 3501,
    "Ġbenevolence": 9529,
    "ister": 1294,
    "Ġswinging": 7448,
    "Ġsolitudes": 22890,
    "Ġliterature": 17150,
    "Ġringle": 18211,
    "leads": 21373,
    "several": 5543,
    "Ġfootmen": 23800,
    "becomes": 22501,
    "complaisance": 24808,
    "Ġgreyish": 24210,
    "derstand": 646,
    "Ġmotionless": 8325,
    "Ġproportionate": 17043,
    "Ġsatin": 12992,
    "Ġbreak": 2868,
    "Ġneatly": 17017,
    "strained": 21656,
    "warnings": 20354,
    "Ġchosen": 7200,
    "magnitude": 17250,
    "Ġravine": 18648,
    "Ġacceptance": 14829,
    "Ġtechn": 9371,
    "Ġache": 18663,
    "poured": 17638,
    "eties": 10838,
    "Ġdates": 6694,
    "Ġsuppressing": 23007,
    "Ġexcept": 3315,
    "Ġpane": 21467,
    "Ġfrantic": 7958,
    "omist": 21662,
    "gard": 7338,
    "thrill": 25657,
    "Ġfilial": 16621,
    "chorus": 19814,
    "cushion": 20823,
    "Ġpallor": 13518,
    "appre": 14372,
    ".;": 20746,
    "te": 995,
    "fired": 20862,
    "mured": 6959,
    "Ġcauses": 2560,
    "Ġuniversity": 13125,
    "point": 6064,
    "se": 358,
    "Ġstreets": 5864,
    "muring": 17602,
    "Ġnapole": 15118,
    "reserve": 17766,
    "requ": 7148,
    "abound": 15743,
    "Ġagainst": 1698,
    "Ġdav": 15593,
    "veral": 2352,
    "arrival": 15603,
    "Ġgentleness": 8713,
    "unts": 12735,
    "Ġdropped": 4471,
    "Ġanonymous": 26179,
    "Ġquarrelling": 13501,
    "odecim": 9834,
    "Ġrelease": 19292,
    "Ġimpul": 7207,
    "pleased": 8856,
    "struck": 7864,
    "quality": 10234,
    "Ġsunk": 5752,
    "danish": 20835,
    "Ġshri": 5375,
    "urity": 8144,
    "Ġprovocation": 24193,
    "Ġsummoning": 23877,
    "Ġcruc": 16536,
    "Ġunfair": 19510,
    "Ġbehaviour": 4385,
    "beware": 16042,
    "Ġoverlapping": 26240,
    "Ġinclement": 22559,
    "Ġimpetus": 25570,
    "Ġimminent": 11245,
    "maul": 11893,
    "Ġunseen": 3527,
    "oft": 3593,
    "burst": 10539,
    "incible": 16499,
    "Ġsmall": 892,
    "Ġinconsiderable": 21499,
    "mccarthy": 15397,
    "rimsh": 17028,
    "Ġimpart": 11783,
    "quitted": 21862,
    "anguish": 15986,
    "actually": 14297,
    "Ġdanger": 3523,
    "Ġknowest": 12867,
    "Ġdisputes": 25826,
    "constantly": 24608,
    "Ġdoings": 18377,
    "sailors": 9924,
    "!": 5,
    "ulpt": 10886,
    "Ġclock": 9535,
    "Ġens": 2790,
    "Ġtransp": 4769,
    "Ġfates": 15581,
    "Ġcrazy": 8596,
    "Ġhedgehogs": 25395,
    "Ġremarkable": 4915,
    "Ġfamed": 16329,
    "Ġanecdote": 26356,
    "Ġwakeful": 24268,
    "Ġyear": 3289,
    "duck": 22417,
    "Ġtone": 4041,
    "draw": 23903,
    "idea": 9304,
    "Ġuncivilized": 25499,
    "Ġcop": 7579,
    "sory": 17660,
    "Ġtiller": 8967,
    "frightened": 17197,
    "entiful": 10837,
    "Ġunsur": 22027,
    "science": 11913,
    "lant": 20949,
    "Ġtubs": 11371,
    "Ġsubsisting": 23438,
    "ology": 1612,
    "blame": 14796,
    "Ġimmens": 9941,
    "oning": 7571,
    "Ġhers": 7891,
    "anyth": 5438,
    "Ġmean": 741,
    "Ġfrankenstein": 7096,
    "oftener": 23968,
    "Ġstoried": 18075,
    "interest": 5421,
    "disposition": 10044,
    "Ġcompliment": 5673,
    "Ġrespectively": 23251,
    "Ġdiagon": 24739,
    "Ġfountain": 7364,
    "Ġrequest": 6052,
    "Ġobviously": 16811,
    "Ġdeterminate": 23010,
    "Ġshameful": 19854,
    "process": 11149,
    "ispens": 8337,
    "Ġdeep": 803,
    "Ġcapacity": 10441,
    "Ġencaps": 12966,
    "Ġfolk": 10377,
    "esu": 17903,
    "scornful": 26576,
    "Ġhogarth": 25781,
    "inferiors": 25347,
    "Ġeddying": 17118,
    "Ġtimely": 19597,
    "evidence": 25522,
    "Ġnlp": 3063,
    "ĠĠĠĠĠĠĠĠĠĠĠĠĠĠĠĠĠĠĠĠĠĠĠ": 18833,
    "roy": 7855,
    "infidel": 24664,
    "iop": 20921,
    "occupation": 15060,
    "voc": 8395,
    "comp": 3819,
    "Ġbrig": 11047,
    "mistaken": 12214,
    "en": 271,
    "ents": 1895,
    "easy": 9594,
    "Í": 142,
    "Ġshoulders": 5565,
    "Ġvital": 9245,
    "Ġtrack": 7449,
    "Ġincred": 5646,
    "Ġreflect": 6575,
    "Ġtried": 3649,
    "Ġfunny": 7637,
    "Ġrevellers": 21682,
    "build": 12191,
    "Ġforgot": 4683,
    "linearity": 1649,
    "Ġfollowed": 1794,
    "unnatural": 15776,
    "Ġaverage": 3144,
    "Ġpronouncing": 16970,
    "Ġconfining": 23308,
    "Ġrural": 21972,
    "Ġweltering": 19588,
    "fortunate": 4791,
    "Ġplaced": 3447,
    "Ġhobbling": 25645,
    "Ġappertain": 22226,
    "Ġtangles": 25762,
    "Ġaloysius": 15741,
    "Ġlullaby": 20591,
    "Ġvapory": 17007,
    "Ġobserving": 6081,
    "Ġwear": 6032,
    "cas": 20796,
    "Ġsap": 18324,
    "imson": 12693,
    "Ġapology": 8329,
    "Ġlists": 11167,
    "Ġmeasuring": 22884,
    "whatsoever": 18486,
    "nobody": 16138,
    "Ġturned": 2133,
    "tattoo": 21090,
    "Ġabove": 2934,
    "rin": 10123,
    "Ġupbraid": 18319,
    "Ġmiserable": 3636,
    "Ġpudding": 17918,
    "Ġdrops": 9034,
    "Ġvii": 13112,
    "Ġ103": 24410,
    "Ġoutrage": 15961,
    "advice": 12161,
    "Ġmult": 1021,
    "Ġfallen": 5969,
    "Ġdignity": 5704,
    "iary": 15373,
    "Ġtok": 1245,
    "Ġwisely": 13276,
    "infliction": 25925,
    "called": 6293,
    "Ġsevere": 6033,
    "Ġserve": 9370,
    "Ġdeposited": 25485,
    "Ġnurse": 9519,
    "Ġostentatious": 25737,
    "dressed": 10696,
    "wedding": 12525,
    "Ġreferences": 21678,
    "evil": 11487,
    "Ġdisobey": 18560,
    "Ġprophecy": 25706,
    "size": 15426,
    "augmented": 26288,
    "Ġeligible": 10672,
    "zag": 17714,
    "Ġcolourless": 19572,
    "Ġtack": 5620,
    "Ġpeev": 22697,
    "Ġtashtego": 4486,
    "aulding": 11340,
    "Ġdesirable": 8943,
    "ity": 417,
    "Ġcousins": 9917,
    "Ġlanded": 7468,
    "ffy": 18318,
    "german": 11493,
    "Ġegress": 21625,
    "stall": 21644,
    "Ġknights": 15152,
    "imin": 1771,
    "Ġcasual": 11410,
    "antled": 18287,
    "Ġorganically": 3011,
    "Ġone": 569,
    "Ġterti": 14538,
    "mystery": 15158,
    "Ġannihilated": 20255,
    "Ġforthwith": 16619,
    "Ġoffic": 3191,
    "Ġshone": 7403,
    "Ġgore": 17991,
    "icions": 21567,
    "plendent": 21963,
    "ingham": 21303,
    "Ġsnatching": 10473,
    "Ġmemories": 14542,
    "Ġnatural": 1117,
    "Ġnow": 691,
    "Ġbut": 424,
    "Ġjackson": 24242,
    "Ġreasoning": 2047,
    "Ġattack": 5478,
    "withstand": 23030,
    "Ġgirth": 13139,
    "Ġcrept": 11022,
    "Ġintimately": 24801,
    "develop": 13520,
    "Ġbolted": 12248,
    "Ę": 217,
    "Ġcourting": 23295,
    "Ġbutchers": 18273,
    "Ġfalsely": 20585,
    "learned": 8604,
    "Ġventure": 7740,
    "Ġworkmen": 23052,
    "Ġunharmed": 15142,
    "Ġcontrivances": 12360,
    "Ġdark": 2111,
    "Ġcumberland": 21358,
    "Ġsubstances": 24167,
    "Ġhabit": 6771,
    "cence": 9590,
    "Ġmenaced": 16295,
    "Ġsurmised": 24920,
    "Ġeagerness": 6609,
    "Ġwatches": 11083,
    "Ġplot": 14282,
    "Ġwitnesses": 9488,
    "cham": 10854,
    "Ġaxe": 15065,
    "isher": 2877,
    "totally": 25418,
    "daring": 20831,
    "Ġgothic": 18002,
    "Ġgidd": 25784,
    "Ġrevolut": 3261,
    "aches": 6571,
    "ac": 739,
    "Ġlistener": 16476,
    "Ġpreceded": 13431,
    "Ġmerely": 3771,
    "Ġsnodhead": 19303,
    "Ġlunch": 13528,
    "Ġbanish": 15573,
    "Ġthis": 382,
    "continue": 16862,
    "pious": 17634,
    "mud": 20973,
    "dangerous": 20243,
    "oline": 6833,
    "Ġpenetrate": 12273,
    "Ġhusbands": 16644,
    "Ġbrilliancy": 20110,
    "Ġcounterpart": 24720,
    "formity": 10280,
    "lucifer": 25303,
    "Ġgilded": 17447,
    "Ġmargin": 11924,
    "repressed": 21246,
    "sheltered": 25586,
    "Ġdragged": 6888,
    "ě": 220,
    "Ġthereupon": 18435,
    "Ġapparition": 8068,
    "Ġscrape": 14920,
    "aternity": 21268,
    "ency": 3870,
    "Ġexcl": 3479,
    "raised": 15682,
    "Ġrespective": 16347,
    "Ġpicturesque": 14896,
    "Ġbats": 13902,
    "lay": 5892,
    "Ġperform": 1036,
    "Ġpurplish": 19142,
    "Ġcens": 8415,
    "Ġensue": 18191,
    "nest": 10115,
    "Ġcheap": 13093,
    "Ġont": 18121,
    "Ġhealth": 3905,
    "Ġthickets": 24027,
    "instinct": 19546,
    "Ġdifferently": 10390,
    "Ġfunere": 22269,
    "Ġwarmup": 3922,
    "recovered": 19790,
    "Ġimpropriety": 17398,
    "Ġgestic": 21612,
    "Ġprocession": 11778,
    "Ġoverthrown": 18430,
    "Ġmidway": 14605,
    "Ġeyford": 10643,
    "itically": 21333,
    "Ġdispatched": 23884,
    "folding": 24928,
    "Ġplu": 8802,
    "Ġphilosop": 5057,
    "=": 33,
    "Ġsun": 1721,
    "Ġmat": 1148,
    "edd": 1231,
    "bable": 8722,
    "Ġlam": 21553,
    ":--": 5784,
    "Ġshallow": 14396,
    "tic": 8392,
    "Ġsomewhat": 4897,
    "Ġarbit": 4650,
    "Ġalche": 21788,
    "sullen": 17670,
    "fearfully": 25119,
    "Ġresearches": 13135,
    "Ġce": 3032,
    "ood": 961,
    "range": 3498,
    "Ġcapting": 23025,
    "shot": 2173,
    "Ġtexture": 19162,
    "garden": 15027,
    "Ġhopeful": 19036,
    "Ġrequisite": 18634,
    "lanter": 15390,
    "Ġunreasonably": 17453,
    "destroy": 19513,
    "begone": 12881,
    "Ġpoem": 22594,
    "anity": 9656,
    "Ġdisregard": 22533,
    "Ġmajesty": 5201,
    "Ġunh": 9255,
    "onical": 21256,
    "Ġpeaking": 22694,
    "inde": 17732,
    "Ġ1883": 23901,
    "fights": 20867,
    "ù": 186,
    "Ġcheat": 19026,
    "txt": 12519,
    "represent": 9639,
    "idel": 5301,
    "Ġbowed": 6243,
    "Ġcommanders": 23871,
    "oper": 7346,
    "Ġpile": 8426,
    "shipping": 10308,
    "Ġcoiled": 11823,
    "Ġplate": 8901,
    "Ġreap": 18029,
    "Ġcomplacency": 19451,
    "Ġaddition": 1147,
    "Ġshock": 6083,
    "Ġparadigms": 3058,
    "Ġgaiety": 16750,
    "Ġteeth": 4169,
    "fordshire": 4676,
    "Ġasiatics": 20434,
    "Ġcentaurs": 23836,
    "ache": 8520,
    "Ġruins": 16161,
    "windibank": 24163,
    "Ġhams": 16613,
    "uctive": 17697,
    "increase": 20271,
    "Ġworkman": 16272,
    "principle": 10652,
    "Ġprinciples": 10013,
    "Ġmac": 15541,
    "Ġsingled": 23774,
    "Ġdiff": 3120,
    "Ġtransfer": 2336,
    "Ġinc": 702,
    "Ġrepentance": 15163,
    "ony": 3030,
    "placed": 7880,
    "vand": 21111,
    "ondon": 2707,
    "nt": 921,
    "Ġreward": 6145,
    "Ġflask": 3040,
    "Ġforeheads": 23450,
    "laughed": 20284,
    "Ġinnumerable": 13355,
    "Ġbeating": 8146,
    "Ġmagn": 1558,
    "agery": 21912,
    "circ": 4389,
    "blazing": 24133,
    "readiness": 19366,
    "Ġhappiest": 11885,
    "Ġsystems": 791,
    "Ġgames": 11628,
    "teringly": 21828,
    "Ġencourage": 10382,
    "Ġpark": 5465,
    "Ġpairs": 4185,
    "Ġdoxology": 22249,
    "resp": 13841,
    "supplementary": 20552,
    "Ġclos": 4549,
    "Ġprophe": 13082,
    "Ġcomple": 2841,
    "Ġdefinitions": 22948,
    "ively": 1317,
    "Ġnash": 5820,
    "Ġblight": 18819,
    "Ġfainter": 14916,
    "Ġemergencies": 17364,
    "Ġmarvels": 11085,
    "atives": 2237,
    "prop": 1047,
    "Ġnorm": 765,
    "Ġsalad": 19482,
    "Ġdisgu": 8207,
    "Ġrecall": 3858,
    "usations": 15950,
    "ulties": 12905,
    "Ġfurniture": 6476,
    "Ġmccarthy": 5145,
    "Ġsobbing": 14137,
    "Ġdevotedly": 24749,
    "Ġblown": 12089,
    "lovely": 16049,
    "Ġadmiration": 5329,
    "Ġinsatiate": 19272,
    "Ġchag": 15934,
    "insufficient": 15491,
    "Ġliar": 22413,
    "help": 1476,
    "hued": 20913,
    "Ġdesc": 773,
    "Ġinspection": 14545,
    "rat": 8759,
    "Ġtoast": 21516,
    "cater": 20818,
    "ufactured": 15184,
    "inking": 6710,
    "Ġadvis": 9812,
    "Ġcourtesy": 9947,
    "Ġenrapt": 21944,
    "Ġpredef": 18515,
    "Ġacknowledgment": 16958,
    "Ġfewer": 16227,
    "Ġexhausting": 24709,
    "Ġsketch": 16168,
    "Ġpatter": 853,
    "Ġproductions": 22950,
    "interval": 7992,
    "Ġfew": 1212,
    "Ġmeas": 1093,
    "Ġimmeasurable": 26232,
    "going": 6314,
    "Ġseverest": 14093,
    "Ġrough": 7186,
    "Ġverbal": 19382,
    "idy": 21769,
    "Ġbuzz": 24000,
    "Ġdo": 511,
    "pagans": 25526,
    "osis": 18390,
    "Ġclubs": 25180,
    "Ġoverboard": 6046,
    "Ġfobbing": 26442,
    "dz": 4738,
    "Ġrender": 8306,
    "Ġliterally": 15119,
    "Ġhaunted": 10255,
    "Ġest": 2266,
    "Ġboxed": 24359,
    "rendering": 22345,
    "Ġwealth": 7620,
    "u": 89,
    "Ġsoc": 3529,
    "Ġbrooding": 18909,
    "Ġwhales": 1826,
    "Ġseries": 7061,
    "Ġgrateful": 7661,
    "Ġimpropri": 14219,
    "cru": 7127,
    "Ġdisposing": 19378,
    "willing": 6593,
    "icest": 21568,
    "ted": 789,
    "Ġsuspic": 4470,
    "du": 604,
    "Ġcaulking": 20296,
    "Ġconvulsive": 19309,
    "Ġearl": 7676,
    "dling": 15342,
    "Ġburly": 19252,
    "Ġval": 968,
    "Ġfattened": 25950,
    "Ġexpect": 2304,
    "Ġoptimizers": 18622,
    "insula": 23070,
    "Ġbachelor": 7787,
    "unforeseen": 21893,
    "Ġsequences": 1753,
    "Ġexpedition": 10635,
    "Ġdiana": 21440,
    "Ġexcell": 10418,
    "Ġcrosses": 23066,
    "pattern": 4997,
    "Ġpunctual": 17139,
    "ously": 2491,
    "grat": 5052,
    "walks": 19724,
    "ped": 6963,
    "straw": 24098,
    "Ġpreside": 18366,
    "Ġrubbing": 9323,
    "Ġwarehouse": 20420,
    "Ġrefill": 18699,
    "connect": 1292,
    "Ġcompiled": 22576,
    "Ġdestructive": 23488,
    "hearty": 14836,
    "north": 14617,
    "ercial": 21277,
    "Ġunlimited": 26224,
    "U": 57,
    "Ġwre": 5077,
    "Ġodds": 13333,
    "Ġashes": 7616,
    "Ġpilgrimage": 17310,
    "cheeked": 19342,
    "fters": 20863,
    "Ġdevoting": 22726,
    "Ġcharley": 19008,
    "Ġsmote": 18577,
    "darkened": 24513,
    "allingly": 22204,
    "comput": 1916,
    "Ġthrow": 3785,
    "Ġdearer": 14052,
    "Ġloc": 10915,
    "Ġbook": 2703,
    "humorously": 24024,
    "Ġfict": 21408,
    "urmountable": 15282,
    "consideration": 14957,
    "ove": 1745,
    "Ġskip": 1844,
    "sutherland": 21065,
    "seeing": 7079,
    "ductive": 23939,
    "end": 503,
    "Ġbask": 8118,
    "Ġperplexity": 2757,
    "ores": 2415,
    "apside": 22966,
    "Ġdict": 9177,
    "Ġprospects": 9961,
    "Ġrobert": 10970,
    "Ġdissu": 18551,
    "Ġominous": 12427,
    "urches": 12689,
    "Ġlodge": 5779,
    "precip": 14666,
    "ĵ": 246,
    "Ġclair": 6269,
    "kindness": 10507,
    "aned": 5147,
    "Ġindividually": 22963,
    "Ġinterested": 6458,
    "Ġinhab": 5083,
    "Ġnailed": 10191,
    "phia": 22775,
    "Ġ1839": 20463,
    "Ġclouded": 13294,
    "terrible": 8467,
    "Ġevidently": 6759,
    "indirect": 22377,
    "Ġessex": 20130,
    "Ġjack": 4652,
    "Ġpropensity": 18997,
    "Ġcough": 11583,
    "Ġalready": 2713,
    "Ġvulture": 17341,
    "Ġnautical": 17388,
    "semicirc": 26492,
    "Ġwire": 13854,
    "peaceful": 20450,
    "sleet": 20152,
    "increased": 20273,
    "chard": 21691,
    "Ġnightgown": 23135,
    "Ġmer": 2928,
    "Ġscor": 8191,
    "Ġcontracting": 16014,
    "Ġadmir": 12024,
    "Ġenc": 965,
    "Ġallured": 14115,
    "Ġpaws": 13923,
    "Ġappears": 5402,
    "Ġsquaw": 22843,
    "Ġvivid": 8059,
    "Ġcitadel": 25439,
    "matter": 5136,
    "their": 2538,
    "albatross": 15633,
    "Ġguiltless": 16941,
    "Ġrekindled": 21681,
    "dance": 17520,
    "77": 15303,
    "Ġfrighten": 13282,
    "Ġliberality": 24376,
    "security": 26208,
    "Ġundulating": 19520,
    "fitting": 1509,
    "Ġsealed": 15821,
    "hampshire": 23268,
    "Ġreputed": 18038,
    "Ġbil": 15568,
    "âĢĿ--": 21821,
    "Ġjurors": 17346,
    "Ġsequ": 984,
    "big": 13688,
    "repeat": 25155,
    "iforn": 14066,
    "Ġdesperately": 24657,
    "encoun": 12301,
    "Ġcontinents": 16850,
    "Ġroanoke": 22410,
    "destiny": 16700,
    "mselves": 2862,
    "Ġpref": 14173,
    "Ġraven": 16118,
    "Ġinscriptions": 20012,
    "Ġastr": 15496,
    "wherein": 19109,
    "violets": 23544,
    "Ġheight": 4223,
    "fireside": 24693,
    "Ġgreatest": 4095,
    "Ġubiqu": 18049,
    "Ġimportant": 1068,
    "Ġdiffers": 23784,
    "Ġrap": 14307,
    "Ġbarricade": 14661,
    "Ġbreadth": 10565,
    "Ġaug": 6235,
    "Ġparagraph": 17456,
    "Ġsuburban": 17348,
    "Ġbroke": 5323,
    "Ġluxuries": 25167,
    "Ġrambling": 18645,
    "erval": 4020,
    "Ġlocking": 18299,
    "Ġsat": 1131,
    "par": 1852,
    "Ġturnkeys": 23033,
    "Ġdrop": 4345,
    "disp": 7978,
    "Ġfirmly": 8015,
    "Ġconsum": 9801,
    "Ġplat": 8522,
    "deacon": 22151,
    "Ġbinnacle": 8120,
    "Ġheaths": 25973,
    "orton": 11759,
    "Ġfe": 491,
    "Ġwhittingham": 26199,
    "benevolent": 15236,
    "Ġtis": 15467,
    "retired": 11939,
    "Ġstupidity": 15051,
    "advancing": 14838,
    "Ġabominably": 20069,
    "simple": 13455,
    "features": 14738,
    "Ġphilosoph": 19654,
    "Ġabraham": 18396,
    "ę": 218,
    "Ġpassed": 2011,
    "faced": 8081,
    "Ġbloodshot": 23802,
    "ħ": 232,
    "ella": 12753,
    "Ġinasmuch": 10826,
    "Ġweary": 5635,
    "speaking": 12102,
    "Ġeasy": 3456,
    "Ġanom": 12615,
    "========": 2310,
    "unpardonable": 21895,
    "standers": 18480,
    "Ġbug": 11591,
    "Ġcaring": 23096,
    "mell": 20966,
    "dom": 6223,
    "actorily": 25577,
    "Ġconjecture": 9534,
    "800": 17478,
    "Ġanaly": 1141,
    "Ġreasonable": 7252,
    "Ġplucked": 15116,
    "bular": 15316,
    "Ġlabyrin": 13108,
    "Ġburgl": 13176,
    "Ġoutput": 930,
    "Ġluck": 4880,
    "theirs": 23604,
    "Ġranged": 10259,
    "Ġgates": 10202,
    "gans": 11491,
    "Ġmerc": 9428,
    "lizzy": 6653,
    "ar": 285,
    "Ġunfeeling": 14121,
    "Ġteaches": 18809,
    "Ġclay": 7019,
    "Ġsex": 8845,
    "Ġsnar": 13201,
    "Ġirreducible": 5519,
    "Ġpotent": 12065,
    "ctuous": 9207,
    "umerable": 11728,
    "Ġcit": 10784,
    "Ġneatness": 19935,
    "Ġfoaming": 18992,
    "lose": 12886,
    "Ġeat": 4643,
    "rapt": 13975,
    "antly": 1989,
    "Ġsleepless": 14582,
    "ugal": 19027,
    "Ġpeaked": 2295,
    "Ġmurder": 4282,
    "Ġbottom": 3676,
    "Ġproving": 15755,
    "serve": 13051,
    "Ġpathetic": 19024,
    "desper": 13223,
    "Ġjaws": 5592,
    "inates": 21183,
    "Ġfifty": 4623,
    "Ġlustrous": 20159,
    "Ġnieces": 8435,
    "deliver": 19507,
    "Ġforbidding": 17079,
    "Ġgnarled": 25169,
    "Ġterrible": 5328,
    "Ġcontinued": 2920,
    "flies": 19427,
    "Ġvalidate": 3103,
    "Ġmutually": 23960,
    "Ġoutrages": 18416,
    "charitable": 23936,
    "utch": 21590,
    "desc": 1393,
    "Ġidleness": 11144,
    "simon": 16974,
    "Ġmizen": 17260,
    "harpooneer": 8692,
    "Ġmurmur": 14590,
    "Ġstables": 23657,
    "widely": 25344,
    "unction": 10236,
    "stretch": 13978,
    "Ġnoteworthy": 24164,
    "Ġshocking": 10436,
    "Ġtowing": 9195,
    "thousand": 5546,
    "rises": 17656,
    "Ġpapered": 20134,
    "ux": 7814,
    "Ġbeam": 2879,
    "Ġstoper": 14465,
    "Ġfidelity": 15244,
    "Ġlizard": 12658,
    "Ġlatitudes": 9498,
    "consequential": 26251,
    "abouts": 9454,
    "ifts": 12739,
    "umbled": 8494,
    "strang": 11184,
    "overhearing": 19056,
    "Ġgang": 9209,
    "Ġcataract": 23431,
    "chor": 6147,
    "Ġribs": 7102,
    "lucas": 15154,
    "Ġshrunk": 16719,
    "Ġlatterly": 24084,
    "Ġexcursion": 26590,
    "time": 3151,
    "Ġlearn": 363,
    "memory": 13620,
    "torm": 11532,
    "bingleys": 19637,
    "obtained": 23100,
    "Ġanybody": 5314,
    "Ġranges": 2882,
    "Ġvirt": 3909,
    "Ġprobable": 5569,
    "Ġwolfish": 25936,
    "Ġcor": 1323,
    "uten": 11624,
    "Ġarrowy": 25470,
    "Ġviolin": 16431,
    "urpr": 2287,
    "spirits": 8056,
    "athed": 7829,
    "Ġtimid": 6346,
    "smug": 23911,
    "Ġword": 1052,
    "Ġbaltic": 18796,
    "bud": 10685,
    "pertaining": 22184,
    "thousands": 16871,
    "Ġdevilish": 11229,
    "Ġnearing": 15801,
    "sentence": 2937,
    "Ġzero": 1202,
    "ispiece": 19728,
    "Ġconsolation": 6209,
    "soft": 12513,
    "Ġbump": 9661,
    "Ġgent": 7382,
    "Ġretains": 20033,
    "idean": 14265,
    "Ġtails": 9904,
    "Ġmiz": 10778,
    "Ġanno": 9669,
    "Ġserenity": 10030,
    "Ġnight": 1463,
    "Ġpunish": 12163,
    "outer": 9670,
    "Ġmist": 2876,
    "Ġding": 12603,
    "Ġtreacherous": 13557,
    "Ġforeshadowing": 26593,
    "Ġcared": 8786,
    "Ġresting": 7963,
    "Ġtumb": 21172,
    "thereby": 14449,
    "Ġtide": 6660,
    "Ġmethodic": 23180,
    "sake": 13785,
    "Ġfair": 2838,
    "Ġemma": 20697,
    "accompanied": 12425,
    "varied": 23189,
    "emorial": 10243,
    "Ġimpossible": 3546,
    "Ġfoundling": 22981,
    "Ġbath": 9660,
    "chase": 11647,
    "Ġhesitate": 16947,
    "business": 5609,
    "Ġunspeak": 8853,
    "Ġcommonest": 23094,
    "Ġrag": 18642,
    "ere": 6789,
    "Ġhagger": 21495,
    "Ġkramm": 26235,
    "Ġniagara": 26459,
    "Ġfood": 5080,
    "Ġdegrad": 2588,
    "Ġassuredly": 14824,
    "marvell": 24174,
    "right": 2771,
    "inian": 21185,
    "Ġanimated": 7702,
    "Ġelig": 9780,
    "irting": 11688,
    "Ġprosecuted": 25294,
    "Ġclusters": 25233,
    "forced": 11032,
    "Ġaccumulates": 2889,
    "Ġpivot": 13925,
    "Ġhighness": 22780,
    "Ġinconstant": 21500,
    "tland": 21076,
    "Ġschedu": 1822,
    "Ġbend": 9172,
    "violence": 16479,
    "Ġsphy": 18312,
    "Ġjot": 11766,
    "ribed": 7693,
    "Ġph": 1551,
    "Ġapproaching": 6285,
    "appearance": 5334,
    "Ġinstrum": 6056,
    "Ġtestament": 23194,
    "Ġconst": 1909,
    "habit": 16192,
    "Ġclearness": 23188,
    "iscre": 17852,
    "understood": 13220,
    "hills": 13738,
    "Ġkings": 7196,
    "Ġworker": 23051,
    "Ġuniversal": 2234,
    "discovery": 12019,
    "chronicle": 26481,
    "Ġsaleve": 17393,
    "imes": 1300,
    "ap": 547,
    "asc": 6386,
    "Ġsequel": 14362,
    "Ġquito": 24407,
    "ption": 7397,
    "Ġelasticity": 19561,
    "Ġorgan": 2502,
    "ely": 624,
    "Ġhosmer": 6774,
    "Ġdrag": 6185,
    "Ġbulwarks": 5591,
    "Ġdetest": 8502,
    "Ġshook": 4468,
    "Ġunmanufactured": 20437,
    "probably": 10022,
    "hall": 8086,
    "returns": 23142,
    "Ġninetieth": 25358,
    "drawers": 19389,
    "Ġinsist": 9893,
    "Ġassum": 4067,
    "Ġlogits": 3453,
    "Ġbraided": 16583,
    "Ġflashing": 13032,
    "Ġcharged": 9856,
    "Ġcrowding": 13283,
    "Ġabstracted": 17184,
    "Ġdiscre": 2419,
    "browed": 25895,
    "Ġpreach": 14174,
    "Ġcarriage": 3950,
    "Ġdoubted": 7966,
    "touched": 15441,
    "Ġcontortions": 18477,
    "scotch": 25852,
    "onym": 14650,
    "Ġabundance": 17157,
    "Ġsacrific": 15019,
    "Ġundulates": 24120,
    "tempered": 13449,
    "Ġliked": 5265,
    "anybody": 12086,
    "´": 117,
    "Ġtaffrail": 15478,
    "Ġtroop": 24898,
    "Ġexpired": 18625,
    "cooks": 25070,
    "idate": 21772,
    "Ġesc": 2254,
    "Ġscuffle": 20611,
    "Ġmaria": 7125,
    "Ġcontentment": 14872,
    "trained": 4241,
    "Ġhas": 825,
    "ct": 309,
    "suddenly": 6493,
    "Ġdespair": 4009,
    "Ġfalls": 14645,
    "mrs": 3745,
    "Ġintruding": 21996,
    "nants": 17614,
    "Ġlowerings": 23649,
    "Ġminded": 23233,
    "Ġmathemat": 3206,
    "arranged": 19321,
    "umb": 3405,
    "intense": 22940,
    "Ġtertiary": 15297,
    "Ġlands": 6595,
    "ssing": 3812,
    "Ġpow": 4637,
    "Ġbackwater": 18651,
    "M": 49,
    "london": 9611,
    "Ġgaining": 9494,
    "Ġquenched": 22422,
    "Ġsupplies": 20329,
    "Ġfitly": 24002,
    "mong": 15392,
    "Ġwindward": 6884,
    "Ġpersuasions": 16633,
    "Ġhope": 1790,
    "į": 240,
    "Ġmuff": 8115,
    "Ġthickly": 12119,
    "fr": 4803,
    "Ġflail": 23013,
    "Ġgle": 7860,
    "Ġevenness": 22837,
    "Ġpitch": 5767,
    "Ġnatives": 17953,
    "Ġ115": 24438,
    "forbearance": 22799,
    "Ġharb": 7369,
    "Ġboa": 22641,
    "plun": 15818,
    "Ġexert": 5722,
    "sal": 8761,
    "shed": 8096,
    "Ġartistic": 18614,
    "tem": 6369,
    "Ġmemb": 14030,
    "alleging": 23028,
    "Ġomniscient": 20089,
    "Ġraging": 14309,
    "Ġanonym": 17899,
    "Ġsalt": 8018,
    "Ġstandard": 14499,
    "short": 6567,
    "Ġstory": 2900,
    "Ġmemorand": 23408,
    "ally": 528,
    "Ġcontinues": 18812,
    "Ġbehaves": 23303,
    "Ġprofundities": 20456,
    "Ġaccomplishments": 13382,
    "pl": 401,
    "fugitive": 26132,
    "Ġast": 2960,
    "Ġgene": 15675,
    "Ġdreadfully": 7726,
    "affair": 14656,
    "Ġ}": 21156,
    "Ġtil": 12528,
    "Ġawfulness": 23589,
    "repeated": 12342,
    "Ġrequiring": 2919,
    "vict": 11542,
    "Ġmaketh": 15190,
    "ari": 672,
    "Ġindies": 22957,
    "Ġdynam": 3025,
    "Ġeach": 891,
    "imperturbable": 25791,
    "Ġsoftly": 7949,
    "Ġstrait": 23751,
    "Ġstubbornness": 25380,
    "Ġ81": 24456,
    "Ġgrosvenor": 17420,
    "empty": 23637,
    "Ġbestow": 6455,
    "Ġestates": 16460,
    "conjectures": 25181,
    "Ġinconvenient": 20013,
    "baked": 20781,
    "Ġpostpone": 17309,
    "Ġnobler": 14177,
    "Ġdebility": 24274,
    "Ġshower": 11713,
    "Ġlevel": 5020,
    "dismay": 19156,
    "Ġofficio": 23819,
    "Ġanalogy": 25640,
    "rying": 3190,
    "bow": 5424,
    "Ġgilt": 21610,
    "Ġmixed": 6974,
    "Ġmarchant": 14788,
    "Ġweb": 9242,
    "Ġgracefully": 13394,
    "Ġbarn": 11589,
    "banish": 20784,
    "unfearing": 21897,
    "directed": 20408,
    "removed": 15518,
    "bulk": 19926,
    "Ġprompt": 3193,
    "jected": 22718,
    "Ġalgorith": 557,
    "Ġrepute": 18037,
    "necessity": 13371,
    "Ġkith": 22197,
    "shaven": 18493,
    "Ġcrows": 24035,
    "Ġgun": 4701,
    "âĢĶâĢľ": 2969,
    "Ġpioneer": 17921,
    "Ġrosy": 18458,
    "favour": 9551,
    "reme": 2426,
    "Ġringleader": 26214,
    "Ġimpress": 6861,
    "confirmation": 26090,
    "humiliation": 24025,
    "Ġencounters": 19583,
    "Ġtick": 8110,
    "Ġtying": 15475,
    "holland": 24045,
    "Ġvelvet": 12401,
    "Ġsaintsbury": 26374,
    "Ġresigned": 9770,
    "Ġstuck": 9222,
    "morrow": 4572,
    "Ġbales": 21392,
    "rugged": 6848,
    "Ġapex": 24341,
    "somewhat": 11161,
    "Ġunerringly": 18266,
    "Ġzigzag": 26274,
    "name": 6795,
    "Ġspind": 18308,
    "Ġuncivil": 11156,
    "towing": 17690,
    "Ġstained": 11654,
    "Ġembarks": 22979,
    "gems": 20886,
    "Ġdestiny": 8985,
    "Ġattraction": 18620,
    "seat": 18128,
    "house": 4080,
    "Ġdead": 2171,
    "Ġtowering": 16740,
    "Ġar": 481,
    "Ġattended": 5391,
    "Ġfluctu": 5268,
    "ounted": 5030,
    "Ġdamning": 19141,
    "Ġaside": 5234,
    "rison": 13781,
    "Ġperils": 6274,
    "Ġlivid": 14991,
    "manif": 14375,
    "Ġpermitted": 9280,
    "Ġmomentary": 11037,
    "ements": 11108,
    "Ġshilling": 18229,
    "Ġdup": 21431,
    "Ġrustling": 24714,
    "Ġbeaten": 10530,
    "Ġeyebrows": 23517,
    "vo": 11541,
    "Ġunaffected": 14124,
    "Ġsand": 6236,
    "Ġkitty": 3911,
    "Ġhollow": 5648,
    "Ġdiabolism": 25515,
    "Ġunshored": 25814,
    "Ġitems": 9694,
    "arat": 9182,
    "Ġcontingency": 26246,
    "Ġful": 4298,
    "Ġdisposition": 5409,
    "Ġeyes": 1334,
    "Ġlabour": 7273,
    "Ġsoo": 15863,
    "write": 14648,
    "Ġcaulk": 25441,
    "gressive": 2756,
    "stripped": 16946,
    "bearing": 9767,
    "Ġjoyful": 13226,
    "Ġbasis": 16962,
    "Ġacquiesce": 20332,
    "accident": 11182,
    "Ġconsented": 11296,
    "Ġass": 1504,
    "Ġhandwriting": 14321,
    "Ġsculpture": 26017,
    "Ġlowly": 11122,
    "Ġpredecessor": 26254,
    "Ġmistifying": 23722,
    "Ġconsciousness": 9950,
    "inarticulate": 21198,
    "Ġfrequent": 3290,
    "Ġtrusting": 24107,
    "neck": 14235,
    "conduct": 11800,
    "thoroughly": 26508,
    "Ġleech": 24157,
    "bod": 12440,
    "Ġscientific": 6856,
    "pitching": 24077,
    "Ġinvaders": 23482,
    "onse": 21252,
    "Ġescaped": 6459,
    "Ġbor": 5805,
    "Ġwashington": 17204,
    "Ġforfeit": 21780,
    "Ġargued": 13632,
    "Ġruled": 22790,
    "Ġstupid": 7603,
    "Ġunaccountable": 7889,
    "powder": 17646,
    "Ġoverpowered": 15291,
    "Ġflower": 16237,
    "hem": 6665,
    "orm": 425,
    "itch": 10162,
    "follow": 5680,
    "Ġhark": 8430,
    "59": 17475,
    "Ġconcise": 23326,
    "race": 11633,
    "stre": 5451,
    "rics": 13042,
    "Ġpoised": 22595,
    "Ġtowns": 11174,
    "summoned": 26592,
    "Ġstiffest": 24827,
    "bearded": 18522,
    "ricade": 13043,
    "Ġconstrained": 19241,
    "umbent": 12093,
    "oars": 9616,
    "Ġoutcast": 18415,
    "Ġemotions": 8971,
    "Ġfaltering": 17886,
    "instance": 24170,
    "Ġoverwhelmed": 11404,
    "Ġvillages": 14751,
    "Ġdisconcerted": 18563,
    "Ġcharing": 14182,
    "Ġpurposed": 23552,
    "Ġshocked": 9403,
    "Ġlick": 21554,
    "Ġconstables": 19070,
    "Ġlargely": 14287,
    "Ġpostp": 12147,
    "Ġprovision": 14827,
    "claps": 23155,
    "Ġlifts": 25359,
    "Ġfraud": 19019,
    "fourth": 11329,
    "Ġvoyages": 6907,
    "Ġcharacteristic": 12051,
    "Ġunpardonable": 22067,
    "Ġmorcar": 13019,
    "Ġattractive": 25576,
    "stone": 5089,
    "Ġyaw": 18097,
    "yield": 13811,
    "Ġoperation": 12001,
    "Ġabundant": 17156,
    "Ġhath": 12632,
    "ogrand": 26263,
    "Ġpolynesian": 26027,
    "Ġoverjoy": 15972,
    "Ġimprecations": 25821,
    "instr": 12535,
    "al": 292,
    "Ġaccountability": 10439,
    "Ġprick": 14479,
    "Ġanew": 11431,
    "Ġrapid": 1457,
    "Ġprevious": 2089,
    "Ġdiffusion": 23785,
    "Ġqual": 6275,
    "ech": 4390,
    "Ġembod": 14415,
    "author": 9862,
    "Ġsuperficial": 23458,
    "back": 2017,
    "frame": 17116,
    "Ġsyntax": 958,
    "Ġferoc": 14904,
    "Ġobst": 6284,
    "Ġhousekeeping": 18947,
    "Ġflora": 11417,
    "Ġwrite": 3824,
    "ane": 1180,
    "eastward": 15132,
    "Ġpilgrim": 25600,
    "Ġtoils": 10187,
    "formal": 14171,
    "twinkle": 23706,
    "Ġrock": 5311,
    "Ġcruises": 23708,
    "Ġ50": 24314,
    "adr": 6994,
    "commotion": 24914,
    "Ġmorrow": 9345,
    "Ġhoe": 23353,
    "Ġsting": 10862,
    "Ġlanding": 11987,
    "fitters": 24760,
    "mospheric": 17091,
    "Ġ131": 24781,
    "silence": 8046,
    "Ġburden": 8611,
    "ļ": 253,
    "Ġleg": 2333,
    "Ġelsewhere": 7713,
    "compose": 24036,
    "Ġgems": 9210,
    "Ġcalculates": 13268,
    "vener": 21114,
    "Ġaffording": 14823,
    "Ġfabric": 25948,
    "fish": 3519,
    "Ġfortunes": 12182,
    "Ġpreyed": 18367,
    "Ġdespatched": 23833,
    "Ġcomprehending": 24444,
    "Ġring": 4452,
    "widows": 25345,
    "spouter": 22738,
    "Ġcordage": 19681,
    "Ġprofessor": 11231,
    "Ġstayed": 7999,
    "Ġburke": 19253,
    "Ġcurv": 3515,
    "attracted": 13055,
    "imagination": 13483,
    "Ġmatted": 22917,
    "Ġcolonnades": 26277,
    "Ġcourtship": 24137,
    "insanity": 23072,
    "ĠĠĠĠĠĠĠĠĠĠĠĠĠĠĠĠĠĠĠĠĠĠĠĠĠĠ": 13391,
    "Ġmuseum": 15274,
    "Ġdents": 13913,
    "proceeded": 25191,
    "Ġmitigating": 1617,
    "Ġstriving": 8998,
    "Ġkindled": 19034,
    "cloud": 11106,
    "Ġstalk": 12701,
    "v": 90,
    "Ġes": 8773,
    "Ġestimable": 23875,
    "Ġexplained": 5937,
    "including": 23592,
    "Ġnoiseless": 10359,
    "bru": 12442,
    "war": 6802,
    "ying": 1367,
    "Ġfring": 11128,
    "pleasures": 24050,
    "ocratic": 17246,
    "Ġthanking": 18603,
    "Ġnursery": 19753,
    "eff": 2532,
    "Ġcampaign": 20663,
    "Ġones": 3019,
    "tes": 11530,
    "Ġsof": 18281,
    "Ġdismally": 20217,
    "Ġneg": 1332,
    "Ġthreads": 13121,
    "data": 2241,
    "Ġaccomplish": 14878,
    "rown": 2193,
    "Ġcattle": 12576,
    ").": 1273,
    "Ġcorrect": 2434,
    "wil": 8769,
    "base": 20779,
    "Ġ156": 20173,
    "avering": 24792,
    "broke": 14781,
    "seam": 10875,
    "hor": 2570,
    "Ġsuperseded": 26225,
    "atters": 18513,
    "expectation": 14858,
    "Ġrevolved": 9986,
    "fourths": 25510,
    "prise": 7727,
    "Ġmulti": 1044,
    "Ġsomehow": 4841,
    "answered": 10275,
    "fanning": 20868,
    "Ġfeasible": 22216,
    "Ġcoding": 8117,
    "Ġsuppl": 11080,
    "Ġindulge": 10584,
    "pol": 5894,
    "Ġthreat": 5154,
    "speeches": 25240,
    "being": 3915,
    "Ġtwain": 16122,
    "regarded": 12010,
    "Ġreproofs": 24893,
    "Ġreceiving": 4882,
    "herds": 22208,
    "Ġke": 1159,
    "Ġslowly": 3619,
    "Ġhastening": 19338,
    "nlp": 8754,
    "Ġretreats": 16929,
    "miseries": 16758,
    "Ġtrough": 15978,
    "be": 669,
    "hig": 12478,
    "Ġsh": 419,
    "Ġstripped": 10466,
    "ulated": 6031,
    "Ġunprovided": 18261,
    "Ġoversampling": 20519,
    "Ġplaymate": 23640,
    "Ġfleeting": 19329,
    "Ġfurthest": 22820,
    "Ġqualifications": 24676,
    "Ġsooty": 25816,
    "Ġarmed": 9262,
    "Ġabomin": 8190,
    "ref": 6515,
    "lutions": 20952,
    "Ġearlier": 9089,
    "Ġglistening": 12368,
    "upper": 11540,
    "Ġactual": 3738,
    "cell": 10688,
    "Ġdismantled": 20219,
    "serpent": 16294,
    "Ġbride": 6292,
    "Ġtemple": 7653,
    "Ġfreshe": 13073,
    "Ġnavigation": 9995,
    "Ġbenediction": 18785,
    "ment": 694,
    "rough": 590,
    "Ġfounder": 17885,
    "apt": 728,
    "aste": 4601,
    "Ġpassion": 4557,
    "dining": 13708,
    "Ġsubmit": 11873,
    "american": 11401,
    "Ġsufferings": 7512,
    "if": 376,
    "Ġdelicacy": 6341,
    "Ġcapricious": 20541,
    "murder": 10566,
    "tackles": 25625,
    "trick": 19416,
    "Ġvertically": 19383,
    "ruit": 22188,
    "Ġfaced": 10809,
    "Ġwis": 3729,
    "Ġglobular": 19012,
    "Ġanim": 2112,
    "Ġ19": 6720,
    "Ġcomforts": 14695,
    "Ġoccasions": 7989,
    "Ġapp": 500,
    "enjoyments": 25434,
    "driven": 19774,
    "Ġtuileries": 24824,
    "Ġchestnuts": 24380,
    "Ġpoorly": 9857,
    "gun": 10098,
    "urch": 3992,
    "racting": 10357,
    "poling": 12223,
    "unity": 4154,
    "Ġbreaches": 14520,
    "umn": 5836,
    "Ġtail": 3093,
    "ather": 738,
    "suitableness": 26262,
    "Ġlatin": 16822,
    "oice": 1382,
    "Ġthre": 2059,
    "Ġhypothesis": 14786,
    "Ġoccupy": 14733,
    "Ġfantastic": 10061,
    "ess": 410,
    "aborate": 14024,
    "Ġbengal": 18784,
    "Ġtattoo": 7358,
    "Ġtreading": 16506,
    "_),": 7126,
    "odecimoes": 25319,
    "Ġrationally": 18214,
    "Ġdart": 4585,
    "qu": 369,
    "zed": 8105,
    "Ġwarden": 17226,
    "fred": 20857,
    "Ġarchitectures": 2908,
    "Ġcasks": 7520,
    "ikes": 8088,
    "turns": 14908,
    "Ġburying": 19254,
    "loat": 8889,
    "Ġblunder": 18820,
    "Ġomnipotent": 13551,
    "Ġeyelashes": 26107,
    "rap": 21632,
    "Ġmans": 15539,
    "Ý": 158,
    "asy": 5296,
    "secut": 7869,
    "pole": 9335,
    "iliar": 15717,
    "Ġtravel": 5954,
    "ort": 521,
    "Ġhoof": 23355,
    "Ġ34": 16678,
    "Ġant": 4346,
    "Ġ96": 24594,
    "Ġpray": 3901,
    "Ġplanets": 24060,
    "Ġ126": 24470,
    "Ġvastly": 23863,
    "Ġachieves": 4380,
    "Ġoblong": 14323,
    "arrived": 12613,
    "bler": 11473,
    "Ġlightness": 23264,
    "anke": 15564,
    "Ġprosecut": 9700,
    "Ġenthusiastic": 19969,
    "Ġtransf": 22470,
    "cket": 3689,
    "conspicuous": 26249,
    "whispering": 26104,
    "Ġdiscu": 4364,
    "terrific": 25043,
    "venth": 9297,
    "ace": 715,
    "Ġscand": 7202,
    "interrupt": 8619,
    "avor": 14260,
    "Ġdisagreeable": 9300,
    "fluttering": 23976,
    "<EOS>": 2,
    "Ġnotes": 7188,
    "Ġgay": 5534,
    "hideous": 25408,
    "onies": 6806,
    "Ġaverse": 11082,
    "Ġchurch": 4710,
    "irts": 9240,
    "kish": 20936,
    "Ġcracks": 12022,
    "Ġdeliver": 9849,
    "Ġeggs": 12345,
    "makers": 20984,
    "Ġcode": 1722,
    "Ġalle": 11668,
    "Ġsurveying": 25326,
    "seventh": 12718,
    "Ġrepresentations": 1875,
    "Ġbedfellow": 16441,
    "Ġissued": 10601,
    "Ġ1778": 25730,
    "Ġexposing": 11837,
    "iated": 5891,
    "Ġunwelcome": 12784,
    "Ġbegging": 11081,
    "uzzle": 19586,
    "Ġdarker": 13123,
    "Ġbeef": 6829,
    "gment": 4391,
    "police": 10585,
    "Ġleaks": 16447,
    "Ġgoethe": 22427,
    "Ġjove": 9270,
    "Ġservox": 23873,
    "pots": 11515,
    "Ġdifferent": 1429,
    "Ġmanaging": 22330,
    "Ġ54": 24317,
    "Ġregulate": 22585,
    "Ġprogrammed": 11059,
    "Ġrecip": 16144,
    "!âĢĻ": 3334,
    "Ġamph": 18509,
    "image": 9688,
    "friendship": 24052,
    "Ġchast": 18381,
    "Ġrelentless": 26279,
    "ĠĠĠ": 2114,
    "Ġdotted": 16793,
    "Ġreveal": 11201,
    "Ġeighteen": 11239,
    "Ġbrutality": 26278,
    "Ġswashing": 23060,
    "Ġmoran": 9344,
    "represented": 20198,
    "learning": 2630,
    "superior": 9527,
    "Ġcargo": 16292,
    "Ġwalton": 14974,
    "Ġpuppy": 12408,
    "Ġjungfrau": 15251,
    "cottagers": 20051,
    "Ġapt": 9157,
    "comed": 8546,
    "who": 2447,
    "Ġsplit": 7994,
    "Ġspeeches": 22662,
    "Ġmembrane": 20507,
    "anything": 5518,
    "mean": 6438,
    "Ġunpitying": 25661,
    "Ġimpudence": 26243,
    "Ġauxiliary": 26419,
    "Ġplanisphere": 26608,
    "Ġdisasters": 16056,
    "Ġtranslation": 3091,
    "pump": 21019,
    "ains": 5094,
    "dec": 3117,
    "whales": 5187,
    "hospit": 25904,
    "Ġshowers": 16606,
    "Ġlist": 2363,
    "velope": 17702,
    "really": 6971,
    "Ġiv": 4046,
    "unning": 4493,
    "carry": 19529,
    "Ġdescends": 14289,
    "cloudless": 20335,
    "Ġthoroughfares": 26096,
    "Ġdid": 836,
    "brew": 11474,
    "Ġinflu": 4907,
    "Ġconcuss": 19050,
    "despicable": 24639,
    "Ġgown": 10203,
    "Ġintersect": 22581,
    "Ġhaul": 11695,
    "marrying": 19550,
    "Ġhurts": 19113,
    "Ġundeviating": 15220,
    "cain": 15328,
    "gent": 7130,
    "Ġhole": 6080,
    "bearance": 22499,
    "Ġpiling": 17913,
    "Ġknot": 7012,
    "Ġrider": 24187,
    "Ġstationary": 19697,
    "cle": 3956,
    "rimshander": 20659,
    "Ġadmired": 7983,
    "Ġparliament": 18303,
    "Ġimage": 3406,
    "ression": 3408,
    "tick": 17679,
    "approve": 19940,
    "Ġensemble": 1609,
    "Ġforeman": 23449,
    "ensils": 22554,
    "shine": 9290,
    "Ġadaptively": 4059,
    "cery": 20810,
    "Ġfashions": 17887,
    "pre": 648,
    "ribbed": 16413,
    "Ġproblems": 2848,
    "Ġsatan": 14392,
    "scuttle": 11914,
    "Ġidentifies": 12017,
    "Ġsystemat": 18443,
    "Ġlay": 584,
    "umes": 10918,
    "Ġintroduction": 8972,
    "Ġample": 11801,
    "Ġwearing": 12743,
    "upwards": 18866,
    "zeal": 16274,
    "Ġunrestingly": 20364,
    "inea": 7623,
    "Ġcoincidences": 26365,
    "gia": 20878,
    "Ġstony": 21745,
    "Ġfist": 21407,
    "Ġutility": 23515,
    "bast": 10079,
    "Ġsubjected": 23574,
    "Ġblowing": 10486,
    "Ġexchange": 15757,
    "bowing": 24453,
    "âĢĺ": 940,
    "Ġseemed": 1279,
    "rushing": 10020,
    "Ġbecause": 2210,
    "Ġsigned": 11178,
    ">": 34,
    "Ġwalled": 15537,
    "lost": 8890,
    "hamlet": 23266,
    "iless": 10283,
    "folio": 10548,
    "Ġtoiled": 12646,
    "Ġundeniable": 26511,
    "cating": 20804,
    "Ġchival": 14184,
    "Ġmodern": 3214,
    "Ġdoing": 3662,
    "Ġhardship": 18915,
    "inno": 10757,
    "Ġstatements": 7515,
    "enes": 5218,
    "Ġidiot": 11974,
    "Ġsloping": 11942,
    "atum": 21262,
    "plings": 11698,
    "Ġprofessors": 14727,
    "Ğ": 223,
    "Ġobstinate": 11337,
    "Ġimpending": 22391,
    "Ġexactly": 2770,
    "meeting": 11019,
    "pemberley": 9622,
    "Ġintimacy": 8704,
    "length": 7135,
    "Ġambitious": 18512,
    "bye": 5951,
    "Ġdirect": 1469,
    "utted": 15664,
    "Ġremedy": 18725,
    "dissemble": 23494,
    "popular": 26141,
    "found": 4217,
    "Ġeleg": 6193,
    "Ġunrival": 22052,
    "Ġmonoton": 3638,
    "Ġgroan": 13328,
    "hastily": 19705,
    "Ġscalable": 1636,
    "ially": 9248,
    "riv": 3114,
    "Ġpossibly": 4513,
    "Ġoverjoyed": 17460,
    "Ġexquisitely": 20205,
    "Ġrecognition": 2924,
    "avers": 17482,
    "learnt": 23560,
    "Ġarom": 15494,
    "schoolmaster": 15164,
    "together": 3559,
    "Ġcurtain": 14413,
    "cies": 1813,
    "vens": 21115,
    "romang": 22010,
    "company": 9463,
    "Ġrifts": 21980,
    "Ġincoherent": 17402,
    "leton": 5148,
    "Ġmanilla": 15962,
    "ias": 6363,
    "Ġknives": 14839,
    "dist": 4480,
    "Ġlistless": 16477,
    "pan": 10717,
    "Ġinquisitive": 26318,
    "Ġabiding": 22275,
    "Ġpeople": 2542,
    "Ġnarration": 13506,
    "sharpening": 22464,
    "ignorance": 17163,
    "Ġsplash": 16550,
    "Ġunstructure": 2991,
    "Ġspringing": 10520,
    "================================": 5671,
    "Ġcocks": 18598,
    "âĢĶ.âĢĿ": 22260,
    "grie": 12474,
    "Ġspong": 15884,
    "Ġair": 1833,
    "Ġswayed": 15049,
    "Ġredeemed": 25790,
    "Ġcompass": 4409,
    "Ġapril": 13665,
    "iling": 3097,
    ".âĢĻâĢĿ": 6740,
    "Ġelegance": 11333,
    "ocean": 12404,
    "Ġscratches": 22291,
    "notice": 16150,
    "Ġcomfor": 14056,
    "Ġstaggering": 20276,
    "Ġuncork": 23433,
    "parable": 16391,
    "icant": 21566,
    "Ġsupport": 6729,
    "Ġgouge": 26190,
    "Ġpertin": 18451,
    "Ġremembering": 14612,
    "Ġoh": 2177,
    "fair": 10094,
    "Ġdecrease": 4204,
    "Ġexcavating": 23317,
    "Ġsaxe": 13631,
    "Ġsignifies": 19206,
    "Ġsavannah": 17418,
    "Ġdogs": 7742,
    "continu": 5501,
    "ppered": 15794,
    "Ġshoes": 7072,
    "Ġacts": 2294,
    "ri": 390,
    "Ġweeping": 11689,
    "fold": 7545,
    "lun": 20948,
    "Ġamelia": 26252,
    "Ġwont": 9852,
    "dri": 5889,
    "separ": 9232,
    "Ġnew": 1197,
    "Ġfoundation": 4234,
    "Ġgaiters": 20464,
    "Ġinjurious": 24272,
    "Ġvitality": 15175,
    "atter": 660,
    "Ġvarying": 15813,
    "relations": 14735,
    "Ġrequire": 900,
    "Ġhoist": 11979,
    "Ġcetacean": 25879,
    "Ġdecide": 9288,
    "Ġwhalebone": 10978,
    "Ġsplinters": 15105,
    "Ġsleet": 8977,
    "fen": 20852,
    "Ġcircum": 8259,
    "bound": 6221,
    "vain": 15449,
    "Ġstrained": 10220,
    "thinking": 9016,
    "residual": 19264,
    "Ġtune": 17726,
    "Ġpublished": 11242,
    "Ġcotton": 17381,
    "Ġarguments": 8038,
    "pursue": 24978,
    "endless": 22231,
    "Ġdisinclination": 22541,
    "decan": 22145,
    "Ġunconsc": 6553,
    "Ġbuoyancy": 20045,
    "brain": 13690,
    "Ġsubfield": 11872,
    "execut": 13658,
    "lest": 5290,
    "Ġmany": 1101,
    "Ġfath": 7363,
    "orient": 2878,
    "Ġsuite": 18277,
    "recogn": 13428,
    "Ġwhirled": 14962,
    "Ġencomp": 12967,
    "bastian": 10675,
    "Ġpersisted": 13041,
    "Ġsaucer": 20608,
    "Ġda": 5150,
    "emin": 8471,
    "engine": 18929,
    "many": 5251,
    "admon": 21765,
    "Ġprisoner": 8676,
    "Ġarrayed": 25665,
    "Ġmastiff": 23727,
    "satisfaction": 9994,
    "robotics": 11307,
    "ium": 4863,
    "Ġerrone": 14432,
    "Ġmoreover": 6164,
    "majesty": 26282,
    "Ġassertions": 19950,
    "lat": 9606,
    "Ġhare": 5157,
    "Ġtossed": 5816,
    "Ġslaughtered": 26585,
    "Ġnodes": 1968,
    "Ġfrayed": 23283,
    "invari": 21187,
    "Ġconclusion": 5987,
    "phere": 21021,
    "Ġconsisting": 8973,
    "arctic": 12614,
    "supposing": 24136,
    "feeling": 6618,
    "icked": 10334,
    "Ġwearisome": 19798,
    "Ġglorious": 11077,
    "50": 6784,
    "Ġnative": 4640,
    "Ġexterm": 21834,
    "Ġlangsdorff": 15279,
    "iocr": 20925,
    "umblings": 23897,
    "Ġeel": 18004,
    "Ġjav": 7904,
    "Ġarist": 14163,
    "Ġexec": 19495,
    "Ġmurky": 19204,
    "Ġscattered": 6855,
    "bony": 15322,
    "Ġwhence": 5840,
    "james": 15375,
    "Ġgard": 2191,
    "Ġsubtile": 20383,
    "Ġwrithing": 11949,
    "Ġalas": 5923,
    "rador": 19129,
    "Ġbunger": 9998,
    "Ġsodden": 25536,
    "Ġcontradict": 12388,
    "shroud": 20315,
    "eth": 622,
    "Ġcape": 5146,
    "tt": 13792,
    "Ġhypotheses": 4387,
    "Ġyoungest": 7955,
    "Ġascent": 19621,
    "Ġbehave": 23302,
    "Ġpoker": 13924,
    "Ġbuttons": 12785,
    "Ġscaling": 3633,
    "except": 5383,
    "Ġfruits": 17120,
    "Ġinterlacing": 22582,
    "gar": 5614,
    "ena": 11570,
    "Ġresulting": 24200,
    "ĠâĢľâĢĺ": 8505,
    "etition": 7381,
    "concerted": 16673,
    "jol": 20927,
    "mo": 862,
    "your": 1985,
    "scale": 3538,
    "Ġbelong": 3887,
    "ledyard": 22387,
    "Ġhop": 1459,
    "Ġseparated": 9466,
    "otics": 10225,
    "gue": 12471,
    "load": 12885,
    "commission": 22809,
    "Ġdisconnected": 22530,
    "Ġharrow": 17928,
    "Ġglimpse": 6943,
    "Ġfifth": 11258,
    "Ġgrown": 5628,
    "Ġnarrated": 14873,
    "Ġfarewell": 9522,
    "hauled": 20671,
    "cous": 8725,
    "wedged": 24558,
    "Ġflourishing": 25188,
    "acquaintance": 6937,
    "depart": 12269,
    "ets": 1163,
    "Ġupd": 947,
    "eyes": 5684,
    "Ġdrows": 21439,
    "died": 11481,
    "Ġtrust": 4082,
    "au": 779,
    "ions": 449,
    "crossed": 16634,
    "jam": 15374,
    "Ġpalms": 8647,
    "Ġadro": 15870,
    "Ġhalls": 19528,
    "pents": 11514,
    "Ġpractical": 3168,
    "Ġvoracity": 25987,
    "Ġdown": 831,
    "Ġlightnings": 16355,
    "Ġabased": 22273,
    "hauteur": 26392,
    "aff": 3107,
    "Ġmacro": 25940,
    "Ġnarrating": 24350,
    "Ġlimber": 16480,
    "asions": 12655,
    "Ġdus": 8425,
    "Ġheeds": 24519,
    "aper": 4999,
    "pling": 8476,
    "Ġmoss": 9286,
    "Ġrefusing": 11029,
    "action": 3727,
    "iment": 2818,
    "Ġparade": 18302,
    "Ġ111": 24435,
    "Ġtruest": 16701,
    "Ġmend": 8408,
    "Ġimpulses": 19965,
    "Ġardour": 8044,
    "bern": 20777,
    "conjecturing": 20137,
    "ception": 6563,
    "Ġdozen": 8187,
    "Ġvisit": 2582,
    "Ġwing": 6667,
    "Ġstarbuck": 2195,
    "weight": 2938,
    "Ġsympt": 7013,
    "ication": 1001,
    "Ġmouse": 4693,
    "Ġso": 432,
    "Ġanyone": 4459,
    "Ġlobsters": 13519,
    "Ġblue": 3458,
    "Ġashamed": 6403,
    "Ġbequest": 21758,
    "cooee": 12421,
    "sitting": 8388,
    "jack": 7343,
    "ener": 563,
    "Ġheaps": 11644,
    "Ġdownright": 16121,
    "Ġsolve": 4200,
    "Ġsnapping": 19302,
    "Ġprecise": 7076,
    "Ġret": 1380,
    "abetical": 15746,
    "Ġvalu": 5039,
    "nerable": 16279,
    "Ġsiamese": 20486,
    "calculation": 25689,
    "Ġworthless": 19568,
    "madam": 24420,
    "while": 2933,
    "Ġmississ": 18840,
    "cruise": 24842,
    "Ġrevolt": 24500,
    "disgraceful": 26077,
    "Ġamend": 16037,
    "Ġdefect": 8556,
    "Ġthoughtfully": 12984,
    "red": 396,
    "Ġcomputing": 2220,
    "Ġjane": 1759,
    "Ġvolumes": 14802,
    "narrated": 25622,
    "Ġthames": 13940,
    "ĠĠĠĠĠĠĠĠĠĠĠĠĠĠĠĠĠĠĠĠĠĠĠĠĠĠĠĠĠĠĠĠĠĠĠĠĠĠĠĠĠĠĠĠĠĠ": 9955,
    "Ġinfamous": 16369,
    "groom": 8743,
    "lane": 10707,
    "Ġslow": 2377,
    "Ġreplace": 14478,
    "Ġmontan": 22989,
    "offer": 19062,
    "Ġunc": 2123,
    "Ġillustrations": 17108,
    "ceptible": 10957,
    "rivial": 9436,
    "Ġ2": 2927,
    "Ġgasping": 17038,
    "Ġostens": 25276,
    "ectual": 21920,
    "Ġjoined": 4564,
    "Ġsprain": 18306,
    "coloured": 7290,
    "gallantry": 15062,
    "accessory": 25500,
    "Ġlaboratory": 13615,
    "Ġconjured": 25102,
    "Ġendowed": 18925,
    "fier": 9595,
    "actory": 8910,
    "Ġopposite": 5120,
    "avail": 18568,
    "Ġdespairing": 14776,
    "Ġcruise": 12052,
    "Ġencode": 4365,
    "Ġintense": 6158,
    "Ġsolemn": 4103,
    "Ġceremonious": 24838,
    "Ġensu": 7877,
    "Ġfreer": 23213,
    "Ġtoe": 13938,
    "whalers": 17265,
    "Ġfortnight": 6201,
    "Ġunsh": 14117,
    "arled": 21446,
    "Ġaccused": 8509,
    "det": 5207,
    "Ġgra": 416,
    "Ġimbib": 22180,
    "auley": 22627,
    "anch": 15563,
    "likewise": 13109,
    "Ġfaults": 12216,
    "Ġincognita": 26552,
    "Ġdeployment": 11192,
    "Ġreadiness": 13054,
    "Ġkeener": 22920,
    "Ġcass": 13881,
    "Ġpacket": 14895,
    "Ġindec": 13930,
    "Ġpours": 17914,
    "Ġdiscussing": 5202,
    "Ġwoollen": 12107,
    "Ġintelligible": 15944,
    "rods": 21542,
    "readily": 19365,
    "Ġrecounted": 22742,
    "Ġsaturn": 22905,
    "Ġindist": 14410,
    "informed": 17737,
    "under": 3137,
    "Ġarchly": 22778,
    "Ġwilling": 7420,
    "Ġcontains": 2795,
    "Ġhyp": 3874,
    "asting": 12810,
    "discoloured": 23500,
    "Ġaforethought": 25429,
    "Ġconvivial": 16549,
    "actions": 8909,
    "Ġreads": 23117,
    "connection": 18870,
    "pit": 3982,
    "Ġappare": 12825,
    "Ġshape": 5639,
    "ahead": 12437,
    "Ġblueprints": 13174,
    "Ġusual": 3943,
    "Ġbarbaric": 10016,
    "Ġdemi": 25549,
    "Ġgather": 6535,
    "desponding": 26343,
    "Ġbackstays": 22667,
    "male": 15391,
    "isions": 6131,
    "blister": 24129,
    "Ġhadn": 9721,
    "merit": 19283,
    "Ġimpelling": 22392,
    "faith": 15026,
    "Ġlengths": 19208,
    "Ġoverwhelming": 17102,
    "doc": 23377,
    "Ġinfirm": 19025,
    "invincible": 25092,
    "Ġtrees": 4206,
    "Ġmil": 4256,
    "ids": 21768,
    "asion": 5714,
    "Ġtwee": 22679,
    "Ġacquaintances": 17352,
    "Ġsmoking": 6429,
    "wishes": 13809,
    "Ġtechnical": 17193,
    "Ġabridged": 26541,
    "tea": 18743,
    "Ġmajority": 13296,
    "Ġtriumphant": 12193,
    "imble": 10859,
    "Ġspires": 11733,
    "soles": 18687,
    "assembled": 21549,
    "Ġenabled": 9298,
    "exceed": 7913,
    "glory": 23855,
    "Þ": 159,
    "Ġlagged": 21562,
    "Ġawhile": 13832,
    "Ġsplin": 8622,
    "Ġpleasurable": 23342,
    "Ġunconsciously": 10007,
    "Ġhearts": 4971,
    "chess": 16575,
    "published": 26143,
    "marry": 13327,
    "apolog": 22338,
    "blooded": 20026,
    "Ġacqu": 1415,
    "Ġindel": 13008,
    "Ġsoundings": 13136,
    "Ġcrumbs": 19124,
    "iantly": 13741,
    "Ġfalsehood": 10525,
    "aggra": 21911,
    "standing": 5557,
    "Ġlaunched": 14928,
    "Ġfavours": 23284,
    "Ġrevel": 9216,
    "Ġcoal": 18596,
    "Åĵ": 10745,
    "Ġjoking": 12841,
    "opius": 18507,
    "Ġleatherhead": 20017,
    "alluring": 18353,
    "Ġincidents": 9302,
    "bounded": 13442,
    "floated": 24644,
    "izes": 884,
    "card": 11476,
    "Ġjoin": 4853,
    "Ġimaginary": 11187,
    "Ġunless": 4093,
    "ding": 3027,
    "Ġinducements": 24970,
    "evade": 24817,
    "Ġunexpectedly": 19911,
    "Ġgrowl": 16539,
    "Ġmitig": 1337,
    "Ġtelescopes": 25691,
    "Ġprejudices": 13472,
    "Ġmysteriously": 24603,
    "Ġ57": 24320,
    "dwell": 15344,
    "Ġincurable": 22558,
    "Ġhab": 4221,
    "stupid": 12679,
    "Ġagreed": 7029,
    "varying": 13806,
    "._)": 10482,
    "Ġthoughtfulness": 18772,
    "Ġdut": 2986,
    "ashes": 6017,
    "cure": 11475,
    "Ġcheever": 23288,
    "),": 1348,
    "rity": 13778,
    "Ġflashed": 11917,
    "Ġshouting": 10524,
    "Ġexploding": 2108,
    "grey": 14914,
    "Ġflutter": 16251,
    "Ġadditionally": 1178,
    "Ġsuccessfully": 19432,
    "Ġunderstanding": 1810,
    "Ġfr": 1696,
    "sorts": 21063,
    "Ġpea": 14319,
    "Ġlydia": 2372,
    "acting": 22634,
    "powers": 25411,
    "Ġcherry": 16936,
    "igned": 5656,
    "itic": 11580,
    "Ġmere": 2714,
    "Ġwag": 10776,
    "elstrom": 17984,
    "Ġgibraltar": 25788,
    "Ġhaggard": 17332,
    "Ġloved": 4599,
    "answer": 11738,
    "itioned": 22469,
    "assumed": 22313,
    "Ġpost": 4274,
    "Ġcustoms": 19655,
    "ipotent": 10961,
    "addressing": 24400,
    "Ġboiling": 8527,
    "Ġenvelope": 7318,
    "Ġexam": 3712,
    "Ġaquiline": 26160,
    "Ġnovel": 6696,
    "Ġgoest": 22426,
    "Ġdollar": 25284,
    "stopping": 19353,
    "Ġchristendom": 16695,
    "Ġvicinity": 7314,
    "Ġbolivia": 24668,
    "Ġcertain": 1560,
    "Ġkentuck": 19893,
    "Ġswells": 9829,
    "travelling": 24337,
    "corner": 13400,
    "stocks": 23824,
    "willingly": 11985,
    "uger": 21106,
    "izarre": 17391,
    "Ġtrifles": 16952,
    "Ġbon": 8789,
    "Ġatrocious": 21948,
    "Ġwheeling": 18289,
    "Ġjoyous": 14665,
    "izers": 18136,
    "Ġreversed": 15700,
    "alice": 3211,
    "continually": 11303,
    "Ġensuring": 11193,
    "shabbily": 26248,
    "prophet": 16185,
    "hairs": 20906,
    "fs": 17536,
    "lively": 12488,
    "cary": 10692,
    "Ġlust": 9199,
    "Ġpervers": 11786,
    "Ġslappin": 18945,
    "whosoever": 22245,
    "Ġeats": 15680,
    "Ġpenalties": 10415,
    "Ġcovered": 5171,
    "unbidden": 21899,
    "rices": 4559,
    "aves": 2541,
    "imely": 14000,
    "Ġdaint": 15596,
    "Ġcordial": 16836,
    "ette": 15662,
    "Ġtemper": 955,
    "Ġsubstance": 5510,
    "Ġbent": 5149,
    "Ġbiological": 1934,
    "Ġdesperation": 19821,
    "Ġinqu": 2964,
    "aurs": 20771,
    "Ġunalterable": 15854,
    "oubled": 23648,
    "Ġglossy": 15230,
    "Ġhardened": 14452,
    "featured": 24022,
    "Ġstudy": 1764,
    "Ġsoothingly": 25050,
    "Ġbears": 6828,
    "honey": 20907,
    "Ġtriumphantly": 11288,
    "oves": 15406,
    "Ġandrew": 21511,
    "Ġwild": 2600,
    "Ġvial": 10250,
    "Ġdie": 3962,
    "guilty": 19486,
    "vitality": 20482,
    "ientiously": 21946,
    "tumultuous": 20402,
    "didst": 19352,
    "Ġaboard": 6698,
    "Ġgrind": 18738,
    "Ġdoleful": 18378,
    "Ġdidst": 11852,
    "Ġregarding": 13213,
    "Ġham": 3423,
    "visual": 24224,
    "loath": 22513,
    "Ġadvoc": 12998,
    "ve": 322,
    "directly": 13711,
    "Ġorgans": 15868,
    "Ġpromontory": 11944,
    "deceit": 25557,
    "ulance": 15770,
    "wives": 15457,
    "individual": 18437,
    "iony": 9193,
    "Ġdevils": 7229,
    "Ġlxi": 21565,
    "Ġstarve": 24627,
    "kindly": 14747,
    "forming": 15924,
    "'t": 3149,
    "Ġalighted": 18106,
    "eding": 7165,
    "Ġconfid": 7687,
    "Ġint": 411,
    "victim": 25531,
    "Ġunhallowed": 17182,
    "above": 8149,
    "Ġslumbering": 25702,
    "comprehens": 16171,
    "Ġemails": 13110,
    "ontory": 10460,
    "Ġgest": 8135,
    "Ġcogent": 14276,
    "stepfather": 19193,
    "Ġpreface": 18368,
    "(": 12,
    "japan": 15377,
    "yonder": 21147,
    "lar": 4483,
    "Ġbiting": 17863,
    "jud": 4481,
    "Ġamazed": 14891,
    "Ġmarriage": 3192,
    "Ġreach": 4048,
    "Ġgot": 2280,
    "pike": 11516,
    "punctual": 26357,
    "Ġcroquet": 9964,
    "keeping": 8638,
    "Ġtorrent": 17092,
    "Ġperf": 12854,
    "Ġsweetest": 13251,
    "Ġdough": 8423,
    "Ġoutfits": 22326,
    "iate": 6505,
    "philips": 20038,
    "Ġbrows": 13304,
    "Ġreturning": 5326,
    "Ġadorn": 12796,
    "ellations": 21949,
    "Ġphysiognomical": 25612,
    "Ġdeser": 3888,
    "place": 4156,
    "erity": 21270,
    "sham": 9760,
    "angered": 16180,
    "retreat": 23141,
    "slide": 24555,
    "Ġstem": 15722,
    "Ġframed": 19020,
    "arken": 18667,
    "ugn": 9379,
    "promising": 24725,
    "undertaking": 23790,
    "stuff": 15690,
    "Ġmutters": 23959,
    "reporting": 24493,
    "Ġunresting": 25554,
    "feature": 3765,
    "ĠâĢľâĢĻ": 22259,
    "fle": 7129,
    "Ġobstacle": 16956,
    "Ġbeauties": 10446,
    "Ġencamped": 22805,
    "Ġrude": 7233,
    "Ġtransplanted": 22474,
    "Ġbenjam": 22894,
    "Ġcommander": 8628,
    "Ġdazz": 11596,
    "dington": 12069,
    "Ġbeckoning": 20505,
    "ommod": 13983,
    "Ġplump": 14284,
    "Ġtoad": 21514,
    "Ġuplifted": 11649,
    "vex": 21702,
    "ralian": 19603,
    "Ġkills": 15909,
    "Ġ$": 21153,
    "Ġpromising": 10401,
    "Ġmaster": 3683,
    "Ġsorting": 3236,
    "Ġsil": 1797,
    "uzza": 11271,
    "Ġfuel": 13906,
    "mast": 3603,
    "lowering": 16034,
    "Ġneglect": 7943,
    "Ġbrougham": 17872,
    "Ġchained": 16389,
    "Ġdwelling": 7321,
    "Ġinflex": 20637,
    "Ġquarrels": 16568,
    "Ġcountry": 2530,
    "Ġtablets": 13158,
    "beds": 16623,
    "aying": 15753,
    "maker": 12496,
    "holes": 12057,
    "younger": 11313,
    "Ġadaptation": 3160,
    "phants": 9322,
    "Ġ{": 21155,
    "quietude": 24656,
    "thouse": 21984,
    "abling": 1077,
    "aurus": 20563,
    "etency": 21586,
    "Ġsallied": 12541,
    "Ġ182": 13241,
    "Ġresc": 4506,
    "Ġaffair": 4463,
    "Ġexcuse": 5862,
    "ask": 857,
    "Ġrecursive": 4781,
    "Ġposter": 14278,
    "oors": 17621,
    "Ġfeature": 757,
    "hue": 20901,
    "Ġprudence": 13922,
    "natural": 2400,
    "Ġcocked": 12908,
    "hap": 17560,
    "ighted": 8478,
    "Ġfancy": 3746,
    "Ġterra": 13120,
    "Ġnecessity": 7295,
    "Ġmisunderstood": 18708,
    "/`": 12432,
    "pth": 2379,
    "bber": 4568,
    "Ġnuptials": 20497,
    "Ġoccupation": 9933,
    "Ġsherry": 19454,
    "zors": 21150,
    "Ġproved": 4884,
    "iamond": 14591,
    "Ġbrixton": 13666,
    "market": 16840,
    "Ġsickbed": 24248,
    "Ġhav": 12758,
    "Ġpious": 11601,
    "Ġcomprehensive": 15090,
    "sole": 6169,
    "Ġcomplaisance": 19452,
    "lemency": 21377,
    "Ġgentleman": 3041,
    "Ġjulia": 22307,
    "Ġhead": 1124,
    "descried": 11932,
    "reclining": 20577,
    "remain": 9840,
    "Ġatt": 775,
    "igate": 8826,
    "Ġnarrative": 6216,
    "Ġremainder": 9860,
    "Ġunrelieved": 20548,
    "shazzar": 15292,
    "Ġchatting": 24746,
    "balls": 12308,
    "Ġveget": 11889,
    "Ġsunda": 13546,
    "Ġfurrow": 22819,
    "Ġdeliberation": 19972,
    "Ġgloomy": 7503,
    "ula": 2827,
    "Ġostent": 13587,
    "88": 20760,
    "Ġyoked": 15738,
    "Ġpathways": 11154,
    "Ġpronounced": 8352,
    "Ġpouring": 12628,
    "Ġmarching": 16697,
    "ake": 747,
    "accustomed": 13160,
    "Ġphilipses": 24451,
    "Ġpaltry": 16692,
    "drown": 13707,
    "Ġwhitt": 18057,
    "jure": 20926,
    "Ġaddressed": 5263,
    "Ġforg": 3789,
    "description": 11095,
    "Ġindestruct": 22964,
    "Ġwigwam": 11429,
    "ings": 631,
    "incredible": 16500,
    "chel": 11208,
    "Ġdegenerated": 20509,
    "Ġpasses": 2680,
    "increas": 10455,
    "Ġscruple": 25051,
    "Ġintegral": 25011,
    "odhead": 18123,
    "Ġunappalled": 22070,
    "likeness": 19481,
    "Ġpiazza": 26451,
    "dark": 5613,
    "Ġlaughed": 5059,
    "Ġgoodly": 22826,
    "umer": 9260,
    "row": 1066,
    "Ġit": 339,
    "yth": 983,
    "Ġcreated": 2708,
    "Ġmusky": 19385,
    "Ġcultured": 25158,
    "Ġsgd": 3135,
    "Ġindistinctly": 26118,
    "Ġwherefore": 8526,
    "Ġpepper": 9783,
    "Ġleak": 2161,
    "urged": 18051,
    "Ġpretty": 3863,
    "Ġscreams": 24605,
    "Ġ65": 24367,
    "Ġgallantry": 15106,
    "Ġobserve": 4670,
    "bled": 5469,
    "Ġveter": 15814,
    "Ġunmo": 12777,
    "Ġengagements": 9980,
    "Ġabhorred": 9510,
    "ootiful": 17375,
    "Ġgloss": 11961,
    "Ġvinegar": 20103,
    "forbidding": 25838,
    "castles": 14637,
    "ective": 18177,
    "%": 9,
    "Ġstability": 1363,
    "host": 5868,
    "Ġavailed": 23955,
    "ade": 880,
    "capable": 13704,
    "Ġfondness": 16781,
    "Ġrouted": 24908,
    "Ġdistended": 16047,
    "Ġmexico": 15283,
    "Ġspread": 5161,
    "Ġforge": 8458,
    "Ġrecords": 12199,
    "Ġcyn": 13888,
    "Ġcaused": 5048,
    "infer": 10146,
    "Ġclanking": 20614,
    "Ġstring": 11830,
    "ear": 8734,
    "rigged": 17062,
    "threaten": 25462,
    "Ġwond": 3939,
    "hump": 12481,
    "Ġimmemorially": 25384,
    "Ġsemi": 11971,
    "Ġduration": 20356,
    "Ġmodular": 12820,
    "Ġopposition": 16522,
    "works": 6588,
    "Ġrocked": 12856,
    "frequent": 15356,
    "ogene": 18677,
    "caterpillar": 26384,
    "sincere": 16908,
    "Ġinch": 7851,
    "lamp": 9610,
    "Ġslept": 8260,
    "Ġbloodthirsty": 26602,
    "Ġknave": 11273,
    "Ġhunter": 5401,
    "Ġbackground": 18650,
    "Ġdiv": 3732,
    "Ġpikes": 21482,
    "ghost": 20889,
    "Ġrises": 9715,
    "Ġpreviously": 3920,
    "Ġsqualls": 17021,
    "Ġbre": 1914,
    "introduced": 15127,
    "Ġeth": 17717,
    "Ġsupposing": 6730,
    "atible": 17773,
    "Ġsagittarius": 24731,
    "instantly": 7505,
    "Ġerect": 6144,
    "blot": 20785,
    "Ġbene": 2032,
    "Ġlives": 4826,
    "supplemental": 25875,
    "passenger": 24168,
    "Ġsouls": 6309,
    "Ġche": 1765,
    "dart": 20828,
    "Ġmoulded": 16976,
    "obedience": 17412,
    "Ġcontact": 9283,
    "Ġlinked": 15080,
    "Ġnominal": 15171,
    "gument": 20887,
    "Ġsailors": 4278,
    "Ġideas": 5494,
    "Ġbone": 4694,
    "Ġev": 4828,
    "according": 12030,
    "cept": 552,
    "Ġprophes": 16351,
    "erted": 7360,
    "Ġglimmered": 20174,
    "barbs": 20240,
    "Ġanything": 2188,
    "Ġtomahawk": 7538,
    "Ġinboard": 17935,
    "Ġflee": 7080,
    "Ġbarbary": 24218,
    "Ġtig": 13815,
    "oquent": 12503,
    "gain": 8740,
    "jewel": 20349,
    "interred": 23739,
    "Ġfins": 9665,
    "Ġwives": 12559,
    "Ġeduc": 4784,
    "Ġsnap": 11202,
    "Ġtempered": 12927,
    "Ġbenefit": 8295,
    "ument": 5240,
    "ive": 426,
    "accidents": 19214,
    "Ġbrim": 12981,
    "Ġbackbones": 22665,
    "wretch": 17709,
    "Ġshow": 3404,
    "Ġceased": 6468,
    "compliments": 24807,
    "Ġfluid": 11213,
    "Ġindicate": 23725,
    "nut": 12498,
    "slight": 10728,
    "prec": 3205,
    "Ġjackal": 24241,
    "Ġpresentation": 14482,
    "Ġostlers": 25277,
    "Ġfrightful": 7736,
    "Ġscot": 5643,
    "Ġperth": 7023,
    "Ġhapp": 1086,
    "Ġconjectured": 9999,
    "Ġwhim": 14001,
    "Ġincreasing": 8248,
    "Ġyoke": 18098,
    "inhabited": 13623,
    "Ġetext": 23953,
    "Ġsnuffed": 15075,
    "Ġcaul": 10788,
    "Ġweeks": 4565,
    "Ġghostliness": 24652,
    "Ġreception": 9841,
    "Ġproduces": 2093,
    "penetrating": 25491,
    "Ġheaving": 7600,
    "Ġthe": 270,
    "Ġintentions": 10609,
    "ouraged": 22866,
    "Ġ/*": 10141,
    "attoo": 6807,
    "Ġdecreases": 3412,
    "ky": 4520,
    "Ġupheld": 22157,
    "Ġchecking": 23290,
    "hurrying": 14985,
    "Ġchina": 8041,
    "Ġpatients": 24810,
    "backpropagation": 11988,
    "Ġheav": 1850,
    "apparent": 11042,
    "accounted": 16503,
    "etieth": 21588,
    "Ġirksome": 13115,
    "causes": 20346,
    "function": 4519,
    "Ġhappening": 14385,
    "Ġlad": 2362,
    "Ġabsurd": 7201,
    "lob": 22511,
    "Ġsubordinate": 18723,
    "rob": 5533,
    "hedge": 22504,
    "iating": 3209,
    "astrop": 3318,
    "Ġstil": 15721,
    "fears": 18528,
    "ohnson": 16328,
    "Ġpleasant": 4172,
    "ctive": 11625,
    "Ġapprised": 18364,
    "ors": 854,
    "Ġtie": 10751,
    "âĢĶâĢĶâĢĿ": 15942,
    "Ġagree": 7646,
    "Ġactuated": 18546,
    "Ġmaty": 22916,
    "twain": 23703,
    "000": 2559,
    "bonnet": 25743,
    "expedition": 26079,
    "Ġpanegyric": 26450,
    "Ġpleasantness": 24140,
    "fate": 17540,
    "impenetrable": 26198,
    "apply": 18760,
    "Ġsharpened": 17367,
    "igms": 3047,
    "Ġvagueness": 25738,
    "Ġfascinated": 25636,
    "Ġpants": 21469,
    "Ġrelapses": 26280,
    "Ġvillas": 24057,
    "needle": 20313,
    "Ġrus": 14094,
    "Ġunerring": 15850,
    "Ġbuckle": 17033,
    "Ġdeb": 4763,
    "token": 21085,
    "comfortably": 16876,
    "knowledge": 7477,
    "disaster": 23495,
    "Ġthoughtful": 16194,
    "Ġblanche": 18821,
    "Ġexperienced": 6583,
    "Ġcritic": 19123,
    "Ġenvelopes": 24506,
    "snow": 10725,
    "remarked": 12291,
    "oga": 22712,
    "Ġmanage": 7640,
    "Ġhandfuls": 17211,
    "Ġpredomin": 16038,
    "Ġele": 1964,
    "_.": 2212,
    "eers": 20845,
    "Ġtargets": 4208,
    "Ġagatha": 6865,
    "Ġpossibility": 7457,
    "requirements": 24858,
    "Ġgenerative": 5644,
    "ution": 4350,
    "Ġmounttop": 19981,
    "itted": 2443,
    "shaken": 16027,
    "Ġincorpor": 13168,
    "Ġequinox": 25856,
    "Ġcocoa": 25483,
    "Ġchas": 18380,
    "Ġsparkling": 11357,
    "rained": 5162,
    "Ġswiss": 18883,
    "Ġpil": 5014,
    "Ġfloats": 9415,
    "Ġconcluding": 9859,
    "Ġimmutable": 17360,
    "Ġmeditate": 16708,
    "Ġcombined": 8549,
    "charmed": 21700,
    "bre": 3978,
    "Ġgrim": 7440,
    "Ġbricks": 13565,
    "extra": 8220,
    "Ġadaptive": 1355,
    "Ġveracity": 23892,
    "Ġremoving": 12120,
    "ounix": 14165,
    "crew": 7543,
    "tumbled": 21093,
    "Ġpresum": 4837,
    "Ġmisfortunes": 7042,
    "exhibited": 18478,
    "two": 3862,
    "Ġrepairing": 25590,
    "mush": 20979,
    "Ġangles": 23590,
    "erative": 21275,
    "Ġdeclaration": 16638,
    "moid": 2451,
    "Ġplow": 21463,
    "Ġfurther": 1055,
    "Ġankles": 17901,
    "Ġparasol": 22126,
    "Ġbacked": 12930,
    "Ġunsolved": 22038,
    "Ġmask": 1865,
    "evenings": 19466,
    "Ġmaintains": 2144,
    "persu": 8029,
    "Ġzodiac": 16177,
    "likely": 9025,
    "ĠĠĠĠĠĠĠĠĠĠĠĠĠĠĠĠĠĠĠĠĠĠĠĠĠĠĠĠĠĠĠĠĠĠĠĠĠĠĠĠĠ": 19585,
    "verity": 14003,
    "Ġguardians": 14945,
    "Ġlazy": 17050,
    "Ġdisturbed": 8675,
    "Ġcostume": 16497,
    "ta": 13791,
    "Ġinsensibility": 17110,
    "probability": 17023,
    "ro": 301,
    "ravelled": 18017,
    "Ġwant": 1118,
    "loom": 18536,
    "Ġstrongest": 11136,
    "Ġpersever": 10005,
    "Ġexcite": 11969,
    "Ġindoors": 18837,
    "reed": 6373,
    "Ġhaze": 18197,
    "tall": 17674,
    "Ġbending": 12589,
    "ichever": 13959,
    "Ġsa": 474,
    "isol": 17848,
    "Ġsatisfying": 23700,
    "middle": 11311,
    "Ġstum": 21736,
    "ger": 1104,
    "Ġentirely": 3437,
    "Ġ82": 24457,
    "laborers": 23919,
    "ĠĠĠĠĠĠĠĠĠĠĠĠĠĠĠĠĠĠĠĠĠĠĠĠĠĠĠĠĠĠĠĠĠĠĠĠĠĠĠĠĠĠĠĠĠĠĠĠĠ": 20041,
    "elly": 17982,
    "special": 14707,
    "Ġconfl": 11138,
    "Ġkilburn": 18352,
    "tanh": 5204,
    "stoke": 18022,
    "copy": 5133,
    "orter": 4257,
    "ellative": 21950,
    "Ġappropri": 2228,
    "Ġuttermost": 19491,
    "unimportant": 18162,
    "Ġpleaded": 16301,
    "Ġfritters": 23259,
    "Ġwaterproof": 19090,
    "ortion": 11760,
    "slack": 16895,
    "Ġfancied": 7325,
    "professor": 17251,
    "adie": 18091,
    "Ġmonstrous": 7790,
    "Ġundeserving": 18269,
    "vill": 10736,
    "Ġbewildered": 15216,
    "Ġhumped": 19772,
    "Ġfiddle": 25445,
    "Ġin": 291,
    "Ġsound": 2244,
    "uck": 1233,
    "Ġinsane": 19271,
    "Ġhoisted": 5961,
    "ples": 6844,
    "cowardly": 25750,
    "Ġspending": 10924,
    "deadly": 17100,
    "trouble": 8297,
    "low": 655,
    "Ġready": 3400,
    "foremost": 14254,
    "Ġuproar": 22160,
    "inuating": 16205,
    "they": 1879,
    "verty": 8454,
    "shelf": 20384,
    "Ġlass": 15651,
    "Ġconf": 1818,
    "Ġdownstream": 3776,
    "Ġug": 8142,
    "choice": 21695,
    "ems": 5236,
    "garet": 9599,
    "!_": 7328,
    "Ġwaterward": 23369,
    "Ġexcluded": 16386,
    "Ġperfection": 19220,
    "Ġperformed": 8548,
    "vulgar": 25919,
    "Ġsincerely": 7964,
    "considered": 9582,
    "etah": 12665,
    "indispensable": 14211,
    "Ġofficially": 24839,
    "way": 766,
    "Ġoffering": 3005,
    "ambition": 13414,
    "illustration": 2283,
    "althy": 8434,
    "¿": 128,
    "journey": 8748,
    "Ġpainter": 19170,
    "Ġconcerned": 5332,
    "Ġincident": 6281,
    "Ġdrank": 16537,
    "entieth": 17981,
    "ersburgh": 18216,
    "Ġwithdrawn": 10608,
    "Ġliveliness": 13646,
    "Ġproceeding": 9908,
    "Ġsag": 6514,
    "Ġamusement": 8057,
    "Ġgallant": 8658,
    "Ġminimax": 5858,
    "line": 1440,
    "enemy": 15529,
    "Ġfeeling": 3086,
    "Ġarchitect": 967,
    "roused": 16654,
    "appropri": 22847,
    "Ġconve": 5455,
    "Ġrelieve": 8225,
    "Ġdeadly": 5405,
    "deepest": 22838,
    "Ġshave": 22001,
    "Ġproject": 5545,
    "Ġaversion": 18868,
    "retch": 4372,
    "Ġjavelin": 26105,
    "Ġsash": 17755,
    "lifeless": 24313,
    "Ġdenominated": 15231,
    "Ġadored": 18292,
    "standard": 22436,
    "Ġthinnest": 24185,
    "awn": 3837,
    "Ġdisapprobation": 16060,
    "Ġclo": 6044,
    "Ġtwitching": 25684,
    "swift": 14854,
    "Ġnonce": 23236,
    "Ġfailure": 13318,
    "!_âĢĶ": 19976,
    "Ġcausal": 3413,
    "Ġconsequent": 18113,
    "Ġpencils": 23202,
    "Ġhateful": 19716,
    "Ġdetective": 14412,
    "Ġwheels": 10913,
    "Ġpaunch": 23753,
    "whenever": 11884,
    "Ġcleaving": 23186,
    "dropped": 12266,
    "ĠĠĠĠĠĠĠĠĠĠĠĠĠĠĠĠĠĠĠĠĠĠĠĠĠĠĠĠĠĠĠĠĠĠĠĠĠĠ": 16528,
    "servant": 15037,
    "Ġarrangement": 2659,
    "Ġjenkinson": 11432,
    "Ġdanes": 25160,
    "capt": 3839,
    "itor": 12570,
    "Ġpink": 12622,
    "ilingly": 21728,
    "Ġlesson": 7275,
    "arious": 10319,
    "artic": 14217,
    "Ġabutted": 22280,
    "send": 15425,
    "engaged": 7451,
    "achalot": 15866,
    "Ġsigning": 22714,
    "Ġferocious": 17421,
    "Ġeffects": 7235,
    "Ġconfirms": 23311,
    "Ġbutter": 6841,
    "Ġweather": 3995,
    "borough": 20787,
    "Ġshoal": 12018,
    "Ġindolent": 13009,
    "Ġfilm": 23929,
    "mine": 5617,
    "Ġpoetical": 25060,
    "copper": 19191,
    "Ġmadman": 13154,
    "Ġimpenit": 22395,
    "Ġharris": 13929,
    "Ġinsatiable": 19274,
    "Ġbas": 6380,
    "(-": 2978,
    "paradise": 20640,
    "Ġspiteful": 19525,
    "Ġyarn": 10869,
    "Ġstructure": 835,
    "Ġmostly": 7664,
    "islanders": 25443,
    "uding": 16151,
    "Ġga": 4446,
    "honour": 13470,
    "Ġcraw": 7281,
    "Ġhedgehog": 10646,
    "Ġunravel": 26216,
    "astrous": 15889,
    "Ġpositional": 2596,
    "G": 43,
    "Ġundo": 15843,
    "lled": 10109,
    "blasted": 20192,
    "apart": 15964,
    "Ġregent": 18592,
    "Ġhawk": 15176,
    "Ġoffensive": 18693,
    "inlaid": 21193,
    "Ġpaced": 7583,
    "Ġunderstood": 5655,
    "iger": 8448,
    "Ġengine": 1920,
    "Ġindispens": 22960,
    "dressing": 11483,
    "Ġsplinter": 23749,
    "Ġlet": 1110,
    "Ġboth": 1654,
    "Ġhow": 599,
    "Ġprocessing": 895,
    "Ġinvests": 14870,
    "Ġattributed": 11836,
    "gyric": 19111,
    "Ġcouch": 12575,
    "yard": 5901,
    "Ġblasts": 19999,
    "utter": 7593,
    "Ġimputed": 12812,
    "Ġdir": 21425,
    "begged": 18520,
    "Ġglimmer": 15144,
    "orne": 17874,
    "toes": 22570,
    "guinea": 16674,
    "Ġwor": 1190,
    "surv": 24215,
    "Ġstricken": 9778,
    "Ġrelig": 8551,
    "Ġhawsers": 26503,
    "Ġprehensile": 26535,
    "Ġunabated": 15855,
    "Ġvivacity": 14943,
    "Ġrecoil": 18691,
    "Ġcanst": 8860,
    "Ġbreaks": 13186,
    "Ġambiguous": 20167,
    "def": 1450,
    "Ġleviathan": 3292,
    "Ã¦st": 24177,
    "rer": 3623,
    "rally": 17652,
    "representation": 20199,
    "rudential": 16711,
    "Ġconcentration": 25065,
    "pron": 9008,
    "Ġcompromised": 22577,
    "Ġrepugn": 23365,
    "Ġrouse": 15824,
    "Ġdefend": 9342,
    "stating": 21645,
    "Ġunlab": 3790,
    "Ġunobserved": 18250,
    "Ġremoval": 12121,
    "Ġmoluccas": 25630,
    "Ġequals": 4726,
    "Ġdent": 13908,
    "Ġburton": 23655,
    "Ġdawned": 14996,
    "beaten": 20318,
    "autions": 20769,
    "Ġoptimize": 1542,
    "Ġidiotic": 25589,
    "Ġbeaver": 18088,
    "Ġdel": 1614,
    "meantime": 9094,
    "Ġwretchedly": 19509,
    "Ġmathematics": 12077,
    "Ġlikewise": 5386,
    "landsmen": 25062,
    "sharks": 14240,
    "dishon": 20407,
    "unreasonable": 18165,
    "Ġsympathise": 16795,
    "offensive": 16399,
    "involuntarily": 20418,
    "Ġcabinet": 23864,
    "bering": 18681,
    "Ġspite": 4158,
    "Ġbottles": 16572,
    "Ġresponsiveness": 2896,
    "Ġsensibly": 14515,
    "Ġreconcile": 25292,
    "Ġslanting": 23174,
[...]
