{
  "metadata": {
    "vocab_size": 26622,
    "algorithm": "BPE",
    "created_at": "2026-07-07 06:06:06",
    "special_tokens": [
      "<PAD>",
      "<SOS>",
      "<EOS>",
      "<UNK>",
      "<MASK>"
    ]
  },
  "vocab": {
    "Ġman": 544,
    "photograph": 16162,
    "Â·": 21157,
    "Ġthoughtlessness": 16202,
    "Ġsouth": 4913,
    "skinned": 25396,
    "Ġarmy": 11742,
    "ethics": 8881,
    "seas": 14037,
    "Ġsorrowful": 10542,
    "morn": 20985,
    "Ġcomplexity": 1694,
    "Ġcomforts": 14699,
    "bonnet": 25750,
    "Ġembarrassment": 10631,
    "Ġdavy": 25960,
    "Ġclink": 22353,
    "Ġholes": 16415,
    "resembled": 21254,
    "ive": 426,
    "Ġtwink": 8217,
    "la": 10709,
    "Ġinvisible": 7329,
    "wonders": 17151,
    "swim": 16789,
    "obvious": 9363,
    "Ġworthless": 19576,
    "Ġrendering": 16667,
    "Ġirreduc": 5495,
    "Ġreceived": 2954,
    "ogra": 4576,
    "wheels": 14386,
    "rupt": 3209,
    "Ġaspect": 3097,
    "mense": 4784,
    "adagrad": 9697,
    "Ġasking": 5653,
    "bowing": 24470,
    "6": 26,
    "sle": 9142,
    "Ġendeavouring": 8034,
    "Ġgrind": 18747,
    "apparent": 11045,
    "Ġlocker": 16919,
    "Ġ71": 24273,
    "Ġembra": 6583,
    "Ġdesperate": 7776,
    "Ġexulting": 20266,
    "Ġwh": 328,
    "Ġnominally": 17239,
    "Ġsword": 6734,
    "despatched": 19808,
    "Ġdropt": 23687,
    "Ġbehavior": 8001,
    "Ġstony": 21744,
    "screaming": 20332,
    "Ġrecital": 16151,
    "magistrate": 19869,
    "Ġimprobable": 9797,
    "clearer": 24080,
    "inea": 7623,
    "Ġalgorithm": 771,
    "Ġresembled": 18041,
    "Ġsmiling": 5477,
    "forgetting": 25494,
    "skelter": 24475,
    "Ġunful": 22016,
    "Ġshowed": 4500,
    "Ġvanishing": 1346,
    "india": 22378,
    "tempestuous": 26106,
    "Ġvulgarity": 25373,
    "Ġburning": 5976,
    "Ġslipper": 24279,
    "ship": 1393,
    "deceptive": 22152,
    "anesc": 21366,
    "Ġ179": 19763,
    "Ġnowhere": 12888,
    "Ġpreacher": 18378,
    "cus": 3981,
    "ips": 2592,
    "Ġcomely": 21860,
    "Ġenter": 4029,
    "Ġbar": 3147,
    "Ġwarped": 25048,
    "ompl": 4538,
    "Ġexperienced": 6582,
    "Ġlicence": 25109,
    "Ġhover": 15625,
    "Ġinsure": 13181,
    "ient": 394,
    "Ġmidst": 7986,
    "stall": 21645,
    "Ġgone": 2102,
    "Ġexternal": 8712,
    "canonical": 22973,
    "Ġdigesting": 19816,
    "Ġepicurean": 20564,
    "Ġassailed": 23126,
    "becomes": 22506,
    "Ġexaggerated": 25658,
    "hau": 17570,
    "fters": 20870,
    "Ġfestoon": 20301,
    "Ġcab": 2635,
    "Ġprolong": 6835,
    "Ġhonourable": 10462,
    "Ġ76": 24276,
    "Ġlascar": 9207,
    "Ġlevi": 3034,
    "Ġsubdiv": 16168,
    "resolution": 17776,
    "Ġjer": 6266,
    "ribe": 1219,
    "leading": 15567,
    "ospit": 22270,
    "Ġbeyond": 2461,
    "Ġheadsmen": 14741,
    "servation": 11245,
    "overhearing": 19062,
    "Ġcargo": 16298,
    "Ġtroubling": 26556,
    "Ġcripp": 9660,
    "Ġnatures": 16514,
    "christian": 17240,
    "ribs": 23376,
    "instance": 24208,
    "Ġhugh": 15016,
    "petulance": 24313,
    "artificial": 996,
    "Ġterror": 5127,
    "Ġwhistle": 9069,
    "Ġmachine": 789,
    "Ġdivert": 23607,
    "phere": 21027,
    "Ġaccents": 14215,
    "Ġconv": 2971,
    "sory": 17667,
    "Ġpanther": 16829,
    "Ġseldom": 4633,
    "Ġstalk": 12699,
    "Ġnamed": 6140,
    "Ġdistinctly": 7313,
    "Ġcolour": 4466,
    "Ġinherit": 25362,
    "pursue": 24986,
    "Ġcottagers": 6763,
    "Ġever": 1177,
    "collar": 19338,
    "Ġjacob": 1896,
    "rivial": 9407,
    "odiac": 14033,
    "m": 81,
    "Ġcraw": 7284,
    "Ġsympathy": 6345,
    "Ġtests": 8960,
    "eminence": 20106,
    "Ġripples": 25513,
    "Ġcensus": 15105,
    "Ġunwillingness": 20038,
    "Ġappears": 5403,
    "occasionally": 13522,
    "Ġstrat": 16098,
    "Ġpanel": 13374,
    "seeing": 7080,
    "Ġglittering": 10056,
    "Ġsitu": 3492,
    "gazed": 15369,
    "\"],": 26129,
    "finished": 10560,
    "Ġcame": 1298,
    "goodness": 19298,
    "Ġoccupation": 9933,
    "hom": 12474,
    "outward": 22164,
    "vous": 8767,
    "Ġbachel": 7159,
    "Ġlanterns": 24594,
    "latter": 15390,
    "Ġtheories": 13853,
    "Ġnantucket": 2842,
    "kingly": 20948,
    "Ġespecially": 3939,
    "Ġinstructions": 11200,
    "Ġmassachusetts": 24032,
    "Ġdrawer": 13267,
    "introduce": 25197,
    "ilege": 22263,
    "original": 9088,
    "Ġboarding": 12088,
    "Ġfortunes": 12180,
    "drove": 17000,
    "Ġsailing": 5326,
    "Ġwapping": 21302,
    "tenderly": 20538,
    "Ġchosen": 7202,
    "Ġfeatures": 1432,
    "Ġbridle": 24694,
    "Ġcontradicted": 20220,
    "antled": 18294,
    "Ġchagrin": 20617,
    "Ġagitates": 22526,
    "Ġnour": 10833,
    "Ġdelayed": 9523,
    "flight": 15360,
    "Ġven": 4651,
    "abouts": 9456,
    "Ġbounds": 9921,
    "Ġholder": 6727,
    "Ġtorn": 6000,
    "recur": 4443,
    "sius": 13792,
    "Ġagencies": 18549,
    "Ġescaped": 6458,
    "crier": 20829,
    "oughed": 22085,
    "numer": 15406,
    "confl": 22481,
    "extreme": 11032,
    "Ġsolve": 4202,
    "allow": 5108,
    "explained": 23154,
    "liter": 11506,
    "Ġconquered": 14030,
    "Ġembark": 8562,
    "Ġremarks": 7474,
    "Ġwrinkles": 8573,
    "Ġgases": 21607,
    "on": 267,
    "Ġensigns": 23700,
    "Ġmis": 915,
    "Ġwardrobe": 17233,
    "uary": 11542,
    "Ġslung": 23180,
    "twice": 14629,
    "Ġzealand": 12351,
    "Ġwarmer": 19198,
    "nonsense": 17623,
    "gu": 3935,
    "Ġhollows": 19750,
    "aming": 5831,
    "Ġabide": 14192,
    "sings": 4255,
    "aged": 2607,
    "Ġsaville": 15898,
    "Ġtashtego": 4491,
    "uits": 21112,
    "Ġtweed": 22687,
    "Ġathirst": 20607,
    "Ġindifferent": 6175,
    "Ġrecollect": 8310,
    "Ġclustered": 25246,
    "Ġtaken": 2531,
    "Ġadversarial": 5610,
    "Ġserpentine": 11366,
    "Ġsurvey": 13595,
    "offers": 16400,
    "Ġdiscoveries": 13360,
    "Ġincompatible": 25688,
    "nment": 20999,
    "anged": 3584,
    "borough": 20794,
    "Ġribs": 7103,
    "Ġashen": 21905,
    "Ġnowadays": 18556,
    "Ġsmoothe": 23670,
    "dig": 4931,
    "Ġgrieved": 8298,
    "Ġhy": 5627,
    "whaling": 7899,
    "quick": 6399,
    "let": 2738,
    "Ġcus": 21349,
    "countenance": 6928,
    "Ġtolerably": 8066,
    "precip": 14672,
    "Ġplough": 18621,
    "riot": 18193,
    "Ġtrousers": 12416,
    "Ġmitigates": 3052,
    "Ġcluster": 13573,
    "aced": 2407,
    "Ġtranquillity": 7535,
    "ameter": 3066,
    "Ġsnoring": 23751,
    "Ġsurging": 19145,
    "Ġconcern": 2661,
    "ily": 1034,
    "Ġapril": 13663,
    "mb": 922,
    "advancing": 14848,
    "Ġlinen": 12408,
    "Ġinducement": 16852,
    "Ġcare": 1639,
    "Ġchildhood": 13141,
    "Ġshared": 10269,
    "Ġtints": 17736,
    "Ġgrapes": 15224,
    "banish": 20791,
    "Ġantiquities": 25607,
    "itudes": 3016,
    "uzzle": 19594,
    "fug": 17551,
    "Ġprivileged": 20120,
    "Ġfable": 15582,
    "ensils": 22558,
    "Ġsteadily": 8051,
    "Ġdiffers": 23791,
    "Ġfr": 1695,
    "Ġhesitate": 16954,
    "Ġwas": 370,
    "company": 9466,
    "shroud": 20319,
    "Ġapplications": 4788,
    "catherine": 7128,
    "Ġclam": 7417,
    "Ġdecoyed": 18494,
    "Ġcler": 11771,
    "elfare": 11778,
    "Ġfashions": 17895,
    "Ġbart": 17866,
    "Ġstones": 9228,
    "Ġpriority": 19771,
    "Ġscound": 12835,
    "ove": 1741,
    "Ġprob": 969,
    "etting": 21585,
    "Ġreflecting": 24765,
    "Ġdictate": 20160,
    "Ġmum": 13862,
    "ger": 1108,
    "Ġintens": 7005,
    "Ġmortal": 4685,
    "Ġfron": 14494,
    "e": 73,
    "Ġeastward": 13393,
    "Ġleaky": 2344,
    "Ġappearance": 3699,
    "Ġservices": 11220,
    "Ġimpulse": 10027,
    "Ġtyphoons": 20242,
    "ivery": 17580,
    "Ġlegit": 16481,
    "Ġrecord": 5319,
    "admirably": 24957,
    "Ġadagrad": 2907,
    "inity": 5695,
    "Ġcent": 3251,
    "Ġdevelopments": 23258,
    "ingly": 2131,
    "Ġchamounix": 14876,
    "posted": 24650,
    "onist": 21258,
    "Ġbumping": 25293,
    "Ġcraft": 4381,
    "Ġanimate": 23435,
    "doub": 6225,
    "orton": 11757,
    "iff": 3905,
    "Ġallowance": 14394,
    "Ġbower": 15572,
    "purp": 8090,
    "contained": 22482,
    "first": 3934,
    "Ġrooted": 13172,
    "uted": 7591,
    "unbounded": 21891,
    "Ġlam": 21554,
    "owards": 4597,
    "wear": 22693,
    "Ġparticulars": 5756,
    "Ġagricultural": 26559,
    "Ġtahiti": 13620,
    "ermost": 7431,
    "alone": 10188,
    "Ġjung": 12838,
    "Ġreal": 1636,
    "frank": 7757,
    "Ġaudience": 24783,
    "imens": 1747,
    "revenge": 13846,
    "Ġcuts": 14615,
    "Ġsensational": 16398,
    "officers": 10632,
    "pacing": 21029,
    "Ġpraying": 19565,
    "Ġbagging": 24553,
    "Ġobserved": 3538,
    "Ġfashionable": 19552,
    "Ġdishes": 16059,
    "crowded": 20199,
    "visits": 24237,
    "Ġpaltry": 16702,
    "eness": 2286,
    "Ġreported": 11982,
    "Ġmortifying": 13247,
    "imet": 21711,
    "Ġscenarios": 26551,
    "Ġoverhung": 15981,
    "Ġyards": 5374,
    "Ġworking": 5576,
    "persecutor": 26538,
    "sway": 15432,
    "summer": 11995,
    "disappeared": 14578,
    "Ġomen": 11579,
    "Ġmundane": 26437,
    "Ġperpetually": 17077,
    "Ġfare": 5812,
    "daughters": 13469,
    "remember": 7264,
    "culiar": 2825,
    "Ġpiqu": 21482,
    "3": 23,
    "Ġconcluded": 5659,
    "said": 4107,
    "pursu": 11397,
    "frequent": 15361,
    "Ġringleader": 26221,
    "Ġpyth": 21466,
    "Ġingratitude": 17476,
    "Ġsuperiors": 23468,
    "Ġignorance": 6620,
    "arter": 17903,
    "Ġbott": 3148,
    "Ġar": 479,
    "decan": 22145,
    "Ġslumbering": 25709,
    "Ġvineyard": 12331,
    "Ġbuckskin": 19958,
    "Ġassign": 11103,
    "Ġtransformed": 22622,
    "Ġtinge": 25100,
    "ready": 2357,
    "shadow": 20321,
    "Ġrushed": 4090,
    "Ġpatent": 11961,
    "Ġobstructed": 22711,
    "Ġthack": 21522,
    "Ġvisible": 4781,
    "Ġbullion": 24996,
    "Ġhosts": 19946,
    "Ġcurtains": 23018,
    "sterns": 23379,
    "Ġraving": 16123,
    "Ġtooks": 23339,
    "human": 7090,
    "Ġrage": 5114,
    "Ġit": 339,
    "Ġstreams": 12193,
    "Ġstabilizing": 3654,
    "Ġbrushed": 15576,
    "expanded": 23677,
    "Ġhereby": 10363,
    "Ġhackluyt": 25663,
    "Ġexquisite": 12383,
    "decease": 25565,
    "rates": 21046,
    "Ġcredited": 25164,
    "Ġsled": 21226,
    "Ġdet": 515,
    "Ġglobules": 26596,
    "le": 279,
    "Ġvalues": 2659,
    "Ġhogshead": 26376,
    "Ġrecip": 16150,
    "Ġacqu": 1419,
    "Ġparchment": 13653,
    "Ġwearing": 12741,
    "fra": 8376,
    "Ġbrighter": 16196,
    "stumps": 21658,
    "Ġempires": 19082,
    "precipitance": 25876,
    "Ġbolivia": 24682,
    "Ġpenn": 11113,
    "half": 4933,
    "Ġhermits": 22078,
    "Ġstupendous": 20508,
    "morrow": 4575,
    "Ġtartar": 17328,
    "illings": 14147,
    "Ġtheatre": 21286,
    "dial": 20834,
    "Ġdepressions": 25807,
    "forgotten": 12417,
    "Ġundertaken": 18997,
    "Ġ156": 20179,
    "cater": 20824,
    "Ġstop": 2504,
    "Ġmiracle": 15102,
    "Ġindolent": 13005,
    "sa": 8759,
    "adays": 14017,
    "analysis": 26182,
    "big": 13687,
    "measureless": 20243,
    "sheltered": 25593,
    "asiness": 8129,
    "Ġbr": 1070,
    "Ġvirtue": 4924,
    "?--": 15311,
    "Ġperv": 15999,
    "Ġsherlock": 3892,
    "Ġbark": 10801,
    ".âĢĻ": 1717,
    "Ġbusily": 9389,
    "Ġolder": 9333,
    "tor": 15439,
    "haut": 20910,
    "Ġ10": 5252,
    "ust": 496,
    "ink": 756,
    "Ġunde": 11713,
    "Ġaltar": 9235,
    "Ġdawned": 15005,
    "Ġturks": 14606,
    "itions": 4151,
    "credit": 12449,
    "Ġfitting": 21414,
    "quadr": 15769,
    "Ġfirmness": 11241,
    "erland": 9647,
    "illa": 12795,
    "ubl": 3591,
    "Ġbargain": 23802,
    "chron": 21699,
    "Ġberry": 19755,
    "Ġeurope": 8060,
    "placed": 7878,
    "Ġcompl": 3758,
    "Ġbanish": 15575,
    "Ġattempted": 8000,
    "igators": 18053,
    "oam": 8754,
    "urred": 8451,
    "per": 480,
    "Ġcondesc": 7182,
    "Ġcru": 2828,
    "ory": 1080,
    "suff": 4963,
    "pass": 4294,
    "sembled": 7265,
    "Ġspinning": 15061,
    "Ġforest": 9874,
    "Ġtents": 13822,
    "Ġgrave": 5104,
    "Ġconfession": 11239,
    "Ġdividing": 12113,
    "M": 49,
    "nder": 20996,
    "rem": 1521,
    "unpardonable": 21896,
    "Ġensemble": 1610,
    "Ġegypt": 9685,
    "osop": 4410,
    "car": 4217,
    "Ġverdure": 10617,
    "Ġcorpus": 13033,
    "appear": 13199,
    "Ġchewing": 23298,
    "ij": 7801,
    "roqu": 21539,
    "Ġloads": 22118,
    "amy": 8469,
    "league": 17853,
    "Ġwood": 2287,
    "Ġclassical": 22643,
    "cabin": 8364,
    "Ġports": 10821,
    "requirements": 24870,
    "Ġchooses": 13348,
    "âĢĶâĢĶâĢĿ": 15948,
    "Ġminus": 18763,
    "sford": 5998,
    "thrill": 25664,
    "Ġcomply": 8894,
    "resp": 13843,
    "Ġadieu": 10054,
    "ider": 21770,
    "wrong": 13210,
    "Ġmentioning": 9901,
    "Ġesteem": 7530,
    "Ġfasting": 16365,
    "orous": 5295,
    "Ġscrewed": 15129,
    "Ġgrego": 18971,
    "ineffectual": 26515,
    "Ġclapham": 17272,
    "save": 13788,
    "Ġdon": 1615,
    "upwards": 18875,
    "Ġsecuring": 11993,
    "suitableness": 26269,
    "R": 54,
    "Ġcomplain": 6688,
    "Ġcath": 17835,
    "secure": 12236,
    "Ġinstantaneous": 14619,
    "tains": 10965,
    "bermaid": 20799,
    "Ġheadlong": 11889,
    "Ġitalian": 12411,
    "Ġtire": 17729,
    "ushion": 14729,
    "het": 5438,
    "Ġencoding": 4778,
    "Ġcy": 13878,
    "Ġyea": 8919,
    "Ġsecrets": 9058,
    "butt": 16003,
    "turbable": 24545,
    "xter": 9152,
    "nurs": 21008,
    "mccarthy": 17379,
    "Ġgasps": 24878,
    "Ġcongratulate": 9067,
    "Ġpersist": 16276,
    "Ġaged": 10327,
    "Ġregal": 16081,
    "Ġsplendid": 17221,
    "Ġfierce": 7438,
    "moonlight": 25385,
    "c": 71,
    "pursued": 17287,
    "innocence": 15192,
    "Ġwitt": 17792,
    "Ġacquiesced": 25502,
    "hinting": 17577,
    "Ġstead": 5652,
    "omn": 15696,
    "Ġtilted": 20419,
    "Ġdoc": 7201,
    "Ġchoke": 22256,
    "acute": 22605,
    "Ġvisitor": 5333,
    "neying": 22451,
    "Ġlac": 17973,
    "Ġafterwards": 3527,
    "doctor": 19107,
    "Ġsaid": 577,
    "Ġmott": 17812,
    "religion": 20584,
    "Ġsatisf": 2810,
    "Ġstool": 14467,
    "elter": 21576,
    "Ġdenial": 13218,
    "Ġestimable": 23882,
    "Ġresembling": 4100,
    "Ġobliged": 4289,
    "Ġcondition": 6766,
    "join": 12115,
    "Ġsisterly": 16312,
    "conjecturing": 20142,
    "Ġsubsisting": 23438,
    "awk": 23128,
    "Ġgeomet": 3189,
    "Ġswandam": 11092,
    "Ġmasses": 10509,
    "Ġreflection": 6439,
    "Ġremarkably": 7702,
    "because": 4925,
    "Ġfolly": 7941,
    "Ġspeculations": 23003,
    "belated": 24047,
    "Ġbias": 1189,
    "ost": 5363,
    "Ġexcused": 23326,
    "Ġbelow": 4062,
    "tubes": 25224,
    "Ġbedfellows": 23451,
    "Ġbelike": 18841,
    "Ġchr": 3686,
    "Ġdiscre": 2417,
    "Ġtrif": 6269,
    "icy": 6141,
    "Ġunwound": 25180,
    "]": 65,
    "perquis": 22190,
    "Ġwriggling": 15265,
    "iments": 4947,
    "Ġoffending": 22754,
    "Ġattractive": 25583,
    "ges": 2878,
    "0": 20,
    "Ġdexterous": 15157,
    "Ġvital": 9249,
    "absent": 21795,
    "Ġwitness": 4624,
    "Ġchained": 16397,
    "Ġexposing": 11833,
    "Ġrap": 14309,
    "Ġinvoluntary": 18758,
    "corrob": 24506,
    "race": 11633,
    "Ġinterruptions": 24200,
    "brink": 23590,
    "lies": 15389,
    "urements": 18131,
    "Ġpostpone": 17313,
    "who": 2449,
    "Ġuse": 828,
    "introdu": 8941,
    "Ġtemples": 18650,
    "Ġimage": 3401,
    "Ġcrack": 7709,
    "itation": 1781,
    "Ġandromeda": 21513,
    "Ġmates": 4875,
    "penetrate": 20331,
    "Ġgenerative": 5646,
    "Ġrefreshed": 15298,
    "Ġwhereupon": 14301,
    "material": 13132,
    "Ġgabriel": 7594,
    "Ġkept": 3346,
    "Ġfever": 6560,
    "diligence": 26119,
    "Ġhypocritical": 20747,
    "Ġsolved": 8935,
    "ud": 911,
    "Ġpersonality": 16485,
    "Ġeats": 15683,
    "Ġwent": 1535,
    "Ġsaf": 4003,
    "Ġ166": 25017,
    "abode": 21796,
    "quarrel": 20021,
    "Ġdetermining": 14424,
    "Ġpurport": 14589,
    "ingu": 2116,
    "response": 25771,
    "saddest": 25535,
    "unusually": 15786,
    "Ġdisinclination": 22546,
    "Ġhyena": 24533,
    "Ġability": 2770,
    "ann": 5804,
    "Ġfinite": 2322,
    "netherfield": 9815,
    "Ġdoth": 13912,
    "finds": 19935,
    "concl": 12871,
    "Ġminutely": 14568,
    "manner": 6171,
    "Ġendow": 23155,
    "cain": 15334,
    "Ġomens": 21334,
    "sit": 13783,
    "Ġ70": 11281,
    "Ġlittle": 866,
    "Ġemblaz": 16251,
    "ensed": 10998,
    "Ġminded": 23241,
    "Ġtaffrail": 15483,
    "Ġcompared": 2224,
    "Ġtrusting": 24118,
    "Ġchim": 5934,
    "Ġham": 3419,
    "Ġmightier": 18742,
    "aken": 1867,
    "Ġprodigy": 19799,
    "acup": 14283,
    "Ġmusty": 22690,
    "rue": 1131,
    "Ġvalle": 5834,
    "achine": 607,
    "occupied": 12305,
    "Ġnorm": 763,
    "Ġprofoundest": 16869,
    "ensities": 22556,
    "Ġravines": 25840,
    "ashtego": 4105,
    "gpt": 5358,
    "Ġshame": 6409,
    "Ġbless": 4347,
    "Ġdust": 5910,
    "remental": 21255,
    "unnatural": 15779,
    "Ġdetail": 634,
    "principle": 10654,
    "Ġtorment": 8676,
    "limin": 8385,
    "Ġtribe": 10754,
    "Ġaltitude": 26211,
    "Ġinwards": 15626,
    "Ġjaw": 3316,
    "Ġindecision": 25790,
    "Ġnorth": 4322,
    "mag": 6508,
    "Ġretreating": 19806,
    "surf": 24226,
    "Ġcaptured": 7247,
    "Ġlye": 21556,
    "Ġauger": 21211,
    "Ġtrepidation": 19226,
    "Ġtatters": 21185,
    "Ġplayfulness": 23649,
    "Ġsangu": 15510,
    "Ġgrie": 3579,
    "depart": 12266,
    "Ġplans": 7918,
    "Ġ32": 19498,
    "omely": 21664,
    "treasures": 26161,
    "afraid": 10446,
    "Ġobjecting": 18906,
    "marked": 9052,
    "Ġprojected": 16878,
    "involved": 25634,
    "ition": 652,
    "formation": 22226,
    "Ġnoah": 10945,
    "Ġfrayed": 23381,
    "incidentally": 20547,
    "races": 21635,
    "Ġunimpe": 22076,
    "Ġwrapped": 8343,
    "desper": 13071,
    "care": 4930,
    "Ġhiding": 9825,
    "Ġpassed": 2008,
    "bout": 20782,
    "Ġwretchedly": 19516,
    "Ġwhirlp": 16969,
    "Ġcontributed": 16019,
    "Ġbash": 12587,
    "miseries": 16767,
    "Ġtang": 13818,
    "Ġgpt": 4356,
    "ain": 343,
    "Ġprogrammed": 11061,
    "Ġskies": 8924,
    "Ġdif": 870,
    "sion": 8093,
    "Ġchast": 18389,
    "Ġvoid": 14090,
    "Ġexcuse": 5865,
    "Ġwelded": 9577,
    "_âĢĿ": 20770,
    "beaten": 20322,
    "mody": 16193,
    "frequented": 25909,
    "Ġcharger": 19016,
    "Ġmercenary": 17201,
    "terms": 15757,
    "Ġsee": 806,
    "Ġmourn": 8705,
    "Ġswings": 11090,
    "avor": 14281,
    "Ġsoften": 23137,
    "Ġabutted": 22282,
    "Ġpattern": 1311,
    "Ġasylum": 13668,
    "crossing": 19421,
    "Ġpaunch": 23760,
    "ġ": 226,
    "Ġmeekly": 26498,
    "Ġdespair": 4011,
    "Ġhath": 12629,
    "Ġworked": 6586,
    "Ġbequest": 21758,
    "itting": 1151,
    "Ġsolution": 9807,
    "astern": 8584,
    "Ġmetallic": 19095,
    "bing": 7791,
    "object": 6888,
    "Ġintending": 11705,
    "Ġprender": 22242,
    "Ġram": 11016,
    "Ġcompromised": 22581,
    "Ġdusty": 14936,
    "indian": 11779,
    "Ġafore": 10761,
    "Ġexpanded": 14294,
    "Ġresented": 22553,
    "romised": 14116,
    "Ġcontradictory": 20403,
    "Ġhussey": 7724,
    "Ġgregarious": 18973,
    "¯": 112,
    "Ġremarked": 3695,
    "finally": 9504,
    "Ġrescued": 24220,
    "Ġwidely": 8032,
    "Ġsinusoid": 4785,
    "Ġpap": 8800,
    "float": 19812,
    "Ġparts": 4169,
    "Ġtheme": 16027,
    "Ġpark": 5468,
    "Ġfuss": 13909,
    "Ġlines": 4536,
    "few": 8204,
    "aying": 15756,
    "tee": 16179,
    "ville": 6203,
    "Ġsires": 21234,
    "pract": 10123,
    "Ġbaboon": 19704,
    "inev": 21984,
    "ent": 305,
    "inkle": 22627,
    "Ġdisguise": 10049,
    "dissemble": 23504,
    "Ġkramm": 26242,
    "ourselves": 9014,
    "Ġavalanche": 16631,
    "Ġexisting": 12720,
    "ientious": 11692,
    "Ġadler": 8175,
    "retirement": 23151,
    "pictures": 15099,
    "Ġgrieve": 14714,
    "Ġdistillation": 16054,
    "wr": 3028,
    "ores": 2414,
    "Ġwarring": 16874,
    "ispensable": 9099,
    "Ġbeale": 12701,
    "Ġmast": 2904,
    "Ġtrees": 4208,
    "Ġdie": 3964,
    "fig": 8737,
    "Ġaustral": 12174,
    "ghost": 20896,
    "ipp": 10106,
    "misrepresented": 24225,
    "ickering": 22680,
    "official": 24927,
    "Ġwitty": 21300,
    "Ġday": 957,
    "Ġsuffusing": 23041,
    "Ġblock": 2575,
    "Ġvexation": 10591,
    "Ġmediocrity": 26616,
    "uce": 11540,
    "atived": 21270,
    "ryphon": 4167,
    "Ġanticipatingly": 26111,
    "Ġilluminate": 17200,
    "Ġimbu": 15900,
    "Ġveget": 11887,
    "bouton": 17509,
    "Ġalgorith": 565,
    "Ġsubsiding": 23437,
    "Ġawhile": 13834,
    "Ġincorpor": 13168,
    "ier": 1138,
    "Ġsec": 2072,
    "Ġstrictest": 17049,
    "Ġdangers": 12355,
    "olently": 15760,
    "Ġseren": 7401,
    "attributed": 23134,
    "Ġblackest": 19110,
    "Ġcrackling": 24971,
    "Ġsullenly": 17180,
    "Ġimpetus": 25577,
    "Ġslewed": 23397,
    "Ġmisfortunes": 7042,
    "Ġrefined": 18711,
    "thole": 21991,
    "securing": 19820,
    "always": 5710,
    "Ġelbows": 18648,
    "Ġunrestrained": 25562,
    "Ġdreamy": 14709,
    "gentle": 5359,
    "Ġcollege": 11429,
    "Ġreceptive": 1561,
    "itled": 7576,
    "Ġarrived": 3735,
    "Ġlearning": 388,
    "dued": 7909,
    "consolatory": 25316,
    "deck": 4504,
    "barn": 17490,
    "Ġatlantic": 7002,
    "then": 2050,
    "Ġbliss": 13001,
    "twain": 23707,
    "Ġfighting": 12198,
    "bers": 2570,
    "iture": 5698,
    "perse": 15904,
    "Ġvaluable": 5581,
    "erve": 9167,
    "Ġshuddering": 9055,
    "Ġpainter": 19179,
    "Ġassum": 4065,
    "Ġvic": 5240,
    "Ġrelentless": 26286,
    "Ġcabinets": 23872,
    "Ġdivined": 19452,
    "extra": 8220,
    "Ġproblem": 1268,
    "Ġaskance": 23162,
    "Ġcuvier": 9173,
    "Ġcocked": 12906,
    "orously": 8420,
    "vessels": 10630,
    "omically": 13984,
    "ided": 2790,
    "bbing": 6322,
    "âĢĿ--": 21821,
    "Ġphenomenon": 17923,
    "Ġdivineness": 25732,
    "Ġcloudless": 16677,
    "Ġheidelburgh": 11645,
    "Ġcontingency": 26253,
    "Ġspy": 22123,
    "Ġendangered": 16314,
    "Ġchinks": 22258,
    "Ġyour": 633,
    "ber": 881,
    "Ġobserver": 12023,
    "brothers": 17031,
    "Ġbloss": 19266,
    "Ġgerman": 6142,
    "acting": 22640,
    "Ġgathers": 24756,
    "Ġash": 4835,
    "tled": 3455,
    "Ġhedges": 19991,
    "Ġhoard": 23363,
    "Ġmysteries": 11327,
    "Ġcompassionate": 24736,
    "tell": 1382,
    "ulia": 18156,
    "uded": 6285,
    "Ġadmirer": 16847,
    "forbidding": 25845,
    "Ġattention": 1178,
    "Ġallowing": 2171,
    "Ġbarricade": 14668,
    "Ġchips": 14184,
    "wants": 21139,
    "hospit": 25912,
    "ributed": 8216,
    "rabb": 15686,
    "Ġshrugged": 12770,
    "_:": 17486,
    "Ġdedication": 3203,
    "osely": 9271,
    "Ġident": 2235,
    "Ġspare": 5106,
    "Ġincom": 9773,
    "Ġbern": 17867,
    "Ġdazz": 11597,
    "iot": 9607,
    "almost": 4945,
    "indef": 17744,
    "Ġangels": 11182,
    "Ġbeing": 1163,
    "Ġcostume": 16504,
    "Ġthyself": 6604,
    "Ġhaste": 9007,
    "Ġpraised": 19564,
    "Ġhisself": 21920,
    "Ġelement": 6902,
    "Ġtorch": 25043,
    "broken": 8020,
    "Ġmartyr": 26369,
    "Ġsubsc": 22800,
    "month": 6462,
    "Åĵuv": 15191,
    "osque": 22269,
    "Ġconfident": 11141,
    "Ġampl": 22491,
    "Ġacquit": 18908,
    "Ġconvulsively": 25725,
    "small": 6471,
    "Ġprocessions": 18443,
    "Ġglobu": 23284,
    "Ġdecoding": 3083,
    "ption": 7398,
    "Ġprescribed": 26019,
    "Ġartist": 12914,
    "Ġbrighton": 6469,
    "Ġhereafter": 9336,
    "Ġruff": 14354,
    "lu": 597,
    "Ġappellation": 22222,
    "Ġfrank": 4425,
    "Ġthreatens": 24390,
    "Ġcontour": 18484,
    "Ġsecured": 6747,
    "exp": 2742,
    "Ġmurderers": 16821,
    "sake": 13786,
    "conduct": 11798,
    "Ġcant": 17833,
    "Ġoverflow": 10298,
    "Ġreturning": 5328,
    "Ġpercept": 14228,
    "Ġheath": 15708,
    "Ġajar": 21210,
    "Ġinoffensive": 21503,
    "choice": 21696,
    "Ġrubbing": 9327,
    "Ġgate": 6828,
    "irr": 12739,
    "Ġinsane": 19279,
    "Ġpicture": 4859,
    "Ġstanzas": 21749,
    "Ġinvested": 7281,
    "Ġga": 4451,
    "Ġreptile": 15285,
    "mere": 11858,
    "Ġadoration": 18298,
    "ascar": 8436,
    "encies": 4083,
    "Ġyawn": 7608,
    "Ġmo": 629,
    "Ġund": 4122,
    "et": 307,
    "Ġenlightened": 12747,
    "Ġbenefited": 19408,
    "mixed": 15402,
    "iries": 18177,
    "Ġhasten": 10485,
    "hearty": 14846,
    "ropri": 2176,
    "Ġmotions": 8282,
    "visitor": 15066,
    "ė": 216,
    "plexy": 18587,
    "abash": 18115,
    "Ġfuneral": 10288,
    "tall": 17681,
    "windlass": 16731,
    "someone": 14572,
    "comrade": 20634,
    "Ġsunday": 7272,
    "flag": 14719,
    "ernity": 18627,
    "Ġrudder": 25120,
    "Ġcombine": 4421,
    "Ġenorm": 5305,
    "x": 92,
    "tit": 11532,
    "Ġcommunicating": 16896,
    "Ġmace": 21316,
    "Ġgroaned": 11271,
    "Ġrare": 7037,
    "Ġomniscient": 20093,
    "Ġblaze": 16228,
    "successful": 11364,
    "Ġher": 427,
    "Ġheav": 1850,
    "failed": 20872,
    "Ġbosom": 6942,
    "Ġbegins": 7246,
    "Ġmurderous": 8317,
    "Ġclum": 8876,
    "ool": 17626,
    "Ġconfessor": 24029,
    "residual": 19272,
    "âĢĶâĢĺ_": 24844,
    "bath": 13691,
    "Ġcorporeally": 25737,
    "Ġcased": 21352,
    "Ġminds": 6302,
    "Ġinclined": 6624,
    "Ġgrounds": 6751,
    "Ġshells": 20370,
    "Ġgentleman": 3040,
    "Ġpulling": 5866,
    "Ġtested": 23210,
    "sure": 5525,
    "Ġroasted": 18470,
    "Ġprey": 6414,
    "Ġincorrupt": 19244,
    "Ġenchanting": 17046,
    "Ġwilfully": 16776,
    "Ġlatest": 16832,
    "Ġcreating": 2999,
    "Ġwickham": 2200,
    "Ġgemini": 26477,
    "astrop": 3313,
    "Ġtawny": 20489,
    "Ġgames": 11628,
    "acceptable": 25195,
    "Ġentr": 14344,
    "oh": 1576,
    "Ġmelbourne": 24303,
    "bies": 15320,
    "adventures": 20264,
    "fortunately": 9454,
    "Ġpantaloons": 20303,
    "Ġgliding": 8561,
    "Ġbewitching": 25985,
    "boom": 19009,
    "Ĥ": 229,
    "Ġcontinents": 16858,
    "misfortunes": 16766,
    "Ġcanal": 8183,
    "deal": 12801,
    "Ġblanket": 8344,
    "re": 266,
    "conveyed": 20528,
    "pane": 10124,
    "string": 15691,
    "Ġunreasonably": 17458,
    "Ġsecret": 3719,
    "Ġado": 7626,
    "lement": 10171,
    "Ġmeek": 21817,
    "Ġcomforters": 25809,
    "remarked": 12289,
    "hoisted": 19292,
    "Ġwinter": 5223,
    "Ġbarrow": 12071,
    "Ġsagacious": 14981,
    "Ġdecapitated": 20625,
    "Ġbetray": 7443,
    "Ġrokovoko": 22413,
    "Ġendowed": 18935,
    "Ġadmiral": 17311,
    "Ġexp": 779,
    "ised": 1113,
    "Ġmarvels": 11087,
    "Ò": 147,
    "Ġglorious": 11079,
    "naught": 21003,
    "Ġcruc": 16544,
    "iced": 3899,
    "ivers": 1981,
    "garn": 20879,
    "Ġcovariate": 2348,
    "Ġwipe": 25773,
    "Ġelev": 5538,
    "warp": 17715,
    "anous": 21365,
    "red": 398,
    "Ġsuffered": 5651,
    "ul": 371,
    "erne": 21277,
    "Ġfruit": 12327,
    "aches": 6572,
    "Ġamel": 18521,
    "ö": 183,
    "Ġeternity": 12279,
    "hosmer": 25911,
    "distinction": 19583,
    "Ġlaboratory": 13614,
    "Ġtumble": 16886,
    "hetically": 21216,
    "ath": 862,
    "Ġcompression": 18155,
    "Ġscrupulous": 20076,
    "Ġvisage": 18792,
    "ckles": 22093,
    "ß": 160,
    "cles": 8728,
    "Ġbernard": 20692,
    "Ġbeds": 14559,
    "Ġinspection": 14552,
    "ipher": 18441,
    "Ġdirection": 1793,
    "allet": 11076,
    "Ġprinciples": 10014,
    "Ġnoisier": 4628,
    "Ġpens": 21465,
    "Ġke": 1155,
    "eridge": 15532,
    "arms": 10178,
    "Ġspectators": 19417,
    "Ġportable": 19379,
    "Ġjob": 7017,
    "Ġrocks": 6867,
    "ĠĠĠĠĠĠĠĠĠĠĠĠĠĠĠĠĠĠĠĠĠĠĠĠĠĠĠ": 14898,
    "Ġecho": 12670,
    "Ġstreng": 18078,
    "Ġimpenetrable": 17404,
    "Ġcomparison": 7101,
    "Ġheel": 9690,
    "Ġdost": 7636,
    "Ġoccurrence": 14387,
    "elopement": 23198,
    "itan": 10164,
    "Ġsequences": 1752,
    "Ġ----": 7146,
    "Ġcherry": 16943,
    "Ġexquisitely": 20211,
    "Ġconfidently": 24968,
    "Ġprairies": 20027,
    "Ġ180": 16616,
    "Ġwilson": 6631,
    "Ġsauc": 15897,
    "Ġperceptibly": 25830,
    "owl": 12685,
    "anish": 2617,
    "father": 3777,
    "Ġnourishment": 15201,
    "irwin": 8470,
    "Ġsuspect": 5760,
    "Ġ*/": 10379,
    "Ġchurning": 15946,
    "see": 3047,
    "Ġdisappearance": 9303,
    "battle": 12443,
    "Ġrenowned": 26202,
    "Ġrussian": 14355,
    "fork": 20866,
    "Ġrequest": 6051,
    "sartain": 25631,
    "Ġsomnambul": 26585,
    "Ġforbade": 15223,
    "Ġdistinctions": 18543,
    "Ġguest": 7251,
    "Ġcattle": 12573,
    "consternation": 16933,
    "Ġemaciated": 20648,
    "Ġfist": 21410,
    "Ġhabit": 6773,
    "Ġthundering": 24305,
    "Ġaimed": 20258,
    "Ġconveyed": 8336,
    "Ġbidirectional": 3754,
    "Ġsuperior": 2759,
    "adequ": 11022,
    "Ġsituation": 4073,
    "swallow": 24271,
    "Ġunderstand": 835,
    "Ġpatagon": 14505,
    "Ġclosed": 4607,
    "savage": 15084,
    "Ġmadame": 13153,
    "Ġsuperstitious": 13521,
    "Ġdeeper": 2079,
    "presum": 12869,
    "iss": 2173,
    "Ġfins": 9670,
    "barb": 10084,
    "Ġepicures": 25889,
    "Ġquietude": 19369,
    "Ġsax": 10932,
    "Ġdownright": 16127,
    "Ġknots": 15020,
    "Ġannoyed": 17207,
    "Ġdew": 14047,
    "rossing": 18652,
    "cripp": 20828,
    "Ġbelie": 14411,
    "Ġshivered": 14112,
    "Ġinfancy": 10414,
    "ond": 1161,
    "Ġresolve": 13173,
    "Ġwarn": 5697,
    "Ġsuffocated": 20737,
    "Ġairy": 23331,
    "Ġinequalities": 26461,
    "exc": 5172,
    "coal": 12028,
    "commend": 19998,
    "Ġlit": 6247,
    "cet": 15333,
    "Ġannealing": 1553,
    "Ġproposal": 10022,
    "Ġfrock": 10495,
    "joice": 9609,
    "gue": 12470,
    "Ġamounts": 6707,
    "cer": 6788,
    "Ġmot": 2987,
    "ras": 21044,
    "Ġsalt": 8016,
    "rannical": 26410,
    "Ġsays": 3558,
    "Ġdodo": 9076,
    "Ġsilently": 6899,
    "Ġbarren": 11210,
    "onement": 21264,
    "soled": 14336,
    "iverer": 11717,
    "Ġbeg": 1281,
    "shook": 19862,
    "ilst": 8144,
    "Ġguide": 3214,
    "Ġowl": 20091,
    "Ġexecute": 7505,
    "withstand": 23037,
    "Ġbarbary": 24230,
    "Ġseizure": 21969,
    "Ġ34": 16687,
    "Ġtokens": 1773,
    "flies": 19433,
    "Ġtiresome": 26165,
    "Ġresentful": 24646,
    "educ": 10831,
    "alously": 15634,
    "while": 2937,
    "Ġmouth": 3178,
    "Ġwrite": 3822,
    "balls": 12306,
    "Ġbermud": 26447,
    "Ġexploitation": 2345,
    "Ġenglishmen": 19439,
    "Ġtrance": 12846,
    "jumping": 20253,
    "Ġyoungest": 7954,
    "leap": 21373,
    "yingly": 23071,
    "Ġwhereof": 16111,
    "Ġwallowed": 24052,
    "reg": 2180,
    "Ġtimber": 13351,
    "pered": 4203,
    "Ġlogical": 14491,
    "Ġalex": 15142,
    "Ġpointing": 5662,
    "Ġanybody": 5316,
    "heavenly": 20051,
    "oes": 4439,
    "ĠĠĠĠĠĠĠĠĠĠĠĠĠĠĠĠ": 1216,
    "Ġsultanism": 25897,
    "Ġdism": 9771,
    "Ġfigured": 16653,
    "instant": 8658,
    "ories": 4757,
    "Ġsinusoidal": 4805,
    "Ġgravely": 7883,
    "practised": 20255,
    "Ġfanatic": 23404,
    "Ġfaintly": 14927,
    "Ġdaniel": 15120,
    "within": 6732,
    "Ġcharlotte": 3889,
    "Ġbroom": 18916,
    "obliv": 23108,
    "sadly": 25534,
    "Ġleeward": 6212,
    "racts": 14362,
    "Ġdismally": 20222,
    "Ġmassacre": 20556,
    "T": 56,
    "Ġcorrect": 2435,
    "Ġvort": 18202,
    "utting": 17993,
    "Ġspeech": 4613,
    "Ġunheeded": 18270,
    "Ġspringing": 10524,
    "Ġbended": 21391,
    "Ġexam": 3710,
    "vex": 21703,
    "Ġswash": 23065,
    "feels": 22511,
    "iless": 10287,
    "Ġbloody": 9890,
    "Ġduncan": 13464,
    "Ġquee": 1978,
    "ency": 3868,
    "Ġfew": 1206,
    "Ġexplanations": 15919,
    "Ġstrokes": 16779,
    "Ġannot": 15607,
    "desp": 6076,
    "Ġengaged": 3427,
    "Ġimpropriety": 17402,
    "mentioning": 24898,
    "smug": 23919,
    "Ġvertical": 16614,
    "ĠĠĠĠĠĠĠĠĠĠĠĠĠĠĠĠĠĠĠĠĠĠĠĠĠĠĠĠĠĠĠĠĠĠĠĠĠĠĠĠĠ": 19593,
    "Ġmarry": 4423,
    "stirred": 20431,
    "Ġcontains": 2799,
    "civil": 7796,
    "Ġeventually": 8618,
    "wealth": 22698,
    "Ġsabbee": 17262,
    "Ġdownwards": 8531,
    "Ġaddressed": 5265,
    "lig": 3171,
    "Ġintegration": 9871,
    "Ġrepulsive": 14536,
    "Ġstability": 1365,
    "irectly": 6943,
    "suited": 22651,
    "Ġstirs": 14929,
    "Ġsnail": 19308,
    "concern": 6100,
    "bott": 9109,
    "previous": 9765,
    "Ġlou": 6825,
    "aper": 5001,
    "Ġfarm": 7840,
    "Ġclergyman": 8714,
    "iii": 14786,
    "Ġhopes": 4238,
    "Ġthorough": 6246,
    "nuee": 17438,
    "Ġindul": 5860,
    "Ġassid": 18924,
    "Ġhoofs": 14533,
    "apprehens": 17414,
    "guest": 19488,
    "Ġgirdle": 19168,
    "Ġalive": 4404,
    "Ġstarbuck": 2189,
    "Ġrains": 24354,
    "Ġforming": 7043,
    "Ġemerged": 8686,
    "learnt": 23586,
    "Ġcrags": 23541,
    "Ġpurely": 12232,
    "Ġmaterially": 12192,
    "Ġinvari": 6530,
    "Ġappeals": 16324,
    "Ġdecently": 22444,
    "Ġmak": 10781,
    "C": 39,
    "Ġanswered": 2856,
    "Ġforlorn": 14019,
    "Ġflirting": 16257,
    "fen": 20859,
    "Ġapprised": 18367,
    "iece": 3227,
    "Ġcursed": 6731,
    "Ô": 149,
    "helm": 12173,
    "arr": 3045,
    "Ġsnarl": 25723,
    "published": 26151,
    "Ġplatform": 17139,
    "wor": 3414,
    "Ġauthentic": 20543,
    "searching": 25116,
    "Ġcomical": 11682,
    "Ġshining": 8173,
    "Ġconduct": 3732,
    "uing": 17701,
    "nical": 21000,
    "Ġoffended": 7041,
    "Ġeluc": 16118,
    "rent": 1168,
    "exasper": 22436,
    "Ġfinding": 3262,
    "cent": 8071,
    "Ġpretext": 22234,
    "ety": 3517,
    "batim": 25029,
    "time": 3146,
    "Ġsundry": 20081,
    "venty": 6426,
    "yl": 7818,
    "Ġattics": 22637,
    "Ġfertile": 20591,
    "Æ": 135,
    "Ġtempestuous": 20078,
    "Ġfurious": 10359,
    "affect": 13216,
    "Ġalert": 18109,
    "Ġah": 5079,
    "coach": 23573,
    "Ġbel": 1213,
    "Ġcomfortable": 6095,
    "elsewhere": 19874,
    "Ġdz": 4760,
    "Ġbulldog": 23869,
    "Ġlucky": 7758,
    "Ġdisinclined": 22539,
    "Ġnapole": 15124,
    "rift": 11524,
    "Ġobservation": 6638,
    "Ġcreativity": 2658,
    "Ġhonorable": 16883,
    "Ġexile": 12719,
    "Ġenvironment": 4104,
    "oner": 6125,
    "Ġapproached": 5847,
    "Ġspoke": 2754,
    "Ġsurprised": 3831,
    "ampton": 18154,
    "Ġrec": 894,
    "Ġwa": 1754,
    "Ġrespects": 7271,
    "ĠâĢĶ": 13815,
    "Ġoperated": 14556,
    "Ġinexpressible": 17339,
    "æ": 167,
    "Ġfrankness": 16757,
    "Ġirrad": 19105,
    "Ġsymph": 22212,
    "Ġoverlooked": 15980,
    "Ġmeeting": 5197,
    "arrow": 4185,
    "Ġcorpse": 6640,
    "olera": 21831,
    "Ġowner": 8925,
    "sincere": 16915,
    "holloa": 19473,
    "Ġstained": 11654,
    "imin": 1770,
    "Ġacres": 14318,
    "Ġspoil": 17014,
    "worship": 19396,
    "Ġboisterous": 20450,
    "ctive": 11625,
    "purse": 20031,
    "tried": 13798,
    "ert": 2427,
    "derer": 4603,
    "Ġearlier": 9090,
    "Ġstronger": 8581,
    "Ġdiligently": 11410,
    "Ġportent": 12083,
    "Ġpython": 1068,
    "Ġarchitects": 18743,
    "iform": 2195,
    "Ġbelrive": 18840,
    "Ġproble": 1112,
    "Ġdeemed": 7612,
    "Ġacquisition": 18910,
    "Ġmedicine": 15214,
    "Ġannihilated": 20260,
    "eu": 17538,
    "atmosphere": 21272,
    "Ġconsol": 3816,
    "Ġchristmas": 6927,
    "Ġprophet": 7680,
    "Ġbasin": 19854,
    "loops": 12884,
    "<MASK>": 4,
    "suspended": 15186,
    "Ġass": 1444,
    "Ġhaunt": 18206,
    "gments": 12469,
    "Ġbuilded": 24732,
    "commer": 22837,
    "blu": 12441,
    "plifted": 9715,
    "Ġorb": 22095,
    "perpendicular": 14167,
    "Ġcl": 552,
    "rivest": 23535,
    "Ġsimil": 2534,
    "orate": 10803,
    "Ġmoby": 3663,
    "Ġant": 4351,
    "Ġcorpor": 23051,
    "sweetly": 25146,
    "elizabeth": 1984,
    "Ġhighlands": 22789,
    "Ġmission": 13006,
    "Ġdiminish": 14754,
    "Ġmarshal": 20227,
    "accident": 11185,
    "Ġpossessor": 23832,
    "Ġpurposes": 11172,
    "Ġvalidate": 3363,
    "Ġthunder": 4826,
    "ascertain": 21548,
    "Ġlarge": 1063,
    "Ġrig": 4229,
    "Ġsw": 1356,
    "Ġstaircase": 20103,
    "marvell": 24185,
    "ron": 5219,
    "pos": 15417,
    "Ġindispens": 22964,
    "Ġchowder": 10285,
    "Ġnarr": 5089,
    "arth": 4301,
    "versed": 9827,
    "Ġjoint": 12037,
    "Ġphys": 5493,
    "Ġsulkily": 25891,
    "noticed": 14346,
    "pless": 6260,
    "rity": 13779,
    "angling": 14145,
    "smo": 10129,
    "escaped": 14235,
    "Ġincognit": 22564,
    "Ġinsolent": 13602,
    "fl": 3596,
    "Ġfatally": 19403,
    "Ġwinding": 8237,
    "Ġthan": 736,
    "Ġoverspread": 14210,
    "iqu": 7802,
    "diff": 9117,
    "Ġwield": 21298,
    "Ġparameters": 992,
    "jected": 22723,
    "Ġecstasy": 11632,
    "Ġcommunicates": 24561,
    "scheme": 15262,
    "Ġbuoyed": 20047,
    "Ġciv": 3306,
    "Ġmediocr": 24095,
    "Ġchains": 8251,
    "Ġalarming": 14791,
    "Ġspiritual": 9932,
    "Ġexpect": 2302,
    "Ġschools": 9482,
    "Ġshowing": 7731,
    "Ġskilfully": 20531,
    "Ġriggers": 24170,
    "Ġparading": 23721,
    "Ġspies": 22128,
    "Ġimpassable": 20622,
    "Ġphilips": 5411,
    "Ġbeasts": 10622,
    "liked": 10512,
    "Ġbowled": 23779,
    "Ġrural": 21972,
    "Ġlowering": 7987,
    "Ġscalable": 1631,
    "Ġder": 1498,
    "ail": 566,
    "Ġspade": 9265,
    "Ġcove": 22592,
    "althily": 19368,
    "ellation": 12750,
    "Ġpair": 5708,
    "ute": 4646,
    "Ġweep": 7619,
    "¾": 127,
    "!--": 10681,
    "chants": 21697,
    "Ġtalent": 12298,
    "rador": 19170,
    "gazing": 12472,
    "ization": 485,
    "Ġscrut": 15955,
    "Ġsaturation": 2059,
    "Ġtangles": 25770,
    "rived": 3048,
    "Ġapproximate": 2340,
    "shore": 10310,
    "Ġconverse": 11845,
    "Ġtoo": 1164,
    "stand": 622,
    "anced": 1292,
    "ct": 309,
    "Ġentropy": 2029,
    "Ġrepublican": 17420,
    "Ġvariations": 22676,
    "Ġconcer": 23334,
    "glings": 23861,
    "Ġqueequeg": 2011,
    "standers": 18487,
    "pronounce": 25203,
    "indeed": 4492,
    "oquent": 12501,
    "would": 2349,
    "wish": 8100,
    "Ġquote": 18476,
    "Ġimpart": 11781,
    "Ġunerringly": 18273,
    "Ġsagacity": 16980,
    "Ġindelicacy": 25703,
    "Ġdistracted": 11804,
    "Ġmiguel": 25775,
    "frame": 17124,
    "Ġnods": 19070,
    "opposition": 24836,
    "Ġtash": 13824,
    "ivened": 22975,
    "Ġbordering": 17236,
    ":--âĢľ": 24564,
    "examine": 25486,
    "contrad": 19301,
    "fast": 3072,
    "power": 7137,
    "Ġanecd": 20163,
    "fs": 17543,
    "Ġagreement": 18550,
    "Ġconcent": 8250,
    "Ġvapory": 17013,
    "Ġostentatiously": 20476,
    "reference": 13844,
    "Ġshud": 5464,
    "ulged": 12732,
    "Ġmore": 677,
    "droppers": 24773,
    "Ġpleadings": 25861,
    "Ġfar": 1451,
    "inities": 21193,
    "Ġboy": 3766,
    "tub": 9148,
    "dreaded": 25150,
    "Ġcowards": 12574,
    "Ġperplex": 2721,
    "Ġfishe": 15591,
    "jam": 15379,
    "lest": 5291,
    "Ġcalms": 23053,
    "Ġvigilance": 12372,
    "Ġacc": 574,
    "ison": 3076,
    "Ġbolted": 12245,
    "Ġbutter": 6845,
    "`": 68,
    "Ġmuslin": 19392,
    "Ç": 136,
    "ada": 14015,
    "condem": 16352,
    "Ġcap": 2359,
    "halfway": 24325,
    "Ġflag": 7244,
    "Ġconstructed": 9582,
    "drawers": 19395,
    "globe": 25154,
    "ele": 9118,
    "Ġsatisfying": 23704,
    "Ġmenaced": 16301,
    "Ġhired": 10182,
    "bank": 10083,
    "rimshander": 20665,
    "Ġindex": 17056,
    "Ġblending": 14405,
    "Ġtows": 19573,
    "Ġintolerably": 15837,
    "Ġlobes": 22119,
    "Ġcloser": 8662,
    "Ġfondly": 19627,
    "ulled": 14060,
    "Ġhistorically": 19387,
    "chess": 16583,
    "fordshire": 4680,
    "lust": 15387,
    "Ġcoff": 3504,
    "find": 6957,
    "Ġends": 8239,
    "Ġwickedness": 9531,
    "Ġyielded": 14884,
    "Ġdinah": 9458,
    "fearing": 18540,
    "Ġmillions": 11360,
    "Ġno": 509,
    "elzebub": 26472,
    "Ġwe": 387,
    "cous": 8724,
    "Ġtomb": 8810,
    "Ġsting": 10864,
    "Ġinde": 7372,
    "Ġbury": 12044,
    "ċ": 204,
    "gam": 10099,
    "Ġscents": 22294,
    "familiar": 19790,
    "istan": 22112,
    "grate": 23424,
    "Ġnavel": 24593,
    "uncommonly": 25557,
    "respectively": 24713,
    "Ġannounce": 13325,
    "stalk": 21649,
    "achines": 1721,
    "Ġcontrary": 5263,
    "Ġreasonably": 11094,
    "Ġcoming": 2618,
    "Ġineffable": 17338,
    "Ġcircumspection": 25893,
    "Ġresearches": 13139,
    "umns": 14152,
    "Ġsteering": 10393,
    "unched": 10241,
    "estruct": 22228,
    "thread": 15834,
    "Ġrazor": 22665,
    "Ġform": 1024,
    "Ġinn": 4593,
    "Ġburnt": 9930,
    "quished": 21848,
    "scores": 22997,
    "Ġseen": 1372,
    "damp": 15351,
    "Ġmrs": 1468,
    "Ġbleached": 24412,
    "magnifying": 25401,
    "wicked": 24465,
    "(_": 7539,
    "lemag": 21378,
    "Ġneskyeuna": 26467,
    "Ġbring": 3321,
    "Ġaug": 6235,
    "linearity": 1651,
    "beam": 16048,
    "Ġgrappling": 25821,
    "Ġpermanently": 25482,
    "Ġat": 395,
    "!âĢĿ": 846,
    "Ġshutting": 14772,
    "delay": 16708,
    "Ġstab": 10865,
    "Ġcake": 12570,
    "stupid": 12677,
    "Ġbro": 1430,
    "Ġfrigate": 13083,
    "chorus": 19818,
    "amuse": 14056,
    "Ġerred": 21164,
    "Ġwhence": 5843,
    "mort": 10714,
    "Ġvancouver": 26574,
    "quee": 4133,
    "rier": 9248,
    "Ġmostly": 7662,
    "Ġelopement": 10335,
    "Ġgratified": 8021,
    "pen": 1200,
    "Ġdecember": 15019,
    "garet": 9604,
    "raged": 9219,
    "Ġ132": 19904,
    "Ġshreds": 12771,
    "Ġrighted": 23189,
    "angry": 18302,
    "Ġwig": 9169,
    "Ġpurchase": 12260,
    "Ġagony": 5389,
    "Ġthre": 2056,
    "Ġnuts": 17960,
    "summoned": 26599,
    "X": 60,
    "keel": 14133,
    "Ġlongbourn": 3505,
    "Ġactive": 7915,
    "accomplishments": 25336,
    "Ġostlers": 25289,
    "solid": 16390,
    "Ġdiameter": 19873,
    "Ġrespectable": 6738,
    "Ġhates": 21491,
    "distinct": 13338,
    "ld": 385,
    "Ġreferences": 21679,
    "travellers": 24332,
    "Ġinherited": 25363,
    "Ġqu": 605,
    "Ġsovere": 9262,
    "Ġsnugly": 17119,
    "Ġmax": 2004,
    "rooms": 10437,
    "Ġmand": 21312,
    "Ġcows": 15558,
    "izz": 7613,
    "ī": 236,
    "Ġsettee": 22931,
    "ľ": 255,
    "Ġfraud": 19100,
    "Ġincommod": 25317,
    "Ġnobleman": 19401,
    "Ġfacetious": 20592,
    "Ġperiodically": 19504,
    "Ġ25": 13195,
    "ignific": 11958,
    "Ġpremium": 23912,
    "sometimes": 5971,
    "liberal": 26290,
    "telesc": 22826,
    "Ġelemental": 19927,
    "||": 4872,
    "Ġtoler": 7587,
    "ressed": 3024,
    "life": 4934,
    "Ġunhinged": 26225,
    "âĢľâĢĶ": 10875,
    "flu": 9121,
    "Ġcontain": 1552,
    "Ġbundles": 26184,
    "Ġaccordingly": 6621,
    "Ġshag": 9257,
    "soles": 18698,
    "wind": 4256,
    "Ġandrew": 21512,
    "rippling": 24727,
    "Ġneared": 14078,
    "appearing": 14645,
    "Ġchecking": 23299,
    "Ġresource": 10996,
    "holes": 12056,
    "sought": 15434,
    "Ġrelatives": 12981,
    "alization": 733,
    "Ġarched": 10935,
    "Ġfru": 8421,
    "Ġsab": 10765,
    "Ġscruples": 15087,
    "Ġprophesy": 26070,
    "Ġreturns": 11927,
    "solemn": 19824,
    "Ġsurmised": 24932,
    "agement": 4193,
    "Ġfoul": 7160,
    "Ġconverted": 16121,
    "mix": 20983,
    "allers": 22197,
    "Ġrouse": 15829,
    "Ġcandle": 8293,
    "hid": 13736,
    "Ġestablishment": 13581,
    "exercise": 17467,
    "Ġpaused": 5417,
    "Ġglimmer": 15150,
    "Ġtoss": 10189,
    "scratch": 26051,
    "enge": 21288,
    "Ġsulk": 15054,
    "practical": 17229,
    "opy": 4463,
    "Ġinitialized": 3951,
    "Ġgrievances": 20554,
    "Ġhave": 445,
    "ental": 7169,
    "Ġjustified": 11905,
    "vint": 21122,
    "cadence": 26134,
    "Ġwaist": 6897,
    "Ġjunks": 25126,
    "Ġheire": 18044,
    "Ġsublim": 19973,
    "obtained": 23107,
    "savor": 25037,
    "Ġgravesend": 15225,
    "Ġscor": 8192,
    "Ġsuit": 5727,
    "amiable": 14057,
    "poises": 11890,
    "Ġspiteful": 19532,
    "Ġgrimes": 11037,
    "mathematics": 26313,
    "Ġtricks": 13486,
    "Ġgodly": 19087,
    "generative": 4334,
    "Ġtunnels": 24633,
    "othing": 6997,
    "greatly": 16635,
    "peddling": 24709,
    "Ġautumnal": 19052,
    "Ġfaculties": 14968,
    "inisc": 15495,
    "Ġunconditional": 15853,
    "Ġpleasurable": 23352,
    "Ġprop": 1681,
    "promised": 12252,
    "Ġglu": 15674,
    "ers": 404,
    "gives": 15365,
    "Ġspaniard": 20369,
    "Ġlaughter": 9031,
    "Ġeigen": 4884,
    "Ġgenerously": 22407,
    "Ġsequel": 14361,
    "Ġrepeating": 11217,
    "bergen": 14331,
    "sent": 760,
    "Ġinsufficient": 9679,
    "les": 1018,
    "Ġlangsdorff": 15284,
    "features": 14759,
    "but": 591,
    "Ġgunw": 6214,
    "Ġswells": 9829,
    "Ġvigil": 9512,
    "Ġdaw": 21435,
    "Ġspilled": 10926,
    "vessel": 11382,
    "ce": 313,
    "Ġgag": 21598,
    "Ġundone": 24131,
    "Ġfinest": 10398,
    "Ġbraved": 23847,
    "wl": 17711,
    "Ġnotions": 14103,
    "arthur": 14826,
    "disappo": 8988,
    "lonely": 20966,
    "threw": 21989,
    "bewil": 22508,
    "actions": 8910,
    "Ġforgot": 4687,
    "Ġdefence": 11070,
    "Ġadmired": 7982,
    "popular": 26149,
    "diversity": 25906,
    "Ġpalmed": 24102,
    "Ġdrawling": 19446,
    "volous": 18593,
    "Ġbounce": 21399,
    "pour": 17638,
    "Ġcultiv": 13557,
    "Ġsovereign": 10065,
    "Ġknow": 631,
    "Ġunprinciple": 18263,
    "urried": 21709,
    "Ġbegat": 18874,
    "Ġimpet": 11780,
    "Ġoblong": 14326,
    "somehow": 12013,
    "Ġir": 1990,
    "Ġformerly": 7493,
    "plutarch": 21962,
    "lin": 9610,
    "Ġmalicious": 10563,
    "Ġprotruded": 19479,
    "Ġly": 2264,
    "rasing": 21053,
    "ocean": 12402,
    "Ġtowed": 11270,
    "Ġpreliminary": 10060,
    "scythes": 26411,
    "Ġunconcerned": 20517,
    "Ġpicturesqueness": 24501,
    "Ġnewfoundland": 26578,
    "Ġhandling": 8916,
    "could": 2877,
    "Ġbowels": 9436,
    "Ġalter": 6544,
    "Ġeddies": 23450,
    "inno": 10759,
    "quit": 15767,
    "Ġsurm": 7476,
    "swear": 16925,
    "Ġfootman": 8289,
    "inferior": 12395,
    "Ġsupport": 6729,
    "Ġdearer": 14053,
    "Ġsuspects": 16897,
    "Ġmatrimonial": 25498,
    "Ġepaulets": 24918,
    "Ġfin": 1460,
    "Ġextended": 7924,
    "Ġlistless": 16484,
    "witted": 17716,
    "ograph": 4801,
    "ipl": 20927,
    "Ġvide": 10256,
    "mut": 17603,
    "Ġharpooneer": 3773,
    "phur": 16161,
    "Ġkettle": 26241,
    "Ġunfathomably": 25882,
    "Ġcompetent": 11817,
    "Ġordinarily": 20658,
    "robust": 19737,
    "Ġ121": 24486,
    "Ġisrael": 21808,
    "developed": 15272,
    "rippa": 11345,
    "alluring": 18359,
    "ounders": 22400,
    "were": 2559,
    "Ġmemory": 2270,
    "Ġadd": 630,
    "Ġvalue": 2080,
    "shoals": 24730,
    "Ġhandspike": 22708,
    "gorith": 553,
    "Ġappe": 1538,
    "Ġaback": 22273,
    "industrious": 26248,
    "cause": 7795,
    "contin": 16552,
    "state": 13978,
    "Ġlabeled": 3717,
    "Ġlic": 8437,
    "telescope": 26571,
    "Ġwishing": 7830,
    "every": 2814,
    "Ġ221": 25081,
    "fish": 3512,
    "Ġunexpectedly": 19917,
    "Ġ109": 24432,
    "Ġoutriders": 26552,
    "Ġargue": 16793,
    "Ġdissip": 10995,
    "Ġbethink": 12380,
    "felt": 5891,
    "Ġbeadle": 26492,
    "Ĉ": 201,
    "python": 4695,
    "richard": 17292,
    "Ġreward": 6145,
    "Ġdidst": 11850,
    "Ġattacking": 24485,
    "Ġdoleful": 18386,
    "fiend": 13662,
    "Ġundo": 15849,
    "Ġuncompromised": 20613,
    "Ġtechni": 1724,
    "Ġnormal": 1199,
    "Ġuprising": 12804,
    "Ġvictims": 19811,
    "Ġdiversity": 25297,
    "lur": 13749,
    "Ġbulk": 5594,
    "heidelburgh": 21219,
    "Ġvectors": 1772,
    "Ġcar": 1421,
    "Ġparties": 7039,
    "Ġcontemplation": 11363,
    "itying": 21999,
    "Ġpsychology": 11453,
    "Ġplenty": 6711,
    "rief": 6204,
    "Ġblooming": 17220,
    "Ġobst": 6574,
    "Ġindirect": 18845,
    "folding": 24940,
    "Ġohio": 19140,
    "ii": 4015,
    "talk": 6658,
    "Ġscratch": 25572,
    "smitten": 23920,
    "Ġnarrating": 24366,
    "Ġbleeds": 24413,
    "Ġsentin": 16384,
    "chor": 6147,
    "Ġsnapped": 9899,
    "Ġchamber": 6215,
    "Ġshrubbery": 18241,
    "Ġpauper": 26188,
    "Ġplaguy": 22617,
    "Ġplant": 8903,
    "Ġdeliriously": 23240,
    "aging": 2233,
    "Ġblown": 12087,
    "returned": 7765,
    "gorge": 22345,
    "Ġvagueness": 25745,
    "Ġmomentarily": 22821,
    "arman": 11598,
    "Ġspin": 7629,
    "Ġdigress": 24663,
    "Ġclings": 15973,
    "readiness": 19372,
    "Ġmuster": 16131,
    "stricken": 9886,
    "Ġthereby": 7643,
    "Ġmulti": 1045,
    "appearance": 5336,
    "otam": 21803,
    "Ġthose": 1170,
    "itect": 964,
    "Ġtravel": 5952,
    "Ġceiling": 7996,
    "common": 4131,
    "Ġjerked": 19839,
    "Ġum": 10217,
    "rucastle": 22204,
    "Ġharpooneers": 4737,
    "Ġreced": 15698,
    "Ġenh": 3133,
    "Ġver": 3393,
    "letter": 6202,
    "icting": 12854,
    "Ġanon": 9673,
    "icates": 11620,
    "Ġsod": 11565,
    "Ġorbs": 22096,
    "Ġexchanging": 18140,
    "Ġalternately": 15043,
    "hooked": 23726,
    "days": 7687,
    "going": 6312,
    "entreat": 17984,
    "Ġdu": 4587,
    "ceased": 21631,
    "ountain": 2922,
    "Ġsumat": 14140,
    "idays": 21775,
    "Ġtakes": 5009,
    "feeling": 6618,
    "Ġgin": 13965,
    "Ġsteady": 4850,
    "manif": 14378,
    "Ġconfeder": 25716,
    "Ġleatherhead": 20019,
    "Ġdeactivates": 20712,
    "possible": 5745,
    "has": 4014,
    "mot": 17604,
    "Ġrapid": 1448,
    "unwho": 21883,
    "Ġbrains": 2633,
    "Ġinvoking": 19156,
    "itself": 7834,
    "Ġkilburn": 18358,
    "collinses": 19931,
    "Ġnoble": 3436,
    "weigh": 18677,
    "Ġlustre": 15143,
    "Ġovers": 14209,
    "Ġpupp": 10823,
    "Ġwrithing": 11947,
    "disp": 7976,
    "Ġscho": 4442,
    "Ġdeclaring": 19429,
    "Ġwrung": 14476,
    "Ġvor": 15814,
    "Ġdesigns": 13013,
    "Ġosc": 2839,
    "beneath": 9540,
    "robotics": 11311,
    "Ġpolicy": 10463,
    "Ġpalp": 11255,
    "Ġexh": 5235,
    "Ġcomfor": 14058,
    "Ġbaron": 19344,
    "ominy": 13986,
    "Ġthom": 21521,
    "Ġslew": 23395,
    "uvier": 9072,
    "eteenth": 20166,
    "Ġcourtiers": 24151,
    "Ġprominence": 18963,
    "affair": 14663,
    "Ġdignified": 15603,
    "Ġsund": 8249,
    "shaped": 10313,
    "prec": 3199,
    "Ġpays": 13298,
    "Ġstory": 2905,
    "you": 1007,
    "itive": 6671,
    "sets": 17668,
    "gan": 2193,
    "clothes": 9061,
    "Ġavoided": 13250,
    "Ġmizen": 17265,
    "Ġfootsteps": 16582,
    "Ġdifferent": 1428,
    "ction": 502,
    "Ġbritannica": 24693,
    "head": 1436,
    "illity": 18304,
    "Ġobserving": 6086,
    "Ġpalpitated": 26094,
    "inent": 9635,
    "Ġencomp": 12964,
    "Ġzero": 1198,
    "tal": 17678,
    "Ġorders": 5343,
    "Ġtak": 15476,
    "Ġtail": 3090,
    "Ġdeserve": 8313,
    "Ġsilvery": 13095,
    "ascribed": 24721,
    "Ė": 215,
    "Ġpatroness": 13511,
    "Ġvag": 9713,
    "Ġhatter": 4115,
    "Ġswamp": 14442,
    "Ġhousings": 21498,
    "Ġtraps": 23091,
    "Ġskull": 6287,
    "opening": 10318,
    "Ġenchantment": 24882,
    "bted": 7793,
    "Ġunctuous": 10272,
    "Ġregained": 18604,
    "Ġirish": 14541,
    "igations": 18051,
    "Ġdistrusting": 25066,
    "Ġslugg": 15276,
    "erman": 5112,
    "Ġten": 2381,
    "Ġhelping": 3264,
    "Ġloading": 15883,
    "guess": 14765,
    "Ġinadequate": 17945,
    "Ġtongues": 14875,
    "eze": 20856,
    "Ġrepugnant": 26598,
    "Ġmapp": 2077,
    "mounting": 25218,
    "Ġincessant": 15106,
    "Ġobsolete": 26567,
    "Ġexter": 7611,
    "\"": 6,
    "Ġbrig": 11050,
    "Ġsynd": 22211,
    "Ġproduced": 2455,
    "Ġvapors": 19916,
    "Ġdestro": 3721,
    "Ġrates": 1406,
    "Ġenchant": 7186,
    "Ġdry": 5626,
    "reement": 15517,
    "Ġseeming": 8542,
    "utch": 21591,
    "Ġfelony": 18961,
    "Ġideal": 13123,
    "Ġcountenances": 11967,
    "Ġwanted": 4970,
    "Ġmice": 13863,
    "put": 414,
    "onial": 11570,
    "Ġshamefully": 24729,
    "Ġinterpreter": 23227,
    "Ġweek": 2831,
    "spout": 7923,
    "Ġadvert": 10577,
    "Ġmemo": 18127,
    "Ġnote": 4267,
    "oboam": 9364,
    "Ġloved": 4602,
    "toller": 20680,
    "burst": 10543,
    "reached": 13845,
    "Ġroylott": 7307,
    "Ġcollections": 22868,
    "Ġthrows": 14746,
    "rip": 9247,
    "Ġhere": 1089,
    "Ġinterpret": 5494,
    "Ġwolves": 25943,
    "proves": 23406,
    "brushing": 20797,
    "Ġmac": 15544,
    "belief": 13284,
    "Ġreflections": 5945,
    "Ġfished": 21416,
    "Ġcane": 10930,
    "water": 4871,
    "derment": 22165,
    "Ġlucifers": 16598,
    "Ġbenevolence": 9532,
    "othed": 16520,
    "slow": 7810,
    "Ġhang": 9195,
    "Ġcurrent": 13023,
    "germans": 20574,
    "Ġjail": 22301,
    "Ġneedle": 8276,
    "etuous": 21588,
    "engines": 18938,
    "Ġdisappointment": 6628,
    "brad": 20790,
    "Ġcorpusants": 13679,
    "Ġchanged": 5246,
    "Ġcool": 5736,
    "hark": 15373,
    "disc": 4734,
    "ped": 6364,
    "Ġexclude": 19050,
    "Ġlogic": 13079,
    "irs": 15791,
    "Ġshovel": 23503,
    "Ġstiffest": 24842,
    "important": 7114,
    "duchess": 18473,
    "Ġperch": 10304,
    "Ġchose": 7414,
    "Ġmurky": 19215,
    "Ġty": 6659,
    "Ġmincing": 18764,
    "ithmetic": 18069,
    "rudent": 6481,
    "restrained": 16345,
    "modern": 1157,
    "Ġindividual": 5746,
    "situation": 11442,
    "seek": 8840,
    "oker": 10966,
    "itoring": 21338,
    "frightened": 17203,
    "Ġsuffice": 18880,
    "heading": 5490,
    "Ġmouse": 4697,
    "abulary": 4804,
    "Ġlard": 13951,
    "chanced": 18821,
    "Ġscope": 15953,
    "Ġendeav": 2957,
    "Ġscraps": 16911,
    "Ġstruggles": 16588,
    "Ġgriev": 14713,
    "laborers": 23916,
    "Ġbolt": 11339,
    "Ġforehead": 5264,
    "lightened": 12067,
    "yourself": 6743,
    "Ġsparks": 22132,
    "Ġ182": 13239,
    "fif": 9120,
    "Ġlivel": 11361,
    "harpoone": 6108,
    "Ġheeds": 24534,
    "Ġdegrees": 7296,
    "Ġdecency": 18491,
    "Ġarmies": 16503,
    "Į": 239,
    "Ġdoxology": 22251,
    "Ġhelped": 7459,
    "grey": 14922,
    "game": 11495,
    "Ġcrowds": 14748,
    "Ġdevoured": 16144,
    "overed": 2857,
    "produce": 20289,
    "Ġsister": 1475,
    "Ġspreading": 13380,
    "Ġbingleys": 19006,
    "Ġdut": 2990,
    "jury": 15381,
    "Ġaccompl": 5170,
    "Ġestimation": 11222,
    "thyself": 19321,
    "mile": 17605,
    "Ġgardener": 19146,
    "Ġcaprice": 14585,
    "being": 3913,
    "Ġeligible": 10674,
    "dum": 17526,
    "Ġdiscredit": 22794,
    "yesterday": 10358,
    "inn": 5366,
    "Ġjourneying": 25573,
    "Ġmedit": 8018,
    "Ġintervals": 5599,
    "_.": 2208,
    "Ġcomprise": 18597,
    "Ġfamiliarity": 16739,
    "middle": 11315,
    "writing": 7720,
    "Ġultimate": 12350,
    "Ġjoining": 13167,
    "Ġsodden": 25543,
    "peace": 13049,
    "mat": 2194,
    "raise": 18020,
    "âĢĻ-": 18174,
    "Ġconsumed": 10355,
    "Ġcomputer": 1184,
    "Ġhatherley": 7848,
    "Ġantique": 19562,
    "unciation": 25991,
    "Ġsafie": 6619,
    "Ġberries": 13410,
    "cannibal": 15233,
    "olence": 10235,
    "ille": 8827,
    "Ġcomplaint": 24790,
    "Ġtranspointed": 22476,
    "Ġcoins": 11820,
    "thinness": 25819,
    "Ġsob": 12786,
    "maybe": 24000,
    "handled": 19271,
    "Ġapplicable": 19029,
    "Ġgour": 21603,
    "Ġloite": 22115,
    "Ġfav": 1755,
    "Ġresc": 4510,
    "patched": 17651,
    "Ġlocked": 6035,
    "Ġanalyze": 1595,
    "Ġhulls": 13930,
    "amaz": 21856,
    "heav": 5696,
    "king": 3060,
    "Ġob": 861,
    "umbent": 12097,
    "Ġresolutely": 14617,
    "Ġaggregate": 25685,
    "iciency": 9580,
    "Ġdur": 11595,
    "Ġcallest": 17841,
    "putting": 14104,
    "Ġ128": 24493,
    "devilish": 17089,
    "Ġequally": 5260,
    "bid": 5613,
    "Ġgenerates": 3662,
    "Ġlaure": 16917,
    "iousness": 4901,
    "iated": 5892,
    "judging": 24216,
    "Ġrules": 1916,
    "temper": 10007,
    "Ġhurled": 10434,
    "attracted": 13054,
    "Ġpaced": 7582,
    "hypothe": 25914,
    "Ġingen": 9053,
    "Ġeloquent": 16120,
    "Ġdistinguished": 8274,
    "ipagos": 22370,
    "Ġcompasses": 11272,
    "Ġmonsieur": 12422,
    "Ġcapabilities": 4382,
    "Ġshade": 6552,
    "Ġmeadow": 17159,
    "Ġbulkington": 14685,
    "Ġintentionally": 24537,
    "melancholy": 12354,
    "circumst": 5351,
    "walked": 10576,
    "Ġdaugh": 2288,
    "Ġmir": 9653,
    "Ġxxiv": 24498,
    "Ġstruggled": 9907,
    "Ġvarious": 3506,
    "stige": 21660,
    "duodecimo": 16011,
    "Ġdearest": 5460,
    "Ġtwig": 11851,
    "tolerably": 21103,
    "Ù": 154,
    "Ġmiserable": 3632,
    "Ġble": 5226,
    "clad": 14465,
    "Ġcopper": 7426,
    "sar": 12506,
    "uzz": 4526,
    "Ġjourneys": 19484,
    "Ġwaylaid": 22880,
    "slackened": 26103,
    "Ġvast": 3293,
    "Ġdissatisfied": 14261,
    "Ġpitchpoling": 14921,
    "abbering": 21801,
    "Ġbeneath": 3235,
    "Ġadviser": 25322,
    "Ġabst": 9272,
    "oton": 3603,
    "avish": 22604,
    "rested": 13077,
    "promote": 24740,
    "expectant": 24289,
    "persu": 8028,
    "Ġrumors": 11326,
    "Ġwalking": 4326,
    "Ġarose": 7362,
    "Ġfiltering": 23935,
    "Ġgallop": 19566,
    "Ġefforts": 11808,
    "Ġworst": 7445,
    "Ġantiquity": 15238,
    "Ġembraced": 10009,
    "Ġleaped": 8829,
    "Ġkiller": 19580,
    "Ġdecreasing": 2447,
    "Ġdeact": 18143,
    "Ġseemingly": 9324,
    "Ġemotions": 8973,
    "Ġsurprising": 14605,
    "Ġalmost": 1658,
    "Ġforgiven": 24037,
    "Ġjesty": 18415,
    "Ġbeckoning": 20509,
    "Ġcastor": 19436,
    "Ġrus": 14096,
    "Ġhabitation": 14815,
    "Ġbarrels": 9441,
    "Ġsurpl": 19144,
    "Ġcongeal": 25989,
    "Ġal": 342,
    "dead": 8181,
    "ener": 562,
    "Ġaversion": 18877,
    "lit": 9612,
    "Ġundeserving": 18277,
    "wanderer": 25432,
    "Ġcom": 369,
    "Ġobedient": 20112,
    "Ġfab": 15581,
    "Ġpaul": 12064,
    "kish": 20943,
    "porary": 14560,
    "Ġut": 2274,
    "Ġroof": 6566,
    "Ġsiber": 17765,
    "Ġnimble": 21533,
    "Ġlung": 7168,
    "pool": 16218,
    "however": 4378,
    "Ġtransportation": 13643,
    "rison": 13782,
    "Ġpillows": 24999,
    "print": 23820,
    "yourselves": 24969,
    "Ġhitting": 21492,
    "Ġvanished": 6878,
    "Ġiteratively": 3058,
    "ach": 435,
    "Ġdescried": 7919,
    "Ġsmothered": 20729,
    "Ġexercising": 19915,
    "Ġdexter": 9707,
    "Ġtroublesome": 24011,
    "Ġbruited": 25782,
    "freighted": 14904,
    "Ġstorm": 4304,
    "hes": 1400,
    "Ġhavoc": 15821,
    "putation": 7624,
    "congratulations": 20286,
    "envelope": 17791,
    "reflect": 19871,
    "Ġthames": 13942,
    "Ġgentleness": 8711,
    "Ġruthless": 15293,
    "embow": 21935,
    "Ġbuzz": 24006,
    "Ġsent": 1776,
    "Ġflorid": 17143,
    "Ġoverjoyed": 17465,
    "Ġshaster": 22003,
    "Ġensuing": 12310,
    "eenth": 12461,
    "enterprise": 25005,
    "lost": 8891,
    "irements": 22217,
    "Ġsummit": 7730,
    "Ġstrangled": 24148,
    "======": 9836,
    "Ġplaited": 14289,
    "Ġloathed": 15884,
    "invariably": 26425,
    "erity": 21275,
    "comput": 2096,
    "Ġtattooing": 15039,
    "distinctive": 25734,
    "Ġblend": 14404,
    "83": 13682,
    "really": 6974,
    "Ġreligious": 25134,
    "Ġroses": 11787,
    "Ġjet": 5310,
    "Ġteacher": 22924,
    "Ġskin": 5042,
    "bourne": 19114,
    "ĠĠĠĠĠĠĠĠĠĠĠĠĠĠĠĠĠĠĠĠĠĠĠĠĠĠĠĠĠĠĠĠĠĠĠĠĠĠĠĠĠĠĠĠĠĠĠĠĠĠĠ": 20045,
    "understood": 13220,
    "Ġlimbs": 5965,
    "Ġshrill": 12143,
    "Ġdreaded": 8290,
    "whiteness": 18380,
    "Ġdoubtful": 19158,
    "elled": 3900,
    "Ġsurvivors": 25740,
    "Ġimpress": 6866,
    "Ġpollard": 20392,
    "circled": 24201,
    "Ġchambermaid": 24318,
    "bal": 2154,
    "Ġjug": 12837,
    "oun": 482,
    "Ġmaintain": 855,
    "pursuit": 20347,
    "pleasantness": 19779,
    "ounding": 22399,
    "Ġpand": 21460,
    "angular": 11724,
    "Ġshoots": 14576,
    "Ġtyrant": 24781,
    "piteous": 21041,
    "Ġbubble": 13536,
    "Ġdrenched": 12604,
    "go": 2060,
    "Ġlaunched": 14937,
    "Ġexultation": 15180,
    "Ġboscombe": 8327,
    "Ġdecent": 10981,
    "Ġfreighted": 16333,
    "exerc": 16025,
    "Ġoarsmen": 7736,
    "Ġfragrant": 13110,
    "ĵ": 246,
    "Ġattack": 5481,
    "itious": 8782,
    "Ġgouge": 26197,
    "Ġparticularly": 5059,
    "oring": 1859,
    "rumours": 23907,
    "Ġinsights": 13182,
    "Ġtransc": 12870,
    "Ġcompassion": 6486,
    "insist": 23075,
    "sailing": 14725,
    "Ġidea": 2492,
    "Ġabsorbing": 17136,
    "Ġkeys": 11998,
    "Ġprettier": 23775,
    "Ġadvantage": 4319,
    "hideous": 25416,
    "Ġdeposit": 17275,
    "warnings": 20358,
    "thee": 9696,
    "shrouded": 26370,
    "Ġimpulsively": 24893,
    "Ġhappiest": 11883,
    "happily": 14665,
    "Ġdisastrous": 16069,
    "Ġstain": 18072,
    "rant": 11521,
    "Ġoccasion": 3243,
    "data": 2219,
    "Ġburke": 19261,
    "Ġsurmis": 23476,
    "Ġprotect": 6336,
    "Ġconvenient": 8347,
    "Ġchas": 18388,
    "ura": 1061,
    "imitably": 21716,
    "Ġdeposition": 18619,
    "Ġ33": 16686,
    "Ġchurches": 12829,
    "Ġimpediments": 26249,
    "Ġdiversion": 17205,
    "Ġmoulton": 17442,
    "Ġelig": 9781,
    "island": 10797,
    "Ġserpent": 6745,
    "Ġchoking": 15943,
    "Ġstrings": 11830,
    "Ġhan": 15623,
    "collins": 6919,
    "Ġqueen": 3211,
    "determined": 9083,
    "attended": 8956,
    "Ġsleet": 8979,
    "Ġhour": 1812,
    "Ġmercy": 9002,
    "Ġflooring": 23636,
    "Ġchocks": 13347,
    "withdrawn": 23038,
    "breast": 11250,
    "Ġ135": 24799,
    "ural": 504,
    "Ġviciously": 24420,
    "glorious": 19376,
    "blame": 14806,
    "Ġjelly": 22307,
    "Ġdissolved": 18564,
    "bel": 3836,
    "dining": 13707,
    "Ġvanquished": 22883,
    "passing": 14824,
    "dish": 12453,
    "Ġfury": 7660,
    "Ġencodings": 4779,
    "prejud": 11797,
    "Ġcheerfulness": 10522,
    "Ġseemed": 1277,
    "tend": 17682,
    "Ġhollowly": 24540,
    "inforcement": 3071,
    "Ġtoday": 12645,
    "ross": 810,
    "Ġfine": 1315,
    "wretch": 17717,
    "Ġscra": 5845,
    "Ġperpet": 7644,
    "vast": 10740,
    "homely": 25626,
    "opotam": 22489,
    "Ġwords": 1325,
    "indulged": 22382,
    "Ġburg": 23666,
    "Ġaids": 12229,
    "Ġcarted": 21355,
    "/*": 10074,
    "Ġseverity": 15828,
    "lestrade": 9663,
    "ribution": 14312,
    "Ġcumulative": 4216,
    "Ġwan": 15534,
    "Ġsecurity": 8981,
    "makes": 10715,
    "Ġsoar": 18286,
    "camp": 15338,
    "Ġdad": 12601,
    "van": 7814,
    "whatever": 6697,
    "itude": 1420,
    "Ġlamented": 25004,
    "Ġdevices": 2943,
    "Ġcuriosity": 2621,
    "urities": 18057,
    "Ġtart": 12529,
    "ch": 321,
    "Ġcreditors": 20137,
    "Ġcalcul": 3635,
    "Ġl": 303,
    "Ġsanely": 24993,
    "zen": 5144,
    "Ġrans": 21971,
    "Ġhalting": 16283,
    "Ġvitality": 15181,
    "terns": 21827,
    "Ġplight": 14287,
    "Ġcombines": 1227,
    "Ġbelf": 21387,
    "fire": 6356,
    "Ġtutored": 20135,
    "around": 12609,
    "Ġgrowing": 6752,
    "Ġshelter": 17015,
    "endured": 22232,
    "forty": 9379,
    "Ġexpecting": 10441,
    "Ġabrid": 22279,
    "iply": 22368,
    "âĢĶâĢĻâĢĿ": 20071,
    "love": 9300,
    "Ġsuppressing": 23006,
    "hardly": 6490,
    "provid": 11152,
    ".]": 15306,
    "mediterranean": 16411,
    "Ġheedfully": 24535,
    "Ġstun": 11652,
    "sailed": 17674,
    "quarried": 24958,
    "ceive": 3064,
    "causing": 25526,
    "further": 7534,
    "izure": 21846,
    "Ġdefinition": 14409,
    "Ġcaptiv": 16263,
    "Ġbuttoning": 17243,
    "Ġkidn": 20214,
    "Ġstudied": 11116,
    "tps": 11539,
    "Ġministers": 22842,
    "phren": 22784,
    "Ġpresumed": 10550,
    "Ġlabor": 10423,
    "lane": 10710,
    "Ġanswerable": 23483,
    "Ġfearlessness": 19172,
    "Ġcongregated": 20104,
    "stee": 21650,
    "removing": 17775,
    "thes": 7392,
    "Ġmiscellaneous": 17470,
    "Ġswaths": 23068,
    "âĢĻ,": 14074,
    "requiem": 24869,
    "agra": 14070,
    "Ġexamining": 8005,
    "Ġpipes": 9851,
    "count": 4218,
    "Ġlabourers": 23344,
    "sme": 17666,
    "Ġlivery": 16009,
    "urn": 777,
    "Ġsweatings": 25718,
    "Ġsolace": 16208,
    "alty": 17947,
    "Ġmounted": 7832,
    "Ġwishes": 4799,
    "Ġswallows": 18893,
    "Ġcables": 15563,
    "Ġaccuse": 14216,
    "Ġcousins": 9917,
    "ods": 8838,
    "cred": 9111,
    "Ġripe": 13262,
    "Ġcircumstance": 4989,
    "Ġlapse": 17128,
    "Ġsimulation": 2758,
    "Ġliking": 23605,
    "Ġhug": 6982,
    "Ġtreachery": 15110,
    "Ġmummy": 25777,
    "Ġmonth": 2853,
    "Ġmonomania": 17092,
    "Ġknees": 6931,
    "address": 14893,
    "much": 3705,
    "Ġvibrated": 25058,
    "ckets": 6846,
    "lashed": 20963,
    "Ġconstable": 19076,
    "Ġpeevish": 26566,
    "Ġcyn": 13890,
    "Ġlat": 5091,
    "Ġagonizing": 17246,
    "unc": 15775,
    "young": 7323,
    "Ġloses": 15882,
    "gracious": 11832,
    "Ġintrig": 21995,
    "Ġreproachfully": 25264,
    "Ġpacifics": 24388,
    "fatality": 25032,
    "Ġfrancisco": 26073,
    "Ġpours": 17918,
    "Ġbidden": 24661,
    "traces": 24329,
    "Ġcounters": 24154,
    "Ġanom": 12612,
    "Ġtherein": 11777,
    "Ġsteward": 6587,
    "Ġslit": 13060,
    "Ġcaw": 13887,
    "Ġhoot": 19083,
    "Ġkeen": 4616,
    "instr": 12532,
    "judges": 19585,
    "Ġpleated": 16307,
    "rew": 3646,
    "ibule": 13007,
    "mosphere": 10046,
    "ored": 3894,
    "Ġbelieve": 2144,
    "Ġunlimited": 26231,
    "Ġsoothe": 7405,
    "Ġrequesting": 24647,
    "Ġinterval": 5977,
    "Ġscratching": 20375,
    "iled": 1765,
    "Ġendeavor": 16555,
    "moid": 2453,
    "Ġimpressive": 15011,
    "ayed": 12714,
    "Ġmusic": 5271,
    "pitchpoling": 25733,
    "Ġinhuman": 13933,
    "Ġderision": 16319,
    "Ġpatchwork": 24155,
    "Ġsar": 21221,
    "critters": 14796,
    "Ġostrich": 26438,
    "Ġenumer": 12746,
    "cook": 8271,
    "language": 5133,
    "Ġturkey": 19229,
    "Ġvigorously": 11304,
    "Ġsplashed": 23759,
    "Ġcups": 16889,
    "germ": 15364,
    "Ġmountainous": 16609,
    "Ġplan": 3882,
    "Ġanticipation": 17064,
    "Ġdivision": 19453,
    "mistak": 16885,
    "burnt": 20087,
    "forehead": 8517,
    "Ġcurved": 18868,
    "Ġsuddenly": 2650,
    "stave": 21648,
    "Ġtormenting": 15113,
    "ox": 9137,
    "Ġimper": 4505,
    "felix": 10657,
    "Ġsweetest": 13249,
    "Ġdow": 17896,
    "Ġavocation": 23929,
    "inclined": 10643,
    "Ġremonstrate": 22805,
    "combination": 25495,
    "isk": 9175,
    "Ġcharitable": 23281,
    ".âĢĿ": 463,
    "cherries": 19765,
    "Ġpurporting": 19193,
    "Ġstiffness": 24843,
    "Ġwed": 3962,
    "Ġamaz": 5386,
    "Ġenl": 18197,
    "Ġterm": 2262,
    "Ġimperfectly": 25735,
    "Ġav": 3467,
    "kne": 20944,
    "Ġharbour": 19986,
    "Ġarrives": 22184,
    "Ġtri": 4817,
    "Ġmidships": 23646,
    "Ġvoc": 4456,
    "ward": 705,
    "Ġmagg": 18915,
    "attain": 21269,
    "Ġravings": 18658,
    "nut": 12495,
    "trap": 24327,
    "Ġsulphur": 24946,
    "Ġcocoan": 20323,
    "questioning": 16859,
    "rebellum": 26174,
    "Ġaslant": 21907,
    "Ġsor": 4149,
    "Ġlewis": 15731,
    "Ġinsert": 19913,
    "Ġtubs": 11375,
    "leton": 5151,
    "jee": 17587,
    "_).": 5890,
    "Ġmusket": 12297,
    "judgment": 16764,
    "kind": 3864,
    "baboon": 25524,
    "Ġarrive": 6851,
    "Ġbodiless": 24240,
    "](": 11471,
    "sto": 3196,
    "Ġpresc": 15934,
    "enary": 12551,
    "Ġmechanically": 14403,
    "Ġrifts": 21980,
    "Ġexceptionable": 25511,
    "Ġpluck": 15619,
    "Ġmart": 10782,
    "Ġsympathise": 16804,
    "enchanted": 26433,
    "Ġpublisher": 24077,
    "Ġlocations": 12414,
    "Ġcharted": 22257,
    "Ġskylarking": 19496,
    "dwelling": 20573,
    "ĥ": 230,
    "Ġruinous": 24648,
    "rarely": 21639,
    "octavo": 11390,
    "Ġcases": 3963,
    "blood": 7779,
    "ibank": 6884,
    "Ġcompose": 12904,
    "Ġstuffed": 13412,
    "Ġnovels": 15938,
    "Ġslow": 2376,
    "smart": 23918,
    "ads": 5720,
    "chapter": 1405,
    "Ġreprehensible": 15705,
    "Ġchace": 14181,
    "icherry": 15144,
    "Ġeleventh": 23380,
    "Ġcapture": 3384,
    "broad": 8644,
    "Ġinquis": 19312,
    "Ġrecollections": 10517,
    "000": 2561,
    "Ġincivility": 18584,
    "asher": 15652,
    "igated": 15713,
    "Ġanaly": 1127,
    "lands": 8242,
    "evinced": 19934,
    "Ġsubtle": 6719,
    "Ġinhale": 20307,
    "completed": 19999,
    "Ġbulky": 13232,
    "Ġsacred": 10933,
    "Ġincarn": 11815,
    "Ġ500": 24342,
    "Ġdragg": 23229,
    "increased": 20278,
    "Ġpalmy": 19508,
    "calcul": 12987,
    "Ġhack": 12757,
    "contains": 16039,
    "Ġbulwarks": 5595,
    "izes": 883,
    "header": 11933,
    "Ġactiv": 834,
    "Ġlegitimate": 20652,
    "Ġnurse": 9522,
    "Ġyon": 9699,
    "ivates": 18283,
    "ationally": 15711,
    "Ġstoke": 10401,
    "Ġdismal": 11811,
    "Ġattach": 14298,
    "eaten": 20351,
    "hands": 5966,
    "Ġexpressive": 8986,
    "Ġclutching": 24964,
    "Ġexult": 10236,
    "Ġswitching": 23067,
    "Ġpronounced": 8352,
    "wheeling": 22878,
    "Ġescapes": 23518,
    "Ġyork": 11667,
    "Ġscal": 1613,
    "Ġoccup": 3739,
    "univers": 15778,
    "Ġwester": 25163,
    "poured": 17645,
    "Ġconference": 15753,
    "Ġreposing": 23372,
    "Ġ43": 14781,
    "Ġnarrower": 24369,
    "olets": 21016,
    "Ġintrospective": 20609,
    "Ġunconscious": 9552,
    "Ġcorrespondence": 10599,
    "Ġheaving": 7599,
    "Ġremorse": 6440,
    "Ġbreathes": 13248,
    "Ġgestic": 21613,
    "Ġprovinc": 16753,
    "Ġroads": 13290,
    "udding": 11866,
    "Ġwild": 2602,
    "Ġweather": 3998,
    "inence": 15488,
    "kington": 11207,
    "mysterious": 26060,
    "Ġtower": 8320,
    "Ġconsider": 2568,
    "gar": 5617,
    "officer": 17061,
    "Ġdistressing": 12219,
    "descried": 11930,
    "pt": 386,
    "copper": 19202,
    "Ġdamp": 8265,
    "osite": 4895,
    "discernible": 20559,
    "Ġwicked": 5960,
    "Ġimpenitent": 26557,
    "minute": 11279,
    "Ġoutrageous": 20620,
    "amed": 4453,
    "oblig": 16299,
    "ript": 4157,
    "Ġbears": 6832,
    "Ġcurb": 16252,
    "Ġgranted": 22817,
    "handed": 7482,
    "inconsiderable": 21199,
    "Ġast": 2963,
    "sense": 11528,
    "Ġdisposal": 19385,
    "Ġdoing": 3659,
    "teeth": 10361,
    "investigations": 25541,
    "its": 1149,
    "precision": 4335,
    "Ġfund": 2847,
    "Ġinvolved": 8926,
    "writ": 16563,
    "Ġfrivolous": 26185,
    "light": 3018,
    "Ġhearth": 11984,
    "Ġshin": 18236,
    "âĢĻ": 378,
    "Ġstra": 2993,
    "Ġconvict": 23756,
    "ose": 719,
    "Ġdisappointed": 7099,
    "deliber": 17434,
    "uled": 11541,
    "Ġarts": 11011,
    "mathemat": 19149,
    "ckery": 22094,
    "itering": 17827,
    "owed": 2265,
    "ricity": 23074,
    "Ġroughs": 19963,
    "ellative": 21950,
    "Ġunpleasant": 7192,
    "Ġunjustifiable": 25122,
    "whispered": 20040,
    "utions": 1886,
    "touched": 15446,
    "favourable": 12264,
    "Ġsavag": 19383,
    "Ġexpl": 487,
    "hatches": 19936,
    "separation": 25239,
    "insensibility": 23080,
    "Ġformality": 22836,
    "Ġxxi": 24497,
    "Ġakin": 15501,
    "Ġjumbled": 22304,
    "leag": 21372,
    "Ġzeros": 3322,
    "Ġmodes": 22223,
    "Ġpurposely": 10449,
    "Ġlubber": 17451,
    "Ġlaughs": 24130,
    "Ġmask": 1864,
    "Ġsturgeon": 20600,
    "Ġcommunicative": 24562,
    "warn": 11546,
    "Ġinsensibly": 20083,
    "Ġmuscles": 12090,
    "Ġmind": 1621,
    "Ġforbid": 7864,
    "Ġsights": 7472,
    "Ġastr": 15500,
    "icant": 21567,
    "Ġcont": 621,
    "Ġjoky": 18416,
    "Ġcongreg": 8464,
    "Ġworthy": 7243,
    "Ġgallantry": 15112,
    "Ġcircling": 19104,
    "Ġphrenolog": 12335,
    "Ġpreach": 14177,
    "uced": 13804,
    "Ġpivot": 13927,
    "penny": 22955,
    "appl": 9332,
    "scot": 14421,
    "marrying": 19556,
    "simple": 13454,
    "Ġunthinkingly": 26229,
    "Ġendured": 6074,
    "Ġsagittarius": 24745,
    "idol": 21771,
    "Ġvaried": 11849,
    "fleece": 19954,
    "Ġexpand": 9313,
    "luck": 5735,
    "Ġoutputs": 2890,
    "Ġgeography": 23384,
    "Ġfailure": 13316,
    "Ġeloquence": 11843,
    "Ġsaws": 23059,
    "enthusiastic": 20701,
    "powder": 17653,
    "Ġsplendidly": 25337,
    "Ġcrew": 2499,
    "infidel": 24678,
    "Ġsen": 9163,
    "Ġstrange": 2268,
    "james": 15380,
    "exciting": 19679,
    "Ġrelieve": 8224,
    "Ġtelescope": 17354,
    "Ġlandlessness": 23392,
    "Ġdescent": 997,
    "Ġwonders": 7500,
    "untary": 9870,
    "ding": 1229,
    "Ġoverhear": 15982,
    "Ġpleasure": 2700,
    "Ġprizes": 13076,
    "Ġinfiltrated": 23296,
    "Ġanswering": 7477,
    "Ġnoteworthy": 24176,
    "Ġbrilliantly": 25133,
    "Ġchoicest": 24234,
    "Ġhansom": 13666,
    "mopol": 15403,
    "Ġfig": 3621,
    "anx": 8786,
    "Ġhardy": 8567,
    "Ġenabling": 1079,
    "Ġabsurd": 7203,
    "interrupted": 11422,
    "dee": 11733,
    "isles": 15569,
    "Ġmultimodal": 18760,
    "Ġspasmodic": 20404,
    "Ġcountry": 2535,
    "Ě": 219,
    "Ġperception": 9755,
    "Ġfoolish": 5980,
    "Ġmiserably": 12949,
    "Ġlakeman": 6989,
    "Ġslaughter": 20739,
    "Ġlamb": 8815,
    "tale": 10131,
    "Ġbellies": 13357,
    "Ġdescribes": 3121,
    "Ġmanhandle": 22336,
    "Ġdictator": 20162,
    "Ġsmelt": 16074,
    "Ġhear": 1963,
    "hever": 13835,
    "Ġslippers": 19626,
    "australian": 20570,
    "pig": 8755,
    "Ġmethodology": 2259,
    "Ġunwilling": 7886,
    "everlasting": 18783,
    "Ġliable": 14233,
    "attempt": 9366,
    "ke": 429,
    "condescended": 26257,
    "peare": 18921,
    "------": 12135,
    "letons": 14620,
    "Ġtun": 5999,
    "Ġsash": 17764,
    "ientiously": 21946,
    "Ġexpensive": 12919,
    "Ġcaus": 1722,
    "Ġforster": 5233,
    "Ġmomentary": 11038,
    "Ġrainbows": 19659,
    "Ġ53": 19651,
    "ĠâĢĻ": 3042,
    "comp": 3817,
    "acies": 14282,
    "ourney": 3550,
    "Ġadopted": 15187,
    "Ġriddle": 14834,
    "com": 1026,
    "plings": 11696,
    "·": 120,
    "Ġbore": 5083,
    "nes": 6964,
    "jacket": 12293,
    "Ġcrowded": 8011,
    "Ġirrevocably": 15305,
    "greeting": 24568,
    "Ġamphitheat": 26261,
    "Ġtok": 1244,
    "Ġmad": 2429,
    "anke": 15566,
    "Ġstill": 1156,
    "Ġdevoting": 22731,
    "Ġrobustness": 18895,
    "Ġlitter": 19836,
    "Ġsphy": 18317,
    "Ġstalked": 20435,
    "Ġrelief": 6060,
    "Ġstacked": 21748,
    "companion": 9563,
    "Ġeggs": 12343,
    "Ġcountries": 13098,
    "Ġ48": 24092,
    "Ġfounded": 8558,
    "Ġgeneric": 18463,
    "displayed": 20745,
    "paus": 13776,
    "Ġbranded": 14384,
    "pus": 3412,
    "Ġpreviously": 3919,
    "Ġquestions": 3974,
    "wantonly": 25160,
    "Ġbount": 15573,
    "Ġdoor": 1738,
    "Ġquite": 1739,
    "Ġparamet": 615,
    "birth": 15330,
    "aking": 973,
    "Ġsafety": 6338,
    "Ġlonging": 14305,
    "Ġquit": 5249,
    "Ġcarr": 23101,
    "Ġthr": 5711,
    "Ġsalvation": 14771,
    "Ġmove": 5111,
    "Ġfeatureless": 22619,
    "Ġburns": 16533,
    "Ġapologize": 15137,
    "knife": 6945,
    "Ġexist": 9238,
    "Ġanalog": 12613,
    "altogether": 12641,
    "Ġinclude": 1872,
    "male": 15396,
    "Ġfierc": 18722,
    "colonel": 8286,
    "Ġru": 948,
    "Ġapolog": 9047,
    "Ġbackward": 7654,
    "Ġwo": 3648,
    "Ġpetticoat": 15303,
    "Ġtrading": 23087,
    "Ġalan": 10872,
    "Ġwhitewashed": 14474,
    "Ġshouting": 10528,
    "Ġimproper": 22759,
    "Ġfirmly": 8013,
    "breaths": 25346,
    "Ġdiffidence": 14667,
    "Ġbrilliant": 11419,
    "Ġfowl": 11335,
    "Ġwithhold": 18123,
    "Ġcoloured": 11048,
    "Ġignited": 25082,
    "etah": 12663,
    "Ġplanned": 14762,
    "sailor": 14726,
    "Ġcigarette": 20664,
    "Ġbankrupt": 16806,
    "enemy": 15533,
    "Ġfielding": 16238,
    "omics": 21668,
    "landlord": 9842,
    "perishing": 22186,
    "mingled": 14721,
    "Ġwigwam": 11433,
    "Ġhowling": 8511,
    "Ġwebster": 20170,
    "emberley": 4176,
    "Ġaside": 5237,
    "Ġdece": 6998,
    "Ġmagnitudes": 3823,
    "Ġontario": 26213,
    "Ġgambler": 26199,
    "Ġfevers": 22213,
    "Ġdeal": 3604,
    "rance": 5994,
    "Ġsledge": 8111,
    "ulity": 10889,
    "Ġdepressed": 10885,
    "Ġvol": 4194,
    "Ġmah": 15546,
    "Ġmerged": 19306,
    "Ġthrees": 23413,
    "Ġclosely": 6487,
    "Ġspeaks": 11162,
    "Ġspec": 1260,
    "Ġintervening": 17274,
    "Ġslumbers": 18952,
    "Ġrecogn": 2630,
    "ase": 1159,
    "Ġsolar": 22890,
    "Ġwandered": 6933,
    "Ġbou": 17861,
    "Ġwakeful": 24280,
    "Ġpersuaded": 5771,
    "Ġchanc": 18393,
    "Ġsteamer": 17196,
    "illustration": 2278,
    "came": 4572,
    "Ġlivelong": 25519,
    "ô": 181,
    "Ġpeaceful": 9460,
    "Ġwash": 9709,
    "ĠĊ": 12523,
    "Ġmetropol": 11148,
    "Ġfather": 1452,
    "Ġcot": 13881,
    "Ġorphan": 12384,
    "nuts": 15405,
    "spades": 14338,
    "extending": 22774,
    "Ġposted": 16734,
    "shout": 22454,
    "Ġdecomposition": 5345,
    "sander": 11531,
    "Ġderbyshire": 6589,
    "hyena": 24266,
    "influences": 25263,
    "ighbour": 3388,
    "Ġalph": 9701,
    "Ġheed": 5632,
    "ollion": 19725,
    "Ġavoid": 5200,
    "Ġunseen": 3520,
    "Ġ14": 9329,
    "Ġheels": 10853,
    "Ġinformation": 1049,
    "structed": 11168,
    "Ġeff": 689,
    "Ġarsac": 11743,
    "Ġparagra": 15892,
    "Ġdoubtfully": 23493,
    "Ġsettled": 3741,
    "Ġdisreputable": 22544,
    "immediate": 20101,
    "Ġtrampling": 25501,
    "Ġdem": 11676,
    "step": 2459,
    "Ġannual": 14830,
    "steaks": 23968,
    "dles": 11485,
    "inglass": 21310,
    "Ġpointed": 4777,
    "Ġentitled": 8540,
    "Ġfeet": 2253,
    "Ġarchitecture": 1103,
    "iamond": 14598,
    "Ġgovernesses": 25139,
    "doom": 23389,
    "Ġouter": 6863,
    "speps": 14339,
    "footed": 19700,
    "Ġtin": 15470,
    "Ġvehic": 8937,
    "lord": 3865,
    "accessible": 13640,
    "rayed": 23576,
    "Ġindisc": 16236,
    "Ġnorthumbria": 24184,
    "Ġwooded": 23530,
    "Ġbadly": 12133,
    "erm": 786,
    "bingleys": 19645,
    "Ġgleamed": 17084,
    "Ġslice": 23172,
    "Ġdetected": 18871,
    "stir": 12674,
    "Ġentreating": 24221,
    "hic": 3246,
    "apable": 6421,
    "quite": 4650,
    "ortal": 6265,
    "Ġlong": 797,
    "Ġoverwrites": 5037,
    "insupportable": 21201,
    "Ġmainland": 22660,
    "induce": 22381,
    "Ġsuperstitions": 17079,
    "bottom": 11431,
    "complaisance": 24824,
    "iosity": 2481,
    "blue": 13695,
    "Ġrect": 18034,
    "iber": 6506,
    "Ġla": 5914,
    "fortune": 4977,
    "Ġapprobation": 10987,
    "Ġexec": 19502,
    "advice": 12159,
    "bestowed": 12226,
    "iop": 20928,
    "rench": 3969,
    "arrang": 14660,
    "shame": 16032,
    "slipping": 25536,
    "Ġproducing": 11900,
    "Ġholiday": 12998,
    "Ġundeviating": 15226,
    "Ġorigin": 4123,
    "Ġvinc": 14089,
    "treas": 17687,
    "Ġeclipsed": 26385,
    "Ġelusive": 22657,
    "Ġduke": 7755,
    "awn": 3835,
    "zza": 24181,
    "Ġincommunicable": 26619,
    "Ġharpoon": 3612,
    "Ġunnearable": 26525,
    "26": 10076,
    "erce": 6127,
    "continual": 20654,
    "Ġavenues": 25438,
    "Ġforked": 11666,
    "carried": 16721,
    "Ġreligion": 11420,
    "hunsford": 24402,
    "Ġcape": 5149,
    "intelligent": 16853,
    "Ġshocks": 16466,
    "ware": 3938,
    "Ġplaint": 10331,
    "itt": 571,
    "hopeless": 16924,
    "Ġgord": 21605,
    "Ġmock": 3689,
    "Ġindulgence": 11324,
    "bod": 12438,
    "prot": 6903,
    "Ġcharacters": 9377,
    "Ġindoors": 18846,
    "inger": 6815,
    "Ġouthouse": 22321,
    "ctic": 8443,
    "igating": 21705,
    "ky": 4573,
    "dle": 3245,
    "aving": 2406,
    "Ġcomrade": 12284,
    "Ġcrossing": 7256,
    "pagan": 17291,
    "tish": 17685,
    "Ġdimin": 3871,
    "Ġcasks": 7521,
    "usage": 12834,
    "Ġconsoled": 18120,
    "smoking": 23922,
    "Ġopera": 23440,
    "emone": 21931,
    "Ġintensely": 17024,
    "private": 13584,
    "Ġblessed": 6934,
    "lotts": 23835,
    "ooping": 21015,
    "Ġpend": 15611,
    "Ġhenry": 5201,
    "Ġungovernable": 20718,
    "ineering": 21986,
    "performances": 26015,
    "Ġcowardice": 17039,
    "abil": 2005,
    "Ġimmortal": 8017,
    "agreeable": 5832,
    "place": 4158,
    "flour": 23973,
    "Ġdeterminate": 23010,
    "Ġswim": 3821,
    "Ġwell": 901,
    "Ġtriumphantly": 11292,
    "Ġeffect": 974,
    "Ġrecom": 4557,
    "Ġcharley": 19017,
    "thankful": 16816,
    "Ġcolonies": 14381,
    "gentleness": 24857,
    "Ġlip": 6533,
    "ullied": 23116,
    "ip": 555,
    "cull": 20818,
    "age": 505,
    "Ġstung": 21743,
    "Ġfortresses": 23634,
    "Ġempt": 5054,
    "Ġcontinent": 14900,
    "Ġhumor": 11054,
    "cele": 21630,
    "Ġdispel": 16606,
    "advise": 24231,
    "Ġentry": 11029,
    "influence": 13580,
    "anoke": 21367,
    "Ġmakes": 3649,
    "Ġunconquerable": 22067,
    "Ġhedgehogs": 25403,
    "phew": 6367,
    "Ġelsewhere": 7712,
    "Ġtraces": 7946,
    "Ġejac": 10209,
    "Ġens": 2793,
    "fleet": 15025,
    ",âĢĻâĢĶ": 23538,
    "iness": 1280,
    "Ġ&": 6514,
    "Ġaccident": 5381,
    "baby": 25523,
    "ened": 1389,
    "hess": 4751,
    "Ġreeled": 13990,
    "girls": 12320,
    "Ġhap": 18204,
    "Ġcharles": 11959,
    "Ġembell": 14426,
    "Ġcolleg": 22866,
    "reading": 12081,
    "Ġdiscipline": 26570,
    "Ġsuch": 796,
    "whales": 5191,
    "Ġv": 399,
    "entary": 21572,
    "entiful": 10839,
    "Ġegress": 21628,
    "Ġspong": 15887,
    "Ġsentry": 19036,
    "Ġtrail": 16291,
    "Ġkingdom": 12020,
    "Ġarmed": 9266,
    "Ġavowed": 16630,
    "Ġcorn": 9356,
    "elstrom": 17990,
    "Ġnumberless": 16423,
    "Ġcompos": 22579,
    "Ġjollity": 25574,
    "Ġheat": 5456,
    "Ġpartner": 6717,
    "Ġrind": 21974,
    "Ġshell": 11737,
    "carp": 9113,
    "Ġadmeasurements": 26234,
    "Ġsparkled": 13465,
    "Ġdays": 2074,
    "Ġcontrols": 1731,
    "Ġpot": 2992,
    "rences": 9278,
    "Ġundertone": 23250,
    "embraces": 25812,
    "Ġworks": 5861,
    "Ġfortnight": 6201,
    "Ġclues": 18432,
    "Ġvent": 3999,
    "takes": 21083,
    "coarse": 16497,
    "Ġcamberwell": 25360,
    "factories": 19849,
    "lessly": 4558,
    "Ġfilial": 16632,
    "Ġbonds": 17878,
    "Ġmajesty": 5204,
    "Ġillustrative": 25079,
    "Ġtorpor": 25044,
    "papers": 12503,
    "remained": 8572,
    "Ġautoregressive": 3429,
    "voyage": 7785,
    "Ġirrevoc": 15047,
    "bec": 4054,
    "Ġtapping": 10755,
    "Ġstash": 18075,
    "Ġveter": 15819,
    "Ġselfish": 7274,
    "horses": 17575,
    "Ġserpents": 13120,
    "Ġdemand": 4949,
    "iracle": 11248,
    "Ġcried": 1487,
    "Ġadro": 15876,
    "ery": 1266,
    "Ġequ": 1733,
    "magn": 10615,
    "Ġunfaltering": 24125,
    "Ġfiled": 15585,
    "Ġgrammar": 1060,
    "trick": 19423,
    "alike": 17951,
    "ously": 2464,
    "Ġgibberish": 25795,
    "comra": 16185,
    "Ġsimultaneous": 22598,
    "Û": 156,
    "Ġsnuffed": 15080,
    "Ġencountered": 8323,
    "Ġmightiest": 12962,
    "Ġthreaten": 24389,
    "69": 17482,
    "adoes": 11662,
    "Ġbandaged": 16851,
    "Ġrobins": 16265,
    "preced": 10314,
    "antucket": 2647,
    "Ġsow": 17759,
    "clearly": 25206,
    "Ġflung": 8564,
    "Ġsignals": 10451,
    "Ġresolving": 9425,
    "usable": 22286,
    "Ġreplace": 14483,
    "Ġernest": 8719,
    "Ġmachinery": 20492,
    "orable": 8120,
    "ith": 330,
    "Ġrucastle": 5180,
    "Ġsooty": 25824,
    "vel": 2425,
    "informed": 17746,
    "Ġfrenzy": 13623,
    "Ġtendinous": 16939,
    "nour": 20997,
    "Ġ1883": 23904,
    "nett": 16229,
    "Ġviv": 6157,
    "Ġthank": 3793,
    "Ġflowing": 14415,
    "epilogue": 22104,
    "plied": 10260,
    "Ġrucastles": 18733,
    "Ġdrowned": 9557,
    "disappointment": 11430,
    "Ġdevilish": 11232,
    "Ġlightened": 23273,
    "Ġglitter": 25135,
    "Ġdisappo": 4509,
    "Ġscener": 10952,
    "narrow": 11512,
    "stay": 9686,
    "Ġperhaps": 1909,
    "build": 12188,
    "Ġfrantic": 7957,
    "Ġguid": 2640,
    "Á": 130,
    "Ġvows": 15816,
    "Ġgreenwich": 19331,
    "reply": 19732,
    "Ġserved": 8260,
    "Ġimprovement": 7965,
    "Ġwildness": 14611,
    "mentioned": 10628,
    "eray": 21274,
    "beholding": 16050,
    "Ġdefault": 3038,
    "allies": 14170,
    "antage": 3878,
    "Ġvolition": 14810,
    "ernation": 8213,
    "Ġfree": 3375,
    "Ġin": 291,
    "Ġpince": 21476,
    "Ġwrecked": 9969,
    "Ġwants": 5744,
    "Ġhumiliating": 22889,
    "libr": 22933,
    "Ġenormousness": 24529,
    "Ġprovincial": 20659,
    "Ġdoubts": 8582,
    "icle": 10837,
    "igen": 4833,
    "Ġindiam": 22963,
    "Ġfitzwilliam": 5773,
    "Ġevaluation": 16525,
    "floated": 24658,
    "_)": 9105,
    "courage": 17517,
    "Ġsuperfluous": 17422,
    "Ġquality": 3524,
    "allingly": 22199,
    "ithing": 11651,
    "ruin": 22202,
    "Ġbreathlessly": 24294,
    "Ġcapt": 1289,
    "subsided": 25839,
    "Ġrecesses": 17267,
    "Ġflirt": 14430,
    "Ġjewell": 19530,
    "gings": 7548,
    "gd": 3124,
    "Ġdiction": 8797,
    "iger": 8448,
    "Ġshops": 22006,
    "âĢĻâĢĶ": 12738,
    "Ġoverthrown": 18439,
    "Ġorthodox": 22099,
    "Ġpredict": 676,
    "Ġabsent": 7016,
    "Ġimpotent": 18457,
    "Ġfeathers": 15128,
    "Ġmoderately": 22224,
    "nal": 1959,
    "Ġnerv": 2399,
    "urning": 12918,
    "Ġsult": 10770,
    "Ġfilled": 4400,
    "msprop": 2628,
    "Ġunhappiness": 14122,
    "falgar": 26139,
    "Ġpermitting": 22406,
    "Ġjoyfully": 19355,
    "Ġming": 9652,
    "Ġlovers": 9725,
    "Ġbasis": 16967,
    "Ġ*": 1270,
    "Ġimmensities": 25340,
    "Ġrambled": 20177,
    "Ġcontemptible": 16960,
    "Ġtunes": 24632,
    "Ġmouldings": 24750,
    "Ġvilest": 20108,
    "Ġlonged": 6435,
    "retion": 9368,
    "Ġminers": 22841,
    "Ġwides": 17797,
    "thou": 4713,
    "ells": 5306,
    "Ġabounding": 12345,
    "Ġ1836": 25729,
    "compliments": 24823,
    "Ġgros": 14837,
    "Ġbrigs": 20329,
    "Ġlanguor": 12849,
    "Ġmelt": 21324,
    "Ġunsophisticated": 26001,
    "Ġconfining": 23319,
    "Ġinnermost": 12162,
    "Ġmature": 17808,
    "Ġserenity": 10031,
    "Ġforc": 9234,
    "yrin": 12522,
    "Ġtrembling": 7481,
    "Ġmagical": 23110,
    "Ġgover": 2465,
    "Ġimmersed": 19494,
    "Ġnaked": 8127,
    "knows": 19183,
    "runs": 25424,
    "Ġbarely": 16944,
    "Ġfalsely": 20590,
    "Ġknowing": 4462,
    "Ġstocks": 23188,
    "Ġpartners": 11854,
    "Ġcum": 21348,
    "Ġdecorated": 22447,
    "Ġunimportant": 22035,
    "Ġbad": 3990,
    "vision": 5622,
    "Ġhistory": 4009,
    "Ġfriendship": 7248,
    "Ġaut": 1835,
    "icial": 12657,
    "av": 739,
    "Ġfict": 21411,
    "Ġpott": 21473,
    "orns": 12593,
    "ification": 1004,
    "Ġexploration": 2334,
    "Ġmagnitude": 1940,
    "Ġplead": 14461,
    "Ġcommenting": 25241,
    "ifer": 11686,
    "Ġgaiters": 20468,
    "Ġbat": 10798,
    "Ġirreparable": 20004,
    "Ġemergency": 25739,
    "explaining": 23153,
    "crown": 13700,
    "Ġinv": 2213,
    "interchange": 23750,
    "bble": 17492,
    "Ġdifference": 1489,
    "ospel": 17017,
    "nant": 17617,
    "Ġfrance": 7681,
    "which": 1707,
    "daughter": 8355,
    "number": 10118,
    "bourine": 9401,
    "precious": 12074,
    "ield": 2408,
    "Ġtruly": 4800,
    "Ġfit": 3682,
    "Ġagain": 815,
    "Ġ125": 24490,
    "Ġdull": 6383,
    "Ġcausal": 3408,
    "springs": 24924,
    "Ġcrows": 24041,
    "osh": 18398,
    "intense": 22946,
    "Ġpouring": 12625,
    "Ġquarter": 3978,
    "Ġskylight": 24084,
    "Ġfounder": 17893,
    "Ġattain": 12748,
    "Ġbeeches": 9233,
    "Ġchamp": 18390,
    "Ġparm": 15890,
    "Ġassuming": 16703,
    "Ġsoliloquized": 17307,
    "Ġcruelly": 13377,
    "brows": 17504,
    "trem": 17689,
    "Ġhatches": 12047,
    "Ġ$": 21158,
    "Ġintermediate": 18602,
    "oub": 1634,
    "Ġbrood": 23112,
    "Ġgilder": 21618,
    "quickly": 14972,
    "Ġdespaired": 14676,
    "fortunate": 4796,
    "iations": 11499,
    "Ġsne": 6371,
    "expectations": 24290,
    "ige": 12682,
    "Ġshan": 9255,
    "removed": 15522,
    "Ġmour": 6976,
    "Ġvillain": 8637,
    "ina": 21187,
    "bearer": 18532,
    "Ġsanguinary": 25938,
    "Ġreclining": 26042,
    "Ġunctuousness": 17242,
    "Ġdante": 21444,
    "Ġmaritime": 23048,
    "Ġdictionaries": 12341,
    "Ġmaintained": 12936,
    "Ġamateur": 22496,
    "Ġpropose": 9855,
    "Ġearnestness": 12127,
    "Ġbordeaux": 24578,
    "nor": 2747,
    "Ġnear": 1716,
    "Ġmusk": 7494,
    "Ġperformed": 8549,
    "daylight": 19063,
    "likes": 18825,
    "Ġsmelling": 16075,
    "activation": 3229,
    "derstand": 636,
    "Ġadie": 8490,
    "awful": 23129,
    "too": 4511,
    "det": 5210,
    "ternals": 24146,
    "Ġabject": 18401,
    "Ġ62": 24380,
    "umbria": 23940,
    "Ġjost": 23643,
    "since": 5897,
    "Ġencourages": 2058,
    "Ġawfulness": 23601,
    "Ġunwarrant": 20141,
    "Ġsongs": 13422,
    "Ġmean": 743,
    "Ġmining": 22839,
    "conversation": 7123,
    "_.âĢĻâĢĿ": 17487,
    "Ġunanswerable": 26529,
    "ignified": 14497,
    "Ġjeroboam": 10605,
    "Ġgreedily": 18974,
    "Ġminimax": 5862,
    "Ġneurons": 975,
    "Ġprocesses": 3631,
    "health": 13837,
    "farmer": 25908,
    "band": 3059,
    "Ġtransactions": 18511,
    "Ġcon": 348,
    "Ġsuicide": 12791,
    "Ġvulture": 17345,
    "Ġox": 7154,
    "evid": 11489,
    "large": 6627,
    "Ġdesc": 773,
    "Ġislands": 6768,
    "course": 6105,
    "Ġsem": 1875,
    "co": 2438,
    "flowing": 14569,
    "Ġsteadfastly": 10655,
    "unbidden": 21900,
    "Ġinjuries": 11282,
    "Ġmayhap": 18721,
    "Ġcrippled": 25291,
    "Ġgamb": 18006,
    "cad": 17512,
    "Ġ22": 8280,
    "lying": 7175,
    "Ġshroud": 6482,
    "earnest": 12400,
    "Ġheedfulness": 24536,
    "Ġdone": 1816,
    "Ġbene": 2030,
    "Ġclin": 14205,
    "ancing": 1759,
    "ru": 486,
    "Ġcolleague": 17167,
    "Ġmilitia": 13319,
    "Ġalongside": 6310,
    "move": 11855,
    "://": 11470,
    "Ġlash": 8440,
    "Ġgrap": 11708,
    "Ġwait": 4909,
    "aurs": 20778,
    "Ġassert": 8568,
    "fin": 5212,
    "uy": 21107,
    "Ġseethe": 21968,
    "Ġrestoration": 19037,
    "stud": 8822,
    "Ġmoonshine": 19608,
    "Ġadvances": 12990,
    "iple": 4810,
    "riving": 14080,
    "Ġasiatics": 20437,
    "Ġcaptivating": 26058,
    "Ġhauling": 14091,
    "Ġenslaved": 26323,
    "Ġuttermost": 19497,
    "alanche": 13939,
    "leagues": 21379,
    "Ġspeedy": 11177,
    "Ġmusky": 19391,
    "Ġattested": 22638,
    "ans": 460,
    "Ġdistrict": 10324,
    "Ġbaltic": 18807,
    "frost": 15115,
    "Ġdr": 2829,
    "Ġreasonable": 7255,
    "Ġassociated": 12250,
    "Ġsufferer": 16267,
    "Ġpulverize": 23405,
    "Ġerudite": 26359,
    "Ġgloom": 4207,
    "Ġnaval": 16908,
    "edmund": 17954,
    "Ġpolynes": 16088,
    "?âĢĻâĢĿ": 23654,
    "rene": 5380,
    "eldest": 22806,
    "ifies": 6689,
    "Ġinvariable": 13458,
    "vib": 21123,
    "¿": 128,
    "Ġunansw": 22062,
    "Ġpall": 7581,
    "matlock": 23482,
    "Ġprouder": 18982,
    "Ġmetropolis": 17280,
    "Ġwheeled": 14143,
    "algorithm": 4035,
    "Ġobscure": 9559,
    "belong": 12124,
    "Ġvocabulary": 4997,
    "Ġsells": 21231,
    "Ġactuated": 18555,
    "overfitting": 13102,
    "Ġ(`": 12855,
    "Ġstem": 15725,
    "shot": 2152,
    "Ġshortly": 6197,
    "empt": 2619,
    "Ġ40": 14780,
    "teak": 22825,
    "Ġmichael": 20687,
    "Ġboys": 5176,
    "rin": 10125,
    "dataset": 23255,
    "Ġinconsist": 17944,
    "ular": 713,
    "Ġyoungster": 23190,
    "Ġshriek": 6642,
    "Ġbarrowful": 25604,
    "Ġviolates": 3164,
    "asked": 8915,
    "Ġheavy": 3743,
    "Ġexcess": 3342,
    "abst": 21793,
    "Ġlatitude": 8330,
    "ilet": 12831,
    "ancy": 4399,
    "described": 18905,
    "body": 2304,
    "Ġexpense": 7651,
    "Ġtougher": 21184,
    "vere": 4886,
    "Ġlurking": 11294,
    "hair": 9126,
    "inting": 9816,
    "Ġprivilege": 11424,
    "Ġunsupplied": 22048,
    "apse": 14203,
    "Ġauthent": 14517,
    "member": 20984,
    "Ġphrase": 11191,
    "Ġcovered": 5173,
    "became": 10519,
    "approve": 19944,
    "tinted": 17691,
    "Ġdisco": 3426,
    "Ġmost": 1021,
    "Ġafforded": 8029,
    "Ġdocile": 19965,
    "purposes": 25034,
    "acted": 11013,
    "connections": 14435,
    "Ġtrained": 8503,
    "Ġcondem": 6337,
    "Ġobject": 1396,
    "mem": 10713,
    "Ġamused": 11800,
    "noted": 22762,
    "é": 170,
    "slo": 17664,
    "Ġgam": 11626,
    "ological": 1881,
    "loveliness": 26558,
    "Ġaggreg": 12885,
    "nostr": 22729,
    "Ġfleecy": 17030,
    "Ġreplying": 19592,
    "Ġplowdon": 26455,
    "Ġwrists": 11115,
    "lodged": 25916,
    "pivot": 21039,
    "Ġshrouded": 14979,
    "Ġclasped": 17214,
    "lac": 17597,
    "Ġeverybody": 4514,
    "Ġcares": 9372,
    "obey": 11514,
    "Ġdeserving": 14793,
    "Ġcrib": 21354,
    "z": 94,
    "itates": 13873,
    "Ġunduly": 26003,
    "Ġblue": 3451,
    "unwholesome": 26505,
    "ban": 9591,
    "Ġgrasp": 4667,
    "judged": 14845,
    "Ġtuck": 10145,
    "ubb": 1650,
    "Ġsuppose": 2871,
    "Ġnearing": 15805,
    "Ġeven": 1028,
    "Ġsemicirc": 16399,
    "Ġwaterward": 23378,
    "Ġbegging": 11083,
    "Ġinsupportable": 13936,
    "whel": 7664,
    "scr": 16247,
    "Ġscandalous": 24892,
    "amusement": 15290,
    "Ġconject": 6027,
    "not": 908,
    "Ġrmsprop": 3354,
    "Ġprognostics": 20567,
    "airing": 16183,
    "Ġamusement": 8054,
    "Ġ47": 14783,
    "listen": 13515,
    "cl": 1494,
    "Ġjura": 14197,
    "Ġtree": 5287,
    "Ġxxii": 24499,
    "stirring": 20432,
    "zes": 11552,
    "benevolently": 25609,
    "Ġscreamed": 9529,
    "Ġsworn": 14441,
    "wit": 7817,
    "Ġclerks": 17300,
    "Ġpropos": 7062,
    "unavoid": 14066,
    "Ġforeseeing": 23463,
    "Ġthoughtfully": 12979,
    "bud": 10686,
    "Ġimmortality": 26334,
    "Ġmissed": 8557,
    "Ġreigning": 15707,
    "qualified": 17105,
    "batt": 20787,
    "Ġsystems": 801,
    "Ġunlock": 18252,
    "Ġallow": 1130,
    "Ġjuggl": 20445,
    "uation": 17702,
    "cst": 10088,
    "Ġcannib": 6036,
    "overlooked": 23337,
    "Ġrolling": 5974,
    "Ġinconceivable": 17946,
    "Ġtarquin": 23623,
    "progress": 11990,
    "Ġhans": 12627,
    "iferous": 17297,
    "Ġtransition": 14247,
    "lass": 5993,
    "Ġfinny": 23140,
    "Ġburton": 23667,
    "Ġwayward": 22879,
    "Ġkilled": 4957,
    "sixty": 24865,
    "housekeeper": 24114,
    "Ġunintermitted": 26228,
    "Ġhomeward": 9396,
    "Ġagreeably": 24965,
    "Ġrazors": 22667,
    "Ġsubdued": 11033,
    "Ġsmooth": 2784,
    "Ġunhing": 18250,
    "Ġfanc": 6744,
    "mortal": 10116,
    "Ġantarctic": 19563,
    "ins": 1380,
    "Ġmonster": 3795,
    "Ġimperial": 9486,
    "Ġmantle": 25287,
    "ez": 5685,
    "Ġsuffers": 2976,
    "happening": 16574,
    "ateness": 15525,
    "Ġdisgu": 8207,
    "Ġ1671": 25018,
    "Ġtime": 690,
    "br": 2484,
    "Ġprone": 18978,
    "Ġ1846": 26093,
    "Ġriverside": 25260,
    "imag": 6992,
    "breadth": 20283,
    "Ġanteced": 26186,
    "right": 2775,
    "blasted": 20198,
    "Ġjaws": 5596,
    "Ġcalm": 3444,
    "ton": 1725,
    "Ġswearing": 16473,
    "Ġsprinkled": 19506,
    "paradise": 20647,
    "Ġroutine": 13509,
    "holmes": 4436,
    "Ġweld": 8112,
    "Ġnecessity": 7298,
    "wondrous": 12339,
    "Ġcontortions": 18486,
    "Ġcost": 2508,
    "Ġpresumably": 19635,
    "Ġarrangement": 2662,
    "soft": 12511,
    "fishing": 20868,
    "Ġvari": 833,
    "Ġcontinual": 6779,
    "Ġaccommodate": 20524,
    "arris": 13213,
    "concealed": 25128,
    "Ġresting": 7962,
    "merely": 16146,
    "Ġtwinkled": 14317,
    "fat": 8078,
    "Ġinquiries": 5680,
    "h": 76,
    "Ġfatigued": 13468,
    "\\": 64,
    "Ġcarpent": 4470,
    "Ġdependencies": 2312,
    "Ġcontempl": 6704,
    "onomy": 12548,
    "rann": 21052,
    "dismay": 19164,
    "Ġnorthern": 7267,
    "Ġselfishness": 12290,
    "Ġgash": 15677,
    "execut": 13656,
    "Ġinsincere": 26607,
    "Ġusages": 15926,
    "Ġfinish": 7949,
    "Ġdeliberately": 10629,
    "Ġunspeakable": 10059,
    "Ġbegrimed": 26587,
    "semble": 1524,
    "nearer": 22452,
    "stealthily": 23969,
    "lowering": 16040,
    "mospheric": 17099,
    "Ġarsacides": 17299,
    "Ġlizz": 21562,
    "Ġpoul": 15618,
    "Ġemerg": 13426,
    "Ġfond": 4759,
    "Ġextinct": 14340,
    "Ġscroll": 14196,
    "infernal": 24677,
    "shoulders": 16594,
    "early": 20126,
    "Ġwoof": 14730,
    "Ġacquirement": 19265,
    "Ġca": 21345,
    "desire": 14480,
    "vate": 21117,
    "hold": 3983,
    "Ġenlist": 21941,
    "Ġpulley": 2978,
    "Ġpropri": 6739,
    "Ġsolic": 7933,
    "tum": 11536,
    "Ġhappen": 5573,
    "Ġ60": 14887,
    "Ġindist": 14413,
    "Ġsavoury": 23887,
    "Ġbedroom": 7279,
    "Ġpalsy": 25787,
    "orrah": 17884,
    "successfully": 15002,
    "Ġgrip": 11629,
    "Ġ104": 24428,
    "Ġstays": 16571,
    "Ġlady": 1585,
    "quired": 21849,
    "Ġkeenest": 12163,
    "Ġhandful": 9786,
    "Ġmisanthrop": 22770,
    "Ġmorals": 22981,
    "ĠĠĠĠĠĠĠĠĠĠĠĠĠĠĠĠĠĠĠĠĠĠĠĠĠĠĠĠĠĠĠĠĠĠĠĠĠĠ": 16536,
    "Ġobsequious": 17412,
    "Ġcomfort": 3435,
    "Ġeveryday": 22786,
    "imp": 3033,
    "Ġequality": 16368,
    "Ġbrook": 13048,
    "enges": 13057,
    "plex": 708,
    "Ġque": 4163,
    "monograph": 23537,
    "Ġvelocity": 10625,
    "ogene": 18683,
    "Ġtailed": 21176,
    "Ġgrandfather": 19431,
    "Ġenterprise": 8643,
    "Ġsnug": 8281,
    "scrape": 25706,
    "Ġbod": 4584,
    "ply": 6365,
    "Ġoft": 9202,
    "Ġnaturally": 2471,
    "Ġcinque": 20493,
    "Ġparish": 8859,
    "Ġmile": 7152,
    "Ġrepugn": 23374,
    "Ġconceit": 7297,
    "horner": 23627,
    "Ġstare": 10867,
    "Ġspoon": 22134,
    "Ġapproaching": 6283,
    "ties": 2764,
    "Ġeliminating": 20629,
    "Ġhar": 5817,
    "77": 15308,
    "Ġfixedly": 19258,
    "cture": 15671,
    "ronted": 14889,
    "discoveries": 25394,
    "Ġpoltroon": 26606,
    "Ġglaciers": 20182,
    "Ġdo": 510,
    "Ġgrunted": 16177,
    "Ġhatchway": 13526,
    "Ġmajestic": 8640,
    "Ġequin": 14502,
    "Ġcast": 3602,
    "Ġgaieties": 24210,
    "Ġtones": 8401,
    "Ġantics": 24192,
    "Ġconfidence": 6592,
    "Ġmorcar": 13011,
    "despond": 19807,
    "Ġnames": 4535,
    "ours": 3425,
    "Ġmuttering": 10505,
    "quality": 10238,
    "serv": 3937,
    "Ġrepresent": 1209,
    "Ġinsertion": 26352,
    "Ġflow": 1237,
    "hest": 3369,
    "Ġassumptions": 5521,
    "Ġsolemn": 4102,
    "Ġrashness": 25469,
    "fortnight": 13088,
    "Ġscorn": 7901,
    "Ġexponentiating": 3442,
    "Ġcrush": 9428,
    "Ġlabyrin": 13105,
    "column": 19339,
    "Ġvintage": 26218,
    "Ġhare": 5160,
    "Ġresist": 7916,
    "spiracle": 22747,
    "Ġventure": 7738,
    "Ġstaring": 8828,
    "thanked": 24345,
    "whalemen": 10436,
    "Ġblemish": 19690,
    "guilty": 19489,
    "Ġcrushing": 20185,
    "Ġcoroner": 7510,
    "Ġmotionless": 8325,
    "Ġack": 5624,
    "Ġharbors": 24914,
    "<EOS>": 2,
    "willing": 6595,
    "Ġensures": 3056,
    "Ġoutlaws": 22330,
    "Ġeaten": 14857,
    "unhes": 21880,
    "Ġdetaining": 25828,
    "Ġinvest": 4980,
    "clopÃ¦": 13059,
    "athies": 22713,
    "pher": 11516,
    "apothe": 22341,
    "harpooned": 24300,
    "vid": 914,
    "_),": 7126,
    "Ġdames": 23486,
    "stairs": 5158,
    "Ġusurpation": 18369,
    "cen": 17510,
    "Ġsearching": 13165,
    "omon": 10213,
    "onies": 6809,
    "Ġclapping": 14207,
    "Ġgraphs": 25472,
    "Ġhappens": 2184,
    "Ġdiscoursing": 26275,
    "Ġguiding": 19251,
    "Ġpulse": 13116,
    "Ġlongitude": 11014,
    "intment": 4725,
    "cake": 20813,
    "Ġbaggy": 24552,
    "Ġest": 2261,
    "july": 20482,
    "tomorrow": 25923,
    "Ġgodfrey": 15301,
    "Ġfitted": 6244,
    "Ġpavement": 9584,
    "Ġrepent": 9866,
    "ated": 725,
    "Ú": 155,
    "non": 9618,
    "Ġfearing": 12817,
    "ooped": 17631,
    "Ġlombardy": 26471,
    "Ġgay": 5537,
    "Ġsqualid": 14374,
    "Ġrepaid": 19089,
    "Ġschemes": 11134,
    "Ġlin": 10836,
    "Ġsafely": 9029,
    "information": 12394,
    "acetty": 24484,
    "arken": 18679,
    "Ġscores": 2720,
    "Ġsnatching": 10479,
    "Ġdial": 10813,
    "Ġbaronial": 23803,
    "impat": 11206,
    "Ġslate": 11939,
    "Ġindividuals": 24560,
    "Ġfills": 12595,
    "Ġhawaiian": 25376,
    "rets": 12542,
    "leagued": 26443,
    "Ġbirds": 5877,
    "Ġgrat": 4057,
    "ench": 21287,
    "ancial": 21368,
    "Ġtempted": 9060,
    "Ġbanking": 19641,
    "stays": 15694,
    "Ġsubstit": 19550,
    "mount": 9133,
    "Ġsupercil": 23467,
    "Ġ275": 20118,
    "vert": 15721,
    "achusetts": 20719,
    "riv": 2300,
    "mine": 5620,
    "warrior": 24811,
    "Ġearl": 7675,
    "Ġmere": 2719,
    "Ġmist": 2881,
    "impregnable": 26489,
    "enjoyment": 17264,
    "Ġcro": 4876,
    "Ġflock": 21417,
    "trowsers": 17699,
    "severe": 21823,
    "Ġgilded": 17452,
    "Ġbeak": 18087,
    "Ġmanip": 8875,
    "Ġbuoyancy": 20048,
    "Ġshivering": 10271,
    "Ġaggregated": 25686,
    "Ġhasty": 10484,
    "Ġblu": 2692,
    "Ġpotency": 14654,
    "Ġpleasing": 6191,
    "ff": 465,
    "Ġdestined": 7974,
    "sufferable": 12178,
    "Ġparasol": 22142,
    "romeda": 17269,
    "Ġterminated": 23520,
    "laugh": 10112,
    "Ġgrenadier": 21621,
    "Ġunmo": 12774,
    "kily": 20946,
    "Ġjets": 10293,
    "Ġforetold": 23464,
    "alog": 8807,
    "Ġconfines": 23318,
    "Ġwil": 4583,
    "Ġrepresented": 8942,
    "Ġexcurs": 23327,
    "Ġsteelkilt": 5677,
    "Ġflat": 8229,
    "perceive": 12813,
    "izabeth": 907,
    "iality": 8847,
    "Ġpunctual": 17145,
    "Ġgreedy": 3054,
    "Ġsleepy": 8269,
    "pret": 7213,
    "through": 4023,
    "Ġfruitless": 25614,
    "consent": 18514,
    "Ġgovernment": 15185,
    "Ġslammed": 20456,
    "Ġbutterfly": 19918,
    "Ġgermany": 25794,
    "Ġtul": 21167,
    "Ġtreacher": 8606,
    "dman": 10092,
    "volutions": 16332,
    "Ġbashaw": 25641,
    "author": 9863,
    "Ġlandsc": 11149,
    "Ġriver": 5413,
    "showing": 22463,
    "ishe": 13895,
    "Ġwaves": 3918,
    "blacksmith": 17008,
    "Ġsimultaneously": 4314,
    "Ġbordered": 24577,
    "Ġgeor": 3387,
    "Ġpunishment": 9959,
    "Ġunspeak": 8854,
    "caves": 20825,
    "Ġcrutch": 23459,
    "Ġsung": 23285,
    "Ġcurtain": 14427,
    "lips": 13752,
    "sunlight": 24864,
    "isticated": 1588,
    "Ġearth": 2854,
    "aver": 6787,
    "ouraged": 22864,
    "Ġsurf": 19143,
    "Ġhail": 7400,
    "Ġengagement": 5398,
    "Ġcasts": 19435,
    "complain": 14367,
    "direction": 17532,
    "Ġinferred": 14508,
    "Ġhymn": 24532,
    "consolation": 15161,
    "Ġembellished": 25859,
    "Ġscaled": 2101,
    "Ġresponses": 23663,
    "adow": 18095,
    "Ġsincer": 13067,
    "period": 15906,
    "Ġdozing": 22250,
    "Ġric": 18220,
    "Ġassumpt": 5416,
    "stamp": 21653,
    "51": 12432,
    "answered": 10279,
    "jeroboam": 25628,
    "Ġgot": 2275,
    "Ġobed": 8537,
    "Ġtuples": 13480,
    "Ġblot": 9814,
    "airs": 2217,
    "remarkable": 13499,
    "roar": 17961,
    "keeper": 5601,
    "Ġodor": 12151,
    "Ġbegged": 8232,
    "Ġscrews": 25188,
    "Ġshoulder": 5853,
    "Ġappro": 657,
    "Ġaverages": 2396,
    "Ġtechniques": 2872,
    "Ġsucceeded": 6106,
    "Ġ111": 24452,
    "Ġimpenit": 22395,
    "Ġaboard": 6700,
    "ight": 403,
    "Ġlodging": 24105,
    "Ġnorms": 3664,
    "Ġparr": 22140,
    "Ġfluctu": 5270,
    "Ġdevotion": 22732,
    "Ġtransl": 2834,
    "Ġsubt": 11869,
    "garden": 15037,
    "ego": 4037,
    "outon": 12805,
    "Ġdecl": 3586,
    "Ġhoist": 11979,
    "Ġwronged": 24261,
    "Ġtaking": 3247,
    "Ġalteration": 9551,
    "olstad": 7610,
    "Ġcontroverted": 23263,
    "Ġunfav": 14800,
    "aly": 1097,
    "Ġgaining": 9497,
    "Ġcondu": 18117,
    "soo": 18697,
    "Ġenjoined": 18200,
    "far": 5789,
    "Ġequivalent": 4806,
    "Ġcontaining": 2227,
    "»": 124,
    "reliable": 21248,
    "Ġgap": 21604,
    "Ġbattering": 13905,
    "Ġseasonable": 24422,
    "carpet": 25213,
    "Ġskewer": 19631,
    "Ġsole": 3294,
    "opic": 22486,
    "Ġblameless": 19865,
    "Ġretort": 23081,
    "illation": 14146,
    "Ġshocking": 10440,
    "Ġsaved": 6693,
    "Ġbarbarously": 24832,
    "acquainted": 7315,
    "Ġinfinite": 8579,
    "erect": 20857,
    "Ġhealthy": 10854,
    "Ġgentlemanly": 19326,
    "Ġsummary": 19414,
    "Ġflanks": 11916,
    "arding": 22160,
    "Ġnailed": 10194,
    "Ġobtaining": 16141,
    "Ġexasperated": 11417,
    "Ġelephant": 8256,
    "Ġinseparable": 20697,
    "likeness": 19487,
    "Ġeconomy": 17208,
    "endous": 6854,
    "Ġent": 903,
    "Ġbespeaking": 26319,
    "Ġfought": 12594,
    "acle": 4721,
    "Ġreaching": 7305,
    "end": 501,
    "ĠâĢľ_": 6699,
    "reader": 23856,
    "Ġ107": 24431,
    "Ġanimating": 23436,
    "Ġelucidated": 26038,
    "Ġincorruption": 26318,
    "neck": 14238,
    "crooked": 25754,
    "akened": 7416,
    "Ġcompressed": 21862,
    "latitude": 25272,
    "Ġcult": 8784,
    "Ġplump": 14288,
    "formal": 14173,
    "unnecessary": 21886,
    "Ġlacey": 10202,
    "Ġevening": 2655,
    "Ġhercules": 14132,
    "Ġraw": 3318,
    "Ġparis": 8180,
    "Ġrobust": 1370,
    "Ġsymbolize": 24973,
    "chel": 11211,
    "Ġrumbling": 18222,
    "Ġstum": 21736,
    "Ġstagger": 10596,
    "Ġbalances": 2338,
    "enjoy": 10777,
    "Ġtheoretically": 3563,
    "Ġfidel": 12597,
    "Ġwrapt": 24612,
    "Ġmutable": 23962,
    "Ġtraitors": 23089,
    "Ġspoilt": 24820,
    "actorily": 25584,
    "Ġchili": 25569,
    "p": 84,
    "Ġreven": 18037,
    "Ġiterate": 13203,
    "preserver": 18509,
    "Ġmain": 811,
    "erv": 1404,
    "Ġborne": 6350,
    "Ġtugged": 17294,
    "sank": 17670,
    "Ġrout": 7402,
    "Ġstricken": 9779,
    "Ġeighteenth": 14763,
    "Ġeddying": 16444,
    "Ġprudence": 13924,
    "rate": 2423,
    "furthest": 19847,
    "vers": 1327,
    "alth": 3253,
    "Ġinflexibly": 26379,
    "Ġthickness": 13279,
    "Ġdisease": 14262,
    "arrested": 15606,
    "Ġprint": 18979,
    "hercules": 22209,
    "Ġdau": 21431,
    "raising": 21637,
    "Ġconvul": 13205,
    "Ġsubsets": 2343,
    "Ġcannon": 14158,
    "vitality": 20486,
    "ò": 179,
    "eland": 11623,
    "ees": 13713,
    "Ġtamely": 24990,
    "Ġfault": 5704,
    "ispens": 8337,
    "tomahawk": 25924,
    "Ġgloomy": 7504,
    "Ġhunsford": 6300,
    "&": 10,
    "hammered": 19015,
    "Ġpropag": 16356,
    "gird": 20888,
    "sea": 4767,
    "istic": 981,
    "Ġtwelvemonth": 12179,
    "augment": 18839,
    "bohemia": 20740,
    "Ġacutely": 14319,
    "raved": 18021,
    "Ġapartments": 19625,
    "fight": 17546,
    "Ġchanging": 11754,
    "ultaneous": 18596,
    "Ġobviously": 16820,
    "Ġlinn": 13957,
    "Ġmagnus": 18966,
    "Ġfeed": 2124,
    "Ġcock": 11002,
    "prise": 7726,
    "Ġbelieves": 14412,
    "Ġmonarch": 14419,
    "Ġbluff": 16528,
    "Ġrepeatedly": 9024,
    "as": 302,
    "Ġcompelled": 14271,
    "Ġomitted": 12564,
    "Ġsurviving": 24652,
    "Ġswan": 23061,
    "!âĢĶâĢĻ": 23578,
    "Ġlapl": 19785,
    "draughts": 20394,
    "lished": 8384,
    "tle": 2409,
    "Ġtransformers": 1128,
    "Ġauthors": 10422,
    "Ġchal": 18387,
    "Ġyelling": 18104,
    "Ġsolutions": 1943,
    "Ġsplin": 8620,
    "loat": 8890,
    "Ġattacked": 10574,
    "Ġshoulders": 5568,
    "creation": 14818,
    "Ġrelease": 19300,
    "Ġtorments": 13397,
    "gre": 5790,
    "riet": 18192,
    "Ġsayest": 22790,
    "Ġgrowth": 14637,
    "continually": 11307,
    "Ġcommis": 22681,
    "Ġbrad": 8789,
    "Ġdisk": 22532,
    "elect": 20855,
    "reclining": 20583,
    "Ġjiff": 22303,
    "concerted": 16682,
    "Ġcomprehend": 6493,
    "ravelled": 18023,
    "Ġdisquiet": 18562,
    "rage": 10846,
    "dry": 13705,
    "gement": 13730,
    "Ġii": 7385,
    "u": 89,
    "Ġcho": 4549,
    "Ġfact": 1727,
    "Ġconsistence": 23367,
    "Ġtaurus": 21186,
    "Ġreneg": 21680,
    "Ġbeaut": 2389,
    "Ġfeeble": 12285,
    "Ġbehave": 23311,
    "Ġapparently": 6780,
    "Ġvacancy": 9048,
    "Ġmagician": 25071,
    "Ġevid": 3498,
    "olly": 3223,
    "Ġagree": 7646,
    "Ġinte": 2062,
    "Ġanyways": 22529,
    "smile": 23917,
    "Ġdissimilar": 22541,
    "Ġdec": 640,
    "Ġpods": 17921,
    "Ġordering": 19008,
    "transom": 19744,
    "loath": 22518,
    "added": 11661,
    "noble": 7921,
    "likewise": 13106,
    "Ġintervened": 25490,
    "Ġshudder": 9054,
    "umberland": 16846,
    "Ġoath": 7833,
    "Ġrav": 14310,
    "brimming": 23591,
    "Ġmaximizing": 3168,
    "Ġalps": 10873,
    "Ġbrow": 3991,
    "acency": 12910,
    "Ġmasts": 6464,
    "Ġbeef": 6833,
    "Ġfe": 490,
    "dor": 12452,
    "Ġbound": 3515,
    "discovering": 24265,
    "Ġawaken": 23600,
    "aved": 5478,
    "spirited": 19762,
    "great": 3513,
    "ugnance": 12368,
    "isure": 6241,
    "Ġdeliciousness": 24140,
    "iard": 9608,
    "Ġnegro": 6446,
    "conditionally": 24847,
    "Ġvenerable": 9097,
    "Ġsensationalism": 26075,
    "Ġsurrender": 16459,
    "Ġgush": 10208,
    "Ĭ": 237,
    "Ġdoct": 4460,
    "streets": 13398,
    "revealed": 20422,
    "ifting": 6547,
    "feet": 6570,
    "Ġfumbling": 21423,
    "Ġ183": 13240,
    "Ġdeclares": 16999,
    "wreat": 21136,
    "written": 7994,
    "lover": 18547,
    "ureau": 10232,
    "Ġworkmen": 23050,
    "Ġmarching": 16709,
    "Ġvain": 3627,
    "Ġlatter": 3992,
    "Ġalbino": 20510,
    "soc": 5179,
    "Ġshouldn": 14330,
    "Ġjury": 5379,
    "discredit": 24264,
    "¸": 121,
    "Ġfurnish": 9022,
    "Ġnumbers": 2892,
    "fashion": 8080,
    "Ġinser": 6823,
    "Ġfriendly": 9822,
    "Ġpanted": 21477,
    "Ġsudden": 1997,
    "Ġcranes": 20389,
    "Ġshouts": 19547,
    "yden": 21152,
    "Ġinvestig": 10555,
    "Ġbehalf": 14513,
    "somerset": 26331,
    "Ġshoe": 14575,
    "Ġvesu": 21954,
    "Ġpaddock": 25050,
    "Ġgracechurch": 12199,
    "Ġtand": 21168,
    "ifications": 9734,
    "alive": 10830,
    "Ġjolly": 6862,
    "Ġprofessor": 11234,
    "Ġ66": 24384,
    "Ġdied": 4114,
    "cig": 17511,
    "ctors": 21595,
    "Ġpedest": 15007,
    "neath": 12867,
    "erness": 6433,
    "Ġaven": 10762,
    "ogr": 18682,
    "Ġbohemian": 17141,
    "fate": 17547,
    "gunpowder": 25349,
    "Ġsuppl": 11082,
    "wrinkled": 16564,
    "Ġfollow": 1397,
    "rings": 10726,
    "sy": 2785,
    "Ġvault": 8844,
    "Ġembal": 11913,
    "Ġpondicherry": 20498,
    "shudder": 26254,
    "Ġscorched": 17109,
    "istol": 6259,
    "ordinary": 4413,
    "Ġrest": 1782,
    "Ġlifts": 25368,
    "Ġstoner": 7179,
    "Ġone": 569,
    "y": 93,
    "Ġbrief": 6979,
    "Ġbreathing": 9449,
    "estinated": 15930,
    "Ġmeditative": 25027,
    "Ġconvers": 2910,
    "hmael": 7344,
    "talked": 14996,
    "Ġunsafe": 22046,
    "darkened": 24531,
    "bony": 15327,
    "hole": 5589,
    "angled": 6847,
    "Ġblight": 18828,
    "Ġdisorder": 16060,
    "chains": 9691,
    "Ġfing": 3756,
    "anum": 17844,
    "Ġpistol": 7846,
    "Ġkindliness": 23307,
    "example": 16022,
    "Ġalarm": 4049,
    "Ġglue": 15680,
    "Ġmund": 21325,
    "Ġern": 8398,
    "Ġsublimity": 26354,
    "Ġtoward": 17955,
    "Ġgratifying": 13307,
    "ad": 337,
    "Ġmystical": 12134,
    "pequod": 7054,
    "Ġbacks": 8530,
    "vative": 1565,
    "Ġsorrows": 13356,
    "Ġdive": 10177,
    "etent": 10205,
    "forbid": 14356,
    "Ġmouths": 7491,
    "alk": 1153,
    "ootiful": 17380,
    "Ġaloof": 21790,
    "Ġsmiled": 5941,
    "disgust": 23508,
    "icher": 9210,
    "Ġlover": 7194,
    "naturalists": 23540,
    "dering": 5308,
    "Ġgreatness": 12944,
    "pause": 12502,
    "blown": 25212,
    "Ġconcernment": 23659,
    "Ġprofund": 13156,
    "beer": 22498,
    "Ġdeadly": 5406,
    "conv": 7214,
    "Ġcured": 21353,
    "generous": 16578,
    "ohnson": 16335,
    "Ġendeavored": 19311,
    "Ġbooks": 4679,
    "Ġzoned": 22828,
    "Ġordin": 16660,
    "Ġfright": 3798,
    "wic": 21129,
    "illating": 22111,
    "Ġaccompanied": 6782,
    "ana": 15564,
    "Ġconfound": 23317,
    "Ġbiscuit": 12590,
    "ì": 173,
    "splinter": 25223,
    "ces": 579,
    "Ġgest": 8134,
    "permitted": 18352,
    "orum": 12591,
    "giana": 7800,
    "Ġentreated": 9954,
    "claim": 9838,
    "Ġerection": 24010,
    "ential": 827,
    "Ġtransient": 18510,
    "Ġnast": 15644,
    "Ġrecomm": 4998,
    "Ġsin": 1511,
    "Ġwasn": 6999,
    "Ġbravely": 23848,
    "Ġreconciled": 13589,
    "bold": 17495,
    "Ġdollar": 25296,
    "Ġcouldn": 7648,
    "Ġsimply": 7219,
    "er": 269,
    "Ġpope": 11604,
    "Ġgr": 976,
    "Ġstopped": 5956,
    "stun": 18024,
    "Ġdiet": 13914,
    "Ġdaintiest": 25962,
    "©": 107,
    "ago": 14069,
    "Ġminutes": 3003,
    "departed": 24807,
    "Ġnaturalist": 22904,
    "Ġvictor": 5129,
    "Ġcologne": 13664,
    "esu": 17927,
    "oundering": 11747,
    "solitary": 14512,
    "Ġslavish": 23185,
    "obst": 23104,
    "Ġtenth": 13829,
    "Ġmanifested": 17165,
    "sided": 17672,
    "Ġname": 2078,
    "muttered": 13762,
    "Ġoak": 6129,
    "Ġinherent": 4594,
    "mushroom": 26404,
    "ermaid": 14303,
    "castles": 14644,
    "Ġfrowning": 13624,
    "folio": 10552,
    "ste": 3580,
    "Ġmed": 3989,
    "sect": 8153,
    "Ġrum": 5925,
    "Ġadvent": 4362,
    "friendship": 24058,
    "Ġportra": 9012,
    "ket": 17590,
    "Ġbaby": 6639,
    "iveness": 2472,
    "Ġbund": 17872,
    "Ġtucked": 12393,
    "Ġinfirmity": 26307,
    "Ġtide": 6660,
    "Ġsalary": 13296,
    "ture": 7557,
    "berish": 22725,
    "Ġchests": 19682,
    "Ġcoleridge": 18779,
    "Ġwarm": 2428,
    "verty": 8454,
    "arches": 10819,
    "Ġpill": 7845,
    "Ġflashes": 11917,
    "Ġcrisis": 13129,
    "conscience": 14872,
    "kerchief": 7524,
    "Ġjapan": 7639,
    "sleeve": 26117,
    "og": 853,
    "Ġnoticed": 5551,
    "Ġsweetly": 23926,
    "ldog": 21923,
    "Ġunallied": 22037,
    "winter": 10744,
    "rus": 5931,
    "two": 3860,
    "Ġowen": 15103,
    "Ġresp": 2498,
    "Ġbrought": 2520,
    "Ġanchors": 12614,
    "Ġregularity": 22791,
    "anely": 17845,
    "Ġoakum": 16942,
    "Ġladder": 8599,
    "rot": 21537,
    "impulse": 20655,
    "Ġcobb": 14277,
    "Ġsized": 11566,
    "Ġnewton": 3529,
    "Ġalexander": 17432,
    "Ġnegatived": 23058,
    "pat": 10120,
    "Ġade": 22105,
    "Ġghosts": 12233,
    "Ġfrankly": 16756,
    "Ġcotton": 17386,
    "daring": 20838,
    "aggra": 21912,
    "hated": 17569,
    "glanced": 19375,
    "Ġbarbarians": 19598,
    "Ġpretend": 7721,
    "Ġcanoe": 9728,
    "Ġ80": 24476,
    "hend": 13255,
    "Ġperished": 11785,
    "Ġthursday": 12646,
    "Ġpag": 6011,
    "Ġwitnessing": 19609,
    "Ġquantization": 19860,
    "Ġsensation": 6900,
    "ieth": 10708,
    "anyone": 16603,
    "Ġiv": 4046,
    "Ġlanyard": 26469,
    "cond": 1668,
    "alley": 14416,
    "canoes": 16239,
    "occupation": 15065,
    "Ġhate": 5448,
    "Ġdef": 1197,
    "iciously": 17982,
    "Ġproxim": 3197,
    "pire": 9139,
    "ioneer": 15637,
    "Ġsharper": 17187,
    "interested": 9511,
    "skylight": 25761,
    "Ġrever": 6538,
    "Ġpie": 13919,
    "Ġremaining": 6189,
    "Ġdoublo": 6080,
    "possession": 12222,
    "Ġrelates": 12980,
    "Ġtempor": 2363,
    "castle": 3349,
    "Ġhydraul": 9519,
    "Ġincarnation": 25581,
    "Ġpsych": 10181,
    "Ġgrapp": 14105,
    "enth": 6683,
    "Ġinfrequent": 3825,
    "Ġshortness": 23494,
    "please": 8178,
    "Ġpicking": 11264,
    "Ġpardon": 5729,
    "Ġrolls": 8335,
    "Ġdoctors": 12153,
    "Ġshyness": 20313,
    "aculate": 16091,
    "Ġprompted": 23825,
    "Ġhierarchical": 1924,
    "Ġfaded": 10812,
    "Ġnotwithstanding": 9719,
    "read": 3272,
    "ouncement": 11746,
    "³": 116,
    "in": 262,
    "ringle": 21048,
    "narr": 12497,
    "Ġsupervised": 3583,
    "Ġdeployment": 11195,
    "asse": 15651,
    "society": 9974,
    "Ġnarration": 13505,
    "sensations": 20058,
    "Ġglo": 1713,
    "--": 1043,
    "Ġreligions": 20115,
    "Ġcons": 953,
    "subjects": 19884,
    "Ġfragmentary": 25868,
    "Ġconsisted": 10424,
    "Ġworaciousness": 22939,
    "Ġpads": 21479,
    "granting": 23426,
    "Ġrogue": 22412,
    "Ġtennessee": 26604,
    "Ġsilver": 7464,
    "Ġtalker": 23383,
    "pse": 21017,
    "Ġshut": 3945,
    "Ġventing": 19503,
    "Ġtremor": 24782,
    "been": 3344,
    "em": 389,
    "Ġdistantly": 18542,
    "opement": 10317,
    "Ġissue": 2308,
    "Ġcheat": 19031,
    "Ġcard": 7364,
    "Ġgriefs": 16781,
    "Ġcubic": 20097,
    "cturn": 17995,
    "Ġmental": 21326,
    "Ġcaring": 23102,
    "hedge": 22509,
    "acceptance": 25196,
    "plan": 15822,
    "kine": 15383,
    "ologist": 22862,
    "Ġwantest": 18801,
    "Ġupdates": 1297,
    "Ġsprings": 16697,
    "confess": 12177,
    "bons": 17494,
    "Ġkicking": 16910,
    "Ġcoincidence": 25492,
    "eyes": 5686,
    "inction": 6662,
    "Ġliveliness": 13644,
    "Ġimplicated": 24888,
    "Ġperched": 10305,
    "Ġmet": 1936,
    "Ġkneeling": 12144,
    "Ġounce": 15280,
    "Ġportentous": 15237,
    "Ġcommunicated": 9065,
    "heavy": 10580,
    "Ġmistake": 6205,
    "skirted": 24474,
    "Ġwonderfully": 10435,
    "Ġduck": 8796,
    "Ġhissing": 15797,
    "Ġbracing": 16590,
    "enance": 3371,
    "Ġlessons": 7691,
    "Ġdesignated": 19531,
    "Ġcommunications": 16364,
    "Ġplatonian": 25131,
    "Ġcompiled": 22580,
    "Ġornamented": 20368,
    "Ġenlar": 15808,
    "Ġcopse": 17074,
    "balance": 12008,
    "invisible": 17750,
    "Ġhumane": 11885,
    "Ġblank": 5950,
    "Ġfeeds": 16442,
    "Ġhighest": 3525,
    "Ġweedy": 15800,
    "himself": 3973,
    "Ġcircular": 13112,
    "Ġmar": 1308,
    "Ġskeletons": 16801,
    "Ġwafted": 14506,
    "protection": 19928,
    "german": 11496,
    "Ġjoin": 4856,
    "gown": 9603,
    "weep": 22694,
    "imodal": 17454,
    "ĠĠĠĠĠĠĠĠĠĠĠĠĠĠĠĠĠĠĠĠĠĠĠ": 18842,
    "recked": 17772,
    "flames": 14720,
    "Ġsally": 15508,
    "Ġbranches": 6778,
    "destiny": 16712,
    "explanation": 12359,
    "Ġhoarse": 14532,
    "elastic": 17989,
    "Ġspecks": 14313,
    "baron": 24938,
    "lucky": 24559,
    "orders": 12876,
    "Ġlives": 4829,
    "winds": 10527,
    "acqu": 4845,
    "Ġstingy": 25464,
    "Ġwaned": 17800,
    "iquet": 17583,
    "Ġtask": 1307,
    "itating": 9657,
    "female": 20674,
    "Ġstrang": 4165,
    "Ġsatire": 22911,
    "infl": 15494,
    "Ġlegendary": 20545,
    "Ġmortified": 14701,
    "union": 15776,
    "Ġincites": 22561,
    "powerful": 24860,
    "obed": 14452,
    "Ġtransom": 22474,
    "Ġpleased": 4066,
    "table": 5797,
    "Ġredeemed": 25798,
    "erranean": 9340,
    "Ġemployment": 8630,
    "Ġunceasing": 20364,
    "Ġreiterating": 26482,
    "sounding": 24809,
    "ieged": 22588,
    "Ġkiss": 8184,
    "lizzy": 6653,
    "Ġstand": 1734,
    "Ġdisregard": 22538,
    "interests": 19718,
    "Ġprocess": 560,
    "exper": 8882,
    "Ġmultiplied": 23701,
    "Ġdespondency": 16587,
    "Ġplutarch": 22616,
    "Ġeluded": 12924,
    "calculating": 25697,
    "Ġai": 3127,
    "Ġpoliteness": 8275,
    "idious": 11664,
    "Ġcordially": 16845,
    "Ġinterested": 6457,
    "Ġlatitudes": 9501,
    "```": 25902,
    "omit": 13982,
    "eth": 618,
    "Ġpurplish": 19152,
    "mblies": 24621,
    "Ġlun": 7855,
    "embra": 14077,
    "Ġpropriety": 10013,
    "Ġamounted": 18524,
    "iction": 4272,
    "Ġmake": 1283,
    "fel": 8736,
    "Ġneighbors": 25815,
    "Ġcorrespondent": 19829,
    "Ġnewspaper": 12365,
    "Ġcouple": 5425,
    "Ġimplies": 24886,
    "principal": 20668,
    "Ġeight": 3901,
    "Ġtorrid": 25045,
    "Ġeleven": 9394,
    "Ġtrade": 2549,
    "tfordshire": 4815,
    "consideration": 14965,
    "Ġruggedness": 26277,
    "Ġaristocratic": 20519,
    "1": 21,
    "Ġenveloped": 12208,
    "hr": 20897,
    "Ġnuptial": 25791,
    "speaks": 19729,
    "Ġimpossible": 3540,
    "Ġfull": 2174,
    "organic": 25955,
    "Ġdread": 3162,
    "Ġweig": 7618,
    "answer": 11736,
    "Ġhailing": 11694,
    "ineer": 11703,
    "etite": 21584,
    "Ġextinguish": 14342,
    "tackle": 17327,
    "impress": 18059,
    "proper": 7471,
    "Ġindistinctly": 26126,
    "Ġproper": 1381,
    "Ġshipwrecked": 25695,
    "Ġlavater": 20503,
    "Ġnigh": 4881,
    "oder": 2462,
    "ieve": 1660,
    "enc": 7573,
    "Ġcontest": 18483,
    "nowledge": 10295,
    "gressive": 2760,
    "indignation": 18448,
    "engagements": 25862,
    "Ġhip": 17929,
    "Ġmournfully": 20124,
    "Ġadoption": 24961,
    "Ġrecover": 9795,
    "Ġalleged": 17296,
    "tt": 13794,
    "excuse": 13383,
    "Ġsealed": 15826,
    "Ġrelate": 6879,
    "Ġforty": 5721,
    "Ġraved": 22661,
    "pick": 17642,
    "Ġnational": 13946,
    "Ġlifting": 10201,
    "Ġcarbuncle": 14451,
    "oking": 4609,
    "inex": 14100,
    "Ġominous": 12425,
    "idered": 4555,
    "Ġdesert": 7050,
    "Ġvarying": 15818,
    "afford": 14662,
    "Ġcrawl": 11380,
    "batch": 1980,
    "twist": 23708,
    "Ġcompre": 4454,
    "mariners": 19557,
    "Ġcyl": 15562,
    "oarsman": 25274,
    "field": 3073,
    "class": 4098,
    "Ġmatter": 1732,
    "ump": 2279,
    "Ġbeginning": 4247,
    "Ġdisappeared": 5647,
    "Ġ_": 840,
    "Ġshed": 8182,
    "headsman": 16710,
    "impotence": 23771,
    "Ġvoids": 25816,
    "twill": 21082,
    "Ġtoad": 21515,
    "Ġcandelabra": 26610,
    "Ġterribly": 10430,
    "Ġhousekeeper": 7456,
    "uish": 5434,
    "Ġamidst": 9499,
    "sulphur": 25918,
    "ll": 1142,
    "Ġmadden": 10453,
    "Ġcalculated": 4480,
    "don": 3541,
    "Ġremem": 4316,
    "Ġrequisition": 22642,
    "Ġexclaim": 11225,
    "Ġevident": 6614,
    "Ġdiscern": 7926,
    "Ġanother": 1736,
    "Ġprepared": 5880,
    "Ġ82": 24478,
    "Ġequilibrium": 4144,
    "Ġmatrim": 11063,
    "Ġerad": 25041,
    "fits": 13720,
    "anim": 6523,
    "chastic": 2332,
    "Ġweary": 5637,
    "Ġpropriet": 9555,
    "drew": 7336,
    "Ġpecks": 18681,
    "Ġcumul": 4184,
    "Ġresign": 18574,
    "Ġgroom": 13970,
    "maul": 11891,
    "Ġsupplies": 20333,
    "Ġhowl": 12856,
    "Ġdoomed": 11346,
    "Ġgreenness": 23777,
    "Ġmason": 10162,
    "Ġmors": 17810,
    "ortunity": 4409,
    "Ġspite": 4160,
    "Ġcurls": 23015,
    "Ġdefects": 12334,
    "lat": 9611,
    "ocity": 8279,
    "sails": 7497,
    "Ġinch": 7849,
    "alter": 10829,
    "Ġthrew": 3975,
    "Ġbamboo": 17444,
    "Ġlinear": 3430,
    "Ġlordly": 23755,
    "Ġecl": 18014,
    "Ġconfusing": 23320,
    "perils": 22187,
    "emotion": 21934,
    "Ġcetacean": 25887,
    "hereditary": 26428,
    "Ġrippling": 17283,
    "mun": 20971,
    "Ġdark": 2108,
    "Ġvainly": 9926,
    "Ġfiles": 21419,
    "chase": 11647,
    "hack": 20905,
    "Ġgloomily": 14813,
    "Ġeffected": 14359,
    "Ġ72": 19622,
    "04": 10683,
    "renew": 24466,
    "Ġmanilla": 15968,
    "Ġfortune": 4244,
    "possesses": 24629,
    "transformers": 8717,
    "Ġpastures": 23432,
    "Ġincor": 2610,
    "Ġpangs": 15620,
    "Ġnightgown": 23145,
    "triumph": 15447,
    "Ġguiltless": 16948,
    "mselves": 2867,
    "Ġeddystone": 25717,
    "Ġredoubled": 23764,
    "Ġpassionate": 11278,
    "Ġmockery": 12109,
    "Ġinfinitely": 8967,
    "orph": 21405,
    "vial": 17706,
    "cru": 7127,
    "Ġ39": 19499,
    "dom": 6224,
    "N": 50,
    "Ġmonomaniac": 9574,
    "throne": 25665,
    "Ġnautical": 17393,
    "urmount": 14000,
    "Ġembellish": 25858,
    "Ġquar": 3112,
    "Ġsaw": 1350,
    "rog": 15646,
    "Ġimbib": 22179,
    "unning": 4497,
    "Ġrowing": 10306,
    "Ġrunning": 3955,
    "Ġsailor": 3532,
    "necessities": 24320,
    "inished": 17743,
    "likely": 9026,
    "Ġrecovered": 5484,
    "felicity": 25152,
    "sideways": 14579,
    "Ġmarriage": 3186,
    "iates": 13739,
    "Ġsallied": 12538,
    "Ġwoods": 5407,
    "heart": 4528,
    "Ġfleet": 9438,
    "Ġ97": 19782,
    "Ġdivide": 12112,
    "authority": 13593,
    "friends": 8307,
    "pede": 19850,
    "ouching": 13180,
    "Ġbroad": 3637,
    "over": 1846,
    "Ġcronies": 23455,
    "Ġtheir": 642,
    "Ġgasping": 17045,
    "sell": 13784,
    "transformer": 25028,
    "anc": 6378,
    "breckinridge": 24086,
    "Ġgrudge": 20702,
    "Ġunpleasing": 22059,
    "ader": 14016,
    "Ġtravell": 5578,
    "Ġrode": 16007,
    "good": 2903,
    "Ġhinges": 15221,
    "Ġcumberland": 21361,
    "Ġsuffoc": 18881,
    "hotel": 20057,
    "Ġpoints": 5251,
    "Ġcheer": 4068,
    "Ġadm": 2401,
    "Ġdepending": 14296,
    "Ġmathemat": 3200,
    "Ġtorm": 5437,
    "atherine": 2595,
    "thro": 12762,
    "Ġrubbed": 12956,
    "Ġestates": 16468,
    "scarcely": 12387,
    "Ġdemig": 20363,
    "#": 7,
    "ë": 172,
    "mortals": 25418,
    "Ġimminent": 11249,
    "Ġintercepted": 25835,
    "desc": 1395,
    "Ġconventional": 25555,
    "Ġdisent": 22533,
    "aloes": 21507,
    "..": 5785,
    "Ġe": 312,
    "Ġtying": 15480,
    "Ġchinese": 14186,
    "Ġsemi": 11971,
    "Ġrounds": 18896,
    "Ġconceived": 8150,
    "Ġcushion": 17842,
    "Ġdepend": 780,
    "Ġshuttle": 12129,
    "chance": 6830,
    "tottenham": 25427,
    "rear": 21240,
    "Ġdriving": 3613,
    "Ġ61": 24379,
    "Ġflogged": 23637,
    "Ġchill": 11753,
    "Ġshorter": 4502,
    "did": 3193,
    "ense": 2049,
    "branch": 23592,
    "Ġearly": 2075,
    "Ġoblique": 20178,
    "Ġfavourably": 16374,
    "mitted": 5216,
    "Ġintegr": 7969,
    "Ġpitiable": 9916,
    "iven": 1235,
    "acter": 2509,
    "Ġsomewhere": 5385,
    "instances": 13330,
    "jephro": 26401,
    "gypt": 8262,
    "Ġsleeping": 6318,
    "Ġchink": 15941,
    "Ġsprained": 15889,
    "Ġslip": 8958,
    "Ġeldest": 6573,
    "Ġdecisive": 18493,
    "Ġcoaxing": 18612,
    "Ġbars": 13901,
    "Ġkno": 5245,
    "thinking": 9017,
    "Ġjackal": 24253,
    "5": 25,
    "Ġpaddled": 20210,
    "Ġsprung": 11253,
    "Ġwarrant": 17803,
    "Ġsunbeam": 23288,
    "Ġyield": 5097,
    "Ġthump": 11614,
    "Ġpresum": 4840,
    "Ġrecommence": 16822,
    "Ġneed": 2608,
    "Ġtreacherously": 25141,
    "Ġproc": 5547,
    ".,": 5988,
    "Ġthoughts": 3138,
    "esty": 4309,
    "Ġnext": 2135,
    "Ġspeaker": 19160,
    "Ġfavoring": 2342,
    "obli": 23106,
    "ivorous": 22083,
    "Ġdefendants": 15149,
    "inked": 12915,
    "eer": 15355,
    "Ġmisfortune": 5571,
    "Ġclever": 7056,
    "Ġpenalty": 1841,
    "Ġboxed": 24375,
    "Ġsegmentation": 17346,
    "Ġsepulchral": 25901,
    "ilated": 18065,
    "Ġconvolutions": 21812,
    "performed": 18351,
    "Ġeigenvalues": 5000,
    "Ġinsomuch": 23694,
    "vict": 11544,
    "Ġdeficient": 18835,
    "Ġmisunderstand": 18716,
    "Ġappear": 2490,
    "Ġdictating": 20161,
    "Ġhalloa": 13318,
    "Ġsweeping": 8989,
    "Ġdisturbed": 8674,
    "rug": 18360,
    "Ġmermaid": 17822,
    "bearings": 25381,
    "ouncing": 8496,
    "Ġvolley": 24159,
    "Ġcirculation": 16424,
    "gaffman": 26399,
    "Ġclutches": 20024,
    "Ġgrant": 11874,
    "Ġrattle": 10902,
    "erns": 8780,
    "Ġclub": 8877,
    "Ġvehement": 16210,
    "Ġgre": 1581,
    "Ġallude": 12772,
    "Ġsevent": 18211,
    "striking": 13442,
    "france": 24296,
    "Ġ124": 24489,
    "Ġassertion": 13052,
    "Ġbeck": 14013,
    "Ġpoetical": 25069,
    "Ġamazement": 7764,
    "pair": 21020,
    "canst": 22971,
    "itical": 5803,
    "harmony": 25758,
    "Ġadmiring": 16490,
    "fab": 13718,
    "Ġcoffee": 6762,
    "Ġappeased": 23208,
    "ic": 304,
    "Ġpar": 457,
    "Ġdemoniacal": 20565,
    "Ġabroad": 8869,
    "arial": 5534,
    "Ġinitials": 11017,
    "Ġwisely": 13274,
    "Ġelse": 2486,
    "antediluvian": 24361,
    "Ġcountrymen": 23609,
    "Ġmadness": 6603,
    "scy": 21063,
    "masterly": 24544,
    "Ġdrag": 6185,
    "Ġmarling": 23044,
    "Ġplush": 18622,
    "programming": 10066,
    "Ġthe": 270,
    "Ġwashed": 15771,
    "supposed": 13317,
    "Ġobligations": 12093,
    "n": 82,
    "circuit": 24202,
    "Ġreply": 4518,
    "Ġinsulted": 15003,
    "Ġsect": 17761,
    "Ġcanada": 22169,
    "Ġwithin": 2161,
    "Ġgrasped": 8033,
    "Ġsumm": 3355,
    "Ġsarat": 21235,
    "Ġmanipulated": 25189,
    "Ġhearties": 18976,
    "ality": 2515,
    "Ġpacific": 5156,
    "Ġdubious": 17390,
    "Ġflattered": 10380,
    "Ġhandspikes": 12940,
    "Ġsearch": 2590,
    "ining": 3219,
    "Ġlearnable": 3997,
    "Ġscenes": 5733,
    "Ġslink": 23175,
    "into": 3678,
    "Ġtools": 11612,
    "Ġprincely": 24162,
    "Ġfoliage": 18878,
    "Ġhitherto": 5883,
    "Ġbefore": 812,
    "Ġtoll": 7851,
    "Ġstately": 9837,
    "Ġcrimes": 8590,
    "topic": 10533,
    "Ġuncork": 23444,
    "below": 12123,
    "Ġteacup": 16222,
    "Ġfamiliar": 5515,
    "Ġswiftly": 5672,
    "Ġboots": 5943,
    "iding": 3847,
    "Ġcontrari": 23360,
    "Ġtribute": 15482,
    "claims": 25330,
    "Ġpet": 4589,
    "Ġoceans": 7995,
    "Ġbast": 21385,
    "gold": 9124,
    "Ġdoubted": 7966,
    "fingers": 17376,
    "feel": 3813,
    "sound": 6802,
    "Ġoutweigh": 22329,
    "leeward": 15219,
    "Ġgardiner": 3236,
    "Ġpatentee": 25595,
    "ax": 693,
    "dislike": 23506,
    "eg": 17537,
    "centred": 25030,
    "Ġchildish": 13140,
    "riors": 18196,
    "Ġnaut": 13945,
    "Ġoverdone": 22364,
    "Ġcomes": 3421,
    "Ġbab": 5292,
    "Ġoysters": 20587,
    "Ġnoblest": 13244,
    "beloved": 19470,
    "Ġpore": 21463,
    "Ġfluke": 14681,
    "Ġnobly": 22248,
    "Ġanxious": 4521,
    "discovery": 12018,
    "hurry": 24777,
    "Ġdeveloped": 16351,
    "anqu": 4113,
    "Ġtreasures": 17054,
    "Ġyesterday": 5335,
    "Ġacquainted": 5183,
    "once": 5905,
    "Ġchaplain": 19920,
    "Ġpresently": 5120,
    "Ġinvol": 1016,
    "Ġregretted": 13403,
    "Ġpromises": 10406,
    "Ġthirty": 4946,
    "Ġplu": 8801,
    "insufferable": 21200,
    "Ġprobably": 4317,
    "appe": 2946,
    "Ġparacelsus": 15274,
    "maritime": 24186,
    "Ġmarlings": 23046,
    "sooner": 14787,
    "Ġfaster": 3195,
    "Ġunable": 4953,
    "Ġsuspend": 14616,
    "yards": 9630,
    "Ġdoze": 14179,
    "mm": 675,
    "Ġacknowledgment": 16963,
    "Ġtwins": 16129,
    "Ġantip": 24191,
    "Ġrot": 10970,
    "Ġreconcile": 25304,
    "Ġbled": 17865,
    "chief": 4648,
    "eric": 3468,
    "Ã¦": 4342,
    "Ġirons": 7695,
    "jabez": 20942,
    "Ġattendant": 11290,
    "hoped": 20919,
    "beaut": 8514,
    "Ġamsterdam": 22495,
    "Ġappalled": 22221,
    "Ġlack": 17972,
    "wing": 2523,
    "Ġtrifled": 24689,
    "Ġhalts": 3158,
    "Ġate": 8843,
    "atherley": 7221,
    "shish": 11794,
    "ertion": 5664,
    "Ġidentified": 19162,
    "mouse": 15400,
    "Ġsy": 489,
    "perceived": 8862,
    "Ġhon": 2540,
    "lantern": 17436,
    "spect": 3230,
    "Ġleaps": 14012,
    "sun": 7140,
    "blo": 6352,
    "teringly": 21828,
    "brother": 7093,
    "Ġpeddler": 24813,
    "Ġender": 11691,
    "Ġfolios": 23031,
    "women": 15463,
    "Ġhesitation": 13443,
    "Ġdevoid": 18692,
    "Ġrefresh": 10351,
    "Ġtomahawk": 7538,
    "Ġcounsell": 25393,
    "Ġsternly": 16725,
    "Ġexamined": 6333,
    "Ġgowns": 25369,
    "Ġroman": 8324,
    "Ġlethargy": 26491,
    "ientific": 6549,
    "iver": 2046,
    "medium": 23651,
    "Ġwines": 21295,
    "semicirc": 26499,
    "Ġunfit": 14799,
    "osy": 11759,
    "requent": 3647,
    "Ġfloat": 12035,
    "Ġascent": 19629,
    "Ġimposing": 11782,
    "Ġthw": 21520,
    "Ġderanged": 23186,
    "recursion": 13331,
    "iate": 6505,
    "hauled": 20676,
    "Ġtemperature": 1005,
    "Ġstoried": 18080,
    "Ġtravelled": 7771,
    "grasping": 20649,
    "Ġlithe": 24683,
    "prevailed": 17351,
    "Ġquadrant": 11409,
    "sens": 8095,
    "Ġmeditations": 25026,
    "Ġrob": 1290,
    "Ġclock": 9538,
    "_;": 6643,
    "ģ": 228,
    "Ġminut": 2198,
    "yramid": 8368,
    "Ġreputed": 18043,
    "Ġeasiness": 23549,
    "Ġintimately": 24817,
    "Ġdisengaged": 12891,
    "Ġcovent": 16083,
    "relapse": 24025,
    "Ġdetermined": 2218,
    "ĠĠĠĠĠĠĠĠĠĠĠĠĠĠĠĠĠĠĠĠĠĠĠĠĠĠĠĠĠĠĠĠĠĠĠĠĠĠĠĠĠĠĠĠĠĠ": 9956,
    "Ġfourth": 7706,
    "Ġexactly": 2774,
    "Ġgamy": 18007,
    "Ġsofas": 26232,
    "concerning": 9071,
    "ć": 200,
    "Ġanat": 8124,
    "by": 1158,
    "dation": 2614,
    "Ġsurve": 9877,
    "Ġwhilst": 9226,
    "Ġriddles": 16743,
    "Ġprehens": 22237,
    "maltese": 24808,
    "Ġtemper": 956,
    "ologically": 22863,
    "Ġcommission": 6715,
    "Ġgestures": 13537,
    "Ġhumaneval": 25590,
    "Ġf": 283,
    "Ġinitialization": 1251,
    "professor": 17256,
    "umbers": 10921,
    "Ġdined": 9184,
    "Ġremedy": 18736,
    "Ġmutiny": 13261,
    "Ġaffect": 1387,
    "ol": 361,
    "'(": 2981,
    "Ġetext": 23959,
    "Ġparticular": 2452,
    "cious": 6645,
    "Ġunavailing": 26224,
    "itigated": 23057,
    "Ġ\"": 6120,
    "Ġlounged": 19960,
    "Ġdress": 4020,
    "interview": 19307,
    "Ġun": 423,
    "Ġwarmed": 12027,
    "Ġreduces": 2341,
    "Ġhorses": 6384,
    "rary": 4578,
    "Ġincomp": 12899,
    "Ġbrawn": 10488,
    "faint": 17553,
    "Ġemboldened": 23012,
    "receiving": 12544,
    "repid": 11568,
    "Ġindu": 5296,
    "Ġconqueror": 25805,
    "iour": 4039,
    "Ġsuffering": 8950,
    "Ġevol": 2818,
    "Ġsincerity": 13680,
    "Ġmetaphysical": 26079,
    "Ġtemptations": 24522,
    "Ġproperties": 3117,
    "Ġcomo": 21859,
    "Ġbennett": 16334,
    "Ġrosings": 4610,
    "Ġaffronted": 22897,
    "Ġenjoying": 11238,
    "Ġprize": 11950,
    "Ġnapkins": 25172,
    "Ġdisconnected": 22535,
    "Ġrate": 1062,
    "istics": 1630,
    "Ġhay": 11608,
    "iter": 4397,
    "Ġreplaced": 13074,
    "Ġregion": 2267,
    "destined": 24128,
    "Ġtheore": 1828,
    "landsmen": 25072,
    "Ġeels": 21627,
    "Ġeagerness": 6610,
    "medi": 2631,
    "faces": 13722,
    "Ġpersuade": 5876,
    "tree": 11538,
    "Ġcachalot": 17843,
    "Ġsurveying": 25335,
    "Ġcongenial": 12412,
    "boil": 19010,
    "54": 15307,
    "Ġguarded": 9828,
    "ict": 592,
    "arranging": 19328,
    "Ġtahitian": 25436,
    "Ġgle": 7858,
    "Ġjo": 2609,
    "Ġbegan": 2020,
    "Ġcoincid": 20324,
    "mmar": 952,
    "monkey": 19181,
    "Ġrecept": 1523,
    "Ġold": 1057,
    "Ġdialogue": 12405,
    "Ġland": 1995,
    "Ġbeamed": 23733,
    "Ġtwitched": 20451,
    "Ġexhilarating": 26346,
    "puted": 8849,
    "oft": 3587,
    "truck": 15448,
    "Ġfee": 7199,
    "abby": 14025,
    "Ġruns": 8596,
    "Ġlug": 15658,
    "Ġvortex": 26217,
    "comparatively": 25848,
    "yra": 8103,
    "conquerable": 17406,
    "Ġdwell": 5815,
    "works": 6593,
    "Ġimmediately": 3366,
    "Ġfagged": 17892,
    "Ġsway": 7570,
    "Ġcapering": 21360,
    "ism": 4877,
    "Ġdegenerating": 25808,
    "Ġjudges": 14693,
    "Ġoat": 21329,
    "Ġbraz": 19367,
    "Ġlanguage": 650,
    "Ġmarchant": 14798,
    "Ġpaints": 23534,
    "Ġgateway": 24815,
    "Ġcompan": 2170,
    "vanity": 24987,
    "akes": 2215,
    "Ġmerchantmen": 19866,
    "Ġforwarded": 19053,
    "ried": 926,
    "Ġwer": 12552,
    "pump": 21025,
    "scenes": 16249,
    "Ġfaint": 5814,
    "prophet": 16189,
    "ased": 1264,
    "Ġsinks": 19558,
    "ediction": 17953,
    "Ġcigars": 12253,
    "Ġcylinders": 25952,
    "prehensible": 12361,
    "Ġmelancholy": 5609,
    "Ġfuller": 11159,
    "appeared": 4285,
    "Ġpine": 8799,
    "dogs": 25411,
    "traced": 19648,
    "Ġphysiogn": 12389,
    "meas": 7435,
    "Ġconsolidation": 5063,
    "Ġvacantly": 16825,
    "Ġrope": 4343,
    "Ġoutput": 930,
    "exertion": 16024,
    "Ġfluctuating": 24433,
    "Ġencoura": 1369,
    "myself": 5117,
    "Ġthoughtful": 16200,
    "ĠâĢĺ_": 11119,
    "Ġconting": 18482,
    "vest": 6512,
    "Ġpreference": 9738,
    "Ġluggage": 25966,
    "Ġnose": 4408,
    "ity": 417,
    "Ġpetersburgh": 24242,
    "Ġphysiognomically": 25621,
    "Ġbenef": 3486,
    "Ġfly": 3869,
    "police": 10589,
    "Ġtug": 11554,
    "laughing": 15188,
    "ilar": 10221,
    "Ġsling": 21228,
    "Ġper": 588,
    "changed": 7176,
    "Ġessentials": 20008,
    "Ġunfor": 15848,
    "hence": 16636,
    "get": 1022,
    "abominable": 20602,
    "Ġjub": 22302,
    "Ġconcept": 670,
    "Ġknotted": 17026,
    "nosed": 21001,
    "welt": 12521,
    "Ġmouthful": 16584,
    "I": 45,
    "Ġfrenz": 25455,
    "Ġextraordinary": 5415,
    "stead": 10849,
    "audible": 17140,
    "heads": 4097,
    "Ġregarding": 13214,
    "Ġtelegra": 11893,
    "Ġalgorithms": 858,
    "Ġmoney": 3416,
    "¡": 99,
    "Ġsank": 5080,
    "separated": 20168,
    "pped": 1996,
    "ior": 2038,
    "admit": 18098,
    "Ġrecede": 25977,
    "Ġpage": 6981,
    "Ġthought": 1095,
    "namely": 23728,
    "Ġsteam": 9359,
    "unforeseen": 21894,
    "event": 8076,
    "Ġfetching": 16905,
    "Ġothers": 2583,
    "Ġsideways": 6183,
    "quered": 11059,
    "Ġmerc": 9432,
    "Ġwhatever": 3471,
    "Ġover": 554,
    "Ġchart": 10948,
    "Ġforbidden": 17085,
    "warm": 8102,
    "Ġnorris": 23214,
    "Ġour": 1011,
    "Ĕ": 213,
    "design": 18967,
    "track": 24328,
    "Ġconsid": 1813,
    "Ġexclaimed": 4686,
    "Ġubiqu": 18054,
    "arcy": 1271,
    "Ġobsc": 7040,
    "Ġintelligible": 15950,
    "Ġpreferred": 14976,
    "Ġjack": 4656,
    "Ġtries": 9157,
    "proceed": 8980,
    "Ġprospect": 4709,
    "conven": 6163,
    "Ġdiscernment": 15076,
    "Ġturing": 7565,
    "Ġcaught": 3729,
    "bingley": 4929,
    "conf": 4959,
    "passage": 11266,
    "Ġphrenologists": 25617,
    "omen": 4089,
    "Â£": 4816,
    "Ħ": 231,
    "Ġrobots": 11086,
    "arctic": 12611,
    "ues": 3986,
    "Ġimprovements": 14515,
    "Ġ77": 24277,
    "remembered": 17357,
    "ists": 4002,
    "stre": 5454,
    "ixed": 4854,
    "Ġexcessive": 3891,
    "Ġboom": 9316,
    "neys": 23596,
    "despair": 8345,
    "Ġample": 11799,
    "Ġtusked": 25435,
    "sherlock": 5424,
    "Ġinsisted": 12048,
    "Ġbutton": 10273,
    "collecting": 26090,
    "oura": 1059,
    "Ġbelonged": 6925,
    "Ġpersuas": 23956,
    "Ġangrily": 9413,
    "Ġcontinually": 5045,
    "Ġdescended": 7429,
    "oting": 2751,
    "jonah": 11501,
    "aping": 8195,
    "Ġvalued": 11934,
    "ime": 626,
    "Ġsweep": 8267,
    "Ġconsolation": 6210,
    "Ġfacing": 10176,
    "endure": 22230,
    "Ġscheming": 23282,
    "Ġhaze": 18205,
    "osures": 22268,
    "Ġconfide": 13100,
    "rained": 5165,
    "Ġstilly": 25982,
    "utter": 7592,
    "Ġnewsp": 9345,
    "iting": 2155,
    "prejudiced": 17302,
    "Ġprefers": 20521,
    "Ġserv": 3304,
    "Ġtransfer": 2466,
    "Ġhusbands": 16652,
    "Ġelementary": 24827,
    "cheerful": 13577,
    "regarding": 15079,
    "hope": 5990,
    "drunk": 24674,
    "ricade": 13040,
    "Ġimmemorial": 10515,
    "avating": 18617,
    "cstasy": 11450,
    "den": 938,
    "Ġ86": 24481,
    "wild": 8769,
    "Ġslily": 23176,
    "Ġhorsey": 24263,
    "Ġwarehouse": 20423,
    "Ġzigzag": 26281,
    "alyards": 18785,
    "Ġexpeditions": 24967,
    "Ġ50": 24333,
    "sigma": 3005,
    "speed": 19419,
    "Ġloath": 7891,
    "Ġtalking": 3858,
    "Ġdizzy": 21438,
    "Ġelapsed": 7652,
    "Ġintrodu": 1922,
    "Ġsqueezed": 20042,
    "Ġforgotten": 5681,
    "Ġlurks": 11295,
    "Ġplay": 2629,
    "uarded": 21113,
    "Ġquery": 2485,
    "Ġpatiently": 19926,
    "Ġsought": 5012,
    "Ġliar": 22415,
    "Ġalready": 2718,
    "Ġdirections": 1968,
    "mont": 19180,
    "Ġsynthe": 26016,
    "Ġsurmises": 17062,
    "astes": 11740,
    "Ġhunters": 6299,
    "ohn": 4563,
    "Ġcharms": 11133,
    "Ġobser": 2372,
    "Ġleg": 2333,
    "Ġdoubloon": 6948,
    "Ġasleep": 6839,
    "chester": 23816,
    "feature": 3881,
    "Ġfil": 3470,
    "Ġtrappers": 23092,
    "ifted": 4498,
    "extremely": 26272,
    "Ġneighbour": 3809,
    "firmly": 20287,
    "Ġunexplored": 26527,
    "imming": 9693,
    "rinted": 21051,
    "dropping": 14993,
    "Ġreconciliation": 25305,
    "iar": 2375,
    "Ġdexterity": 25307,
    "reasonable": 7751,
    "Ġtendency": 11334,
    "Ġsufficiently": 8977,
    "Ġafternoon": 6053,
    "Ġghast": 9217,
    "churning": 21702,
    "overcoat": 19061,
    "prevent": 11796,
    "kov": 17594,
    "Ġconversation": 3329,
    "Ġpassenger": 14375,
    "irting": 11687,
    "Ġappals": 22220,
    "Ġsil": 1797,
    "insulting": 26064,
    "Ġabomination": 22285,
    "Ġices": 21162,
    "Ġcrystall": 20234,
    "ses": 3027,
    "ood": 962,
    "Ġalfred": 21791,
    "inquir": 9541,
    "Ġpassion": 4559,
    "Ġfeedback": 23447,
    "Ġsuccession": 12103,
    "Ġstarting": 7728,
    "ains": 5098,
    "Ġstumbling": 21747,
    "Ġtears": 4235,
    "Ġsweetness": 9450,
    "Ġinconvenient": 20015,
    "sil": 5285,
    "sensible": 20059,
    "asleep": 21549,
    "Ġstaving": 21742,
    "Ġoughts": 23908,
    "Ġcomputes": 4772,
    "ounix": 14168,
    "Ġoriginally": 7306,
    "Ġabed": 22272,
    "Ġbumpkin": 20209,
    "equal": 15004,
    "hush": 20914,
    "Ġendurance": 23157,
    "thoroughly": 26516,
    "elope": 14471,
    "Ġbitter": 4179,
    "Ġview": 2768,
    "Ġprestige": 22243,
    "rers": 14727,
    "ppery": 10895,
    "Ġeagle": 13204,
    "Ġregard": 3068,
    "character": 6330,
    "dense": 18728,
    "Ġdeliber": 7270,
    "Ġquestioning": 10470,
    "Ġhemp": 9223,
    "Ġhours": 2824,
    "ommod": 13985,
    "sharp": 10311,
    "killed": 15384,
    "una": 21874,
    "Ġsemicircle": 26076,
    "Ġskirt": 18741,
    "Ġunwarrantable": 26362,
    "Ġcommanded": 6329,
    "cept": 551,
    "!)": 10072,
    "Ġdeserved": 7739,
    "lod": 15386,
    "asible": 21547,
    "lot": 3206,
    "Ġsport": 6690,
    "Ġrueful": 25589,
    "Ġcraven": 16478,
    "Ġyounger": 5255,
    "rendering": 22347,
    "stick": 15690,
    "Ġmoved": 4842,
    "Ġacknowledged": 7533,
    "ask": 856,
    "avail": 18616,
    "E": 41,
    "their": 2543,
    "Ġexperiences": 13022,
    "Ġclifford": 22361,
    "windibank": 24175,
    "Ġbrag": 23843,
    "pennies": 26294,
    "Ġer": 8105,
    "Ġtroub": 22372,
    "Ġbolts": 16951,
    "Ġraft": 16125,
    "Ġconsidering": 4618,
    "actually": 14302,
    "Ġchimneys": 16978,
    "dar": 20833,
    "Ġruin": 6056,
    "Ġsplinters": 15111,
    "ryder": 18651,
    "suffer": 24347,
    "Ġfamil": 4323,
    "Ġexact": 2545,
    "Ġuplifted": 11649,
    "Ġhairs": 13234,
    "Ġmarbank": 23047,
    "henomen": 10500,
    "Ġverse": 16612,
    "Ġpeculiarly": 8288,
    "Ġuniform": 2222,
    "Ġfibres": 12952,
    "variance": 2660,
    "Ġgesture": 11404,
    "Ġrenegades": 26484,
    "Ġconce": 3420,
    "(-": 2982,
    "Ġenduring": 16313,
    "Ġpenalizing": 13092,
    "Ġdented": 17901,
    "Ġsideboard": 10391,
    "Ġcourtship": 24150,
    "Ġmagic": 8234,
    "iah": 14420,
    "Ġeyelashes": 26115,
    "Ġdownst": 3556,
    "Ġhumped": 19778,
    "Ġexempt": 21834,
    "Ġweal": 21926,
    "quitted": 21851,
    "respond": 12545,
    "Ġdiabolism": 25522,
    "Ġriding": 14098,
    "Ġpant": 10820,
    "Ġtold": 2181,
    "Ġdrawn": 4279,
    "Ġinflex": 20644,
    "kill": 13746,
    "Ġcommercial": 22684,
    "Ġboast": 7035,
    "Ġmartha": 16269,
    "individual": 18446,
    "spoken": 11862,
    "Ġdevice": 1925,
    "Ġsympt": 7014,
    "İ": 241,
    "Ġdegenerated": 20513,
    "monster": 8593,
    "prior": 21040,
    "Ġdetestable": 15107,
    "Ġmultiple": 1185,
    "rifled": 21055,
    "Ġnat": 12647,
    "Ġgoethe": 22431,
    "Ġcaulk": 25449,
    "osure": 5309,
    "Ġlosing": 10919,
    "deceit": 25564,
    "Ġbespe": 19252,
    "omas": 12678,
    "Ġdrunkard": 20186,
    "pond": 21021,
    "is": 280,
    "wled": 15461,
    "lege": 17850,
    "allen": 22196,
    "Ġpew": 9321,
    "Ġplank": 7034,
    "Ġspont": 22131,
    "belais": 24048,
    "Ġcedars": 20299,
    "Ġdriven": 6199,
    "calm": 8938,
    "behind": 6781,
    "Ġclatter": 22352,
    "Ġfoundations": 11077,
    "Ġworry": 18826,
    "Ġserviceable": 24731,
    "spade": 10345,
    "Ġdeafened": 25659,
    "flo": 6115,
    "Ġvertu": 23900,
    "impe": 21713,
    "Ġverd": 6922,
    "bitt": 17493,
    "Ġjove": 9274,
    "riend": 1183,
    "Ġtranspired": 16794,
    "gyric": 19121,
    "Ġextinction": 14341,
    "Ġended": 7950,
    "education": 20308,
    "careful": 14878,
    "Ġtoken": 2036,
    "Ġbedfellow": 16446,
    "Ġenraptured": 26508,
    "Ġany": 686,
    "ample": 1366,
    "Ġassistants": 9455,
    "Ġnineveh": 13392,
    "Ġapprehending": 26099,
    "Ġprocedures": 9418,
    "Ġimperfect": 13341,
    "boy": 4743,
    "Ġcomp": 724,
    "examination": 25487,
    "Ġimages": 1601,
    "Ġexceptional": 19380,
    "Ġhed": 7388,
    "Ġtemporary": 7981,
    "Ġhandles": 22707,
    "Ġpositions": 2054,
    "Ġsooner": 5575,
    "Ġexistence": 4710,
    "Ġprocessing": 891,
    "ozy": 17630,
    "Ġstormy": 16738,
    "Ġbewit": 15734,
    "rium": 3132,
    "ogue": 9785,
    "Ġhandsom": 11126,
    "arab": 21447,
    "Ġhartshorn": 26189,
    "room": 2175,
    "ĠĠĠĠĠĠĠĠĠĠĠĠĠĠĠĠĠĠĠĠĠĠĠĠĠĠĠĠĠ": 19710,
    "Ġdi": 6526,
    "Ġtum": 5694,
    "Ġbrigandish": 25496,
    "Ġbreat": 3458,
    "Ġdaybreak": 18738,
    "Ġappend": 18366,
    "Ġadhering": 14144,
    "oles": 21013,
    "Ġbade": 9179,
    "Ġconsistent": 14534,
    "Ġmeasuring": 22887,
    "eck": 20853,
    "Ġtrembled": 8703,
    "gris": 8261,
    "caut": 20821,
    "Ġdrawback": 23999,
    "ikes": 8086,
    "Ġsmut": 22566,
    "Ġimpaling": 22390,
    "clay": 18941,
    "Ġreconsidered": 21678,
    "Ġperiod": 4005,
    "Ġsplitting": 4388,
    "Ġbland": 11067,
    "Ġspurned": 12798,
    "itioned": 22479,
    "Ġnooks": 26020,
    "connection": 18879,
    "Ġmaybe": 12950,
    "Ġoccupations": 9462,
    "Ġeaves": 15682,
    "desolate": 25711,
    "Ġdifficulty": 5772,
    "Ġhertfordshire": 5378,
    "endeavour": 17038,
    "Ġapplied": 6187,
    "confirmation": 26098,
    "splice": 17178,
    "Ġmajor": 13292,
    "ferent": 4199,
    "Ġdescend": 7428,
    "Ġsle": 2012,
    "thr": 12761,
    "ernsey": 8905,
    "rain": 461,
    "Ġagreeable": 4554,
    "Ġscreams": 24620,
    "Ġhuff": 21493,
    "decor": 23790,
    "Ġtend": 6121,
    "Ġtyphoon": 12390,
    "Ġwarmest": 16494,
    "ise": 707,
    "Ġhugest": 17022,
    "Ġdisd": 7031,
    "unless": 9241,
    "Ġmounts": 17815,
    "Ġroarings": 25315,
    "dra": 3411,
    "property": 20005,
    "Ġdemoniac": 15072,
    "Ġwhims": 12694,
    "threadbare": 25998,
    "Ġremember": 2684,
    "Ġwretchedness": 9030,
    "Ġthrown": 4643,
    "č": 206,
    "icorn": 15663,
    "boscombe": 26130,
    "Ġcrystal": 17222,
    "serves": 23267,
    "Ġobjectionable": 16998,
    "conclusion": 25679,
    "Ġsheet": 6262,
    "Ġtesting": 23209,
    "Ġcollectively": 19974,
    "Ġquoin": 22425,
    "spin": 22742,
    "Ġpam": 21459,
    "Ġstone": 4649,
    "oons": 12500,
    "Ġthanked": 9464,
    "oll": 5459,
    "Ġswarming": 16282,
    "Ġstur": 15723,
    "Ġavailed": 23928,
    "Ġsteered": 11096,
    "Ġroared": 7025,
    "ĠâĢľ": 516,
    "Ġdining": 6980,
    "trouble": 8296,
    "jumped": 20254,
    "Ġcontrived": 10309,
    "Ġdressing": 7092,
    "Ġvomit": 21953,
    "ief": 2043,
    "Ġinestimable": 17449,
    "burning": 25091,
    "Ġrusty": 14974,
    "Ġli": 602,
    "found": 4219,
    "Ġhoping": 11108,
    "agitation": 14072,
    "Ġevenness": 22843,
    "Ġfollowed": 1794,
    "aan": 20773,
    "Ġstrives": 23713,
    "Ġhearty": 9848,
    "Ġfacilitate": 26107,
    "warks": 5006,
    "trifling": 19424,
    "Ġstreamed": 14554,
    "Ġdro": 2777,
    "Ġinsensibility": 17118,
    "Ġresembles": 25978,
    "forecastle": 10993,
    "ructive": 18578,
    "Ġcreation": 6437,
    "rons": 21047,
    "Ġascertained": 25309,
    "proud": 9906,
    "Ġsplice": 19318,
    "illum": 15878,
    "Ġlurid": 19692,
    "zar": 11551,
    "Ġenjoy": 3759,
    "rap": 21633,
    "Ġjenkinson": 11436,
    "Ġdelicious": 14805,
    "exact": 7910,
    "ray": 2441,
    "Ġprelimin": 8864,
    "sed": 4182,
    "ude": 7561,
    "Ġflatter": 9354,
    "Ġspaniards": 25563,
    "Ġevidence": 5272,
    "Ġungracious": 18267,
    "^": 66,
    "Ġbird": 3755,
    "Ġprotesting": 14750,
    "Ġlaz": 7379,
    "ision": 1853,
    "Ġastonishment": 4798,
    "sitting": 8388,
    "ats": 4257,
    "Ġconjugal": 25114,
    "da": 17522,
    "Ġpipe": 4324,
    "Ġcoincidences": 26372,
    "Ġquarrelling": 13500,
    "inclination": 20065,
    "Ġdeified": 18145,
    "rapid": 12672,
    "ĠĠĠĠĠĠĠĠĠĠĠĠĠĠĠĠĠĠĠĠĠĠĠĠĠĠĠĠĠĠĠĠĠĠĠĠĠĠĠĠĠĠĠĠĠĠĠĠĠ": 20044,
    "Ġsick": 4696,
    "Ġprophecy": 25714,
    "Ġlomb": 21564,
    "Ġjustify": 11075,
    "madam": 24437,
    "how": 1645,
    "Ġgrace": 5376,
    "Ġbur": 2704,
    "bulkington": 19933,
    "Ġpassengers": 13677,
    ")(": 2983,
    "Ġrespectfully": 19005,
    "Ġbluish": 23664,
    "brandy": 19214,
    "avast": 8900,
    "nne": 20998,
    "mant": 20974,
    "mercenary": 26324,
    "places": 7877,
    "Ġpreluding": 18377,
    "Ġunrem": 18253,
    "ificial": 609,
    "Ġsenor": 20159,
    "able": 452,
    "Ġglimpse": 6947,
    "ra": 314,
    "Ġwet": 6519,
    "Ġostentatious": 25744,
    "Ġfile": 13907,
    "Ġprized": 23233,
    "Ġaccumulated": 11932,
    "«": 109,
    "Ġundisturbed": 19529,
    "Ġcalculates": 13266,
    "Ġpersecutor": 26105,
    "Ġgordon": 26475,
    "condite": 23259,
    "Ġleads": 12098,
    "Ġrain": 5007,
    "source": 11530,
    "Ġpurse": 12012,
    "Ġbeliefs": 24599,
    "bun": 12439,
    "oy": 1006,
    "Ġfaults": 12212,
    "Ġswerve": 14443,
    "Ġemploying": 23987,
    "Ġrevisit": 21675,
    "Ġrag": 18653,
    "Ġcommencement": 12239,
    "giv": 13724,
    "Ġfling": 9667,
    "Ġunmanufactured": 20440,
    "Ġauthorities": 11269,
    "Ġsmacking": 20174,
    "Ġdenying": 14666,
    "Ê": 139,
    "Ġgourmand": 26474,
    "Ġfiendish": 13329,
    "Ġlayers": 819,
    "Ġaff": 1118,
    "Ġsnuffing": 25025,
    "ķ": 248,
    "cooee": 12419,
    "hateful": 20918,
    "Ġfiddle": 25453,
    "Ġeasterly": 25971,
    "Ġchief": 3381,
    "heaven": 8052,
    "Ġelias": 18647,
    "ston": 15688,
    "Ġirresistible": 13114,
    "Ġundec": 22023,
    "Ġunharmed": 15148,
    "Ġvirt": 3907,
    "affectionate": 24934,
    "Ġvictoria": 14885,
    "Ġoversight": 22363,
    "oubled": 23660,
    "Ġweeks": 4567,
    "Ġtangled": 13831,
    "filled": 9601,
    "Ġadv": 1136,
    "Ġpunchbowl": 20239,
    "Ġuncles": 23445,
    "Ġintensified": 17025,
    "Ġpeev": 22703,
    "Ġcomprehens": 8321,
    "Ġopal": 23638,
    "silenced": 24439,
    "Ġdynamically": 4336,
    "cable": 20806,
    "make": 5795,
    "Ġvengeful": 14902,
    "Ġguitar": 16280,
    "oping": 5561,
    "speckled": 23954,
    "Ġunex": 11714,
    "collected": 13217,
    "Ġurging": 24519,
    "ild": 1154,
    "Ġmug": 21319,
    "Ġro": 600,
    "desol": 13070,
    "Ġscraped": 16912,
    "reason": 4420,
    "Ġinsight": 16540,
    "Ġbosoms": 16805,
    "Ġupbra": 22157,
    "Ġcomforted": 19400,
    "vishnoo": 21128,
    "Ġ1": 1017,
    "ruct": 698,
    "Ġintroduction": 8974,
    "Ġopened": 3509,
    "iance": 5282,
    "Ġfairy": 14635,
    "Ġchivalrous": 20522,
    "Ġvices": 14087,
    "anging": 3548,
    "grat": 5055,
    "minded": 9041,
    "tures": 21077,
    "Ġvarieties": 14315,
    "Ġincurable": 22562,
    "Ġiroqu": 21624,
    "ire": 492,
    "mason": 17611,
    "face": 3675,
    "tiest": 21089,
    "cro": 13698,
    "Ġinex": 6529,
    "bol": 8720,
    "savagery": 25038,
    "Ġindignant": 12240,
    "Ġsuperhuman": 23466,
    "_.âĢĶ": 23485,
    "Ġprevented": 5942,
    "ure": 356,
    "mons": 17608,
    "draul": 9447,
    "Ġdawn": 6819,
    "idean": 14268,
    "Ġdisp": 3358,
    "Ġweltering": 19596,
    "kempt": 20950,
    "Ġparmacetti": 20614,
    "Ġeulogy": 26479,
    "confusion": 13371,
    "bastian": 10677,
    "Ġapologized": 25209,
    "dece": 11734,
    "Ġhardest": 18922,
    "Ġiceberg": 14723,
    "Ġperpetual": 12304,
    "Ġdisplay": 6427,
    "Ġrelinqu": 12982,
    "tuning": 1580,
    "meth": 11507,
    "support": 9475,
    "Ġscheduling": 2347,
    "Ġversion": 10634,
    "Ġsentiment": 6591,
    "Ġcredulous": 17152,
    "Ġagatha": 6870,
    "ony": 3029,
    "Ġsharkish": 24520,
    "Ġaided": 17755,
    "Ġcirclings": 26439,
    "ittingly": 18815,
    "glances": 23863,
    "begging": 22507,
    "aloons": 20016,
    "Ġarrogance": 26240,
    "Ġforemost": 12006,
    "bildad": 9593,
    "ways": 1442,
    "ving": 593,
    "Ġfant": 9181,
    "Ġcivilized": 8667,
    "coming": 3559,
    "Ġgazette": 19510,
    "consol": 9766,
    "Ġweakened": 16833,
    "Ġdashing": 8798,
    "jaw": 13745,
    "Ġviol": 2068,
    "Ġceremonious": 24850,
    "Ġidentify": 12015,
    "Ġezekiel": 26201,
    "Ġfamine": 16337,
    "une": 2791,
    "chair": 5918,
    "lested": 14895,
    "ical": 754,
    "ignomin": 23278,
    "Ġawaited": 17081,
    "Ġbrit": 6288,
    "Ġreceives": 20361,
    "Ġhappier": 10364,
    "Ġramble": 9319,
    "Ġflorida": 20667,
    "Ġdemon": 7869,
    "Ġhorrid": 7998,
    "houses": 9606,
    "Ġx": 2070,
    "Ġmogul": 12864,
    "spoutings": 25014,
    "Ġunparalleled": 15862,
    "Ġunchanging": 22050,
    "Ġheavens": 5053,
    "ittarius": 22384,
    "Ġhadn": 9724,
    "ince": 4344,
    "Ġboone": 11841,
    "Ġinstance": 2547,
    "Ġrecommended": 8670,
    "Ġ12": 5486,
    "sold": 15433,
    "ellent": 3760,
    "travel": 24330,
    "Ġbeams": 14639,
    "Ġmoods": 14962,
    "Ġasi": 12734,
    "Ġsubterranean": 13613,
    "companions": 15035,
    "watches": 14958,
    "Ġsystematically": 3764,
    "Ġannihilation": 15174,
    "service": 14767,
    "Ġprefer": 6415,
    "Ġincumbent": 16071,
    "Ġsalut": 10514,
    "pans": 13773,
    "Ġintroducing": 11978,
    "Ġspires": 11729,
    "Ġcontempt": 6275,
    "avering": 24806,
    "Ġplates": 11010,
    "Ġbite": 10800,
    "Ġexal": 10880,
    "prodigious": 17474,
    "ender": 9168,
    "Ġinsurg": 23692,
    "Ġslid": 7952,
    "springing": 24902,
    "itional": 22478,
    "Ġale": 9161,
    "Ġpenetrated": 13475,
    "Ġexpressly": 16463,
    "echo": 15356,
    "L": 48,
    "...": 24563,
    "pillar": 5621,
    "outs": 7010,
    "Ġnecessitated": 23937,
    "Ġattorney": 18639,
    "Ġfooting": 14488,
    "Ġmisanthropic": 26569,
    "ead": 2599,
    "cking": 4269,
    "theirs": 23616,
    "unmistakable": 21901,
    "leave": 7837,
    "facts": 19848,
    "sounded": 12267,
    "Ġslim": 18947,
    "Ġcanv": 7011,
    "ivility": 12785,
    "Ġcolouring": 16762,
    "Ġduodecimo": 16777,
    "Ġalice": 1483,
    "Ġstick": 6026,
    "tiness": 21079,
    "Ġmother": 2065,
    "icious": 7381,
    "Ġking": 2301,
    "Ġsnoo": 21236,
    "consciousness": 13367,
    "Ġloth": 17974,
    "modesty": 22859,
    "Ġribbed": 16814,
    "Ġsustained": 13484,
    "Ġconcerning": 4070,
    "duck": 22419,
    "Ġsavage": 4012,
    "oning": 7571,
    "succeed": 10334,
    "Ġmarks": 6748,
    "Ġreigns": 21676,
    "Ġoppressively": 25720,
    "mblings": 19787,
    "so": 889,
    "Ġgloves": 8577,
    "hunting": 24401,
    "at": 268,
    "Ġwoll": 21301,
    "confid": 14879,
    "Ġflesh": 5968,
    "Ġwestward": 24405,
    "romising": 18242,
    "ag": 377,
    "bowed": 10687,
    "Ġragged": 11847,
    "<SOS>": 1,
    "tort": 17683,
    "Ġswimmer": 19468,
    "Ġdesolate": 10016,
    "mel": 9131,
    "grow": 10102,
    "opportunity": 12275,
    "Ġexpectation": 6908,
    "set": 3936,
    "Ġsatiated": 22913,
    "european": 26380,
    "Ġexpectantly": 23536,
    "horse": 8607,
    "Ġencaps": 12963,
    "Ġequilib": 4139,
    "club": 26389,
    "Ġden": 3107,
    "united": 14064,
    "neither": 9762,
    "Ġburgl": 13176,
    "ally": 530,
    "fic": 20861,
    "ite": 712,
    "Ġfrost": 6096,
    "ease": 12458,
    "entered": 8817,
    "Ġchain": 1844,
    "resting": 23245,
    "Ġsets": 8776,
    "Ġassu": 21903,
    "leness": 4694,
    "Ġornament": 11721,
    "what": 641,
    "Ġimplement": 2822,
    "Ġdivulged": 16658,
    "Ġtwilight": 16130,
    "ilt": 2970,
    "Ġcourse": 2126,
    "Ġlets": 18084,
    "deep": 1031,
    "Ġoftentimes": 20164,
    "Ġcheshire": 13091,
    "maged": 15401,
    "Ġwheel": 9723,
    "til": 17679,
    "Ġimbalance": 22178,
    "istry": 22113,
    "Ġwhispering": 14956,
    "Ġarithmetic": 18347,
    "ription": 5678,
    "pun": 9624,
    "Ġhorner": 8962,
    "luc": 9757,
    "Ġwhirling": 12249,
    "nial": 20993,
    "Ġpugn": 21485,
    "hs": 8379,
    "Ġstore": 8455,
    "Ġthrough": 603,
    "vener": 21119,
    "tashtego": 9629,
    "Ġliterary": 25173,
    "answering": 26013,
    "Ġbir": 17862,
    "atum": 21267,
    "Ġincrust": 22560,
    "Ġforce": 5096,
    "Ġsemblance": 20743,
    "Ġsmiting": 12900,
    "Ġflapped": 23024,
    "Ġinconsiderable": 21500,
    "Ġterrier": 23411,
    "Ġwad": 13855,
    "Ġresidual": 1678,
    "helpless": 16800,
    "Ġhimmale": 18342,
    "Ġglistening": 12366,
    "Ġnaturalists": 10368,
    "Ġdeaden": 23473,
    "Ġdodging": 19895,
    "Ġcheerily": 13309,
    "endom": 15932,
    "Ġphara": 23213,
    "Ġsuperlatively": 26084,
    "ouement": 21454,
    "Ġshipwreck": 20453,
    "Ġhomage": 12356,
    "Ġconspicuous": 13605,
    "Ġvictory": 16663,
    "Ġverte": 9446,
    "Ġamb": 9298,
    "Ġassur": 6073,
    "Ġglove": 14498,
    "Ġthirst": 7588,
    "Ġacquiesce": 20336,
    "Ġthousands": 6750,
    "Ġhereditary": 10668,
    "Ġsettlement": 19842,
    "ribed": 7692,
    "forgot": 11036,
    "Ġle": 333,
    "Ġradney": 6777,
    "Ġbloodshot": 23809,
    "Ġlid": 6986,
    "icions": 21568,
    "Ġprinted": 11951,
    "Ġwhe": 439,
    "Ġput": 1798,
    "ird": 2430,
    "Ġsports": 18316,
    "dec": 3111,
    "Ġpioneer": 17925,
    "romang": 22010,
    "Ġbig": 5807,
    "Ġphren": 8574,
    "Ġspokes": 18319,
    "twelvemonth": 25871,
    "Ġ98": 24610,
    "Ġthumb": 6984,
    "Ġmutually": 23964,
    "lue": 8510,
    "Ġexclamation": 8700,
    "acy": 3958,
    "Ġseparately": 13304,
    "Ġengineering": 3026,
    "coat": 5408,
    "caus": 11481,
    "and": 372,
    "Ġrossum": 3014,
    "Ġspout": 3279,
    "Ġarrayed": 25672,
    "Ġcoffin": 4434,
    "Ġlucerne": 23875,
    "prov": 16431,
    "Ġbenchmarks": 15033,
    "Ġhilariously": 25459,
    "Ġaid": 6123,
    "Ġembeddings": 2309,
    "Ġtroops": 24911,
    "Ġseriously": 7071,
    "itor": 12566,
    "Ġhesitating": 16955,
    "Ġgreeted": 23224,
    "Ġpref": 14176,
    "inferiors": 25356,
    "Ġaccost": 12848,
    "Ġtent": 15474,
    "Ġdeformed": 14051,
    "oppressed": 24837,
    "us": 531,
    "Ġcustoms": 19664,
    "super": 5944,
    "street": 6494,
    "Ġamply": 22493,
    "Ġtriumphant": 12190,
    "Ġlaughing": 5341,
    "Ġey": 8135,
    "Ġfortitude": 9887,
    "square": 15068,
    "Ġpan": 5086,
    "Ġrespectful": 16354,
    "Ġsmoothed": 23671,
    "Ġarrow": 10934,
    "Ġste": 1390,
    "Ġline": 1849,
    "gave": 7799,
    "lance": 12482,
    "stop": 11636,
    "Ġstories": 10868,
    "Ġdevelop": 1663,
    "begins": 18536,
    "Ġlar": 765,
    "feared": 11803,
    "Ġlawy": 9459,
    "Ġdecisions": 6705,
    "excepting": 19716,
    "Ġc": 277,
    "Ġscreaming": 13425,
    "belt": 24045,
    "Ġunbroken": 18259,
    "Ġrussia": 26276,
    "Ġfear": 2272,
    "taken": 7559,
    "100": 11469,
    "Ġperusal": 14229,
    "simon": 16979,
    "Ġwhelmed": 26008,
    "Ġgree": 7593,
    "Ġbison": 21394,
    "Ġairs": 14518,
    "hemat": 3128,
    "Ġdoubled": 19653,
    "pict": 8387,
    "Ġpierce": 17043,
    "Ġevaluate": 2701,
    "Ġdenominated": 15236,
    "Ġnurtured": 19758,
    "eastward": 15138,
    "ilies": 18064,
    "?âĢĶ": 3465,
    "Ġignorant": 5346,
    "Ġske": 4819,
    "Ġtoilings": 24755,
    "nervous": 16286,
    "Ġimbalanced": 18341,
    "atever": 3080,
    "Ġconceal": 5973,
    "Ġbodily": 6107,
    "leaving": 10794,
    "Ġunaccountably": 26524,
    "gratification": 24363,
    "Ġemma": 20703,
    "Ġprows": 19897,
    "Ġofficial": 7083,
    "pieces": 8757,
    "â": 163,
    "avo": 8519,
    "with": 1295,
    "Ġtasks": 1789,
    "Ġpulpit": 7470,
    "Ġdominion": 16524,
    "Ġwon": 1666,
    "ult": 723,
    "idav": 18100,
    "Ġascertaining": 17211,
    "staking": 21647,
    "Ġactively": 18666,
    "Ġrecre": 22748,
    "appre": 14376,
    "Ġhanover": 20594,
    "verted": 10223,
    "Ġleaks": 16457,
    "Ġrisen": 9498,
    "Ġadequate": 20315,
    "Ġspitzbergen": 15295,
    "Ġcompliments": 8634,
    "Ġfinished": 5046,
    "Ġlashed": 9206,
    "Ġagile": 22522,
    "Ġappetites": 20215,
    "fee": 12881,
    "Ġtitle": 11413,
    "Ġneck": 4888,
    "Ġcollinses": 19141,
    "dart": 20835,
    "soon": 4027,
    "Ġfeat": 10940,
    "Ġblacksmith": 6598,
    "Ġdefilements": 26293,
    "encoun": 12299,
    "Ġblocks": 6320,
    "Ġlists": 11170,
    "Ġastir": 14648,
    "rougham": 16002,
    "Ġreplay": 5049,
    "thodox": 21993,
    "poor": 6061,
    "pounds": 21033,
    "Ġantagonist": 26336,
    "favour": 9554,
    "orter": 4259,
    "Ġportions": 19378,
    "Ġargosy": 24287,
    "cushion": 20830,
    "ulations": 6029,
    "Ġghastly": 10063,
    "Ġschedu": 1822,
    "Ġstartled": 7084,
    "Ġimagined": 8608,
    "Ġprejudice": 9079,
    "##": 2314,
    "henry": 16637,
    "Ġplus": 3883,
    "residence": 19273,
    "Ġleader": 14708,
    "output": 4407,
    "Ġtortures": 14934,
    "wandering": 20291,
    "Ġcommotion": 9783,
    "Ġplanisp": 24068,
    "onse": 21257,
    "ional": 1083,
    "Ġblows": 5972,
    "loose": 11805,
    "Ġfountains": 13504,
    "Ġtennes": 23561,
    "Ġbrix": 12584,
    "Ġboat": 1276,
    "ars": 905,
    "Ġprogno": 14044,
    "swe": 5996,
    "Ġassured": 4376,
    "fact": 6357,
    "mod": 1046,
    "housekeeping": 24115,
    "hibited": 17435,
    "Ġdrifted": 14633,
    "Ġundesired": 12781,
    "preserving": 22471,
    "Ġresponsible": 9888,
    "atics": 15528,
    "Ġcalmly": 7733,
    "Ġblunt": 11895,
    "Ġloathing": 15075,
    "Ġleghorn": 13149,
    "stool": 23828,
    "circle": 16747,
    "Ġconception": 10321,
    "pth": 2378,
    "Ġbabel": 24442,
    "resolutions": 26173,
    "antically": 22100,
    "ĠĠĠĠĠĠĠĠĠĠ": 18589,
    "Ġunperceived": 22042,
    "tis": 4108,
    "Ġdiscovered": 4418,
    "Ġladyship": 5048,
    "Ġprice": 10408,
    "though": 2112,
    "dan": 17523,
    "1775": 26387,
    "Ġpers": 1323,
    "Ġdirector": 18931,
    "Ġcosy": 13133,
    "educated": 17266,
    "loving": 18548,
    "Ġexpectations": 13146,
    "Ġcoer": 22591,
    "Ġreleased": 2980,
    "ilder": 15719,
    "Ġcorp": 5577,
    "Ġadmir": 12024,
    "Ġmysterious": 7527,
    "Ġaudibly": 24785,
    "Ġploughing": 26268,
    "Ġjeer": 24137,
    "Ġmicroscopic": 26382,
    "Ġcarter": 18911,
    "gerine": 22894,
    "Ġgratification": 24108,
    "Ġ102": 24426,
    "aneously": 4060,
    "uplifted": 17703,
    "ings": 637,
    "Ġsuccessful": 9924,
    "Ġthrill": 24555,
    "Ġhopkins": 23143,
    "intern": 23747,
    "clings": 23164,
    "Ġheedful": 19749,
    "swam": 24268,
    "irted": 14075,
    "ensity": 11814,
    "thick": 10266,
    "Ġbathe": 25452,
    "use": 2538,
    "Ġblowing": 10491,
    "consequ": 18517,
    "Ġincl": 4274,
    "turtle": 12211,
    "ound": 584,
    "squall": 13523,
    "Ġlottery": 19896,
    "Ġintertw": 18600,
    "Ġforeboding": 20390,
    "sledge": 21065,
    "stem": 567,
    "Ġabomin": 8190,
    "terrors": 25054,
    "strom": 15689,
    "Ġparticle": 18686,
    "Ġdipping": 15597,
    "Ġproving": 15758,
    "gentleman": 7517,
    "Ġfronted": 25863,
    "Ġmarty": 20297,
    "palms": 25275,
    "Ġwounds": 17799,
    "city": 15335,
    "eps": 12792,
    "Ġfinally": 4670,
    "Ġincidents": 9305,
    "tahit": 17700,
    "Ġperf": 12851,
    "Ġnoise": 1069,
    "Ġlords": 14649,
    "A": 37,
    "Ã¦st": 24188,
    "Ġaristotle": 25826,
    "Ġcred": 8783,
    "Ġhumbug": 18791,
    "improve": 15718,
    "species": 13259,
    "Ġeasiest": 23550,
    "Ġincantation": 26266,
    "Ġdesperately": 24671,
    "Ġprevail": 13444,
    "Ġhypothesis": 14794,
    "bound": 6222,
    "Ġlarger": 1403,
    "Ġsprawling": 22139,
    "sheep": 23097,
    "od": 351,
    "fur": 6354,
    "ents": 1894,
    "Ġcreate": 2086,
    "oney": 3050,
    "Ġattempting": 14703,
    "Ġgreatest": 4095,
    "Ġimple": 1744,
    "Ġregain": 22589,
    "Ġfritters": 23269,
    "Ġconscious": 7743,
    "Ġseem": 913,
    "Ġcrazed": 19186,
    "Ġfacet": 15590,
    "Ġcontrivance": 17191,
    "Ġscant": 22292,
    "gone": 6504,
    "Ġbakers": 17875,
    "Ġwithstand": 10231,
    "Ġnovelist": 24791,
    "orne": 17881,
    "Ġashore": 5354,
    "Ġclubs": 25190,
    "indul": 22377,
    "niest": 19003,
    "Ġwr": 1543,
    "getic": 12967,
    "Ġproprietor": 12374,
    "Ġcarelessly": 11122,
    "Ġforeb": 12005,
    "darker": 24530,
    "thunder": 10268,
    "Ġdiscovery": 5412,
    "rolled": 9063,
    "inois": 17748,
    "thanking": 24344,
    "Ġbarber": 23799,
    "Ġcoronet": 6343,
    "Ġtwisting": 18670,
    "Ġbreaks": 13186,
    "mand": 3893,
    "Ġdeath": 2040,
    "Ĩ": 233,
    "Ġpolitics": 19234,
    "Ġbremen": 23356,
    "Ġestablished": 9073,
    "tone": 8764,
    "Ġignoble": 19409,
    "Ġfortun": 4984,
    "Ġpoll": 12033,
    "Ġhyperborean": 26348,
    "Ġreceive": 4707,
    "Ġwearisome": 19802,
    "Ñ": 146,
    "Ġsalisbury": 24075,
    "crime": 14795,
    "Ġunreliable": 3928,
    "Ġevangelists": 20346,
    "inlaid": 21198,
    "retaining": 21253,
    "Ġintelligences": 12832,
    "assist": 11769,
    "ared": 770,
    "Ġtrunk": 7206,
    "Ġobvious": 4966,
    "Ġperilous": 7768,
    "Ġ69": 19673,
    "Ġoverpower": 12843,
    "Ġintrepid": 11706,
    "Ġdazzling": 15220,
    "Ġbull": 7839,
    "ä": 165,
    "Ġtreble": 16512,
    "gradually": 12917,
    "Ġbedford": 7473,
    "illuminated": 17460,
    "nson": 16097,
    "Ġremembered": 5279,
    "civilized": 17082,
    "Ġrallied": 14099,
    "Ġreco": 9794,
    "Ġeffort": 8206,
    "Ġcautious": 12254,
    "Ġimprec": 14222,
    "bitter": 11244,
    "alf": 4642,
    "sympathy": 20550,
    "Ġoversampling": 20523,
    "ill": 447,
    "Ġpeep": 6874,
    "importance": 9991,
    "setting": 13295,
    "ĳ": 244,
    "rical": 11523,
    "startled": 24954,
    "Ġjewelled": 20192,
    "chest": 11212,
    "forming": 15927,
    "gir": 8082,
    "Ġrheum": 18225,
    "ĠmanÅĵuv": 18427,
    "ined": 1258,
    "Ġforger": 15739,
    "woman": 5900,
    "Ġsustenance": 19941,
    "wes": 17712,
    "Ġcooking": 16656,
    "Ġxl": 11991,
    "Ġjabez": 11767,
    "stad": 7596,
    "ojo": 7351,
    "jub": 20938,
    "employed": 17268,
    ":âĢĶâĢĺ": 24207,
    "Ġslices": 23177,
    "Ġhurt": 7700,
    "agree": 14071,
    "Ġidiotic": 25597,
    "Ġfireboard": 23545,
    "impatiently": 20478,
    "Ġties": 12528,
    "Ġpled": 17914,
    "them": 3020,
    "Ġdelivery": 18985,
    "orrow": 2919,
    "Ġveneration": 25057,
    "Ġdropping": 7483,
    "Ġhorseman": 19618,
    "Ġporus": 24414,
    "dying": 10698,
    "Ġunsounded": 15858,
    "cher": 5788,
    "Ġdair": 17899,
    "inquiries": 13579,
    "Ġjohn": 5036,
    "born": 7542,
    "histor": 13492,
    "Ġlecture": 13569,
    "Ġendeavors": 16556,
    "Ġbillows": 7502,
    "¨": 106,
    "Ġthro": 5820,
    "ien": 10105,
    "Ġringbolts": 24211,
    "Ġhangs": 11609,
    "rubber": 12815,
    "pidation": 18907,
    "à": 161,
    "Ġvacuous": 24359,
    "Ġimprisonment": 22394,
    "Ġask": 1493,
    "Ġswears": 16472,
    "punishment": 15154,
    "Ġhark": 8429,
    "based": 2962,
    "proportion": 16190,
    "Ġclubb": 22356,
    "oled": 17627,
    "Ġesc": 2246,
    "Ġfloated": 7290,
    "kitty": 10109,
    "tie": 21076,
    "Ġclimax": 25064,
    "Ġobeyed": 12217,
    "aborate": 14026,
    "Ġseparate": 5780,
    "black": 6770,
    "depth": 12802,
    "**": 4689,
    "Ġverify": 12089,
    "Ġactivations": 2726,
    "fiercely": 25269,
    "lung": 17599,
    "Ġsums": 2906,
    "Ġgiants": 25969,
    "Ġpervers": 11784,
    "Ġeber": 18012,
    "ord": 666,
    "tra": 4936,
    "Ġinterruption": 9478,
    "Ġexplain": 545,
    "Ġassumed": 9471,
    "Ġunicorn": 22061,
    "abri": 6685,
    "Ġshepherd": 14157,
    "Ġgulf": 10640,
    "Ġhipp": 21497,
    "poled": 22917,
    "Ġmortally": 23924,
    "isl": 21381,
    "complacency": 19922,
    "addressing": 24417,
    "Ġdominic": 25390,
    "carriage": 9949,
    "onel": 3091,
    "uzza": 11275,
    "accounted": 16510,
    "Ġamusements": 16920,
    "ia": 1256,
    "Ġrally": 21973,
    "possibly": 10549,
    "ĕ": 214,
    "prepar": 22469,
    "Ġnobler": 14178,
    "Ġlying": 4828,
    "ario": 14252,
    "Ġreduced": 11925,
    "Ġwollstonecraft": 26434,
    "Ġire": 12669,
    "drink": 10600,
    "pton": 15799,
    "Ġobeisance": 19767,
    "Ġpea": 14322,
    "Ġfootpaths": 26327,
    "arson": 22761,
    "cur": 3267,
    "Ġdaughters": 4427,
    "ning": 949,
    "jewel": 20353,
    "of": 767,
    "Ġ58": 24340,
    "Ġsignify": 16489,
    "Ġswaying": 15055,
    "try": 7812,
    "sal": 9143,
    "Ġwrenching": 17329,
    "Ġproximity": 3217,
    "undoubtedly": 13313,
    "henomena": 20279,
    "little": 3351,
    "sufficiently": 14992,
    "Ġporing": 21472,
    "É": 138,
    "Ġsalmon": 24073,
    "tart": 21075,
    "Ġan": 286,
    "oses": 3949,
    "prophecy": 22846,
    "dham": 20839,
    "Ġmorbidness": 20638,
    "olet": 13769,
    "Ġobsole": 22710,
    "near": 5846,
    "Ġflying": 5414,
    "Ġinconven": 7585,
    "lux": 14231,
    "Ġcollapsed": 15090,
    "iltrated": 19314,
    "k": 79,
    "Ġlearned": 2022,
    "Ġdromed": 15602,
    "Ġhung": 4562,
    "_âĢĶ": 11472,
    "###": 3828,
    "Ġstarry": 16930,
    "Ġrepresentations": 1873,
    "Ġunlucky": 10053,
    "Ġdecks": 6904,
    "tram": 19646,
    "figured": 20130,
    "page": 13774,
    "pled": 7892,
    "profound": 16434,
    "Ġsubset": 9873,
    "Ġbalanced": 12989,
    "Ġunlocking": 20715,
    "Ġhunter": 5402,
    "jar": 17585,
    "Ġholland": 10371,
    "Ģ": 227,
    "Ġselection": 18213,
    "Ġjib": 14198,
    "atha": 6575,
    "Ġrider": 24199,
    "Ġeffeminacy": 20727,
    "ocratic": 17252,
    "Ġflourished": 15134,
    "Ġoccur": 1082,
    "Ġsadder": 24061,
    "Ġfifty": 4627,
    "scar": 9818,
    "Ġpresumption": 10551,
    "zy": 2676,
    "school": 10058,
    "achment": 5467,
    "Ġculprit": 26181,
    "Ġnumber": 1979,
    "Ġworker": 23049,
    "assistant": 25575,
    ".âĢĶ": 4252,
    "Ġbackpropagation": 1246,
    "Ġbarbed": 14847,
    "poke": 18810,
    "Ġspotted": 12140,
    "Ġobjections": 8566,
    "Ġbloodthirsty": 26609,
    "shr": 10983,
    "reat": 612,
    "Ġpudding": 17922,
    "pp": 384,
    "gracechurch": 24598,
    "Ġxerxes": 23423,
    "Ġascended": 8668,
    "onic": 7827,
    "Ġgrammars": 11407,
    "Ġready": 3396,
    "Ġcrawford": 24906,
    "Ġnecessarily": 13252,
    "matter": 5140,
    "honest": 17010,
    "masculine": 24403,
    "Ġjac": 1895,
    "Ġclergy": 7642,
    "Ġcasked": 24514,
    "Ġhagger": 21496,
    "nails": 17622,
    "anel": 21363,
    "unexpected": 15784,
    "Ġprevents": 2558,
    "Ġswords": 19905,
    "Ġrecollection": 6622,
    "Ġgets": 10842,
    "Ġche": 1763,
    "Ġpilgrimage": 17314,
    "consciously": 19636,
    "!âĢĻâĢĿ": 16602,
    "Ġsteepest": 3089,
    "Ġbrothers": 13178,
    "Ġstraps": 19319,
    "Ġoccupy": 14740,
    "Ġhabitations": 24802,
    "Ġrelated": 3714,
    "Ġancestors": 25650,
    "Ġenhancement": 23834,
    "representing": 25284,
    "Ġgur": 21597,
    "Ġchick": 22254,
    "Ġworshipped": 25699,
    "Ġblocked": 19232,
    "Ġse": 402,
    "week": 12933,
    "Ġexecuted": 9477,
    "olstadt": 7788,
    "Ġfresh": 3668,
    "impression": 15717,
    "Ġdictionary": 15121,
    "mes": 1194,
    "appears": 12062,
    "Ġprevious": 2084,
    "Ġway": 1086,
    "jane": 4487,
    "procure": 23409,
    "Ġyouth": 4265,
    "metal": 24779,
    "Ġopposing": 12043,
    "ĠĠĠĠĠĠĠĠĠĠĠĠĠĠĠĠĠĠĠĠĠĠĠĠĠĠĠĠĠĠĠĠĠĠĠĠĠĠĠĠĠĠĠĠ": 12155,
    "Ġlie": 4412,
    "bordered": 17506,
    "lp": 898,
    "Ġcalifornian": 25860,
    "Ġbrown": 6297,
    "Ġfairer": 20469,
    "ulty": 22577,
    "bearers": 18535,
    "Ġdiscompose": 25587,
    "icked": 10338,
    "attempts": 17198,
    "Ġgi": 15672,
    "cross": 3572,
    "lighter": 20968,
    "Ġgrate": 12965,
    "Ġquadrille": 13543,
    "ts": 959,
    "Ġcol": 1064,
    "Ġbowsman": 11260,
    "Ġwires": 21303,
    "Ġtradesman": 20080,
    "accursed": 20548,
    "Ġblankness": 24623,
    "fing": 13715,
    "Ġsit": 4221,
    "Ġchag": 15940,
    "Ġhaggerston": 26460,
    "shaken": 16033,
    "Ġross": 2771,
    "Ġunprovided": 18269,
    "Ġquiescent": 26251,
    "Ġhumorously": 18790,
    "Ġgoney": 14553,
    "esley": 17928,
    "Ġwreath": 25945,
    "Ġr": 405,
    "Ġsli": 4752,
    "Ġwretched": 4084,
    "Ġscandal": 9085,
    "Ġtusk": 25434,
    "Ġblinded": 13272,
    "Ġsurrounds": 24245,
    "Ġcurly": 18866,
    "Ġrejection": 19990,
    "¼": 125,
    "Ġprofoundly": 16868,
    "Ġbureau": 11593,
    "trembling": 17150,
    "Ġkeener": 22925,
    "Ġmorbid": 16242,
    "Ġsuperlative": 26083,
    "Ġwalrus": 14983,
    "Ġisle": 8836,
    "ren": 549,
    "elves": 2156,
    "Ġfishy": 16534,
    "Ġmeta": 3537,
    "Ġtending": 17733,
    "Ġmainten": 16122,
    "ma": 1150,
    "Ġbedside": 19133,
    "Ġpedestrian": 25888,
    "Ġwrit": 8243,
    "Ġpoem": 22599,
    "Ġresuming": 12895,
    "arrange": 23776,
    "Ġwithout": 1122,
    "dragged": 16618,
    "Ġirene": 8445,
    "Ġmoving": 1677,
    "Ġrealising": 18993,
    "proceeding": 20149,
    "Ġcolder": 22865,
    "hur": 6650,
    "Ġther": 17787,
    "thouse": 21987,
    "Ġfemin": 13438,
    "Ġpadd": 9676,
    "Ġfleets": 23784,
    "Ġunspeakably": 25183,
    "agger": 7872,
    "Ġtone": 4041,
    "Ġfrosts": 19809,
    "Ġglaring": 11908,
    "Ġaccording": 5512,
    "Ġdist": 679,
    "Ġserve": 9400,
    "Ġevil": 3807,
    "absence": 12710,
    "Ġsetting": 7047,
    "Ġdeduce": 8338,
    "Ġgoug": 17999,
    "Ġcr": 2148,
    "asons": 6015,
    "Ġdeceive": 12724,
    "onah": 3336,
    "nades": 21006,
    "special": 14711,
    "angles": 18303,
    "Ġfugitives": 25642,
    "Ġstr": 752,
    "eur": 7544,
    "Ġeast": 5373,
    "Ġlowermost": 23252,
    "vari": 1514,
    "Ġsympathetic": 17365,
    "bourgh": 19115,
    "Ġapoplexy": 25278,
    "Ġwail": 21294,
    "comparison": 25849,
    "ow": 325,
    "fever": 22510,
    "drowned": 17375,
    "considerably": 13447,
    "Ġjam": 10954,
    "knowing": 10442,
    "Ġvisited": 5947,
    "Ġdeficiencies": 26579,
    "Ġphilipses": 24468,
    "fear": 8515,
    "Ġdisgra": 18559,
    "Ġdepartment": 24255,
    "Ġguided": 10466,
    "moved": 9788,
    "Ġembracing": 14991,
    "Ġgang": 9215,
    "reng": 4004,
    "ede": 21511,
    "itives": 17828,
    "continued": 8678,
    "musical": 25350,
    "Ġinarticulate": 21505,
    "athan": 2959,
    "Ġstruck": 3389,
    "lanter": 15395,
    "zing": 7820,
    "assault": 22313,
    "Ġmexico": 15288,
    "tap": 17684,
    "Ġpacket": 14905,
    "rents": 5311,
    "endeavoured": 12281,
    "invested": 17125,
    "Ġstarboard": 7603,
    "Ġridicule": 13513,
    "hamlet": 23274,
    "Ġfisheries": 17445,
    "Ġshark": 5552,
    "Ġconsidered": 4614,
    "Ġjavel": 17091,
    "Ġhab": 4223,
    "ksome": 10108,
    "describe": 1512,
    "shine": 9294,
    "Ġgranite": 22818,
    "Ġchorus": 10949,
    "Ġaugmentation": 20123,
    "Ġdoesn": 7439,
    "_,": 2804,
    ";âĢĶ": 3748,
    "Ġleaf": 15729,
    "furthermore": 20009,
    "Ġcivilities": 14860,
    "Ġankles": 17908,
    "Ġhighness": 22788,
    "Ġupright": 8495,
    "ore": 418,
    "Ġproceedings": 9909,
    "chiefly": 14858,
    "Ġworms": 25229,
    "Ġwhy": 1760,
    "Ġpurchases": 24770,
    "Ġunworthy": 11716,
    "Ġvariants": 1792,
    "Ġide": 2119,
    "Ġscorch": 20074,
    "Ġcobbler": 25838,
    "ders": 8074,
    "irably": 13297,
    "Ġthenceforth": 25193,
    "Ġquakers": 22423,
    "Ġheron": 22077,
    "Ġrenewal": 12235,
    "Ġindisp": 18844,
    "Ġresounds": 22552,
    "Ġchristianity": 19867,
    "Ġtasted": 12530,
    "ak": 538,
    "baggage": 24939,
    "Ġrigger": 19540,
    ",âĢĶâĢľ": 10073,
    "ĠĠĠĠĠĠĠĠĠĠĠĠĠĠĠĠĠĠĠĠĠĠĠĠĠĠĠĠĠĠ": 24459,
    "Ġtreasure": 9564,
    "Ġhurts": 19123,
    "Ġastern": 6091,
    "Ġvibrating": 13540,
    "Ġdismay": 11810,
    "Ġren": 3846,
    "dances": 17529,
    "venerable": 26417,
    "Ġrepresentation": 14410,
    "Ġcetacea": 20562,
    "ington": 21309,
    "Ġsix": 3044,
    "Ġstup": 14009,
    "tattoo": 21095,
    "Ġelixir": 26564,
    "Ġuninter": 18255,
    "Ġchar": 1703,
    "Ġopinion": 3142,
    "Ġost": 9656,
    "bounded": 13441,
    "Ġcan": 469,
    "circum": 16748,
    "Ġmonogra": 22987,
    "Ġconsc": 4278,
    "confidence": 16818,
    "polar": 24600,
    "gh": 3802,
    "tooth": 18591,
    "Ġcommonest": 23100,
    "Ġenables": 726,
    "Ġserm": 9640,
    "Ġess": 5693,
    "Ġpunctilious": 26361,
    "Ġhen": 3499,
    "aus": 1500,
    "Ġfo": 1652,
    "Ġbasics": 13450,
    "prev": 12868,
    "Ġcommenced": 8533,
    "deserving": 17308,
    "Ġdesign": 4135,
    "antages": 7193,
    "comfort": 5649,
    "Ġrnns": 2390,
    "Ġenthus": 7234,
    "Ġrails": 22663,
    "Ġgold": 3275,
    "Ġscaling": 3630,
    "Ġslam": 13061,
    "Ġvagu": 13591,
    "Ġcreates": 2007,
    "destruction": 11261,
    "Ġengravings": 15073,
    "Ġcontextual": 3742,
    "Ġgeorge": 3747,
    "crossed": 16644,
    "Ġthanking": 18614,
    "olent": 8155,
    "Ġph": 1548,
    "bling": 10082,
    "Ġrobes": 16264,
    "oken": 4310,
    "Ġsandwic": 24679,
    "Ġilluminated": 20184,
    "Ġwho": 613,
    "Ġstreet": 2960,
    "Ġflexible": 23785,
    "Ġwheels": 10915,
    "arpaul": 14543,
    "Ġtout": 17728,
    "eleg": 20858,
    "Ġabominate": 20072,
    "uch": 875,
    "Ġgovernor": 16500,
    "Ġ6": 5145,
    "Ġlabrador": 23343,
    "Ġmari": 6816,
    "Ġrights": 10402,
    "Ġsavagely": 26332,
    "Ġpret": 3035,
    "ibly": 2998,
    "matical": 13131,
    "Ġdomineer": 23656,
    "Ġlime": 13952,
    "iant": 5429,
    "Ġsnarled": 25724,
    "Ġcure": 21346,
    "introduction": 15132,
    "Ġcounting": 13097,
    "Ġmealy": 18128,
    "Ġsched": 2335,
    "Ġoverheard": 11775,
    "onness": 21262,
    "Ġfoot": 3161,
    "Ġshoreless": 24309,
    "Ġattribute": 16109,
    "rily": 7621,
    "bacc": 7794,
    "conjectured": 25192,
    "Ġ51": 24334,
    "Ġhorizontal": 7782,
    "Ġimbued": 17462,
    "Ġtrapped": 23088,
    "Ġrevolve": 19739,
    "Ġlabour": 7276,
    "Ġdisclose": 16165,
    "Ġreturned": 2895,
    "Ġdarkly": 19126,
    "jac": 8383,
    "keen": 12784,
    "plainly": 11093,
    "garnished": 26397,
    "Ġcoats": 16085,
    "bar": 7540,
    "izard": 10886,
    "Ġdeeps": 16113,
    "Ġcompetition": 14272,
    "insurance": 18899,
    "lamps": 25273,
    "Ġkentuck": 19899,
    "relative": 24022,
    "Ġnormalizes": 1861,
    "Ġfalsehood": 10529,
    "7": 27,
    "date": 17525,
    "fetch": 12465,
    "Ġrevealed": 6753,
    "Ġreappeared": 21670,
    "Ġameric": 3854,
    "husband": 8041,
    "Ġrejo": 5917,
    "Ġimmense": 4954,
    "Ġgoodly": 22830,
    "dismal": 23509,
    "iling": 3094,
    "Ġinsult": 6749,
    "Ġvint": 18203,
    "plain": 1360,
    "Ġfluid": 11216,
    "Ġslaves": 23181,
    "mediate": 16522,
    "Ġlistening": 6317,
    "Ġwritten": 4173,
    "brain": 13689,
    "Ġglass": 4374,
    "Ġexclam": 6759,
    "Ġfelt": 1746,
    "Ġqual": 6274,
    "Ġalacrity": 15743,
    "aps": 1225,
    "Ġpole": 6432,
    "Ġincred": 5648,
    "meat": 18695,
    "aloft": 8809,
    "Ġstrolled": 16780,
    "Ġreads": 23127,
    "Ġrelapses": 26287,
    "Ġstaves": 21745,
    "Ġunabated": 15861,
    "Ġrevolution": 3302,
    "putable": 10904,
    "touching": 15100,
    "minutely": 19604,
    "Ġanno": 9674,
    "Ġconceits": 19399,
    "Ġpremises": 10493,
    "gin": 4932,
    "Ġwrinkled": 7266,
    "Ġreference": 2566,
    "Ġvideos": 13608,
    "Ġconducted": 10508,
    "Ġcircumstances": 3925,
    "party": 8996,
    "enit": 17788,
    "quakes": 21850,
    "Ġascribed": 14867,
    "Ġcries": 7155,
    "Ġassistant": 7300,
    "Ġlost": 2637,
    "despairing": 25087,
    "Ġthomson": 26462,
    "ha": 3982,
    "un": 373,
    "Ġumb": 11648,
    "iriously": 18179,
    "Ġcoiled": 11821,
    "Ġwarrior": 24513,
    "twas": 15444,
    "turns": 14916,
    "Ġdeigned": 18146,
    "Ġsneeze": 24712,
    "Ġvisits": 8225,
    "Ġislets": 21806,
    "Ġenriched": 26507,
    "50": 6786,
    "Ġbob": 22647,
    "Ġrollicking": 24467,
    "Ġsleep": 2398,
    "intervals": 10477,
    ".}": 20754,
    "Ġunluck": 8486,
    "strade": 5068,
    "Ġmatch": 4531,
    "Ġgettest": 23243,
    "Ġpantheistic": 26344,
    "imperturbable": 25799,
    "Ġmccarthy": 5422,
    "Ġrummaged": 16918,
    "Ġexordium": 26500,
    "zas": 17721,
    "Ġsickness": 10544,
    "Ġapart": 4750,
    "Ġdepended": 9780,
    "meaning": 2911,
    "wail": 21134,
    "Ġsneer": 13449,
    "Ġlayer": 1013,
    "atre": 17780,
    "Ġphilistines": 26091,
    "Ġbreaching": 23358,
    "Ġextremity": 8992,
    "Ġanonym": 17907,
    "Ġsluggishly": 25900,
    "Ġow": 8409,
    "Ġho": 1928,
    "Ġsuckling": 26006,
    "occupations": 24977,
    "Ġgrecian": 26305,
    "athom": 12941,
    "Ġjabbering": 22310,
    "sneezes": 11451,
    "Ġlast": 1124,
    "12": 20758,
    "rabbit": 20599,
    "Ġhamp": 12631,
    "Ġtwelve": 4965,
    "Ġaffirm": 11888,
    "Ġpunish": 12161,
    "Ġawe": 7148,
    "Ġfervour": 20693,
    "atigable": 15278,
    ",âĢĻ": 2325,
    "Ġhellish": 10556,
    "detached": 19685,
    "Ġwaking": 11573,
    "Ġtemporarily": 11171,
    "Ġcolds": 23768,
    "jure": 20933,
    "Ġrug": 16166,
    "Ġprotracted": 19478,
    "unavoidable": 17397,
    "Ġjovial": 19243,
    "touch": 8393,
    "barrow": 15329,
    "Ġbalm": 22914,
    "Ġemm": 18011,
    "Ġsum": 2706,
    "Ġindignation": 8348,
    "vill": 10739,
    "algorith": 3623,
    "dispute": 23511,
    "Ġbronze": 22875,
    "Ġcurios": 18869,
    "Ġfurniture": 6475,
    "Ġsa": 474,
    "Ġglistened": 20181,
    "thrusting": 20267,
    "Ġaries": 21205,
    "outside": 12806,
    "Ġrecommendation": 17032,
    "Ġinstinctively": 13462,
    "ivory": 10274,
    "rad": 2250,
    "izens": 18151,
    "Ġtortured": 14935,
    "Ġsitt": 21225,
    "sofa": 26155,
    "Ġpaid": 5019,
    "Ġbet": 1137,
    "cr": 4076,
    "Ġobliterated": 17413,
    "acca": 23611,
    "Ġquarrel": 7294,
    "Ġissues": 9547,
    "Ġerroneous": 17417,
    "Ġmeanest": 12912,
    "Ġcoward": 7156,
    "º": 123,
    "alt": 12639,
    "Ġjoys": 13223,
    "Ġmole": 11792,
    "Ä": 133,
    "Ġnile": 21526,
    "whar": 15936,
    "zek": 16271,
    "Ġinconveniences": 24952,
    "Ġcate": 4112,
    "Ġdescrying": 18630,
    "erpillar": 5799,
    "ills": 1629,
    "report": 13402,
    "Ġcounteracted": 19868,
    "Ġheadache": 22907,
    "Ġsharpen": 13571,
    "Í": 142,
    "Ġcastaways": 19437,
    "summon": 23428,
    "ted": 792,
    "Ġflaming": 8565,
    "Ġswart": 14440,
    "okes": 9283,
    "ments": 1402,
    "Ġdiscu": 4369,
    "Ġendeavours": 8619,
    "Ġberyls": 25784,
    "Ġperson": 2365,
    "Ġchancery": 20725,
    "Ġrests": 13094,
    "Ġunlabeled": 3801,
    "Ġpoliceman": 15266,
    "¤": 102,
    "Ġconductor": 24016,
    "Ġcottage": 4739,
    "armed": 7253,
    "Ġportly": 14686,
    "Ġadvancement": 24495,
    "Ġwrongfully": 24262,
    "Ġexpiring": 16104,
    "Ġchasing": 11755,
    "Ġtypically": 1534,
    "Ġlet": 1114,
    "Ġlevelled": 11289,
    "inch": 10758,
    "Ġunite": 9260,
    "impatience": 25508,
    "Ġhats": 14626,
    "nants": 17621,
    "Ġevents": 4477,
    "Ġpostmark": 16735,
    "Ġtalked": 4426,
    "Ġur": 5542,
    "Ġrequested": 14304,
    "Ġperformer": 18769,
    "Ġbasement": 24715,
    "Ġsurround": 4620,
    "Ġtouched": 6001,
    "Ġconf": 1818,
    "abomin": 15748,
    "Ġenchanted": 9084,
    "rop": 540,
    "Ġunrecord": 16633,
    "Ġfel": 1515,
    "mate": 5361,
    "oir": 12499,
    "Ġaveraging": 2419,
    "Ġsty": 6252,
    "Ġharriet": 24589,
    "representation": 20205,
    "social": 11025,
    "Ġinfidel": 13089,
    "Ġdrooping": 9426,
    "Ġpowerful": 1464,
    "rael": 21634,
    "Ġarrangements": 16526,
    "replied": 11569,
    "japan": 15382,
    "Ġstrait": 23761,
    "ificent": 8185,
    "o": 83,
    "ĠĠĠĠĠĠĠĠĠĠĠĠĠĠĠĠĠĠĠĠĠĠĠĠĠĠĠĠĠĠĠĠĠĠĠĠĠĠĠĠĠĠĠĠĠĠĠĠ": 7989,
    "rix": 1573,
    "Ġposit": 1303,
    "cloth": 11938,
    "total": 17257,
    "Ġprocure": 9515,
    "bureau": 20798,
    "Ġfactory": 23289,
    "Ġtypes": 8940,
    "tide": 11537,
    "Ġheartless": 13075,
    "urity": 8143,
    "awing": 18926,
    "Ġsallow": 12537,
    "Ġguessed": 11287,
    "Ġobtruded": 20731,
    "Ġintrusion": 12766,
    "Ġtrad": 9831,
    "Ġattent": 4366,
    "Ġsituations": 10497,
    "Ġnations": 8812,
    "Ġunwelcome": 12782,
    "Ġspots": 11728,
    "Ġastonished": 7089,
    "Ġsnorting": 23752,
    "Ġdrawled": 23998,
    "Ġfangs": 12598,
    "cible": 20815,
    "Ġgenealogies": 25970,
    "lour": 15388,
    "Ġslides": 18949,
    "Ġhut": 15624,
    "Ġhal": 1363,
    "Ġwheeling": 18296,
    "Ġinconsistency": 26191,
    "Ġsubmission": 22801,
    "Ġ{": 21160,
    "Ġpounds": 5371,
    "Ġarising": 10936,
    "Ġnavigators": 19772,
    "Ġharpo": 1939,
    "ezing": 10579,
    "sticks": 25973,
    "Ġiron": 3233,
    "ppo": 18183,
    "Ġbenjamin": 26576,
    "Ġworship": 10372,
    "woof": 21148,
    "Ġcork": 12569,
    "Ġalthough": 4154,
    "clever": 20822,
    "ctor": 13964,
    "Ġcircumspect": 15093,
    "beef": 18534,
    "Ġboister": 12921,
    "Ġwhereon": 16110,
    "Ġbestirred": 20459,
    "Ġvillages": 14757,
    "Ġquivering": 12860,
    "uther": 8819,
    "ante": 11722,
    "shoulder": 16593,
    "duty": 20247,
    "Ġloftiest": 16881,
    "Ġarabian": 9093,
    "Ġalien": 14022,
    "fts": 18708,
    "tout": 21073,
    "danish": 20842,
    "Ġbefitting": 15732,
    "Ġdisordered": 16064,
    "Ġreproofs": 24905,
    "Ġfrequently": 4683,
    "iers": 5991,
    "downstairs": 23927,
    "Ġbeatrix": 24218,
    "stuff": 15693,
    "Ġenlarged": 25994,
    "reve": 12540,
    "raint": 18324,
    "Ġcoll": 8222,
    "Ġsweeter": 23925,
    "execution": 20479,
    "offer": 19068,
    "Ġobserv": 5177,
    "Ġmississ": 18848,
    "Ġscud": 14195,
    "Ġstaple": 26207,
    "Ġyell": 21782,
    "Ġincess": 8432,
    "Ġsensibly": 14520,
    "Ġdistrusted": 13544,
    "Ġbenevolent": 7772,
    "haustible": 16898,
    "Ġpopulous": 16836,
    "scap": 22995,
    "dress": 17528,
    "Ġeffaced": 18552,
    "uger": 21111,
    "Ġunravel": 26223,
    "Ġsatirical": 26288,
    "assured": 10955,
    "strang": 11187,
    "Ġyes": 2694,
    "Ġlingering": 11384,
    "Ġconjured": 25112,
    "ascending": 24720,
    "investments": 25540,
    "Ġtablets": 13158,
    "ailed": 3244,
    "ĠĠĠĠĠĠĠĠĠĠĠĠĠĠĠĠĠĠĠ": 22960,
    "Ġbreeds": 23359,
    "Ġseat": 4951,
    "Ġcategories": 4482,
    "Ġstature": 10866,
    "ugn": 9383,
    "Ġundu": 15846,
    "Ġsatan": 14395,
    "Ġcond": 3874,
    "Ġpyramids": 15123,
    "Ġresemble": 15699,
    "Ġconnivance": 25238,
    "ratches": 20132,
    "Ġinve": 17937,
    "Ġentrances": 25843,
    "Ġig": 3497,
    "Ġresounded": 22554,
    "Ġdistinct": 4612,
    "99": 1892,
    "Ġartificial": 795,
    "Ġenvelopes": 24524,
    "Ġeducation": 5132,
    "Ġpom": 21457,
    "approb": 11046,
    "infer": 10149,
    "Ġattached": 5393,
    "glimmer": 26330,
    "nostril": 26568,
    "Ġeag": 2969,
    "Ġsurplus": 26312,
    "anger": 2169,
    "'m": 9589,
    "Ġlunacy": 20034,
    "Ġamendment": 26034,
    "str": 2578,
    "Ġwisdom": 11237,
    "Ġscandinavian": 26353,
    "Ġsolemnisation": 24126,
    "Ġcrossed": 6069,
    "Ġnich": 21525,
    "enter": 7857,
    "iet": 1775,
    "Ġbounded": 16638,
    "aire": 10684,
    "Ġeul": 21625,
    "Ġobtru": 18687,
    "Ġaffright": 9338,
    "hug": 17571,
    "Ġphrenologically": 20400,
    "Ġunstruct": 2997,
    "Ġflashing": 13030,
    "Ġscramble": 24595,
    "aft": 9590,
    "Ġundeceive": 25560,
    "Ġintimacy": 8702,
    "abroad": 18116,
    "Ġvir": 7003,
    "lace": 13750,
    "Ġcatholic": 20689,
    "ome": 535,
    "Ġexpose": 10333,
    "gratulation": 24364,
    "Ġmerest": 14035,
    "Ġunfulfilled": 26517,
    "Ġcondensed": 24062,
    "moral": 14814,
    "Ġmounting": 19983,
    "ered": 1683,
    "growing": 13735,
    "weight": 2942,
    "Ġruth": 14097,
    "Ġwondrous": 4740,
    "initions": 21195,
    "athered": 6975,
    "Ġmob": 16026,
    "Ġcommodore": 12396,
    "Ġhebrew": 13992,
    "mechanically": 17305,
    "âĢĶ.âĢĿ": 22262,
    "particulars": 11320,
    "Ġcliffs": 15977,
    "damn": 20030,
    "enced": 4298,
    "Ġproclaim": 18138,
    "itty": 3551,
    "Ġsavannah": 17424,
    "Ġachieved": 13169,
    "guessed": 25880,
    "Ġhudson": 15200,
    "idence": 4305,
    "Ġlest": 6394,
    "Ġeternal": 5975,
    "declaration": 25186,
    "Ġreverence": 12061,
    "Ġswarm": 23064,
    "sych": 9891,
    "Ĵ": 245,
    "Ġwhalebone": 10980,
    "Ġpad": 8125,
    "Ġruss": 18731,
    "Ġjustification": 22976,
    "nevertheless": 8287,
    "Ġweight": 658,
    "Ġoppressive": 20463,
    "beheaded": 22503,
    "Ġzer": 1096,
    "Ġzones": 22827,
    "idy": 21769,
    "endering": 21292,
    "Ġticking": 25046,
    "Ġeu": 6389,
    "money": 8752,
    "electricity": 26394,
    "accordingly": 19224,
    "east": 9119,
    "Ġattempts": 10496,
    "Ġthoughtless": 16201,
    "isson": 23474,
    "Ġfatal": 5875,
    "Ġthirds": 16718,
    "Ġtells": 9367,
    "conditional": 9082,
    "Ġplacing": 8904,
    "corpse": 24507,
    "Ġcommun": 1705,
    "consider": 6347,
    "historical": 20473,
    "deceiving": 22147,
    "Ġmechanical": 7937,
    "barbar": 20246,
    "captain": 3957,
    "Ġbengal": 18795,
    "ace": 715,
    "Ġsallies": 21237,
    "Ġdirt": 15599,
    "Ġstroll": 13354,
    "shipmates": 11929,
    "received": 9645,
    "umn": 5839,
    "Ġprosperous": 15179,
    "Ġrocking": 10972,
    "Ġscrolled": 22296,
    "hullo": 17578,
    "Ġagitated": 7647,
    "unable": 14063,
    "Ġratio": 5069,
    "Ġtraveller": 8048,
    "hem": 6665,
    "weaving": 18678,
    "islanders": 25451,
    "Ġswashing": 23066,
    "sufficient": 6637,
    "Ġcornelius": 13575,
    "Ġhurrah": 9872,
    "Ġexhibition": 14967,
    "Ġunwearied": 20612,
    "Ġinvoluntarily": 8547,
    "Ġamuse": 5940,
    "Ġworried": 22936,
    "comfortableness": 24539,
    "Ġlingered": 13506,
    "allows": 15911,
    "Ġevenings": 18767,
    "xes": 21149,
    "Ġejaculated": 15178,
    "Ġveiled": 16209,
    "ortment": 22264,
    "Ġkelson": 18357,
    "feather": 16052,
    "dressing": 11486,
    "bring": 9108,
    "Ġbol": 6242,
    "Ġascribe": 16792,
    "icate": 9209,
    "ifully": 13187,
    "Ġchowders": 18395,
    "Ġgeological": 14540,
    "Ġposter": 14280,
    "clopÃ¦dia": 15264,
    "Ġcomplaisance": 19458,
    "ong": 537,
    "Ġdraw": 3669,
    "Ġfacil": 16968,
    "Ġbook": 2708,
    "uture": 1067,
    "affrail": 11209,
    "Ġbrides": 22873,
    "Ġsatisfactory": 11197,
    "Ġpersisted": 13035,
    "Ġyoung": 1505,
    "utility": 21592,
    "Ġbelfry": 26446,
    "Ġpooh": 18615,
    "ushing": 5732,
    "Ġrigging": 5604,
    "rub": 15912,
    "called": 6291,
    "Ġgable": 15673,
    "Ġfeel": 1259,
    "Ġpennies": 17276,
    "Ġassume": 10521,
    "odious": 21815,
    "Ġinsepar": 17942,
    "Ġdelineations": 26067,
    "quar": 7615,
    "Ġutil": 4675,
    "lock": 1472,
    "inkling": 16101,
    "Ġrepeat": 7999,
    "Ġaccursed": 9463,
    "Ġsidelong": 11443,
    "condesc": 18516,
    "Ġtruth": 3317,
    "Ġhapp": 1090,
    "Ġembalmed": 13657,
    "Ġdistribution": 2017,
    "Ġselecting": 16694,
    "Ġconjectures": 16932,
    "Ġpermit": 9754,
    "combe": 7663,
    "married": 9952,
    "izar": 14054,
    "meant": 7922,
    "Ġparade": 18320,
    "urch": 3995,
    "Ġspending": 10925,
    "Ġimplore": 24885,
    "Ġhorse": 4730,
    "eting": 7170,
    "Ġgoodge": 22831,
    "tisement": 6769,
    "creat": 20809,
    "supervised": 1953,
    "igin": 3653,
    "Ġpatience": 2649,
    "py": 17632,
    "Ġconcoct": 19055,
    "uend": 21109,
    "Ġconsec": 21810,
    "ieved": 3228,
    "harrow": 20916,
    "tom": 15442,
    "this": 1439,
    "pron": 9009,
    "adopt": 25552,
    "Ġaloft": 4306,
    "Ġalms": 21785,
    "Ġscepticism": 25936,
    "Ġthackeray": 26463,
    "Ġhalf": 1671,
    "Ġcollection": 8223,
    "motion": 17614,
    "more": 1035,
    "ositions": 10289,
    "Ġnarrowed": 24370,
    "._": 3218,
    "Ġstraggling": 23762,
    "gallant": 7780,
    "excellent": 8043,
    "Ġrenounce": 19477,
    "Ġ(âĢľ": 16004,
    "Ġtwist": 11852,
    "Ġobedience": 11418,
    "Ġdrugged": 12603,
    "Ġbri": 21384,
    "Ġwedged": 24082,
    "Ġmode": 8501,
    "Ġsource": 6808,
    "Ġhunger": 8569,
    "ù": 186,
    "Ġunsur": 22027,
    "Ġconnection": 5482,
    "Ġlord": 2968,
    "Ġspear": 9320,
    "irc": 1729,
    "Ġpushing": 10822,
    "turned": 7308,
    "Ġrefres": 14347,
    "Ġpreposter": 12824,
    "Ġdilig": 8351,
    "Ġasserted": 16304,
    "Ġdarkness": 4281,
    "oniously": 21265,
    "Ġfrosty": 14946,
    "Ġix": 12668,
    "Ġmary": 3844,
    "Ġvirtuous": 14764,
    "Ġspecimens": 18861,
    "Ġshaggy": 13572,
    "composure": 24044,
    "Ġanalogical": 25648,
    "ignorance": 17169,
    "quent": 2089,
    "Ġslay": 16316,
    "istle": 15879,
    "Ġsupple": 23004,
    "Ġcheapside": 23301,
    "Ġorph": 9722,
    "Ġdistribut": 842,
    "abern": 21794,
    "Ġdreary": 10413,
    "Ġpiling": 17917,
    "ix": 1800,
    "Ġpit": 3418,
    "Z": 62,
    "Ġlunatic": 25003,
    "Ġbam": 15571,
    "Ġquadru": 16013,
    "Ġfeebly": 24890,
    "Ġlimping": 23558,
    "Ġvigour": 24482,
    "Ġdisconsol": 18567,
    "consid": 4926,
    "Ġintensity": 10019,
    "Ġspo": 6849,
    "Ġ123": 24488,
    "Ġtypewritten": 16429,
    "ernally": 22629,
    "Ġtur": 2565,
    "lion": 20953,
    "Ġall": 422,
    "Ġgrimly": 17059,
    "Ġdisturbance": 15024,
    "quid": 18152,
    "Ġfavourites": 16654,
    "Ġweaken": 21928,
    "Ġcarriages": 11101,
    "reast": 17768,
    "wich": 11547,
    "most": 1254,
    "Ġexercise": 8360,
    "Ġreinforcement": 3341,
    "Ġswe": 2285,
    "Ġlavenza": 17979,
    "Ġsoothingly": 25060,
    "shaven": 18502,
    "Ġjoking": 12839,
    "cellar": 20284,
    "abilizing": 2928,
    "cried": 8727,
    "conce": 8512,
    "Ġcorroboration": 26062,
    "Ġwhirlwinds": 20472,
    "Ġsymmet": 11748,
    "Ġju": 10292,
    "Ġprofessional": 7301,
    "Ġexhibited": 9549,
    "Ġours": 4615,
    "Ġdick": 3494,
    "Ġpregnant": 26544,
    "Ġsqueaking": 26283,
    "Ġpedro": 15006,
    "âĢĿâĢĶ": 5723,
    "ersman": 11700,
    "Ġced": 10787,
    "Ġpersonified": 19189,
    "Ġmoonlight": 9961,
    "Ġdefend": 9346,
    "Ġtobacc": 7852,
    "Ġplainpal": 19287,
    "Ġfloats": 9419,
    "resentment": 15194,
    "Ġlikelihood": 16509,
    "neglect": 25675,
    "eldom": 4419,
    "sleep": 6511,
    "Ġrejoiced": 8685,
    "Ġstru": 2167,
    "Ġprec": 2923,
    "midnight": 14912,
    "Ġeconomical": 25300,
    "Ġridic": 7507,
    "falling": 24376,
    "seated": 11673,
    "Ġdenoted": 16575,
    "isome": 17857,
    "varied": 23195,
    "Ġstrands": 25582,
    "illes": 12696,
    "Ġjacobians": 2897,
    "rope": 3183,
    "iscreet": 20690,
    "Ġmem": 2067,
    "Ġfair": 2841,
    "machines": 8386,
    "etrics": 21590,
    "Ġleech": 24169,
    "oot": 13768,
    "Ġfle": 3092,
    "Ġunconsciously": 10008,
    "spot": 9793,
    "Ġev": 4831,
    "Ġstranger": 3483,
    "ique": 8745,
    "Ġgrew": 5186,
    "Ġwat": 1285,
    "Ġwaters": 3592,
    "Ġeddy": 13126,
    "ethe": 9683,
    "Ġpirate": 15008,
    "Ġresigned": 9772,
    "Ġmumbled": 17816,
    "Ġgarb": 21608,
    "pips": 21028,
    "Ġinasmuch": 10828,
    "wearing": 22697,
    "idate": 21772,
    "perform": 15905,
    "tural": 21074,
    "Ē": 211,
    "roofed": 26192,
    "Ġunfitted": 24121,
    "Ġhundredth": 16529,
    "Ġdiverted": 14600,
    "Ġbishop": 13906,
    "Ġmamma": 10051,
    "mole": 22714,
    "fulfilment": 26033,
    "Ġsyllables": 25311,
    "children": 9059,
    "clim": 18940,
    "Ġanimated": 7701,
    "famous": 16923,
    "Ġwoe": 4797,
    "Ġsol": 1104,
    "glad": 9011,
    "vo": 17705,
    "igate": 8825,
    "Ġremoving": 12118,
    "Ġfaultless": 24554,
    "inv": 8402,
    "blind": 16715,
    "levelled": 23658,
    "atement": 17783,
    "swallowed": 14865,
    "B": 38,
    "ais": 8069,
    "Ġnewcomers": 26050,
    "Ġarch": 925,
    "arnel": 18135,
    "Ġspeaking": 4026,
    "Ġtenderness": 12216,
    "aped": 3763,
    "Ġheavily": 6741,
    "Ġpositional": 2597,
    "Ġpredestinated": 18528,
    "Ġwill": 678,
    "orse": 5808,
    "Ġpoles": 11006,
    "aired": 8369,
    "Ġpractical": 3163,
    "Ġmerid": 13196,
    "Ġnets": 21529,
    "Ġmagnificence": 20642,
    "Ġterrified": 14679,
    "Ġconvalescence": 23757,
    "Ġreached": 4022,
    "astrous": 15894,
    "Ġvindict": 13607,
    "cares": 24323,
    "Ġyarn": 10871,
    "necess": 4898,
    "Ġjeopard": 9946,
    "Ġmagazine": 23111,
    "ĠĠĠĠĠĠĠĠĠĠĠĠĠĠĠĠĠĠĠĠĠĠĠĠĠĠĠĠĠĠĠĠĠĠĠĠĠ": 14622,
    "Ġbenefits": 4290,
    "Ġinflu": 4911,
    "heim": 17756,
    "Ġsuppress": 13021,
    "Ġkill": 4459,
    "Ġretention": 23082,
    "iam": 2511,
    "Ġ113": 19707,
    "Ġbroiled": 18918,
    "boone": 23265,
    "Ġmornings": 16243,
    "Ġcabs": 23652,
    "Ġchallenges": 13631,
    "Ġbas": 6379,
    "freely": 16863,
    "hurst": 19887,
    "gest": 5428,
    "a": 69,
    "Ġprogeny": 17395,
    "Ġtearless": 24800,
    "awned": 19469,
    "commander": 16994,
    "animal": 16984,
    "sorrow": 12510,
    "Ġdreaming": 11227,
    "Ġblazing": 11897,
    "Ġmemorable": 16436,
    "mill": 13756,
    "Ġlingu": 11617,
    "yd": 21151,
    "Ġjungfrau": 15256,
    "sip": 10729,
    "Ġmyself": 1455,
    "Ġinqu": 2967,
    "Ġselects": 4391,
    "Ġrevel": 9222,
    "iliating": 12697,
    "Ġnumerical": 4249,
    "advance": 12158,
    "Ī": 235,
    "rec": 6004,
    "Ġuncivil": 11158,
    "Ġmatlock": 18812,
    "Ġdecanting": 22445,
    "Ġbare": 6133,
    "real": 10154,
    "else": 6534,
    "high": 6651,
    "Ġknave": 11277,
    "arts": 6565,
    "Ġabusing": 18403,
    "unching": 18166,
    "q": 85,
    "Ġmaker": 15548,
    "Ġrefuse": 5741,
    "rising": 7556,
    "kovoko": 20677,
    "Ġnature": 2541,
    "Ġundeniable": 26518,
    "omeness": 18031,
    "storied": 18030,
    "Ġoptim": 776,
    "Ġtemple": 7653,
    "contr": 12059,
    "Ġferule": 24582,
    "?âĢĿ": 700,
    "Ġunce": 11712,
    "Ġunremitting": 26226,
    "Ġpills": 21471,
    "idel": 5302,
    "apprec": 22854,
    "Ġchemical": 10415,
    "Ġquadr": 8201,
    "Ġcoinc": 11004,
    "que": 1141,
    "Ġproprietors": 20195,
    "Ġbuck": 7158,
    "scorched": 25705,
    "Ġmingling": 20206,
    "Ġexperience": 1351,
    "parameter": 3120,
    "Ġthence": 8885,
    "Ġremonstrance": 20632,
    "Ġproduce": 4372,
    "Ġlogger": 11956,
    "Ġtight": 8108,
    "Ġwhom": 1829,
    "ation": 320,
    "Ġmungo": 25639,
    "discern": 14863,
    "Ġskrimshander": 22811,
    "means": 9792,
    "take": 4579,
    "Ġtortoise": 16916,
    "Ġactionable": 24573,
    "spread": 8390,
    "Ġbrows": 13302,
    "waste": 21143,
    "Ġlanc": 19773,
    "Ġsolemnity": 9944,
    "Ġnapoleons": 25894,
    "beheld": 11802,
    "Ġconven": 6152,
    "Ġperceiving": 8879,
    "Ġfrequent": 3283,
    "Ġpronounce": 16974,
    "luding": 6703,
    "Ġunsc": 22019,
    "asses": 7018,
    "Ġgor": 9214,
    "Ġexecutioner": 12272,
    "Ġh": 290,
    "Ġdetest": 8504,
    "Ġconquer": 14031,
    "stubb": 6018,
    "Ġaspects": 4180,
    "Ġpersu": 3560,
    "Ġwelfare": 12559,
    "discoloured": 23510,
    "ittered": 18449,
    "Ġdeclined": 9923,
    "igh": 2027,
    "hoist": 23724,
    "inte": 5148,
    "contrasted": 17312,
    "appin": 18772,
    "haw": 6360,
    "ruck": 6852,
    "amid": 12727,
    "Ġterrors": 6921,
    "Ġsensible": 4978,
    "Ġlens": 8439,
    "_)âĢĶ": 20152,
    "rints": 12504,
    "Ġpretending": 19325,
    "Ġtidings": 11402,
    "memory": 13619,
    "Ġcope": 17839,
    "interred": 23748,
    "oves": 15410,
    "Ġerud": 20062,
    "Ġcaps": 8415,
    "Ġsuccessive": 10506,
    "ced": 695,
    "Ġmissionary": 25704,
    "Ġdisput": 14260,
    "Ġhot": 4261,
    "anning": 10169,
    "Ġmetal": 9393,
    "Ġscott": 22293,
    "Ġlife": 1354,
    "Ġboot": 11840,
    "Ġrafters": 22666,
    "Ġsheets": 9727,
    "Ġreconc": 9689,
    "cutting": 23794,
    "upset": 23030,
    "Ġglory": 6065,
    "Ġrecollected": 8311,
    "closing": 23168,
    "Ġwanderings": 20151,
    "call": 8725,
    "fering": 17550,
    "bus": 5357,
    "Ġbrewed": 23357,
    "cnns": 3617,
    "inside": 23076,
    "Ġlxi": 21566,
    "Ġhauled": 11695,
    "onely": 6517,
    "guinea": 16679,
    "voy": 7144,
    "ividual": 5466,
    "mond": 20982,
    "Ġblotches": 25324,
    "tails": 21094,
    "thing": 1480,
    "Ġdetested": 14188,
    "Ġwillingness": 24923,
    "Ġimpatient": 5606,
    "Ġbeget": 9232,
    "Ġseas": 3079,
    "Ġvagabond": 20212,
    "consist": 14828,
    "Ġrequiring": 2925,
    "Ġimmaculate": 19495,
    "Ġdaughter": 2874,
    "oology": 21014,
    "indebted": 26167,
    "Ġomnipotent": 13550,
    "otic": 15751,
    "Ġcatastrop": 3347,
    "waiting": 12221,
    "Ġsurmise": 12296,
    "eminently": 25118,
    "Ġdishonor": 25610,
    "Ġpartaking": 22709,
    "Ġruffled": 25844,
    "ga": 17558,
    "Ġmantel": 11444,
    "Ġperfidious": 25674,
    "Ġhamper": 19398,
    "Ġfut": 15580,
    "joint": 24018,
    "dozen": 23390,
    "ĠcÃ¦": 15560,
    "Ġexplo": 2280,
    "Ġwonderful": 4565,
    "Ġhaws": 21956,
    "circumspect": 26095,
    "Ġsnatch": 14647,
    "Ġconstitutional": 25138,
    "limping": 26402,
    "Ġweigh": 10897,
    "Ġtable": 2502,
    "Ġquant": 6423,
    "Ġrepine": 16417,
    "Ġfals": 15586,
    "never": 3151,
    "Ġtreating": 4287,
    "Ġforthwith": 16628,
    "Ġheard": 1401,
    "Ġtended": 21174,
    "suggested": 17304,
    "Ġwhirled": 14970,
    "Ġcompens": 14269,
    "Ġpredicts": 2594,
    "Ġwages": 13858,
    "Ġdolphins": 20402,
    "Ġvertically": 19389,
    "Ġeffectual": 18746,
    "benefit": 24657,
    "+": 15,
    "Ġferv": 17889,
    "deployment": 26535,
    "Ġfamiliarly": 11308,
    "Ġtangle": 25769,
    "dischar": 19163,
    "ev": 6955,
    "Ġtut": 8772,
    "ateur": 22011,
    "whalebone": 19130,
    "Ġsakes": 18334,
    "new": 1467,
    "cused": 15340,
    "Ġminim": 1324,
    "Ġlamentations": 17083,
    "Ġacute": 16132,
    "Ġjamming": 17271,
    "boilers": 26306,
    "Ġhopeless": 7463,
    "Ġthere": 563,
    "Ġalong": 1977,
    "prof": 7698,
    "ouch": 2786,
    "Ġcrad": 21356,
    "Ġjav": 7902,
    "rices": 4561,
    "heaved": 21218,
    "acetti": 13399,
    "suddenly": 6492,
    "Ġunav": 18249,
    "Ġnarrative": 6217,
    "Ġclut": 7641,
    "elag": 12660,
    "Ġbush": 23349,
    "orious": 6008,
    "armon": 23069,
[...]
