{
  "metadata": {
    "vocab_size": 26612,
    "algorithm": "BPE",
    "created_at": "2026-09-06 06:49:43",
    "special_tokens": [
      "<PAD>",
      "<SOS>",
      "<EOS>",
      "<UNK>",
      "<MASK>"
    ]
  },
  "vocab": {
    "velling": 14759,
    "Ġsanely": 24981,
    "ires": 6038,
    "Ġxli": 14540,
    "Ġauthor": 4374,
    "Ġwooden": 4730,
    "Ġdec": 641,
    "Ġshaggy": 13566,
    "opement": 10311,
    "Ġmantle": 25274,
    "proceeded": 25190,
    "deemed": 18316,
    "voices": 21115,
    "brimmed": 14586,
    "ises": 3653,
    "Ġgroves": 16738,
    "Ġspong": 15878,
    "Ġlivel": 11355,
    "Ġfidget": 15186,
    "Ġwatson": 3597,
    "Ġchry": 22243,
    "yourself": 6742,
    "Ġbowl": 11204,
    "Ġdeified": 18136,
    "glue": 17554,
    "belt": 24033,
    "stupid": 12672,
    "Ġgeometric": 3217,
    "gn": 8082,
    "remarked": 12284,
    "reck": 9636,
    "why": 2830,
    "ophisticated": 22475,
    "Ġsuggest": 5417,
    "izes": 884,
    "impropriety": 21710,
    "ifled": 14060,
    "exagger": 22425,
    "Ġstricken": 9775,
    "flesh": 13485,
    "Ġarriving": 19216,
    "irra": 15781,
    "gang": 17551,
    "Ġendowed": 18923,
    "Ġselection": 18201,
    "hence": 16622,
    "Ġgobern": 22422,
    "critical": 19501,
    "heaven": 8053,
    "Ġmachinery": 20482,
    "Ġclumsy": 9579,
    "Ġlithe": 24667,
    "Ġpill": 7846,
    "Ġroom": 1464,
    "Ġnantucketers": 9893,
    "Ġtransc": 12860,
    "Ġforgetfulness": 14604,
    "Ġshabby": 14108,
    "Ġtimbers": 14836,
    "Ġpleasanter": 19064,
    "Ġcollinses": 19128,
    "Ġpatentee": 25585,
    "Ġstomach": 11651,
    "Ġjulia": 22299,
    "onet": 12540,
    "illating": 22104,
    "Ġsobbed": 14134,
    "Ġintensified": 17016,
    "Ġmadden": 10447,
    "urre": 10856,
    "reject": 21234,
    "befriend": 22490,
    "Ġbuilded": 24718,
    "Ġsunken": 14491,
    "Ġharmless": 9964,
    "Ġhenry": 5197,
    "Ġadoption": 24947,
    "turn": 4290,
    "Ġemotion": 7690,
    "examined": 17264,
    "Ġcontrivance": 17181,
    "Ġdefendants": 15137,
    "poor": 6061,
    "Ġgrasping": 12161,
    "Ġwhichever": 13997,
    "ogn": 2445,
    "Ġinterven": 10998,
    "Ġsits": 10768,
    "vap": 13800,
    "Ġimpregnable": 26022,
    "odox": 21810,
    "insupportable": 21191,
    "Ġther": 17776,
    "bbs": 23689,
    "Ġeasterly": 25961,
    "Ġjoys": 13214,
    "Ġswaying": 15044,
    "discernible": 20548,
    "Ġregrets": 18593,
    "Ġenjoys": 19447,
    "Ġirish": 14531,
    "aulding": 11339,
    "abashed": 21789,
    "charlotte": 6473,
    "Ġcorrespondence": 10594,
    "Ġalders": 21781,
    "Ġwrapping": 19773,
    "Ġdistorted": 14247,
    "absurd": 21792,
    "baby": 25515,
    "Ġpunct": 8661,
    "incredible": 16496,
    "A": 37,
    "coat": 5407,
    "Ġerrand": 11085,
    "treated": 21092,
    "wag": 21121,
    "Ġskul": 22794,
    "arman": 11594,
    "gro": 10094,
    "Ġannihilated": 20250,
    "this": 1442,
    "Ġbut": 423,
    "Ġsimulates": 2741,
    "Ġglens": 18853,
    "zeal": 16263,
    "Ġfelicity": 7260,
    "perceive": 12806,
    "dest": 4103,
    "tracks": 19636,
    "Ġimmeasurable": 26228,
    "ase": 1160,
    "sailing": 14711,
    "Ġcoun": 4177,
    "Ġunstructure": 2993,
    "Ġmeans": 698,
    "inkle": 22612,
    "mystery": 15152,
    "Ġrowing": 10300,
    "uning": 1311,
    "Ġpurchased": 12256,
    "unnecessary": 21877,
    "ortunity": 4402,
    "Ġseeing": 2886,
    "Ġlingered": 13500,
    "Ġlaw": 3654,
    "brÃ¦": 11175,
    "details": 19673,
    "Ġhere": 1088,
    "rigible": 24930,
    "coronet": 16861,
    "yes": 986,
    "Ġindestruct": 22955,
    "Ġhopelessly": 16375,
    "looking": 4033,
    "wat": 6231,
    "Ġhurled": 10429,
    "Ġunravel": 26213,
    "tor": 15430,
    "birth": 15319,
    "aviour": 10994,
    "Ġreality": 7057,
    "Ġmaking": 1778,
    "Ġmemorable": 16425,
    "Ġinsects": 25645,
    "Ġalternately": 15029,
    "tland": 21071,
    "fitted": 17542,
    "Ġquestioning": 10464,
    "offing": 23329,
    "Ġteased": 18786,
    "Ġperish": 8874,
    "Ġcoloured": 11044,
    "infallibly": 26415,
    "Ġtheatre": 21276,
    "innocent": 20284,
    "Ġhotel": 8651,
    "Ġwand": 4341,
    "persuaded": 15070,
    "Ġhour": 1812,
    "Ġavail": 11226,
    "Ġslowly": 3617,
    "Ġglory": 6065,
    "contr": 12053,
    "Ġbrilliant": 11414,
    "been": 3345,
    "Ġloomings": 24948,
    "upid": 6581,
    "Ġlogical": 14484,
    "Ġcoding": 8116,
    "tar": 8098,
    "Ġalfred": 21783,
    "Ġarter": 22185,
    "Ġhemis": 21681,
    "Ġmix": 7576,
    "Ġboom": 9309,
    "malicious": 19900,
    "Ġperfect": 2558,
    "Ġinasmuch": 10825,
    "asons": 6015,
    "decl": 8856,
    "ario": 14245,
    "Ġburying": 19250,
    "Ġgeorgiana": 8626,
    "Ġsec": 2076,
    "moor": 22701,
    "aged": 2609,
    "Ġbeaufort": 13564,
    "Ġhereditarily": 25224,
    "Ġseated": 4542,
    "remarks": 23186,
    "Ġcombination": 22851,
    "bweb": 20789,
    "Ġwill": 679,
    "Ġcopied": 20005,
    "Ġscaffold": 18393,
    "Ġarticles": 7108,
    "invol": 12525,
    "thirst": 15822,
    "Ġstole": 7953,
    "_.,": 14560,
    "Ġparasol": 22118,
    "Ġgout": 21593,
    "Ġmeekly": 26488,
    "squeezing": 25912,
    "Ġlurks": 11290,
    "Ġthings": 1962,
    "Ġvindictiveness": 25737,
    "Ġcheeks": 5958,
    "irksome": 18169,
    "excuse": 13376,
    "Ġethiop": 26154,
    "aside": 10191,
    "stun": 18017,
    "Ġbrut": 18767,
    "quin": 21839,
    "Ġbeh": 1802,
    "Ġutil": 4673,
    "Ġsuperflu": 14553,
    "Ġemblematical": 25787,
    "back": 2017,
    "Ġgossip": 18469,
    "ureau": 10226,
    "iness": 1281,
    "Ġrippling": 17275,
    "talking": 10006,
    "Ġshows": 8482,
    "Ġdecorated": 22442,
    "plex": 708,
    "anning": 10164,
    "hered": 5622,
    "Ġflirt": 14420,
    "Ġintru": 15824,
    "Ġdoesn": 7438,
    "Ġfeedback": 23430,
    "Ġcigars": 12248,
    "coll": 23777,
    "Ġcharted": 22247,
    "towns": 24853,
    "Ġbequeathed": 20699,
    "tranquillity": 20544,
    ".]": 15295,
    "Ġcommunity": 19007,
    "iality": 8843,
    "prince": 23811,
    "hob": 20898,
    "Ġhardest": 18911,
    "Ġret": 1380,
    "Ġnewcom": 16219,
    "broker": 13299,
    "Ġincul": 22547,
    "Ġimpropriety": 17392,
    "jerked": 25617,
    "Ę": 217,
    "Ġsystemat": 18441,
    "Ġsoot": 14129,
    "Ġcharing": 14176,
    "ont": 2624,
    "Ġtottenham": 24139,
    "decan": 22140,
    "Ġseamen": 5063,
    "Ġreverse": 16980,
    "Ġwoodlands": 23517,
    "received": 9638,
    "Ġhover": 15616,
    "perch": 18337,
    "windlass": 16719,
    "azz": 8262,
    "dough": 15332,
    "Ġlullaby": 20585,
    "Ġantilles": 24176,
    "admiration": 11387,
    "Ġcronies": 23440,
    "Ġmantel": 11439,
    "Ġduplicate": 17213,
    "Ġunra": 18233,
    "Ġje": 4123,
    "asleep": 21541,
    "Ġsummons": 13226,
    "Ġstandard": 14494,
    "Ġspokes": 18312,
    "Ġpoetical": 25056,
    "ĠĠĠĠĠĠĠĠĠĠĠĠĠĠĠĠĠĠĠĠĠĠĠĠĠĠĠĠĠĠĠĠĠĠĠĠĠĠĠĠĠĠĠĠĠ": 9951,
    "swiss": 24253,
    "H": 44,
    "ration": 2004,
    "/`)": 13656,
    "Ġpink": 12614,
    "Ġsecured": 6745,
    "Ġindustry": 18835,
    "Ġagree": 7646,
    "Ġemploys": 19428,
    "ĠĠ": 353,
    "Ġdiscovering": 13352,
    "inguish": 9396,
    "Ġproc": 5544,
    "Ġtablet": 19204,
    "Ġblankets": 24611,
    "tenham": 16319,
    "Ġcounting": 13090,
    "Ġwedged": 24068,
    "mpt": 6653,
    "Ġencouraging": 2269,
    "Ġproxim": 3198,
    "Ġaddison": 14230,
    "Ġgot": 2284,
    "Ġwhether": 2000,
    "Ġthistle": 21913,
    "rote": 4593,
    "Ġagrippa": 11804,
    "Ġkey": 2103,
    "Ġcreature": 2388,
    "olic": 14039,
    "Ġasking": 5651,
    "Ġwitty": 21290,
    "Ġhemisphere": 26476,
    "besides": 8696,
    "Ġstructure": 817,
    "aps": 1228,
    "Ġheidelburgh": 11641,
    "keen": 12779,
    "respectable": 19845,
    "jam": 15368,
    "hil": 8379,
    "Ġconfess": 3767,
    "scuttle": 11906,
    "Ġinqu": 2964,
    "slight": 10727,
    "Ġagain": 816,
    "inging": 5907,
    "thorough": 21982,
    "mature": 20965,
    "Ġcomprised": 14266,
    "Ġskulls": 12954,
    "Ġcrags": 23524,
    "oves": 15402,
    "Ġdauntless": 26335,
    "Ġadoration": 18289,
    "Ġsins": 13834,
    "Ġclifford": 22353,
    "fingers": 17367,
    "Ġnoises": 18372,
    "Ġfi": 924,
    "Ġunaccountably": 26513,
    "Ġhot": 4256,
    "Ġtouches": 20568,
    "Ġwhy": 1757,
    "Ġinfant": 11956,
    "larger": 24199,
    "Ġpleasant": 4170,
    "Ġunsur": 22015,
    "Ġadequate": 20306,
    "eray": 21264,
    "Ġdistant": 5387,
    "Ġfreighted": 16322,
    "that": 850,
    "active": 16100,
    "Ġextinction": 14324,
    "ryder": 18638,
    "Ġdisengaged": 12885,
    "Ġdisappears": 18559,
    "roar": 17951,
    "berwell": 22717,
    "Ġremark": 2148,
    "Ġresented": 22540,
    "Ġgips": 10841,
    "pigs": 17138,
    "orph": 21396,
    "Ġocc": 887,
    "verize": 21725,
    "levi": 7047,
    "assemblies": 25955,
    "st": 316,
    "Ġflip": 11908,
    "Ġchained": 16384,
    "Ġwat": 1287,
    "farm": 15348,
    "Ġimm": 3965,
    "deser": 10402,
    "Ġporing": 21465,
    "dimensional": 2350,
    "Ġswims": 12115,
    "Ġpredictions": 1457,
    "Ġwhale": 628,
    "Ġinward": 11606,
    "Ġlazy": 17048,
    "Ġshowing": 7732,
    "Ġdomineer": 23653,
    "degrees": 22148,
    "ped": 6365,
    "Ġslides": 18937,
    "Ġind": 1220,
    "Ġembalmed": 13652,
    "Ġrokovoko": 22403,
    "Ġfour": 2219,
    "involved": 25625,
    "Ġpassive": 22839,
    "perquis": 22183,
    "strong": 6322,
    "Ġenthus": 7232,
    "Ġpsal": 15612,
    "Ġloungers": 24861,
    "believe": 8304,
    "Ġelevating": 19726,
    "striking": 13435,
    "Ġtuples": 13472,
    "Ġcerem": 7077,
    "Ġclusters": 25232,
    "Ġsharkish": 24501,
    "Ġvesu": 21946,
    "ops": 5247,
    "Ġpossess": 3202,
    "Ġpleasantness": 24136,
    "Ġcost": 2508,
    "Ġgossiping": 26242,
    "wild": 8767,
    "Ġalternative": 19984,
    "susceptible": 24660,
    "Ġexpand": 9306,
    "ames": 2882,
    "Ġgiants": 25959,
    "elve": 4642,
    "Ġtax": 13813,
    "Ġbeggars": 20627,
    "Ġentertained": 9997,
    "Ġdecks": 6900,
    "Ġdemanding": 16803,
    "¤": 102,
    "Ġhigh": 932,
    "Ġmounts": 17805,
    "Ġcampa": 17171,
    "cils": 20813,
    "âĢĶâĢĻ": 8188,
    "Ġglist": 9344,
    "ban": 9584,
    "Ġreigns": 21668,
    "te": 996,
    "conjecture": 15119,
    "torn": 17680,
    "mistakable": 20651,
    "Ġharness": 17926,
    "Ġalche": 21780,
    "measured": 19987,
    "Ġinter": 727,
    "Ġcircumn": 11979,
    "announcement": 24560,
    "Ġsaturday": 6452,
    "Ġbraces": 14667,
    "Ġincapable": 7423,
    "Ġcheck": 7271,
    "anting": 6412,
    "Ġvows": 15805,
    "quadrille": 20592,
    "Ġstraight": 3703,
    "comfortableness": 24523,
    "effectually": 25128,
    "Ġpier": 7162,
    "developed": 15261,
    "Ġinconsist": 17934,
    "Ġbuying": 23994,
    "ĠâĢĺ": 1638,
    "Ġano": 11595,
    "Ġseparate": 5778,
    "Ġglided": 7447,
    "Ġkuiperai": 10935,
    "Ġnicely": 8709,
    "cupboards": 25401,
    "Ġdoctrine": 24194,
    "manners": 16181,
    "Ġexposes": 22621,
    "ill": 447,
    "Ġposted": 16722,
    "Ġretain": 7864,
    "Ġdesperately": 24655,
    "ressed": 3022,
    "Ġrelinquish": 17344,
    "Ġpersuasions": 16629,
    "Ġmightiest": 12955,
    "Ġkettle": 26231,
    "wretchedness": 17250,
    "Ġexordium": 26490,
    "Ġsepul": 14086,
    "bonnet": 25741,
    "isters": 11915,
    "Ġintended": 5547,
    "ager": 6546,
    "hatherley": 17566,
    "orous": 5292,
    "Ġsight": 2114,
    "Ġtrusted": 10517,
    "Ġ61": 24362,
    "goes": 10426,
    "Ġrail": 7225,
    "Ġsig": 867,
    "Ġapartment": 6633,
    "Ġtackle": 9512,
    "Ġagent": 6277,
    "Ġintroduce": 3204,
    "Ġlima": 10442,
    "itioned": 22466,
    "Ġnominally": 17229,
    "Ġbond": 21381,
    "beneath": 9534,
    "ank": 1363,
    "whiteness": 18369,
    "Ġfallen": 5968,
    "ropri": 2184,
    "Ġpuzzling": 14893,
    "Ġwearisome": 19793,
    "rever": 21233,
    "convinced": 10622,
    "Ġeaves": 15672,
    "F": 42,
    "employed": 17259,
    "uteronomy": 15660,
    "heads": 4095,
    "Ġpilgrimage": 17305,
    "surv": 24211,
    "shorn": 22456,
    "Ġparties": 7038,
    "luyt": 18453,
    "mantel": 26392,
    "ooping": 21005,
    "Ġdoc": 7200,
    "transp": 24507,
    "Ġjonah": 3481,
    "Ġcontraction": 16005,
    "Ġdang": 9174,
    "Ġnegatived": 23045,
    "served": 5043,
    "Ġunaccountable": 7887,
    "enty": 2916,
    "Ġfishers": 19351,
    "Ġstrain": 6024,
    "Ġ104": 24410,
    "former": 11745,
    "Ġscramble": 24576,
    "Ġhospitals": 24922,
    "sebastian": 21816,
    "Ġenraged": 10244,
    "Ġrecurred": 18976,
    "Ġfishy": 16522,
    "Ġskirt": 18729,
    "Ġcoopman": 25826,
    "Ġprofund": 13148,
    "makers": 20980,
    "Ġ107": 24413,
    "Ġsigned": 11177,
    "Ġvisiting": 10357,
    "ositories": 22261,
    "Ġfasting": 16353,
    "Ġspoken": 4836,
    "Ġcruisings": 25863,
    "Ġnewsp": 9338,
    "Ġconstantinople": 19835,
    "Ġrepugn": 23359,
    "mixed": 15391,
    "Ġconvulsively": 25716,
    "pid": 1383,
    "Ġshears": 18318,
    "reduced": 15802,
    "arn": 358,
    "southern": 20406,
    "cooee": 12414,
    "Ġparamore": 22119,
    "Ġabridged": 26539,
    "Ġsurveying": 25325,
    "shelf": 20378,
    "Ġdish": 6136,
    "rets": 12536,
    "Ġce": 3029,
    "Ġeff": 667,
    "Ġheaded": 11055,
    "Ġadaptation": 3155,
    "·": 120,
    "lace": 13745,
    "Ġthrusting": 10552,
    "gon": 17550,
    "uncommonly": 25549,
    "Ġbelike": 18828,
    "dressing": 11481,
    "eds": 6674,
    "Ġrhyme": 21975,
    "Ġdexter": 9700,
    "Ġcondescended": 19953,
    "Ġdiscompose": 25578,
    "Ġsauc": 15884,
    "Ġutter": 3975,
    "Ġrehearsed": 25970,
    "holmes": 4430,
    "Ġh": 290,
    "Ġfalsehood": 10523,
    "Ġthinks": 6169,
    "gainst": 25141,
    "Ġcrane": 23437,
    "Ġsnake": 12057,
    "Ġaccumulates": 2891,
    "Ġparsee": 6413,
    "Ġtolerable": 6949,
    "Ġstepping": 9353,
    "Ġsighs": 22706,
    "Ġresolves": 23645,
    "Ġsultan": 15181,
    "accepting": 20133,
    "Ġpiece": 5367,
    "Ġsty": 6251,
    "seas": 14030,
    "vable": 10132,
    "Ġmales": 17804,
    "ogrand": 26260,
    "Ġimprudent": 12843,
    "Ġunlabeled": 3801,
    "sounded": 12262,
    "Ġnights": 7258,
    "cures": 20803,
    "lose": 12877,
    "Ġcentral": 7728,
    "Ġjustified": 11900,
    "Ġeclipsed": 26375,
    "gledy": 25403,
    "Ġpersist": 16284,
    "Ġaustral": 12168,
    "orn": 2245,
    "Ġrem": 955,
    "Ġcolonial": 22859,
    "Ġopinions": 9414,
    "na": 13757,
    "Ġcharacter": 2795,
    "ib": 1234,
    "Ġp": 289,
    "avier": 2832,
    "pretty": 10621,
    "Ġclerks": 17292,
    "uteness": 17984,
    "Ġtimes": 2305,
    "Ġcataract": 23425,
    "Ġcruis": 14622,
    "Ġtransient": 18480,
    "400": 20753,
    "spermaceti": 12189,
    "Ġbelf": 21378,
    "Ġintens": 7003,
    "ments": 1401,
    "maybe": 23989,
    "Ġblackstone": 23384,
    "uble": 21100,
    "Ġdynam": 3350,
    "Ġentire": 2561,
    "waiting": 12216,
    "privilege": 25263,
    "Ġstreamed": 14545,
    "Ġtis": 15463,
    "Ġunaware": 22052,
    "Ġflattened": 26046,
    "Ġmaterially": 12187,
    "Ġsheer": 14148,
    "Ġroanoke": 22404,
    "kilt": 4866,
    "Ġdivulged": 16646,
    "ins": 1376,
    "reat": 614,
    "disposed": 25009,
    "Ġcalcul": 3637,
    "Ġdisenc": 22523,
    "Ġplayful": 19235,
    "aciously": 12903,
    "Ġspear": 9313,
    "Ġanswered": 2852,
    "Ġspeaker": 19147,
    "instant": 8652,
    "Ġkeen": 4614,
    "Ġannouncement": 14829,
    "Ġwes": 8778,
    "Ġdivinely": 25722,
    "Ġfeatures": 1434,
    "Ġdelights": 14594,
    "Ġshrouds": 11344,
    "Ġvest": 8163,
    ":âĢĶâĢĺ": 24190,
    "Ġethiopian": 26611,
    "Ġlook": 880,
    "Ġarmada": 23578,
    "Ġhim": 476,
    "Ġshrill": 12137,
    "Ġtelesc": 12980,
    "anous": 21356,
    "despatched": 19799,
    "Ġvoid": 14083,
    "achine": 608,
    "trade": 19634,
    "Ġprecipices": 12273,
    "Ġtoward": 17945,
    "Ġlightning": 5750,
    "Ġeyel": 17094,
    "onsible": 22559,
    "lacing": 17588,
    "P": 52,
    "Ġaudience": 24768,
    "ss": 397,
    "Ġsauce": 15886,
    "Ġcontext": 1741,
    "Ġdaboll": 25949,
    "clad": 14456,
    "bearer": 18523,
    "avery": 13680,
    "window": 7743,
    "Ġsideboard": 10385,
    "Ġbelonging": 8308,
    "happiest": 19330,
    "Ñ": 146,
    "Ġbitt": 10796,
    "Ġcostume": 16493,
    "Ġbashful": 20417,
    "Ġmacy": 19352,
    "Ġ77": 24261,
    "Ġdreams": 7496,
    "Ġmisconduct": 22754,
    "Ġstationary": 19692,
    "Ġsegmentation": 17337,
    "Ġconject": 6027,
    "Ġgathers": 24742,
    "two": 3860,
    "Ġfierc": 18707,
    "Ġrepugnance": 19083,
    "Ġtacit": 21172,
    "Ġreven": 18027,
    "Ġdevils": 7230,
    "Ġdefici": 22940,
    "Ġfurther": 1055,
    "Ġbrace": 11211,
    "Ġfeeding": 7972,
    "ensive": 6279,
    "Ġassuring": 13057,
    "orted": 4604,
    "Ġ23": 13187,
    "utted": 15657,
    "Ġage": 3897,
    "porary": 14551,
    "Ġchink": 15929,
    "fs": 17533,
    "drive": 8683,
    "formity": 10278,
    "Ġgabriel": 7595,
    "Ġdesired": 4665,
    "Ġweighing": 20013,
    "Ġebony": 18007,
    "Ġcontrolled": 23249,
    "Ġdistinction": 8885,
    "Ġbankers": 24300,
    "Ġtrades": 8232,
    "Ġfevers": 22206,
    "era": 13844,
    "brought": 7285,
    "Ġsepulchre": 20557,
    "fearing": 18540,
    "Ġchronicled": 25328,
    "regret": 16449,
    "sister": 5139,
    "Ġpaths": 2570,
    "Ġgouldings": 26186,
    "Ġfairness": 9892,
    "Ġbehaviors": 13248,
    "Ġblow": 3376,
    "Ġabhor": 5467,
    "Ġpret": 3033,
    "Ġbart": 17856,
    "yet": 3753,
    "Ġfearfully": 23508,
    "Ġorph": 9716,
    "expectations": 24274,
    "unpardonable": 21887,
    "Ġdispute": 16053,
    "================": 3723,
    "icide": 11617,
    "Ġwiser": 14727,
    "Ġtakes": 5007,
    "Ġactivation": 917,
    "absent": 21787,
    "Ġcalculus": 23980,
    "ced": 695,
    "solute": 16596,
    "sticking": 21657,
    "Ġanno": 9667,
    "Ġspoil": 17005,
    "Ġameric": 3854,
    "Ġost": 9649,
    "contrast": 25593,
    "Ġingen": 9049,
    "discharging": 26304,
    "Ġswim": 3821,
    "Ġequatorial": 13504,
    "Ġimp": 580,
    "Ġ60": 14872,
    "Ġquivers": 22410,
    "Ġfive": 2837,
    "Ġobscurely": 20186,
    "bar": 7541,
    "Ġpurpose": 2710,
    "Ġresigned": 9767,
    "Ġdome": 15585,
    "uer": 21098,
    "--": 1042,
    "phon": 4127,
    "cripp": 20817,
    "inquir": 9535,
    "cruising": 12275,
    "endure": 22213,
    "bast": 10076,
    "ohn": 4562,
    "carbuncle": 26380,
    "Ġalabama": 14016,
    "Ġsembl": 19058,
    "Ġchr": 3688,
    "Ġpeaceful": 9455,
    "Ġtaurus": 21176,
    "Ġtouched": 6001,
    "trembling": 17140,
    "Ġperils": 6272,
    "impotence": 23758,
    "Ġimpunity": 14212,
    "Ġmainland": 22647,
    "Ġundertone": 23239,
    "ur": 326,
    "Ġmind": 1626,
    "Ġfra": 1780,
    "hunt": 20901,
    "Ġbenevol": 5962,
    "Ġdiffident": 23781,
    "Ġcooped": 22581,
    "enance": 3373,
    "Ġult": 9074,
    "beg": 22485,
    "Ġcontemplated": 13459,
    "datasets": 11944,
    "Ġpeculiarities": 12066,
    "Ġnine": 5369,
    "Ġlargest": 6282,
    "Ġmab": 12555,
    "Ġliar": 22405,
    "nial": 20982,
    "pos": 15408,
    "Ġdissimilar": 22528,
    "Ġrmsprop": 3357,
    "Ġconcentric": 20072,
    "thus": 5158,
    "Ġclosing": 11769,
    "Ġturks": 14596,
    "Ġchicha": 15933,
    "philosophy": 13576,
    "Ġpromote": 23190,
    "Ġbows": 4082,
    "isely": 4489,
    "bingley": 4927,
    "alive": 10827,
    "jointed": 24008,
    "Ġresolved": 3799,
    "application": 12359,
    "Ġmiss": 1229,
    "Ġshirt": 8848,
    "Ġcholera": 22250,
    "der": 468,
    "hawks": 24693,
    "Ġunctuous": 10266,
    "Ġhumans": 8928,
    "trial": 20348,
    "smooth": 20246,
    "Ġluckily": 16796,
    "Ġmournfully": 20114,
    "ildad": 3531,
    "nels": 12491,
    "Ġtin": 15461,
    "Ġc": 277,
    "Ġteaches": 18787,
    "voyages": 24854,
    "Ġcareless": 11119,
    "Ġfluctuating": 24415,
    "rendering": 22337,
    "Ġweather": 3998,
    "Ġugly": 8716,
    "imate": 4221,
    "prim": 23807,
    "rier": 9241,
    "teeth": 10355,
    "down": 3470,
    "Ġsoda": 25534,
    "ividually": 22077,
    "colour": 9902,
    "erness": 6434,
    "Ġunjust": 8483,
    "Ġbrightest": 13219,
    "Ġemployer": 19429,
    "Ġsatisfactory": 11192,
    "Ġwager": 17791,
    "Ġgenerate": 1546,
    "Ġintu": 12759,
    "Ġinvulnerable": 19145,
    "gling": 10097,
    "Ġmedical": 9463,
    "uch": 877,
    "Ġconstraints": 2742,
    "Ġdiffers": 23779,
    "Ġgunw": 6212,
    "Ġexcepting": 14678,
    "Ġlawless": 19432,
    "Ġunmolested": 15242,
    "mediterranean": 16396,
    "couldn": 23714,
    "gunpowder": 25339,
    "stationed": 25453,
    "values": 4973,
    "Ò": 147,
    "thy": 2933,
    "sherlock": 5422,
    "Ġestates": 16458,
    "chamber": 13621,
    "Ġcatastrophe": 10483,
    "leness": 4691,
    "Ġgeese": 7694,
    "ry": 809,
    "Ġrenegades": 26474,
    "Ġmute": 19413,
    "Ġcharity": 8862,
    "Ġgable": 15663,
    "Ġexcite": 11962,
    "Ġtides": 13818,
    "chambers": 25454,
    "Ġgracefully": 13386,
    "extinguish": 22770,
    "Ġapproach": 868,
    "ilities": 6991,
    "Ġriver": 5411,
    "Ġceases": 19311,
    "Ġblocked": 19221,
    "sheet": 16282,
    "Ġaccidental": 16846,
    "brill": 16489,
    "victim": 25530,
    "Ġpods": 17913,
    "rers": 14715,
    "few": 8205,
    "Ġ111": 24434,
    "00": 1616,
    "uber": 15443,
    "Ġrevived": 11368,
    "step": 2459,
    "ws": 7355,
    "Ġcaution": 11346,
    "police": 10583,
    "Ġbrazen": 23836,
    "Ġplaster": 16081,
    "Ġcrown": 5287,
    "killer": 20473,
    "Ġwitnesses": 9485,
    "fork": 20855,
    "Ġknitting": 24216,
    "Ġaspired": 25983,
    "Ġmiscellaneous": 17460,
    "ogy": 22687,
    "Ġhunks": 18934,
    "lest": 5288,
    "Ġjabbering": 22300,
    "Ġabsurdly": 19958,
    "Ġindependence": 12100,
    "Ġduplicates": 17214,
    "off": 1884,
    "anel": 21354,
    "Ġcandles": 9907,
    "ython": 1030,
    "pped": 1998,
    "Ġoverheard": 11771,
    "Ġmomentary": 11036,
    "Ġcommonly": 3263,
    "Ġlight": 1700,
    "shoulder": 16581,
    "ime": 626,
    "meal": 22709,
    "romising": 18232,
    "Ġhunter": 5401,
    "entreat": 17974,
    "Ġdisappointing": 19577,
    "uncommon": 11679,
    "pidation": 18886,
    "Ġmarble": 7669,
    "aulets": 18621,
    "Ġwhitened": 24866,
    "icorn": 15653,
    "ientific": 6547,
    "glow": 20872,
    "Ġmitt": 21305,
    "playing": 19655,
    "Ġhypocritical": 20736,
    "material": 13125,
    "Ġlime": 13945,
    "isure": 6240,
    "Ġtreatise": 19342,
    "Ġinspiring": 19111,
    "Ġpauses": 14811,
    "Ġstack": 21730,
    "antingly": 22095,
    "Ġdoom": 6417,
    "Ġtext": 2273,
    "Ġrushes": 20505,
    "rot": 21529,
    "Ġpanegyric": 26447,
    "nineteenth": 26137,
    "itations": 17816,
    "rential": 22916,
    "Ġstrained": 10218,
    "flood": 19804,
    "Ġconfirming": 25321,
    "rus": 5930,
    "inch": 10755,
    "Ġtyphoon": 12385,
    "gate": 12462,
    "Ġguardians": 14940,
    "Ġcircling": 19091,
    "stumps": 21656,
    "awful": 23114,
    "Ġorchard": 22091,
    "ross": 810,
    "Ġhyper": 19737,
    "Ġwrap": 24594,
    "endeav": 7150,
    "serpent": 16289,
    "ich": 469,
    "endeavoured": 12276,
    "Ġhumour": 7932,
    "Ġven": 4648,
    "Ġgor": 9206,
    "a": 69,
    "Ġfierceness": 26262,
    "formal": 14164,
    "oul": 4699,
    "hastily": 19700,
    "dat": 1600,
    "Ġnecessitated": 23924,
    "Ġconqueror": 25795,
    "ĺ": 251,
    "restraint": 18979,
    "Ġadmirals": 20382,
    "Ġcusack": 26431,
    "Ġhumility": 12978,
    "wander": 17707,
    "discern": 14848,
    "Ġbarbara": 24817,
    "Ġmurdering": 14807,
    "verty": 8452,
    "Ġreconsidered": 21670,
    "Ġfolios": 23016,
    "Ġnosegay": 24189,
    "itude": 1420,
    "ipping": 2212,
    "doms": 20833,
    "Ġdrove": 4984,
    "Ġconjured": 25098,
    "Ġpresenting": 18987,
    "Ġobstetrics": 24677,
    "fatig": 17087,
    "Ġsne": 6372,
    "Ġrelent": 18773,
    "Ġthine": 7374,
    "Ġepo": 21616,
    "Ġregimentals": 19856,
    "Ġbestowed": 6593,
    "jaw": 13740,
    "worn": 13803,
    "Ġmiz": 10777,
    "ome": 535,
    "Ġescaped": 6459,
    "Ġhove": 17921,
    "Ġsoapstone": 20508,
    "Ġjoints": 12031,
    "alk": 1154,
    "Ġhorribly": 16339,
    "Ġextant": 18679,
    "icular": 2023,
    "obtain": 23093,
    "Ġacts": 2298,
    ".âĢĶ": 4247,
    "Ġstumped": 24941,
    "sighted": 19783,
    "Ġtambourine": 9564,
    "Ġhailed": 6407,
    "Ġaberde": 22284,
    "quod": 2168,
    "asting": 12801,
    "Ġknave": 11272,
    "oga": 22686,
    "actions": 8906,
    "Ġoutrid": 22312,
    "Ġrelevant": 1862,
    "Ġlungless": 24862,
    "Ġdoleful": 18375,
    "prepar": 22450,
    "Ġrebounds": 25966,
    "Ġq": 1085,
    "Ġelementary": 24813,
    "uplifted": 17693,
    "Ġaston": 3702,
    "bringing": 17164,
    "Ġshouted": 5347,
    "buck": 17488,
    "ric": 1375,
    "afford": 14652,
    "Ġalongside": 6311,
    "honey": 20903,
    "sius": 13785,
    "Ġinquiring": 8999,
    "Ġroad": 3881,
    "uttermost": 24939,
    "improve": 15708,
    "Ġchinese": 14179,
    "Ġrefined": 18703,
    "Ġemper": 9860,
    "Ġamuse": 5940,
    "dark": 5613,
    "Ġimagenet": 19244,
    "difficulty": 12386,
    "aciousness": 18606,
    "Ġacknowledge": 13397,
    "Ġloved": 4600,
    "Ġgrec": 18961,
    "Ġicelandic": 25885,
    "Ġunfit": 14783,
    "Ġstow": 21727,
    "one": 617,
    "woods": 13414,
    "itime": 15544,
    "Ġtistig": 26411,
    "Ġwalker": 23305,
    "Ġrambling": 18643,
    "Ġreeling": 18031,
    "Ġinscribed": 24937,
    "Ġemer": 5959,
    "âĢĿâĢĶ": 5721,
    "Ġeasy": 3454,
    "otence": 14020,
    "argue": 21442,
    "Ġluxuriant": 20392,
    "Ġthames": 13935,
    "Ġwint": 15530,
    "Åĵuv": 15179,
    "guilty": 19480,
    "Ġtossing": 8126,
    "Ġdisp": 3361,
    "10": 17470,
    "Ġprelimin": 8860,
    "swept": 19784,
    "ordingly": 18516,
    "Ġmere": 2715,
    "Ġcarn": 17820,
    "artic": 14219,
    "Ġfolio": 11914,
    "Ġphysiology": 25332,
    "Ġfolding": 19724,
    "Ġcandidate": 16699,
    "Ġwars": 17784,
    "scence": 14416,
    "Ġskylarking": 19484,
    "88": 20756,
    "Ġvap": 6837,
    "rudent": 6482,
    "Ġdimensions": 16568,
    "Ġfraud": 19023,
    "Ġgu": 1328,
    "steep": 19416,
    "Ġgild": 15665,
    "Ġint": 409,
    "Ġunhappily": 18258,
    "Ġsnatched": 10471,
    "Ġhip": 17919,
    "Ġallude": 12776,
    "Ġjacket": 6489,
    "Ġvort": 18192,
    "flies": 19421,
    "ugging": 23285,
    "Ġappal": 18361,
    "Ġventured": 7501,
    "Ġpoultry": 17438,
    "knell": 24553,
    "papers": 12497,
    "Ġsubterr": 10349,
    "zes": 11548,
    "Ġmissionary": 25695,
    "Ġstolen": 14004,
    "Ġlinguistic": 12421,
    "Ġslyness": 25266,
    "Ġdismal": 11807,
    "ø": 185,
    "ack": 612,
    "Ġpressing": 9260,
    "Ġinstruction": 14339,
    "Ġantagon": 19548,
    "Ġallurements": 22067,
    "alescence": 15921,
    "Ġcloset": 19589,
    "Ġjoke": 8868,
    "Ġoverflow": 10292,
    "Ġfangs": 12593,
    "Ġherself": 1570,
    "Ġwindibank": 7257,
    "cherries": 19754,
    "Ġline": 1848,
    "Ġabstained": 25231,
    "Ġexpectations": 13138,
    "Ġclasses": 4055,
    "Ġsupplement": 22999,
    "Ġfoolish": 5980,
    "Ġsummits": 14681,
    "Ġmore": 678,
    "alty": 17937,
    "ioning": 21506,
    "coun": 10686,
    "heavens": 19743,
    "Ġhid": 1319,
    "equal": 14990,
    "chased": 18040,
    "Ġgryphon": 4298,
    "Ġstoutly": 16922,
    "Ġlonged": 6436,
    "Ġhappiness": 2944,
    "Ġloveliness": 13604,
    "Ġfarthest": 23115,
    "fal": 17534,
    "Ġ*": 1274,
    "Ġmourn": 8704,
    "doubtless": 17000,
    "ints": 3418,
    "Ġex": 360,
    "Ġsuccessfully": 19426,
    ",--": 2480,
    "Ġberry": 19744,
    "Ġbuttoning": 17233,
    "ence": 393,
    "Ġraises": 11841,
    "friendly": 13279,
    "labours": 16615,
    "god": 4863,
    "lance": 12477,
    "fortnight": 13081,
    "Ġemb": 1247,
    "Ġprocured": 8677,
    "Ġinstructing": 3121,
    "icing": 9200,
    "Ġdiscomposed": 25579,
    "Q": 53,
    "Ġcruise": 12045,
    "Ġspeeches": 22660,
    "Ġvague": 6406,
    "culous": 11140,
    "âĢĻ,": 14069,
    "Ġoversampling": 20513,
    "Ġsurround": 4618,
    "tee": 16170,
    "Ġundisturbed": 19517,
    "aven": 8208,
    "venison": 22625,
    "Ġinvolves": 1134,
    "Ġpockets": 8896,
    "Ġwarsaw": 26166,
    "ious": 769,
    "Ġforgo": 21770,
    "Ġcaresses": 26058,
    "arb": 1567,
    "Ġwrinkles": 8571,
    "romeda": 17260,
    "Ġindirectly": 8939,
    "),": 1345,
    "adm": 7608,
    "untarily": 6312,
    "Ġunwillingly": 15845,
    "Ġanx": 3179,
    "Ġoozy": 21324,
    "subtle": 24241,
    "Ġchannel": 26011,
    "Ġcomposure": 7217,
    "Ġ86": 24459,
    "Ġsilk": 11959,
    "Ġexactness": 23602,
    "Ġcommunicate": 10577,
    "ĠĠĠĠĠĠĠĠĠĠĠĠ": 12896,
    "Ġmorning": 1747,
    "conject": 8880,
    "Ġlegit": 16471,
    "arse": 7160,
    "Ġhaven": 8473,
    "Ġsports": 18309,
    "Ġties": 12522,
    "Ġtobacco": 8367,
    "iration": 4541,
    "Ġkra": 18347,
    "shel": 11926,
    "paper": 9136,
    "Ġpolice": 4675,
    "Ġgifts": 21609,
    "queness": 18144,
    "Ġcommodore": 12391,
    "advice": 12153,
    "bud": 10682,
    "leg": 2815,
    "Ġmartin": 25436,
    "Ġrascal": 11697,
    "Ġblock": 2576,
    "Ġmarbles": 18871,
    "Ġstrides": 22615,
    "Ġwrong": 4724,
    "Ġpleaded": 16297,
    "Ġspirit": 3724,
    "Ġendeavours": 8618,
    "Ġapprised": 18363,
    "Ġluckless": 16795,
    "trowsers": 17689,
    "consp": 18501,
    "Ġinvis": 6902,
    "Ġnotice": 4544,
    "imper": 13994,
    "Ġfoes": 11948,
    "Ġfrenzy": 13618,
    "Ġsucceeded": 6105,
    "haired": 14763,
    "Ġjagged": 18406,
    "proud": 9903,
    "Ġclos": 4550,
    "ainted": 3658,
    "Ġsaving": 15883,
    "twinkle": 23700,
    "Ġmonsters": 11074,
    "Ġphys": 5653,
    "Ġbiggest": 24564,
    "Ġspam": 7630,
    "itan": 10159,
    "Ġsticks": 14928,
    "Ġforger": 15729,
    "consc": 4840,
    "Ġrattler": 24996,
    "Ġenthr": 22746,
    "Ġsinging": 7724,
    "table": 5795,
    "Ġestab": 6315,
    "Ġecho": 12662,
    "Ġshell": 11733,
    "Ġcreate": 2093,
    "murder": 10564,
    "Ġbreaks": 13180,
    "Ġunsolved": 22026,
    "Ġdears": 18135,
    "Ġaveraging": 2422,
    "Ġbrittle": 22862,
    "bourne": 19101,
    "Ġdestined": 7975,
    "Ġiceberg": 14713,
    "gown": 9596,
    "Ġpelt": 15606,
    "Ġfever": 6558,
    "Ġprinciple": 6770,
    "Ġmusky": 19379,
    "Ġcopper": 7425,
    "Ġtorment": 8674,
    "shortened": 24747,
    "Ġhearse": 10420,
    "Ġsigmoid": 2465,
    "Ġtrinity": 22342,
    "Ġforebodings": 17301,
    "Ġcalves": 13028,
    "dient": 440,
    "Ġirritation": 20264,
    "Ġjiff": 22293,
    "Ġberth": 8680,
    "quick": 6400,
    "intercourse": 14636,
    "prehend": 14233,
    "impressions": 20696,
    "ceiling": 21624,
    "sleet": 20147,
    "Ġfare": 5809,
    "glasses": 11215,
    "Ġheeded": 13398,
    "Ġstiffest": 24828,
    "lesc": 11038,
    "Ġdies": 11592,
    ":--âĢľ": 24548,
    "Ġconvert": 11839,
    "Ġpreprocessing": 26534,
    "Ġinex": 6528,
    "Ġprophesy": 26060,
    "Ġsweat": 13135,
    "ouring": 6420,
    "Ġlastly": 16203,
    "admit": 18089,
    "ac": 742,
    "Ġquiescent": 26241,
    "add": 5229,
    "Ġreached": 4023,
    "ges": 2873,
    "Ġineffectual": 17381,
    "Ġdoubled": 19640,
    "asp": 3341,
    "latitudes": 17194,
    "thur": 7188,
    "alle": 1294,
    "ht": 375,
    "Ġpounds": 5368,
    "Ġequator": 7461,
    "izon": 18140,
    "Ġsquires": 16180,
    "lamps": 25260,
    "Ġbreathless": 12165,
    "Ġdissect": 16050,
    "ance": 479,
    "Ġginger": 9210,
    "rack": 18009,
    "adequate": 15200,
    "remaining": 20218,
    "Ġmish": 15534,
    "towards": 5002,
    "Ġfuriously": 9801,
    "bted": 7794,
    "Ġexterm": 21826,
    "Ġcushion": 17832,
    "augh": 1783,
    "repugnance": 16862,
    "Ġevents": 4473,
    "Ġ3": 3986,
    "Ġvalidate": 3330,
    "Ġlifted": 6985,
    "knowledge": 7478,
    "Ġtra": 1384,
    "cus": 3981,
    "Ġappend": 18362,
    "humanity": 24838,
    "Ġshape": 5639,
    "Ġweeps": 24946,
    "Ġprobably": 4312,
    "Ġbeauty": 3770,
    "Ġvirt": 3909,
    "coffin": 10662,
    "Ġklux": 22192,
    "Ġpostponed": 20387,
    "Ġdine": 7366,
    "mons": 17598,
    "Ġsuperst": 7704,
    "Ġjove": 9267,
    "Ġcrescent": 16133,
    "particip": 23614,
    "Ġconcre": 16383,
    "Ġsympathies": 14858,
    "Ġparted": 5929,
    "Ġ48": 24078,
    "stochastic": 3774,
    "Ġunequal": 14839,
    "Ġvisible": 4777,
    "Ġnod": 1886,
    "Ġcit": 10783,
    "lot": 3206,
    "Ġgratefully": 20442,
    "usually": 10285,
    "Ġrude": 7234,
    "Ġemblem": 20495,
    "Ġembedding": 2105,
    "Ġcracked": 8594,
    "vice": 15447,
    "Ġstill": 1158,
    "Ġcemeteries": 26374,
    "ential": 828,
    "Ġinc": 702,
    "Ġopenly": 8573,
    "Ġdragged": 6889,
    "Ġappearance": 3700,
    "ess": 413,
    "Ġcongenial": 12407,
    "Ġopium": 8994,
    "dashed": 12451,
    "umed": 6554,
    "Ġhap": 18194,
    "istol": 6259,
    "windows": 19532,
    "Ġpurposed": 23549,
    "Ġelect": 10842,
    "Ġshrew": 21997,
    "Ġabide": 14188,
    "appointment": 24057,
    "asper": 7855,
    "Ġgratifying": 13300,
    "Ġvehement": 16199,
    "Ġconstruct": 23338,
    "Ġearn": 3547,
    "alliance": 22197,
    "Ġupbraided": 26526,
    "Ġlessen": 14529,
    "Ġrevenue": 26193,
    "Ġimmured": 24069,
    "Ġpopularly": 12237,
    "prow": 15409,
    "Ġro": 600,
    "Ġworsh": 12993,
    "Ġobliging": 13237,
    "Ġfitted": 6243,
    "indirectly": 18436,
    "ilations": 21719,
    "Ġtraits": 23073,
    "Ġscream": 5935,
    "anim": 6522,
    "Ġslave": 7454,
    "inqu": 6121,
    "Ġfascinating": 17325,
    "condesc": 18502,
    "Ġburn": 3683,
    "Ġapparelled": 20434,
    "Ġunhing": 18237,
    "Ġmach": 13854,
    "Ġmurderers": 16809,
    ",*": 17469,
    "Ġsuicide": 12783,
    "gd": 3123,
    "Ġdiscoloured": 15249,
    "Ġmistaking": 23715,
    "hours": 9124,
    "Ġblacksmiths": 19871,
    "Ġhabitual": 24789,
    "sphere": 22732,
    "Ġunsatisfied": 22037,
    "Ġcommunication": 1868,
    "Ġfavoring": 2346,
    "Ġseeking": 7036,
    "mid": 5616,
    "Ġclasping": 20207,
    "Ġeddies": 23435,
    "thousand": 5546,
    "Ġhatchway": 13520,
    "Ġcherished": 10590,
    "âĢľâĢĻ": 10221,
    "featured": 24202,
    "Ġconsistent": 14525,
    "Ġol": 17813,
    "Ġsuperstitions": 17070,
    "Ġcopying": 17066,
    "omach": 11632,
    "nothing": 3153,
    "Ġpinioned": 21480,
    "Ġdrunk": 9423,
    "zag": 17711,
    "umberland": 16835,
    "exercise": 17457,
    "zza": 24164,
    "refuge": 24733,
    "Ġmerchants": 23729,
    "Ġvint": 18193,
    "Ġtechnical": 17189,
    "mountain": 10713,
    "fri": 20852,
    "fourth": 11328,
    "Ġnavigation": 9992,
    "Ġoxen": 19948,
    "contrasted": 17303,
    "Ġstrip": 9420,
    "Ġprevailed": 7778,
    "parameter": 3203,
    "Ġhopkins": 23128,
    "Ġsho": 2247,
    "Ġvanity": 7045,
    "iluvian": 18059,
    "oice": 1382,
    "Ġlarger": 1402,
    "Ġshetland": 22156,
    "Ġmilliner": 19882,
    "rann": 21042,
    "Ġlapl": 19775,
    "Ġwildness": 14601,
    "Ġwinchester": 10065,
    "Ġsockets": 22085,
    "Ġmonogram": 26572,
    "longer": 8613,
    "iamond": 14588,
    "Ġitem": 12697,
    "Ġcler": 11767,
    "repent": 15511,
    "Ġcurious": 3363,
    "Ġsorrows": 13349,
    "Ġblu": 2687,
    "ions": 448,
    "Ġwomanly": 23548,
    "Ġwithin": 2167,
    "Ġtornado": 24621,
    "bearers": 18526,
    "Ġvener": 8164,
    "Ġmorocc": 22976,
    "Ġbubbling": 17323,
    "Ġscoundrel": 13667,
    "È": 137,
    "Ġacquirement": 19253,
    "Ġtill": 1824,
    "suffer": 24331,
    "É": 138,
    "Ġlichen": 20089,
    "idually": 21766,
    "Ġjupiter": 17453,
    "Ġinevitably": 17228,
    "stains": 11635,
    "Ġshar": 9249,
    "Ġplease": 4723,
    "Ġupward": 9720,
    "Ġtearing": 14383,
    "Ġportent": 12077,
    "Ġliberated": 19664,
    "Ġdiscern": 7658,
    "Ġdetermining": 14418,
    "Ġejaculated": 15166,
    "Ġdilatory": 24704,
    "Ġdeny": 7488,
    "whence": 23214,
    "Ġprices": 15608,
    "Ġclosed": 4606,
    "Ġcalmer": 23041,
    "Ġsunlight": 13079,
    "Ġirretrie": 23369,
    "fortune": 4975,
    "parad": 16399,
    "--âĢľ": 12966,
    "xter": 9146,
    "Ġwave": 7575,
    "Ġrum": 5924,
    "Ġobsequious": 17401,
    "completed": 19991,
    "commotion": 24912,
    "str": 2578,
    "Ġatone": 15799,
    "Ġbarbs": 10531,
    "died": 10693,
    "Ġramble": 9312,
    "Ġcritics": 23442,
    "Ġhorseman": 19605,
    "Ġtravelling": 11307,
    "uous": 4144,
    "Ġrevolutionized": 3369,
    "Ġtorrents": 20053,
    "Ġdorm": 4821,
    "formed": 2556,
    "Ġ[_": 15459,
    "Ġmillions": 11354,
    "Ġportcull": 23860,
    "fixed": 7548,
    "pursued": 17279,
    "Ġamber": 7026,
    "Ġmasked": 3695,
    "laws": 19805,
    "sad": 11520,
    "Ġmaintainable": 12930,
    "Ġbulkington": 14675,
    "Ġkeys": 11992,
    "eli": 3874,
    "quently": 9701,
    "nlp": 8751,
    "Ġrelapses": 26277,
    "Ġwildly": 9413,
    "Ġemperors": 15156,
    "Ġsnapped": 9895,
    "Ġpervading": 20611,
    "Ġflock": 21409,
    "Ġinexplicable": 12252,
    "Ġtreachery": 15098,
    "Ġapparently": 6778,
    "Ġoverlooked": 15970,
    "res": 2761,
    "arrested": 15597,
    "fortunes": 6332,
    "Ġhull": 5446,
    "baggage": 24925,
    "Ġadopt": 10631,
    "pots": 11513,
    "Ġcategories": 4478,
    "Ġincessant": 15094,
    "sadly": 25526,
    "Ġgold": 3278,
    "xic": 9145,
    "ster": 1960,
    "ners": 3271,
    "Ġapparel": 20433,
    "Ġindign": 6173,
    "orne": 17871,
    "cords": 25136,
    "Ġsash": 17752,
    "Ġacquiring": 2768,
    "Ġchances": 9262,
    "Ġtho": 21511,
    "dearest": 11732,
    "lection": 3652,
    "Ġselected": 9709,
    "Ġpuppy": 12401,
    "Ġ33": 16674,
    "brushing": 20786,
    "Ġbrid": 6290,
    "Ġcallest": 17831,
    "rendered": 22336,
    "Ġconsecrate": 26487,
    "Ġcrack": 7710,
    "Ġclipping": 2443,
    "cal": 1121,
    "Ġschedule": 2376,
    "commission": 22801,
    "hate": 20890,
    "Ġimpul": 7207,
    "Ġwarb": 17786,
    "Ġpar": 456,
    "Ġsensitivity": 3067,
    "Ġenthusiastic": 19963,
    "nder": 20985,
    "Ġhatchways": 24988,
    "proble": 9392,
    "ipotence": 22355,
    "ordinary": 4406,
    "Ġcontribut": 12855,
    "Ġtimber": 13344,
    "Ġallev": 18099,
    "đ": 210,
    "recognised": 15259,
    "Ġgrammars": 11402,
    "Ġwails": 21294,
    "Ġexcl": 3475,
    "elt": 4115,
    "hun": 5210,
    "Ġmottled": 20676,
    "Ġbarmaid": 19333,
    "peace": 13042,
    "Ġcommended": 18655,
    "ones": 2744,
    "lin": 9603,
    "yield": 13806,
    "Ġearned": 19402,
    "Ġpowdered": 24235,
    "Ġmaker": 15539,
    "ivorous": 22076,
    "Ġhobbling": 25643,
    ",âĢĶâĢľ": 10069,
    "ulations": 6029,
    "Ġforeboding": 20381,
    "Ġdiary": 24738,
    "ribes": 23362,
    "ingale": 21297,
    "executed": 25738,
    "endeavouring": 15013,
    "Ġcook": 3712,
    "eland": 11619,
    "Ġagreeing": 20016,
    "âĢĻ!âĢĿ": 18172,
    "azing": 7705,
    "compasses": 19455,
    "frost": 15103,
    "Ġheaven": 3367,
    "Ġcalamities": 25698,
    "Ġnind": 17948,
    "Ġindividuality": 14906,
    "Ġd": 284,
    "Ġcocain": 18597,
    "Ġemails": 13101,
    "Ġtyrant": 24766,
    "pil": 15406,
    "ifying": 5235,
    "ieve": 1662,
    "ĠâĢľâĢĶ": 9733,
    "entrance": 12653,
    "agues": 8161,
    "Ġdispelling": 23877,
    "Ġmetropolitan": 17273,
    "Ġleisure": 6539,
    "Ġtint": 13814,
    "Ġopens": 23625,
    "Ġeffusion": 22484,
    "Ġfall": 2987,
    "Ġcrouched": 23439,
    "underneath": 23786,
    "Ġbrisk": 9802,
    "Ġunclad": 22047,
    "Ġsmallest": 6430,
    "Ġori": 8409,
    "impress": 18050,
    "erm": 787,
    "Ġrescued": 24204,
    "exerc": 16012,
    "âĢĿ": 354,
    "Ġhier": 1892,
    "Ġdimension": 3240,
    "Ġattaining": 15800,
    "Ġmoul": 15540,
    "ming": 3600,
    "Ġdaring": 8121,
    "mselves": 2862,
    "Ġconveniences": 19810,
    "mercenary": 26314,
    "isticated": 1597,
    "Ġche": 1760,
    "Ġgazette": 19498,
    "inconsiderable": 21189,
    "viii": 12016,
    "sively": 13783,
    "Ġavalanche": 17430,
    "hereabouts": 23604,
    "depths": 25662,
    "uries": 6147,
    "Ġhyena": 24517,
    "Ġoverflowed": 20260,
    "Ġlivelong": 25511,
    "Ġadhes": 22099,
    "Ġestim": 3349,
    "ulate": 5233,
    "expression": 10547,
    "prep": 9757,
    "Ġsab": 10762,
    "light": 3016,
    "Ġdeserts": 10507,
    "Ġintensity": 10015,
    "Ġelder": 7224,
    "ertion": 12035,
    "trifling": 19411,
    "Ġtotal": 4993,
    "steps": 9404,
    "orated": 12587,
    "band": 3056,
    "Ġhinges": 15209,
    "Ġtist": 21160,
    "full": 7420,
    "ily": 1032,
    "Ġricher": 12755,
    "Ġranks": 21969,
    "devoted": 20014,
    "Ġshare": 1661,
    "Ġprizes": 13068,
    "Ġesteemed": 10588,
    "conscience": 14857,
    "Ġdistantly": 18532,
    "Ġ1950": 11359,
    "Ġweakness": 9966,
    "piled": 21013,
    "Ġaverted": 16250,
    "fate": 17537,
    "Ġtexel": 25922,
    "themselves": 6540,
    "Ġestimable": 23869,
    "Ġlivery": 15996,
    "rust": 2582,
    "upper": 11538,
    "Ġsubsiding": 23431,
    "oried": 10802,
    "alcul": 15624,
    "cing": 1014,
    "Ġross": 2766,
    "Ġhushed": 13922,
    "Ġfarthing": 14451,
    "Ġunfathomable": 20546,
    "pth": 2386,
    "Ġcologne": 13659,
    "Ġvigour": 24460,
    "Ġbodily": 6106,
    "nowled": 5470,
    "ilder": 15709,
    "Ġheedfully": 24519,
    "retion": 9362,
    "Ġsubdivisions": 26036,
    "boiling": 18999,
    "Ġendangered": 16302,
    "umbled": 8492,
    "Ġsloping": 11935,
    "approve": 19934,
    "Ġself": 1777,
    "Ġadmirably": 16479,
    "Ġmusk": 7494,
    "als": 2042,
    "ilburn": 18058,
    "Ġspecies": 5112,
    "Ġchimney": 6497,
    "attentions": 13570,
    "Ġdevelopments": 23245,
    "Ġsymmetrical": 20364,
    "Ġsplend": 9897,
    "Ġconfessor": 24017,
    "Ġcherish": 10589,
    "Ġdemean": 12719,
    "Ġpractises": 23307,
    "Ġprayed": 16665,
    "lotte": 3332,
    "Ġrudder": 25106,
    "Ġprec": 2919,
    "Ġinwards": 15617,
    "Ġglide": 22983,
    "Ġmissed": 8556,
    "Ġbough": 13891,
    "coiled": 16484,
    "Ġteach": 8553,
    "Ġbarbarously": 24818,
    "offensive": 16390,
    "dish": 12448,
    "bout": 20771,
    "Ġobstacle": 16953,
    "deck": 4501,
    "ighb": 10423,
    "destroyed": 15257,
    "lar": 4484,
    "Ġglasses": 9474,
    "decor": 23778,
    "Ġmass": 3780,
    "Ġdistrustful": 25053,
    "Ġostr": 21322,
    "impart": 21706,
    "adie": 18087,
    "prov": 16419,
    "Ġfair": 2838,
    "eliest": 14743,
    "Ġvenerable": 9093,
    "Ġdignity": 5704,
    "Ġamusing": 11797,
    "Ġduncan": 13456,
    "Ġquest": 2001,
    "itically": 21327,
    "apparent": 11041,
    "Ġbuilding": 8063,
    "me": 872,
    "Ġqueens": 16704,
    "Ġpaw": 12616,
    "blending": 24126,
    "antage": 3879,
    "Ġwould": 652,
    "throt": 25658,
    "recollect": 17221,
    "Ġardu": 22186,
    "Ġfork": 15728,
    "Ġcarriage": 3950,
    "Ġdominant": 12392,
    "Ġsailing": 5323,
    "ignor": 8961,
    "Ġcape": 5146,
    "apidated": 22334,
    "Ġforbid": 7866,
    "rain": 461,
    "eked": 16395,
    "Ġlancaster": 26339,
    "Ġblooming": 17210,
    "Ġcelestial": 10066,
    "Ġlocks": 11721,
    "Ġminutes": 2999,
    "Ġcard": 7363,
    "Ġdiminishing": 4209,
    "Ġconfounded": 16380,
    "Ġledger": 19399,
    "archangel": 18783,
    "Ġstress": 18065,
    "Ġcruisers": 25862,
    "log": 18535,
    "Ġdrags": 16939,
    "Ġcoil": 11815,
    "Ġcried": 1487,
    "Ġstand": 1735,
    "allowance": 16822,
    "Ġand": 295,
    "Ġbod": 4582,
    "İ": 241,
    "enjoyment": 17255,
    "Ġdependencies": 2317,
    "freighted": 14889,
    "foundation": 16713,
    "afterwards": 7484,
    "acles": 8519,
    "Ġconcentrated": 15080,
    "Ġdire": 865,
    "incom": 21179,
    "av": 700,
    "iles": 2861,
    "Ġparade": 18300,
    "Ġsays": 3561,
    "Ġheedful": 19738,
    "?_": 8070,
    "Ġexhausting": 24709,
    "Ġtrout": 22340,
    "fiend": 13657,
    "rew": 3648,
    "orting": 9734,
    "Ġensuing": 12305,
    "Ġshocking": 10435,
    "Ġcolouring": 16749,
    "uzzle": 19581,
    "Ġsplinter": 23744,
    "Ġpraised": 19551,
    "rom": 420,
    "firm": 10698,
    "Ġdisobedience": 22532,
    "glim": 19362,
    "hastened": 16843,
    "Ġoppression": 23648,
    "Ġpromethe": 14465,
    "á": 162,
    "Ġclosely": 6488,
    "Ġbrows": 13295,
    "gladness": 25194,
    "Ġazores": 20191,
    "Ġshipmates": 6720,
    "ellent": 3761,
    "Ġlikely": 3598,
    "Ġbuckets": 17032,
    "adler": 21759,
    "ements": 11108,
    "Ġey": 8135,
    "Ġnobler": 14171,
    "Ġplaced": 3446,
    "Ġcollectively": 19965,
    "Ġpugn": 21478,
    "Ġdinah": 9452,
    "erate": 7149,
    "Ġvary": 15804,
    "stamp": 21651,
    "diversity": 25896,
    "Ġhaggerston": 26450,
    "Ġterrified": 14669,
    "Ġ52": 24319,
    "Ġpuzzle": 11305,
    "Ġdu": 4585,
    "Ġlaborious": 13098,
    "pre": 647,
    "Ġache": 18662,
    "irement": 18354,
    "Ġwrapt": 24595,
    "ffic": 22138,
    "Ġprobable": 5569,
    "uncontrollable": 20593,
    "Ġenslaved": 26313,
    "sufficient": 6635,
    "keepers": 16657,
    "Ġoffended": 7040,
    "Ġspeak": 2233,
    "coal": 12020,
    "Ġsanta": 26418,
    "soup": 21056,
    "tray": 21075,
    "strangers": 20334,
    "heat": 15495,
    "Ġbucket": 8787,
    "learn": 2473,
    "assed": 6421,
    "Ġforeseen": 16441,
    "asht": 4083,
    "Ġjour": 11761,
    "rously": 17652,
    "felix": 10653,
    "T": 56,
    "baked": 20777,
    "constantinople": 25507,
    "prob": 7069,
    "Ġmayhew": 12944,
    "Ġswung": 6449,
    "Ġdesist": 16236,
    "Ġnlp": 3060,
    "cake": 20802,
    "Ġaffirm": 11885,
    "Ġmerryweather": 9521,
    "rises": 17653,
    "Ġbent": 5149,
    "boots": 11126,
    "Ġstate": 1811,
    "chari": 21686,
    "Ġtuck": 10140,
    "Ġstanzas": 21741,
    "Ġbachelor": 7787,
    "nered": 18487,
    "unteered": 26493,
    "Ġdeposit": 17266,
    "snatched": 24849,
    "Ġprot": 3848,
    "Ġwithhold": 18114,
    "Ġhelplessly": 20075,
    "inates": 21178,
    "native": 17610,
    "Ġ221": 25067,
    "arthly": 8030,
    "Ġdeprec": 15754,
    "bug": 17490,
    "Ġmince": 22829,
    "Ġgoat": 16003,
    "Ġlost": 2637,
    "deceiving": 22142,
    "breeding": 16673,
    "invari": 21182,
    "Ġdeath": 2043,
    "Ġstairs": 5540,
    "Ġships": 3714,
    "expose": 23662,
    "Ġfrenz": 25446,
    "Ġspire": 18305,
    "Ġinduced": 8671,
    "atement": 17771,
    "Ġdoct": 4455,
    "Ġrounded": 14436,
    "Ġembodiment": 20525,
    "madam": 24419,
    "Ġknife": 7309,
    "Ġinch": 7850,
    "ces": 577,
    "Ġdeftly": 26491,
    "Ġdeclines": 23959,
    "hunters": 16831,
    "iterranean": 15546,
    "cheon": 23801,
    "Ġwealthy": 18177,
    "construction": 19776,
    "glances": 23850,
    "hoist": 23710,
    "suddenly": 6493,
    "dev": 7632,
    "Ġpaintings": 15055,
    "Ġhousemaid": 14461,
    "Ġapo": 9630,
    "Ġminers": 22830,
    "Ġincomplete": 17206,
    "Ġimmovable": 15889,
    "surprised": 9530,
    "Ġimbec": 14154,
    "Ġpropriet": 9549,
    "Ġlondon": 2840,
    "yt": 17709,
    "aut": 1910,
    "Ġabatement": 22283,
    "Ġmedium": 16679,
    "if": 376,
    "Ġexploitation": 2349,
    "Ġscattered": 6856,
    "Ġopposed": 11188,
    "pression": 10407,
    "ism": 4874,
    "Ġpictured": 16620,
    "Ġeffects": 7236,
    "ught": 2753,
    "marching": 25751,
    "Ġrightly": 13058,
    "Ġraw": 3320,
    "dying": 10694,
    "Ġeaster": 15671,
    "Ġmansion": 17808,
    "Ġstrange": 2278,
    "Ġleads": 12092,
    "gul": 12461,
    "Ġdemonstrate": 24995,
    "bits": 17486,
    "Ġdreading": 23796,
    "Ġnom": 21516,
    "rudently": 16709,
    "thomas": 18218,
    "Ġjovial": 19232,
    "Ġducks": 25157,
    "Ġoutrages": 18414,
    "Ġdisadvantage": 12886,
    "ston": 15679,
    "mic": 12484,
    "Ġgrasp": 4664,
    "arab": 21439,
    "Ġphilosophers": 10551,
    "Ġsingularly": 12144,
    "ompl": 4537,
    "pede": 19842,
    "Ġcircumst": 2974,
    "Ġelemental": 19917,
    "pur": 7807,
    "inkles": 7426,
    "Ġ49": 24079,
    "rue": 1129,
    "Ġimpaling": 22378,
    "Ġbeaut": 2398,
    "Ġerrone": 14427,
    "Ġdisappoint": 24203,
    "Ġwhelm": 25997,
    "Ġafresh": 18626,
    "Ġpermitting": 22396,
    "dep": 6786,
    "Ġlovely": 4710,
    "Ġscand": 7202,
    "Ġaspects": 4174,
    "alf": 4639,
    "incident": 14589,
    "beheaded": 22491,
    "Ġrequiring": 2921,
    "Ġsoo": 15858,
    "Ġassu": 21894,
    "Ġnautical": 17383,
    "umpled": 15873,
    "Ġsalted": 14753,
    "Ġcompetition": 14265,
    "urch": 3995,
    "ek": 1905,
    "stock": 13216,
    "Ġye": 902,
    "Ġmicrosc": 20674,
    "Ġprocedural": 12026,
    "Ġbewildered": 15210,
    "Ġcarbuncle": 14442,
    "Ġlabyrin": 13099,
    "lower": 8879,
    "Ġinclu": 1098,
    "windibank": 24158,
    "Ġcertainly": 2500,
    "Ġtoo": 1166,
    "arranged": 19317,
    "Ġsailed": 4888,
    "conquerable": 17396,
    "insufferable": 21190,
    "Ġhuddled": 20297,
    "Ġexcurs": 23311,
    "Ġsanity": 24980,
    "Ġdizzy": 21430,
    "Ġuntutored": 19164,
    "Ġjumbled": 22294,
    "main": 8088,
    "Ġunalterable": 15848,
    "Ġlucifers": 16586,
    "Ġgloom": 4201,
    "Ġunderstand": 832,
    "Ġutterly": 6100,
    "Ġpulpit": 7470,
    "Ġiceland": 15143,
    "ug": 1764,
    "drop": 15334,
    "erer": 8732,
    "Ġflann": 23009,
    "Ġcorrupt": 11919,
    "Ġfast": 1715,
    "irst": 879,
    "spike": 16136,
    "Ġpauper": 26178,
    "Ġcravat": 26306,
    "mbling": 3346,
    "Ġplanks": 5563,
    "Ġreject": 7386,
    "Ġelegance": 11332,
    "Ġunostentatious": 22063,
    "Ġcustoms": 19650,
    "Â": 131,
    "Ġspatial": 2731,
    "avers": 17478,
    "Ġmessages": 24982,
    "langu": 4807,
    "Ġenveloping": 19731,
    "disgrace": 16457,
    "needles": 20309,
    "Ġprecision": 13184,
    "Ġinfallibly": 10040,
    "Ġprofoundly": 16857,
    "pause": 12496,
    "Ġgratify": 19500,
    "Ġming": 9645,
    "Ġarticulated": 24431,
    "fellow": 6792,
    "Ġwerter": 15236,
    "examine": 25477,
    "storm": 9681,
    "Ġfumbling": 21415,
    "motives": 26136,
    "Ġbrougham": 17869,
    "stead": 10846,
    "Ġpowder": 11275,
    "Ġenumer": 12741,
    "Ġdelivery": 18974,
    "Ġcompact": 2267,
    "boil": 18998,
    "Ġblaming": 22927,
    "results": 20384,
    "Ġ19": 6719,
    "inople": 13826,
    "Ġcramped": 23526,
    "dri": 5888,
    "Ġraising": 8909,
    "often": 6165,
    "Ġhinge": 25541,
    "Ġacceded": 22386,
    "Ġfitly": 23997,
    "disinterested": 23498,
    "Ġmogul": 12858,
    "thankful": 16804,
    "Ġxx": 5492,
    "Ġpage": 6978,
    "seized": 14032,
    "ö": 183,
    "Ġswearing": 16463,
    "powers": 25410,
    "Ġlingu": 11613,
    "Ġcoiled": 11817,
    "Ġdelicacy": 6340,
    "Ġsul": 7570,
    "Ġdegenerating": 25798,
    "Ġsprinkled": 19494,
    "escript": 18470,
    "Ġdigress": 24647,
    "Ġtrust": 4078,
    "Ġstumble": 26480,
    "gossip": 23399,
    "Ġerror": 1763,
    "niece": 20993,
    "desc": 1393,
    "Ġdisregard": 22525,
    "Ġvit": 10245,
    "Ġseverity": 15814,
    "amplified": 26492,
    "Ġunprofitable": 18263,
    "mosphere": 10042,
    "cheer": 9436,
    "Ġwherein": 14292,
    "Ġwolves": 25933,
    "Ġspeckled": 14306,
    "Ġimproper": 22740,
    "Ġfring": 11127,
    "univers": 15768,
    "Ġcrater": 16437,
    "Ġbingleys": 18994,
    "Ġprognost": 15278,
    "Ġhan": 15614,
    "Ġbounds": 9917,
    "Ġconce": 3423,
    "Ġsgd": 3128,
    "postp": 24634,
    "Ġbitter": 4173,
    "Ġblocks": 6321,
    "begged": 18522,
    "Ġballasted": 23977,
    "Ġperilous": 7769,
    "newsp": 23132,
    "Ġconvent": 11666,
    "ckery": 22087,
    "telling": 14437,
    "Ġ89": 19710,
    "effort": 19213,
    "Ġattractions": 13546,
    "Ġpersuading": 19407,
    "Ġmeridian": 25713,
    "Ġhat": 2773,
    "Ġposit": 1305,
    "Ġbeautifully": 13260,
    "Ġcigaret": 16974,
    "Ġfoundering": 21417,
    "Ġresidual": 1681,
    "uish": 5431,
    "Ġvincent": 15280,
    "enial": 17778,
    "Ġsufferable": 16254,
    "Ġsilently": 6894,
    "Ġbrimstone": 25685,
    "immed": 9217,
    "Ġreader": 11930,
    "lik": 3917,
    "Ġexcuse": 5861,
    "Ġcommunic": 5751,
    "Ġoverpower": 12839,
    "Ġenvironment": 3675,
    "Ġcredulous": 17142,
    "requ": 7148,
    "intending": 22932,
    "breakfast": 8688,
    "corners": 17365,
    "Ġblo": 2735,
    "bolts": 11420,
    "comfortable": 7320,
    "Ġunfavourable": 17414,
    "Ġportions": 19366,
    "Ġdel": 1618,
    "Ġsharpen": 13565,
    "bulwarks": 12268,
    "ropout": 1321,
    "Ġthereupon": 18432,
    "fore": 687,
    "quer": 11675,
    "Ġyoke": 18094,
    "tub": 9143,
    "Ġunexampled": 20357,
    "Ġut": 2283,
    "Ġinheriting": 25354,
    "Ġlean": 7605,
    "Ġsiamese": 20480,
    "urements": 18122,
    "ricade": 13031,
    "declare": 25173,
    "forbearance": 22793,
    "Ġbless": 4342,
    "resolution": 17764,
    "emorial": 10243,
    "Ġdebt": 12163,
    "hess": 4747,
    "Ġextravagant": 17276,
    "Ġfreedom": 9082,
    "Ġcave": 10785,
    "Ġfiltering": 23922,
    "Ġbleeding": 14877,
    "Ġindolent": 12998,
    "Ġkelson": 18349,
    "protested": 13469,
    "Ġserving": 14483,
    "Ġnail": 9195,
    "Ġprepared": 5877,
    "Ġundu": 15834,
    "Ġ1883": 23893,
    "Ġinsince": 23676,
    "Ġgentleman": 3038,
    "Ġheated": 21679,
    "Ġconceivable": 16611,
    "Ġoccasions": 7988,
    "Ġpicked": 6341,
    "Ġdances": 10812,
    "Ġeighteen": 11239,
    "adem": 21754,
    "Ġscreaming": 13418,
    "Ġbulldog": 23856,
    "Ġconcoct": 19045,
    "Ġpressed": 6042,
    "isting": 5550,
    "Ġ32": 19486,
    "Ġnightgown": 23130,
    "bies": 15309,
    "himself": 3972,
    "crier": 20818,
    "Ġliberally": 16828,
    "Ġbennett": 16323,
    "Ġassum": 4064,
    "Ġ124": 24467,
    "omp": 2475,
    "Ġecl": 18004,
    "promote": 24726,
    "Ġwish": 2099,
    "Ġjewel": 9941,
    "Ġpreceding": 7528,
    "Ġsultanism": 25887,
    "gave": 7800,
    "melted": 25206,
    "Ġmarlingspike": 26577,
    "Ġlantern": 7116,
    "urious": 21700,
    "daughters": 13461,
    "Ġchast": 18378,
    "abb": 15735,
    "Ġnimble": 21525,
    "ĠĠĠĠĠĠĠĠĠĠĠĠĠĠĠĠ": 1218,
    "idious": 11660,
    "Ġmonomania": 17083,
    "bale": 20772,
    "Ġfainted": 8791,
    "wheeler": 16185,
    "Ġintention": 5638,
    "asserted": 22306,
    "Ġfriesland": 26440,
    "amples": 1822,
    "Ġcurios": 18844,
    "Ġcarry": 4779,
    "ensity": 11810,
    "accompan": 11452,
    "Ġreligion": 11415,
    "Ġensl": 19273,
    "Ġmurmur": 14587,
    "ĠâĢĶâĢľ_": 17716,
    "Ġwisely": 13266,
    "Ġcorruption": 15222,
    "Ġvoices": 7877,
    "suitable": 18628,
    "high": 6649,
    "ginger": 13158,
    "ssian": 3401,
    "Ġcut": 2644,
    "Ġchal": 18376,
    "Ġgrasshopper": 24378,
    "Ġextort": 22712,
    "shudder": 26244,
    "lording": 24048,
    "tically": 3394,
    "Ġai": 3126,
    "Ġbalmy": 22903,
    "rences": 9271,
    "Ġmuteness": 19414,
    "$": 8,
    "ierce": 14389,
    "Ġsubt": 11864,
    "Ġrelentless": 26276,
    "Ġstopping": 2752,
    "Ġparading": 23707,
    "analysis": 26172,
    "Ġbison": 21385,
    "Ġinform": 998,
    "ien": 10101,
    "utions": 1887,
    "Ġbrute": 8925,
    "Ġsequential": 2134,
    "Ġentrapped": 26261,
    "Ġsuck": 15857,
    "Ġcoldly": 14648,
    "Ġepisode": 26345,
    "Ġworkmen": 23018,
    "Ġhun": 1496,
    "ilib": 4117,
    "\"]": 17468,
    "Ġscruple": 25047,
    "mai": 22912,
    "resolutions": 26163,
    "oters": 21796,
    "Ġornamented": 20359,
    "Ġredeem": 20497,
    "Ġrings": 11696,
    "risonment": 17372,
    "Ġvultures": 25652,
    "september": 14033,
    "ds": 4688,
    "diff": 9113,
    "Ġfatigued": 13460,
    "Ġamericans": 14740,
    "Ġtriumphantly": 11287,
    "Ġsw": 1355,
    "Ġlivelihood": 24773,
    "Ġdeliberately": 10624,
    "Ġtechnically": 12362,
    "iscreet": 20680,
    "Ġtram": 11091,
    "moored": 22703,
    "rested": 13069,
    "Ġdent": 13903,
    "Ġdelighted": 5499,
    "ive": 427,
    "Ġfinancier": 26581,
    "Ġwoes": 23983,
    "ales": 3316,
    "rods": 21535,
    "Ġathe": 17739,
    "Ġfearing": 12811,
    "Ġreverber": 19867,
    "Ġtransplanted": 22438,
    "Ġenjoy": 3760,
    "icy": 6140,
    "Ġgrunt": 18736,
    "sized": 15426,
    "Ġgreenwich": 19319,
    "Ġunappalled": 22058,
    "Ġhuff": 21487,
    "official": 24913,
    "Ġpencil": 11939,
    "Ġsweatings": 25709,
    "Ġhare": 5157,
    "Ġsperm": 1842,
    ",âĢĶ": 3169,
    "Ġlump": 21549,
    "nd": 11503,
    "Ġproprietors": 20184,
    "Ġcrumpled": 16440,
    "sorts": 21058,
    "]]": 5205,
    "exactly": 10636,
    "Ġspans": 18303,
    "Ġgrap": 11704,
    "Ġfifteen": 6947,
    "watches": 14944,
    "cowardly": 25748,
    "ropes": 7904,
    "chains": 9684,
    "Ġtrack": 7450,
    "Ġelab": 22640,
    "Ġdepose": 22592,
    "ushion": 14717,
    "flying": 13718,
    "Ġattacked": 10567,
    "Ġhood": 10823,
    "Ġfibres": 12945,
    "Ġgaze": 6932,
    "Ġundergone": 18985,
    "request": 21239,
    "Ġaccusations": 22387,
    "Ġtech": 1590,
    "Ġensuring": 11191,
    "olidity": 18131,
    "ression": 3406,
    "captains": 12123,
    "ian": 1237,
    "manifested": 20523,
    "Ġgasps": 24864,
    "fulness": 4308,
    "gracious": 11828,
    "Ġinstituted": 18696,
    "speptic": 23942,
    "Ġcircumspection": 25883,
    "Ġfixed": 2686,
    "Ġrevealed": 6751,
    "recollection": 25348,
    "Ġparticularly": 5056,
    "Ġprime": 10404,
    "Ġdrawer": 13259,
    "inctions": 17730,
    "Ġusages": 15913,
    "ades": 5631,
    "Ġban": 7156,
    "Ġcy": 13871,
    "Ã": 132,
    "ences": 1266,
    "Ġstartled": 7082,
    "outside": 12800,
    "complet": 11383,
    "Ġheavily": 6740,
    "watch": 6118,
    "ed": 293,
    "Ġspots": 11726,
    "infer": 10144,
    "Ġxliv": 23406,
    "iline": 21718,
    "Ġres": 696,
    "Ġpom": 21450,
    "utes": 5914,
    "Ġaven": 10759,
    "Ġdominion": 16521,
    "Ġmizzen": 20287,
    "Ġguiding": 19239,
    "Ġhair": 3313,
    "Ĳ": 243,
    "rossing": 18639,
    "Ġsaintsbury": 26371,
    "Ġnewspaper": 12360,
    "Ġhuge": 4700,
    "Ġunwound": 25169,
    "Ġdependence": 18618,
    "Ġreckoned": 24743,
    "Ġirregular": 9864,
    "irements": 22209,
    "Ġimprecations": 25819,
    "tender": 14470,
    "Ġfulfilled": 11362,
    "Ġintervening": 17265,
    "impat": 11202,
    "Ġbermud": 26437,
    "Ġlaughs": 24114,
    "hot": 8084,
    "ieth": 10704,
    "commendation": 26347,
    "pits": 15410,
    "Ġaloud": 6252,
    "Ġkramm": 26232,
    "Ġcavity": 20485,
    "Ġdataset": 12812,
    "hatchway": 25903,
    "Ġwhich": 502,
    "us": 531,
    "Ġnoiseless": 10356,
    "Ġmile": 7151,
    "inuating": 16201,
    "kne": 20933,
    "Ġ62": 24363,
    "Ġdirection": 1793,
    "bet": 6109,
    "Ġsquaw": 22837,
    "Ġtus": 10749,
    "million": 25750,
    "Ġinsult": 6747,
    "mers": 9610,
    "Ġxerxes": 23408,
    "Ġreluct": 14369,
    "Ġitaly": 10867,
    "Ġblueprints": 13166,
    "Ġposition": 1954,
    "abated": 14017,
    "±": 114,
    "Ġfollows": 7673,
    "Ġwooded": 23516,
    "accordingly": 19212,
    "Ġstreatham": 17446,
    "Ġsacrifice": 9555,
    "Ġorganisation": 23581,
    "Ġfaint": 5811,
    "Ġfathom": 17046,
    "Ġsli": 4748,
    "Ġextravag": 11255,
    "pacing": 21019,
    "Ġroman": 8323,
    "Ġexpensive": 12913,
    "Ġreads": 23112,
    "Ġfaithfully": 14884,
    "igations": 18042,
    "sugg": 11835,
    "Ġtook": 1854,
    "Ġclothing": 18423,
    "Ġbarque": 23788,
    "irwin": 8468,
    "Ġboys": 5194,
    "asters": 8434,
    "Ġemerging": 24612,
    "ots": 3294,
    "ative": 738,
    "are": 638,
    "Ġbred": 9169,
    "instr": 12526,
    "itable": 5437,
    "Ġboy": 3021,
    "Ġsmoking": 6429,
    "Ġnoticed": 5548,
    "Ġconsequ": 6254,
    "Ġowners": 7663,
    "Ġfires": 16470,
    "Ġwhence": 5839,
    "Ġpacked": 9979,
    "Ġwa": 2064,
    "Ġmanned": 9270,
    "Ġhomely": 25219,
    "Ġformer": 3322,
    "in": 262,
    "contrivance": 26315,
    "Ġpenetrating": 17009,
    "cription": 20816,
    "Ġstammered": 26198,
    "l": 80,
    "taller": 26149,
    "caves": 20811,
    "uth": 3017,
    "disgu": 19152,
    "_âĢĿ": 20759,
    "races": 21627,
    "Ġcopse": 17065,
    "apart": 15958,
    "lacings": 26133,
    "ort": 524,
    "Ġshrimp": 24154,
    "Ġgush": 10202,
    "Ġclimbing": 20067,
    "Ġsignificance": 13275,
    "venerable": 26406,
    "Ġcoefficient": 2885,
    "Ġcircle": 4977,
    "arding": 22154,
    "garden": 15023,
    "footsteps": 25199,
    "Ġpen": 1535,
    "rance": 5994,
    "Ġfaithfulness": 24444,
    "Ġallies": 18266,
    "americans": 25042,
    "Ġtarpaulin": 26156,
    "broke": 14773,
    "Ġdreadfully": 7726,
    "eprints": 12788,
    "ificent": 8184,
    "ifts": 12731,
    "Ġabsurdities": 24878,
    "Ġdeploy": 3006,
    "Ġdistraction": 22501,
    "Ġwickedness": 9525,
    "lay": 5891,
    "Ġlumber": 13949,
    "Ġsystematically": 4156,
    "Ġcommanding": 16588,
    "Ġboats": 2640,
    "Ġexhaustion": 14958,
    "zas": 17710,
    "Ġsuperstition": 15054,
    "Ġgros": 14819,
    "Ġdespondence": 25868,
    "Ġinsertion": 26342,
    "t": 88,
    "Ġacquies": 11097,
    "Ġfeed": 2130,
    "Ġlaz": 7378,
    "Ġunforeseen": 22046,
    "cad": 17502,
    "Ġbirth": 6524,
    "grave": 16091,
    "lengthwise": 19947,
    "Ġdriving": 3616,
    "lant": 20945,
    "unaccountable": 15775,
    "Ġcaroline": 7255,
    "Ġrasc": 21971,
    "ootiful": 17370,
    "beware": 16037,
    "scru": 16240,
    "Ġrevelation": 25222,
    "swift": 14849,
    "Ġstrata": 26026,
    "Ġchat": 6560,
    "Ġformations": 18747,
    "Ġlets": 18075,
    "Ġopportunity": 4786,
    "Ġmingled": 12373,
    "_).": 5887,
    "Ġlabeled": 3718,
    "wound": 21124,
    "Ġcumul": 4178,
    "Ġpagan": 7117,
    "Ġyea": 8915,
    "Ġfinger": 5273,
    "Ġinde": 7371,
    "Ġundulates": 24116,
    "peter": 24296,
    "obviously": 25242,
    "careful": 14863,
    "devouring": 24949,
    "Ġcold": 3030,
    "nav": 17608,
    "original": 9084,
    "Ġcontemptuous": 24675,
    "oubled": 23643,
    "Ġcotton": 17376,
    "Ġviews": 7290,
    "substance": 15228,
    "Ġmag": 1431,
    "might": 4077,
    "Ġdictated": 25218,
    "Ġforged": 12700,
    "ratulations": 20123,
    "uttle": 6247,
    "Ġuncivilized": 25498,
    "Ġalthough": 4150,
    "cares": 24307,
    "Ġcomprehensiveness": 25071,
    "Ġminimizes": 2047,
    "Ġunmanufactured": 20431,
    "desper": 13063,
    "Ġcharacteristic": 12044,
    "Ġsprain": 18304,
    "Ġdebility": 24270,
    "bow": 5424,
    "Ġroughly": 17038,
    "warmly": 25025,
    "melancholy": 12349,
    "Ġplantation": 11423,
    "Ġaccumulation": 2693,
    "Ġcoloss": 11045,
    "Ġdespise": 14663,
    "Ġneuron": 1809,
    "Ġdevoured": 16134,
    "yramid": 8368,
    "chers": 11317,
    "Ġtoilet": 13934,
    "Ġelastic": 4361,
    "Ġhimmalehs": 26229,
    "accessible": 13635,
    "Ġcommenting": 25228,
    "Ġseparately": 13297,
    "gird": 20877,
    "Ġdissatisfied": 14254,
    "evade": 24819,
    "ifle": 10891,
    "inc": 2523,
    "tired": 21070,
    "Ġenchanted": 9080,
    "Ġripe": 13229,
    "tit": 11527,
    "Ġdearest": 5457,
    "Ġhearties": 18966,
    "Ġupstairs": 5836,
    "conclusions": 25671,
    "Ġprophe": 13073,
    "youth": 11871,
    "Ġency": 21930,
    "shine": 9288,
    "liament": 16215,
    "disgust": 23493,
    "supervised": 1880,
    "reel": 21231,
    "Ġbrain": 2090,
    "Ġeducated": 16783,
    "Ġdens": 21422,
    "izer": 2030,
    "Ġmeasure": 3594,
    "Ġarmed": 9259,
    "Ġ1991": 3015,
    "execution": 20469,
    "Ġyard": 5921,
    "Ġsherlock": 3893,
    "Ġreceptive": 1565,
    "Ġanswering": 7477,
    "Ġpref": 14169,
    "odiac": 14029,
    "Ġclean": 5652,
    "Ġregardless": 19322,
    "Ġmccarthy": 5145,
    "Ġacid": 22679,
    "Ġloite": 22108,
    "Ġduly": 13345,
    "Ġlegisl": 23530,
    "Ġwindigate": 18909,
    "enge": 21278,
    "Ġspoilt": 24806,
    "Ġimmense": 4952,
    "Ġirresolution": 24914,
    "Ġsire": 15499,
    "Ġsmelt": 16062,
    "Ġmur": 2492,
    "sounding": 24795,
    "Ġweaken": 21918,
    "safie": 20346,
    "Ġbluish": 23647,
    "Ġdetaining": 25818,
    "Ġothers": 2584,
    "ithing": 11647,
    "Ġenl": 18187,
    "Ġmaimed": 21314,
    "Ġ113": 19694,
    "Ġpupella": 20419,
    "Ġdipping": 15588,
    "Ġcuts": 14605,
    "Ġtemptation": 8678,
    "idea": 9301,
    "aire": 10680,
    "Ġprovision": 14821,
    "protection": 19918,
    "tumultuous": 20396,
    "Ġrese": 2162,
    "Ġpeering": 8535,
    "Ġlevelled": 11284,
    "Ġintrospective": 20598,
    "Ġbusiness": 2236,
    "Ġevangel": 11280,
    "kers": 7132,
    "Ġsimultaneously": 4309,
    "Ġmanhat": 22324,
    "Ġproport": 2301,
    "Ġsluggish": 25889,
    "knife": 6942,
    "Ġmoment": 992,
    "imming": 9686,
    "ô": 181,
    "Ġbaby": 6636,
    "Ġtied": 7357,
    "Ġmamm": 25089,
    "Ġfris": 23254,
    "obedience": 17407,
    "Ġcases": 3961,
    "Ġbites": 23740,
    "retched": 3066,
    "pul": 8754,
    "Ġsacrific": 15015,
    "Ġfewer": 16227,
    "Ġsailor": 3535,
    "Ġmakes": 3651,
    "term": 3758,
    "fields": 14651,
    "Ġcum": 21339,
    "Ġreasons": 6020,
    "decoder": 3644,
    "olence": 10230,
    "Ġexpired": 18623,
    "consid": 4924,
    "Ġbritannica": 24679,
    "Ġpallid": 12295,
    "Ġburial": 16519,
    "Ġmounting": 19974,
    "Ġacc": 581,
    "Ġspile": 22124,
    "idly": 12696,
    "Ġgamming": 25542,
    "Ġcrippled": 25278,
    "Ġensue": 18189,
    "Ġfem": 6134,
    "Ġcous": 3439,
    "Ġmet": 1941,
    "Ġlatterly": 24082,
    "Ġtig": 13810,
    "Ġhurrah": 9868,
    "cure": 11474,
    "Ġproposal": 10018,
    "loss": 22503,
    "Ġdeliriously": 23227,
    "Ġsensational": 16385,
    "Ġsweetness": 9445,
    "Ġindu": 5293,
    "Ġremarks": 7474,
    "Ġtherein": 11772,
    "Ġcharges": 23266,
    "ent": 305,
    "Ġterminating": 23507,
    "Ġa": 263,
    "rush": 7010,
    "Ġsketches": 26269,
    "Ġdeliverer": 11947,
    "onder": 3779,
    "latter": 15379,
    "discoveries": 25385,
    "Ġcommunion": 19006,
    "Ġoffence": 12939,
    "Ġaccounted": 10296,
    "Ġtrample": 20325,
    "proved": 11982,
    "Ġpreface": 18366,
    "scot": 14415,
    "Ġunceasingly": 20356,
    "Ġyours": 4124,
    "Ġperiods": 13298,
    "Ġundaunted": 24117,
    "Ġmir": 9646,
    "hero": 21202,
    "Ġreasonably": 11090,
    "Ġdistinguish": 2728,
    "Ġsemantic": 1958,
    "sloop": 26144,
    "congratulations": 20277,
    "Ġeas": 2354,
    "Ġmomentum": 1606,
    ",âĢĻ": 2330,
    "harpooneers": 8690,
    "uvier": 9068,
    "respectively": 24699,
    "Ġspies": 22125,
    "Ġbits": 11587,
    "Ġmaz": 15538,
    "sharpening": 22463,
    "Ġboyhood": 23752,
    "Ġrural": 21964,
    "moby": 8537,
    "Ġgather": 6534,
    "irted": 14068,
    "existence": 16011,
    "Ġsafie": 6617,
    "wished": 13802,
    "jabez": 20931,
    "Ġpursuit": 4733,
    "Ġpittance": 15613,
    "Ġvibration": 17097,
    "Ġgripping": 26185,
    "Ġevident": 6612,
    "istle": 15867,
    "Ġunfrequ": 19506,
    "Ġlectures": 17176,
    "Ġbrawny": 13609,
    "Ġlover": 7193,
    "Ġborn": 5224,
    "occasion": 7754,
    "Ġadorn": 12786,
    "fes": 20849,
    "Ġwants": 5742,
    "Ġimpossible": 3543,
    "disapprobation": 19154,
    "Ġfluffy": 19361,
    "Ġasph": 21895,
    "Ġbaronial": 23791,
    "virtue": 20567,
    "Ġpractised": 23306,
    "Ġtoler": 7588,
    "Ġcommunicative": 24546,
    "claimed": 9835,
    "Ġgrief": 4621,
    "gressive": 2756,
    "Ġindian": 4131,
    "measureless": 20233,
    "rage": 10843,
    "Ġdevoted": 6573,
    "tack": 12508,
    "Ġaglow": 22511,
    "cavity": 26125,
    "Ġtreats": 19341,
    "Ġincant": 18569,
    "Ġhidden": 1374,
    "Ġstray": 18068,
    "Ġshores": 8847,
    "nesday": 8703,
    "Ġware": 12549,
    "transformer": 25014,
    "Ġchambers": 16797,
    "Ġcrisis": 13121,
    "Ġsay": 933,
    "exception": 9975,
    "Ġcorpse": 6638,
    "Ġlid": 6983,
    "Ġtasted": 12524,
    "ese": 4444,
    "Ġoutskirts": 17454,
    "sworn": 24254,
    "Ġglaciers": 20171,
    "Ġ1890": 23892,
    "attended": 8952,
    "Ġsanguinary": 25928,
    "downward": 16617,
    "p": 84,
    "Ġshrinking": 14801,
    "Ġslipping": 13355,
    "Ġalbino": 20500,
    "Ġshave": 21993,
    "Ġtowns": 11173,
    "unusual": 21876,
    "Ġgener": 590,
    "bul": 6951,
    "Ġlashings": 25096,
    "heavily": 24532,
    "Ġmathematical": 3352,
    "Ġingratitude": 17466,
    "sme": 17656,
    "braid": 17492,
    "Ġmanly": 22321,
    "Ġcalls": 6744,
    "Ġsubst": 4272,
    "surpr": 5997,
    "ĠĠĠĠĠĠĠĠĠĠĠĠĠĠĠĠĠĠĠĠĠĠĠĠĠĠĠĠĠĠ": 24441,
    "Ġuntouched": 16464,
    "Ġeagerness": 6608,
    "Ġrecept": 1528,
    "Ġwade": 17783,
    "Ġseaward": 22944,
    "Ġintrig": 21987,
    "Ġfocuses": 8650,
    "Ġblending": 14397,
    "Ġleaning": 5228,
    "Ġvengeance": 5885,
    "Ġscar": 3211,
    "Ġtenth": 13822,
    "Ġapparent": 5466,
    "Ġpleased": 4063,
    "successful": 11358,
    "Ġhus": 3090,
    "Ġclouds": 5775,
    "Ġabutted": 22282,
    "gabriel": 15357,
    "Ġshouts": 19535,
    "Ġwhen": 514,
    "Ġeyelids": 26106,
    "Ġpand": 21453,
    "quarter": 11388,
    "earth": 6502,
    "alarm": 15623,
    "Ġcomputation": 966,
    "Ġmelancholy": 5605,
    "Ġpyramid": 8801,
    "89": 20757,
    "Ġelement": 6897,
    "Ġactivations": 2722,
    "nect": 662,
    "withdrawn": 23025,
    "pha": 22763,
    "Ġdespised": 14664,
    "Ġtou": 15464,
    "cerem": 15674,
    "allest": 5485,
    "earnestly": 17310,
    "Ġmist": 2876,
    "Ġexcell": 10415,
    "Ġinf": 1754,
    "Ġpersisting": 18895,
    "Ġsnoring": 23736,
    "Ġlamp": 4114,
    "Ġloosed": 22109,
    "etch": 9204,
    "Ġbear": 3657,
    "cottagers": 20045,
    "well": 1692,
    "Ġakin": 15493,
    "Ġcame": 1300,
    "Ġwillingness": 24909,
    "Ġcap": 2365,
    "Ġsuffice": 18868,
    "uniform": 18156,
    "tubes": 25211,
    "Ġsoul": 2727,
    "rates": 21036,
    "opolising": 25675,
    "pool": 16206,
    "ď": 208,
    "Ġexpressed": 4467,
    "stream": 15683,
    "national": 20996,
    "Ġforeign": 9871,
    "Ġsolemn": 4100,
    "ring": 1751,
    "Ġemployments": 12098,
    "Ġadditional": 7936,
    "Ġprove": 5232,
    "indeed": 4488,
    "wrote": 11546,
    "Ġsubtle": 6716,
    "Ġwhar": 7388,
    "Ġgradually": 3402,
    "Ġtex": 15470,
    "seems": 10875,
    "dashing": 20834,
    "Ġcorp": 5574,
    "Ġsap": 18321,
    "bed": 3289,
    "Ġoccasional": 7289,
    "Ġsatisfied": 4172,
    "Ġvirgin": 7328,
    "Ġkills": 15903,
    "Ġearl": 7676,
    "Ġpity": 4941,
    "Ġstabilizing": 3656,
    "Ġlodged": 11252,
    "sto": 3197,
    "Ġem": 1923,
    "Ġsolving": 2486,
    "Ġhill": 5626,
    "Ġmarvel": 23032,
    "Ġtowing": 9193,
    "roll": 9196,
    "Ġsells": 21221,
    "Ġensigns": 23686,
    "usion": 3300,
    "Ġebb": 21619,
    "Ġgasped": 11372,
    "Ġurged": 6781,
    "hogs": 20079,
    "sway": 15422,
    "Ġclutch": 15051,
    "task": 13790,
    "Ġbeats": 21749,
    "wing": 2522,
    "Ġlimb": 9401,
    "Ġcurrent": 13004,
    "Ġgore": 17987,
    "Ġbrother": 2751,
    "Ġimpotently": 22385,
    "bare": 12437,
    "Ġpremises": 10487,
    "blo": 6353,
    "Ġvacancy": 9044,
    "Ġoutlandish": 12834,
    "Ġmargaret": 10376,
    "successfully": 14988,
    "Ġsolutions": 1948,
    "despicable": 24636,
    "sed": 4176,
    "Ġsculpt": 15943,
    "ceptive": 15973,
    "Ġconsol": 3816,
    "Ġbeware": 8827,
    "Ġking": 2308,
    "hearted": 6970,
    "Ġcurds": 22966,
    "Ġsp": 457,
    "weary": 22683,
    "Ġfreshets": 25704,
    "Ġtraces": 7946,
    "Ġunw": 8849,
    "Ġhiss": 15784,
    "Ġworld": 1599,
    "Ġchurchyard": 16775,
    "ir": 378,
    "Ġaccompany": 9486,
    "whip": 22234,
    "Ġenglish": 3613,
    "elling": 5830,
    "Ġrates": 1405,
    "Ġ1820": 25717,
    "Ġet": 3580,
    "Ġtransports": 24275,
    "Ġdeal": 3607,
    "short": 6566,
    "wouldn": 23531,
    "imprudence": 16554,
    "Ġvector": 1971,
    "Ġrivals": 20269,
    "Ġinitials": 11014,
    "abling": 1078,
    "Ġpawn": 12060,
    "Ġbland": 11064,
    "ĠĠĠĠĠĠĠĠĠĠĠĠĠĠĠĠĠĠĠ": 22947,
    "trust": 21076,
    "Ġfusion": 21412,
    "Ġcaged": 21349,
    "anger": 2177,
    "Ġborder": 10169,
    "Ġscru": 8190,
    "sych": 9890,
    "bergs": 18682,
    "ping": 9615,
    "Ġprendergast": 26535,
    "Ġapplying": 13086,
    "arling": 10814,
    "lined": 12479,
    "Ġmedit": 8019,
    "lings": 8746,
    "Ġprince": 18971,
    "Ġfootmen": 23795,
    "shiver": 16024,
    "bantering": 25253,
    "Ġfut": 15571,
    "Ġoaths": 13519,
    "Ġdevouring": 11855,
    "Ġanytime": 12881,
    "club": 26378,
    "timidity": 25752,
    "sies": 21052,
    "head": 1437,
    "etieth": 21581,
    "Ġmainten": 16110,
    "Ġglobe": 6077,
    "oce": 10714,
    "Ġattent": 4360,
    "Ġden": 3106,
    "hurriedly": 25510,
    "Ġancient": 5443,
    "ition": 651,
    "Ġexplanatory": 22199,
    "Ġsinews": 20285,
    "Ġforcibly": 10060,
    "acquainted": 7313,
    "umn": 5835,
    "Ġday": 957,
    "clusion": 16303,
    "Ġceasing": 23754,
    "Ġhistorical": 3645,
    "Ġlately": 6387,
    "masters": 16832,
    "Ġsmall": 893,
    "vict": 11540,
    "Ġda": 5150,
    "Ġsurpasses": 25268,
    "Ġtransactions": 18481,
    "Ġevenly": 4129,
    "animal": 16976,
    "Ġshallow": 14392,
    "Ġhandsomely": 25497,
    "obtained": 23095,
    "Ġrelics": 16193,
    "keeping": 8635,
    "Ġadroop": 26000,
    "izarre": 17386,
    "acit": 16078,
    "ii": 4015,
    "Ġseriously": 7061,
    "Ġcensus": 15093,
    "Ġwhisker": 23931,
    "upon": 2723,
    "theless": 4259,
    "Ġcabaco": 13162,
    "monster": 8592,
    "hend": 13246,
    "hast": 5357,
    "Ġattentive": 9033,
    "Ġprovinc": 16740,
    "mbles": 23086,
    "Ġfirm": 3871,
    "cut": 3122,
    "fiery": 13577,
    "Ġnetherfield": 3931,
    "bbles": 13688,
    "Ġmallet": 17809,
    "Ġlab": 1869,
    "Ġimportance": 4900,
    "Ġcomplacency": 19445,
    "tashtego": 9622,
    "iasm": 8061,
    "libra": 22922,
    "Ġlav": 13946,
    "Ġsit": 4216,
    "hopes": 15366,
    "Ġrashness": 25460,
    "Ġroods": 22401,
    "adoes": 11658,
    "wn": 720,
    "start": 7598,
    "balance": 12002,
    "Ġconfluent": 19038,
    "tips": 13793,
    "Ġassented": 17335,
    "fra": 8375,
    "Ġfestival": 25445,
    "Ġnug": 21522,
    "Ġfishe": 15582,
    "Ġcubic": 20085,
    "noble": 7924,
    "Ġthorough": 6245,
    "Ġbug": 11588,
    "Ġprynne": 25540,
    "71": 20754,
    "Ġwrinkled": 7264,
    "Ġcabal": 23640,
    "Ġrumours": 24598,
    "Ġlevi": 3032,
    "stave": 21646,
    "Ġcountrymen": 23593,
    "either": 6791,
    "Ġbenevolence": 9526,
    "Ġintim": 6838,
    "visible": 10533,
    "Ġangelic": 19625,
    "Ġconclude": 8580,
    "drown": 13701,
    "return": 5489,
    "Ġpor": 5225,
    "Ġmyself": 1456,
    "Ġexercise": 8358,
    "Ġtwinkle": 12319,
    "arming": 8951,
    "Ġminim": 1324,
    "avern": 24791,
    "vii": 13143,
    "semic": 21817,
    "Ġpoker": 13919,
    "Ġlanyard": 26459,
    "Ġpadded": 25035,
    "Ġrenders": 13278,
    "Ġunav": 18236,
    "Ġcrystall": 20224,
    "Ġaisle": 21199,
    "ine": 406,
    "Ġcontrol": 13074,
    "ckled": 9256,
    "Ġslightest": 6093,
    "Ġdedu": 5582,
    "Ġbarbaric": 10013,
    "Ġtowards": 1727,
    "hood": 2660,
    "Ġswimmer": 19456,
    "beth": 13685,
    "Ġphrase": 11187,
    "Ġvapors": 19906,
    "Ġrud": 8477,
    "Ġlonely": 6823,
    "gl": 3290,
    "volous": 18602,
    "Ġbashee": 19847,
    "Ġtogether": 1876,
    "Ġoscill": 2857,
    "but": 593,
    "Ġcircumvent": 25063,
    "ppo": 18174,
    "Ġmultimodal": 18746,
    "numbers": 17614,
    "Ġphaeton": 17462,
    "eye": 6224,
    "Ġmerchant": 6467,
    "iated": 5890,
    "cabinet": 25076,
    "Ġyield": 5093,
    "history": 15012,
    "Ġspeaking": 4027,
    "ocratic": 17243,
    "Ġcheerfully": 12130,
    "circled": 24184,
    "Ġannoy": 17196,
    "Ġsob": 12784,
    "ologies": 18760,
    "Ġexceeded": 14430,
    "hampshire": 23262,
    "Ġdetermines": 2371,
    "Ġchall": 10944,
    "Ġmeek": 21806,
    "Ġomin": 11576,
    "Ġmethodology": 2203,
    "Ġamb": 9291,
    "Ġcontrivances": 12353,
    "Ġattachment": 6050,
    "Ġembed": 1423,
    "Ġmedic": 11247,
    "Ġshortness": 23479,
    "Ġdeception": 18138,
    "Ġnoon": 6559,
    "Ġrake": 18642,
    "Ġtusked": 25426,
    "belated": 24035,
    "Ġmining": 22828,
    "Ġlimbs": 5966,
    "surface": 10530,
    "Ġnursery": 19748,
    "supers": 22632,
    "Ġdiamond": 15595,
    "Ġtopic": 9405,
    "Ġbelow": 4061,
    "susp": 10596,
    "Ġchin": 4891,
    "Ġaloft": 4301,
    "sofa": 26145,
    "uns": 21867,
    "Ġdefault": 3036,
    "rog": 15636,
    "Ġimprudently": 22381,
    "Ġmainmast": 9778,
    "older": 15752,
    "legs": 13179,
    "erick": 13845,
    "Ġpent": 17902,
    "Ġdeliber": 7268,
    "kles": 17582,
    "Ġrejo": 5916,
    "voyage": 7786,
    "Ġevenness": 22832,
    "Ġlaborers": 19056,
    "7": 27,
    "Ġaccosted": 13669,
    "elfare": 11773,
    "Ġdistur": 5312,
    "aby": 18105,
    "Ġphiladel": 23882,
    "Ġscore": 9736,
    "Ġ150": 22825,
    "ceremony": 20587,
    "Ġupwards": 7633,
    "85": 13678,
    "Ġnecks": 18178,
    "Ġeastward": 13385,
    "Ġess": 5691,
    "hog": 8380,
    "walks": 19719,
    "Ġrack": 9311,
    "securer": 25601,
    "¹": 122,
    "Ġcarrying": 6072,
    "raham": 18012,
    "Ġregain": 22577,
    "Ġemm": 18001,
    "balls": 12301,
    "orses": 6052,
    "Ġunnaturally": 24869,
    "endurable": 22216,
    "Ġinterrupting": 19555,
    "unbounded": 21882,
    "Ġdoing": 3660,
    "Ġannals": 17897,
    "Ġdict": 9175,
    "Ġtimidity": 24686,
    "Ġdeer": 12716,
    "Ġnin": 10187,
    "Ġplough": 18609,
    "Ġharpoons": 5659,
    "Ġmask": 1864,
    "fre": 5425,
    "endured": 22215,
    "riving": 21923,
    "othic": 16213,
    "Ġpreach": 14170,
    "Ġconv": 2968,
    "Ġcaw": 13880,
    "authority": 13587,
    "Ġrenounce": 19465,
    "Ġresol": 2666,
    "comparison": 25839,
    "Ġsugg": 4500,
    "Ġbarbary": 24214,
    "Ġforecastle": 5495,
    "market": 16837,
    "Ġsquad": 22835,
    "Ġschemes": 11131,
    "awe": 20763,
    "Ġthump": 11610,
    "¬": 110,
    "mansion": 20981,
    "Ġpriority": 19760,
    "Ġcrunched": 19122,
    "Ġdeuteronomy": 15756,
    "Ġsubjected": 23569,
    "ram": 13969,
    "Ġencodings": 4776,
    "romised": 14109,
    "Ġashore": 5351,
    "Ġott": 13863,
    "Ġowning": 18743,
    "Ġkindred": 16374,
    "Ġanticipatingly": 26101,
    "Ġappare": 12814,
    "civilities": 24972,
    "Ġimitation": 22168,
    "indul": 22367,
    "----": 4057,
    "omn": 15678,
    "Ġsingers": 23768,
    "Ġscud": 14186,
    "appetite": 22845,
    "uncont": 15770,
    "Ġextreme": 2518,
    "Ġedward": 19118,
    "bearance": 22492,
    "eting": 7169,
    "linearity": 1655,
    "nson": 16090,
    "bec": 4053,
    "Ġthreats": 13372,
    "merely": 16131,
    "raised": 15675,
    "Ġinhabited": 12181,
    "Ġserene": 8167,
    "Ġcove": 22580,
    "troubled": 17110,
    "eration": 10772,
    "vulgar": 25917,
    "adequately": 20317,
    "robotics": 11306,
    "Ġmantelpiece": 15204,
    "Ġcongratulate": 9063,
    "li": 1188,
    "tranquil": 25869,
    "iocr": 20921,
    "Ġfug": 12591,
    "Ġadjust": 2158,
    "Ġferoc": 14899,
    "ourage": 2454,
    "Ġlevels": 12694,
    "Ġcontradict": 12381,
    "ver": 331,
    "Ġblaze": 16217,
    "Ġconquest": 15744,
    "Ġrattle": 10899,
    "viating": 14577,
    "repaid": 24489,
    "Ġprejudiced": 24808,
    "Ġfortunately": 12175,
    "Ġcursory": 18845,
    "Ġcamberwell": 25350,
    "_:": 17476,
    "Ġartful": 22609,
    "Ġaccommodate": 20515,
    "writhed": 26079,
    "Ġdiana": 21434,
    "Ġhempen": 13545,
    "Ġsystems": 779,
    "illum": 15866,
    "Ġcoburg": 18598,
    "Ġbegat": 18861,
    "Ġsarat": 21225,
    "Ġthing": 1645,
    "Ġcork": 12564,
    "Ġstation": 5297,
    "leading": 15558,
    "Ġroads": 13283,
    "lemagne": 26434,
    "ord": 666,
    "Ġchuckled": 10647,
    "neck": 14232,
    "pour": 17628,
    "anzas": 17839,
    "kn": 5791,
    "Ġmem": 2070,
    "respond": 12539,
    "Ġtravels": 11923,
    "Ġstay": 3092,
    "Ġselecting": 16682,
    "stick": 15681,
    "specul": 23939,
    "rospect": 11611,
    "Ġpour": 13911,
    "vil": 2733,
    ".*": 7331,
    "ered": 1685,
    "Ġdestabilizing": 5053,
    "Ġaffidavit": 20722,
    "Ġplead": 14452,
    "Ġrank": 6258,
    "Ġcheating": 16363,
    "Ġmilitia": 13312,
    "Ġgangs": 21606,
    "ĠĠĠĠĠĠĠĠĠĠĠĠĠĠĠĠĠ": 22946,
    "etah": 12657,
    "Ġdumbly": 24986,
    "eral": 9159,
    "Ġanalog": 12608,
    "likelihood": 4992,
    "Ġsermon": 12372,
    "by": 1159,
    "interrupt": 8616,
    "Ġcontract": 18474,
    "Ġtries": 9150,
    "Ġdesirable": 8941,
    "Ġquicker": 16505,
    "Ġhelen": 16653,
    "Ġworst": 7444,
    "Ġcloser": 8660,
    "vi": 2379,
    "chose": 18039,
    "silly": 24420,
    "Ġgroan": 13319,
    "Ġundoing": 22028,
    "Ġple": 1470,
    "magnet": 14967,
    "Ġperadventure": 22395,
    "Ġunperceived": 22030,
    "presumption": 20439,
    "reshold": 21237,
    "Ġinstantaneously": 23658,
    "gg": 1996,
    "Ġ183": 13232,
    "Ġstately": 9833,
    "Ġsubject": 2467,
    "Ġaslant": 21898,
    "Ġ[": 6967,
    "isc": 6239,
    "akes": 2223,
    "Ġbounding": 19397,
    "boilers": 26296,
    "Ġmonths": 3457,
    "estate": 12813,
    "Ġinterlacing": 22574,
    "Ġere": 3685,
    "Ġcourtship": 24133,
    "Ġinternal": 2250,
    "Ġsoaring": 22083,
    "Ġswore": 10378,
    "Ġequinox": 25854,
    "Ġpoint": 2056,
    "burnt": 20077,
    "unless": 9234,
    "antically": 22093,
    "Ġpray": 3901,
    "tipt": 25082,
    "Ġwriggling": 15254,
    "depend": 9112,
    "Ġresearches": 13123,
    "uncle": 8159,
    "Ġmouth": 3178,
    "Ġdrawers": 12101,
    "Ġmysterious": 7527,
    "Ġhawsers": 26500,
    "Ġchord": 22242,
    "Ġbalm": 22902,
    "Ġtestified": 16321,
    "Ġscr": 11757,
    "Ġlogger": 11950,
    "Ġrh": 9243,
    "ateg": 1349,
    "Ġunc": 2127,
    "ff": 460,
    "...": 24547,
    "Ġcomment": 9232,
    "Ġdull": 6384,
    "Ġpresumption": 10545,
    "Ġcalling": 5662,
    "Ġpreside": 18364,
    "Ġjudges": 14683,
    "Ġplant": 8900,
    "imp": 3031,
    "Ġcheap": 13083,
    "imin": 1766,
    "vand": 21106,
    "Ġhails": 21947,
    "Ġparad": 2843,
    "cond": 1670,
    "Ġdepressions": 25797,
    "Ġlouder": 13463,
    "accountable": 7109,
    "Ġcorresponds": 19819,
    "cop": 20799,
    "Ġclut": 7641,
    "Ġshapeless": 24522,
    "divers": 15339,
    "able": 451,
    "ang": 445,
    "Ġpriv": 4182,
    "Ġgash": 15667,
    "sli": 11522,
    "Ġnote": 4262,
    "Ġpsychology": 11448,
    "lob": 22502,
    "Ġhistory": 4009,
    "Ġcorporeally": 25728,
    "hee": 10760,
    "bowsprit": 16851,
    "Ġbeseeching": 26310,
    "Ġvice": 6548,
    "Ġloud": 4701,
    "Ġlowest": 11122,
    "Ġshark": 5549,
    "acency": 12904,
    "Ġblack": 2034,
    "orus": 10801,
    "tinted": 17681,
    "neighbours": 24880,
    "Ġassailed": 23174,
    "Ġhypothe": 4073,
    "ċ": 204,
    "Ġindians": 14406,
    "mystic": 25316,
    "rene": 5379,
    "Ġcasement": 25091,
    "Ġmorcar": 13008,
    "remarkable": 13493,
    "nearest": 16019,
    "Ġjamming": 17262,
    "indian": 11775,
    "Ġencoder": 3635,
    "lighted": 23751,
    "Ġtip": 15469,
    "trop": 15434,
    "gy": 2098,
    "han": 12468,
    "building": 17306,
    "aks": 8506,
    "racting": 10348,
    "Ġunlocked": 14116,
    "Ġsuccess": 3609,
    "mor": 4215,
    "ĠâĢĶâĢĶ": 25756,
    "Ġcos": 2213,
    "Ġsteep": 2890,
    "Ġconscience": 6929,
    "Ġnavigators": 19761,
    "their": 2542,
    "cloudless": 20330,
    "idled": 21765,
    "commer": 22800,
    "Ġep": 7384,
    "Ġrate": 1064,
    "Ġdost": 7636,
    "Ġmid": 2618,
    "Ġprofit": 14583,
    "historical": 20463,
    "Ġneck": 4885,
    "Ġsprang": 5064,
    "Ġflame": 7448,
    "ufact": 10733,
    "remediable": 26293,
    "soundest": 24796,
    "hauteur": 26389,
    "Ġjen": 9266,
    "Ġstrict": 7222,
    "af": 2381,
    "Ġencounters": 19578,
    "burst": 10537,
    "Ġpromotion": 23191,
    "Ġrewarded": 14937,
    "Ġfairy": 14625,
    "Ġgentlemanly": 19314,
    "Ġelderly": 13490,
    "Ġglobules": 26586,
    "Ġyoun": 1409,
    "loat": 8886,
    "Ġrepairing": 25588,
    "Ġdrop": 4344,
    "prairies": 20564,
    "Ġbusks": 23335,
    "Ġman": 544,
    "adam": 15726,
    "rah": 8137,
    "Ġcat": 2124,
    "verse": 9687,
    "power": 7136,
    "Ġseren": 7401,
    "Ġobserving": 6081,
    "icable": 6388,
    "Ġdoub": 1836,
    "Ġtinkling": 25212,
    "ske": 13779,
    "Ġork": 18283,
    "Ġclanging": 18422,
    "bent": 15308,
    "Ġrad": 4962,
    "iceland": 21563,
    "grie": 12466,
    "Ġvolume": 6769,
    "Ġcity": 4531,
    "priv": 9619,
    "saturday": 14855,
    "Ġamount": 8511,
    "Ġoscillations": 2899,
    "Ġmills": 21309,
    "protest": 24814,
    "Ġpropontis": 17463,
    "Ġmixed": 6974,
    "peculiar": 6886,
    "benefact": 24640,
    "Ġcomfits": 21856,
    "iancy": 13002,
    "otics": 10223,
    "ired": 1448,
    "Ġparaph": 22117,
    "Ġdelicate": 6480,
    "Ġjoyfully": 19343,
    "bildad": 9586,
    "Ġelegant": 7532,
    "Ġoarsmen": 7738,
    "stripped": 16943,
    "Ġsplendidly": 25327,
    "unk": 4540,
    "Ġprediction": 2031,
    "auley": 22620,
    "Ġtropic": 17062,
    "Ġaction": 5796,
    "stalk": 21647,
    "agos": 21901,
    "Ġmouthful": 16571,
    "Ġseasonable": 24404,
    "Ġtranquill": 6630,
    "handled": 19260,
    "ands": 21863,
    "Ġel": 805,
    "bishop": 13691,
    "flatter": 23963,
    "Ġapartments": 19612,
    "Ġresolve": 13165,
    "Ġlie": 4405,
    "hist": 7130,
    "Ġchopping": 24217,
    "Ġhated": 7584,
    "row": 1067,
    "Ġannihil": 10174,
    "brown": 15314,
    "Ġconsidered": 4612,
    "Ġyarn": 10868,
    "noticed": 14338,
    "Ġmeanings": 18608,
    "ameter": 3134,
    "Ġcherry": 16933,
    "puzzling": 26142,
    "Ġverdure": 10612,
    "Ġpawnbroker": 13654,
    "Ġapprehen": 16827,
    "!_âĢĿ": 11376,
    "however": 4372,
    "Ġwhere": 785,
    "Ġtremble": 6906,
    "Ġjames": 6419,
    "exhibited": 18476,
    "iracle": 11244,
    "hatred": 24820,
    "Ġlatin": 16819,
    "ency": 3869,
    "net": 1195,
    "icest": 21561,
    "Ġdays": 2078,
    "Ġparticip": 16128,
    "Ġgreedy": 3051,
    "after": 2897,
    "Ġconfirmation": 17208,
    "Ġunreason": 15839,
    "Ġbuttoned": 25368,
    "Ġrounding": 16272,
    "Ġsupplication": 25491,
    "itating": 9650,
    "requirements": 24856,
    "fl": 3599,
    "Ġaloof": 21782,
    "Ġgeomet": 3189,
    "elevating": 20403,
    "Ġcommissioned": 19893,
    "Ġthroats": 24573,
    "sor": 7352,
    "owers": 12680,
    "addition": 13379,
    "ĠmanÅĵuv": 18416,
    "Ġnought": 21519,
    "Ġpeter": 10535,
    "ful": 661,
    "Ġgates": 10200,
    "Ġadmits": 23551,
    "Ġtest": 1566,
    "sho": 6425,
    "jug": 17578,
    "Ġprecipice": 19938,
    "Ġhouses": 6138,
    "ission": 6457,
    "Ġbehalf": 14505,
    "hug": 17561,
    "remote": 23187,
    "Ġfisher": 3221,
    "Ġsilken": 16378,
    "Ġholiest": 18811,
    "stige": 21658,
    "Ġdefect": 8555,
    "knight": 20938,
    "enough": 6809,
    "Ġhasten": 10478,
    "Ġresided": 11808,
    "Ġvineyards": 25105,
    "Ġsiberia": 26160,
    "ls": 1290,
    "mess": 13750,
    "Ġbeeches": 9226,
    "omination": 21639,
    "Ġsurrounds": 24229,
    "Ġchiswick": 25560,
    "accompl": 9879,
    "Ġgracious": 8846,
    "orously": 8419,
    "Ġeclips": 20694,
    "sea": 4763,
    "Ġunctuousness": 17232,
    "wholly": 10941,
    "awakened": 14450,
    "instruct": 19540,
    "é": 170,
    "formation": 22211,
    "iminished": 19020,
    "Ġstudious": 23233,
    "Ġtheoretic": 23308,
    "augment": 18827,
    "Ġsof": 18280,
    "Ġdomineering": 23654,
    "Ġsecure": 4912,
    "weaknesses": 26029,
    "Ġboards": 14299,
    "repid": 11564,
    "Ġadmire": 5263,
    "Ġcranial": 25591,
    "Ġbeings": 2493,
    "Ġmove": 5107,
    "Ġweighty": 16029,
    "Ġhandful": 9782,
    "inkled": 5477,
    "since": 5895,
    "Ġappeal": 16313,
    "Ġbring": 3323,
    "marked": 9048,
    "Ġbeg": 1282,
    "Ġbuilt": 8301,
    "changed": 7175,
    "oam": 8752,
    "ails": 6160,
    "Ġcardboard": 19976,
    "female": 20664,
    "Ġwebster": 20159,
    "Ġdestruction": 6600,
    "pequod": 7052,
    "Ġboston": 22638,
    "Ġfill": 5701,
    "Ġproflig": 23564,
    "esc": 619,
    "Ġpads": 21472,
    "Ġexhilarating": 26336,
    "sulphur": 25908,
    "dor": 12447,
    "Ġinh": 10824,
    "Ġthrill": 24539,
    "Ġtempor": 2370,
    "Ġgrud": 17994,
    "Ġregularly": 7657,
    "Ġcontingency": 26243,
    "Ġbehold": 5049,
    "manner": 6170,
    "Ġswarm": 23051,
    "ppa": 10239,
    "Ġbiography": 22758,
    "reproof": 25432,
    "Ġneatness": 19930,
    "itarian": 21334,
    "gives": 15354,
    "Ġear": 1425,
    "Ġawe": 7147,
    "Ġfamiliar": 5511,
    "Ġspy": 22120,
    "Ġpersevering": 20231,
    "Ġgoose": 5938,
    "Ġpre": 507,
    "Ġscrut": 15942,
    "Ġpreparations": 12306,
    "ju": 13738,
    "Ġabrid": 22279,
    "Ġwheeled": 14136,
    "atching": 8203,
    "adagrad": 9690,
    "Ġstroke": 6936,
    "Ġcrocod": 19626,
    "Ġtwee": 22672,
    "Ġmasterly": 23992,
    "dil": 11478,
    "lun": 20944,
    "Ġsimil": 2533,
    "Ġcopestone": 24935,
    "Ġtimorous": 24223,
    "Ġbars": 13894,
    "Ġharriet": 24570,
    "Ġenergies": 25459,
    "Ġeighty": 19473,
    "Ġcordon": 24392,
    "Ġillinois": 19135,
    "Ġeve": 13967,
    "Ġfa": 4819,
    "Ġcontemporary": 16009,
    "Ġensure": 23685,
    "Ġallowing": 2179,
    "umbrance": 22115,
    "Ġblue": 3456,
    "Ġpagans": 16920,
    "Ġowing": 6005,
    "Ġmisanthropic": 26558,
    "racted": 4774,
    "Ġdenoted": 16562,
    "Ġcoherent": 3262,
    "Ġwild": 2603,
    "Ġrhine": 12352,
    "Ġanticip": 7507,
    "ceiving": 3904,
    "Ġcens": 8413,
    "gia": 20874,
    "Ġflap": 14419,
    "Ġfeather": 8859,
    "society": 9971,
    "Ġvestige": 20060,
    "izard": 10883,
    "Ġenjoyments": 24016,
    "Ġextending": 11020,
    "calmly": 20137,
    "Ġsort": 1509,
    "Ġstim": 18062,
    "dz": 4739,
    "acked": 10973,
    "Ġtrampled": 20326,
    "Ġyounger": 5252,
    "Ġalter": 6542,
    "Ġforgotten": 5679,
    "sculptured": 26045,
    "Ġchasing": 11751,
    "Ġindex": 17047,
    "Ġadmires": 19683,
    "regulated": 23465,
    "trem": 17679,
    "Ġstrives": 23692,
    "berish": 22715,
    "âĢĶâĢĻâĢĿ": 20061,
    "Ġremove": 7499,
    "Ġdetail": 635,
    "hem": 6663,
    "under": 3130,
    "Ġmutinous": 23954,
    "Ġthrice": 10575,
    "Ġtrivial": 10142,
    "Ġemerged": 8685,
    "Ġmediterranean": 12311,
    "Ġcurt": 18840,
    "Ġamiss": 18510,
    "Ġdetective": 14413,
    "Ġrode": 15995,
    "Ġbottom": 3673,
    "hurried": 11353,
    "overing": 6306,
    "Ġuncork": 23427,
    "Ġaghast": 16044,
    "Ġcorrectly": 9403,
    "Ġstars": 6149,
    "Ġwonder": 2120,
    "methodically": 20662,
    "Ġacquiesced": 25493,
    "due": 22407,
    "Ġhearsed": 25038,
    "pity": 17625,
    "Ġ51": 24318,
    "Ġsublime": 8066,
    "joice": 9602,
    "furnish": 25338,
    "raise": 18010,
    "rabbit": 20588,
    "Ġinhabit": 5782,
    "rule": 15891,
    "enemy": 15524,
    "cheerfulness": 20178,
    "Ġdiligently": 11405,
    "Ġent": 905,
    "gi": 17549,
    "Ġtigris": 25758,
    "Ġhadn": 9718,
    "traversed": 19637,
    "nett": 16218,
    "Ġgenerously": 22397,
    "isher": 2877,
    ",": 16,
    "aded": 3549,
    "isturbed": 18296,
    "Ġsullenly": 17170,
    "Ġwings": 9163,
    "Ġjuicy": 25370,
    "Ġfert": 15578,
    "Ġupset": 22150,
    "rise": 6226,
    "ited": 1749,
    ").": 1273,
    "oise": 15401,
    "Ġcompiled": 22568,
    "Ġconjugal": 25100,
    "blacksmith": 16999,
    "Ġfree": 3377,
    "Ġincom": 9768,
    "bird": 9585,
    "fishing": 20857,
    "anct": 21355,
    "Ġspiral": 14582,
    "Ġhooded": 12402,
    "choose": 23670,
    "Ġconstitutional": 25125,
    "Ġinmost": 17929,
    "Ġmoderately": 22225,
    "Ġmy": 411,
    "ura": 1120,
    "Ġmates": 4872,
    "į": 240,
    "Ġfetched": 24565,
    "Ġwindward": 6885,
    "Ġsour": 21214,
    "beauty": 20101,
    "Ġweigh": 10893,
    "tallied": 21087,
    "Ġkilburn": 18350,
    "Ġpattering": 18651,
    "Ġpilgrim": 25598,
    "Ġalgorith": 558,
    "Ġdried": 7367,
    "ook": 21002,
    "Ġassociates": 24711,
    "Ġflu": 3277,
    "plexion": 14259,
    "Ġflood": 7716,
    "warn": 11542,
    "Ġprecaution": 11196,
    "Ġnapoleon": 20555,
    "strils": 10458,
    "ailing": 7021,
    "grat": 5052,
    "Ġrewards": 10848,
    "Ġpalmy": 19496,
    "Ġsuavely": 26521,
    "Ġintimate": 6549,
    "Ġuneasily": 24228,
    "mody": 16172,
    "Ġhistories": 14685,
    "affectionate": 24920,
    "Ġchurning": 15934,
    "isions": 6130,
    "Ġrefreshing": 20262,
    "Ġdevious": 22725,
    "asy": 5294,
    "Ġchancery": 20714,
    "Ġnervous": 2408,
    "Ġcorroboration": 26052,
    "Ġcourse": 2133,
    "Ġcrib": 21345,
    "eded": 9673,
    "Ġjealousy": 13572,
    "Ġtamer": 24977,
    "erated": 21268,
    "Ġheaviest": 23321,
    "Ġmarriage": 3186,
    "Ġfossils": 20220,
    "Ġafterwards": 3530,
    "Ġimmortality": 26324,
    "Ġgift": 10840,
    "Ġwhalebone": 10977,
    "Ġbask": 8117,
    "Ġexploded": 15906,
    "Ġhateful": 19711,
    "Ġpalsied": 25778,
    "Ġhandled": 12932,
    "pleasant": 5874,
    "Ġmatch": 4530,
    "attachment": 13045,
    "Ġstatements": 7516,
    "Ġfooting": 14480,
    "prevented": 20371,
    "Ġsecurely": 16800,
    "declined": 25174,
    "Ġbritain": 16954,
    "Ġrecl": 16137,
    "Ġparents": 6752,
    "Ġfluke": 14671,
    "Ġundertaken": 18986,
    "Ġwhiting": 10859,
    "Ġhaul": 11689,
    "anth": 13884,
    "ansion": 10925,
    "Ġwore": 6377,
    "Ġfinishing": 23123,
    "Ġcautiousness": 19864,
    "include": 23587,
    "Ġspray": 7895,
    "Ġconfine": 14506,
    "Ġcosmopolitan": 20639,
    "Ġeucl": 24708,
    "Ġrobberies": 23037,
    "Ġirreproachable": 24916,
    "Ġcigarette": 20654,
    "Ġanimal": 2501,
    "oarsman": 25261,
    "complain": 14353,
    "Ġvoluntarily": 12136,
    "Ġimpressed": 8199,
    "rising": 7557,
    "Ġpecks": 18671,
    "Ġvenom": 24236,
    "Ġsubsisted": 19116,
    "built": 16823,
    "Ġcrackling": 24959,
    "Ġbreast": 8968,
    "Ġlurid": 19679,
    "ses": 3025,
    "Ġprecautions": 23723,
    "Ġsteadily": 8052,
    "Ġhemp": 9215,
    "Ġcrosswise": 18883,
    "inished": 17732,
    "irresist": 21909,
    "Ġfactor": 19011,
    "Ġpoland": 23615,
    "Ġdifferent": 1430,
    "presbyterian": 26367,
    "Ġandromeda": 21505,
    "specim": 23940,
    "rod": 10831,
    "Ĉ": 201,
    "Ġpetrified": 19594,
    "imble": 10858,
    "Ġnorthern": 7265,
    "daughter": 8354,
    "vis": 4578,
    "ibank": 6880,
    "additional": 20461,
    "ilt": 2967,
    "dee": 11730,
    "Ġadvantageously": 19543,
    "retrospect": 23135,
    "Ġdetested": 14181,
    "Ġperpendicularly": 11374,
    "Ġgames": 11625,
    "Ġmodest": 15920,
    "Ġtarquin": 23608,
    "Ġinfatuated": 20531,
    "poky": 17642,
    "onym": 14647,
    "Ġfade": 21405,
    "ters": 1576,
    "desponding": 26340,
    "prise": 7727,
    "utter": 7593,
    "upp": 10130,
    "limbs": 20189,
    "consideration": 14952,
    "ilogue": 21721,
    "atered": 22069,
    "Ġruinous": 24633,
    "Ġroses": 11783,
    "representativeness": 25272,
    "mon": 2312,
    "Ġreproachfully": 25251,
    "puzz": 17638,
    "Ġconverse": 11840,
    "fect": 2303,
    "Ġbumping": 25280,
    "Ġcorrection": 5062,
    "kye": 20936,
    "Ġlayer": 1012,
    "revol": 12535,
    "Ġshocked": 9400,
    "eyed": 11486,
    "ning": 950,
    "fulfil": 16032,
    "Ġshipped": 9714,
    "Ġslighted": 16564,
    "uling": 2262,
    "Ġ1846": 26083,
    "health": 13830,
    "regiment": 16450,
    "Ġnapoleons": 25884,
    "Ġtissu": 25919,
    "easy": 9592,
    "rd": 17647,
    "swam": 24252,
    "Ġbigot": 24563,
    "Ġstream": 5186,
    "stolen": 13979,
    "Ġpillows": 24987,
    "Ġrelied": 16192,
    "comed": 8545,
    "relations": 14730,
    "Ġwoollen": 12099,
    "iner": 2672,
    "jah": 17579,
    "kovoko": 20667,
    "Ġprefer": 6416,
    "sufficiently": 14978,
    "leap": 21364,
    "Ġpeeping": 16124,
    "jol": 20923,
    "Ġconfeder": 25707,
    "Ġhisself": 21911,
    "ravity": 21632,
    "iffe": 21899,
    "Ġunpitying": 25659,
    "Ġnation": 12643,
    "Ġvers": 7563,
    "garnished": 26386,
    "Ġlumps": 21553,
    "Ġjourneying": 25565,
    "pled": 7893,
    "clerval": 7951,
    "fel": 8734,
    "Ġterms": 2564,
    "?âĢĻâĢĿ": 23641,
    "suspected": 12368,
    "Ġsubstances": 24162,
    "image": 9685,
    "`": 68,
    "ay": 355,
    "Ġnamed": 6139,
    "Ġorgies": 18284,
    "clear": 9023,
    "Ġsandwich": 19826,
    "Ġmilan": 19533,
    "Ġslaughtered": 26582,
    "Ġsupposition": 9816,
    "dead": 8180,
    "wa": 5897,
    "lowering": 16026,
    "too": 4509,
    "Ġcannot": 1669,
    "Ġmole": 11788,
    "Ġdressing": 7090,
    "Ġbar": 3147,
    "uction": 15441,
    "cock": 12021,
    "cles": 8726,
    "dream": 8728,
    "Ġrecover": 9790,
    "Ġ177": 13407,
    "calabash": 22894,
    "fulfilment": 26024,
    "poke": 18799,
    "Ġsamples": 2961,
    "Ġtame": 17720,
    "sis": 1921,
    "sutherland": 21060,
    "Ġdefe": 21832,
    "Ġlowering": 7987,
    "eluded": 21572,
    "Ġbidirectional": 3755,
    "Ġmoulded": 16973,
    "daggoo": 13704,
    "Ġcaptain": 1607,
    "Ġamazing": 9976,
    "vings": 9750,
    "sensations": 20048,
    "Ġcred": 8780,
    "Ġconstitutes": 13548,
    "Ġexpecting": 10436,
    "Ġweaving": 12736,
    "angel": 5726,
    "Ġamong": 1671,
    "Ġaddressing": 11164,
    "Ġheadsmen": 14729,
    "Ġ275": 20108,
    "Ġstubborn": 10414,
    "Ġmuse": 13857,
    "fairly": 17217,
    "adding": 21756,
    "Ġdictionaries": 12336,
    "rary": 4576,
    "Ġdev": 890,
    "Ġdirections": 1970,
    "Ġcocaine": 20719,
    "Ġallen": 5160,
    "Ġantichron": 24178,
    "Ġshot": 4545,
    "gaining": 20121,
    "Ġif": 697,
    "Ġpushing": 10819,
    "Ġ26": 10470,
    "Ġcircumference": 13540,
    "Ġemig": 14521,
    "Ġshudderings": 25200,
    "operations": 19972,
    "Ġscrupulous": 20064,
    "mates": 5073,
    "actor": 11833,
    "Ġconnected": 5393,
    "Ġrussian": 14348,
    "gryphon": 15355,
    "Ġprovincial": 20648,
    "Ġchase": 3945,
    "Ġhovered": 12627,
    "Ġcoarse": 14272,
    "Ġcontinual": 6777,
    "Ġbleached": 24394,
    "Ġsunbeam": 23273,
    "Ġlabyrinth": 13676,
    "azine": 19129,
    "Ġsable": 15498,
    "Ġblundering": 26282,
    "Ġbrown": 6298,
    "Ġobliv": 16130,
    "ested": 3480,
    "majesty": 26279,
    "Ġandes": 12637,
    "Ġdoubloon": 6945,
    "Ġunhinged": 26215,
    "Ġeste": 6085,
    "Ġabstraction": 26538,
    "nable": 13759,
    "Ġthickness": 13271,
    "designated": 26294,
    "Ġemerge": 14925,
    "ong": 536,
    "Ġwonderfully": 10430,
    "Ġcounter": 6481,
    "Ġanguish": 5583,
    "Ġneighb": 14071,
    "Ġhonor": 5664,
    "Ġpants": 21463,
    "Ġincrust": 22548,
    "grate": 23409,
    "Ġrecklessly": 16981,
    "ineffectual": 26505,
    "Ġ135": 24784,
    "fates": 20856,
    "stuff": 15684,
    "Ġchrysalis": 26536,
    "rations": 10723,
    "gences": 20875,
    "cottage": 9569,
    "._]]": 5334,
    "Ġrunning": 3951,
    "Ġlurked": 11291,
    "Ġacknowledgment": 16955,
    "Ġtimid": 6345,
    "iscuit": 10598,
    "Ġdepresses": 25796,
    "Ġmah": 15537,
    "Ġpours": 17910,
    "Ġmeddling": 24080,
    "Ġconsiderations": 9409,
    "explaining": 23138,
    "Ġpurring": 23473,
    "Ġwounded": 8658,
    "Ġeber": 18002,
    "street": 6495,
    "Ġunnatural": 7190,
    "raising": 21629,
    "Ġscrutin": 26013,
    "slipping": 25528,
    "Ġdeg": 3281,
    "ĠĠĠĠĠĠĠĠĠĠĠĠĠĠĠĠĠĠĠĠĠĠĠĠĠĠĠĠĠĠĠĠĠ": 12039,
    "rals": 21040,
    "dron": 17523,
    "Ġmichigan": 26424,
    "Ġvulgar": 13600,
    "bular": 15310,
    "Ġpirate": 14994,
    "Ġcheering": 11133,
    "Ġnich": 21517,
    "Ġapprehension": 7113,
    "Ġcogn": 11003,
    "years": 6883,
    "Ġalph": 9694,
    "gar": 5614,
    "Ġspring": 4121,
    "inery": 17731,
    "Ġneskyeuna": 26457,
    "Ġlosing": 10916,
    "Ġuttermost": 19485,
    "intention": 10367,
    "Ġpleas": 1903,
    "Ġmonday": 6127,
    "Ġshaken": 10264,
    "Ġgaz": 4044,
    "Ġyoungster": 23176,
    "Ġinno": 1399,
    "Ġahead": 6662,
    "Ġperv": 15987,
    "Ġresc": 4508,
    "Ġfishermen": 5971,
    "nursery": 26397,
    "hark": 15362,
    "Ġstro": 4596,
    "Ġengland": 3857,
    "Ġrabbit": 4287,
    "Ġhurriedly": 11250,
    "Ġheinous": 18037,
    "Ġwritten": 4168,
    "Ġheels": 10850,
    "ocity": 8278,
    "Ġexternal": 8365,
    "succeeded": 15172,
    "Ġoccasioned": 13221,
    "Ć": 199,
    "transform": 8050,
    "Ġscuff": 15939,
    "yset": 21143,
    "Ġsnatches": 16541,
    "Ġug": 8141,
    "Ġsparing": 22126,
    "Ġaristocratic": 20510,
    "Ġripple": 25504,
    "removing": 17762,
    "Ġveneration": 25043,
    "Ġcoach": 6867,
    "Ġinstead": 2791,
    "Ġnaked": 8127,
    "Ġerected": 12229,
    "dinner": 11406,
    "Ġorganically": 3011,
    "Ġbier": 22757,
    "Ġsemicircular": 26067,
    "cible": 20804,
    "tting": 17678,
    "patient": 25342,
    "Ġunrestrained": 25554,
    "Ġarchipelagoes": 14345,
    "Ġener": 10896,
    "Ġheal": 21678,
    "ik": 17569,
    "Ġundiscovered": 18248,
    "fell": 6953,
    "Ġunrecorded": 17465,
    "Ġoutbreak": 22314,
    "Ġcus": 21340,
    "Ġbravest": 23837,
    "worship": 19384,
    "lat": 9604,
    "Ġvictor": 5125,
    "Ġconnivance": 25225,
    "Ġsocially": 22084,
    "Ġcommercial": 22671,
    "falgar": 26129,
    "Ġunfeeling": 14115,
    "Ġmer": 2929,
    "tomorrow": 25913,
    "Ġinquir": 4241,
    "tha": 15820,
    "landed": 18954,
    "hers": 7635,
    "Ġburgl": 13168,
    "ored": 3896,
    "Ġasylum": 13663,
    "tiest": 21079,
    "Ġoblivious": 26031,
    "Ġawhile": 13827,
    "================================": 5671,
    "unbe": 21869,
    "structure": 2307,
    "Ġinevitable": 15164,
    "vul": 15446,
    "Ġlip": 6532,
    "Ġsparkling": 11356,
    "Ġhang": 9187,
    "Ġjoist": 19230,
    "Ġinstance": 2547,
    "Ġmodesty": 12816,
    "Ġdrow": 21424,
    "Ġfortune": 4239,
    "desp": 6076,
    "fainting": 20470,
    "quar": 7615,
    "Ġsociety": 3978,
    "Ġfrog": 23917,
    "Ġreneg": 21672,
    "Ġdetails": 6565,
    "Ġcrossed": 6069,
    "handle": 11190,
    "Ġship": 1090,
    "Ġalterations": 19869,
    "Ġoakshott": 12225,
    "Ġnewfound": 22929,
    "Ġforbe": 8457,
    "Ġcash": 9652,
    "adders": 24398,
    "Ġcategorization": 12132,
    "Ġing": 5283,
    "cannib": 11898,
    "Ġdistance": 3484,
    "omon": 10206,
    "Ġbundles": 26174,
    "eyeing": 14943,
    "Ġpills": 21464,
    "Ġyouthful": 16721,
    "Ġinsignificance": 20455,
    "Ġpos": 1011,
    "Ġsomebody": 7913,
    "foolish": 12343,
    "Ġprinted": 11946,
    "Ġdevelopment": 7058,
    "ĕ": 214,
    "Ġmississippi": 20723,
    "ulgent": 18148,
    "Ġsteamer": 17186,
    "Ġsucceeding": 16759,
    "Ġhydraul": 9513,
    "Ġmig": 13853,
    "Ġmultitud": 18745,
    "chel": 11207,
    "Ġnaval": 16897,
    "chants": 21689,
    "ĠĠĠĠĠĠĠĠĠĠĠĠĠĠĠĠĠĠĠĠĠĠĠĠĠĠĠĠĠĠĠĠĠĠĠ": 19257,
    "story": 9212,
    "eldom": 4412,
    "Ġsubl": 7235,
    "Ġamendment": 26023,
    "Ġthoroughfares": 26094,
    "Ġrecess": 10847,
    "Ġstrangest": 14792,
    "Ġface": 1720,
    "Ġshone": 7404,
    "Ġsymmet": 11744,
    "Ġspain": 15877,
    "Ġchest": 5185,
    "ow": 325,
    "duty": 20237,
    "Ġsolution": 9804,
    "Ġascent": 19616,
    "Ġabandon": 12253,
    "Ġfors": 21768,
    "Ġunobserved": 18245,
    "deficient": 23116,
    "Ġmariners": 6068,
    "Ġunaffected": 14118,
    "Ġwoof": 14718,
    "Ġengineer": 11970,
    "Ġincred": 5646,
    "eridge": 15523,
    "Ġfanning": 23385,
    "Ġrustling": 24714,
    "linked": 17591,
    "Ġsphy": 18310,
    "Ġfri": 17877,
    "clock": 3933,
    "educ": 10828,
    "Ġhire": 21482,
    "placed": 7881,
    "Ġobey": 9518,
    "Ġevolved": 9889,
    "Ġirons": 7696,
    "Ġbowels": 9429,
    "Ġhastily": 5763,
    "anywhere": 14680,
    "Ġconducted": 10502,
    "pumps": 21025,
    "Ġsunrise": 9372,
    "suspect": 9539,
    "skull": 24486,
    "Ġpuffs": 14973,
    "profess": 10634,
    "Ġorder": 1687,
    "supposed": 13310,
    "herds": 22200,
    "Ġumb": 11644,
    "Ġslammed": 20445,
    "Ġpursuits": 12072,
    "Ġfriendly": 9819,
    "Ġdexterity": 25294,
    "Ġrecollected": 8311,
    "Ġaccomplishment": 19663,
    "Ġengrossed": 12990,
    "Ġperceptibly": 25820,
    "Ġcounters": 24137,
    "Ġprojecting": 9984,
    "ollion": 19713,
    "Ġinexorable": 12251,
    "securing": 19811,
    "condescended": 26247,
    "nurse": 15205,
    "ni": 1557,
    "Ġaccomplished": 7104,
    "Ġthank": 3791,
    "Ġtart": 12523,
    "Ġsect": 17749,
    "treat": 12509,
    "erringly": 16209,
    "Ġrespite": 13149,
    "Ġengraving": 17078,
    "Ġtrag": 13032,
    "Ġpunch": 9954,
    "Ġpouch": 21467,
    "bu": 5132,
    "Ġbreathlessly": 24278,
    "Ġrelations": 5852,
    "ta": 13786,
    "Ġdiddled": 22664,
    "alleled": 14426,
    "Ġmoods": 14948,
    "Ġshy": 10903,
    "Ġmalay": 24389,
    "permitted": 18341,
    "Ġearthly": 7990,
    "Ġgazed": 6478,
    "Ġsuffers": 2972,
    "Ġperman": 10964,
    "Ġcour": 1765,
    "Ġsurrender": 16448,
    "Ġexile": 12712,
    "Ġfishery": 4175,
    "Ġconsc": 4273,
    "emic": 18183,
    "Ġquadru": 16000,
    "Ġchildish": 13132,
    "Ġsling": 21218,
    "recol": 10150,
    "akin": 11764,
    "limin": 8384,
    "unders": 13305,
    "Ġapproximation": 2343,
    "eric": 3471,
    "brother": 7091,
    "ends": 6039,
    "problems": 11434,
    "Ġdetermine": 3244,
    "Ġguarded": 9825,
    "Ġhoky": 17925,
    "Ġefficiently": 3970,
    "ribed": 7693,
    "ilst": 8144,
    "Ġenraptured": 26498,
    "Ġbowditch": 19321,
    "call": 8723,
    "Ġforbearance": 12324,
    "Ġsleeps": 10446,
    "hent": 12529,
    "Ġchoke": 22246,
    "herent": 2531,
    "chor": 6146,
    "Ġern": 8397,
    "Ġhast": 3150,
    "ì": 173,
    "Ġmummy": 25767,
    "Ġhairy": 23862,
    "Ġbery": 13895,
    "deployment": 26525,
    "Ġenabled": 9295,
    "Ġpathetic": 19029,
    "Ġunexpected": 6841,
    "Ġhelter": 24023,
    "ermaid": 14295,
    "Ġhearses": 20057,
    "belonged": 25596,
    "ches": 2152,
    "ber": 883,
    "Ġbriskly": 25311,
    "tranqu": 14703,
    "Ġsuppose": 2866,
    "harpoon": 9490,
    "Ġdeposition": 18605,
    "fallen": 19657,
    "Ġundue": 25992,
    "Ġmen": 1436,
    "andromeda": 21865,
    "neighb": 16020,
    "Ġhowled": 12851,
    "Ġjura": 14190,
    "description": 11093,
    "Ġrecords": 12191,
    "Ġcomposedly": 25183,
    "Ġiteratively": 3055,
    "Ġlocations": 12409,
    "Ġceaseless": 13483,
    "Ġdumplings": 15187,
    "ari": 673,
    "Ġtaken": 2530,
    "lads": 20953,
    "vices": 21114,
    "Ġprolonged": 8359,
    "Ġconverted": 16109,
    "Ġleaving": 3906,
    "pow": 10717,
    "dog": 10692,
    "twice": 14618,
    "Ġhappening": 14380,
    "Ġwork": 1291,
    "Ġrecording": 24432,
    "Ġproviding": 1359,
    "Ġdiv": 3731,
    "Ġzealand": 12346,
    "atics": 15520,
    "hor": 2572,
    "Ġprophet": 7681,
    "icher": 9202,
    "Ġnupt": 13940,
    "Ġledge": 19398,
    "Ġclattered": 22349,
    "Ġcomforted": 19388,
    "Ġmerc": 9425,
    "Ġfireside": 23527,
    "Ġscraggy": 24577,
    "Ġmun": 12557,
    "Ġaccur": 3691,
    "Ġdenial": 13209,
    "Ġgirdled": 19156,
    "mmed": 7915,
    "Ġpatch": 4180,
    "Ġreflected": 2909,
    "Ġphrenologically": 20391,
    "belled": 24034,
    "embraced": 25805,
    "certainly": 5339,
    "Ġwho": 613,
    "Ġundivided": 24118,
    "iant": 5427,
    "Ġnevertheless": 5040,
    "Ġextend": 18680,
    "Ġentries": 22744,
    "encing": 21280,
    "reme": 2428,
    "iem": 20915,
    "mediate": 16511,
    "Ġdearly": 10401,
    "superior": 9524,
    "mystical": 25317,
    "Ġsulkily": 25881,
    "Ġporthole": 24397,
    "Ġbedfellow": 16435,
    "moved": 9784,
    "Ġimagine": 3924,
    "shortly": 12254,
    "Ġdolph": 12376,
    "Ġsuburban": 17343,
    "uits": 21102,
    "Ġuncles": 23428,
    "Ġtests": 8956,
    "Ġhosts": 19936,
    "Ġinstability": 3814,
    "Ġholds": 7976,
    "Ġaffidav": 18790,
    "tured": 13792,
    "Ġinscriptions": 20006,
    "asets": 2313,
    "Ġarguments": 8037,
    "Ġcurving": 16232,
    "Ġagonies": 14249,
    "Ġev": 4828,
    "possesses": 24616,
    "Ġ15": 9323,
    "otle": 21794,
    "rail": 10204,
    "roy": 7854,
    "Ġbordered": 24561,
    "ority": 8418,
    "Ġspecially": 11993,
    "sledge": 21055,
    "Ġalready": 2714,
    "Ġstandpoint": 23275,
    "Ġmaxim": 3082,
    "aloud": 17939,
    "Ġclimes": 12837,
    "mistress": 14902,
    "pr": 3173,
    "ists": 4002,
    "Ġblame": 6446,
    "sacrifice": 13487,
    "Ġresp": 2497,
    "Ġtool": 21508,
    "erting": 17775,
    "rippling": 24713,
    "Ġdirecting": 16298,
    "upset": 23014,
    "Ġcounterbalance": 24721,
    "Ġboughs": 20486,
    "idents": 6150,
    "Ġtwelvemonth": 12173,
    "Ġpresentiment": 18988,
    "ssing": 3810,
    "Ġexclam": 6757,
    "Ġparamount": 15875,
    "Ġpile": 8424,
    "(": 12,
    "Ġnest": 10188,
    "Ġpopulous": 16824,
    "reach": 17755,
    "readiness": 19360,
    "Ġslapped": 23168,
    ").âĢĿ": 20739,
    "Ġcraggy": 23525,
    "Ġfuller": 11156,
    "Ġsparks": 22129,
    "Ġum": 10211,
    "incing": 15483,
    "does": 6194,
    "esteemed": 26008,
    "Ġyellow": 5300,
    "ĠĠĠĠĠĠĠĠĠĠĠĠĠĠĠĠĠĠĠĠĠĠĠĠĠĠĠĠĠĠĠĠĠĠĠĠ": 23664,
    "displayed": 20734,
    "Ġfrighted": 24027,
    "Ġobsole": 22697,
    "Ġedinburgh": 16434,
    "utored": 15659,
    "Ġwestward": 24387,
    "Ġchis": 11747,
    "ause": 1312,
    "elder": 21569,
    "Ġtroop": 24896,
    "slept": 17167,
    "Ġindel": 12997,
    "Ġbanks": 6814,
    "events": 12313,
    "bourine": 9395,
    "Ġamusement": 8056,
    "idual": 1562,
    "teous": 16171,
    "Ġcollecting": 12282,
    "Ġequinoctial": 20530,
    "Ġthickening": 24022,
    "Ġchivalrous": 20512,
    "Ġafforded": 8029,
    "Ġdiabolical": 20340,
    "Ġpropag": 16345,
    "prick": 19340,
    "Ġcarving": 14440,
    "Ġingenuity": 17161,
    "glimmer": 26320,
    "Ġplied": 22598,
    "Ġstory": 2902,
    "itself": 7835,
    "Ġ1869": 19381,
    "Ġtattooing": 15025,
    "Ġinquis": 19302,
    "commencement": 26346,
    "illings": 14140,
    "fam": 5989,
    "Ġjing": 15946,
    "room": 2183,
    "Ġcapital": 7980,
    "rated": 6227,
    "Ġtor": 8106,
    "Ġcables": 15554,
    "Ġsymptom": 13478,
    "breathing": 25335,
    "Ġepid": 18003,
    "Ġgra": 416,
    "Ġswallowed": 7944,
    "uce": 11535,
    "ĭ": 238,
    "warnings": 20349,
    "sideways": 14569,
    "Ġshuttle": 12122,
    "vitality": 20476,
    "Ġoverbearing": 12840,
    "Ġderives": 16306,
    "wondrous": 12334,
    "Ġpigs": 19745,
    "dread": 8729,
    "any": 3339,
    "harpooneer": 8689,
    "Ġelimin": 16105,
    "Ġbeam": 2880,
    "Ġgrammatical": 13534,
    "mered": 8218,
    "Ġmelt": 21315,
    "ney": 2496,
    "fright": 9595,
    "Ġgovernor": 16488,
    "Ġdisease": 14255,
    "Ġmorris": 18848,
    "Ġangles": 23586,
    "kicked": 20941,
    "Ġcorpulence": 24504,
    "Ġmatters": 4974,
    "Ġshrine": 19529,
    "tremble": 17139,
    "Ã¦st": 24172,
    "Ġinches": 5845,
    "lestrade": 9656,
    "loops": 12878,
    "Ġimpud": 18444,
    "ust": 496,
    "houn": 20891,
    "Ġnumber": 1981,
    "disp": 7977,
    "Ġderick": 9364,
    "Ġelated": 18633,
    "acey": 7649,
    "ĠĠĠĠĠ": 3526,
    "affa": 23774,
    "Ġdelirium": 10405,
    "ease": 12453,
    "Ġsummoning": 23871,
    "Ġsystem": 573,
    "barbaric": 26357,
    "igh": 2029,
    "Ġreduced": 11920,
    "ouching": 13174,
    "Ġdispersed": 16595,
    "Ġpunctual": 17135,
    "Ġbattered": 17861,
    "Ġterrier": 23394,
    "Ġcastles": 16637,
    "Ġappearances": 10451,
    "Ġdoomed": 11342,
    "customary": 25894,
    "Ġpursu": 3239,
    "isf": 2438,
    "Ġopenshaw": 7955,
    "albatross": 15626,
    "upright": 23013,
    "ct": 309,
    "Ġbenefactor": 14695,
    "compass": 9459,
    "oms": 4594,
    "Ġstranger": 3486,
    "Ġneglecting": 25006,
    "rr": 17648,
    "pane": 10120,
    "Ġare": 527,
    "Ġdejected": 20302,
    "Ġfavours": 23276,
    "Ġajar": 21200,
    "Ġhe": 318,
    "S": 55,
    "mbly": 9794,
    "Ġoutwardly": 24999,
    "Ġglad": 3325,
    "hello": 13358,
    "conduct": 11794,
    "Ġdaylight": 10351,
    "Ġcottages": 14724,
    "Ġevermore": 18810,
    "Ġrooted": 13164,
    "scept": 21051,
    "ocean": 12397,
    "Ġpsalmody": 20582,
    "Ġtopmost": 14585,
    "Ġexpenses": 11831,
    "Ġrefresh": 10346,
    "Ġpositions": 2057,
    "Ġcocoan": 20314,
    "ilies": 18055,
    "Ġafrican": 20135,
    "Ġwhirling": 12244,
    "fin": 5209,
    "camp": 15327,
    "Ġfordham": 21773,
    "Ġpiny": 21468,
    "Ġunquestion": 18244,
    "Ġcoer": 22579,
    "Ġ31": 12126,
    "Ġbeth": 9657,
    "Ĵ": 245,
    "Ġmoss": 9283,
    "ane": 1179,
    "hounds": 20905,
    "Ġexhibit": 14953,
    "Ġirreduc": 5491,
    "perils": 22180,
    "Ġloving": 8176,
    "cer": 6642,
    "ational": 5716,
    "Ġharrow": 17924,
    "osure": 5306,
    "Ġpoisonous": 24886,
    "Ġglimmering": 25240,
    "Ġsabbath": 17252,
    "Ġdamning": 19138,
    "transferred": 24509,
    "Ġupp": 13989,
    "Ġsav": 3359,
    "dimens": 2320,
    "rable": 11631,
    "bert": 4663,
    "blu": 12436,
    "Ġvacuous": 24342,
    "Ġreced": 15688,
    "Ġconstitution": 20106,
    "Ġregained": 18591,
    "stopping": 19347,
    "Ġwidows": 24234,
    "Ġidentified": 19149,
    "beds": 16584,
    "Ġsteals": 23082,
    "Ġhonour": 3923,
    "Ġbad": 3989,
    "Ġunerring": 15844,
    "Ġhandling": 8912,
    "Ġcopies": 24934,
    "Ġswashing": 23053,
    "Ġviolent": 5117,
    "âĢĶâĢĶâĢĿ": 15936,
    "calculating": 25689,
    "Ġlouisiana": 25075,
    "elaborate": 21573,
    "Ġreign": 13982,
    "Ġhesitated": 10001,
    "Ġacknowledged": 7534,
    "Ġauthentic": 20533,
    "Ġskeletons": 16789,
    "Ġbarrier": 16566,
    "Ġbunger": 9995,
    "reason": 4413,
    "Ġmonitors": 3156,
    "bolt": 25135,
    "pike": 11514,
    "sample": 12502,
    "Ġslewed": 23380,
    "ozy": 17620,
    "Ġconfidence": 6590,
    "frantic": 24281,
    "unw": 14054,
    "Ġbambooz": 26118,
    "Ġconcepts": 4552,
    "Ġswift": 3668,
    "Ġcaul": 10787,
    "Ġhealth": 3905,
    "Ġguardsmen": 20628,
    "Ġsquall": 7043,
    "Ġgent": 7383,
    "resp": 13836,
    "Ġmaybe": 12943,
    "Ġamusements": 16911,
    "Ġdecanting": 22440,
    "Ġimmeas": 18329,
    "Ġcollateral": 20069,
    "Ġfacet": 15581,
    "Ġcowards": 12569,
    "Ġburnt": 9927,
    "Ġling": 7377,
    "Ġwaterproof": 19087,
    "Ġguessed": 11282,
    "moon": 10335,
    "leaped": 17842,
    "Ġunsettled": 14119,
    "Ġaxe": 15061,
    "Ġglen": 18851,
    "Ġcuring": 21341,
    "Ġflickering": 23011,
    "Ġoriental": 9096,
    "hed": 672,
    "Ġclasp": 9743,
    "Ġaccused": 8507,
    "am": 368,
    "Ġconflag": 20333,
    "Ġpower": 1226,
    "Ġaccusation": 22388,
    "Ġvillainous": 25131,
    "Ġgrinned": 16855,
    "saving": 21057,
    "apes": 9740,
    "Ġinestim": 15620,
    "Ġmoney": 3419,
    "Ġwr": 1547,
    "Ġcheese": 9375,
    "Ġtrail": 16279,
    "Ġringbolts": 24193,
    "Ġasserted": 16947,
    "iless": 10281,
    "americ": 8157,
    "Ġresolving": 9418,
    "Ġtaste": 5524,
    "explanations": 25234,
    "Ġdark": 2115,
    "lets": 7837,
    "alluring": 18351,
    "Ġreveal": 11199,
    "batt": 20776,
    "Ġwrote": 5011,
    "Ġtrappings": 23080,
    "Ġstaggered": 9538,
    "Ġrebell": 21666,
    "wr": 3026,
    "Ġspeculations": 22995,
    "Ġjoky": 18405,
    "Ġenticing": 22745,
    "Ġvia": 2387,
    "Ġclutching": 24950,
    "Ġchatting": 24746,
    "indignation": 18437,
    "Ġsurvey": 13589,
    "Ġunfor": 15836,
    "Ġmiserably": 12941,
    "folly": 20860,
    "aculate": 16080,
    "Ġoverjoy": 15968,
    "Ġfog": 9661,
    "pale": 13769,
    "Ġleak": 2164,
    "delivered": 24098,
    "fastened": 19323,
    "Ġcompar": 4771,
    "Ġraved": 22648,
    "antucket": 2646,
    "aution": 9385,
    "Ġfrankenstein": 7095,
    "Ġessays": 19742,
    "Ġblanched": 26281,
    "Ġ130": 24780,
    "Ġsoc": 3525,
    "Ġspeeding": 23561,
    "ulent": 21859,
    "Ġpale": 4533,
    "Ġhighland": 18712,
    "Ġperceive": 6699,
    "azed": 9398,
    "blows": 17163,
    "Ġlengthen": 15650,
    "nose": 17609,
    "Ľ": 254,
    "Ġpush": 9184,
    "Ġpierce": 17034,
    "invisible": 17738,
    "cell": 10685,
    "asher": 15642,
    "Ġenv": 2737,
    "Ġtwenty": 3949,
    "Ġvii": 13103,
    "Ġcontinue": 5398,
    "australian": 20559,
    "total": 17248,
    "Ġsadness": 13281,
    "springs": 24910,
    "persuasion": 20041,
    "illes": 12690,
    "during": 6787,
    "Ġwane": 21286,
    "reproach": 15183,
    "Ġdismay": 11806,
    "attacked": 23120,
    "inferior": 12390,
    "Ġchooses": 13341,
    "Ġdusky": 13544,
    "winter": 10741,
    "requent": 3649,
    "lested": 14880,
    "Ġineff": 12630,
    "ze": 1320,
    "Ġdestroyed": 5271,
    "Ġsplitting": 4382,
    "Ġmart": 10779,
    "Ġbeckoned": 25792,
    "Ġjune": 10288,
    "Ġendow": 23140,
    "Ġscrape": 14915,
    "Ġsong": 5903,
    "Ġclung": 10958,
    "Ġsymmetry": 20363,
    "Ġassociated": 12245,
    "Ġkidnapping": 26355,
    "threshold": 21984,
    "cular": 15325,
    "Ġpaddle": 20056,
    "Ġbubbles": 11398,
    "Ġlife": 1351,
    "annica": 24559,
    "Ġforests": 13588,
    "Ġcommitting": 22670,
    "dwelt": 23868,
    "Ġknown": 1648,
    "Ġwounds": 17789,
    "Ġpreliminary": 10056,
    "Ġscores": 2716,
    "promising": 24725,
    "ows": 1916,
    "iar": 2383,
    "Ġassaults": 15153,
    "trip": 21089,
    "Ġauthors": 10417,
    "amed": 4448,
    "arrangement": 17412,
    "Ġjurors": 17341,
    "Ġnaturalists": 10364,
    "Ġbarbar": 6935,
    "Ġupbraid": 18317,
    "posterity": 25488,
    "composure": 24032,
    "Ġcylinders": 25942,
    "Ġaccidentally": 9504,
    "Ġlivid": 14986,
    "Ġstretched": 5920,
    "Ġquakers": 22413,
    "inent": 9628,
    "scra": 13015,
    "Ġstudents": 23234,
    "ps": 4575,
    "concerning": 9064,
    "writing": 7721,
    "Ġadmeasurements": 26224,
    "generative": 4328,
    "Ġmississ": 18836,
    "cific": 10085,
    "aver": 6785,
    "sided": 17662,
    "ouder": 17899,
    "Ġhates": 21483,
    "Ġwait": 4910,
    "please": 8177,
    "Ġdisgust": 6705,
    "gration": 9121,
    "Ġvanquished": 22875,
    "mal": 6794,
    "impressed": 12687,
    "ard": 465,
    "somers": 19365,
    "subsided": 25829,
    "Ġadventures": 7748,
    "Ġresponsiveness": 2898,
    "roads": 17956,
    "Ġfame": 21403,
    "joined": 13269,
    "peasant": 23110,
    "performances": 26005,
    "Ġop": 2604,
    "Ġperil": 5556,
    "Ġobstin": 14950,
    "Ġappear": 2488,
    "Ġhon": 2539,
    "cause": 7796,
    "Ġwag": 10775,
    "ream": 2711,
    "Ġuseless": 7034,
    "Ġnasty": 17440,
    "historian": 25734,
    "aly": 1123,
    "Ġexplain": 545,
    "content": 11197,
    "etition": 7382,
    "Ġgazes": 24091,
    "Ġscant": 22263,
    "ineff": 21977,
    "magistrate": 19861,
    "Ġmonosyllable": 20724,
    "Ġrecurring": 23230,
    "cater": 20814,
    "Ġoppress": 13167,
    "Ġpreposterous": 13666,
    "Ġsyn": 15909,
    "Ġstrong": 1788,
    "Ġinspect": 5964,
    "Ġwool": 19430,
    "rely": 6123,
    "Ġdelineations": 26057,
    "Ġbugs": 13644,
    "ghost": 20885,
    "Ġabsorb": 25111,
    "Ġenter": 4030,
    "Ġboneless": 19603,
    "Ġexecution": 6927,
    "Ġclamped": 18425,
    "Ġsunday": 7270,
    "Ġlaudanum": 20688,
    "Ġunless": 4089,
    "Ġgovernesses": 25127,
    "Ġhunted": 7453,
    "Ġpia": 21462,
    "Ġtransaction": 22436,
    "danced": 20826,
    "Ġobligations": 12087,
    "Ġcongreg": 8462,
    "assuming": 22307,
    "Ġembell": 14410,
    "thread": 15823,
    "ignity": 4373,
    "Ġconstru": 19068,
    "Ġfemales": 14934,
    "Ġconfound": 23299,
    "Ġfortitude": 9884,
    "Ġknives": 14834,
    "Ġ119": 24439,
    "Ġ127": 24470,
    "rippa": 11341,
    "Ġfashions": 17884,
    "Ġrainy": 24339,
    "Ġgracechurch": 12194,
    "..": 5783,
    "Ġrespond": 11176,
    "Ġsqueaking": 26273,
    "Ġsummary": 19400,
    "Ġfashion": 4296,
    "Ġsequ": 984,
    "Ġhenceforth": 19645,
    "Ġvainly": 9923,
    "Ġthyself": 6602,
    "felt": 5889,
    "scy": 21053,
    "iloquent": 21722,
    "suff": 4961,
    "ugn": 9376,
    "Ġendeavour": 4678,
    "Ġreigning": 15697,
    "arboard": 7266,
    "Ġmast": 2901,
    "Ġencode": 4364,
    "Ġcontextually": 11955,
    "ward": 705,
    "Ġbloodshot": 23797,
    "uments": 5551,
    "Ġargemone": 24272,
    "mud": 20969,
    "warmest": 25026,
    "Ġagony": 5388,
    "Ġsorts": 6887,
    "Ġmusty": 22677,
    "resum": 17759,
    "Ġjudgment": 5765,
    "Ġcircular": 13105,
    "Ġdictate": 20149,
    "Ġfinal": 5400,
    "Ġfeet": 2263,
    "Ġfrantically": 23256,
    "Ġoutrageous": 20608,
    "Ġ99": 10745,
    "Ġune": 4599,
    "tales": 17684,
    "Ġpeevish": 26555,
    "Ġtwinkled": 14309,
    "Ġtall": 4039,
    "miraculous": 26394,
    "Ġarguing": 25470,
    "Ġprofessions": 11231,
    "Ġassid": 18944,
    "Ġhides": 16261,
    "whilst": 18370,
    "else": 6533,
    "separation": 25226,
    "Ġribbed": 16802,
    "Ġdepartment": 24239,
    "ishness": 22339,
    "Ġcompression": 18146,
    "Ġmysteriously": 24601,
    "swaying": 25909,
    "Ġfloats": 9412,
    "ough": 470,
    "Ġelix": 22642,
    "lutions": 20948,
    "Ġugl": 12678,
    "trained": 4238,
    "Ġscandalous": 24877,
    "Ġfurlongs": 20721,
    "Ġnervously": 19182,
    "Ġvanished": 6874,
    "Ġbeheading": 21751,
    "philosophers": 25252,
    "owners": 16084,
    "Ġdisgraceful": 15017,
    "harb": 9123,
    "touched": 15437,
    "Ġlig": 21545,
    "Ġconceal": 5974,
    "works": 6587,
    "aggoo": 5130,
    "Ġcompos": 22567,
    "Ġsimilar": 4917,
    "Ġspires": 11727,
    "Ġtreacherously": 25129,
    "Ġoverlooking": 22357,
    "inions": 8402,
    "tempered": 13441,
    "quietude": 24654,
    "ena": 11567,
    "nearly": 8681,
    "Ġtore": 6530,
    "Ġdood": 22239,
    "Ġmonica": 22982,
    "Ġcastor": 19424,
    "Ġfavourite": 5270,
    "ribute": 7227,
    "Ġendeavored": 19301,
    "Ġembeddings": 2172,
    "Ġcherub": 23282,
    "plentiful": 21959,
    "Ġsolitary": 5854,
    "remorse": 14464,
    "Ġrubber": 22784,
    "Ġinsufficient": 9672,
    "wheels": 14378,
    "Ġbrink": 18769,
    "Ġeasiest": 23533,
    "Ġmeanest": 12906,
    "Ġgans": 5821,
    "Ġexquisite": 12377,
    "er": 269,
    "Ġletter": 2201,
    "startled": 24940,
    "Ġsuch": 797,
    "des": 1569,
    "vit": 13798,
    "Ġunseen": 3523,
    "Ġopal": 23624,
    "Ġconcentrate": 25062,
    "prodigious": 17464,
    "Ġincidentally": 16952,
    "verest": 13988,
    "ĠĠĠĠĠĠĠĠĠĠĠĠĠĠĠĠĠĠĠĠĠĠĠĠĠĠĠĠĠĠĠĠĠĠĠĠĠ": 14612,
    "Ġlift": 8810,
    "creator": 26379,
    "Ġpolluted": 25592,
    "acher": 6868,
    "onies": 6806,
    "Ġprofanely": 23567,
    "Ġexceedingly": 4615,
    "Ġtrespass": 23598,
    "actorily": 25575,
    "Ġqu": 604,
    "Ġplain": 2818,
    "Ĩ": 233,
    "Ġquito": 24406,
    "acca": 23595,
    "Ġcommerce": 11015,
    "Ġabrupt": 9737,
    "Ġturnkeys": 23027,
    "apply": 18758,
    "ishe": 13888,
    "!âĢĻ": 3333,
    "ugal": 19018,
    "weeks": 14313,
    "apering": 8041,
    "Ġriggers": 24153,
    "mpus": 13754,
    "Ġjets": 10287,
    "Ġregularization": 1180,
    "athom": 12934,
    "tree": 11533,
    "gazing": 12467,
    "Ġra": 812,
    "Ġconcert": 11963,
    "Ġmilitary": 11258,
    "Ġ4": 3987,
    "nar": 12489,
    "Ġplainpal": 19276,
    "itiously": 13868,
    "enhall": 13847,
    "chairs": 21690,
    "sar": 12500,
    "Ġsuav": 22078,
    "gazed": 15358,
    "Ġwinc": 9642,
    "russian": 22176,
    "paralleled": 14520,
    "Ġdisguise": 10045,
    "Ġpoison": 7219,
    "overfitting": 13096,
    "gentlemen": 9503,
    "Ġdeclining": 23960,
    "Ġcordage": 19676,
    "Ġinsure": 13175,
    "Ġneither": 3686,
    "Ġhurst": 5581,
    "Ġhal": 1360,
    "Ġlandlessness": 23375,
    "Ġtorrid": 25031,
    "inhabited": 13616,
    "quee": 4130,
    "Ġretirement": 25378,
    "Ġnar": 7375,
    "urpation": 16299,
    "Ġende": 21929,
    "Ġdisastrous": 16057,
    "ll": 1140,
    "erc": 5905,
    "supplemental": 25873,
    "holland": 24039,
    "doubtful": 24790,
    "sus": 6228,
    "Ġpatiently": 19916,
    "Ġblacksmith": 6595,
    "impud": 23757,
    "Ġbears": 6829,
    "sle": 9138,
    "Ġslavery": 16305,
    "aits": 20764,
    "Ġliquid": 22406,
    "riumph": 4919,
    "Ġmagnanimous": 17408,
    "steak": 14705,
    "ork": 415,
    "Ġcister": 13879,
    "Ġabaft": 22281,
    "lyph": 10852,
    "insurance": 18885,
    "Ġeu": 6390,
    "Ġgarments": 15190,
    "magn": 10610,
    "ra": 314,
    "Ġnorth": 4317,
    "Ġsiam": 13835,
    "Ġwatch": 2745,
    "Ġunsavory": 20705,
    "wit": 7818,
    "Ġcreativity": 2750,
    "Ġsleepless": 14580,
    "Ġdiscoverer": 26034,
    "sake": 13780,
    "Ġtranquilly": 12286,
    "bedroom": 14674,
    "Ġmysticetus": 24921,
    "Ġgul": 7860,
    "Ġadded": 2718,
    "heum": 17745,
    "henomenon": 13610,
    "Ġunsounded": 15846,
    "Ġdanger": 3519,
    "Ġpatience": 2777,
    "Ġpart": 859,
    "Ġproposed": 7460,
    "Ġbitten": 21387,
    "Ġgourmand": 26464,
    "sixteen": 24852,
    "Ġsoutherly": 23330,
    "Ġargued": 13625,
    "Ġdinner": 4243,
    "probable": 17019,
    "ish": 551,
    "ually": 2771,
    "Ġtrip": 16786,
    "Ġfocus": 4235,
    "Ġtortures": 14920,
    "Ġroutine": 13503,
    "Ġstoper": 14459,
    "acup": 14276,
    "Ġunremitting": 26216,
    "Ġsill": 10765,
    "Ġgrievances": 20646,
    "utral": 12659,
    "sure": 5522,
    "wand": 10738,
    "Ġscalding": 16311,
    "ette": 15655,
    "Ġindicates": 3192,
    "code": 15326,
    "ediction": 17943,
    "Ġencamp": 22798,
    "Ġencoding": 4775,
    "Ġconsciousness": 9947,
    "Ġabound": 8864,
    "Ġpolar": 9410,
    "Ġaccept": 4409,
    "Ġadroit": 25999,
    "Ġconsisted": 10419,
    "Ġcreaking": 14328,
    "Ġeveryone": 8917,
    "Ġhospitable": 17057,
    "represented": 20193,
    "Ġpurch": 6599,
    "Ġprophes": 16346,
    "Ġsplashing": 16547,
    "Ġpromontory": 11937,
    "Ġhomage": 12351,
    "Ġparm": 15874,
    "Ġlabors": 23325,
    "colnett": 19328,
    "Ġdiscomposure": 20376,
    "Ġburnwell": 13261,
    "Ġcaved": 21350,
    "Ġpostp": 12139,
    "Ġnovember": 11746,
    "Ġthrills": 24540,
    "mass": 12485,
    "Ġfrenchman": 11283,
    "Ġkinds": 14503,
    "obliv": 23096,
    "Ġfrig": 13075,
    "Ġblushed": 12995,
    "Ġjustify": 11072,
    "icilian": 20689,
    "ated": 726,
    "Ġconfidential": 9087,
    "Ġswart": 14431,
    "Ġmost": 1020,
    "Ġreleased": 2978,
    "Ġinsurg": 23678,
    "reen": 21229,
    "Ġupbra": 22151,
    "Ġsmokes": 22557,
    "Ġnoiselessly": 22861,
    "Ġminut": 2209,
    "Ġconsummate": 25310,
    "Ġpott": 21466,
    "ub": 1224,
    "heric": 15908,
    "Ġfilled": 4393,
    "ometer": 19324,
    "Ġcabs": 23639,
    "eur": 7545,
    "Ġarrange": 3119,
    "Ġskrimshander": 22797,
    "servants": 15035,
    "capting": 24037,
    "Ġworsted": 19992,
    "ribut": 818,
    "Ġlou": 6822,
    "lement": 10166,
    "Ġboxed": 24358,
    "Ġpreposter": 12818,
    "Ġlining": 13948,
    "profound": 16422,
    "degree": 12797,
    "estation": 15918,
    "beries": 22716,
    "pulling": 25146,
    "Ġpossession": 5588,
    "Ġoar": 6236,
    "Ġhistorically": 19375,
    "Ġpatent": 11958,
    "erde": 21266,
    "ici": 8440,
    "Ġlug": 15648,
    "Ġtruly": 4796,
    "Ġillum": 9399,
    "Ġdispositions": 13227,
    "Ġtrustworthy": 24104,
    "Ġfairest": 20460,
    "Ġsu": 431,
    "arance": 4698,
    "Ġindoors": 18834,
    "Ġeluded": 12917,
    "Ġinferior": 8366,
    "anatory": 21360,
    "Ġcircles": 7967,
    "Ġdespite": 19350,
    "Ġpoised": 22588,
    "supplement": 14793,
    "Ġterrors": 6918,
    "Ġsmoke": 4715,
    "kick": 20934,
    "Ġstraps": 19308,
    "unhappy": 10237,
    "Ġposterity": 17399,
    "Ġoutright": 18412,
    "Ġmant": 9647,
    "other": 1313,
    "vast": 10736,
    "Ġdirect": 1472,
    "gover": 10702,
    "Ġingrat": 16838,
    "ark": 848,
    "pressed": 6588,
    "Ġmoluccas": 25628,
    "Ġclosest": 16761,
    "Ġinsisted": 12042,
    "Ġhalls": 19523,
    "Ġglowing": 12278,
    "Ġepicurean": 20553,
    "Ġsavory": 23873,
    "Ġdirty": 9178,
    "Ġperturbed": 20437,
    "Ġcalculate": 13257,
    "'s": 2472,
    "Ġinjunctions": 24267,
    "Ġdeepest": 8213,
    "Ġbody": 2439,
    "dozen": 23373,
    "Ġhole": 6080,
    "Ġenvelope": 7319,
    "iosity": 2253,
    "ivided": 22075,
    "Ġstiff": 6992,
    "Ġchurches": 12823,
    "Ġintroduces": 3268,
    "Ġ180": 16604,
    "north": 14613,
    "Ġconventional": 25547,
    "hib": 15364,
    "Ġcountless": 16379,
    "Ġxviii": 23407,
    "lonely": 20955,
    "inations": 7567,
    "Ġmarched": 18870,
    "Ġascertained": 25296,
    "Ġsentimental": 24753,
    "osition": 1373,
    "chariot": 26477,
    "Ġconfided": 19035,
    "Ġhaste": 9003,
    "Ġpot": 2989,
    "Ġlatter": 3991,
    "done": 6500,
    "Ġunreasoning": 15842,
    "Ġang": 2514,
    "g": 75,
    "Ġcoal": 18594,
    "eks": 4728,
    "ĠĠĠĠĠĠĠĠĠĠĠĠĠĠĠĠĠĠĠĠĠĠĠĠĠĠĠĠĠĠĠĠĠĠĠĠĠĠĠĠĠĠĠĠĠĠĠĠĠĠĠ": 20036,
    "Ġstroll": 13347,
    "king": 3057,
    "solitary": 14504,
    "Ġadv": 1142,
    "Ġlabours": 8582,
    "classification": 4386,
    "Ġannesley": 19575,
    "Ġcoleman": 22585,
    "Ġsens": 1852,
    "Ġchival": 14178,
    "opotam": 22476,
    "strang": 11183,
    "Ġcompanionship": 14917,
    "Ġzero": 1201,
    "Ġkings": 7197,
    "Ġtendency": 11329,
    "Ġtrough": 15960,
    "necessarily": 19629,
    "Ġcathedral": 17410,
    "four": 6113,
    "tot": 10728,
    "Ġenem": 4708,
    "unnatural": 15769,
    "Ġhaunted": 10253,
    "Ġwillow": 18531,
    "flaming": 23966,
    "Ġstrings": 11826,
    "ened": 1387,
    "bo": 1691,
    "jacket": 12288,
    "false": 15351,
    "Ġwedge": 24067,
    "angle": 22100,
    "Ġcontains": 2794,
    "Ġaccumulated": 11927,
    "Ġdeficiencies": 26568,
    "Ġunfortunate": 5376,
    "enges": 13047,
    "Ġhears": 8139,
    "spe": 3560,
    "Ġdivide": 12106,
    "Ġheiress": 20695,
    "Ġanimated": 7702,
    "Ġinexpress": 12631,
    "Ġdefinitions": 22941,
    "Ġmarvels": 11083,
    "morn": 20974,
    "glory": 23849,
    "save": 13782,
    "Ġprompted": 23813,
    "Ġabsence": 4894,
    "autumn": 23339,
    "line": 1443,
    "Ġemphasis": 20534,
    "âĢľâĢĺ": 1483,
    "Ġabruptness": 25300,
    "Ġadvance": 5484,
    "Ġbunch": 11326,
    "Ġattendance": 12177,
    "Ġunrecord": 16619,
    "Ġlimited": 23542,
    "Ġaudits": 24769,
    "Ġredu": 1352,
    "Ġspine": 7407,
    "Ġatt": 776,
    "Ġunrivalled": 26517,
    "Ġscenari": 22270,
    "Ġconcerned": 5331,
    "Ġnumerical": 4244,
    "cked": 2764,
    "bowing": 24452,
    "gan": 2204,
    "Ġgrip": 11626,
    "wig": 17702,
    "Ġalco": 21779,
    "knows": 19170,
    "Ġhoist": 11972,
    "fain": 13712,
    "Ġoxford": 11371,
    "Ġverd": 6919,
    "Ġunearthly": 9036,
    "Ġcrabs": 19172,
    "ordinate": 12870,
    "oub": 1640,
    "Ġserves": 4669,
    "Ġquit": 5246,
    "Ġsnuffed": 15069,
    "edged": 15627,
    "Ġleaking": 21742,
    "ourselves": 9010,
    "income": 15484,
    "Ġorbs": 22089,
    "Ġgills": 17991,
    "icacy": 15654,
    "Ġnuptial": 25781,
    "Ġrepeating": 11213,
    "Ġbureau": 11589,
    "buttons": 22399,
    "Ġwing": 6665,
    "Ġrosings": 4608,
    "Ġcomplete": 4381,
    "Ġmultitude": 9324,
    "arer": 3968,
    "Ġantiquity": 15227,
    "Ġcourage": 4634,
    "Ġrope": 4338,
    "impossible": 8823,
    "Ġcemet": 20678,
    "Ġraven": 16112,
    "Ġobjects": 5577,
    "sford": 5998,
    "inities": 21183,
    "Ġpostscript": 14804,
    "tering": 3808,
    "uously": 7353,
    "Ġcreations": 18683,
    "Ġblankness": 24610,
    "Ġgarn": 13960,
    "Ġmuseum": 15268,
    "very": 500,
    "Ġexponential": 1058,
    "Ġal": 342,
    "Ġconvergence": 972,
    "tears": 11037,
    "Ġoctober": 17224,
    "Ġaugment": 8692,
    "Ġlikelihood": 16498,
    "Ġsnail": 19298,
    "Ġdiscernment": 15052,
    "Ġdissembling": 26253,
    "Ġconsoling": 19454,
    "Ġfoaming": 18991,
    "Ġglut": 18852,
    "Ġhoof": 23349,
    "Ġcoldness": 23756,
    "convenient": 12233,
    "Ġimplore": 24871,
    "Ġchains": 8251,
    "Ġgl": 1257,
    "Ġcleared": 6075,
    "Ġdocile": 19956,
    "Ġsacrilege": 26227,
    "Ġsalad": 19476,
    "ibilities": 13001,
    "Ġdetain": 14180,
    "Ġenig": 15796,
    "Ġneedless": 19228,
    "Ġridicule": 13507,
    "Ġprofounder": 23566,
    "Ġpebbles": 16126,
    "giving": 8739,
    "Ġobed": 8536,
    "prises": 23810,
    "Ġtraffic": 23081,
    "gement": 13725,
    "collected": 13208,
    "slanting": 24556,
    "Ġfrigid": 17350,
    "Ġspars": 3811,
    "Ġsummarization": 3646,
    "Ġugliness": 20424,
    "Ġactions": 6278,
    "Ġbuttons": 12777,
    "ged": 1514,
    "Ġbats": 13897,
    "Ġhumph": 22880,
    "Ġshillings": 15832,
    "Ġcompre": 4449,
    "Ġplaying": 6909,
    "baboon": 25516,
    "quakes": 21842,
    "ouement": 21446,
    "Ġancho": 15599,
    "interview": 19297,
    "appl": 9325,
    "iff": 3907,
    "Ġtransf": 22434,
    "efficient": 2870,
    "eight": 9591,
    "Ġsponge": 26002,
    "Ġvis": 1080,
    "youn": 5690,
    "widows": 25344,
    "movable": 14321,
    "Ġpaying": 9937,
    "rows": 6442,
    "colonel": 8285,
    "Ġinvoking": 19144,
    "Ġcolonnades": 26274,
    "Ġthreat": 5154,
    "Ġgreatness": 12938,
    "Ġsympathising": 24295,
    "Ġperforming": 7928,
    "spread": 8389,
    "Ġbegrim": 23012,
    "Ġcease": 7076,
    "hateful": 20907,
    "planks": 21957,
    "subs": 14296,
    "iliation": 10860,
    "ina": 21177,
    "ally": 532,
    "Ġensued": 11394,
    "Ġindul": 5856,
    "jonah": 11496,
    "Ġpresents": 8245,
    "Ġlocking": 18297,
    "Ġpeculiar": 3152,
    "Ġkentuck": 19889,
    "Ġpicturesque": 14891,
    "ithmetic": 18060,
    "Ġaltern": 7394,
    "Ġsuperficial": 23454,
    "Ġcha": 6853,
    "Ġmccarthys": 19660,
    "aying": 15746,
    "mits": 13753,
    "Ġgrop": 12660,
    "Ġclinch": 18424,
    "Ġblasphe": 17404,
    "Ġbetter": 1176,
    "Ġtalked": 4419,
    "Ġfeeds": 16431,
    "Ġretained": 7173,
    "objects": 13465,
    "Ġreturning": 5325,
    "Ġforemast": 12001,
    "Ġdiscourage": 3115,
    "wins": 21127,
    "owner": 18611,
    "covered": 11477,
    "Ġwatches": 11081,
    "practical": 17219,
    "Ġdeliverance": 15154,
    "Ġleadenhall": 16626,
    "Ġhistor": 3392,
    "anging": 3551,
    "particular": 5757,
    "Č": 205,
    "Ġdescrib": 2720,
    "knowing": 10437,
    "occupied": 12300,
    "render": 10290,
    "because": 4923,
    "blazing": 24129,
    "Ġschedules": 3388,
    "Ġeye": 2285,
    "paws": 21027,
    "heeded": 13831,
    "ĠĠĠĠĠĠĠĠĠĠĠĠĠĠĠĠĠĠĠĠĠĠĠĠ": 5321,
    "Ġwithal": 18112,
    "Ġaffectionate": 5584,
    "Ġpitiful": 13233,
    "Ġfondly": 19614,
    "Ġsemi": 11964,
    "Ġsyllable": 9727,
    "âĢĶâĢĿ": 3299,
    "rigged": 17060,
    "Ġwarehouse": 20414,
    "Ġpennies": 17268,
    "Ġcanaller": 25468,
    "Ġpunctilious": 26351,
    "Ġmockery": 12103,
    "Ġcanted": 17830,
    "Ġenvelopes": 24505,
    "Ġclank": 15964,
    "Ġsmelling": 16063,
    "Ġimped": 18442,
    "Ġwedding": 4858,
    "satisf": 5781,
    "Ġgrowing": 6750,
    "Ġdelightful": 6320,
    "sorting": 17002,
    "century": 20044,
    "Ġinsights": 13176,
    "Ġdisappo": 4507,
    "Ġacquitted": 18897,
    "emin": 8470,
    "Ġlanguid": 14208,
    "Ġteasing": 11883,
    "Ġdro": 2772,
    "Ġthen": 665,
    "Ġcomfort": 3441,
    "Ġbeards": 21748,
    "sorrows": 17317,
    "Ġgreyish": 24206,
    "du": 603,
    "Ġeggs": 12338,
    "cher": 5786,
    "Ġungod": 22017,
    "ing": 273,
    "Ġtucked": 12388,
    "Ġbeliever": 25844,
    "Ġthief": 11609,
    "Ġblown": 12081,
    "yra": 8103,
    "affairs": 14654,
    "Ġviolently": 6456,
    "Ġtea": 5041,
    "say": 3985,
    "Ġepoch": 26469,
    "Ġaforethought": 25428,
    "Ġexcluded": 16381,
    "clinging": 20820,
    "Ġanomalous": 25636,
    "Ġchairs": 12821,
    "track": 24312,
    "roused": 16650,
    "Ġappropriated": 23482,
    "Ġcloudless": 16666,
    "iply": 22354,
    "Ġmuch": 921,
    "Ġaspect": 3094,
    "Ġinvisible": 7327,
    "advantages": 11271,
    "Ġhalts": 3158,
    "Ġhindoo": 17173,
    "Ġgoverness": 8601,
    "Ġabominably": 20066,
    "says": 13294,
    "approaching": 15009,
    "Ġcontinuously": 23203,
    "aves": 2545,
    "£": 101,
    "hullo": 17568,
    "ov": 15398,
    "range": 3494,
    "remind": 23185,
    "doub": 6223,
    "ounts": 4652,
    "Ġtriumph": 5143,
    "such": 3080,
    "03": 20746,
    "Ġshelves": 14996,
    "magnifying": 25392,
    "Ġfacing": 10171,
    "Ġresources": 2936,
    "blast": 9587,
    "roqu": 21531,
    "Ġenergetic": 15194,
    "par": 1913,
    "rushing": 10017,
    "daylight": 19054,
    "Ġdodge": 19884,
    "ssed": 3734,
    "Ġregulate": 22578,
    "Ġrevellers": 21675,
    "Ġreservoir": 20649,
    "Ġhumped": 19767,
    "Ġexamining": 8006,
    "Ġports": 10818,
    "Ġmoody": 8201,
    "Ġoverpowered": 15285,
    "Ġexertions": 13405,
    "Ġinterment": 22572,
    "abhor": 12703,
    "Ġwarnings": 16879,
    "Ġst": 332,
    "Ġconsid": 1813,
    "discredit": 24248,
    "Ġenglishman": 11229,
    "digger": 24308,
    "Ġdestro": 3722,
    "Ġclasped": 17204,
    "sitting": 8387,
    "harpooned": 24284,
    "ery": 1270,
    "Ġfathoms": 9083,
    "humoured": 11236,
    "Ġballs": 9014,
    "Ġwarring": 16863,
    "Ġfind": 1459,
    "putting": 14097,
    "exc": 5169,
    "¸": 121,
    "ared": 770,
    "life": 4932,
    "Ġamused": 11796,
    "Ġtipt": 21171,
    "Ġlabrador": 23327,
    "Ġweapons": 10593,
    "Ġfront": 3453,
    "slack": 16892,
    "Ġatonement": 21939,
    "repro": 10770,
    "Ġmad": 2430,
    "Ġperceptible": 18450,
    "Ġchaps": 14175,
    "Ġhercules": 14125,
    "Ġunwe": 15835,
    "Ġshake": 6034,
    "imperturbable": 25789,
    "Ġbelieved": 4367,
    "loveliness": 26547,
    "Ġassociation": 24710,
    "ult": 722,
    "match": 15387,
    "uneasiness": 23684,
    "Ġhorror": 3773,
    "Ġpipes": 9848,
    "Ġmaze": 23827,
    "dances": 17519,
    "lac": 17587,
    "Ġsecluded": 11988,
    "acing": 2719,
    "Ġmenaced": 16290,
    "Ġwip": 13850,
    "contempl": 13186,
    "Ġrecumbent": 22739,
    "umphed": 23513,
    "Ġlxi": 21558,
    "Ġpatches": 4236,
    "Ġgri": 17986,
    "Ġlatent": 19653,
    "sy": 2824,
    "numer": 15397,
    "Ġagrees": 22513,
    "Ġpursued": 6328,
    "Ġunre": 3478,
    "flukes": 25205,
    "Ġnoisier": 4625,
    "Ġsubstantial": 14806,
    "Ġshoot": 11161,
    "Ġfad": 17875,
    "Ġperished": 11781,
    "Ġcuvier": 9165,
    "Ġshivered": 14105,
    "Ġsavages": 9911,
    "burgh": 6773,
    "Ġepistle": 24903,
    "Ġplants": 22599,
    "Ġwhal": 5454,
    "Ġholland": 10365,
    "lect": 1221,
    "Ġmetropolis": 17272,
    "Ġbale": 7839,
    "secut": 7868,
    "Ġpope": 11601,
    "Ġsmoky": 22556,
    "Ġchewing": 23280,
    "appear": 13193,
    "³": 116,
    "het": 5435,
    "Ġmaggie": 26290,
    "Ġintrospect": 15825,
    "Ġaim": 10145,
    "fins": 13716,
    "Ġheredit": 9216,
    "Ġaboard": 6697,
    "Ġshoving": 23486,
    "Ġcompromised": 22569,
    "favour": 9548,
    "Ġepsom": 19980,
    "scotch": 25849,
    "steelkilt": 10046,
    "Ġreach": 4047,
    "Ġbecause": 2215,
    "garious": 17556,
    "acle": 4716,
    "idge": 14011,
    "Ġafternoon": 6053,
    "Ġrecede": 25967,
    "Ġtools": 11608,
    "importance": 9988,
    "Ġglimpses": 13427,
    "Ġendeavor": 16542,
    "yarn": 15455,
    "anche": 10788,
    "between": 5071,
    "uge": 4017,
    "urn": 777,
    "compared": 24031,
    "Ġdutch": 6327,
    "nez": 22444,
    "Ġspeaks": 11159,
    "europe": 20663,
    "passing": 14808,
    "V": 58,
    "Ġseemed": 1279,
    "Ġpure": 6137,
    "Ġsisterly": 16300,
    "Ġlexic": 15720,
    "nt": 920,
    "similar": 13448,
    "Ġwicked": 5961,
    "Ġalle": 11664,
    "Ġstile": 21729,
    "Ġhaze": 18195,
    "Ġunguarded": 15847,
    "Ġprodigiously": 14929,
    "Ġtwit": 12924,
    "Ġliable": 14226,
    "Ġpestilent": 25776,
    "Ġmich": 21303,
    "ficial": 17546,
    "Ġexasperate": 20095,
    "port": 10719,
    "unsuitable": 21890,
    "Ġcoffins": 13244,
    "Ġhouse": 1505,
    "Ġsails": 5256,
    "Ġsecuring": 11987,
    "Ġbye": 12734,
    "Ġdisaster": 12883,
    "Ġthreatened": 8330,
    "sig": 2874,
    "derer": 4601,
    "Ġaltogether": 4831,
    "Ġmonstrous": 7790,
    "claims": 25319,
    "Ġ235": 25712,
    "Ġdir": 21419,
    "Ġwheel": 9717,
    "Ġfaintly": 14912,
    "Ġexaggerated": 25649,
    "Ġmace": 21307,
    "Ġplucked": 15110,
    "shut": 10981,
    "leaves": 12574,
    "ques": 2841,
    "Ġg": 310,
    "N": 50,
    "Ġmorbid": 16234,
    "pleasantness": 19768,
    "gloom": 17137,
    "Ġessentially": 24923,
    "Ġtypically": 1538,
    "Ġretiring": 16277,
    "Ġfairer": 20459,
    "escaped": 14228,
    "wall": 10136,
    "Ġinhale": 20298,
    "repe": 8776,
    "Ġagonising": 25373,
    "izers": 18141,
    "Ġhilarious": 20296,
    "Ġterm": 2272,
    "Ġmortally": 23913,
    "Ġhappiest": 11878,
    "oriented": 2946,
    "ultural": 22566,
    "Ġsocks": 14131,
    "Ġknowingly": 18479,
    "Ġgurg": 15669,
    "figure": 13551,
    "kindly": 14741,
    "Ġappre": 5165,
    "Ġarrival": 4731,
    "ieving": 7031,
    "Ġmended": 21311,
    "pleasing": 14739,
    "Ġolive": 12560,
    "Ġclin": 14199,
    "Ġscraped": 16901,
    "Ġcostly": 23582,
    "rivial": 9433,
    "Ġbabel": 24424,
    "Ġroylott": 7305,
    "Ġringed": 16748,
    "Ġanxiety": 5408,
    "Ġdisapprobation": 16055,
    "settle": 16659,
    "Ġital": 10866,
    "Ġsummar": 3524,
    "hurry": 24762,
    "doubted": 17524,
    "Ġstarry": 16921,
    "Ġcommenced": 8532,
    "omb": 10205,
    "prophet": 16177,
    "Ġignorant": 5343,
    "Ġcares": 9366,
    "Ġhatred": 8609,
    "orange": 21397,
    "otted": 14021,
    "Ġcreatures": 4137,
    "cott": 8074,
    "Ġmichaelmas": 26373,
    "Ġdisregarded": 22527,
    "Ġlay": 583,
    "Ġ84": 19707,
    "Ġignoble": 19396,
    "calm": 8934,
    "Ġreceptacle": 23189,
    "Ġspell": 8855,
    "Ġcausal": 3411,
    "Ġfossiliferous": 25608,
    "apothe": 22332,
    "Ġtropics": 17064,
    "Ġminimum": 23039,
    "Ġinstincts": 16984,
    "forks": 26385,
    "Ġunconscious": 9546,
    "Ġfamily": 1966,
    "Ġfift": 6382,
    "sleeping": 13449,
    "Ġsaying": 3243,
    "Ġappeased": 23194,
    "Ġindistinctly": 26116,
    "whatsoever": 18486,
    "shavings": 22462,
    "Ġsurmis": 23461,
    "pshire": 21022,
    "Ġcharge": 5324,
    "Ġharem": 9708,
    "appears": 12056,
    "ernal": 4310,
    "measure": 10030,
    "faint": 17543,
    "passenger": 24163,
    "Ġflanks": 11910,
    "Ġfisherman": 12071,
    "Ġter": 2051,
    "fine": 10090,
    "Ġunfair": 19505,
    "Ġcaulking": 20291,
    "Ġswears": 16462,
    "pray": 5429,
    "it": 276,
    "Ġderived": 8239,
    "ef": 5134,
    "Ġfell": 1977,
    "Ġbreak": 2868,
    "Ġarmchair": 8271,
    "Ġcombing": 22850,
    "tan": 4742,
    "Ġsqueezing": 25005,
    "Ġburied": 7719,
    "Ġrelinqu": 12976,
    "Ġvisits": 8223,
    "ibly": 2994,
    "Ġcan": 473,
    "Ġclient": 5555,
    "Ġsounded": 8591,
    "standard": 22428,
    "Ġhart": 17920,
    "shame": 16022,
    "dawson": 26127,
    "evinced": 19924,
    "Ġmou": 13852,
    "Ġspecks": 14305,
    "Ġconsumm": 15151,
    "Ġdiscerned": 24955,
    "Ġinterruptions": 24183,
    "tubs": 15127,
    "hearty": 14831,
    "sigma": 3001,
    "Ġventilator": 8714,
    "max": 1686,
    "Ġdreaded": 8289,
    "sil": 5282,
    "Ġfine": 1316,
    "Ġsticking": 13422,
    "Ġejaculation": 20252,
    "Ġthrees": 23396,
    "Ġpack": 5444,
    "project": 16421,
    "Ġboot": 11836,
    "Ġpursuing": 9437,
    "Ġcollege": 11424,
    "Ġsuppl": 11078,
    "flask": 12095,
    "front": 12166,
    "Ġtravell": 5575,
    "Ġprints": 16329,
    "sank": 17660,
    "Ġadds": 1807,
    "rosings": 15640,
    "ching": 5156,
    "Ġswells": 9826,
    "gain": 8737,
    "unc": 15765,
    "Ġruff": 14347,
    "Ġsurplus": 26302,
    "through": 4024,
    "Ġashen": 21896,
    "Ġemblazonings": 26042,
    "Ġ71": 24257,
    "hunsford": 24384,
    "Ġrestore": 9378,
    "onings": 21250,
    "clothes": 9057,
    "Ġscold": 10950,
    "Ġabed": 22272,
    "beer": 22486,
    "Ġbristles": 25842,
    "Ġbuckskin": 19949,
    "ken": 2802,
    "mering": 12486,
    "Ġlifetime": 13598,
    "olera": 21830,
    "Ġunrelieved": 20543,
    "Ġsufferings": 7513,
    "Ġ37": 24075,
    "Ġjunk": 15950,
    "Ġimproving": 1209,
    "canallers": 22961,
    "^": 66,
    "shout": 22451,
    "Ġlivers": 18460,
    "Ġincommun": 25308,
    "hunter": 10555,
    "seeking": 17150,
    "Ġprow": 6684,
    "Ġcalled": 1972,
    "Ġcarved": 7947,
    "Ġregent": 18590,
    "Ġjig": 15948,
    "Ġburton": 23650,
    "Ġunited": 6840,
    "Ġbub": 8118,
    "Ġnods": 19061,
    "ulnerable": 18149,
    "Ġsolar": 22883,
    "Ġrequested": 14298,
    "imod": 15706,
    "lemency": 21371,
    "Ġvoyagings": 19234,
    "cil": 8721,
    "oblivious": 26580,
    "Ġgrat": 4056,
    "Ġtossed": 5815,
    "Ġepic": 15027,
    "Ġfries": 21413,
    "Ġirr": 10421,
    "ting": 1333,
    "Ġprobed": 18732,
    "Ġamput": 16030,
    "Ġhook": 6453,
    "Ġmystery": 5509,
    "ouraged": 22854,
    "hills": 13733,
    "ached": 2324,
    "hau": 17560,
    "Ġimprovement": 7962,
    "Ġrepel": 23355,
    "Ġthinnest": 24180,
    "amore": 21847,
    "drovand": 24759,
    "steam": 23956,
    "tps": 11534,
    "increas": 10454,
    "lier": 20947,
    "landsmen": 25058,
    "Ġomens": 21325,
    "vengeance": 13351,
    "Ġdo": 510,
    "Ġcontemplative": 19891,
    "Ġillustrious": 17107,
    "Ġmarks": 6746,
    "Ġpers": 1408,
    "Ġshrubbery": 18231,
    "Ġinclined": 6622,
    "sometimes": 5972,
    "Ġrelating": 2707,
    "Ġaries": 21195,
    "Ġfacil": 16960,
    "Ġfollowed": 1794,
    "Ġpassions": 7930,
    "Ġtastes": 15475,
    "Ġmedicine": 15202,
    "ip": 554,
    "icate": 9201,
    "Ġdot": 4820,
    "tastes": 21094,
    "Ġpain": 2306,
    "Ġeconomically": 25288,
    "Ġmalady": 24390,
    "passion": 11260,
    "Ġflourishing": 25187,
    "crimes": 16695,
    "Ġundet": 16702,
    "Ġimpudence": 26240,
    "oniously": 21255,
    "Ġchaplain": 19910,
    "Ġoffic": 3185,
    "Ġbearing": 5298,
    "ë": 172,
    "Ġairs": 14507,
    "Ġsomehow": 4841,
    "Ġfarther": 5955,
    "Ġinfallible": 15067,
    "Ġtravel": 5953,
    "Ġprosecut": 9698,
    "el": 306,
    "apse": 14196,
    "Ġtailed": 21166,
    "Ġpossessing": 16573,
    "algorith": 3583,
    "Ġtechniques": 2867,
    "Ġincorporated": 25710,
    "Ġchemist": 11134,
    "Ġsatur": 1930,
    "Ġadmission": 23552,
    "required": 17028,
    "Ġunhallowed": 17178,
    "Ġunluck": 8484,
    "streets": 13390,
    "winds": 10521,
    "Ġsixth": 16556,
    "Ġunde": 11709,
    "Ġplunge": 13438,
    "Ġappet": 9730,
    "ti": 8390,
    "violently": 23540,
    "Ġdemo": 10879,
    "critters": 14780,
    "Ġardent": 9969,
    "Ġporpoises": 13377,
    "withstanding": 8945,
    "impregnable": 26479,
    "erpillar": 5797,
    "Ġunusually": 15843,
    "Ġlies": 5295,
    "Ġbecoming": 4396,
    "Ġmiraculous": 13542,
    "Ġfavourites": 16642,
    "ú": 187,
    "my": 1314,
    "Ġincantation": 26256,
    "Ġshower": 11707,
    "Ġactive": 7916,
    "inlaid": 21188,
    "Ġallured": 14122,
    "70": 17473,
    "dost": 14532,
    "sensible": 20049,
    "Ġconnecting": 18632,
    "kindled": 16658,
    "Ġtoiled": 12638,
    "Ġofficer": 6753,
    "Ġdol": 9664,
    "gammon": 20241,
    "drifting": 19822,
    "Ġdevil": 3612,
    "Ġnight": 1466,
    "Ġtwice": 4662,
    "Ġgrowth": 14627,
    "Ġcedars": 20290,
    "mightily": 24101,
    "Ġhy": 5625,
    "Ġexposure": 16096,
    "enorm": 17779,
    "Ġpel": 17903,
    "skinned": 25387,
    "Ġpassionate": 11273,
    "Ġflowed": 10371,
    "Ġlavater": 20492,
    "dred": 2529,
    "Ġassured": 4371,
    "arched": 10815,
    "õ": 182,
    "jumped": 20244,
    "dut": 10087,
    "ondency": 15266,
    "bear": 10314,
    "Ġpriest": 7526,
    "Ġwaiting": 4322,
    "secured": 16936,
    "pair": 21010,
    "Ġexamples": 2607,
    "Ġdivineness": 25723,
    "Ġvigilance": 12367,
    "etics": 21578,
    "dire": 15333,
    "zetts": 17712,
    "Ġthoroughfare": 16942,
    "final": 19674,
    "igms": 3043,
    "Ġ5": 4935,
    "Ġbriony": 9328,
    "origin": 7581,
    "Ġenjoying": 11234,
    "bber": 4569,
    "Ġsatisfaction": 5667,
    "rily": 7621,
    "antic": 1609,
    "Ġperiodically": 19492,
    "isive": 10793,
    "batch": 1983,
    "Ġimpartial": 15216,
    "Ġtrial": 6634,
    "mish": 17596,
    "Ġchanges": 2290,
    "incess": 15480,
    "Ġaroused": 15900,
    "Ġconflict": 17271,
    "forgetting": 25485,
    "Ġinvincible": 23477,
    "Ġtreacle": 14593,
    "Ġarbit": 4651,
    "Ġcommitted": 7431,
    "Ġobliterated": 17402,
    "Ġlbs": 11614,
    "rev": 17754,
    "Ġthr": 5709,
    "Ġ101": 24407,
    "hall": 8085,
    "tri": 11529,
    "Ġimplies": 24872,
    "Ġabout": 632,
    "mus": 10110,
    "orders": 12869,
    "ruin": 22173,
    "Ġtrace": 6180,
    "Ġhugest": 17013,
    "Ġfiend": 4410,
    "iate": 6505,
    "Ġearth": 2851,
    "Ġthink": 987,
    "Ġrepul": 16405,
    "africa": 26307,
    "irth": 5634,
    "Ġdocumentation": 20552,
    "Ġfling": 9660,
    "Ġintelligent": 1412,
    "Ġhark": 8428,
    "Ġerecting": 24651,
    "Ġespe": 21153,
    "Ġattempting": 14694,
    "Ġdamp": 8264,
    "onel": 3088,
    "Ġspaces": 3110,
    "Ġrecognised": 8995,
    "Ġmeanly": 12905,
    "ory": 1082,
    "Ġfol": 1288,
    "Ġlysander": 13134,
    "Ġexper": 1284,
    "name": 6795,
    "ologically": 22848,
    "Ġdifference": 1489,
    "Ġlow": 1652,
    "Ġdirt": 15590,
    "Ġembod": 14409,
    "Ġwrite": 3822,
    "Ġtumult": 7114,
    "Ġclouded": 13285,
    "ikes": 8087,
    "Ġminiature": 11039,
    "Ġclubb": 22348,
    "Ġacqu": 1419,
    "Ġidolator": 19995,
    "Ġmorals": 22974,
    "vere": 4883,
    "cordiality": 25137,
    "declared": 15115,
    "Ġunerringly": 18261,
    "Ġrele": 2917,
    "Ġglue": 15670,
    "battle": 12438,
    "things": 6033,
    "Ġneedlessly": 23628,
    "unctions": 18154,
    "Ġprejudice": 9075,
    "returned": 7766,
    "Ġstern": 4187,
    "bra": 6219,
    "Ġrequesting": 24632,
    "Ġdrew": 3536,
    "|": 96,
    "Ġuniversity": 13116,
    "Ġbespeaking": 26309,
    "Ġloftiest": 16872,
    "Ġcall": 2075,
    "mil": 13749,
    "Ġunobstructed": 18260,
    "Ġappo": 8497,
    "Ġwhim": 13996,
    "dl": 20821,
    "Ġmeditations": 25012,
    "feather": 16043,
    "uring": 822,
    "Ġutmost": 5496,
    "flame": 16635,
    "vial": 17695,
    "Ġliberal": 12186,
    "acters": 9308,
    "officers": 10627,
    "Ġacquisition": 18898,
    "Ġtrusting": 24103,
    "Ġago": 3136,
    "urg": 8142,
    "Ġparr": 22116,
    "Ġobjectionable": 16989,
    "stern": 7862,
    "leag": 21363,
    "Ġdictating": 20150,
    "onic": 7828,
    "ropy": 1100,
    "species": 13250,
    "hands": 5967,
    "Ġsuckling": 25996,
    "Ġathirst": 20596,
    "maker": 12488,
    "Ġcalf": 16265,
    "Ġbegrimed": 26576,
    "Ġcrimin": 6901,
    "Ġpeterson": 9482,
    "Ġshook": 4468,
    "Ġfugitives": 25633,
    "Ġrichest": 26210,
    "_": 67,
    "rem": 1526,
    "Ġjenny": 20160,
    "poss": 4778,
    "assault": 22303,
    "Ġbade": 9171,
    "imely": 13995,
    "Ġindividual": 5744,
    "etence": 21574,
    "rons": 21037,
    "Ġberyl": 20487,
    "Ġsundial": 15079,
    "Ġmcc": 21304,
    "ishop": 9741,
    "Ġboscombe": 8326,
    "Ġmoreover": 6163,
    "Ġgardeners": 12116,
    "Ġbrooks": 25699,
    "Ġmistress": 8612,
    "Ġmons": 10156,
    "Ġgrenadier": 21613,
    "Ġhyster": 16871,
    "licted": 20954,
    "Ġaltitude": 26201,
    "Ġamiable": 4268,
    "Ġsm": 704,
    "Ġchallenge": 25471,
    "Ġbeloved": 5571,
    "aving": 2410,
    "imprudent": 14649,
    "Ġwafted": 14537,
    "phia": 22765,
    "guilt": 24066,
    "Ġproportion": 7281,
    "pling": 8474,
    "Ġriots": 23889,
    "Ġcrucifix": 26078,
    "Ġsoftened": 11103,
    "incible": 16495,
    "Ġseethe": 21953,
    "Ġtout": 17717,
    "interest": 5421,
    "estations": 22218,
    "Ġcomplicated": 14732,
    "Ġfarmhouse": 24985,
    "Ġ80": 24454,
    "arily": 4126,
    "chanced": 18801,
    "Ġfemale": 8345,
    "Ġhint": 5016,
    "ile": 521,
    "ler": 3491,
    "otam": 21795,
    "ical": 754,
    "american": 11400,
    "Ġexpon": 968,
    "Ġpallidness": 25603,
    "umbling": 6758,
    "Ġtelescopes": 25687,
    "faith": 15022,
    "Ġdiminish": 14742,
    "free": 8736,
    "confirmation": 26088,
    "batross": 9092,
    "Ġjourney": 3880,
    "Ġgave": 2222,
    "Ġdip": 13904,
    "Ġcumulative": 4211,
    "erted": 7361,
    "ulls": 8837,
    "Ġuntamed": 19162,
    "games": 20878,
    "Ġansw": 2210,
    "Ġstam": 18064,
    "Ġseasoned": 24403,
    "Ġcobweb": 22584,
    "Ġplun": 6281,
    "Ġspectrum": 4475,
    "Ġfee": 7199,
    "Ġalt": 18097,
    "Ġslashing": 23167,
    "apprehension": 26113,
    "Ġquar": 3112,
    "dragged": 16606,
    "Ġwapping": 21292,
    "Ġtemper": 956,
    "Ġscrupled": 25048,
    "Ġknew": 2055,
    "Ġpainter": 19166,
    "scorn": 22988,
    "Ġexperiences": 13023,
    "Ġshrunk": 16716,
    "inal": 15478,
    "observing": 25494,
    "Ġfragment": 14501,
    "Ġtenants": 23544,
    "fury": 17545,
    "Ġovertaken": 18429,
    "ele": 9114,
    "Ġassociations": 14960,
    "Ġsmoothe": 23656,
    "Ġmathemat": 3201,
    "rice": 13774,
    "Ġvowed": 14081,
    "Ġkindled": 19030,
    "ision": 1853,
    "iful": 2883,
    "lad": 5992,
    "byshire": 6172,
    "enjoy": 10774,
    "Ġstature": 10863,
    "Ġharpooned": 13255,
    "Ġlamb": 8812,
    "Ġlitter": 19827,
    "Ġpaddling": 25285,
    "Ġintermission": 18588,
    "Ġhieroglyph": 11966,
    "oot": 13762,
    "asible": 21539,
    "Ġnames": 4534,
    "Ġunmingled": 18259,
    "laz": 15382,
    "Ġrelate": 6875,
    "actually": 14294,
    "Ġtrump": 8195,
    "spite": 16135,
    "Ġpoverty": 9304,
    "what": 642,
    "aried": 10987,
    "behind": 6779,
    "olerable": 7182,
    "walls": 25345,
    "Ġshuddered": 11300,
    "Ġabsor": 8504,
    "Ġexecutors": 19531,
    "oping": 5558,
    "Ġburke": 19249,
    "Ġyourself": 2595,
    "positive": 20565,
    "dled": 9110,
    "Ġastonished": 7087,
    "/(": 2982,
    "mankind": 14371,
    "Ġobliquely": 12358,
    "Ġshadow": 5595,
    "Ġwhole": 1665,
    "itigated": 23044,
    "Ġpreaching": 15923,
    "o": 83,
    "indef": 17733,
    "Ġnative": 4641,
    "Ġsnarl": 25714,
    "Ġpassages": 12964,
    "blow": 9103,
    "ures": 838,
    "Ġknotted": 17017,
    "amaz": 21848,
    "gradually": 12911,
    "Ġchim": 5933,
    "Ġimpelling": 22380,
    "Ġshag": 9250,
    "Ġunintermitted": 26218,
    "Ġwit": 3842,
    "Ġlottery": 19886,
    "money": 8750,
    "Ġungovernable": 20707,
    "speps": 14334,
    "Ġpapered": 20128,
    "Ġliveliness": 13639,
    "bohemia": 20729,
    "Ġsystematic": 5245,
    "rub": 15890,
    "Ġinto": 646,
    "Ġadm": 2406,
    "Ġfamine": 16326,
    "everything": 6324,
    "Ġcooked": 13263,
    "Ġspl": 2984,
    "Ġpens": 21458,
    "downstairs": 23916,
    "kin": 7131,
    "Ġinfidel": 13082,
    "iday": 8829,
    "Ġoceans": 7996,
    "distrust": 19568,
    "Ġobservation": 6597,
    "Ġordered": 5832,
    "Ġcombine": 4414,
    "Ġeat": 4644,
    "ors": 855,
    "unched": 10235,
    "reas": 990,
    "unwholesome": 26495,
    "amb": 5723,
    "favourite": 15140,
    "Ġunst": 18234,
    "somerset": 26321,
    "Ġcharmed": 16760,
    "Ġmappings": 2151,
    "Ġdone": 1817,
    "ġ": 226,
    "Ġeleven": 9388,
    "Ġkingdom": 12014,
    "og": 849,
    "Ġnowadays": 18545,
    "veil": 18041,
    "Ġgin": 13958,
    "Ġgloomily": 14797,
    "gorith": 549,
    "Ġsternly": 16707,
    "Ġsupremacy": 20258,
    "dun": 17514,
    "Ġvines": 12747,
    "carb": 20808,
    "12": 20747,
    "Ġromantic": 8031,
    "osity": 14183,
    "expound": 23661,
    "Ġrisks": 9963,
    "Ġstable": 2701,
    "Ġsweeter": 23914,
    "Ġcheerless": 16692,
    "companies": 24893,
    "Ġharm": 5017,
    "Ġfatig": 6756,
    "Ġpartial": 2131,
    "¨": 106,
    "rabb": 15676,
    "Ġoffered": 5816,
    "grieved": 17314,
    "Ġapprehensions": 13399,
    "Ġimagined": 8607,
    "Ġobtru": 18674,
    "Ġhopeful": 19032,
    "Ġsobbing": 14133,
    "office": 16388,
    "Ġjudging": 16593,
    "Ġterritories": 23842,
    "Ġprimary": 25059,
    "Ġlap": 8437,
    "Ġexec": 19490,
    "Ġbedroom": 7277,
    "Ġprincipally": 11309,
    "libr": 22920,
    "Ġinvented": 17035,
    "Ġbranches": 6776,
    "savage": 15072,
    "Ġcompliment": 5673,
    "Ġwhereby": 11832,
    "Ġromish": 19582,
    "Ġrealised": 18980,
    "decided": 13210,
    "Ġdisplays": 19855,
    "dick": 11479,
    "gravel": 22617,
    "ulpt": 10885,
    "ius": 5789,
    "unks": 15771,
    "Ġsaint": 15505,
    "Ġpresum": 4837,
    "brink": 23574,
    "met": 6652,
    "Ġzodiac": 16173,
    "Ġcripple": 11440,
    "Ġcommunicated": 9061,
    "Ġdr": 2826,
    "Ġendwise": 23141,
    "Ġincorrect": 2730,
    "Ġstreams": 12188,
    "hoping": 17564,
    "mel": 9127,
    "bble": 17482,
    "sign": 8388,
    "lit": 9605,
    "uttering": 12658,
    "Ġsuccessful": 9922,
    "Ġinstantaneous": 14609,
    "finer": 17544,
    "attent": 9359,
    "practised": 20245,
    "_)âĢĶ": 20142,
    "Ġnobly": 22238,
    "Ġtypes": 8936,
    "Ġdevoutly": 25831,
    "popular": 26139,
    "actory": 8907,
    "Ġdistricts": 20261,
    "Ġoutlines": 15954,
    "Ġhandwriting": 14316,
    "haz": 17562,
    "Ġhappily": 9330,
    "Ġunexplored": 26516,
    "charles": 14696,
    "irable": 5776,
    "Ġentry": 11026,
    "Ġpoul": 15609,
    "swim": 16777,
    "Ġflooded": 24960,
    "Ġlack": 17962,
    "Ġxavier": 2855,
    "Ġprospects": 9958,
    "Ġperse": 6271,
    "someone": 14562,
    "companions": 15021,
    "Ġharbor": 10026,
    "Ġindependent": 9015,
    "Ġdry": 5624,
    "Ġmidships": 23632,
    "scale": 3534,
    "Ġretrogression": 26579,
    "Ġforfeit": 21772,
    "Ġdownright": 16115,
    "Ġcomparatively": 9489,
    "Ġshall": 1143,
    "Ġ115": 24437,
    "Ġser": 1675,
    "Ġcarve": 23092,
    "hatch": 15361,
    "nui": 20998,
    "Ġconvey": 9980,
    "Ġpromising": 10399,
    "Ġfresher": 23210,
    "vellers": 16671,
    "Ġbathing": 20197,
    "Ġbeaks": 21752,
    "phere": 21017,
    "Ġduration": 20351,
    "Ġpretend": 7722,
    "Ġninety": 13597,
    "Ġdra": 1594,
    "Ġpronouncing": 16967,
    "Ġshoots": 14566,
    "Ġhar": 5814,
    "experience": 17156,
    "Ġprocure": 9509,
    "Ġnext": 2141,
    "Ġreckoning": 14976,
    "moving": 11017,
    "âĢľ_": 5720,
    "vell": 3958,
    "organ": 15570,
    "Ġped": 6817,
    "Ġstepmother": 16085,
    "Ġsubtlety": 24779,
    "haustible": 16889,
    "resemblance": 25932,
    "Ġblessing": 11263,
    "Ġendued": 14074,
    "Ġinstinct": 6574,
    "tarpaulins": 26403,
    "enances": 10153,
    "Ġsights": 7472,
    "?âĢĿ": 699,
    "piece": 6655,
    "Ġidiot": 11967,
    "Ġperfume": 25664,
    "Ġwashes": 21858,
    "Ġprompt": 3187,
    "Ġadler": 8174,
    "fatal": 17086,
    "Ġdestroy": 5772,
    "Ġcrony": 23438,
    "powder": 17643,
    "Ġmonarch": 14412,
    "Ġshilling": 18227,
    "neath": 12862,
    "Ġcompressed": 21854,
    "representation": 20194,
    "Ġedge": 5188,
    "Ġeaglet": 19303,
    "Ġstove": 6733,
    "Ġembra": 6578,
    "church": 8140,
    "Ġhollows": 19739,
    "Ġcomplaints": 12260,
    "Ġwood": 2295,
    "spee": 9316,
    "tormented": 13641,
    "mast": 3601,
    "Ġfrosted": 19801,
    "Ġbuy": 8300,
    "Ġincoherent": 17397,
    "Ġdisdained": 15007,
    "neying": 22446,
    "Ġmate": 3708,
    "isome": 17847,
    "ront": 15416,
    "Ġgentle": 1888,
    "medi": 2630,
    "Ġ125": 24468,
    "Ġglass": 4368,
    "ustomed": 6099,
    "Ġfamed": 16325,
    "Ġdid": 836,
    "Ġtear": 6721,
    "howling": 18989,
    "Ġchip": 12820,
    "finally": 9498,
    "Ġawaiting": 11390,
    "Ġperem": 12927,
    "Ġrucastles": 18720,
    "Ġpaddled": 20199,
    "irms": 18165,
    "Ġcards": 7580,
    "os": 525,
    "Ġcottagers": 6761,
    "Ġlacey": 10197,
    "duck": 22409,
    "worthy": 7733,
    "Ġstabbed": 25456,
    "Ġlength": 2503,
    "astern": 8581,
    "Ġrepro": 7275,
    "intments": 18819,
    "Ġinco": 14258,
    "Ġhen": 3502,
    "Ġbour": 4876,
    "Ġresults": 7308,
    "force": 12953,
    "Ġwhisky": 23930,
    "Ġpeculiarity": 12928,
    "Ġunion": 6839,
    "scr": 16239,
    "Ġ**": 4721,
    "Ġseals": 11692,
    "take": 4577,
    "Ġimpenetrable": 17394,
    "======================================================================": 10067,
    "Ġegyptians": 25289,
    "urons": 3129,
    "Ġdodging": 19885,
    "Ġast": 2960,
    "Ġstubbs": 23292,
    "Ġsuspecting": 14907,
    "ut": 308,
    "ining": 3220,
    "Ġblanket": 8343,
    "Ġbury": 12038,
    "ung": 2747,
    "Ġalways": 1697,
    "Ġfitzwilliam": 5771,
    "shape": 10983,
    "itche": 7578,
    "Ġarchly": 22775,
    "Ġconcrete": 20634,
    "Ġblush": 14399,
    "cap": 8373,
    "Ġalan": 10869,
    "Ġchagrin": 20605,
    "icha": 11735,
    "doom": 23372,
    "Ġstr": 758,
    "conducted": 25572,
    "Ġhunsford": 6301,
    "ither": 1550,
    "Ġrecesses": 17258,
    "poises": 11887,
    "Ġparamet": 610,
    "soldiers": 25910,
    "Ġbeast": 7179,
    "Ġfund": 2844,
    "Ġfull": 2182,
    "Ġsettle": 6293,
    "Ġremem": 4311,
    "Ġseven": 4543,
    "Ġseeth": 21950,
    "these": 3241,
    "Ġimpertinent": 9077,
    "sun": 7139,
    "Ġserenely": 13502,
    "Ġloves": 10915,
    "Ġcaulk": 25440,
    "Ġimmortal": 8018,
    "mises": 20976,
    "Ġprogen": 14037,
    "Ġwarned": 16878,
    "Ġkicking": 16899,
    "professor": 17247,
    "Ġauthority": 7749,
    "Ġundone": 24115,
    "Ġapproaching": 6284,
    "Ġcommun": 1705,
    "antly": 1989,
    "Ġdistrusting": 25052,
    "lished": 8383,
    "Ġserv": 3329,
    "abode": 21788,
    "Ġcheers": 16362,
    "simon": 16971,
    "Ġvagabond": 20201,
    "Ġcrushed": 9422,
    "Ġfilters": 3928,
    "Ġprestige": 22233,
    "Ġmalice": 7152,
    "Ġballarat": 14716,
    "Ġalcoves": 26484,
    "tained": 4404,
    "Ġinvective": 26180,
    "happened": 9432,
    "Ġswamp": 14433,
    "Ġintelligible": 15938,
    "Ġdistingu": 2517,
    "success": 6710,
    "Ġexasper": 8466,
    "ower": 1023,
    "Ġtalents": 15042,
    "machines": 8385,
    "Ġphilipp": 23881,
    "ined": 1261,
    "Ġslim": 18935,
    "Ġmakest": 25435,
    "Ġmuscle": 14687,
    "aiian": 23590,
    "lively": 12480,
    "Ġclump": 15965,
    "Ġproceeding": 9905,
    "asse": 15641,
    "Ġheire": 18035,
    "Ġostrich": 26428,
    "ran": 11515,
    "Ġreposing": 23357,
    "station": 10844,
    "ache": 8518,
    "pat": 10116,
    "persons": 24171,
    "output": 4400,
    "ingly": 2137,
    "Ġfavourable": 7959,
    "Ġcloak": 9533,
    "Ġground": 2847,
    "Ġenthusiasm": 8065,
    "Ġcluster": 13567,
    "Ġmyth": 18219,
    "Ġdispleased": 18554,
    "dings": 2153,
    "Ġreliance": 14382,
    "izing": 1068,
    "Ġforward": 1837,
    "outh": 2688,
    "Ġcentury": 8291,
    "duing": 22408,
    "Ġcopy": 10163,
    "Ġsaturn": 22900,
    "Ġuncl": 22009,
    "Ġworkman": 16252,
    "Ġjoker": 22295,
    "Ġcir": 21338,
    "Ġelbow": 12916,
    "Ġdub": 13906,
    "touch": 8392,
    "Ġeldest": 6571,
    "Ġbran": 5251,
    "shriek": 20517,
    "ode": 1455,
    "ander": 6401,
    "Ġappertaining": 26531,
    "ike": 5000,
    "Ġconflagration": 26363,
    "Ġprecip": 7074,
    "pine": 13766,
    "ars": 906,
    "Ġjuggl": 20435,
    "iii": 14771,
    "Ġbackground": 18648,
    "Ġbetray": 7442,
    "Ġelusive": 22644,
    "Ġunass": 14110,
    "seemingly": 25362,
    "Ġvehem": 22887,
    "Ġreminds": 13426,
    "Ġlances": 6984,
    "thirds": 25045,
    "Ġscho": 4436,
    "ument": 5240,
    "kshire": 13743,
    "satisfaction": 9991,
    "Ġsneezes": 24697,
    "oof": 15403,
    "carefully": 13363,
    "Ġclassification": 1101,
    "Ġstained": 11650,
    "oll": 5456,
    "jack": 7344,
    "Ġsheep": 10926,
    "Ġtragic": 15252,
    "Ġinsert": 19903,
    "Ġharder": 14446,
    "steady": 14706,
    "Ġnotwithstanding": 9713,
    "crimson": 24097,
    "broad": 8643,
    "Ġdocuments": 10022,
    "Ġgulf": 10635,
    "produce": 20280,
    "ellect": 7381,
    "estinated": 15919,
    "arks": 2845,
    "Ġmary": 3844,
    "kily": 20935,
    "Ġrattled": 15065,
    "Ġslaugh": 18936,
    "uation": 17692,
    "Ġimmutable": 17355,
    "asiness": 8129,
    "orers": 14100,
    "!âĢĿ": 846,
    "homage": 25615,
    "particularly": 8340,
    "Ġworthy": 7241,
    "Ġcanoe": 9722,
    "Ġuniversally": 11995,
    "rapidly": 15240,
    "edily": 17942,
    "Ġcontinued": 2922,
    "Ġnearing": 15791,
    "Ġesc": 2257,
    "Ġruns": 8595,
    "Ġadmir": 12017,
    "Ġchanc": 18382,
    "Ġviolet": 19088,
    "Ġlives": 4826,
    "Ġgoring": 21601,
    "Ġhanging": 5447,
    "furniture": 20240,
    "countryman": 24638,
    "inte": 5144,
    "courageous": 26126,
    "Y": 61,
    "Ġdisappointment": 6626,
    "Ġbanqu": 12584,
    "atoes": 17773,
    "Ġprivilege": 11419,
    "Ġbesee": 19241,
    "connections": 14425,
    "Ġaversion": 18865,
    "forgotten": 12412,
    "antled": 18286,
    "Ġobsequ": 14317,
    "compliments": 24809,
    "Ġhilarity": 20295,
    "Ġge": 1978,
    "Ġvivid": 8058,
    "Ġmaterial": 5178,
    "wherefore": 19107,
    "Ġinterpreted": 1710,
    "Ġstep": 753,
    "ground": 4672,
    "\":": 9581,
    "Ġthe": 270,
    "limping": 26391,
    "ceed": 1075,
    "Ġwines": 21285,
    "Ġcon": 348,
    "Ġpalaces": 24088,
    "Ġuncommon": 5026,
    "Ġpreferment": 19851,
    "Ġgranted": 22805,
    "oved": 5215,
    "Ġpoll": 12025,
    "Ġfobbing": 26439,
    "Ġremorse": 6441,
    "backs": 9389,
    "Ġwatching": 4854,
    "Ġhail": 7400,
    "Ġmo": 629,
    "enged": 23144,
    "Ġplump": 14280,
    "Ġlead": 3522,
    "Å": 134,
    "frankenstein": 11391,
    "congreg": 25398,
    "Ġindifferent": 6174,
    "Ġnaut": 13938,
    "ee": 1663,
    "do": 1995,
    "circumspect": 26085,
    "wreck": 21134,
    "Ġuntidy": 23519,
    "wester": 21136,
    "Ġain": 6969,
    "Ġcomplying": 18585,
    "Ġcontained": 7679,
    "rift": 11519,
    "Ġspoke": 2749,
    "Ġdismally": 20212,
    "Ġcruelly": 13370,
    "Ġreplied": 2270,
    "Ġadapt": 1034,
    "prom": 6509,
    "vinegar": 25420,
    "leful": 17841,
    "Ġfeigned": 22207,
    "Ġmood": 6276,
    "pest": 6964,
    "Ġrec": 895,
    "Ġcellar": 8059,
    "ientiously": 21938,
    "stranded": 19224,
    "dw": 3334,
    "wra": 11541,
    "Ġchristian": 6479,
    "ival": 4226,
    "Ġstepfather": 7221,
    "Ġnecessitates": 23925,
    "Ġcol": 1066,
    "vine": 10734,
    "Ġnarrowed": 24353,
    "abri": 6682,
    "Ġhipp": 21489,
    "Ġintelligence": 561,
    "Ġhoot": 19073,
    "Ġwhittingham": 26196,
    "Ġshoals": 13129,
    "Ġrestraint": 15124,
    "phants": 9319,
    "Ġprudent": 9185,
    "nights": 16447,
    "Ġcarries": 7674,
    "<": 32,
    "Ġconstraint": 16512,
    "Ġwake": 4749,
    "Ġdrawback": 23987,
    "lightning": 16549,
    "ivered": 7005,
    "as": 302,
    "insult": 16276,
    "Ġperuvian": 18451,
    "Ġintric": 9245,
    "opÃ¦": 12868,
    "ignation": 11128,
    "Ġfelt": 1745,
    "bit": 3932,
    "ays": 6683,
    "Ġ\"": 6119,
    "pus": 3415,
    "Ġseasons": 9430,
    "ascal": 10192,
    "procure": 23392,
    "private": 13578,
    "influence": 13574,
    "comput": 1925,
    "Ġrejoinder": 24597,
    "pans": 13767,
    "databases": 3023,
    "Ġkind": 1786,
    "Ġpeeling": 22691,
    "Ġunfelt": 24108,
    "Ġreplay": 5047,
    "also": 7851,
    "Ġdau": 21423,
    "farintosh": 24551,
    "ò": 179,
    "uberance": 25915,
    "jump": 10103,
    "Ġprogrammed": 11058,
    "consternation": 16910,
    "Ġmitigates": 3049,
    "Ġperception": 9749,
    "Ġat": 395,
    "Ġmeat": 8152,
    "Ġsearched": 15813,
    "Ġdiscriminator": 3393,
    "Ġfl": 1280,
    "chief": 4645,
    "training": 2520,
    "Ġlurk": 13378,
    "Ġbrush": 17863,
    "deepest": 22870,
    "din": 8374,
    "Ġby": 383,
    "Ġmodel": 518,
    "Ġexacted": 23601,
    "Ġstick": 6026,
    "Ġimag": 2676,
    "Ġcurling": 9340,
    "Ġtant": 12520,
    "english": 2775,
    "comes": 5394,
    "Ġdrinks": 24277,
    "Ġadapts": 3818,
    "finding": 17011,
    "mit": 4933,
    "extracts": 22771,
    "Ġmagnitudes": 3823,
    "Ġproceed": 3242,
    "Ġmahogany": 20575,
    "Ġdumb": 7844,
    "tornadoes": 26152,
    "Ġfollowing": 4062,
    "Ġaback": 22273,
    "Ġdive": 10172,
    "Ġpeaceable": 14720,
    "Ġrent": 11637,
    "Ġaffair": 4463,
    "Ġfavourably": 16358,
    "Ġtrans": 637,
    "Ġmalignant": 14875,
    "Ġpaltry": 16690,
    "Ġlad": 2367,
    "Ġpatroness": 13505,
    "Ġsain": 17748,
    "Ġtatters": 21175,
    "Ġbroom": 18905,
    "sole": 6168,
    "Ġbul": 3293,
    "Ġcousin": 3705,
    "Ġcouples": 16850,
    "Ġinducements": 24966,
    "princ": 8621,
    "Ġsalvation": 14754,
    "Ġcomprehen": 5349,
    "leviathans": 19935,
    "Ġburns": 16520,
    "loo": 10319,
    "aston": 7408,
    "Ġsoil": 9254,
    "Ġholes": 16404,
    "Ġanticipation": 17055,
    "Ġmasses": 10503,
    "rough": 589,
    "christmas": 20253,
    "thickness": 25367,
    "Ġprogressive": 5024,
    "Ġunfortunately": 10908,
    "Ġproperties": 3117,
    "Ġabounding": 12340,
    "Ġfuture": 1062,
    "Ġsouthampton": 24305,
    "Ġinherit": 25352,
    "Ġdrawled": 23986,
    "desirable": 23208,
    "Ġpost": 4271,
    "Ġenables": 724,
    "ivering": 7698,
    "number": 10114,
    "Ġillustrative": 25065,
    "Ġindicate": 23719,
    "Ġfeatureless": 22607,
    "Ġexperienced": 6582,
    "Ġport": 3308,
    "Ġtable": 2502,
    "chest": 11208,
    "Ġid": 1907,
    "Ġdesign": 4132,
    "Ġcoff": 3507,
    "Ġcanal": 8182,
    "gun": 10096,
    "count": 4213,
    "wretch": 17706,
    "Ġmonstr": 7668,
    "metallic": 19878,
    "should": 3261,
    "Ġsyntax": 958,
    "Ġnoteworthy": 24159,
    "ancy": 4392,
    "Ġexpanded": 14289,
    "Ġapologize": 15125,
    "along": 6013,
    "½": 126,
    "Ġperemptorily": 17364,
    "Ġmothers": 14538,
    "Ġincorrupt": 19233,
    "Ġgreat": 898,
    "loath": 22504,
    "ensical": 18568,
    "cord": 8724,
    "Ġimpulse": 10023,
    "Ġcrush": 9421,
    "tawny": 26402,
    "gathered": 13729,
    "Ġthrow": 3783,
    "Ġonset": 12706,
    "Ġhereby": 10358,
    "Ġinsight": 16528,
    "ription": 5676,
    "Ġhackney": 20430,
    "operation": 13496,
    "solely": 19814,
    "tim": 13788,
    "ontory": 10459,
    "Ġstigma": 25790,
    "Ġwhiff": 21715,
    "dies": 15335,
    "Ġeloquence": 11838,
    "Ġ122": 24465,
    "readily": 19359,
    "Ġalteration": 9545,
    "direct": 12452,
    "Ġthese": 823,
    "Ġretrie": 10382,
    "getic": 12960,
    "rison": 13776,
    "Ġtong": 4870,
    "would": 2353,
    "Ġcombining": 22852,
    "athed": 7829,
    "though": 2119,
    "othed": 16509,
    "Ġjuggler": 26365,
    "Ġrind": 21966,
    "Ġrecommending": 24335,
    "shooting": 16963,
    "nevertheless": 8286,
    "Ġfooted": 23794,
    "roots": 15639,
    "Ġignorance": 6618,
    "position": 15411,
    "Ġselling": 21222,
    "minutely": 19591,
    "date": 17515,
    "Ġfireplace": 13140,
    "collins": 6916,
    "Ġnumberless": 16412,
    "Ġspreading": 13373,
    "plexy": 18576,
    "waving": 21129,
    "Ġseizing": 7878,
    "Ġtrunk": 7205,
    "Ġpattered": 19028,
    "ince": 4339,
    "longing": 23722,
    "attention": 2112,
    "xt": 2081,
    "isance": 17846,
    "Ġmiseries": 10344,
    "offic": 7466,
    "Ġleaping": 8341,
    "Ġvess": 3295,
    "girls": 12315,
    "Ġmal": 5221,
    "Ġform": 1024,
    "viv": 17696,
    "Ġexquis": 9697,
    "afer": 17479,
    "Ġdwell": 5812,
    "Ġdifficulty": 5770,
    "fordshire": 4677,
    "Ġinnocent": 4921,
    "Ġreynolds": 10209,
    "lung": 17589,
    "Ġaperture": 26159,
    "Ġvect": 1223,
    "Ġfifty": 4624,
    "isol": 17845,
    "Ġintervened": 25481,
    "Ġglistening": 12361,
    "Ġrid": 4354,
    "don": 3544,
    "Ġprogram": 12987,
    "homely": 25616,
    "Ġloaded": 8490,
    "iza": 6255,
    "Ġdungeon": 16994,
    "waist": 13413,
    "giana": 7801,
    "avenza": 17101,
    "Ġt": 261,
    "Ġ270": 25130,
    "Ġsweeping": 8985,
    "Ġcrash": 11997,
    "Ġpivot": 13920,
    "Ġuncontrollable": 25813,
    "ciousness": 20815,
    "minute": 11274,
    "iding": 3847,
    "Ġsherry": 19448,
    "Ġnatural": 1126,
    "Ġath": 15798,
    "Ġbold": 5291,
    "Ġloafer": 18298,
    "Ġwhiteness": 5919,
    "flitted": 23965,
    "izings": 14048,
    "Ġpleated": 16295,
    "Ġluxuries": 25163,
    "iam": 2512,
    "Ġinspirited": 23418,
    "Ġpossible": 2586,
    "william": 4563,
    "Ġam": 659,
    "hailed": 17563,
    "Ġpalsy": 25777,
    "sters": 6391,
    "quest": 4539,
    "Ġresume": 18564,
    "Ġconviction": 6326,
    "Ġimmensely": 13591,
    "icted": 5937,
    "mother": 5480,
    "Ġperplexed": 23659,
    "Ġconjunction": 25099,
    "investments": 25532,
    "Ġhigher": 1820,
    "nant": 17607,
    "Ġapothecary": 13655,
    "prisoner": 20541,
    "chester": 23804,
    "cele": 21622,
    "Ġsubsc": 22786,
    "Ġlagged": 21555,
    "greenland": 10020,
    "concealed": 25114,
    "Ġsteed": 13033,
    "Ġgale": 5822,
    "Ġfestoon": 20292,
    "Ġaffl": 14384,
    "Ġjavan": 24998,
    "Ġmark": 2333,
    "Ġrecovery": 11441,
    "Ġsoftmax": 1690,
    "hibited": 17424,
    "Ġsagittarius": 24731,
    "Ġearnestness": 12121,
    "Ġaccomp": 4713,
    "ri": 390,
    "Ġarranging": 11174,
    "Ġgestic": 21605,
    "cous": 8722,
    "Ġbawling": 25944,
    "Ġpres": 9731,
    "Ġattended": 5391,
    "Ġdaybreak": 18725,
    "Ġspouting": 9438,
    "odecim": 9831,
    "Ġparcel": 15196,
    "Ġclassifies": 11834,
    "Ġgenerative": 5644,
    "Ġremo": 3785,
    "Ġscrolled": 22267,
    "Ġobeisance": 19756,
    "useless": 14592,
    "Ġsage": 17750,
    "upwards": 18862,
    "Ġpore": 21456,
    "Ġkindliness": 23291,
    "Ġinmates": 15619,
    "Ġconstit": 8583,
    "born": 7543,
    "Ġsmiling": 5475,
    "Ġsaleve": 17388,
    "Ġfac": 6381,
    "Ġillustration": 19134,
    "Ġcakes": 13881,
    "Ġinherited": 25353,
    "ctions": 961,
    "Ġperth": 7022,
    "Ġindignity": 18831,
    "gentleman": 7518,
    "Ġfossil": 12383,
    "Ġferguson": 17467,
    "countenances": 24148,
    "outon": 12799,
    "``": 15303,
    "etency": 21579,
    "Ġeffaced": 18517,
    "Ġrules": 1917,
    "Ġbeak": 18078,
    "Ġspecific": 2002,
    "Ġphenomenon": 17915,
    "aration": 12603,
    "Ġshame": 6410,
    "Ġcontro": 1688,
    "rints": 12498,
    "Ġastonishing": 10501,
    "Ġdivert": 23591,
    "Ġphrensy": 25124,
    "Ġmerged": 19295,
    "keeper": 5596,
    "Ġstatistical": 11105,
    "Ġsurmisings": 26591,
    "Ġdirectly": 2106,
    "although": 8805,
    "Ġformula": 2865,
    "notwithstanding": 22750,
    "network": 1914,
    "Ġpeels": 22690,
    "ruded": 15894,
    "Ġcurvature": 3573,
    "Ġdeclaration": 16634,
    "Ġchanging": 11750,
    "agation": 1242,
    "Ġcrooked": 11281,
    "Ġbridegroom": 10604,
    "Ġberths": 20112,
    "friend": 3863,
    "Ġrib": 4936,
    "Ġassurances": 9999,
    "Ġelixir": 26553,
    "Ġvarying": 15807,
    "mayhew": 23990,
    "Ġlizzy": 3546,
    "lass": 5993,
    "senses": 25023,
    "propagation": 1244,
    "myster": 16258,
    "Ġnieces": 8433,
    "Ġi": 312,
    "Ġegg": 8818,
    "Ġarchitect": 973,
    "Ġswe": 2293,
    "screen": 22993,
    "Ġafter": 870,
    "cst": 10084,
    "Ġextracts": 9358,
    "bulkington": 19923,
    "Ġdilig": 8350,
    "Ġfabulous": 25947,
    "ufactured": 15178,
    "ù": 186,
    "Ġretention": 23069,
    "Ġjur": 12830,
    "Ġdarkened": 16430,
    "Ġcurses": 13006,
    "charge": 9447,
    "Ġkeeps": 8267,
    "Ġhurry": 4913,
    "Ġlose": 5028,
    "Ġbox": 5109,
    "Ġforeman": 23445,
    "ensing": 12892,
    "Ġinteresting": 4323,
    "sentence": 2938,
    "Ġname": 2083,
    "Ġbreed": 19070,
    "need": 10979,
    "------": 12129,
    "Ġmaintained": 12929,
    "Ġhunt": 6183,
    "ribly": 8255,
    "Ġcham": 4892,
    "Ġdispose": 23876,
    "greatly": 16621,
    "Ġsimilarity": 3166,
    "tooth": 18580,
    "sequent": 6831,
    "zwilliam": 5074,
    "Ġarrow": 10931,
    "Ġintegrated": 13526,
    "support": 9469,
    "Ġbristling": 20524,
    "visit": 7755,
    "Ġaffords": 16732,
    "landish": 11938,
    "Ġpreliminaries": 25176,
    "splice": 17168,
    "Ġwhistles": 24624,
    "Ġbackwoods": 22657,
    "Ġoccupies": 24006,
    "left": 6975,
    "brow": 15312,
    "Ġbacked": 12919,
    "willing": 6592,
    "performed": 18340,
    "Ġpreser": 6041,
    "}": 97,
    "Ġunite": 9253,
    "Ġobtained": 7432,
    "iftings": 23224,
    "isite": 15559,
    "ineering": 21978,
    "Ġhasty": 10477,
    "Ġdescends": 14284,
    "nyder": 16684,
    "Ġanon": 9666,
    "Ġinscrut": 10033,
    "Ġconclusion": 5986,
    "Ġconsec": 21802,
    "Ġsyllables": 25298,
    "Ġstrainings": 24627,
    "Ġwast": 21857,
    "Ġreferences": 21671,
    "Ġalternate": 19983,
    "Ġme": 351,
    "Ġalike": 8147,
    "ledyard": 22376,
    "Ġmes": 17795,
    "coil": 23556,
    "taste": 10129,
    "woof": 21137,
    "Ġmira": 8407,
    "Ġsepar": 4001,
    "Ġrig": 4224,
    "ê": 171,
    "Ġtorrent": 17090,
    "Ġ30": 10511,
    "Ġspecialized": 3921,
    "Ġdriver": 16472,
    "rut": 8092,
    "resol": 17758,
    "Ġinclemency": 22553,
    "Ġbust": 10167,
    "Ġsom": 1276,
    "mown": 20968,
    "Ġbeckoning": 20499,
    "diligence": 26109,
    "Ġlabourers": 23328,
    "poster": 11056,
    "Ġinnermost": 12156,
    "Ġmortification": 12089,
    "member": 20973,
    "browed": 25893,
    "olog": 1048,
    "blood": 7780,
    "Ġdrug": 11410,
    "Ġthoughts": 3138,
    "least": 8784,
    "Ġacquire": 2725,
    "Ġunfitted": 24106,
    "Ġunh": 9252,
    "Ġpurse": 12006,
    "Ġcontr": 1912,
    "anc": 6379,
    "ctuous": 9205,
    "Ġbott": 3148,
    "mistake": 24527,
    "Ġdangerously": 23933,
    "Ġpaint": 7708,
    "said": 4104,
    "Ġentail": 9793,
    "Ġ117": 19695,
    "Ġinherent": 4592,
    "_âĢĶ": 11467,
    "Ġexpressions": 7706,
    "hement": 13829,
    "Ġgallons": 14814,
    "Ġpredicts": 2596,
    "entieth": 17977,
    "Ġrevolved": 9983,
    "indisc": 22370,
    "Ġissued": 10599,
    "Ġcommodores": 25374,
    "instead": 14809,
    "Ġrio": 23888,
    "informed": 17734,
    "Ġimitate": 14155,
    "ain": 343,
    "conversation": 7122,
    "holder": 13277,
    "ounds": 4157,
    "Ġwoodcock": 19161,
    "che": 3170,
    "friendship": 24046,
    "separated": 20157,
    "Ġobjection": 6585,
    "sneezes": 11446,
    "Ġdef": 1200,
    "Ġsche": 1704,
    "Ġtertiary": 15291,
    "ator": 1922,
    "hammad": 23261,
    "Ġgam": 11623,
    "thunder": 10262,
    "Ġscandinav": 19957,
    "Ġyards": 5371,
    "Ġfancied": 7326,
    "strange": 6087,
    "describe": 1516,
    "gaz": 20876,
    "Ġpistol": 7847,
    "odhead": 18119,
    "Ġplayed": 9415,
    "Ġheightens": 24151,
    "Ġmayhap": 18706,
    "Ġtransferred": 16456,
    "icit": 3380,
    "Ġhoe": 23347,
    "aunted": 20768,
    "Ġzeros": 3324,
    "Ġpolicy": 10457,
    "book": 4670,
    "Ġelijah": 9099,
    "Ġwarmer": 19183,
    "Ġsympt": 7012,
    "Ġtone": 4040,
    "Ġty": 6657,
    "Ġspeedily": 7712,
    "ustration": 2264,
    "Ġobservable": 25126,
    "riend": 1186,
    "Ġkno": 5242,
    "Ġslee": 8974,
    "ert": 2634,
    "Ġcent": 3253,
    "Ġinterference": 8894,
    "Ġassisting": 13251,
    "Ġflee": 7079,
    "Ġmatrices": 4969,
    "Ġeventually": 8617,
    "Ġremarkable": 4915,
    "send": 15421,
    "ruck": 6848,
    "Ġlothario": 26183,
    "Ġamply": 22479,
    "Ġthieves": 15632,
    "Ġagatha": 6866,
    "verted": 10217,
    "Ġanimation": 11152,
    "Ġacquiesce": 20327,
    "oman": 2018,
    "Ġmouldings": 24736,
    "Ġwarm": 2429,
    "ean": 20838,
    "Ġsat": 1132,
    "Ġbenches": 18779,
    "Ġlaughter": 9027,
    "following": 10572,
    "Ġcategor": 4139,
    "1775": 26376,
    "Ġwakes": 11571,
    "present": 1138,
    "tattoo": 21085,
    "ke": 430,
    "Ġlecture": 13563,
    "Ġhelping": 3266,
    "Ġinterested": 6458,
    "Ġcondensed": 24050,
    "Ġbricks": 13558,
    "Ġenergy": 2554,
    "yards": 9623,
    "worse": 14688,
    "Ġscot": 5643,
    "Ġdefinition": 14401,
    "Ġveter": 15808,
    "forbid": 14350,
    "urned": 9305,
    "aet": 15304,
    "Ġeloquent": 16108,
    "rear": 21230,
    "Ġga": 4446,
    "keenest": 25660,
    "Ġmislead": 22753,
    "became": 10514,
    "apter": 1194,
    "Ġphilips": 5410,
    "ains": 5094,
    "chant": 4257,
    "Ġgive": 1711,
    "Ġobject": 1394,
    "Ġdoes": 942,
    "plan": 15815,
    "warm": 8102,
    "aurus": 20558,
    "Ġtent": 15465,
    "Ġpup": 12615,
    "eg": 17527,
    "Ġexhaled": 19680,
    "Ġsignifies": 19203,
    "Ġjustine": 4970,
    "Ġslip": 8954,
    "Ġwintry": 17431,
    "Ġprosecuted": 25293,
    "Ġviolin": 16426,
    "dict": 15336,
    "Ġpartner": 6714,
    "Ġspasmodically": 17311,
    "Ġdimmed": 24265,
    "Ġvow": 10246,
    "load": 12876,
    "Ġawkward": 7073,
    "Ġcontemptuously": 19831,
    "crawling": 16956,
    "Ġcontradictory": 20394,
    "Ġpurp": 2397,
    "Ġtet": 21155,
    "baned": 17493,
    "country": 6103,
    "Ġlane": 5627,
    "Ġboots": 5944,
    "Ġcannibal": 7774,
    "Ġmuzzle": 21318,
    "orily": 15569,
    "Ġsmote": 18575,
    "Ġfury": 7662,
    "ather": 740,
    "even": 3838,
    "Ġcircum": 8258,
    "Ġpatchwork": 24138,
    "dipped": 20835,
    "Ġ27": 8615,
    "ify": 1484,
    "Ġintroduction": 8970,
    "Ġwides": 17787,
    "Ġbal": 1133,
    "cery": 20806,
    "Ġabating": 22274,
    "Ġancles": 21444,
    "onial": 11566,
    "Ġpool": 5173,
    "Ġstrugg": 3216,
    "Ġnurse": 9516,
    "Ġbone": 4695,
    "umbers": 10918,
    "Ġhummed": 18776,
    "Ġquivered": 18466,
    "Ġundergo": 23237,
    "intended": 11066,
    "Ġunbecoming": 22057,
    "Ġtolland": 24989,
    "Ġfulf": 6772,
    "Ġruminated": 24599,
    "Ġherb": 15853,
    "Ġstrategies": 1839,
    "Ġcircumspect": 15081,
    "itted": 2444,
    "Ġdetached": 10280,
    "Ġsincerely": 7964,
    "dition": 15337,
    "claps": 23150,
    "Ġ105": 24411,
    "yard": 5900,
    "emptied": 23634,
    "Ġstudded": 18977,
    "Ġsupport": 6728,
    "Ġpow": 4638,
    "Ġformidable": 8220,
    "erie": 21269,
    "umer": 9257,
    "Ġshreds": 12766,
    "uther": 8816,
    "enthus": 17976,
    "class": 4096,
    "Ġnose": 4401,
    "Ġshelter": 17006,
    "Ġunit": 1847,
    "heim": 17744,
    "Ġinstrum": 6055,
    "Ġharpo": 1944,
    "Ġbeale": 12695,
    "Ġshriek": 6637,
    "Ġcarelessness": 13070,
    "abama": 12705,
    "Ġwipe": 25763,
    "Ġdiadem": 24740,
    "Ġrelev": 1714,
    "Ġlearnable": 3997,
    "franch": 24282,
    "lord": 3865,
    "carp": 9109,
    "Ġsphere": 15879,
    "Ġspake": 18307,
    "terr": 8154,
    "ositions": 10283,
    "Ġpane": 21461,
    "Ġgardener": 19133,
    "Ġdrily": 23537,
    "Ġdisabled": 18560,
    "Ġrallied": 14092,
    "urable": 8933,
    "Ġabhorred": 9507,
    "Ġabusing": 18397,
    "Ġtolerably": 8068,
    "Ġfully": 6342,
    "Ġchaise": 9076,
    "spent": 12937,
    "bond": 17487,
    "becomes": 22494,
    "Ġinclude": 1872,
    "Ġmeasured": 9803,
    "having": 5211,
    "agged": 9236,
    "Ġflag": 7242,
    "poise": 6171,
    "Ġclutches": 20015,
    "Ġinterfere": 11814,
    "ink": 756,
    "Ġsmacking": 20163,
    "Ġhilariously": 25450,
    "Ġpointing": 5661,
    "Ġshin": 18226,
    "client": 18930,
    "ads": 5718,
    "eryton": 4094,
    "Ġcontrad": 9754,
    "rusted": 16504,
    "Ġarrogance": 26230,
    "safe": 10053,
    "Ġhabitations": 24788,
    "socket": 22728,
    "Ġexecutioner": 12267,
    "Ġdod": 6672,
    "cture": 15661,
    "Ġdisappeared": 5645,
    "Ġunb": 10906,
    "tons": 7559,
    "Ġnantucket": 2839,
    "breaths": 25336,
    "Ġthree": 1370,
    "wer": 8395,
    "Ġfists": 15579,
    "divided": 25017,
    "hearth": 15497,
    "ý": 190,
    "Ġfrequent": 3286,
    "Ġmaterials": 11288,
    "Ġwoke": 21287,
    "grinder": 23412,
    "Ġportrait": 10661,
    "oug": 432,
    "Ġis": 347,
    "Ġwallowing": 24041,
    "Ą": 197,
    "Ġobli": 9315,
    "Ġhappen": 5570,
    "Ġforbidden": 17076,
    "Ġpemberley": 4589,
    "E": 41,
    "Ġannihilation": 15162,
    "food": 12459,
    "bee": 16035,
    "Ġhey": 11639,
    "Ġsovere": 9255,
    "Ġmealy": 18117,
    "Ġflaming": 8564,
    "Ġindist": 14405,
    "Ġpropri": 6738,
    "Ġenduring": 16301,
    "entreaties": 26184,
    "horse": 8606,
    "Ġhind": 9188,
    "eldest": 22789,
    "kins": 7345,
    "Ġbarrens": 25501,
    "Ġtrucks": 19510,
    "Ġprematurely": 24004,
    "Ġmodels": 774,
    "tied": 21068,
    "terdam": 18128,
    "inously": 21184,
    "Ġlawyer": 10668,
    "Ġfondness": 16778,
    "Ġbreadth": 10563,
    "witness": 10034,
    "Ġfeat": 10937,
    "Ġinfamous": 16361,
    "Ġhardships": 14448,
    "ethe": 9676,
    "acity": 5735,
    "Ġfoundations": 11073,
    "crop": 20796,
    "Ġreaching": 7303,
    "Ġjane": 1755,
    "prophecy": 22834,
    "Ġunworthy": 11712,
    "Ġgenial": 12190,
    "Ġdey": 11673,
    "snap": 24847,
    "Ġdissip": 10992,
    "Ġdough": 8421,
    "Ġprovide": 7750,
    "Ġsublimity": 26344,
    "listener": 24929,
    "Ġenlightened": 12742,
    "Ġnotion": 7883,
    "Ġidentify": 12009,
    "Ġshield": 21996,
    "neglected": 25668,
    "Ġmonkey": 8227,
    "Ġreckless": 13453,
    "fer": 1932,
    "Ġris": 4886,
    "Ġgradients": 611,
    "Ġsnoo": 21226,
    "Ġinsupportable": 13929,
    "ven": 782,
    "Ġribbons": 24327,
    "Ġhamp": 12626,
    "Ġfowls": 8691,
    "Ġgrappling": 25811,
    "Ġprodigious": 8057,
    "pra": 15405,
    "Ġrepetition": 8972,
    "ada": 14008,
    "ody": 1478,
    "Ġscorched": 17099,
    "Ġplanted": 9773,
    "sleeves": 26108,
    "Ġpoles": 11004,
    "Ġdepths": 4324,
    "itical": 5801,
    "stirred": 20422,
    "Ġslender": 11936,
    "Ġladies": 3191,
    "Ġmishap": 20574,
    "philosop": 9567,
    "Ġlists": 11166,
    "Ġgoblets": 20516,
    "Ġlords": 14639,
    "Ġshops": 21998,
    "sit": 13777,
    "Ġsnar": 13195,
    "making": 2573,
    "Ġobstructed": 24676,
    "Ġdiscomp": 11862,
    "has": 4014,
    "unity": 4151,
    "Ġworlds": 11943,
    "000": 2562,
    "Ġhimmale": 18333,
    "omorrah": 18016,
    "Ġbrilliancy": 20104,
    "pushed": 21021,
    "alone": 10183,
    "Ġdistances": 22499,
    "Ġtheories": 13846,
    "Ġstraighten": 24002,
    "yours": 7695,
    "Ġalleghan": 25794,
    "Ġpatagon": 14502,
    "opius": 18507,
    "elizabeth": 1987,
    "Ġretreated": 13428,
    "Ġtreasure": 9558,
    "Ġlim": 2385,
    "Ġabased": 22275,
    "oat": 13761,
    "Ġmonarchs": 25848,
    "Ġillustrations": 17106,
    "Ġdisinterested": 16054,
    "Ġsemicircle": 26066,
    "soul": 9140,
    "Ġsneeze": 24698,
    "superstitiousness": 25508,
    "Ġpains": 5965,
    "whale": 2142,
    "inf": 6232,
    "Ġstilly": 25972,
    "Ġelig": 9777,
    "dreaded": 25138,
    "Ġwed": 3960,
    "Ġdisappointed": 7097,
    "agon": 7872,
    "Ġbeams": 14629,
    "Ġeasier": 11165,
    "Ġwhistle": 9066,
    "unwillingly": 21881,
    "Ġmighty": 4229,
    "Ġnails": 12644,
    "Ġprivacy": 19522,
    "Ġcollapsed": 15078,
    "Ġconstable": 19067,
    "Ġpeered": 18670,
    "Ġunjustly": 17124,
    "wal": 10133,
    "message": 17369,
    "Ġ93": 24591,
    "==": 945,
    "bation": 9102,
    "Ġlucky": 7759,
    "Ġpartially": 13117,
    "Ġneighbor": 25802,
    "tempestuous": 26096,
    "dation": 2616,
    "deformity": 22144,
    "Ġcigar": 9544,
    "Ġjail": 22291,
    "out": 467,
    "Ġtrumpet": 9573,
    "stalls": 26471,
    "comrade": 20622,
    "Ġsink": 4340,
    "Ġattorney": 18620,
    "Ġlangs": 13951,
    "folding": 24926,
    "Ġimpious": 15983,
    "Ġaudibly": 24770,
    "Ġdusk": 12323,
    "Ġostlers": 25276,
    "Ġvaulted": 25167,
    "ft": 910,
    "Ġeliza": 6437,
    "Ġpl": 745,
    "Ġcompan": 2178,
    "Ġconsummation": 17422,
    "Ġinconven": 7586,
    "Ġcrotch": 9962,
    "restored": 18978,
    "Ġover": 555,
    "spell": 22731,
    "below": 12117,
    ".;": 20742,
    "Ġsperma": 19048,
    "pening": 2833,
    "Ġ10": 5249,
    "residence": 19262,
    "Ġexam": 3711,
    "Ġpositively": 13024,
    "Ġdarted": 4758,
    "Ġrabb": 4164,
    "Ġposs": 1622,
    "host": 5867,
    "bitt": 17483,
    "Ġincorruption": 26308,
    "osp": 6854,
    "culiar": 2821,
    "latitude": 25259,
    "Ġpersonages": 23538,
    "Ġindicated": 10469,
    "Ġsleek": 23379,
    "Ġpredecess": 18515,
    "Ġmisgivings": 15287,
    "Ġdreaminess": 23936,
    "Ġcongen": 10873,
    "Ġobliter": 14319,
    "Ġrevol": 5536,
    "rench": 3967,
    "otions": 7180,
    "Ġvari": 834,
    "Ġcetace": 14985,
    "Ġoverfitting": 1545,
    "Ġwhirlwinds": 20462,
    "urday": 13992,
    "itoring": 21329,
    "rength": 4101,
    "ples": 6845,
    "Ġanaly": 1151,
    "Ġhesitate": 16944,
    "Ġloveliest": 20259,
    "Ġprincip": 5599,
    "Ġchallenges": 13626,
    "Ġgait": 13325,
    "Ġrains": 24338,
    "Åĵuvre": 25886,
    "Ġgeneric": 18452,
    "spect": 3230,
    "Ġcombined": 8548,
    "meadow": 18678,
    "Ġextremely": 2670,
    "Ġnatives": 17949,
    "Ġdistrusted": 13537,
    "Ġmidway": 14602,
    "Ġaristotle": 25816,
    "Ġbarriers": 23792,
    "Ġbegg": 16249,
    "Ġconversing": 14631,
    "Ġfield": 1219,
    "Ġsing": 3071,
    "embra": 14073,
    "Ġresides": 22537,
    "Ġbecame": 2692,
    "make": 5793,
    "Ġplying": 17912,
    "Ġyoung": 1508,
    "Ġrudimental": 25107,
    "Ġwisdom": 11233,
    "Ġslips": 23164,
    "Ġlandsman": 11350,
    "ĠĠĠĠĠĠĠĠĠĠĠĠĠĠĠĠĠĠĠĠĠĠĠĠĠĠĠĠĠĠĠĠĠĠĠĠĠĠĠĠĠĠĠĠĠĠĠĠĠ": 20035,
    "Ġextrem": 2477,
    "Ġlying": 4825,
    "Ġfiery": 6871,
    "ods": 8835,
    "sprang": 19988,
    "seamen": 13622,
    "mouth": 9130,
    "abhorred": 17333,
    "Ġends": 8238,
    "Ġlearnedly": 23381,
    "ister": 1295,
    "test": 13789,
    "chance": 6827,
    "Ġappals": 22221,
    "arrange": 23763,
    "Ġmediocrity": 26606,
    "Ġestablishment": 13575,
    "Ġpledge": 11600,
    "Ġund": 4119,
    "purse": 20022,
    "Ġadopted": 15175,
    "Ġshipw": 12972,
    "Ġcontinuous": 1564,
    "Ġencoura": 1365,
    "Ġ182": 13231,
    "uiperai": 10663,
    "Ġbrutality": 26275,
    "Ġbehaviour": 4383,
    "×": 152,
    "Ġalighted": 18102,
    "Ġeffectual": 18726,
    "starbuck": 6019,
    "ullied": 23104,
    "Ġguard": 6178,
    "Ġlimp": 19178,
    "method": 17282,
    "Ġreveren": 13192,
    "Ġfingertips": 24015,
    "Ġstreet": 2955,
    "Ġinjuries": 11277,
    "irably": 13290,
    "mix": 20972,
    "Ġstrictest": 17040,
    "treas": 17677,
    "Ġprobability": 1127,
    "paus": 13770,
    "ober": 15404,
    "Ġmystic": 7503,
    "Ġhailing": 11690,
    "Ġfor": 340,
    "Ġnameless": 7700,
    "Ġcrescentic": 20618,
    "Ġmarshy": 20216,
    "Ġruth": 14090,
    "Ġ65": 24366,
    "Ġscrews": 25177,
    "Ġdiverged": 23592,
    "Ġsounding": 8265,
    "Ġdetection": 3431,
    "ographical": 16784,
    "scissors": 20725,
    "red": 396,
    "onely": 6516,
    "ulous": 4450,
    "Ġconfirmed": 11139,
    "Ġconsists": 11973,
    "Ġdesires": 9456,
    "Ġcomrade": 12279,
    "Ġmortals": 9915,
    "avering": 24792,
    "Ġvegetables": 15218,
    "Ġlustre": 15131,
    "Ġthem": 639,
    "season": 14031,
    "Ġthigh": 10186,
    "Ġearls": 18902,
    "Ġunprecedented": 15851,
    "Ġlarge": 1065,
    "roofed": 26182,
    "rate": 2426,
    "Ġnovels": 15926,
    "Ġsuff": 1303,
    "Ġarisen": 11740,
    "Ġsqu": 1038,
    "Ġdazz": 11593,
    "Ġmeaning": 1418,
    "fights": 20863,
    "omit": 13971,
    "Ġremembered": 5276,
    "Ġamaze": 22480,
    "sander": 11526,
    "ength": 2316,
    "Ġstig": 13999,
    "Ġnarrowly": 16818,
    "Ġcanallers": 13624,
    "Ġarch": 935,
    "Ġimpet": 11776,
    "Ġsaints": 20672,
    "Ġnoah": 10942,
    "ahawk": 23313,
    "Ġsatire": 22899,
    "Ġacquaintance": 4133,
    "silent": 9973,
    "Ġhanded": 8217,
    "Ġbradstreet": 9576,
    "Ġdevice": 1928,
    "Ġstrengthen": 20698,
    "ment": 688,
    "ignorantly": 25189,
    "M": 49,
    "Ġplan": 3882,
    "Ġfailure": 13309,
    "Ġflask": 3037,
    "bro": 4035,
    "dimly": 15343,
    "expressive": 24303,
    "previously": 17205,
    "Ġdiscoverers": 26035,
    "want": 8766,
    "Ġclattering": 22351,
    "Ġbattery": 21391,
    "Ġcab": 2635,
    "Ġeconomy": 17198,
    "imson": 12685,
    "brim": 23573,
    "Ġwhel": 15863,
    "Ġfearlessness": 19159,
    "hyp": 15363,
    "omet": 3073,
    "pitching": 24073,
    "pyramid": 21028,
    "bott": 9105,
    "Ġbat": 10795,
    "niest": 18956,
    "rapt": 13970,
    "Ġundulated": 19514,
    "totally": 25417,
    "Ġnightmare": 18918,
    "Ġwheelbarrow": 17202,
    "ickory": 22666,
    "Ġprefers": 20511,
    "Ġrationally": 18212,
    "Ġjav": 7903,
    "Ġportly": 14676,
    "Ġunderstood": 5655,
    "Ġincivility": 18573,
    "rarely": 21631,
    "Ġbarrel": 23789,
    "Ġoverhung": 15971,
    "Ġell": 17713,
    "lift": 15381,
    "Ġwater": 1949,
    "Ġembarrassed": 11384,
    "Ġbraided": 16579,
    "Ġmight": 965,
    "sac": 7140,
    "lips": 13747,
    "Ġright": 1507,
    "Ġegypt": 9678,
    "frankly": 20019,
    "Ġinstructive": 19284,
    "Ġcontinuing": 14395,
    "Ġriv": 10746,
    "Ġknitted": 19587,
    "Ġanything": 2190,
    "while": 2934,
    "wid": 10134,
    "Ġorgans": 15862,
    "christian": 17230,
    "Ġencourag": 1392,
    "Ġspaniard": 20360,
    "rusion": 11323,
    "ignorance": 17159,
    "forster": 16161,
    "Ġsufficiently": 8973,
    "Ġrocked": 12852,
    "Ġspeed": 2451,
    "Ġstir": 5823,
    "Ġintellectual": 11401,
    "Ġconstables": 19069,
    "his": 1414,
    "alice": 3207,
    "Ġrounds": 18882,
    "appalling": 22843,
    "plish": 18207,
    "lays": 14919,
    "bre": 3980,
    "Ġincor": 2612,
    "Ġezek": 18008,
    "gunwale": 20661,
    "arest": 4006,
    "Ġorthodox": 22092,
    "orrow": 2915,
    "Ġsnow": 3707,
    "centred": 25016,
    "till": 6965,
    "Ġwarmed": 12019,
    "Ġbanker": 8667,
    "Ġapril": 13658,
    "Ġsharks": 4498,
    "Ġcl": 553,
    "Ġlooked": 1803,
    "pshaw": 21026,
    "Ġcontrived": 10303,
    "constellation": 24607,
    "Ġcolt": 11043,
    "Ġeverlasting": 9336,
    "Ġvent": 3999,
    "Ġ40": 14765,
    "Ġrickety": 26503,
    "Ġacres": 14310,
    "bus": 5354,
    "Ġbun": 6007,
    "imen": 12682,
    "which": 1707,
    "Ġabilities": 8867,
    "atiously": 15519,
    "Ġenvironments": 23976,
    "zening": 21146,
    "Ġsteered": 11092,
    "Ġpronounce": 16966,
    "icated": 7590,
    "Ġoptimizer": 5036,
    "Ġladder": 8598,
    "alization": 732,
    "Ġfeared": 5931,
    "Ġcenturies": 8623,
    "eling": 6681,
    "Ġundeniable": 26508,
    "pher": 11511,
    "urmountable": 15276,
    "motion": 17604,
    "ante": 11718,
    "gs": 7338,
    "Ġbaggy": 24536,
    "Ġbrightly": 13218,
    "uary": 11537,
    "Ġaltered": 7393,
    "Ġsteal": 16280,
    "kish": 20932,
    "Ġstyled": 24670,
    "hav": 20895,
    "master": 5687,
    "Ġmatter": 1733,
    "Ġcommission": 6712,
    "soever": 11856,
    "quired": 21841,
    "Ġvexations": 24609,
    "Ġvisited": 5948,
    "Ġincommunicable": 26609,
    "Ġfonder": 17879,
    "rative": 17650,
    "Ġbund": 17862,
    "Ġmutual": 8296,
    "Ġdisd": 7030,
    "Ġendured": 6073,
    "Ġundulations": 19513,
    "Ġinhuman": 13926,
    "Ġgraceful": 11296,
    "semble": 1529,
    "Ġimplicit": 19955,
    "Ġrefinement": 18704,
    "Ġbehoo": 19034,
    "R": 54,
    "Ġarist": 14159,
    "lled": 10107,
    "strike": 14946,
    "arness": 11670,
    "Ġchar": 1703,
    "necess": 4896,
    "accept": 8897,
    "ification": 1018,
    "Ġrolled": 4429,
    "especially": 3572,
    "Ġbusy": 6189,
    "ccas": 15887,
    "Ġpipe": 4319,
    "Ġseventy": 7879,
    "Ġphysiognomy": 25609,
    "Ġhardware": 4904,
    "agreeable": 5829,
    "cursed": 23840,
    "Ġslouched": 13052,
    "Ġdeprived": 8210,
    "console": 22470,
    "comple": 7440,
    "arch": 1108,
    "Ġdisagree": 22529,
    "Ġdairy": 20684,
    "msgate": 18411,
    "Ġunassuming": 20506,
    "Ġsayest": 22774,
    "Ġcumbrous": 26430,
    "Ġapproximates": 2421,
    "gallant": 7781,
    "Ġitems": 9691,
    "ui": 9144,
    "Ġsummer": 4790,
    "Ġdaughter": 2869,
    "Ġamel": 18508,
    "onious": 15516,
    "Ġcry": 3496,
    "ittered": 18438,
    "Ġprimitive": 25060,
    "source": 11525,
    "urp": 1473,
    "read": 3275,
    "Ġallows": 3232,
    "Ġshifted": 14104,
    "Ġraft": 16113,
    "Ġfattened": 25948,
    "saying": 8641,
    "greatest": 10493,
    "Ġexamination": 8005,
    "agitation": 14065,
    "Ġoverwhel": 8197,
    "Ġprair": 7747,
    "Ġaffrighted": 13568,
    "thern": 4953,
    "Ġspark": 6689,
    "shroud": 20310,
    "Ġclaps": 22346,
    "reasonable": 7752,
    "Ġgruff": 21611,
    "adv": 4538,
    "exp": 2739,
    "Ġamazed": 14886,
    "Ġswings": 11086,
    "84": 15298,
    "oder": 2462,
    "brimming": 23575,
    "geneva": 13727,
    "rive": 9706,
    "Ġspinal": 12298,
    "ocation": 14624,
    "seam": 10874,
    "faced": 8080,
    "Ġskilful": 25836,
    "Ġinquest": 16544,
    "Ġdem": 11672,
    "Ġtoma": 7373,
    "Ġsacred": 10928,
    "orand": 21394,
    "Ġbreezes": 14866,
    "Ġbount": 15564,
    "Ġexertion": 8054,
    "Ġunlab": 3788,
    "Ġcoroner": 7510,
    "conditional": 9078,
    "Ġflamingo": 15097,
    "engagements": 25852,
    "Ġlovers": 9719,
    "traces": 24313,
    "Ġpresume": 8038,
    "Ġpy": 21449,
    "Ġbulk": 5590,
    "yd": 21140,
    "Ġconstant": 6309,
    "Ġsacri": 18326,
    "Ġtinged": 20080,
    "Ġmacey": 12558,
    "Ġfow": 6133,
    "ĠĠĠĠĠĠĠĠĠĠ": 18578,
    "Ġresistance": 13525,
    "aurs": 20767,
    "irene": 15911,
    "Ġplowdon": 26445,
    "ol": 362,
    "Ġsnugness": 20074,
    "ans": 458,
    "Ġnic": 7376,
    "distant": 13329,
    "Ġannoyed": 17197,
    "Ġmorality": 22975,
    "Ġvoc": 4451,
    "rugg": 15893,
    "Ġsuperstitious": 13515,
    "Ġellenborough": 26153,
    "Ġrighted": 23175,
    "Ġdreamt": 23935,
    "guest": 19479,
    "vanished": 15060,
    "Ġdesp": 3214,
    "Ġlooks": 4166,
    "Ġcrozetts": 19627,
    "Ġgets": 10839,
    "Ġoverall": 4358,
    "Ġimprec": 14213,
    "swell": 17661,
    "Ġlinks": 13952,
    "ashion": 3859,
    "hauled": 20666,
    "Ġeurope": 8062,
    "Ġsemicirc": 16386,
    "Ġkins": 22191,
    "mur": 5428,
    "illed": 2626,
    "Ġpooh": 18604,
    "Ġgreenland": 5761,
    "Ġpointed": 4773,
    "Ġsmo": 2703,
    "Ġclang": 15962,
    "Ġnailing": 21524,
    "holes": 12050,
    "Ġceremonies": 24835,
    "Ġprev": 6264,
    "Ġrequisite": 18631,
    "Ġendeav": 2952,
    "Ġgoblet": 25822,
    "Ġventing": 19491,
    "mo": 863,
    "ple": 455,
    "Ġspiracle": 14147,
    "whiskers": 12307,
    "instances": 13314,
    "Ġcredited": 25153,
    "moral": 14798,
    "Ġdoings": 18374,
    "Ġsinners": 18949,
    "erest": 10697,
    "bat": 8072,
    "Ġmeagre": 21807,
    "Ġtraditions": 11443,
    "urring": 21702,
    "othe": 2617,
    "hunting": 24383,
    "Ġlanguor": 12842,
    "Ġprinciples": 10010,
    "Ġlend": 17961,
    "hom": 12469,
    "ived": 1536,
    "Ġravines": 25830,
    "allied": 7410,
    "coburg": 13594,
    "omeness": 18014,
    "Ġancestors": 25641,
    "Ġsweet": 3467,
    "¥": 103,
    "Ġsincere": 11136,
    "Ġsuperfluous": 17411,
    "Ġcaptive": 14424,
    "Ġrigger": 19528,
    "cart": 10688,
    "Ġinsens": 8277,
    "vess": 7354,
    "pard": 9618,
    "'t": 3144,
    "kinder": 24844,
    "Ġrashly": 20303,
    "stately": 18020,
    "Ġoutstanding": 22313,
    "bushes": 24445,
    "Ġdefray": 22938,
    "Ġexploring": 4303,
    "m": 81,
    "Ġmeanwhile": 5736,
    "Ġlandau": 16416,
    "Ġhitting": 21484,
    "yourselves": 24957,
    "iscient": 17850,
    "Ġreserve": 9970,
    "Ġchristians": 13303,
    "makes": 10711,
    "Ġdetained": 18385,
    "grandfather": 25008,
    "sat": 4810,
    "Ġ9": 5901,
    "Ġretort": 23068,
    "uttered": 8441,
    "Ġjung": 12832,
    "Ġamend": 16031,
    "Ġhoary": 23350,
    "ories": 4753,
    "Ġcircumnavigating": 25613,
    "Ġannounce": 13333,
    "Ġunreasonable": 12772,
    "Ġglossy": 15224,
    "twas": 15435,
    "Ġmeets": 7396,
    "Ġfly": 3870,
    "bench": 16801,
    "mer": 2834,
    "Ġdisagreeable": 9297,
    "wich": 11543,
    "Ġpainfully": 13137,
    "Ġinexper": 16978,
    "Ġfriendship": 7246,
    "Ġrod": 9279,
    "crowning": 25747,
    "Ġdropping": 7483,
    "Ġboil": 16101,
    "bourgh": 19102,
    "ounding": 22389,
    "Ġaint": 17742,
    "Ġdeline": 16330,
    "effect": 8604,
    "hercules": 22201,
    "Ġcongratulatory": 19765,
    "Ġtufted": 17012,
    "Ġcant": 17823,
    "recurring": 24191,
    "whips": 22235,
    "apsed": 6295,
    "Ġcompass": 4407,
    "Ġjanuary": 13649,
    "Ġdelight": 2550,
    "lish": 1952,
    "Ġtiresome": 26155,
    "case": 5206,
    "Ġomitted": 12559,
    "Ġbias": 1191,
    "Ġmoves": 14229,
    ";--": 8069,
    "marks": 7346,
    "Ġclothed": 19604,
    "fic": 20850,
    "Ġinstructions": 11195,
    "Ġrepositories": 23360,
    "*": 14,
    "Ġpaper": 4281,
    "Ġeyed": 12663,
    "delighted": 10562,
    "Ġsaucer": 20603,
    "Ġarg": 4766,
    "Ġsecond": 1889,
    "Ġsteeply": 23720,
    "admire": 24942,
    "Ġlone": 11612,
    "wers": 12515,
    "sings": 4250,
    "Ġdiscovery": 5412,
    "Ġtelegraph": 25582,
    "unctuous": 21879,
    "Ġhoarsely": 26301,
    "Ġrome": 12151,
    "mble": 1407,
    "immedi": 8450,
    "ambition": 13406,
    "indirect": 22369,
    "buncle": 13689,
    "allowing": 24356,
    "entropy": 1441,
    "Ġelevation": 14894,
    "Ġcurric": 22965,
    "ruit": 22174,
    "Ġharris": 13924,
    "attering": 7419,
    "Ġincrease": 9369,
    "Ġkeep": 2358,
    "Ġoverhear": 15972,
    "Ġindirect": 18833,
    "dogs": 25402,
    "Ġjump": 4504,
    "Ġbewil": 11655,
    "Ġmorphology": 3010,
    "Ġknelt": 12154,
    "Ġawakened": 10453,
    "Ġundeserving": 18264,
    "ound": 585,
    "antique": 18287,
    "Ġreproof": 24889,
    "spanish": 14332,
    "earliest": 20117,
    "Ġgrim": 7441,
    "Ġempires": 19072,
    "imagination": 13475,
    "Ġconstrain": 2631,
    "Ġvoice": 2195,
    "Ġcheerfulness": 10516,
    "Ġincommod": 25307,
    "Ġperches": 18447,
    "Ġintersect": 22573,
    "reed": 6373,
    "trimmed": 23945,
    "Ġsensibly": 14511,
    "eding": 7165,
    "uc": 1874,
    "Ġsmiting": 12894,
    "Ġmediocr": 24081,
    "allic": 12809,
    "perceived": 8858,
    "attached": 11931,
    "Ġglistened": 20170,
    "beginning": 13557,
    "Ġprison": 5403,
    "ilty": 6394,
    "hopper": 23711,
    "harmony": 25749,
    "Ġglimp": 6066,
    "Ġdoubly": 16382,
    "personal": 24964,
    "itig": 1331,
    "Ġentrance": 7233,
    "Ġflaw": 23007,
    "54": 15296,
    "urmount": 13993,
    "Ġflattening": 26047,
    "Ġor": 437,
    "Ġvagueness": 25736,
    "nical": 20989,
    "Ġobliged": 4284,
    "Ġcontact": 9280,
    "tomahawk": 25914,
    "Ġasiatic": 20427,
    "Ġpeople": 2546,
    "Ġbringing": 5869,
    "Ġplanet": 14747,
    "Ġconversed": 13183,
    "Ġtreacherous": 13550,
    "Ġfounded": 8558,
    "Ġqualities": 7533,
    "lydon": 13986,
    "nephew": 26395,
    "Ġprivately": 19521,
    "ouch": 2781,
    "Ġcetacean": 25877,
    "Ġxlvi": 25589,
    "Ġvouch": 15806,
    "Ġlog": 1679,
    "Ġrevisit": 21667,
    "irc": 1728,
    "gast": 20869,
    "Ġflatt": 16243,
    "Ġcouns": 10520,
    "Ġofficial": 7081,
    "Ġswan": 23048,
    "Ġrefine": 3231,
    "Ġfed": 5529,
    "Ġsupplied": 8943,
    "assure": 9268,
    "Ġsynd": 22203,
    "Ġsnatching": 10472,
    "Ġgrope": 17993,
    "tiger": 13794,
    "Ġsiber": 17753,
    "Ġtrifling": 10602,
    "Ġcomprehending": 24443,
    "stretch": 13978,
    "Ġ$": 21148,
    "ancing": 1756,
    "afflicted": 23776,
    "borrowed": 20790,
    "raint": 18314,
    "Ġobeying": 13409,
    "Ġadjusts": 8980,
    "enborough": 21283,
    "Ġreservo": 16829,
    "Ġamidst": 9493,
    "Ġdisgrace": 7215,
    "Ġholidays": 22919,
    "Ġjapan": 7639,
    "Ġelasticity": 19556,
    "erval": 4020,
    "Ġwink": 11568,
    "Ġparacels": 13664,
    "Ġholding": 4979,
    "smitten": 23905,
    "Ġharpooning": 23975,
    "prudently": 21032,
    "bulk": 19922,
    "Ġpropensity": 18995,
    "persecut": 22182,
    "-------": 20386,
    "ensities": 22544,
[...]
