{
  "metadata": {
    "vocab_size": 26614,
    "algorithm": "BPE",
    "created_at": "2026-09-21 07:36:00",
    "special_tokens": [
      "<PAD>",
      "<SOS>",
      "<EOS>",
      "<UNK>",
      "<MASK>"
    ]
  },
  "vocab": {
    "stirring": 20424,
    "asily": 13945,
    "unwillingness": 25802,
    "Ġample": 11796,
    "idy": 21761,
    "Ġannot": 15599,
    "Ġpul": 2040,
    "Ġthinking": 4033,
    "apprehension": 26114,
    "urmount": 13994,
    "sought": 15426,
    "Ġconfirm": 9855,
    "Ġinflexibly": 26370,
    "gathered": 13731,
    "Ġdespairing": 14772,
    "hem": 6663,
    "Ġ/*": 10139,
    "jury": 15372,
    "Ġsordid": 26422,
    "Ġinnoc": 3795,
    "Ġconting": 18472,
    "\\": 64,
    "Ġsurest": 19058,
    "Ġwol": 15528,
    "Ġanx": 3179,
    "Ġpreparations": 12308,
    "Ġpeels": 22688,
    "Ġfathom": 17048,
    "Ġproceeding": 9905,
    "murderer": 13392,
    "Ġnorm": 763,
    "www": 17251,
    "Ġpod": 15601,
    "oundered": 14164,
    "ters": 1569,
    "Ġunless": 4091,
    "Ġreferred": 8916,
    "isl": 21373,
    "algorithms": 8292,
    "Ġpavement": 9577,
    "aspect": 10193,
    "ver": 331,
    "ats": 4254,
    "Ġfavourite": 5270,
    "Ġdismember": 20214,
    "Ġhedges": 19983,
    "quet": 6835,
    "Ġfringe": 17271,
    "Ġexactly": 2770,
    "Ġexcluded": 16383,
    "Ġr": 405,
    "Ġjun": 8505,
    "Ġpatience": 2682,
    "Ġfob": 21407,
    "tiness": 21070,
    "bell": 7332,
    "Ġtinted": 13821,
    "ha": 3984,
    "orne": 17872,
    "oric": 21394,
    "Ġconcentrated": 15082,
    "tland": 21072,
    "Ġstruck": 3391,
    "Ġconce": 3424,
    "Ġjollies": 20368,
    "Ġcanoe": 9722,
    "Ġnocturn": 18375,
    "Ġshrieked": 9547,
    "vanity": 24974,
    "Ġsuffers": 2974,
    "Ġblubber": 5666,
    "cating": 20801,
    "Ġmysteriously": 24601,
    "Ġshe": 466,
    "Ġgrew": 5182,
    "rumours": 23897,
    "oblig": 16289,
    "Ġscandal": 9081,
    "Ġpreluding": 18368,
    "Ġglowing": 12280,
    "Ġexcuses": 19041,
    "Ġcanv": 7009,
    "pul": 8753,
    "iod": 3839,
    "Ġpassion": 4558,
    "Ġmiscell": 16147,
    "Ġlandlord": 5581,
    "Ġdistributes": 4195,
    "Ġridge": 14818,
    "wishes": 13806,
    "Ġflatt": 16244,
    "Ġmadden": 10447,
    "Ġbeseeching": 26311,
    "truth": 9918,
    "Ġhighest": 3531,
    "Ġperf": 12846,
    "Ġspokes": 18313,
    "Ġpaltry": 16692,
    "Ġlestrade": 5825,
    "Ġstud": 1586,
    "grampus": 18618,
    "Ġrounding": 16274,
    "Ġturns": 4981,
    "Ġhandling": 8912,
    "Ġrabbit": 4290,
    "Ġrepaired": 13106,
    "tot": 10728,
    "Ġsatire": 22898,
    "Ġasc": 4765,
    "Ġgorgeous": 20465,
    "Ġeat": 4644,
    "aurs": 20768,
    "frame": 17116,
    "Ġrare": 7036,
    "fashion": 8080,
    "groom": 8739,
    "Ġindiscreet": 22953,
    "Ġancient": 5443,
    "Ġeasier": 11165,
    "Ġenvironment": 3981,
    "semicirc": 26491,
    "Ġchange": 1995,
    "Ġcousins": 9914,
    "Ġcompre": 4450,
    "Ġobligation": 13242,
    "Ġjub": 22292,
    "Ġsmells": 8889,
    "emed": 3382,
    "Ġparticularly": 5056,
    "Ġinward": 11606,
    "Ġexpression": 4517,
    "oper": 7347,
    "Ġfl": 1277,
    "Ġviewing": 19263,
    "carriage": 9945,
    "arus": 13911,
    "iated": 5889,
    "Ġperplex": 2718,
    "umbered": 22114,
    "Ġopp": 2699,
    "Ġferry": 24498,
    "Ġjavelins": 26105,
    "ole": 9613,
    "Ġthoughtlessness": 16192,
    "Ġpounds": 5368,
    "ision": 1857,
    "Ġhumiliation": 16197,
    "chant": 4259,
    "finally": 9498,
    "59": 17473,
    "Ġsweating": 16462,
    "Ġmeddle": 19490,
    "Ġbabel": 24426,
    "Ġdiffusion": 23781,
    "ü": 189,
    "Ġaimed": 20249,
    "Ġtropic": 17064,
    "violently": 23542,
    "perfectly": 9085,
    "Ġroutine": 13507,
    "Ġunsub": 22018,
    "nailed": 20995,
    "drawers": 19384,
    "Ġsliding": 9362,
    "Ġunderstood": 5655,
    "Ġanalogical": 25640,
    "Ġmissionary": 25696,
    "Ġtestified": 16327,
    "kish": 20933,
    "Ġmechanical": 7937,
    "ence": 394,
    "Ġchapel": 9522,
    "hun": 5210,
    "ugal": 19020,
    "Ġdisquis": 22524,
    "darted": 20831,
    "Ġyounger": 5252,
    "Ġunsettled": 14122,
    "Ġstren": 15717,
    "chastic": 2336,
    "Ġsharper": 17179,
    "Ġrecognised": 8995,
    "heartily": 24215,
    "Ġgangs": 21606,
    "ondency": 15268,
    "Ġshaken": 10264,
    "Ġsisters": 3642,
    "Ġbruised": 25772,
    "seas": 14032,
    "Ġburden": 8607,
    "Ġval": 964,
    "Ġbeer": 10219,
    "Ġcultivation": 17145,
    "Ġcapacious": 19175,
    "Ġimprec": 14214,
    "Ġcontains": 2794,
    "arrang": 14652,
    "Ġhealthcare": 8015,
    "Ġseaward": 22944,
    "water": 4868,
    "Ġsyllable": 9727,
    "Ġbuzz": 23994,
    "bulk": 19923,
    "iffe": 21899,
    "usual": 5840,
    "Ġadoration": 18292,
    "ulations": 6028,
    "Ġidea": 2489,
    "Ġcaut": 6521,
    "kne": 20934,
    "Ġmessage": 13522,
    "Ġconcrete": 20636,
    "handedness": 24920,
    "Ġgroom": 13965,
    "Ġattaining": 15801,
    "turtle": 12209,
    "Ġsteak": 9828,
    "Ġarrang": 2470,
    "Ġcondescended": 19954,
    "splice": 17170,
    "Ġspare": 5102,
    "Ġexception": 11216,
    "Ġmeek": 21809,
    "Ġoutdone": 22315,
    "Ġheathenish": 13615,
    "Ġplaced": 3447,
    "Ġproduce": 4369,
    "common": 4129,
    "Ġmot": 2985,
    "disinterested": 23501,
    "Ġlaud": 17967,
    "top": 4487,
    "Ġon": 351,
    "Ġstars": 6149,
    "Ġdeparted": 5564,
    "Ġdrunk": 9423,
    "Ġforge": 8456,
    "john": 11497,
    "Ġillness": 8589,
    "rival": 12739,
    "Ġpurchase": 12257,
    "Ġcomposure": 7217,
    "stripped": 16945,
    "Ġcontemporary": 16010,
    "Ġrambles": 17184,
    "Ġward": 10155,
    "Ġphotography": 24683,
    "Ġunhing": 18241,
    "erranean": 9333,
    "Ġbutton": 10267,
    "Ġairs": 14511,
    "Ġdistinctions": 18532,
    "Ġaim": 10145,
    "Ġglass": 4371,
    "furn": 10091,
    "tee": 16168,
    "Ġhasn": 12924,
    "Ġmungo": 25631,
    "Ġreck": 6537,
    "Ġtight": 8107,
    "Ġmanner": 2195,
    "Ġfilial": 16620,
    "nosed": 20991,
    "Ġdeity": 18134,
    "Ġostens": 25275,
    "Ġhonor": 5664,
    "vedale": 22707,
    "brink": 23575,
    "Ġendangered": 16302,
    "Ġkilling": 13331,
    "cnns": 3623,
    "Ġgrinned": 16857,
    "Ġvolcano": 24147,
    "Ġstump": 7602,
    "Ġtrifle": 10601,
    "harpooneer": 8688,
    "Ġbitter": 4174,
    "sou": 12503,
    "Ġpeev": 22690,
    "mankind": 14373,
    "eked": 16401,
    "onian": 17767,
    "Ġimpact": 10293,
    "halfway": 24311,
    "Ġspeeches": 22655,
    "Ġimitate": 14157,
    "Ġvicinity": 7315,
    "Ġwantest": 18790,
    "Ġfat": 3465,
    "separately": 25227,
    "Ġreappearance": 21664,
    "Ġnarratives": 24353,
    "Ġsimilitude": 19208,
    "prejudice": 25571,
    "orus": 10801,
    "Ġcapst": 8596,
    "Ġunderstanding": 1822,
    "pulous": 15415,
    "txt": 12513,
    "Ġdreadfully": 7725,
    "Ġcollinses": 19129,
    "Ġdared": 5440,
    "Ġbelieved": 4370,
    "Ġhempen": 13549,
    "ushion": 14719,
    "Ġsurmisings": 26593,
    "Ġnewspapers": 17186,
    "aming": 5828,
    "Ġsemicircular": 26069,
    "Ġdispirited": 23880,
    "Ġsuperseded": 26223,
    "Ġdespondency": 16576,
    "shipmates": 11926,
    "Ġche": 1763,
    "ho": 2858,
    "Ġdictating": 20151,
    "Ġsensations": 5259,
    "thro": 12758,
    "oup": 2015,
    "Ġtil": 12521,
    "pate": 21009,
    "Ġneedlessly": 23628,
    "Ġleads": 12094,
    "Ġportent": 12079,
    "height": 21204,
    "Ġintermediate": 18590,
    "Ġfool": 4236,
    "Ġrapt": 7227,
    "oqu": 7555,
    "Ġreferences": 21671,
    "Ġrecover": 9791,
    "Ġgard": 2189,
    "Ġdaring": 8120,
    "Ġbathing": 20198,
    "cross": 3578,
    "S": 55,
    "Ġshoot": 11161,
    "fabulous": 20472,
    "Ġunlikely": 10908,
    "Ġbureau": 11589,
    "arboard": 7266,
    "Ġquit": 5246,
    "Ġsealed": 15816,
    "ter": 359,
    "Ġreflections": 5946,
    "Ġbounty": 26437,
    "irious": 15783,
    "Ġcutting": 4983,
    "µ": 118,
    "ô": 181,
    "Ġconclusion": 5985,
    "Ġimpudence": 26241,
    "Ġbubblingly": 25632,
    "Ġacquaintances": 17349,
    "Ġsem": 1879,
    "attempt": 9359,
    "rucastle": 22181,
    "Ġintervene": 25480,
    "Ġlost": 2636,
    "lamps": 25260,
    "Ġsteel": 3889,
    "Ġstealing": 18893,
    "Ġdecaying": 2249,
    "Ġbeholding": 8668,
    "base": 20776,
    "Ġdeclare": 6614,
    "Ġcollect": 7237,
    "800": 17476,
    "away": 4626,
    "Ġmuscle": 14689,
    "covering": 15333,
    "hunted": 16832,
    "Ġpilgrimage": 17307,
    "asses": 7016,
    "Ġbulls": 23856,
    "Ġtaurus": 21177,
    "whom": 8184,
    "alogue": 25159,
    "Ġultimate": 12347,
    "Ġmomentum": 1601,
    "Ġcensus": 15095,
    "Ġturtle": 4204,
    "poverty": 22905,
    "rive": 9706,
    "front": 12168,
    "Ġdropout": 1555,
    "idually": 21766,
    "Ġsurf": 19131,
    "Ġwaved": 9644,
    "âĢ": 294,
    "james": 15371,
    "Ġdisconsol": 18557,
    "near": 5842,
    "omitted": 18016,
    "Ġcovent": 16070,
    "dropping": 14981,
    "Ġsupplement": 22999,
    "Ġapex": 24342,
    "Ġabstra": 22268,
    "Ġgrapp": 14100,
    "ateral": 19375,
    "Ġunnear": 22023,
    "Ġrabb": 4165,
    "Ġshout": 4265,
    "ments": 1400,
    "Ġcautiousness": 19865,
    "claps": 23151,
    "ignation": 11128,
    "rugg": 15898,
    "Ġthese": 820,
    "inkling": 16088,
    "Ġsnow": 3708,
    "father": 3777,
    "Ġentitled": 8538,
    "Ġproximity": 3218,
    "inous": 8771,
    "Ġhung": 4561,
    "ech": 4391,
    "ange": 1017,
    "shells": 26056,
    "Ġwe": 388,
    "Ġregain": 22583,
    "Ġfossiliferous": 25609,
    "Ġ16": 7926,
    "Ġgibraltar": 25787,
    "piling": 15414,
    "made": 4808,
    "ension": 6569,
    "cham": 10853,
    "Ġindirectly": 8939,
    "Ġunspeakable": 10055,
    "Ġforbear": 17121,
    "12": 20748,
    "Ġbe": 336,
    "Ġstories": 10865,
    "orrow": 2916,
    "Ġbetrayed": 9561,
    "Ġjunks": 25113,
    "scheme": 15253,
    "Ġintrodu": 1926,
    "Ġmend": 8405,
    "Ġabrupt": 9735,
    "Ġbanqu": 12585,
    "Ġgathered": 8442,
    "Ġstart": 3259,
    "Ġgrievances": 20647,
    "us": 531,
    "Ġenem": 4708,
    "Ġtakings": 20571,
    "Ġprotested": 9933,
    "batross": 9092,
    "master": 5687,
    "Ġdere": 21831,
    "Ġcounters": 24140,
    "Ġquart": 11785,
    "trop": 15435,
    "Ġfront": 3454,
    "Ġbasket": 9572,
    "Ġoffice": 4965,
    "snapping": 24849,
    "Ġgetting": 4067,
    "intern": 23734,
    "cim": 8719,
    "Ġalchemists": 26487,
    "Ġtrump": 8194,
    "Ġpractises": 23300,
    "rador": 19158,
    "Ġpatterns": 1214,
    "training": 2520,
    "ę": 218,
    "Ġpersisted": 13033,
    "draught": 12087,
    "Ġmisunderstand": 18704,
    "Ġ2026": 12333,
    "Ġmedical": 9463,
    "Ġnear": 1717,
    "pudding": 17647,
    "crier": 20819,
    "Ġro": 598,
    "Ġrequested": 14300,
    "icient": 774,
    "Ġchances": 9262,
    "odd": 21806,
    "Ġinsular": 19267,
    "athies": 22697,
    "Ġabsurdities": 24878,
    "Ġthreat": 5154,
    "upright": 23014,
    "Ġscreening": 25300,
    "Ġnobody": 6158,
    "homely": 25617,
    "Ġcuba": 25095,
    "hear": 10146,
    "knife": 6942,
    "Ġugl": 12679,
    "warks": 5004,
    "Ġpy": 21449,
    "Ġregained": 18598,
    "Ġpleated": 16295,
    "they": 1881,
    "Ġconcisely": 19046,
    "Ġmerchant": 6467,
    "Ġavenue": 13620,
    "Ġbegan": 2022,
    "Ġ36": 14766,
    "whosoever": 22237,
    "Ġfreshets": 25705,
    "Ġthinkings": 22807,
    "Ġ32": 19487,
    "Ġpie": 13914,
    "Ġwidows": 24236,
    "ial": 411,
    "monster": 8592,
    "spermaceti": 12191,
    "rapidly": 15242,
    "Ġsuperglue": 23458,
    "Ġvanish": 8927,
    "Ġpulling": 5862,
    "Ġinfinite": 8576,
    "Ġcontest": 18473,
    "ently": 1614,
    "Ġshrieking": 24758,
    "Ġdiscl": 9796,
    "christmas": 20254,
    "Ġcommissionaire": 17000,
    "Ġscore": 9737,
    "Ġincredulity": 11311,
    "armon": 23056,
    "\"],": 26120,
    "endurable": 22225,
    "partly": 14602,
    "Ġcompressed": 21842,
    "Ġwashed": 15762,
    "Ġbodiless": 24226,
    "Ġinherited": 25353,
    "Ġstructural": 2799,
    "Ġsoldiers": 8686,
    "Ġfeast": 10277,
    "Ġfarmhouse": 24984,
    "Ġsill": 10765,
    "Ġprov": 4402,
    "ordingly": 18518,
    "Ġsubterraneous": 20264,
    "Ġanchors": 12610,
    "Ġbroke": 5322,
    "aculate": 16080,
    "Ġebony": 18008,
    "rock": 15638,
    "Ġ111": 24436,
    "Ġforbidding": 17079,
    "Ġmanners": 3791,
    "causing": 25518,
    "ins": 1377,
    "Ġswear": 6461,
    "Ġnormalization": 1239,
    "thank": 4950,
    "amed": 4451,
    "Ġaccidental": 16848,
    "monkey": 19169,
    "Ġpromised": 5181,
    "Ġresounds": 22539,
    "Ġscorching": 20066,
    "edged": 15628,
    "Ġclasses": 4056,
    "Ġconfeder": 25708,
    "dden": 1805,
    "Ġproperty": 6450,
    "arded": 5029,
    "Ġbrain": 2087,
    "bod": 12435,
    "Ġcontrad": 9754,
    "appearing": 14637,
    "umul": 1288,
    "Ġsweetly": 23916,
    "Ġvivacity": 14940,
    "Ġdebar": 24271,
    "Ġsharply": 9402,
    "Ġprogram": 12990,
    "Ġflor": 8561,
    "Ġmeekly": 26490,
    "Ġgrasp": 4664,
    "Ġlawn": 7379,
    "Ġcocks": 18593,
    "icacy": 15655,
    "lashed": 20953,
    "Ġcheetah": 14503,
    "Ġcaught": 3731,
    "Ġdisliked": 12888,
    "Ġgloomily": 14800,
    "Ġforbidden": 17078,
    "Ġjudged": 12081,
    "Ġsplendid": 17213,
    "pect": 1253,
    "Ġstarbuck": 2193,
    "Ġoffences": 18693,
    "owders": 18050,
    "retion": 9361,
    "Ġfoiled": 23243,
    "tor": 15431,
    "animation": 16979,
    "Ġsuccor": 25662,
    "shuff": 18484,
    "Ġinferred": 14501,
    "Ġdemi": 25548,
    "resist": 8275,
    "Ġhanding": 16128,
    "Ġapple": 14168,
    "Ġcourting": 23289,
    "Ġeternity": 12276,
    "istic": 1015,
    "Ġeste": 6084,
    "burned": 25079,
    "itchen": 7787,
    "Ġteach": 8553,
    "Ġoptim": 781,
    "Ġvoid": 14085,
    "Ġpatriot": 23276,
    "marvell": 24172,
    "Ġindulgence": 11319,
    "Ġpatched": 16359,
    "Ġinstruct": 2864,
    "has": 4015,
    "Ġeighteen": 11239,
    "Ġinjunctions": 24269,
    "Ġanon": 9666,
    "Ġjohnson": 18409,
    "Ġscenery": 11456,
    "Ġjackson": 24240,
    "insist": 23061,
    "Ġfidelity": 15240,
    "failed": 20862,
    "Ġpenetration": 19916,
    "nants": 17613,
    "Ġsigned": 11177,
    "Ġabed": 22262,
    "Ġhysterics": 26093,
    "Ġabhorrent": 16856,
    "Ġbind": 12579,
    "Ġdisturbed": 8671,
    "Ġseamen": 5063,
    "Ġmol": 12558,
    "Ġresource": 10993,
    "Ġsenor": 20149,
    "Ġcry": 3499,
    "travellers": 24318,
    "venge": 4659,
    "Ġhab": 4219,
    "majesty": 26280,
    "Ġstupidity": 15049,
    "Ġyojo": 7610,
    "aco": 12903,
    "Ġjago": 22296,
    "Ġcoburg": 18595,
    "nder": 20986,
    "Ġcommissioned": 19894,
    "?âĢĿâĢĶ": 12892,
    "Ġinheriting": 25354,
    "daring": 20828,
    "Ġcran": 11999,
    "Ġstreamed": 14547,
    "Ġdotted": 16792,
    "Ġmuse": 13859,
    "Ġhypothe": 4075,
    "istence": 2274,
    "Ġgoal": 10301,
    "Ġseems": 2484,
    "amet": 591,
    "circle": 16736,
    "Ġtougher": 21175,
    "Ġstaff": 14005,
    "Ġbale": 7838,
    "Ġpersuas": 23944,
    "rit": 21034,
    "Ġsphynx": 20711,
    "Ġsat": 1133,
    "alive": 10827,
    "Ġencamp": 22798,
    "Ġplow": 21457,
    "Ġgradu": 15830,
    "jumped": 20245,
    "Ġmediocrity": 26608,
    "ny": 4017,
    "echo": 15347,
    "Ġsabbath": 17254,
    "ç": 168,
    "Ġpresume": 8037,
    "Ġfashion": 4299,
    "ffy": 18314,
    "Ġcontrari": 23347,
    "Ġregularity": 22784,
    "overhearing": 19054,
    "Ġworthless": 19564,
    "Ġungenerous": 18266,
    "Ġexcavating": 23314,
    "uteness": 17985,
    "Ġexplore": 15906,
    "apable": 6422,
    "Ġtwee": 22672,
    "ishes": 6523,
    "work": 1793,
    "Ġsized": 11562,
    "Ġtail": 3088,
    "staring": 18020,
    "bottom": 11426,
    "Ġindomitableness": 26571,
    "state": 13978,
    "Ġinco": 14259,
    "represented": 20194,
    "Ġhurriedly": 11250,
    "Ġmanifold": 13559,
    "gard": 7339,
    "Ġneeds": 6605,
    "grass": 23411,
    "bitious": 16669,
    "Ġcrawford": 24893,
    "airs": 2223,
    "Ġneglig": 18877,
    "!âĢĻâĢĿ": 16592,
    "Ġconsecut": 18111,
    "Ġassociation": 24711,
    "ineering": 21978,
    "Ġinc": 702,
    "Ġincarnation": 25573,
    "Ġ14": 9322,
    "Ġexasperated": 11412,
    "Ġthine": 7374,
    "Ġsparsity": 4208,
    "Ġgush": 10202,
    "satisf": 5781,
    "Ġgallons": 14817,
    "religion": 20574,
    "Ġcot": 13876,
    "Ġnecessarily": 13248,
    "Ġappl": 1734,
    "Ġcottage": 4734,
    "Ġspont": 22129,
    "Ġbunger": 9995,
    "ores": 2413,
    "Ġrightly": 13062,
    "Ġcontinental": 19704,
    "Ġlargest": 6282,
    "Ġimbalance": 22171,
    "bro": 4036,
    "gen": 6503,
    "Ġconsumed": 10349,
    "Ġreward": 6144,
    "cess": 536,
    "Ġschoolmaster": 16862,
    "city": 15326,
    "antages": 7192,
    "mud": 20970,
    "meas": 7434,
    "Ġcamel": 25349,
    "Ġlanc": 19763,
    "Ġreview": 18030,
    "Ġnooks": 26011,
    "ean": 20839,
    "Ġpreceded": 13427,
    "Ġpeaceful": 9455,
    "Ġupbra": 22151,
    "Ġnotions": 14098,
    "Ġtanning": 17729,
    "Ġenemies": 9038,
    "Ġfavourably": 16363,
    "Ġgestures": 13535,
    "Ġref": 917,
    "Ġambiguous": 20163,
    "Ġpossessed": 5195,
    "Ġprecipitate": 19940,
    "Ġexper": 1280,
    "Ġhumane": 11882,
    "Ġweakened": 16823,
    "Ġoppressed": 11190,
    "Ġelevating": 19728,
    "Ġinestim": 15621,
    "Ġsmaller": 1884,
    "Ġlavater": 20494,
    "ef": 5134,
    "ette": 15656,
    "Ġplunge": 13442,
    "Ġforth": 3466,
    "Ġireland": 17334,
    "Ġmassa": 19452,
    "throt": 25659,
    "Ġassembly": 10642,
    "Ġoverwhelmed": 11403,
    "Ġspermacetti": 19051,
    "ok": 573,
    "behold": 12875,
    "Ġsuddenly": 2646,
    "Ġdeliber": 7268,
    "Ġcreditors": 20128,
    "dirty": 20833,
    "Ġcharmed": 16762,
    "Ġroyals": 19531,
    "perpet": 14158,
    "itering": 17818,
    "Ġ126": 24471,
    "oes": 4436,
    "Ġmajest": 24058,
    "continu": 5501,
    "Ġcor": 1322,
    "Ġobservation": 6597,
    "Ġdiscol": 12950,
    "ii": 4016,
    "laughing": 15178,
    "straight": 9939,
    "Ġterrific": 6754,
    "Ġ*/": 10373,
    "Ġarticulate": 24432,
    "Ġpalpable": 15205,
    "Ġdifficulties": 11225,
    "zeal": 16261,
    "Ġminiatures": 20320,
    "steam": 23957,
    "Ġbending": 12582,
    "Ġey": 8134,
    "ag": 377,
    "ootiful": 17372,
    "inf": 6232,
    "coo": 11170,
    "dashing": 20835,
    "Ġhelplessly": 20076,
    "Ġpleas": 1906,
    "tled": 3461,
    "Ġfuneral": 10282,
    "Ġhated": 7584,
    "verbally": 25360,
    "Ġcheap": 13087,
    "Ġentrance": 7233,
    "Ġsta": 18062,
    "Ġignorant": 5343,
    "Ġcommonplaces": 16287,
    "Ġdeceive": 12719,
    "hunsford": 24386,
    "Ġdeliberation": 19967,
    "crane": 24098,
    "Ġtombed": 25160,
    "Ġspirit": 3725,
    "Ġinitial": 822,
    "airing": 16175,
    "watch": 6118,
    "Ġmarty": 20289,
    "Ġpennies": 17270,
    "Ġunfair": 19506,
    "Ġadequate": 20307,
    "Ġthunders": 15635,
    "Ġcontinues": 18808,
    "Ġliberal": 12188,
    "Ġhesitation": 13440,
    "rises": 17655,
    "Ġconfusion": 7273,
    "Ġthirty": 4944,
    "Ġhurt": 7700,
    "Ġgreeks": 20011,
    "izon": 18141,
    "Ġcompanies": 14558,
    "é": 170,
    "Ġprometheus": 15291,
    "departure": 15233,
    "ĳ": 244,
    "cious": 6643,
    "icts": 22404,
    "privilege": 25263,
    "Ġpanting": 11602,
    "Ġol": 17814,
    "Ġjenny": 20161,
    "Ġwidth": 16772,
    "Ġcows": 15550,
    "Ġunsupervised": 2475,
    "Ġtout": 17719,
    "Ġholiday": 12995,
    "Ġfundamental": 3014,
    "Ġholes": 16407,
    "Ġhaunt": 18197,
    "Ġinfluenced": 19631,
    "soc": 5175,
    "Ġinsincere": 26599,
    "depth": 12797,
    "Ġforster": 5230,
    "Ġarrayed": 25664,
    "dreadful": 11421,
    "Ġfortun": 4982,
    "Ġodds": 13328,
    "Ġprivile": 8645,
    "Ġtrusty": 24104,
    "Ġnomine": 26456,
    "Ġmedicine": 15204,
    "Ġpicturesque": 14893,
    "Ġburns": 16522,
    "Ġyarns": 15194,
    "Ġedinburgh": 16435,
    "erson": 7002,
    "punct": 20191,
    "Ġlizzie": 26462,
    "oner": 6124,
    "Ġapart": 4746,
    "Ġconcerned": 5331,
    "Ġaccused": 8507,
    "Ġnarrow": 5086,
    "Ġpersecutor": 26096,
    "Ġobstetrics": 24678,
    "Ġh": 290,
    "precision": 4333,
    "footsteps": 25199,
    "Ġsquad": 22836,
    "weakness": 16122,
    "Ġnail": 9195,
    "Ġenslaved": 26314,
    "Ġcensured": 25094,
    "Ġknew": 2054,
    "abbering": 21793,
    "Ġelated": 18634,
    "confirm": 16807,
    "Ġmountains": 4429,
    "Ġroll": 5381,
    "Ġglobal": 2370,
    "Ġhuman": 1318,
    "Ġrapid": 1459,
    "Ġsummers": 23871,
    "Ġdefinitions": 22941,
    "prophecy": 22849,
    "Ġeveryone": 8917,
    "Ġdiffer": 18677,
    "Ġchief": 3383,
    "Ġexclam": 6757,
    "Ġpeaks": 16126,
    "Ġpoints": 5248,
    "Ġprepare": 8646,
    "Ġperusal": 14223,
    "dream": 8727,
    "ed": 293,
    "Ġrecourse": 22738,
    "Ġfinanc": 23126,
    "Ġwhitting": 18055,
    "igner": 21699,
    "Ġtreasures": 17047,
    "Ġreduced": 11922,
    "remains": 10398,
    "Ġengine": 1921,
    "Ġfranc": 16350,
    "Ġreasonably": 11095,
    "Ġeye": 2284,
    "Ġsoot": 14131,
    "finish": 24384,
    "Ġvaried": 11846,
    "ift": 1608,
    "Ġquest": 2002,
    "Ġcongratulations": 10580,
    "Ġnational": 13941,
    "Ġdefines": 1741,
    "Ġreceive": 4704,
    "Ġeffort": 8201,
    "Ġannouncement": 14832,
    "cst": 10084,
    "ruff": 15897,
    "Ġraise": 6166,
    "Ġprotect": 6337,
    "eringly": 23000,
    "Ġsally": 15501,
    "unquiet": 21878,
    "buckets": 26123,
    "probably": 10019,
    "Ġlowering": 7986,
    "Ġswearing": 16464,
    "Ġtemple": 7653,
    "Ġshillings": 15833,
    "ougher": 18276,
    "Ġbagging": 24539,
    "inates": 21179,
    "Ġabandoned": 8351,
    "phantoms": 24679,
    "Ġinferior": 8365,
    "Ġmeans": 699,
    "Ġgrammar": 1061,
    "Ġextract": 1523,
    "pot": 10117,
    "Ġcontentment": 14869,
    "requ": 7148,
    "Ġmodular": 12813,
    "Ġannum": 24203,
    "Ġdelineations": 26058,
    "sw": 4741,
    "Ġcrippled": 25278,
    "Ġgather": 6534,
    "smug": 23905,
    "Ġscotland": 6639,
    "ury": 3312,
    "landed": 18954,
    "unless": 9234,
    "bony": 15318,
    "Ġprofessions": 11231,
    "reve": 12536,
    "leisure": 21369,
    "Ġlocker": 16911,
    "observing": 25494,
    "Ġajar": 21201,
    "Ġmccauley": 26427,
    "Ġretained": 7173,
    "Ġthrough": 603,
    "Ġsalut": 10509,
    "'(": 2979,
    "Ġbachelors": 24860,
    "Ġconsume": 12955,
    "Ġcab": 2634,
    "Ġsurpassed": 25267,
    "Ġselling": 21223,
    "create": 24159,
    "host": 5867,
    "insula": 23063,
    "Ġdirect": 1471,
    "Ġwithdraw": 16964,
    "Ġsympt": 7012,
    "Ġeh": 6987,
    "azz": 8261,
    "nobody": 16134,
    "ify": 1486,
    "Ġcrisis": 13125,
    "oy": 997,
    "Ġrepented": 23360,
    "sence": 3307,
    "Ġknocking": 10559,
    "Ġplantation": 11423,
    "species": 13256,
    "icit": 3379,
    "Ġtints": 17727,
    "eli": 3874,
    "solved": 7684,
    "Ġdrawling": 19435,
    "insurance": 18888,
    "umbling": 6758,
    "Ġdormouse": 4925,
    "Ġcl": 555,
    "expectant": 24275,
    "linked": 17593,
    "Ġreveal": 11200,
    "owner": 18610,
    "paper": 9136,
    "Ġgame": 3630,
    "Ġawoke": 7286,
    "Ġpursuits": 12074,
    "[": 63,
    "Ġtant": 12522,
    "with": 1296,
    "Ġguid": 2639,
    "kin": 7131,
    "frequented": 25900,
    "momentum": 4991,
    "duct": 3509,
    "Ġsearch": 2591,
    "forever": 22516,
    "Ġcatch": 4443,
    "Ġspecific": 2003,
    "Ġexplored": 23517,
    "Ġefficient": 1028,
    "cial": 2648,
    "Ġhinge": 25541,
    "Ġprecipitous": 24835,
    "Ġhouses": 6138,
    "Ġattempt": 3490,
    "Ġsettle": 6293,
    "ple": 455,
    "Ġstopping": 2753,
    "Ġpeevish": 26557,
    "Ġunaware": 22054,
    "eldom": 4415,
    "hand": 2760,
    "Ġwilderness": 14839,
    "locked": 7677,
    "crat": 24097,
    "olds": 9310,
    "Ġboasted": 16105,
    "Ġ55": 24323,
    "Ġloomed": 12299,
    "Ġimpatience": 7509,
    "reme": 2424,
    "Ġsolving": 2485,
    "Ġrespond": 11176,
    "Ġperched": 10299,
    "Ġforemast": 12004,
    "Ġdivineness": 25724,
    "Ġcombination": 22833,
    "Ġstroll": 13351,
    "Ġchristendom": 16695,
    "Ġspas": 10923,
    "Ġformerly": 7493,
    "Ġtempered": 12920,
    "do": 1996,
    "Ġrifled": 21973,
    "Ġtwinkle": 12321,
    "Ġvirtue": 4922,
    "Ġsunny": 13084,
    "tt": 13789,
    "holes": 12052,
    "withstanding": 8945,
    "Ġtone": 4041,
    "Ġsought": 5010,
    "reasoning": 9475,
    "Ġcontemplation": 11357,
    "Ġpermanently": 25473,
    "passed": 8025,
    "along": 6012,
    "cadence": 26125,
    "employ": 10895,
    "Ġsnug": 8279,
    "Ġsupp": 1264,
    "Ġcler": 11770,
    "fro": 8732,
    "Ġuntimely": 16466,
    "inching": 21188,
    "ufact": 10733,
    "myster": 16262,
    "judgment": 16753,
    "Ġ53": 19639,
    "speed": 19407,
    "Ġswashing": 23053,
    "Ġworsted": 19993,
    "contain": 18500,
    "Ġclergy": 7642,
    "Ġcobweb": 22581,
    "Ġenvied": 19288,
    "Ġprogra": 1147,
    "Ġhitting": 21484,
    "warp": 17706,
    "isa": 17845,
    "happen": 19330,
    "rals": 21041,
    "Ġlamented": 24991,
    "desire": 14473,
    ".,": 5987,
    "due": 22407,
    "Ġrelent": 18775,
    "Ġunanswerable": 26521,
    "onde": 21250,
    "Ġex": 361,
    "Ġto": 297,
    "restrained": 16335,
    "Ġdust": 5908,
    "Ġsacr": 7194,
    "Ġdemeanour": 17336,
    "Ġcorroded": 18875,
    "Ġ95": 19772,
    "owing": 7601,
    "Ġrear": 6535,
    "required": 17030,
    "corpse": 24486,
    "Ġjour": 11762,
    "Ġempires": 19075,
    "Ġself": 1778,
    "Ĩ": 233,
    "ory": 1080,
    "ivened": 22962,
    "Ġconsumm": 15153,
    "Ġexposed": 8522,
    "Ġunsh": 14114,
    "meetings": 20376,
    "etwork": 443,
    "Ġund": 4119,
    "Ġvide": 10250,
    "Ġsensibility": 14515,
    "Ġstature": 10863,
    "regards": 23467,
    "Ġdiab": 10611,
    "Ġparading": 23709,
    "olence": 10230,
    "Ġabusing": 18393,
    "coffin": 10662,
    "concl": 12866,
    "Ġstacks": 18074,
    "Ġimpatiently": 8337,
    "Ġmeryton": 4440,
    "Ġfrancisco": 26064,
    "Ġappears": 5402,
    "Ġholmes": 1308,
    "Ġneedless": 19228,
    "Ġuns": 15834,
    "Ġbenevol": 5961,
    "Ġmemorable": 16426,
    "Ġcitizens": 25439,
    "pest": 6964,
    "Ġscimet": 22290,
    "shel": 11928,
    "ugnance": 12365,
    "gentlemanlike": 20000,
    "Ġimpulsive": 19961,
    "stones": 11635,
    "sky": 12508,
    "ald": 15622,
    "ints": 3419,
    "access": 11180,
    "Ġmalays": 19676,
    "cracy": 24690,
    "Ġlam": 21546,
    "leaning": 10790,
    "Ġjoes": 19229,
    "Ġere": 3687,
    "Ġprojecting": 9984,
    "neg": 12862,
    "ertion": 12037,
    "Ġcollections": 22854,
    "agged": 9236,
    "Ġflows": 13007,
    "Ġready": 3400,
    "Ġintelligences": 12828,
    "Ġobserver": 11987,
    "meadow": 18679,
    "Ġtie": 10750,
    "Ġspear": 9313,
    "Ġremonstrate": 22791,
    "Ġdrawled": 23986,
    "Ġimmedi": 2905,
    "wanted": 10743,
    "Ġdescribes": 3122,
    "Ġinstinct": 6574,
    "hairs": 20903,
    "Ġshin": 18227,
    "Ġstruggled": 9904,
    "Ġchamp": 18381,
    "exciting": 19667,
    "Ġexert": 5722,
    "spoken": 11859,
    "Ġprinciples": 10010,
    "itely": 5365,
    "iterranean": 15547,
    "tim": 13790,
    "Ġtexture": 19159,
    "Ġkill": 4456,
    "Ġhorner": 8958,
    "instr": 12528,
    "rue": 1130,
    "brimmed": 14588,
    "raltar": 24233,
    "remarked": 12286,
    "Ġquadru": 16002,
    "Ġpolitely": 8993,
    "Ġreflected": 2910,
    "government": 25406,
    "Ġbrah": 19355,
    "Ġinterference": 8893,
    "Ġintroduced": 7690,
    "Ġresolving": 9418,
    "square": 15059,
    "Ġdews": 21835,
    "Ġirrespective": 23373,
    "Ġlengths": 19204,
    "insufficient": 15488,
    "world": 5058,
    "inav": 15483,
    "Ġseeking": 7035,
    "Ġpoetic": 17103,
    "appo": 3914,
    "Ġdusky": 13548,
    "Ġredress": 23750,
    "Ġ113": 19695,
    "Ġconscientious": 16727,
    "ocation": 14626,
    "ensils": 22545,
    "etts": 12657,
    "imely": 13997,
    "C": 39,
    "Ġobtruded": 20721,
    "half": 4931,
    "Ġexpenses": 11833,
    "Ġachieves": 4381,
    "ility": 624,
    "Ġfacial": 10605,
    "Ġapproaching": 6283,
    "Ġfins": 9663,
    "Ġhushed": 13924,
    "Ġfren": 10805,
    "Ġbowled": 23768,
    "her": 488,
    "Ġsacred": 10930,
    "Ġinfatuation": 25857,
    "Ġdestroy": 5772,
    "Ġpunish": 12157,
    "ana": 15556,
    "Ġphilosophy": 7103,
    "ica": 10198,
    "Ġconfines": 23304,
    "spouter": 22731,
    "Ġanother": 1737,
    "prit": 19340,
    "Ġlo": 453,
    "_.âĢĻâĢĿ": 17479,
    "Ġclimate": 9274,
    "astrous": 15884,
    "Ġdreading": 23797,
    "Ĕ": 213,
    "Ġbowing": 10475,
    "Ġvarying": 15808,
    "Ġturban": 23612,
    "Ġmeditative": 25014,
    "Ġunexplored": 26518,
    "Ġwildest": 16509,
    "Ġinsisted": 12044,
    "Ġbalmoral": 16205,
    "Ġbumpkins": 25281,
    "Ġarrange": 3120,
    "Ġtemper": 956,
    "Ġcathedral": 17412,
    "--": 1042,
    "Ġnavies": 16900,
    "iments": 4945,
    "Ġintegrated": 13530,
    "lutions": 20949,
    "Ġindispensable": 11898,
    "gun": 10096,
    "Ġsaxon": 25468,
    "Ġmak": 10778,
    "oct": 7554,
    "achable": 14137,
    "Ġsurging": 19133,
    "âĢĿ]": 21812,
    "Ġtime": 689,
    "ically": 850,
    "Ġplanisp": 24054,
    "Ġlegendary": 20536,
    "among": 6256,
    "arranged": 19318,
    "orously": 8418,
    "Ġmyst": 4052,
    "Ġjumbled": 22294,
    "umerable": 11723,
    "Ġpam": 21452,
    "Ġrav": 14305,
    "division": 20047,
    "Ġcontinuing": 14396,
    "Ġmany": 1106,
    "Ġcandelabra": 26602,
    "coal": 12023,
    "Ġtemptations": 24508,
    "Ġwhisper": 6205,
    "Ġtrotting": 19974,
    "dy": 3861,
    "Ġcapricious": 20537,
    "gue": 12465,
    "Ġgaiters": 20459,
    "Ġloos": 15869,
    "torture": 26151,
    "Ġthee": 2624,
    "oud": 1942,
    "Ġmethinks": 10390,
    "Ġprivileged": 20111,
    "Ġcatherine": 2815,
    "Ġnapoleons": 25885,
    "towards": 5002,
    "Ġcontempt": 6275,
    "lest": 5288,
    "Ġsemantics": 2893,
    "Ġpledge": 11600,
    "pard": 9618,
    "Ġwrithing": 11944,
    "Ġlascar": 9199,
    "Ġerect": 6143,
    "retreat": 23133,
    "Ġpaint": 7707,
    "Ġexceptionable": 25503,
    "Ġtertiary": 15293,
    "Ġpuffing": 12252,
    "oment": 922,
    "iter": 4393,
    "Ġfeeds": 16432,
    "Ġreceived": 2952,
    "supers": 22639,
    "Ġsult": 10767,
    "Ġinsane": 19268,
    "extinguish": 22761,
    "pursue": 24973,
    "ades": 5631,
    "Ġdolph": 12378,
    "emotions": 15794,
    "Ġbashful": 20418,
    "Ġsmell": 7216,
    "antled": 18286,
    "Ġcasualties": 25512,
    "Ġpursuers": 13224,
    "Ġsignificant": 8633,
    "Ġhot": 4258,
    "riety": 12740,
    "Ġado": 7626,
    "estations": 22221,
    "taste": 10129,
    "Ġprobed": 18733,
    "earn": 10696,
    "Ġtack": 5621,
    "Ġfriendship": 7246,
    "unsuitable": 21890,
    "Ġheredit": 9216,
    "Ġmaelstrom": 19354,
    "Ġimposs": 16616,
    "Ġnar": 7375,
    "Ġqualities": 7533,
    "Ġsoaked": 15860,
    "Ġgathering": 14977,
    "Ġmonarch": 14413,
    "Ġunallied": 22027,
    "Ġshiver": 12764,
    "empl": 5724,
    "anatory": 21361,
    "Ġappertaining": 26533,
    "Ġcastaway": 16640,
    "Ġsperm": 1846,
    "Ġdetected": 18820,
    "Ġstrikes": 13180,
    "deacon": 22145,
    "Ġmarble": 7668,
    "Ġdiscrimination": 23604,
    "feel": 3812,
    "rever": 21234,
    "attacks": 23121,
    "preading": 18497,
    "ribe": 1222,
    "Ġwinc": 9642,
    "Ġmeadow": 17151,
    "Ġplaint": 10325,
    "ariously": 18527,
    "Ġgodfre": 14529,
    "heidelburgh": 21210,
    "gainst": 25141,
    "Ġunt": 2297,
    "Ġnarrating": 24351,
    "garity": 17554,
    "Ġpo": 737,
    "forget": 11032,
    "Ġrigid": 16716,
    "Ġsettling": 11062,
    "Ġsince": 1796,
    "Ġclearer": 16310,
    "Ġhungry": 10532,
    "Ġseen": 1367,
    "Ġvariously": 18652,
    "Ġbehold": 5049,
    "Ġslaught": 23165,
    "_.)": 7278,
    "Ġsaleve": 17390,
    "feared": 11801,
    "imprisonment": 23760,
    "Ġteased": 18806,
    "Ġcommonplace": 11096,
    "humorously": 24017,
    "Ġarchitectures": 2911,
    "ectual": 21910,
    "ime": 625,
    "developed": 15263,
    "Ġfelony": 18951,
    "Ġshrew": 21997,
    "porary": 14553,
    "Ġlimp": 19179,
    "orand": 21395,
    "Ġdives": 17890,
    "Ġtraditions": 11443,
    "Ġshould": 863,
    "Ġclassical": 22631,
    "Ġwillow": 18530,
    "Ġfinishing": 23123,
    "Ġscaramouch": 23825,
    "Ġmultitudinous": 26273,
    "Ġryder": 10259,
    "Ġlayer": 1010,
    "Ġjabez": 11764,
    "uttered": 8440,
    "Ġextant": 18690,
    "Ġrept": 13982,
    "Ġthickets": 24020,
    "Ġdismissed": 12889,
    "sales": 17667,
    "machine": 1018,
    "Ġharmless": 9964,
    "on": 267,
    "Ġsag": 6514,
    "Ġaloft": 4304,
    "getic": 12963,
    "cks": 3079,
    "Ġguinea": 8947,
    "Ġadequately": 15197,
    "Ġscales": 4849,
    "heav": 5694,
    "wins": 21128,
    "Ġoakshott": 12227,
    "sleep": 6511,
    "fishery": 10031,
    "theirs": 23601,
    "Ġshrine": 19530,
    "darkened": 24517,
    "Ġdiabolical": 20341,
    "Ġreliably": 22877,
    "Ġinquirers": 24962,
    "ab": 345,
    "ibly": 2995,
    "Ġcrate": 19122,
    "timidity": 25753,
    "iece": 3228,
    "Ġtomorrow": 21510,
    "analy": 17838,
    "Ġclubb": 22358,
    "Ġdisappointed": 7097,
    "ribes": 23364,
    "Ġunsocial": 18256,
    "Ġbeloved": 5572,
    "Ġunquestion": 18248,
    "Ġaccusation": 22387,
    "Ġlabourers": 23330,
    "treacle": 25148,
    "Ġprim": 8243,
    "Ġ1": 1014,
    "Ġfragrant": 13099,
    "coronet": 16863,
    "yonder": 21143,
    "Ġdew": 14042,
    "Ġastonishment": 4794,
    "inkle": 22611,
    "lue": 8508,
    "sails": 7497,
    "Ġun": 422,
    "Ġangelic": 19626,
    "objects": 13469,
    "wled": 15453,
    "Ġbluish": 23651,
    "Ġparadigms": 3055,
    "Ġton": 15463,
    "tes": 11528,
    "Ġcoasts": 12161,
    "Ġpurport": 14581,
    "Ġour": 1008,
    "Ġink": 8802,
    "Ġlingu": 11613,
    "tube": 20409,
    "Ġtrial": 6634,
    "Ġhumility": 12982,
    "minute": 11274,
    "Ġcustody": 13646,
    "ob": 1420,
    "Ġcontingency": 26244,
    "Ġconvergence": 972,
    "Ġpet": 4587,
    "Ġgradual": 20600,
    "Ġdu": 4585,
    "Ġblunder": 18818,
    "Ġredu": 1352,
    "gin": 4930,
    "Ġbarmaid": 19334,
    "Ġbaff": 10799,
    "founded": 16713,
    "Ġbidding": 9536,
    "Ġsan": 7824,
    "Ġcommand": 3322,
    "._": 3219,
    "high": 6649,
    "lightened": 12063,
    "Ġwheeled": 14138,
    "Ġaffability": 14386,
    "hatchway": 25904,
    "accordingly": 19212,
    "kers": 7132,
    "itic": 11577,
    "Ġuttered": 7280,
    "Ġdab": 15585,
    "pop": 17631,
    "preference": 22464,
    "Ġinquirer": 24961,
    "standers": 18479,
    "Ġowen": 15093,
    "captains": 12125,
    "Ġbowed": 6242,
    "named": 9886,
    "Ġbodings": 21389,
    "ost": 5360,
    "Ġdeep": 789,
    "Ġ133": 24783,
    "probability": 17022,
    "ĠÂ£": 5006,
    "Ġgriff": 22803,
    "Ġsister": 1473,
    "Ġhugest": 17015,
    "Ġfronted": 25854,
    "Ġopt": 779,
    "Ġpilot": 5984,
    "deprived": 19897,
    "tiger": 13796,
    "Ġstays": 16560,
    "Ġinnermost": 12158,
    "Ġsqueezing": 25006,
    "tar": 8097,
    "Ġcivilly": 19602,
    "ified": 3225,
    "Ġapologize": 15127,
    "Ġconfidence": 6590,
    "Ġrural": 21964,
    "Ġopinion": 3142,
    "sorrow": 12506,
    "neural": 3065,
    "Ġpan": 5082,
    "Ġnecks": 18183,
    "Ġcruisings": 25864,
    "Ġdeliciousness": 24127,
    "Ġsymph": 22207,
    "iply": 22344,
    "ature": 521,
    "Ġdefici": 22940,
    "Ġwatched": 6297,
    "rapid": 12667,
    "Ġdissimilar": 22528,
    "Ġoblig": 3448,
    "proceeded": 25190,
    "Ġdeficient": 18825,
    "ading": 5091,
    "Ġexpressive": 8982,
    "Ġdetailed": 12821,
    "Ġinfinity": 23280,
    "estone": 18363,
    "Ġapproximate": 2344,
    "Ġabund": 8864,
    "Ġconfid": 7686,
    "Ġvineyard": 12328,
    "Ġnecessitated": 23925,
    "iles": 2861,
    "supp": 4163,
    "Ġsatisfactory": 11193,
    "Ġreinforcement": 3380,
    "Ġintens": 7003,
    "poor": 6060,
    "Ġgranted": 22804,
    "aft": 9583,
    "Ġantichronical": 26609,
    "Ġpianoforte": 15272,
    "Ġconsent": 5372,
    "Ġtool": 21508,
    "witness": 10034,
    "Ġbreezes": 14868,
    "fain": 13714,
    "10": 17472,
    "Ġroarings": 25302,
    "Ġyourself": 2594,
    "Ġconveniences": 19811,
    "awing": 18915,
    "age": 500,
    "Ġdiagon": 24740,
    "Ġdarling": 12601,
    "Ġsim": 734,
    "clinging": 20821,
    "Ġrevelations": 25223,
    "Ġwit": 3841,
    "Ġchival": 14182,
    "ques": 2842,
    "Ġkind": 1784,
    "Ġmood": 6276,
    "escaped": 14229,
    "Ġdeed": 7867,
    "Ġshining": 8171,
    "Ú": 155,
    "Ġsize": 1217,
    "Ġfact": 1726,
    "Ġdiscover": 4718,
    "promise": 12248,
    "Ġlug": 15649,
    "Ġkilburn": 18351,
    "ellig": 524,
    "Ġvexations": 24609,
    "Ġgover": 2463,
    "evidently": 20344,
    "Ġdrawings": 14721,
    "Ġprosecution": 12379,
    "Ġlast": 1124,
    "thick": 10260,
    "Ġstruggling": 12072,
    "ience": 811,
    "acit": 16078,
    "liberal": 26281,
    "Ġsig": 868,
    "Ġothers": 2584,
    "Ġinconvenient": 20008,
    "beryls": 25309,
    "ieth": 10704,
    "contrad": 19291,
    "splash": 25209,
    "vest": 6230,
    "Ġimputable": 22170,
    "swam": 24254,
    "Ġterrier": 23397,
    "Ġactivity": 7919,
    "Ġbegging": 11079,
    "Ġhowling": 8509,
    "baby": 25515,
    "Ġnearest": 8469,
    "Ġjealousy": 13575,
    "ingale": 21298,
    "ism": 4874,
    "Ġintentions": 10607,
    "Ġemployments": 12100,
    "combe": 7661,
    "georgiana": 26020,
    "Ġindolent": 13002,
    "Ġfr": 1696,
    "oundering": 11744,
    "decl": 8856,
    "Ġgoose": 5937,
    "Ġquiver": 16001,
    "Ġtimbers": 14838,
    "Ġstolen": 14006,
    "Ġperadventure": 22394,
    "how": 1643,
    "Ġnearer": 5301,
    "Ġcharmingly": 24221,
    "Ġelapsed": 7652,
    "Ġsqualidness": 25842,
    "Ġfounder": 17883,
    "english": 2776,
    "Ġvindict": 13604,
    "Ġplayed": 9415,
    "Ġlighter": 12650,
    "ĠĠĠĠĠĠĠĠĠĠĠĠĠĠĠĠĠĠĠĠĠĠĠĠĠĠĠĠĠĠĠĠĠĠĠĠ": 23666,
    "Ġdepths": 4328,
    "whatever": 6694,
    "Ġhurrying": 11993,
    "Ġreliability": 22878,
    "Ġmarling": 23031,
    "Ġstorms": 11262,
    "holder": 13281,
    "Ġhappen": 5571,
    "Ġpict": 3502,
    "Ġoccurring": 2793,
    "Ġrecollecting": 17113,
    "rift": 11519,
    "Ġraging": 14306,
    "Ġdusty": 14924,
    "Ġunsuccessful": 18257,
    "lips": 13749,
    "edmund": 17945,
    "Ġbaked": 21384,
    "Ġoldest": 12970,
    "Ġsentiment": 6588,
    "Ġdiscovery": 5412,
    "ips": 2593,
    "rel": 3756,
    "proof": 16422,
    "Ġporter": 15608,
    "Ġirons": 7695,
    "Ġdiver": 2532,
    "heavenly": 20043,
    "sum": 2086,
    "mockery": 24378,
    "mature": 20966,
    "varying": 13803,
    "Ġspaces": 3111,
    "Ġmyself": 1453,
    "elag": 12655,
    "unken": 10236,
    "Ġinquiring": 8999,
    "atement": 17773,
    "Ġunavailing": 26215,
    "Ġchip": 12822,
    "borrowed": 20791,
    "Ġgaze": 6932,
    "cerem": 15675,
    "weep": 22681,
    "Ġcommitting": 22670,
    "Ġconvent": 11667,
    "Ġlaz": 7378,
    "upid": 6582,
    "incidentally": 20538,
    "quod": 2166,
    "Ġ41": 24079,
    "Ġunlocked": 14119,
    "instantly": 7506,
    "Ġperception": 9749,
    "Ġvill": 3878,
    "Ġsitu": 3498,
    "Ġreckless": 13457,
    "Ġmonarchs": 25846,
    "Ġsigma": 1538,
    "ping": 9615,
    "Ġsummer": 4790,
    "Ġupdating": 2693,
    "Ġmacy": 19353,
    "?_": 8069,
    "pour": 17630,
    "#": 7,
    "Ġdivinest": 25722,
    "Ġsalisbury": 24061,
    "Ġtasselled": 25921,
    "flag": 14710,
    "Ġres": 697,
    "ulties": 12898,
    "shish": 11791,
    "Ġber": 5698,
    "]": 65,
    "Ġdesolate": 10012,
    "ased": 1266,
    "dep": 6786,
    "Ġhideous": 5982,
    "assed": 6421,
    "âĢľ_": 5720,
    "opposite": 19928,
    "Ġseldom": 4630,
    "Ġsuperlative": 26074,
    "Ġfret": 10806,
    "Ġfairy": 14627,
    "Ġlordly": 23742,
    "Ġvelocity": 10620,
    "Ġwaiting": 4325,
    "twig": 23698,
    "theast": 21745,
    "Ġshaggy": 13569,
    "Ġwarmup": 3921,
    "Ġscholar": 26111,
    "Ġgradient": 448,
    "Ġsedentary": 25430,
    "wherein": 19107,
    "Ġsturgeon": 20590,
    "ina": 21178,
    "mblies": 24608,
    "Ġmour": 6973,
    "Ġfists": 15580,
    "Ġskilful": 25836,
    "Ġtorment": 8673,
    "Ġrecomm": 4996,
    "Ġvicissitudes": 12417,
    "drawn": 9912,
    "cery": 20807,
    "bearance": 22491,
    "Ġtyphoons": 20233,
    "Ġletters": 3793,
    "neighbouring": 19962,
    "igated": 15704,
    "dem": 10691,
    "Ġcorn": 9349,
    "Ġdyspeps": 16490,
    "¶": 119,
    "wet": 15451,
    "lilies": 20960,
    "Ġexpressing": 12007,
    "stopping": 19348,
    "Ġturbul": 23611,
    "Ġincrease": 9369,
    "Ġsubdued": 11030,
    "pronounced": 12344,
    "Ġleaped": 8825,
    "ppings": 18176,
    "Ġbend": 9170,
    "Ġunresting": 25553,
    "ribut": 815,
    "unbe": 21869,
    "Ġgent": 7383,
    "Ġinvoking": 19145,
    "out": 467,
    "Ġbutter": 6842,
    "proper": 7471,
    "haw": 6361,
    "Ġanimals": 8978,
    "Ġcranial": 25592,
    "ustration": 2262,
    "Ġsuggest": 5417,
    "Ġmichigan": 26426,
    "Ġklux": 22192,
    "truck": 15440,
    "Ġglanced": 5951,
    "fering": 17542,
    "Ġcyn": 13885,
    "aset": 10832,
    "Ġsomehow": 4841,
    "Ġacquire": 2726,
    "exactly": 10636,
    "Ġrecess": 10847,
    "Ġfluctuations": 5516,
    "Ġtus": 10749,
    "99": 1896,
    "ache": 8518,
    "Ġseverest": 14090,
    "Ġmerchants": 23731,
    "Ġembod": 14414,
    "Ġdish": 6136,
    "ving": 593,
    "Ġupper": 5090,
    "Ġratt": 7880,
    "Ġabridged": 26540,
    "Ġalien": 14017,
    "hangs": 15367,
    "Ġdost": 7636,
    "cook": 8269,
    "ubines": 22956,
    "fold": 7546,
    "Ġrainy": 24341,
    "antarctic": 22096,
    "Ġappals": 22216,
    "ung": 2748,
    "Ġpostscript": 14807,
    "lan": 15376,
    "Ġmean": 744,
    "quick": 6400,
    "Ġvancou": 22874,
    "Ġexcursion": 26589,
    "mentioned": 10623,
    "Ġbuilded": 24719,
    "Ġpupella": 20420,
    "thouse": 21979,
    "Ġimpose": 22376,
    "Ġdisguises": 25055,
    "Ġopportunity": 4786,
    "iltrated": 19305,
    "rib": 1946,
    "Ġlocking": 18298,
    "Ġincommun": 25308,
    "Ġslily": 23162,
    "Ġlacepede": 20493,
    "bble": 17484,
    "Ġintellectual": 11401,
    "Ġshipped": 9714,
    "sar": 12502,
    "fatig": 17089,
    "Ġpatchwork": 24141,
    "lines": 6959,
    "Ġfeature": 748,
    "Ġcrad": 21348,
    "Ġdoctors": 12149,
    "Ġwrought": 11942,
    "Ġur": 5540,
    "Ġwretched": 4082,
    "istics": 1630,
    "Ġasylum": 13665,
    "ated": 732,
    "further": 7535,
    "answer": 11726,
    "Ġmaybe": 12946,
    "Ġswain": 18880,
    "recollection": 25348,
    "Ġskip": 1848,
    "Ġclaimed": 14205,
    "arnel": 18124,
    "Ġwretchedly": 19505,
    "Ġthy": 2515,
    "Ġscraggy": 24579,
    "Ġparents": 6752,
    "Ġincompetent": 25679,
    "Ġchink": 15930,
    "adm": 7608,
    "Ġlist": 2366,
    "Ġpowerful": 1637,
    "Ġobeisance": 19757,
    "court": 7511,
    "atching": 8202,
    "Ġvial": 10248,
    "Ġwheels": 10912,
    "perform": 15892,
    "oth": 1183,
    "Ġspurned": 12794,
    "Ġde": 363,
    "ishnoo": 10956,
    "Ġcinque": 20484,
    "jumping": 20244,
    "Ġsettee": 22917,
    "Ġsoo": 15859,
    "Ġirregularly": 25323,
    "Ġcrying": 10786,
    "Ġendeared": 26498,
    "Ġfleet": 9431,
    "Ġperceptible": 18451,
    "Ġpours": 17911,
    "Ġboscombe": 8325,
    "Ġrobberies": 23017,
    "Ġsentin": 16373,
    "Ġmutiny": 13259,
    "Ġcaprice": 14577,
    "Ġcircumnavigating": 25614,
    "Ġstoke": 10395,
    "sche": 13016,
    "ios": 2236,
    "Ġprofession": 6207,
    "Ġbir": 17853,
    "magn": 10610,
    "orum": 12587,
    "Ġshabby": 14110,
    "abouts": 9452,
    "Ġdistressed": 8514,
    "rip": 9240,
    "Ġhospitable": 17059,
    "wind": 4253,
    "Ġexult": 10229,
    "attracted": 13048,
    "reference": 13839,
    "Ġthickest": 16654,
    "Ġstrives": 23694,
    "left": 6975,
    "Ġgo": 615,
    "whal": 10940,
    "Ġvictoria": 14872,
    "Ġcalifornia": 20528,
    "Ġvortex": 26208,
    "hammock": 16352,
    "Ġbearing": 5298,
    "boats": 6204,
    "wild": 8766,
    "shipped": 18486,
    "Ġwipe": 25764,
    "prec": 3199,
    "Ġphysiognomically": 25612,
    "Ġhindrance": 25220,
    "Ġamours": 22478,
    "Ġdeposition": 18611,
    "Ġissues": 9541,
    "chess": 16572,
    "Ġrelate": 6875,
    "Ġtolerable": 6949,
    "Ġreusability": 13557,
    "Ġscientific": 6857,
    "Ġflaming": 8563,
    "ering": 1265,
    "Ġsub": 950,
    "pieces": 8754,
    "Ġ17": 5740,
    "Ġministers": 22829,
    "fiend": 13660,
    "Ġviolates": 3164,
    "Ġdissu": 18550,
    "Ġseasonable": 24406,
    "Ġfreshly": 23984,
    "doubted": 17526,
    "bowed": 10683,
    "Ġhedgehog": 10644,
    "Ġhandspikes": 12935,
    "Ġointment": 21324,
    "Ġvivid": 8057,
    "room": 2179,
    "-": 17,
    "Ġnervously": 19183,
    "lost": 8887,
    "abil": 2008,
    "lod": 15377,
    "Ġlizz": 21554,
    "Ġundone": 24117,
    "Ġalthough": 4152,
    "comprehens": 16172,
    "Ġcomprise": 18583,
    "sheltered": 25585,
    "30": 20753,
    "Ġmodels": 764,
    "ailing": 7021,
    "counter": 20277,
    "crews": 15042,
    ")âĢĶâĢľ": 20742,
    "Ġquar": 3113,
    "Ġdiary": 24739,
    "Ġeditions": 19120,
    "Ġshan": 9248,
    "together": 3559,
    "Ġstricken": 9775,
    "ferences": 10326,
    "Ġisles": 8459,
    "Ġlinear": 3436,
    "place": 4155,
    "Ġunctuous": 10266,
    "Ġstilly": 25973,
    "arpo": 1756,
    "Ġalco": 21779,
    "ĠĠĠĠĠĠĠĠĠĠĠĠĠĠĠĠĠĠĠĠĠĠĠĠĠĠĠĠĠĠ": 24443,
    "Ġshiny": 14105,
    "Ġivory": 4478,
    "colnett": 19329,
    "Ġwhirlp": 16963,
    "Ġwhatsoever": 18460,
    "Ġlament": 7856,
    "Ġpret": 3034,
    "ants": 1390,
    "https": 11682,
    "Ġretrie": 10382,
    "Ġeluded": 12919,
    "iza": 6255,
    "Ġpaddington": 17095,
    "Ġgilder": 21610,
    "Ġann": 4491,
    "Ġcomforts": 14693,
    "Ġintercept": 14268,
    "bons": 17486,
    "Ġsh": 419,
    "Ġguns": 16776,
    "Ġanne": 1527,
    "Ġsort": 1506,
    "Ġlecture": 13566,
    "Ġnorthward": 13320,
    "Ġxxxvi": 24969,
    "son": 2331,
    "Ġbudge": 15163,
    "upt": 13797,
    "Ġshouted": 5347,
    "Ġsignification": 19201,
    "Ġtested": 23215,
    "terrible": 8465,
    "Ġreciproc": 20620,
    "Ġverify": 12085,
    "Ġintimately": 24804,
    "Ġprairies": 20019,
    "Ġgentle": 1891,
    "Ġgravel": 14101,
    "Ġexalted": 12410,
    "Ġadmon": 15866,
    "Ġvis": 1079,
    "Ġwarning": 9058,
    "olerably": 11672,
    "Ġnerves": 2628,
    "Ġbeh": 1802,
    "Ġgoney": 14546,
    "Ġans": 1644,
    "Ġinvisibly": 24817,
    "Ġconfronted": 23307,
    "poling": 12217,
    "Ġmeasurement": 19421,
    "Ġbask": 8116,
    "Ġbrougham": 17870,
    "ama": 11677,
    "Ġawhile": 13829,
    "Ġsilk": 11961,
    "dimly": 15345,
    "led": 581,
    "Ġbutt": 14125,
    "brain": 13686,
    "Ġsitt": 21216,
    "Ġdetermination": 9818,
    "perch": 18336,
    "onom": 9158,
    "peter": 24298,
    "U": 57,
    "â": 163,
    "Ġdummy": 25449,
    "Ġfamous": 5255,
    "alescing": 23864,
    "system": 4424,
    "Ġrevolved": 9983,
    "Ġpedest": 14995,
    "tray": 21076,
    "bag": 7542,
    "Ġfrankness": 16746,
    "formity": 10278,
    "bear": 10315,
    "Ġpangs": 15612,
    "ċ": 204,
    "ittered": 18439,
    "Ġway": 1085,
    "Ġassured": 4374,
    "Ġcharacters": 9371,
    "bellies": 19972,
    "convers": 6567,
    "carb": 20809,
    "Ġslept": 8258,
    "$": 8,
    "Ġhalls": 19524,
    "fuller": 22509,
    "lets": 7836,
    "notice": 16145,
    "unknown": 10890,
    "Ġ3": 3988,
    "Ġharpooneer": 3773,
    "Ġsplinters": 15101,
    "Ġcontinuation": 22914,
    "delighted": 10562,
    "Ġadmires": 19684,
    "Ġga": 4448,
    "laborers": 23913,
    "Ġhumanity": 6731,
    "Ġasse": 8159,
    "Ġelig": 9777,
    "Ì": 141,
    "red": 397,
    "Ġfaculties": 14957,
    "fulness": 4311,
    "conf": 4957,
    "sand": 21051,
    "Ġambition": 11432,
    "const": 5938,
    "bib": 17491,
    "roy": 7853,
    "ceased": 21623,
    "Ġhammers": 13239,
    "houn": 20892,
    "Ġvalidation": 2358,
    "regarding": 15070,
    "avail": 18604,
    "Ġcannon": 14153,
    "Ġbliss": 12998,
    "Ġsnoring": 23738,
    "Ġvib": 8164,
    "Ġtormenting": 15103,
    "danish": 20832,
    "Ġparade": 18301,
    "Ġstrangest": 14795,
    "weight": 2940,
    "Ġmountain": 3373,
    "Ġloaf": 15870,
    "unsupervised": 10889,
    "Ġdishes": 16048,
    "itig": 1331,
    "cannot": 5745,
    "Ġconsidering": 4616,
    "Ġdisputing": 25824,
    "harpoons": 24285,
    "itting": 1152,
    "Ġriver": 5411,
    "ancient": 9655,
    "Ġcarve": 23090,
    "Ġpolynes": 16077,
    "Ġseventy": 7879,
    "Ġmechanisms": 1572,
    "Ġbuoyant": 13531,
    "Ġrid": 4356,
    "Ġpunct": 8660,
    "artic": 14224,
    "Ġrussian": 14349,
    "Ġtreacle": 14595,
    "itical": 5801,
    "beries": 22717,
    "and": 372,
    "Ġaccuse": 14218,
    "Ġfishes": 11590,
    "naturalist": 23420,
    "raged": 9211,
    "ock": 15401,
    "upon": 2724,
    "Ġstat": 1490,
    "earnestly": 17312,
    "Ġmention": 2986,
    "Ġniagara": 26458,
    "Ġembarks": 22983,
    "Ġearnest": 3930,
    "transom": 19734,
    "Ġspoutings": 14675,
    "unguarded": 23669,
    "Ġplague": 11822,
    "Ġharder": 14448,
    "import": 5668,
    "Ġactionable": 24559,
    "Ġducks": 25157,
    "ologies": 18767,
    "Ġfowler": 16937,
    "Ġflu": 3278,
    "Ġsystems": 813,
    "×": 152,
    "Ġcruelty": 9968,
    "bermaid": 20789,
    "Ġgrowled": 19282,
    "Ġdisgust": 6705,
    "Ġseem": 915,
    "Ġacid": 22679,
    "Ġconvincing": 19307,
    "Ġtint": 13816,
    "Ġrepaid": 19082,
    "afford": 14654,
    "ception": 6562,
    "characteristic": 24685,
    "Ġrecalled": 8537,
    "Ġrevered": 23732,
    "Ġduke": 7755,
    "Ġtow": 4397,
    "Ġsemicirc": 16392,
    "Ġepsom": 19981,
    "Ġremove": 7499,
    "orns": 12589,
    "presum": 12865,
    "Ġfugitive": 17326,
    "tre": 8760,
    "Ġdifficult": 3574,
    "Ġcomponents": 8892,
    "Ġharmony": 16814,
    "classes": 12133,
    "Ġretreated": 13432,
    "Ġcommend": 10334,
    "Ġsettlement": 19835,
    "gunpowder": 25339,
    "udg": 22751,
    "aces": 2067,
    "Ġimbec": 14156,
    "Ġretreats": 16928,
    "Ġprize": 11946,
    "Ġconveying": 19713,
    "ampton": 18145,
    "ineas": 15820,
    "Ġrecommended": 8667,
    "Ġaffront": 18787,
    "Ġflashing": 13025,
    "Ġdup": 21425,
    "pent": 3496,
    "Ġcaravan": 26290,
    "Ġguess": 4903,
    "Ġoccupied": 5272,
    "distinction": 19570,
    "organ": 15571,
    "Ġjove": 9267,
    "Ġsemantic": 1958,
    "Ġputs": 19032,
    "Ġtiny": 11552,
    "legra": 10789,
    "Ġdimly": 9487,
    "cures": 20804,
    "Ġworlds": 11945,
    "onist": 21249,
    "Ġpince": 21469,
    "Ġendless": 7053,
    "bling": 10078,
    "Ġtons": 11549,
    "Ġcanoes": 12803,
    "Ġyore": 21775,
    "yours": 7694,
    "intment": 4720,
    "vol": 726,
    "Ġitself": 2524,
    "Ġsympathised": 14861,
    "Ġbri": 21376,
    "oin": 17617,
    "Ġsupported": 9817,
    "Ġdemonstrate": 24994,
    "flutter": 23968,
    "forbid": 14352,
    "Ġgallows": 12143,
    "Ġmanufactured": 22327,
    "Ġbrooding": 18907,
    "Ġsuperfluous": 17413,
    "Ġoutrageous": 20609,
    "Ġsmothe": 18574,
    "Ġpail": 15604,
    "Ġkindliness": 23292,
    "r": 86,
    "Ġwiping": 25765,
    "Ġinstability": 3813,
    "Ġcomparable": 24278,
    "Ġjeer": 24123,
    "Ġunivers": 2128,
    "oured": 2672,
    "Ġransacked": 26504,
    "Ġdoubts": 8579,
    "aurus": 20559,
    "Ġintimidated": 24805,
    "penn": 18827,
    "Ġpredecessor": 26253,
    "gentlemen": 9503,
    "Ġappeared": 2777,
    "shaped": 10308,
    "Ġemper": 9860,
    "Ġtweezers": 26556,
    "Ġtemptation": 8677,
    "Ġsucked": 14130,
    "Ġeel": 18001,
    "Ġbarb": 4532,
    "vain": 15446,
    "Ġshouting": 10522,
    "ainted": 3661,
    "Ġenticements": 26034,
    "ability": 716,
    "east": 9115,
    "Ġfrogs": 23920,
    "bed": 3290,
    "Ġenticing": 22745,
    "Ġinsanity": 12045,
    "Ġlivelihood": 24774,
    "Ġintricate": 15136,
    "Ġperch": 10298,
    "ersburgh": 18209,
    "Ġpetticoat": 15294,
    "Ġenergy": 2554,
    "remed": 18952,
    "Ġmonuments": 22979,
    "Ġviolation": 23404,
    "Ġanywhere": 8516,
    "Ġlanguage": 636,
    "ented": 4350,
    "Ġlaughs": 24116,
    "_,âĢĻ": 12431,
    "cher": 5786,
    "Ġexceeding": 1577,
    "Ġpatients": 24813,
    "Ġusually": 6263,
    "Ġhesitate": 16946,
    "judged": 14830,
    "ieties": 19023,
    "Ġcoroner": 7510,
    "lect": 1221,
    "Ġexploitation": 2349,
    "Ġsavi": 18325,
    "Ġinhale": 20299,
    "rece": 21233,
    "Ġsuspend": 14608,
    "functions": 11237,
    "Ġstructures": 2723,
    "naturally": 14545,
    "Ġvinegar": 20098,
    "Ġcheeks": 5957,
    "ications": 4447,
    "astron": 22161,
    "asc": 6386,
    "Ġdetection": 3302,
    "Ġprophe": 13077,
    "regular": 3041,
    "kindly": 14743,
    "Ġxxxii": 24970,
    "Ġhandles": 22692,
    "Ġfumbling": 21415,
    "Ġshuddering": 9051,
    "Ġsocietal": 11436,
    "Ġhoarse": 14526,
    "Ġnarrower": 24354,
    "smart": 23904,
    "tains": 10962,
    "Ġeccentric": 13648,
    "Ġappeal": 16313,
    "invested": 17117,
    "69": 17474,
    "are": 639,
    "Ġstroke": 6936,
    "Ġgpt": 4352,
    "ciousness": 20816,
    "springs": 24911,
    "Ġsubordinate": 18722,
    "ickering": 22667,
    "Ġcounsell": 25384,
    "stuff": 15685,
    "Ġmidway": 14604,
    "Ġcomposedly": 25183,
    "avering": 24793,
    "Ġsage": 17752,
    "Ġloathed": 15873,
    "persuaded": 15072,
    "Ġtire": 17720,
    "Ġmarching": 16699,
    "Ġfrigates": 25707,
    "Ġstages": 14003,
    "Ġsynd": 22206,
    "unity": 4153,
    "plague": 21950,
    "Ġabst": 9265,
    "Ġsustained": 13481,
    "rints": 12500,
    "Ġcordiality": 24395,
    "orton": 11754,
    "Ġhelm": 5275,
    "atigable": 15269,
    "Ġstanders": 19013,
    "Ġvanquished": 22875,
    "Ġreligion": 11415,
    "gracious": 11829,
    "Ġgrapes": 15214,
    "Ġpulled": 5660,
    "mas": 5212,
    "growing": 13732,
    "Ġpartner": 6714,
    "Ġcracking": 14574,
    "Ġdil": 6383,
    "commencement": 26347,
    "simon": 16973,
    "Ġwarm": 2425,
    "draw": 23896,
    "Ġsurveying": 25325,
    "Ġcontraction": 16006,
    "hes": 1397,
    "Ġmantel": 11439,
    "thrown": 8480,
    "Ġcritic": 19124,
    "Ġav": 3584,
    "Ġded": 2737,
    "acceptance": 25185,
    "Ġplanted": 9773,
    "Ġyouthful": 16723,
    "Ġinclu": 1099,
    "hook": 12051,
    "Ġpersuade": 5872,
    "Ġbodily": 6106,
    "Ġavalanche": 17432,
    "mered": 8217,
    "onies": 6806,
    "itor": 12563,
    "Ġsustenance": 19932,
    "Ġgoodness": 6058,
    "Ġglancing": 5399,
    "Ġeldest": 6571,
    "agues": 8160,
    "Ġbeale": 12696,
    "Ġlandau": 16418,
    "Ġembell": 14415,
    "Ġsuper": 2156,
    "Ġmischief": 8541,
    "Ġvalue": 2084,
    "Ġidly": 16403,
    "Ġcarpent": 4467,
    "forgive": 18729,
    "inent": 9628,
    "Ġrod": 9279,
    "excited": 13379,
    "broke": 14775,
    "waited": 24585,
    "superst": 11325,
    "Ġsheltered": 19910,
    "Ġbrit": 6289,
    "Ġoverthrown": 18426,
    "war": 6802,
    "Ġfol": 1287,
    "Ġchuckled": 10647,
    "happy": 4427,
    "Ġimprobable": 9792,
    "Ġnamely": 20688,
    "admirably": 24944,
    "dwelling": 20563,
    "nep": 20985,
    "tall": 17673,
    "Ġfierce": 7437,
    "Ġleader": 14701,
    "Ġornamented": 20360,
    "Ġfoot": 3161,
    "bulwarks": 12270,
    "uzzle": 19582,
    "î": 175,
    "ook": 21003,
    "c": 71,
    "hess": 4747,
    "local": 22506,
    "veil": 18042,
    "quee": 4131,
    "Ġwhereon": 16099,
    "Ġzoology": 22818,
    "Ġintegral": 25008,
    "kshire": 13745,
    "Ġlod": 4044,
    "Ġconstraint": 16514,
    "Ġlighten": 23257,
    "omeness": 18015,
    "Ġhorr": 3188,
    "Ġallows": 3232,
    "Ġconcluded": 5658,
    "Ġtilted": 20411,
    "Ġmultiplication": 2871,
    "Ġsamples": 2963,
    "Ġdeduced": 12205,
    "furthermore": 20002,
    "Ġswept": 7977,
    "Ġunwillingness": 20030,
    "eh": 13709,
    "Ġcode": 1720,
    "Ġlandlessness": 23378,
    "assault": 22303,
    "Ġtossing": 8125,
    "Ġbor": 5804,
    "Ġhereford": 22876,
    "Ġhighly": 4844,
    "now": 547,
    "Ġinconvenience": 9563,
    "Ġwhiskers": 10492,
    "time": 3146,
    "Ġsickness": 10538,
    "Ġbecame": 2694,
    "life": 4932,
    "gest": 5426,
    "Ġamuse": 5939,
    "ignorance": 17161,
    "ief": 2045,
    "Ġterra": 13115,
    "guard": 12126,
    "Ġbrows": 13299,
    "Ġimaginations": 16516,
    "glorious": 19365,
    "Ġluc": 3311,
    "ent": 305,
    "Ġseverely": 14932,
    "Ġrow": 5309,
    "Ġdiff": 3115,
    "sin": 21047,
    "Ġ1671": 25005,
    "Ġphil": 3387,
    "expound": 23663,
    "accomplished": 17211,
    "Ġlimber": 16478,
    "Ġtopsails": 19192,
    "Ġthoroughly": 8347,
    "inea": 7623,
    "Ġcommunity": 19008,
    "pless": 6260,
    "Ġcouch": 12568,
    "Ġplace": 1651,
    "trembling": 17142,
    "Ġvices": 14082,
    "Ġpads": 21472,
    "Ġcle": 1509,
    "Ġwindibank": 7257,
    "Ġticklish": 25034,
    "Ġunconcern": 14116,
    "Ġunappe": 22013,
    "Ġhatch": 7847,
    "constable": 24605,
    "lever": 2932,
    "Ġadieu": 10050,
    "Ġoutlaws": 22320,
    "Ġfill": 5701,
    "Ġ182": 13235,
    "battering": 20785,
    "...": 24549,
    "humored": 19451,
    "Ġimpro": 904,
    "Ġdepicting": 22605,
    "ro": 301,
    "promising": 24726,
    "Ġburly": 19248,
    "isticated": 1661,
    "impetuous": 23761,
    "n": 82,
    "Ġdiscoveries": 13357,
    "ashtego": 4102,
    "Ġvaulted": 25167,
    "Ġfav": 1755,
    "Ġsharkish": 24506,
    "Ġrubbed": 12952,
    "connection": 18868,
    "hound": 20894,
    "Ġnowadays": 18546,
    "Ġdate": 7841,
    "Ġhasten": 10478,
    "Ġassum": 4066,
    "which": 1709,
    "without": 4846,
    "Ġschedules": 3388,
    "ids": 21760,
    "Ġsupplication": 25491,
    "Ġflorida": 20658,
    "Ġvapory": 17006,
    "Ġconflagration": 26364,
    "Ġirksome": 13110,
    "Ġcooked": 13268,
    "Ġbohem": 8526,
    "Ġhospitality": 13512,
    "frankenstein": 11391,
    "y": 93,
    "aguy": 21907,
    "Ġtruck": 19510,
    "Ġlungless": 24863,
    "ishop": 9741,
    "Ġsimul": 1807,
    "otent": 8831,
    "Ġ107": 24415,
    "Ġinformed": 6717,
    "cool": 19186,
    "Ġspeechless": 13352,
    "Ġperturbation": 20439,
    "Ġpaid": 5015,
    "Ġentertainment": 12220,
    "Ġdearer": 14048,
    "Ġsalt": 8016,
    "Ġmounted": 7832,
    "Ġkicking": 16901,
    "Ġbeak": 18079,
    "Ġamaz": 5385,
    "atmospheric": 17776,
    "Ġhands": 1664,
    "gods": 13365,
    "Ġyoun": 1409,
    "Ġcontemptuously": 19832,
    "Ġproofs": 19813,
    "unders": 13309,
    "Ġhardware": 4904,
    "Ġsurpr": 2552,
    "Ġindepend": 3670,
    "dles": 11480,
    "Ġcoars": 14270,
    "agery": 21904,
    "Ġfury": 7660,
    "cles": 8725,
    "Ġputting": 5326,
    "Ġbountiful": 25944,
    "Ġconstant": 6309,
    "Ġreception": 9838,
    "Ġmentioned": 4331,
    "Ġbacked": 12922,
    "Ġnervousness": 23555,
    "Ġhypocr": 19470,
    "Ġhilarity": 20296,
    "garious": 17558,
    "figures": 20120,
    "Ġhaven": 8473,
    "Ġnapkins": 25161,
    "numerous": 17430,
    "model": 3971,
    "Ġendeavored": 19302,
    "Ġcopying": 17068,
    "Ġcups": 16882,
    "Ġglued": 20587,
    "Ġbegone": 11914,
    "breaking": 14763,
    "fortun": 3541,
    "Ġsty": 6251,
    "ig": 323,
    "Ġpredomin": 16042,
    "nect": 663,
    "irt": 3076,
    "Ġunconcerned": 20508,
    "fect": 2303,
    "Ġresembled": 18033,
    "Ġpredictions": 1454,
    "augment": 18829,
    "exclaimed": 11788,
    "Ġinfluence": 5515,
    "merc": 19279,
    "Ġexpectantly": 23525,
    "Ġglo": 1714,
    "Ġdebated": 9040,
    "Ġxxxiv": 24967,
    "Ġshipmate": 8928,
    "spe": 3563,
    "ton": 1725,
    "flow": 2253,
    "Ġcatastrop": 3348,
    "Ġrecept": 1521,
    "xic": 9145,
    "Ġlottery": 19887,
    "itche": 7578,
    "effort": 19213,
    "Ġdenote": 19332,
    "Ġinaccessible": 13933,
    "Ġinsertion": 26343,
    "Ġabide": 14187,
    "grim": 19106,
    "Ġgoin": 18470,
    "buoy": 7760,
    "circuit": 24188,
    "Ġfourteen": 12008,
    "nett": 16220,
    "Ġjury": 5378,
    "sle": 9138,
    "Ġinquis": 19303,
    "Ġtumbling": 13825,
    "muring": 17601,
    "Ġrevolver": 14899,
    "Ġbully": 23854,
    "orter": 4256,
    "drove": 16993,
    "Ġmain": 808,
    "range": 3497,
    "Ġpremises": 10487,
    "Ġsubstances": 24165,
    "Ġenric": 21932,
    "treat": 12511,
    "Ġalan": 10869,
    "sli": 11522,
    "ertips": 23641,
    "united": 14059,
    "Ġdissect": 16051,
    "abb": 15736,
    "chancing": 22919,
    "Ġowes": 20083,
    "Ġsple": 21214,
    "Ġdodo": 9072,
    "Ġcompact": 2265,
    "Ġthrust": 5084,
    "Ġasiatic": 20428,
    "Ġprojected": 16871,
    "Ġuncouth": 14550,
    "Ġsequ": 981,
    "Ġkeeps": 8266,
    "indifferent": 14208,
    "Ġbrought": 2518,
    "Ġpurchasing": 19874,
    "Ġdiscomp": 11864,
    "Ġwalks": 8966,
    "Ġhealed": 21680,
    "jug": 17580,
    "peril": 18337,
    "Ġtrials": 16789,
    "Ġheroes": 10576,
    "Ġwatson": 3599,
    "least": 8784,
    "violence": 16477,
    "Ġoutfits": 22318,
    "dr": 6221,
    "Ġsleepless": 14582,
    "Ġced": 10784,
    "unfearing": 21889,
    "az": 2182,
    "Ġinserting": 19905,
    "corner": 13396,
    "erable": 1918,
    "Ġtrousers": 12413,
    "Ġorph": 9716,
    "Ġlords": 14641,
    "bol": 8717,
    "thee": 9689,
    "Ġbased": 3340,
    "ree": 874,
    "Ġscalable": 1606,
    "thereby": 14446,
    "mur": 5428,
    "Ġcircular": 13109,
    "anum": 17835,
    "Ġhes": 6250,
    "Ġsouth": 4911,
    "Ġbull": 7839,
    "Ġclasp": 9744,
    "Ġtou": 15465,
    "Ġlivery": 15997,
    "Ġsto": 1498,
    "Ġrigger": 19529,
    "Ġtortures": 14922,
    "icuous": 10835,
    "Ġjesty": 18405,
    "iction": 4269,
    "Ġlabrador": 23329,
    "Ġaccomplished": 7104,
    "Ġtok": 1241,
    "inter": 2949,
    "Ġdevelopment": 7057,
    "Ġmonday": 6127,
    "Ġprofessors": 14724,
    "Ġfired": 16150,
    "ppa": 10239,
    "Ġearls": 18903,
    "caves": 20815,
    "Ġflit": 23003,
    "Ġmockery": 12105,
    "Ġrobbed": 23016,
    "hatchet": 24822,
    "Ġdepicted": 14283,
    "Ġbalancing": 2430,
    "ladies": 9528,
    "isp": 5528,
    "hearty": 14833,
    "Ġbambooz": 26119,
    "Ġtang": 13813,
    "Ġjac": 1898,
    "Ġcorrection": 5062,
    "Ġprofessor": 11230,
    "Ġcorpore": 13400,
    "Ġcocoan": 20315,
    "Ġsomeone": 6703,
    "forehead": 8515,
    "oof": 15404,
    "Ġapprehending": 26090,
    "irably": 13294,
    "farewell": 12304,
    "Ġrespect": 1669,
    "Ġdeuteronomy": 15757,
    "Ġberyls": 25775,
    "occup": 7752,
    "ain": 343,
    "ceiling": 21624,
    "Ġcrawl": 11375,
    "conveyed": 20519,
    "acknowledge": 18469,
    "Ġskies": 8920,
    "Ġorange": 8486,
    "pers": 4338,
    "ecess": 17532,
    "precise": 19349,
    "nets": 9132,
    "aux": 14288,
    "lit": 9605,
    "Ġmaterials": 11288,
    "nt": 923,
    "supper": 12917,
    "Ġbreeze": 5681,
    "Ġgenerates": 3666,
    "Ġacceler": 1610,
    "Ġsatisfaction": 5667,
    "plentiful": 21953,
    "Ġhint": 5016,
    "Ġcompromising": 22570,
    "Ġsqueaking": 26274,
    "mechanically": 17299,
    "comb": 11037,
    "Ġguide": 3214,
    "Ġblo": 2736,
    "Ġaccompan": 5513,
    "overs": 17621,
    "Ġwired": 17786,
    "Ġexasper": 8466,
    "Ġfootfalls": 25866,
    "Ġbouton": 17868,
    "Ġmaps": 2964,
    "Ġasiatics": 20429,
    "unction": 10234,
    "Ġshortly": 6196,
    "Ġweather": 3999,
    "Ġbrazier": 26320,
    "england": 18928,
    "elder": 21569,
    "Ġvegetables": 15220,
    "Ġnug": 21522,
    "large": 6625,
    "Ġcau": 13880,
    "Ġregimentals": 19857,
    "Ġreaching": 7303,
    "Ġpooh": 18603,
    "Ġune": 4599,
    "Ġsymp": 4504,
    "visible": 10533,
    "Ġdoubloon": 6945,
    "Ġomit": 17815,
    "Ġabode": 7899,
    "Ġkilled": 4955,
    "Ġmarvell": 7248,
    "transition": 24513,
    "hyena": 24252,
    "rose": 6013,
    "sudden": 5315,
    "don": 3546,
    "Ġdre": 1743,
    "histor": 13490,
    "Ġcondem": 6338,
    "faces": 13719,
    "bub": 15315,
    "Ġup": 462,
    "Ġbaleful": 24982,
    "Ġsensibly": 14516,
    "antage": 3879,
    "Ġredeem": 20498,
    "sunlight": 24851,
    "Ġdifferent": 1427,
    "rooms": 10432,
    "Ġum": 10211,
    "Ġbuffaloes": 25217,
    "Ġspec": 1261,
    "Ġunion": 6839,
    "terns": 21819,
    "Ġwith": 349,
    "Ġcarpets": 18902,
    "Ġchinese": 14183,
    "Ġhath": 12625,
    "inch": 10755,
    "Ġsurviving": 24637,
    "silent": 9973,
    "Ġuntamed": 19163,
    "l": 80,
    "Ġcompos": 22566,
    "Ġefforts": 11799,
    "Ġoptimizer": 5036,
    "Ġawait": 17073,
    "Ġstreams": 12190,
    "Ġgoblet": 25823,
    "Ġcounsel": 13614,
    "aste": 4602,
    "Ġregulate": 22584,
    "Ġaddition": 1148,
    "support": 9469,
    "become": 14246,
    "ouching": 13176,
    "Ą": 197,
    "Ġapologies": 25196,
    "Ġshadowed": 24042,
    "Ġreport": 6191,
    "Ġafghan": 22626,
    "Ġobsc": 7039,
    "race": 11630,
    "Ġprair": 7746,
    "killing": 20941,
    "Ġlogs": 16345,
    "Ġlifting": 10196,
    "Ġache": 18663,
    "Ġgases": 21599,
    "Ġexpands": 25237,
    "Ġacknowledgment": 16957,
    "account": 5329,
    "Ġflat": 8227,
    "Ġutensils": 23514,
    "Ġjan": 11760,
    "Ġtomahawk": 7539,
    "Ġthieves": 15633,
    "Ġmathematical": 3351,
    "Ġdollar": 25283,
    "sofa": 26146,
    "draughts": 20386,
    "Ġdesigned": 7740,
    "quent": 2093,
    "Ġharbors": 24901,
    "Ġindependence": 12102,
    "Ġsay": 932,
    "wide": 10137,
    "Ġmant": 9647,
    "stands": 22427,
    "Ġagent": 6277,
    "whispering": 26103,
    "Ġwaiter": 16361,
    "Ġways": 5396,
    "Ġpossibility": 7458,
    "itching": 21333,
    "Ġpled": 17907,
    "instances": 13318,
    "Ġvolcanoes": 24146,
    "lar": 4485,
    "zen": 5140,
    "Í": 142,
    "Ġsundial": 15081,
    "Ġequilibrium": 4141,
    "bestow": 16929,
    "Ġdisplays": 19856,
    "Ġest": 2269,
    "aintance": 3572,
    "Ġmistakes": 16540,
    "Ġdisgraceful": 15019,
    "Ġork": 18284,
    "Ġarched": 10932,
    "mansion": 20982,
    "Ġbravery": 23834,
    "Ġsupernatural": 9872,
    "Ġhydraulic": 10063,
    "size": 15424,
    "accomplishment": 20222,
    "announce": 24560,
    "savage": 15074,
    "ville": 6087,
    "Ġabutted": 22272,
    "irmed": 9238,
    "Ġscreams": 24603,
    "Ġcreeping": 18684,
    "Ġdefe": 21832,
    "various": 10397,
    "Ġmum": 13857,
    "Ġdeclared": 5595,
    ":--": 5784,
    "Ġhangs": 11605,
    "Ġbehalf": 14508,
    "Ġglimmered": 20170,
    "Ġundertaken": 18986,
    "Ġl": 303,
    "Ġcried": 1485,
    "mosp": 8088,
    "Ġsighed": 10337,
    "Ġchil": 11749,
    "instinctively": 26327,
    "Ġquietude": 19358,
    "leviathans": 19936,
    "affect": 13211,
    "ture": 7558,
    "ssian": 3402,
    "Ġconstable": 19070,
    "Ġneighbourhood": 5126,
    "Ġarmchair": 8270,
    "dear": 6555,
    "Ġsuit": 5725,
    "Ġhisself": 21912,
    "Ġslew": 23381,
    "ede": 21503,
    "Ġselects": 4387,
    "Ġcoast": 4656,
    "Ġtum": 5692,
    "Ġalt": 18098,
    "Ġxviii": 23408,
    "Ġsignificance": 13279,
    "W": 59,
    "reds": 12745,
    "Ġchanced": 8186,
    "Ġclaw": 22357,
    "impulse": 20644,
    "unwillingly": 21881,
    "Ġguard": 6178,
    "course": 6104,
    "Ġembark": 8560,
    "Ġformless": 22824,
    "conducted": 25572,
    "ruction": 4359,
    "Ġusages": 15916,
    "ash": 1993,
    "Ġdarted": 4758,
    "Ġwishing": 7830,
    "tremble": 17141,
    "Ġverily": 16603,
    "Ġbaling": 17859,
    "Ġindependently": 4247,
    "Ġmicrosc": 20675,
    "ble": 541,
    "Ġthou": 1809,
    "Ġswelled": 11088,
    "Ġproved": 4884,
    "arted": 2203,
    "Ġlux": 8813,
    "Ġfortitude": 9884,
    "expected": 5780,
    "Ġcompatibility": 2960,
    "Ġpeered": 18668,
    "Ġkettle": 26232,
    "Ġblame": 6446,
    "Ġobjects": 5578,
    "Ġgallantry": 15102,
    "Ġpile": 8423,
    "cream": 15330,
    "Ġrates": 1403,
    "middle": 11310,
    "visitor": 15057,
    "Ġminute": 4279,
    "Ġcommentaries": 20159,
    "past": 8089,
    "Ġtotally": 9470,
    "knew": 9126,
    "ead": 2600,
    "Ġstair": 8455,
    "Ġsubstance": 5510,
    "Ġraven": 16113,
    "Ġelimin": 16106,
    "Ġassociate": 13449,
    "Ġtwin": 12925,
    "Ġconcerning": 4070,
    "function": 4289,
    "Ġexamination": 8004,
    "Ġblasted": 7936,
    "Ġchaldee": 26234,
    "Ġduration": 20352,
    "stirred": 20423,
    "Ġingrat": 16840,
    "wards": 1274,
    "Ġ221": 25068,
    "crown": 13697,
    "Ġearn": 3549,
    "ivia": 22073,
    "ume": 4835,
    "ces": 579,
    "Ġearthy": 23711,
    "rer": 3624,
    "Ġcopse": 17067,
    "Ġclipping": 2440,
    "Ġfretfulness": 25448,
    "Ġcott": 3710,
    "nades": 20996,
    "Ġnobly": 22238,
    "exagger": 22425,
    "Ġsunken": 14493,
    "Ġhatches": 12043,
    "Ġcontracting": 16009,
    "Ġfre": 1567,
    "Ġsincer": 13063,
    "mist": 5686,
    "Ġate": 8839,
    "overfitting": 13100,
    "Ġexplanation": 6692,
    "asible": 21539,
    "Ġdisc": 942,
    "itably": 10782,
    "suspended": 15176,
    "Ġlurks": 11290,
    "bes": 6641,
    "Ġegg": 8818,
    "Ġstingy": 25455,
    "Ġlands": 6594,
    "oil": 7805,
    "Ġ51": 24320,
    "Ġsailors": 4277,
    "Ġconcert": 11965,
    "Ġcat": 2124,
    "Ġdair": 17889,
    "Ġingratitude": 17468,
    "eager": 12457,
    "Ġhousekeeping": 18943,
    "stool": 23817,
    "Ġspeakest": 23486,
    "Ġwrithed": 17106,
    "Ġquito": 24408,
    "concerned": 24638,
    "Ġbeware": 8827,
    "_,âĢĻâĢĿ": 20399,
    "Ġshowed": 4498,
    "Ġsevered": 18205,
    "Ġencapsulate": 13673,
    "Ġdexterously": 25295,
    "Ġ48": 24080,
    "Ġboy": 3022,
    "Ġsymmetrical": 20365,
    "Ġpropont": 16348,
    "Ġpovels": 22589,
    "Ġscraping": 13415,
    "Ġbount": 15565,
    "Ġthin": 4349,
    "sec": 6152,
    "Ġassisted": 11110,
    "Ġdominant": 12394,
    "Ġinmost": 17930,
    "pray": 5429,
    "Ġmanned": 9270,
    "Ġcertainty": 6734,
    "Ġbore": 5079,
    "Ġty": 6657,
    "consciousness": 13364,
    "Ġyoked": 15732,
    "condemned": 26060,
    "Ġintuitions": 17340,
    "geese": 22364,
    "urable": 8924,
    "Ġcareless": 11119,
    "stricken": 9883,
    "Ġmouthfuls": 20645,
    "russian": 22182,
    "¬": 110,
    "Ġweeps": 24947,
    "Ġdiscrete": 2479,
    "Ġhumans": 8929,
    "Ġ61": 24364,
    "Ġtimorous": 24225,
    "pierced": 26141,
    "Ġdevotees": 25376,
    "ited": 1750,
    "circumstantial": 24444,
    "dire": 15335,
    "Ġbulkhead": 24511,
    "Ġantagon": 19549,
    "charles": 14698,
    "Ġcable": 11579,
    "Ġdrink": 4787,
    "Ġencircling": 26271,
    "Ġhe": 318,
    "Ġwonder": 2119,
    "Ġdampening": 2894,
    "ooped": 17623,
    "ß": 160,
    "skill": 24487,
    "Ġinmates": 15620,
    "ogue": 9784,
    "Ġaud": 6661,
    "Ġspasmod": 12412,
    "iah": 14416,
    "ortion": 11755,
    "lounged": 26133,
    "Ġabandon": 12255,
    "Ġassembl": 20059,
    "estruct": 22220,
    "arius": 14248,
    "ual": 944,
    "Ġunfor": 15837,
    "Ġsignature": 16493,
    "flex": 24843,
    "prep": 9758,
    "Ġdrought": 19277,
    "Ġmaking": 1779,
    "otherwise": 7670,
    "iteness": 4394,
    "harmony": 25750,
    "Ġtutored": 20126,
    "ppered": 15788,
    "Ġspeech": 4611,
    "this": 1440,
    "Ġfle": 3090,
    "Ġmadly": 16484,
    "Ġbarn": 11586,
    "worked": 19030,
    "Ġcheek": 8577,
    "weary": 22683,
    "engthen": 14456,
    "giana": 7800,
    "furthest": 19840,
    "utch": 21583,
    "compar": 14358,
    "absolute": 17122,
    "Ġapprehensions": 13403,
    "Ġaperture": 26160,
    "Ġweapons": 10593,
    "eland": 11619,
    "ationally": 15702,
    "Ġsimple": 1619,
    "Ġautomatically": 3648,
    "raised": 15676,
    "Ġsighing": 18676,
    "Ġbegat": 18862,
    "tie": 21067,
    "Ġkrem": 9725,
    "ancho": 4938,
    "Ġjealous": 9468,
    "Ġpretending": 19314,
    "Ġadvanced": 1499,
    "Ġoccasionally": 5590,
    "Ġrising": 4357,
    "sincere": 16907,
    "Ġdick": 3500,
    "Ġpoky": 21477,
    "esley": 17902,
    "Ġpurchased": 12258,
    "Ġblasp": 14399,
    "Ġrector": 21673,
    "Ġdrifting": 19278,
    "blazing": 24132,
    "Ġfict": 21403,
    "rians": 21922,
    "Ġporpoises": 13381,
    "Ġuproar": 22152,
    "Ġmosses": 20162,
    "despatched": 19800,
    "biqu": 17497,
    "Ġfocuses": 8649,
    "tol": 17672,
    "Ġgabriel": 7595,
    "comple": 7441,
    "advent": 10220,
    "Ġslain": 8953,
    "Ġmoral": 6578,
    "ituted": 13872,
    "Ġmonstrous": 7789,
    "Ġwooden": 4730,
    "Ġbarbaric": 10013,
    "corrupt": 14894,
    "Ġentangled": 10343,
    "Ġhimmale": 18334,
    "activity": 22628,
    "rope": 3183,
    "people": 7676,
    "Ġsteed": 13038,
    "Ġpregn": 22229,
    "Ġdefer": 18823,
    "Ġdeaden": 23461,
    "physiogn": 26266,
    "ospit": 22260,
    "comput": 1981,
    "Ġmercenary": 17193,
    "Ġdanish": 21429,
    "beg": 22484,
    "isive": 10793,
    "athy": 14322,
    "camp": 15329,
    "Ġcolour": 4463,
    "Ġphaet": 16316,
    "Ġarisen": 11741,
    "Ġintrusted": 21989,
    "Ġpolluted": 25593,
    "Ġarsac": 11740,
    "Ġcur": 1244,
    "Ġmodel": 509,
    "Ġeligible": 10670,
    "expression": 10547,
    "castles": 14636,
    "factories": 19842,
    "Ġgraze": 18226,
    "Ġjustinian": 22964,
    "Ġscraps": 16902,
    "Ġcoco": 11000,
    "Ġduck": 8793,
    "Ġlongbourn": 3511,
    "Ġordin": 16650,
    "northern": 23667,
    "akened": 7415,
    "complete": 15034,
    "Ġjing": 15947,
    "Ġ105": 24413,
    "derest": 18315,
    "Ġattempting": 14696,
    "Ġtransactions": 18481,
    "Ġlearnt": 7613,
    "Ġpaints": 23524,
    "Ġwinding": 8235,
    "ij": 7801,
    "Ġjapan": 7639,
    "party": 8992,
    "caut": 20811,
    "Ġwhaler": 7520,
    "clearer": 24066,
    "Ġrogue": 22401,
    "Ġblast": 7445,
    "Ġblocked": 19221,
    "Ġconfederate": 17353,
    "barbar": 20237,
    "Ġhorsey": 24249,
    "superiority": 20184,
    "rods": 21535,
    "Ġfever": 6558,
    "published": 26142,
    "ivided": 22075,
    "vell": 3959,
    "Ġdetained": 18372,
    "Ġparchment": 13651,
    "Ġmonomania": 17085,
    "added": 11658,
    "seventh": 12711,
    "waiting": 12218,
    "Ġcraw": 7282,
    "Ġhymn": 24518,
    "itates": 13868,
    "Ġjoky": 18406,
    "Ġtides": 13820,
    "Ġthyself": 6602,
    "hab": 1076,
    "Ġwholly": 4449,
    "Ġflirting": 16247,
    "Ġstrangeness": 16707,
    "Ġdiffidence": 14659,
    "Ġimproving": 1211,
    "Ġdisturbing": 19944,
    "umer": 9257,
    "_": 67,
    "Ġengage": 9334,
    "Ġforward": 1838,
    "Ġdeaths": 14537,
    "tures": 21068,
    "table": 5795,
    "Ġcondu": 18109,
    "Ġspam": 7630,
    "ulgences": 21862,
    "Ġ[": 6967,
    "eridge": 15524,
    "Ġcaterpillar": 5864,
    "Ġjoyfully": 19344,
    "Ġliquid": 22406,
    "sig": 2874,
    "Ġengrossed": 12994,
    "Ġdishonoured": 20389,
    "Ġjupiter": 17455,
    "Ġhurricane": 16430,
    "rage": 10843,
    "Ġmemory": 2279,
    "Ġheels": 10850,
    "Ġsacrificial": 24871,
    "Ġmou": 13854,
    "Ġsitting": 3607,
    "Ġends": 8237,
    "Ġaims": 15495,
    "Ġconcentrate": 25063,
    "Ġdeserved": 7736,
    "Ġsins": 13836,
    "mble": 1407,
    "Ġtickets": 17094,
    "late": 11498,
    "Ġassume": 10515,
    "Ġmeasureless": 14709,
    "ippers": 17576,
    "Ġmisanthropic": 26560,
    "nephew": 26397,
    "answered": 10273,
    "Ġgnashed": 20131,
    "Ġglittering": 10052,
    "Ġmicha": 17811,
    "Ġdollars": 11455,
    "Ġstraw": 9428,
    "Ġapparatus": 24908,
    "uous": 4146,
    "Ġmanly": 22321,
    "offing": 23331,
    "Ġhates": 21483,
    "dangerous": 20239,
    "hears": 12530,
    "Ġtendency": 11329,
    "delirium": 14783,
    "stalls": 26473,
    "Ġpromptly": 23815,
    "Ġvoc": 4453,
    "hello": 13362,
    "Ġpert": 22391,
    "Ġpained": 19166,
    "boat": 3362,
    "welcomed": 24644,
    "Ġblandly": 20322,
    "Ġfiercely": 12949,
    "orated": 12588,
    "Ġcrimson": 16440,
    "significant": 25082,
    "Ġsepulchre": 20558,
    "otic": 15742,
    "Ġtin": 15462,
    "baked": 20778,
    "perpendicular": 14159,
    "toes": 22561,
    "Ġanat": 8123,
    "Ġrespected": 11951,
    "Ġrude": 7234,
    "Ġaffecting": 2326,
    "cially": 3493,
    "oubtedly": 6943,
    "rabbit": 20589,
    "Ġgrown": 5628,
    "duing": 22408,
    "strade": 5065,
    "Ġkindred": 16376,
    "ip": 553,
    "Ġvisibly": 22870,
    "Ġbake": 21380,
    "bushes": 24447,
    "Ġaccordance": 19496,
    "Ġuniformity": 23484,
    "Ġharpoon": 3618,
    "Ġdisposing": 19373,
    "Ġscaled": 2105,
    "Ġfrig": 13079,
    "Ġsocket": 12786,
    "Ġinheritance": 25355,
    "americ": 8155,
    "Ġoffices": 14337,
    "stock": 13220,
    "Ġpel": 17904,
    "Ġflatter": 9347,
    "Ġopulent": 23627,
    "Ġwel": 4528,
    "Ġwarden": 17224,
    "Ġsprawling": 22137,
    "Ġextra": 4057,
    "Ġaccustomed": 6862,
    "gentleness": 24844,
    "Ġroylott": 7305,
    "Ġlower": 2662,
    "Ġisrael": 21800,
    "Ġwrinkles": 8570,
    "Ġdivided": 8631,
    "sheet": 16284,
    "Ġactions": 6278,
    "Ġseating": 18201,
    "Ġheathen": 10565,
    "Ġubiquitous": 26195,
    "command": 6576,
    "ains": 5094,
    "Ġretain": 7862,
    "Ġchambers": 16799,
    "unimportant": 18159,
    "Ġash": 4832,
    "ula": 2827,
    "iates": 13736,
    "Ġwield": 21289,
    "Ġlays": 15987,
    "spears": 23939,
    "Ġmeas": 1096,
    "except": 5383,
    "Ġsociable": 19402,
    "Ġaband": 6561,
    "Ġnoses": 18373,
    "Ġresist": 7915,
    "proportion": 16182,
    "Ġspotted": 12136,
    "ravity": 21632,
    "Ġoun": 13862,
    "Ġpostpone": 17306,
    "twinkle": 23702,
    "Ġsubject": 2466,
    "ĠĠĠĠĠĠĠĠĠĠĠĠĠĠĠĠĠĠĠĠĠĠĠĠĠĠĠĠ": 9974,
    "Ġfreshe": 13068,
    "whose": 6852,
    "Ġimport": 994,
    "Ġconst": 1911,
    "Ġplaces": 5390,
    "Ġhanover": 20584,
    "Ġlull": 15648,
    "swim": 16779,
    "Ġseams": 12122,
    "Ġemblematical": 25788,
    "penetrate": 20323,
    "Ġimminent": 11245,
    "Ġstately": 9833,
    "Ġcaulking": 20292,
    "Ġpepper": 9780,
    "Ġlanded": 7469,
    "Ġprocessing": 872,
    "Ġbaffled": 12401,
    "Ġengland": 3856,
    "Ġessentially": 24924,
    "tend": 17674,
    "Ġfeasts": 25369,
    "Ġteacher": 22912,
    "Ġbuild": 6474,
    "passenger": 24166,
    "headed": 4320,
    "div": 8075,
    "shoals": 24717,
    "Ġestim": 3349,
    "Ġspiracle": 14149,
    "Ġexpected": 3698,
    "Ġmanager": 11767,
    "Ġbower": 15564,
    "bl": 4142,
    "Ġemails": 13105,
    "very": 499,
    "Ġembal": 11906,
    "Ġwallowing": 24040,
    "ished": 1426,
    "Ġgor": 9206,
    "vag": 8764,
    "Ġgenerate": 1537,
    "Ġherds": 9715,
    "Ġwhisky": 23931,
    "Ġdeserves": 13288,
    "Ġloose": 4649,
    "Ġacutely": 14313,
    "consent": 18501,
    "proble": 9393,
    "Ġbeheld": 4494,
    "tremendous": 20672,
    "Ġdiscreet": 16481,
    "formed": 2556,
    "Ġme": 353,
    "Ġcountess": 11962,
    "Ġ122": 24467,
    "Ġabruptness": 25299,
    "arris": 13208,
    "mical": 9128,
    "Ġvector": 1971,
    "Ġdire": 865,
    "cular": 15327,
    "Ġpositives": 4318,
    "affrail": 11205,
    "other": 1314,
    "mense": 4780,
    "Ġsuck": 15858,
    "prodig": 16425,
    "Ġpress": 5931,
    "Ġlizzy": 3548,
    "mes": 1198,
    "Ġfift": 6382,
    "Ġgossip": 18471,
    "Ġalgorithms": 867,
    "Ġquarrels": 16565,
    "Ġhastily": 5763,
    "Ġtax": 13815,
    "dataset": 23225,
    "Ġpsych": 10176,
    "Ġ60": 14874,
    "osed": 1960,
    "faint": 17545,
    "Ġschoolmasters": 19719,
    "Ġdism": 9766,
    "Ġsparkling": 11356,
    "Ġfri": 17878,
    "Ġlime": 13947,
    "Ġhaunts": 18198,
    "Ġtruth": 3320,
    "com": 995,
    "ear": 8730,
    "aches": 6570,
    "mic": 12486,
    "Ġcardboard": 19977,
    "Ġhon": 2540,
    "Ġstretch": 6993,
    "icha": 11736,
    "king": 3059,
    "Ġeclipsed": 26376,
    "Ġregions": 10323,
    "Ġphysiology": 25332,
    "Ġtimid": 6345,
    "limp": 20951,
    "Ġdismay": 11807,
    "Ġstreaked": 19113,
    "Ġvon": 14080,
    "Ġcanaller": 25467,
    "Ġsubmit": 11868,
    "onden": 13843,
    "Ġpublished": 11242,
    "medical": 23339,
    "Ġvesuvius": 26501,
    "Ġfeedforward": 2329,
    "pits": 15411,
    "Ġcolumns": 14375,
    "io": 3802,
    "Ġhardened": 14449,
    "pets": 17636,
    "Ġdressed": 5081,
    "Ġjones": 7204,
    "Ġvehicle": 20137,
    "Ġdemanded": 8326,
    "longing": 23724,
    "Ġconcluding": 9856,
    "Ġwarbling": 26168,
    "Ġconsoling": 19455,
    "Ġtroubling": 26546,
    "Ġfant": 9173,
    "Ġoughts": 23898,
    "Ġbritain": 16956,
    "Ġrationally": 18215,
    "mmar": 952,
    "Ġbelonging": 8307,
    "Ď": 207,
    "uc": 1878,
    "above": 8147,
    "Ġshocks": 16457,
    "Ġnewfoundland": 26569,
    "superstitiousness": 25508,
    "Ġori": 8408,
    "herent": 2531,
    "miserably": 24210,
    "Ġfelix": 4848,
    "Ġ123": 24468,
    "Ġremembr": 24170,
    "kick": 20935,
    "mrs": 3745,
    "Ġstudious": 23210,
    "downward": 16619,
    "Ġstudent": 14474,
    "Ġincalcul": 16061,
    "Ġmoods": 14950,
    "Ġdeser": 3887,
    "ingham": 21299,
    "ask": 857,
    "Ġoccasioned": 13225,
    "fool": 9047,
    "octial": 20003,
    "Ġunguarded": 15848,
    "Ġconject": 6026,
    "Ġwheel": 9717,
    "Ġfron": 14487,
    "Ġevolved": 9891,
    "Ġinterlacing": 22573,
    "Ġwindows": 4971,
    "word": 2491,
    "Ġadventurous": 16733,
    "))": 1514,
    "stream": 15684,
    "notches": 22749,
    "gaff": 20881,
    "isons": 17849,
    "Ġcomputational": 1625,
    "Ġfanc": 6743,
    "Ġfaire": 13363,
    "Ġindifference": 6725,
    "Ġcirculating": 23371,
    "consum": 12867,
    "Ġmors": 17801,
    "va": 4743,
    "Ġcomposing": 16065,
    "(": 12,
    "Ġlend": 17962,
    "Ġbalance": 2021,
    "enesis": 24388,
    "Ġwealthy": 18178,
    "uling": 2260,
    "Ġgranite": 22805,
    "Ġbuff": 9172,
    "Ġchili": 25561,
    "contents": 12056,
    "wonted": 13492,
    "Ġrequires": 1013,
    "Ġimpulsively": 24880,
    "Ġsw": 1353,
    "Ġupbraided": 26528,
    "Ġstrife": 18613,
    "cheeks": 23806,
    "Ġsled": 21217,
    "Ġunwarrantable": 26353,
    "Ġhour": 1812,
    "Ġsymb": 2592,
    "Ġunconditional": 15842,
    "Ġexecuted": 9471,
    "owards": 4595,
    "Ġuneasily": 24230,
    "Ġbree": 5012,
    "Ġirene": 8443,
    "Ġthief": 11609,
    "Ġsubstituting": 26326,
    "Ġhobbling": 25644,
    "deficient": 23114,
    "Ġgratify": 19501,
    "mun": 20961,
    "Ġlances": 6984,
    "Ġquantization": 19853,
    "orient": 2878,
    "Ġresidual": 1679,
    "trained": 4240,
    "erest": 10697,
    "Ġhabitu": 19527,
    "Ġovercome": 6042,
    "Ġmen": 1434,
    "co": 2434,
    "Ġrepeatedly": 9020,
    "Ġthereof": 22365,
    "Ġcoffee": 6760,
    "bone": 5612,
    "attachment": 13049,
    "Ġtresses": 21174,
    "Ġgrammatical": 13538,
    "inquiries": 13576,
    "tit": 11527,
    "Ġilluminated": 20174,
    "Ġleisurely": 24746,
    "Ġperson": 2369,
    "Ġshetland": 22156,
    "uments": 5552,
    "================================": 5671,
    "Ġgreater": 3036,
    "Ġpig": 5705,
    "âĢĻ,": 14069,
    "Ġhoney": 12629,
    "Ġhails": 21947,
    "Ġsafe": 5103,
    "avoiding": 25236,
    "Ġchanges": 2289,
    "Ġexultation": 15170,
    "Ġgrazed": 15831,
    "Ġpenetrated": 13471,
    "barrow": 15320,
    "Ġeight": 3901,
    "Ġbecomes": 6396,
    "Ġclang": 15969,
    "ounce": 6557,
    "ting": 1333,
    "nne": 20988,
    "Ġangles": 23587,
    "Ġchanging": 11751,
    "devil": 7894,
    "Ġecon": 9677,
    "ulgent": 18149,
    "Ġshavings": 14109,
    "Ġbadge": 16683,
    "eze": 20846,
    "Ġrephrased": 26477,
    "Ġuninter": 18246,
    "Ġbristol": 14379,
    "Ġimmemorially": 25383,
    "Ġsquire": 16179,
    "Ġfiss": 21410,
    "appeared": 4282,
    "Ġdisturbance": 15012,
    "Ġgasped": 11372,
    "Ġharpoons": 5659,
    "Ġremarked": 3697,
    "Ġcollins": 2181,
    "Ġ40": 14767,
    "Ġprodigy": 19791,
    "owners": 16084,
    "Ġcruelly": 13374,
    "shavings": 22450,
    "Ġpilgr": 12178,
    "Ġagrippa": 11805,
    "Ġpier": 7162,
    "Ġfall": 2987,
    "Ġkindly": 6077,
    "Ġgaunt": 11268,
    "join": 12111,
    "Ġquite": 1740,
    "Ŀ": 256,
    "Ġwestmorland": 24390,
    "lemagne": 26436,
    "Ġattacks": 12202,
    "Ġgrunted": 16166,
    "Ġgid": 13961,
    "Ġpredicting": 2415,
    "sank": 17662,
    "Ġexcuse": 5861,
    "Ġsutherland": 10148,
    "app": 1041,
    "Ġelementary": 24814,
    "Ġbaltic": 18795,
    "Ġdrowsiness": 26445,
    "eenth": 12458,
    "ntax": 933,
    "iony": 9191,
    "stolidity": 21660,
    "Ġbarrowful": 25595,
    "Ġprehensile": 26534,
    "Ġdeft": 21833,
    "vial": 17697,
    "to": 713,
    "Ġfloated": 7288,
    "Ġimprove": 1813,
    "Ġthoughtless": 16191,
    "H": 44,
    "buff": 15317,
    "Ġaccents": 14217,
    "comfortably": 16875,
    "Ġimag": 2675,
    "ego": 4037,
    "Ġpalm": 10513,
    "ous": 477,
    "aught": 2680,
    "asis": 12647,
    "Ġarmies": 16492,
    "Ġannihil": 10174,
    "Ġencoding": 4774,
    "lad": 5991,
    "Ġquaff": 22411,
    "Ġattain": 12744,
    "Ġbrilliant": 11414,
    "Ġwoof": 14720,
    "Ġwatches": 11082,
    "labours": 16617,
    "itaries": 21334,
    "shazz": 14240,
    ");": 7330,
    "Ġrealising": 18982,
    "Ġencourages": 2060,
    "spirit": 11313,
    "carpet": 25202,
    "throw": 14097,
    "Ġev": 4828,
    "id": 338,
    "Ġestimable": 23870,
    "Ġtransf": 22434,
    "hemat": 3129,
    "Ġpolar": 9410,
    "Ġbang": 17854,
    "Ġworst": 7444,
    "links": 20957,
    "Ġlxi": 21558,
    "beware": 16036,
    "Ġscorched": 17101,
    "Ġobservations": 13552,
    "Ġscratches": 22288,
    "Ġthirt": 13938,
    "Ġtyph": 10007,
    "gracechurch": 24581,
    "Ġremark": 2149,
    "dwelt": 23869,
    "Ġx": 2072,
    "belated": 24034,
    "scene": 14419,
    "cd": 15322,
    "Ġowning": 18744,
    "Ġworks": 5858,
    "Ġwhis": 3507,
    "Ġtrick": 7018,
    "este": 15917,
    "social": 11022,
    "Ġtore": 6530,
    "Ġreclining": 26033,
    "Ġsauce": 15888,
    "Ġbenef": 3492,
    "Ġlucerne": 23862,
    "super": 5943,
    "dischar": 19151,
    "Ġweb": 9239,
    "haustible": 16891,
    "ized": 1526,
    "Ġimprecations": 25820,
    "Ġirregularity": 25324,
    "indifference": 15981,
    "Ġinvest": 4978,
    "mews": 22711,
    "âĢĿâĢĶ": 5721,
    "therefore": 5953,
    "morn": 20975,
    "mits": 13755,
    "Ġtoes": 10829,
    "birth": 15321,
    "Ġbath": 9658,
    "iable": 3335,
    "hent": 12531,
    "compl": 6873,
    "Ġexpressly": 16453,
    "irectly": 6940,
    "Ġconvivial": 16547,
    "Ġqueen": 3211,
    "sub": 4660,
    "haired": 14765,
    "Ġsmilingly": 22557,
    "Ġwhiff": 21715,
    "ĠâĢĺ_": 11117,
    "Ġabout": 633,
    "Ġhumorous": 10360,
    "Ġdataset": 12817,
    "Ġsky": 3970,
    "Ġgratifying": 13304,
    "Ġuniversal": 2235,
    "Ġomitted": 12561,
    "Ġresort": 18563,
    "Ġmad": 2426,
    "buttoned": 13631,
    "Ġmazes": 25940,
    "Ġprogramming": 1181,
    "days": 7687,
    "axed": 8888,
    "Ġsplit": 7992,
    "histicated": 20900,
    "Ġsurgeons": 23465,
    "Ġreven": 18028,
    "Ġgrow": 2860,
    "Ġshameful": 19851,
    "suit": 18632,
    "Ġterminating": 23510,
    "Ġaugust": 10597,
    "Ġfacing": 10171,
    "Ġknees": 6928,
    "commer": 22814,
    "study": 15116,
    "Ġcast": 3608,
    "commod": 16171,
    "Ġsympathising": 24297,
    "Ġfail": 4150,
    "Ġ179": 19753,
    "que": 1143,
    "clergy": 18933,
    "Ġinquest": 16546,
    "sixty": 24852,
    "Ġomens": 21326,
    "script": 11077,
    "Ġaff": 1119,
    "others": 7669,
    "Ġindispens": 22951,
    "letters": 13173,
    "Ġhus": 3091,
    "next": 5891,
    "Ġdiggings": 24649,
    "pen": 1204,
    "Ġpup": 12616,
    "Ġremotest": 10051,
    "Ġhereafter": 9329,
    "proved": 11985,
    "iem": 20916,
    "Ġlively": 5449,
    "tis": 4105,
    "pretending": 17041,
    "Ġhistorical": 3647,
    "Ġthroughout": 8876,
    "Ġtechnical": 17191,
    "Ġtimber": 13348,
    "Ġmyster": 5925,
    "Ġlowerings": 23648,
    "Ġapplication": 2120,
    "Ġencirc": 18732,
    "Ġresol": 2665,
    "read": 3276,
    "unte": 21870,
    "Ġatlantic": 7000,
    "ercial": 21273,
    "Ġtreble": 16503,
    "Ġsecret": 3721,
    "Ġdrinks": 24279,
    "changed": 7175,
    "Ġthank": 3792,
    "Ġentered": 2846,
    "queen": 12724,
    "indirectly": 18437,
    "Ġhipp": 21489,
    "hastening": 24448,
    "angels": 22100,
    "Ġtrim": 15960,
    "Ġnightgown": 23130,
    "Ġasleep": 6836,
    "Ġmodest": 15914,
    "Ġperfect": 2558,
    "Ġmanaging": 22322,
    "vapor": 25755,
    "Ġadaptation": 3155,
    "Ġmerest": 14030,
    "Ġpitiful": 13237,
    "creat": 20799,
    "Ġharvest": 13414,
    "argue": 21442,
    "Ġlaw": 3657,
    "impregnable": 26481,
    "Ġsaved": 6690,
    "Ġwaterloo": 11979,
    "Ġfilling": 13407,
    "scept": 21052,
    "Ġvibrated": 25045,
    "Ġrhyme": 21975,
    "Ġcanvas": 7783,
    "Ġcistern": 17380,
    "ough": 470,
    "immediately": 10048,
    "gradu": 18617,
    "isc": 6239,
    "chari": 21686,
    "untering": 15773,
    "Ġears": 4492,
    "Ġestimated": 16594,
    "alog": 8804,
    "arling": 10814,
    "mere": 11853,
    "jure": 20923,
    "reckoning": 25270,
    "Ġmoved": 4839,
    "Ġdepos": 11007,
    "Ġjuggler": 26366,
    "Ġsynthe": 26007,
    "uced": 13799,
    "Ġmoby": 3667,
    "Ġconduct": 3734,
    "bones": 8371,
    "batt": 20777,
    "Ġfrown": 10807,
    "foremost": 14252,
    "ahawk": 23315,
    "sul": 15420,
    "Ġqualifications": 24675,
    "Ġbrotherhood": 23670,
    "Ġidleness": 11144,
    "shadow": 20311,
    "inkled": 5477,
    "gl": 3291,
    "bbs": 23691,
    "Ġrequirements": 9789,
    "ition": 653,
    "Ġbrack": 23833,
    "board": 3568,
    "Ġacquiescence": 20329,
    "repro": 10770,
    "les": 1016,
    "wh": 508,
    "Ġmirror": 12376,
    "tubs": 15129,
    "Ġmitig": 1335,
    "isol": 17846,
    "gent": 7129,
    "Ġinscribed": 24938,
    "ullo": 12726,
    "Ġvir": 7001,
    "Ġcontriv": 9281,
    "Ġyell": 21774,
    "ocity": 8277,
    "necessarily": 19630,
    "Ġrough": 7187,
    "Ġret": 1382,
    "rank": 21040,
    "Ġeddying": 16434,
    "drink": 10595,
    "ories": 4753,
    "Ġanimated": 7701,
    "Ġbear": 3660,
    "Ġimpropri": 14212,
    "Ġsquared": 1383,
    "osoever": 17342,
    "Ġaccommod": 14219,
    "erative": 21271,
    "Ġsaith": 14155,
    "6": 26,
    "superstitious": 17280,
    "Ġfoster": 18990,
    "cil": 8720,
    "inhabited": 13619,
    "ze": 1315,
    "Ġburn": 3685,
    "years": 6883,
    "Ġassuring": 13061,
    "Ġbounce": 21391,
    "encounter": 20390,
    "Ġticking": 25033,
    "Ġolder": 9326,
    "Ġcaptivating": 26049,
    "waters": 11333,
    "Ġdoctor": 5067,
    "Ġunchanged": 22026,
    "¿": 128,
    "Ġcommands": 16589,
    "Ġmerry": 5868,
    "osal": 11757,
    ",âĢĿâĢĶ": 14220,
    "Ġbrilliantly": 25120,
    "Ġimpersonal": 17395,
    "Ġsagacity": 16974,
    "Ġrifle": 18214,
    "Ġcrammed": 16470,
    "Ġcoloss": 11046,
    "opard": 9290,
    "Ġperfection": 19217,
    "Ġfeeding": 7971,
    "done": 6500,
    "!âĢĶ": 2456,
    "=": 33,
    "ians": 2360,
    "appl": 9325,
    "Ġbrooks": 25700,
    "Ġforgery": 25977,
    "agre": 18164,
    "frost": 15105,
    "Ġpleasurable": 23338,
    "Ġsigmoid": 2464,
    "Ġwonders": 7500,
    "Ġconvenient": 8345,
    "Ġsheeted": 19830,
    "Ġhollows": 19740,
    "Ġinflicted": 11365,
    "aching": 5831,
    "articulate": 17397,
    "solic": 16378,
    "abulary": 4800,
    "iriously": 18171,
    "Ġtermination": 16460,
    "mured": 6960,
    "Ġtortured": 14923,
    "rail": 10204,
    "Ġ103": 24411,
    "activation": 3230,
    "Ġut": 2282,
    "Ġcass": 13878,
    "Ġmer": 2930,
    "alions": 21498,
    "ĠĠĠĠĠĠĠĠĠĠĠĠĠĠĠĠĠĠĠĠĠĠĠĠ": 5321,
    "ven": 782,
    "Ġsultanism": 25888,
    "Ġunfrequent": 24109,
    "shroud": 20309,
    "dman": 10088,
    "Ġcarving": 14442,
    "Ġchoicest": 24220,
    "Ġpassing": 4316,
    "Ġinst": 913,
    "ohog": 9842,
    "Ġupset": 22150,
    "lands": 8240,
    "Ġretired": 6070,
    "flung": 16638,
    "Ġfrank": 4421,
    "five": 6356,
    "Ġmasoned": 20250,
    "ban": 9584,
    "vable": 10132,
    "date": 17517,
    "Ġcarries": 7673,
    "Ğ": 223,
    "Ġvitality": 15171,
    "®": 111,
    "haven": 20911,
    "Ġwatching": 4854,
    "commotion": 24913,
    "Ġresulting": 24198,
    "oub": 1633,
    "ĠĠĠĠĠĠĠĠĠĠĠĠĠĠĠĠĠĠĠĠĠĠĠĠĠĠ": 13387,
    "Ġgun": 4702,
    "known": 3571,
    "Ġbeheading": 21751,
    "Ġhollow": 5648,
    "ional": 1083,
    "Ġaccommodate": 20516,
    "Ġroof": 6564,
    "Ġimplicit": 19956,
    "Ġcleat": 18946,
    "Ġtreas": 7358,
    "ustry": 18356,
    "Ġalabama": 14018,
    "post": 6061,
    "mb": 914,
    "ac": 743,
    "ograph": 4797,
    "Ġchasing": 11752,
    "Ġannihilation": 15164,
    "Ġshocked": 9400,
    "avers": 17480,
    "judges": 19572,
    "Ġunpitying": 25660,
    "Ġsafie": 6617,
    "unpardonable": 21887,
    "Ġmending": 17804,
    "Ġaware": 5756,
    "Ġsunbeam": 23273,
    "served": 5043,
    "handsome": 13175,
    "Ġsincerely": 7962,
    "ners": 3272,
    "arr": 3044,
    "Ġstrategies": 1840,
    "Ġtrust": 4080,
    "Ġseventeen": 26210,
    "Ġberry": 19745,
    "imately": 12685,
    "Ġgrimesby": 11457,
    "Ġarrow": 10931,
    "discoloured": 23498,
    "Ġleaned": 7607,
    "Ġdislike": 6047,
    "Ġpil": 5014,
    "particularly": 8339,
    "Ġsigh": 10336,
    "jee": 17579,
    "geon": 6270,
    ";âĢĿâĢĶ": 20759,
    "Ġmonomaniac": 9568,
    "Ġrequisite": 18630,
    "Ġwhatever": 3476,
    "Ġcharitable": 23267,
    "Ġqualified": 14949,
    "Ġembellish": 25848,
    "churning": 21694,
    "Ġcosine": 2373,
    "Ġworshippers": 25693,
    "Ġinsert": 19904,
    "Ġlovers": 9719,
    "doesn": 19819,
    "Ġannoy": 17198,
    "adoes": 11659,
    "important": 7112,
    "stairs": 5155,
    "horizon": 23614,
    "Ġcontextual": 3743,
    "Ġrespite": 13153,
    "needles": 20313,
    "otion": 4946,
    "Ġeng": 1163,
    "tail": 8761,
    "Ġsunset": 8962,
    "Ġrefrained": 14343,
    "Ġsinful": 18948,
    "Ġmod": 494,
    "angel": 5726,
    "Ġunconsc": 6552,
    "carp": 9109,
    "Ġclutching": 24951,
    "Ġseeing": 2884,
    "Ġostentatious": 25736,
    "Ġcontortions": 18476,
    "Ġsearching": 13161,
    "Ġbosom": 6939,
    "terms": 15748,
    "suspected": 12370,
    "Ġtransp": 4770,
    "Ġinterconnected": 1338,
    "Ġweep": 7619,
    "Ġsongs": 13419,
    "Ġbold": 5291,
    "Ġhouse": 1502,
    "Ġinviting": 19143,
    "Ġ1000": 3117,
    "Ġcaucus": 17379,
    "Ġawake": 8271,
    "Ġdraughts": 20220,
    "unfortunate": 15774,
    "Ġthirdly": 24143,
    "divers": 15341,
    "Ġprettier": 23763,
    "Ġcompan": 2174,
    "Ġcarpenters": 16752,
    "Ġfertile": 20581,
    "Ġgovern": 10450,
    "arian": 10316,
    "Ġmanual": 14197,
    "ales": 3317,
    "Ġstri": 2804,
    "Ġderision": 16307,
    "Ġniece": 5712,
    "li": 1186,
    "Ġamount": 8511,
    "Ġreliable": 18777,
    "Ġbraced": 16579,
    "Ġprincipal": 6496,
    "Ġinterpreted": 1712,
    "beloved": 19459,
    "Ġyawning": 12298,
    "shark": 14237,
    "trouble": 8295,
    "ied": 940,
    "Ġsomewhere": 5384,
    "Ġregards": 16075,
    "wrapped": 15208,
    "Ġbrightly": 13222,
    "Ġcolony": 18765,
    "Ġcask": 5527,
    "firmly": 20279,
    "Ġcomplicated": 14734,
    "Ġaffirmative": 15221,
    "Ġkicks": 19767,
    "Ġgenealogies": 25961,
    "cturn": 17986,
    "ference": 1883,
    "employed": 17261,
    "Ġalle": 11665,
    "coloured": 7291,
    "zy": 2670,
    "define": 1524,
    "mouthful": 25208,
    "âĢĶ.": 11753,
    "Ġgable": 15664,
    "repe": 8775,
    "rasing": 21044,
    "Ġflies": 13022,
    "fluke": 25204,
    "Ġgales": 12662,
    "Ġmemorand": 23403,
    "Ġlieuten": 13325,
    "ushed": 2972,
    "Ġminimax": 5857,
    "Ġlichen": 20090,
    "art": 588,
    "Ġhope": 1788,
    "26": 10072,
    "tal": 17670,
    "chambers": 25454,
    "Ġlocal": 1200,
    "Ġpetty": 19594,
    "hercules": 22201,
    "glim": 19363,
    "Ġblinded": 13269,
    "riend": 1184,
    "Ġaberdeen": 26541,
    "Ġtails": 9901,
    "<": 32,
    "sharpening": 22451,
    "bull": 13689,
    "Ġdrop": 4346,
    "Ġdue": 3844,
    "Ġjav": 7901,
    "hanging": 10100,
    "Ġoctober": 17226,
    "ily": 1031,
    "ont": 2623,
    "utral": 12660,
    "Ġpersu": 3566,
    "tenham": 16319,
    "Ġendeavours": 8617,
    "erting": 17777,
    "Ġqu": 605,
    "accursed": 20539,
    "Ġnodding": 23333,
    "Ġimbib": 22172,
    "Ġcopestone": 24936,
    "ĠĠĠĠĠĠĠ": 7631,
    "Ġlone": 11612,
    "Ġmutual": 8296,
    "etence": 21574,
    "Ġi": 312,
    "acquaintance": 6938,
    "Ġ86": 24461,
    "rug": 18341,
    "Ġequival": 4783,
    "Ġperfume": 25665,
    "Ġorb": 22088,
    "glory": 23850,
    "cuniary": 26379,
    "Ġtheology": 21275,
    "germ": 15355,
    "Ġinnocently": 24025,
    "hogs": 20080,
    "Ġgreyish": 24208,
    "Ġabated": 18390,
    "Ġceti": 24773,
    "Ġwheelbarrow": 17204,
    "mped": 16647,
    "joined": 13274,
    "Ġswings": 11087,
    "//": 11463,
    "Ġgunwale": 7325,
    "nered": 18494,
    "Ġilluminate": 17192,
    "Ġclosest": 16763,
    "Ġcannibal": 7773,
    "Ġyield": 5093,
    "Ġchase": 3945,
    "Ġwaterproof": 19088,
    "Ġimmeasurable": 26229,
    "Ġinitialized": 3948,
    "Ġsher": 3765,
    "Ġflo": 2589,
    "177": 20751,
    "helpless": 16790,
    "Ġpsal": 15613,
    "Ġdiscovered": 4414,
    "Ġmaz": 15539,
    "apped": 5395,
    "Ġarm": 2495,
    "wheel": 22868,
    "Ġerror": 1766,
    "Ġcongrat": 5827,
    "odious": 21807,
    "Ġsurve": 9873,
    "oll": 5456,
    "Ġcoronet": 6344,
    "Ġrealise": 16336,
    "cary": 10689,
    "Ġenvirons": 13186,
    "gold": 9120,
    "Ġinstituted": 18697,
    "Ġdistrict": 10318,
    "minutely": 19592,
    "Ġban": 7156,
    "blunder": 24130,
    "Ġrascally": 26506,
    "smoking": 23908,
    "Ġopera": 23426,
    "Ġregular": 948,
    "Ġradiant": 16809,
    "rict": 8092,
    "guessed": 25872,
    "gers": 8375,
    "Ġmix": 7576,
    "Ġfairest": 20461,
    "Ġnasty": 17442,
    "Ġassizes": 11108,
    "Ġpresc": 15923,
    "Ġoaken": 13864,
    "Ġgam": 11623,
    "Ġloop": 14146,
    "killed": 15375,
    "lessly": 4557,
    "Ġpiteous": 17917,
    "Ġblacksmith": 6595,
    "Ġrich": 2993,
    "Ġassurance": 7774,
    "cstasy": 11445,
    "Ġwithheld": 18114,
    "Ġsensitive": 13198,
    "Ġinsurmountable": 16531,
    "Ġboundary": 11222,
    "Ġproceedings": 9906,
    "Ġwhen": 514,
    "Ġrome": 12153,
    "Ġimperfectly": 25727,
    "Ġextras": 22735,
    "Ġbillow": 14777,
    "Ġfabulous": 25948,
    "Ġfurnished": 6475,
    "eping": 5833,
    "Ġdecreas": 1647,
    "ort": 520,
    "Ġke": 1155,
    "Ġdilatory": 24705,
    "Ġaccumulation": 2695,
    "Ġcuriosities": 26288,
    "planks": 21951,
    "Ġfra": 1844,
    "network": 1909,
    "Ġacquaintance": 4134,
    "cat": 15323,
    "clean": 14759,
    "Ġglassy": 19559,
    "impressed": 12688,
    "Ġforeshadowing": 26592,
    "rocious": 21536,
    "Ġfitzwilliam": 5771,
    "approb": 11042,
    "À": 129,
    "Ġbecause": 2212,
    "scr": 16240,
    "Ġaint": 17744,
    "Ġrule": 1531,
    "nue": 15396,
    "ens": 701,
    "Ġplaything": 19236,
    "Ġlav": 13949,
    "Ġwithstand": 10225,
    "Ġpalsied": 25779,
    "Ġbunch": 11326,
    "Ġid": 1910,
    "Ġbarrow": 12067,
    "strike": 14948,
    "Ġeul": 21615,
    "Ġmilitia": 13316,
    "oons": 12496,
    "stranded": 19224,
    "Ġsolemn": 4100,
    "Ġfirm": 3871,
    "Ġamusing": 11798,
    "island": 10794,
    "Ġplot": 14279,
    "gradually": 12912,
    "malice": 17604,
    "Ġdirectly": 2104,
    "Ġcorrob": 16264,
    "iar": 2379,
    "Ġdepart": 4657,
    "Ġresented": 22540,
    "may": 3681,
    "Ġperu": 14221,
    "Ġxlvi": 25590,
    "Ġdiscerning": 25002,
    "Ġaloud": 6252,
    "Ġcrow": 3805,
    "Ġcollectively": 19966,
    "Ġante": 17896,
    "Ġmaintain": 856,
    "Ġfavoring": 2346,
    "simp": 17665,
    "Ġpupils": 20419,
    "ose": 717,
    "cottage": 9569,
    "Ġrepelled": 19085,
    "Ġkitty": 3909,
    "everlasting": 18771,
    "Ġdrove": 4984,
    "woe": 21134,
    "Ġmourn": 8703,
    "Ġundivided": 24120,
    "black": 6768,
    "Ġcrumpled": 16441,
    "Ġobviously": 16810,
    "Ġyonder": 7392,
    "Ġafresh": 18627,
    "Ġdelightfully": 13157,
    "Ġbounds": 9917,
    "Ġhearties": 18967,
    "Ġheads": 3741,
    "orse": 5806,
    "Ġsplendour": 20223,
    "lig": 3171,
    "Ġmelting": 24288,
    "lances": 15382,
    "Ġbillows": 7502,
    "Ġgenius": 8045,
    "Ġconnex": 10665,
    "Ġdiscuss": 9473,
    "viii": 12019,
    "_.,": 14562,
    "Ġodor": 12147,
    "Ġdisregard": 22525,
    "Ġbill": 4042,
    "inder": 9152,
    "Ġroasted": 18459,
    "Ġsleeping": 6319,
    "Ġkills": 15904,
    "Ġstowed": 21733,
    "anche": 10788,
    "alas": 8803,
    "Ġpatent": 11958,
    "Ġvow": 10246,
    "Ġevidently": 6759,
    "Ġflew": 5588,
    "Ġanalog": 12609,
    "Ġburgled": 23655,
    "1": 21,
    "desperate": 17351,
    "Ġ----": 7145,
    "ipotent": 10958,
    "Ġunder": 1635,
    "Ġboun": 21378,
    "happ": 3104,
    "Ġcondense": 21805,
    "Ġrecognition": 3100,
    "Ġneville": 7399,
    "Ġactuated": 18545,
    "Ġpeculiarity": 12930,
    "Ġdamning": 19139,
    "band": 3058,
    "asper": 7854,
    "Ġcool": 5734,
    "sciss": 18857,
    "Ġexpress": 2194,
    "engine": 18926,
    "pol": 5892,
    "Ġwasting": 12725,
    "Ġvinc": 14084,
    "Ġmaddening": 17243,
    "Ġmasking": 2419,
    "elevating": 20404,
    "cell": 10685,
    "Ġsuns": 23271,
    "Ġpallor": 13515,
    "Ġpoured": 8800,
    "Ġnonce": 23233,
    "Ġflushed": 13024,
    "Ġreveren": 13196,
    "children": 9055,
    "rely": 6123,
    "pole": 9332,
    "Ġdeepest": 8212,
    "resemblance": 25933,
    "og": 864,
    "poles": 16208,
    "Ġinvol": 1044,
    "Ġfiftieth": 24703,
    "ich": 469,
    "Ġgrows": 4985,
    "lege": 17841,
    "Ġhandfuls": 17209,
    "âĢĶ(": 15936,
    "Ġinquir": 4243,
    "chat": 21683,
    "Ġdrawback": 23987,
    "Ġreminiscences": 26269,
    "masters": 16834,
    "Ġsnar": 13199,
    "sutherland": 21061,
    "Ġmarch": 4083,
    "Ġinventing": 24861,
    "Ġunravel": 26214,
    "Ġaccordingly": 6619,
    "Ġabased": 22265,
    "society": 9971,
    "Ġtask": 1310,
    "Ġobscurely": 20187,
    "jets": 20927,
    "Ġrealised": 18980,
    "Ġlabels": 3288,
    "Ġrepositories": 23362,
    "ographical": 16786,
    "Ġfighting": 12195,
    "displeasure": 23495,
    "Ġjurors": 17343,
    "Ġnotwithstanding": 9713,
    "Ġtufted": 17014,
    "redible": 15802,
    "heeded": 13833,
    "Ġpositively": 13028,
    "ustomed": 6098,
    "intercourse": 14638,
    "Ġsolemnly": 8023,
    "hope": 5989,
    "Ġbetokened": 18796,
    "Ġstands": 5258,
    "twas": 15436,
    "Ġpassers": 18756,
    "Ġgrotesque": 26329,
    "Ġlakes": 8130,
    "Ġjuncture": 17129,
    "thence": 23398,
    "Ġpredicted": 2044,
    "Ġclump": 15972,
    "Ġmachines": 1776,
    "Ġrapidity": 11102,
    "Ġimped": 18442,
    "Ġhovered": 12628,
    "Ġappar": 7411,
    "Ġpreservative": 24629,
    "esty": 4307,
    "Ġdespair": 4012,
    "Ġworker": 23042,
    "Ġsecretary": 19440,
    "eneva": 5118,
    "Ġdedu": 5585,
    "15": 12428,
    "confess": 12173,
    "Ġseap": 15815,
    "Ġimpaling": 22377,
    "Ġpolitic": 23617,
    "Ġcorroboration": 26053,
    "Ġthreshold": 2810,
    "Ġunlike": 7004,
    "Ġnewly": 9337,
    "Ġchildhood": 13137,
    "Ġ[_": 15460,
    "Ĺ": 250,
    "Ġjudgment": 5765,
    "speeches": 25239,
    "gpt": 5355,
    "Ġcord": 5222,
    "Ġaffectation": 14439,
    "Ġclouded": 13289,
    "Ġmort": 3463,
    "Ġpractically": 13093,
    "lies": 15380,
    "Ġwilliam": 3486,
    "Ġelix": 22642,
    "ignity": 4376,
    "leaving": 10791,
    "Ġdefilements": 26284,
    "Ġworkman": 16270,
    "bounded": 13438,
    "istrate": 7406,
    "Ġwarned": 16880,
    "Ġcling": 11771,
    "Ġconverse": 11842,
    "attacked": 23120,
    "Ġlooked": 1803,
    "Ġhorribly": 16341,
    "Ġfacetious": 20582,
    "icant": 21559,
    "vulgar": 25918,
    "Ġpersonified": 19177,
    "Ġpreferment": 19852,
    "Ġshattered": 7883,
    "most": 1256,
    "sory": 17659,
    "Ġpreserved": 9261,
    "tom": 15434,
    "Ġprecaution": 11197,
    "uncont": 15771,
    "Ġimpressive": 14999,
    "Ġmainten": 16111,
    "Ġbingley": 1676,
    "Ġgang": 9207,
    "canallers": 22961,
    "stone": 5089,
    "Ġheartily": 6890,
    "Ġcloth": 9743,
    "okes": 9276,
    "oft": 3593,
    "Ġtransparency": 10676,
    "Ġgateway": 24802,
    "Ġtube": 15003,
    "ptember": 10893,
    "Ġcountrymen": 23594,
    "Ġprocedures": 9411,
    "flesh": 13489,
    "Ġdominion": 16511,
    "!âĢĿ": 846,
    "Ġreply": 4516,
    "agings": 18165,
    "Ġcompensated": 17400,
    "Ġframework": 2078,
    "ification": 1029,
    "necess": 4896,
    "Ġdeliriously": 23229,
    "idge": 14013,
    "Ġluck": 4880,
    "Ġdrew": 3539,
    "pumps": 21026,
    "Ġatrocious": 21940,
    "officer": 17054,
    "minded": 9037,
    "ipping": 2208,
    "Ġstripping": 23695,
    "beside": 19876,
    "Ġgrowing": 6750,
    "Ġopen": 1547,
    "find": 6954,
    "ĠĠĠĠĠĠĠĠĠĠĠĠĠĠĠĠĠĠĠĠĠĠĠĠĠĠĠĠĠĠĠ": 19699,
    "Ġlodging": 24092,
    "slee": 17168,
    "field": 3070,
    "Ġpeterson": 9482,
    "Ġheightens": 24154,
    "Ġzigzag": 26272,
    "13": 20749,
    "Ġgentlemanly": 19315,
    "Ġenthr": 22746,
    "erm": 786,
    "Ġtaught": 6803,
    "Ġremarkably": 7702,
    "Ġscand": 7203,
    "Ġspe": 821,
    "Ġxli": 14542,
    "Ġplanisphere": 26607,
    "fellow": 6792,
    "Ġdiscipline": 26561,
    "Ġgl": 1254,
    "Ġspecimens": 18858,
    "icket": 22665,
    "ernation": 8211,
    "ops": 5247,
    "Ġbark": 10798,
    "envelope": 17782,
    "Ġengagements": 9977,
    "atious": 10151,
    "Ġxxxix": 24968,
    "pents": 11512,
    "Ġpossess": 3202,
    "distraction": 24200,
    "living": 7133,
    "zening": 21147,
    "Ġmonitors": 3156,
    "Ġafloat": 9307,
    "Ġpens": 21458,
    "Ġhunt": 6183,
    "Ġassoc": 6402,
    "Ġgreen": 3051,
    "Ġhumour": 7931,
    "Ġrewarded": 14939,
    "igating": 21697,
    "Ġstaid": 21732,
    "lodged": 25907,
    "Ġinstrument": 7118,
    "Ġgood": 999,
    "Ġbrightness": 16575,
    "exped": 16525,
    "Ġple": 1469,
    "Ġrag": 18641,
    "Ġnotice": 4544,
    "ade": 881,
    "Ġcalled": 1972,
    "Ġunseen": 3526,
    "Ġtepid": 26412,
    "joke": 20929,
    "anks": 3916,
    "olet": 13765,
    "shout": 22439,
    "labour": 23912,
    "Ġwh": 328,
    "Ġforce": 5092,
    "trucks": 25419,
    "Ġfurlong": 18739,
    "wont": 21131,
    "Ġunholy": 26218,
    "Ġdubious": 17382,
    "Ġfur": 989,
    "iage": 17573,
    "âĢĻ-": 18166,
    "emper": 18185,
    "Ġ275": 20109,
    "Ġstoven": 23173,
    "hoisting": 23715,
    "Ġgulf": 10635,
    "Ġbarrel": 23790,
    "Ġundoubtedly": 8312,
    "aternity": 21264,
    "axen": 22518,
    "Ġrinal": 21974,
    "Ġbeen": 626,
    "Ġsolicitude": 10039,
    "iting": 2159,
    "Ġcaptains": 7457,
    "mill": 13753,
    "Ġthinnest": 24183,
    "didn": 9006,
    "Ġsit": 4217,
    "Ġsnatched": 10471,
    "gies": 13725,
    "ibbald": 18841,
    "absence": 12705,
    "Ġvineyards": 25106,
    "ouch": 2781,
    "Ġfew": 1192,
    "Ġ74": 24261,
    "Ġcomplexity": 1695,
    "Ġ26": 10470,
    "servants": 15037,
    "fly": 13713,
    "Ġbottled": 23794,
    "pres": 16026,
    "Ġwithdrawn": 10606,
    "Ġcasks": 7521,
    "move": 11852,
    "aned": 5147,
    "ipped": 5790,
    "fav": 6646,
    "Ġheadstrong": 14387,
    "Ġdeal": 3610,
    "Ġhid": 1319,
    "agra": 14065,
    "Ġforbid": 7864,
    "Ġunshored": 25813,
    "oughed": 22078,
    "Ġresp": 2497,
    "Ġmingled": 12375,
    "hecy": 21205,
    "Ġtr": 548,
    "circumst": 5348,
    "Ġrains": 24340,
    "Ġimprovement": 7963,
    "Ġagonizing": 17238,
    "Ġanchor": 7368,
    "Ġethics": 15461,
    "beaut": 8512,
    "Ġcrisp": 12001,
    "Ġboys": 5194,
    "Ġsunrise": 9372,
    "Ġdesperate": 7776,
    "Ġbundles": 26175,
    "Ġadmit": 7710,
    "frozen": 25139,
    "madam": 24421,
    "pyramid": 21029,
    "tumult": 12421,
    "Ġmeasured": 9803,
    "ssip": 14078,
    "Ġgordon": 26467,
    "Ġflannel": 26577,
    "Ġbrute": 8926,
    "Ġillust": 8262,
    "ection": 4948,
    "expectation": 14855,
    "waving": 21130,
    "ropout": 1320,
    "Ġdeclined": 9920,
    "Ġmiraculous": 13546,
    "haps": 1672,
    "ardy": 22153,
    "arch": 1120,
    "Ġpedro": 14994,
    "Ġsch": 13834,
    "Ġwaifing": 25243,
    "Ġphrases": 2798,
    "Ġconver": 805,
    "setting": 13284,
    "/*": 10070,
    "Ġcoverage": 4288,
    "Ġbids": 24645,
    "evil": 11485,
    "Ġchin": 4891,
    "Ġshivering": 10265,
    "Ġwhichever": 13999,
    "tra": 4934,
    "Ġlurid": 19680,
    "iantly": 13738,
    "iag": 20915,
    "Ġaccomp": 4713,
    "remonstr": 23188,
    "Ġpistol": 7846,
    "elastic": 17980,
    "rinted": 21042,
    "Ġinevitable": 15166,
    "Ġunh": 9252,
    "Ġchoosing": 19589,
    "Ġfight": 5366,
    "clair": 18932,
    "shri": 14234,
    "ě": 220,
    "Ġendowed": 18924,
    "Ġtit": 8398,
    "ĠĠĠĠĠĠĠĠĠĠĠĠĠĠĠĠĠĠĠĠĠĠĠĠĠĠĠĠĠĠĠĠĠĠĠĠĠĠĠĠĠĠĠĠĠĠ": 9952,
    "Ġwhipping": 21713,
    "\"]": 17470,
    "inces": 13827,
    "berwell": 22718,
    "saf": 11524,
    "oline": 6834,
    "Ġunerringly": 18265,
    "lightning": 16551,
    "impart": 21706,
    "Ġcash": 9652,
    "Ġspouted": 14674,
    "Ġwelcome": 5604,
    "partiality": 13159,
    "Ġimpressed": 8198,
    "lop": 20947,
    "Ġjets": 10287,
    "rael": 21626,
    "romeda": 17262,
    "Ġimages": 1599,
    "cused": 15331,
    "Ġapples": 22214,
    "arial": 5532,
    "isbury": 21375,
    "ils": 3180,
    "Ġspies": 22126,
    "Ġcheapside": 23286,
    "Ġenjoyed": 8007,
    "beam": 16035,
    "mbling": 3346,
    "Ġaghast": 16045,
    "Ġlie": 4408,
    "ures": 836,
    "scotch": 25850,
    "greatly": 16623,
    "Ġinsince": 23678,
    "Ġreap": 18026,
    "Ġrasc": 21971,
    "Ġincumbent": 16060,
    "Ġinsc": 7585,
    "acknowledging": 25476,
    "Ġshape": 5639,
    "shortly": 12256,
    "flaming": 23967,
    "Ġdangerous": 6613,
    "dried": 20826,
    "Ġtelegram": 15222,
    "Ġinspecting": 24613,
    "lance": 12479,
    "Ġpretensions": 16557,
    "sharks": 14238,
    "Ġterrified": 14671,
    "Ġscale": 1545,
    "ell": 398,
    "Ġknots": 15008,
    "rect": 1597,
    "Ġegress": 21618,
    "ositions": 10283,
    "Ġbestowing": 16971,
    "countenance": 6925,
    "vation": 4744,
    "Ġtennessee": 26596,
    "accents": 19210,
    "circumstance": 7763,
    "Ġrede": 13983,
    "Ġnine": 5369,
    "Ġconception": 10313,
    "Ġshorter": 4500,
    "oney": 3048,
    "Ġbushes": 16399,
    "Ġhoarsely": 26302,
    "week": 12928,
    "Ġconstit": 8583,
    "Ġoxen": 19949,
    "Ġgurg": 15670,
    "Ġlens": 8437,
    "Ġmotionless": 8323,
    "Ġtenderest": 23549,
    "acting": 22627,
    "Ġridiculous": 10628,
    "enemy": 15525,
    "Ġerr": 1321,
    "libr": 22920,
    "ody": 1477,
    "came": 4571,
    "nature": 5359,
    "Ġlack": 17963,
    "inferior": 12392,
    "Ġsl": 1496,
    "Ġgrasping": 12163,
    "preced": 10309,
    "Ġmultiple": 1185,
    "neighbourhood": 10024,
    "Ġfeet": 2261,
    "Ġbracing": 16580,
    "Ġheal": 21678,
    "pity": 17627,
    "hew": 5364,
    "Ġohio": 19128,
    "frock": 20119,
    "Ġfainting": 16897,
    "rut": 8091,
    "progra": 9394,
    "Ġcanada": 22164,
    "Ġtortoise": 16908,
    "capable": 13700,
    "sleepers": 24730,
    "pit": 3986,
    "Ġnich": 21517,
    "peculiarity": 23107,
    "Ġinduced": 8670,
    "Ġwreath": 25936,
    "eted": 7591,
    "carbuncle": 26382,
    "·": 120,
    "Ġlearnable": 3998,
    "Ġfocus": 4237,
    "Ġcaves": 15551,
    "Ġtossed": 5815,
    "lady": 4435,
    "told": 7811,
    "bethink": 25744,
    "Ġmuhammad": 26169,
    "ampled": 18884,
    "Ġround": 1368,
    "Ġbridge": 8348,
    "Ġpants": 21463,
    "Ġrelationship": 2318,
    "Ġfruit": 12324,
    "Ġfervent": 14895,
    "Ġevolve": 3001,
    "Ġpursu": 3238,
    "bil": 20770,
    "Ġexplained": 5935,
    "rennial": 22340,
    "anning": 10164,
    "dismay": 19152,
    "elsewhere": 19867,
    "Ġdiverged": 23593,
    "Ġbeliever": 25845,
    "Ġvertical": 16604,
    "expense": 22426,
    "bered": 4506,
    "Ġprisoner": 8672,
    "Ġenc": 967,
    "iced": 3900,
    "won": 7144,
    "Ġelopement": 10329,
    "Ġmotive": 6091,
    "Ġpri": 5813,
    "comm": 7440,
    "Ġaffrighted": 13571,
    "Ġtobacc": 7852,
    "rously": 17654,
    "iform": 2202,
    "Ġtransports": 24277,
    "Ġspaniards": 25555,
    "immedi": 8450,
    "Ġbewildered": 15212,
    "Ġevalu": 3240,
    "Ġpublic": 4334,
    "popular": 26140,
    "Ġ22": 8278,
    "Ġcalamities": 25699,
    "Ġwoodlands": 23520,
    "Ġsequences": 1752,
    "Ġeludes": 26554,
    "Ġweaver": 11686,
    "uttural": 21586,
    "Ġpace": 9183,
    "Ġservox": 23868,
    "hroom": 12474,
    "returning": 12203,
    "Ġprofund": 13152,
    "Ġcarcase": 14443,
    "appro": 7044,
    "Ġcontrary": 5260,
    "Ġcarbuncle": 14444,
    "Ġcommonest": 23087,
    "Ġincurable": 22549,
    "ded": 2421,
    "Ġswart": 14433,
    "ĠlinnÃ¦us": 15274,
    "Ġdesper": 6176,
    "adding": 21756,
    "Ġopal": 23624,
    "Ġforebodings": 17303,
    "Ġmortifying": 13244,
    "Ġpertur": 12847,
    "bright": 8989,
    "Ġopenshaw": 7954,
    "Ġinducements": 24965,
    "murmured": 24455,
    "Ġpostponed": 20388,
    "Ġattended": 5391,
    "ableness": 8148,
    "Ġfolks": 14425,
    "house": 4078,
    "Ġprotection": 9461,
    "Ġurging": 24505,
    "Ġjack": 4653,
    "acle": 4716,
    "Ġhandspike": 22693,
    "Ġabsent": 7014,
    "Ġbleak": 10558,
    "Ġget": 1621,
    "Ġbuffalo": 11429,
    "Ġwhoever": 10973,
    "Ġinfatuated": 20533,
    "Ġperv": 15988,
    "Ġsciences": 15943,
    "pitch": 13297,
    "lessness": 5317,
    "acies": 14276,
    "threshold": 21984,
    "Ġdownward": 10331,
    "Ġbrand": 16185,
    "Ġback": 824,
    "saving": 21058,
    "Ġstove": 6733,
    "Ġtablet": 19203,
    "cou": 13694,
    "Ġrenounce": 19466,
    "Ġdescrying": 18615,
    "orses": 6051,
    "terrors": 25041,
    "Ġ*": 1271,
    "Ġdragon": 14943,
    "Ġinvolved": 8922,
    "acc": 2536,
    "Ġdeafened": 25651,
    "Ġsatisfied": 4173,
    "windward": 24160,
    "crimson": 24099,
    "loving": 18540,
    "reproach": 15185,
    "Ġtell": 1468,
    "Ġexec": 19491,
    "Ġinevitably": 17230,
    "Ġ1820": 25718,
    "Ġmagic": 8232,
    "Ġtold": 2185,
    "dl": 20822,
    "carrying": 16712,
    "Ġtinged": 20081,
    "Ġha": 400,
    "Ġmansfield": 25938,
    "Ġhue": 8428,
    "Ġrucastles": 18721,
    "expressing": 16801,
    "Ġpleadings": 25852,
    "Ġbravely": 23836,
    "Ġburton": 23654,
    "Ġprojects": 9510,
    "dra": 3415,
    "Ġtur": 2566,
    "ov": 15399,
    "nails": 17614,
    "Ġsteadfast": 8678,
    "Ġtigers": 25758,
    "establish": 17392,
    "Ġcruc": 16534,
    "Ġhammered": 13238,
    "Ġinvoluntarily": 8548,
    "Ġtorpor": 25031,
    "variance": 2655,
    "ructive": 18544,
    "ucy": 15443,
    "Ġsells": 21222,
    "values": 4974,
    "ufactured": 15180,
    "Ġpalpit": 16691,
    "confid": 14866,
    "Ġabsence": 4894,
    "ford": 2824,
    "su": 801,
    "oppressed": 24824,
    "bery": 9786,
    "Ġlowered": 6735,
    "iful": 2881,
    "sen": 21048,
    "Ġhooded": 12404,
    "ourably": 14376,
    "Ġtraffic": 23080,
    "complained": 25838,
    "friend": 3863,
    "Ġinh": 10824,
    "erns": 8777,
    "Ġforces": 12699,
    "Ġpursue": 6314,
    "Ġdashes": 21432,
    "Ġtwice": 4662,
    "Ġt": 261,
    "Ġencouraged": 9354,
    "Ġdiction": 8794,
    "pshaw": 21027,
    "actually": 14294,
    "Ġfejee": 18353,
    "Ġsaturation": 2061,
    "ivorous": 22076,
    "Ġstatistics": 1682,
    "Ġ200": 19295,
    "milk": 20475,
    "Ġblasphemer": 26116,
    "vac": 15449,
    "brought": 7285,
    "Ġmouldy": 14973,
    "Ġargemone": 24274,
    "rowing": 7930,
    "Ġcongregation": 12327,
    "Ġsymphony": 26532,
    "Ġseparation": 11248,
    "situ": 9621,
    "schoolmaster": 15160,
    "onings": 21251,
    "Ġclimates": 25051,
    "inative": 15482,
    "Ġwalking": 4326,
    "ez": 5683,
    "Ġlatter": 3993,
    "ogne": 12937,
    "Ġawa": 7713,
    "Ġconcealed": 7495,
    "Ġmuttering": 10499,
    "flour": 23963,
    "vener": 21110,
    "idean": 14262,
    "Ġ66": 24369,
    "slightest": 25416,
    "Ġthereupon": 18434,
    "arity": 1301,
    "Ġimpregn": 26022,
    "Ġheave": 7599,
    "Ġbohemian": 17133,
    "matic": 4619,
    "Ġbattering": 13900,
    "Ġindignation": 8346,
    "Ġnewcom": 16221,
    "antique": 18287,
    "Ġmodern": 3227,
    "Ġmatrimony": 13634,
    "winds": 10521,
    "Ġincreasing": 8246,
    "introduced": 15123,
    "bular": 15312,
    "Ġmallet": 17810,
    "shore": 10305,
    "Ġobtaining": 16130,
    "yes": 983,
    "Ġbud": 10168,
    "Ġallegor": 25545,
    "Ġrevolutions": 23839,
    "itters": 10781,
    "Ġmeth": 1435,
    "Ġexploration": 2338,
    "Ġloo": 22107,
    "oused": 6556,
    "Ġfettered": 24568,
    "Ġbounded": 16626,
    "Ġtingling": 15091,
    "franch": 24284,
    "publ": 17638,
    "shattered": 22446,
    "Ġinsights": 13178,
    "Ġidiotic": 25588,
    "ible": 1117,
    "Ġcoleridge": 18766,
    "Ġobser": 2069,
    "Ġinn": 4591,
    "ichever": 13956,
    "Ġtoe": 13935,
    "swells": 26148,
    "Ġforbearance": 12326,
    "Ġcobbler": 25829,
    "Ġchewing": 23283,
    "ums": 10272,
    "Ġanalyze": 1590,
    "--------": 14779,
    "hot": 8083,
    "Ġvac": 5025,
    "Ġwhalemen": 3912,
    "sockets": 22727,
    "ator": 1924,
    "Ġnameless": 7699,
    "asingly": 17960,
    "Ġ70": 11276,
    "Ġphilips": 5410,
    "Ġfleetness": 20178,
    "Ġbidden": 24646,
    "aper": 4999,
    "Ġunassuming": 20507,
    "poured": 17637,
    "Ġworth": 4418,
    "Ġremembrance": 8317,
    "Ġlambton": 10657,
    "urged": 18047,
    "Ġmagnanimous": 17410,
    "rible": 3226,
    "marrying": 19546,
    "Ġsuccessfully": 19427,
    "gences": 20876,
    "burgh": 6773,
    "Ġcautiously": 16977,
    "repid": 11564,
    "Ġgardens": 16452,
    "eyes": 5684,
    "inlaid": 21189,
    "fa": 7336,
    "france": 24282,
    "whole": 6085,
    "delightful": 12194,
    "yed": 3273,
    "Ġpiling": 17910,
    "Ġlethargy": 26483,
    "Ġciv": 3309,
    "attributed": 23119,
    "spikes": 10340,
    "Ġadro": 15865,
    "outward": 22157,
    "lovel": 22507,
    "Ġedged": 23437,
    "Ġsorely": 17256,
    "_)âĢĶ": 20143,
    "Ġgrampus": 21990,
    "Ġfasc": 12595,
    "Ġsires": 21225,
    "Ġfashioned": 13319,
    "Ġstrateg": 1371,
    "Ġshelter": 17008,
    "Ġrowing": 10300,
    "z": 94,
    "arth": 4445,
    "stige": 21658,
    "keep": 3850,
    "Ġovertook": 18424,
    "yond": 2332,
    "reeling": 21243,
    "Ġowns": 22821,
    "jabez": 20932,
    "Ġbuttoning": 17235,
    "Ġcompiled": 22567,
    "mission": 5969,
    "Ġsinking": 7307,
    "Ġdepresses": 25797,
    "00": 1611,
    "Ġtheory": 5798,
    ";âĢĶ": 3751,
    "Ġenigmatical": 20596,
    "Ġoffspring": 16143,
    "Ġtoday": 12640,
    "philosophy": 13579,
    "Ġdur": 11591,
    "Ġfug": 12592,
    "icy": 6140,
    "Ġexpressions": 7705,
    "Ġeverlasting": 9336,
    "Ġdescription": 7429,
    "Ġintroduction": 8970,
    "Ġmultitud": 18746,
    "cape": 13696,
    "Ġrecip": 16139,
    "Ġtransferred": 16455,
    "harpooned": 24286,
    "feeling": 6616,
    "Ġeighty": 19474,
    "Ġequator": 7461,
    "Ġungrateful": 14120,
    "bouton": 17501,
    "Ġnever": 1019,
    "Ġprimal": 17107,
    "Ġbandages": 24427,
    "Ġdemanding": 16805,
    "Ġundue": 25993,
    "mystical": 25317,
    "ples": 6845,
    "Ġbulwarks": 5592,
    "hark": 15364,
    "Ġpostp": 12141,
    "Ġheroic": 14907,
    "Ġcircumference": 13544,
    "Ġoar": 6236,
    "Ġheighten": 19528,
    "careful": 14865,
    "Ġfootmarks": 19336,
    "position": 15412,
    "Ġclaim": 5106,
    "Ġphilistines": 26082,
    "looked": 6083,
    "Ġlawy": 9454,
    "Ġunappalled": 22060,
    "Ġrecognise": 12041,
    "Ġaccepted": 7750,
    "play": 5099,
    "dragged": 16608,
    "Ġancest": 12611,
    "phew": 6368,
    "Ġcoer": 22576,
    "itigated": 23044,
    "fixedly": 24929,
    "fow": 20852,
    "menced": 23143,
    "Ġpol": 2578,
    "ipp": 10102,
    "impatient": 13639,
    "Ġapprehens": 5682,
    "Ġbar": 3147,
    "Ġsignify": 16494,
    "Ġsurmis": 23464,
    "Ġcaval": 25769,
    "Ġslender": 11938,
    "Ġashen": 21896,
    "white": 4603,
    "Ġmethodology": 2376,
    "Ġdefine": 9814,
    "Ġwight": 12550,
    "Ġmeanwhile": 5736,
    "Ġilliter": 23469,
    "tedious": 22629,
    "Ġindignant": 12237,
    "Ġacquitted": 18898,
    "prodigious": 17466,
    "Ġprefer": 6416,
    "Ġsmoothe": 23657,
    "ooping": 21006,
    "icorn": 15654,
    "anders": 18152,
    "Ġpastures": 23418,
    "reat": 618,
    "Ġapproximation": 2343,
    "blue": 13692,
    "Ġdaboll": 25950,
    "Ġwarring": 16865,
    "ispens": 8335,
    "erde": 21267,
    "Ġ76": 24262,
    "had": 1950,
    "Ġwalk": 1827,
    "Ġmodeling": 2094,
    "unctions": 18155,
    "Ġhabitation": 14802,
    "Ġpill": 7845,
    "Û": 156,
    "Ġcaused": 5048,
    "Ġwhole": 1663,
    "Ġvaliantly": 22797,
    "Ġflattered": 10374,
    "Ġbrid": 6290,
    "Ġsyllables": 25298,
    "mock": 5174,
    "Ġloaded": 8490,
    "Ġsnaky": 23740,
    "Ġdreamed": 16629,
    "Ġseclusion": 18208,
    "Ġcents": 17828,
    "Ġthinks": 6169,
    "Ġnantucketer": 6914,
    "Ġskipper": 22794,
    "somewhat": 11160,
    "quarrel": 20013,
    "Ġhomely": 25219,
    "Ġwharves": 13505,
    "Ġarray": 12808,
    "Ġwaterward": 23365,
    "Ġpint": 17909,
    "den": 937,
    "Ġvoluntarily": 12138,
    "stretched": 10207,
    "Ġinex": 6528,
    "features": 14791,
    "Ġwithin": 2165,
    "Ġphysiognomical": 25611,
    "tooth": 18579,
    "Ġdealer": 23974,
    "Ġthat": 335,
    "town": 7142,
    "ieces": 4772,
    "Ġflowed": 10371,
    "Ġcomra": 7183,
    "Ġfinds": 6299,
    "Ġvisage": 18772,
    "Ġwre": 5077,
    "prim": 23808,
    "Ġtruthful": 23865,
    "stra": 4047,
    "Ġstyle": 6946,
    "Ġrepeating": 11213,
    "Ġglaciers": 20172,
    "erland": 9640,
    "promote": 24727,
    "flutterings": 26606,
    "Ġadvocate": 13675,
    "replied": 11565,
    "Ġspangled": 22133,
    "Ġbreathed": 11220,
    "Ġperishing": 22393,
    "Ġcoincidence": 25483,
    "palms": 25262,
    "Ġtuck": 10140,
    "Ġlees": 18075,
    "mastod": 23971,
    "Ġresurrection": 12891,
    "tically": 3394,
    "watches": 14946,
    "crop": 20797,
    "Ġusurpation": 18361,
    "D": 40,
    "Ġsymptoms": 8704,
    "Ġkeenest": 12159,
    "Ã¦mon": 7094,
    "Ġobed": 8535,
    "_,": 2800,
    "Ġfert": 15579,
    "Ġfam": 1584,
    "Ġdefect": 8554,
    "Ġextreme": 2517,
    "cring": 20810,
    "Ġtry": 3134,
    "exe": 11787,
    "princip": 17136,
    "Ġtidy": 17093,
    "ues": 2079,
    "Ġjamming": 17264,
    "Ġtahitian": 25427,
    "agatha": 21905,
    "Ġacts": 2298,
    "Ġtierce": 15477,
    "Ġgovernment": 15175,
    "Ġfamiliarity": 16729,
    "Ġsuggestions": 24453,
    "Ġarc": 14160,
    "Ġdress": 4022,
    "clouded": 20330,
    "Ġunb": 10907,
    "Ġminus": 18749,
    "inforcement": 3101,
    "Ġtwitched": 20442,
    "Ġwelded": 9571,
    "Ġheroines": 19750,
    "conclude": 24064,
    "securer": 25602,
    "90": 12430,
    "governed": 25405,
    "Ġtracing": 18889,
    "Ġlaughing": 5338,
    "Ġthoughts": 3138,
    "Ġdecision": 2676,
    "Ġhol": 1180,
    "Ġvintage": 26209,
    "muttered": 13758,
    "ishment": 3508,
    "luded": 4229,
    "Ġfrom": 433,
    "melted": 25206,
    "Ġzones": 22816,
    "2": 22,
    "Ġdelivered": 11116,
    "Ġphysical": 7522,
    "Ġvult": 12749,
    "Ġnominal": 15167,
    "mates": 5073,
    "Ġscuff": 15941,
    "Ġacqu": 1417,
    "call": 8722,
    "Ġfaintest": 24569,
    "specul": 23940,
    "Ġaug": 6234,
    "Ġvehemence": 26566,
    "Ġshapeless": 24524,
    "verdict": 21726,
    "admit": 18090,
    "Ġpedestrian": 25879,
    "opy": 4460,
    "Ġprofile": 16487,
    "Ġappo": 8498,
    "Ġbarred": 9002,
    "Ġashes": 7616,
    "incom": 21180,
    "ething": 1600,
    "gment": 4392,
    "Ġdramat": 23218,
    "Ġruggedness": 26268,
    "Ġdi": 6525,
    "Ġcontinents": 16849,
    "received": 9638,
    "crack": 19839,
    "Ġmonoton": 3638,
    "Ġrepetition": 8972,
    "Ġdrawer": 13265,
    "Ġoath": 7833,
    "Ġrestlessness": 23290,
    "Ġproport": 2301,
    "Ġcorp": 5574,
    "Ġhit": 7163,
    "pleasures": 24043,
    "Ġankles": 17899,
    "representing": 25271,
    "Ġrobust": 1355,
    "barbaric": 26358,
    "Ġparacelsus": 15265,
    "Ġyears": 1893,
    "gallantry": 15058,
    "Ġtrampling": 25492,
    "======": 9832,
    "consequ": 18504,
    "orters": 21399,
    "imitably": 21708,
    "Ġshivered": 14107,
    "obey": 11509,
    "spee": 9316,
    "cut": 3124,
    "Ġmalay": 24391,
    "rossing": 18640,
    "breadth": 20275,
    "Ġsinister": 8568,
    "over": 1849,
    "blo": 6353,
    "hinting": 17569,
    "Ġnorthern": 7265,
    "Ġemblem": 20496,
    "Ġmathematics": 12071,
    "regard": 7972,
    "Ġcoppers": 22580,
    "wore": 21123,
    "Ġgrey": 4514,
    "hundreds": 25073,
    "Ġsemicircle": 26068,
    "Ġstretched": 5919,
    "latitude": 25259,
    "overed": 2853,
    "Ġlying": 4825,
    "mmet": 10988,
    "Ġbenevolent": 7772,
    "Ġgrotes": 19562,
    "Ġproof": 6153,
    "Ġtackle": 9512,
    "Ġ49": 24081,
    "Ġsuspecting": 14909,
    "elius": 13286,
    "bale": 20773,
    "surface": 10530,
    "Ġunluck": 8484,
    "Ġdub": 13908,
    "Ġrummaged": 16910,
    "at": 268,
    "shabb": 18488,
    "nelson": 25620,
    "Ġeveryday": 22766,
    "ĠâĢľâĢĻ": 22251,
    "Ġwhat": 599,
    "possess": 5983,
    "Ġacquiring": 2769,
    "disgust": 23496,
    "Ġundesired": 12776,
    "Ġfeverish": 11348,
    "Ġhimself": 1350,
    "Ġanatomical": 15075,
    "Ġtalks": 23368,
    "umber": 5241,
    "ficial": 17548,
    "Ġrand": 1581,
    "backs": 9390,
    "Ġshaping": 22000,
    "Ġchannels": 26013,
    "Ġamounted": 18513,
    "ashions": 16416,
    "gal": 15354,
    "Ġpoisoned": 24886,
    "blot": 20782,
    "Ġthousands": 6748,
    "tahit": 17692,
    "Ġwrote": 5011,
    "Ġwindpipe": 23103,
    "Ġtrans": 631,
    "baggage": 24926,
    "Ġentailed": 11027,
    "ignantly": 23263,
    "duodecimo": 16000,
    "det": 5207,
    "perv": 1551,
    "Ġability": 2766,
    "Ġanswer": 2599,
    "Ġsubmitted": 11869,
    "reck": 9636,
    "olent": 8154,
    "conclusions": 25672,
    "false": 15353,
    "Ġarts": 11008,
    "Ġsits": 10768,
    "Ġleading": 7297,
    "asable": 21538,
    "Ġmissing": 6175,
    "Ġsolution": 9804,
    "Ġencouragement": 13040,
    "Ġsul": 7570,
    "Ġconjugal": 25101,
    "Ġmeanly": 12906,
    "dragging": 16609,
    "pede": 19843,
    "Ġtahit": 10754,
    "Ġturtles": 19219,
    "Ġpositions": 2056,
    "Ġvictim": 6097,
    "è": 169,
    "period": 15893,
    "Ġarbitrary": 4736,
    "Ġlust": 9197,
    "contempl": 13190,
    "Ġdome": 15586,
    "oned": 4631,
    "Ġcongeal": 25980,
    "Ġsnuffed": 15071,
    "stayed": 25290,
    "Ġwrapt": 24595,
    "omb": 10205,
    "Ġcalcul": 3639,
    "shake": 22442,
    "Ġdisobedience": 22532,
    "Ġagitation": 6865,
    "lacing": 17590,
    "travel": 24316,
    "increased": 20269,
    "dial": 20824,
    "Ġkinds": 14504,
    "Ġouthouse": 22311,
    "alty": 17938,
    "otted": 14023,
    "Ġswallowed": 7943,
    "whar": 15925,
    "Ġcand": 3277,
    "Ġfastidious": 14492,
    "education": 20300,
    "henomenon": 13613,
    "Ġpassive": 22840,
    "Ġviii": 16412,
    "cheap": 23803,
    "Ġaback": 22263,
    "Ġscarlet": 13221,
    "Ġpurse": 12009,
    "farmer": 25899,
    "sh": 641,
    "Ġdifferently": 10388,
    "era": 13846,
    "Ġhieroglyphics": 17302,
    "oses": 3946,
    "iture": 5696,
    "Ġvice": 6548,
    "Ġdazz": 11593,
    "Ġdetestable": 15097,
    "Ġrubbing": 9320,
    "Ġrooms": 5180,
    "folio": 10546,
    "Ġwaters": 3598,
    "Ġcomo": 21839,
    "hid": 13733,
    "Ġmicroscopic": 26373,
    "Ġprophecy": 25706,
    "distinguished": 10526,
    "Ġunkindness": 22037,
    "Ġinvented": 17037,
    "Ġsixty": 7722,
    "Ġ>": 21150,
    "Ġspeaking": 4029,
    "ply": 6366,
    "Ġ65": 24368,
    "Ġnat": 12642,
    "illity": 18296,
    "Ġill": 2192,
    "Ġlionel": 25286,
    "Ġmappings": 2151,
    "Ġbowels": 9429,
    "Ġthoughtfulness": 18773,
    "Ġglasses": 9474,
    "irth": 5634,
    "fork": 20856,
    "Ġformation": 2943,
    "Ġvestige": 20061,
    "Ġavenues": 25429,
    "rote": 4593,
    "Ġnigh": 4878,
    "Ġglide": 22981,
    "Ġtoo": 1165,
    "Ġpreliminary": 10056,
    "widows": 25344,
    "Ġmidships": 23632,
    "elter": 21568,
    "Ġfile": 13902,
    "Ġbelrive": 18831,
    "jaws": 20931,
    "shame": 16018,
    "Ġtowns": 11173,
    "Ġunlim": 18253,
    "Ġlandsc": 11146,
    "mology": 12489,
    "tery": 14036,
    "Ġremorseless": 13450,
    "nial": 20983,
    "Ġsparks": 22130,
    "Ġundertaking": 8573,
    "Ġphilipses": 24452,
    "onstrate": 17768,
    "Ġshepherd": 14152,
    "Ġstretching": 10014,
    "Ġschools": 9476,
    "Ġmig": 13855,
    "urpr": 2290,
    "Ġenglishman": 11229,
    "Ġdetest": 8500,
    "Ġpeaceable": 14722,
    "true": 2587,
    "hampshire": 23262,
    "Ġlaughter": 9027,
    "Ġfirmament": 19469,
    "reached": 13840,
    "Ġgen": 5296,
    "sue": 2075,
    "vit": 13800,
    "udding": 11863,
    "Ġbeheaded": 11655,
    "Ġenumerating": 15243,
    "Ġsupers": 18279,
    "inc": 2523,
    "itics": 13871,
    "load": 12878,
    "Ġsteps": 2863,
    "disc": 4729,
    "Ġamb": 9291,
    "Ġencountering": 11269,
    "Ġprompted": 23814,
    "ap": 546,
    "gates": 20871,
    "Ġgrimes": 11034,
    "iating": 3205,
    "Ġsentry": 19024,
    "weaving": 18666,
    "Ġawkwardness": 13486,
    "Ġ120": 16858,
    "saddest": 25527,
    "Ġsomething": 1795,
    "ulating": 10887,
    "Ġwarmer": 19184,
    "Ġassemblage": 26351,
    "Ġangels": 11178,
    "Ġwrenched": 12555,
    "everywhere": 23697,
    "Ġsimon": 5172,
    "Ġeyel": 17096,
    "Ġcorpusants": 13676,
    "lived": 12484,
    "our": 534,
    "oriental": 23719,
    "Ġshow": 3404,
    "rod": 10831,
    "Ġwork": 1330,
    "Ġcave": 10785,
    "dest": 4103,
    "Ġnight": 1465,
    "ceed": 1074,
    "elijah": 19471,
    "Ġemployer": 19430,
    "Ġwhirled": 14959,
    "otle": 21794,
    "Ġobservable": 25126,
    "ubbub": 23242,
    "Ġtong": 4870,
    "Ġcurses": 13010,
    "revol": 12537,
    "Ġaffliction": 25844,
    "Ġaggregated": 25678,
    "Ġtyro": 16994,
    "Ġchast": 18380,
    "Ġhandsomer": 20332,
    "Ġtoy": 15631,
    "harm": 13734,
    "ashion": 3858,
    "Ġexpost": 18624,
    "swaying": 25910,
    "itz": 6005,
    "ogn": 2534,
    "pennies": 26285,
    "barb": 10080,
    "Ġterminated": 23509,
    "efficient": 2870,
    "reigned": 21241,
    "robust": 19727,
    "Ġlat": 5087,
    "astic": 1870,
    "Ġestimation": 11218,
    "Ġabsolut": 3910,
    "Ġwan": 15526,
    "Ġsubl": 7235,
    "Ġmiracle": 15092,
    "Ġanybody": 5313,
    "pockets": 16209,
    "browed": 25894,
    "Ġgave": 2220,
    "Ġdinn": 23978,
    "ivity": 1653,
    "Ġincensed": 18571,
    "Ġcomputing": 2222,
    "Ġafar": 14291,
    "Ġcorrespond": 6209,
    "result": 12042,
    "Ġundaunted": 24119,
    "inions": 8401,
    "Ġminutes": 3000,
    "Ġprank": 23219,
    "eric": 3473,
    "discern": 14850,
    "urp": 1472,
    "oms": 4594,
    "shudder": 26245,
    "Ġparties": 7038,
    "critical": 19502,
    "Ġhauling": 14086,
    "Ġrattler": 24995,
    "berg": 11857,
    "quitted": 21854,
    "convul": 24883,
    "deserving": 17241,
    "lic": 17587,
    "Ġstrained": 10218,
    "Ġay": 15490,
    "vely": 3867,
    "meant": 7920,
    "Ġstall": 12693,
    "omit": 13973,
    "Ġob": 860,
    "Ġwint": 15531,
    "mbles": 23086,
    "liber": 18813,
    "pleasanter": 24044,
    "othe": 2615,
    "Ġrise": 5637,
    "Ġinhabitant": 19754,
    "rice": 13776,
    "horner": 23613,
    "mount": 9129,
    "Ġsoldier": 16920,
    "ioning": 21506,
    "wish": 8099,
    "Ġcrust": 21349,
    "altogether": 12636,
    "heaved": 21209,
    "Ġuniform": 2228,
    "Ġgladly": 14681,
    "sil": 5282,
    "Ġstup": 14004,
    "Ġstationary": 19693,
    "Ġenumer": 12742,
    "Ġcomprehension": 15085,
    "Ġclung": 10961,
    "Ġep": 7384,
    "Ġshutter": 16670,
    "wheeler": 16187,
    "ician": 21562,
    "Ġaudacity": 19881,
    "Ġ550": 19640,
    "Ġtransplanted": 22438,
    "Ġploughing": 26259,
    "kes": 3680,
    "Ġpeace": 3694,
    "ind": 567,
    "Ġsuspicions": 9478,
    "spoke": 11023,
    "Ġwhistling": 19789,
    "Ġfrance": 7681,
    "Ġrever": 6536,
    "aug": 1213,
    "Ġcaus": 1723,
    "Ġcalculating": 9924,
    "etite": 21576,
    "side": 2304,
    "learn": 2295,
    "underneath": 23787,
    "chase": 11644,
    "names": 16523,
    "Ġeagerness": 6608,
    "Ġemblaz": 16239,
    "ppers": 7617,
    "fingers": 17369,
    "Ġeliminating": 20618,
    "Ġillinois": 19136,
    "Ġdecks": 6900,
    "Ġdocks": 14177,
    "Ġblan": 18816,
    "ti": 8389,
    "Ġconducted": 10502,
    "Ġeth": 17716,
    "Ġpompous": 20421,
    "Ġprinces": 23223,
    "Â": 131,
    "Ġunaccountable": 7886,
    "Ġdeclaration": 16636,
    "pid": 1408,
    "allet": 11083,
    "Ġpursuit": 4733,
    "Ġrhine": 12354,
    "Ġopposite": 5120,
    "Ġmuslin": 19381,
    "Ġspices": 22128,
    "Ġadvancing": 6878,
    "Ġprevents": 2559,
    "iries": 18169,
    "ouraged": 22856,
    "Ġquartered": 20371,
    "Ġresentment": 7530,
    "Ġlapl": 19776,
    "Ġmission": 13003,
    "Ġconsol": 3815,
    "Ġchicha": 15934,
    "mare": 17599,
    "sk": 5521,
    "ashed": 3785,
    "ubb": 1648,
    "op": 657,
    "zas": 17712,
    "poison": 14391,
    "nowhere": 18418,
    "doc": 23374,
    "Ġproflig": 23566,
    "Ġdet": 510,
    "Ġunwell": 22012,
    "sail": 3605,
    "Ġmeaning": 1416,
    "engaged": 7452,
    "Ġinsure": 13177,
    "Ġmoss": 9283,
    "Ġtickled": 20055,
    "ativeness": 15519,
    "isk": 9167,
    "Ġanew": 11430,
    "Ġresponsible": 9885,
    "Ġmultiplied": 23689,
    "Ġrouted": 24907,
    "narrated": 25621,
    "ellow": 3877,
    "Ġreduces": 2345,
    "Ġxl": 11988,
    "Ġassented": 17337,
    "Ġdeceitful": 25733,
    "Ġstaple": 26198,
    "Ġfeasible": 22205,
    "Ġspasmodically": 17313,
    "Ġguardianship": 17419,
    "Ġdoorway": 14497,
    "vinegar": 25420,
    "open": 7025,
    "Ġexpressed": 4469,
    "Ġheight": 4221,
    "anc": 6379,
    "Ġexhausted": 8693,
    "Ġstabilizing": 3659,
    "Ġinvolving": 18761,
    "ksome": 10104,
    "Ġupd": 945,
    "Ġincor": 2610,
    "Ġbloodshot": 23798,
    "Ġwronged": 24247,
    "tain": 558,
    "Ġforbade": 15213,
    "Ġstronger": 8578,
    "Ġwent": 1533,
    "term": 3760,
    "Ġcelest": 9900,
    "buried": 14848,
    "Č": 205,
    "ment": 691,
    "Ġfatally": 19392,
    "Ġbravest": 23838,
    "Ġenjoyment": 7300,
    "Ġbefitting": 15723,
    "Ġfitness": 23997,
    "Ġcolt": 11044,
    "laden": 14928,
    "Ġhints": 8429,
    "Ġorphans": 20203,
    "aping": 8193,
    "Ġpeninsula": 23193,
    "Ġbomb": 17867,
    "savor": 25024,
    "Ġrelease": 19290,
    "Ġmaty": 22908,
    "Ġchaps": 14179,
    "Ġimprisonment": 22381,
    "Ġane": 9181,
    "aim": 2759,
    "respond": 12541,
    "Ġapproving": 18509,
    "Ġdeeds": 15756,
    "Ġheire": 18036,
    "Ġsatiated": 22900,
    "misfortunes": 16756,
    "Ġtantamount": 25625,
    "Ġpreparing": 8647,
    "Ġtri": 4813,
    "Ġparty": 3513,
    "Ġsuggested": 8320,
    "icirc": 15653,
    "eding": 7165,
    "entrance": 12654,
    "Ġglow": 7170,
    "mpt": 6653,
    "Ġinaudible": 21496,
    "Ġsurpass": 13582,
    "Ġdonkey": 23228,
    "Ġskeletons": 16791,
    "indul": 22367,
    "arranging": 19317,
    "Ġendeav": 2955,
    "Ġhumiliating": 22881,
    "gall": 6359,
    "Ġwhimsical": 20426,
    "Ġspr": 4027,
    "Ġblacksmiths": 19872,
    "Ġdamp": 8263,
    "Ġfeeling": 3083,
    "cott": 8073,
    "Ġwounds": 17790,
    "Ġbubble": 13534,
    "Ġchatbots": 11349,
    "rary": 4576,
    "heim": 17746,
    "Ġpersons": 6180,
    "atherley": 7220,
    "Ġconclusions": 10553,
    "Ġdisconnected": 22522,
    "particular": 5757,
    "Ġbruited": 25773,
    "Ġsa": 474,
    "Ġemphasis": 20535,
    "Ġcleanse": 24527,
    "aying": 15747,
    "Ġslates": 11106,
    "Ġwinds": 5746,
    "strip": 19829,
    "Ġsave": 4053,
    "Ġjob": 7015,
    "hopes": 15368,
    "cour": 4481,
    "Ġdeparture": 6490,
    "istan": 22105,
    "Ġposterity": 17401,
    "Ġroundabout": 23058,
    "Ġunfulfilled": 26509,
    "acific": 4960,
    "am": 368,
    "ile": 522,
    "Ġconge": 15743,
    "mantel": 26394,
    "fore": 686,
    "Ġflirt": 14422,
    "Ġinsomuch": 23682,
    "Ġhire": 21482,
    "Ġlifeless": 8948,
    "Ġbody": 2436,
    "Ġmiser": 18703,
    "Ġembodied": 25847,
    "Ġlashed": 9198,
    "Ġfoundling": 22965,
    "Ġsympathy": 6346,
    "Ġarchipelagoes": 14347,
    "Ġneared": 14072,
    "Ġbarrels": 9435,
    "Ġpent": 17903,
    "Ġundeserving": 18268,
    "Ġdescending": 8901,
    "Ġverge": 23885,
    "rear": 21231,
    "Ġbanks": 6814,
    "Ġspears": 12921,
    "der": 468,
    "informed": 17736,
    "ö": 183,
    "Ġcomplex": 739,
    "crew": 7544,
    "Ġtrad": 9827,
    "infernal": 24662,
    "Ġcrimin": 6901,
    "story": 9212,
    "Ġnovels": 15927,
    "sies": 21053,
    "Ġpost": 4273,
    "[_": 5131,
    "³": 116,
    "Ġworking": 5575,
    "emberley": 4172,
    "nuts": 15397,
    "moor": 22699,
    "hollow": 24037,
    "justified": 19002,
    "Ġfog": 9661,
    "Ġredundant": 16550,
    "riet": 18179,
    "Ġhuggins": 24828,
    "cele": 21622,
    "rain": 464,
    "Ġnecessary": 4475,
    "Ġsam": 7569,
    "Ġphyseter": 26586,
    "per": 479,
    "unciation": 25982,
    "Ġimaginary": 11186,
    "Ġglimpse": 6944,
    "Ġcabin": 3304,
    "bbles": 13690,
    "inv": 8400,
    "Ġimpossible": 3545,
    "Ġflowery": 16230,
    "lifted": 15385,
    "consolation": 15151,
    "Ġexperience": 1365,
    "preserving": 25304,
    "brimming": 23576,
    "objection": 19914,
    "Ġgasping": 17038,
    "train": 2034,
    "meat": 18678,
    "Ġhay": 11604,
    "Ġrio": 23889,
    "Ġarist": 14161,
    "Ġsweep": 8265,
    "Ġdoc": 7200,
    "continuing": 24479,
    "Ġspaniard": 20361,
    "severe": 21816,
    "Ġcynical": 25770,
    "Ġfulfil": 9550,
    "Ġcliffs": 15974,
    "Ġcursed": 6726,
    "Ġcharged": 9853,
    "Ġcredit": 4818,
    "Ġborrowed": 17229,
    "Ġordained": 19443,
    "ogrand": 26261,
    "Ġsatan": 14389,
    "iance": 5279,
    "Ġamph": 18511,
    "ichron": 22160,
    "arrow": 4180,
    "Ġcon": 348,
    "Ġanomalous": 25637,
    "Ġsolace": 16198,
    "Ġgenial": 12192,
    "Ġhulls": 13925,
    "Ġtemperate": 16160,
    "adr": 6994,
    "itating": 9650,
    "Ġunsav": 18251,
    "Ġwhirling": 12246,
    "measureless": 20234,
    "tenderly": 20529,
    "Ġundoubted": 19513,
    "Ġperiods": 13302,
    "Ġell": 17715,
    "Ġensures": 3054,
    "Ġwardrobe": 17225,
    "Ġappointed": 20101,
    "Ġfiend": 4413,
    "Ġselection": 18204,
    "Ġis": 347,
    "Ġvari": 831,
    "Ġconsequ": 6254,
    "Ġcherry": 16935,
    "ic": 304,
    "Ġstore": 8453,
    "Ġmaterially": 12189,
    "Ġaffl": 14385,
    "Ġpreference": 9732,
    "Ġsailed": 4889,
    "exceeded": 24999,
    "Ġmamma": 10047,
    "Ġsensational": 16390,
    "Ġfanny": 23389,
    "Ġform": 1023,
    "vel": 2386,
    "bank": 10079,
    "wer": 8394,
    "Ġtub": 7146,
    "Ġremnants": 22790,
    "Ġmasts": 6465,
    "petulance": 24299,
    "courageous": 26127,
    "Ġobliter": 14321,
    "compassion": 12366,
    "Ġcol": 1058,
    "judging": 24201,
    "Ġdrive": 5055,
    "earliest": 20118,
    "crippled": 26384,
    "fes": 20850,
    "Ġcrazed": 19174,
    "Ġtheir": 644,
    "mber": 7803,
    "masts": 19423,
    "Ġforlorn": 14014,
    "Ġapplicable": 19015,
    "Ġremote": 8919,
    "longbourn": 9895,
    "biting": 20779,
    "Ġdecanter": 22455,
    "ously": 2494,
    "Ġshifting": 12765,
    "omuch": 21637,
    "ª": 108,
    "Ġderivatives": 2371,
    "beef": 18523,
    "Ġpendulous": 25955,
    "Ġmug": 21311,
    "intention": 10367,
    "Ġimpat": 4458,
    "eled": 2359,
    "feren": 767,
    "Ġdepressions": 25798,
    "Ġcalamity": 17348,
    "Ġplus": 3883,
    "Ġsolar": 22882,
    "Ġsanctioned": 26349,
    "intolerable": 22935,
    "Ġminimizes": 2046,
    "Ġmottled": 20677,
    "Ġclearness": 23181,
    "Ġnetworks": 597,
    "Ġobliged": 4286,
    "Ġwing": 6665,
    "Ġpreposterous": 13668,
    "Ġlunging": 24989,
    "Ġunsounded": 15847,
    "Ġlifetime": 13601,
    "Ġ4": 3989,
    "Ġmanoir": 22328,
    "Ġsoda": 25534,
    "Ġunembarrassed": 22064,
    "Ġresigned": 9767,
    "apside": 22957,
    "Ġheaps": 11641,
    "bewil": 22495,
    "Ġunde": 11710,
    "Ġforms": 6397,
    "Ġlistened": 4471,
    "Ġsculpture": 26016,
    "Ġpagoda": 19787,
    "Ġannounced": 9034,
    "Ġsensation": 6896,
    "Ġwrecks": 16818,
    "Ġrifts": 21972,
    "opence": 18507,
    "Ġhandled": 12934,
    "Ġbury": 12039,
    "lucky": 24545,
    "Ġspitz": 14148,
    "interesting": 12199,
    "fortunately": 9450,
    "Ġfancies": 10424,
    "Ġintellect": 8169,
    "thousand": 5547,
    "ckled": 9256,
    "Ġcus": 21341,
    "iline": 21718,
    "Ġsafer": 22167,
    "Ġluxuries": 25163,
    "Ġplank": 7033,
    "Ġagain": 814,
    "º": 123,
    "Ġhover": 15617,
    "leading": 15559,
    "Ġweighed": 8710,
    "Ġyielded": 14871,
    "curiosity": 8623,
    "aways": 15309,
    "Ġfacil": 16962,
    "Ġclock": 9532,
    "Ġgay": 5535,
    "Ġsuperflu": 14555,
    "Ġwires": 21294,
    "orial": 8416,
    "Ġfunny": 7637,
    "Ġperuvian": 18452,
    "imony": 12687,
    "solut": 3364,
    "Ġwalls": 6762,
    "Ġleaks": 16447,
    "betrayed": 24640,
    "Ġcontain": 1549,
    "Ġfunctional": 3047,
    "fun": 3862,
    "igning": 12678,
    "Ġanticipating": 17058,
    "Ġuntutored": 19165,
    "beheld": 11800,
    "Ġforeboding": 20382,
    "eps": 12787,
    "Ġovertaken": 18425,
    "Ġshoving": 23489,
    "Ġabreast": 18394,
    "Ġphilosophical": 26334,
    "newsp": 23132,
    "Ġclenched": 14207,
    "dozen": 23376,
    "sol": 1789,
    "Ġcreditable": 19621,
    "Ġthackeray": 26455,
    "Ġimplements": 2488,
    "ian": 1235,
    "Ġu": 324,
    "Ġmouldings": 24737,
    "ien": 10101,
    "Ġrudder": 25107,
    "difference": 13707,
    "Ġspur": 18303,
    "Ġsails": 5256,
    "Ġpapers": 4023,
    "Ġundecided": 22043,
    "Ġmainz": 22645,
    "heavy": 10574,
    "Ġsophisticated": 1671,
    "Ġpeas": 8533,
    "âĢĿ--": 21813,
    "Ġabuse": 18392,
    "meditation": 19068,
    "Ġventil": 8019,
    "Ġsympathies": 14860,
    "sinking": 17668,
    "Ġlot": 6678,
    "Ġconjured": 25099,
    "elements": 25203,
    "Ġxx": 5492,
    "Ġsetting": 7046,
    "ynolds": 10035,
    "compass": 9459,
    "Ġlavenza": 17970,
    "Ġmurmur": 14589,
    "blending": 24129,
    "Ġul": 6828,
    "Ġoperation": 11997,
    "Ġpilgrim": 25599,
    "Ġslink": 23161,
    "Ġdisput": 14255,
    "Ġslipper": 24265,
    "awned": 19458,
    "Ġeastern": 11628,
    "Ġassent": 12730,
    "Ġobsolete": 26558,
    "Ġidolator": 19996,
    "Ġlanguages": 1564,
    "Ġcalling": 5662,
    "walls": 25345,
    "Ġne": 390,
    "uccas": 21105,
    "crowded": 20189,
    "Ġplease": 4723,
    "Ġgames": 11625,
    "Ġdegener": 14047,
    "Ġsolomon": 11052,
    "pane": 10120,
    "vy": 21106,
    "vanished": 15060,
    "spoutings": 25001,
    "Ġevents": 4474,
    "Ġlombardy": 26463,
    "Ġstepping": 9353,
    "Ġalluded": 7884,
    "Ġprotruded": 19468,
    "enced": 4297,
    "sper": 4437,
    "shapes": 22449,
    "iftings": 23226,
    "witted": 17707,
    "endured": 22224,
    "Ġcharges": 23266,
    "Ġtigris": 25759,
    "mis": 4522,
    "encies": 4081,
    "Ġscream": 5934,
    "Ġsi": 21211,
    "Ġsympathetic": 17358,
    "Ġover": 554,
    "standing": 5558,
    "passing": 14811,
    "Q": 53,
    "Ġheadlands": 22895,
    "pleasing": 14741,
    "Ġdepended": 9776,
    "Ġbent": 5149,
    "Ġpattern": 1380,
    "imagine": 19930,
    "Ġ45": 14769,
    "Ġapolog": 9043,
    "horror": 13158,
    "Ġcovers": 18592,
    "Ġsurround": 4618,
    "Ġrumors": 11321,
    "Ġabsolutely": 4857,
    ";âĢĻ": 15301,
    "Ġeggs": 12340,
    "Ġcharm": 4549,
    "rated": 6227,
    "Ġdepth": 2438,
    "Ġburtons": 19251,
    "Ġintent": 6409,
    "Ġcarpet": 9355,
    "Ġemigrant": 25859,
    "Ġerrand": 11085,
    "Ġgranting": 18736,
    "Ġwon": 1665,
    "send": 15422,
    "Ġgaol": 19566,
    "onement": 21255,
    "ortal": 6265,
    "Ġperforms": 11875,
    "ceptible": 10957,
    "Ġweek": 2828,
    "Ġdesperation": 19817,
    "Ġtambourine": 9564,
    "deed": 1517,
    "Ġpropag": 16346,
    "dece": 11732,
    "unted": 6998,
    "Ġaboard": 6697,
    "Ġutility": 23513,
    "Ġdistrustful": 25054,
    "Ġbalances": 2342,
    "lantern": 17427,
    "A": 37,
    "Ġladies": 3191,
    "Ġapply": 1777,
    "unw": 14056,
    "Ġcrows": 24028,
    "Ġdoubly": 16384,
    "raction": 8137,
    "Ġdisposition": 5409,
    "Ġclutches": 20016,
    "Ġcongratulated": 19765,
    "Ġtools": 11608,
    "Ġsimpl": 1576,
    "Ġbay": 9168,
    "Ġpresence": 5031,
    "Ġfair": 2838,
    "Ġcharity": 8862,
    "orting": 9734,
    "Ġsomebody": 7911,
    "placed": 7877,
    "Ġextinguished": 10341,
    "Ġstrain": 6023,
    "Ġpills": 21464,
    "restoration": 23236,
    "Ė": 215,
    "Ġsounded": 8590,
    "Ġaccompanying": 11304,
    "Ġtemperature": 1002,
    "omically": 13975,
    "Ġquies": 18464,
    "Ġregard": 3066,
    "Ġpatted": 16358,
    "un": 373,
    "Ġpoignant": 22590,
    "Ġtolland": 24988,
    "Ġincorrect": 2731,
    "Ġrichest": 26211,
    "Ġbrimstone": 25686,
    "Ġexh": 5232,
    "Ĳ": 243,
    "tottenham": 25418,
    "Ġdynamically": 3979,
    "Ġpicturesqueness": 24480,
    "Ġalterations": 19870,
    "Ġpriv": 4183,
    "Ġcarriage": 3950,
    "Ġtallest": 15473,
    "izes": 885,
    "avings": 12021,
    "Ġmodes": 22212,
    "âĢĶâĢĻâĢĿ": 20062,
    "Ġboa": 22632,
    "Ġhampshire": 15241,
    "Ġoverhear": 15968,
    "Ġbermud": 26439,
    "Ġdreaminess": 23937,
    "Ġsixteen": 8282,
    "Ġmaw": 15537,
    "arat": 9180,
    "housekeeper": 24101,
    "Ġoutward": 7903,
    "Ġcenturies": 8622,
    "Ġgladstone": 23867,
    "orts": 2557,
    "flukes": 25205,
    "Ġappearing": 9840,
    "Ġdavy": 25951,
    "Ġanchored": 17439,
    "Ġsembl": 19061,
    "Ġunprotected": 22062,
    "inferiors": 25346,
    "usoid": 4767,
    "cares": 24309,
    "arse": 7160,
    "vers": 1326,
    "derer": 4601,
    "Ġuncovered": 23432,
    "augh": 1782,
    "Ġabsolute": 6765,
    "fem": 17537,
    "Ġrefresh": 10345,
    "Ġcrabs": 19173,
    "Ġconversed": 13187,
    "ahead": 12432,
    "Ġwildly": 9413,
    "nowled": 5470,
    "Ġqueer": 4480,
    "Ġbackground": 18649,
    "ippi": 20243,
    "Ġmanxman": 9565,
    "Ġviolence": 5962,
    "Ġserve": 9367,
    "Ġaround": 3613,
    "70": 17475,
    "Ġtendinous": 16931,
    "Ġ112": 24437,
    "Ġinvaders": 23481,
    "hours": 9124,
    "Ġsultan": 15183,
    "Ġindependent": 9015,
    "Ġpresented": 5183,
    "Ġtoilette": 20491,
    "Ġbrawny": 13612,
    "outh": 2689,
    "drugg": 20837,
    "Ġstrictly": 12283,
    "treated": 21093,
    "uded": 6286,
    "Ġwakeful": 24266,
    "uts": 8815,
    "Ġquestionable": 19265,
    "Ġgout": 21593,
    "Ġprophesied": 26062,
    "beautiful": 10648,
    "elstrom": 17981,
    "olstadt": 7788,
    "distinctive": 25726,
    "gus": 13724,
    "mont": 19168,
    "oping": 5559,
    "Ġrepresented": 8938,
    "Ġexecutors": 19532,
    "Ġevangelist": 20337,
    "pute": 8844,
    "acquired": 24296,
    "osp": 6854,
    "Ġmaggie": 26291,
    "Ġcrusad": 23705,
    "Ġcasement": 25092,
    "Ġ80": 24456,
    "Ġsupremacy": 20259,
    "prehens": 9288,
    "Ġvenge": 5420,
    "riv": 3109,
    "Ġbressed": 21385,
    "iation": 7343,
    "Ġele": 1962,
    "paralleled": 14513,
    "Ġlashings": 25097,
    "Ġelder": 7224,
    "conduct": 11795,
    "alarmed": 21500,
    "Ġjo": 2609,
    "bal": 2158,
    "Ġhist": 2446,
    "gentle": 5356,
    "Ġinns": 17929,
    "involuntarily": 20413,
    "Ġxxxi": 24966,
    "?": 35,
    "bastian": 10673,
    "Ġmisunderstood": 18705,
    "certain": 3678,
    "Ġflesh": 5968,
    "Ġaccomplishment": 19664,
    "Ġpots": 9427,
    "Ġremarking": 13123,
    "omnipotent": 25964,
    "Ġsilence": 3268,
    "Ġprovided": 6577,
    "kee": 18273,
    "Ġcringed": 25942,
    "oors": 17620,
    "tempted": 26403,
    "71": 20755,
    "Ġgoverning": 2796,
    "Ġ47": 14770,
    "Ġinfancy": 10409,
    "itation": 1780,
    "Ġsanctified": 25883,
    "arding": 22154,
    "Ġgryphon": 4301,
    "ered": 1683,
    "pivot": 21030,
    "Ġpipeline": 2267,
    "hate": 20891,
    "tern": 4225,
    "Ġsire": 15500,
    "sa": 8756,
    "Ġcounterpane": 11343,
    "comfortable": 7320,
    "Ġdeceased": 15006,
    "Ġstarting": 7728,
    "Ġgreeted": 23209,
    "speptic": 23943,
    "Ġrequire": 898,
    "Ġstamp": 7863,
    "Ġthousand": 2783,
    "Ġwhirl": 13448,
    "Ġwisely": 13271,
    "Ġmutually": 23954,
    "uring": 818,
    "Ġprolong": 6832,
    "Ġseethe": 21960,
    "satisfied": 10578,
    "Ġcologne": 12972,
    "atered": 22069,
    "ected": 7872,
    "Ġvague": 6406,
    "amped": 12031,
    "¾": 127,
    "Ġpromontory": 11939,
    "Ġtravels": 11925,
    "Ġinland": 11607,
    "Ġ31": 12128,
    "fashioned": 9570,
    "Ġchose": 7413,
    "°": 113,
    "Ġhypothesis": 14780,
    "Ġhistories": 14687,
    "Ġcook": 3713,
    "Ġpropontis": 17465,
    "erval": 4021,
    "Ġrepugnance": 19086,
    "Ġthings": 1961,
    "ashes": 6015,
    "seek": 8836,
    "sort": 6798,
    "untarily": 6312,
    "Ġrelative": 11881,
    "Ġcoolly": 9771,
    "Ġm": 274,
    "Ġcoarsely": 25828,
    "Ġspect": 3555,
    "dro": 6644,
    "Ġking": 2307,
    "Ġsubmerged": 11870,
    "ined": 1259,
    "Ġwig": 9161,
    "prehend": 14242,
    "strom": 15681,
    "Ġheaths": 25972,
    "uger": 21102,
    "glings": 23849,
    "Ġmurderer": 4980,
    "Ġimmort": 19482,
    "Ġsamuel": 10032,
    "Ġtiles": 17726,
    "Ġaccent": 10295,
    "daughter": 8353,
    "uted": 7592,
    "bur": 4687,
    "Ġsammy": 24932,
    "Ġcultiv": 13555,
    "Ġgrie": 3586,
    "Ġstayed": 7997,
    "Ġprecip": 7074,
    "Ġenough": 1762,
    "Ġpapered": 20129,
    "Ġdictator": 20152,
    "Ġceaseless": 13487,
    "Ġomen": 11575,
    "Ġhomeward": 9391,
    "Ġhemisphere": 26478,
    "minds": 24232,
    "leaped": 17843,
    "Ġvisions": 12974,
    "Ġadmire": 5263,
    "Ġperiodical": 14771,
    "borough": 20784,
    "Ġprejudiced": 24809,
    "Ġjava": 12310,
    "Ġapprised": 18359,
    "Ġsnatches": 16543,
    "rann": 21043,
    "ors": 855,
    "elop": 1489,
    "Ġpropose": 9852,
    "Ġjur": 12831,
    "tu": 12509,
    "Ġreconc": 9682,
    "Ġbrown": 6298,
    "ert": 2633,
    "ilet": 12826,
    "ittleness": 22373,
    "Ġvocabulary": 4995,
    "Ġmalignity": 10556,
    "Ġ25": 13193,
    "ishing": 1146,
    "gage": 13722,
    "Ġpalmed": 24089,
    "datasets": 11948,
    "ornamented": 26595,
    "Ġentertaining": 16926,
    "Ġexhilarating": 26337,
    "Ġwhispering": 14944,
    "engines": 18927,
    "windibank": 24161,
    "Ġcommanders": 23866,
    "Ġgipsies": 12406,
    "Ġdungeon": 16996,
    "ateur": 22068,
    "Ġevil": 3806,
    "Ġproduces": 2092,
    "Ġluckless": 16797,
    "Ġjoys": 13218,
    "tub": 9143,
    "Ġrevolution": 3306,
    "Ġproceeded": 5335,
    "ord": 668,
    "Ġretreating": 19798,
    "Ġpresided": 20206,
    "Ġlance": 4879,
    "Ġfreshness": 23985,
    "Ġplainpalais": 20736,
    "Ġendeavouring": 8034,
    "Ġagreeing": 20017,
    "Ġsaid": 577,
    "Ġdripping": 13146,
    "Ġdiscoverers": 26036,
    "Ġbands": 14883,
    "Ġwarehouses": 20416,
    "Ġirreducible": 5519,
    "Ġturbulence": 26597,
    "arms": 10173,
    "Ġdispelling": 23878,
    "Ġtongue": 6347,
    "Ġborders": 15569,
    "Ġcharge": 5324,
    "gently": 13728,
    "Ć": 199,
    "¥": 103,
    "rew": 3651,
    "Ġproject": 5546,
    "Ġmasterless": 23992,
    "Ġtrespass": 23599,
    "treas": 17679,
    "recked": 17762,
    "Ġmonogram": 26574,
    "J": 46,
    "apes": 9740,
    "Ġeucl": 24709,
    "Ġwaste": 9233,
    "Ġcannot": 1666,
    "Ġopenly": 8572,
    "ounder": 11742,
    "Ġacceded": 22385,
    "Ġalongside": 6311,
    "Ġranged": 10258,
    "Ġbanners": 24858,
    "dington": 11899,
    "Ġweigh": 10894,
    "Ġnarwhales": 24902,
    "iew": 2448,
    "arying": 9800,
    "Ġincites": 22548,
    "Ġchanged": 5243,
    "Ġsaf": 4004,
    "found": 4215,
    "Ġmathemat": 3201,
    "Ġliberally": 16830,
    "illar": 5101,
    "hammered": 19003,
    "ach": 435,
    "Ġconcept": 660,
    "Ġincarn": 11812,
    "empty": 23636,
    "Ġdiddled": 22664,
    "Ġoverlook": 10959,
    "Ġadrift": 11721,
    "pervading": 18956,
    "Ġsurpl": 19132,
    "ousand": 2429,
    "pain": 7350,
    "besides": 8695,
    "bers": 2572,
    "Ġpoker": 13921,
    "Ġoccupies": 24005,
    "mon": 2312,
    "fiercely": 25256,
    "Ġwatch": 2746,
    "Ġrhone": 25230,
    "ru": 480,
    "pendicular": 6499,
    "disappeared": 14570,
    "Ġeternities": 19941,
    "Ġcrept": 11021,
    "Ġvexatious": 19780,
    "returned": 7765,
    "forecastle": 10990,
    "Ġhammock": 5768,
    "arm": 1354,
    "Ġalternate": 19984,
    "unerative": 21893,
    "sherlock": 5422,
    "case": 5206,
    "Ġtut": 8769,
    "Ġbutler": 18270,
    "atural": 910,
    "houses": 9599,
    "Ġtragedies": 25241,
    "Ġchart": 10945,
    "cleanliness": 25871,
    "Ġbelted": 22945,
    "Ġbrut": 18768,
    "begone": 12876,
    "Ġgrope": 17994,
    "Ġglorious": 11075,
    "Ġsimplicity": 2924,
    "Ġgoodge": 22820,
    "Ġbuilt": 8300,
    "Ġaddress": 2275,
    "Ġoceans": 7995,
    "Ġjar": 15948,
    "Ġshall": 1145,
    "Ġpract": 1811,
    "Ġquivers": 22410,
    "Ġstubborn": 10414,
    "Ġsavesoul": 26227,
    "smooth": 20247,
    "joy": 3336,
    "Ġhawaiian": 25366,
    "Ġprincipally": 11309,
    "Ġyoung": 1505,
    "Ġstumped": 24942,
    "feet": 6568,
    "Ġunwinding": 22055,
    "Ġleaps": 14007,
    "Ġadversary": 12171,
    "Ġtruly": 4796,
    "Ġcurve": 22966,
    "Ġchilian": 25563,
    "Ġexposes": 22621,
    "rippa": 11341,
    ".)": 6783,
    "Ġstaves": 21737,
    "Ġextrem": 2478,
    "Ġaggregate": 25677,
    "Ġsmothered": 20719,
    "details": 19674,
    "Ġnumber": 1982,
    "rium": 3133,
    "Ġxxx": 7766,
    "pos": 15409,
    "Ġracket": 22651,
    "vellers": 16673,
    "Ġentra": 18695,
    "Ġinject": 2714,
    "Ġfangs": 12594,
    "Ġworthy": 7241,
    "Ġhelping": 3267,
    "plish": 18200,
    "thing": 1478,
    "Ġpalpitated": 26085,
    "Ġcontinu": 1166,
    "Ġcrony": 23441,
    "Ġsavage": 4013,
    "Ġlawless": 19433,
    "Ġindefatigable": 17177,
    "ms": 542,
    "revolver": 25627,
    "Ġlikened": 16499,
    "reast": 17758,
    "Ġforesaw": 19127,
    "Ġsteering": 10387,
    "Ġnobler": 14175,
    "Ġ128": 24473,
    "Ġtransport": 11278,
    "gay": 11488,
    "continual": 20643,
    "Ġdenomin": 12065,
    "ause": 1313,
    "inders": 15979,
    "Ġoffic": 3185,
    "Ġeluc": 16107,
    "Ġgreenland": 5761,
    "Ġfifteen": 6947,
    "Ġgrooves": 16741,
    "legged": 10466,
    "ivance": 22072,
    "ness": 853,
    "Ġcheat": 19019,
    "Ġconfl": 11137,
    "Ġast": 2962,
    "Ġledgers": 23935,
    "Ġweeks": 4566,
    "Ġjourney": 3880,
    "wl": 17702,
    "Ġdangling": 17174,
    "Ġmisled": 22753,
    "length": 7134,
    "Ġresentful": 24631,
    "sharp": 10306,
    "oried": 10802,
    "lob": 22503,
    "terogene": 21822,
    "Ġswiftness": 9926,
    "âĢĶ.âĢĿ": 22252,
    "add": 5229,
    "Ġ46": 19489,
    "Ġdesk": 11904,
    "Ġrings": 11698,
    "bit": 3932,
    "aging": 2240,
    "hit": 20888,
    "Ġoaks": 16933,
    "Ġscarcely": 4011,
    "ates": 519,
    "stri": 6249,
    "Ġenchantment": 24869,
    "Ġapothecary": 13658,
    "Ġgamy": 17998,
    "Ġwednesday": 9024,
    "conda": 18993,
    "Ġwoes": 23983,
    "Ġengravings": 15064,
    "Ġsuited": 12782,
    "Ġinitialization": 1252,
    "whalers": 17263,
    "ounced": 4954,
    "othed": 16510,
    "recurrent": 4994,
    "Ġless": 1938,
    "Ġextended": 7923,
    "venth": 9294,
    "Ġcurved": 18845,
    "Ġnovelty": 13462,
    "Ġsnapped": 9896,
    "Ġsalutations": 25382,
    "Ġconjoined": 21803,
    "imble": 10858,
    "Ġdens": 21422,
    "news": 23131,
    "whale": 2142,
    "Ġstaircase": 20094,
    "Ġallusion": 7625,
    "rom": 420,
    "Åĵ": 10744,
    "Ġextremities": 19194,
    "Ġclosed": 4606,
    "Ġequatorial": 13508,
    "sweep": 24617,
    "!_âĢĶ": 19971,
    "Ġsays": 3564,
    "Ġdisputes": 25825,
    "Ġfine": 1317,
    "bedstead": 23847,
    "ne": 647,
    "Ġdemands": 19642,
    "Ġfeels": 6882,
    "across": 10324,
    "Ġpanted": 21470,
    "Ġdank": 21426,
    "Ġtrinity": 22337,
    "Ġremind": 6057,
    "Ġcandle": 8291,
    "ppery": 10892,
    "Ġpeeping": 16125,
    "Ġgleamed": 17077,
    "preserve": 25303,
    "Ġarrives": 23606,
    "agreeable": 5829,
    "Ġviolet": 19090,
    "leather": 13889,
    "Ġtemples": 18638,
    "Ġlobsters": 13516,
    "Ġfuller": 11156,
    "eman": 5636,
    "Ġornaments": 17451,
    "Ġfish": 2713,
    "Ġvacancies": 24345,
    "Ġentreating": 24207,
    "Ġresponsiveness": 2896,
    "Ġpestilent": 25777,
    "Ġlangu": 572,
    "Ġchased": 8861,
    "Ġrevolving": 9982,
    "too": 4509,
    "Ġclassifies": 11836,
    "Ġchoking": 15932,
    "regarded": 12006,
    "Ġreigning": 15698,
    "Ġhorns": 11123,
    "Ġmenaced": 16291,
    "Ġregarding": 13209,
    "Ġcompanions": 5865,
    "Ġboldness": 24428,
    "friendly": 13283,
    "Ġelab": 22640,
    "dum": 17518,
    "Ġpallet": 21479,
    "Ġarithmetic": 18345,
    "Ġyankees": 26201,
    "Ġrequesting": 24632,
    "Ġrobots": 11080,
    "Ġautonom": 10415,
    "alyards": 18774,
    "Ġaveraging": 2418,
    "Ġupdates": 1298,
    "azore": 23463,
    "asmuch": 10194,
    "consciously": 19624,
    "istically": 14143,
    "Ġpertin": 18449,
    "Ġpronouncing": 16969,
    "Ġremains": 4910,
    "Ġbears": 6829,
    "Ġmoderate": 10938,
    "Ġplay": 2627,
    "hat": 6956,
    "omination": 21639,
    "Ġrepay": 19081,
    "precisely": 6917,
    "Ġmomentous": 16167,
    "Ġsupplied": 8943,
    "Ġvictims": 19803,
    "Ġtusk": 25425,
    "patched": 17643,
    "both": 5785,
    "cong": 10687,
    "Ġbiological": 1933,
    "shad": 10980,
    "skirted": 24489,
    "Ġliberty": 7761,
    "meantime": 9091,
    "reception": 15513,
    "Ġaudibly": 24771,
    "ĠĠĠĠĠĠĠĠĠĠĠĠĠĠĠĠĠĠĠ": 22947,
    "Ġmachine": 790,
    "Ġinterpreter": 23212,
    "Ġtrampled": 20327,
    "hro": 20890,
    "Ġhamper": 19387,
    "Ġlaurel": 20653,
    "Ġtorch": 25030,
    "Ġcre": 888,
    "ass": 539,
    "Ġinvective": 26181,
    "hon": 6793,
    "Ġmilitary": 11258,
    "globe": 25142,
    "Ġnum": 1347,
    "Ġcrimes": 8588,
    "wonderful": 16960,
    "Ġnervous": 2404,
    "Ġneedles": 11184,
    "tiest": 21080,
    "Ġbadly": 12129,
    "Ġn": 300,
    "Ġvor": 15804,
    "helm": 12169,
    "bee": 16034,
    "Ġtumble": 16879,
    "Ġbox": 5109,
    "Ġtransition": 14233,
    "Ġrocky": 13386,
    "contrast": 25594,
    "ribute": 7225,
    "overlooked": 23323,
    "Ġshook": 4470,
    "Ġstrangers": 8313,
    "bingleys": 19633,
    "Ġchair": 3664,
    "Ġmutinous": 23955,
    "ared": 771,
    "Ġknocked": 9499,
    "Ġwantonly": 22892,
    "nns": 1894,
    "apart": 15959,
    "Ġlump": 21549,
    "Ġcontributed": 16007,
    "Ġpromethe": 14467,
    "Ġvigilant": 20183,
    "ollion": 19714,
    "individual": 18436,
    "anesc": 21358,
    "highly": 24764,
    "ect": 380,
    ",âĢĶâĢľ": 10069,
    "Ġslumber": 13057,
    "marching": 25752,
    "Ġhud": 10822,
    "Ġsustaining": 25333,
    "Ġbeside": 5192,
    "Ġsprings": 16687,
    "Ġcriminal": 7537,
    "Ġseals": 11695,
    "Ġscaling": 3634,
    "Ġgiving": 4086,
    "Ġunbelief": 22044,
    "Ġsoles": 22082,
    "Ġflavor": 16249,
    "Ġburnt": 9927,
    "Ġpremium": 23902,
    "Ġtranquillize": 24757,
    "Ġcomposed": 8891,
    "Ġorgan": 2505,
    "taken": 7560,
    "Ġdigress": 24648,
    "Ġbreadth": 10563,
    "Ġresearches": 13129,
    "Ġmount": 7362,
    "Ġresolutely": 14609,
    "Ġparallel": 1415,
    "Ġfetched": 24567,
    "sailing": 14713,
    "rendered": 22338,
    "compan": 7301,
    "Ġconsists": 11976,
    "console": 22468,
    "Ġspoiled": 11363,
    "Ġtun": 5998,
    "Ġherb": 15854,
    "makes": 10711,
    "Ġhedgehogs": 25394,
    "Ġpassionately": 16764,
    "Ġfloating": 6604,
    "achment": 5464,
    "Ġtucked": 12390,
    "henomen": 10494,
    "Ġplied": 22595,
    "Ġpalaces": 24090,
    "ogany": 18675,
    "Ġim": 475,
    "itia": 11578,
    "ĠĠĠĠĠĠĠĠĠĠĠĠĠĠĠĠĠĠĠĠĠĠĠĠĠĠĠĠĠĠĠĠĠĠĠĠĠĠĠĠĠĠĠĠ": 12151,
    "Ġaid": 6122,
    "ğ": 224,
    "Ġcosmetic": 23472,
    "Ġhateful": 19712,
    "mblance": 7323,
    "reflections": 24735,
    "Ġnumbers": 2887,
    "companion": 9557,
    "usation": 18396,
    "icip": 6389,
    "tracks": 19637,
    "Ġpolitics": 19223,
    "rix": 1570,
    "ognit": 19209,
    "urg": 8141,
    "Â·": 21148,
    "Ġhero": 5715,
    "greg": 6647,
    "Ġdecl": 3592,
    "Ġaloof": 21782,
    "ith": 330,
    "lude": 6161,
    "Ġmil": 4255,
    "Ġaromatic": 25925,
    "ww": 10737,
    "cific": 10085,
    "Ġsituated": 9447,
    "Ġcusack": 26433,
    "Ġscreaming": 13422,
    "cases": 12445,
    "ĠĠĠĠĠĠĠĠĠĠĠĠĠĠĠĠĠĠĠĠĠĠĠĠĠĠĠĠĠĠĠĠĠĠĠĠĠĠĠĠĠ": 19581,
    "Ġrug": 16155,
    "Ġobeyed": 12214,
    "Ġleeward": 6210,
    "crucible": 24842,
    "Ġnerve": 16339,
    "smiled": 16614,
    "Ġchemical": 10410,
    "Ġstrict": 7222,
    "poster": 11055,
    "ellation": 12747,
    "dissemble": 23492,
    "Ġdespise": 14665,
    "Ġfrost": 6095,
    "Ġcrescentic": 20619,
    "Ġpaths": 2571,
    "ellations": 21941,
    "Ġmantelpiece": 15206,
    "Ġhence": 4989,
    "encyclopÃ¦dia": 16663,
    "comparison": 25840,
    "prow": 15410,
    "ority": 8417,
    "Ġsteelkilt": 5675,
    "<UNK>": 3,
    "deceit": 25556,
    "complexion": 14360,
    "Ġbewit": 15725,
    "Ġnaturalist": 22885,
    "ective": 18174,
    "Ġcommon": 1414,
    "abated": 14019,
    "Ġkl": 2739,
    "remorse": 14466,
    "mix": 20973,
    "Ġdismasted": 15250,
    "Ġenvelope": 7319,
    "Ġ183": 13236,
    "crazy": 24691,
    "Ġwatchman": 23668,
    "Ġtyros": 26101,
    "Ġser": 1673,
    "commendation": 26348,
    "sweetly": 25134,
    "Ġgross": 11624,
    "bitts": 26122,
    "Ġprophetic": 20018,
    "doom": 23375,
    "Ġable": 3080,
    "Ġfraud": 19043,
    "Ġfurther": 1055,
    "54": 15298,
    "obtained": 23093,
    "Ġstre": 2109,
    "Ġgardener": 19134,
    "early": 20117,
    "occurred": 13336,
    "Ġwalked": 3140,
    "abiding": 21790,
    "Ġportions": 19367,
    "illing": 8174,
    "Ġyet": 1027,
    "tro": 15432,
    "Ġagricultural": 26550,
    "Ġdevout": 14325,
    "idual": 1556,
    "Ġinformation": 1049,
    "sole": 6168,
    "Ġtoken": 2038,
    "Ġbowsprit": 16559,
    "Ġdol": 9664,
    "Ġhogarth": 25780,
    "usion": 3301,
    "Ġunaccount": 22022,
    "Ġwholesome": 16004,
    "est": 502,
    "zes": 11548,
    "ason": 1282,
    "itement": 7835,
    "Ġadviser": 25312,
    "loved": 14250,
    "Ġcelestial": 10066,
    "related": 24009,
    "llable": 6879,
    "Ġnodded": 11968,
    "uiperai": 10663,
    "sentence": 2939,
    "Ġmovable": 22432,
    "Ġsumat": 14129,
    "Ġchorus": 10946,
    "mat": 2200,
    "Ġ$": 21149,
    "Ġbrass": 11048,
    "Ġinferences": 17934,
    "Ġworshipper": 25692,
    "Ġcounty": 9030,
    "Ġher": 427,
    "Ġ199": 3009,
    "ines": 664,
    "Ġempty": 5353,
    "Ġexplanations": 15908,
    "jet": 13741,
    "Ġbird": 3758,
    "Ġard": 5164,
    "ns": 751,
    "endure": 22222,
    "mme": 22497,
    "Ġbasis": 16961,
    "Ġwand": 4343,
    "Ġbanish": 15567,
    "Ġply": 21451,
    "Ġlogical": 14486,
    "season": 14033,
    "Ġirrad": 19093,
    "batch": 1983,
    "Ġboomer": 20166,
    "inte": 5144,
    "Ġcru": 2825,
    "rest": 1632,
    "Ġsuavely": 26523,
    "Ġpleaded": 16297,
    "Ġroving": 22399,
    "Ġwhit": 7177,
    "Ġbag": 5699,
    "Ġwearer": 21920,
    "Ġcocked": 12901,
    "ethics": 8877,
    "sword": 10726,
    "Ġfriesland": 26442,
    "rant": 11516,
    "Ġchamois": 16800,
    "Ġthack": 21514,
    "didst": 19347,
    "grounds": 11151,
    "obstructed": 15225,
    "harbors": 20147,
    "stall": 21643,
    "Ġage": 3896,
    "pleased": 8853,
    "Ġsight": 2113,
    "Ġriots": 23890,
    "agony": 14068,
    "Ġsallow": 12533,
    "Ġlivid": 14988,
    "¢": 100,
    "Ġbiggest": 24566,
    "icked": 10332,
    "Ġembraces": 19871,
    "ored": 3895,
    "mention": 7214,
    "Ġfeed": 2130,
    "Ġperfections": 23607,
    "resting": 23235,
    "Ġrises": 9712,
    "Ġattained": 14077,
    "Ġexeget": 24085,
    "Ġpossibly": 4515,
    "taining": 7206,
    "Ġschool": 5512,
    "Ġcontent": 5034,
    "Ġexpired": 18623,
    "Ġtribes": 20479,
    "methodically": 20663,
    "Ġderive": 10394,
    "innacle": 7519,
    "Ġkindness": 4097,
    "Ġrebounds": 25967,
    "Ġcrozetts": 19628,
    "Ġsharp": 2414,
    "Ġcreatures": 4138,
    "Ġprophet": 7680,
    "Ġ110": 24435,
    "allest": 5485,
    "Ġbestowed": 6593,
    "eleg": 20848,
    "hint": 12473,
    "helmsman": 24287,
    "Ġallow": 1129,
    "Ġmounttop": 19976,
    "floating": 12225,
    "mistake": 24529,
    "aisance": 15073,
    "Ġstoper": 14462,
    "Ġinterruption": 9472,
    "Ġshapes": 14108,
    "Ġestate": 6316,
    "Ġoverheard": 11769,
    "ifferent": 4263,
    "Ġanticip": 7507,
    "Ġcitadel": 25438,
    "Ġchap": 5933,
    "Ġspared": 7892,
    "Ġchapters": 10473,
    "Ġglobu": 23269,
    "west": 10739,
    "Ġdraws": 19434,
    "Ġservants": 6611,
    "Ġdowncast": 18651,
    "onial": 11566,
    "Ġrecovered": 5481,
    "Ġlondon": 2840,
    "code": 15328,
    "Ġneatly": 17016,
    "Ġsubsequently": 16158,
    "Ġdoth": 13907,
    "anyone": 16593,
    "Ġscuttle": 7414,
    "pract": 10119,
    "Ġbachel": 7158,
    "hauled": 20667,
    "Ġpioneer": 17918,
    "Ġpunctual": 17137,
    "itable": 5437,
    "xes": 21139,
    "vine": 10734,
    "overing": 6306,
    "Ġlift": 8810,
    "la": 10705,
    "Ġconsuming": 22789,
    "wag": 21122,
    "Ġphara": 23196,
    "Ġserpents": 13075,
    "Ġrambled": 20167,
    "lorn": 12485,
    "performances": 26006,
    "cence": 9588,
    "Ġbosoms": 16795,
    "Ġaforethought": 25428,
    "reed": 6373,
    "mers": 9610,
    "dignity": 15344,
    "Ġexpedition": 10633,
    "Ġcommence": 6167,
    "oir": 21001,
    "Ġissuing": 16948,
    "Ġincline": 18569,
    "Ġabominable": 12320,
    "Ġbegins": 7244,
    "awn": 3834,
    "subs": 14301,
    "aped": 3766,
    "amaz": 21847,
    "sacrifice": 13491,
    "mo": 862,
    "istry": 22106,
    "Ġinexpress": 12632,
    "Ġsmite": 22554,
    "adventures": 20255,
    "brance": 7284,
    "Ġreports": 19084,
    "Ġstalk": 12694,
    "Ġtand": 21159,
    "Ġwouldst": 18499,
    "stranger": 9882,
    "Ġmoonlight": 9957,
    "Ġext": 896,
    "ruct": 688,
    "endom": 15921,
    "avor": 14275,
    "Ġfright": 3797,
    "Ġspeak": 2231,
    "Ġhardy": 8565,
    "Ġcombing": 22832,
    "races": 21627,
    "Ġarising": 10933,
    "Ġcra": 2334,
    "Ġascertained": 25296,
    "Ġhop": 1461,
    "Ġhead": 1125,
    "Ġtechni": 1736,
    "Ġplain": 2819,
    "Ġdesmarest": 22976,
    "Ġtragedy": 10667,
    "Ġsine": 10763,
    "Ġuninjured": 22051,
    "Ġcloudy": 19475,
    "bow": 5424,
    "Ġshroud": 6483,
    "Ġjustly": 11901,
    "Ġadvertising": 25389,
    "requent": 3652,
    "Ġincrust": 22547,
    "Ġtrem": 6659,
    "evade": 24820,
    "Ġrespectively": 23247,
    "Ġloth": 17965,
    "itate": 6667,
    "Ġgeneva": 5450,
    "Ġthickening": 24021,
    "Ġdistricts": 20262,
    "Ġslapped": 23169,
    "Ġremorselessly": 16967,
    "Ġmich": 21304,
    "Ġaltern": 7394,
    "Ġhurried": 4034,
    "historical": 20464,
    "Ġperceive": 6699,
    "Ġdivergence": 2730,
    "Ġitalian": 12408,
    "eties": 10837,
    "comprehensive": 20625,
    "justine": 7682,
    "carries": 19526,
    "Ġbou": 17852,
    "Ġstables": 23656,
    "Ġnone": 3222,
    "Ġturning": 3327,
    "gressive": 2757,
    "Ġfluid": 11212,
    "Ġextremest": 19193,
    "Ġstool": 14461,
    "solute": 16598,
    "Ġadmin": 23552,
    "Ġperform": 1035,
    "remarks": 23186,
    "deduction": 23556,
    "Ġconstitution": 20107,
    "%": 9,
    "mouse": 15391,
    "iii": 14773,
    "spin": 22728,
    "Ġnobleman": 19390,
    "Ġamongst": 8959,
    "Ġornam": 15862,
    "impotence": 23759,
    "Ġwrinkled": 7264,
    "sweet": 8685,
    "Ġfallen": 5967,
    "ion": 296,
    "ighb": 10423,
    "Ġcandles": 9907,
    "Ġtendons": 19807,
    "Ġabstained": 25231,
    "Ġhunks": 18935,
    "goin": 23401,
    "Ġdodge": 19885,
    "Ġpay": 3964,
    "Ġlest": 6395,
    "Ġladen": 19176,
    "xi": 17710,
    "Ġcamp": 9164,
    "Ġyoungster": 23177,
    "Ġsurprising": 14597,
    "Ġpanther": 16819,
    "jammed": 25906,
    "Ġch": 513,
    "Ġviv": 6156,
    "Ġnantucket": 2839,
    "Ġstro": 4596,
    "Ġdoor": 1739,
    "dham": 20829,
    "enterprise": 24992,
    "bourgh": 19103,
    "Ġexped": 7650,
    "childhood": 16868,
    "Ġgunw": 6212,
    "fear": 8513,
    "ĠĠĠĠĠ": 3529,
    "Ġpolite": 9881,
    "urean": 18122,
    "partner": 19220,
    "seem": 10227,
    "Ġmeantime": 6206,
    "Ġmotions": 8280,
    "became": 10514,
    "oforte": 14286,
    "maritime": 24173,
    "perseus": 26005,
    "Ġforemost": 12003,
    "Ġiteratively": 3056,
    "hunters": 16833,
    "Ġknown": 1642,
    "thirds": 25046,
    "Ġconvert": 11841,
    "Ġdissipate": 13632,
    "distressed": 24199,
    "Ġchar": 1704,
    "Ġdecorated": 22456,
    "Ġselecting": 16684,
    "Ġexterior": 19986,
    "stays": 15686,
    "Ġmissed": 8555,
    "Ġtranslates": 12049,
    "Ġint": 410,
    "Ġ1839": 20458,
    "Ġcraggy": 23529,
    "Ġscotch": 12207,
    "isure": 6240,
    "Ġstabbed": 25456,
    "iors": 9125,
    "Ġspires": 11729,
    "bennet": 5352,
    "uttering": 12659,
    "pitchpoling": 25725,
    "educated": 17259,
    "Ġlace": 13948,
    "elopement": 23146,
    "indebted": 26158,
    "Ġhare": 5157,
    "naturedly": 24840,
    "Ġquebec": 24133,
    "Ġexcess": 3343,
    "Ġencamped": 22799,
    "Õ": 150,
    "land": 1528,
    "ch": 321,
    "traced": 19636,
    "frightened": 17195,
    "Ġgilt": 21603,
    "Ġstrung": 22615,
    "Ġsympathise": 16794,
    "lighter": 20958,
    "Ġpeeling": 22689,
    "repeat": 25151,
    "ward": 706,
    "Ġblush": 14400,
    "Ġindebted": 8707,
    "Ġuncommonly": 7759,
    "Ġpitches": 23899,
    "Ġbridegroom": 10604,
    "izar": 14049,
    "rot": 21529,
    "Ġsash": 17754,
    "Ġangry": 5498,
    "pe": 1437,
    "Ġconcealing": 23900,
    "Ġsevere": 6031,
    "aiian": 23591,
    "Ġmob": 16015,
    "handle": 11191,
    "Ġmunro": 25630,
    "Ġunequal": 14841,
    "gress": 2216,
    "Ġobjection": 6585,
    "Ġdemo": 10879,
    "Ġpoison": 7219,
    "Ġimpressions": 9552,
    "Ġsanct": 15062,
    "Ġsaves": 18324,
    "magnificent": 20273,
    "Ġshield": 21996,
    "precedented": 15173,
    "Ġkent": 6691,
    "Ġahoy": 12182,
    "Ġspind": 18307,
    "oked": 4309,
    "_--": 20761,
    "Ġpushed": 5909,
    "Ġartful": 22608,
    "improve": 15709,
    "constantly": 24606,
    "Ġindustry": 18837,
    "warrior": 24798,
    "Ġstun": 11649,
    "Ġrelev": 1715,
    "commodore": 20624,
    "bergen": 14326,
    "Ġslashing": 23168,
    "Ë": 140,
    "Ġpossession": 5589,
    "Ġowners": 7662,
    "Ġgambler": 26190,
    "Ġugliness": 20425,
    "Ġcocksure": 26258,
    "Ġcomrade": 12281,
    "Ġdipping": 15589,
    "izings": 14050,
    "arab": 21439,
    "Ġmelbourne": 24289,
    "Ġharry": 24571,
    "Ġcompromised": 22568,
    "eminently": 25105,
    "ificial": 609,
    "Ġdistraction": 22502,
    "Ġfeelings": 2454,
    "alleled": 14428,
    "Ġscal": 1575,
    "Ġliver": 14227,
    "perfect": 7634,
    "Ġensu": 7874,
    "Ń": 260,
    "Ġapproved": 16031,
    "Ġvaults": 17153,
    "wis": 12516,
    "Ġrainbows": 19647,
    "Ġbullion": 24983,
    "Ġchiselled": 25559,
    "uries": 6147,
    "osque": 22259,
    "Ġpermission": 9278,
    "Ġadjusted": 23459,
    "Ġrover": 18455,
    "Ġemblazonings": 26043,
    "Ġconstrained": 19238,
    "ilingly": 21720,
    "ingu": 2122,
    "Ġacknowledge": 13401,
    "Ġdisciple": 22777,
    "Ġrecurred": 18977,
    "pounds": 21024,
    "Ġuninhabited": 22046,
    "du": 604,
    "Ġboards": 14299,
    "public": 17646,
    "Ġconjectured": 9996,
    "Ġbackgammon": 22660,
    "patter": 4144,
    "Ġsufficiently": 8973,
    "Ġisolation": 17150,
    "Ġreject": 7386,
    "Ġstatements": 7516,
    "Ġarsacides": 17293,
    "bable": 8718,
    "Ġsolic": 7932,
    "uarded": 21104,
    "Ġcomplained": 16998,
    "Ġunduly": 25994,
    "Ġdedicated": 19255,
    "onze": 21254,
    "scure": 22985,
    "Ġscre": 9736,
    "Ġseaport": 20598,
    "cous": 8721,
    "Ġsell": 7825,
    "Ġgest": 8133,
    "Ġsublim": 19965,
    "Ġcunning": 6238,
    "Ġdisinclination": 22533,
    "higher": 20405,
    "Ġfarm": 7840,
    "Ġoccupy": 14730,
    "Ġstated": 9688,
    "Ġpersist": 16271,
    "perpetually": 20510,
    "Ġimbu": 15889,
    "Ġpupp": 10820,
    "Ġque": 4160,
    "Ġwhispers": 14699,
    "Ġfootpath": 19337,
    "Ġfountains": 13502,
    "Ġsyn": 15911,
    "Ġlayers": 816,
    "Ġbrewed": 23344,
    "acked": 10974,
    "Ġconstitutes": 13551,
    "neighboring": 20615,
    "Ġtide": 6658,
    "Ġcas": 8410,
    "page": 13770,
    "Ġimmut": 13296,
    "Ġlanes": 19764,
    "Ġcounties": 23302,
    "Ġsheer": 14150,
    "ackinaw": 22419,
    "Ġexclaimed": 4683,
    "Ġfemales": 14936,
    "Ġoakum": 16934,
    "Ġindisc": 16226,
    "Ġpea": 14316,
    "Ġplayers": 12036,
    "Ġexercise": 8358,
    "Ġevident": 6612,
    "Ġheat": 5453,
    "Ġexhaust": 6399,
    "ldog": 21914,
    "lo": 680,
    "Ġgas": 8132,
    "Ġunaffected": 14121,
    "Ġarchbishop": 18715,
    "Ġkrempe": 10669,
    "Ġsolicited": 20035,
    "Ġbush": 23335,
    "Ġcontrivances": 12355,
    "running": 6797,
    "preser": 9759,
    "Ġor": 437,
    "Ġslight": 3119,
    "Ġanatomy": 12318,
    "Ġloom": 7628,
    "Ġuncle": 3190,
    "Ġlock": 5927,
    "Ġhogshead": 26367,
    "Ġlicensing": 20091,
    "Ġtuesday": 9626,
    "Ę": 217,
    "Ġrevolve": 19729,
    "alous": 7372,
    "tolerable": 17688,
    "Ġancho": 15600,
    "prises": 23811,
    "Ġstockings": 19995,
    "aved": 5475,
    "Ġpatroness": 13509,
    "ev": 6952,
    "Ġgrievous": 13260,
    "Ġrevolt": 24504,
    "Ġprogrammed": 11058,
    "guilty": 19481,
    "pped": 1999,
    "Ġdismally": 20213,
    "Ġcolumb": 22853,
    "ources": 2790,
    "ard": 465,
    "footman": 17162,
    "ilations": 21719,
    "Ġinterchange": 16069,
    "income": 15485,
    "Ġseverity": 15818,
    "í": 174,
    "police": 10583,
    "Ġcolder": 22851,
    "brother": 7091,
    "hunter": 10555,
    "renewed": 19703,
    "droppers": 24759,
    "teeth": 10355,
    "letter": 6201,
    "Ġwager": 17792,
    "iled": 1765,
    "inqu": 6121,
    "Ġenemy": 5605,
    "security": 26206,
    "Ġplacid": 11824,
    "Ġharvard": 24573,
    "Ġglared": 13015,
    "Ġsadder": 24048,
    "omen": 4087,
    "Ġunrem": 18244,
    "Ġlane": 5627,
    "_âĢĿ": 20760,
    "Ġby": 383,
    "class": 4096,
    "Ġcertainly": 2500,
    "inct": 3293,
    "Ġthick": 3783,
    "res": 2762,
    "condescended": 26248,
    "tumultuously": 25613,
    "ergy": 2362,
    "Ġarticles": 7108,
    "Ġannouncing": 16754,
    "ivial": 15857,
    "writes": 4988,
    "Ġasph": 21895,
    "Ġdiligent": 25075,
    "Ġtokens": 1772,
    "Ġwoll": 21292,
    "belled": 24033,
    "Ġalong": 1979,
    "Ġtrifles": 16951,
    "Ġflow": 1236,
    "Ġwhitt": 18054,
    "Ġsymptom": 13482,
    "Ġassu": 21894,
    "Ġdone": 1818,
    "Ġrighted": 23176,
    "alterable": 13623,
    "scenes": 16242,
    "suggest": 20374,
    "rist": 10122,
    "floated": 24643,
    "Ġade": 22101,
    "Ġretrogression": 26581,
    "ises": 3656,
    "questioning": 16850,
    "Ġplata": 25117,
    "enchant": 21282,
    "gg": 1997,
    "cont": 2921,
    "mayhew": 23989,
    "scorched": 25697,
    ",âĢĶ": 3169,
    "recl": 15509,
    "effect": 8603,
    "Ġfaster": 3195,
    "paying": 25411,
    "Ġalready": 2715,
    "Ġpole": 6433,
    "Ġaccursed": 9446,
    "fowl": 17549,
    "Ġcivilized": 8664,
    "anxiously": 15109,
    "Ġindelicacy": 25695,
    "Ġtravell": 5576,
    "Ġprognostics": 20557,
    "Ġproc": 5545,
    "ornament": 23488,
    "Ġtiara": 26415,
    "Ġstops": 3165,
    "Ġuneasiness": 9483,
    "Ġadd": 630,
    "Ġthomas": 17947,
    "Ġdrooping": 9419,
    "Ġmira": 8406,
    "ozy": 17622,
    "Ġblinding": 14727,
    "venerable": 26408,
    "Ġsal": 3938,
    "whence": 23213,
    "Ġwere": 556,
    "Ġardently": 9497,
    "Ġcorpora": 26580,
    "Ġwes": 8778,
    "confl": 22466,
    "uce": 11535,
    "Ġbristles": 25843,
    "latitudes": 17196,
    "Ġwaited": 4908,
    "Ġtwins": 16118,
    "Ġtearless": 24786,
    "Ġelusive": 22644,
    "Ġmagnified": 23200,
    "Ġalfred": 21783,
    "Ġener": 10896,
    "Ġtakes": 5007,
    "Ġintroduce": 3204,
    "Ġbridges": 24682,
    "Ġcedar": 15187,
    "Ġbestir": 13108,
    "hence": 16624,
    "Ġauger": 21202,
    "Ġpale": 4533,
    "secut": 7866,
    "Ġmay": 925,
    "Ġnumerous": 6920,
    "trade": 19635,
    "Ġlabours": 8582,
    "Ġsobbed": 14136,
    "Ġcoldness": 23757,
    "Ġrecursive": 4782,
    "Ġcharley": 19005,
    "Ġlamentations": 17076,
    "sensations": 20049,
    "Ġsucceeded": 6105,
    "iciously": 17973,
    "Ġgems": 9208,
    "Ġstumble": 26482,
    "Ġsquat": 14366,
    "irited": 15784,
    "motives": 26137,
    "alloyed": 22198,
    "make": 5793,
    "treasures": 26152,
    "endous": 6850,
    "Ġlonging": 14298,
    "Ġenthus": 7232,
    "Ġprinciple": 6770,
    "itted": 2441,
    "9": 29,
    "Ġventing": 19492,
    "fugitive": 26131,
    "Ġthoroughfare": 16944,
    "Ġfrigid": 17352,
    "Ġscrews": 25177,
    "Ġlabeled": 3719,
    "better": 7119,
    "idered": 4554,
    "Ġconcentration": 25062,
    "------": 12131,
    "until": 6596,
    "Ġellenborough": 26154,
    "Ġusher": 22219,
    "Ġrehearsed": 25971,
    "Ġneskye": 21528,
    "Ġtelescopes": 25690,
    "Ġbackward": 7654,
    "Ġsigns": 2442,
    "Ġtissu": 25920,
    "Ġreserve": 9970,
    "Ġpips": 9843,
    "hold": 3985,
    "ternatural": 12712,
    "Ġrefusing": 11028,
    "ern": 762,
    "pinn": 21025,
    "Ġmish": 15535,
    "aloud": 17940,
    "increasing": 20268,
    "hus": 5072,
    "]]": 5205,
    "Ġargue": 16783,
    "Ġbohemia": 10649,
    "Ġavowal": 19413,
    "Ġslip": 8954,
    "onent": 21247,
    "eluded": 21572,
    "Ġtener": 21162,
    "Ġholidays": 22918,
    "Ġspurn": 18309,
    "Ġwhim": 13998,
    "Ġrim": 21962,
    "Ġbraved": 23835,
    "Ġpaddock": 25037,
    "cus": 3983,
    "uit": 8392,
    "Ġkuiperai": 10935,
    "Ġclapping": 14206,
    "Ġgoes": 3852,
    "Ġwooing": 19432,
    "vings": 9750,
    "beh": 5472,
    "Ġgazette": 19499,
    "Ġlirra": 21557,
    "iature": 8741,
    "Ġhostile": 19938,
    "Ġinflu": 4909,
    "heartedness": 24827,
    "Ġhindoo": 17175,
    "thought": 3848,
    "Ġvigorously": 11299,
    "Ġspecial": 2102,
    "Ġwarmly": 8987,
    "Ġpurch": 6599,
    "conve": 14243,
    "sorts": 21059,
    "Ġconstables": 19072,
    "Ġopportunities": 19247,
    "actions": 8906,
    "atived": 21261,
    "igate": 8822,
    "Ġwithhold": 18115,
    "Ġsuggestion": 19706,
    "Ġsee": 803,
    "Ġwrench": 12554,
    "desired": 8956,
    "Ġacre": 22678,
    "cried": 8724,
    "Ġmassive": 9931,
    "Ġgurglings": 26465,
    "Ġassist": 3567,
    "month": 6463,
    "avenza": 17104,
    "Ġrue": 11865,
    "tribute": 21087,
    "Ġwarn": 5695,
    "Ġunnatural": 7190,
    "unching": 18158,
    "Ġentrapped": 26262,
    "Ġmajesty": 5201,
    "Ġostrich": 26430,
    "Ġ(": 594,
    "Ġconnexion": 11454,
    "Ġprocured": 8676,
    "ress": 930,
    "cake": 20803,
    "Ġshows": 8482,
    "kitty": 10105,
    "Ġgiddy": 20495,
    "married": 9948,
    "ket": 17582,
    "flowing": 14571,
    "Ġincome": 7916,
    "resembling": 25932,
    "Ġrelief": 6059,
    "analysis": 26173,
    "zza": 24167,
    "Ġcontrived": 10303,
    "ands": 21863,
    "Ġshared": 10263,
    "Ġbi": 921,
    "iam": 2511,
    "owl": 12681,
    "impress": 18051,
    "som": 3292,
    "breakfast": 8687,
    "sive": 4145,
    "Ġindies": 22948,
    "Ġfugitives": 25634,
    "impat": 11202,
    "Ķ": 247,
    "Ġrouse": 15819,
    "couldn": 23716,
    "Ġultimately": 17164,
    "usations": 15940,
    "Ġstraining": 11327,
    "Ġlingered": 13504,
    "extremely": 26263,
    "ided": 2786,
    "Ġprecautions": 23725,
    "Ġpalsy": 25778,
    "Ġgruff": 21611,
    "Ġdeeps": 16102,
    "Ġequ": 1732,
    "Ġdrawn": 4276,
    "Ġdanes": 25156,
    "Ġbefriend": 18081,
    "Ġreverend": 15258,
    "Ġshaded": 14104,
    "ĠĠĠĠĠĠĠĠĠĠĠĠĠĠĠĠĠĠĠĠĠĠĠĠĠĠĠĠĠĠĠĠĠ": 12040,
    "Ġrustling": 24715,
    "tarpaul": 21096,
    "Ġwool": 19431,
    "Ġdejection": 15195,
    "Ġgratitude": 5599,
    "Ġannoyed": 17199,
    "collar": 19327,
    "Ġconvalescence": 23744,
    "remained": 8569,
    "Ġaccumulated": 11929,
    "Ġoff": 903,
    "Ġexhibition": 14956,
    "Ġencounter": 6627,
    "Ġstill": 1157,
    "resembled": 21245,
    "waiter": 24586,
    "unusually": 15777,
    "soled": 14330,
    "Ġdegenerated": 20504,
    "urrection": 12407,
    "chiefly": 14845,
    "ario": 14247,
    "advice": 12155,
    "Ġprimary": 25060,
    "ilburn": 18059,
    "Ġallen": 5160,
    "reputation": 15514,
    "dilig": 17282,
    "ð": 177,
    "Ġwindward": 6885,
    "Ġpeddling": 24799,
    "Ġshot": 4545,
    "Ġwhalers": 8047,
    "Ġaccompany": 9486,
    "Ġvoluntary": 14798,
    "Ġmaxim": 3084,
    "Ġtradeoff": 2658,
    "happening": 16563,
    "Ġtarts": 10753,
    ",âĢĿ": 580,
    "Ġpursued": 6328,
    "Ġhellish": 10550,
    "marks": 7346,
    "Ġspinning": 15052,
    "Ġwho": 613,
    "Ġtowing": 9193,
    "Ġdoors": 6418,
    "Ġnarrowed": 24355,
    "Ġste": 1389,
    "mitting": 17602,
    "Ġrealistic": 5860,
    "apan": 6860,
    "text": 1973,
    "Ġespe": 21154,
    "Ġlamps": 14789,
    "having": 5211,
    "Ġmccarthy": 5145,
    "Ġlord": 2967,
    "Ġman": 544,
    "Ġdocumentation": 20553,
    "Ġspectacles": 12095,
    "Ġcosmopol": 16454,
    "Ġchildish": 13136,
    "swe": 5995,
    "Ġghostliness": 24651,
    "Ġsingers": 23770,
    "Ġheaped": 18037,
    "Ġdupl": 9953,
    "Ġstumbling": 21739,
    "Ġsaxe": 13627,
    "Ġtwinkling": 12322,
    "Ġparagra": 15877,
    "Ġliving": 3062,
    "Ġcounted": 12137,
    "Ġwreat": 15529,
    "Ġnothing": 1357,
    "Ġsinew": 25431,
    "Ġdistributing": 22676,
    "Ġexercised": 24803,
    "Ġcurving": 16232,
    "Ġdreaded": 8288,
    "Ġassuredly": 14821,
    "Ġimply": 18443,
    "Ġwickedness": 9525,
    "Ġoccasions": 7987,
    "Ġvanished": 6874,
    "Ġwire": 13851,
    ";--": 8068,
    "_;": 6640,
    "Ġtradesmen": 17105,
    "Ġ64": 24367,
    "Ġpricking": 23222,
    "limping": 26393,
    "ison": 3074,
    "fiery": 13580,
    "succeed": 10328,
    "astonished": 15032,
    "Ġender": 11689,
    "control": 16542,
    "Ġmassacre": 20546,
    "Ġisinglass": 21799,
    "Ġwaxed": 21296,
    "Ġwithal": 18113,
    "Ġsar": 21212,
    "wife": 8100,
    "Ġcounting": 13094,
    "fortunate": 4792,
    "threw": 21981,
    "Ġgroping": 13664,
    "know": 2321,
    "mag": 6508,
    "Ġplying": 17913,
    "Ġhandsome": 4906,
    "Ġrecesses": 17260,
    "adie": 18088,
    "nez": 22458,
    "Ġprem": 3428,
    "Ġdigesting": 19808,
    "Ġalps": 10870,
    "Ġdispatched": 23879,
    "Ġjudiciously": 23876,
    "Ġnuptial": 25782,
    "Ġ34": 16677,
    "Ġmor": 1246,
    "Ġalleg": 14016,
    "Ġnurse": 9516,
    "lev": 1233,
    "21": 10071,
    "centre": 17087,
    "renadier": 18420,
    "Ġpainting": 13140,
    "Ġix": 12665,
    "tashtego": 9622,
    "Ã¦st": 24175,
    "Ġcastle": 14716,
    "Ġmid": 2616,
    "Ġdespaired": 14668,
    "Ġtrying": 4838,
    "Ġpowers": 5419,
    "Ġleaders": 16627,
    "Ġrecollection": 6620,
    "Ġintermix": 22574,
    "Ġstraggling": 23749,
    "adv": 4538,
    "wr": 3027,
    "Ġcomplaints": 12262,
    "Ġpods": 17914,
    "Ġbathe": 25443,
    "Ġantiqu": 12142,
    "angu": 563,
    "Ġjames": 6419,
    "Ġlegitimate": 20641,
    "impropriety": 21710,
    "Ġextensive": 12941,
    "ps": 4575,
    "cupboards": 25401,
    "Ġfashionable": 19543,
    "Ġreturning": 5325,
    "Ġlassitude": 20585,
    "het": 5435,
    "Ġapology": 8327,
    "ounders": 22390,
    "iel": 11493,
    "prof": 7698,
    "Ġflower": 16229,
    "whiteness": 18370,
    "ak": 538,
    "tempt": 21078,
    "likewise": 13104,
    "ave": 976,
    "igned": 5656,
    "Ġplough": 18608,
    "Ġturned": 2135,
    "ser": 1425,
    "sings": 4252,
    "accustomed": 13156,
    "ulence": 15763,
    "Ġmogul": 12859,
    "Ġfoolishly": 19781,
    "Ġunspeakably": 25172,
    "Ġgobern": 22422,
    "glue": 17556,
    "patient": 25342,
    "Ġstriking": 6088,
    "ney": 2496,
    "Ġsp": 458,
    "Ġexhaled": 19681,
    "locks": 14455,
    "sford": 5997,
    "queens": 22906,
    "delay": 16698,
    "Ġw": 272,
    "tram": 19634,
    "Ġtenderness": 12213,
    "Ġpolic": 13160,
    "ched": 1542,
    "univers": 15769,
    "Ġdecomposition": 5342,
    "Ġvex": 5948,
    "built": 16825,
    "Ô": 149,
    "Ġ54": 24322,
    "Ġpleasanter": 19067,
    "Ġanom": 12608,
    "decoder": 3646,
    "Ġannotations": 25954,
    "bears": 22487,
    "Ġillustration": 19135,
    "Ġhorseman": 19606,
    "Ġwreaths": 25937,
    "passion": 11260,
    "Ġintroduces": 3269,
    "Ġbigot": 24565,
    "chard": 21684,
    "Ġmakes": 3654,
    "Ġgown": 10201,
    "icult": 3342,
    "Ġlovely": 4710,
    "Ġsant": 21213,
    "loun": 17588,
    "Ġhurts": 19111,
    "Ġhappening": 14382,
    "Ġaut": 1797,
    "begging": 22494,
    "idirection": 2411,
    "recognised": 15261,
    "penetrating": 25490,
    "Ġprints": 16330,
    "fordshire": 4677,
    "Ġeleventh": 23367,
    "Ġwinter": 5220,
    "Ġdefiance": 11068,
    "Ġstation": 5297,
    "Ġgree": 7594,
    "teen": 6370,
    "achus": 18283,
    "Ġriggers": 24156,
    "Ġbeth": 9657,
    "Ġlonger": 3360,
    "Ġsmokes": 22556,
    "Ġwast": 21857,
    "precious": 12070,
    "opposition": 24823,
    "gging": 7696,
    "Ġside": 1387,
    "Ġconsequence": 5542,
    "Ġbuck": 7157,
    "Ġoccurrences": 11050,
    "Ġboone": 11838,
    "lung": 17591,
    "Ġmarchant": 14784,
    "province": 26072,
    "Ġsap": 18323,
    "Ġlunatic": 24990,
    "Ġsche": 1705,
    "ois": 9134,
    "Ġheavier": 13101,
    "Ġcoffins": 13250,
    "Ġasks": 5115,
    "rimsh": 17027,
    "application": 12361,
    "Ġimpertinence": 11366,
    "Ġpartake": 18670,
    "Ġlabelled": 23328,
    "Ġtheatre": 21277,
    "Ġpowder": 11275,
    "Ġturbid": 23610,
    "Ġhysterical": 26092,
    "avoid": 9304,
    "Ġvainly": 9923,
    "fatigue": 20657,
    "plumed": 21952,
    "Ġimprudence": 10294,
    "Ġsluggishly": 25891,
    "Ġcetacea": 20552,
    "Ġapprovingly": 26250,
    "Ġemptied": 24347,
    "Ġdumbly": 24985,
    "Ġoccurs": 1860,
    "Ġkeenly": 9484,
    "Ġcommit": 18654,
    "izard": 10883,
    "Ġprofuse": 23565,
    "Ġwarnings": 16881,
    "warmest": 25027,
    "tha": 15821,
    "Ġthird": 4187,
    "par": 1842,
    "Ġevangel": 11280,
    "ercely": 12547,
    "ras": 21035,
    "Ġroods": 22400,
    "Ġseparated": 9464,
    "ķ": 248,
    "Ġeulogy": 26470,
    "----âĢĻ": 24096,
    "Ġboisterously": 25682,
    "Ġindistinct": 17407,
    "wise": 2576,
    "Ġspite": 4157,
    "nable": 13761,
    "Ġdoubled": 19641,
    "Ġscrape": 14917,
    "hereabouts": 23605,
    "cement": 2900,
    "irksome": 18172,
    "Ġperpendicularly": 11374,
    "Ġnur": 5710,
    "Ġfinally": 4667,
    "Ġgeorgiana": 8625,
    "Ġinterrupted": 6343,
    "Ġeloped": 22643,
    "neglected": 25669,
    "rights": 23674,
    "Ġetern": 7085,
    "distinct": 13334,
    "miss": 3172,
    "Ġwintry": 17433,
    "Ġnautical": 17385,
    "encountered": 20391,
    "thankful": 16806,
    "Ġfrequent": 3287,
    "Ġrueful": 25581,
    "Ġwooded": 23519,
    ">": 34,
    "oman": 2018,
    "Ġfrightful": 7735,
    "Ġoverspread": 14202,
    "foreseen": 14253,
    "Ġinsulated": 23679,
    "fin": 5209,
    "Ġhelped": 7459,
    "jo": 3753,
    "Ġschedu": 1825,
    "lording": 24047,
    "thar": 18217,
    "Ġhaunted": 10253,
    "gate": 12464,
    "Ġceiling": 7996,
    "Ġsuperst": 7703,
    "Ġbequest": 21750,
    "Ġchoice": 2167,
    "all": 485,
    "Ġverses": 17063,
    "Ġexulting": 20257,
    "Ġcigaret": 16976,
    "syntax": 5866,
    "Ġcharted": 22247,
    "Ġlegs": 4916,
    "Ġeas": 2354,
    "talking": 10006,
    "Ġarrows": 18343,
    "Ġoccupation": 9930,
    "regularly": 13207,
    "sof": 17657,
    "Ġfrenchman": 11283,
    "burning": 25078,
    "was": 1421,
    "Ġdisorder": 16049,
    "Ġprofundities": 20452,
    "grief": 13730,
    "Ġwonderful": 4564,
    "Ġshrouds": 11344,
    "Ġrecklessly": 16983,
    "Ġastr": 15493,
    "Ġdisgracing": 26255,
    "Ġcostume": 16495,
    ").âĢĿ": 20740,
    "delight": 5344,
    "Ġholding": 4979,
    "intended": 11066,
    "Ġfollowing": 4064,
    "Ġpierced": 12279,
    "destiny": 16702,
    "Ġcircumspection": 25884,
    "flakes": 23965,
    "Ġstrongly": 5657,
    "asion": 5714,
    "herds": 22200,
    "Ġvehic": 8933,
    "but": 592,
    "Ê": 139,
    "Ġsurmised": 24919,
    "supportable": 12368,
    "hosmer": 25902,
    "Ġhaught": 10252,
    "Ġtropics": 17066,
    "mush": 20976,
    "o": 83,
    "Ġdisaster": 12884,
    "Ġawful": 6199,
    "Ġpondering": 17005,
    "glimmer": 26321,
    "Ġstudded": 18966,
    "Ġsea": 1209,
    "Ġbread": 5404,
    "observed": 7674,
    "Ġbeaches": 18084,
    "Ġplowdon": 26447,
    "Ġmatrices": 4969,
    "tort": 17675,
    "Ġheeded": 13402,
    "Ġinvariable": 13455,
    "Ġconfirming": 25321,
    "Ġalacrity": 15734,
    "ineer": 11700,
    "Ġfastening": 16355,
    "Ġaspire": 21897,
    "explanation": 12356,
    "Ġparalle": 1411,
    "Ġalmighty": 18104,
    "cking": 4266,
    "Ġjovial": 19232,
    "matters": 14873,
    "Ġcorrected": 10448,
    "Ġcarry": 4779,
    "Ġbrag": 23831,
    "Ġthrees": 23399,
    "Ġlun": 7855,
    "Ġavowed": 16633,
    "Ġinhabit": 5782,
    "Ġfurlongs": 20722,
    "Ġforegoing": 23450,
    "Ġlifted": 6985,
    "Ġgovernments": 20266,
    "Ġ39": 19488,
    "ributed": 8214,
    "Ġruthless": 15284,
    "Ġhydraul": 9513,
    "Ġreal": 1634,
    "atory": 6125,
    "detached": 19673,
    "Ġcasualty": 20340,
    "wanderer": 25423,
    "aud": 8521,
    "rosc": 17954,
    "Ġhomage": 12353,
    "Ġunbending": 25464,
    "unaccountable": 15776,
    "Ġfearlessness": 19160,
    "smiles": 14692,
    "Ġprow": 6684,
    "complaisance": 24811,
    "Ġphilosoph": 19650,
    "worm": 15452,
    "Ġassembled": 9235,
    "Ġgu": 1327,
    "Ġstoop": 16308,
    "Ġreplying": 19580,
    "reshold": 21238,
    "Ġintently": 8168,
    "susp": 10596,
    "Ġcompliments": 8632,
    "Ġtreats": 19342,
    "Ġperils": 6272,
    "Ġmoul": 15541,
    "commanded": 16988,
    "Ġgrind": 18734,
    "vert": 15712,
    "Ġsugg": 4501,
    "readers": 23845,
    "Ġmusic": 5268,
    "ex": 623,
    "Ġwert": 12553,
    "squee": 15429,
    "Ġlustre": 15133,
    "Ġcommencement": 12236,
    "Ġgrave": 5100,
    "drifting": 19823,
    "Ġthanks": 6707,
    "tales": 17686,
    "returns": 23134,
    "Ġsket": 18727,
    "scales": 22991,
    "sequence": 2856,
    "conject": 8879,
    "Ġsorrowful": 10536,
    "Ġfills": 12591,
    "Ġrecurring": 23231,
    "Ġcountry": 2535,
    "vate": 21108,
    "Ġadvertise": 25388,
    "iard": 9601,
    "Ġarabic": 24978,
    "Ġroaring": 10968,
    "rings": 10722,
    "Ġmembrane": 20502,
    "Ġswimmer": 19457,
    "Ġrepressed": 21665,
    "Ġliberties": 19666,
    "Ġferoc": 14896,
    "rob": 5534,
    "inn": 5363,
    "Ġjewelled": 20182,
    "alt": 12635,
    "omely": 21636,
    "acrity": 14278,
    "Ġmomentarily": 22808,
    "Ġscarce": 8621,
    "compasses": 19456,
    "asing": 5911,
    "esy": 9182,
    "Ġpawnbroker": 13657,
    "Ġmerc": 9425,
    "Ġvulgar": 13603,
    "Ġcascade": 20579,
    "Ġharpoone": 2912,
    "as": 302,
    "urday": 13993,
    "warmly": 25026,
    "Ġhabitual": 24790,
    "Ġdaniel": 15110,
    "ild": 1154,
    "Ġcrushed": 9422,
    "Ġprovinc": 16742,
    "Ġmastery": 23990,
    "Ġoffensive": 18694,
    "deav": 2674,
    "Ġroyal": 5602,
    "Ġponies": 21474,
    "Ġheavily": 6740,
    "less": 928,
    "Ġwakes": 11571,
    "ara": 12603,
    "Ġfake": 5810,
    "Ġcoat": 4555,
    "painter": 24896,
    "Ġpyth": 21459,
    "actorily": 25576,
    "ame": 645,
    "Ġfeelingly": 22994,
    "ascended": 24706,
    "retirement": 23136,
    "Ġbuilding": 8062,
    "Ġinduce": 7762,
    "Ġregion": 2276,
    "Ġhundredth": 16518,
    "yard": 5899,
    "Ġwa": 1754,
    "Ġcurb": 16231,
    "eternal": 17982,
    "Ġlover": 7193,
    "Ġstunsail": 25543,
    "Ġtearing": 14395,
    "Ġhor": 1660,
    "Ġconsider": 2570,
    "Ġcoral": 11920,
    "increase": 20267,
    "Ġunrecord": 16621,
    "prairies": 20565,
    "Ġminded": 23230,
    "Ġflurry": 18860,
    "Ġostent": 13583,
    "Ġpersian": 11086,
    "impe": 21705,
    "mole": 22698,
    "agement": 4188,
    "Ġcharacter": 2795,
    "ĠĠĠĠ": 459,
    "Ġrecovering": 11861,
    "Ġineff": 12631,
    "Ġkentuck": 19890,
    "Ġmechanis": 1242,
    "elson": 16372,
    "iscient": 17851,
    "Ġplaning": 22599,
    "general": 7489,
    "bearer": 18521,
    "ang": 442,
    "iality": 8843,
    "Ġsuffered": 5649,
    "Ġimmovable": 15890,
    "cellar": 20276,
    "Ġwell": 902,
    "Ġsalesman": 13667,
    "Ġexhilar": 19682,
    "Ġdelights": 14596,
    "uses": 11758,
    "Ġpour": 13913,
    "urities": 18048,
    "Ġignoble": 19397,
    "conjectures": 25180,
    "Ġpink": 12615,
    "Ġalley": 15733,
    "sufficiently": 14980,
    "Ġsentences": 2683,
    "constellation": 24607,
    "omics": 21640,
    "Ġhonorable": 16876,
    "rative": 17652,
    "aract": 17894,
    "terr": 8153,
    "more": 1032,
    "Ġculprit": 26172,
    "Ġhow": 596,
    "soup": 21057,
    "Ġonset": 12707,
    "uvier": 9068,
    "Ġattraction": 18619,
    "bildad": 9586,
    "Ġmari": 6813,
    "Ġmonsieur": 12419,
    "Ġcompunction": 18585,
    "Ġliterature": 17148,
    "unks": 15772,
    "doms": 20834,
    "Ġdefray": 22938,
    "Ġroanoke": 22403,
    "soundest": 24797,
    "Ġisn": 7865,
    "Ġresnet": 5473,
    "Ġre": 317,
    "reated": 10302,
    "Ġphrenolog": 12332,
    "Ġcommanding": 16590,
    "Ġfamily": 1965,
    "Ġdreary": 10408,
    "Ġchoke": 22246,
    "Ġdreamt": 23936,
    "Ġconvulsive": 19306,
    "Ġcranes": 20381,
    "Ġbrother": 2752,
    "Ġbeque": 18080,
    "rove": 21530,
    "Ġfab": 15573,
    "Ġshadow": 5596,
    "decan": 22140,
    "prom": 6509,
    "full": 7421,
    "Ġjogged": 26236,
    "Ġmild": 4148,
    "alf": 4639,
    "ulent": 21859,
    "Ġcommerce": 11015,
    "Ġconcoct": 19047,
    "alice": 3207,
    "Ġthw": 21512,
    "sembled": 7263,
    "braces": 24658,
    "understanding": 1137,
    "Ġhood": 10823,
    "older": 15753,
    "Ġactor": 16046,
    "Ġequinoctial": 20531,
    "Ġcouldn": 7648,
    "Ġpreserve": 7529,
    "voyages": 24855,
    "Ġsmiles": 6706,
    "contains": 16028,
    "Ġbrushed": 15568,
    "erness": 6434,
    "Ġcharlotte": 3890,
    "sal": 8757,
    "itiously": 13870,
    "Ġkept": 3347,
    "izzy": 3094,
    "Ġcabinet": 23859,
    "Ġsanguine": 25928,
    "fl": 3602,
    "Ġbusks": 23337,
    "active": 16101,
    "Ġrendering": 16657,
    "condesc": 18503,
    "Ġmel": 4816,
    "Ġgasfitters": 25038,
    "oniously": 21256,
    "oblivious": 26582,
    "Ġram": 11013,
    "Ġhairs": 13229,
    "Ġbarbarously": 24819,
    "Ġ1883": 23894,
    "Ġtags": 20570,
    "scythes": 26402,
    "Ġfate": 4754,
    "u": 89,
    "M": 49,
    "tale": 10127,
    "aphs": 22332,
    "Ġspar": 10922,
    "Ġschoolboys": 24481,
    "gether": 1595,
    "Ġdial": 10810,
    "Ġstrive": 23692,
    "Ġnoting": 18221,
    "Ġparr": 22116,
    "eminent": 25104,
    "Ġkneeling": 12140,
    "Ġpreced": 6039,
    "Ġinfer": 7683,
    "Ġwatery": 6296,
    "ague": 3906,
    "jer": 12478,
    "Ġchips": 14181,
    "etition": 7382,
    "consid": 4924,
    "Ġdescended": 7428,
    "Ġhardest": 18912,
    "Ġbeaut": 2394,
    "silver": 19689,
    "ct": 309,
    "Ġwarrior": 24496,
    "Ġden": 3107,
    "Ġuncont": 14115,
    "Ġprodigiously": 14931,
    "Ġimmeas": 18330,
    "Ġobli": 9315,
    "itarian": 21335,
    "Ġescaping": 13134,
    "Ġdreams": 7496,
    "Ġobstin": 14952,
    "Ġsallied": 12534,
    "Ġunexampled": 20358,
    "Ġpenny": 16312,
    "Ġantique": 19550,
    "Ġvenom": 24238,
    "hamlet": 23260,
    "Ġslopes": 18940,
    "tained": 4407,
    "Ġresolves": 23649,
    "awk": 23111,
    "natured": 7110,
    "salesman": 20670,
    "Ġavoided": 13258,
    "Ġgeometric": 3217,
    "Ġslit": 13054,
    "Ġsign": 2498,
    "scissors": 20726,
    "Ġemaciated": 20637,
    "Ġscene": 3096,
    "etuous": 21580,
    "wing": 2522,
    "Ġdit": 21418,
    "yramid": 8367,
    "Ġloveliness": 13607,
    "Ġexclaiming": 13640,
    "derment": 22158,
    "brew": 11473,
    "Ġanswering": 7477,
    "hills": 13735,
    "biscuit": 17500,
    "Ġdemocracy": 25458,
    "money": 8749,
    "Ġrecord": 5316,
    "Ġlonely": 6823,
    "byter": 16212,
    "Ġwoodcock": 19162,
    "Ġsuperstition": 15054,
    "Ġdirecting": 16298,
    "Ġvagabond": 20202,
    "arabian": 26446,
    "Ġtorn": 5999,
    "Ġcarter": 18900,
    "Ġshoal": 12014,
    "Ġsorts": 6887,
    "Ġmuffled": 10640,
    "t": 88,
    "Ġpreferred": 14965,
    "Ġindignantly": 16939,
    "osition": 1374,
    "rels": 6664,
    "Ġmilan": 19534,
    "strate": 12671,
    "Ġxavier": 2855,
    "cra": 6354,
    "smith": 5669,
    "extraordinary": 9094,
    "Ġhospitals": 24923,
    "Ġspoils": 24808,
    "Ġstreat": 15718,
    "delivered": 24100,
    "Ġthroats": 24575,
    "rown": 2191,
    "Ġexe": 3997,
    "Ġnews": 3819,
    "awful": 23112,
    "herfield": 3632,
    "vi": 2375,
    "acqu": 4842,
    "shall": 4551,
    "Ġlimited": 23544,
    "embarr": 15796,
    "tr": 3582,
    "?--": 15302,
    "Ġsolutions": 1947,
    "whims": 22236,
    "Ġresuming": 12890,
    "Ġilliterate": 26594,
    "Ġel": 802,
    "Ġorphan": 12381,
    "chors": 11643,
    "ets": 1161,
    "Ġmermaids": 26170,
    "Ġexpeditions": 24954,
    "mediterranean": 16402,
    "Ġimpartial": 15218,
    "Ġforgo": 21770,
    "Ġdeserving": 14752,
    "Ġchill": 11750,
    "bottle": 20144,
    "Ġcontention": 22423,
    "Ġconjecture": 9531,
    "irresist": 21909,
    "ning": 949,
    "Ġinjuring": 24268,
    "Ġother": 757,
    "Ġspecimen": 13020,
    "ctors": 21587,
    "Ġheaven": 3365,
    ".}": 20744,
    "ensical": 18567,
    "Ġunwonted": 14124,
    "estab": 14170,
    "epilogue": 22097,
    "Ġtyrant": 24767,
    "anous": 21357,
    "izz": 7614,
    ",âĢĶâĢĺ": 23801,
    "before": 3114,
    "Ġsystemat": 18447,
    "Ġwaking": 11569,
    "Ġbast": 21377,
    "Ġenormousness": 24515,
    "Ġplaying": 6910,
    "Ġinner": 9670,
    "Ġundulating": 19516,
    "shrouded": 26361,
    "Ġducking": 17146,
    "Ġgrassy": 24379,
    "odes": 18116,
    "Ġlobes": 22112,
    "Ġinjuries": 11277,
    "ansion": 10921,
    "Ġlou": 6822,
    "Ġscent": 10285,
    "athans": 7433,
    "Ġrum": 5923,
    "Ġpacing": 8425,
    "ignomin": 23264,
    "declare": 25173,
    "ladder": 19783,
    "planted": 11694,
    "mblings": 19779,
    "Ġhere": 1088,
    "Ġirresistible": 13111,
    "pier": 17635,
    "Ġlashes": 17966,
    "develop": 13517,
    "Ġnarrated": 14870,
    "Ġthistle": 21913,
    "Ġniag": 21527,
    "for": 961,
    "Ġtal": 7564,
    "dered": 2476,
    "Ġacres": 14312,
    "wishing": 21127,
    "Ġprospects": 9958,
    "Ġpeeped": 10011,
    "Ġrefined": 18701,
    "comfort": 5647,
    "Ġclink": 22355,
    "Ġbrimming": 22865,
    "combined": 20319,
    "rust": 2582,
    "hoist": 23712,
    "meet": 11854,
    "Ġharris": 13926,
    "Ġexpectations": 13142,
    "Ġcontempl": 6701,
    "Ġling": 7377,
    "lings": 8745,
    "Ġcult": 8781,
    "Ġdoings": 18376,
    "Ġproperly": 7944,
    "instruct": 19541,
    "Ġweave": 21918,
    "fire": 6357,
    "Ġquadr": 8199,
    "happened": 9432,
    "Ġsequel": 14356,
    "Ġdefence": 11067,
    "hatherley": 17568,
    "voice": 7816,
    "Ġnotorious": 18223,
    "garet": 9597,
    "imod": 15707,
    "Ġlexic": 15721,
    "untary": 9866,
    "Ġattract": 11830,
    "quished": 21851,
    "Ġpleased": 4065,
    "Ġbeneficial": 23929,
    "ancies": 11583,
    "Ġcommendation": 13609,
    "Ġperpetual": 12301,
    "roqu": 21531,
    "Ġspring": 4121,
    "anations": 12573,
    "Ġbronze": 22866,
    "uracy": 1101,
    "Ġawakened": 10453,
    "Ġpuzzle": 11305,
    "Ġmar": 1311,
    "Ġbrahma": 26319,
    "Ġhunch": 18934,
    "parameter": 2958,
    "ruded": 15899,
    "cad": 17504,
    "Ġusing": 719,
    "laug": 10707,
    "Ġtwisted": 7228,
    "breeding": 16675,
    "overcoat": 19053,
    "amongst": 24672,
    "Ġper": 587,
    "Ġsquires": 16180,
    "leness": 4691,
    "Ġbowl": 11204,
    "Ġpasses": 2679,
    "accusations": 23598,
    "Ġrumours": 24598,
    "Ġboughs": 20487,
    "Ġconnected": 5393,
    "tuning": 1578,
    "zed": 8103,
    "Ġenhancement": 23767,
    "material": 13128,
    "rodden": 21532,
    "calmly": 20138,
    "circled": 24187,
    "Ġhull": 5446,
    "arpaul": 14536,
    "byshire": 6172,
    "Ġgemini": 26469,
    "enth": 6680,
    "sters": 6391,
    "Ġconsort": 18723,
    "rified": 15418,
    "Ġensl": 19273,
    "Ġgallery": 10524,
    "Ġelephants": 9863,
    "steady": 14708,
    "Ġhad": 444,
    "Ġrenewal": 12232,
    "kins": 7345,
    "Ġtaller": 16688,
    "kington": 11203,
    "Ġbrix": 12580,
    "Ġwhir": 6393,
    "Ġirreproachable": 24917,
    "Ġbethink": 12377,
    "Ġconsistent": 14528,
    "....": 11316,
    "Ġfathers": 16294,
    "Ġdiffered": 22708,
    "Ġratio": 5066,
    "ifting": 6545,
    "¸": 121,
    "Ġtwink": 8215,
    "Ġmantle": 25274,
    "entered": 8814,
    "Ġhat": 2774,
    "Ġsimulates": 2742,
    "stood": 4116,
    "Ġgrip": 11626,
    "Ġeffusions": 18516,
    "scence": 14418,
    "creatures": 7517,
    "gloomy": 25144,
    "rogress": 21533,
    "Ġpython": 1067,
    "Ġhours": 2821,
    "Ġbeast": 7179,
    "harbor": 13563,
    "Ġparcels": 25465,
    "Ġunknown": 4455,
    "relation": 19445,
    "Ġprovides": 1930,
    "Ġpallidness": 25604,
    "Ġmusket": 12294,
    "ulatory": 15765,
    "Ġsupplying": 19797,
    "Ġtraits": 23072,
    "Ġenabling": 1078,
    "Ġlabyrinth": 13678,
    "superior": 9524,
    "Ġstalls": 25647,
    "Ġdodging": 19886,
    "aded": 3551,
    "Ġsteep": 2888,
    "Ġottoman": 17377,
    "Ġyellow": 5300,
    "featured": 24125,
    "Ġ119": 24441,
    "Ġstuck": 9220,
    "though": 2118,
    "anguish": 15978,
    "amp": 2606,
    "Ġsolved": 8931,
    "}": 97,
    "Ġskills": 1839,
    "rollable": 13944,
    "halloa": 17090,
    "complet": 11383,
    "hill": 15361,
    "befall": 22492,
    "irts": 9237,
    "Ġregiment": 6432,
    "\"": 6,
    "remem": 13064,
    "shipping": 10307,
    "ouched": 4637,
    "Ġadvantageously": 19544,
    "Ġbloodthirsty": 26601,
    "Ġmoth": 17802,
    "onet": 12542,
    "Ġwolfish": 25935,
    "Ġscenes": 5731,
    "Ġmistress": 8611,
    "Ġgrandfather": 19420,
    "Ġshoreless": 24295,
    "long": 2913,
    "Ġaccosted": 13671,
    "Ġbegrim": 23012,
    "ĠâĢĻ": 3042,
    "ampling": 12723,
    "Ġdining": 6977,
    "Ġmelted": 19620,
    "Ġthundering": 24291,
    "Ġscrutin": 26014,
    "Ġyours": 4124,
    "brad": 20780,
    "Ġlumber": 13951,
    "Ġtester": 21171,
    "Ġfumbled": 17881,
    "Ġplatonian": 25118,
    "Ġsnarl": 25715,
    "Ġhunsford": 6301,
    "agation": 1248,
    "Ġimposed": 14211,
    "Ġcontinue": 5398,
    "inople": 13828,
    "Ġswap": 23049,
    "Ġaper": 17743,
    "Ġmutters": 23953,
    "weed": 14314,
    "Ġstrong": 1786,
    "sey": 5543,
    "Ġabatement": 22273,
    "Ġthirds": 16708,
    "Ġmalady": 24392,
    "Ġcupboard": 16883,
    "Ġproficiency": 19191,
    "abern": 21787,
    "Ġhearth": 11980,
    "Ġanaly": 1126,
    "Ġclin": 14204,
    "Ġdestabilizing": 5053,
    "iant": 5427,
    "Ġcomplain": 6685,
    "Ġcentre": 5123,
    "Ġpretty": 3860,
    "'": 11,
    "rell": 11563,
    "Ġlong": 795,
    "Ġoptimize": 1629,
    "invari": 21183,
    "folding": 24927,
    "Ġoscill": 2857,
    "Ġbloodless": 19338,
    "Ġfamiliarly": 11303,
    "Ġhelmet": 19686,
    "Ġhappened": 3714,
    "tree": 11533,
    "elaborate": 21573,
    "listened": 15043,
    "peleg": 16292,
[...]
