{
  "metadata": {
    "vocab_size": 26614,
    "algorithm": "BPE",
    "created_at": "2026-05-25 06:26:24",
    "special_tokens": [
      "<PAD>",
      "<SOS>",
      "<EOS>",
      "<UNK>",
      "<MASK>"
    ]
  },
  "vocab": {
    "former": 11746,
    "rints": 12500,
    "Ġdispelling": 23878,
    ",*": 17471,
    "Ġstories": 10865,
    "prints": 23810,
    "Ġwitness": 4622,
    "zealand": 26047,
    "rers": 14717,
    "Ġentrance": 7233,
    "adventurous": 25361,
    "write": 14647,
    "Ġgodly": 19080,
    "ĩ": 234,
    "eous": 13711,
    "lorn": 12485,
    "Ġextinct": 14325,
    "Ġexal": 10877,
    "bestow": 16929,
    "bweb": 20790,
    "Ġlibraries": 20613,
    "breakfast": 8687,
    "Ġel": 800,
    "Ġunsafe": 22038,
    "Ġinstrument": 7118,
    "Ġcrossing": 7252,
    "Ġtraversed": 18892,
    "Ġeigenvalues": 4998,
    "esteem": 26008,
    "Ġpartially": 13121,
    "ver": 331,
    "gover": 10702,
    "Ġstore": 8453,
    "Ġregret": 5561,
    "Ġsaved": 6690,
    "Ġyielding": 12184,
    "Ġarab": 7823,
    "Ġ177": 13411,
    "valu": 1648,
    "inished": 17734,
    "Ġnarr": 5085,
    "Ġmer": 2932,
    "Ġbloss": 19255,
    "Ġponderous": 8354,
    "masters": 16834,
    "Ġmule": 13861,
    "Ġcrotch": 9962,
    "Ġwil": 4581,
    "entials": 22661,
    "ogr": 18674,
    "rather": 5430,
    "Ġcapabilities": 4379,
    "Ġap": 5008,
    "Ġimposing": 11779,
    "Ġyonder": 7392,
    "speak": 5504,
    "beheaded": 22490,
    "Ġsequel": 14356,
    "Ġcoaxing": 18598,
    "Ġsinful": 18948,
    "situation": 11437,
    "Ġblanc": 11065,
    "Ġincarn": 11812,
    "Ġblessing": 11263,
    "Ġsalesman": 13667,
    "Ġvagabond": 20202,
    "Ġherring": 14126,
    "days": 7687,
    "Ġruled": 22783,
    "Ġforeb": 12002,
    "Ġinsisted": 12044,
    "type": 16171,
    "heum": 17747,
    "Ġhealed": 21680,
    "Ġslip": 8954,
    "Ġguardsmen": 20629,
    "Ġsplinter": 23745,
    "iag": 20915,
    "obviously": 25242,
    "thoughts": 9934,
    "Ġhogarth": 25780,
    "Ġpossess": 3205,
    "Ġdiscl": 9796,
    "incl": 8109,
    "Ġportents": 14679,
    "by": 1160,
    "Ġhorsham": 10406,
    "uously": 7353,
    "Ġimprudently": 22385,
    "Ġpreaching": 15924,
    "alyards": 18767,
    "Ġcarbuncle": 14444,
    "rocket": 13943,
    "Ġtipt": 21172,
    "Ġfacing": 10171,
    "Ġbid": 6131,
    "Ġexclaim": 11221,
    "Ġensl": 19273,
    "Ġpatchwork": 24141,
    "achus": 18275,
    "Ġdrown": 6815,
    "Ġsatirical": 26279,
    "Ġnobler": 14175,
    "Ġpool": 5173,
    "Ġtimid": 6345,
    "re": 266,
    "ats": 4256,
    "Ġgardeners": 12118,
    "Ġunperceived": 22034,
    "Ġkidnapping": 26356,
    "chiefly": 14845,
    "Ġconciliating": 19047,
    "awn": 3835,
    "Ġmadness": 6601,
    "Ġbashful": 20418,
    "rippa": 11341,
    "Ġharm": 5017,
    "Ġrun": 2353,
    "Ġpenetrating": 17011,
    "Ġcapable": 5054,
    "Ġnodding": 23333,
    "Ġstow": 21727,
    "Ġstartled": 7082,
    "horrible": 14600,
    "ards": 2504,
    "Ġmorocco": 26573,
    "Ġwashed": 15762,
    "Ġdeliberation": 19967,
    "Ġcister": 13881,
    "Ġfrightens": 24027,
    "Ġarchbishop": 18710,
    "garn": 20869,
    "Ġconsented": 11295,
    "Ġbehaved": 13253,
    "indisc": 22370,
    "Ġflames": 7939,
    "Ġharder": 14448,
    "Ġprojects": 9510,
    "anch": 15557,
    "skill": 24487,
    "pract": 10119,
    "frank": 7757,
    "drovand": 24760,
    "Ġmallet": 17810,
    "Ġinevitable": 15166,
    "Ġmead": 8834,
    "reading": 12077,
    "chard": 21684,
    "Ġremnants": 22790,
    "doing": 8584,
    "Ġriddles": 16732,
    "luent": 15994,
    "melted": 25206,
    "Ġdissuade": 26256,
    "Ġ113": 19695,
    "Ġangry": 5498,
    "Ġvalley": 5850,
    "snap": 24848,
    "judge": 13335,
    "ak": 537,
    "asted": 4650,
    "Ġuses": 1209,
    "Ġbrides": 22860,
    "ainted": 3659,
    "mounting": 25207,
    "Ġwrapt": 24595,
    "Ġloun": 7166,
    "Ġdemocracy": 25458,
    "innacle": 7519,
    "attain": 21260,
    "ĠĠĠĠĠĠ": 6414,
    "Ġbaptized": 25774,
    "tu": 12509,
    "Ġdemanding": 16805,
    "turns": 14905,
    "elfth": 22366,
    "vel": 2384,
    "travellers": 24318,
    "Ġinfer": 7683,
    "Ġtwitched": 20442,
    "Ġcalamities": 25699,
    "Ġconsequences": 11335,
    "Ġilluminated": 20174,
    "Ġroof": 6564,
    "Ġviolet": 19090,
    "ional": 1083,
    "Y": 61,
    "Ġpleadings": 25852,
    "100": 11464,
    "Ġforty": 5719,
    "Ġcrying": 10786,
    "inced": 3337,
    "Ġsickbed": 24246,
    "Ġpreceding": 7528,
    "Ġadmitting": 19182,
    "Ġdeposit": 17268,
    "Ġmilitia": 13316,
    "appl": 9325,
    "Ġ16": 7926,
    "accomplished": 17211,
    "igger": 21697,
    "gon": 17552,
    "Ġgrimesby": 11457,
    "Ġsuite": 18277,
    "consum": 12867,
    "+": 15,
    "s": 87,
    "Ġhorseman": 19606,
    "wife": 8100,
    "fishers": 24928,
    "Ġglorious": 11075,
    "Ġsobbed": 14137,
    "Ġseized": 4833,
    "canallers": 22961,
    "Ġ184": 16607,
    "Ġxxxiv": 24967,
    "Ġowner": 8921,
    "Ġincites": 22548,
    "acted": 11010,
    "Ġor": 437,
    "esteemed": 26009,
    "ulia": 18148,
    "Ġvariety": 8530,
    "Ġliberties": 19666,
    "officer": 17054,
    "Ġcomplain": 6685,
    "Ġcertain": 1559,
    "Ġsuavely": 26523,
    "Ġalexander": 17423,
    "Ġelse": 2481,
    "anque": 13887,
    "Ġdivision": 19442,
    "Ġchristians": 13307,
    "Ġrele": 2920,
    "Ġdeft": 21834,
    "shining": 18492,
    "drowned": 17368,
    "covery": 11171,
    "Ġkitchen": 8495,
    "elf": 565,
    "osal": 11757,
    "nam": 2632,
    "solving": 3102,
    "Ġscraggy": 24579,
    "bringing": 17166,
    "Ġkelson": 18350,
    "three": 5239,
    "philosop": 9567,
    "Ġproducts": 5198,
    "dance": 17519,
    "solely": 19815,
    "Ġcheapside": 23285,
    "humour": 7498,
    "fre": 5425,
    "exp": 2738,
    "Ġvoice": 2188,
    "Ġmanners": 3791,
    "largely": 19573,
    "Ġfeet": 2259,
    "Ġrascally": 26507,
    "Ġresponded": 13637,
    "Ġbison": 21386,
    "Ġdesisted": 22975,
    "Ġsolid": 6443,
    "emph": 21923,
    "Ġrending": 19465,
    "attend": 11101,
    "Ġintellect": 8169,
    "bingley": 4927,
    "fes": 20850,
    "east": 9115,
    "mrs": 3745,
    "united": 14059,
    "Ġsleeves": 10660,
    "Ġblindly": 12107,
    "Ġwarehouses": 20416,
    "overcoat": 19051,
    "Ġnote": 4266,
    "Ġlazy": 17050,
    "Ġcurious": 3361,
    "isation": 13892,
    "Ġbewit": 15725,
    "olog": 1097,
    "Ġashore": 5351,
    "Ġstain": 18064,
    "augh": 1781,
    "Ġdescended": 7428,
    "Ġrue": 11865,
    "iogn": 20920,
    "lat": 9604,
    "Ġperpendicular": 7209,
    "Ġsou": 1887,
    "Ġblocked": 19222,
    "Ġdiabol": 11453,
    "Ġsan": 7824,
    "glad": 9007,
    "best": 6111,
    "trimmed": 23946,
    "shock": 19854,
    "gue": 12465,
    "Ġalighted": 18103,
    "oura": 1059,
    "Ġplanisp": 24055,
    "Ġconceit": 7295,
    "Ġoccupied": 5272,
    "rels": 6664,
    "Ġvariously": 18652,
    "Ġshutters": 9936,
    "Ġde": 365,
    "Ġrelief": 6059,
    "soul": 9140,
    "Ġspeechless": 13352,
    "Ġsurve": 9873,
    "Ġsqueeze": 10038,
    "Ġeverybody": 4511,
    "cring": 20810,
    "Ġdropt": 23675,
    "Ġanxious": 4519,
    "Ġwidower": 24235,
    "Ġblow": 3374,
    "Ġk": 485,
    "Ġentangled": 10345,
    "Ġ119": 24441,
    "whosoever": 22237,
    "Ġfollies": 16254,
    "Ġsubset": 9869,
    "Ġrachel": 11845,
    "Ġ58": 24326,
    "Ġsof": 18281,
    "Ġtrophy": 20005,
    "ribly": 8254,
    "Ġgiving": 4086,
    "Ġlens": 8437,
    "wig": 17704,
    "Ġinsertion": 26343,
    "Ġcongratulate": 9063,
    "Ġendeavors": 16546,
    "sails": 7497,
    "Ġprimal": 17107,
    "Ġvortex": 26208,
    "emic": 18179,
    "Ġpropriet": 9549,
    "Ġcra": 2331,
    "Ġswelling": 11923,
    "arched": 10815,
    "Ġumbrella": 15264,
    "Ġaglow": 22511,
    "Ġintens": 7003,
    "Ġbottom": 3674,
    "oard": 4809,
    "horrors": 20540,
    "Ġbery": 13897,
    "Ġhog": 13923,
    "Ġincommod": 25307,
    "Ġploughing": 26259,
    "Ġbutchers": 18272,
    "Ġwee": 21916,
    "Ġensuing": 12307,
    "plifted": 9709,
    "Ġrevisit": 21667,
    "Ġseizure": 21961,
    "Ġ38": 24078,
    "pump": 21016,
    "Ġfeigned": 22207,
    "Ġinsufferable": 13930,
    "painful": 13501,
    "Ġxavier": 2858,
    "Ġaccent": 10293,
    "Ġunited": 6840,
    "iates": 13736,
    "stochastic": 3775,
    "Ġsmile": 4274,
    "Ġhandsome": 4906,
    "Ġaudacity": 19881,
    "Ġsporting": 16999,
    "Ġsymmetry": 20364,
    "retreat": 23131,
    "qu": 369,
    "Ġklux": 22192,
    "inching": 21188,
    "ws": 7355,
    "hardly": 6491,
    "Ġoct": 10158,
    "Ġunder": 1633,
    "anct": 21356,
    "birds": 15143,
    "secur": 18126,
    "pause": 12498,
    "Ġpublisher": 24064,
    "plentiful": 21953,
    "Ġlanc": 19763,
    "Ġsights": 7472,
    "Ġjustice": 5111,
    "Ġheadsmen": 14731,
    "reshold": 21238,
    "Ġfidel": 12593,
    "bbed": 6911,
    "Ġsimultaneously": 4313,
    "Ġpraise": 6486,
    "Ġembed": 1442,
    "dozen": 23376,
    "scotland": 20526,
    "Ġpian": 13916,
    "uit": 8392,
    "leviathans": 19936,
    "Ġvia": 2382,
    "Ġisrael": 21800,
    "Ġperempt": 13672,
    "Ġsinusoidal": 4801,
    "Ġinhaled": 25451,
    "Ġweedy": 15790,
    "Ġsoldiers": 8686,
    "cherries": 19755,
    "unned": 21875,
    "Ġpunish": 12157,
    "girl": 12316,
    "ies": 584,
    "usual": 5841,
    "affrail": 11205,
    "Ġhenceforth": 19646,
    "ark": 850,
    "Ġslice": 23157,
    "trad": 21075,
    "Ġheighten": 19528,
    "merry": 16537,
    "suggest": 20374,
    "Ġnowhere": 12883,
    "Ġlinks": 13954,
    "oftener": 23962,
    "Ġacceler": 1609,
    "Ġfolio": 11915,
    "strange": 6086,
    "sion": 8093,
    "Ġembarrassed": 11384,
    "Ġlivid": 14988,
    "Ġpuffed": 14976,
    "Ġclouded": 13289,
    "fastened": 19324,
    "Ġvoyager": 16512,
    "use": 2535,
    "Ġinstant": 2705,
    "Ġsplend": 9897,
    "Ġperfections": 23607,
    "Ġunpleasing": 22052,
    "acknowledge": 18468,
    "Ġgallop": 19554,
    "Ġfel": 1517,
    "money": 8749,
    "Ġreferred": 8915,
    "sufficient": 6635,
    "Ġvertu": 23888,
    "Ġnind": 17949,
    "Ġtick": 8108,
    "Ġcomputers": 2646,
    "Ġagitation": 6865,
    "Ġforemast": 12004,
    "Ġedition": 16433,
    "imental": 16534,
    "Ġinvests": 14867,
    "Ġnarwhale": 12291,
    "track": 24314,
    "Ġincludes": 2009,
    "eyed": 11486,
    "Ġtroubling": 26546,
    "Ġtechn": 9367,
    "Ġmagnitude": 1944,
    "dreadful": 11421,
    "3": 23,
    "Ġpieces": 7369,
    "Ġremove": 7499,
    "Ġpersonality": 16476,
    "Ġplentiful": 12908,
    "Ġfrankness": 16746,
    "Ġfewer": 16223,
    "wretch": 17708,
    "Ġadm": 2403,
    "Ġheedless": 14902,
    "truth": 9918,
    "Ġgpt": 4352,
    "complet": 11383,
    "Ġmatter": 1733,
    "Ġinterpreted": 1709,
    "iss": 2175,
    "Ġreversed": 15694,
    "Ġsaith": 14155,
    "Ġmariner": 7247,
    "Ġglo": 1713,
    "rodden": 21532,
    "absolut": 8458,
    "Ġseems": 2482,
    "Ġpassions": 7929,
    "shri": 14235,
    "Ġfinery": 23122,
    "Ġadmiral": 17304,
    "Ġphilosophical": 26334,
    "Ġdepl": 14045,
    "Ġsays": 3562,
    "confined": 24332,
    "Ġschedule": 2371,
    "Ġadorned": 15246,
    "recogn": 13424,
    "Ġcounting": 13094,
    "direction": 17524,
    "dia": 2133,
    "Ġintense": 6157,
    "Ġfang": 21401,
    "Ġmir": 9646,
    "Ġberyls": 25775,
    "view": 5895,
    "Ġethics": 15461,
    "Ġastonishment": 4794,
    "Ġdining": 6977,
    "thickness": 25367,
    "Ġoffended": 7040,
    "Ġimmens": 9938,
    "Ġgathering": 14977,
    "Ġtang": 13813,
    "Ġdesolate": 10012,
    "covered": 11477,
    "Ġthreading": 23400,
    "lished": 8382,
    "Ġattics": 22624,
    "Ġstripped": 10465,
    "Ġaffliction": 25844,
    "dist": 4481,
    "Ġpend": 15603,
    "ichron": 22165,
    "arding": 22154,
    "Ġskirt": 18729,
    "Ġtones": 8399,
    "Ġleakage": 23458,
    "Ġglistened": 20171,
    "akes": 2217,
    "inea": 7622,
    "Ġstare": 10864,
    "Ġmuttered": 7086,
    "hint": 12473,
    "mell": 20963,
    "Ġtalk": 1969,
    "ø": 185,
    "fam": 5988,
    "limin": 8383,
    "wretchedness": 17252,
    "Ġsust": 7006,
    "watching": 16930,
    "Ġsnowy": 9017,
    "Ġiv": 4046,
    "anim": 6522,
    "à": 161,
    "training": 2518,
    "Ġlink": 8129,
    "Ġsubur": 12953,
    "Ġdiscovers": 4429,
    "onies": 6806,
    "Ġdynam": 3011,
    "Ġscreams": 24603,
    "Ġcomfortable": 6094,
    "nails": 17614,
    "most": 1256,
    "happened": 9432,
    "Ġsledge": 8110,
    "shells": 26056,
    "Ġsens": 1853,
    "Ġshrew": 21997,
    "wr": 3029,
    "[_": 5131,
    "reputable": 15516,
    "trap": 24313,
    "Ġstacks": 18074,
    "Ġin": 291,
    "Ġhuge": 4700,
    "Ġmourn": 8703,
    "Ġunden": 22010,
    "eronomy": 15523,
    "Ġdiscipl": 22782,
    "Ġseeing": 2889,
    "succeed": 10328,
    "read": 3276,
    "Ġhint": 5016,
    "Ġembod": 14418,
    "ã": 164,
    "ä": 165,
    "had": 1950,
    "Ġcocked": 12901,
    "circled": 24187,
    "bering": 18682,
    "mature": 20966,
    "Ġwrite": 3821,
    "pots": 11513,
    "confess": 12173,
    "Ġoffences": 18697,
    "consuming": 25674,
    "Ġaut": 1794,
    "nine": 13760,
    "Ġaright": 11738,
    "Ġadmired": 7981,
    "Ġdoesn": 7438,
    "Ġcustom": 5078,
    "Ġemerged": 8684,
    "Ġcompliments": 8632,
    "Ġph": 1551,
    "forth": 9321,
    "ze": 1274,
    "sensations": 20049,
    "Ġsemantics": 2898,
    "Ġcomm": 839,
    "Ġdefinitions": 22941,
    "Ġlent": 21544,
    "Ġchemist": 11134,
    "tender": 14472,
    "owder": 8448,
    "Ġintuitions": 17340,
    "morrow": 4573,
    "Ġbene": 2032,
    "token": 21081,
    "vert": 15712,
    "heed": 15497,
    "Ġdescribed": 6606,
    "Ġfully": 6342,
    "orange": 21398,
    "Ġrallied": 14095,
    "mira": 20978,
    "¸": 121,
    "Ġremembrance": 8317,
    "Ġhadn": 9718,
    "Ġtophet": 23572,
    "Ġdeliverance": 15156,
    "rooms": 10432,
    "Ġseams": 12122,
    "Ġhedgehogs": 25394,
    "meantime": 9091,
    "osa": 22257,
    "ĠĠĠĠĠĠĠĠĠĠĠĠĠĠĠĠĠĠĠĠĠĠĠĠĠĠĠĠĠĠĠĠĠĠ": 14613,
    "Ġpoland": 23616,
    "Ġsincere": 11136,
    "Ġselves": 21221,
    "Ġgross": 11624,
    "Ġscreening": 25299,
    "Ġsuppl": 11078,
    "go": 2063,
    "Ġpainting": 13140,
    "Ġgradually": 3400,
    "Ġadduced": 26524,
    "Ġcontentment": 14869,
    "our": 534,
    "Ġfall": 2987,
    "Ġshoal": 12014,
    "Ġsums": 2906,
    "speed": 19407,
    "Ġicebergs": 23972,
    "Ġsouthern": 7688,
    "swim": 16779,
    "sey": 5543,
    "Ġpossible": 2584,
    "Ġqueerest": 16413,
    "representativeness": 25272,
    "Ġliberal": 12188,
    "Ġwharf": 9559,
    "evenings": 19461,
    "Ġequinox": 25855,
    "rowing": 7930,
    "Ġappeared": 2774,
    "Ġ1000": 3119,
    "Ġvicissitudes": 12417,
    "changing": 10854,
    "clair": 18932,
    "expanded": 23665,
    "Ġgovernor": 16490,
    "Ġ79": 24264,
    "compasses": 19456,
    "Ġtrespass": 23599,
    "harpoone": 6107,
    "Ġmonosyllable": 20725,
    "Ġgas": 8132,
    "Ġprom": 1527,
    "australian": 20560,
    "Ġwits": 15530,
    "gives": 15356,
    "Ġann": 4490,
    "Ġwarsaw": 26167,
    "Ġofficial": 7081,
    "condesc": 18503,
    "Ġpeep": 6870,
    "»": 124,
    "hurried": 11353,
    "anging": 3552,
    "iary": 15369,
    "Ġdrifted": 14624,
    "Ġuser": 15913,
    "Ġcloud": 3913,
    "Ġjury": 5378,
    "balanced": 14555,
    "Ġsavoury": 23875,
    "trouble": 8294,
    "lipped": 16215,
    "depend": 9112,
    "Ġfee": 7199,
    "Ġinward": 11606,
    "Ġemploys": 19429,
    "Ġsympathise": 16794,
    "on": 267,
    "olent": 8154,
    "Ġdivinely": 25723,
    "evinced": 19925,
    "Ġwoody": 23516,
    "Ġshirt": 8848,
    "Ġprevents": 2558,
    "Ġcomposedly": 25183,
    "Ġpasture": 14543,
    "Ġcowardice": 17032,
    "thest": 11653,
    "resent": 10769,
    "Ġlazarus": 15028,
    "br": 2479,
    "Ġresided": 11809,
    "Ġgasps": 24865,
    "kne": 20934,
    "afflicted": 23776,
    "tossed": 10996,
    "Ġalways": 1694,
    "Ġrefinement": 18696,
    "Ġprophet": 7680,
    "Ġhawaiian": 25366,
    "unvarying": 21884,
    "Ġshoved": 23488,
    "leaves": 12575,
    "Ġital": 10866,
    "Ġpainful": 6462,
    "trick": 19411,
    "mpus": 13756,
    "Ġpaddock": 25037,
    "Ġridiculous": 10628,
    "Ġmedic": 11247,
    "ougher": 18280,
    "izure": 21831,
    "Ġrepe": 3281,
    "Ġstall": 12693,
    "fol": 4862,
    "interruption": 20110,
    "Ġassisted": 11111,
    "cre": 4253,
    "Ġconduct": 3734,
    "unusually": 15777,
    "Ġcolumb": 22853,
    "cr": 4076,
    "Ġworrying": 22924,
    "Ł": 258,
    "Ġshabby": 14110,
    "an": 278,
    "Ġmonarch": 14413,
    "enemy": 15525,
    "final": 19675,
    "Ġeducated": 16785,
    "Ġfires": 16471,
    "Ġdinn": 23978,
    "Ġoverhung": 15972,
    "partly": 14602,
    "Ġcomprise": 18583,
    "illating": 22104,
    "Ġriotous": 20543,
    "Ġbeggar": 9348,
    "Ġconsid": 1814,
    "Ġparlour": 12319,
    "Ġknotted": 17019,
    "Æ": 135,
    "atch": 673,
    "consequential": 26249,
    "Ġessays": 19743,
    "```": 25893,
    "Ġga": 4447,
    "Ġbloom": 9887,
    "homage": 25616,
    "Ġdeeps": 16111,
    "Ġreaching": 7303,
    "daylight": 19053,
    "century": 20045,
    "Ġbrig": 11047,
    "Ġsurp": 9634,
    "Ġhim": 476,
    "Ġonto": 14027,
    "Ġwinged": 16995,
    "Ġdirecting": 16299,
    "Ġinjustice": 9190,
    "sunlight": 24851,
    "Ġimply": 18444,
    "elect": 20845,
    "Ġell": 17715,
    "Ġconvers": 2910,
    "out": 467,
    "Ġstud": 1612,
    "kl": 4865,
    "Ġbrother": 2749,
    "Ġinduced": 8670,
    "order": 1960,
    "Ġdecayed": 22822,
    "horse": 8605,
    "guilt": 24068,
    "level": 2654,
    "Ġgeneral": 1861,
    "Ġmissing": 6175,
    "osity": 14185,
    "parlour": 16390,
    "Ġjackal": 24239,
    "happiness": 6469,
    "wharf": 20605,
    "riumph": 4919,
    "Ġridic": 7508,
    "Ġnumerous": 6920,
    "Ġunrestingly": 20359,
    "umbling": 6758,
    "Ġbarb": 4532,
    "whims": 22236,
    "Ġ76": 24262,
    "Ġbowsprit": 16560,
    "Í": 142,
    "Ġinequal": 21494,
    "Ġshrouded": 14968,
    "Ġpilot": 5984,
    "browed": 25894,
    "Ġcomprehend": 6494,
    "Ġevents": 4473,
    "attacks": 23119,
    "andam": 10888,
    "Ġimmutable": 17357,
    "Ġpleaded": 16298,
    "gentleness": 24844,
    "Ġnovels": 15927,
    "Ġplug": 17147,
    "ample": 1360,
    "Ġbuilded": 24719,
    "Ġresolves": 23650,
    "Ġthack": 21514,
    "aton": 21257,
    "Ġreckless": 13457,
    "ht": 375,
    "ady": 995,
    "Ġmimic": 3146,
    "Ġoutputs": 2890,
    "dening": 22778,
    "non": 9611,
    "Ġcorrespondent": 19821,
    "Ġbuzz": 23994,
    "Ġkings": 7197,
    "ĠĠĠĠĠĠĠĠĠĠĠĠĠĠĠĠĠĠĠĠĠĠĠĠĠĠĠĠĠĠĠĠĠĠĠĠĠĠĠĠĠĠĠĠĠĠĠĠĠĠĠ": 20037,
    "ale": 506,
    "Ġheight": 4223,
    "Ġxvi": 19104,
    "Ġsimilitude": 19209,
    "Ġpur": 2215,
    "cruising": 12277,
    "Ġinsects": 25646,
    "arris": 13208,
    "Ġsoothed": 10028,
    "namely": 23641,
    "Ġsoft": 1456,
    "Ġi": 312,
    "Ġfarther": 5954,
    "Ġrevelations": 25223,
    "Ġbespe": 19241,
    "Ġcomforters": 25800,
    "Ġardently": 9497,
    "dangerous": 20239,
    "uzza": 11270,
    "somerset": 26322,
    "enormous": 26166,
    "Ġrespectful": 16343,
    "tempered": 13445,
    "market": 16839,
    "Ġuppermost": 15277,
    "Ġtongs": 9960,
    "Ġsuspicions": 9478,
    "Ġeasiest": 23536,
    "Ġfir": 17877,
    "ity": 417,
    "Ġdeserved": 7736,
    "xible": 13807,
    "asis": 12647,
    "Ġexists": 14040,
    "Ġbelow": 4063,
    "Ġgossiping": 26243,
    "spect": 3233,
    "Ġjenkinson": 11431,
    "Ġconquest": 15745,
    "Ġsees": 8842,
    "educ": 10828,
    "Ġwednesday": 9024,
    "Ġprinc": 4202,
    "rom": 420,
    "Ġquaff": 22411,
    "Ġapplies": 11959,
    "ear": 8730,
    "tenham": 16320,
    "measured": 19988,
    "pay": 10718,
    "Ġbeasts": 10617,
    "Ġdupl": 9953,
    "Ġgent": 7383,
    "Ġelijah": 9099,
    "break": 6101,
    "cible": 20805,
    "rigging": 20004,
    "Ġ104": 24412,
    "Ġdisposition": 5409,
    "least": 8784,
    "Ġheadsman": 13273,
    "Ġvex": 5948,
    "Ġloom": 7628,
    "Ġshock": 6082,
    "alling": 6036,
    "reasonable": 7751,
    "left": 6975,
    "Ġhunting": 7259,
    "Ġjoyously": 19345,
    "Ġwrapping": 19774,
    "Ġabilities": 8867,
    "Ġadler": 8173,
    "Ġhinting": 19648,
    "taken": 7560,
    "Ġapparition": 8066,
    "Ġii": 7385,
    "Ġfury": 7660,
    "Ġcyp": 21343,
    "station": 10844,
    "Ġdissembling": 26254,
    "Ġfrantically": 23255,
    "arrival": 15597,
    "Ġplainer": 23703,
    "irium": 8161,
    "keys": 15856,
    "vessel": 11377,
    "Ġinde": 7371,
    "Ġhammers": 13239,
    "project": 16423,
    "Ġnecess": 3478,
    "behaved": 24463,
    "Ġcraft": 4378,
    "Ġserpents": 13075,
    "ċ": 204,
    "ught": 2751,
    "objections": 19915,
    "Ġprogramming": 1184,
    "protested": 13473,
    "Ġestate": 6316,
    "reject": 21235,
    "Ġfads": 21414,
    "pour": 17630,
    "Ġkilling": 13331,
    "Ġworry": 18815,
    "arled": 21440,
    "Ġmission": 13003,
    "Ġinserted": 8355,
    "Ġspies": 22125,
    "Ġveins": 8932,
    "Ġglades": 19370,
    "Ġsect": 17751,
    "wedded": 24339,
    "european": 26371,
    "Ġterrier": 23397,
    "plenty": 14087,
    "Ġmicroscopic": 26373,
    "sciss": 18856,
    "unteered": 26495,
    "Ġmatted": 22911,
    "swimming": 24258,
    "boo": 16349,
    "Ġviolation": 23404,
    "Ġdoc": 7200,
    "Ġfolds": 12204,
    "Ġwithdrew": 9695,
    "Ġswiftly": 5670,
    "Ġfinishing": 23121,
    "Ġwoman": 2386,
    "jewel": 20345,
    "Ġcarries": 7673,
    "Ġshone": 7404,
    "Ġsurvive": 9066,
    "Ġhandful": 9781,
    "caterpillar": 26383,
    "billows": 20235,
    "Ġcitadel": 25438,
    "Ġabstracted": 17182,
    "Ġanytime": 12882,
    "ck": 436,
    "aces": 2068,
    "izon": 18133,
    "Ġobserved": 3542,
    "Ġgur": 21589,
    "Ġafternoon": 6052,
    "allest": 5485,
    "Ġargemone": 24274,
    "pat": 10116,
    "treated": 21093,
    "Ġwing": 6665,
    "igin": 3656,
    "fisher": 7547,
    "Ġchance": 3319,
    "Ġstrangeness": 16707,
    "Ġarom": 15491,
    "Ġweld": 8111,
    "hunters": 16833,
    "asting": 12803,
    "unicorn": 21886,
    "acquired": 24296,
    "Ġchuck": 8501,
    "Ġorganisation": 23582,
    "agation": 1246,
    "Ġpractises": 23326,
    "Ġdod": 6672,
    "Ġdecap": 16018,
    "Ġexpressive": 8982,
    "Ġdealer": 23974,
    "eng": 1487,
    "Ġpride": 3823,
    "ractions": 11632,
    "hills": 13735,
    "inn": 5363,
    "Ġcotton": 17378,
    "love": 9293,
    "retion": 9362,
    "Ġspo": 6846,
    "Ġsilence": 3268,
    "Ġvertebra": 20180,
    "snow": 10724,
    "Ġrespectable": 6736,
    "regular": 3042,
    "Ġsakes": 18326,
    "Ġfly": 3870,
    "Ġrichest": 26211,
    "¤": 102,
    "Ġassurances": 9999,
    "Ġunderneath": 16336,
    "persons": 24174,
    "Ġanswers": 7070,
    "warrior": 24798,
    "Ġvancouver": 26565,
    "Ġdanger": 3521,
    "Ġplutarch": 22600,
    "Ġwoods": 5406,
    "spir": 5738,
    "Ġboister": 12917,
    "seems": 10875,
    "ĠĠĠĠĠĠĠĠĠĠĠĠĠĠĠĠĠ": 22946,
    "Ġsecure": 4912,
    "Ġink": 8802,
    "loa": 18536,
    "Ġcripp": 9653,
    "resnet": 4071,
    "Ġbusily": 9383,
    "Ġgrud": 17995,
    "Ġcasualties": 25512,
    "Ġconcert": 11965,
    "achine": 601,
    "gins": 12466,
    "convul": 24883,
    "Ġreverie": 13456,
    "aggra": 21903,
    "alarms": 21502,
    "Ġcontinues": 18810,
    "Ġentries": 22741,
    "iana": 7048,
    "ify": 1472,
    "patter": 4147,
    "una": 21866,
    "Ġcan": 468,
    "Ġdusty": 14924,
    "assin": 22302,
    "alone": 10183,
    "Ġnile": 21518,
    "irm": 3110,
    "Ġsagacity": 16974,
    "Ġalive": 4400,
    "acknowledged": 15201,
    "Ġenormity": 19694,
    "kish": 20933,
    "shout": 22449,
    "Ġno": 510,
    "Ġtearless": 24786,
    "Ġreaction": 15692,
    "ordered": 8789,
    "shook": 19855,
    "Ġframe": 1928,
    "Ġunbroken": 18250,
    "Ġentry": 11027,
    "Ġravines": 25831,
    "Ġpirates": 9073,
    "Ġrepaired": 13106,
    "names": 16515,
    "ineff": 21963,
    "Ġoccupies": 24005,
    "manifested": 20524,
    "Ġapplications": 4784,
    "Ġweighing": 20014,
    "Ġwakeful": 24266,
    "letter": 6201,
    "etting": 21577,
    "tawn": 21079,
    "Ġtrem": 6659,
    "aver": 6785,
    "Ġdiscove": 16153,
    "Ġinsinuating": 19270,
    "Ġrewarding": 13436,
    "Ġethere": 23948,
    "verest": 13990,
    "Ġmarshalled": 25315,
    "Ġcomprehen": 5349,
    "braid": 17494,
    "visible": 10533,
    "Ġbelted": 22945,
    "Ġpresentiment": 18989,
    "Ġestimation": 11218,
    "Ġdetail": 634,
    "Ġattacked": 10567,
    "Ġpiteous": 17917,
    "Ġheadland": 22895,
    "rifice": 12501,
    "Ġstaying": 8283,
    "memory": 13616,
    "worshipping": 16610,
    "Ġsumatra": 15285,
    "hill": 15361,
    "Ġuninhabited": 22048,
    "Ġsucceeding": 16761,
    "mas": 5212,
    "Ġassembled": 9235,
    "Ġwooing": 19432,
    "Ġthinner": 24182,
    "Ġout": 543,
    "fluttering": 23970,
    "Ġhitting": 21485,
    "Ġclimbing": 20068,
    "Ġliberality": 24377,
    "Ġbeards": 21748,
    "Ġabundance": 17155,
    "Ġredoubled": 23751,
    "Ġexcite": 11964,
    "apping": 5851,
    "Ġchinese": 14183,
    "Ġmould": 6519,
    "night": 2166,
    "Ġsafely": 9025,
    "Ġunbending": 25464,
    "whatsoever": 18487,
    "Ġprev": 6264,
    "Ġeagerness": 6608,
    "Ġprocedural": 12029,
    "Ġcassock": 20485,
    "umberland": 16837,
    "Ġsign": 2495,
    "Ġhere": 1088,
    "Ġplant": 8899,
    "Ġconstable": 19068,
    "Ġbeak": 18079,
    "ï": 176,
    "Ġclung": 10958,
    "Ġhated": 7584,
    "Ġbully": 23854,
    "Ġoppressively": 25712,
    "Ġband": 5290,
    "elled": 3994,
    "Ġpressure": 13421,
    "Ġhiss": 15785,
    "Ġseated": 4542,
    "Ġferocious": 17418,
    "Ġbeale": 12696,
    "Ġclearness": 23180,
    "Ġpanegyric": 26449,
    "dragging": 16609,
    "Ġlighter": 12650,
    "playing": 19656,
    "Ġsupre": 10268,
    "Ġoccasionally": 5590,
    "Ġinvent": 7164,
    "Ġrefined": 18695,
    "Ġweighty": 16031,
    "Ġreally": 2157,
    "wid": 10134,
    "agings": 18165,
    "subsided": 25830,
    "Ġsinging": 7723,
    "oro": 21393,
    "Ġuncontrollable": 25814,
    "Ġtrod": 15026,
    "jolly": 20930,
    "Ġshall": 1144,
    "Ġord": 3736,
    "Ġterminated": 23507,
    "olently": 15754,
    "crow": 9590,
    "zen": 5140,
    "linked": 17593,
    "¡": 99,
    "Ġrepro": 7275,
    "Ġwhatsoever": 18455,
    "strils": 10458,
    "Ġbeh": 1802,
    "Ġsarat": 21226,
    "oms": 4594,
    "Ġ30": 10511,
    "uary": 11537,
    "safety": 20348,
    "erred": 6376,
    "Ġtrace": 6181,
    "Ġskipper": 22795,
    "uction": 15442,
    "Ġbulkington": 14677,
    "Ġparsee": 6413,
    "something": 4287,
    "Ġcrusad": 23705,
    "Ġaqu": 17742,
    "Ġlatitude": 8328,
    "Ġrheum": 18214,
    "Ġah": 5075,
    "Ġtradesman": 20071,
    "Ġharvest": 13414,
    "Ġmomentum": 1601,
    "Ġstripping": 23695,
    "Ġpals": 13917,
    "Ġdishonoured": 20389,
    "Ġdec": 641,
    "mouthful": 25208,
    "Ġeverywhere": 9795,
    "Ġincident": 6280,
    "Ġhearing": 4761,
    "Ġvac": 5025,
    "Ġspeedily": 7711,
    "Ġdisastrous": 16058,
    "Ġrefuge": 8538,
    "Ġunwe": 15836,
    "burnt": 20078,
    "Ġmouthful": 16574,
    "Ġpassive": 22838,
    "cc": 472,
    "Ġwiping": 25765,
    "amet": 582,
    "igned": 5656,
    "Ġpap": 8797,
    "Ġply": 21451,
    "Ġrenewing": 19809,
    "Ġattracted": 8904,
    "Ġheels": 10850,
    "Ġaggreg": 12881,
    "Ġdemeanour": 17336,
    "Ġtrinity": 22342,
    "ices": 2136,
    "Ġgaol": 19566,
    "Ġdais": 24372,
    "Ġcrevice": 22723,
    "Ġdiscontented": 16057,
    "Ġuntoward": 19164,
    "Ġmultitude": 9324,
    "Ġmildness": 9943,
    "ucy": 15443,
    "consider": 6348,
    "Ġjames": 6419,
    "Ġbowed": 6242,
    "Ġcrushed": 9422,
    "Ġwindows": 4971,
    "Ġhos": 4942,
    "Ġprovided": 6577,
    "Ġdate": 7841,
    "Ġwhar": 7388,
    "aswag": 21543,
    "Ġsolving": 2483,
    "oken": 4309,
    "Ġser": 1671,
    "Ġslouched": 13056,
    "Ġgames": 11625,
    "assure": 9269,
    "Ġmartin": 25436,
    "Ġdraught": 9843,
    "Ġach": 2620,
    "04": 10679,
    "Ġcapricious": 20537,
    "Ġpauses": 14814,
    "Ġsen": 9156,
    "bourn": 3303,
    "Ġprosecuted": 25293,
    "ports": 13773,
    "Ġgi": 15663,
    "iguous": 18043,
    "represent": 9637,
    "Ġsung": 23269,
    "Ġmastery": 23990,
    "Ġconjecture": 9531,
    "Ġmastiff": 23723,
    "endured": 22222,
    "id": 338,
    "Ġgentle": 1890,
    "Ġjig": 15949,
    "Ġalleys": 25978,
    "Ġgets": 10839,
    "fel": 8733,
    "Ġproceedings": 9906,
    "Ġperformed": 8546,
    "albatross": 15627,
    "phil": 7924,
    "Ġsport": 6688,
    "Ġhope": 1788,
    "wards": 1276,
    "fishery": 10031,
    "Ġcrabs": 19173,
    "ion": 296,
    "Ġnoises": 18374,
    "ception": 6562,
    "Ġadmin": 23551,
    "Ġtaken": 2528,
    "Ġforebodings": 17303,
    "gia": 20875,
    "Ġexord": 21824,
    "Ġapparelled": 20435,
    "Ġapprovingly": 26250,
    "Ġmorrow": 9342,
    "Ġquestioning": 10464,
    "Ġmountainous": 16599,
    "pute": 8844,
    "Ġpale": 4533,
    "Ġstren": 15717,
    "rail": 10204,
    "morning": 4859,
    "Ġdeficient": 18824,
    "Ġmeanness": 22593,
    "Ġconsuming": 22789,
    "Ġfootpath": 19337,
    "Ġdames": 23472,
    "enthus": 17977,
    "jee": 17579,
    "lac": 17589,
    "expect": 4769,
    "--âĢľ": 12969,
    "Ġplaited": 14282,
    "Ġcolours": 12971,
    "Ġunintelligible": 26514,
    "atches": 13845,
    "ficial": 17548,
    "Ġclanging": 18423,
    "useless": 14594,
    "Ġexamined": 6334,
    "vener": 21110,
    "Ġdiscoveries": 13357,
    "Ġtranslation": 3089,
    "Ġsweeter": 23915,
    "Ġbaron": 19333,
    "Ġdepartments": 24242,
    "Ġevery": 927,
    "isome": 17848,
    "Ġobtru": 18672,
    "Ġforth": 3464,
    "Ġanat": 8123,
    "Ġpreluding": 18368,
    "ores": 2414,
    "Ġconfide": 13097,
    "Ġtinge": 25087,
    "Ġext": 882,
    "Ġtraced": 10383,
    "Ġrecourse": 22737,
    "spout": 7922,
    "Ġintellig": 526,
    "Ġwire": 13851,
    "Ġimputable": 22170,
    "Ġforeseeing": 23449,
    "Ġfurnishes": 19439,
    "Ġoverlooking": 22354,
    "etence": 21574,
    "),": 1346,
    "Ġbert": 4583,
    "Ġfile": 13902,
    "Ġcomplained": 16998,
    "Ġunfulfilled": 26509,
    "Ġpricking": 23216,
    "Ġsincerity": 13677,
    "Ġblasted": 7937,
    "Ġetern": 7085,
    "zers": 21145,
    "Ġbone": 4695,
    "hatchet": 24822,
    "Ġidentifies": 12013,
    "yours": 7694,
    "Ġwoollen": 12101,
    "Ġcrossed": 6068,
    "queequeg": 4336,
    "Ġworst": 7444,
    "Ġflowery": 16231,
    "prevailed": 17344,
    "chariot": 26479,
    "Ġtant": 12522,
    "Ġsheer": 14150,
    "Ġrecommended": 8667,
    "Ġproof": 6153,
    "Ġflann": 23009,
    "Ġdisguise": 10045,
    "ucumber": 19058,
    "abash": 18107,
    "Ġveritable": 19379,
    "Ġsmitten": 12896,
    "Ġwanted": 4968,
    "Ġseethe": 21960,
    "Ġaspect": 3098,
    "germ": 15355,
    "Ġreproach": 9556,
    "mens": 20968,
    "Ġbronze": 22862,
    "Ġcopper": 7425,
    "Ġantarctic": 19551,
    "ilight": 12690,
    "Ġeager": 3571,
    "Ġseer": 21956,
    "Ġpointed": 4773,
    "inger": 6812,
    "board": 3566,
    "Ġhark": 8427,
    "unwilling": 14060,
    "Ġlooked": 1803,
    "ches": 2148,
    "Ġbildad": 3782,
    "Ġsustenance": 19932,
    "osy": 11756,
    "Ġpursu": 3240,
    "ither": 1550,
    "midnight": 14901,
    "te": 994,
    "Ġmadden": 10447,
    "Ġunsub": 22020,
    "interrupt": 8615,
    "kinson": 10025,
    "Ġdare": 3546,
    "Ġbelonging": 8307,
    "Ġconsulted": 13429,
    "Ġlucas": 3833,
    "Ġappro": 656,
    "Ġbloodless": 19338,
    "Ġquadr": 8199,
    "Ġdissimilar": 22528,
    "Ġestates": 16458,
    "Ġadapted": 11040,
    "Ġadded": 2717,
    "trivial": 21091,
    "Ġpanting": 11602,
    "iem": 20916,
    "Ġalien": 14017,
    "roy": 7853,
    "whe": 1072,
    "derick": 22164,
    "uous": 4149,
    "Ġceler": 15548,
    "Ġunexpectedly": 19908,
    "cheap": 23803,
    "Ġrecorded": 11293,
    "Ġfrog": 23918,
    "tempted": 26403,
    "Ġdisposed": 7083,
    "Ġperplexed": 23661,
    "Ġunwelcome": 12777,
    "Ġgramm": 8170,
    "Ġmessage": 13522,
    "favour": 9548,
    "geese": 22361,
    "Ġrecklessly": 16983,
    "system": 4518,
    "ta": 13788,
    "chosen": 21692,
    "Ġharpoone": 2914,
    "Ġvultures": 25653,
    "Ġwhichever": 13999,
    "Ġundressed": 19512,
    "Ġdearly": 10401,
    "Ġbaboon": 19692,
    "Ġhousehold": 8567,
    "Ġpassing": 4317,
    "Ġconst": 1910,
    "Ġhandsomer": 20332,
    "Ġadvocate": 13675,
    "Ġbanners": 24858,
    "Ġwill": 678,
    "õ": 182,
    "Ġoblong": 14320,
    "Ġtranqu": 4605,
    "Ġquest": 1999,
    "Ġbrave": 6329,
    "Ġzone": 14357,
    "Ġwatson": 3597,
    "Ġfol": 1287,
    "misery": 13342,
    "occup": 7752,
    "Ġbears": 6829,
    "Ġunfavourable": 17416,
    "Ġclearer": 16312,
    "Ġott": 13865,
    "Ġattempted": 8000,
    ":": 30,
    "refusal": 24736,
    "gallery": 24693,
    "Ġambition": 11432,
    "Ġweeps": 24947,
    "Ġdeceit": 13480,
    "Ġoy": 15543,
    "ē": 212,
    "va": 4743,
    "Ġanne": 1533,
    "Ġfix": 2508,
    "heedful": 20572,
    "Ġadvert": 10571,
    "Ġinjunctions": 24269,
    "Ġtutored": 20126,
    "Ġfuss": 13904,
    "Ġakin": 15494,
    "Ġent": 903,
    "Ġalteration": 9545,
    "Ġspecimen": 13020,
    "elopement": 23188,
    "liking": 22921,
    "Ġmisconduct": 22754,
    "Ġsystemat": 18442,
    "gallant": 7780,
    "Ġduc": 4697,
    "acon": 10681,
    "obliv": 23094,
    "god": 4863,
    "oda": 15747,
    "inement": 11557,
    "Ġwhiteness": 5918,
    "Ġcarve": 23090,
    "fat": 8078,
    "Ġallusion": 7625,
    "hunsford": 24386,
    "Ġencounters": 19579,
    "Ġunlo": 22009,
    "Ġreturned": 2895,
    "Ġeludes": 26554,
    "cabinet": 25077,
    "tastes": 21095,
    "asleep": 21541,
    "Ġchairs": 12823,
    "Ġox": 7153,
    "Ġorganize": 8991,
    "chop": 21685,
    "isure": 6240,
    "oided": 11508,
    "Ġeuroclydon": 15295,
    "Ġspoil": 17007,
    "estion": 18363,
    "Ġclassification": 1114,
    "Ġunspeakably": 25172,
    "iced": 3902,
    "Ġceasing": 23755,
    "ĠÂ£": 5006,
    "Ġcordage": 19677,
    "Ġhauling": 14086,
    "Ġpettic": 14840,
    "violent": 14580,
    "Ġherds": 9715,
    "Ġhelplessly": 20076,
    "Ġannual": 14831,
    "Ġsnorting": 23739,
    "expressed": 9041,
    "ifers": 15779,
    "Ġstudies": 7955,
    "persuade": 13532,
    "Ġmors": 17801,
    "Ġdoubloon": 6945,
    "Ġnatives": 17950,
    "Ġthirt": 13938,
    "safie": 20347,
    "Ġregain": 22575,
    "Ġboneless": 19604,
    "Ġancho": 15600,
    "Ġprogra": 1146,
    "Ġsaluted": 14757,
    "crucible": 24842,
    "Ġbulb": 23853,
    "Ġpostponed": 20388,
    "rospect": 11611,
    "Ġclosest": 16763,
    "Ġwindow": 2996,
    "arness": 11670,
    "fro": 8732,
    "Ġbitterness": 8024,
    "pul": 8753,
    "eastward": 15128,
    "Ġaux": 21198,
    "Ġtenants": 23545,
    "extra": 8218,
    "Ġascent": 19617,
    "glings": 23849,
    "Ġsublime": 8065,
    "Ġdiana": 21434,
    "Ġprisoner": 8672,
    "Ġloosened": 26002,
    "Ġexaggerated": 25650,
    "cules": 12389,
    "semic": 21818,
    "Ġbattered": 17862,
    "Ġorigin": 4124,
    "fow": 20852,
    "Ġfaulty": 14906,
    "Ġdeline": 16331,
    "Ġthreatening": 16828,
    "Ġmassa": 19452,
    "Ġdrought": 19277,
    "Ġlinn": 13952,
    "van": 7814,
    "Ġinfatuated": 20532,
    "Ġcaress": 16337,
    "Ġgrotesque": 26329,
    "airing": 16172,
    "Ġabide": 14190,
    "----âĢĻ": 24096,
    "hair": 9122,
    "Ġbegone": 11914,
    "Ġlakeman": 6986,
    "Ġtwos": 18656,
    "ropri": 2178,
    "Ġfriesland": 26442,
    "Ġlands": 6594,
    "Ġbeckoning": 20500,
    "historical": 20464,
    "as": 302,
    "Ġunclasp": 26511,
    "Ġminut": 2202,
    "preced": 10309,
    "ren": 549,
    "veral": 2352,
    "alarmed": 21500,
    "sufferable": 12174,
    "Ġappal": 18358,
    "likelihood": 4992,
    "seek": 8836,
    "Ġsanguinary": 25929,
    "Ġfilm": 23922,
    "Ġchain": 1845,
    "Ġearn": 3548,
    "brance": 7284,
    "Ġerudite": 26350,
    "Ġharpoon": 3616,
    "coming": 3563,
    "Ġepic": 15029,
    "Ġintervened": 25481,
    "Ġcubs": 20085,
    "Ġappl": 1790,
    "Ġnib": 13939,
    "Ġvoy": 2619,
    "Ġturning": 3328,
    "Ġremembering": 14610,
    "Ġsill": 10765,
    "writes": 4988,
    "Ġscanning": 18393,
    "Ġsemantic": 1959,
    "Ġnet": 3627,
    "Ġameric": 3854,
    "entieth": 17978,
    "Ġimpact": 10296,
    "neighboring": 20615,
    "Ġprecaution": 11197,
    "Ġconvolutions": 21804,
    "Ġrowing": 10300,
    "Ġwishing": 7830,
    "Ġmainmast": 9778,
    "Ġunprovided": 18260,
    "chambers": 25454,
    "dman": 10088,
    "compl": 6873,
    "Ġsophisticated": 1579,
    "vap": 13802,
    "treacle": 25148,
    "Ġinst": 910,
    "Ġthemselves": 3252,
    "advantage": 8658,
    "Ġav": 3582,
    "blow": 9103,
    "mare": 17599,
    "lengths": 24846,
    "<SOS>": 1,
    "Ġburly": 19249,
    "dropped": 12260,
    "ntax": 937,
    "Ġfriendless": 23021,
    "rank": 21040,
    "Ġmarrying": 6177,
    "Ġfrigid": 17352,
    "Ġmain": 807,
    "pag": 11510,
    "Ġpraised": 19552,
    "Ġeach": 892,
    "Ġdismasted": 15250,
    "Ġetc": 7084,
    "Ġfields": 2141,
    "Ġhealthy": 10851,
    "making": 2572,
    "every": 2810,
    "inj": 9151,
    "reeling": 21243,
    "Ġbrist": 14377,
    "Ġenvironmental": 24056,
    "cracy": 24690,
    "peculiarities": 13470,
    "Ġrenegades": 26476,
    "tranqu": 14705,
    "--------": 14779,
    "poled": 22906,
    "just": 1697,
    "Ġboa": 22634,
    "undertaking": 23785,
    "Ġdoubloons": 13433,
    "Ġroasted": 18460,
    "duty": 20238,
    "Ġcore": 13877,
    "Ġaccomp": 4713,
    "enstein": 5799,
    "Ġimpotent": 18447,
    "Ġexplored": 23515,
    "roof": 17953,
    "Ġdrag": 6184,
    "dining": 13704,
    "Ġvis": 1099,
    "Ġkrem": 9725,
    "Ġfac": 6381,
    "val": 1148,
    "Ġcaring": 23089,
    "Ġdelivery": 18975,
    "une": 2785,
    "hours": 9124,
    "Ġtease": 18802,
    "queen": 12724,
    "Ġtide": 6658,
    "addition": 13383,
    "Ġconcealment": 16914,
    "Ġwaned": 17791,
    "Ġimpious": 15984,
    "flask": 12097,
    "Ġlinear": 3432,
    "denial": 18717,
    "Ġopulence": 23626,
    "Ġclues": 18422,
    "_,âĢĻâĢĿ": 20399,
    "bolt": 25135,
    "summoned": 26591,
    "ble": 542,
    "^": 66,
    "Ġends": 8237,
    "kn": 5791,
    "Ġwalled": 15533,
    "Ġencl": 16164,
    "Ġsul": 7570,
    "painting": 17046,
    "Ġpompous": 20421,
    "pit": 3984,
    "Ġslackened": 15125,
    "coast": 10449,
    "Ġtook": 1855,
    "Ġinfluenced": 19631,
    "Ġmonster": 3794,
    "ĠĠĠĠĠĠĠĠĠĠĠĠĠĠĠĠĠĠĠĠĠĠĠĠĠĠĠĠĠĠĠĠĠĠĠĠĠĠĠĠĠĠĠĠĠĠ": 9952,
    "Ġshapes": 14108,
    "Ġsummary": 19401,
    "Ġseeking": 7035,
    "annica": 24561,
    "Ġvind": 10249,
    "sentence": 2941,
    "Ġlower": 2663,
    "Ġcongratulations": 10580,
    "Ġpublicly": 13321,
    "Ġfab": 15573,
    "Ġprison": 5403,
    "deceiving": 22141,
    "fury": 17547,
    "Ġupp": 13991,
    "othe": 2613,
    "Ġcaptain": 1603,
    "dense": 18716,
    "Ā": 193,
    "pal": 9616,
    "lied": 6507,
    "ploy": 2023,
    "Ġaffrighted": 13571,
    "Ġlamented": 24991,
    "Ġvaliantly": 22800,
    "belais": 24036,
    "son": 2328,
    "exagger": 22425,
    "decor": 23778,
    "ired": 1443,
    "Ġcrawford": 24893,
    "Ġagrees": 22513,
    "iet": 1773,
    "abs": 11666,
    "Ġsubaltern": 22788,
    "any": 3339,
    "Ġkeen": 4614,
    "ith": 330,
    "Ġledgers": 23935,
    "orns": 12589,
    "ositories": 22261,
    "Ġunwound": 25169,
    "irs": 14070,
    "Ġgenuine": 14884,
    "v": 90,
    "Ġjewel": 9941,
    "Ġskeleton": 5514,
    "Ġshoot": 11161,
    "Ġcounterpart": 24721,
    "anum": 17835,
    "Ġupbraid": 18318,
    "Ġpervers": 11781,
    "Ġpie": 13914,
    "Ġconsternation": 9858,
    "Ġrap": 14306,
    "Ġgesture": 11399,
    "Ġshag": 9250,
    "Ġsteed": 13038,
    "Ġcables": 15555,
    "Ġcaprice": 14577,
    "Ġbrutality": 26276,
    "hold": 3983,
    "Ġreconc": 9682,
    "generous": 16568,
    "Ġhindrance": 25220,
    "obvious": 9356,
    "Ġmetropolis": 17274,
    "berwell": 22717,
    "Ġtwice": 4662,
    "Ġterrors": 6918,
    "Ġmidday": 23631,
    "Ġventure": 7739,
    "Ġcatching": 9477,
    "Ġbaff": 10799,
    "partiality": 13159,
    "under": 3134,
    "antingly": 22095,
    "inquire": 16932,
    "Ġnieces": 8432,
    "Ġchill": 11750,
    "bern": 20774,
    "Ġfeebly": 24877,
    "possesses": 24616,
    "Ġphenomenon": 17916,
    "Ġtribes": 20479,
    "Ġexpense": 7651,
    "ner": 1370,
    "knell": 24555,
    "smile": 23903,
    "Ġconstrained": 19239,
    "results": 20385,
    "Ġcategories": 4478,
    "tree": 11533,
    "early": 20117,
    "thanking": 24330,
    "Ġhol": 1183,
    "Ġimpudence": 26241,
    "Ġseek": 4509,
    "Ġspeak": 2230,
    "Ġintegral": 25008,
    "mad": 5280,
    "wonder": 6371,
    "Ġsurround": 4618,
    "retrospect": 23133,
    "icip": 6389,
    "iability": 20919,
    "Ġtearing": 14394,
    "vent": 683,
    "Ġacting": 10991,
    "bber": 4569,
    "thrusting": 20258,
    "Ġrested": 9378,
    "prec": 3203,
    "Ġ20": 8613,
    "Ġhoist": 11975,
    "ancies": 11583,
    "Ġbush": 23335,
    "bellies": 19972,
    "Ġpredecessor": 26253,
    "Ġunspeak": 8850,
    "Ġguardian": 14941,
    "Ġplucked": 15112,
    "Ġmadame": 13149,
    "Ġtapped": 11553,
    "Ġmagnanim": 14471,
    "gpt": 5355,
    "backward": 2683,
    "yesterday": 10353,
    "Ġfacility": 19849,
    "Ġforbidden": 17078,
    "stern": 8444,
    "cask": 12444,
    "rine": 21036,
    "iment": 2816,
    "Ġwheelbarrow": 17204,
    "Ġnature": 2539,
    "ĠĠĠĠĠĠĠĠĠĠĠĠĠĠĠĠĠĠĠĠĠĠĠĠĠĠĠĠĠĠĠĠĠĠĠĠĠĠĠĠĠĠĠĠĠ": 9951,
    "rises": 17655,
    "breast": 11246,
    "iferous": 17291,
    "susceptible": 24661,
    "Ġdispersed": 16597,
    "concerted": 16671,
    "Ġpeace": 3694,
    "Ġtraffic": 23080,
    "Ġover": 554,
    "fleece": 19946,
    "impregn": 21711,
    "Ġpardon": 5727,
    "aboard": 21791,
    "Ġobedience": 11413,
    "orative": 21396,
    "Ġinconvenient": 20008,
    "arying": 9800,
    "Ġaveraging": 2419,
    "Ġrelaps": 18775,
    "Ġstru": 2168,
    "ingale": 21298,
    "eagerly": 17315,
    "Ġy": 341,
    "bar": 7541,
    "Ġauthent": 14506,
    "accidents": 19211,
    "Ġsuff": 1304,
    "investments": 25532,
    "stud": 8819,
    "Ġenl": 18188,
    "Ġenquired": 21937,
    "Ġmodified": 14167,
    "Ġfulf": 6772,
    "Ġnearer": 5301,
    "Ġrivers": 9441,
    "Ġbodings": 21389,
    "portuguese": 25413,
    "Ġlanguor": 12844,
    "ched": 1549,
    "Ġtu": 6968,
    "Ġwedge": 24069,
    "Ġdeserted": 8636,
    "cent": 8072,
    "Ġbaw": 15566,
    "ning": 949,
    "through": 4025,
    "istered": 14144,
    "Ġcanoes": 12802,
    "Ġtort": 5901,
    "Ġbanish": 15567,
    "Ġportrait": 10661,
    "Ġfors": 21768,
    "Ġespecial": 26410,
    "Ġsorts": 6887,
    "locks": 14455,
    "Ġsnarled": 25716,
    "remain": 9837,
    "Ġda": 5150,
    "Ġdisobey": 18559,
    "hy": 4740,
    "Ġenglishmen": 19428,
    "riend": 1186,
    "attention": 2109,
    "Ġnonsensical": 21526,
    "mic": 12486,
    "Ġinterests": 14569,
    "Ġrumbling": 18211,
    "Ġdiscoloured": 15251,
    "eked": 16400,
    "arse": 7160,
    "Ġindelicacy": 25695,
    "Ġexpedite": 24953,
    "Ġsanta": 26420,
    "coll": 23777,
    "Ġdilated": 24704,
    "Ġshameful": 19851,
    "divided": 25018,
    "Ġwarmth": 6905,
    "ĠmanÅĵuv": 18417,
    "Ġhowling": 8509,
    "ively": 1302,
    "Ġintroduces": 3269,
    "ourable": 4967,
    "alled": 5910,
    "chased": 18041,
    "credit": 12446,
    "presents": 18798,
    "Ġamounts": 6704,
    "Ġnotes": 7189,
    "Ġhues": 21486,
    "Ġruffled": 25835,
    "thyself": 19297,
    "method": 17284,
    "Ġoccupy": 14730,
    "Ġplun": 6281,
    "anous": 21357,
    "Ġwond": 3940,
    "naturalists": 23525,
    "Ġskeletons": 16791,
    "evidence": 25521,
    "prison": 14662,
    "orney": 17873,
    "Ġcreate": 2090,
    "Ġhurry": 4913,
    "Ġnations": 8809,
    "licted": 20955,
    "crimin": 17508,
    "voyage": 7785,
    "Ġfireplace": 13144,
    "<UNK>": 3,
    "Ġeleven": 9389,
    "separately": 25227,
    "pleasures": 24044,
    "Ġimper": 4502,
    "public": 17646,
    "dinah": 20079,
    "Ġobstacles": 19834,
    "kward": 6958,
    "Ġimproper": 22744,
    "Ġhumiliation": 16196,
    "quohog": 21855,
    "atiate": 12545,
    "Ġindisp": 18834,
    "verdict": 21726,
    "Ġdenial": 13213,
    "Ġconsequence": 5542,
    "itering": 17818,
    "Ġleaky": 2345,
    "Ġfig": 3625,
    "Ġregrets": 18592,
    "Ġclassify": 1608,
    "vulgar": 25918,
    "Ġwis": 3729,
    "Ġexecutioner": 12269,
    "oking": 4607,
    "Ġdownst": 3559,
    "Ġarg": 4766,
    "Ġimpressed": 8198,
    "oky": 8197,
    "Ġhusband": 3620,
    "Ġcyn": 13885,
    "Ġturtles": 19220,
    "Ġtex": 15471,
    "Ġtre": 2536,
    "Ġwax": 10776,
    "thousands": 16872,
    "Ġcoop": 14269,
    "Ġcomprehensiveness": 25072,
    "Ġliveliest": 24775,
    "purposes": 25021,
    "cd": 15322,
    "report": 13398,
    "Ġtolerable": 6949,
    "Ġrecede": 25968,
    "Ġbon": 8785,
    "Ġresisted": 22538,
    "Ġchoicest": 24220,
    "arer": 3970,
    "Ġchaplain": 19911,
    "ostentatious": 20651,
    "Ġpattered": 19035,
    "netherfield": 9812,
    "Ġadaptation": 3158,
    "icting": 12850,
    "Ġmuch": 923,
    "py": 17624,
    "ix": 1801,
    "screwed": 17187,
    "Ġwhelm": 25998,
    "aited": 12433,
    "Ġobservations": 13552,
    "Ġwhaler": 7520,
    "Ġharrow": 17925,
    "Ġnorthumbria": 24171,
    "Ġposition": 1954,
    "Ġfrancis": 26063,
    "Ġgasped": 11372,
    "Ġtrustworthy": 24106,
    "Ġcoffee": 6760,
    "fate": 17539,
    "consciousness": 13364,
    "Ġpopularly": 12239,
    "Ġlessened": 19087,
    "isturbed": 18297,
    "lung": 17591,
    "Ġhardy": 8565,
    "Ġopine": 19227,
    "Ġtim": 4579,
    "undoubtedly": 13310,
    "itz": 6005,
    "Ġword": 1051,
    "Ġlimped": 19180,
    "insist": 23061,
    "Ġtribe": 10751,
    "Ġchamois": 16800,
    "Ġinconsistency": 26182,
    "Ġconse": 21801,
    "Ġtides": 13820,
    "Ġincomplete": 17208,
    "Ġtruth": 3321,
    "Ġvenge": 5420,
    "object": 6884,
    "spades": 14334,
    "Ġforefinger": 16443,
    "duing": 22408,
    "crat": 24097,
    "Ġreturns": 11924,
    "lev": 1235,
    "Ġslavish": 23170,
    "Ġsouls": 6308,
    "Ġfeedback": 23431,
    "ellect": 7381,
    "Ġbelt": 13000,
    "Ġbagging": 24539,
    "Ġknighthood": 25297,
    "Ġrafters": 22659,
    "Ġlimit": 10443,
    "Ġcalves": 13032,
    "define": 1526,
    "darted": 20831,
    "mosp": 8088,
    "autions": 20766,
    "isted": 3300,
    "vember": 10855,
    "solemn": 19816,
    "Ġprevent": 757,
    "Ġrestrict": 16372,
    "Ġscore": 9736,
    "Ġdetective": 14404,
    "gladness": 25194,
    "Ġperennial": 22691,
    "poke": 18799,
    "Ġitaly": 10867,
    "utted": 15658,
    "Ġyarns": 15194,
    "Ġvol": 4192,
    "Ġcorn": 9349,
    "Ġseaward": 22944,
    "Ġinsist": 9889,
    "imen": 12683,
    "Ġanimals": 8978,
    "ividual": 5464,
    "Ġmistaken": 4986,
    "Ġspitzbergen": 15286,
    "Ġcloudy": 19475,
    "Ġlong": 795,
    "bott": 9105,
    "vag": 8764,
    "portent": 25412,
    "Ġintroduce": 3206,
    "venant": 22622,
    "rim": 7137,
    "Ġlungless": 24863,
    "Ġbleeds": 24397,
    "Ġappeals": 16315,
    "Ġlights": 8960,
    "uck": 1233,
    "Ġprimitive": 25061,
    "charge": 9448,
    "rets": 12538,
    "Ġkicking": 16901,
    "Ġincalcul": 16061,
    "Ġwoll": 21292,
    "seventy": 10876,
    "Ġhorn": 6185,
    "pression": 10407,
    "pudding": 17647,
    "ep": 445,
    "user": 5105,
    "Ġpleasing": 6190,
    "Ġimpending": 22383,
    "Ġflooring": 23622,
    "Ġopportunities": 19248,
    "Ġarsac": 11740,
    "chair": 5916,
    "captains": 12125,
    "yder": 10138,
    "Ġins": 2780,
    "ubbub": 23241,
    "Ġoutward": 7903,
    "gangway": 20666,
    "agged": 9236,
    "Ġbarbar": 6935,
    "philips": 20033,
    "Ġalternative": 19985,
    "Ġglut": 18852,
    "Ġunrecorded": 17467,
    "idate": 21764,
    "atus": 21259,
    "Ġroses": 11784,
    "more": 1031,
    "Ġdistended": 16042,
    "cork": 20795,
    "hush": 20905,
    "Ġburton": 23655,
    "Ġtawn": 13822,
    "kingly": 20938,
    "Ġunfeeling": 14118,
    "lock": 1469,
    "discoveries": 25385,
    "pans": 13769,
    "Ġviewing": 19263,
    "Ġtwit": 12926,
    "lounged": 26133,
    "Ġabode": 7900,
    "Ġaugmentation": 20114,
    "measureless": 20234,
    "Ġduncan": 13460,
    "Ġled": 3523,
    "Ġlashes": 17966,
    "Ġbehoo": 19034,
    "Ġdere": 21832,
    "awned": 19458,
    "inction": 6660,
    "paddington": 20476,
    "Ġconcerned": 5331,
    "Ġgayer": 24501,
    "Ġswell": 8949,
    "Ġmen": 1431,
    "instr": 12528,
    "batim": 25016,
    "jaw": 13742,
    "spin": 22729,
    "Ġandes": 12638,
    "urches": 12682,
    "Ġblanche": 18819,
    "draw": 23896,
    "Ġoutside": 5554,
    "Ġuneasiness": 9483,
    "Ġdisput": 14255,
    "ef": 5134,
    "Ġrally": 21968,
    "oder": 2460,
    "Ġmeditation": 16680,
    "Ġscholar": 26111,
    "ong": 536,
    "ibles": 18786,
    "Ġmanhandle": 22326,
    "Ġrejoiced": 8683,
    "Ġcasually": 25093,
    "keeper": 5597,
    "Ġsmoothed": 23659,
    "crown": 13697,
    "Ġfren": 10805,
    "Ġdecapitated": 20614,
    "Ġpreliminaries": 25176,
    "paper": 9136,
    "renew": 24450,
    "ins": 1375,
    "Ġclamorous": 24909,
    "Ġbenefit": 8292,
    "crowded": 20189,
    "Ġcommerce": 11015,
    "Ġchosen": 7201,
    "Ġmaybe": 12946,
    "Ġconsoled": 18112,
    "Ġamaz": 5385,
    "men": 1485,
    "Ġtopmost": 14587,
    "alvan": 21501,
    "Ġquito": 24408,
    "Ġjoints": 12033,
    "arm": 1354,
    "Ġmungo": 25631,
    "feeder": 12359,
    "loving": 18540,
    "believe": 8303,
    "Ġspan": 11726,
    "kinder": 24845,
    "Ġsocial": 7007,
    "zed": 8103,
    "Ġsmilingly": 22557,
    "Ġopal": 23624,
    "_.âĢĿ": 5885,
    "congreg": 25398,
    "jol": 20924,
    "Ġsphynx": 20711,
    "Ġpresumed": 10544,
    "Ġsoften": 23120,
    "Ġmiller": 19882,
    "Ġponies": 21474,
    "Ġrough": 7187,
    "Ġstrand": 11826,
    "Ġrisen": 9492,
    "outon": 12800,
    "vess": 7354,
    "Ġfixedly": 19247,
    "Ġsebastian": 11696,
    "idy": 21761,
    "Ġthinnest": 24183,
    "cod": 12441,
    "Ġlimited": 23543,
    "encing": 21281,
    "toed": 18578,
    "Ġdeity": 18137,
    "Ġtravels": 11925,
    "rmsprop": 4523,
    "Ġarrayed": 25664,
    "Ġwitnessed": 14843,
    "icult": 3342,
    "Ġdoctrine": 24197,
    "infall": 21187,
    "Ġsteersman": 13039,
    "Ġsuicide": 12783,
    "finer": 17546,
    "Ġfamily": 1966,
    "Ġgam": 11623,
    "Ġcling": 11769,
    "Ġstupendous": 20499,
    "parameter": 3070,
    "affections": 17356,
    "Ġvapor": 8699,
    "swe": 5995,
    "Ġdir": 21419,
    "Ġchamp": 18381,
    "Ġfacet": 15582,
    "Ġelemental": 19918,
    "Ġsermon": 12374,
    "Ġglacier": 11433,
    "Ġbounce": 21391,
    "Ġneural": 618,
    "Ġsche": 1703,
    "Ġundo": 15838,
    "Ġresume": 18565,
    "Ġblu": 2686,
    "handled": 19260,
    "Ġpromise": 4201,
    "Ġgods": 6454,
    "Ġnoise": 1069,
    "ibbald": 18841,
    "Ġthis": 382,
    "Ġireland": 17334,
    "Ġloungers": 24862,
    "hurry": 24763,
    "networks": 2406,
    "gates": 20871,
    "Ġclimax": 25051,
    "pond": 21012,
    "itted": 2442,
    "Ġver": 3393,
    "irty": 4051,
    "Ġbu": 3683,
    "Ġmal": 5221,
    "orified": 21400,
    "Ġchancery": 20715,
    "kill": 13743,
    "ò": 179,
    "Ġsavages": 9911,
    "anzas": 17840,
    "Ġswart": 14433,
    "Ġgreenland": 5761,
    "Ġfront": 3452,
    "icism": 13955,
    "impatience": 25500,
    "Ġmanx": 7904,
    "Ġtreacle": 14595,
    "Ġrequirements": 9793,
    "Ġshirr": 18231,
    "Ġbeef": 6830,
    "Ġpolite": 9881,
    "Ġdifficulty": 5770,
    "hid": 13733,
    "Ġblown": 12083,
    "niece": 20994,
    "Ġpitiful": 13237,
    "Ġadver": 5641,
    "aked": 2013,
    "Ġannals": 17898,
    "Ġconfirmation": 17210,
    "Ġdetection": 3447,
    "Ġmasoned": 20250,
    "writhed": 26080,
    "powers": 25410,
    "Ġmake": 1284,
    "Ġovertook": 18428,
    "Ġdolph": 12378,
    "worked": 19015,
    "Ġpointing": 5661,
    "Ġconcentrated": 15082,
    "Ġesq": 15107,
    "lord": 3865,
    "Ġconsecrate": 26489,
    "isol": 17846,
    "Ġsports": 18310,
    "Ġconfound": 23302,
    "î": 175,
    "resemblance": 25933,
    "Ġmoods": 14950,
    "Ġattacks": 12202,
    "althily": 19357,
    "Ġfelony": 18951,
    "Ġsweetness": 9446,
    "Ġcomfor": 14053,
    "Ġfergus": 16867,
    "goes": 10426,
    "Ġterritories": 23843,
    "iments": 4945,
    "lim": 9606,
    "Ġdim": 4757,
    "Ġcaval": 25769,
    "ontory": 10460,
    "Ġmedical": 9463,
    "mers": 9610,
    "Ġful": 4299,
    "Ġslips": 23163,
    "88": 20757,
    "Ġdying": 2135,
    "Ġspin": 7629,
    "Ġintroduction": 8970,
    "Ġdelayed": 9517,
    "Ġgobern": 22422,
    "sw": 4741,
    "Ġpremature": 3726,
    "becoming": 18516,
    "Ġpianoforte": 15272,
    "Ġaccompaniments": 24482,
    "sequent": 6831,
    "scar": 9815,
    "µ": 118,
    "Ġpince": 21469,
    "fiercely": 25256,
    "chamber": 13624,
    "Ġczar": 12571,
    "Ġestablish": 9542,
    "Ġmarsh": 9820,
    "twas": 15436,
    "Ġtoilette": 20491,
    "avating": 18605,
    "onym": 14649,
    "Ġthousandth": 23683,
    "Ġinitial": 820,
    "Ġsimulates": 2740,
    "sooner": 14774,
    "Ġintermission": 18587,
    "Ġsow": 17749,
    "Ġbec": 1348,
    "Ġbrightened": 23826,
    "Ġdisappointing": 19578,
    "Ġfitzwilliam": 5771,
    "Ġencourage": 10380,
    "Ġcredited": 25153,
    "ime": 625,
    "ulnerable": 18150,
    "Ġpalsy": 25778,
    "Ġsmoked": 10322,
    "Ġregimentals": 19857,
    "Ġburial": 16522,
    "Ġmeeting": 5193,
    "Ġcondesc": 7181,
    "Ġimplicated": 24875,
    "Ġowing": 6004,
    "tic": 8390,
    "Ġtoilet": 13936,
    "Ġundertaken": 18986,
    "Ġagreed": 7028,
    "mole": 22698,
    "Ġapples": 22211,
    "Ġabridged": 26541,
    "zas": 17712,
    "Ġcategorization": 12134,
    "gracious": 11829,
    "Ġperplexity": 2755,
    "Ġtorments": 13393,
    "bearer": 18518,
    "Ġwhiting": 10859,
    "contempl": 13190,
    "Ġunreason": 15840,
    "Ġlucerne": 23862,
    "Ġcrawled": 17044,
    "Ġmutinous": 23955,
    "Ġhurtling": 24957,
    "Ġprizes": 13072,
    "idation": 5022,
    "riv": 3111,
    "Ġnumber": 1980,
    "Ġloomed": 12299,
    "Ġreiter": 21663,
    "Ġcrushing": 20175,
    "Ġmiserable": 3635,
    "Ġphilist": 16601,
    "Ġreaders": 18914,
    "Ġpuff": 6526,
    "enterprise": 24992,
    "infidel": 24663,
    "Ġproportionably": 19969,
    "wishing": 21127,
    "Ġabrupt": 9737,
    "Ġrevolve": 19729,
    "Ġembraced": 10005,
    "Ġindist": 14408,
    "Ġshaved": 21999,
    "follow": 5680,
    "Ġshaking": 6551,
    "orrah": 17875,
    "Ġinfancy": 10409,
    "Ġoff": 902,
    "Ġtram": 11091,
    "lotts": 23823,
    "noise": 14343,
    "Ġcalmly": 7733,
    "Ġmalay": 24391,
    "Ġslipper": 24265,
    "Ġoblivious": 26032,
    "ison": 3077,
    "Ġanatomy": 12318,
    "iards": 17574,
    "Ġlobsters": 13516,
    "strugg": 21659,
    "Ġstrikes": 13180,
    "Ġshocking": 10435,
    "unnecessary": 21877,
    "Ġbrood": 23098,
    "Ì": 141,
    "farewell": 12304,
    "Ġbidding": 9536,
    "Ġenjoyed": 8007,
    "barbs": 20236,
    "Ġstructural": 2797,
    "Ġ221": 25068,
    "Ġhe": 318,
    "Ġcass": 13878,
    "Ġrivals": 20270,
    "quality": 10232,
    "Ġtyphoons": 20233,
    "ł": 259,
    "dwelt": 23869,
    "tall": 17673,
    "Ġstochastic": 3266,
    "Ġinflu": 4909,
    "lilies": 20960,
    "Ġhatred": 8608,
    "icken": 6711,
    "É": 138,
    "stripped": 16945,
    "bits": 17488,
    "Ġsequentially": 4914,
    "Ġshaster": 21995,
    "deepest": 22831,
    "ley": 1817,
    "Ġseats": 14088,
    "Ġsquaw": 22836,
    "Ġlargely": 14284,
    "Ġoverpowering": 15248,
    "Ġhaughty": 11449,
    "won": 7144,
    "Ġplains": 14622,
    "Ġmother": 2067,
    "Ġflies": 13022,
    "ivation": 3112,
    "Ġmingling": 20196,
    "powder": 17645,
    "Ġcurt": 18842,
    "Ġchannels": 26013,
    "Ġmayhap": 18709,
    "Ġunmingled": 18263,
    "Ġinfamous": 16363,
    "Ġhoops": 9388,
    "society": 9971,
    "Ġringed": 16750,
    "Ġpredef": 18525,
    "his": 1410,
    "Ġaffright": 9331,
    "Ġrepairs": 19083,
    "Ġlionel": 25286,
    "idually": 21766,
    "nament": 11506,
    "Ġbending": 12582,
    "Ġcongealed": 25981,
    "Ġcrawl": 11375,
    "Ġemir": 23348,
    "ic": 304,
    "guilty": 19481,
    "âĢĿâĢĶ": 5721,
    "Ġoutstretched": 14195,
    "Ġmalays": 19676,
    "Ġapothe": 12373,
    "Ġentreated": 9950,
    "Ġalmanac": 26485,
    "Ġfinest": 10391,
    "Ġidea": 2487,
    "Ġplot": 14279,
    "Ġposted": 16724,
    "Ġmaintenance": 17461,
    "Ġenv": 2845,
    "Ġlicensing": 20091,
    "Ġreservoir": 20650,
    "Ġincorporate": 20453,
    "Ġenigmatical": 20596,
    "fear": 8513,
    "Ġgiant": 13967,
    "Ġ1828": 25720,
    "Ġsupposed": 4559,
    "Ġ85": 24460,
    "Ġquaint": 18465,
    "Ġthrough": 604,
    "Ġexhibition": 14956,
    "Ġbasics": 13447,
    "Ġeffusions": 18534,
    "Ġfitness": 23997,
    "Ġholder": 6724,
    "disgu": 19153,
    "elihood": 4623,
    "Ġdescending": 8902,
    "mon": 2308,
    "Ġsmaller": 1883,
    "Ġdressing": 7090,
    "Ġpained": 19166,
    "Ġweariness": 19793,
    "fixedly": 24929,
    "circum": 16737,
    "Ġdaintiest": 25953,
    "Ġdumb": 7843,
    "merc": 19279,
    "Ġ33": 16676,
    "indust": 18435,
    "supposed": 13314,
    "ainty": 21784,
    "Ġfervour": 19725,
    "Ġslope": 14459,
    "awake": 14451,
    "Ġcrisis": 13125,
    "Ġplanned": 14751,
    "Ġrifts": 21975,
    "Ġbring": 3325,
    "interred": 23735,
    "Ġundertake": 14479,
    "Ġdefy": 11895,
    "Ġembedding": 2103,
    "Ġ129": 24474,
    "Ġproduct": 3535,
    "bulk": 19923,
    "Ġmouldy": 14973,
    "Ġrolled": 4431,
    "Ġstern": 4225,
    "tering": 3807,
    "Ġkeenly": 9484,
    "Ġfry": 17879,
    "Ġfishers": 19352,
    "Ġaunts": 21199,
    "riages": 10243,
    "Ġultimate": 12347,
    "step": 2457,
    "Ġnorthward": 13320,
    "Ġnaturally": 2468,
    "Ġdrawer": 13265,
    "iteness": 4394,
    "ub": 1225,
    "Ġsit": 4219,
    "Ġprofited": 19190,
    "Ġmanifested": 17157,
    "considered": 9580,
    "Ġdeception": 18142,
    "Ġamends": 14245,
    "begged": 18517,
    "paradise": 20636,
    "fairly": 17219,
    "have": 2058,
    "Ġpregn": 22229,
    "Ġreasoner": 14441,
    "Ġslighter": 18939,
    "clerval": 7950,
    "Ġdeath": 2043,
    "derer": 4601,
    "brated": 12025,
    "ron": 5216,
    "Ġfunere": 22256,
    "sincerely": 24584,
    "itan": 10159,
    "Ġtranquilly": 12288,
    "Ġforcibly": 10060,
    "Ġappeal": 16314,
    "Ġexulting": 20257,
    "Ġbeatrix": 24204,
    "closing": 23153,
    "Ġstopping": 2750,
    "shunned": 22462,
    "Ġsolemn": 4103,
    "Ġforbearing": 25098,
    "moby": 8536,
    "ital": 4817,
    "swallowed": 14852,
    "Ġallusions": 10906,
    "Ġjoists": 19232,
    "Ġthrows": 14736,
    "Ġwonderfully": 10430,
    "ruin": 22173,
    "Ġapex": 24342,
    "Ġhastily": 5763,
    "presently": 9808,
    "Ġcheever": 23281,
    "Ġhammock": 5768,
    "Ġnaval": 16899,
    "_": 67,
    "dressing": 11481,
    "mentioning": 24885,
    "Ġcirculation": 16415,
    "Ġsimply": 7218,
    "audible": 17132,
    "Ġreassure": 21669,
    "Ġnigh": 4878,
    "Ġcommander": 8624,
    "Ġmassac": 14735,
    "wed": 5003,
    "Ġinconsiderable": 21492,
    "government": 25406,
    "sinking": 17668,
    "Ġtragedies": 25241,
    "Ġteacher": 22909,
    "Ġunthinkingly": 26220,
    "Ġendeav": 2956,
    "Ġripples": 25505,
    "Ġigniting": 25070,
    "hate": 20891,
    "Ġernest": 8716,
    "Ġsedentary": 25430,
    "Ġauthoritative": 19560,
    "Ġascend": 9959,
    "llable": 6879,
    "Ġmantel": 11439,
    "Ã¦": 4339,
    "Ġperem": 12929,
    "Ġinhale": 20299,
    "shrouded": 26361,
    "cely": 3575,
    "Ġ100": 14364,
    "Ġselect": 4000,
    "Ġlouis": 8356,
    "Ġcloset": 19590,
    "Ġtasselled": 25921,
    "Ġliv": 6679,
    "myst": 9821,
    "Ġshroud": 6483,
    "Ġhaving": 1881,
    "dark": 5614,
    "Ġclever": 7054,
    "Ġcurses": 13010,
    "scenes": 16241,
    "ux": 7813,
    "Ġaccidentally": 9504,
    "Ġbetake": 22904,
    "purp": 8090,
    "Ġsnuffed": 15071,
    "anders": 18152,
    "itters": 10781,
    "altern": 17941,
    "Ġestab": 6315,
    "hounds": 20906,
    "along": 6012,
    "Ġcredulous": 17144,
    "Ġdescrib": 2719,
    "Ġsinking": 7307,
    "Ġloadstone": 25816,
    "Ġpadd": 9669,
    "cutting": 23782,
    "Ġrid": 4356,
    "Ġfirmament": 19469,
    "Ġcats": 8979,
    "Ġunfolding": 17086,
    "Ġhorns": 11123,
    "ter": 359,
    "libr": 22920,
    "sander": 11526,
    "Ġking": 2304,
    "Ġbands": 14883,
    "Ġimpertinence": 11366,
    "Ġstuff": 5717,
    "Ġdeg": 3283,
    "herent": 2529,
    "matters": 14873,
    "Ġaddition": 1147,
    "Ġuntil": 2668,
    "Ġmisanthropic": 26560,
    "Ġexcessively": 9439,
    "Ġpreternatural": 12820,
    "Ġuncivilized": 25498,
    "Ġhopelessly": 16374,
    "owal": 13992,
    "allah": 5838,
    "Ġdetected": 18828,
    "Ġdownright": 16116,
    "Ġflint": 23006,
    "goin": 23401,
    "aye": 3660,
    "Ġasks": 5115,
    "ohn": 4562,
    "Ġclink": 22345,
    "Ġ2": 2931,
    "Ġunexpected": 6841,
    "Ġmomentarily": 22808,
    "Ġexquisite": 12380,
    "Ġneatness": 19931,
    "theories": 18078,
    "Ġgaze": 6932,
    "æ": 167,
    "organic": 25946,
    "nearer": 22447,
    "Ġrecoil": 18692,
    "Ġsecret": 3721,
    "Ġbashee": 19848,
    "Ġrival": 10485,
    "================": 3724,
    "turning": 8316,
    "Ġessence": 13404,
    "Ġadaptively": 4095,
    "Ġlub": 15646,
    "Ġattraction": 18625,
    "Ġcapstan": 9098,
    "Ġbeloved": 5572,
    "rences": 9271,
    "discern": 14850,
    "Ġdeact": 18138,
    "ginger": 13162,
    "Ġimitated": 18329,
    "illation": 14141,
    "Ġrocked": 12853,
    "Ġintruder": 25991,
    "Ġofficious": 19346,
    "Ġyoun": 1406,
    "Ġpredicts": 2593,
    "Ġsheepfold": 25466,
    "viating": 14579,
    "solut": 3364,
    "Ġresigned": 9767,
    "Ġcit": 10783,
    "Ġdestruction": 6600,
    "**:": 4737,
    "Ġhaggerston": 26452,
    "Ġliking": 23590,
    "someone": 14564,
    "Ġindiscriminately": 20626,
    "Ġgrecian": 26296,
    "inders": 15979,
    "surprising": 16919,
    "smart": 23904,
    "tedious": 22630,
    "unctions": 18155,
    "cim": 8719,
    "placidity": 25988,
    "Ġfocus": 4239,
    "intense": 22933,
    "capable": 13700,
    "ings": 636,
    "Ġantiquities": 25598,
    "Ġtinged": 20081,
    "Ġhorizont": 6937,
    "pips": 21019,
    "Ġfaltering": 17884,
    "posterity": 25488,
    "leton": 5148,
    "deck": 4501,
    "Ġcommunications": 16353,
    "conc": 3948,
    "Ġcous": 3436,
    "jumped": 20245,
    "affair": 14655,
    "Ġmanifold": 13559,
    "dict": 15338,
    "Ġvanishing": 1345,
    "woof": 21138,
    "Ġscience": 1529,
    "dation": 2612,
    "zza": 24167,
    "Ġcod": 8411,
    "Ġimagenet": 19245,
    "interrupted": 11417,
    "uttered": 8440,
    "Ġattach": 14290,
    "Ġclaim": 5106,
    "itate": 6667,
    "Ġapothecary": 13658,
    "Ġwheel": 9717,
    "aried": 10987,
    "buoy": 7760,
    "Ġconge": 15743,
    "inev": 21962,
    "Ġseamen": 5063,
    "regularly": 13207,
    "Ġconvolutional": 2160,
    "embers": 21924,
    "Ġintimately": 24804,
    "hawk": 7121,
    "Ġconsort": 18723,
    "rab": 7596,
    "Ġcomely": 21845,
    "Ġmutters": 23953,
    "awed": 10390,
    "Ġix": 12665,
    "Ġparting": 9782,
    "Ġimpul": 7208,
    "Ġunexpl": 22036,
    "Ġreusable": 13556,
    "Ġimag": 2675,
    "Ġtelegram": 15222,
    "Ġretire": 10381,
    "Ġenvelope": 7319,
    "cast": 2930,
    "indebted": 26158,
    "Ġrefill": 18694,
    "Ġxxx": 7766,
    "butter": 11783,
    "Ġaccompanying": 11304,
    "conscientious": 19625,
    "Ġnewton": 3534,
    "Ġdevils": 7230,
    "slanting": 24558,
    "Ġfrock": 10489,
    "Ġfragrant": 13093,
    "Ġsagittarius": 24732,
    "ibly": 2995,
    "vable": 10132,
    "Ġsuccession": 12099,
    "endurable": 22223,
    "Ġunheeded": 18261,
    "Ġal": 342,
    "Ġquietude": 19358,
    "Ġgoney": 14545,
    "Ġspitz": 14148,
    "Ġrefuse": 5739,
    "ĠĠĠĠĠĠĠ": 7631,
    "Ġbox": 5109,
    "shazz": 14241,
    "Ġasc": 4765,
    "Ġderivatives": 2370,
    "Ġthom": 21513,
    "aulding": 11339,
    "Ġexactly": 2767,
    "Ġshadow": 5596,
    "usion": 3302,
    "Ġsink": 4342,
    "purse": 20023,
    "Ġmizen": 17258,
    "Ġgates": 10200,
    "div": 8075,
    "Ġunhappily": 18262,
    "Ġduck": 8793,
    "bod": 12435,
    "Ġwaste": 9233,
    "adopt": 25544,
    "su": 794,
    "onday": 6063,
    "Ġwilfully": 16766,
    "msprop": 2624,
    "Ġannoy": 17198,
    "Ġhighly": 4844,
    ".": 18,
    "adv": 4538,
    "Ġprivile": 8645,
    "alt": 12635,
    "Ġchuckled": 10647,
    "Ġwashing": 9704,
    "Ġwantonly": 22891,
    "Ġbattalions": 25776,
    "ppered": 15788,
    "Ġunallied": 22029,
    "Ġconsole": 8150,
    "Ġrenders": 13282,
    "heartedness": 24827,
    "ame": 644,
    "hot": 8083,
    "Ġchas": 18379,
    "trop": 15435,
    "fortunes": 6332,
    "veil": 18045,
    "Ġdashing": 8795,
    "Ġunfrequently": 20738,
    "ulate": 5233,
    "Ă": 195,
    "Ġimmemorially": 25383,
    "lish": 1951,
    "ize": 771,
    "Ġthread": 14539,
    "Ġpagan": 7117,
    "Ġwhit": 7177,
    "Ġmart": 10779,
    "Ġcarn": 17821,
    "Ġverd": 6919,
    "Ġshutting": 14758,
    "Ġappellation": 22215,
    "Ġmoose": 22428,
    "Ġredness": 19311,
    "Ġmont": 8557,
    "Ġdeveloped": 16344,
    "bul": 6951,
    "Ġdair": 17889,
    "uplifted": 17695,
    "heav": 5694,
    "Ġreddening": 25970,
    "Ġcoopman": 25827,
    "Ġmankind": 6698,
    "Ġshade": 6550,
    "Ġinclude": 1874,
    "abby": 14020,
    "Ġhighway": 14347,
    "Ġsister": 1473,
    "Ġrequires": 1040,
    "ason": 1280,
    "Ġdarts": 16768,
    "ishes": 6523,
    "Ġhooks": 14967,
    "Ġwapping": 21293,
    "Ġrecurrent": 1804,
    "Ġdrab": 13069,
    "Ġautom": 3430,
    "buncle": 13691,
    "carrying": 16712,
    "Ġtea": 5041,
    "Ġfris": 23253,
    "ifled": 14062,
    "collins": 6916,
    "reds": 12747,
    "Ġapplying": 13090,
    "expense": 22426,
    "Ġsaddest": 16662,
    "Ġcig": 6520,
    "âĢĶâĢĻ": 8187,
    "Ġparmacetti": 20603,
    "Ġmonogram": 26574,
    "Ġbuttoning": 17235,
    "Ġbeseeching": 26311,
    "Ġtablet": 19203,
    "Ġloving": 8175,
    "Ġstun": 11649,
    "off": 1886,
    "Ġbeaut": 2393,
    "Ġdivined": 19441,
    "embarr": 15794,
    "V": 58,
    "Ġstarry": 16923,
    "Ġsin": 1513,
    "Ġroar": 9752,
    "olera": 21830,
    "Ġwait": 4907,
    "Ġunaffected": 14121,
    "hero": 21203,
    "Ġcards": 7580,
    "Ġpump": 12618,
    "Ġflaming": 8563,
    "ortal": 6265,
    "Ġhydraul": 9513,
    "bil": 20770,
    "doubtful": 24791,
    "Ġverdict": 13474,
    "Ġperches": 18448,
    "Ġforgetfulness": 14606,
    "Ġvener": 8163,
    "Ġconcocted": 26299,
    "Ġphyset": 23197,
    "steady": 14708,
    "Ġdo": 511,
    "folly": 20861,
    "Ġhier": 1894,
    "Ġunlucky": 10049,
    "--âĢĺ": 22845,
    "plun": 15813,
    "ğ": 224,
    "capitals": 25080,
    "jour": 20926,
    "Ġpips": 9853,
    "ieved": 3231,
    "Ġuproar": 22152,
    "Ġthoroughfares": 26095,
    "rann": 21043,
    "Ġjeer": 24124,
    "lace": 13747,
    "Ġtakes": 5007,
    "Ġlabour": 7274,
    "ase": 1161,
    "ders": 8074,
    "Ġeag": 2968,
    "Ġirritation": 20265,
    "Ġexhibiting": 19837,
    "dock": 16417,
    "flakes": 23965,
    "Ġwatch": 2744,
    "Ġneeded": 7717,
    "Ġaslant": 21898,
    "izzy": 3097,
    "wic": 21119,
    "vell": 3959,
    "Ġmarvels": 11084,
    "och": 21000,
    "true": 2585,
    "Ġadjac": 18292,
    "Ġreliably": 22873,
    "Ġmixture": 9562,
    "awe": 20764,
    "č": 206,
    "pra": 15406,
    "sudden": 5315,
    "Ġencodings": 4775,
    "Ġdistraction": 22502,
    "Ġmouths": 7491,
    "Ġclergy": 7642,
    "Ġirritated": 17242,
    "Ġvessel": 3799,
    "Ġstood": 2552,
    "Ġcur": 1241,
    "Ġinspection": 14544,
    "maj": 18806,
    "Ġuneasily": 24230,
    "attered": 4020,
    "spersed": 22733,
    "Ġweltering": 19584,
    "glances": 23851,
    "Ġbackground": 18641,
    "Ġgorgeous": 20465,
    "asc": 6386,
    "Ġpeevish": 26557,
    "Ġcapting": 23016,
    "Ġclasped": 17206,
    "desper": 13067,
    "Ġgranted": 22804,
    "Ġrapidity": 11104,
    "Ġlumber": 13951,
    "carefully": 13367,
    "gaffman": 26390,
    "Ġkeys": 11995,
    "Ġassu": 21894,
    "steelkilt": 10046,
    "produce": 20281,
    "unning": 4494,
    "isl": 21373,
    "e": 73,
    "assertion": 22308,
    "prit": 19340,
    "Ġquarrels": 16566,
    "Ġglow": 7170,
    "Ġinferiority": 17115,
    "consult": 24169,
    "reel": 21232,
    "Ġbast": 21377,
    "Ġdischarge": 18556,
    "low": 652,
    "Ġcr": 2150,
    "Ġexcluded": 16383,
    "Ġstains": 21738,
    "Ġaside": 5234,
    "Ġeternities": 19941,
    "Ġpe": 853,
    "Ġapprehensions": 13403,
    "urp": 1471,
    "creature": 5346,
    "Ġgallery": 10524,
    "ç": 168,
    "Ġhinted": 6011,
    "cially": 3492,
    "impression": 15708,
    "white": 4603,
    "Ġpretty": 3861,
    "anything": 5518,
    "Ġplausible": 26553,
    "Ġinfiltrated": 23280,
    "Ġcond": 3875,
    "ropout": 1321,
    "/": 19,
    "Ġform": 1021,
    "gloom": 17139,
    "Ġdismember": 20214,
    "Ġamusing": 11798,
    "ral": 4628,
    "Ê": 139,
    "Ġthrew": 3975,
    "narwhale": 17317,
    "Ġbelike": 18830,
    "ulged": 12727,
    "Ġperceptibly": 25821,
    "Ġinexperienced": 26100,
    "prisoner": 20542,
    "Ġforgotten": 5679,
    "Ġhed": 7387,
    "Ġrainbows": 19647,
    "variance": 2656,
    "illing": 8174,
    "Ġdiminish": 14744,
    "bonnet": 25742,
    "Ġknight": 9726,
    "urously": 18050,
    "free": 8735,
    "Ġcorpulence": 24509,
    "Ġunreliable": 3930,
    "ape": 1905,
    "Ġglass": 4371,
    "Ġsmite": 22554,
    "Ġstool": 14460,
    "Ġsuspic": 4471,
    "Ġbale": 7838,
    "circumstance": 7763,
    "Ġunwinding": 22057,
    "ield": 2409,
    "Ġunbecoming": 22061,
    "Ġcarried": 3695,
    "swept": 19785,
    "Ġleave": 2458,
    "Ġsaxe": 13627,
    "Ġstrengthen": 20699,
    "Ġcoco": 11000,
    "Ġshutter": 16670,
    "Ġdrifting": 19278,
    "Ġbattery": 21392,
    "Ġpotential": 3619,
    "Ġprivately": 19522,
    "grateful": 10428,
    "Ġextending": 11021,
    "desol": 13066,
    "coat": 5407,
    "umphed": 23514,
    "Ġhundreds": 4330,
    "Ġunwarrantable": 26353,
    "appo": 3916,
    "Ġattentively": 9949,
    "strate": 12671,
    "Ġvain": 3630,
    "jephro": 26392,
    "Ġerie": 20052,
    "Ġdisapprobation": 16056,
    "Ġsubdued": 11030,
    "kins": 7345,
    "Ġpenetration": 19916,
    "Ġimpo": 3442,
    "Ġobstructed": 24677,
    "Ġremorseless": 13450,
    "Ġyelled": 9693,
    "Ġscrutiny": 26015,
    "endeavoured": 12278,
    "Ġpicturesque": 14893,
    "Ġfleetness": 20178,
    "Ġ64": 24367,
    "waste": 21133,
    "announced": 19758,
    "Ġrepose": 6741,
    "Ġadmon": 15866,
    "Ġsituated": 9447,
    "prove": 11147,
    "Ġmetaphysical": 26069,
    "Ġslewed": 23383,
    "Ġjot": 11761,
    "Ġsilently": 6894,
    "Ġcalls": 6744,
    "Ġbrothers": 13174,
    "itch": 10160,
    "entering": 17976,
    "Ġpine": 8796,
    "Ġjur": 12831,
    "floor": 14935,
    "Ġbonds": 17869,
    "Ġinteractions": 12900,
    "move": 11852,
    "became": 10514,
    "Ġrecall": 3856,
    "Ġblemish": 19678,
    "Ġreposing": 23359,
    "Ġkne": 4269,
    "Ġiroquois": 26472,
    "Ġmish": 15535,
    "Ġvestibule": 13536,
    "Ġgull": 15667,
    "vint": 21113,
    "respond": 12541,
    "Ġpleated": 16296,
    "Ġpleasant": 4174,
    "ampling": 12723,
    "Ġtables": 9877,
    "Ġrelentless": 26277,
    "witness": 10034,
    "Ġdeser": 3887,
    "Ġlikened": 16499,
    "Ġmoby": 3665,
    "Ġdey": 11674,
    "Ġbound": 3520,
    "Ġshipping": 14103,
    "Ġfeeling": 3086,
    "Ġaccomplishment": 19664,
    "fitted": 17544,
    "Ġlexic": 15721,
    "ities": 1827,
    "orts": 2556,
    "Ġfrankenstein": 7095,
    "Ġprovoke": 14825,
    "nical": 20990,
    "Ġbroadway": 23981,
    "Ġbount": 15565,
    "Ġtriumph": 5143,
    "umul": 1288,
    "Ġwindpipe": 23103,
    "tps": 11534,
    "Ġ130": 24781,
    "aced": 2408,
    "Ġactions": 6278,
    "Ġdevoutly": 25832,
    "narr": 12494,
    "yellow": 9624,
    "heat": 15496,
    "Ġfusion": 21412,
    "besides": 8695,
    "Ġsheath": 14151,
    "behaviour": 11301,
    "Ġthrown": 4640,
    "laying": 19771,
    "Ġvoluntary": 14798,
    "Ġling": 7377,
    "Ġqueequeg": 2010,
    "Ġelectric": 15193,
    "slight": 10727,
    "adow": 18087,
    "Ġdeclining": 23961,
    "Ġbureau": 11589,
    "Ġforwarded": 19043,
    "Ġunresting": 25553,
    "Ġmark": 2330,
    "Ġliberated": 19665,
    "Ġsignature": 16493,
    "Ġawoke": 7286,
    "Ġharmless": 9964,
    "oner": 6124,
    "Ġblaze": 16218,
    "permitted": 18342,
    "Ġbuffalo": 11429,
    "hope": 5989,
    "collected": 13212,
    "Ġmeaning": 1414,
    "Ġcalling": 5662,
    "Ġoffing": 16140,
    "ilege": 22253,
    "inging": 5906,
    "Ġdevices": 2943,
    "Ġpistol": 7846,
    "ree": 875,
    "Ġcollapsed": 15080,
    "Ġrubber": 22784,
    "Ġlurking": 11289,
    "Ġentit": 22740,
    "Ġbeeches": 9226,
    "ping": 9615,
    "lively": 12482,
    "Ġsires": 21225,
    "Ġmatrices": 4969,
    "Ġcommentaries": 20159,
    "Ġtranquill": 6630,
    "ductive": 23933,
    "Ġhardly": 2434,
    "arthy": 4822,
    "principle": 10650,
    "Ġfetching": 16896,
    "kindness": 10505,
    "Ġdeceitful": 25733,
    "completed": 19992,
    "ĠcÃ¦": 15552,
    "scru": 16240,
    "ittance": 12842,
    "hetic": 12201,
    "irresistible": 18173,
    "Ġmorose": 18848,
    "Ġmischief": 8541,
    "Ġoverjoy": 15969,
    "Ġellenborough": 26154,
    "etts": 12657,
    "Ġraiment": 22655,
    "Ġencomp": 12960,
    "lizzy": 6651,
    "Ġreasoning": 2095,
    "Ġdata": 516,
    "Ġcorporeally": 25729,
    "Ġeluc": 16106,
    "Ġfairest": 20461,
    "usive": 8191,
    "explanations": 25234,
    "Ġsensationalism": 26066,
    "Ġutensils": 23512,
    "Ġdemi": 25548,
    "Ġappalling": 8498,
    "Ġconfounded": 16382,
    "Ġtoy": 15631,
    "Ġcaves": 15551,
    "Ġresponsiveness": 2901,
    "Ġhelm": 5275,
    "inkles": 7426,
    "Ġmorsel": 20676,
    "Ġaltered": 7393,
    "Ġgulp": 20027,
    "above": 8147,
    "Ġhesitate": 16946,
    "Ġprophets": 20449,
    "Ġjup": 15950,
    "Ġgasp": 7172,
    "encies": 4081,
    "enorm": 17781,
    "ont": 2621,
    "Ġprophesy": 26061,
    "Ġstag": 6148,
    "rollable": 13944,
    "pron": 9005,
    "Ĕ": 213,
    "Ġenrapt": 21936,
    "Ġfifty": 4624,
    "Ġvineyarder": 25606,
    "Ġproceeds": 12075,
    "Ġsweeping": 8985,
    "Ġbrine": 18769,
    "velling": 14761,
    "Ġevian": 24292,
    "Ġparad": 2846,
    "lected": 1635,
    "Ġimbalance": 22171,
    "cripp": 20818,
    "Ġprofane": 13151,
    "Ġsatire": 22898,
    "smote": 23907,
    "Ġmarch": 4083,
    "Ġcouch": 12568,
    "sent": 760,
    "shire": 3022,
    "Ġlofty": 6217,
    "city": 15326,
    "Ġilluminate": 17192,
    "Ġpartners": 11851,
    "onsible": 22558,
    "rushing": 10017,
    "Ġimprecations": 25820,
    "Ġconcluding": 9856,
    "Ġrevived": 11368,
    "Ġbutcher": 18271,
    "Ġ91": 24589,
    "elizabeth": 1985,
    "osen": 6855,
    "condemned": 26060,
    "Ġbarrowful": 25595,
    "aneous": 7240,
    "useful": 16502,
    "conside": 9289,
    "Ġdescends": 14286,
    "Ġsmokes": 22556,
    "_:": 17478,
    "Ġapo": 9630,
    "Ġdrowning": 19903,
    "ashing": 4824,
    "sterdam": 19089,
    "Ġpreservative": 24629,
    "ctor": 13959,
    "Ġreluctant": 20523,
    "Ġunb": 10907,
    "seven": 8463,
    "Ġrealise": 16335,
    "Ġdrama": 16327,
    "abst": 21785,
    "liament": 16216,
    "Ġsatisfaction": 5667,
    "Ġconcoct": 19045,
    "deduction": 23555,
    "Ġdelicate": 6480,
    "Ġselling": 21223,
    "Ġbacked": 12922,
    "cure": 11474,
    "Ġabundantly": 17156,
    "Ġhudson": 15190,
    "draughts": 20386,
    "Ġdefendants": 15139,
    "Ġfleet": 9431,
    "pocket": 9810,
    "ousness": 10274,
    "Ġrueful": 25581,
    "Ġmagnet": 10389,
    "Ġhose": 12624,
    "port": 10719,
    "Ġstarboard": 7604,
    "Ġworthless": 19564,
    "levi": 7047,
    "latitudes": 17196,
    "Ġdreaded": 8288,
    "Ġhissed": 15786,
    "Ġphysiognomy": 25610,
    "lessness": 5317,
    "arial": 5532,
    "Ġomnipotent": 13547,
    "consequ": 18504,
    "Ġwr": 1546,
    "rush": 7010,
    "Ġz": 997,
    "wandered": 20284,
    "infernal": 24662,
    "inserted": 18885,
    "Ġcherub": 23284,
    "Ġdiscrete": 2477,
    "Ġclum": 8872,
    "odecimoes": 25318,
    "Ġcool": 5734,
    "veh": 12678,
    "Ġforthwith": 16618,
    "Ġequilibrium": 4144,
    "Ġconsec": 21802,
    "Ġlif": 10195,
    "Ġdesperado": 19818,
    "devoted": 20015,
    "Ġdest": 2237,
    "fall": 5135,
    "Ġconception": 10317,
    "Ġdissolved": 18554,
    "Ġlovel": 10271,
    "present": 1138,
    "weekly": 25684,
    "ivates": 18283,
    "em": 389,
    "Ġhonor": 5664,
    "Ġexpiring": 16093,
    "Ġopulent": 23627,
    "Ġlunch": 13525,
    "Ġlexicon": 25974,
    "bitter": 11241,
    "tuesday": 17690,
    "Ġantagonist": 26328,
    "shold": 2772,
    "Ġabstained": 25231,
    "Ġjing": 15947,
    "eminent": 25104,
    "Ġeuroc": 14958,
    "°": 113,
    "umblings": 23927,
    "apter": 1193,
    "Ġnorth": 4321,
    "Ġfrocks": 23919,
    "Ġextraordinary": 5414,
    "flitted": 23966,
    "depart": 12263,
    "Ġgrievous": 13260,
    "Ġafrican": 20136,
    "ever": 1075,
    "vour": 17699,
    "Ġgovernments": 20266,
    "Ġjam": 10951,
    "obli": 23092,
    "Ġbubblingly": 25632,
    "Ġrecovering": 11861,
    "oniously": 21256,
    "pyramid": 21029,
    "Ġgreen": 3052,
    "Ġdamp": 8263,
    "Ġemptied": 24347,
    "Ġnod": 1888,
    "Ġfreezing": 23881,
    "Ġath": 15799,
    "me": 874,
    "Ġsoles": 22076,
    "Ġsupplies": 20325,
    "room": 2177,
    "concerned": 24638,
    "Ġsolicited": 20035,
    "Ġdigging": 14937,
    "Ġillinois": 19136,
    "Ġworried": 22923,
    "Ġintegr": 7968,
    "Ġseren": 7401,
    "Ġsunbeam": 23272,
    "Ġshudderings": 25200,
    "Ġlining": 13950,
    "Ġfairly": 6325,
    "lorious": 17592,
    "upid": 6581,
    "Ġdodging": 19886,
    "shabb": 18495,
    "Ġpubl": 3941,
    "Ġgloss": 11955,
    "Ġendeavouring": 8034,
    "Ġjewelled": 20182,
    "Ġdistribut": 842,
    "Ġmutable": 23952,
    "Ġneck": 4885,
    "Ġharpooned": 13261,
    "clay": 18930,
    "databases": 3025,
    "Ġenem": 4708,
    "silenced": 24423,
    "ships": 5486,
    "chers": 11317,
    "Ġsignificant": 8633,
    "malicious": 19901,
    "Ġrhine": 12354,
    "Ġleviathanic": 12078,
    "Ġhollowly": 24526,
    "Ġconsider": 2568,
    "Ġindef": 9189,
    "Ġjustly": 11901,
    "Ġcorners": 18874,
    "Ġknow": 631,
    "Ġarose": 7360,
    "aches": 6570,
    "deceptive": 22146,
    "pendicular": 6499,
    "Ġdistant": 5387,
    "Ġdivinest": 25722,
    "Ġstil": 15715,
    "Ġtravelling": 11307,
    "embed": 18182,
    "boys": 13358,
    "Ġsickness": 10538,
    "Ġgermans": 25784,
    "izarre": 17388,
    "Ġtis": 15464,
    "here": 2549,
    "Ġhanging": 5447,
    "Ġtherein": 11774,
    "Ġrighted": 23175,
    "inv": 8400,
    "Ġvales": 21943,
    "een": 726,
    "Ġrussia": 26267,
    "telling": 14438,
    "pooh": 18800,
    "Ġafraid": 3531,
    "Ġactionable": 24559,
    "Ġundertone": 23236,
    "Ġemploying": 23975,
    "mix": 20973,
    "answers": 22137,
    "Ġcreat": 1433,
    "Ġcuba": 25095,
    "Ġsk": 962,
    "chel": 11207,
    "Ġrug": 16155,
    "Ġbitterly": 8314,
    "Ġinquirer": 24961,
    "Ġinsignificance": 20456,
    "Ġscold": 10950,
    "Ġdespised": 14666,
    "Ġbuying": 23993,
    "harpooneer": 8688,
    "Ġtable": 2499,
    "Ġsubsc": 22786,
    "cab": 7333,
    "iour": 4039,
    "ighter": 7967,
    "osing": 3691,
    "alloyed": 22198,
    "Ġger": 21588,
    "Ġturkish": 12259,
    "Ġcounterbalance": 24722,
    "Ġjumbled": 22294,
    "Ġmayhew": 12947,
    "Ġunhe": 22007,
    "Ġscrawled": 24580,
    "Ġcomposition": 1686,
    "Ġtestified": 16330,
    "Ġworse": 4719,
    "Ġplank": 7033,
    "andish": 18153,
    "Ġattention": 1181,
    "Ġmuscle": 14689,
    "Ġsore": 10764,
    "Ġknowest": 12860,
    "Ġstreamed": 14546,
    "related": 24009,
    "Ġministers": 22829,
    "Ġglance": 4236,
    "Ġbeliever": 25845,
    "declared": 15117,
    "Ġsquad": 22834,
    "Ġexchange": 15751,
    "Ġschedules": 3386,
    "fug": 17543,
    "Ġindecision": 25781,
    "governed": 25405,
    "Ġthinkings": 22807,
    "Ġtrains": 10947,
    "Ē": 211,
    "Ġexper": 1293,
    "Ġdetaining": 25818,
    "Ġdoted": 21431,
    "oo": 7553,
    "Ġref": 898,
    "Ġbows": 4084,
    "strained": 21655,
    "Ġevangelical": 25506,
    "Ġbraw": 23832,
    "cream": 15330,
    "Ġmaddening": 17243,
    "bohem": 19001,
    "dying": 10694,
    "pine": 13768,
    "Ġsocietal": 11436,
    "Ġrail": 7226,
    "purpose": 10043,
    "Ġdecreas": 1647,
    "Ġparent": 14645,
    "Ġpress": 5931,
    "Ġroyal": 5602,
    "ccess": 3185,
    "ipping": 2206,
    "become": 14246,
    "Ġstudied": 11115,
    "Ġsells": 21222,
    "Ġdict": 9175,
    "Ġsomething": 1795,
    "Ġremembr": 24170,
    "again": 3398,
    "Ġgord": 21597,
    "spass": 18689,
    "Ġlottery": 19887,
    "swiss": 24255,
    "ry": 805,
    "Ġmalignity": 10556,
    "Ġnews": 3819,
    "intercourse": 14638,
    "Ġmilliner": 19883,
    "Ġdiscerned": 25003,
    "Ġattractive": 25575,
    "ython": 1028,
    "8": 28,
    "Ġpitches": 23899,
    "Ġeel": 18001,
    "ing": 273,
    "Ġrum": 5923,
    "Ġmortifying": 13245,
    "Ġdestroyed": 5271,
    "Ġbr": 1071,
    "phenomenon": 17648,
    "frequent": 15352,
    "Ġcleared": 6074,
    "Ġperiodical": 14771,
    "Ġevenings": 18753,
    "Ġoptimizers": 18618,
    "paus": 13772,
    "anations": 12573,
    "enet": 10152,
    "Ġcanvassed": 19933,
    "Ġjunks": 25113,
    "Ġperturbed": 20438,
    "Ġfling": 9660,
    "Ġclumsy": 9579,
    "utterly": 20010,
    "Ġdab": 15585,
    "Ġtenderest": 23548,
    "Ġsunk": 5752,
    "irth": 5634,
    "sou": 12503,
    "Ġstray": 18069,
    "Ġanimal": 2498,
    "fl": 3600,
    "Ġlightning": 5750,
    "illustration": 2283,
    "Ġcries": 7154,
    "Ġrails": 22656,
    "Ġbigot": 24565,
    "newsp": 23130,
    "Ġkitty": 3911,
    "shiver": 16024,
    "iveness": 2469,
    "hereafter": 19216,
    "Ġnasty": 17442,
    "ife": 1022,
    "wheels": 14380,
    "Ġfrighted": 24026,
    "Ġdens": 21422,
    "Ġloft": 5642,
    "ves": 697,
    "Ġstiff": 6992,
    "Ġtrotting": 19974,
    "opÃ¦": 12870,
    "Ġbark": 10798,
    "Ġintently": 8168,
    "jabez": 20932,
    "Ġdestitute": 14566,
    "Ġboast": 7034,
    "Ġcalifornian": 25851,
    "Ġingenious": 12346,
    "Ġpagans": 16922,
    "Ġconcil": 23319,
    "Ġjune": 10288,
    "lucases": 20209,
    "ashes": 6015,
    "Ġenvelop": 5586,
    "Ġconsisting": 8971,
    "Ġtruest": 16703,
    "Ġunduly": 25994,
    "masterly": 24530,
    "Ġpersonally": 8598,
    "Ġsquires": 16181,
    "Ġwhites": 21714,
    "Ġphenomena": 21481,
    "next": 5891,
    "Ġeaten": 14844,
    "Ġpresently": 5116,
    "Ġfarewell": 9519,
    "alog": 8804,
    "Ġcrest": 12939,
    "Ġ32": 19487,
    "Ġcumulative": 4214,
    "Ġtambourine": 9564,
    "Ġpatentee": 25586,
    "Ġfowler": 16937,
    "Ġlikely": 3598,
    "Ġdeeply": 4717,
    "serv": 7451,
    "Ġirregularly": 25323,
    "Ġdist": 680,
    "Ġproud": 5654,
    "seas": 14032,
    "Ġwar": 5526,
    "Ġallev": 18100,
    "Ġshooting": 11162,
    "Ġnamed": 6139,
    "Ġrationally": 18213,
    "Ġwhereon": 16099,
    "ernally": 22617,
    "Ġsix": 3044,
    "Ġtempt": 5565,
    "Ġspect": 3553,
    "Ġrogue": 22402,
    "Ġunlab": 3789,
    "contin": 16542,
    "Ġrender": 8304,
    "Ġdungeon": 16996,
    "Ġeffected": 14354,
    "slow": 7810,
    "Ġmout": 17798,
    "ution": 4351,
    "Ġplaced": 3444,
    "Ġimpartial": 15218,
    "Ġcramped": 23529,
    "existence": 16012,
    "Ġbalm": 22901,
    "Ġwides": 17788,
    "Ġvelocity": 10620,
    "Ġflashing": 13025,
    "Ġnumberless": 16414,
    "Ġpeaks": 16126,
    "Ġscound": 12829,
    "Ġenergies": 25459,
    "Ġcomrade": 12281,
    "Ġstalk": 12694,
    "Ġmiser": 18703,
    "pread": 7418,
    "Ġtwee": 22672,
    "Ġwillow": 18530,
    "started": 10845,
    "Ġpoignant": 22590,
    "Ġwhilst": 9218,
    "Ġsooner": 5573,
    "Ġquestioned": 14619,
    "Ġwronged": 24247,
    "lue": 8508,
    "Ġprovincial": 20649,
    "Ġrummaged": 16910,
    "Ġross": 2764,
    "onsense": 6431,
    "Ġbecame": 2691,
    "may": 3680,
    "G": 43,
    "deformity": 22143,
    "Ġmasterless": 23992,
    "Ġminuteness": 19138,
    "leful": 17842,
    "bal": 2154,
    "Ġtombed": 25160,
    "Ġcarpent": 4466,
    "Ġ275": 20109,
    "ulled": 14055,
    "ensities": 22543,
    "incident": 14591,
    "cocks": 23560,
    "Ġhor": 1659,
    "Ġroman": 8322,
    "commence": 19990,
    "Ġungracious": 18258,
    "entropy": 1435,
    "mortal": 10112,
    "ogany": 18676,
    "Ġdr": 2825,
    "Ġperfectly": 3702,
    "Ġvulgar": 13603,
    "ock": 15401,
    "Ġchin": 4891,
    "Ġgraphs": 25463,
    "reserve": 17765,
    "Ġwalk": 1826,
    "âĢĺ": 941,
    "Ġassented": 17337,
    "zar": 11547,
    "Ġdevoid": 18686,
    "Ġretrogress": 23070,
    "Ġcell": 6237,
    "Ġ35": 24076,
    "Ġimpelled": 11780,
    "provoke": 26071,
    "Ġsashes": 21224,
    "Ġshad": 3850,
    "Ġcalculates": 13264,
    "Ġatom": 18192,
    "ag": 377,
    "Ġrecover": 9789,
    "ê": 171,
    "latitude": 25259,
    "resp": 13838,
    "Ġfading": 15581,
    "Ġnecessitates": 23926,
    "umbrance": 22115,
    "Ġregent": 18589,
    "dig": 4929,
    "lance": 12479,
    "Ġtreats": 19342,
    "hol": 3839,
    "Ġinhospit": 25452,
    "Ġpalsied": 25779,
    "gems": 20883,
    "behind": 6779,
    "rove": 21530,
    "kerchief": 7525,
    "certain": 3676,
    "Ġcigaret": 16976,
    "Ġprelimin": 8860,
    "Ġthirteen": 15273,
    "Ġgreatness": 12941,
    "diminished": 20838,
    "Ġpequod": 2322,
    "Ġbelieving": 8224,
    "Ġwashington": 17202,
    "Ġvelvets": 25393,
    "Ġfashions": 17885,
    "ball": 7792,
    "Ġattic": 16096,
    "Ġxxii": 24478,
    "Ġgush": 10202,
    "milk": 20475,
    "Ġgovern": 10450,
    "Ġindulgence": 11319,
    "Ġuttered": 7280,
    "Ġtranque": 14200,
    "Ġlull": 15648,
    "sorrow": 12506,
    "Ġstating": 15719,
    "Ġwicked": 5960,
    "stoke": 18022,
    "sil": 5282,
    "Ġfloated": 7288,
    "sacred": 17028,
    "independent": 26021,
    "Ġcommence": 6167,
    "Ġdictating": 20151,
    "Ġnodded": 11968,
    "³": 116,
    "Ġplan": 3882,
    "Ġaverage": 3141,
    "za": 13809,
    "ivering": 7697,
    "Ġconvention": 25546,
    "Ġintelligent": 1437,
    "Ġegyptian": 13585,
    "Ġglobu": 23268,
    "severe": 21816,
    "Ġloo": 22107,
    "Ġfobbing": 26441,
    "uff": 2732,
    "Ġperception": 9749,
    "Ġchancing": 22245,
    "Ġwere": 556,
    "Ġassist": 3565,
    "win": 6801,
    "Ġstrain": 6023,
    "Ġexponentially": 1441,
    "Ġlat": 5087,
    "Ġfundament": 2929,
    "Ġforesee": 19125,
    "Ġbony": 12584,
    "Ġstro": 4596,
    "quitted": 21854,
    "Ġreappeared": 21662,
    "Ġbreathes": 13246,
    "Ġpoltro": 23618,
    "baron": 24925,
    "Ġpersuas": 23944,
    "instances": 13318,
    "Ġphara": 23196,
    "Ġconspicuous": 13602,
    "Ġwatched": 6297,
    "gave": 7799,
    "Ġtrue": 1339,
    "ě": 220,
    "beating": 22486,
    "Ġlace": 13948,
    "Ġtand": 21159,
    "Ġdoubted": 7965,
    "Ġcritically": 23444,
    "iding": 3847,
    "Ġpressing": 9260,
    "Ġapple": 14166,
    "arp": 2026,
    "mbling": 3346,
    "Ġsell": 7825,
    "Ġinherent": 4592,
    "Ġdelicacy": 6340,
    "Ġsteadfastly": 10651,
    "inte": 5144,
    "ribed": 7692,
    "Ġfacetious": 20582,
    "touching": 15090,
    "Ġop": 2601,
    "Ġintellectual": 11401,
    "mot": 17596,
    "Ġanalogical": 25640,
    "Ġease": 5629,
    "ese": 4445,
    "Ġmicrosc": 20675,
    "increased": 20269,
    "Ġserve": 9368,
    "Ġsmall": 893,
    "Ġwager": 17792,
    "vacancies": 25919,
    "Ġrecently": 11860,
    "Ġglove": 14491,
    "Ġtread": 9408,
    "Ġretired": 6070,
    "Ġthus": 2036,
    "intention": 10367,
    "Ġveget": 11884,
    "fth": 20855,
    "Ġparr": 22116,
    "Ġdefines": 1742,
    "Ġinternal": 2247,
    "Ġabominably": 20067,
    "Ġprehens": 22228,
    "Ġsettee": 22918,
    "Ġhoisted": 5959,
    "oat": 13763,
    "Ġsave": 4053,
    "indeed": 4488,
    "Ġmasterly": 23991,
    "Ġwick": 2003,
    "Ġpreface": 18367,
    "ges": 2878,
    "Ġalacrity": 15734,
    "upper": 11538,
    "arranging": 19317,
    "Ġcordiality": 24395,
    "Ġdistrusting": 25053,
    "Ġcrept": 11022,
    "Ġyard": 5920,
    "Ġpunishment": 9955,
    "cture": 15662,
    "convolutional": 4958,
    "Ġgrappling": 25812,
    "Ġdelineations": 26058,
    "Ġprank": 23213,
    "asant": 17958,
    "Ġemblaz": 16243,
    "Ġirreparable": 19997,
    "Ġsagaciously": 24731,
    "Ġlate": 3377,
    "brushing": 20787,
    "avern": 24792,
    "comfortableness": 24525,
    "Ġtipped": 17728,
    "attracted": 13048,
    "Ġconcrete": 20635,
    "Ġstrateg": 1369,
    "atig": 13844,
    "Ġplane": 11821,
    "rage": 10843,
    "Ġthirty": 4944,
    "Ġdispleased": 18555,
    "Ġcrystals": 20226,
    "earthly": 24724,
    "Ġbrighter": 16185,
    "Ġimportance": 4900,
    "Ġtusked": 25426,
    "Ġutility": 23511,
    "bo": 1688,
    "atlantic": 15522,
    "rabbit": 20589,
    "Ġdepression": 21838,
    "Ġcontortions": 18476,
    "als": 2042,
    "Ġlongitudes": 22633,
    "Ġwane": 21287,
    "Ġrequiring": 2924,
    "Ġmonotonous": 13262,
    "Ġsacred": 10930,
    "Ġcot": 13876,
    "Ġnantucketer": 6914,
    "Ġpuppy": 12403,
    "Ġdub": 13908,
    "Ġmales": 17805,
    "pacing": 21020,
    "Ġsustain": 10016,
    "Ġchr": 3690,
    "ortunities": 15938,
    "Ġarrive": 6907,
    "hairs": 20903,
    "Ġass": 1505,
    "Ġjem": 18402,
    "Ġmantelpiece": 15206,
    "Ġnorton": 12646,
    "Ġrefresh": 10343,
    "Ġvineyard": 12328,
    "Ġcompanion": 3644,
    "Ġpudding": 17915,
    "Ġkno": 5242,
    "suitable": 18630,
    "iner": 2671,
    "Ġbillows": 7502,
    "letons": 14612,
    "Ġstaring": 8824,
    "ine": 404,
    "Ġimpetuously": 20370,
    "Ġthreat": 5154,
    "seemed": 4306,
    "rons": 21038,
    "hunted": 16832,
    "Ġtrim": 15960,
    "Ġintensified": 17018,
    "Ġplayful": 19236,
    "Ġj": 533,
    "Ġpertur": 12847,
    "Ġswaying": 15046,
    "impregnable": 26481,
    "Ġobsole": 22695,
    "Ġplacid": 11824,
    "ber": 885,
    "hered": 5623,
    "Ġeverything": 3157,
    "thee": 9689,
    "Ġapologies": 25196,
    "Ġslim": 18936,
    "icient": 786,
    "composure": 24031,
    "tiness": 21070,
    "Ġstudy": 1784,
    "plish": 18200,
    "Ġslaught": 23164,
    "Ġrect": 18025,
    "Ġseasonable": 24406,
    "Ġlaws": 8002,
    "Ġforbear": 17121,
    "Ġseveral": 2673,
    "Ġignorant": 5343,
    "Ġalong": 1978,
    "Ġunrivalled": 26519,
    "Ġflinging": 13584,
    "Ġunfelt": 24110,
    "gences": 20876,
    "Ġseething": 18203,
    "Ġexact": 2543,
    "Ġpauper": 26179,
    "Ġbohemia": 10649,
    "Ġmoles": 22429,
    "Ġplans": 7917,
    "Ġblew": 9045,
    "says": 13298,
    "astes": 11737,
    "heredit": 21208,
    "Ġdissol": 18551,
    "Ġindifferent": 6174,
    "Ġsharpen": 13568,
    "thanked": 24331,
    "Ġexpression": 4516,
    "ateur": 22005,
    "Ġtawny": 20480,
    "cloudless": 20331,
    "hob": 20899,
    "Ġmbpp": 21320,
    "Ġdistance": 3486,
    "orable": 8119,
    "Ġdocument": 15018,
    "Ġexpressed": 4468,
    "Ġresponsible": 9886,
    "nights": 16448,
    "Ġnets": 21521,
    "Ġsisters": 3641,
    "unerative": 21893,
    "Ġcelerity": 17435,
    "iquet": 17575,
    "Ġgret": 21598,
    "nigh": 13762,
    "Ġproportion": 7281,
    "Ġexordium": 26492,
    "breath": 15161,
    "Ġhospitals": 24923,
    "Ġlabors": 23327,
    "ward": 705,
    "Ġcontrast": 2117,
    "spirits": 8054,
    "Ġfavours": 23278,
    "Ġbutts": 15853,
    "Ġlap": 8436,
    "Ġlevi": 3035,
    "Ġrack": 9312,
    "Ġirreproachable": 24917,
    "arch": 1123,
    "Ġspeeches": 22648,
    "Ġinvoked": 19144,
    "vand": 21107,
    "Ġscraps": 16902,
    "Ġcedar": 15187,
    "Ġcontro": 1685,
    ");": 7330,
    "construction": 19777,
    "prodig": 16425,
    "Ġacted": 7422,
    "actor": 11835,
    "itated": 4441,
    "glit": 23848,
    "ohog": 9842,
    "Ġreceipt": 20354,
    "ullied": 23102,
    "Ġinboard": 17932,
    "Ġcommendation": 13609,
    "Ġindolent": 13002,
    "attering": 7419,
    "professional": 20274,
    "Ġtormenting": 15103,
    "Ġchild": 2261,
    "Ġverily": 16603,
    "Ġidler": 16403,
    "âĢĶ(": 15936,
    "Ġgrenadier": 21613,
    "Ġglided": 7446,
    "Ġsuccess": 3610,
    "frau": 15088,
    "crossing": 19409,
    "Ġsolution": 9804,
    "Ġadv": 1133,
    "Ġhypothe": 4075,
    "maltese": 24795,
    "ifying": 5235,
    "creat": 20799,
    "cher": 5786,
    "Ġprevention": 16089,
    "Ġlinked": 15076,
    "Ġfishy": 16524,
    "Ġduly": 13349,
    "egypt": 15348,
    "proof": 16422,
    "Ġscru": 8189,
    "ened": 1387,
    "Ġblade": 11891,
    "Ġpos": 1008,
    "Ġtypewritten": 16420,
    "based": 2961,
    "Ġboys": 5194,
    "Ġseethings": 26503,
    "Ġgaped": 13966,
    ":âĢĶâĢĺ": 24193,
    "Ġstraw": 9428,
    "Ġcourage": 4634,
    "prehend": 14242,
    "operation": 13500,
    "Ġmodeling": 2094,
    "omet": 3078,
    "tically": 3392,
    "Ġjet": 5307,
    "matical": 13127,
    "justice": 7957,
    "Ġarising": 10933,
    "got": 6955,
    "somehow": 12010,
    "ose": 718,
    "princip": 17136,
    "Ġphantom": 8706,
    "Ġgrimly": 17052,
    "Ġapprehension": 7113,
    "Ġinaccessible": 13933,
    "Ġbushes": 16398,
    "biscuit": 17500,
    "late": 11498,
    "Ġmexico": 15279,
    "believed": 9932,
    "Ġcircum": 8257,
    "tiger": 13796,
    "marriage": 7744,
    "Ġremember": 2678,
    "Ġcompletion": 12145,
    "rain": 462,
    "Ġdetailed": 12821,
    "Ġunprepared": 22047,
    "Ġavocation": 23950,
    "smo": 10125,
    "Ġeighteen": 11239,
    "vy": 21106,
    "Ġduplicates": 17216,
    "Ġcrew": 2496,
    "Ġelegance": 11332,
    "rum": 3414,
    "Ġbrill": 8549,
    "Ġfinancier": 26583,
    "arts": 6563,
    "uncomfortable": 18160,
    "sen": 21048,
    "aged": 2605,
    "Ġblasphemer": 26116,
    "Ġnetherfield": 3932,
    "Ġcoupled": 16851,
    "Ġwhirlwinds": 20463,
    "fishing": 20858,
    "Ġhorizontal": 7782,
    "piled": 21014,
    "Ġard": 5164,
    "ours": 3426,
    "aurus": 20559,
    "Ġcelest": 9900,
    "Ġshud": 5461,
    "canonical": 22960,
    "Ġenthr": 22743,
    "Ġnational": 13941,
    "unte": 21870,
    "Ġlizard": 12651,
    "Ġagonies": 14251,
    "angible": 22101,
    "mits": 13755,
    "Ġbundles": 26175,
    "Ġhang": 9187,
    "Ġoat": 21321,
    "accomplishment": 20222,
    "lers": 10106,
    "mountains": 15179,
    "adieu": 26200,
    "Ġpurest": 14938,
    "Ġagent": 6277,
    "Ġrecollection": 6620,
    "Ġapology": 8327,
    "Ġcensure": 15094,
    "uv": 6229,
    "oped": 6046,
    "zwilliam": 5074,
    "Ġsubl": 7235,
    "Ġsoothe": 7405,
    "Ġbiography": 22759,
    "Ġhighest": 3530,
    "Ġpredictions": 1453,
    "Ġindu": 5293,
    "Ġunpardonable": 22059,
    "Ġkindly": 6077,
    "betrayed": 24640,
    "Ġlabours": 8582,
    "irations": 18170,
    "humored": 19451,
    "generosity": 23784,
    "Ġyoungest": 7953,
    "Ġcaul": 10787,
    "Ġtyph": 10007,
    "Ġsupplying": 19797,
    "Ġrio": 23889,
    "Ġmazes": 25940,
    "Ġshortness": 23480,
    "ois": 9134,
    "Ġfloundering": 16250,
    "Ġsimpl": 1582,
    "!)": 10068,
    "Ġcoincid": 20316,
    "Ġfelix": 4848,
    "duck": 22409,
    "mate": 5358,
    "executed": 25739,
    "Ġneurons": 979,
    "trembling": 17142,
    "ance": 478,
    "questions": 16760,
    "Ġlodgings": 8311,
    "telesc": 22813,
    "Ġinhabit": 5782,
    "Ġmagical": 23096,
    "Ġmaster": 3682,
    "Ġillum": 9399,
    "ust": 498,
    "ail": 566,
    "Ġsaints": 20673,
    "ial": 409,
    "Ġextremities": 19194,
    "time": 3149,
    "bureau": 20788,
    "Ġnimble": 21525,
    "zetts": 17714,
    "Ġstrangled": 24134,
    "Ġfishe": 15583,
    "penn": 18826,
    "Ġtokens": 1771,
    "Ġheavy": 3744,
    "eon": 8729,
    "danced": 20827,
    "Ġrobots": 11083,
    "ĠĠ": 352,
    "Ġdevout": 14331,
    "crawling": 16958,
    "Ġmeekly": 26490,
    "ö": 183,
    "Ġexisting": 12715,
    "rally": 17651,
    "makes": 10711,
    "Ġunscrew": 22037,
    "Ġgratified": 8021,
    "Ġmusky": 19380,
    "Ġchristendom": 16695,
    "Ġmadman": 13150,
    "Ġhammered": 13238,
    "Ġamongst": 8959,
    "Ġwaifing": 25243,
    "ency": 3869,
    "Ġbouquet": 20682,
    "Ġtunnel": 14929,
    "vast": 10736,
    "Ġbeliefs": 24582,
    "Ġknife": 7309,
    "Ġprinciples": 10010,
    "web": 18663,
    "number": 10114,
    "Ġunsavory": 20706,
    "india": 22368,
    "ority": 8417,
    "Ġcounties": 23301,
    "windibank": 24161,
    "Ġsuspend": 14608,
    "Ġchronicled": 25328,
    "Ġrefusing": 11025,
    "Ġvig": 5460,
    "Ġ90": 24588,
    "moved": 9783,
    "Ġsphy": 18311,
    "Ġenumer": 12742,
    "Ġtail": 3091,
    "Ġcrystall": 20225,
    "Ġauger": 21202,
    "Ġcasual": 11409,
    "Ġquite": 1740,
    "mechanical": 25578,
    "Ġstrewed": 23420,
    "ommod": 13976,
    "Ġmann": 18416,
    "Ġrelev": 1714,
    "counters": 25397,
    "ental": 7168,
    "pires": 13774,
    "Ġthames": 13937,
    "Ġearls": 18903,
    "Ġkindling": 19026,
    "Ġmachinations": 25767,
    "pleasanter": 24045,
    "soon": 4029,
    "oration": 2208,
    "Ġdied": 4115,
    "Ġstately": 9833,
    "half": 4931,
    "Ġvarying": 15808,
    "Ġgreedy": 3053,
    "Ġcoiled": 11818,
    "Ġwreath": 25936,
    "Ġmccarthy": 5145,
    "regulated": 23466,
    "Ġvehemently": 26039,
    "henomenon": 13613,
    "deserts": 25379,
    "hig": 12472,
    "eff": 2534,
    "oko": 18440,
    "Ġfoolscap": 24158,
    "Ġtire": 17720,
    "service": 15036,
    "Ġjones": 7204,
    "Ġgros": 14822,
    "younger": 11312,
    "thoughtfully": 24042,
    "ured": 1653,
    "chase": 11644,
    "Ġever": 1180,
    "conce": 8510,
    "Ġsorrow": 4629,
    "fle": 7128,
    "Ġif": 698,
    "Ġswish": 23050,
    "sery": 17661,
    "Ġfurled": 22809,
    "À": 129,
    "Ġadvoc": 12988,
    "kilt": 4866,
    "Ġnevertheless": 5040,
    "Ġspecks": 14304,
    "_âĢĶâĢĿ": 20762,
    "hen": 3519,
    "ics": 3257,
    "Ġunfathomably": 25873,
    "Ġtransf": 22434,
    "Ġbumpkin": 20199,
    "button": 10966,
    "Ġfertile": 20581,
    ";âĢĶ": 3750,
    "Ġcautiously": 16977,
    "Ġviews": 7290,
    "Ġfulfilment": 20186,
    "yth": 983,
    "Ġshifting": 12765,
    "pity": 17627,
    "blades": 24131,
    "Ġrush": 5924,
    "Ġfoes": 11950,
    "Ġplumage": 17297,
    "Ġmamm": 25090,
    "Ġzoned": 22815,
    "unwillingness": 25802,
    "Ġsteal": 16282,
    "Ġpanther": 16819,
    "Ġdur": 11591,
    "Ġassurance": 7774,
    "Ġsized": 11562,
    "Ġpen": 1535,
    "Ġsurtout": 23464,
    "strade": 5065,
    "Ġstretched": 5919,
    "Ġunfortunately": 10909,
    "reeable": 3612,
    "Ġfarmhouse": 24984,
    "Ġr": 405,
    "Ġsembl": 19059,
    "Ġinsensible": 12323,
    "Ġha": 400,
    "Ġdoing": 3661,
    "Ġunsounded": 15847,
    "inform": 10143,
    "anse": 12572,
    "Ġprices": 15609,
    "bers": 2570,
    "Ġcaptivating": 26050,
    "cigar": 26124,
    "Ġexpon": 970,
    "represented": 20194,
    "Ġalongside": 6311,
    "pan": 10716,
    "willingness": 24755,
    "Ġstrongest": 11135,
    "Ġunreasonably": 17450,
    "Ġamel": 18510,
    "uttural": 21586,
    "cstasy": 11445,
    "Ġreckoned": 24744,
    "Ġhereby": 10357,
    "Ġmich": 21304,
    "Ġlastly": 16203,
    "igner": 21698,
    "Ġconveying": 19713,
    "26": 10072,
    "aus": 1502,
    "Ġthose": 1174,
    "itively": 21329,
    "Ġseedy": 21959,
    "etent": 10199,
    "Ġlady": 1588,
    "Ġhoars": 19077,
    "Ġanger": 5442,
    "eness": 2290,
    "anced": 1294,
    "Ġodor": 12147,
    "Ġfeed": 2126,
    "Ġlist": 2364,
    "Ġentrapped": 26262,
    "Ġassuming": 16693,
    "beside": 19876,
    "Ġincisive": 18570,
    "Ġdavis": 25952,
    "simultaneously": 19863,
    "Ġdistingu": 2515,
    "forty": 9373,
    "Ġbottles": 16570,
    "Ġnervously": 19183,
    "Ġjava": 12310,
    "Ġduring": 872,
    "distinguish": 19571,
    "ed": 293,
    "Ġchose": 7413,
    "monsters": 19170,
    "uation": 17694,
    "Ġscarlet": 13221,
    "Ġnoisy": 13317,
    "Ġconsiderably": 7714,
    "Ġpeninsula": 23193,
    "Ġgilded": 17444,
    "waves": 10742,
    "Ġoccurring": 2791,
    "adjust": 21757,
    "mysterious": 26052,
    "Ġhval": 21484,
    "Ġmerry": 5868,
    "Ġsant": 21213,
    "endeavouring": 15015,
    "Ġanonymous": 26178,
    "name": 6795,
    "Ġsmoky": 22555,
    "Ġprocedure": 2809,
    "Ġthrill": 24541,
    "Ġrelics": 16193,
    "Ġcolumn": 9327,
    "Ġmorbid": 16234,
    "slack": 16894,
    "Ġelud": 22640,
    "agitation": 14067,
    "boats": 6204,
    "Ġdiscuss": 9473,
    "Ġproceeded": 5335,
    "achel": 7032,
    "Ġconfines": 23303,
    "Ġself": 1777,
    "Ġmeet": 2804,
    "Ġnotable": 18222,
    "Ġproposal": 10018,
    "gressive": 2754,
    "Ġmend": 8405,
    "agrad": 2747,
    "with": 1297,
    "Ġscholars": 26112,
    "Ġorgan": 2502,
    "specific": 10497,
    "Ġequilib": 4140,
    "Ġcalmed": 16267,
    "ipelag": 12841,
    "ceive": 3065,
    "Ġgleam": 12306,
    "stretch": 13980,
    "raltar": 24233,
    "abb": 15736,
    "Ġbrittle": 22859,
    "pleasing": 14741,
    "Ġsol": 1105,
    "gan": 2195,
    "Ġdestined": 7973,
    "ez": 5683,
    "sh": 647,
    "Ġtransaction": 22436,
    "Ġseptember": 18207,
    "Ġenchanting": 17039,
    "heaving": 21206,
    "recurrent": 4994,
    "Ġsneering": 24697,
    "Ġsmelt": 16063,
    "minds": 24232,
    "swallow": 24257,
    "Ġexertion": 8053,
    "usal": 7638,
    "Ġunconsciously": 10004,
    "Ġangles": 23587,
    "Ġprotruding": 16658,
    "Ġtravell": 5576,
    "ives": 1407,
    "Ġcobweb": 22583,
    "Ġlances": 6984,
    "ute": 4643,
    "Ġfancying": 12110,
    "Ġaud": 6661,
    "Ġwhel": 15864,
    "Ġemphasis": 20535,
    "bpp": 20771,
    "Ġuncork": 23428,
    "Ġribbons": 24329,
    "aco": 12903,
    "Ġcriminal": 7537,
    "unks": 15772,
    "crack": 19839,
    "Ġvainly": 9923,
    "Ġenh": 3099,
    "Ġholds": 7974,
    "iah": 14414,
    "winding": 16720,
    "Ġitem": 12698,
    "Ġyards": 5371,
    "umerable": 11723,
    "Ġrainy": 24341,
    "Ġinconveniences": 24939,
    "cleanliness": 25871,
    "ile": 520,
    "oton": 3607,
    "Ġcarpenter": 4685,
    "mped": 16647,
    "vedale": 22705,
    "Ġphant": 7055,
    "Ġaboard": 6697,
    "admon": 21758,
    "Ġfingers": 5672,
    "Ġamelia": 26251,
    "Ġdollars": 11455,
    "downward": 16619,
    "iminished": 19020,
    "Ġprone": 18968,
    "Ġdismal": 11808,
    "Ġporpoise": 7106,
    "loath": 22506,
    "Ġcased": 21344,
    "traversed": 19638,
    "preference": 22464,
    "pemberley": 9620,
    "arity": 1303,
    "Ġphilips": 5410,
    "Ġtrifled": 24674,
    "Ġastir": 14640,
    "Ġneighbour": 3808,
    "Ġexchanged": 10878,
    "oysius": 14363,
    "Ġindignation": 8346,
    "Ġstature": 10863,
    "Ġinvitation": 5189,
    "Ġdevoting": 22725,
    "omn": 15679,
    "Ġenglish": 3614,
    "taking": 5689,
    "ave": 981,
    "Ġroanoke": 22404,
    "Ġcanoe": 9722,
    "Ġheroines": 19750,
    "Ġmuseum": 15270,
    "Ġviolates": 3167,
    "Ġserpent": 6737,
    "Ġoarsmen": 7737,
    "Ġescaping": 13134,
    "Ġ43": 14768,
    "Ġtrous": 10956,
    "Ġcrab": 13143,
    "tish": 17677,
    "Ġwhirlpool": 20654,
    "entle": 1738,
    "Ġcher": 6129,
    "Ġfreshly": 23984,
    "ccas": 15883,
    "dron": 17525,
    "disagreeable": 11163,
    "Ġexertions": 13409,
    "linen": 25257,
    "unquiet": 21878,
    "Ġegress": 21618,
    "sighted": 19784,
    "insula": 23063,
    "itable": 5437,
    "Ġim": 475,
    "Ġwiser": 14729,
    "Ġdelicious": 14792,
    "Ġcontextually": 11956,
    "Ġhosts": 19937,
    "Ġinsect": 12633,
    "dy": 3862,
    "Ġpierce": 17036,
    "grow": 10098,
    "aded": 3550,
    "Ġdis": 694,
    "pursued": 17281,
    "Ġcreatures": 4141,
    "Ġcalam": 13031,
    "Ġengraving": 17080,
    "delivered": 24100,
    "rices": 4560,
    "Ġfancied": 7326,
    "Ġcitations": 25437,
    "Ġ69": 19660,
    "Ġmonomaniac": 9568,
    "itying": 21991,
    "raise": 18011,
    "Ġobjectionable": 16991,
    "otherwise": 7670,
    "Ġvindictiveness": 25738,
    "enborough": 21284,
    "Ġemerging": 24612,
    "Ġusing": 714,
    "utility": 21584,
    "mastod": 23971,
    "plicable": 10255,
    "chairs": 21690,
    "osure": 5306,
    "fect": 2300,
    "Ġphrase": 11187,
    "ready": 2359,
    "Ġblankness": 24610,
    "Ġsufferings": 7513,
    "equ": 6790,
    "Ġstrategy": 2444,
    "Ġlingu": 11613,
    "Ġmerchant": 6467,
    "Ġoak": 6128,
    "washed": 13043,
    "Ġhardened": 14449,
    "Ġpatter": 851,
    "lion": 20943,
    "Ġpresumption": 10545,
    "Ġsymp": 4503,
    "Ġthing": 1638,
    "Ġrevered": 23732,
    "Ġfair": 2840,
    "Ġsenor": 20149,
    "Ċ": 203,
    "Ġtr": 552,
    "inguished": 6598,
    "Ġprime": 10404,
    "Ġspl": 2984,
    "agers": 5633,
    "westward": 25424,
    "Ġscaled": 2105,
    "Ġsensible": 4976,
    "Ġtenderly": 11314,
    "Ġvindictive": 20468,
    "Ġspong": 15879,
    "Ġunsupervised": 2395,
    "Ġlivelihood": 24774,
    "Ġbosom": 6939,
    "distinct": 13334,
    "Ġcondescend": 19953,
    "Ġtap": 12523,
    "unction": 10234,
    "string": 15683,
    "Ġtreat": 3178,
    "izard": 10879,
    "Ġthoroughly": 8347,
    "Ġtoast": 21509,
    "Ġmultiplied": 23689,
    "Ġfiery": 6871,
    "Ġlimits": 3455,
    "Ġ115": 24439,
    "Ġobeyed": 12214,
    "rucastle": 22175,
    "Ġirksome": 13110,
    "smoking": 23908,
    "Ġcrammed": 16470,
    "Ġdecrease": 4203,
    "avail": 18604,
    "Ġfeeble": 12282,
    "Ġsavann": 14684,
    "rem": 1521,
    "Ġservox": 23868,
    "Ġwon": 1663,
    "heaven": 8052,
    "Ġgra": 416,
    "Ġnew": 1195,
    "result": 12042,
    "mutually": 26136,
    "angry": 18294,
    "Ġpounds": 5368,
    "atoes": 17775,
    "Ġinsupportable": 13931,
    "story": 9212,
    "Ġsympathised": 14861,
    "Ġexecuted": 9471,
    "stones": 11635,
    "erer": 8731,
    "opence": 18508,
    "Ġseparating": 16685,
    "miraculous": 26396,
    "Ġmedicine": 15204,
    "Ġabutted": 22282,
    "Ġtwinkled": 14311,
    "Ġestablishment": 13578,
    "Ġinstability": 3813,
    "Ġwhenever": 5166,
    "Ġpeter": 10535,
    "tremendous": 20672,
    "interested": 9505,
    "avering": 24793,
    "closed": 23151,
    "Ġenormousness": 24515,
    "Ġtrowsers": 9627,
    "atural": 925,
    "Ġroughs": 19955,
    "Ġcab": 2634,
    "Ġparamet": 608,
    "Ġempires": 19075,
    "Ġethiopian": 26613,
    "dead": 8179,
    "Ġtales": 10141,
    "Ġmyth": 18220,
    "Ġengaged": 3428,
    "Ġrenowned": 26193,
    "nur": 11505,
    "Ġbreak": 2872,
    "Ġborrowed": 17229,
    "Ġperformer": 18754,
    "ihood": 20921,
    "Ġunlabeled": 3800,
    "Ġdeceiving": 21835,
    "mblance": 7323,
    "complied": 19912,
    "Ġtiny": 11552,
    "Ġhover": 15617,
    "Ġcommand": 3323,
    "Ġlords": 14641,
    "share": 14236,
    "Ġtil": 12521,
    "long": 2915,
    "Ġbattering": 13900,
    "onent": 21247,
    "wat": 6231,
    "Ġattitudes": 16097,
    "Ġske": 4815,
    "ceed": 1074,
    "waistcoat": 17360,
    "ara": 12603,
    "Ġbourgh": 5069,
    "fits": 13717,
    "fates": 20857,
    "bolts": 11420,
    "loops": 12880,
    "Ġdisadvantages": 18558,
    "Ġgard": 2187,
    "Ġpunctual": 17137,
    "Ġsus": 18276,
    "Ġgoverning": 2794,
    "oam": 8751,
    "Ġambiguous": 20163,
    "Ġnecessary": 4474,
    "Ġsubtile": 20378,
    "Ġsoothingly": 25047,
    "Ġencourages": 2061,
    "sounded": 12264,
    "uy": 21098,
    "Ġfatigued": 13464,
    "Ġproble": 1113,
    "ancholy": 5070,
    "Ġcooked": 13268,
    "Ġlearning": 386,
    "devil": 7894,
    "Ġpipes": 9854,
    "Ġwearing": 12736,
    "Ġentire": 2560,
    "Ġprincess": 23218,
    "Ġdesolation": 12266,
    "Ġfainting": 16897,
    "nep": 20985,
    "Ġbeings": 2490,
    "Ġ1950": 11359,
    "author": 9859,
    "Ġcoffins": 13250,
    "Ġobed": 8535,
    "Ġcuts": 14607,
    "spread": 8388,
    "Ġjoyfully": 19344,
    "hotel": 20048,
    "adequately": 20318,
    "Ġtedious": 15266,
    "igantic": 5539,
    "joice": 9602,
    "Ġcompress": 21846,
    "aulets": 18620,
    "Ġpalmy": 19497,
    "heavenly": 20043,
    "ulating": 10887,
    "commendation": 26348,
    "Ġfriendly": 9819,
    "Ġfarm": 7840,
    "court": 7511,
    "Ġpalaces": 24090,
    "ornament": 23486,
    "Ġthings": 1962,
    "Ġsystem": 574,
    "delighted": 10562,
    "gers": 8375,
    "Ġpangs": 15612,
    "cur": 3271,
    "Ġsuggestions": 24453,
    "Ġconviction": 6326,
    "majesty": 26280,
    "Ġdistributes": 4198,
    "rer": 3623,
    "Ġeffemin": 18535,
    "Ġsupports": 3050,
    "Ġsleeping": 6319,
    "Ġ120": 16858,
    "Ġdances": 10812,
    "Ġtheme": 16016,
    "Ġhipp": 21489,
    "Ġmeets": 7396,
    "Ġemerge": 14927,
    "george": 26019,
    "Ġoriginate": 24122,
    "ß": 160,
    "Ġhorrid": 7998,
    "Ġfreemason": 23207,
    "Ġdevouring": 11857,
    "atter": 658,
    "Ġkins": 22191,
    "cription": 20817,
    "Ġcronies": 23441,
    "Ġtester": 21171,
    "omist": 21635,
    "Ġindefinitely": 25221,
    "Ġdome": 15586,
    "remental": 21246,
    "Ġwan": 15526,
    "Ġshowed": 4497,
    "Ġnourishment": 15191,
    "ñ": 178,
    "Ġage": 3898,
    "moran": 24152,
    "erns": 8777,
    "Ġgallant": 8654,
    "serious": 14447,
    "jep": 20925,
    "power": 7136,
    "enes": 5218,
    "Ġbraided": 16581,
    "Ġcherry": 16935,
    "Ġcompar": 4771,
    "Ġboot": 11838,
    "Ġmeadow": 17151,
    "Ġtongue": 6347,
    "Ġhour": 1813,
    "effectually": 25128,
    "Ġfeeds": 16432,
    "Ġpleasanter": 19065,
    "dden": 1805,
    "Ġbetrayed": 9561,
    "Ġeber": 18003,
    "Ġcoral": 11920,
    "reed": 6373,
    "Ġkindness": 4100,
    "Ġsl": 1499,
    "iastic": 12477,
    "Ġkey": 2101,
    "Ġdesist": 16236,
    "appro": 7044,
    "istic": 977,
    "Ġsternly": 16715,
    "Ġpitchpoling": 14910,
    "consp": 18502,
    "\\": 64,
    "pulling": 25146,
    "do": 1993,
    "je": 11495,
    "Ġindifference": 6725,
    "Ġspain": 15878,
    "hanging": 10100,
    "inuating": 16201,
    "Ġjourneying": 25565,
    "unfort": 21873,
    "naught": 20993,
    "Ġemb": 1262,
    "Ġeligible": 10670,
    "Ġnooks": 26011,
    "Ġsw": 1353,
    "Ġelab": 22639,
    "despicable": 24636,
    "Ġlabels": 3289,
    "razor": 21634,
    "typewritten": 26038,
    "phew": 6368,
    "nest": 10113,
    "Ġsimpler": 2048,
    "Ġbaleen": 10036,
    "Ġstands": 5258,
    "itor": 12563,
    "Ġcaptiv": 16255,
    "Ġagreeable": 4553,
    "Ġmult": 1020,
    "Ġirre": 7468,
    "Ġremoter": 20104,
    "Ġori": 8408,
    "±": 114,
    "Ġdecreasing": 2445,
    "repugnance": 16864,
    "Ġunderstand": 834,
    "Ġfairness": 9893,
    "intment": 4720,
    "Ġindirect": 18835,
    "Ġbreakers": 12053,
    "Ġreligious": 25121,
    "surface": 10530,
    "ahit": 9381,
    "Ġillustration": 19135,
    "instead": 14812,
    "itors": 2917,
    "es": 288,
    "Ġchoke": 22246,
    "Ġconsoling": 19455,
    "Ġnine": 5369,
    "toller": 20671,
    "ener": 563,
    "iciously": 17973,
    "Ġcrocod": 19627,
    "popular": 26140,
    "Ġfavoured": 16359,
    "Ġglaciers": 20172,
    "always": 5708,
    "attached": 11933,
    "weaknesses": 26030,
    "Ġshaded": 14104,
    "foolish": 12345,
    "Ġpuzzle": 11305,
    "hecy": 21205,
    "Ġimputed": 12805,
    "Ġdemo": 10880,
    "Ġflood": 7715,
    "Ġpoliteness": 8273,
    "Ġwhereof": 16100,
    "â": 163,
    "Ġhebrew": 13987,
    "intosh": 22937,
    "Ġwip": 13852,
    "Ġevol": 2814,
    "onds": 12993,
    "christian": 17232,
    "Ġripple": 25504,
    "Ġimminent": 11245,
    "Ġdistinction": 8885,
    "Ġprehensile": 26534,
    "Ġleague": 6538,
    "Ġfettered": 24568,
    "Ġknowingly": 18480,
    "Ġdow": 17886,
    "Ġlearnt": 7611,
    "received": 9638,
    "splinter": 25210,
    "Ġmuslin": 19381,
    "Ġmaintained": 12931,
    "occupation": 15056,
    "Ġsenseless": 12076,
    "Ġnameless": 7699,
    "Ġreynolds": 10209,
    "Ġundivided": 24121,
    "Ġcorrespondence": 10594,
    "fanning": 20865,
    "Ġle": 333,
    "Ġshaping": 22000,
    "Ġcoun": 4181,
    "tt": 13789,
    "Ġmaterially": 12189,
    "Ġcrippled": 25278,
    "Ġreceptive": 1564,
    "ally": 530,
    "ributed": 8213,
    "Ġsalmon": 24060,
    "Ġcost": 2505,
    "Ġpays": 13295,
    "lands": 8240,
    "Ġsepul": 14089,
    "Ġrecovery": 11441,
    "cott": 8073,
    "Ġdoubly": 16384,
    "instance": 24168,
    "ishmael": 18420,
    "Ġpours": 17911,
    "Ġcollection": 8221,
    "these": 3242,
    "Ġ41": 24079,
    "exception": 9975,
    "Ġpam": 21452,
    "putation": 7624,
    "simply": 20669,
    "Ġaccounted": 10294,
    "Ġreciprocating": 26369,
    "owards": 4595,
    "Ġcontributed": 16007,
    "Ġbritain": 16956,
    "civil": 7796,
    "Ġmeagre": 21807,
    "Ġopinion": 3145,
    "oke": 1859,
    "bowl": 14890,
    "field": 3074,
    "Ġimprove": 1834,
    "Ġearnestly": 5978,
    "Ġdrawback": 23987,
    "hyena": 24252,
    "specimen": 26605,
    "verize": 21725,
    "Ġmembrane": 20502,
    "five": 6356,
    "Ġtexas": 25922,
    "ple": 455,
    "didst": 19347,
    "Ġinspire": 11994,
    "admire": 24943,
    "Ġcontrols": 1732,
    "Ġinh": 10824,
    "rised": 10123,
    "Ġ99": 10745,
    "aust": 15308,
    "hel": 4814,
    "that": 852,
    "Ġrapid": 1466,
    "Ġsensational": 16387,
    "Ġpurring": 23474,
    "volut": 1562,
    "Ġinspirited": 23419,
    "Ġrepresent": 1212,
    "Ġwears": 10240,
    "Ġhereditarily": 25224,
    "Ġbright": 3215,
    "Ġpreceded": 13427,
    "minutes": 7512,
    "Ġexpanding": 25238,
    "haven": 20911,
    "Ġreckoning": 14978,
    "Ġsang": 12532,
    "rudent": 6482,
    "Ġchewing": 23282,
    "derstand": 651,
    "Ġexclaiming": 13640,
    "ilations": 21719,
    "europe": 20664,
    "Ġwilful": 10534,
    "fred": 20854,
    "Ġfav": 1754,
    "Ġsummoning": 23872,
    "Ġnobly": 22238,
    "Ġinterrupted": 6343,
    "Ġrucastles": 18721,
    "Ġdegener": 14049,
    "oblig": 16289,
    "Ġminimum": 23039,
    "Ġloftiest": 16874,
    "Ġrenounce": 19466,
    "blue": 13692,
    "adequate": 15202,
    "Ġendeavours": 8617,
    "Ġowning": 18744,
    "Ġoversampling": 20514,
    "#": 7,
    "Ġgamb": 17997,
    "Ġprow": 6684,
    "girls": 12317,
    "Ġpeeping": 16125,
    "Ġaims": 15495,
    "ompl": 4537,
    "Ġeyford": 10641,
    "Ġobjects": 5578,
    "oglyph": 11018,
    "Ġunprinciple": 18254,
    "ces": 579,
    "Ġ1869": 19382,
    "Ġcanaller": 25467,
    "Ġdre": 1744,
    "Ġvillainous": 25131,
    "Ġxxi": 24476,
    "Ġain": 6969,
    "Ġatone": 15800,
    "Ġdescribes": 3124,
    "í": 174,
    "Ġelixir": 26555,
    "Ġantilles": 24179,
    "Ġfunction": 588,
    "Ġhug": 6979,
    "Ġempt": 5051,
    "Ġswiss": 18880,
    "Ġkink": 22190,
    "Ġflat": 8227,
    "ĠâĢĻ": 3043,
    "================================================================": 9989,
    "Ġworship": 10366,
    "barrels": 15041,
    "Ġfru": 8419,
    "Ġvalued": 12180,
    "Ġdeftly": 26493,
    "ount": 1116,
    "illity": 18296,
    "Ġleather": 7606,
    "lays": 14921,
    "dismal": 23495,
    "outh": 2687,
    "Ġappertain": 22212,
    "const": 5938,
    "Ġbriefly": 11367,
    "orting": 9734,
    "Ġsemblance": 20733,
    "Ġsuperb": 16444,
    "Ġmonitors": 3159,
    "Ġtus": 10749,
    "Ġwilderness": 14839,
    "lo": 682,
    "Ġsuggest": 5417,
    "Ġsample": 3180,
    "Ġfeelingly": 22992,
    "Ġstair": 8455,
    "Ġinco": 14259,
    "poles": 16208,
    "Ġwolfish": 25935,
    "Ġdevoured": 16134,
    "Ġordinary": 6096,
    "ors": 855,
    "Ġlectures": 17178,
    "benevolently": 25600,
    "gigantic": 15358,
    "Ġreduced": 11922,
    "sixteen": 24853,
    "neural": 3067,
    "Ġcoroner": 7510,
    "Ġstrat": 16090,
    "Ġvariance": 1169,
    "·": 120,
    "Ġblaming": 22927,
    "ke": 429,
    "Ġreproof": 24890,
    "message": 17371,
    "considerable": 10548,
    "Ġclothe": 4712,
    "irc": 1729,
    "responsible": 25763,
    "Ġpreserved": 9261,
    "elson": 16369,
    "wondrous": 12336,
    "Ġarabian": 9089,
    "Ġmagn": 1557,
    "Ġillustrate": 25065,
    "joy": 3336,
    "ignomin": 23263,
    "Ġwaited": 4908,
    "Ġsavage": 4013,
    "Ġwriters": 13542,
    "furnish": 25338,
    "inter": 2950,
    "ancing": 1758,
    "Ġnantucketers": 9894,
    "isons": 17849,
    "rise": 6226,
    "wam": 10135,
    "Ġjoky": 18406,
    "Ġwidows": 24236,
    "Ġreported": 11978,
    "Ġchord": 22242,
    "greek": 25404,
    "Ġsuited": 12781,
    "Ġquoin": 22415,
    "missionary": 24615,
    "©": 107,
    "lives": 12483,
    "Ġindignant": 12237,
    "cares": 24309,
    "ampl": 21839,
    "atmosphere": 21263,
    "Ġinstinct": 6575,
    "Ġformless": 22824,
    "Ġmonomania": 17085,
    "Ġspire": 18306,
    "Ġsoot": 14132,
    "Ġrespective": 16342,
    "acquainted": 7313,
    "Ġcakes": 13883,
    "Ġtransient": 18481,
    "urned": 9305,
    "scence": 14416,
    "deser": 10402,
    "character": 6331,
    "Ġausten": 5880,
    "Ġringleader": 26212,
    "travelling": 24317,
    "abulary": 4800,
    "Ġlassitude": 20585,
    "Ġsimpleton": 16333,
    "Ġreminds": 13430,
    "Ġclassifies": 11836,
    "Ġbeating": 8144,
    "deserving": 17241,
    "Ġsolitary": 5854,
    "Ġdedicated": 19215,
    "Ġimperfect": 13338,
    "ool": 17618,
    "Ġcoincidence": 25483,
    "Ġdeliberately": 10624,
    "Ġarmchair": 8270,
    "Ġvirtual": 11240,
    "finding": 17013,
    "Ġwanting": 6721,
    "ray": 2438,
    "holmes": 4432,
    "Ġsamples": 2963,
    "Ġstruggles": 16578,
    "rived": 5373,
    "untering": 15773,
    "restrained": 16334,
    "Ġpractices": 19055,
    "Ġstrove": 9956,
    "Ġsolicit": 22886,
    "Ġwide": 4112,
    "lose": 12879,
    "Ġquadru": 16002,
    "Ġdetermine": 3245,
    "Ġmomentary": 11035,
    "range": 3496,
    "riers": 18186,
    "youn": 5690,
    "tons": 7559,
    "Ġsurm": 7476,
    "Ġoily": 13863,
    "nered": 18488,
    "Ġastonished": 7087,
    "Ġeffect": 973,
    "Ġaffirmative": 15221,
    "Ġmate": 3709,
    "spears": 23939,
    "orous": 5292,
    "Ġtexture": 19159,
    "Ġrevolution": 3307,
    "Ġundone": 24118,
    "Ġdeparted": 5564,
    "ides": 2159,
    "¦": 104,
    "Ġeuropean": 20044,
    "Ġinfinitely": 8963,
    "owl": 12680,
    "arpening": 21441,
    "iate": 6505,
    "continu": 5501,
    "Ġgraph": 10902,
    "felicity": 25140,
    "Ġdimension": 3241,
    "Ġinquire": 7719,
    "Ġdefile": 18823,
    "Ġweights": 896,
    "Ġstyled": 24671,
    "arn": 357,
    "cro": 13695,
    "easy": 9592,
    "apparent": 11041,
    "iard": 9601,
    "Ġstretching": 10014,
    "osite": 4893,
    "Ġsurf": 19131,
    "Ġregarded": 5762,
    "51": 12429,
    "inquiries": 13576,
    "eties": 10837,
    "Ġenergy": 2553,
    "Ġowes": 20083,
    "Ġprodigies": 19792,
    "^{": 15303,
    "sense": 11523,
    "hammered": 19003,
    "Ġdefence": 11067,
    "Ġmoreover": 6163,
    "ulty": 22564,
    "Ġdawned": 14993,
    "levelled": 23646,
    "sheets": 14440,
    "Ġoctavo": 15162,
    "Ġfanny": 23389,
    "mouthed": 12398,
    "angular": 11721,
    "cushion": 20820,
    "stolidity": 21660,
    "july": 20473,
    "unaccountable": 15776,
    "Ġresolved": 3798,
    "Ġoverspread": 14206,
    "ķ": 248,
    "Ġaquiline": 26159,
    "stay": 9680,
    "Ġassur": 6073,
    "Ġlayer": 1009,
    "20": 20752,
    "Ġmod": 496,
    "Ġpetticoat": 15294,
    "izes": 886,
    "stri": 6249,
    "hence": 16624,
    "Ġbedrooms": 19968,
    "declined": 25174,
    "Ġheed": 5630,
    "Ġhumans": 8929,
    "aven": 8208,
    "ud": 917,
    "hide": 10703,
    "omp": 2473,
    "Ġinheriting": 25354,
    "Ġluff": 15650,
    "Ġfleshy": 24614,
    "Ġtrial": 6634,
    "Ġheathenish": 13615,
    "Ġobligations": 12089,
    "musket": 25341,
    "elt": 4119,
    "Ġanim": 2112,
    "master": 5687,
    "rin": 10121,
    "Ġthan": 736,
    "Ġalchemists": 26487,
    "Ġinhab": 5083,
    "icking": 8910,
    "forgotten": 12414,
    "calmly": 20138,
    "Ġdenied": 9000,
    "Ġworld": 1596,
    "entric": 11618,
    "ispens": 8335,
    "Ġ1671": 25005,
    "Ġdesc": 776,
    "urance": 10857,
    "Ġplanet": 14749,
    "flutterings": 26606,
    "mortar": 25408,
    "Ġrushing": 7403,
    "insupportable": 21192,
    "Ġcommanded": 6330,
    "Ġfret": 10806,
    "Ġuncommon": 5026,
    "Ġharb": 7370,
    "Ġannihil": 10174,
    "ruined": 18337,
    "Ġhistory": 4010,
    "sius": 13787,
    "Ġmccauley": 26427,
    "Ġfable": 15574,
    "Ġevap": 19622,
    "beg": 22484,
    "cious": 6643,
    "Ġnumerical": 4248,
    "Ġhare": 5157,
    "Ġvancou": 22869,
    "Ġending": 18189,
    "Ġbulkhead": 24511,
    "prior": 21031,
    "batt": 20777,
    "urring": 21702,
    "Ġprophe": 13077,
    "Ġdismantled": 20215,
    "ization": 481,
    "Ġholiday": 12995,
    "buried": 14848,
    "Ġpig": 5705,
    "Ġincrease": 9369,
    "_),": 7125,
    "Ġfoliage": 18866,
    "Ġnetworks": 595,
    "Ġwards": 17789,
    "azine": 19130,
    "Ġperemptory": 25740,
    "Ġlasting": 18792,
    "Ġimmort": 19482,
    "Ġcautious": 12251,
    "Ġsufficiently": 8973,
    "Ġthrusts": 24350,
    "Ġfrig": 13079,
    "Ġwester": 25152,
    "asible": 21539,
    "Ġoccupation": 9930,
    "Ġenchantment": 24869,
    "Ġunfaltering": 24112,
    "aphys": 15200,
    "comra": 16173,
    "ifice": 7198,
    "Ġintim": 6838,
    "strength": 13979,
    "į": 240,
    "lucifer": 25301,
    "Ġimpreg": 15985,
    "Ġpervading": 20612,
    "ank": 1361,
    "Ġaudience": 24769,
    "Ġhand": 859,
    "pr": 3177,
    "itioned": 22466,
    "a": 69,
    "Ġwild": 2600,
    "Ġcre": 888,
    "Ġcol": 1058,
    "Ġdrive": 5055,
    "Ġpant": 10817,
    "Ġdut": 2988,
    "aning": 2254,
    "Ġscorching": 20064,
    "Ġdoctor": 5067,
    "Ġunique": 12775,
    "sort": 6798,
    "Ġsuperhuman": 23452,
    "Ġstate": 1811,
    "Ġaccomplished": 7104,
    "_âĢĶâĢĻâĢĿ": 25741,
    "Ġwinc": 9642,
    "etieth": 21581,
    "Ġnoiselessly": 22858,
    "gence": 877,
    "Ġinsure": 13177,
    "igen": 4829,
    "Ġmusic": 5268,
    "Ġgibe": 25959,
    "lar": 4484,
    "Ġacknowled": 6350,
    "Ġlaid": 3942,
    "onness": 21253,
    "Ġparson": 6687,
    "Ġdeadliest": 14556,
    "Ġmogul": 12859,
    "Ġwork": 1312,
    "Ġcheers": 16364,
    "Ġapt": 9155,
    "Ġabused": 22276,
    "Ġgothic": 17999,
    "Ġscenery": 11456,
    "mid": 5617,
    "Ġeffort": 8204,
    "Ġfrank": 4421,
    "bbings": 19275,
    "Ġwhistled": 24623,
    "Ġcounter": 6481,
    "Ġbecalmed": 18086,
    "Ġscr": 11758,
    "Ġ235": 25713,
    "Z": 62,
    "xim": 1091,
    "Ġextravag": 11254,
    "Ġtied": 7357,
    "Ġdecl": 3590,
    "Ġprocured": 8676,
    "Ġconsent": 5372,
    "Ġlic": 8435,
    "atmospheric": 17776,
    "Ġsofas": 26224,
    "Ġexclusiveness": 23924,
    "page": 13770,
    "Ġdown": 830,
    "iful": 2886,
    "embedding": 20703,
    "Ġsuspending": 19243,
    "ict": 596,
    "Ġtalking": 3858,
    "march": 13754,
    "speeches": 25239,
    "Ġpaid": 5015,
    "record": 16921,
    "ius": 5789,
    "Ġrosings": 4608,
    "Ġdiction": 8794,
    "Ġlack": 17963,
    "impressed": 12688,
    "Ġsentiment": 6589,
    "Ġlogits": 3451,
    "tered": 2231,
    "Ġexcavating": 23313,
    "nostr": 22750,
    "Ġspanish": 2829,
    "apologizing": 26544,
    "Ġskills": 1840,
    "Ġessential": 7523,
    "stuff": 15685,
    "Ġautonom": 10415,
    "Ġadjusted": 23457,
    "eringly": 23000,
    "visit": 7754,
    "Ġexternal": 8364,
    "sych": 9892,
    "attributed": 23117,
    "Ġparliament": 18302,
    "pless": 6260,
    "leag": 21364,
    "Ġdenoted": 16565,
    "impul": 16556,
    "Ġmourning": 13477,
    "affording": 23775,
    "Ġtwenty": 3950,
    "first": 3935,
    "ease": 12455,
    "persecutor": 26529,
    "Ġmoon": 4609,
    "Ġsolemnity": 9940,
    "Ġhow": 598,
    "ants": 1389,
    "Ġsloop": 25930,
    "Ġleyden": 21744,
    "Ġsyrian": 18353,
    "rant": 11516,
    "quit": 15759,
    "Ġtug": 11550,
    "encyclopÃ¦dia": 16663,
    "Ġvegetables": 15220,
    "sme": 17658,
    "flo": 6114,
    "Ġquarrel": 7292,
    "roused": 16652,
    "Ġidiotic": 25588,
    "Ġinquir": 4245,
    "Ġgenus": 24429,
    "Ġsends": 14789,
    "flour": 23963,
    "Ġuttermost": 19486,
    "Ġintrude": 25990,
    "apidated": 22334,
    "Ġunaccountable": 7886,
    "bad": 12434,
    "ighted": 8476,
    "Ġgrinned": 16857,
    "Ġsuit": 5725,
    "fulness": 4312,
    "Ġdaring": 8120,
    "omitted": 18016,
    "Ġliterary": 25162,
    "Ġkidn": 20204,
    "wh": 508,
    "worthy": 7732,
    "Ġdisconnected": 22522,
    "using": 5468,
    "othing": 6995,
    "educated": 17259,
    "Ġmystical": 12130,
    "Ġset": 1177,
    "igated": 15704,
    "Ġadhes": 22099,
    "before": 3116,
    "Ġtruthful": 23865,
    "Ġstockings": 19995,
    "lins": 2025,
    "Ġimmortality": 26325,
    "hundreds": 25073,
    "Ġabusive": 22280,
    "Ġcoars": 14270,
    "ince": 4341,
    "wled": 15453,
    "irts": 9237,
    "Ġalabama": 14018,
    "rol": 5713,
    "Ġrocky": 13386,
    "Ġcompatibility": 2960,
    "Ġlearn": 362,
    "founded": 16713,
    "Ġembellished": 25850,
    "Ġspring": 4125,
    "Ġspasmodically": 17313,
    "Ġhampshire": 15241,
    "Ġoften": 1956,
    "Ġscraping": 13415,
    "dro": 6644,
    "haul": 14764,
    "ĠâĢľâĢĻ": 22251,
    "Ġninetieth": 25357,
    "acqu": 4842,
    "Ġbestow": 6455,
    "anguish": 15978,
    "function": 4035,
    "Ġcathedral": 17412,
    "elijah": 19471,
    "Ġflip": 11910,
    "unct": 18154,
    "Ġwakes": 11571,
    "abilizing": 2927,
    "Ġlaboratory": 13611,
    "Ġcoat": 4555,
    "Ġconfusing": 23305,
    "thrown": 8480,
    "Ġsuffering": 8946,
    "nevertheless": 8285,
    "Ġdisordered": 16053,
    "Ġdoes": 943,
    "Ġfervently": 25877,
    "Ġconceals": 23901,
    "Ġvess": 3297,
    "Ġindic": 2891,
    "Ġlashings": 25097,
    "Ġdivert": 23592,
    "Ġfielding": 16228,
    "twain": 23699,
    "Ġgaiters": 20459,
    "explain": 1480,
    "enge": 21279,
    "Ġdesirous": 8942,
    "Ġheedful": 19739,
    "tle": 2410,
    "Ġfreer": 23205,
    "Ġmiriam": 25273,
    "are": 637,
    "Ġeucl": 24709,
    "Ġcarpet": 9355,
    "Ġchilled": 18382,
    "Ġimagined": 8606,
    "Ġhimself": 1350,
    "Ġconsideration": 5191,
    "convers": 6567,
    "Ġdownstream": 3776,
    "Ġtargets": 4207,
    "Ġlawy": 9454,
    "Ġroy": 4232,
    "waving": 21130,
    "gus": 13724,
    "estab": 14170,
    "Ġhunger": 8566,
    "observed": 7674,
    "join": 12111,
    "Ġhams": 16612,
    "ue": 1179,
    "elag": 12655,
    "whiskers": 12309,
    "Ġprevented": 5941,
    "Ġdressed": 5081,
    "Ġcorruption": 15224,
    "Ġenlar": 15798,
    "Ġprimary": 25060,
    "Ġcents": 17828,
    "ensions": 14258,
    "Ġobey": 9518,
    "torn": 17682,
    "Ġrecollect": 8309,
    "Ġhundredth": 16519,
    "Ġstaving": 21734,
    "Ġalche": 21780,
    "retrie": 18922,
    "Ġdiving": 12598,
    "sign": 8387,
    "Ġshreds": 12767,
    "irection": 2387,
    "Ġinvol": 1053,
    "Ġremark": 2145,
    "Ġtong": 4870,
    "oury": 22301,
    "Ġeyed": 12664,
    "Ġmurderers": 16811,
    "Ġisa": 14024,
    "convalescence": 24884,
    "Ġscaffold": 18394,
    "Ġlacey": 10197,
    "Ġosc": 2838,
    "ulous": 4451,
    "streamed": 25966,
    "limping": 26393,
    "Ġrecip": 16138,
    "prise": 7726,
    "Ġmist": 2881,
    "Ġsupply": 6066,
    "Ġunwillingness": 20030,
    "Ġwashes": 21858,
    "conve": 14243,
    "irited": 15784,
    "deep": 1026,
    "Ġwhales": 1828,
    "ens": 701,
    "ruded": 15895,
    "Ġwollstonecraft": 26425,
    "Ġbuckle": 17033,
    "Ġcask": 5527,
    "orse": 5806,
    "Ġtying": 15472,
    "Ġlearnedly": 23384,
    "ocris": 23707,
    "motion": 17606,
    "Ġgenerative": 5644,
    "exposure": 19256,
    "fere": 10989,
    "Ġaccountability": 10438,
    "ream": 2710,
    "Ġacquaintance": 4137,
    "Ġalpha": 13587,
    "Ġflea": 23771,
    "Ġwithdra": 6398,
    "custom": 15332,
    "pair": 21011,
    "streets": 13394,
    "iltrated": 19305,
    "algorithms": 8300,
    "pig": 8752,
    "masts": 19423,
    "Ġlightnings": 16351,
    "owing": 7601,
    "Ġshakes": 10904,
    "Ö": 151,
    "Ġeyelids": 26107,
    "cruet": 17026,
    "Ġwrists": 11113,
    "dread": 8728,
    "Ġchamber": 6213,
    "Ġretrogression": 26581,
    "Ġrespectively": 23245,
    "learned": 8600,
    "Ġpassages": 12967,
    "acca": 23596,
    "oars": 9614,
    "fortune": 4975,
    "Ġsullen": 9157,
    "Ġeyelashes": 26106,
    "Ġimparts": 18446,
    "Ġprovoking": 16743,
    "Ġhurst": 5582,
    "Ġheightens": 24154,
    "Ġbushy": 16399,
    "thed": 8826,
    "pse": 21008,
    "ogene": 18675,
    "increase": 20267,
    "owe": 15705,
    "comprehens": 16175,
    "Ġlurid": 19680,
    "envelope": 17782,
    "oyed": 14362,
    "Ġhast": 3153,
    "paid": 15413,
    "Ġtemporary": 7980,
    "Ġbehaves": 23298,
    "shelf": 20379,
    "proves": 23392,
    "scrape": 25698,
    "Ġacts": 2295,
    "Ġinstituted": 18701,
    "Ġorb": 22088,
    "backpropagation": 11984,
    "Ġforbid": 7864,
    "embra": 14073,
    "Ġyears": 1892,
    "eminently": 25105,
    "Ġcreated": 2708,
    "Ġpaved": 17912,
    "Ġcrazed": 19174,
    "Ġdirectors": 18921,
    "Ġdespondency": 16577,
    "arrested": 15598,
    "daggoo": 13706,
    "tri": 11529,
    "Ġinspiring": 19112,
    "Ġjunk": 15951,
    "Ġadvancing": 6878,
    "Ġnovel": 6695,
    "Ġindian": 4135,
    "commencement": 26347,
    "Ġpink": 12615,
    "uish": 5431,
    "Ġladies": 3195,
    "Ġbabel": 24426,
    "Ġgap": 21596,
    "oing": 15400,
    "prosperity": 20734,
    "Ġdeserves": 13288,
    "uced": 13799,
    "liked": 10508,
    "also": 7850,
    "Ġphren": 8571,
    "Ġoverwhelming": 17102,
    "augmented": 26286,
    "Ġdemonstrate": 24994,
    "Ġboil": 16102,
    "Ġragged": 11844,
    "architect": 22893,
    "Ġcrash": 12000,
    "Ġdifferences": 18715,
    "Ġthw": 21512,
    "Ġpromises": 10400,
    "Ġcoppers": 22582,
    "Ġdromed": 15594,
    "Ġreserve": 9970,
    "Ġseen": 1365,
    "Ġilleg": 21620,
    "Ġtugged": 17288,
    "overcome": 19050,
    "lop": 20947,
    "trained": 4242,
    "Ġadored": 18291,
    "Ġstraighten": 24001,
    "Ġmechan": 1155,
    "Ġlamb": 8812,
    "ote": 4597,
    "flukes": 25205,
    "Ġwrought": 11942,
    "jeroboam": 25619,
    "Ġmerely": 3771,
    "unnatural": 15770,
    "Ġfiltering": 23923,
    "âĢĻ,": 14069,
    "Ġeffectively": 2638,
    "Ġdisplays": 19856,
    "tick": 17678,
    "Ġstile": 21729,
    "alley": 23018,
    "Ġexisted": 15750,
    "elzebub": 26464,
    "magnitude": 17248,
    "hamlet": 23259,
    "Ġhandsomest": 20333,
    "Ġminiatures": 20320,
    "Ġsituation": 4073,
    "Ġimperson": 14220,
    "Ġ54": 24322,
    "mighty": 9466,
    "Ġreports": 19084,
    "Ġrings": 11698,
    "Ġsurvived": 14933,
    "surgeon": 24214,
    "Ġhorses": 6385,
    "Ġfolly": 7940,
    "Ġtame": 17722,
    "Ġinflamed": 13472,
    "Ġsweatings": 25710,
    "winds": 10521,
    "destined": 24115,
    "digger": 24310,
    "Ġframework": 2014,
    "ibank": 6880,
    "Ġdisdain": 8359,
    "Ġtowering": 16739,
    "fifth": 20145,
    "meal": 22709,
    "diligence": 26110,
    "versed": 9824,
    "Ġleads": 12094,
    "Ġcorpse": 6638,
    "especially": 3573,
    "Ġmilky": 9946,
    "Ġsnake": 12059,
    "Ġbetween": 792,
    "Ġfing": 3758,
    "Ġassociates": 24712,
    "erde": 21267,
    "Ġlying": 4825,
    "ket": 17582,
    "skull": 24488,
    "Ġpollard": 20384,
    "Ġdotted": 16792,
    "Ġappearances": 10451,
    "prudently": 21033,
    "chants": 21689,
    "Ġ8": 5433,
    "Ġrout": 7402,
    "passenger": 24166,
    "omited": 21638,
    "fresh": 13391,
    "whom": 8184,
    "Ġheire": 18036,
    "Ġtrag": 13037,
    "Ġcomprised": 14267,
    "Ġpurely": 12229,
    "Ġinitialization": 1253,
    "Ġcring": 15549,
    "provided": 13636,
    "Ġinterval": 4055,
    "Ġscrupled": 25049,
    "glory": 23850,
    "yt": 17711,
    "intolerable": 22935,
    "ittarius": 22374,
    "Ġdisrespect": 18553,
    "_,âĢĿ": 6218,
    "Ġcelebrated": 13593,
    "Ġtransitory": 16017,
    "arian": 10315,
    "Ġoriginally": 7304,
    "liter": 11501,
    "Ġcrouched": 23440,
    "Ġaccount": 2320,
    "Ġbegat": 18862,
    "dire": 15335,
    "Ġdreadfully": 7725,
    "Ġ[": 6967,
    "Ġbraved": 23835,
    "Ġreconciled": 13586,
    "ructive": 18543,
    "osis": 18389,
    "Ġapproach": 835,
    "800": 17476,
    "hack": 20895,
    "whalemen": 10431,
    "neighbours": 24881,
    "Ġpressed": 6041,
    "Ġconceal": 5973,
    "Ġsidel": 9635,
    "ladder": 19783,
    "porary": 14552,
    "Ġunmethodically": 22068,
    "ush": 3633,
    "Ġceremonies": 24836,
    "Ġswarming": 16271,
    "fitzwilliam": 11352,
    "Ġobscure": 9553,
    "proceeded": 25190,
    "Ġbashaw": 25633,
    "stricken": 9883,
    "«": 109,
    "´": 117,
    "Ġmarbank": 23036,
    "Ġdiscourage": 3118,
    "Ġhears": 8138,
    "ow": 325,
    "exactly": 10636,
    "ently": 1616,
    "mm": 674,
    "Ġgrip": 11626,
    "Ġhonoured": 9880,
    "isco": 12578,
    "Ġhieroglyphics": 17302,
    "positive": 20566,
    "Ġdeployment": 11193,
    "Ġsole": 3299,
    "iscre": 17850,
    "Ġmanly": 22321,
    "calm": 8934,
    "Ġtass": 15469,
    "Ġdictionary": 15111,
    "leather": 13889,
    "Ġfoundering": 21417,
    "ios": 2196,
    "relics": 24012,
    "gl": 3292,
    "Ġ61": 24364,
    "Ġinducement": 16843,
    "Ġarriving": 19217,
    "head": 1432,
    "hors": 9598,
    "acher": 6868,
    "Ġshrivelled": 19702,
    "Ġtremendous": 8352,
    "Ġpurposely": 10444,
    "clever": 20812,
    "ledge": 1329,
    "Ġfew": 1213,
    "meetings": 20376,
    "Ġperceived": 4714,
    "Ġsubterr": 10348,
    "Ġmoody": 8200,
    "Ġdefinition": 14403,
    "Ġwidth": 16772,
    "54": 15298,
    "disaster": 23491,
    "contrary": 23727,
    "Ġapply": 1776,
    "kindly": 14743,
    "Ġpersuading": 19408,
    "somewhere": 12011,
    "Ġele": 1963,
    "Ġcontinuing": 14397,
    "sharp": 10306,
    "Ġsurrounded": 5878,
    "Ġ96": 24592,
    "Ġanchor": 7368,
    "Ġgoverness": 8601,
    "ared": 770,
    "Ġweapon": 7775,
    "Ġmaimed": 21315,
    "Ġclustered": 25233,
    "hunting": 24385,
    "foam": 24418,
    "Ġaffl": 14385,
    "Ġenchanted": 9080,
    "Ġsqueezed": 20034,
    "Ġshout": 4267,
    "Ġhauled": 11692,
    "Ġmab": 12557,
    "itating": 9650,
    "usation": 18401,
    "Ġlandlady": 10422,
    "Ġcanst": 8857,
    "Ġearthy": 23711,
    "lads": 20954,
    "Ġcin": 13874,
    "thern": 4953,
    "oug": 432,
    "Ġworkmen": 23030,
    "rushed": 10584,
    "special": 14704,
    "Ġwaiting": 4325,
    "Ġidly": 16402,
    "oup": 2012,
    "Ġcoldness": 23757,
    "philosophy": 13579,
    "Ġpoetic": 17103,
    "Ġcomposed": 8891,
    "Ġscalding": 16302,
    "Ġfailure": 13313,
    "Ġboon": 22636,
    "ceptible": 10960,
    "Ġastonishing": 10501,
    "Ġtrout": 22340,
    "andy": 8157,
    "Ġits": 706,
    "tar": 8097,
    "Ġgold": 3279,
    "Ġflail": 23004,
    "bast": 10076,
    "Ġevolve": 3001,
    "Ġener": 10896,
    "olly": 3226,
    "ony": 3030,
    "lass": 5992,
    "highest": 20406,
    "Ġaltar": 9228,
    "Ġpivot": 13922,
    "throwing": 11701,
    "ident": 3379,
    "azz": 8261,
    "try": 7812,
    "Ġtyphoon": 12387,
    "strip": 19829,
    "ackled": 22418,
    "Ġsolitude": 6876,
    "Ġcommonest": 23087,
    "ishe": 13890,
    "Ġmeetings": 16533,
    "oring": 1860,
    "grees": 20885,
    "Ġrelease": 19290,
    "Ġtwitching": 25683,
    "unknown": 10890,
    "Ġbeech": 18082,
    "suit": 18629,
    "Ġvon": 14080,
    "lotte": 3332,
    "###": 3827,
    "Ġcomponents": 8892,
    "Ġdiscoverers": 26036,
    "stands": 22432,
    "gans": 11489,
    "lan": 15376,
    "Ġtime": 690,
    "Ġknocking": 10559,
    "Ġfamine": 16326,
    "Ġindestructible": 26572,
    "Ġgreat": 895,
    "Ġexecut": 4250,
    "longbourn": 9895,
    "Ġrecommence": 16812,
    "Ġcocain": 18596,
    "Ġslapped": 23168,
    "Ġdiscrimination": 23604,
    "Ġrecommendation": 17025,
    "Ġfestival": 25445,
    "lanterns": 17428,
    "ty": 999,
    "Ġsure": 1864,
    "jud": 4482,
    "Ġconsummation": 17424,
    "Ġawhile": 13829,
    "Ġborder": 10169,
    "Ġobjections": 8564,
    "Ġsunset": 8962,
    "ę": 218,
    "Ġimposed": 14216,
    "Ġasp": 15778,
    "painter": 24896,
    "Ġharpooning": 23976,
    "Ġinstigated": 18702,
    "care": 4928,
    "Ġgorge": 13565,
    "oice": 1383,
    "Ġbegged": 8230,
    "ivable": 10911,
    "Ġagrippa": 11805,
    "wanted": 10743,
    "Ġwallowing": 24041,
    "perils": 22180,
    "Ġbegging": 11079,
    "inable": 11555,
    "wild": 8766,
    "Ġuncomp": 15839,
    "Ġconvenience": 11331,
    "Ġaccost": 12843,
    "Ġmidnight": 5265,
    "Ġbowl": 11204,
    "Ġremorselessly": 16967,
    "Ġhollow": 5648,
    "made": 4808,
    "Ġinterested": 6458,
    "Ġburning": 5976,
    "Ġgrind": 18735,
    "fellows": 12271,
    "races": 21627,
    "dashed": 12453,
    "Ġproficiency": 19191,
    "involved": 25626,
    "Ġinterest": 2249,
    "Ġmacy": 19353,
    "Ġlandscape": 12415,
    "Ġmilan": 19534,
    "hering": 12811,
    "stretched": 10207,
    "Ġstraightened": 12106,
    "uracy": 1087,
    "Ġvale": 14081,
    "Ġmile": 7151,
    "vous": 2252,
    "Ġjollity": 25566,
    "Ġjoosy": 23630,
    "unlike": 18156,
    "Ġthou": 1810,
    "ableness": 8148,
    "Ġpar": 456,
    "Ġsailors": 4279,
    "Ġremained": 3144,
    "Ġprofuse": 23565,
    "ack": 613,
    "Ġ27": 8614,
    "mysteries": 26051,
    "Ġdesign": 4136,
    "varied": 23181,
    "Ġoffering": 3007,
    "Ġtraverse": 18891,
    "degra": 22138,
    "iature": 8741,
    "Ġcursed": 6726,
    "Ġsuppression": 22997,
    "Ġexpected": 3698,
    "Ġbarbs": 10531,
    "Ġovercome": 6043,
    "Ġconfl": 11137,
    "Ġmultitudinous": 26273,
    "Ġhoary": 23352,
    "Ġvib": 8164,
    "Ġlids": 12273,
    "Ġcorps": 13030,
    "Ġfare": 5809,
    "Ġconfederate": 17353,
    "Ġneighbours": 8302,
    "Ġantique": 19550,
    "whaler": 20308,
    "Ġdamning": 19139,
    "Ġpaste": 23417,
    "iture": 5696,
    "Ġghostliness": 24651,
    "Ġdon": 1614,
    "Ġoffend": 16141,
    "Ġproved": 4884,
    "valley": 16211,
    "Ġremarked": 3697,
    "irr": 12734,
    "pt": 387,
    "ress": 932,
    "abashed": 21789,
    "Ġdisdained": 15009,
    "Ġsubstances": 24165,
    "Ġabruptly": 15149,
    "arrant": 10474,
    "pool": 16207,
    "imony": 12687,
    "urpr": 2287,
    "Ġuplifted": 11646,
    "Ġinfants": 16362,
    "Ġdivine": 6921,
    "Ġsc": 527,
    "ssed": 3735,
    "merely": 16132,
    "aving": 2407,
    "agreeable": 5829,
    "Ġdesiring": 14412,
    "Ġunobstructed": 18264,
    "Ġresting": 7961,
    "relieved": 13275,
    "Ġwhittling": 20698,
    "elaborate": 21573,
    "Ġvanquished": 22870,
    "Ġshoulders": 5566,
    "figured": 20121,
    "Ġbeginning": 4246,
    "utarch": 15659,
    "Ġshavings": 14109,
    "scuttle": 11907,
    "erate": 7149,
    "Ġlatter": 3991,
    "Ġyell": 21774,
    "Ġbag": 5699,
    "Ġresolution": 5500,
    "Ġcows": 15550,
    "Ġmock": 3693,
    "Ġcanterbury": 22162,
    "Ġsteepest": 3090,
    "Ġhospitality": 13512,
    "Ġnocturnal": 20714,
    "Ġprosperous": 15169,
    "redible": 15802,
    "Ġnails": 12645,
    "smiles": 14692,
    "Ġstaff": 14005,
    "bitt": 17485,
    "ert": 2633,
    "Ġgould": 17989,
    "Ġelephant": 8255,
    "angel": 5726,
    "tap": 17676,
    "Ġwhaling": 2782,
    "ative": 747,
    "Ġadvanced": 1489,
    "ĠĠĠĠĠĠĠĠĠĠĠĠĠĠĠĠĠĠĠĠĠĠĠĠĠĠĠĠĠĠĠĠĠĠĠĠĠĠĠĠĠ": 19581,
    "asmuch": 10194,
    "Ġspoiled": 11363,
    "Ġangle": 8602,
    "otics": 10223,
    "fine": 10090,
    "Ġcorresponds": 19820,
    "subjects": 19875,
    "superst": 11325,
    "Ġimpl": 7195,
    "ghan": 19453,
    "err": 1141,
    "Ġbeen": 626,
    "Ġwisdom": 11234,
    "Ġcub": 8413,
    "Ġtwin": 12925,
    "Ġattends": 19649,
    "Ġsecretary": 19440,
    "ĠĠĠĠĠĠĠĠĠĠĠĠ": 12897,
    "Ġjen": 9266,
    "Ġsprinkled": 19495,
    "Ġmaid": 5285,
    "Ġdaggoo": 5441,
    "Ġscrape": 14917,
    "Ġcommanding": 16590,
    "Ġhelen": 16655,
    "named": 9885,
    "av": 738,
    "Ġninety": 13600,
    "Ġpot": 2990,
    "cords": 25136,
    "Ġmatrimony": 13634,
    "Ġhelper": 24023,
    "achable": 14129,
    "aug": 1214,
    "Ġfraud": 19030,
    "Ġthither": 6821,
    "Ġshouting": 10522,
    "Ġpaused": 5416,
    "Ġbled": 17857,
    "penet": 11070,
    "onze": 21254,
    "second": 6543,
    "Ġfluctuations": 5516,
    "arken": 18666,
    "Ġimprec": 14219,
    "burn": 8370,
    "rosings": 15641,
    "Ġforemost": 12003,
    "haired": 14765,
    "onical": 21252,
    "hit": 20888,
    "Ġconversing": 14633,
    "Ġindomitableness": 26571,
    "intending": 22932,
    "mediterranean": 16401,
    "extreme": 11029,
    "Ġboldly": 9500,
    "staff": 21653,
    "Ġbuckler": 24859,
    "proportions": 22832,
    "ast": 473,
    "clim": 18929,
    "Ġostent": 13583,
    "agra": 14065,
    "Ġchil": 11749,
    "side": 2301,
    "batross": 9092,
    "Ġ1991": 3016,
    "Ġinspector": 6498,
    "Ġawaited": 17074,
    "Ġcaroline": 7254,
    "Ġceti": 24773,
    "swelled": 19609,
    "Ġcontemplation": 11357,
    "Ġguessed": 11282,
    "clothes": 9057,
    "ground": 4672,
    "Ġred": 3005,
    "Ġcomputation": 966,
    "Ġpursuit": 4733,
    "ë": 172,
    "Ġexperiments": 23020,
    "fin": 5209,
    "Ġthough": 992,
    "Ġshades": 9462,
    "mountain": 10713,
    "Ġwat": 1286,
    "Ġloomings": 24949,
    "Ġheavier": 13100,
    "Ġdrink": 4787,
    "Ġspars": 3810,
    "Ġbasis": 16961,
    "seventh": 12711,
    "Ġsayest": 22776,
    "Ġfer": 5529,
    "sides": 12505,
    "withstanding": 8945,
    "ee": 1658,
    "expected": 5780,
    "Ġwrapped": 8341,
    "roc": 9674,
    "Ġprinted": 11947,
    "Ġsegment": 12754,
    "Ġsomewhat": 4897,
    "varieties": 23183,
    "hear": 10146,
    "Ġprick": 14476,
    "Ġune": 4599,
    "ellations": 21941,
    "sper": 4436,
    "Ġgraces": 18225,
    "aying": 15746,
    "Ġstreatham": 17448,
    "Ġincompetent": 25679,
    "deed": 1518,
    "Ġdundee": 16997,
    "Ġirrad": 19093,
    "ensation": 22542,
    "gaz": 20877,
    "other": 1316,
    "Ġtattooing": 15027,
    "Ġhugest": 17015,
    "Ġmerged": 19296,
    "Ġones": 3020,
    "ring": 1752,
    "Ġfearfulness": 23510,
    "Ġshillings": 15833,
    "Ġmum": 13857,
    "Ġportcullis": 26603,
    "Ġgilder": 21610,
    "Ġregularization": 1170,
    "Ġsilvery": 13092,
    "Ġlivel": 11355,
    "Ġkindliness": 23291,
    "crime": 14781,
    "Ġsword": 6732,
    "creation": 14805,
    "desperate": 17351,
    "placed": 7877,
    "Ġceaseless": 13487,
    "edged": 15628,
    "meditation": 19066,
    "Ġclasses": 4056,
    "Ġbowing": 10475,
    "Ġtom": 15630,
    "prospect": 23394,
    "Ġ49": 24081,
    "horn": 8085,
    "olerably": 11672,
    "Ġes": 8768,
    "Ġgraze": 18226,
    "Ġem": 1925,
    "ersampling": 18216,
    "coarse": 16487,
    "Ġworks": 5857,
    "jaws": 20931,
    "Ġalbert": 12703,
    "Ġbeds": 14551,
    "Ġstudents": 23222,
    "Ġmystery": 5509,
    "Ġgallon": 24184,
    "Ġcontinental": 19704,
    "Ġcamberwell": 25350,
    "Ġasleep": 6836,
    "Ġdood": 22239,
    "Ġraw": 3322,
    "whalebone": 19118,
    "particip": 23615,
    "Ġpassionately": 16764,
    "thirds": 25046,
    "Ġbackward": 7654,
    "epilogue": 22103,
    "paralleled": 14517,
    "Ġwoe": 4793,
    "Ġputting": 5326,
    "front": 12168,
    "Ġcovent": 16072,
    "Ġcertainty": 6734,
    "Ġintercourse": 10998,
    "Ġfugitive": 17326,
    "Ġcoiling": 12902,
    "Ġexhilarating": 26337,
    "cence": 9588,
    "Ġinstructions": 11196,
    "othed": 16510,
    "ished": 1424,
    "Ġdents": 13910,
    "Ġvexatious": 19780,
    "Ġinjury": 10540,
    "Ġscattered": 6856,
    "les": 1015,
    "Ġgeometric": 3219,
    "ogne": 12937,
    "wins": 21128,
    "ria": 15796,
    "Ġbeside": 5192,
    "war": 6802,
    "Ġbeams": 14631,
    "Ġwoodcock": 19162,
    "comput": 2031,
    "aneously": 4061,
    "archical": 1927,
    "Ġcanada": 22160,
    "Ġworth": 4418,
    "Ġwithdraw": 16964,
    "Ġcontrivance": 17183,
    "etuous": 21580,
    "althy": 8431,
    "ý": 190,
    "Ġlinguistic": 12423,
    "Ġhappiness": 2947,
    "Ġstolen": 14006,
    "during": 6787,
    "Ġkeeping": 7283,
    "begin": 8883,
    "Ġgrand": 3593,
    "Ġsiber": 17755,
    "tart": 21066,
    "Ġreview": 18030,
    "Ġice": 3604,
    "sad": 11520,
    "fourths": 25509,
    ",âĢĻâĢĶ": 23526,
    "scales": 22989,
    "perai": 10275,
    "i": 77,
    "Ġapr": 12529,
    "scho": 8759,
    "chant": 4261,
    "Ġoblige": 10488,
    "Ġmeantime": 6206,
    "tured": 13794,
    "Ġanno": 9667,
    "ribs": 23363,
    "stick": 15682,
    "intentions": 22936,
    "Ġprayers": 12121,
    "attentions": 13573,
    "Ġburnwell": 13267,
    "ivility": 12786,
    "itud": 2933,
    "Ġricher": 12756,
    "Ġreverse": 16982,
    "doctor": 19095,
    "Ġwarriors": 19722,
    "Ġparchment": 13651,
    "battering": 20785,
    "sized": 15427,
    "drawers": 19384,
    "Ġrot": 10967,
    "Ġclaps": 22346,
    "brave": 19822,
    "ignific": 11953,
    "Ġmil": 4257,
    "Ġencountered": 8321,
    "Ġabominate": 20066,
    "ad": 337,
    "carpet": 25202,
    "iers": 5990,
    "Ġaberdeen": 26542,
    "Ġoverpow": 14207,
    "Ġanimated": 7701,
    "counter": 20277,
    "Ġpossibilities": 18976,
    "osop": 4406,
    "pondicherry": 26400,
    "forming": 15916,
    "figure": 13554,
    "Ġbountiful": 25944,
    "Ġsax": 10929,
    "Ġdear": 1541,
    "rogress": 21533,
    "_âĢĶ": 11467,
    "Ġauthorities": 11264,
    "ike": 5000,
    "Ġstings": 21731,
    "Ġimbalanced": 18333,
    "Ġev": 4828,
    "Ġbuff": 9172,
    "Ġchatting": 24747,
    "Ġachieve": 3673,
    "oman": 2016,
    "ergy": 2360,
    "Ġcourting": 23288,
    "ipper": 13739,
    "Ġbead": 21747,
    "Ġmodular": 12815,
    "Ġglued": 20587,
    "Ġunpleasant": 7191,
    "Ġoverhead": 11771,
    "Ġspared": 7892,
    "dled": 9110,
    "Ġregions": 10323,
    "Ġhaunt": 18197,
    "roots": 15640,
    "Ġrussian": 14349,
    "Ġlad": 2363,
    "Ġlane": 5627,
    "Ġlapl": 19776,
    "Ġplayfully": 19238,
    "Ġfill": 5701,
    "Ġtold": 2183,
    "shame": 16022,
    "Ġwearisome": 19794,
    "condescended": 26248,
    "Ġunsocial": 18256,
    "Ġmis": 916,
    "Ġacquire": 2724,
    "Ġtattered": 21170,
    "repent": 15512,
    "Ġleast": 2064,
    "narrated": 25621,
    "ulum": 21860,
    "Ġticking": 25033,
    "Ġburglar": 17354,
    "Ġconsecrated": 26488,
    "arising": 17895,
    "Ġdesirable": 8941,
    "Ġhence": 4989,
    "gling": 10097,
    "Ġaper": 17743,
    "supportable": 12368,
    "Ġlifted": 6985,
    "Ġferry": 24498,
    "Ġ$": 21149,
    "Ġdecomposition": 5342,
    "itting": 1153,
    "Ġilliter": 23467,
    "Ġordin": 16650,
    "perth": 22178,
    "Ġra": 823,
    "treas": 17679,
    "gorge": 22329,
    "Ġtwo": 1042,
    "Ġtanning": 17729,
    "Ġpassed": 2008,
    "handedness": 24920,
    "Ġswimming": 5507,
    "Ġmetrics": 19073,
    "Ġappo": 8497,
    "Ġnour": 10830,
    "unt": 2044,
    "Ą": 197,
    "Ġoun": 13862,
    "Ġcrate": 19122,
    "Ġshoots": 14568,
    "this": 1436,
    "Ġsanely": 24980,
    "Ġprayed": 16667,
    "Ġlecture": 13566,
    "Ġintensely": 17017,
    "sustained": 20567,
    "rie": 2786,
    "tim": 13790,
    "Ġices": 21153,
    "prairies": 20565,
    "Ġafric": 8905,
    "Ġfast": 1716,
    "der": 469,
    "itu": 1226,
    "sto": 3200,
    "Ġcope": 17830,
    "Ġfountains": 13502,
    "Ġtaught": 6803,
    "Ġfantastic": 10058,
    "alongside": 19788,
    "Ġfanciful": 24788,
    "Ġpatagonia": 25858,
    "Ġpractised": 23325,
    "Ġobserv": 8586,
    "ortion": 11755,
    "Ġsquire": 16180,
    "Ġmaled": 21313,
    "ureau": 10226,
    "Ġapartment": 6633,
    "conditionally": 24834,
    "Ġcemet": 20679,
    "Ġvest": 8162,
    "Ġapproved": 16030,
    "trees": 10731,
    "Ġbiases": 2398,
    "months": 9071,
    "ms": 538,
    "Ġtrouble": 3692,
    "Ġjura": 14192,
    "Ý": 158,
    "jah": 17581,
    "bes": 6641,
    "Ġfreshets": 25705,
    "Ġphilosopher": 12181,
    "Ġprofound": 5497,
    "Ġstudious": 23221,
    "Ġlogs": 16345,
    "ions": 448,
    "Ġguess": 4903,
    "Ġmarching": 16699,
    "hung": 8380,
    "benefit": 24642,
    "beaten": 20314,
    "Ġstrang": 4165,
    "Ġhandled": 12934,
    "Ġcurrents": 13011,
    "Ġfri": 17878,
    "alter": 10826,
    "Ġimpersonal": 17396,
    "Ġindolence": 16227,
    "Ġvine": 8471,
    "9": 29,
    "Ġconveniently": 20077,
    "Ġlawyers": 25248,
    "fly": 13713,
    "Ġtempor": 2365,
    "Ġcetacea": 20552,
    "apan": 6860,
    "regarded": 12006,
    "unless": 9234,
    "familiar": 19782,
    "Ġjoys": 13218,
    "etus": 21575,
    "dz": 4739,
    "Ġsoapstone": 20509,
    "Ġhasten": 10478,
    "Ġdam": 2214,
    "Ġbeaver": 18085,
    "Ġlabel": 14515,
    "Ġvigil": 9506,
    "Ġrational": 8479,
    "Ġpensive": 21473,
    "Ġheal": 21678,
    "Ġvineyards": 25106,
    "Ġagreement": 18542,
    "Ġpound": 12613,
    "Ġbitterest": 12400,
    "Ġbounding": 19398,
    "inked": 12909,
    "meas": 7434,
    "coff": 9108,
    "Ġvicious": 24403,
    "lightened": 12063,
    "dies": 15337,
    "Ġamiss": 18512,
    "tackle": 17320,
    "Ġbelrive": 18831,
    "Ġcranial": 25592,
    "Ġperch": 10298,
    "Ġdock": 15928,
    "Ġcoinc": 11001,
    "acious": 5562,
    "Ġdestroying": 14728,
    "Ġcongregated": 20095,
    "Ġhoriz": 4726,
    "child": 5538,
    "onom": 9158,
    "Ġpleasantness": 24139,
    "Ġdiffered": 22708,
    "scissors": 20726,
    "Ġdisposal": 19374,
    "Ě": 219,
    "Ġcollections": 22854,
    "irted": 14071,
    "Ġacute": 16121,
    "Ġtie": 10750,
    "title": 17287,
    "Ġretrieval": 10674,
    "Ġgl": 1255,
    "Ġjoppa": 12034,
    "Ġcoasts": 12161,
    "politeness": 16906,
    "Ġbrains": 2629,
    "icit": 3378,
    "Ġwilling": 7421,
    "aging": 2238,
    "dington": 11899,
    "Ġchildren": 3768,
    "tipt": 25083,
    "Ġspiracle": 14149,
    "Ġpleasantest": 24138,
    "Ġthoughtlessness": 16191,
    "aby": 18106,
    "Ġbrooks": 25700,
    "Ġadro": 15865,
    "Ġscheme": 7064,
    "Ġyelling": 18096,
    "Ġfellow": 2776,
    "Ġgenerally": 4162,
    "Ġprematurely": 24003,
    "igations": 18042,
    "Ġsympathetic": 17358,
    "Ġconjectures": 16925,
    "Ġdiscernment": 15067,
    "Ġsubsiding": 23432,
    "Ġstrainings": 24627,
    "Ġrobbed": 23027,
    "Ġadversity": 24303,
    "Ġhack": 12753,
    "Ġhoisting": 9861,
    "Ġemph": 14525,
    "aped": 3765,
    "Ġhellaswag": 24343,
    "Ġjolly": 6858,
    "Ġfancy": 3746,
    "contr": 12055,
    "allic": 12810,
    "Ġbasement": 24702,
    "Ġhear": 1965,
    "Ġbrook": 13045,
    "Ġconcre": 16385,
    "icher": 9202,
    "uated": 10131,
    "Ġcretan": 22722,
    "col": 3105,
    "dear": 6555,
    "fearing": 18529,
    "Ġprofanely": 23569,
    "irra": 15782,
    "Ġlog": 1676,
    "Ġoutwardly": 24998,
    "hyme": 19608,
    "eted": 7591,
    "stad": 7597,
    "oriented": 2949,
    "begone": 12875,
    "rot": 21529,
    "start": 7598,
    "Ġloudly": 7312,
    "quickness": 19850,
    "Ġnormalizing": 1822,
    "Ġmutually": 23954,
    "Ġtomahawk": 7539,
    "itical": 5801,
    "Ġreader": 11932,
    "Ġtornado": 24621,
    "ortunity": 4405,
    "Ġcataract": 23426,
    "Ġrouted": 24907,
    "Ġselected": 9710,
    "Ġwished": 3730,
    "Ġdinnertime": 16719,
    "Ġcontrari": 23347,
    "Ġperiods": 13302,
    "Ġstartling": 14670,
    "Ġdetermination": 9818,
    "Ġtrembled": 8701,
    "Ġeat": 4644,
    "Ġuncouth": 14549,
    "charles": 14698,
    "garet": 9597,
    "Ġknows": 4164,
    "whel": 7664,
    "Ġbrack": 23833,
    "Ġquarto": 17295,
    "vation": 4744,
    "Ġloafer": 18299,
    "igation": 5917,
    "Ġswe": 2289,
    "model": 4367,
    "companies": 24894,
    "Ġsteals": 23081,
    "wered": 2689,
    "Ġalluded": 7884,
    "displeasure": 23493,
    "secondly": 16984,
    "destroy": 19509,
    "Ġdistur": 5312,
    "ene": 2167,
    "hoisted": 19282,
    "none": 6962,
    "official": 24914,
    "clu": 20798,
    "nect": 662,
    "uring": 817,
    "ittleness": 22373,
    "Ġsentimental": 24754,
    "ptic": 21915,
    "Ġhire": 21482,
    "hos": 15362,
    "Ġplenty": 6708,
    "kitchen": 17585,
    "Ġontario": 26204,
    "Ġresearch": 3304,
    "Ġkept": 3347,
    "Ġcigar": 9544,
    "Ġtries": 9150,
    "iquette": 26132,
    "Ġbales": 21387,
    "Ġdivided": 8631,
    "trans": 5594,
    "Ġpred": 672,
    "Ġwhispered": 5337,
    "Ġclasp": 9743,
    "Ġreadiness": 13047,
    "Ġmonsie": 11447,
    "Ġcases": 3962,
    "Ġcrow": 3805,
    "Ġpillow": 10037,
    ",âĢĶ": 3173,
    "Ġboundless": 10495,
    "Ġartful": 22611,
    "bular": 15312,
    "Ġmornings": 16235,
    "Ġremote": 8919,
    "arle": 21438,
    "ondency": 15268,
    "astrous": 15884,
    "rew": 3649,
    "Ġinjure": 16781,
    "ide": 721,
    "Ġarbit": 4651,
    "Ġrestrain": 8964,
    "towing": 17689,
    "Ġfavoring": 2343,
    "Ġfinal": 5400,
    "Ġcompromising": 22570,
    "antee": 22094,
    "alescing": 23864,
    "Ġegot": 18007,
    "Ġbase": 5013,
    "locked": 7677,
    "Ġcalculate": 13263,
    "twig": 23698,
    "Ġunfair": 19506,
    "Ġounce": 15271,
    "Ġgreyish": 24208,
    "Ġcubic": 20086,
    "Ġarch": 929,
    "divers": 15341,
    "ispensable": 9095,
    "Ġpastures": 23418,
    "killing": 20941,
    "Ġruns": 8594,
    "Ġcravat": 26307,
    "rusion": 11323,
    "Ġblasphe": 17406,
    "quet": 6835,
    "longing": 23724,
    "Ġattract": 11832,
    "Ġslay": 16306,
    "Ġconsequent": 18110,
    "Ġmeddle": 19490,
    "Ġsavesoul": 26227,
    "Ġbored": 16103,
    "ortment": 22254,
    "greatest": 10493,
    "âĢĻâĢĶ": 12733,
    "Ġhails": 21947,
    "ax": 693,
    "Ġfootsteps": 16572,
    "urn": 777,
    "two": 3860,
    "kington": 11203,
    "Ġner": 1645,
    "sell": 13780,
    "Ġsustaining": 25333,
    "ope": 4129,
    "slo": 17656,
    "Ġprem": 3425,
    "Ġrepast": 16409,
    "Ġwithhold": 18115,
    "because": 4923,
    "Ġpurporting": 19181,
    "opposite": 19928,
    "Ġcentral": 7727,
    "Ġrecompense": 14837,
    "Ġwarmly": 8987,
    "Ġbrew": 23342,
    "inridge": 11560,
    "engaged": 7452,
    "Ġhearken": 21682,
    "Ġtools": 11608,
    "Ġintimacy": 8700,
    "Ġpsych": 10176,
    "Ġthey": 577,
    "laughing": 15178,
    "Ġobjection": 6585,
    "Ġrephr": 21676,
    "virtue": 20568,
    "_âĢĿ": 20760,
    "sullenly": 26149,
    "Ġplunge": 13442,
    "Ġavenue": 13620,
    "Ġgable": 15664,
    "Ġresource": 10993,
    "eline": 2698,
    "Ġconcerns": 11966,
    "seeking": 17152,
    "Ġquadruped": 17458,
    "mons": 17600,
    "historian": 25735,
    "spe": 3561,
    "Ġreser": 5170,
    "Ġstay": 3096,
    "Ġfaintness": 24570,
    "wow": 21120,
    "alleled": 14428,
    "flu": 9117,
    "Ġdeny": 7488,
    "Ġimprudence": 10297,
    "anesc": 21358,
    "ements": 11108,
    ".âĢĶâĢľ": 20746,
    "matter": 5136,
    "Ġjabbering": 22300,
    "Ġphilosop": 5057,
    "sprinkling": 24912,
    "braces": 24658,
    "contrasted": 17305,
    "nment": 20989,
    "Ġ53": 19639,
    "Ġyields": 19655,
    "Ġlustre": 15133,
    "well": 1689,
    "Ġthreads": 13116,
    "Ġpillows": 24986,
    "Ġcrockery": 24301,
    "mir": 20962,
    "obtain": 23091,
    "Ġvers": 7563,
    "mental": 16046,
    "Ġmatters": 4974,
    "Ġoutset": 15953,
    "Ġtube": 15003,
    "Ġparameters": 993,
    "full": 7420,
    "roads": 17957,
    "bury": 9106,
    "ton": 1726,
    "bows": 10081,
    "Ġcurvature": 3574,
    "Ġcrystal": 17214,
    "Ġrose": 3443,
    "ĠâĢĶ": 13810,
    "saw": 5893,
    "apped": 5395,
    "Ġlimping": 23544,
    "Ġrigid": 16716,
    "Ġbanqu": 12585,
    "uss": 8763,
    "dishon": 20402,
    "Ġrepel": 23357,
    "ences": 1264,
    "Ġdiscover": 4718,
    "batch": 1981,
    "Ġspoutings": 14675,
    "Ġbingleys": 18995,
    "Ġwindings": 18909,
    "Ġwounding": 19585,
    "snapping": 24849,
    "generations": 23783,
    "lone": 11499,
    "Ġharem": 9708,
    "ouncing": 8494,
    "Ġtortured": 14923,
    "÷": 184,
    "Ġoutlines": 15955,
    "indirectly": 18437,
    "Ġlowly": 11121,
    "elevating": 20404,
    "Ġunsophisticated": 25992,
    "Ġbounty": 26437,
    "Ġdint": 15588,
    "Ġissues": 9541,
    "Ġpersecutor": 26096,
    "onah": 3338,
    "language": 5129,
    "Ġinexper": 16980,
    "Ġhob": 12626,
    "Ġcondescension": 10618,
    "crimson": 24099,
    "Ġsched": 2336,
    "Ġconf": 1820,
    "ologies": 18777,
    "Ġmills": 21310,
    "Ġbay": 9168,
    "Ġeye": 2281,
    "H": 44,
    "Ġmontan": 22978,
    "Ġsending": 8774,
    "ibid": 18840,
    "Ġxviii": 23408,
    "neither": 9756,
    "terdam": 18129,
    "planted": 11694,
    "Ġrevealing": 3926,
    "going": 6313,
    "cred": 9107,
    "ambition": 13410,
    "Ġvexation": 10586,
    "Ġwarn": 5695,
    "Ġclassical": 22629,
    "Ġparallelization": 3429,
    "Ġsounded": 8590,
    "several": 5544,
    "Ġvideos": 13605,
    "Ġworldly": 16328,
    "Ġroutine": 13507,
    "Ġcoach": 6867,
    "Ġapiece": 16813,
    "Ġpol": 2576,
    "rebell": 17763,
    "Ġexpanded": 14288,
    "Ġtattoo": 7359,
    "withstand": 23022,
    "Ġpatted": 16378,
    "andromeda": 21865,
    "Ġinvective": 26181,
    "goodbye": 12054,
    "Ġsunwards": 19010,
    "squee": 15429,
    "Ġtrustees": 24107,
    "Ġbuttons": 12778,
    "evident": 25520,
    "steep": 19417,
    "Ġrealities": 18981,
    "eds": 6674,
    "Ġsho": 2246,
    "Ġrounds": 18883,
    "feit": 16040,
    "when": 1591,
    "hood": 2660,
    "Ġunderstood": 5655,
    "Ġesteem": 7531,
    "Ġpreferred": 14965,
    "Ġsecondly": 14519,
    "Ġgone": 2106,
    "Ġ66": 24369,
    "apable": 6422,
    "Ġcastaway": 16640,
    "vice": 15448,
    "baby": 25515,
    "Ġdisgrace": 7215,
    "Ġnerves": 2626,
    "incredible": 16498,
    "over": 1847,
    "enough": 6809,
    "aments": 12722,
    "jets": 20927,
    "nurse": 15207,
    "Ġadjusts": 8980,
    "Ġhandkerchief": 8913,
    "Ġparasol": 22118,
    "Ġarticle": 9501,
    "Ġscuttle": 7414,
    "Ġshrieked": 9547,
    "Ġrepublic": 14531,
    "Ġguilt": 6179,
    "Ġrestless": 10413,
    "appe": 2946,
    "Ġflash": 8229,
    "bearded": 18519,
    "Ġfrigates": 25707,
    "distrustful": 26330,
    "Ġinns": 17929,
    "cottage": 9569,
    "13": 20749,
    "Ġpostpone": 17306,
    "Ġvort": 18193,
    "Ġplu": 8798,
    "Ġbreeze": 5681,
    "Ġassigned": 16311,
    "fit": 6645,
    "Ġgame": 3629,
    "wandering": 20283,
    "Ġproject": 5546,
    "Ġchatbots": 11349,
    "Ġspeedy": 11172,
    "excitement": 19668,
    "Ġberry": 19745,
    "ining": 3222,
    "tin": 6116,
    "example": 16011,
    "Ġyourself": 2592,
    "Ġventil": 8019,
    "Ġaverred": 18864,
    "Ġscand": 7202,
    "desc": 1392,
    "Ġsovereign": 10061,
    "whale": 2139,
    "Ġinference": 9671,
    "Ġwasting": 12725,
    "Ġestimable": 23870,
    "Ġchambers": 16799,
    "mariners": 19547,
    "Ġwatches": 11081,
    "90": 12430,
    "Ġgirth": 13135,
    "information": 12391,
    "Ġrubbing": 9320,
    "Ġsaturation": 2062,
    "Ġrange": 9711,
    "mund": 13757,
    "Ġponder": 6819,
    "Ġtomorrow": 21510,
    "Ġvillages": 14747,
    "ick": 837,
    "Ġlively": 5449,
    "Ġdine": 7366,
    "Ġplaster": 16081,
    "eping": 5834,
    "|": 96,
    "entitled": 21565,
    "ouncement": 11743,
    "heavy": 10574,
    "woods": 13418,
    "Ġhappily": 9330,
    "Ġmincing": 18750,
    "Ġtacit": 21173,
    "tuning": 1584,
    "Ġto": 297,
    "Ġaz": 9629,
    "ufact": 10733,
    "orter": 4258,
    "Ġfidgeted": 25889,
    "Ġwindward": 6885,
    "striving": 24669,
    "Ġgod": 1937,
    "mechanically": 17299,
    "Ġjohnson": 18409,
    "anks": 3918,
    "ele": 9114,
    "postp": 24634,
    "Ġthank": 3792,
    "Ġdeclaration": 16636,
    "Ġest": 2266,
    "Ġgang": 9207,
    "Ġheap": 12675,
    "Ġdiscredit": 22780,
    "steak": 14707,
    "jury": 15372,
    "Ġcrazy": 8592,
    "Ġtrappers": 23078,
    "rev": 17756,
    "Ġunbelief": 22046,
    "lamps": 25260,
    "zing": 7820,
    "Ġxxxvi": 24969,
    "roll": 9196,
    "ruit": 22174,
    "Ġpow": 4638,
    "Ġemperors": 15158,
    "ead": 2598,
    "p": 84,
    "Ġhumorousness": 25377,
    "loaded": 22509,
    "Ġensued": 11394,
    "adays": 14012,
    "stately": 18021,
    "boiling": 19000,
    "Ġsandwiched": 26610,
    "initely": 7568,
    "Ġraving": 16113,
    "Ġwounded": 8657,
    "Ġsurrey": 14559,
    "ice": 590,
    "lifted": 15385,
    "Ġrecklessness": 24745,
    "Ġstrict": 7222,
    "Ġlatest": 16822,
    "Ġslighted": 16567,
    "Ġcounty": 9030,
    "Ġreverend": 15258,
    "erranean": 9333,
    "repressed": 21242,
    "stopping": 19348,
    "Ġreproachfully": 25251,
    "wart": 17705,
    "alterable": 13623,
    "Ġincidentally": 16954,
    "Ġgambler": 26190,
    "Ġrespect": 1667,
    "Ġclapham": 17265,
    "hark": 15364,
    "relu": 17759,
    "deployment": 26527,
    "Ġproperty": 6450,
    "Ġunquestion": 18248,
    "after": 2900,
    "Ġweek": 2828,
    "Ġacquitted": 18898,
    "reported": 24493,
    "Ġfi": 933,
    "Ġlime": 13947,
    "abri": 6682,
    "too": 4508,
    "mast": 3602,
    "oth": 1185,
    "Ġemployment": 8628,
    "harbors": 20147,
    "consolatory": 25306,
    "Ġengage": 9334,
    "niest": 18987,
    "Ġuninter": 18246,
    "Ġspermacetti": 19049,
    "Ġnostrils": 10943,
    "lined": 12481,
    "Ġvertical": 16604,
    "bell": 7332,
    "Ġvivacity": 14940,
    "Ġrobes": 16258,
    "sequence": 2859,
    "carp": 9109,
    "Ġpeak": 16124,
    "subs": 14298,
    "Ġsitting": 3605,
    "roofed": 26183,
    "Ġtreatment": 12069,
    "Ġcommentators": 25229,
    "Ġbewitching": 25976,
    "Ġprognost": 15280,
    "Ġupd": 947,
    "pping": 1422,
    "Ġactivity": 7919,
    "Ġphys": 5653,
    "Ġdiscussed": 19558,
    "Ġthickness": 13276,
    "luyt": 18454,
    "Ġpoverty": 9303,
    "Ġsne": 6372,
    "Ġfond": 4755,
    "topic": 10527,
    "deav": 2674,
    "Ġzero": 1201,
    "amused": 21843,
    "itage": 17816,
    "drugg": 20837,
    "work": 1746,
    "seam": 10874,
    "Ġjib": 14193,
    "Ġarranging": 11174,
    "Ġseason": 5238,
    "canoes": 16229,
    "Ġpliny": 11823,
    "Ġcontradictory": 20395,
    "Ġparts": 4169,
    "Ġnephews": 24713,
    "Ġperv": 15988,
    "Ġinvoluntarily": 8547,
    "Ġwhoever": 10973,
    "father": 3777,
    "aux": 14287,
    "tolerable": 17688,
    "cceed": 4146,
    "nephew": 26397,
    "Ġcrust": 21349,
    "lob": 22504,
    "Ġpacked": 9979,
    "Ġfeel": 1260,
    "eluded": 21572,
    "Ġdoubt": 2222,
    "Ġspoken": 4836,
    "se": 358,
    "Ġgro": 4398,
    "anger": 2170,
    "Ġpresentation": 14480,
    "give": 4689,
    "Ġappear": 2485,
    "stupid": 12673,
    "oriously": 17874,
    "Ġinterview": 9769,
    "Ġstirs": 14916,
    "Ġchar": 1702,
    "Ġoperation": 11997,
    "numer": 15398,
    "Ġspectator": 19404,
    "cav": 17507,
    "Ġelement": 6898,
    "Ġfat": 3463,
    "Ġtimely": 19593,
    "morland": 24153,
    "Ġexasperated": 11412,
    "prim": 23808,
    "ah": 1835,
    "Ġ51": 24320,
    "announcement": 24562,
    "_)": 9101,
    "Ġbenches": 18782,
    "è": 169,
    "Ġmyst": 4052,
    "local": 22507,
    "grampus": 18616,
    "Ġignited": 25069,
    "Ġdemand": 4947,
    "Ġphysiognomically": 25612,
    "steaks": 23958,
    "Ġborders": 15569,
    "Ġfeast": 10277,
    "carte": 25400,
    "nay": 7135,
    "sequently": 14583,
    "Ġgild": 15666,
    "Ġdedu": 5584,
    "exciting": 19667,
    "Ġaw": 2511,
    "Ú": 155,
    "outer": 9668,
    "Ġposter": 14274,
    "Ġshipwreck": 20444,
    "john": 11497,
    "exam": 10976,
    "Ġpurple": 10433,
    "Ġpeeped": 10011,
    "Ġwords": 1325,
    "Ġdisgust": 6705,
    "Ġcandle": 8291,
    "94": 4803,
    "Ġguar": 23043,
    "tal": 17670,
    "Ġerrone": 14429,
    "disinterested": 23499,
    "Ġsanguine": 25928,
    "Ġexhibit": 14955,
    "Û": 156,
    "ang": 444,
    "Ġmat": 1150,
    "Ġemblazonings": 26046,
    "secut": 7866,
    "resc": 21237,
    "Ġagency": 11804,
    "subject": 6631,
    "apse": 14198,
    "Ġnods": 19062,
    "Ġharpoons": 5659,
    "Ġdespondence": 25869,
    "Ġinteresting": 4327,
    "coloured": 7291,
    "Ġreluct": 14371,
    "Ġawkwardness": 13486,
    "Ġcurls": 22966,
    "Ġimpressions": 9552,
    "Ġrevers": 21661,
    "Ġarticles": 7108,
    "ì": 173,
    "Ġpondered": 15165,
    "Ġlangs": 13953,
    "Ġhapless": 15810,
    "absurd": 21792,
    "Ġpanted": 21470,
    "Ġodorous": 19565,
    "wn": 720,
    "Ġbutler": 18270,
    "imp": 3034,
    "Ġlump": 21549,
    "Ġbell": 4636,
    "spanish": 14333,
    "Ġforesaw": 19127,
    "Ġlingered": 13504,
    "ĠĠĠĠĠĠĠĠĠĠĠĠĠĠĠĠĠĠĠĠĠĠ": 16225,
    "Ġmoderate": 10939,
    "Ġveneration": 25044,
    "Ġsurviv": 13434,
    "Ġmanoir": 22328,
    "Ġunde": 11710,
    "aits": 20765,
    "fulfil": 16034,
    "..": 5783,
    "Ġdifferently": 10388,
    "Ġnook": 15926,
    "cru": 7126,
    "increas": 10454,
    "Ġhunsford": 6301,
    "Ġ14": 9322,
    "Ġturbul": 23611,
    "cul": 1900,
    "Ġprotested": 9933,
    "ash": 1990,
    "Ġcucumber": 21354,
    "Ġmeasure": 3594,
    "E": 41,
    "est": 502,
    "Ġveil": 7933,
    "Ġcourtiers": 24137,
    "Ġmerited": 23729,
    "Ġparading": 23709,
    "quarters": 24946,
    "Ġquohog": 10972,
    "Ġprecip": 7074,
    "pherd": 13643,
    "7": 27,
    "Ġshilling": 18228,
    "iscuit": 10598,
    "Ġdefend": 9339,
    "Ġincess": 8430,
    "Ġens": 2787,
    "Ġmultiplicity": 19274,
    "Ġhighland": 18714,
    "Ġpolluted": 25593,
    "Ġquadrant": 11404,
    "presbyter": 20616,
    "Ġsurrender": 16449,
    "Ġstretch": 6993,
    "Ġnormalization": 1242,
    "Ġaccents": 14210,
    "Ġabout": 632,
    "Ġejac": 10203,
    "Ġdespite": 19351,
    "uesday": 8587,
    "Ġgems": 9208,
    "Ġdie": 3963,
    "Ġenough": 1761,
    "land": 1534,
    "lestrade": 9656,
    "Ġsed": 10761,
    "Ġaware": 5756,
    "Ġformality": 22825,
    "Ġsplashing": 16550,
    "Ġintegrity": 12311,
    "Ġheathen": 10565,
    "Ġendeavour": 4678,
    "Ġprocure": 9509,
    "Ġ1846": 26084,
    "Ġhoney": 12629,
    "È": 137,
    "Ġslew": 23381,
    "Ġfritters": 23254,
    "stubb": 6017,
    "Ġleatherhead": 20012,
    "Ġinsensibility": 17110,
    "Ġmanip": 8871,
    "Ġsuppose": 2869,
    "inent": 9628,
    "lowering": 16027,
    "Ġelephants": 9863,
    "took": 6164,
    "Ġgu": 1328,
    "Ġ124": 24469,
    "Ġfelicity": 7260,
    "Ġaccursed": 9444,
    "enth": 6680,
    "Ġunprejudiced": 18269,
    "Ġoscillations": 2902,
    "Ġwhipping": 21713,
    "Ġendeavor": 16545,
    "Ġdestro": 3723,
    "murder": 10564,
    "Ġamply": 22479,
    "zening": 21147,
    "Ġryder": 10258,
    "Ġwhose": 2006,
    "Ġinvaders": 23479,
    "ĠĠĠĠĠĠĠĠĠĠĠĠĠĠĠĠĠĠĠĠĠĠĠĠĠ": 24442,
    "mud": 20970,
    "Ġprojected": 16871,
    "employed": 17261,
    "Ġshave": 21993,
    "Ġinto": 648,
    "Ġbiological": 1934,
    "intelligence": 5882,
    "Ġmons": 10156,
    "Ġsleeve": 20139,
    "Ġdrowned": 9551,
    "Ġescape": 2648,
    "Ġdiamond": 15596,
    "Ġfearfully": 23509,
    "pile": 17629,
    "Ġunc": 2123,
    "Ġspades": 12793,
    "middle": 11310,
    "mansion": 20982,
    "Ġoverheard": 11772,
    "Ġmetropol": 11144,
    "Ġliterature": 17148,
    "Ġmace": 21308,
    "Ġthickly": 12113,
    "Ġhandles": 22692,
    "aceti": 7111,
    "Ġgle": 7858,
    "Ġfelt": 1745,
    "benevol": 12224,
    "ament": 2440,
    "Ġpuzzled": 7317,
    "frost": 15105,
    "Ġreproached": 24891,
    "Ġbench": 7238,
    "Ġpaints": 23521,
    "conqu": 14244,
    "Ġrelieve": 8222,
    "Ġbodiless": 24226,
    "Ġlevelled": 11284,
    "furn": 10091,
    "usoid": 4767,
    "glance": 16587,
    "Ġnamely": 20688,
    "Ġcommenced": 8531,
    "sweetly": 25134,
    "Ġinexpressible": 17332,
    "noticed": 14341,
    "Ġaustrian": 24300,
    "Ġpartaking": 22694,
    "Ġswears": 16462,
    "Ġinterrupt": 4361,
    "Ġrepent": 9862,
    "boone": 23251,
    "investigations": 25533,
    "ette": 15656,
    "Ġexerted": 15752,
    "Ġpropont": 16348,
    "Ġcaut": 6521,
    "Ġadvisable": 11442,
    "Ġwretched": 4082,
    "interchange": 23737,
    "Ġcolleague": 17159,
    "pher": 11511,
    "wore": 21123,
    "ate": 422,
    "Ġfresh": 3670,
    "ician": 21562,
    "Ġhappiest": 11880,
    "Ġscor": 8188,
    "Ġbrings": 11878,
    "Ġmillion": 14986,
    "Ġfrosts": 19801,
    "Ġinterpre": 1590,
    "Ġincommunicable": 26611,
    "elope": 14466,
    "Ġpositional": 2596,
    "secret": 12234,
    "Ġquill": 12854,
    "Ġchapel": 9522,
    "iza": 6255,
    "kings": 17583,
    "Ġrim": 21965,
    "descending": 16283,
    "Ġpencil": 11941,
    "Ġ122": 24467,
    "forgive": 18726,
    "ahab": 4292,
    "aborate": 14021,
    "ama": 11676,
    "threadbare": 25989,
    "Ġforgiven": 24024,
    "den": 940,
    "Ġhail": 7400,
    "included": 19207,
    "accessory": 25499,
    "Ġbrigs": 20321,
    "Ġloggerhead": 13656,
    "Ġankles": 17899,
    "country": 6103,
    "Ġcho": 4548,
    "Ġcleans": 18947,
    "Ġdong": 17887,
    "Ġaries": 21196,
    "Ġdifferent": 1425,
    "Ġsufferer": 16257,
    "Ġrotation": 25474,
    "Ġunwaning": 25170,
    "itute": 9651,
    "hammer": 14489,
    "cable": 20796,
    "isms": 12577,
    "Ġshrouds": 11344,
    "Ġmorning": 1748,
    "Ġunre": 3480,
    "young": 7321,
    "brother": 7091,
    "glass": 9908,
    "Ġtheoretic": 23309,
    "Ġresembling": 4101,
    "Ġsuperiors": 23454,
    "Ġashen": 21896,
    "Ġthrice": 10575,
    "Ġpoky": 21477,
    "Ġmanif": 8870,
    "Ġ(`": 12849,
    "Ġown": 1005,
    "Ġen": 392,
    "Ġjung": 12833,
    "Ġvoid": 14085,
    "Ġluckily": 16798,
    "Ġunfrequ": 19507,
    "prepar": 22463,
    "Ġcourt": 4173,
    "appeared": 4284,
    "Ġ135": 24785,
    "Ġjapan": 7639,
    "Ġtastes": 15476,
    "rack": 18010,
    "Ġopens": 23625,
    "Ġmagnus": 18957,
    "Ġmr": 661,
    "Ġfaintest": 24569,
    "arent": 4252,
    "sticks": 25965,
    "Ġ81": 24457,
    "andering": 21864,
    "Ġclos": 4550,
    "Ġtoler": 7588,
    "Ġdoxology": 22241,
    "nnight": 20992,
    "Ġfigured": 16643,
    "ultaneously": 4196,
    "ĠĠĠĠĠĠĠĠĠĠĠĠĠĠĠĠĠĠĠĠĠĠĠĠĠĠĠĠĠĠĠĠĠĠĠĠĠĠĠĠĠĠ": 24209,
    "soldiers": 25911,
    "Ġn": 300,
    "Ġtet": 21156,
    "Ġ68": 24370,
    "activity": 22628,
    "Ġimmeas": 18330,
    "towns": 24854,
    "ct": 309,
    "Ġauthors": 10416,
    "Ġtun": 5998,
    "notwithstanding": 22749,
    "mention": 7214,
    "Ġhun": 1498,
    "ato": 17769,
    "amore": 21840,
    "Ġschedu": 1824,
    "Ġpad": 8124,
    "glanced": 19364,
    "Ġserious": 4323,
    "Ġlab": 1871,
    "asses": 7016,
    "comprehensive": 20625,
    "Ġdisgraceful": 15019,
    "Ġname": 2082,
    "Ġwel": 4528,
    "Ġthickening": 24021,
    "Ġsplashed": 23746,
    "romising": 18233,
    "Ġabhorrent": 16856,
    "plex": 708,
    "Ġjog": 18404,
    "Ġpacific": 5153,
    "ishnoo": 10955,
    "Ġrascal": 11699,
    "Ë": 140,
    "draul": 9442,
    "Ġsupplement": 22999,
    "Ġabomination": 22285,
    "hist": 7130,
    "avings": 12021,
    "evade": 24820,
    "Ġcrop": 10162,
    "Ġhoping": 11103,
    "Ġbrixton": 13662,
    "ows": 1917,
    "atiable": 17774,
    "Ġprofessors": 14724,
    "dripping": 16905,
    "Ġproportions": 16467,
    "Ġcorrection": 5062,
    "sharks": 14239,
    "modern": 1203,
    "preservation": 25305,
    "Ġswelled": 11087,
    "Ġpreacher": 18369,
    "swift": 14851,
    "Ġforget": 2635,
    "Ġjiff": 22293,
    "Ġreservo": 16831,
    "soundest": 24797,
    "Ġfow": 6133,
    "Ġtopic": 9405,
    "ensing": 12893,
    "Ġappeased": 23194,
    "Ġblacks": 23386,
    "59": 17473,
    "forced": 11031,
    "Ġpitched": 9443,
    "Ġsmoothe": 23658,
    "Ġminds": 6303,
    "Ġ107": 24415,
    "clopÃ¦": 13053,
    "burst": 10537,
    "Ġisolation": 17150,
    "Ġdriver": 16473,
    "classes": 12133,
    "Ġjove": 9267,
    "ouble": 2662,
    "Ġnotorious": 18223,
    "tell": 1377,
    "Ġfordham": 21773,
    "disposition": 10041,
    "ifications": 9728,
    "fav": 6646,
    "Ġancles": 21444,
    "zag": 17713,
    "neath": 12863,
    "oubled": 23648,
    "Ġfourth": 7706,
    "ieces": 4772,
    "Ġvariation": 22662,
    "iber": 6506,
    "Ġhumane": 11882,
    "Ġgrease": 26189,
    "sick": 13783,
    "eh": 13709,
    "Ġcrashes": 13124,
    "Ġsqueezing": 25006,
    "Ġhump": 5853,
    "clergyman": 20728,
    "humoredly": 26324,
    "Ġrelinqu": 12979,
    "hooked": 23714,
    "ains": 5094,
    "Ġfiendish": 13326,
    "Ġingratitude": 17468,
    "ears": 20844,
    "securing": 19812,
    "Ġfeedforward": 2326,
    "list": 7551,
    "property": 19998,
    "Ġexplanatory": 22199,
    "Ġcanvas": 7783,
    "Ġstabbing": 20302,
    "Ġdissatisfied": 14256,
    "Ġrat": 4355,
    "Ġsto": 1501,
    "Ġhan": 15615,
    "vineyard": 25421,
    "Ġtortoise": 16908,
    "ult": 723,
    "jar": 17577,
    "pulled": 25145,
    "Ġupdating": 2690,
    "Ġstop": 2501,
    "thither": 21980,
    "oop": 10715,
    "hertfordshire": 10936,
    "Ġourselves": 5127,
    "Ġmarried": 3407,
    "tained": 4407,
    "parable": 16389,
    "octial": 20003,
    "Ġpew": 9314,
    "moment": 3579,
    "Ġscenari": 22270,
    "Ġcleaving": 23178,
    "Ġaskance": 23145,
    "Ġgestic": 21605,
    "inese": 12876,
    "valuable": 8245,
    "Ġgrosvenor": 17417,
    "Ġlobster": 11389,
    "arned": 21814,
    "Ġspending": 10923,
    "Ġvalleys": 14918,
    "Ġdipping": 15589,
    "Ġapprehens": 5682,
    "Ġlandsc": 11146,
    "inian": 21181,
    "ington": 21300,
    "punct": 20191,
    "ateral": 19375,
    "prof": 7698,
    "Ġerror": 1765,
    "Ġgordon": 26467,
    "oubtedly": 6943,
    "wide": 10137,
    "Ġbed": 2143,
    "Ġxli": 14542,
    "introdu": 8937,
    "congratulations": 20278,
    "Ġfitly": 23996,
    "auley": 22618,
    "remains": 10398,
    "save": 13784,
    "Ġsewing": 21958,
    "Ġriver": 5411,
    "Ġthat": 335,
    "Ġpurchases": 24756,
    "Ġboat": 1277,
    "Ġsigned": 11177,
    "Ġmouldings": 24737,
    "Ġped": 6817,
    "Ġd": 284,
    "agre": 18164,
    "or": 282,
    "Ġpersonified": 19177,
    "etah": 12658,
    "aloes": 21499,
    "belated": 24035,
    "Ġfoundation": 4235,
    "inde": 17731,
    "Ġquadrille": 13540,
    "Ġcentre": 5123,
    "Ġsaf": 4003,
    "!âĢĶâĢĻ": 23564,
    "Ġwitt": 17783,
    "Ġlandsman": 11350,
    "Ġmud": 11572,
    "source": 11525,
    "Ġscandalous": 24878,
    "ierce": 14390,
    "Ġgid": 13961,
    "satisfaction": 9991,
    "Ġhunch": 18934,
    "Ġtho": 21511,
    "Ġlives": 4826,
    "Ġmonoman": 7938,
    "Ġhumph": 22878,
    "herald": 22202,
    "Ġunderground": 18984,
    "constellation": 24607,
    "?_âĢĿ": 12314,
    "murdered": 12200,
    "sebastian": 21817,
    "Ġfurniture": 6476,
    "acey": 7649,
    "Ġimport": 1047,
    "Ġfunctional": 3048,
    "Ġstum": 21728,
    "ructure": 754,
    "Ġclubb": 22348,
    "Ġappertaining": 26533,
    "sue": 2076,
    "oblivious": 26582,
    "remembrance": 25702,
    "quake": 11679,
    "sul": 15420,
    "phys": 18707,
    "breaking": 14763,
    "Ġfacilitate": 26098,
    "Ġpoltroon": 26598,
    "attery": 18507,
    "Ġgurgling": 17445,
    "Ġdives": 17890,
    "Ġabatement": 22283,
    "Ġhero": 5715,
    "voyages": 24855,
    "Ġbeque": 18080,
    "Ġsolely": 9909,
    "Ġstreet": 2959,
    "Ġ134": 24784,
    "Ġ13": 6718,
    "Ġwallowed": 24040,
    "Ġguests": 12285,
    "oin": 17617,
    "last": 3803,
    "stee": 21648,
    "¯": 112,
    "Ġhailing": 11691,
    "reas": 989,
    "ission": 6457,
    "Ġdeceitfulness": 25734,
    "cri": 17505,
    "Ġwhereas": 3855,
    "Ġstead": 5650,
    "Ġexchanging": 18131,
    "scotch": 25847,
    "amed": 4449,
    "trip": 21090,
    "mbles": 23086,
    "broke": 14775,
    "Ġwasted": 9703,
    "Ġsurmis": 23462,
    "Ġgeomet": 3193,
    "Ġstoke": 10395,
    "Ġcondensed": 24050,
    "urred": 8449,
    "perhaps": 4126,
    "grim": 19106,
    "Ġlikewise": 5386,
    "Ġdelivered": 11116,
    "Ġmemory": 2275,
    "writing": 7720,
    "Ġsenate": 25214,
    "same": 5361,
    "alike": 17942,
    "Ġlonged": 6436,
    "Ġfilled": 4396,
    "Ġaxe": 15061,
    "Ġdexterity": 25294,
    "relatively": 24011,
    "lection": 3653,
    "bermaid": 20789,
    "accuracy": 9878,
    "Ġuncomfortable": 8485,
    "Ġsouthwards": 19632,
    "Ġobsolete": 26558,
    "Ġpractical": 3166,
    "planks": 21951,
    "Ġol": 17814,
    "Ġhip": 17920,
    "Ġsound": 2242,
    "Ġvirginia": 13499,
    "Ġgardens": 16452,
    "Ġenjoined": 18191,
    "Ġinvented": 17037,
    "Ġantichron": 24181,
    "comfortable": 7320,
    "civility": 17513,
    "):": 11461,
    "Ġexcellence": 11451,
    "Ġanom": 12608,
    "Ġlevels": 12695,
    "Ġkith": 22189,
    "ention": 858,
    "atha": 6572,
    "Ġfossils": 20221,
    "happily": 14657,
    "Ġmatrix": 1605,
    "Ġprejudice": 9075,
    "Ġbridges": 24682,
    "Ġepicurean": 20554,
    "Ġfatality": 12092,
    "Ġsubjects": 7072,
    "Ġruth": 14093,
    "Ġday": 959,
    "Ġglen": 18851,
    "haust": 5777,
    "Ġdecision": 2676,
    "Ġabandonment": 25603,
    "arab": 21439,
    "ign": 1701,
    "Ġcoverage": 4290,
    "offer": 19060,
    "flagged": 23969,
    "Ġdes": 1251,
    "unted": 6998,
    "worse": 14690,
    "Ġsuperseded": 26223,
    "Ġluxurious": 17310,
    "Ġrestraint": 15126,
    "Ġcomplicated": 14734,
    "gorith": 550,
    "Ġconsolidation": 5060,
    "Ġassume": 10515,
    "enses": 10994,
    "Ġmagnifying": 16319,
    "yourself": 6742,
    "Ġnice": 6676,
    "Ġinherit": 25352,
    "Ġwrithed": 17106,
    "Ġgaunt": 11268,
    "Ġploughed": 22602,
    "f": 74,
    "Ġxerxes": 23409,
    "Ġundaunted": 24120,
    "Ġretiring": 16279,
    "appear": 13197,
    "Ġprey": 6415,
    "Ġshowers": 16605,
    "Ġeighty": 19474,
    "Ġweakened": 16823,
    "verty": 8452,
    "Ġkettle": 26232,
    "Ġdisregard": 22525,
    "ulsive": 10233,
    "Ġdisorder": 16049,
    "Ġcommanders": 23866,
    "Ġhighlands": 22775,
    "Ġconve": 5455,
    "Ġmiles": 3804,
    "Ġfirst": 939,
    "Ġmonstr": 7667,
    "Ġpurport": 14581,
    "cer": 6642,
    "ucket": 2484,
    "gaining": 20122,
    "approach": 24833,
    "Ġbedfellow": 16436,
    "Ġangrily": 9406,
    "aved": 5475,
    "square": 15059,
    "Ġrambling": 18646,
    "Ġdespairing": 14772,
    "Ġenveloping": 19733,
    "warnings": 20350,
    "Ġtells": 9361,
    "Ġstagger": 10591,
    "letters": 13173,
    "Ġdiminishing": 4211,
    "Ġsmells": 8889,
    "Ġgoble": 14229,
    "Ġrabbit": 4291,
    "nt": 921,
    "Ġdisconsolate": 20718,
    "Ġmarvellous": 7538,
    "cheerful": 13574,
    "onic": 7827,
    "Ġrefine": 2818,
    "anyth": 5438,
    "]": 65,
    "Ġtinker": 15130,
    "Ġdepart": 4657,
    "Ġpicturesqueness": 24480,
    "tland": 21072,
    "Ġabed": 22272,
    "mark": 5281,
    "Ġgather": 6534,
    "rop": 541,
    "Ġroute": 11381,
    "itions": 4152,
    "ivil": 6411,
    "quely": 10231,
    "Ġrope": 4340,
    "rimsh": 17027,
    "Ġdiscreet": 16482,
    "Ġ56": 24324,
    "Ġfatt": 15576,
    "Ġfath": 7364,
    "disciple": 16778,
    "Ġinvariably": 8063,
    "voice": 7816,
    "rocious": 21536,
    "Ġconsulting": 13428,
    "Ġahead": 6662,
    "Ġparalle": 1408,
    "Ġsymptoms": 8704,
    "stave": 21646,
    "actions": 8906,
    "want": 8765,
    "pitchpoling": 25725,
    "Ġdoran": 9179,
    "Ġarrested": 9560,
    "line": 1438,
    "Ġvectors": 1770,
    "traced": 19636,
    "========": 2311,
    "Ġinsince": 23678,
    "Ġtriumphantly": 11287,
    "Ġexclaimed": 4683,
    "Ġcordial": 16835,
    "Ġtowing": 9193,
    "fr": 4804,
    "cowardly": 25749,
    "Ġagile": 22510,
    "contemplated": 20457,
    "Ġaccompl": 5167,
    "Ġadjacent": 20710,
    "Ġimmediately": 3366,
    "Ġswung": 6449,
    "Ġenrolled": 21934,
    "iluvian": 18060,
    "ju": 13740,
    "Ġturkey": 19219,
    "Ġdataset": 12813,
    "belonged": 25597,
    "Ġguernsey": 9350,
    "ement": 1503,
    "Ġcomplet": 4424,
    "Ġshorter": 4499,
    "Ġuninjured": 22053,
    "Ġyanke": 18097,
    "Ġhorsey": 24249,
    "!_âĢĿ": 11376,
    "Ġchanged": 5243,
    "larking": 17594,
    "ary": 988,
    "avo": 8517,
    "Ġspir": 2430,
    "Ġconting": 18472,
    "Ġdru": 8421,
    "recursion": 13327,
    "Ġkneeling": 12140,
    "Ġsuperior": 2753,
    "Ġbrimstone": 25686,
    "Ġbrowne": 13300,
    "charming": 15703,
    "Ġomniscient": 20084,
    "Ġ93": 24591,
    "six": 7141,
    "Ġwigwam": 11428,
    "'t": 3147,
    "Ġlatterly": 24084,
    "Ġalco": 21779,
    "Ġshadowed": 24043,
    "ances": 1336,
    "Ġamber": 7026,
    "Ġindependence": 12102,
    "utch": 21583,
    "Ġexpressly": 16453,
    "Ġast": 2962,
    "Ġmilitary": 11258,
    "merged": 11194,
    "cerem": 15675,
    "heavily": 24534,
    "hands": 5966,
    "Ġark": 10276,
    "Ġexempl": 21827,
    "iven": 1236,
    "Ġhappening": 14382,
    "Ġcaptains": 7457,
    "sitting": 8386,
    "Ġpr": 1598,
    "Ġsevent": 18202,
    "Ġfavourable": 7958,
    "Ġgun": 4702,
    "Ġsailing": 5323,
    "Ġmisty": 16540,
    "impatient": 13639,
    "Ġaff": 1119,
    "northern": 23667,
    "Ġfished": 21408,
    "Ġgentlemanlike": 12064,
    "Ġreverber": 19868,
    "Ġgrim": 7439,
    "Ġmoses": 21314,
    "Ġmess": 7831,
    "display": 19154,
    "hement": 13831,
    "Ġparty": 3512,
    "Ġsauntering": 18327,
    "coffin": 10662,
    "Ġcomplement": 23708,
    "ceremony": 20588,
    "warmest": 25027,
    "Ġrates": 1403,
    "Ġlav": 13949,
    "onious": 15517,
    "Ġcrutch": 23445,
    "Ġgib": 13964,
    "Ġcolonel": 3406,
    "Ġfocuses": 8649,
    "Ġborn": 5224,
    "Ġavowal": 19413,
    "Ġedges": 3825,
    "Ġdecisions": 6702,
    "Ġbars": 13896,
    "Ġtendinous": 16931,
    "Ġeaves": 15673,
    "Ġamphitheat": 26252,
    "Ġsecured": 6745,
    "ĠĠĠĠĠĠĠĠĠĠĠĠĠĠĠĠĠĠĠĠĠĠĠĠĠĠĠĠĠĠ": 24443,
    "Ġhairs": 13229,
    "âĢĿ)": 21808,
    "upwards": 18863,
    "Ġforg": 3788,
    "Ġflitting": 13023,
    "cordiality": 25137,
    "Ġholidays": 22919,
    "Ġduties": 6609,
    "Ġgoal": 10301,
    "ckery": 22087,
    "flowing": 14558,
    "Ġload": 14145,
    "Ġuprising": 12799,
    "Ġsidelong": 11438,
    "cen": 17502,
    "scor": 13017,
    "Ġmonsieur": 12419,
    "Ġabuse": 18397,
    "ustration": 2260,
    "Ġferocity": 16866,
    "ads": 5718,
    "Ġgifts": 21609,
    "Ġabruptness": 25300,
    "arms": 10173,
    "Ġexecutors": 19532,
    "waiting": 12218,
    "quite": 4647,
    "Ġpeculiarly": 8286,
    "likes": 18814,
    "ded": 2422,
    "ians": 2358,
    "knew": 9126,
    "Ġaffidav": 18789,
    "Ġfins": 9663,
    "Ġhysterics": 26093,
    "Ġgratification": 24095,
    "Ġsurest": 19054,
    "Ġnarwhales": 24902,
    "Ġstir": 5823,
    "speaks": 19718,
    "ays": 6683,
    "Ġsubtle": 6716,
    "Ġmovements": 24359,
    "Ġhat": 2771,
    "Ġsketch": 16163,
    "Ġpassenger": 14369,
    "Ġhem": 8445,
    "Ġwaist": 6892,
    "Ġwidespread": 20674,
    "Ġjealous": 9468,
    "þ": 191,
    "Ġsagacious": 14970,
    "Ġendeared": 26498,
    "threaten": 25461,
    "tram": 19634,
    "Ġsits": 10768,
    "Ġjapanese": 10632,
    "befall": 22492,
    "bler": 11472,
    "inated": 6804,
    "Ġ88": 19710,
    "Ġbar": 3150,
    "utions": 1889,
    "interview": 19298,
    "Ġaccustomed": 6861,
    "gossip": 23402,
    "orial": 8416,
    "goodness": 19288,
    "Ġtobacc": 7852,
    "Ġskrimshander": 22796,
    "distraction": 24200,
    "round": 3368,
    "sheep": 23083,
    "landsmen": 25059,
    "Ġtamer": 24976,
    "Ġextensive": 12938,
    "Ġrekindled": 21674,
    "marvell": 24172,
    "ging": 2599,
    "Ġumb": 11645,
    "inex": 14091,
    "Ġmurky": 19200,
    "Ġbarbarous": 13475,
    "Ġgrapple": 25811,
    "Ġsharpened": 17364,
    "Ġstung": 21735,
    "peculiar": 6886,
    "Ġsoda": 25534,
    "Ġbefall": 8828,
    "Ġliterally": 15115,
    "ware": 3936,
    "fortunate": 4792,
    "Ġsult": 10767,
    "Ġcoolness": 16886,
    "Ġpropriety": 10009,
    "discredit": 24250,
    "endar": 18362,
    "Ġvarieties": 14309,
    "Ġrelu": 1045,
    "Ġlucky": 7758,
    "rix": 1576,
    "very": 499,
    "stars": 18019,
    "Ġsneeze": 24699,
    "Ġtheirs": 7024,
    "Ġdeliriously": 23227,
    "Ġstiffest": 24829,
    "Ġcorrid": 9823,
    "Ġharvard": 24573,
    "Ġcurse": 7666,
    "Ġequator": 7461,
    "thine": 15822,
    "Ġcheshire": 13088,
    "cor": 5520,
    "cou": 13694,
    "Ġtranquillity": 7536,
    "Ġlass": 15645,
    "Ġobtain": 8914,
    "oul": 4699,
    "Ġobsequ": 14319,
    "Ġrobert": 10970,
    "ald": 15622,
    "suspended": 15176,
    "Ġanchored": 17439,
    "Ġmuster": 16120,
    "ppo": 18175,
    "Ġtheatre": 21277,
    "dressed": 10695,
    "Ġhold": 2244,
    "Ġdislike": 6047,
    "ich": 470,
    "really": 6971,
    "Ġclaw": 22347,
    "antucket": 2645,
    "cut": 3126,
    "?": 35,
    "ĠĠĠĠĠĠĠĠĠĠĠĠĠĠĠĠĠĠĠĠĠĠĠĠĠĠĠĠĠĠĠĠĠĠĠĠĠ": 14614,
    "Ġlimbs": 5965,
    "Ġcheerily": 13306,
    "ubines": 22956,
    "Ġslid": 7951,
    "Ġbo": 796,
    "float": 19804,
    "ain": 343,
    "Ġ200": 19295,
    "Ġexclamation": 8698,
    "assistance": 20369,
    "dissatisf": 26129,
    "Ġblows": 5972,
    "Ġplants": 22595,
    "Ġcylinders": 25943,
    "Ġstyle": 6946,
    "but": 592,
    "Ġmaddened": 17244,
    "fra": 8374,
    "Ġdetect": 1210,
    "Ġduration": 20352,
    "Ġtener": 21162,
    "gro": 10094,
    "Ġachieved": 13165,
    "Ġcargo": 16288,
    "Ġtorrent": 17092,
    "keenest": 25661,
    "Ġsufficient": 2001,
    "Ġadviser": 25312,
    "xes": 21139,
    "Ġtravellers": 11308,
    "0": 20,
    "Ġloveliest": 20260,
    "mantel": 26394,
    "Ġglide": 22981,
    "dles": 11480,
    "inf": 6232,
    "windows": 19533,
    "Ġturnpike": 23024,
    "Ġinsensibly": 20074,
    "Ġpunctures": 25133,
    "Ġtestament": 23225,
    "icket": 22665,
    "Ġbressed": 21385,
    "pot": 10117,
    "sided": 17664,
    "Ġplate": 8898,
    "Ġrh": 9243,
    "unken": 10236,
    "Ġnom": 21516,
    "nowadays": 22335,
    "Ġscorched": 17101,
    "Ġblacksmith": 6595,
    "Ġign": 8293,
    "Ġgranting": 18737,
    "Ġbrotherly": 16528,
    "furnished": 20240,
    "saved": 15430,
    "pole": 9332,
    "row": 1066,
    "tail": 8761,
    "follows": 24528,
    "Ġstanders": 19013,
    "spoutings": 25001,
    "Ġsounding": 8264,
    "Ġgases": 21599,
    "Ġprovide": 7749,
    "frightened": 17195,
    "Ġattentive": 9033,
    "Ġsepar": 4001,
    "Ġairth": 23316,
    "Ġreusability": 13557,
    "Ġgrated": 22801,
    "miniature": 16765,
    "Ġmeas": 1096,
    "Ġbelf": 21379,
    "Ġrazors": 22660,
    "Ġpromotion": 23191,
    "Ġcabinets": 23860,
    "duodecimo": 16000,
    "Ġtolerably": 8067,
    "Ġchicha": 15934,
    "lydon": 13988,
    "Ġconversed": 13187,
    "Ġcatholic": 20680,
    "ister": 1295,
    "remark": 7261,
    "Ġhastening": 19335,
    "Ġincreas": 1691,
    "Ġpresc": 15923,
    "Ġrains": 24340,
    "Ġyork": 11664,
    "Ġextant": 18680,
    "verd": 21724,
    "Ġcongenial": 12409,
    "adr": 6994,
    "Ġloathing": 15066,
    "Ġaudacious": 13459,
    "breathing": 25335,
    "Ġletting": 10362,
    "Ġobservation": 6597,
    "fee": 12877,
    "Ġgrapp": 14100,
    "Ġensue": 18190,
    "Ġbooks": 4676,
    "Ġl": 303,
    "lect": 1222,
    "Ġstores": 18068,
    "measure": 10030,
    "Ġrephrased": 26477,
    "Ġsuperstitious": 13519,
    "gust": 6360,
    "agos": 21901,
    "Ġhearts": 4972,
    "Ġnoting": 18221,
    "rendering": 22337,
    "Ġequatorial": 13508,
    "Ġsolemnisation": 24114,
    "intended": 11066,
    "Ġalarm": 4049,
    "hyp": 15365,
    "Ġmelting": 24288,
    "Ġsuits": 22073,
    "Ġsiberia": 26161,
    "bale": 20773,
    "Ġaffectation": 14439,
    "Ġcruelly": 13374,
    "painted": 17639,
    "adequ": 11020,
    "Ġsorrows": 13353,
    "Ġstepfather": 7221,
    "Ġwoof": 14720,
    "furthermore": 20002,
    "Ġvelv": 10619,
    "Ġaccept": 4412,
    "oons": 12496,
    "Ġpeeling": 22689,
    "Ġsmallest": 6430,
    "Ġfifth": 11257,
    "Ġcharges": 23265,
    "Ġpartiality": 9397,
    "elius": 13286,
    "taller": 26150,
    "Ġjesty": 18405,
    "say": 3985,
    "Ġexceed": 1344,
    "Ġcarpets": 18902,
    "ornamented": 26595,
    "Ġspaces": 3113,
    "itche": 7578,
    "piling": 15414,
    "Ġplay": 2625,
    "ilburn": 18059,
    "Ġob": 861,
    "ounding": 22390,
    "Ġnaturalists": 10361,
    "ology": 1602,
    "Ġicicles": 25264,
    "Ġscarce": 8621,
    "Ġdragon": 14943,
    "Ġtroublesome": 23999,
    "Ġhur": 2099,
    "Ġtou": 15465,
    "Ġargue": 16783,
    "Ġdears": 18139,
    "uther": 8816,
    "ii": 4016,
    "mess": 13752,
    "armed": 7251,
    "ryphon": 4167,
    "Ġreckon": 19869,
    "spouting": 25000,
    "Ġporch": 19679,
    "requent": 3650,
    "practical": 17221,
    "Ġascended": 8665,
    "initions": 21186,
    "inch": 10755,
    "door": 6193,
    "agne": 21902,
    "sledge": 21056,
    "Ġdented": 17891,
    "appears": 12058,
    "Ġespe": 21154,
    "Ġbass": 17855,
    "Ġguardians": 14942,
    "Ġinflict": 15001,
    "Ġpotent": 12062,
    "Ġstocks": 23173,
    "Ġdividing": 12109,
    "branch": 23577,
    "hun": 5210,
    "Ġsing": 3076,
    "Ġundergone": 18985,
    "Ġchronic": 9928,
    "Ġconverts": 2805,
    "impl": 21704,
    "Ġinterconnected": 1337,
    "moil": 22700,
    "Ġmarvelled": 18873,
    "warm": 8101,
    "cavity": 26126,
    "Ġplanks": 5563,
    "domestic": 19824,
    "Ġwhirling": 12246,
    "Ġsincer": 13063,
    "Ġcrisp": 12001,
    "uniform": 18157,
    "Ġundulations": 19514,
    "Ġprincipal": 6496,
    "Ġtemper": 957,
    "orily": 15570,
    "Ġscener": 10949,
    "Ġrule": 1537,
    "Ġclass": 790,
    "Ġestim": 3349,
    "Ġpurchase": 12257,
    "Ġreceived": 2953,
    "Ġlandau": 16418,
    "rians": 21927,
    "acting": 22627,
    "transition": 24513,
    "Ġpacket": 14892,
    "spiracle": 22734,
    "pend": 6367,
    "arrange": 23764,
    "ort": 522,
    "Ġattendant": 11285,
    "Ġunfl": 22017,
    "mine": 5618,
    "comm": 7440,
    "ura": 1060,
    "Ġassailants": 20447,
    "Ġpyramid": 8801,
    "Ġvouch": 15807,
    "arus": 13911,
    "Ġfishes": 11590,
    "Ġstrokes": 16769,
    "Ġadmeasure": 18293,
    "Ġcheap": 13087,
    "Ġpoisonous": 24887,
    "Ġcrumbs": 20639,
    "Ġinanimate": 13932,
    "Ġvillanous": 24052,
    "Ġphrensy": 25124,
    "Ġcoffin": 4430,
    "Ġearlier": 9086,
    "Ġsepulchral": 25892,
    "let": 2734,
    "unable": 14058,
    "Ġmeek": 21806,
    "tarpaulins": 26405,
    "Ġoar": 6236,
    "Ġdire": 865,
    "Ġbefallen": 12341,
    "Ġour": 1007,
    "teous": 16169,
    "Ġbrawn": 10481,
    "Ġhave": 446,
    "Ġposs": 1617,
    "Ġconvulsive": 19306,
    "Ġsitu": 3497,
    "Ġirrespective": 23373,
    "pect": 1254,
    "Ġsilken": 16377,
    "Ġmixing": 24934,
    "resides": 23671,
    "Ġbird": 3757,
    "Ġmyster": 5925,
    "worm": 15452,
    "Ġdoct": 4456,
    "ĠĠĠĠĠĠĠĠĠĠĠĠĠĠĠĠĠĠĠĠĠĠĠĠĠĠĠĠĠĠĠĠ": 2739,
    "Ġpiping": 23273,
    "ving": 593,
    "Ġlethargy": 26483,
    "abling": 1077,
    "Ġrude": 7234,
    "Ġecho": 12663,
    "dis": 2251,
    "Ġcivility": 4788,
    "Ġstatistics": 1681,
    "Ġnarrowed": 24355,
    "Ġcap": 2361,
    "Ġmo": 628,
    "bre": 3980,
    "Ġepis": 19980,
    "derness": 11735,
    "Ġunprofitable": 18267,
    "Ġsordid": 26422,
    "Ġconsolation": 6208,
    "Ġtwelvemonth": 12175,
    "accounted": 16501,
    "Ġopposition": 16521,
    "Ġperth": 7022,
    "pleased": 8853,
    "Ġgoethe": 22421,
    "Ġunhallowed": 17180,
    "chose": 18040,
    "pedest": 24695,
    "Ġdoze": 14176,
    "commod": 16174,
    "Ġsymbol": 7716,
    "Ġworked": 6583,
    "ker": 5792,
    "lled": 10107,
    "fleet": 15013,
    "Ġmar": 1313,
    "Ġpatient": 6895,
    "Ġmotions": 8280,
    "Ġfob": 21407,
    "Ġslides": 18938,
    "emason": 18181,
    "fifty": 12350,
    "establish": 17392,
    "insanity": 23065,
    "Ġfretfulness": 25448,
    "Ġchurning": 15935,
    "Ġredu": 1352,
    "Ġduty": 4072,
    "incidentally": 20538,
    "Ġordered": 5832,
    "Ġdisconsol": 18557,
    "Ġcreases": 22721,
    "Ġliver": 14227,
    "Ġregardless": 19323,
    "Ġretribution": 16280,
    "russian": 22176,
    "Ġfake": 5810,
    "Ġdisembow": 22534,
    "Ġsmo": 2701,
    "meryton": 10111,
    "Ġauthorized": 16735,
    "returning": 12203,
    "rence": 5555,
    "Ę": 217,
    "Ġcruises": 23704,
    "Ġinsane": 19268,
    "required": 17030,
    "Ġquery": 2480,
    "Ġremind": 6057,
    "Ġslappin": 18942,
    "Ġremem": 4315,
    "perquisites": 26530,
    "Ġalso": 1343,
    "Ġbanquet": 15239,
    "Ġdrugg": 17119,
    "Ġresulting": 24198,
    "Ġdiscussing": 5202,
    "box": 5749,
    "unwillingly": 21881,
    "Ġdreary": 10408,
    "Ġbathed": 17865,
    "Ġtax": 13815,
    "mission": 5969,
    "nades": 20996,
    "ratches": 20123,
    "Ġrigger": 19529,
    "punctual": 26355,
    "Ġmem": 2069,
    "immense": 18052,
    "Ġbids": 24645,
    "Ġglist": 9344,
    "inkling": 16088,
    "lement": 10166,
    "Ġsympathising": 24297,
    "Ġreprehensible": 15696,
    "Ġ82": 24458,
    "Ġboldness": 24428,
    "Ġthird": 4190,
    "promontory": 24728,
    "Ġrambles": 17184,
    "fo": 5278,
    "iv": 434,
    "Ġdevotedly": 24750,
    "poise": 6171,
    "Ġtremor": 24768,
    "~": 98,
    "frequented": 25900,
    "Ġbucket": 8787,
    "Ġmurmured": 7480,
    "Ġtremulous": 14985,
    "comp": 3816,
    "Ġ183": 13236,
    "Ġgroup": 2037,
    "Ġdreaming": 11223,
    "Ġwalked": 3143,
    "Ġinformation": 1046,
    "Ġgre": 1585,
    "Ġbehalf": 14508,
    "talk": 6656,
    "Ġattend": 5036,
    "Ġbaked": 21384,
    "Ġstationary": 19693,
    "Ġenjoy": 3761,
    "Ġarches": 14162,
    "anish": 2615,
    "personal": 24963,
    "Ġbaleful": 24982,
    "humorously": 24017,
    "Ġaltern": 7394,
    "Ġwherein": 14294,
    "magnet": 14969,
    "Ġfist": 21402,
    "Ġpro": 360,
    "suspected": 12370,
    "Ġbarbaric": 10013,
    "remarked": 12286,
    "Ġmarlings": 23035,
    "physiogn": 26263,
    "Ġdefects": 12331,
    "Ġincluding": 2851,
    "ifferent": 4265,
    "Ġshouts": 19536,
    "scene": 14417,
    "soc": 5175,
    "wise": 2574,
    "Ġdz": 4756,
    "condition": 7058,
    "Ġlaurel": 20653,
    "bos": 17483,
    "adier": 18089,
    "opotam": 22476,
    "chains": 9684,
    "Ġglit": 8558,
    "actory": 8907,
    "Ġket": 18347,
    "bewil": 22495,
    "Ġallen": 5160,
    "big": 13684,
    "Ġaye": 3353,
    "produ": 10720,
    "hatches": 19927,
    "rese": 15507,
    "alive": 10827,
    "Ġzeros": 3326,
    "Ġprairies": 20019,
    "Ġsuccor": 25662,
    "ouraged": 22856,
    "settled": 10506,
    "burned": 25079,
    "Ġqual": 6274,
    "Ġslumbering": 25701,
    "Ġsurmises": 17055,
    "rasing": 21044,
    "Ġrevellers": 21675,
    "Ġbosoms": 16795,
    "Ġrepressed": 21665,
    "Ġhorror": 3774,
    "ario": 14247,
    "Ġgrammar": 1062,
    "serpent": 16290,
    "Ġhawsers": 26502,
    "possibly": 10543,
    "Ġstur": 15714,
    "Ġreus": 8821,
    "Ġcoll": 8220,
    "Ġawa": 7713,
    "priv": 9619,
    "Ġupstairs": 5836,
    "Ġvalues": 2652,
    "Ġturnkeys": 23025,
    "Ġconnexion": 11454,
    "Ġern": 8396,
    "miseries": 16757,
    "pike": 11514,
    "Ġearthquake": 14628,
    "fashion": 8080,
    "Ġelig": 9777,
    "Ġcustomary": 8669,
    "Ġdemands": 19642,
    "Ġunmanner": 22026,
    "Ġsmothered": 20719,
    "Ġpiny": 21468,
    "Ġextract": 1450,
    "Ġgaiety": 16749,
    "antled": 18286,
    "emotions": 15792,
    "unavoidable": 17389,
    "Ġrows": 10561,
    "Ġdisappeared": 5645,
    "Ġfilling": 13407,
    "racts": 14353,
    "Ġ94": 17717,
    "Ġtemporal": 2611,
    "Ġweap": 6155,
    "Ġextra": 4057,
    "storm": 9681,
    "Ġsluggishly": 25891,
    "Ġcoats": 16074,
    "prehensible": 12358,
    "cturn": 17986,
    "judges": 19572,
    "ignation": 11128,
    "Ġstoried": 18072,
    "upright": 23013,
    "Ġmanaging": 22322,
    "Ġargument": 7098,
    "ĠĠĠĠ": 459,
    "Ġyea": 8916,
    "Ġdisk": 22519,
    "Ġcovering": 13255,
    "pth": 2381,
    "persuasion": 20042,
    "bethink": 25744,
    "brew": 11473,
    "Ġjour": 11762,
    "Ġinstruction": 14342,
    "Ġpicking": 11259,
    "live": 7550,
    "offered": 14518,
    "Ġincivility": 18572,
    "did": 3197,
    "Ġgums": 21608,
    "Ġpilgrim": 25599,
    "Ġunmannerly": 26517,
    "Ġslates": 11107,
    "Ġintercepted": 25826,
    "stationed": 25453,
    "collecting": 26081,
    "quarter": 11388,
    "oney": 3049,
    "Ġwrig": 13065,
    "Ġuniform": 2226,
    "Ġsavag": 19372,
    "cock": 12024,
    "Ġcrucifix": 26079,
    "ariously": 18524,
    "Ġdefe": 21833,
    "Ġsweet": 3468,
    "Ġhyster": 16873,
    "Ġ28": 19294,
    "secre": 18127,
    "Ġforlorn": 14014,
    "Ġsixpence": 19316,
    "Ġnlp": 3063,
    "roses": 17956,
    "sole": 6168,
    "Ġwintry": 17433,
    "Ġinsol": 10180,
    "Ġlory": 12649,
    "Ġampl": 22477,
    "Ġsafie": 6617,
    "Ġbranches": 6776,
    "regret": 16450,
    "Ġgregarious": 18964,
    "Ġjerk": 16950,
    "Ġberyl": 20488,
    "Ġproblem": 1270,
    "Ġtown": 2456,
    "Ġwarrior": 24496,
    "stained": 21652,
    "ist": 449,
    "Ġsurpr": 2550,
    "Ġlonging": 14299,
    "pip": 6654,
    "iterranean": 15547,
    "Ġheaths": 25972,
    "Ġhurt": 7700,
    "en": 271,
    "pper": 3210,
    "Ġinch": 7849,
    "Ġprevailed": 7777,
    "ascended": 24706,
    "nostril": 26559,
    "ulence": 15763,
    "Ġdance": 4443,
    "Ġtending": 17724,
    "ogra": 4574,
    "Ġgrammars": 11402,
    "Ġalan": 10869,
    "Ġfood": 5080,
    "battle": 12440,
    "op": 659,
    "concern": 6099,
    "Ġcovari": 2337,
    "Ġwave": 7575,
    "Ġcalmness": 12090,
    "aculate": 16080,
    "swam": 24254,
    "aphs": 22333,
    "Ġparadise": 11195,
    "Ġundertaking": 8573,
    "Ġsake": 4092,
    "Ġriggers": 24156,
    "ip": 560,
    "Ġ109": 24416,
    "Ġextent": 7655,
    "hello": 13362,
    "Ġsacrific": 15017,
    "Ġvii": 13107,
    "sne": 10124,
    "Ġbeard": 11654,
    "Ġbounded": 16626,
    "Ġyesterday": 5332,
    "Ġ62": 24365,
    "Ġgravesend": 15215,
    "Ġjub": 22292,
    "signed": 21060,
    "atived": 21261,
    "Ġugly": 8715,
    "plague": 21950,
    "Ġ=": 1073,
    "Ġplied": 22594,
    "bour": 2072,
    "ressed": 3024,
    "Ġgroves": 16740,
    "Ġflashed": 11911,
    "Ġdad": 12597,
    "Ġtracing": 18889,
    "afraid": 10441,
    "Ġgourmand": 26466,
    "ryder": 18638,
    "Ġcandour": 14672,
    "Ġhourly": 23300,
    "fed": 11487,
    "Ġenlivened": 26207,
    "Ġwives": 12552,
    "Ġtows": 19561,
    "search": 8464,
    "joining": 19444,
    "network": 1922,
    "ived": 1536,
    "bb": 2799,
    "kempt": 20940,
    "ationally": 15702,
    "viii": 12019,
    "Ġrigging": 5601,
    "Ġbloodshot": 23797,
    "Ġoutskirts": 17456,
    "Ġloaded": 8490,
    "returned": 7765,
    "Ġpict": 3501,
    "Ġsense": 3251,
    "mong": 15388,
    "Ġdro": 2770,
    "Ġ11": 5318,
    "Ġpioneer": 17918,
    "Ġtreas": 7358,
    "ney": 2493,
    "Ġthree": 1368,
    "oun": 484,
    "Ġprocesses": 3634,
    "Ġentrances": 25834,
    "invariably": 26416,
    "olds": 9310,
    "Ġvirgin": 7328,
    "Ġdissip": 10992,
    "Ġawfulness": 23586,
    "encountered": 20391,
    "Ġsporty": 19889,
    "cused": 15331,
    "Ġne": 390,
    "Ġgloves": 8574,
    "Ġpapa": 10656,
    "Ġ77": 24263,
    "ohnson": 16324,
    "Ġsenior": 17171,
    "Ġmappings": 2147,
    "rings": 10722,
    "Ġrad": 4962,
    "qual": 8156,
    "Ġjoining": 13163,
    "Ġcrags": 23527,
    "pshire": 21023,
    "except": 5383,
    "watch": 6118,
    "Ġgrassy": 24379,
    "ague": 3908,
    "blu": 12438,
    "Ġdevice": 1930,
    "Ġsavory": 23874,
    "Ġquaker": 10971,
    "Ġirons": 7695,
    "robotics": 11306,
    "Ġdivineness": 25724,
    "Ġtelling": 5747,
    "Ġfright": 3797,
    "Ġtangles": 25761,
    "picture": 11407,
    "mouth": 9130,
    "shirt": 22455,
    "ressing": 8918,
    "ailed": 3247,
    "Ġtusks": 17253,
    "Ġcommunicated": 9061,
    "Ġushered": 18356,
    "Ġentertainment": 12220,
    "pha": 22761,
    "inously": 21185,
    "Ġpaddles": 15146,
    "Ġimmense": 4952,
    "Ġexciting": 23310,
    "Ġsubstitute": 16726,
    "lad": 5991,
    "pattern": 4212,
    "inating": 9153,
    "Ġportion": 7492,
    "Ġnavies": 16900,
    "Ġcommended": 18655,
    "Ġdromedary": 17438,
    "Ġhunter": 5401,
    "Ġpains": 5964,
    "lur": 13746,
    "Ġaffairs": 6877,
    "Ġquiver": 16001,
    "Ġsome": 655,
    "Ġale": 9154,
    "Ġconstru": 19069,
    "ermaid": 14297,
    "Ġhaw": 10251,
    "Ġcham": 4892,
    "python": 4692,
    "ld": 385,
    "Ġelevate": 24502,
    "½": 126,
    "Ġlegend": 14575,
    "Ġleaf": 15720,
    "Ġcontemptuously": 19832,
    "Ġanvil": 11596,
    "Ġlocket": 22110,
    "Ġmoments": 4845,
    "gments": 12467,
    "weary": 22683,
    "Ġabsurdities": 24879,
    "cooper": 19188,
    "isbury": 21375,
    "Ġexhaust": 6399,
    "Ġbodies": 8031,
    "Ġafforded": 8028,
    "laid": 10109,
    "Ġaccounting": 14573,
    "ength": 2312,
    "Ġuninterrupted": 22043,
    "Ġsulk": 15045,
    "Ġeasiness": 23535,
    "phants": 9319,
    "Ġknocked": 9499,
    "Ġbulk": 5591,
    "Ġconstit": 8583,
    "Ġhigh": 934,
    "Ġdistracted": 11801,
    "Ġemboldened": 22994,
    "possession": 12219,
    "Ġlive": 2736,
    "fourth": 11328,
    "aster": 1866,
    "bull": 13689,
    "Ġty": 6657,
    "Ġschoolboys": 24481,
    "ography": 13361,
    "Ġcolt": 11044,
    "uses": 11759,
    "Ġsociable": 19402,
    "abular": 4762,
    "vict": 11540,
    "happy": 4426,
    "Ġplainly": 4383,
    "brit": 19196,
    "Ġmorals": 22972,
    "Ġmou": 13854,
    "Ġclimes": 12838,
    "ries": 3354,
    "Ġerred": 21155,
    "ately": 1674,
    "Ġmagg": 18905,
    "Ġbowls": 23768,
    "Ġatlantic": 7000,
    "Ġhinge": 25541,
    "presumption": 20440,
    "Ġlac": 17964,
    "Ġlicence": 25096,
    "Ġchowder": 10280,
    "Ġrefer": 18693,
    "Ġportable": 19368,
    "ingley": 1547,
    "Ġmoulded": 16975,
    "ds": 4688,
    "Ġpledge": 11600,
    "another": 5439,
    "Ġheeds": 24520,
    "Ġproprietors": 20185,
    "Ġbewil": 11656,
    "fun": 3677,
    "ancho": 4938,
    "Ġkra": 18348,
    "Ġagree": 7646,
    "clean": 14759,
    "pray": 5429,
    "Ġexpressions": 7705,
    "Ġmarshal": 20218,
    "Ġdictator": 20152,
    "Ġforward": 1839,
    "Ġnot": 413,
    "repairing": 24495,
    "gratification": 24348,
    "Ġvor": 15804,
    "Ġnatural": 1102,
    "J": 46,
    "Ġsilent": 3410,
    "Ġruin": 6055,
    "pres": 16026,
    "asserted": 22306,
    "Ġindignity": 18833,
    "presbyterian": 26368,
    "Ġspaulding": 11729,
    "Ġchrysalis": 26538,
    "culine": 19063,
    "Ġbreaches": 14521,
    "restoration": 23233,
    "Ġnugent": 26457,
    "Ġcluster": 13570,
    "Ġsubt": 11866,
    "giving": 8738,
    "Ġscoundrel": 13669,
    "Ġletters": 3793,
    "bey": 10313,
    "Ġslices": 23162,
    "dec": 3114,
    "uccas": 21105,
    "wishes": 13806,
    "Ġstruggle": 3675,
    "acc": 2533,
    "Ġvolley": 24145,
    "idence": 4304,
    ".âĢĻ": 1718,
    "Ġfeasts": 25369,
    "arranged": 19318,
    "ther": 483,
    "adders": 24400,
    "ernal": 4314,
    "outward": 22157,
    "estone": 18364,
    "Ġowned": 11874,
    "Ġagric": 22512,
    "Ġtru": 4110,
    "wives": 15454,
    "anthrop": 17381,
    "itative": 13869,
    "my": 1317,
    "dil": 11478,
    "icha": 11736,
    "match": 15389,
    "peleg": 16292,
    "Ġskilful": 25837,
    "Ġ75": 19611,
    "Ġtid": 8106,
    "Ġshun": 11707,
    "İ": 241,
    "Ġworaciousness": 22926,
    "shriek": 20518,
    "Ġjack": 4653,
    "Ġnursing": 12212,
    "Ġaim": 10145,
    "tottenham": 25418,
    "Ġdirectly": 2104,
    "Ġhook": 6453,
    "copyright": 5277,
    "arpo": 1755,
    "Ġdistributions": 1050,
    "erably": 7573,
    "traces": 24315,
    "enial": 17780,
    "Ġpoint": 2056,
    "cary": 10689,
    "dition": 15339,
    "mbl": 5946,
    "wish": 8099,
    "Ġdarted": 4758,
    "admitted": 18091,
    "Ġgenteel": 19979,
    "Ġdun": 6673,
    "declare": 25173,
    "Ġholmes": 1309,
    "Ġassociation": 24711,
    "Ġlingering": 11379,
    "ivia": 22081,
    "Ġget": 1623,
    "Ġmemo": 18117,
    "Ġwarning": 9058,
    "Ġrifled": 21976,
    "Ġcommod": 10333,
    "Ġey": 8134,
    "Ġexc": 1833,
    "Ġmorcar": 13012,
    "Ġcontrived": 10303,
    "flow": 2173,
    "Ġdouble": 4940,
    "Ġrustic": 14964,
    "enger": 10773,
    "ones": 2743,
    "ĠĠĠĠĠ": 3528,
    "Ġunfrequent": 24109,
    "Ġwherever": 8523,
    "scores": 22987,
    "dough": 15334,
    "hever": 13830,
    "Ġhaunts": 18198,
    "Ġ112": 24437,
    "west": 10739,
[...]
