{
  "metadata": {
    "vocab_size": 26614,
    "algorithm": "BPE",
    "created_at": "2026-09-20 07:26:28",
    "special_tokens": [
      "<PAD>",
      "<SOS>",
      "<EOS>",
      "<UNK>",
      "<MASK>"
    ]
  },
  "vocab": {
    "Ġcanallers": 13626,
    "Ġsignals": 10585,
    "Ġblasphe": 17406,
    "impregnable": 26481,
    "_âĢĶâĢĻâĢĿ": 25741,
    "ess": 410,
    "tures": 21068,
    "numerous": 17430,
    "Ġsoftmax": 1688,
    "_.": 2211,
    "Ġgum": 21592,
    "Ġtawn": 13822,
    "Ġhaggard": 17329,
    "Ġaston": 3699,
    "stick": 15682,
    "tum": 11531,
    "Ġpassive": 22836,
    "Ġeels": 21619,
    "au": 778,
    "past": 8089,
    "Ġscaled": 2105,
    "Ġscaffold": 18400,
    "Ġwhiteness": 5918,
    "Ġevanesc": 24294,
    "profess": 10634,
    "Ġpulverize": 23391,
    "Ġintellectual": 11401,
    "Ġintended": 5548,
    "Ġpervers": 11781,
    "Ġhawk": 15172,
    "last": 3801,
    "Ġclassification": 1097,
    "Ġcongratulated": 19765,
    "Ġapparently": 6778,
    "Ġnotes": 7189,
    "pt": 388,
    "dispositions": 25011,
    "Ġtops": 14586,
    "Ġmultimodal": 18747,
    "Ġnois": 4269,
    "Ġslender": 11938,
    "desper": 13067,
    "agings": 18165,
    "rock": 15638,
    "Ġgreeks": 20011,
    "whatever": 6694,
    "Ġplunged": 8692,
    "Ġpausing": 8652,
    "Ġbegun": 7243,
    "Ġdoorway": 14497,
    "Ġthese": 819,
    "Ġimminent": 11245,
    "Ġsummoning": 23872,
    "Ġcrater": 16438,
    "Ġaged": 10321,
    "ifling": 15780,
    "Ġearthly": 7989,
    "idirectional": 2420,
    "fisher": 7547,
    "Ġmexico": 15279,
    "Ġunlabeled": 3798,
    "Ġpitied": 14691,
    "itious": 8779,
    "dee": 11731,
    "Ġindependence": 12102,
    "married": 9948,
    "Ġrates": 1403,
    "Ġsecre": 5493,
    "success": 6710,
    "Ġbrigandish": 25487,
    "Ġapproximates": 2417,
    "Ġaper": 17743,
    "books": 8663,
    "oes": 4434,
    "beware": 16036,
    "easy": 9592,
    "Ġtis": 15464,
    "battering": 20785,
    "Ġsweet": 3466,
    "Ġgour": 21595,
    "Ġvariously": 18652,
    "Ġimpious": 15984,
    "âĢĶâĢľ_": 13201,
    "fem": 17537,
    "Ġbakers": 17866,
    "Ġserviceable": 24718,
    "slipped": 25529,
    "hurrying": 14982,
    "sham": 9756,
    "Ġowned": 11874,
    "Ġstay": 3095,
    "Ġalways": 1696,
    "Ġglanced": 5951,
    "Ġwad": 13850,
    "Ġdebts": 8035,
    "Ġguardsmen": 20629,
    "Ġ82": 24458,
    "million": 25751,
    "irt": 3076,
    "aders": 21755,
    "fortunately": 9449,
    "Ġlacey": 10197,
    "Ġheal": 21678,
    "Ġseeing": 2885,
    "Ġamong": 1667,
    "Ġ11": 5318,
    "Ġsulk": 15045,
    "icken": 6711,
    "Ġnewton": 3532,
    "Ġdepths": 4328,
    "urred": 8448,
    "Ġunwelcome": 12777,
    "Ġbodily": 6106,
    "Ġneat": 6999,
    "Ġtorpor": 25031,
    "Ġtranquilly": 12288,
    "Ġwondered": 11125,
    "Ġpraises": 16730,
    "Ġadmirer": 16838,
    "Ġcaucus": 17379,
    "robber": 21534,
    "pret": 7212,
    "nameless": 19902,
    "Ġhorses": 6385,
    "Ġdoctors": 12149,
    "Ġlim": 2381,
    "Ġbenevol": 5961,
    "igin": 3654,
    "Ġlucas": 3830,
    "Ġoctober": 17226,
    "Ġtongue": 6347,
    "Ġstir": 5823,
    "front": 12168,
    "see": 3048,
    "ken": 2802,
    "Ġtep": 21160,
    "Ġdesisted": 22970,
    "fatal": 17088,
    "subject": 6631,
    "rival": 12739,
    "Ġpretence": 13206,
    "assist": 11765,
    "Ġdelay": 5748,
    "Ġpan": 5082,
    "custom": 15332,
    "Ġnaut": 13940,
    "Ġiter": 2953,
    "secur": 18126,
    "Ġflamingo": 15099,
    "gings": 7549,
    "Ġum": 10211,
    "sheet": 16284,
    "connect": 1291,
    "pidation": 18889,
    "Ġconce": 3423,
    "Ġfather": 1452,
    "rably": 21630,
    "don": 3543,
    "necessity": 13366,
    "mistake": 24529,
    "Ġbright": 3219,
    "rix": 1573,
    "Ġchoice": 2164,
    "Ġinvariably": 8063,
    "Ġpairs": 4181,
    "iverer": 11714,
    "Ġsurrounded": 5878,
    "borean": 25743,
    "Ġappearances": 10451,
    "Ġwife": 2589,
    "Ġsharp": 2414,
    "tch": 9141,
    "Ġpreceding": 7528,
    "``": 15305,
    "Ġadrift": 11721,
    ".âĢĶ": 4250,
    "Ġmon": 1247,
    "ucy": 15443,
    "Ġhumming": 12983,
    "Ġimbalanced": 18333,
    "Ġsubstantial": 14809,
    "Ġdetaining": 25819,
    "Ġstumble": 26482,
    "Ġdegenerated": 20504,
    "tese": 21082,
    "Ġunlimited": 26222,
    "eli": 3873,
    "Ġcabs": 23642,
    "commanded": 16988,
    "Ġsuspended": 5665,
    "mont": 19168,
    "Ġtown": 2455,
    "ifice": 7199,
    "Ġfacet": 15582,
    "Ġfortitude": 9884,
    "accuracy": 9878,
    "Ġimprec": 14217,
    "hob": 20899,
    "ĠâĢľâĢĺ": 8503,
    "Ġmockery": 12105,
    "Ġmor": 1245,
    "Ġbottom": 3672,
    "whaleman": 23434,
    "published": 26142,
    "Ġwhelmed": 25999,
    "oved": 5215,
    "Ġconcise": 23320,
    "ouement": 21446,
    "Ġoutset": 15953,
    "Ġchar": 1703,
    "Ġreynolds": 10209,
    "Ğ": 223,
    "Ġapprobation": 10985,
    "itzerland": 9994,
    "umer": 9257,
    "Ġaway": 1241,
    "ilt": 2969,
    "infernal": 24662,
    "humour": 7498,
    "Ġliberties": 19666,
    "gigantic": 15358,
    "arrang": 14652,
    "Ġage": 3895,
    "Ġreck": 6537,
    "Ġcem": 17823,
    "deserts": 25379,
    "usal": 7638,
    "Ġsynthe": 26007,
    "Ġsadness": 13285,
    "requirements": 24857,
    "Ġsame": 1344,
    "buffalo": 20562,
    "visitor": 15057,
    "Ġrachel": 11845,
    "Ġpurchase": 12257,
    "renched": 7906,
    "Ġinstances": 5568,
    "Ġgrounded": 23710,
    "Ġlac": 17964,
    "Ġaccumulation": 2695,
    "Ġwhistled": 24623,
    "Ġ41": 24077,
    "Ġconcussion": 26300,
    "Ġrecursive": 4782,
    "executed": 25739,
    "Ġprofited": 19191,
    "Ġattacks": 12202,
    "Ġtelegram": 15222,
    "Ġoxen": 19949,
    "ghan": 19453,
    "Ġhatchways": 24987,
    "bery": 9786,
    "Ġbrill": 8549,
    "Ġassur": 6073,
    "Ġdivin": 13271,
    "Ġrecol": 4028,
    "Ġsteals": 23081,
    "Ġsolicit": 22885,
    "Ġhast": 3151,
    "Ġtacit": 21173,
    "orily": 15570,
    "ĠĠĠĠĠĠ": 6414,
    "Ġrumors": 11321,
    "Ġprocedures": 9411,
    "Ġcombat": 16180,
    "Ġignorant": 5343,
    "Ġyielded": 14871,
    "Ġcourses": 10411,
    "anc": 6379,
    "Ġfriesland": 26442,
    "Ġeyeing": 6460,
    "Ġlimping": 23545,
    "Ġstagnant": 24654,
    "pay": 10718,
    "ucket": 2484,
    "Ġdreaminess": 23937,
    "fishery": 10031,
    "nesday": 8702,
    "Ġencourages": 2061,
    "nearly": 8680,
    "Ġmuseum": 15270,
    "leisure": 21369,
    "somehow": 12010,
    "sister": 5139,
    "Ġcoronet": 6344,
    "Ġdes": 1246,
    "ampl": 21845,
    "Ġbehind": 2809,
    "Ġconstables": 19072,
    "Ġlookest": 22712,
    "Ġprivileges": 25132,
    "Ġwatchman": 23667,
    "Ġviolently": 6456,
    "cal": 1121,
    "Ġclassifies": 11830,
    "Ġtyphoons": 20233,
    "ipher": 18432,
    "Ġchinese": 14181,
    "Ġcurtains": 23000,
    "Ġundressed": 19512,
    "Ġbolt": 11334,
    "rush": 7010,
    "Ġvineyarder": 25606,
    "Ġcounteracted": 19861,
    "roof": 17953,
    "Ġfaultless": 24540,
    "Ġconn": 9229,
    "Ġobli": 9315,
    "Ġchannels": 26013,
    "Ġmatrices": 4969,
    "Ġarrang": 2468,
    "occup": 7752,
    "ded": 2421,
    "stooped": 23819,
    "riety": 12740,
    "Ġvarieties": 14309,
    "Ġprevailing": 24673,
    "spoutings": 25001,
    "Ġtrace": 6181,
    "ĠĠĠĠĠĠĠĠĠĠĠĠĠĠĠĠĠĠĠĠĠĠĠĠĠĠĠĠĠĠĠ": 19699,
    "Ġdeparture": 6490,
    "Ġcertainty": 6734,
    "heaved": 21209,
    "Ġ184": 16607,
    "Ġquarters": 8619,
    "medical": 23339,
    "Ã": 132,
    "Ġadaptation": 3156,
    "nel": 11504,
    "Ġavocation": 23950,
    "Ġvariation": 22662,
    "ri": 389,
    "arman": 11594,
    "Ġsmart": 11813,
    "Ġfuriously": 9801,
    "eous": 13711,
    "Ġeaster": 15672,
    "Ġdependence": 18626,
    "Ġgeor": 3389,
    "Ġmultitud": 18746,
    "spect": 3237,
    "Ġsinful": 18948,
    "idirection": 2411,
    "din": 8373,
    "Ġapplied": 6186,
    "Ġmoist": 9284,
    "Ġsoaked": 15859,
    "Ġpropagating": 20632,
    "Ġsavages": 9911,
    "Ġenjoy": 3759,
    "ied": 941,
    "dogs": 25402,
    "Ġattorney": 18620,
    "Ġbolted": 12242,
    "Ġcerem": 7077,
    "rive": 9706,
    "Ġtreasure": 9558,
    "subtle": 24243,
    "retaining": 21244,
    "calmly": 20138,
    "Ġusefulness": 19406,
    "Ġrafters": 22650,
    "slight": 10727,
    "desperate": 17351,
    "pertaining": 22185,
    "ffy": 18318,
    "Ġtreading": 16504,
    "Ġshrugged": 12766,
    "Ġseveral": 2675,
    "perpendicular": 14164,
    "determined": 9079,
    "Ġaccounts": 7207,
    "woes": 21132,
    "Ġheadache": 22896,
    "uned": 21868,
    "ruck": 6848,
    "iloqu": 11647,
    "Ġvivacity": 14940,
    "Ġplumage": 17297,
    "Ġabsor": 8504,
    "Ġmax": 2004,
    "Ġingenuity": 17163,
    "benefact": 24641,
    "althily": 19357,
    "Ġtrusted": 10517,
    "Ġarrested": 9560,
    "Ġbarrowful": 25595,
    "Ġdoct": 4455,
    "Ġprofounder": 23568,
    "Ġbounds": 9917,
    "Ġshoots": 14568,
    "verty": 8452,
    "Ġetern": 7085,
    "size": 15424,
    "Ġchoosing": 19589,
    "Ġstretch": 6993,
    "¡": 99,
    "Ġplat": 8520,
    "Ġbestir": 13108,
    "Ġnorthwards": 19545,
    "Ġvisiting": 10356,
    "advice": 12155,
    "Ġforty": 5719,
    "lacing": 17590,
    "customary": 25895,
    "Ġdim": 4757,
    "Ġheiress": 20696,
    "mediterranean": 16402,
    "Ġdaylight": 10350,
    "limping": 26393,
    "north": 14616,
    "Ġevermore": 18811,
    "spe": 3559,
    "Ġwarmest": 16483,
    "Ġdirect": 1473,
    "Ġclosely": 6488,
    "ball": 7792,
    "Ġsilent": 3412,
    "Ġclassical": 22618,
    "Ġbrooded": 23100,
    "Ġpieces": 7369,
    "xter": 9146,
    "ondon": 2708,
    "scor": 13013,
    "Ġglistened": 20171,
    "Ġgulf": 10635,
    "Ġpinched": 17035,
    "discovery": 12015,
    "Ġmelted": 19620,
    "Ġgobern": 22420,
    "Ġtarpaul": 17730,
    "Ġunnaturally": 24870,
    "Ġrecurred": 18977,
    "alogies": 25158,
    "Ġmurmuring": 23578,
    "Ġcharge": 5324,
    "Ġtraffic": 23080,
    "Ġactuated": 18545,
    "Ġgenuine": 14884,
    "Ġinns": 17929,
    "med": 1908,
    "mentioning": 24885,
    "Ġpocket": 4898,
    "sleepers": 24730,
    "Ġdemonstrate": 24994,
    "Ġfire": 2333,
    "hurriedly": 25510,
    "Ġunshored": 25813,
    "isive": 10793,
    "Ġendless": 7053,
    "Ġgoney": 14545,
    "Ġsensitiveness": 23734,
    "Ġcommerce": 11015,
    "Ġbritannica": 24680,
    "Ġsensitivity": 3069,
    "Ġdef": 1201,
    "amidst": 25652,
    "plate": 18207,
    ")âĢĶ": 20741,
    "thinness": 25810,
    "Ġeasterly": 25962,
    "Ġlaboratory": 13611,
    "Ġskrimshander": 22796,
    "Ġbelieves": 14406,
    "Ġsteward": 6584,
    "sect": 8152,
    "Ġcommon": 1413,
    "zers": 21145,
    "dled": 9110,
    "bitts": 26122,
    "ists": 3998,
    "othic": 16214,
    "Ġbennets": 9807,
    "Ġincalcul": 16061,
    "Ġcarpet": 9355,
    "axed": 8888,
    "Ġorgan": 2505,
    "%": 9,
    "Ġstalls": 25647,
    "estion": 18362,
    "Ġfielding": 16228,
    "izure": 21831,
    "placed": 7879,
    "Ġninety": 13600,
    "seven": 8463,
    "ggling": 19096,
    "Ġjupiter": 17455,
    "satisf": 5781,
    "bots": 10082,
    "tomahawk": 25915,
    "Ġpadded": 25036,
    "Ġunlab": 3786,
    "Ġelemental": 19918,
    "binnacle": 20786,
    "Ġblades": 11893,
    "Ġstone": 4646,
    "Ġwo": 3649,
    "Ġreply": 4515,
    "Ġtesting": 23205,
    "recollection": 25348,
    "Ġhitherto": 5879,
    "yrin": 12519,
    "uated": 10131,
    "Ġrubber": 22782,
    "Ġbegged": 8230,
    "sul": 15420,
    "Ġfortnight": 6200,
    "Ġbasic": 24701,
    "ref": 6515,
    "Ġretention": 23068,
    "Ġathe": 17741,
    "Ġfalls": 14644,
    "Ġbeing": 1166,
    "Ġjur": 12831,
    "Ġalbert": 12703,
    "Ġschemes": 11131,
    "atever": 3078,
    "humiliation": 24018,
    "Ġthrob": 21515,
    "sch": 21049,
    "Ġharpoons": 5659,
    "uneasiness": 23686,
    "Ġderbyshire": 6586,
    "Ġbedrooms": 19968,
    "presbyterian": 26368,
    "rences": 9271,
    "tiger": 13796,
    "Ġbegg": 16250,
    "sworn": 24256,
    "Ġuppermost": 15277,
    "wol": 21121,
    "Ġdistingu": 2516,
    "conced": 22467,
    "Ġmove": 5107,
    "Ġvigorous": 10566,
    "Ġsearch": 2592,
    "Ġnothing": 1360,
    "Ġdreadfully": 7725,
    "Ġmysteriously": 24601,
    "Ġstage": 7389,
    "Ġlocking": 18298,
    "Ġconfed": 13096,
    "Ġsuffered": 5649,
    "Ġexquisite": 12380,
    "ĠĠĠĠ": 460,
    "allies": 14165,
    "Ġdecreases": 3410,
    "istan": 22105,
    "ele": 9114,
    "Ġacquisition": 18899,
    "recollected": 25347,
    "Ġtransp": 4770,
    "Ġwigwam": 11428,
    "ighb": 10423,
    "buttons": 22398,
    "Ġfringe": 17271,
    "Ġglimmered": 20170,
    "Ġsultan": 15183,
    "wered": 2691,
    "achel": 7032,
    "cen": 17502,
    "Ġfools": 14481,
    "Ġlapl": 19776,
    "press": 1731,
    "Ġacross": 1333,
    "Ġclutched": 13518,
    "du": 604,
    "claims": 25319,
    "countless": 24149,
    "experience": 17158,
    "ingolstadt": 21302,
    "Ġcrews": 8990,
    "umns": 14147,
    "umphed": 23517,
    "Ġflag": 7242,
    "Ġcalamities": 25699,
    "uck": 1232,
    "Ġsubject": 2464,
    "originally": 24937,
    "Ġrev": 6988,
    "Ġsale": 14154,
    "Ġreappearance": 21664,
    "Ġconvulsive": 19305,
    "rador": 19158,
    "Ġnowhere": 12883,
    "Ġfriends": 2656,
    "entric": 11618,
    "Ġodorous": 19565,
    "Ġchimney": 6497,
    "Ġfaithfulness": 24446,
    "Ġye": 900,
    "Ġerud": 20053,
    "Ġstraightened": 12106,
    "Ġup": 462,
    "Ġgib": 13964,
    "arches": 10816,
    "Ġpracticable": 19056,
    "Ġyard": 5920,
    "Ġdons": 17888,
    "Ġgree": 7594,
    "dued": 7908,
    "Ø": 153,
    "Ġill": 2193,
    "watch": 6118,
    "vol": 733,
    "ulate": 5233,
    "cannot": 5745,
    "open": 7025,
    "her": 488,
    "Ġdestructive": 23487,
    "Ġrequire": 904,
    "Ġprev": 6264,
    "landed": 18954,
    "hos": 15362,
    "Ġhoped": 5488,
    "cart": 10688,
    "Ġstatistical": 11105,
    "Ġascertain": 9705,
    "Ġlongitude": 11011,
    "aph": 10954,
    "Ġmonarchs": 25846,
    "insanity": 23065,
    "Ġgro": 4397,
    "Ġrele": 2916,
    "Ġthursday": 12641,
    "Ġconver": 804,
    "Ġgradually": 3402,
    "contemplated": 20457,
    "bene": 6112,
    "Ġtheory": 5798,
    "Ġset": 1178,
    "Ġuniformity": 23484,
    "Ġindividuality": 14908,
    "br": 2478,
    "Ġsenate": 25214,
    "philosop": 9567,
    "ows": 1917,
    "pitch": 13297,
    "Ġmat": 1149,
    "Ġcompany": 3719,
    "Ġjane": 1758,
    "unexpected": 15775,
    "iations": 11494,
    "Ġplata": 25117,
    "sus": 6228,
    "gentle": 5356,
    "freely": 16854,
    "gratulation": 24349,
    "Ġpaid": 5015,
    "quiet": 6154,
    "whe": 1073,
    "Ġslippery": 12164,
    "Ġsp": 457,
    "Ġhob": 12626,
    "Ġmysterious": 7527,
    "Ġstake": 14002,
    "ĠĠĠĠĠĠĠĠĠĠĠĠĠ": 22559,
    "Ġpen": 1531,
    "lotts": 23823,
    "Ġrespective": 16342,
    "mies": 20967,
    "amongst": 24672,
    "Ġchanging": 11751,
    "breathing": 25335,
    "Ġflood": 7715,
    "Ġlandscape": 12415,
    "craft": 12244,
    "gging": 7696,
    "Ġhypocr": 19470,
    "brushing": 20787,
    "Ġthoughtless": 16191,
    "arranged": 19318,
    "hammock": 16352,
    "opposition": 24823,
    "Ġthis": 382,
    "princ": 8620,
    "cares": 24309,
    "meetings": 20376,
    "Ġautoregressive": 3432,
    "Ġfireside": 23531,
    "Ġmister": 22752,
    "Ġ117": 19696,
    "Ġsurf": 19131,
    "Ġslink": 23160,
    "Ġgomorrah": 21612,
    "Ġstre": 2108,
    "visited": 13346,
    "Ġneighbours": 8302,
    "Ġdeity": 18137,
    "couldn": 23716,
    "Ġdawn": 6816,
    "Ġsunrise": 9372,
    "Ġexpensive": 12915,
    "Ġhardly": 2432,
    "Ġpeaceable": 14722,
    "invol": 12527,
    "Ġsuite": 18277,
    "ancholy": 5070,
    "Ġnaturalists": 10360,
    "anous": 21357,
    "Ġinflict": 15001,
    "Ġmurderous": 8315,
    "neying": 22460,
    "Ġplants": 22595,
    "Ġrequest": 6050,
    "Ġinoffensive": 21495,
    "Ġiii": 7860,
    "Ġdistorted": 14249,
    "Ġmamma": 10047,
    "Ġunmolested": 15244,
    "Ġmahogany": 20576,
    "read": 3279,
    "hem": 6663,
    "inating": 9153,
    "Ġsettles": 22917,
    "Ġrenounce": 19466,
    "Ġtransformer": 2639,
    "Ġmagn": 1554,
    "Ġvelocity": 10620,
    "Ġpallet": 21479,
    "Ġstingy": 25455,
    "algorithms": 8292,
    "Ġmeek": 21806,
    "Ġkno": 5241,
    "vengeance": 13355,
    "Ġmizzen": 20288,
    "poky": 17644,
    "Ġbreach": 11972,
    "Ġemployments": 12100,
    "netherfield": 9812,
    "tomb": 21092,
    "religion": 20574,
    "Ġdauntless": 26336,
    "av": 738,
    "figures": 20120,
    "Ġcow": 13875,
    "useness": 22289,
    "Ġremembr": 24170,
    "Ġthem": 641,
    "Ġconceal": 5973,
    "Ġmumbling": 11573,
    "Ġtracks": 18891,
    "Ġhesitation": 13440,
    "Ġ105": 24413,
    "Ġunresting": 25553,
    "Ġglo": 1714,
    "ootiful": 17372,
    "Ġhandling": 8912,
    "pressing": 19013,
    "Ġprovid": 1006,
    "Ġsepulch": 15283,
    "specimen": 26605,
    "Ġvillainous": 25131,
    "¨": 106,
    "Ġmode": 8497,
    "Ġbreathlessly": 24280,
    "Ġbubbling": 17325,
    "athed": 7828,
    "Ġregulations": 18585,
    "Ġapprehensions": 13403,
    "Ġdemands": 19642,
    "continuing": 24479,
    "Ġeternities": 19941,
    "Ġsingers": 23770,
    "Ġpivot": 13922,
    "Ġdevoured": 16134,
    "smith": 5669,
    "Ġrussian": 14347,
    "Ġtrapped": 23074,
    "Ġsombre": 18859,
    "Ġwatson": 3595,
    "Ġgrove": 12144,
    "Ġalco": 21779,
    "Ġaw": 2512,
    "dum": 17518,
    "itled": 7577,
    "Ġpeculiar": 3153,
    "ckled": 9256,
    "however": 4374,
    "Ġsubjects": 7072,
    "Ġother": 760,
    "Ġsimplest": 16331,
    "Ġplayful": 19236,
    "flinging": 20867,
    "urity": 8142,
    "\"": 6,
    "Ġgroaned": 11266,
    "inioned": 19285,
    "rifle": 21045,
    "Ġplantation": 11423,
    "Ġconcert": 11965,
    "invincible": 25089,
    "Ġlament": 7856,
    "Ġupright": 8493,
    "inexplicable": 25809,
    "Ġtwisting": 18657,
    "Ġconstant": 6309,
    "Ġdecayed": 22823,
    "Ġhim": 476,
    "oundered": 14159,
    "mble": 1406,
    "done": 6500,
    "oric": 21394,
    "excitement": 19668,
    "proportions": 22848,
    "Ġpainter": 19167,
    "Ġglobules": 26588,
    "Ġpositively": 13027,
    "Ġ-": 1944,
    "Ġtattooings": 24900,
    "Ġagents": 9765,
    "Ġgri": 17987,
    "aulets": 18621,
    "Ġma": 3257,
    "Ġproficiency": 19192,
    "lyph": 10852,
    "Ġpred": 670,
    "Ġguineas": 16269,
    "H": 44,
    "lights": 13202,
    "Ġcorrid": 9823,
    "Ġ26": 10470,
    "Ġissued": 10599,
    "agre": 18164,
    "accursed": 20539,
    "ield": 2408,
    "Ġawful": 6199,
    "Ġhudson": 15190,
    "pute": 8844,
    "Ġswells": 9826,
    "centred": 25017,
    "meditation": 19068,
    "Ġpillows": 24986,
    "Ġflapped": 23008,
    "cerem": 15675,
    "Ġgovernments": 20266,
    "Ġbattle": 5907,
    "hanging": 10100,
    "Ġbordeaux": 24564,
    "wh": 508,
    "Ġabsolut": 3909,
    "Ġnetherfield": 3929,
    "Ġdistance": 3483,
    "Ġmeetings": 16532,
    "Ġchurning": 15935,
    "Ġilliterate": 26594,
    "Ġmole": 11789,
    "Ġriggers": 24155,
    "roylott": 20025,
    "Ġshow": 3403,
    "Ġeasier": 11165,
    "Ġinvented": 17037,
    "Ġdecaying": 2244,
    "shorn": 22444,
    "slackened": 26094,
    "Ġneighbouring": 12116,
    "Ġcircumnavigating": 25614,
    "Ġcrumpled": 16441,
    "Ġdrugg": 17119,
    "ilburn": 18059,
    "Ġwhereby": 11835,
    "Ġblended": 16217,
    ",âĢĶâĢĺ": 23801,
    "blame": 14793,
    "Ġmatrix": 1604,
    "ß": 160,
    "Ġdefiance": 11068,
    "Ġaz": 9629,
    "Ġseem": 914,
    "Ġey": 8134,
    "Ġgrosvenor": 17417,
    "short": 6566,
    "Ġchinks": 22248,
    "Ġcontinuation": 22915,
    "Ġpresuming": 16793,
    "Ġmab": 12557,
    "Ġprogno": 14039,
    "Ġplum": 11820,
    "Ġsummary": 19401,
    "Ġassert": 7120,
    "Ġadieus": 25110,
    "etah": 12658,
    ").âĢĿ": 20740,
    "persecut": 22186,
    "Ġarctic": 12808,
    "yours": 7694,
    "groom": 8739,
    "uccas": 21105,
    "Ġ79": 24264,
    "Ġhabits": 6926,
    "Ġdodge": 19885,
    "Ġprivilege": 11419,
    "Ġscrut": 15943,
    "ices": 2137,
    "passage": 11261,
    "Ġprovinces": 24190,
    "Ġverte": 9440,
    "Ġhandy": 12933,
    "Ġchannel": 26012,
    "Ġemergency": 25731,
    "handed": 7482,
    "ta": 13788,
    "Ġallured": 14112,
    "Ġimpulsive": 19961,
    "uture": 1075,
    "Ġshoals": 13133,
    "Ġfainter": 14913,
    "Ġwatched": 6297,
    "endering": 21283,
    "Ġ7": 4745,
    "assin": 22301,
    "Ġreferred": 8916,
    "Ġost": 9649,
    "Ġsending": 8774,
    "Ġdesp": 3220,
    "ru": 478,
    "entered": 8814,
    "Ġelephants": 9863,
    "Ġcurtain": 14419,
    "Ġboomer": 20166,
    "Ġvaluable": 5608,
    "Ġanswers": 7070,
    "Ġunimaginable": 15245,
    "Ġapothecary": 13658,
    "Ġstanzas": 21741,
    "Ġtrip": 16788,
    "-------": 20387,
    "confirmed": 19644,
    "entimes": 12653,
    "shire": 3021,
    "Ġthrow": 3781,
    "Ġcrescent": 16133,
    "intercourse": 14638,
    "Ġrecognition": 3043,
    "Ġfors": 21768,
    "holder": 13280,
    "Ġconcentrated": 15082,
    "succeeded": 15174,
    "Ġpips": 9849,
    "Ġoverpow": 14207,
    "dining": 13704,
    "Ġthrobbing": 16898,
    "Ġhull": 5446,
    "Ġtranslations": 12050,
    "eneva": 5118,
    "Ġpersonal": 7479,
    "Ġsticks": 14930,
    "born": 7543,
    "Ġvenerable": 9093,
    "Ġthinner": 24182,
    "Ġbenediction": 18784,
    "prophecy": 22849,
    "Ġspiracle": 14149,
    "Ġcommonly": 3268,
    "Ġconqueror": 25796,
    "Ġstepmother": 16089,
    "](": 11466,
    "Ġlabours": 8582,
    "Ġrepine": 16408,
    "luded": 4227,
    "Ġroared": 7023,
    "Ġobscured": 15010,
    "]]": 5205,
    "Ġparadigms": 3057,
    "Ġreluctant": 20523,
    "eze": 20846,
    "Ġskies": 8920,
    "Ġhumorous": 10361,
    "oding": 1463,
    "Ġpoisoned": 24886,
    "Ġbackstays": 22660,
    "Ġborne": 6351,
    "prop": 1050,
    "Ġequival": 4784,
    "Ġclimates": 25050,
    "Ġglit": 8558,
    "Ġteaching": 10364,
    "Ġmissed": 8555,
    "inev": 21976,
    "Ġthickets": 24020,
    "Ġinput": 610,
    "Ġgardiners": 11157,
    "hate": 20891,
    "Ġgross": 11624,
    "Ġheavy": 3741,
    "Ġannals": 17898,
    "throwing": 11701,
    "Ġbillows": 7502,
    "Ġtwos": 18656,
    "Ġscuttle": 7414,
    "Ġfleece": 10614,
    "trap": 24313,
    "Ġcontinuous": 1561,
    "woe": 21134,
    "Ġdelivered": 11116,
    "Ġmarty": 20289,
    "Ġdowncast": 18651,
    "Ġregions": 10323,
    "kindled": 16660,
    "Ġimper": 4502,
    "Ġsmothered": 20719,
    "Ġservice": 6471,
    "Ġleague": 6538,
    "interval": 7990,
    "threshold": 21984,
    "Ġaction": 5796,
    "Ġfluttered": 16246,
    "Ġfinished": 5044,
    "dist": 4481,
    "Ġoccurring": 2792,
    "oul": 4699,
    "Ġjer": 6266,
    "Ġtowering": 16739,
    "istically": 14143,
    "Ġprovision": 14824,
    "Ġextant": 18682,
    "aling": 1033,
    "Ġ88": 19710,
    "Ġquoin": 22415,
    "ruded": 15895,
    "Ġlooks": 4165,
    "Ġminimum": 23037,
    "rely": 6123,
    "oquence": 11386,
    "Ġtarquin": 23612,
    "Ġerr": 1322,
    "Ġimperial": 9480,
    "ipped": 5790,
    "Ġvehemence": 26566,
    "happy": 4425,
    "Ġstupid": 7603,
    "ated": 727,
    "Ġrealising": 18982,
    "26": 10072,
    "therly": 18338,
    "ike": 5000,
    "Ġincant": 18568,
    "Ī": 235,
    "onom": 9158,
    "altering": 12637,
    "resc": 21237,
    "appearance": 5333,
    "Ġconveniently": 20077,
    "Ġtendinous": 16931,
    "etime": 12656,
    "Ġspent": 3962,
    "Ġtries": 9150,
    "Ġcorroboration": 26053,
    "Ġblubber": 5666,
    "Ġglaring": 11905,
    "rudential": 16709,
    "Ġmr": 660,
    "arn": 357,
    "bank": 10079,
    "ney": 2493,
    "culous": 11141,
    "Ġengraved": 17081,
    "Ġtopmost": 14587,
    "circumst": 5348,
    "afforded": 25865,
    "Ġmantle": 25274,
    "Ġpet": 4587,
    "Ġoblig": 3446,
    "Ġunnecessary": 8851,
    "salesman": 20670,
    "Ġalabama": 14018,
    "unity": 4151,
    "Ġunconscious": 9546,
    "caterpillar": 26383,
    "ĠâĢľ_": 6696,
    "Ġcolds": 23757,
    "Ġadmin": 23552,
    "Ġoverdone": 22357,
    "awk": 23110,
    "vessel": 11377,
    "Ġgrand": 3591,
    "Ġhumbled": 16195,
    "sensible": 20050,
    "emy": 14074,
    "Ġcleat": 18946,
    "Ġdamned": 13131,
    "_.)": 7278,
    "Ġfaltering": 17884,
    "Ġalman": 21778,
    "Ġobeying": 13413,
    "_.âĢĶ": 23473,
    "been": 3346,
    "doubtful": 24791,
    "Ġloitered": 26525,
    "raged": 9211,
    "Ġassumptions": 5517,
    "Ġmonsters": 11074,
    "Ġfondness": 16780,
    "Ġemer": 5958,
    "Ġwaifing": 25243,
    "Ġrests": 13091,
    "Ġhunter": 5401,
    "law": 6115,
    "Ġunaccount": 22024,
    "Ġhabit": 6771,
    "abouts": 9451,
    "Ġupbraided": 26528,
    "Ġsuch": 792,
    "Ġgeorge": 3746,
    "stating": 21644,
    "Ġprogram": 12990,
    "icked": 10332,
    "concerning": 9067,
    "Ġbursting": 8655,
    "Ġpenny": 16312,
    "Ġthose": 1174,
    "Ġformless": 22825,
    "Ġbase": 5013,
    "Ġones": 3020,
    "icing": 9200,
    "relapse": 24013,
    "Ġvirtuous": 14754,
    "ĠĠĠĠĠĠĠ": 7632,
    "Ġisles": 8459,
    "beaten": 20314,
    "Ġacceler": 1609,
    "ieved": 3235,
    "garn": 20869,
    "Ġtweed": 22674,
    "Ġtraditions": 11443,
    "Ġrepositories": 23362,
    "elt": 4115,
    "Ġstrewed": 23420,
    "knowledge": 7478,
    "urously": 18049,
    "scruple": 26043,
    "Ġcrushing": 20175,
    "break": 6101,
    "bows": 10081,
    "all": 486,
    "Ġbulkington": 14677,
    "Ġpeevish": 26557,
    "Ġrearing": 12674,
    "malicious": 19901,
    "Ġmention": 2986,
    "Ġsher": 3762,
    "dug": 18462,
    "cask": 12444,
    "of": 767,
    "Ġwisely": 13270,
    "oblivious": 26582,
    "lop": 20947,
    "inted": 2651,
    "Ġstatistics": 1682,
    "Ġmoot": 22429,
    "Ġhaste": 9003,
    "Ġfinishing": 23121,
    "glings": 23849,
    "persuade": 13532,
    "Ġcondescending": 24868,
    "Ġrecommend": 7102,
    "Ġfearlessness": 19160,
    "Ġlucky": 7758,
    "Ġstigma": 25791,
    "Ġheredit": 9216,
    "Ġexcavating": 23313,
    "Ġaddress": 2270,
    "Ġlump": 21549,
    "Ġspont": 22128,
    "dashing": 20835,
    "Ġpoints": 5247,
    "howling": 18990,
    "Ġrapture": 13495,
    "ep": 441,
    "access": 11180,
    "sideways": 14571,
    "Ġinflu": 4909,
    "marks": 7346,
    "Ġheroine": 24543,
    "eldom": 4414,
    "Ġdeck": 2138,
    "Ġner": 1645,
    "Ġreap": 18026,
    "Ġakin": 15494,
    "abode": 21788,
    "Ġran": 3345,
    "Ġbirch": 26174,
    "Ġbloom": 9887,
    "Ġif": 697,
    "opol": 12868,
    "Ġimpropriety": 17394,
    "Ġgilt": 21603,
    "minute": 11274,
    "Ġuttering": 16460,
    "visible": 10533,
    "Ġunce": 11709,
    "entirely": 7781,
    "officer": 17054,
    "Ġabsurdly": 19958,
    "Ġmalignity": 10556,
    "Ġbreaches": 14521,
    "Ġexpose": 10327,
    "Ġbalances": 2340,
    "Ġbeams": 14631,
    "Ġagony": 5388,
    "Ĳ": 243,
    "Ġsubaltern": 22786,
    "ondency": 15268,
    "Ġnightfall": 23127,
    "Ġcuriosities": 26289,
    "luent": 15994,
    "Ġhis": 380,
    "Ġparad": 2843,
    "Ġprison": 5403,
    "ophisticated": 22475,
    "Ġstup": 14004,
    "Ġresume": 18565,
    "Ġalche": 21780,
    "Ġclasp": 9743,
    "Ġinconvenience": 9563,
    "ron": 5216,
    "Ġcontrasting": 11154,
    "skeleton": 17375,
    "opence": 18507,
    "bitter": 11241,
    "ount": 1115,
    "Ġlig": 21545,
    "loose": 11802,
    "Ġpeninsula": 23193,
    "Ġblood": 3171,
    "Ġvanity": 7045,
    "dinner": 11406,
    "Ġwithout": 1122,
    "Ġcheetah": 14502,
    "brimmed": 14588,
    "Ġcontest": 18473,
    "iogn": 20920,
    "hyp": 15365,
    "Ġarticles": 7108,
    "everlasting": 18771,
    "Ġmirror": 12376,
    "Ġvindictive": 20468,
    "Ġchewing": 23282,
    "Ġprobably": 4316,
    "Ġbower": 15564,
    "pr": 3177,
    "Ġdeepest": 8213,
    "Ġenchanting": 17039,
    "Ġwestward": 24389,
    "Ġhindoo": 17175,
    "Ġlees": 18075,
    "eds": 6674,
    "vanished": 15060,
    "Ġabstained": 25231,
    "factories": 19842,
    "Ġd": 284,
    "Ġwalker": 23308,
    "asted": 4650,
    "already": 6980,
    "Ġplanets": 24053,
    "Ġbod": 4582,
    "Ġ68": 24370,
    "aspect": 10193,
    "Ġneur": 813,
    "iss": 2174,
    "Ġinvention": 19951,
    "Ġmonomania": 17085,
    "Ġyoungster": 23176,
    "nine": 13760,
    "Ġcyp": 21343,
    "Ġvote": 21944,
    "Ġtraining": 529,
    "Ġwhistling": 19789,
    "Ġexceeding": 1579,
    "Ġexploit": 19161,
    "Ġcircumspection": 25884,
    "Ġdivide": 12108,
    "Ġpeasant": 13550,
    "saying": 8640,
    "jolly": 20930,
    "Ġponies": 21474,
    "Ġupset": 22149,
    "idean": 14262,
    "Ġunprotected": 22064,
    "james": 15371,
    "castle": 3351,
    "Ġgourmand": 26466,
    "Ġwh": 328,
    "Ġquench": 22416,
    "Ġperennial": 22691,
    "Ġproc": 5545,
    "pardon": 10064,
    "Ġbasics": 13447,
    "landlord": 9839,
    "jaws": 20931,
    "haustible": 16891,
    "msgate": 18410,
    "Ġexplore": 15906,
    "Ġbumpkins": 25281,
    "setting": 13284,
    "oise": 15403,
    "Ġmutters": 23953,
    "Ġ61": 24364,
    "Ġath": 15799,
    "Ġcoaxing": 18598,
    "Ġgriefs": 16771,
    "Ġspend": 5304,
    "Ġthreshold": 2810,
    "Ġenvy": 13204,
    "omn": 15679,
    "daw": 17522,
    "anted": 5027,
    "term": 3756,
    "Ġtalk": 1968,
    ";âĢĿâĢĶ": 20759,
    "Ġebony": 18008,
    "Ġdescending": 8902,
    "Ġcomment": 9232,
    "Ġsched": 2337,
    "Ġpyramid": 8801,
    "Ġdashed": 6009,
    "Ġthomas": 17947,
    "Ġtyros": 26101,
    "Ġmurdering": 14810,
    "Ġprehensile": 26534,
    "Ġsuccessive": 10500,
    "intelligent": 16844,
    "Ġshaken": 10264,
    "Ġissu": 6253,
    "Ġresponses": 23650,
    "Ġnaturalist": 22877,
    "hever": 13830,
    "Ġstars": 6149,
    "ª": 108,
    "_)": 9101,
    "Ġsailed": 4889,
    "Ġblacksmiths": 19872,
    "Ġtrout": 22352,
    "Ġpallor": 13515,
    "curiosity": 8623,
    "hullo": 17570,
    "Ġexpectantly": 23525,
    "Ġrepressed": 21665,
    "Ġcomplied": 14733,
    "Ġdevote": 10339,
    "Ġwindpipe": 23102,
    "Ġmisgivings": 15290,
    "Ĝ": 221,
    "northern": 23666,
    "Ġcircumn": 11982,
    "Ġnear": 1717,
    "Ġlust": 9197,
    "whalebone": 19118,
    "Ġrecurring": 23229,
    "quohog": 21855,
    "Ġrekindled": 21674,
    "Ġprometheus": 15291,
    "intosh": 22937,
    "Ġexpans": 18622,
    "Ġprying": 15606,
    "Ġbefitting": 15723,
    "Ġpanther": 16819,
    "report": 13398,
    "Ġroyals": 19531,
    "attempt": 9359,
    "Ġhissed": 15786,
    "ft": 909,
    "Ġalexander": 17423,
    "Ġshocks": 16456,
    "trampled": 26333,
    "grieved": 17316,
    "dear": 6555,
    "Ġalien": 14017,
    "Ġjest": 18403,
    "room": 2176,
    "Ġhardened": 14449,
    "usual": 5841,
    "Ġhumour": 7931,
    "Ġsmothe": 18573,
    "inburgh": 15489,
    "entle": 1739,
    "Ġentered": 2846,
    "Ġcompar": 4771,
    "rabbit": 20589,
    "ached": 2322,
    "inois": 17738,
    "Ġdetailed": 12825,
    "Ġclust": 9273,
    "Ġswain": 18880,
    "inkled": 5477,
    "resistible": 10643,
    "inform": 10143,
    "ders": 8074,
    "Ġsubdiv": 16157,
    "Ġwidely": 8032,
    "Ġcomfits": 21844,
    "office": 16391,
    "osy": 11756,
    "Ġpurring": 23476,
    "Ġugl": 12679,
    "Ġoffending": 22740,
    "Ġpipes": 9850,
    "Ġlun": 7855,
    "Ġburnwell": 13266,
    "Ġslay": 16305,
    "isition": 11585,
    "Ġbread": 5404,
    "mund": 13757,
    "principle": 10650,
    "Ġhowling": 8509,
    "Ġhaul": 11690,
    "Ġworry": 18815,
    "Ġape": 21195,
    "Ġinputs": 843,
    "abash": 18107,
    "Ġreflections": 5945,
    "Ġcomparatively": 9489,
    "scho": 8759,
    "Ġcasks": 7521,
    "ides": 2160,
    "Ġtowers": 16738,
    "Ġostens": 25275,
    "Ġcascade": 20579,
    "Ġvehement": 16201,
    "dead": 8179,
    "Ġrevenge": 5452,
    "Ġsisterly": 16300,
    "Ġgriev": 16634,
    "ness": 853,
    "feelings": 5674,
    "Ġimpudence": 26241,
    "Ġaffectation": 14440,
    "Ġcompromised": 22570,
    "Ġintention": 5638,
    "lively": 12482,
    "feet": 6568,
    "Ġinjury": 10540,
    "Ġdecision": 2678,
    "Ġwithstand": 10225,
    "Ġinwards": 15618,
    "Ġmedic": 11247,
    "instance": 24168,
    "Ġlulled": 17968,
    "ieties": 19022,
    "Ġtu": 6968,
    "Ġbenignity": 18782,
    "Ġauthors": 10416,
    "Ġprovince": 24189,
    "ifying": 5251,
    "Ġtrowsers": 9627,
    "Ġvicissitudes": 12417,
    "Ġheathen": 10565,
    "leaves": 12575,
    "Ġdock": 15928,
    "Ġunden": 22010,
    "Ġserm": 9633,
    "Ġseventy": 7877,
    "minutes": 7512,
    "Ġarticulate": 24432,
    "anter": 9166,
    "Ġdisquis": 22524,
    "Ġbur": 2700,
    "Ġcompatibility": 2960,
    "Ġfleet": 9431,
    "iac": 6225,
    "Ġcompressed": 21842,
    "Ġsworn": 14434,
    "Ġadoration": 18292,
    "¸": 121,
    "aks": 8506,
    "Ġremained": 3142,
    "gd": 3125,
    "latin": 25258,
    "Ġpy": 21449,
    "Ġnonsense": 6982,
    "Ġyer": 15731,
    "Ġanxiety": 5408,
    "Ġnewcomers": 26041,
    "Ġtall": 4038,
    "Ġwithdrew": 9695,
    "Ġpossess": 3209,
    "Ġrueful": 25581,
    "Ġbrahma": 26319,
    "Ġfrayed": 23299,
    "Ġsuav": 22073,
    "Ġfirst": 938,
    "dick": 11479,
    "sleepy": 24729,
    "Ġchival": 14180,
    "Ġtype": 2019,
    "mes": 1198,
    "Ġxxxi": 24966,
    "useful": 16502,
    "september": 14035,
    "erman": 5108,
    "Ġlovel": 10271,
    "choice": 21688,
    "enari": 21280,
    "geese": 22364,
    "Ġsash": 17754,
    "Ġiterate": 13198,
    "ates": 519,
    "Ġglance": 4233,
    "Ġclaps": 22343,
    "oughed": 22072,
    "Ġconquered": 14025,
    "Ġbells": 19600,
    "il": 329,
    "Ġcheever": 23281,
    "itioned": 22466,
    "Ġproport": 2298,
    "reckoning": 25270,
    "Ġswayed": 15047,
    "eland": 11619,
    "Ġbarbed": 14834,
    "Ġmons": 10156,
    "priv": 9619,
    "Ġsagaciously": 24731,
    "ton": 1727,
    "brew": 11473,
    "Ġtemperature": 1002,
    "Ġconfessed": 8008,
    "Ġwarbling": 26168,
    "Ġparl": 8177,
    "Ġimpatiently": 8337,
    "Ġbearing": 5298,
    "heavens": 19744,
    "Ġholmes": 1306,
    "Ġdescribes": 3122,
    "Ġalbino": 20501,
    "Ġdo": 511,
    "lads": 20954,
    "Ġhelen": 16655,
    "subsided": 25830,
    "Ġpurchased": 12258,
    "Ġpoliceman": 15257,
    "irium": 8161,
    "ĠĠĠĠĠĠĠĠĠĠĠĠ": 12897,
    "fate": 17539,
    "Ġnail": 9195,
    "Ġare": 527,
    "Ġfilial": 16620,
    "Ġwondering": 7970,
    "Ġthunder": 4823,
    "ilities": 6991,
    "Ġvan": 1090,
    "Ġoffered": 5816,
    "Ġdistant": 5387,
    "Ġstung": 21735,
    "Ġhardships": 14450,
    "Ġunceasing": 20356,
    "Ġgore": 17988,
    "Ġinfirmity": 26298,
    "Ġwouldst": 18499,
    "having": 5211,
    "mindful": 19598,
    "chess": 16573,
    "Ġsignifies": 19204,
    "Ġpalm": 10513,
    "ĠĠĠĠĠĠĠĠĠĠĠĠĠĠĠĠĠĠĠĠĠĠĠĠĠ": 24442,
    "Ġuncles": 23429,
    "Ġnursing": 12212,
    "Ġ=": 1074,
    "andish": 18153,
    "Ġscho": 4436,
    "Ġtorment": 8673,
    "Ġadvantages": 9806,
    "elements": 25203,
    "Ġawhile": 13829,
    "worn": 13805,
    "Ġstoutly": 16924,
    "Ġprotracted": 19467,
    "including": 23589,
    "Ġuntrodden": 23522,
    "Ġushered": 18356,
    "Ġslackened": 15125,
    "sies": 21053,
    "Ġmagnitudes": 3820,
    "separation": 25226,
    "Ġsocieties": 20181,
    "Ġrick": 21967,
    "Ġbland": 11064,
    ",âĢĶâĢľ": 10069,
    "Ġtext": 2267,
    "Ġquaker": 10971,
    "beheld": 11799,
    "Ġlatterly": 24082,
    "earn": 10696,
    "haz": 17564,
    "Ġcrow": 3803,
    "Ġpathetic": 19030,
    "dissemble": 23492,
    "oquent": 12497,
    "Ġsen": 9156,
    "âĢĺ": 940,
    "Ġvillanous": 24051,
    "Ġmonstrous": 7789,
    "aping": 8193,
    "pher": 11511,
    "Ġlastly": 16204,
    "Ġpretension": 23763,
    "Ġ115": 24439,
    "Ġbrazier": 26320,
    "uplifted": 17695,
    "Ġcadiz": 17324,
    "puff": 21021,
    "should": 3266,
    "upper": 11538,
    "ourably": 14376,
    "estation": 15918,
    "Ġant": 4347,
    "remarked": 12286,
    "evenings": 19461,
    "Ġobligation": 13242,
    "Ġmiraculous": 13546,
    "Ġperfectly": 3698,
    "Ġlangu": 572,
    "Ġbenef": 3489,
    "convers": 6567,
    "Ġperiodical": 14771,
    "Ġmince": 22828,
    "appears": 12058,
    "Ġsport": 6688,
    "Ġsult": 10767,
    "Ġrepugnance": 19086,
    "Ġrescales": 5068,
    "Ġhoney": 12629,
    "chester": 23805,
    "Ġfeared": 5930,
    "Ġcharms": 11130,
    "Ġshores": 8847,
    "Ġpeels": 22688,
    "Ġconject": 6026,
    "analysis": 26173,
    "stately": 18021,
    "Ġtrough": 15968,
    "Ġyou": 366,
    "allingly": 22196,
    "Ġsecure": 4912,
    "american": 11400,
    "inction": 6660,
    "Ġmeasured": 9803,
    "Ġfed": 5530,
    "Ġgurglings": 26465,
    "boy": 4738,
    "Ġelasticity": 19557,
    "bounded": 13438,
    "Ġsoliloquized": 17301,
    "visual": 24222,
    "harbor": 13563,
    "toes": 22561,
    "Ġemails": 13105,
    "horn": 8085,
    "Ġrelics": 16194,
    "95": 17477,
    "Ġhousekeeper": 7456,
    "jumping": 20244,
    "plicable": 10256,
    "Ġpiny": 21468,
    "Ġmultiplied": 23689,
    "Ġ----": 7145,
    "Ġmu": 17795,
    "Ġknives": 14836,
    "Ġkrusenstern": 26377,
    "âĢĶ": 517,
    "Ġble": 5223,
    "four": 6113,
    "Ġclim": 8194,
    "Ġfi": 933,
    "Ġparticle": 18671,
    "Ġalone": 2569,
    "Ġweather": 3994,
    "Ġinformed": 6717,
    "Ġreeled": 13985,
    "Ġtid": 8106,
    "Ġdarkness": 4279,
    "Ġdeclines": 23960,
    "Ġrelationships": 2924,
    "Ġwidth": 16772,
    "Ġexpress": 2195,
    "Ġembarked": 17134,
    "thinking": 9013,
    "Ġspool": 24806,
    "ye": 1405,
    "Ġcoronation": 13332,
    "overspreading": 26139,
    "Ġtoilings": 24742,
    "Ġshiver": 12764,
    "sn": 7138,
    "ome": 536,
    "Ġnominal": 15167,
    "Ġgust": 21594,
    "grass": 23411,
    "Ġenh": 2861,
    "perils": 22184,
    "jackets": 24895,
    "ilib": 4117,
    "ge": 560,
    "Ġwield": 21289,
    "Ġsat": 1132,
    "Ġreusability": 13557,
    "heartily": 24215,
    "Ġbye": 12735,
    "entitled": 21565,
    "Ġkra": 18348,
    "Ġsmilingly": 22557,
    "Ġoutlandish": 12835,
    "ropes": 7902,
    "disaster": 23493,
    "eon": 8729,
    "Ġlungless": 24863,
    "Ġdestroying": 14728,
    "®": 111,
    "Ġadvance": 5484,
    "Ġmoments": 4845,
    "would": 2351,
    "Ġtrial": 6634,
    "pond": 21012,
    "Ġaristocratic": 20510,
    "Ġindisc": 16226,
    "Ġindependent": 9015,
    "Ġwide": 4108,
    "some": 2232,
    "Ġsurviv": 13434,
    "ical": 756,
    "Ġprescribed": 26010,
    "Ġhairy": 23863,
    "Ġpanted": 21470,
    "Ġalph": 9694,
    "cruet": 17026,
    "trained": 4240,
    "Ġagatha": 6866,
    "Ġlanterns": 24577,
    "osity": 14185,
    "Ġstocks": 23173,
    "men": 1487,
    "Ġorange": 8486,
    "diss": 17523,
    "iftings": 23224,
    "Ġamiss": 18511,
    "abases": 3005,
    "Ġprincely": 24147,
    "Ġ62": 24365,
    "Ġmoles": 22431,
    "Ġsingular": 4424,
    "Ġcynicism": 25771,
    "Ġsuperl": 16445,
    "Ġnation": 12644,
    "Ġcope": 17830,
    "render": 10290,
    "compose": 24029,
    "Ġintelligent": 1331,
    "things": 6032,
    "Ġremoval": 12115,
    "Ġfloundered": 18861,
    "Ġgent": 7383,
    "kin": 7131,
    "Ġemblaz": 16241,
    "reflected": 24733,
    "Ġresolving": 9418,
    "Ġoverwhel": 8196,
    "Ġliv": 6679,
    "mushroom": 26395,
    "Ġrue": 11865,
    "wedded": 24339,
    "Ġparaph": 22117,
    "Ġchimneys": 16972,
    "Ġmartha": 16259,
    "Ġsquaring": 22835,
    "Ġinhabitant": 19754,
    "converse": 22472,
    "Ġhaze": 18196,
    "Ġassent": 12730,
    "Ġreturn": 1710,
    "Ġful": 4299,
    "icable": 6388,
    "kitchen": 17585,
    "Ġwhirled": 14959,
    "Ġvisited": 5947,
    "Ġconsort": 18723,
    "Ġdamning": 19139,
    "Ġbalancing": 2430,
    "soul": 9140,
    "Ġfate": 4754,
    "Ġdesignated": 19520,
    "Ġsaviour": 20712,
    "onden": 13843,
    "udg": 22749,
    "onings": 21251,
    "Ġautumnal": 19033,
    "Ġeighty": 19474,
    "razor": 21634,
    "Ġabsorb": 25112,
    "Ġdines": 21421,
    "ĠĠĠĠĠĠĠĠĠĠĠĠĠĠĠĠĠĠĠĠĠĠĠĠĠĠĠĠĠĠ": 24443,
    "Ġreader": 11932,
    "remonstr": 23187,
    "guessed": 25872,
    "anging": 3550,
    "Ġvindication": 25364,
    "Ġmag": 1427,
    "Ġgrew": 5182,
    "ellative": 21942,
    "bowsprit": 16853,
    "taking": 5689,
    "Ġabhorrence": 9052,
    "Ġsite": 17753,
    "Ġcrony": 23439,
    "Ġarrangement": 2659,
    "Ġintrospective": 20599,
    "Ġseparation": 11248,
    "sign": 8387,
    "Ġswell": 8949,
    "Ġtantalizing": 20412,
    "jar": 17577,
    "Ġenquired": 21937,
    "Ġenvironments": 24138,
    "Ġes": 8768,
    "Ġpressure": 13421,
    "Ġbroadway": 23981,
    "sprit": 11382,
    "Ġrambled": 20167,
    "alid": 13934,
    "Ġmarvel": 23031,
    "Ġwoke": 21288,
    "Ġpawnbroker": 13657,
    "rayed": 23562,
    "Ġweal": 21916,
    "Ġoakshott": 12227,
    "Ġsom": 1275,
    "icy": 6140,
    "Ġindicates": 3199,
    "Ġallowance": 14388,
    "Ġfrost": 6095,
    "Ġdwell": 5812,
    "estate": 12818,
    "Ġnavel": 24576,
    "Ġguide": 3221,
    "Ġslime": 23158,
    "Ġemergencies": 17361,
    "Ġcripp": 9653,
    "countenance": 6925,
    "Ġcolonies": 14374,
    "word": 2488,
    "je": 11495,
    "ations": 712,
    "Ġenigmatical": 20596,
    "Ġunthinkingly": 26220,
    "reward": 15508,
    "Ġdid": 836,
    "Ġantiquity": 15229,
    "Ġaust": 4871,
    "soles": 18687,
    "foundered": 20866,
    "Ġpossessed": 5195,
    "arying": 9800,
    "tery": 14036,
    "eties": 10837,
    "Ġfling": 9660,
    "dropping": 14981,
    "owing": 7601,
    "Ġ1846": 26084,
    "Ġmoth": 17802,
    "Ġinquired": 7485,
    "ipagos": 22363,
    "cell": 10685,
    "Ġje": 4123,
    "Ġunlock": 18243,
    "meth": 11502,
    "Ġreaching": 7303,
    "Ġdistributions": 1051,
    "gi": 17551,
    "Ġtri": 4813,
    "frankenstein": 11391,
    "august": 11071,
    "Ġduty": 4070,
    "Ġtransferred": 16467,
    "Ġopposition": 16520,
    "Ġredu": 1356,
    "Ġfrosts": 19801,
    "Ġriver": 5411,
    "Ġwrapping": 19774,
    "Ġphaet": 16316,
    "Ġplanet": 14749,
    "consent": 18501,
    "Ġmoulded": 16975,
    "Ġsimplicity": 2922,
    "Ġclifford": 22350,
    "Ġquarrel": 7292,
    "Ġhat": 2773,
    "Ġthree": 1371,
    "sand": 21051,
    "Ġsmacking": 20164,
    "Ġdoubloon": 6945,
    "Ġglad": 3328,
    "Ġripples": 25505,
    "Ġunsupp": 22018,
    "oyed": 14364,
    "drop": 15336,
    "Ġnapole": 15114,
    "Ġinnovative": 1624,
    "angle": 22098,
    "uge": 4014,
    "Ġfreedom": 9082,
    "Ġinstantaneously": 23659,
    "urious": 21700,
    "generosity": 23785,
    "Ġregain": 22566,
    "whar": 15925,
    "Ġroyalty": 19735,
    "Ġcomforters": 25800,
    "Ġobstinacy": 17420,
    "Ġbuckets": 17034,
    "icacy": 15655,
    "Ġunless": 4091,
    "Ġharem": 9708,
    "metal": 24765,
    "Ġenemies": 9038,
    "apparently": 15203,
    "Ġprogra": 1144,
    "Ġchildish": 13136,
    "Ġresolutely": 14609,
    "Ġdetect": 1264,
    "Ġgums": 21608,
    "Ġunmanner": 22026,
    "Ġmember": 8585,
    "domestic": 19824,
    "Ġchiswick": 25560,
    "Ġwinding": 8235,
    "Ġmarks": 6746,
    "Ġxxxii": 24970,
    "thed": 8826,
    "ricade": 13036,
    "image": 9685,
    "contents": 12056,
    "vy": 21106,
    "peril": 18343,
    "village": 25422,
    "hour": 7340,
    "bout": 20772,
    "Ġrival": 10485,
    "Ġconnected": 5393,
    "Ġterra": 13115,
    "bree": 15313,
    "Ġsuicide": 12783,
    "road": 6677,
    "Ġpar": 456,
    "osition": 1375,
    "Ġinsincere": 26599,
    "ego": 4035,
    "Ġcopies": 24935,
    "Ġunremitting": 26217,
    "egypt": 15348,
    "tender": 14472,
    "Ġpertur": 12847,
    "Ġvirtue": 4922,
    "racing": 21628,
    "assumed": 22304,
    "conclude": 24063,
    "aby": 18106,
    "Ġexcluded": 16383,
    "occupations": 24964,
    "Ġcath": 17826,
    "Ġsoundings": 13132,
    "rible": 3232,
    "Ġtalked": 4421,
    "Ġphantoms": 13485,
    "Ġsquid": 11876,
    "Ġat": 395,
    "tra": 4934,
    "Ġobstacle": 16955,
    "storm": 9681,
    "Ġsmiles": 6706,
    "Ġcompared": 2226,
    "Ġnearly": 3364,
    "Ġreluct": 14370,
    "jee": 17579,
    "opÃ¦": 12869,
    "pursued": 17281,
    "Ġendured": 6072,
    "roll": 9196,
    "hounds": 20906,
    "Ġsequel": 14356,
    "surd": 6934,
    "lord": 3864,
    "Ġpurposes": 11168,
    "stirring": 20424,
    "Ġespecial": 26410,
    "Ġst": 332,
    "Ġcarry": 4779,
    "Ġgrant": 11871,
    "Ġsignificance": 13278,
    "Ġflatter": 9347,
    "Ġsubsiding": 23432,
    "altern": 17941,
    "nonsense": 17615,
    "lorn": 12485,
    "Ġolfactories": 26171,
    "newsp": 23130,
    "ectual": 21912,
    "Ġagain": 814,
    "agree": 14066,
    "establishment": 26113,
    "oot": 13764,
    "Ġunforeseen": 22050,
    "Ġimbib": 22172,
    "olera": 21830,
    "racts": 14354,
    "Ġwildness": 14603,
    "support": 9469,
    "Ġdupl": 9953,
    "plied": 10255,
    "continually": 11302,
    "prep": 9758,
    "Ġaggreg": 12881,
    "Ġstiffness": 24830,
    "Ġconsume": 12956,
    "Ġstubb": 1785,
    "âĢĻ": 378,
    "Ġparasol": 22118,
    "Ġeagle": 13199,
    "came": 4571,
    "Ġinfl": 6893,
    "sciss": 18849,
    "feared": 11800,
    "Ġoptimal": 1856,
    "Ġtint": 13816,
    "Ġwat": 1286,
    "Ġadded": 2718,
    "Ġeveryone": 8917,
    "pil": 15407,
    "felicity": 25140,
    "Ġchurches": 12824,
    "Ġacres": 14312,
    "isite": 15560,
    "Ġidiotic": 25588,
    "saving": 21058,
    "Ġinnermost": 12158,
    "cst": 10084,
    "Ġcannib": 6035,
    "acup": 14277,
    "Ġspoilt": 24807,
    "Ġboundless": 10495,
    "Ġcups": 16882,
    "Ġabsorbing": 17128,
    "Ġmontan": 22973,
    "Ġscepticism": 25927,
    "impart": 21706,
    "Ġjuncture": 17129,
    "Ġ118": 19697,
    "Ġmungo": 25631,
    "Ġconfusing": 23305,
    "remem": 13064,
    "Ġdazed": 15593,
    "silenced": 24423,
    "Ġcontro": 1686,
    "Ġuser": 15913,
    "forks": 26387,
    "Ġhol": 1183,
    "Ġconductor": 24004,
    "Ġsust": 7006,
    "Ġans": 1644,
    "fortune": 4975,
    "Ġaforethought": 25428,
    "--âĢĺ": 22843,
    "Ġexhaustion": 14960,
    "Ġtrue": 1341,
    "Ġconvivial": 16547,
    "Ġamber": 7026,
    "monkey": 19169,
    "eness": 2291,
    "Ġendow": 23140,
    "Ġsongs": 13419,
    "Ġwidespread": 20674,
    "Ġunusually": 15844,
    "Ġcreatures": 4137,
    "ord": 666,
    "Ġfrench": 4939,
    "Ġcontingency": 26244,
    "linearity": 1649,
    "Ġmurderer": 4980,
    "Ġpastures": 23418,
    "Ġmanip": 8871,
    "vis": 4578,
    "Ġwould": 651,
    "Ġleech": 24154,
    "mechanically": 17299,
    "L": 48,
    "enthus": 17977,
    "Ġprair": 7746,
    "Ġpiqu": 21475,
    "Ġfailing": 12135,
    "comp": 3814,
    "Ġdistressed": 8514,
    "Ġcustoms": 19651,
    "Ġseams": 12122,
    "Ġshrieks": 12197,
    "dimensional": 2348,
    "ancing": 1759,
    "kl": 4865,
    "embedding": 20703,
    "ifled": 14062,
    "torture": 26151,
    "intention": 10367,
    "pile": 17629,
    "tube": 20409,
    "Ġinnocent": 4921,
    "ected": 7872,
    "Ġought": 3420,
    "Ġneuron": 1808,
    "Ġjinglers": 26018,
    "wreat": 21126,
    "bud": 10682,
    "deacon": 22144,
    "Ġpang": 15602,
    "suspected": 12370,
    "spin": 22729,
    "Ġsensible": 4976,
    "Ġstretched": 5919,
    "Ġreveren": 13194,
    "Ġbears": 6829,
    "quar": 7615,
    "istry": 22106,
    "flight": 15351,
    "Ġrob": 1295,
    "Ġscoundrel": 13669,
    "uneasy": 23685,
    "gre": 5788,
    "Ġsympathy": 6346,
    "Ġpresume": 8037,
    "Ġgaping": 13968,
    "Ġpretended": 19313,
    "smile": 23903,
    "Ġmonument": 16235,
    "net": 1196,
    "Ġstiffest": 24829,
    "Ġexpanded": 14289,
    "Ġconven": 6151,
    "ourage": 2450,
    "Ġrewarding": 13436,
    "ked": 5616,
    "quarter": 11388,
    "Ġeu": 6390,
    "Ġincredible": 9514,
    "Ġabide": 14187,
    "Ġvirgin": 7328,
    "iel": 11493,
    "Ġcreases": 22721,
    "Ġearning": 23938,
    "Ġofficer": 6753,
    "Ġbegrim": 23012,
    "at": 268,
    "treacle": 25148,
    "pen": 1204,
    "structure": 2254,
    "Ġswept": 7977,
    "Ġimped": 18442,
    "pow": 10717,
    "Ġlecture": 13566,
    "zening": 21147,
    "Ġforemast": 12004,
    "Ġfairness": 9893,
    "Ġcloud": 3910,
    "Ġsaleve": 17390,
    "gee": 15975,
    "tick": 17678,
    "Ġconfusion": 7273,
    "Ġclap": 10956,
    "_âĢĶâĢĻ": 13681,
    "Ġthe": 270,
    "Ġaccomplished": 7104,
    "boys": 13358,
    "Ġvortex": 26208,
    "Ġund": 4119,
    "Ġinsatiable": 19271,
    "empl": 5724,
    "ically": 848,
    "lemency": 21372,
    "Ġgate": 6825,
    "oned": 4631,
    "alously": 15626,
    "Ġvacantly": 16815,
    "Ġlandsc": 11146,
    "Ġlucerne": 23862,
    "Ġbowl": 11203,
    "Ġchoked": 9263,
    "Ġimitated": 18329,
    "suitableness": 26260,
    "publ": 17638,
    "sentimental": 25681,
    "fortun": 3538,
    "ees": 13710,
    "Ġfinding": 3269,
    "tack": 12510,
    "Q": 53,
    "Ġell": 17715,
    "Ġsanta": 26420,
    "Ġyon": 9692,
    "pray": 5429,
    "Ġunconditional": 15842,
    "Ġhopeful": 19028,
    "renadier": 18419,
    "Ġbuild": 6474,
    "Ġcathedral": 17412,
    "Ġbrig": 11047,
    "tem": 6369,
    "Ġvolition": 14797,
    "Ġzero": 1202,
    "Ġcontinued": 2921,
    "Ġdevelopments": 23247,
    "feit": 16040,
    "Ġherd": 7887,
    "cry": 12443,
    "construction": 19777,
    "inferences": 17739,
    "Ġbricks": 13561,
    "itical": 5801,
    "tooth": 18579,
    "Ġits": 706,
    "Ġeagerness": 6608,
    "Ġcannibal": 7773,
    "Ġensue": 18190,
    "Ġsordid": 26422,
    "matic": 4619,
    "terdam": 18129,
    "Ġmillion": 14986,
    "Ġpulley": 2976,
    "Ġundec": 22016,
    "Ġsensibly": 14513,
    "Ġdark": 2112,
    "itiousness": 21332,
    "avo": 8517,
    "alas": 8803,
    "adventures": 20255,
    "erde": 21267,
    "Ġtrade": 2549,
    "corpse": 24486,
    "Ġtwice": 4662,
    "Ġprofusion": 23567,
    "Ġuncivil": 11155,
    "Ġorgans": 15863,
    "verdict": 21726,
    "Ġdiabolically": 25513,
    "haut": 20901,
    "verest": 13990,
    "Ġmystical": 12130,
    "Ġjoes": 19230,
    "urried": 21701,
    "flag": 14710,
    "Ġlungs": 8361,
    "Ġinstructed": 19283,
    "windward": 24160,
    "Ġwerter": 15238,
    "raising": 21629,
    "comra": 16173,
    "glit": 23848,
    "outer": 9668,
    "Ġhollowly": 24526,
    "Ġdem": 11673,
    "vously": 23504,
    "Ġurgent": 16869,
    "smoking": 23908,
    "Ġwish": 2097,
    "Ġflorid": 17135,
    "autions": 20766,
    "Ġdenny": 9001,
    "Ġminority": 18752,
    "Ġweakness": 9966,
    "B": 38,
    "planted": 11696,
    "Ġinhabit": 5782,
    "Ġofficers": 4426,
    "Ġmoluccas": 25629,
    "Ġprim": 8243,
    "gentleman": 7518,
    "ate": 421,
    "Ġknows": 4159,
    "Ġspecies": 5112,
    "Ġstruck": 3391,
    "Ġbroiled": 18908,
    "Ġturkey": 19219,
    "follow": 5680,
    "Ġstrenuously": 17447,
    "):": 11461,
    "Ġhandful": 9781,
    "Ġstoner": 7178,
    "Ú": 155,
    "landsmen": 25059,
    "Ġpaddington": 17095,
    "Ġche": 1763,
    "azore": 23461,
    "Ġdisgraceful": 15019,
    "irresist": 21909,
    "ieth": 10704,
    "one": 614,
    "Ġhappy": 2465,
    "al": 292,
    "Ġdick": 3497,
    "Ġquestioning": 10464,
    "wam": 10135,
    "Ġsentin": 16370,
    "Ġspermacetti": 19049,
    "Ġrepe": 3284,
    "Ġdefection": 22939,
    "val": 1164,
    "unning": 4494,
    "Ġmethinks": 10390,
    "arch": 1116,
    "Ġxiv": 23406,
    "Ġcostume": 16495,
    "separated": 20158,
    "love": 9293,
    "Ġemotion": 7689,
    "contrast": 25594,
    "Ġreveal": 11199,
    "Ġunsavory": 20706,
    "aggo": 5097,
    "Ġtrait": 23071,
    "lucases": 20209,
    "Ġhole": 6079,
    "provid": 11149,
    "Ġsurv": 6081,
    "Ġaltitude": 26202,
    "Ġinfrequent": 3822,
    "Ġcoer": 22578,
    "Ġstreatham": 17448,
    "usage": 12830,
    "represented": 20194,
    "Ġcell": 6237,
    "response": 25762,
    "Ġegyptians": 25289,
    "Ġbath": 9658,
    "shore": 10305,
    "iqu": 7802,
    "Ġswallow": 8950,
    "iters": 21327,
    "Ġprotested": 9933,
    "Ġfirm": 3870,
    "Ġbountiful": 25944,
    "Ġidentical": 10434,
    "Ġseverity": 15815,
    "leep": 4635,
    "Ġprophes": 16347,
    "osure": 5306,
    "Ġmaimed": 21315,
    "Ġspoke": 2748,
    "monograph": 23526,
    "Ġboughs": 20487,
    "Ġbeautifully": 13265,
    "Ġcurds": 22999,
    "circumstance": 7763,
    "ult": 722,
    "Ġshoot": 11161,
    "Ġreturned": 2891,
    "Ġ36": 14766,
    "listened": 15043,
    "Ġ(": 594,
    "Ġscandal": 9081,
    "scrape": 25698,
    "ĠâĢĶ_": 3459,
    "Ġaids": 12226,
    "loun": 17588,
    "Ġceiling": 7996,
    "mir": 20962,
    "ece": 17531,
    "Ġtrains": 10947,
    "Ġheaviest": 23322,
    "cats": 17512,
    "Ġyea": 8915,
    "Ġwar": 5526,
    "Ġblossom": 26312,
    "involved": 25626,
    "Ġmizen": 17258,
    "<PAD>": 0,
    "Ġexacted": 23605,
    "Ġconst": 1910,
    "maul": 11890,
    "Ġsill": 10765,
    "Ġworth": 4417,
    "mil": 13751,
    "Ġg": 310,
    "variety": 23182,
    "eric": 3470,
    "Ġsponge": 26003,
    "Ġcampa": 17173,
    "eskye": 21448,
    "Ġappeal": 16313,
    "degra": 22138,
    "Ġexpression": 4516,
    "Ġinaccessible": 13933,
    "Ġrepining": 23358,
    "handled": 19260,
    "Ġisrael": 21800,
    "Ġyarman": 12702,
    "Ġforfeit": 21772,
    "ved": 869,
    "passed": 8025,
    "ech": 4390,
    "likelihood": 4992,
    "filled": 9594,
    "fare": 7798,
    "Ġdisobey": 18559,
    "ĠĠĠĠĠĠĠĠĠĠĠĠĠĠĠĠĠĠĠĠĠĠĠĠĠĠĠĠĠĠĠĠĠĠĠĠĠĠĠĠĠĠĠĠĠĠĠĠĠ": 20036,
    "Ġoperation": 11997,
    "Ġhill": 5626,
    "rabb": 15677,
    "Ġadditional": 7935,
    "Ġstalked": 20427,
    "west": 10739,
    "Ġservox": 23868,
    "Ġdeclaring": 19418,
    "aton": 21257,
    "Ġpanic": 11286,
    "Ġfif": 4216,
    "Ġpeaks": 16126,
    "Ġruskin": 25808,
    "Ġalley": 15733,
    "magistrate": 19862,
    "Ġviews": 7290,
    "Ġuncivilized": 25498,
    "Ġdragging": 14476,
    "Ġvict": 3761,
    "Ġverge": 23885,
    "Ġappo": 8498,
    "aits": 20765,
    "Ġmade": 1048,
    "Ġdescended": 7428,
    "Ġinexper": 16980,
    "solution": 14686,
    "tap": 17676,
    "Ġtortures": 14922,
    "Ġcrew": 2497,
    "aste": 4602,
    "parad": 16394,
    "Ġtribe": 10751,
    "poured": 17637,
    "Ġmalady": 24392,
    "Ġsnugly": 17111,
    "ce": 313,
    "original": 9084,
    "Ġtist": 21161,
    "whom": 8184,
    "Ġheartfelt": 18967,
    "Ġpangs": 15612,
    "successively": 24779,
    "cater": 20814,
    "Ġlodged": 11252,
    "Ġasi": 12729,
    "Ġmetropolitan": 17275,
    "extraordinary": 9094,
    "ouring": 6421,
    "falsehood": 25901,
    "Ġlowering": 7986,
    "Ġsituated": 9446,
    "Ġeating": 8135,
    "unavoid": 14061,
    "Ġprinciples": 10010,
    "cery": 20807,
    "mb": 919,
    "serpent": 16290,
    "Ġhere": 1091,
    "Ġdizzy": 21430,
    "izz": 7613,
    "Ġfift": 6382,
    "gl": 3294,
    "Ġcorrect": 2431,
    "Ġlbs": 11614,
    "ources": 2789,
    "Ġslew": 23381,
    "ċ": 204,
    "Ġthanked": 9457,
    "Ġdetained": 18386,
    "Ġleghorn": 13145,
    "Ġfool": 4236,
    "kins": 7345,
    "13": 20749,
    "apart": 15959,
    "Ġjago": 22296,
    "Ġdispose": 23877,
    "Ġpyth": 21459,
    "Ġfield": 1230,
    "learn": 2275,
    "cousin": 10652,
    "Ġexotic": 21828,
    "Ġmiz": 10777,
    "icha": 11736,
    "Ġfinal": 5400,
    "Ġtrail": 16281,
    "Ġetc": 7084,
    "iated": 5889,
    "banked": 25337,
    "Ġvertebra": 20180,
    "Ġalso": 1346,
    "hood": 2661,
    "bedroom": 14676,
    "Ġkiller": 19567,
    "ago": 14064,
    "dire": 15335,
    "atoes": 17775,
    "Ġbespeaking": 26310,
    "mush": 20976,
    "Ġdirections": 1970,
    ",âĢĻ": 2328,
    "Ġbewildered": 15212,
    "Ġlately": 6387,
    "mysterious": 26052,
    "Ġimpetuous": 25570,
    "consider": 6348,
    "Ġsituations": 10491,
    "ishe": 13890,
    "Ġfundament": 2925,
    "perpet": 14163,
    "Ġwheeling": 18288,
    "playful": 24357,
    "engthen": 14456,
    "Ġtargets": 4204,
    "Ġclad": 12836,
    "Ġspades": 12793,
    "Ġsagittarius": 24732,
    "wled": 15453,
    "Ġagric": 22511,
    "Ġwaned": 17791,
    "pening": 2833,
    "Ġfactor": 19012,
    "Ġtremendous": 8352,
    "Ġenchanted": 9080,
    "Ġdusty": 14924,
    "Ġattitude": 8903,
    "Ġpreserving": 19795,
    "Ġdepression": 21838,
    "Ġslaught": 23164,
    "Ġmimic": 3144,
    "Ġconfused": 7963,
    "Ġriddle": 14819,
    "inde": 17731,
    "Ġnot": 413,
    "perform": 15899,
    "unbe": 21869,
    "etch": 9204,
    "Ġfing": 3755,
    "fields": 14653,
    "Ġstudent": 14475,
    "Ġguernsey": 9350,
    "english": 2775,
    "Ġ48": 24078,
    "allowed": 5728,
    "following": 10572,
    "đ": 210,
    "Ġmounting": 19975,
    "Ġillness": 8589,
    "Ġcopper": 7425,
    "Ġgifted": 17996,
    "rison": 13778,
    "Ġreporting": 24657,
    "Ġubiquitous": 26195,
    "rope": 3187,
    "Ġpreface": 18367,
    "omet": 3075,
    "Ġsnarled": 25716,
    "possibly": 10543,
    ".--": 20745,
    "irms": 18168,
    "R": 54,
    "Ġbrisk": 9802,
    "Ġjib": 14193,
    "Ġadopted": 15177,
    "Ġshock": 6082,
    "Ġdefer": 18822,
    "Ġbawling": 25945,
    "Ġcha": 6853,
    "Ġstreets": 5863,
    "Ġsanct": 15062,
    "Ġconvergence": 974,
    "Ġlegisl": 23534,
    "ato": 17769,
    "Ġrichness": 19309,
    "wing": 2521,
    "vens": 21111,
    "Ġcongenial": 12409,
    "sensations": 20049,
    "Ġaugment": 8691,
    "Ġtumbled": 13405,
    "osures": 22258,
    "cutting": 23783,
    "stri": 6249,
    "Ġharder": 14448,
    "despairing": 25074,
    "frequented": 25900,
    "Ġaffronted": 22891,
    "Ġsaid": 577,
    "unusually": 15777,
    "ges": 2874,
    "Ġexpecting": 10436,
    "unsuitable": 21890,
    "Ġdiscrete": 2476,
    "Ġconvul": 13200,
    "ems": 5235,
    "Ġsitt": 21216,
    "plentiful": 21959,
    "Ġimpud": 18444,
    "Ġsuns": 23271,
    "atmospheric": 17776,
    "Ġsurprising": 14597,
    "flitted": 23966,
    "glances": 23851,
    "Ġtheories": 13848,
    "Ġsuspending": 19243,
    "Ġfolks": 14425,
    "Ġmarchant": 14785,
    "uttle": 6247,
    "Ġdig": 6135,
    "ensities": 22543,
    "Ġestimate": 19371,
    "Ġinteresting": 4327,
    "Ġrugged": 18719,
    "sofa": 26146,
    "Ġclings": 15961,
    "Ġtreats": 19342,
    "Ġcurrents": 13021,
    "testing": 12514,
    "Ġro": 601,
    "Ġvolcano": 24146,
    "Ġthings": 1961,
    "command": 6576,
    "rally": 17651,
    "mult": 8747,
    "lested": 14882,
    "enjoy": 10774,
    "Ġpredef": 18523,
    "ena": 11567,
    "Ġgreenhorn": 23767,
    "Ġspecimen": 13016,
    "Ġgodfre": 14529,
    "Ġmotionless": 8323,
    "example": 16011,
    "Ġpeaking": 22687,
    "Ġducks": 25157,
    "Ġgods": 6454,
    "Ġsanguine": 25928,
    "bask": 20775,
    "Ġlick": 21547,
    "Ġperformer": 18754,
    "ining": 3226,
    "Ġangelic": 19626,
    "doublo": 24660,
    "Ġsour": 21215,
    "innacle": 7519,
    "Ġconvention": 25546,
    "Ġabst": 9265,
    "Ġrinal": 21974,
    "Ġweakened": 16823,
    "itic": 11577,
    "Ġbead": 21747,
    "Ġbeards": 21748,
    "Ġcour": 1768,
    "Ġhorizontal": 7782,
    "conv": 7213,
    "Ġadvancing": 6877,
    "Ġlatitude": 8328,
    "thouse": 21979,
    "ĠĠĠĠĠĠĠĠĠĠĠĠĠĠĠĠĠĠĠĠĠĠĠĠĠĠĠ": 14885,
    "Ġgovernesses": 25127,
    "Ġtwinkling": 12322,
    "Ġrashness": 25460,
    "Ġplied": 22594,
    "ifting": 6545,
    "Ġheave": 7599,
    "flu": 9117,
    "Ġpiping": 23243,
    "ade": 881,
    "Ġconsec": 21802,
    "Ġmidway": 14604,
    "Ġhemisphere": 26478,
    "Ġneighbors": 25804,
    "Ġreplaced": 13070,
    "Ġneglected": 10377,
    "congenial": 25399,
    "Ġincoherent": 17399,
    "Ġpasses": 2681,
    "Ġsmoky": 22555,
    "Ġthirst": 7589,
    "Ġcontour": 18474,
    "Ġplanning": 14750,
    "Ġcensure": 15094,
    "inting": 9813,
    "Ġunwound": 25169,
    "Ġtransparen": 10541,
    "aire": 10680,
    "motives": 26137,
    "Ġidiot": 11970,
    "Ġcheerless": 16694,
    "Ġespe": 21154,
    "Ġexceptionable": 25503,
    "Ġrokovoko": 22403,
    "eline": 2479,
    "undertaking": 23786,
    "Ġrap": 14303,
    "Ġfight": 5366,
    "âĢľâĢĻ": 10221,
    "yn": 7819,
    "Ġunreliable": 3927,
    "belong": 12120,
    "useless": 14594,
    "itative": 13869,
    "roused": 16652,
    "immense": 18052,
    "Ġergo": 25029,
    "Ġmemories": 14541,
    "Ġbuoyancy": 20040,
    "Ġhelped": 7459,
    "narrow": 11507,
    "Ġpout": 17906,
    "Ġsurrounding": 12160,
    "Ġaccommodate": 20515,
    "Ġwarriors": 19722,
    "Ġcheshire": 13088,
    "Ġsavi": 18325,
    "former": 11746,
    "è": 169,
    "Ġreliability": 22879,
    "Ġanalyze": 1589,
    "fuller": 22495,
    "waste": 21133,
    "Ġcheers": 16364,
    "Ġ(âĢľ": 15993,
    "yourselves": 24956,
    "Ġabruptness": 25299,
    "Ġcharacteristics": 8609,
    "gaffman": 26390,
    "unteered": 26495,
    "otam": 21795,
    "Ġcoldly": 14650,
    "smitten": 23906,
    "ping": 9615,
    "Ġlif": 10195,
    "Ġutilize": 4798,
    "orts": 2557,
    "ı": 242,
    "Ġstanders": 19014,
    "oon": 6364,
    "Ġcastles": 16639,
    "Ġfix": 2510,
    "Ġunnatural": 7190,
    "windows": 19533,
    "Ġskil": 14351,
    "Ġfarthest": 23113,
    "vices": 21115,
    "ure": 356,
    "sighted": 19784,
    "agitation": 14067,
    "enchant": 21282,
    "believing": 19460,
    "Ġrans": 21963,
    "Ġgrowth": 14629,
    "Ġaband": 6561,
    "Ġnineveh": 13388,
    "Y": 61,
    "Ġindiscriminately": 20626,
    "erate": 7149,
    "Ġindispens": 22951,
    "tempt": 21078,
    "god": 4863,
    "Ġcongratulate": 9063,
    "Ġasks": 5115,
    "Ġcontinuing": 14396,
    "Ġexempl": 21827,
    "coach": 23559,
    "Ġsands": 14947,
    "ind": 568,
    "mankind": 14373,
    "teeth": 10355,
    "Ġaverse": 11080,
    "Ġoverwhelming": 17102,
    "kindly": 14743,
    "Ġexisted": 15750,
    "Ġsegmentation": 17339,
    "Ġcomparison": 7099,
    "Ġheedfulness": 24522,
    "Ġhailed": 6407,
    "Ġlard": 13946,
    "cim": 8719,
    "mering": 12488,
    "sur": 4523,
    "Ġemploy": 3614,
    "Ġcandles": 9907,
    "Ġwatches": 11081,
    "Ġfamil": 4322,
    "Ġinterpre": 1587,
    "Ġwert": 12553,
    "Ġdefilements": 26284,
    "Ġcry": 3496,
    "Ġcontrived": 10303,
    "Ġcaul": 10787,
    "Ġparaphrasing": 26526,
    "Ġinsight": 16530,
    "Ġexhilar": 19682,
    "Ġboarded": 13232,
    "Ġkicking": 16901,
    "Ġfingers": 5672,
    "ceptible": 10958,
    "ach": 435,
    "Ġdistension": 22501,
    "Ġdefine": 9814,
    "Ġgleams": 17309,
    "Ġprovocation": 24191,
    "Ġcyn": 13885,
    "whilst": 18371,
    "Ġacquiescence": 20329,
    "Ġdeclined": 9920,
    "nue": 15396,
    "Ġcomputes": 4768,
    "ces": 578,
    "Ġm": 274,
    "!âĢĶâĢĻ": 23564,
    "Ġmiddle": 4138,
    "grate": 23410,
    "Ġbarbarous": 13475,
    "Ġdisse": 18548,
    "Ġoverpower": 12839,
    "Ġangry": 5498,
    "Ġlargest": 6282,
    "Ġalarm": 4047,
    "unc": 15766,
    "Ġconfinement": 19039,
    "Ġ123": 24468,
    "Ġpast": 2098,
    "Ġ235": 25713,
    "get": 1021,
    "stool": 23817,
    "Ġwe": 387,
    "paper": 9136,
    "Ġcharming": 6628,
    "historian": 25735,
    "Ġprendergast": 26537,
    "wond": 8767,
    "Ġjourneying": 25565,
    "pra": 15406,
    "prince": 23812,
    "21": 10071,
    "orial": 8416,
    "Ġreptile": 15276,
    "ilder": 15710,
    "Ġfearfulness": 23513,
    "Ġspouter": 12795,
    "Ġwashing": 9704,
    "Ġprocessing": 875,
    "Ġkuiperai": 10935,
    "Ġbuzz": 23994,
    "Ġgrass": 5177,
    "prof": 7698,
    "Ġexactness": 23606,
    "Ġcounterbalance": 24722,
    "Ġjove": 9267,
    "Ġrings": 11698,
    "Ġgratifying": 13304,
    "Ġforest": 9870,
    "Ġweapon": 7775,
    "atiable": 17774,
    "Ġpleadings": 25852,
    "eaten": 20343,
    "matlock": 23470,
    "mouse": 15391,
    "Ġpassion": 4557,
    "ultural": 22565,
    "ality": 2514,
    "Ġsultanism": 25888,
    "Ġcarrying": 6071,
    "Ġsewing": 21951,
    "swing": 15428,
    "Ġtoiled": 12639,
    "kick": 20935,
    "aples": 20767,
    "tremendous": 20672,
    "Ġwere": 556,
    "Ġtopsails": 19193,
    "vered": 4830,
    "Ġprob": 970,
    "Ġgenerally": 4157,
    "pipe": 8696,
    "Ġret": 1382,
    "theless": 4262,
    "Ġsprings": 16687,
    "Ġspake": 18308,
    "Ġ177": 13411,
    "Ġshortness": 23482,
    "Ġmoonshine": 19596,
    "omics": 21640,
    "Ġsword": 6732,
    "tallow": 21084,
    "Ġlonger": 3361,
    "Ġbowsprit": 16560,
    "next": 5891,
    "Ġjudged": 12081,
    "Ġsolicitude": 10039,
    "giana": 7800,
    "Ġbelike": 18829,
    "generations": 23784,
    "mature": 20966,
    "Ġbildad": 3779,
    "Ġlines": 4534,
    "Ġpaddles": 15146,
    "Ġwretch": 6378,
    "ners": 3275,
    "liable": 3816,
    "Ġterminated": 23509,
    "bingleys": 19633,
    "asiness": 8128,
    "Ġadam": 2127,
    "Ġtrampled": 20327,
    "Ġecon": 9677,
    "stairs": 5155,
    "Ġinconsistency": 26182,
    "an": 278,
    "Ġmixture": 9562,
    "shoulders": 16584,
    "Ġpipe": 4323,
    "Ġexcl": 3474,
    "ipl": 20917,
    "Ġfinery": 23122,
    "Ġeurope": 8061,
    "Ġjealous": 9468,
    "anel": 21355,
    "Ġweeps": 24947,
    "iness": 1281,
    "Ġwrecks": 16818,
    "disappeared": 14570,
    "Ġbutton": 10267,
    "baron": 24925,
    "Ġrequesting": 24632,
    "Ġbulb": 23853,
    "Ġconcerns": 11966,
    "Ġspeeding": 23563,
    "retch": 4372,
    "propagation": 1268,
    "Ġankles": 17899,
    "Ġarranging": 11174,
    "Ġsubs": 2130,
    "Ġaccents": 14210,
    "Ġabsolutely": 4857,
    "Ġdoc": 7200,
    "appeared": 4283,
    "Ġquebec": 24131,
    "Ġlunatic": 24990,
    "Ġundaunted": 24118,
    "vess": 7354,
    "Ġentailed": 11027,
    "Ġbankrupt": 16796,
    "Ġheadsman": 13272,
    "two": 3858,
    "Ġheron": 22070,
    "pleasantness": 19769,
    "Ġlighted": 7063,
    "Ġindian": 4131,
    "nervous": 16276,
    "ably": 1847,
    "Ġdash": 8121,
    "Ġseizing": 7876,
    "Ġhour": 1811,
    "Ġstubbornness": 25380,
    "Ġrich": 2993,
    "drawn": 9912,
    "Ġgazing": 5875,
    "Ġcelebrate": 26357,
    "Ġodd": 6624,
    "ittleness": 22373,
    "Ġtongues": 14862,
    "Ġapproximation": 2341,
    "Ġporch": 19679,
    "Ġfore": 2152,
    "Ġwildest": 16510,
    "Ġenlightened": 12743,
    "Ġconfeder": 25708,
    "Ġtherein": 11774,
    "Ġcard": 7363,
    "devouring": 24950,
    "Ġproperties": 3119,
    "Ġcommunion": 19007,
    "Ġprocedure": 2811,
    "hew": 5364,
    "Ġabsurdities": 24878,
    "Ġtrying": 4838,
    "Ġbomb": 17867,
    "Ġdemanding": 16805,
    "Ġmessages": 24981,
    "Ġdrawn": 4277,
    "admiration": 11387,
    "Ġpia": 21462,
    "ellation": 12746,
    "Ġwer": 12549,
    "Ġ75": 19611,
    "Ġturnkeys": 23026,
    "Ġsnuffed": 15071,
    "ifts": 12732,
    "Ġpallidness": 25604,
    "Ġfow": 6133,
    "Ġmed": 3984,
    "vap": 13802,
    "Ġbeside": 5192,
    "Ġshivered": 14107,
    "la": 10705,
    "fen": 20849,
    "ified": 3231,
    "Ġseven": 4542,
    "oder": 2459,
    "Ġork": 18284,
    "Ġstrolled": 16770,
    "Ġpropag": 16346,
    "Ġdoran": 9179,
    "end": 504,
    "succeed": 10329,
    "Ġglories": 16236,
    "Ġretained": 7173,
    "Ġomit": 17815,
    "Ġ1671": 25005,
    "Ġtents": 13817,
    "Ġsacrificial": 24871,
    "Ġcant": 17824,
    "Ġbuying": 23993,
    "eel": 11483,
    "Ġof": 298,
    "Ġ16": 7926,
    "Ġlens": 8437,
    "Ġlap": 8436,
    "Ġconversation": 3332,
    "Ġbacked": 12923,
    "Ġwakes": 11571,
    "Ġsmoothed": 23658,
    "Ġfoss": 9848,
    "Ġserved": 8245,
    "Ġintrepid": 11703,
    "Ġstrugg": 3222,
    "Ġunspeakable": 10055,
    "opement": 10311,
    "lur": 13746,
    "Ġours": 4613,
    "Ġunfelt": 24109,
    "proved": 11985,
    "Ġremonstrate": 22790,
    "Ġtiles": 17726,
    "taste": 10129,
    "Ġblasted": 7937,
    "Ġcharacteristic": 12046,
    "shelf": 20379,
    "ounix": 14158,
    "Ġflapp": 23005,
    "Ġbrook": 13045,
    "Ġlandsmen": 11351,
    "fresh": 13391,
    "Ġconsulted": 13429,
    "Ġhurried": 4031,
    "Ġporpoise": 7106,
    "Ġequal": 4135,
    "card": 11475,
    "Ġgra": 415,
    "Ġcrashes": 13124,
    "Ġrocking": 10969,
    "furthest": 19840,
    "Ġshare": 1657,
    "arming": 8951,
    "Ġintens": 7003,
    "embraces": 25805,
    "Ġreigning": 15698,
    "Ġimperfectly": 25727,
    "Ġundecided": 22045,
    "Ġharvard": 24573,
    "Ġface": 1722,
    "Ġowest": 25091,
    "Ġaddressed": 5262,
    "Ġposterity": 17401,
    "Ġarrant": 23295,
    "Ġbiases": 2397,
    "friend": 3862,
    "fth": 20855,
    "Ġserpent": 6737,
    "sh": 642,
    "Ġblowing": 10484,
    "Ġcolourless": 19568,
    "Ġtiresome": 26156,
    "ports": 13773,
    "Ġchick": 22244,
    "ics": 3261,
    "mechan": 11855,
    "dancing": 12452,
    "54": 15298,
    "Ġvibrated": 25045,
    "Ġrecords": 12193,
    "appropri": 22838,
    "Ġfeigned": 22204,
    "Ġvolat": 24143,
    "across": 10324,
    "Ġted": 13811,
    "Ġpursued": 6328,
    "fortunate": 4792,
    "Ġparading": 23709,
    "Ġwrap": 24594,
    "Ġaltered": 7393,
    "Ġquito": 24408,
    "gration": 9121,
    "equ": 6790,
    "daughter": 8353,
    "Ġhours": 2821,
    "scence": 14414,
    "retrospect": 23135,
    "Ġpaddling": 25285,
    "Ġforeb": 12002,
    "compan": 7301,
    "uring": 818,
    "Ġ76": 24262,
    "Ġcurving": 16243,
    "rel": 3752,
    "Ġplane": 11821,
    "Ġbosom": 6939,
    "Ġapprised": 18361,
    "Ġpantry": 20294,
    "leads": 21368,
    "its": 1150,
    "tahit": 17692,
    "Ġwishes": 4795,
    "izers": 18134,
    "Ġwearily": 18177,
    "Ġmoral": 6578,
    "Ġpopular": 6216,
    "Ġstraight": 3700,
    "ax": 693,
    "ĠâĢľâĢĺ_": 25111,
    "Ġiceberg": 14715,
    "present": 1138,
    "inquiries": 13576,
    "Ġdeafened": 25651,
    "Ġwid": 4633,
    "snowy": 20282,
    "Ġmounttop": 19976,
    "Ġswap": 23049,
    "gen": 6503,
    "Ġgrap": 11705,
    "Ġpaced": 7583,
    "icil": 17971,
    "Ġperforms": 11875,
    "desponding": 26341,
    "Ġcoroner": 7510,
    "phology": 3007,
    "Ġnibbling": 17384,
    "Ġreject": 7386,
    "Ġobstacles": 19834,
    "Ġhapless": 15810,
    "Ġfirmness": 11238,
    "Ġnotwithstanding": 9713,
    "Ġwhereof": 16100,
    "Ġteaches": 18802,
    "Ġlevi": 3033,
    "Ġbeat": 4492,
    "Ġgets": 10839,
    "amplified": 26494,
    "Ġpostp": 12141,
    "Ġoftener": 13564,
    "Ġaccess": 9746,
    "likes": 18814,
    "Ġpigeon": 9515,
    "Ġtalks": 23368,
    "Ġforget": 2637,
    "intend": 16223,
    "Ġvigilant": 20183,
    "encies": 4081,
    "Ġfired": 16152,
    "works": 6588,
    "valley": 16213,
    "Ġwand": 4343,
    "huzza": 20912,
    "standing": 5558,
    "Ġ[_": 15460,
    "ieged": 22577,
    "jonah": 11496,
    "Ġequally": 5257,
    "Ġforeign": 9871,
    "Ġdrifted": 14625,
    "Ġtranqu": 4606,
    "Ġstabilizing": 3655,
    "backward": 2685,
    "Ġwinc": 9642,
    "Ġwilt": 9643,
    "Ġrighteous": 18945,
    "Ġwise": 6811,
    "replied": 11565,
    "Ġattendance": 12179,
    "Ġfar": 1451,
    "Ġloving": 8175,
    "Ġ120": 16858,
    "pect": 1249,
    "iop": 20918,
    "Ġaccusation": 22377,
    "eryton": 4094,
    "Ġarsacidean": 20363,
    "Ġstrat": 16087,
    "Ġsuavely": 26523,
    "Ġtenement": 23547,
    "anxiety": 25155,
    "Ġwithin": 2162,
    "Ġstro": 4596,
    "Ġclink": 22342,
    "Ġhos": 4942,
    "Ġwrath": 16315,
    "sadly": 25526,
    "Ġexper": 1317,
    "Ġrallied": 14094,
    "Ġincorpor": 13164,
    "Ġtransformers": 1113,
    "ible": 1117,
    "caves": 20815,
    "Ġactor": 16046,
    "Ġscott": 22278,
    "Ġprows": 19888,
    "Ġnarrated": 14870,
    "Ġactions": 6278,
    "Ġinterest": 2245,
    "ength": 2314,
    "Ġperished": 11782,
    "during": 6787,
    "Ġrejoiced": 8683,
    "Ġscheduling": 2349,
    "enormous": 26166,
    "figured": 20121,
    "Ġparties": 7038,
    "Ġvag": 9707,
    "rous": 3750,
    "Ġdiscomposed": 25580,
    "Ġcorpus": 13029,
    "Ġmemoirs": 26205,
    "Ġpeas": 8533,
    "Ġtrotting": 19974,
    "Ġsitu": 3495,
    ";": 31,
    "Ġadagrad": 2903,
    "Ġgermany": 25785,
    "Ġcords": 14878,
    "Ġcad": 12565,
    "Ġinv": 2222,
    "Ġmainz": 22652,
    "Ġdeposit": 17268,
    "Ġdecently": 22453,
    "Ġhearses": 20058,
    "servant": 15035,
    "Ġrecumbent": 22739,
    "quitted": 21854,
    "Ġornaments": 17451,
    "attached": 11933,
    "Ġjamming": 17264,
    "speechless": 25395,
    "whale": 2140,
    "Ġspind": 18307,
    "positive": 20566,
    "Ġinvol": 1065,
    "Ġscant": 22277,
    "Ġundet": 16704,
    "wn": 720,
    "Ġlong": 793,
    "Ġswiftness": 9926,
    "emic": 18184,
    "Ġready": 3399,
    "Ġodds": 13328,
    "Ġemblem": 20496,
    "Ġpriv": 4182,
    "osen": 6855,
    "Ġspasmod": 12412,
    "ckets": 6843,
    "Ġconceivable": 16613,
    "prepared": 13589,
    "Ġmccarthys": 19661,
    "Ġeligible": 10670,
    "Ġtheorem": 2326,
    "ousness": 10274,
    "Ġdost": 7636,
    "Ġigniting": 25070,
    "fury": 17547,
    "Ġslight": 3120,
    "civil": 7796,
    "Ġreadily": 5253,
    "mbly": 9794,
    "ious": 769,
    "Ġweighed": 8710,
    "Ġreplacing": 3450,
    "Ġanvil": 11596,
    "delirium": 14784,
    "impenet": 18053,
    "Ġatonement": 21939,
    "gaze": 17557,
    "lightning": 16551,
    "Ġlou": 6822,
    "Ġniece": 5712,
    "sought": 15426,
    "Ġpole": 6433,
    "Ġorphan": 12381,
    "Ġsaved": 6690,
    "transom": 19734,
    "Ġappar": 7411,
    "Ġrecently": 11860,
    "Ġdishes": 16047,
    "Ġmortal": 4682,
    "agra": 14065,
    "Ġauxiliary": 26418,
    "Ġmatters": 4974,
    "repeat": 25151,
    "Ġinser": 6820,
    "Ġtrappers": 23078,
    "Ġmaps": 2964,
    "Ġpeev": 22690,
    "arranging": 19317,
    "Ġaccounting": 14572,
    "breaths": 25336,
    "Ġexasperated": 11412,
    "Ġgaining": 9491,
    "iquette": 26132,
    "Ġsprung": 11249,
    "byshire": 6172,
    "Ġpoet": 8207,
    "jub": 20928,
    "Ġmay": 924,
    "Ġresignation": 18566,
    "Ġhopeless": 7462,
    "Ġaccumulated": 11929,
    "Ġfallen": 5967,
    "Ġtestament": 23207,
    "rowsers": 8694,
    "ief": 2046,
    "Ġ66": 24369,
    "irc": 1730,
    "unnecessary": 21877,
    "Ġstarting": 7728,
    "sy": 2671,
    "Ġsplendid": 17213,
    "passing": 14811,
    "etrics": 21582,
    "Ġunceasingly": 20357,
    "whispering": 26103,
    "ound": 583,
    "Ġappalling": 8499,
    "ise": 707,
    "Ġvalidate": 3010,
    "Ġstationary": 19693,
    "Ġtrop": 7565,
    "Ġexerting": 21829,
    "Ġmasked": 3692,
    "Ġnomine": 26456,
    "Ġmerryweather": 9521,
    "ulatory": 15765,
    "cried": 8724,
    "Ġrefusal": 10344,
    "Ġcalmer": 23039,
    "Ġchewed": 16368,
    "Ġrout": 7402,
    "ainty": 21784,
    "Ġtold": 2183,
    "fre": 5425,
    "mod": 1084,
    "Ġpositional": 2599,
    "Ġvint": 18194,
    "oc": 2835,
    "provided": 13636,
    "afer": 17481,
    "Ġsuperstition": 15054,
    "Ġ44": 16679,
    "Ġconfine": 14510,
    "Ġcalling": 5662,
    "Ġgpt": 4352,
    "labour": 23912,
    "bethink": 25744,
    "Ġsimulates": 2740,
    "Ġdomes": 23600,
    "learning": 2469,
    "Ġpresumption": 10545,
    "Ġleave": 2457,
    "Ġfowls": 8690,
    "Ġanonymous": 26178,
    "Ġcoats": 16074,
    "Ġhaven": 8473,
    "compasses": 19456,
    "gaff": 20881,
    "Ġsteamer": 17188,
    "days": 7687,
    "Ġconverse": 11842,
    "Ġinattention": 17931,
    "Ġsinister": 8568,
    "Ġsternly": 16715,
    "bpp": 20771,
    "Ġnevertheless": 5040,
    "hated": 17561,
    "Ġtones": 8399,
    "keeping": 8634,
    "brink": 23575,
    "Ġseparating": 16685,
    "Ġpers": 1342,
    "Ġvertu": 23888,
    "Ġdespairing": 14772,
    "Ġcrept": 11022,
    "Ġramadan": 9575,
    "Ġmaw": 15537,
    "Ġupstairs": 5836,
    "maid": 8553,
    "Ġforce": 5092,
    "Ġtempest": 8212,
    "Ġdirest": 22704,
    "begin": 8883,
    "ren": 550,
    "residence": 19262,
    "entions": 17974,
    "Ġbigger": 19760,
    "brace": 16942,
    "Ġnational": 13941,
    "dings": 2264,
    "Ġbee": 21746,
    "rim": 7137,
    "Ġenvironment": 4249,
    "bath": 13688,
    "Ġurging": 24505,
    "Ġconvert": 11841,
    "Ġatt": 777,
    "ampled": 18883,
    "hosmer": 25902,
    "Ġvolley": 24144,
    "romeda": 17262,
    "regularly": 13207,
    "Ġcentaurs": 23830,
    "y": 93,
    "izing": 1068,
    "Ġadvent": 4358,
    "Ġbrood": 23097,
    "Ġrav": 14304,
    "utarch": 15659,
    "Ġbeyond": 2458,
    "Ġstair": 8455,
    "change": 6392,
    "often": 6165,
    "abama": 12706,
    "ten": 1555,
    "Ġunwilling": 7885,
    "soever": 11857,
    "vex": 21699,
    "Ġsubtle": 6716,
    "Ġdismast": 12885,
    "gard": 7339,
    "raction": 8137,
    "Ġlandsman": 11350,
    "Ġfocus": 4237,
    "Ġt": 261,
    "Ġhem": 8445,
    "Ġbenches": 18781,
    "execut": 13654,
    "Ġsettee": 22918,
    "Ġreservo": 16831,
    "illed": 2627,
    "_âĢĿ": 20760,
    "Ġlithe": 24668,
    "Ġmut": 3581,
    "itten": 3442,
    "Ġconversed": 13185,
    "Ġpeasants": 12330,
    "Ġemployer": 19430,
    "Ġlets": 18076,
    "Ġamerican": 5061,
    "Ġspacious": 18312,
    "Ġnaught": 8127,
    "Ġattain": 12744,
    "Ġwaterloo": 11979,
    "Ġwarmth": 6905,
    "Ġsweeping": 8985,
    "Ġdri": 2364,
    "Ġvelvet": 12396,
    "Ġladder": 8598,
    "Ġcards": 7580,
    "Ġcogn": 11002,
    "oping": 5559,
    "Ġhumble": 8551,
    "boots": 11126,
    "cil": 8720,
    "Ġprevious": 2088,
    "Ġbaked": 21384,
    "/`": 12427,
    "Ġoath": 7833,
    "Ġprobability": 1127,
    "astern": 8581,
    "rus": 5929,
    "Ġport": 3312,
    "Ġcommunicative": 24548,
    "abern": 21787,
    "Ġluff": 15650,
    "drifting": 19823,
    "gor": 545,
    "rear": 21231,
    "Ġbusy": 6189,
    "marvell": 24172,
    "anch": 15557,
    "Ġpleasant": 4169,
    "Ġwreck": 7314,
    "Ġlifted": 6985,
    "reve": 12536,
    "Ġshreds": 12767,
    "Ġhaggerston": 26452,
    "Ġwrest": 11570,
    "Ġrabb": 4163,
    "imprudent": 14651,
    "Ġdefinitions": 22941,
    "Ġmuffled": 10640,
    "Ġoverlapping": 26238,
    "work": 1753,
    "Ġgreek": 10630,
    "Ġseat": 4949,
    "venty": 6427,
    "Ġunctuousness": 17234,
    "Ġvishnoo": 12750,
    "Ġramad": 8527,
    "Ġprizes": 13072,
    "existence": 16012,
    "tural": 21065,
    "Ġsubfield": 11867,
    "sol": 1789,
    "lob": 22503,
    "Ġload": 14145,
    "Ġjustified": 11902,
    "oldened": 22636,
    "Ġghostliness": 24651,
    "Ġmajesty": 5201,
    "cific": 10085,
    "Ġgrasshopper": 24380,
    "aciousness": 18606,
    "Ġagreement": 18540,
    "aphs": 22333,
    "ger": 1108,
    "Ġretreat": 6069,
    "Ġaffliction": 25844,
    "Ġanonym": 17897,
    "asion": 5714,
    "Ġottoman": 17377,
    "Ġsweatings": 25710,
    "grinder": 23413,
    "shortened": 24748,
    "tro": 15432,
    "ith": 330,
    "Ġbars": 13896,
    "athom": 12936,
    "Ġcurling": 9346,
    "Ġmeant": 3549,
    "Ġreser": 5170,
    "Ġglim": 9342,
    "ket": 17582,
    "Ġindefatigable": 17177,
    "Ġthink": 984,
    "cain": 15325,
    "Ġinstrument": 7118,
    "Ġheated": 21679,
    "Ġriv": 10746,
    "sized": 15427,
    "wander": 17709,
    "Ġwager": 17792,
    "atics": 15521,
    "tired": 21071,
    "idge": 14013,
    "wickham": 5883,
    "Ġembarr": 7447,
    "steaks": 23958,
    "unk": 4539,
    "Ġplaced": 3445,
    "Ġtooth": 9192,
    "Ġbeds": 14551,
    "Ġlucifers": 16588,
    "Ġforbid": 7864,
    "Ġmartin": 25436,
    "Ġthyself": 6602,
    "Ġtowns": 11173,
    "solving": 3101,
    "Ġval": 965,
    "Ġreceived": 2952,
    "Ġlearning": 386,
    "Ġinfirm": 19017,
    "utral": 12660,
    "Ġungod": 22021,
    "Ġdense": 8122,
    "Ġdelightfully": 13157,
    "Ġenrapt": 21936,
    "cadence": 26125,
    "Ġgloried": 22977,
    "loving": 18538,
    "Ġlaunched": 14925,
    "Ġperplex": 2717,
    "Ġcommitted": 7431,
    "Ġlichen": 20090,
    "ory": 1082,
    "grief": 13730,
    "Ġjewel": 9941,
    "Ġroll": 5381,
    "Ġfreezing": 23881,
    "Ġcetacean": 25878,
    "Ġadapt": 1044,
    "Ġupon": 719,
    "Ġsoothe": 7405,
    "Ġlabeled": 3716,
    "Ġcourtesy": 9944,
    "Ġslaugh": 18937,
    "Ġsociety": 3975,
    "aborate": 14021,
    "Ġinsist": 9890,
    "Ġdelivery": 18975,
    "Ġtigris": 25759,
    "blown": 25201,
    "Ġ111": 24436,
    "umps": 6317,
    "Ġentail": 9791,
    "Ġquery": 2480,
    "Ġ71": 24259,
    "Ġstaple": 26198,
    "entials": 22656,
    "Ġstands": 5258,
    "Ġad": 443,
    "Ġbended": 21383,
    "ptic": 21921,
    "conceal": 25114,
    "Ġoil": 3374,
    "Ġbeauties": 10445,
    "instances": 13318,
    "Ġassoc": 6402,
    "come": 2378,
    "Ġovertaken": 18429,
    "being": 3912,
    "Ġboa": 22632,
    "abling": 1079,
    "Ġgolden": 5336,
    "belongs": 25596,
    "Ġevents": 4472,
    "ard": 465,
    "Ġbeale": 12696,
    "Ġdavy": 25951,
    "Ġaft": 5737,
    "amid": 12721,
    "akin": 11766,
    "Ġarch": 955,
    "Ġunst": 18238,
    "betrayed": 24640,
    "Ġnewsp": 9338,
    "Ġso": 432,
    "Ġtrusty": 24103,
    "Ġcuts": 14607,
    "ense": 2052,
    "Ġmethodic": 23131,
    "yielded": 25756,
    "Ġvalley": 5850,
    "Ġskul": 22793,
    "pair": 21011,
    "Ġspect": 3551,
    "ju": 13740,
    "aston": 7408,
    "ex": 622,
    "aper": 4999,
    "mighty": 9466,
    "tol": 17672,
    "constant": 11324,
    "Ġfoundations": 11073,
    "Ġsophisticated": 1607,
    "faint": 17545,
    "Ġobjections": 8564,
    "Ġprotruding": 16658,
    "peter": 24298,
    "inquiry": 15141,
    "clair": 18932,
    "Ġunful": 22008,
    "prow": 15410,
    "Ġdial": 10810,
    "Ġtrepidation": 19215,
    "olet": 13765,
    "otic": 15742,
    "Ġmoderately": 22212,
    "urbed": 15705,
    "whether": 5319,
    "Ġmoisture": 12357,
    "bul": 6951,
    "Ġenhance": 2926,
    "ilies": 18056,
    "thence": 23398,
    "Ġdelirium": 10405,
    "Ġidleness": 11144,
    "Ġirretrie": 23372,
    "anesc": 21358,
    "Ġphr": 2683,
    "Ġdissatisfied": 14256,
    "post": 6061,
    "Ġimprisonment": 22384,
    "clearer": 24065,
    "Ġdundee": 16997,
    "Ġsnoo": 21227,
    "avers": 17480,
    "nantucketer": 24972,
    "fri": 20853,
    "Ġtradeoff": 2660,
    "Ġadvised": 16199,
    "Ġpropriet": 9549,
    "safie": 20347,
    "Ġveiled": 16200,
    "Ġembell": 14417,
    "ot": 346,
    "Ġdominion": 16505,
    "Ġinverted": 12634,
    "Ġmoonlight": 9957,
    "Ġmightiest": 12958,
    "Ġuncont": 14115,
    "Ġlast": 1124,
    "authority": 13590,
    "Ġbeneficial": 23929,
    "Ġbrotherhood": 23669,
    "Ġcommenting": 25228,
    "Ġprofess": 3696,
    "Ġdebility": 24272,
    "arranted": 19319,
    "sufficient": 6635,
    "extent": 22761,
    "answered": 10273,
    "landish": 11940,
    "kindred": 24046,
    "Ġlanes": 19764,
    "Ġendeavored": 19301,
    "hind": 20893,
    "³": 116,
    "sequently": 14583,
    "countryman": 24639,
    "Ġling": 7377,
    "qu": 369,
    "irmed": 9238,
    "acity": 5735,
    "greg": 6647,
    "ornament": 23488,
    "Ġavast": 9919,
    "Ġremoving": 12114,
    "ulity": 10886,
    "Ġere": 3683,
    "Ġworms": 25216,
    "Ġshaggy": 13569,
    "Ġafraid": 3529,
    "ortations": 22255,
    "shortly": 12256,
    "Ġdemocracy": 25458,
    "Ġgallied": 19555,
    "Ġawakened": 10453,
    "Ġsucking": 12782,
    "Ġpostscript": 14807,
    "ak": 540,
    "Ġadhering": 14140,
    "Ġharp": 17923,
    "Ġcinque": 20484,
    "none": 6962,
    "cour": 4480,
    "Ġcondescend": 19953,
    "bunger": 20400,
    "oice": 1384,
    "Ġstandpoint": 23275,
    "Ġbreathing": 9444,
    "Ġvictory": 16653,
    "Ġreplying": 19580,
    "iscient": 17851,
    "Ġpioneer": 17918,
    "Ġinarticulate": 21497,
    "perfect": 7634,
    "Ġquivering": 12855,
    "Ġfrolic": 23921,
    "party": 8992,
    "Ġprove": 5231,
    "Ġgreyish": 24208,
    "Ġcontext": 1718,
    "desolate": 25703,
    "much": 3704,
    "cher": 5786,
    "Ġunderstanding": 1812,
    "ashion": 3857,
    "rid": 5137,
    "orrowed": 19288,
    "Ġprosperous": 15169,
    "Ġmary": 3841,
    "pression": 10407,
    "Ġcask": 5527,
    "Ġhumiliating": 22882,
    "anatory": 21361,
    "Ġanticipating": 17058,
    "ounced": 4954,
    "Ġbroke": 5322,
    "avier": 2832,
    "Ġrepast": 16409,
    "eray": 21265,
    "duct": 3506,
    "Ġtho": 21511,
    "library": 12996,
    "Ġearly": 2078,
    "Ġextinct": 14326,
    "able": 453,
    "Ġhides": 16263,
    "man": 1053,
    "Ġseptember": 18205,
    "Ġsmelling": 16064,
    "iers": 5990,
    "ermaid": 14297,
    "Ġundeceive": 25552,
    "Ġext": 885,
    "Ġinterlude": 16070,
    "rob": 5534,
    "hopper": 23713,
    "heavy": 10574,
    "objections": 19915,
    "mopol": 15395,
    "avings": 12021,
    "pie": 21010,
    "Ġcomes": 3424,
    "attending": 18916,
    "Ġrus": 14091,
    "Ġfest": 10804,
    "Ġsends": 14789,
    "cannon": 22959,
    "Ġislands": 6766,
    "Ġlesson": 7276,
    "forgotten": 12414,
    "Ġforeseeing": 23449,
    "camp": 15329,
    "Ġkentuckian": 26342,
    "Ġinconsist": 17935,
    "Ġbristol": 14379,
    "Ġcirclings": 26431,
    "musical": 25340,
    "Ġdistinguishing": 16496,
    "Ġtides": 13820,
    "Ġadditionally": 1177,
    "Ġdisposing": 19373,
    "oided": 11508,
    "Ġcontemplative": 19892,
    "pagans": 25525,
    "Ġquadr": 8199,
    "Ġwarsaw": 26167,
    "Ġsmiting": 12895,
    "absolut": 8458,
    "Ġherb": 15854,
    "Ġforeseen": 16442,
    "Ġnarwhales": 24902,
    "Ġcarted": 21347,
    "rossing": 18640,
    "Ġundergone": 18985,
    "disinterested": 23501,
    "Ġremonstrance": 20621,
    "acquaintance": 6938,
    "û": 188,
    "swimming": 24258,
    "Ġevalu": 3018,
    "======================================================================": 10067,
    "Ġoverjoyed": 17457,
    "Ġtorch": 25030,
    "whip": 22234,
    "Ġbattered": 17862,
    "Ġcreature": 2384,
    "================================": 5671,
    "Ġposition": 1953,
    "Ġmonogra": 22972,
    "Ġportraits": 20141,
    "Ġwakeful": 24266,
    "despair": 8343,
    "iantly": 13738,
    "Ġbunger": 9995,
    "adagrad": 9690,
    "utmost": 21585,
    "uncomfortable": 18160,
    "classification": 4388,
    "Ġfriendly": 9819,
    "Ġtwist": 11849,
    "Ġtranquillity": 7536,
    "seemingly": 25362,
    "ġ": 226,
    "Ġprotectors": 9070,
    "repid": 11564,
    "Ġvengeful": 14889,
    "beryls": 25309,
    "Ġsqualidness": 25842,
    "Ġsped": 22122,
    "\",": 10678,
    "Ġring": 4452,
    "Ġunique": 12775,
    "Ġprayers": 12121,
    "{": 95,
    "Ġsublim": 19965,
    "Ġjob": 7015,
    "Ġbeliever": 25845,
    "water": 4868,
    "ifference": 5632,
    "loo": 10319,
    "Ġdined": 9176,
    "cock": 12024,
    "herself": 4890,
    "thest": 11653,
    "Ġfrocks": 23919,
    "Ġmcc": 21305,
    "stolidity": 21660,
    "Ġapprehending": 26090,
    "mother": 5480,
    "reading": 12077,
    "sight": 5994,
    "Ġsooty": 25815,
    "Ġaverages": 2398,
    "Ġvancouver": 26565,
    "heavenly": 20043,
    "Ġsympt": 7012,
    "ĠĠĠĠĠĠĠĠĠĠĠĠĠĠĠĠĠĠĠĠĠĠĠĠĠĠĠĠĠĠĠĠĠ": 12041,
    "ials": 11704,
    "significant": 25082,
    "rem": 1519,
    "tu": 12509,
    "Ġrepublican": 17411,
    "shells": 26056,
    "Ġ6": 5141,
    "Ġpouring": 12621,
    "Ġlivers": 18461,
    "surf": 24212,
    "Ġpatience": 2808,
    "Ġresurrection": 12891,
    "Ġdeposited": 25484,
    "Ġsung": 23270,
    "fere": 10989,
    "clouds": 25496,
    "aming": 5828,
    "Ġdropt": 23675,
    "retirement": 23136,
    "Ġentreated": 9950,
    "Ġobeyed": 12214,
    ".]": 15297,
    "Ġcornelius": 13572,
    "shaven": 18487,
    "ĠĠĠĠĠĠĠĠĠĠĠĠĠĠĠĠĠĠĠĠĠĠĠĠĠĠĠĠĠĠĠĠĠĠĠĠĠĠĠĠĠĠĠĠ": 12151,
    "Ġglobu": 23269,
    "osa": 22257,
    "Ġzig": 18741,
    "Ġirresolution": 24915,
    "Ġsuggestive": 11297,
    "Ġsuggestions": 24453,
    "Ġgone": 2107,
    "ke": 429,
    "grow": 10098,
    "Ġcontains": 2793,
    "imperturbable": 25790,
    "Ġpublic": 4334,
    "Ġreal": 1634,
    "disciple": 16778,
    "Ġexcell": 10417,
    "Ġimitation": 22168,
    "Ġautomation": 13248,
    "elling": 5830,
    "arken": 18666,
    "Ġmansion": 17809,
    "!--": 10677,
    "Ġunprincipled": 20707,
    "Ġesq": 15107,
    "Ġapex": 24342,
    "yesterday": 10353,
    "fifth": 20145,
    "Ġstow": 21727,
    "Ġsell": 7825,
    "Ġlet": 1114,
    "Ġpork": 21455,
    "Ġexpand": 9306,
    "constable": 24605,
    "action": 3724,
    "waistcoat": 17360,
    "Ġp": 289,
    "Ġunappe": 22015,
    "Ġbury": 12040,
    "Ġmouldy": 14973,
    "Ġoccupies": 24005,
    "Ġbetokened": 18796,
    "ellow": 3875,
    "wake": 11545,
    "Ġmourn": 8703,
    "remembrance": 25702,
    "Ġblind": 3714,
    "accompl": 9879,
    "Ġdoubt": 2221,
    "ule": 6800,
    "Ġsperma": 19048,
    "Ġroy": 4228,
    "yp": 1043,
    "Ġitems": 9691,
    "Ġcircumstances": 3924,
    "Ġchatting": 24747,
    "Ġnightgown": 23128,
    "Ġbrightened": 23826,
    "giv": 13721,
    "Ġsymp": 4503,
    "Ġlikes": 9407,
    "Ġpoul": 15610,
    "Ġevinced": 7100,
    "comfort": 5647,
    "Ġshower": 11708,
    "Ġadhes": 22103,
    "Ġdism": 9766,
    "Ġrepeating": 11213,
    "Ġlegit": 16472,
    "blister": 24126,
    "Ġpre": 507,
    "grasp": 16429,
    "scy": 21054,
    "Ġsag": 6514,
    "Ġboarders": 16600,
    "Ġscrolled": 22281,
    "Ġupbraid": 18317,
    "Ġquestioned": 14620,
    "Ġappropriate": 2246,
    "Ġfunction": 588,
    "Ġwestern": 10654,
    "Ġtor": 8105,
    "rained": 5162,
    "Ġreclining": 26033,
    "Ġtin": 15462,
    "Ġdifficulties": 11225,
    "spoken": 11859,
    "Ġwishing": 7830,
    "umbent": 12093,
    "Ġdrowsiness": 26445,
    "Ġguilt": 6179,
    "hush": 20905,
    "Ġexeget": 24083,
    "vict": 11540,
    "Ġmathemat": 3207,
    "Ġforward": 1837,
    "isk": 9167,
    "Ġoffspring": 16143,
    "Ġporpoises": 13381,
    "Ġprocesses": 3632,
    "zed": 8103,
    "Ġunprejudiced": 18269,
    "Ġjen": 9266,
    "Ġsufferer": 16257,
    "cho": 2762,
    "itect": 1003,
    "Ġmarry": 4418,
    "icherry": 15134,
    "Ġpolynesian": 26026,
    "apan": 6860,
    "Ġpull": 5152,
    "Ġpossibilities": 18976,
    "Ġbible": 9318,
    "Ġluxur": 12339,
    "ack": 616,
    "Ġdrew": 3536,
    "floated": 24643,
    "Ġsalut": 10509,
    "Ġfifty": 4624,
    "address": 14880,
    "Ġcannon": 14153,
    "Ġj": 533,
    "Ġwindow": 2996,
    "three": 5238,
    "Ġview": 2763,
    "Ġmount": 7362,
    "Ġmetropolis": 17274,
    "Ġsof": 18280,
    "ois": 9134,
    "message": 17371,
    "Ġannum": 24203,
    "Ġsignificantly": 4519,
    "ricane": 16277,
    "Ġfastening": 16355,
    "mody": 16188,
    "Ġmiscellaneous": 17462,
    "oran": 8788,
    "Ġgar": 10838,
    "call": 8722,
    "Ġhoarsely": 26302,
    "Ġroads": 13287,
    "Ġmill": 6666,
    "Ġharpoone": 2910,
    "Ġsy": 491,
    "edily": 17943,
    "Ġdives": 17890,
    "af": 2377,
    "igms": 3047,
    "friendly": 13283,
    "Ġgn": 8817,
    "·": 120,
    "Ġentertain": 6053,
    "Ġelevate": 24502,
    "Ġcomputing": 2218,
    "confl": 22468,
    "Ġtheoretic": 23309,
    "mistaken": 12208,
    "Ġovercame": 9745,
    "Ġhinges": 15211,
    "Ġecl": 18005,
    "happened": 9432,
    "Ġwrong": 4724,
    "iver": 2049,
    "invisible": 17740,
    "incredible": 16498,
    "bweb": 20790,
    "Ġwestmorland": 24390,
    "ote": 4597,
    "ableness": 8148,
    "Ġsuckling": 25997,
    "Ġmasonry": 13598,
    "Ġplough": 18608,
    "ompl": 4536,
    "Ġperceiving": 8875,
    "Ġtant": 12522,
    "Ġboister": 12916,
    "opportunity": 12272,
    "miss": 3176,
    "miniature": 16765,
    "darker": 24516,
    "Ġdorm": 4821,
    "obedience": 17409,
    "Ġmig": 13855,
    "morrow": 4573,
    "Ġtusked": 25426,
    "Ġlabelled": 23328,
    "Ġsunbeam": 23273,
    "Ġinher": 10179,
    "servants": 15037,
    "Ġwives": 12552,
    "ison": 3074,
    "Ġsheltered": 19910,
    "sto": 3203,
    "Ġaudio": 24772,
    "Ġallude": 12768,
    "pervading": 18973,
    "Ġpreyed": 18366,
    "parted": 21015,
    "Ġallegor": 25545,
    "Ġlashes": 17966,
    "Ġnorton": 12646,
    "creatures": 7517,
    "Ġfisheries": 17437,
    "ried": 927,
    "drove": 16993,
    "del": 4077,
    "Ġwrench": 12554,
    "Ġenderby": 13650,
    "Ġhappily": 9330,
    "Ġleagues": 9223,
    "cet": 15324,
    "Ġdiscre": 2416,
    "Ġobedience": 11413,
    "Ġpenetrated": 13471,
    "Ġappellation": 22219,
    "±": 114,
    "Ġsuperflu": 14554,
    "Ġcompass": 4410,
    "Ġfought": 12590,
    "Ġvariants": 1791,
    "Ġgovernment": 15175,
    "Ġmodest": 15915,
    "prehend": 14242,
    "Ġsaw": 1352,
    "cross": 3574,
    "Ġexamine": 7734,
    "Ġundue": 25993,
    "Ġoscillations": 2898,
    "imod": 15707,
    "killer": 20474,
    "ollion": 19714,
    "Ġshoal": 12014,
    "Ġjuggling": 20437,
    "Ġthanks": 6707,
    "Ġunite": 9253,
    "inces": 13827,
    "Ġconfirmed": 11139,
    "Ġslu": 13835,
    "hor": 2574,
    "genteel": 19947,
    "Ġunfitted": 24107,
    "V": 58,
    "poises": 11887,
    "sery": 17661,
    "artic": 14221,
    "Ġnourishment": 15191,
    "Ġexplicit": 3587,
    "aps": 1227,
    "rential": 22916,
    "pire": 9135,
    "appearing": 14637,
    "Ġmonitors": 3157,
    "Ġbedfellow": 16436,
    "Ġwant": 1120,
    "wit": 7817,
    "Ġeth": 17716,
    "track": 24314,
    "Ġaerial": 21197,
    "adow": 18087,
    "Ġgoose": 5937,
    "Ġattentions": 5877,
    "Ġ89": 19711,
    "declared": 15117,
    "Ġ134": 24784,
    "Ġbecalmed": 18086,
    "Ġpromethe": 14466,
    "dec": 3113,
    "uer": 21099,
    "Ġglobular": 19009,
    "Ġlanguages": 1568,
    "scorn": 22981,
    "fellows": 12271,
    "weave": 22682,
    "Ġintensified": 17018,
    "feel": 3810,
    "world": 5058,
    "Ġpratt": 23219,
    "Ġwintry": 17433,
    "Ġdisdained": 15009,
    "Ġten": 2386,
    "hair": 9122,
    "sailor": 14714,
    "Ġdesper": 6176,
    "Ġcoldness": 23758,
    "Ġdesired": 4665,
    "Ġshroud": 6483,
    "indifference": 15981,
    "billows": 20235,
    "Ġreappeared": 21662,
    "itarian": 21335,
    "Ġing": 5283,
    "sombre": 23852,
    "Ġmisled": 22753,
    "jury": 15372,
    "Ġguilty": 7250,
    "liberal": 26281,
    "Ġsides": 4580,
    "Ġbasement": 24702,
    "Ġlexicon": 25974,
    "Ġbaggy": 24538,
    "Ġcompare": 9301,
    "determine": 19942,
    "linen": 25257,
    "Ġsgd": 3130,
    "Ġmoving": 1677,
    "Ġmaledictions": 26428,
    "admitted": 18091,
    "Ġplains": 14623,
    "Ġsteepest": 3088,
    "Ġmorals": 22967,
    "assed": 6420,
    "te": 993,
    "==": 944,
    "Ġabridged": 26540,
    "Ġintroducing": 11974,
    "withdrawn": 23024,
    "made": 4808,
    "fle": 7128,
    "Ġcont": 621,
    "Ġdeparted": 5564,
    "copper": 19187,
    "Ġbeginning": 4244,
    "etical": 13957,
    "Ġwrenching": 17322,
    "Ġfresh": 3668,
    "zag": 17713,
    "parm": 21013,
    "Ġclubb": 22345,
    "created": 12448,
    "._]]": 5334,
    "Ġbeheading": 21751,
    "Ġsnatching": 10472,
    "Ġpend": 15603,
    "Ġslopes": 18940,
    "Ġamazed": 14888,
    "Ġmyself": 1456,
    "gall": 6359,
    "makes": 10711,
    "Ġshamefully": 24716,
    "morning": 4859,
    "Ġskilfully": 20522,
    "posture": 16927,
    "Ġoccupation": 9930,
    "Ġstrongly": 5657,
    "âĢĻ!âĢĿ": 18167,
    "Ġmult": 1022,
    "Ġpots": 9427,
    "Ġholidays": 22919,
    "Ġspires": 11728,
    "Ġlullaby": 20586,
    "Ġcheap": 13087,
    "Ġreiterating": 26474,
    "Ġcharnel": 22249,
    "Ġvoy": 2622,
    "measure": 10030,
    "Ġlurch": 21552,
    "prises": 23811,
    "iloquent": 21722,
    "Ġgul": 7859,
    "nment": 20989,
    "Ġbu": 3680,
    "surgeon": 24214,
    "venerable": 26408,
    "employ": 10895,
    "otently": 21797,
    "Ġdrown": 6815,
    "Ġanyhow": 14254,
    "astic": 1868,
    "Ġcase": 1940,
    "Ġcapacity": 10440,
    "many": 5249,
    "Ġhair": 3316,
    "Ġvisitor": 5330,
    "interrupted": 11417,
    "olets": 21007,
    "third": 8167,
    "Ġheidelburgh": 11642,
    "impatient": 13639,
    "vari": 1515,
    "bring": 9104,
    "terbury": 21821,
    "Ġselect": 3996,
    "Ġinsure": 13177,
    "Ġwet": 6518,
    "Ġchry": 22243,
    "ames": 2954,
    "visitors": 13347,
    "Ġnarrowly": 16820,
    "fra": 8374,
    "arnel": 18124,
    "Ġmarble": 7668,
    "Ġmessage": 13522,
    "colnett": 19329,
    "Ġimbedded": 18332,
    "Ġseclusion": 18206,
    "deli": 15343,
    "forbid": 14348,
    "iner": 2673,
    "Ġshrew": 21997,
    "system": 4033,
    "Ġepit": 18006,
    "Ġmal": 5221,
    "Ġtension": 13823,
    "Ġpride": 3821,
    "Ġrenegades": 26476,
    "careful": 14865,
    "Ġvault": 8840,
    "Ġapparent": 5466,
    "Ġsystemat": 18447,
    "impe": 21705,
    "calculation": 25688,
    "ester": 11597,
    "ç": 168,
    "Ġdomain": 3170,
    "Ġabed": 22262,
    "Ġnightmare": 18919,
    "pleas": 3849,
    "wes": 17703,
    "Ġdumbly": 24985,
    "isf": 2435,
    "----": 4057,
    "immortal": 21707,
    "romised": 14111,
    "õ": 182,
    "Ġdepicted": 14283,
    "Ġcapric": 14576,
    "Ġjew": 9467,
    "spee": 9316,
    "iating": 3211,
    "Ġcauses": 2564,
    "ange": 1018,
    "harrow": 20907,
    "msman": 9269,
    "ham": 1701,
    "securer": 25602,
    "ological": 1883,
    "Ġtoll": 7851,
    "amaz": 21847,
    "Ġreduced": 11922,
    "Ġresentful": 24631,
    "hangs": 15367,
    "Ġdishonor": 25601,
    "Ġconvinced": 4205,
    "studied": 17149,
    "Ġeccentric": 13648,
    "torn": 17682,
    "yes": 983,
    "rannical": 26401,
    "Ġalarmed": 6923,
    "Ġwidower": 24235,
    "abulary": 4800,
    "Ġseasons": 9430,
    "Ġbehav": 3539,
    "Ġasking": 5651,
    "Ġbreak": 2869,
    "Ġsheath": 14151,
    "Ġflowed": 10371,
    "Ġcrocodile": 20739,
    "Ġindefinite": 17176,
    "Ġsixteen": 8282,
    "Ġcordial": 16835,
    "etition": 7382,
    "Ġwarmly": 8987,
    "Ġdigging": 14937,
    "Ġarmies": 16491,
    "oted": 4598,
    "Ġputs": 19031,
    "Ġhandkerchief": 8913,
    "Ġtaller": 16688,
    "iors": 9125,
    "Ġmun": 12559,
    "Ġprize": 11946,
    "Ġcountess": 11962,
    "Ġillinois": 19136,
    "fortnight": 13085,
    "Ġmagician": 25058,
    "Ġpresto": 22227,
    "kee": 18273,
    "preced": 10309,
    "Ġstave": 11650,
    "perv": 1608,
    "news": 23129,
    "Ġital": 10866,
    "Ġoccasioned": 13225,
    "display": 19154,
    "venor": 16098,
    "Ġpauper": 26179,
    "Ġpsalmody": 20583,
    "rength": 4101,
    "================": 3721,
    "Ġspr": 4022,
    "esy": 9182,
    "Ġinscrut": 10033,
    "fthand": 26386,
    "even": 3835,
    "Ġdeposed": 16084,
    "arks": 2845,
    "Ġunquestion": 18248,
    "Ġseedy": 21952,
    "Ġcompan": 2171,
    "Ġinvade": 19142,
    "persons": 24174,
    "univers": 15769,
    "Ġwisdom": 11233,
    "Ġconfound": 23302,
    "Ġabruptly": 15149,
    "skin": 10568,
    "Ġgleam": 12306,
    "cord": 8723,
    "Ġavailed": 23949,
    "organic": 25946,
    "Ġsled": 21217,
    "Ġthy": 2515,
    "Ġcreditors": 20128,
    "prec": 3206,
    "iature": 8741,
    "Ġfinancial": 23125,
    "Ġslide": 10393,
    "Ġunit": 1848,
    "counters": 25397,
    "Ġkentuck": 19890,
    "Ġuttered": 7280,
    "Ġdisclosed": 15152,
    "Ġannesley": 19576,
    "Ġxxi": 24476,
    "bringing": 17166,
    "+": 15,
    "streets": 13394,
    "antic": 1603,
    "Ġdeduction": 14900,
    "Ġprudent": 9185,
    "Ġgenteel": 19979,
    "sustained": 20567,
    "Ġbrief": 6976,
    "enough": 6809,
    "shirt": 22445,
    "Ġscorched": 17101,
    "Ġannounced": 9034,
    "Ġindel": 13001,
    "Ġtranslation": 3087,
    "Ġpages": 15605,
    "rougham": 15991,
    "Ġacute": 16121,
    "ferences": 10326,
    "Ġlydia": 2374,
    "Ġmus": 3398,
    "Ġsugg": 4500,
    "foreign": 18544,
    "acca": 23596,
    "uth": 3017,
    "Ġsilk": 11961,
    "baned": 17495,
    "gabriel": 15359,
    "Ġstupendous": 20499,
    "Ġdangerously": 23934,
    "pul": 8753,
    "Ġmillions": 11354,
    "Ġcoleman": 22584,
    "hither": 11492,
    "Ġsentiments": 7960,
    "Ġinclosed": 19537,
    "Ġconveniences": 19811,
    "Ġloomed": 12299,
    "Ġbrid": 6290,
    "Ġsharkish": 24506,
    "Ġassented": 17337,
    "ready": 2361,
    "Ġwidows": 24236,
    "Ġlurks": 11290,
    "ographical": 16786,
    "Ġfrenz": 25446,
    "Ġinsolence": 20252,
    "Ġtelegra": 11889,
    "Ġreside": 22536,
    "Ġcame": 1299,
    "Ġwhaling": 2783,
    "sufficiently": 14980,
    "aneous": 7240,
    "night": 2166,
    "Ġclerical": 25568,
    "Ġgaunt": 11268,
    "ince": 4341,
    "paradise": 20636,
    "ium": 4864,
    "Ġspies": 22125,
    "Ġparallelization": 3431,
    "Ġcapricious": 20537,
    "Ġsplintered": 11418,
    "Ġneedn": 19228,
    "Ġsequence": 1975,
    "Ġmerrily": 23731,
    "Ġsalt": 8016,
    "Ġexulting": 20257,
    "greenland": 10020,
    "partner": 19221,
    "Ġcatching": 9477,
    "remain": 9837,
    "big": 13684,
    "ising": 2251,
    "Ġreinforcement": 3214,
    "Ġimprudence": 10297,
    "Ġprodigiously": 14931,
    "burst": 10537,
    "ograph": 4797,
    "Ġlowers": 23239,
    "cies": 1814,
    "incess": 15481,
    "Ġuninterrupted": 22043,
    "Ġbrawny": 13612,
    "Ġaud": 6661,
    "Ġfrontispiece": 23911,
    "Ġfrosted": 19802,
    "Ġstores": 18068,
    "Ġappetite": 12382,
    "mark": 5281,
    "Ġautom": 3487,
    "Ġperpendicular": 7209,
    "itz": 6005,
    "Ġlanguage": 636,
    "Ġu": 324,
    "nant": 17609,
    "Ġcompanions": 5865,
    "mot": 17596,
    "Ġbeak": 18079,
    "Ġchap": 5933,
    "Ġrendered": 5773,
    "Ġhastily": 5763,
    "Ġevil": 3804,
    "Ġimposing": 11779,
    "Ġslippers": 19614,
    "Ġbowlines": 19321,
    "Ġphrenolog": 12332,
    "Ġincommun": 25308,
    "nt": 922,
    "esteem": 26008,
    "ursday": 12274,
    "datasets": 11949,
    "Ġformation": 2943,
    "Ġunluck": 8484,
    "Ġslashing": 23167,
    "Ġsax": 10929,
    "Ġfood": 5080,
    "Ġcluster": 13570,
    "Ġlaborious": 13102,
    "Ġobsequ": 14319,
    "les": 1017,
    "Ġhansom": 13663,
    "Ġcall": 2074,
    "Ġannihilated": 20251,
    "Ġheaved": 9383,
    "Ġcomprised": 14267,
    "ĠcÃ¦": 15552,
    "Ġdiscretion": 10347,
    "Ġhopes": 4235,
    "throughout": 24084,
    "Ġgrampus": 21990,
    "Ġshield": 21996,
    "Ġplentiful": 12908,
    "hoped": 20909,
    "Ġtaken": 2529,
    "Ġmultiplicity": 19274,
    "Ġunpardonable": 22059,
    "reliable": 21239,
    "Ġtomahawk": 7539,
    "perfectly": 9085,
    "Ġripe": 13233,
    "Ġcounting": 13094,
    "Ġwr": 1542,
    "Ġlegend": 14574,
    "Ġfrigate": 13080,
    "Ġsoles": 22076,
    "unwholesome": 26497,
    "Ġharmless": 9964,
    "Ġcooper": 16075,
    "acled": 16079,
    "iary": 15369,
    "Ġspence": 22123,
    "Ġgaily": 16748,
    "Ġbull": 7839,
    "Ġceaseless": 13487,
    "Ġfeedback": 23431,
    "Ġob": 860,
    "Ġblock": 2578,
    "Ġdecided": 5471,
    "Ġuplifted": 11646,
    "okingly": 22378,
    "Ġthee": 2626,
    "particular": 5757,
    "Ġopulence": 23629,
    "indulged": 22372,
    "Ġwond": 3937,
    "aths": 22696,
    "Ġ92": 24590,
    "Ġmicrosc": 20675,
    "angel": 5726,
    "Ġbake": 21380,
    "steps": 9404,
    "furnish": 25338,
    "Ġacceptance": 14826,
    "Ġlaid": 3939,
    "Ġmagnanim": 14471,
    "Ġonto": 14027,
    "Ġlengthwise": 10452,
    "Ġexcuse": 5861,
    "Ġpersecutor": 26096,
    "Ġthumb": 6981,
    "gro": 10094,
    "Ġarcher": 22181,
    "Ġfeel": 1256,
    "Ġtand": 21159,
    "Ġsquad": 22832,
    "Ġwrecked": 9965,
    "neighbours": 24881,
    "Ġcolossal": 11459,
    "attery": 18506,
    "Ġcord": 5222,
    "carpenter": 11427,
    "Ġfejee": 18353,
    "brous": 19198,
    "Ġtour": 9147,
    "Ġsagacious": 14970,
    "gradually": 12912,
    "Ġrender": 8304,
    "Ġbrass": 11048,
    "ier": 1137,
    "Ġislets": 21798,
    "igen": 4829,
    "'m": 9582,
    "Ġdaintiest": 25953,
    "pered": 4197,
    "Ġimposed": 14214,
    "truth": 9918,
    "Ġidentifies": 12013,
    "Ġruggedness": 26268,
    "Ġtranquo": 14842,
    "enit": 17779,
    "scru": 16238,
    "Ġthistle": 21913,
    "draul": 9442,
    "Ġcellar": 8058,
    "Ġhyster": 16873,
    "missionary": 24615,
    "Ġrim": 21962,
    "stonecraft": 24356,
    "oves": 15402,
    "Ġplaning": 22598,
    "Ġryder": 10259,
    "Ġpuzzled": 7317,
    "Ġisn": 7865,
    "attended": 8952,
    "mistress": 14904,
    "itor": 12563,
    "Ġfreshet": 25704,
    "Ġaccurately": 4476,
    "entrance": 12654,
    "Ġbulge": 23855,
    "Ġlarge": 1064,
    "Ġexhilarating": 26337,
    "Ġpleases": 16296,
    "Ġtelegraph": 25583,
    "belais": 24035,
    "Ġwelcome": 5604,
    "shattered": 22446,
    "Ġfastidious": 14492,
    "Ġrational": 8479,
    "Ġindelible": 25694,
    "Ġconsuming": 22788,
    "Ġadvert": 10571,
    "Ġcolonnades": 26275,
    "Ġohio": 19128,
    "Ġrelate": 6875,
    "gam": 10095,
    "Ġforced": 4354,
    "afflicted": 23777,
    "itors": 2913,
    "och": 21000,
    "lower": 8880,
    "Ġpoured": 8800,
    "Ġfeasible": 22205,
    "abez": 10222,
    "Ġbegrimed": 26578,
    "Ġsharply": 9402,
    "Ġuntidy": 23523,
    "Ġfaulty": 14906,
    "Ġimpossibility": 20646,
    "Ġthinks": 6169,
    "abomin": 15739,
    "Ġpartner": 6714,
    "Ġhelplessly": 20076,
    "upid": 6581,
    "Ġpurses": 23477,
    "Ġhabitations": 24789,
    "Ġhanding": 16128,
    "Ġres": 696,
    "fainting": 20471,
    "Ġluxurious": 17310,
    "Ġmarshalled": 25315,
    "Ġshine": 12763,
    "Ġabused": 22266,
    "fur": 6355,
    "Ġtreacherously": 25129,
    "speaks": 19718,
    "Ġcompanies": 14557,
    "Ġmildly": 9029,
    "isa": 17845,
    "heav": 5694,
    "Ġdespair": 4007,
    "Ġshooting": 11162,
    "Ġpal": 4041,
    "Ġsovere": 9255,
    "Ġinjustice": 9190,
    "Ġcrippled": 25278,
    "Ġborn": 5224,
    "Ġal": 342,
    "us": 532,
    "seventh": 12711,
    "Ġnations": 8809,
    "Ġreusable": 13556,
    "derment": 22158,
    "spass": 18689,
    "opolising": 25676,
    "interference": 23737,
    "Ġshuddered": 11300,
    "Ġpraised": 19552,
    "Ġdrank": 16535,
    "Ġarchitecture": 1146,
    "burning": 25078,
    "Ġcries": 7154,
    "Ġhappiness": 2945,
    "coat": 5407,
    "Ġtemporal": 2614,
    "aurus": 20559,
    "inated": 6804,
    "Ġmiscell": 16147,
    "emper": 18185,
    "showing": 22448,
    "nephew": 26397,
    "Ġyesterday": 5332,
    "lands": 8240,
    "Ġformal": 2942,
    "male": 15387,
    "stad": 7597,
    "Ġensuring": 11191,
    "ational": 5716,
    "Ġminima": 3464,
    "Ġcollections": 22854,
    "15": 12428,
    "Ġobvious": 4964,
    "cient": 4570,
    "Ġhanded": 8216,
    "Ġsaxon": 25468,
    "Ġcontraction": 16006,
    "Ġcharging": 23265,
    "solely": 19815,
    "towns": 24854,
    "observed": 7674,
    "Ġunaffected": 14121,
    "represent": 9637,
    "ò": 179,
    "Ġaccompany": 9486,
    "Ġpurse": 12009,
    "Ġdream": 3537,
    "Ġtro": 7356,
    "Ġmaj": 3925,
    "Ġadapted": 11042,
    "Ġuncommonly": 7759,
    "Ġgroves": 16740,
    "Ġclipping": 2440,
    "ally": 530,
    "ikes": 8086,
    "Ġhandsom": 11124,
    "Ġaccuse": 14211,
    "rifice": 12501,
    "Ġpreliminary": 10056,
    "Ġglassy": 19559,
    "Ġconnection": 5479,
    "Ġgrimly": 17052,
    "mess": 13752,
    "idy": 21761,
    "ceremony": 20588,
    "Ġshouldn": 14324,
    "Ġelated": 18631,
    "Ġexhausted": 8693,
    "Ġdischarged": 15219,
    "?âĢĿ": 700,
    "abated": 14019,
    "ude": 7562,
    "Ġaware": 5756,
    "increase": 20267,
    "Ġvult": 12749,
    "hyena": 24252,
    "limin": 8383,
    "Ġmann": 18416,
    "Ġregained": 18584,
    "Ġsne": 6372,
    "vigorous": 25917,
    "#": 7,
    "ament": 2439,
    "Ġillustration": 19135,
    "upon": 2723,
    "uarded": 21104,
    "punct": 20191,
    "formation": 22213,
    "Ġgallop": 19554,
    "destro": 13308,
    "ction": 502,
    "Ġdisturbance": 15012,
    "he": 264,
    "Ġproverb": 12713,
    "Ġsubmission": 22785,
    "Ġme": 351,
    "usable": 22286,
    "credit": 12446,
    "pall": 17628,
    "wreck": 21135,
    "shop": 14236,
    "precise": 19349,
    "Ġexalted": 12410,
    "Ġdents": 13910,
    "Ġenables": 725,
    "Ġwedded": 16674,
    "ĠĠĠĠĠĠĠĠĠĠĠĠĠĠĠĠĠ": 22946,
    "Ġworshipper": 25692,
    "Ġveneration": 25044,
    "Ġpassions": 7929,
    "condition": 7058,
    "occasionally": 13520,
    "chamber": 13624,
    "Ġblacksmith": 6595,
    "ency": 3868,
    "Ġreel": 9213,
    "Ġshad": 3847,
    "hab": 1078,
    "say": 3981,
    "opposing": 24825,
    "allah": 5838,
    "jour": 20926,
    "Ġstaggers": 24653,
    "mist": 5686,
    "rent": 1171,
    "frozen": 25139,
    "gunw": 17220,
    "Ġviolin": 16427,
    "ption": 7398,
    "judges": 19572,
    "Ġhereby": 10358,
    "Ġdegenerating": 25799,
    "Ġcove": 22579,
    "Ġwent": 1536,
    "Ġviciss": 11292,
    "Ġslate": 11936,
    "scot": 14413,
    "Ġmusic": 5268,
    "Ġperiods": 13302,
    "Ġlect": 9222,
    "Ġunfair": 19506,
    "Ġaint": 17744,
    "fortunes": 6332,
    "Ġjesty": 18405,
    "Ġwhalebone": 10977,
    "onsensical": 18576,
    "erity": 21266,
    "Ġjog": 18404,
    "Ġthoroughfares": 26095,
    "conduct": 11795,
    "Ġirrevoc": 15038,
    "Ġgossiping": 26243,
    "Ġperth": 7022,
    "drown": 13703,
    "Ġforb": 11662,
    "Ġpassenger": 14368,
    "Ġwhal": 5454,
    "Ġfoiled": 23242,
    "offing": 23331,
    "Ġxvi": 19104,
    "Ġquiescent": 26242,
    "bo": 1689,
    "ern": 771,
    "Ġraved": 22645,
    "Ġflail": 23004,
    "resses": 16151,
    "Ġprivile": 8645,
    "Ġbloodless": 19338,
    "Ġslack": 8955,
    "glass": 9908,
    "Ġbash": 12583,
    "Ġrevelations": 25223,
    "ks": 3146,
    "itty": 3553,
    "ascar": 8434,
    "Ġgettest": 23230,
    "Ġsidelong": 11438,
    "ksome": 10104,
    "bottom": 11426,
    "imp": 3032,
    "Ġalpine": 18105,
    "Ġhard": 1444,
    "Ġeclipsed": 26376,
    "smooth": 20247,
    "else": 6533,
    "ixed": 4851,
    "Ġborder": 10169,
    "Ġloafer": 18299,
    "Ġafterwards": 3530,
    "Ġhatty": 19264,
    "ĠÂ£": 5006,
    "Į": 239,
    "fters": 20860,
    "Ġgord": 21597,
    "Ġcreative": 9830,
    "ason": 1255,
    "Ġvisible": 4777,
    "Ġproblems": 2849,
    "Ġprehens": 22228,
    "teen": 6370,
    "Ġlogic": 13076,
    "Ġproperly": 7944,
    "hist": 7130,
    "web": 18663,
    "Ġcocaine": 20720,
    "Ġstamped": 13526,
    "Ġunsafe": 22038,
    "discernible": 20549,
    "Ġimaginary": 11186,
    "Ġintru": 15825,
    "Ġeliminating": 20618,
    "Ġinitial": 821,
    "nyder": 16686,
    "Ġpelt": 15607,
    "treasures": 26152,
    "Ġjudge": 5502,
    "Ġlocket": 22110,
    "Ġdolph": 12378,
    "Ġprofessions": 11231,
    "Ġdilated": 24704,
    "conquerable": 17398,
    "Ġendeav": 2955,
    "ambition": 13410,
    "Ġfee": 7198,
    "whaler": 20308,
    "Ġhemis": 21681,
    "Ġtattoo": 7359,
    "Ġsex": 8841,
    "Ġjeopardy": 13595,
    "Ġburke": 19250,
    "Ġgarn": 13962,
    "sad": 11520,
    "Ġostent": 13583,
    "Ġattempting": 14696,
    "Ġferule": 24499,
    "Ġoat": 21321,
    "laid": 10109,
    "Ġestimated": 16594,
    "Ġappear": 2485,
    "ribly": 8254,
    "Ġparting": 9782,
    "iliar": 15711,
    "Ġversion": 10629,
    "ihood": 20921,
    "Ġdisappoint": 24205,
    "Ġbehalf": 14506,
    "exercise": 17459,
    "Ġpa": 2989,
    "won": 7144,
    "Ġdispelling": 23878,
    "Ġreco": 9789,
    "trunk": 23945,
    "Ġclapping": 14202,
    "anybody": 12080,
    "Ġrecommendation": 17025,
    "athy": 14322,
    "Ġtransmit": 10304,
    "Ġejaculated": 15168,
    "Ġshaft": 18229,
    "fastened": 19324,
    "wants": 21129,
    "vate": 21108,
    "bury": 9106,
    "Ġreaped": 18029,
    "angry": 18289,
    "Ġpail": 15604,
    "Ġtwo": 1041,
    "Ġplaid": 22597,
    "Ġsepul": 14088,
    "Ġeucl": 24709,
    "Ġmostly": 7663,
    "Ġbeadle": 26484,
    "Ġpra": 4348,
    "Ġisolation": 17150,
    "near": 5842,
    "house": 4078,
    "Ġalt": 18098,
    "Ġcler": 11768,
    "Ġfurled": 22809,
    "hogs": 20080,
    "aset": 10832,
    "so": 890,
    "gling": 10097,
    "Ġwrig": 13065,
    "Ġthus": 2037,
    "urp": 1474,
    "Ġgipsies": 12406,
    "grave": 16092,
    "Ġamused": 11797,
    "Ġmorrow": 9341,
    "unken": 10236,
    "nowled": 5470,
    "ouched": 4637,
    "itically": 21328,
    "Ġomitted": 12561,
    "Ġtruth": 3322,
    "Ġcatholic": 20680,
    "Ġsenior": 17171,
    "disreputable": 23503,
    "Ġproduces": 2092,
    "Ġscaramouch": 23825,
    "Ġfew": 1194,
    "Ġsplashing": 16549,
    "hollow": 24037,
    "Ġletter": 2197,
    "Ġplaymate": 23639,
    "tumbled": 21089,
    "queness": 18147,
    "ream": 2711,
    "Ġdears": 18139,
    "crimes": 16697,
    "Ġwharves": 13505,
    "Ġkn": 4546,
    "Ġinsect": 12633,
    "Ġcomposedly": 25183,
    "lect": 1221,
    "Ġwherever": 8523,
    "Ġasylum": 13665,
    "related": 24009,
    "Ġimprovement": 7965,
    "Ġcompliment": 5673,
    "Ġscowl": 22282,
    "Ġupwards": 7633,
    "Ġslacked": 25188,
    "Ġdisputes": 25825,
    "elaborate": 21573,
    "Ġprofoundest": 16860,
    "Ġinches": 5845,
    "Ġdismantled": 20215,
    "Ġjunior": 15098,
    "Ġind": 1220,
    "Ġjunk": 15951,
    "stript": 21654,
    "mountain": 10713,
    "fears": 18529,
    "Ġsporting": 16999,
    "Ġflutter": 16245,
    "Ġhunks": 18935,
    "Ġexclaiming": 13640,
    "Ġframework": 2026,
    "Ġhesitated": 10001,
    "Ġsurging": 19133,
    "Ġcontrivances": 12355,
    "omen": 4087,
    "Ġcontriv": 9281,
    "nor": 2742,
    "herds": 22200,
    "Ġbathe": 25443,
    "Ġseethings": 26503,
    "Ġconcerned": 5331,
    "Ġstirred": 12215,
    "disgraceful": 26076,
    "Ù": 154,
    "Ġfinny": 23123,
    "steak": 14707,
    "Ġspecksnyder": 17402,
    "desire": 14473,
    "Ġchancery": 20715,
    "pardonable": 17217,
    "Ġzoology": 22816,
    "Ġperiod": 4001,
    "Ġcharm": 4548,
    "Ġrise": 5637,
    "arpo": 1756,
    "Ġune": 4599,
    "Ġhearty": 9845,
    "Ġfragments": 19036,
    "Ġhove": 17922,
    "Ġaf": 782,
    "J": 46,
    "iarity": 8743,
    "Ġcap": 2363,
    "ys": 3957,
    "joint": 24006,
    "Ġfounder": 17883,
    "matical": 13128,
    "Ġsoliloqu": 11883,
    "assemblies": 25956,
    "Ġsings": 15504,
    "swinging": 25912,
    "Ġtire": 17720,
    "Ġwhitish": 24866,
    "Ġactive": 7914,
    "Ġfinally": 4667,
    "idate": 21764,
    "murmured": 24455,
    "nals": 16398,
    "also": 7850,
    "Ġromish": 19583,
    "Ġremove": 7499,
    "Ġaccomplishments": 13378,
    "Ġpotential": 3618,
    "Ġcivilised": 24244,
    "Ġbanks": 6814,
    ".}": 20744,
    "Ġcalves": 13032,
    "braid": 17494,
    "Ġfierceness": 26265,
    "Ġinsc": 7585,
    "Ġodor": 12147,
    "degree": 12798,
    "Ġintu": 12760,
    "stir": 12670,
    "Ġeduc": 4785,
    "Ġmass": 3778,
    "Ġapoplexy": 25265,
    "fool": 9047,
    "Ġcomplement": 23708,
    "amet": 586,
    "strong": 6322,
    "Ġceremony": 8360,
    "tattoo": 21086,
    "colonel": 8284,
    "outward": 22157,
    "Ġpertin": 18449,
    "lighted": 23753,
    "Ġsorely": 17256,
    "humanity": 24839,
    "dered": 2473,
    "Ġfrock": 10489,
    "Ġfrankenstein": 7095,
    "Ġcomrades": 9554,
    "Ġpound": 12613,
    "Ġlistening": 6318,
    "thumb": 18218,
    "Ġrushed": 4088,
    "Ġaccumulates": 2890,
    "Ġbrain": 2087,
    "Ġboom": 9309,
    "Ġoccurred": 4462,
    "Ġscrutin": 26014,
    "Ġmothers": 14540,
    "Ġgreenness": 23766,
    "saturday": 14857,
    "Ġflora": 11416,
    "imental": 16533,
    "vial": 17697,
    "chel": 11207,
    "Ġsocks": 14133,
    "clergyman": 20728,
    "dl": 20822,
    "Ġforgetting": 3435,
    "Ġsteer": 10386,
    "Ġnash": 5819,
    "Ġsay": 935,
    "steam": 23957,
    "Ġbaron": 19333,
    "apothe": 22332,
    "Ġdiminishing": 4208,
    "Ġtreble": 16503,
    "Ġflung": 8562,
    "Ġunhinged": 26216,
    "numer": 15398,
    "rack": 18010,
    "Ġsaves": 18324,
    "Ġlan": 5820,
    "lins": 2027,
    "Ġcheeks": 5957,
    "Ġgenerates": 3662,
    "pet": 4867,
    "oat": 13763,
    "Ġpersons": 6180,
    "Ġlanguid": 14213,
    "ud": 910,
    "shaken": 16019,
    "Ġlawy": 9453,
    "Ġdrags": 16941,
    "Ġdinner": 4245,
    "Ġsurmises": 17055,
    "Ġreflect": 6575,
    "Ġgladstone": 23867,
    "Ġexertions": 13409,
    "Ġsecond": 1891,
    "Ġmodular": 12813,
    "attention": 2110,
    "://": 11465,
    "Ġencountered": 8321,
    "Ġhint": 5016,
    "aried": 10987,
    "Ġlowered": 6735,
    "daggoo": 13706,
    "Ġabout": 632,
    "Ġ$": 21149,
    "ĠĠĠĠĠĠĠĠĠĠĠĠĠĠĠĠĠĠĠĠĠĠĠĠĠĠĠĠĠĠĠĠĠĠĠĠĠĠĠĠĠĠĠ": 12152,
    "ighted": 8476,
    "Ġbrilliant": 11414,
    "Ġwherein": 14294,
    "Ġmaled": 21313,
    "Ġdisciple": 22779,
    "thee": 9689,
    "Ġrefrained": 14343,
    "rebellum": 26165,
    "Ġinfatuated": 20532,
    "leton": 5148,
    "Ġtints": 17727,
    "feels": 22499,
    "penetrating": 25490,
    "week": 12928,
    "Ġrevenue": 26194,
    "gentleness": 24844,
    "Ġremarkable": 4915,
    "Ġsweetest": 13245,
    "chest": 11208,
    "this": 1440,
    "Ġgrievances": 20647,
    "dissatisfied": 26612,
    "pronounce": 25192,
    "Ġinvader": 23479,
    "Ġviewed": 10463,
    "Ġlances": 6984,
    "Ġvenge": 5420,
    "Ġaustral": 12170,
    "Ġfound": 1243,
    "Ġtamer": 24976,
    "Ġpitch": 5767,
    "beneath": 9534,
    "desirable": 23204,
    "Ġwhispers": 14699,
    "Ġimmeas": 18330,
    "Ġbale": 7838,
    "evident": 25520,
    "Ġdiscovered": 4413,
    "Ġpreservation": 24630,
    "Ġfarmhouse": 24984,
    "Ġuses": 1209,
    "Ġbene": 2033,
    "bestowed": 12223,
    "Ġdisease": 14257,
    "Ġpretensions": 16558,
    "rolled": 9059,
    "Ġrelied": 16193,
    "Ġver": 3395,
    "ouder": 17900,
    "Ġpreparations": 12308,
    "itan": 10159,
    "Ġhysterical": 26092,
    "Ġtierce": 15477,
    "Ġengineer": 11973,
    "Ġaskance": 23147,
    "knows": 19171,
    "Ġdearly": 10401,
    "Ġstability": 1363,
    "ute": 4643,
    "puzz": 17640,
    "Ġextraordinary": 5414,
    "question": 5418,
    "Ġsatiated": 22899,
    "Ġhurrah": 9868,
    "Ġseas": 3077,
    "Ġcoil": 11816,
    "Ġshutting": 14758,
    "Ġvalid": 1706,
    "Ġalongside": 6311,
    "screw": 9345,
    "Ġinvoking": 19145,
    "Ġpike": 12620,
    "Ġleakage": 23458,
    "bed": 3293,
    "Ġarchipelagoes": 14350,
    "places": 7878,
    "Ġlawless": 19433,
    "sprang": 19989,
    "Ġfronted": 25854,
    "ğ": 224,
    "Ġint": 409,
    "Ġfavour": 3640,
    "whims": 22236,
    "thrasher": 25658,
    "Ġseethe": 21953,
    "Ġrounds": 18884,
    "Ġwhalers": 8047,
    "Ġhorrify": 23816,
    "summoned": 26591,
    "rue": 1129,
    "charmed": 21693,
    "Ġdiver": 2531,
    "Ġerected": 12231,
    "Ġcold": 3031,
    "Ġswiss": 18881,
    "Ġrapid": 1432,
    "Ġinsp": 2100,
    "butter": 11783,
    "knives": 14912,
    "Ġdevoid": 18688,
    "ordered": 8789,
    "iners": 4937,
    "Ġsake": 4092,
    "bons": 17486,
    "Ġforged": 12701,
    "Ġxiii": 25591,
    "isco": 12578,
    "Ġherbage": 25996,
    "Ġdare": 3544,
    "Ġincul": 22546,
    "Ġtumultuous": 10615,
    "surround": 16758,
    "attachment": 13049,
    "judge": 13335,
    "umpled": 15874,
    "indeed": 4488,
    "Ġchiefly": 5766,
    "Ġpul": 2041,
    "Ġeternity": 12276,
    "Ġstren": 15717,
    "Ġprophet": 7680,
    "Ġramadans": 25119,
    "manner": 6170,
    "Ġpositions": 2057,
    "Ġlacepede": 20493,
    "Ġintrig": 21987,
    "Ġmarched": 18870,
    "Ġe": 312,
    "Ġsealed": 15813,
    "Ġgallant": 8654,
    "sal": 8757,
    "stochastic": 3772,
    "Ġnailed": 10189,
    "acknowledging": 25476,
    "Ġfut": 15572,
    "Ġjealously": 24123,
    "Ġsacri": 18328,
    "Ġreport": 6191,
    "were": 2560,
    "Ġmari": 6813,
    "Ġcupidity": 24535,
    "bub": 15315,
    "whel": 7664,
    "illustration": 2284,
    "Ġlined": 15647,
    "Ġsustaining": 25333,
    "Ġdisk": 22519,
    "feather": 16041,
    "Ġdeft": 21834,
    "Ġdegraded": 19226,
    "insulting": 26055,
    "Ġprov": 4401,
    "Ġnieces": 8432,
    "Ġblankness": 24610,
    "Ġransacked": 26504,
    "ions": 449,
    "Ġmagnificent": 9841,
    "farewell": 12304,
    "kers": 7132,
    "Ġsuppl": 11078,
    "Ġopening": 5045,
    "Ġwillingness": 24910,
    "Ġancestors": 25642,
    "pursuit": 20339,
    "Ġtested": 23206,
    "Ġprecious": 5760,
    "Ġsle": 2011,
    "Ġfilm": 23922,
    "designated": 26295,
    "Ġrush": 5924,
    "Ġfollowed": 1793,
    "purse": 20023,
    "ruding": 9723,
    "steelkilt": 10046,
    "ountain": 2917,
    "Ġprofund": 13152,
    "Ġspreading": 13377,
    "Ġelder": 7223,
    "Ġmorose": 18841,
    "Ġepaulets": 24905,
    "prejudice": 25571,
    "Ġbr": 1071,
    "Ġpatiently": 19917,
    "Ġgradients": 611,
    "Ġerection": 23998,
    "tastes": 21095,
    "received": 9638,
    "Ġencoura": 1367,
    "antled": 18286,
    "Ġstarbuck": 2194,
    "photograph": 16150,
    "ccas": 15883,
    "Ġprobed": 18733,
    "Ġrattle": 10899,
    "Ġoppose": 16519,
    "list": 7551,
    "Ġentit": 22741,
    "government": 25406,
    "chancing": 22914,
    "Ġincessantly": 11411,
    "Ġdiscussion": 17194,
    "Ġlimit": 10443,
    "considerable": 10548,
    "oda": 15746,
    "Ġlakeman": 6986,
    "Ġside": 1387,
    "Ġtarshish": 12027,
    "ivation": 3111,
    "suff": 4961,
    "Ġprocessions": 18433,
    "Ġcounsell": 25384,
    "bbings": 19275,
    "imagination": 13479,
    "Ġspell": 8855,
    "humorously": 24017,
    "Ġsuper": 2153,
    "Ġdreading": 23797,
    "dread": 8728,
    "Ġher": 426,
    "Ġowe": 8114,
    "Ġseasonable": 24406,
    "Ġgenerate": 1527,
    "Ġwickham": 2205,
    "Ġlodge": 5779,
    "forth": 9321,
    "Ġsigma": 1540,
    "Ġnovels": 15927,
    "icles": 17972,
    "Ġspout": 3286,
    "Ġafrican": 20136,
    "Ġtongs": 9960,
    "Ġtons": 11549,
    "Ġtail": 3090,
    "ently": 1613,
    "Ġdungeon": 16996,
    "Ġdescend": 7427,
    "isis": 12576,
    "Ġpencils": 23192,
    "acey": 7649,
    "ctive": 11622,
    "ain": 343,
    "frantic": 24283,
    "Ġsickbed": 24246,
    "Ġvestige": 20061,
    "Ġagricultural": 26550,
    "Ġeven": 1026,
    "Ġdeference": 10882,
    "Ġbefriend": 18081,
    "dried": 20826,
    "Ġgravesend": 15215,
    "Ġproximity": 3224,
    "Ġconditions": 8306,
    "viating": 14579,
    "Ġsuffer": 4722,
    "otle": 21794,
    "Ġthousand": 2782,
    "Ġhideousness": 16915,
    "Ġplatform": 17131,
    "achus": 18283,
    "Ġgreater": 3038,
    "shri": 14234,
    "Ġren": 3843,
    "urements": 18123,
    "Ġcarved": 7946,
    "reply": 19721,
    "Ġbravest": 23838,
    "Ġtepid": 26412,
    "Ġbrim": 12974,
    "Ġstreat": 15718,
    "used": 3264,
    "talked": 14984,
    "Ġorganization": 7983,
    "Ġwallowed": 24039,
    "ifer": 11682,
    "deploy": 22140,
    "Ġexclaim": 11221,
    "Ġbusier": 23336,
    "Ġstrokes": 16769,
    "Ġfiercely": 12949,
    "tier": 12512,
    "stalk": 21647,
    "ginger": 13162,
    "she": 1397,
    "Ġrevealed": 6751,
    "Ġblaming": 22927,
    "Ġsympathised": 14861,
    "ough": 472,
    "Ġundoubtedly": 8312,
    "Ġcomra": 7183,
    "professional": 20274,
    "Ġjac": 1898,
    "met": 6652,
    "Ġpemberley": 4589,
    "_": 67,
    "Ġsaying": 3248,
    "Ġextravag": 11254,
    "disp": 7976,
    "mare": 17599,
    "Ġmil": 4256,
    "Ġcreate": 2090,
    "Ġforces": 12699,
    "holland": 24038,
    "Ġgor": 9206,
    "Ġbreaks": 13182,
    "59": 17473,
    "ond": 1162,
    "death": 6261,
    "Ġscholars": 26112,
    "iries": 18169,
    "Ġscroll": 14191,
    "iancy": 13006,
    "re": 266,
    "Ġpalsy": 25778,
    "Ġpumps": 8426,
    "ĠĠĠĠĠĠĠĠĠĠĠĠĠĠĠĠĠĠĠĠĠĠĠĠĠĠĠĠĠĠĠĠĠĠĠĠĠĠĠĠĠĠĠĠĠĠĠĠĠĠĠĠĠĠĠĠĠĠĠĠ": 19259,
    "Ġensemble": 1606,
    "crowning": 25748,
    "Ġsee": 800,
    "Ġcocksure": 26258,
    "Ġmoccas": 22433,
    "Ġsuited": 12781,
    "Ġfreemason": 23210,
    "Ġsense": 3255,
    "Ġdz": 4756,
    "Ġl": 303,
    "boom": 18998,
    "Ġgot": 2281,
    "tarpaulins": 26405,
    "athered": 6972,
    "Ġbequest": 21750,
    "vous": 2248,
    "ĠĠĠĠĠĠĠĠĠĠĠĠĠĠĠĠĠĠĠĠĠĠĠĠĠĠĠĠĠĠĠĠĠĠĠĠĠĠĠĠĠĠĠĠĠĠĠĠĠĠĠĠĠ": 20038,
    "Ġshilling": 18228,
    "Ġannual": 14831,
    "Ġunflinching": 26512,
    "Ġinward": 11606,
    "Ġmenaced": 16291,
    "Ġforesaw": 19127,
    "Ġinstigated": 18698,
    "Ġearthy": 23711,
    "Ġhus": 3093,
    "Ġbenefits": 4288,
    "injury": 25213,
    "Ġxavier": 2855,
    "Ġgerm": 13963,
    "Ġbits": 11587,
    "riers": 18181,
    "Ġacquainted": 5179,
    "Ġunbroken": 18250,
    "yset": 21144,
    "Ġpittance": 15614,
    "Ġhackney": 20431,
    "vour": 17699,
    "pherd": 13643,
    "Ġrect": 18025,
    "Ġknowest": 12860,
    "Ġpropont": 16348,
    "Ġlosing": 10916,
    "Ġangle": 8602,
    "Ġcons": 953,
    "Ġdictating": 20151,
    "amore": 21846,
    "died": 10693,
    "Ġobe": 5800,
    "claim": 9834,
    "Ġspirit": 3722,
    "rence": 5555,
    "Ġages": 7028,
    "Ġrally": 21965,
    "Ġmurdered": 6464,
    "Ġaloysius": 15735,
    "Ġhose": 12624,
    "Ġeffectively": 2623,
    "Ġdownst": 3557,
    "bantering": 25253,
    "Ġthunders": 15635,
    "Ġresides": 22537,
    "Ġtearless": 24786,
    "aled": 3942,
    "Ġfaster": 3202,
    "Ġcosmetic": 23472,
    "Åĵuvre": 25887,
    "Ġthought": 1095,
    "vint": 21113,
    "Ġrifts": 21972,
    "Ġharpooned": 13260,
    "Ġalex": 15132,
    "Ġtwinkled": 14311,
    "inging": 5906,
    "Ġxviii": 23408,
    "disgu": 19153,
    "emed": 3381,
    "Ġtyp": 1131,
    "assuming": 22306,
    "ington": 21300,
    "Ġassociation": 24711,
    "discern": 14850,
    "Ġcoppers": 22582,
    "bered": 4505,
    "asily": 13945,
    "Ġcontrari": 23347,
    "nial": 20983,
    "Ġkey": 2101,
    "Ġsideways": 6182,
    "onet": 12542,
    "overfitting": 13099,
    "wanderer": 25423,
    "Ġpossessing": 16575,
    "cures": 20804,
    "awned": 19458,
    "respective": 19845,
    "Ġrendering": 16657,
    "ged": 1510,
    "mselves": 2863,
    "convinced": 10622,
    "Ġsnake": 12059,
    "Ġschedules": 3388,
    "Ġcolours": 12971,
    "Ġfullest": 14813,
    "ĠĠĠĠĠĠĠĠĠĠ": 18577,
    "K": 47,
    "Ġwarden": 17224,
    "Ġbount": 15565,
    "shud": 18483,
    "Ġmature": 17799,
    "Ġapothe": 12373,
    "Ġbeeches": 9226,
    "Ġencode": 4366,
    "Ġcom": 367,
    "Ġfrankly": 16745,
    "gaining": 20122,
    "thirty": 12759,
    "Ġcovari": 2338,
    "iform": 2200,
    "Ġoccup": 3737,
    "Ġcult": 8781,
    "lungs": 26135,
    "somewhere": 12011,
    "Ġclenched": 14203,
    "Ġtyph": 10007,
    "Ġhurtling": 24957,
    "repe": 8775,
    "Ġmock": 3689,
    "Ġ107": 24415,
    "Ġshone": 7404,
    "owners": 16085,
    "Ġpiteous": 17917,
    "Ġreliance": 14384,
    "Ġjavel": 17084,
    "Ġpreacher": 18369,
    "Ġforms": 6397,
    "Ġperfidious": 25666,
    "muring": 17601,
    "Ġconquer": 14026,
    "Ġgrud": 17995,
    "ersman": 11697,
    "owed": 2269,
    "eled": 2357,
    "Ġmiss": 1228,
    "leagues": 21371,
    "grace": 5846,
    "Ġclinch": 18424,
    "Ġhairs": 13229,
    "Ġinestim": 15621,
    "Ġsulky": 13514,
    "Ġregretted": 13399,
    "ener": 563,
    "Ġinquirer": 24961,
    "inarticulate": 21194,
    "Ġinsufficient": 9672,
    "gaz": 20877,
    "Ġinboard": 17932,
    "Ġfrozen": 9012,
    "Ġbend": 9170,
    "Ġprints": 16329,
    "Ġmoods": 14950,
    "Ġmentioning": 9898,
    "Ġdearest": 5457,
    "Ġsensationalism": 26067,
    "desp": 6075,
    "Ġintroduces": 3273,
    "Ġchuck": 8500,
    "Ġtasks": 1787,
    "Ġfeast": 10277,
    "Ġimperson": 14218,
    "count": 4212,
    "hunted": 16832,
    "asol": 21537,
    "Ġpuppy": 12403,
    "Ġembed": 1454,
    "fleece": 19946,
    "Ġtang": 13813,
    "rents": 5308,
    "Ġsketch": 16163,
    "Ġmethodically": 23132,
    "Ġrom": 4525,
    "Ġcommanders": 23866,
    "Ġpurchases": 24756,
    "Ġshadow": 5596,
    "Ġsqueeze": 10038,
    "Ġsecondly": 14518,
    "embraced": 25806,
    "Ġceleb": 20224,
    "Ġcommunicating": 16889,
    "Ġmultiple": 1187,
    "Ġpreluding": 18368,
    "Ġanchored": 17439,
    "Ġradiance": 13369,
    "twice": 14621,
    "loops": 12880,
    "Ġtransport": 11278,
    "Ġinte": 2065,
    "Ġlobster": 11389,
    "Ġvincent": 15282,
    "Ġungovernable": 20708,
    "tracks": 19637,
    "vacancies": 25919,
    "Ġwaving": 8575,
    "Ġobst": 6283,
    "kinder": 24845,
    "Ġninetieth": 25357,
    "resentment": 15184,
    "warm": 8101,
    "Ġheire": 18036,
    "Ġdegra": 2591,
    "Ġwaist": 6892,
    "Ġsumm": 3357,
    "acit": 16078,
    "iz": 364,
    "Ġsebastian": 11694,
    "depart": 12263,
    "balanced": 14555,
    "Ġembellish": 25849,
    "thank": 4950,
    "Ġarr": 1798,
    "Ġnew": 1197,
    "Ġexile": 12714,
    "ler": 3491,
    "Ġcaw": 13882,
    "Ġdiscrimination": 23607,
    "Ġdealer": 23974,
    "Ġserpents": 13075,
    "Ġmended": 21312,
    "Ġlongest": 18629,
    "Ġbeliefs": 24582,
    "âĢľâĢĺ": 1485,
    "Ġprisoner": 8672,
    "Ġ550": 19640,
    "Ġstarvation": 19790,
    "Ġcit": 10783,
    "ivil": 6411,
    "emptied": 23637,
    "Ġperception": 9749,
    "account": 5329,
    "information": 12391,
    "Ġsand": 6235,
    "Ġbloodthirst": 23800,
    "Ġfortunate": 6214,
    "rians": 21922,
    "ickory": 22666,
    "Ġtantamount": 25625,
    "Ġclumsy": 9579,
    "dig": 4929,
    "Ġpaws": 13920,
    "eck": 20843,
    "supplementary": 20548,
    "fear": 8513,
    "Ġrubbing": 9320,
    "shipped": 18486,
    "Ġsarat": 21226,
    "swell": 17663,
    "itering": 17818,
    "Ġwhisky": 23931,
    "iour": 4037,
    "beth": 13687,
    "Ġintelligently": 4234,
    "Ġroofs": 16985,
    "Ġoverflow": 10292,
    "ock": 15401,
    "Ġgratified": 8021,
    "Ġhome": 2029,
    "Ġattack": 5478,
    "leaned": 21367,
    "Ġref": 916,
    "something": 4286,
    "Ġphilips": 5410,
    "ulties": 12898,
    "Ġtropical": 17065,
    "Ġdiscount": 22777,
    "Ġcorpusants": 13676,
    "mockery": 24378,
    "unch": 14057,
    "Ġloaded": 8490,
    "probable": 17021,
    "Ġperfect": 2558,
    "ultaneously": 4192,
    "Ġdynamic": 5122,
    "unicorn": 21886,
    "Ġexter": 7397,
    "Ġcharged": 9853,
    "Ġsprinkled": 19495,
    "Ġsembl": 19061,
    "Ġtranquil": 7310,
    "Ġcomposure": 7217,
    "Ġdisplays": 19856,
    "Ġsupervised": 3382,
    "Ġfurious": 10354,
    "Ġlevel": 5020,
    "Ġgenerations": 10965,
    "Ġluggage": 25957,
    "Ġperdition": 15990,
    "Ġscarcity": 23824,
    "shrouded": 26361,
    "Ġsleek": 23382,
    "Ġcomponents": 8892,
    "Ġegypt": 9678,
    "Ġwalton": 14971,
    "Ġcut": 2644,
    "Ġcongealed": 25981,
    "case": 5206,
    "Ġparmacetti": 20603,
    "Ġdecrease": 4200,
    "your": 1983,
    "Ġlashings": 25097,
    "Ġtreas": 7358,
    "Ġmadman": 13150,
    "Ġaloud": 6252,
    "?--": 15302,
    "roofed": 26183,
    "Ġtusks": 17253,
    "Ġphant": 7055,
    "Ġrepenting": 25322,
    "ille": 9219,
    "Ġagile": 22509,
    "Ġfatal": 5871,
    "Ġpleated": 16295,
    "Ġanat": 8123,
    "Ġdelight": 2550,
    "Ġcommunic": 5751,
    "adequately": 20318,
    "Ġzeal": 9097,
    "Ġuncle": 3195,
    "movable": 14323,
    "Ġunreason": 15840,
    "canonical": 22960,
    "Ġeavesdroppers": 25963,
    "Ġcorroborated": 26054,
    "Ġinject": 2713,
    "Ġnumer": 3637,
    "Ġperishing": 22394,
    "İ": 241,
    "Ġmerged": 19295,
    "Ġframe": 1935,
    "bly": 6110,
    "Ġentering": 6285,
    "Ġjogged": 26236,
    "Ġstrongest": 11135,
    "Ġravines": 25831,
    "security": 26206,
    "Ġscheme": 7064,
    "Ġsubmit": 11868,
    "Ġacquiesce": 20328,
    "Ġgrasping": 12163,
    "Ġincrease": 9369,
    "Ġparagraph": 17453,
    "contained": 22469,
    "Ġinnocently": 24025,
    "Ġconsequence": 5542,
    "final": 19675,
    "Ġtester": 21171,
    "Ġworked": 6583,
    "Ġbump": 9659,
    "Ġpleasantest": 24136,
    "lamps": 25260,
    "nay": 7135,
    "Ġadvertisement": 6941,
    "revival": 26162,
    "simple": 13451,
    "ashes": 6015,
    "Ġdr": 2826,
    "30": 20753,
    "Ġanecdote": 26354,
    "Ġsmote": 18574,
    "willingness": 24755,
    "h": 76,
    "cowardly": 25749,
    "Ġstoper": 14461,
    "hence": 16624,
    "inex": 14095,
    "Ġbuttoning": 17235,
    "Ġexecution": 6927,
    "}": 97,
    "Ġcook": 3710,
    "Ġblaze": 16218,
    "Ġsecondary": 23334,
    "Ġduplicates": 17216,
    "atigable": 15269,
    "parlour": 16396,
    "Ġtruest": 16703,
    "Ġcontinuously": 23202,
    "every": 2812,
    "Ġpersuading": 19408,
    "Ġinspiring": 19112,
    "Ġflourished": 15124,
    "lies": 15380,
    "Ġblown": 12083,
    "Ġplanks": 5563,
    "sorrow": 12506,
    "lift": 15383,
    "ok": 574,
    "olently": 15754,
    "Ġagent": 6277,
    "Ġconjectured": 9996,
    "Ġcrav": 19172,
    "Ġutility": 23514,
    "madam": 24421,
    "boats": 6204,
    "int": 1199,
    "Ġglass": 4370,
    "quer": 11678,
    "Ġherring": 14126,
    "Ġgirls": 4281,
    "habit": 16187,
    "Ġdeeper": 2083,
    "Ġcoincid": 20316,
    "pumps": 21026,
    "Ġblanc": 11065,
    "Ġlazarus": 15028,
    "Ġstrike": 4855,
    "Ġclaims": 13372,
    "Ġdelighted": 5499,
    "kempt": 20940,
    "Ġte": 1148,
    "Ġthrills": 24542,
    "Ġsunken": 14493,
    "Ġmowers": 17812,
    "Ġfifteen": 6947,
    "Ġcontents": 7210,
    "Ġslappin": 18942,
    "Ľ": 254,
    "person": 7745,
    "marry": 13322,
    "fall": 5135,
    "proachable": 23396,
    "saved": 15430,
    "Ġwebster": 20160,
    "Ġbadly": 12129,
    "Ġcreativity": 3140,
    "Ġpeculiarity": 12930,
    "dish": 12450,
    "Ġgrace": 5374,
    "ogr": 18673,
    "Ġfixed": 2687,
    "Ġnumbers": 2888,
    "Ġenthusiastic": 19964,
    "ssing": 3807,
    "Ġhelplessness": 25071,
    "contempl": 13188,
    "wretched": 10741,
    "Ë": 140,
    "drew": 7334,
    "engine": 18926,
    "Ġfled": 6670,
    "Ġbuoyant": 13531,
    "atural": 911,
    "Ġpleasure": 2697,
    "inguish": 9396,
    "until": 6596,
    "Ġsuperiors": 23454,
    "compliments": 24810,
    "ont": 2625,
    "omist": 21635,
    "'re": 12426,
    "Ġdesire": 3715,
    "Ġsoothing": 8172,
    "imag": 6990,
    "unpardonable": 21887,
    "Ġdetain": 14182,
    "Ġdisposition": 5409,
    "Ġindividual": 5744,
    "distant": 13333,
    "Ġshape": 5639,
    "Ġexpressed": 4467,
    "thirds": 25046,
    "japan": 15373,
    "tri": 11529,
    "Ā": 193,
    "Ġactivation": 918,
    "Ġanalysis": 1926,
    "Ġdelicacy": 6340,
    "Ġsimul": 1807,
    "Ġfascinated": 25635,
    "03": 20747,
    "uzza": 11270,
    "lasting": 8010,
    "Ġdelic": 4134,
    "stays": 15686,
    "Ġpressed": 6041,
    "Ġgardener": 19134,
    "droppers": 24759,
    "Ġbou": 17852,
    "Ġaudits": 24770,
    "Ġhapp": 1092,
    "Ġpasseng": 12968,
    "ivery": 17572,
    "Ġhealthful": 24055,
    "fishing": 20858,
    "vere": 4883,
    "Ġfloor": 4379,
    "ividually": 22085,
    "Ġcalf": 16265,
    "Ġheels": 10850,
    "irting": 11684,
    "ignorance": 17161,
    "gan": 2198,
    "itance": 13867,
    "Ġtelling": 5747,
    "houn": 20892,
    "Ġsupposition": 9816,
    "Ġ74": 24261,
    "Ġtill": 1825,
    "fixed": 7548,
    "Ġmightier": 18730,
    "Ġouthouse": 22311,
    "archangel": 18785,
    "ispens": 8335,
    "Ġexertion": 8053,
    "Ġbes": 2662,
    "Ġsupers": 18278,
    "Ġinformation": 1047,
    "Ġrenewing": 19809,
    "Ġperceptibly": 25821,
    "garnished": 26388,
    "Ġhopelessly": 16374,
    "ojo": 7349,
    "such": 3082,
    "Ġtormenting": 15103,
    "Ġjava": 12310,
    "âĢĿâĢĶ": 5721,
    "Ġreassure": 21669,
    "trad": 21075,
    "Ġpool": 5173,
    "Ġforger": 15730,
    "preser": 9759,
    "Ġseventeen": 26210,
    "Ġsphy": 18311,
    "itoring": 21330,
    "Ġprinc": 4199,
    "barrow": 15320,
    "Ġjollity": 25566,
    "Ġskylarking": 19485,
    "Ġstopped": 5956,
    "Ġhow": 598,
    "Ġalterations": 19870,
    ":--âĢľ": 24550,
    "wishing": 21127,
    "Ġletting": 10362,
    "egyptians": 25898,
    "Ġhostile": 19938,
    "Ġuncounted": 19116,
    "Ġactivity": 7919,
    "olic": 14041,
    "Ġabstra": 22268,
    "Ġviolent": 5117,
    "Ġfelt": 1745,
    "Ġsloping": 11937,
    "same": 5361,
    "Ġpersist": 16270,
    "Ġpostponed": 20388,
    "Ġpenalty": 1840,
    "figure": 13554,
    "Ġluxuries": 25163,
    "intending": 22932,
    "Ġnecks": 18183,
    "Ġblemish": 19678,
    "attempted": 20173,
    "Ġmates": 4872,
    "Ġbrightness": 16576,
    "ake": 751,
    "cont": 2919,
    "Ġeloquent": 16108,
    "Ġmusket": 12294,
    "Ġforge": 8456,
    "ty": 998,
    "herald": 22202,
    "learned": 8591,
    "Ġforgotten": 5679,
    "Ġshar": 9249,
    "Ġdictated": 25218,
    "Ġtrials": 16789,
    "bastian": 10673,
    "iter": 4392,
    "inger": 6812,
    "gers": 8375,
    "Ġdisturbed": 8671,
    "Ġphilistines": 26082,
    "anxiously": 15109,
    "Ġingrat": 16840,
    "behind": 6779,
    "Ġexpatiate": 18625,
    "foolish": 12345,
    "Ġmathematical": 3352,
    "cnns": 3620,
    "Ġstrong": 1786,
    "Ġdiscerned": 25003,
    "ants": 1390,
    "chan": 1165,
    "oors": 17620,
    "Ġpharaoh": 26585,
    "Ġtoe": 13935,
    "Ġsympathies": 14860,
    "ool": 17618,
    "downstairs": 23917,
    "Ġswim": 3818,
    "Ġvide": 10250,
    "Ġpap": 8797,
    "Ġdiscoverers": 26036,
    "Ġcabaco": 13166,
    "char": 3503,
    "Ġdive": 10172,
    "Ġcurse": 7667,
    ",--âĢľ": 19196,
    "initions": 21186,
    "acc": 2534,
    "ü": 189,
    "Ġnoteworthy": 24162,
    "enhall": 13849,
    "Ġfrequencies": 4789,
    "¦": 104,
    "Ġcoin": 9770,
    "roads": 17957,
    "Ġmyster": 5925,
    "Ġensigns": 23688,
    "recl": 15509,
    "Ġstructural": 2799,
    "Ġlurk": 13382,
    "Ġown": 1005,
    "Ġpane": 21461,
    "commanding": 24752,
    "Ġnodes": 1966,
    "atre": 17770,
    "Ġmodel": 509,
    "Ġdrawback": 23987,
    "keenest": 25661,
    "Ġlayer": 1012,
    "Ġcrowded": 8011,
    "Ġmastiff": 23723,
    "Ġmedium": 16681,
    "kye": 20937,
    "Ġmatch": 4529,
    "Ġmortally": 23914,
    "steel": 8298,
    "Ġbourgh": 5069,
    "Ġrocks": 6863,
    "Ġsuppress": 13017,
    "Ġbrows": 13299,
    "ridden": 24362,
    "Ġcoachman": 15000,
    "hears": 12530,
    "Ġilluminated": 20174,
    "Ġcomforter": 20505,
    "lie": 12480,
    "aster": 1867,
    "Ġfrederick": 15584,
    "Ġcocain": 18596,
    "Ġmixing": 24934,
    "Ġtar": 2566,
    "oftener": 23962,
    "mology": 12489,
    "quee": 4130,
    "Ġgallery": 10524,
    "loa": 18534,
    "intellig": 5320,
    "Ġdisguise": 10045,
    "apparat": 22841,
    "shout": 22439,
    "zek": 16260,
    "Ġoccupant": 16651,
    "Ġcommanded": 6330,
    "Ġcompre": 4448,
    "Ġpassage": 3884,
    "ained": 3065,
    "Ġmorass": 22966,
    "Ġmalay": 24391,
    "Ġoust": 21322,
    "pointed": 9809,
    "Ġdetermination": 9818,
    "deliver": 19503,
    "Ġbritish": 11337,
    "baden": 25615,
    "Ġcaresses": 26059,
    "Ġcunning": 6238,
    "Ġincorrect": 2730,
    "urring": 21702,
    "Ġaversion": 18865,
    "Ġdistrict": 10318,
    "Ķ": 247,
    "Ġlod": 4042,
    "blot": 20782,
    "Ġwarrant": 17794,
    "py": 17624,
    "Ġbaw": 15566,
    "Ġcrosses": 23059,
    "fa": 7336,
    "Ġinh": 10824,
    "Ġfootman": 8287,
    "Ġelse": 2481,
    "Ġsec": 2075,
    "Ġthreaten": 24374,
    "waiting": 12218,
    "ples": 6845,
    "hunsford": 24386,
    "phr": 18710,
    "resembling": 25932,
    "ferent": 4193,
    "Ġbachel": 7158,
    "Ġlids": 12273,
    "annica": 24561,
    "jacket": 12290,
    "iag": 20915,
    "asional": 17959,
    "Ġresults": 7308,
    "Ġposit": 1304,
    "Ġshan": 9248,
    "Ġexchanged": 10878,
    "lever": 2932,
    "Ġtoilette": 20491,
    "Ġwilling": 7421,
    "answers": 22137,
    "Ġmanxman": 9565,
    "etwork": 444,
    "Ġfills": 12591,
    "agony": 14068,
    "Ġcous": 3437,
    "Ġbol": 6241,
    "Ġfam": 1583,
    "igan": 21695,
    "offic": 7466,
    "Ġregent": 18583,
    "Ġapology": 8327,
    "Ġsuperhuman": 23452,
    "Ġunknown": 4453,
    "Ġbristling": 20525,
    "Ġextraction": 11253,
    "acknowled": 10975,
    "Ġsubset": 9869,
    "Ġautonomous": 10675,
    "Ġpostpone": 17306,
    "Ġscud": 14190,
    "Ġgod": 1936,
    "Ġbengal": 18783,
    "personal": 24963,
    "atum": 21258,
    "Ġhither": 4759,
    "Ġarches": 14162,
    "Ġchal": 18377,
    "voice": 7816,
    "Ġconjoined": 21803,
    "Ġlaudanum": 20689,
    "Ġdiscover": 4718,
    "Ġscene": 3099,
    "Ġmuskets": 17056,
    "neurons": 3135,
    "gu": 3954,
    "uch": 878,
    "Ġdrag": 6184,
    "companion": 9557,
    "Ġ101": 24409,
    "S": 55,
    "tranquillity": 20545,
    "Ġannotations": 25954,
    "ware": 3933,
    "umb": 3478,
    "gale": 13723,
    "Ġwarring": 16865,
    "Ġtam": 7821,
    "Ġbusied": 19066,
    "surpr": 5996,
    "Ġdiffusion": 23781,
    "Ġnarratives": 24353,
    "Ġev": 4828,
    "Ġsoutherly": 23332,
    "ifications": 9727,
    "Ġfundamental": 3013,
    "Ġidler": 16404,
    "rese": 15507,
    "unreasonable": 18162,
    "Ġfatally": 19392,
    "bal": 2155,
    "Ġtackle": 9512,
    "Ġhints": 8429,
    "arabian": 26446,
    "Ġanywhere": 8516,
    "pursu": 11392,
    "Ġefficient": 1072,
    "Ġcollege": 11424,
    "hear": 10146,
    "Ġappropriated": 23485,
    "Ġperv": 15988,
    "osop": 4405,
    "Ġswiftly": 5670,
    "Ġprovided": 6577,
    "Ġdiet": 13909,
    "Ġdepart": 4657,
    "Ġpetulance": 24227,
    "Ġbethinking": 25279,
    "iriously": 18171,
    "ou": 287,
    "Ġmagnanimous": 17410,
    "Ġexpedite": 24953,
    "Ġtragic": 15254,
    "Ġhandsome": 4906,
    "Ġsed": 10761,
    "stat": 21641,
    "explanation": 12356,
    "Ġcease": 7076,
    "sake": 13782,
    "lue": 8508,
    "Ġoverlook": 10960,
    "Ġprecipices": 12275,
    "Ġnotion": 7881,
    "Ġtransitory": 16016,
    "capting": 24036,
    "Ġtimes": 2302,
    "Ġpop": 5151,
    "unts": 12728,
    "Ġharbour": 19978,
    "âĢĶâĢĿ": 3303,
    "hip": 8740,
    "begone": 12875,
    "shining": 18485,
    "exagger": 22425,
    "Ġarchangel": 8543,
    "readily": 19360,
    "addressed": 13384,
    "profound": 16424,
    "instinct": 19542,
    "Ġsleepless": 14582,
    "Ġinterpret": 5490,
    "Ġ45": 14769,
    "crated": 16696,
    "Ġtop": 2471,
    "touched": 15438,
    "Ġsupplied": 8943,
    "Ġcongeal": 25980,
    "secured": 16938,
    "Ġghost": 6142,
    "Ġliber": 5168,
    "collins": 6916,
    "thing": 1480,
    "Ġtornado": 24621,
    "Ġlarboard": 11009,
    "avish": 22591,
    "Ġyarns": 15194,
    "Ġembarks": 22993,
    "Ġinfinite": 8576,
    "alone": 10183,
    "creat": 20799,
    "physiogn": 26264,
    "speeches": 25239,
    "Ġsurve": 9873,
    "Ġhospitality": 13512,
    "Ġrephrased": 26477,
    "Ġconfident": 11138,
    "Ġvainly": 9923,
    "crews": 15042,
    "Ġshank": 21994,
    "Ġwoes": 23983,
    "atory": 6125,
    "prosperity": 20734,
    "Ġpewter": 17185,
    "Ġhonorable": 16876,
    "neighbour": 7211,
    "Ġeddies": 23436,
    "Ġlee": 4222,
    "<SOS>": 1,
    "Ġissues": 9541,
    "Ġbeef": 6830,
    "detective": 24383,
    "motion": 17606,
    "Ġerrors": 2598,
    "Ġdifferences": 18714,
    "Ġexhibited": 9543,
    "Ġstormy": 16728,
    "Ġselling": 21223,
    "Ġkilling": 13331,
    "Ġdispel": 16596,
    "Ġencoder": 3634,
    "Ġinserting": 19905,
    "Ġhands": 1662,
    "Ġempires": 19075,
    "Ġwitty": 21291,
    "preserving": 25304,
    "arched": 10815,
    "Ġdishon": 12228,
    "Ġcalculating": 9924,
    "Ġheavenly": 12082,
    "thern": 4953,
    "Ġswerve": 14436,
    "range": 3494,
    "Ġprevention": 16091,
    "musket": 25341,
    "Ġrat": 4355,
    "spring": 7231,
    "Ġlock": 5927,
    "Ġinhospit": 25452,
    "Ġsets": 8773,
    "Ġsuperlatively": 26075,
    "various": 10397,
    "Ġsafe": 5103,
    "Ġknow": 631,
    "Ġobjectionable": 16991,
    "Ġcin": 13874,
    "allows": 15905,
    "Ġjoosy": 23633,
    "prom": 6509,
    "Ġposted": 16724,
    "fun": 3861,
    "bies": 15311,
    "destroyed": 15259,
    "Ġremoter": 20104,
    "foundation": 16714,
    "Ġantip": 24177,
    "Ġembra": 6579,
    "Ġmonarch": 14411,
    "cat": 15323,
    "Ġpushed": 5909,
    "Ġrel": 1099,
    "hinting": 17569,
    "secre": 18127,
    "witness": 10034,
    "Ġhonour": 3921,
    "buried": 14848,
    "Ġinform": 995,
    "Ġfeminine": 15262,
    "situ": 9621,
    "Ġaccomp": 4713,
    "stalls": 26473,
    "conjecturing": 20133,
    "Ġliking": 23590,
    "walks": 19720,
    "Ġfidget": 15188,
    "bill": 10075,
    "thither": 21980,
    "Ġascending": 14853,
    "programming": 10062,
    "Ġprefer": 6416,
    "sufferable": 12174,
    "Ġqueen": 3218,
    "Ġfr": 1694,
    "Ġadjusted": 23457,
    "Ġhomeward": 9391,
    "Ġvexations": 24609,
    "Ġleviathan": 3292,
    "Ġjournal": 15217,
    "along": 6012,
    "Ġreven": 18028,
    "spermaceti": 12191,
    "mons": 17600,
    "°": 113,
    "Ġmilk": 6485,
    "animate": 12574,
    "goin": 23401,
    "Ġhenry": 5197,
    "cent": 8072,
    "nourished": 26398,
    "Ġdevotees": 25376,
    "Ġbully": 23854,
    "shuff": 18484,
    "resh": 8403,
    "ir": 379,
    "Ġtraits": 23072,
    "Ġtrif": 6269,
    "Ġcarpets": 18902,
    "Ġcustom": 5078,
    "Ġcorp": 5574,
    "Ġoutside": 5554,
    "iple": 4806,
    "Ġretain": 7862,
    "batt": 20777,
    "twilight": 23701,
    "Ġdisown": 22521,
    "Ġgreenland": 5761,
    "ishnoo": 10955,
    "Ġpills": 21464,
    "Ġwhatever": 3473,
    "Ġhampshire": 15241,
    "Ġglaciers": 20172,
    "Ġveins": 8932,
    "Ġconfidently": 24955,
    "Ġ28": 19293,
    "Ġdesolation": 12266,
    "Ġcomforts": 14693,
    "america": 17097,
    "Ġchanges": 2287,
    "Ġser": 1671,
    "Ġcovering": 13254,
    "hound": 20894,
    "Ġglue": 15671,
    "Ġcircumference": 13544,
    "hardly": 6491,
    "rised": 10123,
    "Ġsurplus": 26303,
    "Ġinvoked": 19144,
    "return": 5489,
    "imony": 12687,
    "Ġrubbed": 12952,
    "Ġcelebrated": 13593,
    "Ġboard": 3385,
    "Ġpronounce": 16968,
    "Ġjiff": 22293,
    "Ġperil": 5557,
    "Ġincensed": 18571,
    "ancies": 11583,
    "Ġoverbearing": 12840,
    "beheaded": 22489,
    "Ġslapped": 23168,
    "Ġsorrows": 13353,
    "quietly": 10592,
    "Ġmouthfuls": 20645,
    "Ġding": 12596,
    "Ġmah": 15538,
    "ressed": 3023,
    "Ġblasphemer": 26116,
    "Ġdiffused": 12066,
    "Ġwan": 15526,
    "isions": 6130,
    "Ġpatagonian": 20533,
    "riv": 3110,
    "Ġforgetfulness": 14606,
    "Ġart": 750,
    "Ġbreakfast": 3973,
    "ilight": 12690,
    "Ġlengthen": 15651,
    "Ġbier": 22758,
    "Ġmaybe": 12946,
    "not": 908,
    "where": 2091,
    "any": 3340,
    "Ġadmeasure": 18295,
    "Ġdaybreak": 18727,
    "Ġduck": 8793,
    ").": 1272,
    "unction": 10234,
    "hs": 8377,
    "Ġslumbers": 18941,
    "Ġrelevance": 5184,
    "Ġsatur": 1930,
    "Ġadventure": 5980,
    "Ġformerly": 7493,
    "Ġtransf": 22434,
    "Ġscanning": 18399,
    "ac": 740,
    "Ġquieted": 23840,
    "etimes": 1986,
    "Ġvolume": 6769,
    "Ġingenious": 12346,
    "Ġperplexed": 23660,
    "Ġmer": 2930,
    "isms": 12577,
    "Ġarrow": 10931,
    "irs": 14070,
    "Ġtempered": 12920,
    "Ġsincerely": 7962,
    "Ġbagging": 24539,
    "Ġfeather": 8859,
    "resist": 8275,
    "Ġtalent": 12295,
    "Ġexception": 11216,
    "Ġmomentum": 1600,
    "Ġscent": 10284,
    "clopÃ¦": 13053,
    "elope": 14467,
    "Ġunh": 9252,
    "Ġrain": 5005,
    "Ġdesertion": 24787,
    "Ġchink": 15930,
    "Ġreeds": 15693,
    "Ġyale": 21776,
    "Ġliberality": 24377,
    "Ġ52": 24321,
    "Ġspaces": 3112,
    "Ġtong": 4870,
    "Ġsplendidly": 25327,
    "Ġchurned": 18384,
    "Ġfollowing": 4062,
    "albatross": 15627,
    "Ġassist": 3563,
    "Ġmould": 6519,
    "Ġworkflow": 2562,
    "Ġannoyed": 17199,
    "Ġencompassed": 15252,
    "ignorant": 13562,
    "anche": 10788,
    "swam": 24254,
    "Ġvapory": 17006,
    "<UNK>": 3,
    "Ġparade": 18301,
    "Ġphrenologist": 25607,
    "Ġgeography": 23370,
    "thole": 21983,
    "sou": 12503,
    "jah": 17581,
    "Ġbrand": 16184,
    "Ġrepentance": 15159,
    "pleased": 8853,
    "Ġxlvi": 25590,
    "Ġpolished": 11182,
    "Ļ": 252,
    "Ġinvestig": 10549,
    "Ġmodified": 14166,
    "Ġwished": 3727,
    "than": 4089,
    "Ġincreasing": 8246,
    "gest": 5426,
    "peddling": 24696,
    "Ġwave": 7575,
    "Ġadver": 5641,
    "Ġdamp": 8263,
    "from": 1989,
    "Ġwaited": 4908,
    "apprec": 22839,
    "Ġretire": 10381,
    "mme": 22497,
    "Ġhimmalehs": 26230,
    "Ġheadstrong": 14387,
    "Ġrestlessness": 23289,
    "Ġinev": 10181,
    "aches": 6570,
    "Ä": 133,
    "Ġmoves": 14231,
    "Ġcritically": 23444,
    "table": 5795,
    "z": 94,
    "Ġadmired": 7981,
    "Ġwonder": 2117,
    "mael": 6723,
    "Ġinquiring": 8999,
    "Ġflow": 1237,
    "fashion": 8080,
    "Ġgodson": 23356,
    "Ġdangerous": 6613,
    "irous": 8838,
    "ulated": 6029,
    "Ġcontain": 1550,
    "rist": 10122,
    "Ġunthink": 18247,
    "Ġpant": 10817,
    "inery": 17733,
    "Ĩ": 233,
    "ibank": 6880,
    "Ġdew": 14044,
    "Ġinterested": 6458,
    "Ġocean": 3307,
    "Ġdub": 13908,
    "Ġstim": 18063,
    "Ġloss": 823,
    "sequence": 2856,
    "akness": 14194,
    "Ġsimultaneously": 4313,
    "wor": 3417,
    "Ġquenched": 22414,
    "qualities": 25043,
    "Ġmeasuring": 22880,
    "widows": 25344,
    "Ġweeds": 21920,
    "fow": 20852,
    "Ġrichest": 26211,
    "Ġhatherley": 7848,
    "guarded": 13293,
    "Ġunfrequent": 24108,
    "Ġtendency": 11329,
    "Ġprinces": 23222,
    "Ġhalf": 1669,
    "gorith": 548,
    "ication": 972,
    "Ġstrained": 10218,
    "thought": 3846,
    "Ġcentre": 5123,
    "Ġstandards": 19015,
    "Ġire": 12664,
    "iant": 5427,
    "Ġtogether": 1878,
    "Ġwhis": 3504,
    "Ġoverhead": 11771,
    "Ġrights": 10396,
    "machines": 8384,
    "yourself": 6742,
    "Ġextent": 7655,
    "Ġstranger": 3485,
    "Ġwides": 17788,
    "doubt": 6782,
    "Ġcitizens": 25439,
    "ralian": 19599,
    "sticking": 21657,
    "bull": 13689,
    "ode": 1455,
    "Ġgener": 591,
    "Ġbreeding": 14522,
    "berg": 11856,
    "boxes": 16888,
    "Ġinspecting": 24613,
    "tit": 11527,
    "rebell": 17763,
    "ire": 492,
    "individual": 18436,
    "Ġatom": 18192,
    "Ġniag": 21527,
    "enjoyments": 25433,
    "Ġsquires": 16179,
    "allowance": 16824,
    "Ġstrictly": 12283,
    "spir": 5738,
    "ascertain": 21540,
    "function": 4290,
    "Ġforeshadowing": 26592,
    "Ġmoon": 4609,
    "gument": 20884,
    "ensed": 10995,
    "Ġparm": 15875,
    "aet": 15306,
    "Ġunch": 18239,
    "Ć": 199,
    "Ġregiment": 6432,
    "Ġprolonged": 8357,
    "ynolds": 10035,
    "Ġdepress": 14047,
    "Ġhumorousness": 25377,
    "ception": 6562,
    "Ġtyphoon": 12387,
    "Ġvacancy": 9044,
    "shark": 14237,
    "Ġminimize": 7050,
    "crossed": 16632,
    "Ġlodgings": 8311,
    "Ġhammock": 5768,
    "Ġhold": 2241,
    "Ġkrempe": 10669,
    "preference": 22463,
    "atherley": 7220,
    "Ġconstit": 8583,
    "Ġbiographical": 22760,
    "Ġlucy": 17969,
    "Ġventured": 7501,
    "Ġtoes": 10829,
    "scuttle": 11907,
    "Ġprominence": 18953,
    "mown": 20969,
    "Î": 143,
    "ulls": 8837,
    "Ġessentials": 20001,
    "eag": 20841,
    "footed": 19688,
    "ieves": 4003,
    "rates": 21037,
    "Ġperformed": 8546,
    "Ġominous": 12422,
    "ö": 183,
    "Ġimmensities": 25330,
    "rods": 21535,
    "Ġdaw": 21427,
    "Ġoblige": 10488,
    "Ġattachment": 6049,
    "Ġurged": 6781,
    "Ġvows": 15806,
    "Ġjail": 22291,
    "Ġability": 2765,
    "Ġportra": 9008,
    "Ġcurled": 8226,
    "remaining": 20219,
    "Ġamph": 18510,
    "Ġvir": 7001,
    "greatest": 10493,
    "Ġendeavour": 4678,
    "Ġdiv": 3729,
    "dance": 17519,
    "Ġasiatics": 20429,
    "Ġaffect": 1386,
    "isc": 6239,
    "unctuous": 21879,
    "Ġheadsmen": 14731,
    "Ġbottomless": 12104,
    "Ġexecutioner": 12269,
    "Ġsecurity": 8977,
    "Ġbridle": 24681,
    "Ġk": 485,
    "Ġulster": 14997,
    "Ġly": 2268,
    "Ġrobinson": 17463,
    "dozen": 23376,
    "low": 657,
    "Ġplease": 4723,
    "Ġparchment": 13651,
    "atived": 21261,
    "pard": 9618,
    "Ġupp": 13991,
    "Ġscandinav": 19959,
    "Ġinst": 912,
    "intimate": 22934,
    "Ġhut": 15616,
    "spond": 5567,
    "Ġsplendour": 20223,
    "moil": 22700,
    "Ġbrack": 23833,
    "allowing": 24358,
    "Ġstrasburgh": 18614,
    "Ġproced": 2582,
    "Ġfetched": 24567,
    "Ġindisposed": 26287,
    "avern": 24792,
    "sigma": 3002,
    "Ġmid": 2618,
    "Ġnewfoundland": 26569,
    "accordingly": 19213,
    "Ġquadrille": 13540,
    "Ġcherish": 10589,
    "Ġoutsk": 15954,
    "Ġemerg": 13423,
    "scissors": 20726,
    "Ġnote": 4265,
    "Ġproperty": 6450,
    "Ġweep": 7619,
    "Ġconsidered": 4612,
    "court": 7511,
    "insufferable": 21191,
    "Ġprofound": 5497,
    "ogrand": 26261,
    "Ġphiladel": 23883,
    "adie": 18088,
    "Ġcanoe": 9722,
    "haired": 14765,
    "Ġcondense": 21805,
    "Ġmemorable": 16426,
    "Ġcaval": 25769,
    "Ġgeorgiana": 8625,
    "Ġtack": 5621,
    "Ġphotography": 24683,
    "Ġmingling": 20196,
    "Ġdisclose": 16154,
    "ulum": 21860,
    "disputed": 23500,
    "Ġcruelly": 13374,
    "flung": 16638,
    "isp": 5528,
    "Ġvillain": 8635,
    "jump": 10103,
    "Ġwretchedness": 9026,
    "Ġriot": 14688,
    "invari": 21183,
    "etence": 21574,
    "ole": 9613,
    "ashtego": 4102,
    "Ġconve": 5455,
    "Ġbour": 4876,
    "Ġhamp": 12627,
    "Ġsou": 1887,
    "Ġagonized": 25372,
    "========": 2313,
    "Ġreduce": 7942,
    "Ġsorts": 6887,
    "Ġpoetical": 25056,
    "powder": 17645,
    "Ġmud": 11572,
    "ility": 623,
    "Ġsorrow": 4629,
    "Ġcapabilities": 4378,
    "lines": 6959,
    "Ġchild": 2258,
    "Ġrefrain": 12944,
    "pierced": 26141,
    "pregn": 18498,
    "Ġshipmate": 8928,
    "Ġmast": 2900,
    "Ġshutter": 16670,
    "Ġundeserving": 18268,
    "cursed": 23841,
    "Ġsuffoc": 18869,
    "Ġoun": 13862,
    "Ġforth": 3463,
    "manif": 14372,
    "guess": 14760,
    "Ġpractice": 2795,
    "Ġfir": 17877,
    "Ġmonsie": 11447,
    "Ġtravelled": 7771,
    "Ġchain": 1843,
    "ram": 13971,
    "Ġgrasp": 4664,
    "Ġsinusoid": 4781,
    "Ġtalker": 23369,
    "coiled": 16485,
    "aning": 2250,
    "Ġgest": 8133,
    "Ġscandinavian": 26344,
    "Ġmoody": 8200,
    "itement": 7835,
    "Ġgalvan": 21614,
    "Ġgroup": 2038,
    "?âĢĻ": 2643,
    "anned": 17839,
    "Ġstructure": 822,
    "protest": 24815,
    "Ġshelf": 12265,
    "Ġslung": 23165,
    "indust": 18435,
    "Ġsofas": 26224,
    "Ġliving": 3063,
    "Ġlightly": 13082,
    "Ġspecks": 14307,
    "aze": 10074,
    "Ġbabes": 24425,
    "Ġcautious": 12251,
    "Ġtucked": 12390,
    "yond": 2330,
    "Ġfake": 5810,
    "Ġjenny": 20161,
    "troubled": 17112,
    "gallery": 24693,
    "Ġenforced": 21935,
    "entary": 21564,
    "C": 39,
    "Ġend": 1486,
    "Ġcott": 3707,
    "Ġinvitation": 5189,
    "Ġchief": 3383,
    "gh": 3799,
    "N": 50,
    "Ġtune": 17725,
    "Ġsc": 531,
    "ands": 21863,
    "knell": 24555,
    "Ġstride": 22610,
    "aculate": 16080,
    "heaven": 8052,
    "Ġliveliest": 24775,
    "Ġmines": 21307,
    "ssed": 3732,
    "Ġfashionable": 19543,
    "Ġunwinding": 22057,
    "Ġmountains": 4427,
    "Ġbaff": 10799,
    "Ġdynamically": 4071,
    "level": 2655,
    "Ġimmemorial": 10510,
    "Ġoverwhelmed": 11403,
    "Ġnaturally": 2466,
    "finger": 10093,
    "Ġamidst": 9493,
    "Ġanomalously": 25638,
    "harpoon": 9490,
    "ÿ": 192,
    "accepting": 20134,
    "Ġcontin": 5382,
    "latitudes": 17196,
    "Ġide": 2122,
    "zeal": 16261,
    "swift": 14851,
    "Ġmine": 3181,
    "Ġclump": 15963,
    "Ġsupreme": 13606,
    "Ġunimag": 12772,
    "bearings": 25371,
    "accidents": 19212,
    "Ġunwonted": 14124,
    "labours": 16617,
    "Ġescaping": 13134,
    "Ġexchanging": 18131,
    "Ġsolitudes": 22884,
    "igation": 5917,
    "Ġshifted": 14106,
    "Ġmet": 1846,
    "obli": 23091,
    "Ġspan": 11726,
    "Ġreasoner": 14437,
    "Ġintellig": 524,
    "Ġcasualty": 20340,
    "Ġhunsford": 6301,
    "Ġfisher": 3227,
    "Ġbaptized": 25774,
    "wind": 4254,
    "ts": 959,
    "combination": 25486,
    "Ġpropose": 9852,
    "Ġtapering": 8770,
    "Ġduties": 6609,
    "evening": 7089,
    "Ġnod": 1888,
    "Ġbarriers": 23793,
    "wore": 21123,
    "D": 40,
    "canst": 22958,
    "dropped": 12260,
    "Ġagonies": 14251,
    "overing": 6306,
    "Ġshuttle": 12124,
    "Ġease": 5629,
    "needles": 20313,
    "poison": 14391,
    "Ġcharles": 11954,
    "Ġden": 3108,
    "dat": 1630,
    "Ġspots": 11727,
    "cond": 1666,
    "Ġconvince": 14642,
    "thy": 2934,
    "Ġrags": 18645,
    "Ġmarshal": 20218,
    "Ġrelations": 5852,
    "Ġunderneath": 16336,
    "promote": 24727,
    "Ġhorseman": 19606,
    "peculiar": 6886,
    "Ġfocuses": 8649,
    "Ġawkward": 7073,
    "lessly": 4556,
    "Ġsolar": 22883,
    "Ġ2": 2928,
    "placidity": 25988,
    "Ġaberde": 22274,
    "birds": 15143,
    "Ġevaluation": 16552,
    "Ġsoot": 14131,
    "ogue": 9784,
    ";âĢĶ": 3747,
    "Ġbet": 1136,
    "Ġreferences": 21671,
    "Ġdiff": 3116,
    "Ġdiverged": 23593,
    "Ġspaniards": 25555,
    "¾": 127,
    "Ġcompact": 2261,
    "!âĢĻ": 3334,
    "Ġdesperado": 19818,
    "Ġprotection": 9460,
    "Ġlies": 5295,
    "Ġdine": 7366,
    "horse": 8605,
    "outh": 2689,
    "Ġsubtlety": 24780,
    "acetti": 13395,
    "Ġacquiesced": 25493,
    "Ġjunks": 25113,
    "Ġcreation": 6439,
    "warmest": 25027,
    "Ġtur": 2567,
    "Ġalteration": 9545,
    "Ġtrifles": 16951,
    "tempered": 13445,
    "Ġmess": 7831,
    "Ġfooting": 14482,
    "Ġshoulder": 5848,
    "Ġvariance": 1169,
    "comfortableness": 24525,
    "x": 92,
    "Ġhookah": 16970,
    "ī": 236,
    "iless": 10281,
    "Ġunsophisticated": 25992,
    "Ġdaughter": 2870,
    "Ġswarm": 23051,
    "asingly": 17960,
    "Ġinsanity": 12045,
    "difficult": 10057,
    "mission": 5969,
    "appin": 18757,
    "boat": 3363,
    "Ġdisc": 943,
    "Ġkent": 6691,
    "Ġcomprising": 16068,
    "Ġholy": 6591,
    "line": 1441,
    "Ġutterly": 6100,
    "Ġinde": 7371,
    "Ġdiadem": 24741,
    "mblings": 19779,
    "Ġlexic": 15721,
    "Ġdisplay": 6428,
    "Ġtows": 19561,
    "Ġpunctilious": 26352,
    "Ġafore": 10758,
    "narwhale": 17317,
    "maged": 15392,
    "Ġdreamy": 14702,
    "accept": 8897,
    "Ġcastor": 19425,
    "Ġdavis": 25952,
    "Ġsnapping": 19299,
    "Ġearthquake": 14628,
    "Ġseparated": 9464,
    "hero": 21203,
    "exciting": 19667,
    "animals": 24738,
    "william": 4563,
    "9": 29,
    "Ġimpo": 3443,
    "uity": 12515,
    "Ġinheriting": 25354,
    "iate": 6505,
    "Ġshaped": 15832,
    "sixteen": 24853,
    "Ġtortoise": 16908,
    "ription": 5676,
    "Ġboy": 3022,
    "Ġsons": 10766,
    "Ġbouquet": 20682,
    "Ġtoday": 12640,
    "Ġfet": 5807,
    "Ġvancou": 22874,
    "Ġorganizations": 12312,
    "ually": 2771,
    "Ġcheapside": 23285,
    "Ġagreeing": 20017,
    "Ġvess": 3299,
    "Ġanimating": 23422,
    "Ġcalamity": 17348,
    "Ġdisturb": 7107,
    "myst": 9821,
    "Ġvexed": 9993,
    "Ġmorbid": 16232,
    "Ġderives": 16307,
    "Ġsoon": 1226,
    "Ġmetal": 9382,
    "Ġgoblet": 25823,
    "Ġepsom": 19981,
    "wide": 10137,
    "Ġabrid": 22269,
    ":--": 5784,
    "Ġdart": 4586,
    "Ġimagine": 3922,
    "Ġsoft": 1460,
    "Ġcreates": 2007,
    "enesis": 24388,
    "$": 8,
    "Ġalong": 1978,
    "client": 18931,
    "aug": 1213,
    "ohog": 9842,
    "Ġawake": 8271,
    "Ġgracefully": 13390,
    "Ġcalls": 6744,
    "Ġresolution": 5500,
    "Ġsprang": 5064,
    "sell": 13780,
    "Ġvertical": 16604,
    "Ġmainten": 16114,
    "thrusting": 20258,
    "kward": 6958,
    "dressing": 11481,
    "puted": 8845,
    "concerns": 24064,
    "Ġwipe": 25764,
    "Ġmach": 13856,
    "Ġask": 1493,
    "chapter": 1402,
    "ruct": 674,
    "Ġpledged": 20686,
    "Ġheedless": 14902,
    "paused": 17373,
    "Ġcontrol": 13078,
    "Ġarrows": 18339,
    "Ġpriest": 7526,
    "Ġinfernal": 11959,
    "Ġgripping": 26186,
    "Ġmanipulated": 25178,
    "sac": 7140,
    "Ġcoburg": 18597,
    "Ġripp": 11219,
    "Ġswearing": 16463,
    "Ġcomm": 839,
    "Ġassure": 4419,
    "Ġsymb": 2593,
    "phys": 18711,
    "commun": 15033,
    "Ġoctavo": 15162,
    "Ġsports": 18310,
    "Ġdebar": 24271,
    "Ġmason": 10157,
    "hatchet": 24822,
    "Ġdismasted": 15250,
    "strange": 6086,
    "heat": 15496,
    "Ġsetting": 7046,
    "Ġ180": 16606,
    "Ġsolution": 9804,
    "Ġeffaced": 18541,
    "spouter": 22732,
    "retired": 11934,
    "Ġnay": 5711,
    "influence": 13577,
    "Ġtrap": 7671,
    "walked": 10570,
    "Ġphysiognomy": 25610,
    "Ġchrysalis": 26538,
    "Ġrough": 7187,
    "drowned": 17368,
    "time": 3147,
    "Ġinsol": 10180,
    "Ġwelcomed": 9481,
    "chet": 13216,
    "Ġcontinues": 18810,
    "Ġdisaster": 12884,
    "d": 72,
    "Ġfurniture": 6476,
    "Ġdivineness": 25724,
    "ores": 2413,
    "problem": 25244,
    "Ġserpentine": 11360,
    "Ġsanguinary": 25929,
    "Ġwrung": 14469,
    "Ġcolumns": 14375,
    "Ġsometimes": 2165,
    "Ġforcibly": 10060,
    "Ġclimate": 9274,
    "Ġresistance": 13529,
    "Ġcoefficient": 2884,
    "Ġeasy": 3453,
    "wedding": 13370,
    "stolen": 13981,
    "Ġbetween": 789,
    "tps": 11534,
    "rudent": 6482,
    "Ġdiameter": 19866,
    "Ġdoesn": 7438,
    "rawling": 21633,
    "year": 11095,
    "Ġcorrectly": 9403,
    "iscreet": 20681,
    "enc": 7574,
    "Ġox": 7153,
    "Ġintently": 8168,
    "obtained": 23092,
    "Ġgrapp": 14100,
    "Ġtashtego": 4487,
    "Ġobey": 9518,
    "Ġadult": 18291,
    "Ġputting": 5326,
    "ì": 173,
    "Ġcaroline": 7254,
    "Ġgifts": 21609,
    "george": 26019,
    "obser": 11099,
    "Ġmiser": 18703,
    "Ġangels": 11178,
    "pron": 9005,
    "Ġcleans": 18947,
    "written": 7994,
    "Ġjet": 5307,
    "fell": 6953,
    "inferior": 12392,
    "hetic": 12201,
    "helping": 23137,
    "ruit": 22174,
    "Ġsheaves": 22155,
    "Ġrheum": 18216,
    "Ġsmith": 16062,
    "Ġbrewed": 23344,
    "Ġovers": 14205,
    "Ġresort": 18563,
    "Ġandromeda": 21505,
    "build": 12185,
    "limbs": 20190,
    "Ġdivine": 6921,
    "honour": 13466,
    "consolation": 15151,
    "Ġfeeble": 12282,
    "Ġgoverness": 8601,
    "Ġmassachusetts": 24019,
    "Ġrage": 5110,
    "Ġdisordered": 16052,
    "lance": 12479,
    "Ġstrengthen": 20699,
    "Ġdisgracing": 26255,
    "Ġsomnambul": 26576,
    "Ġgre": 1581,
    "Ġrecovered": 5481,
    "Ġmanner": 2196,
    "uncommon": 11680,
    "Ġacid": 22679,
    "Ġclaws": 15964,
    "Ġthoughts": 3138,
    "achine": 607,
    "Ġfluctu": 5267,
    "Ġnat": 12642,
    "common": 4128,
    "ect": 381,
    "urable": 8922,
    "Ġridges": 16731,
    "avating": 18605,
    "Ġsenseless": 12076,
    "girdling": 26389,
    "orphans": 26440,
    "Ġslugg": 15267,
    "warnings": 20350,
    "Ġmob": 16015,
    "Ġrigging": 5601,
    "Ġladyship": 5046,
    "said": 4104,
    "Ġobliter": 14321,
    "Ġmapp": 2081,
    "Ġvast": 3300,
    "Ġdied": 4111,
    "Ġundone": 24116,
    "Ġwaterproof": 19088,
    "Ġslips": 23163,
    "Ġoverwrites": 5033,
    "Ġclothes": 4997,
    "Ġtemperate": 16161,
    "Ġprolong": 6832,
    "floating": 12225,
    "Ġbarricade": 14660,
    "Ġfull": 2175,
    "nostril": 26559,
    "Ġradney": 6775,
    "Ġflat": 8227,
    "chose": 18040,
    "Ġjungfrau": 15247,
    "Ġpunct": 8660,
    "mured": 6960,
    "beloved": 19459,
    "onday": 6063,
    "engagements": 25853,
    "Ġfrequently": 4680,
    "Ġstoke": 10395,
    "Ġeagerly": 4990,
    "sig": 2875,
    "Ġmanifold": 13559,
    "Ġfamous": 5255,
    "dog": 10692,
    "Ġr": 405,
    "Ġbarbaric": 10013,
    "Ġprosper": 10228,
    "Ġdrama": 16327,
    "Ġtremulous": 14985,
    "Ġconnexion": 11454,
    "Ġloo": 22107,
    "Ġcoils": 9302,
    "Ġafresh": 18627,
    "Ġlower": 2664,
    "Ġfins": 9663,
    "coburg": 13597,
    "Ġfamine": 16326,
    "crooked": 25746,
    "romising": 18233,
    "ice": 589,
    "Ġunfathom": 14788,
    "asions": 12648,
    "pendicular": 6499,
    "Ġcorner": 4371,
    "Ġperseverance": 13596,
    "Ġimag": 2677,
    "Ġtoward": 17946,
    "Ġlvi": 21550,
    "ation": 320,
    "Ġdivided": 8631,
    "Ġmissionary": 25696,
    "Ġshalt": 18230,
    "Ġidentified": 19150,
    "paid": 15413,
    "Ġconsumm": 15153,
    "Ġvinc": 14084,
    "wife": 8100,
    "vid": 915,
    "Ġrelating": 2707,
    "Ġsacrificed": 17421,
    "month": 6463,
    "devil": 7894,
    "oil": 7805,
    "crane": 24097,
    "Ġearnestly": 5978,
    "Ġalarming": 14779,
    "seeking": 17152,
    "drawing": 10486,
    "Ġ}": 21152,
    "Ġcuriosity": 2570,
    "ti": 8389,
    "Ġcogent": 14272,
    "Ġsymbols": 2797,
    "ientiously": 21938,
    "athan": 2957,
    "abroad": 18108,
    "Ġ_": 840,
    "Ġcounters": 24139,
    "Ġfoot": 3162,
    "letons": 14613,
    "Ġmargaret": 10376,
    "Ġpacifics": 24373,
    "iceland": 21563,
    "Ġaxe": 15061,
    "Ġhatred": 8608,
    "forehead": 8515,
    "Ġtout": 17719,
    "ld": 385,
    "says": 13298,
    "Ġflash": 8229,
    "Ġrelig": 8550,
    "Ġpost": 4274,
    "Ġgirdle": 19156,
    "Ġ90": 24588,
    "unworthy": 18161,
    "Ġbritain": 16956,
    "Ġindist": 14407,
    "Ġoozy": 21325,
    "bes": 6641,
    "police": 10583,
    "title": 17287,
    "Ġfol": 1287,
    "ould": 427,
    "Ġchall": 10944,
    "terogene": 21822,
    "gunpowder": 25339,
    "¢": 100,
    "Ġdragon": 14943,
    "ourney": 3552,
    "inguished": 6598,
    "Ġleather": 7606,
    "Ġdistribution": 2018,
    "Ġvirtual": 11240,
    "Ġpick": 4258,
    "77": 15299,
    "uits": 21103,
    "ite": 714,
    "Ġbrist": 14377,
    "Ġbent": 5149,
    "Ġcr": 2151,
    "hard": 4690,
    "Ġupbra": 22150,
    "Ġdistinction": 8885,
    "Ġ500": 24328,
    "Ġtattered": 21170,
    "Ġdefect": 8554,
    "Ġreigns": 21668,
    "Ġoblique": 20168,
    "sailors": 9921,
    "regulated": 23466,
    "envelope": 17782,
    "Ġmeasureless": 14709,
    "Ġdemig": 20355,
    "Ġbracing": 16580,
    "Ġviewing": 19263,
    "Ġshameful": 19851,
    "Ġimages": 1597,
    "ilent": 21717,
    "Ġdishonoured": 20389,
    "Ġguard": 6178,
    "¹": 122,
    "Ġhumane": 11882,
    "Ġadjust": 2154,
    "Ġcover": 3556,
    "please": 8176,
    "Ġchivalry": 25818,
    "Ġ37": 24075,
    "inously": 21185,
    "Ġresemblance": 7973,
    "guilty": 19481,
    "liness": 8746,
    "smug": 23905,
    "Ġgem": 21591,
    "gris": 8259,
    "wicked": 24449,
    "include": 23588,
    "enterprise": 24992,
    "oken": 4309,
    "Ġaugmentation": 20114,
    "Ġintrusted": 21989,
    "Ġpist": 12612,
    "Ġlover": 7193,
    "vine": 10734,
    "lonely": 20956,
    "distinguished": 10526,
    "istle": 15868,
    "ishments": 9272,
    "Ġelaborate": 18634,
    "Ġchronicled": 25328,
    "Ġbolts": 16943,
    "unknown": 10890,
    "mospheric": 17091,
    "Ġsyntax": 958,
    "Ġlaure": 16909,
    "Ġwhelm": 25998,
    "hereditary": 26419,
    "Ġunfeeling": 14118,
    "Ġstrangest": 14795,
    "Ġpallid": 12297,
    "ignant": 11129,
    "ositories": 22261,
    "Ġlye": 21548,
    "enial": 17780,
    "Ġbordering": 17228,
    "Ġvowed": 14083,
    "othe": 2616,
    "Ġconception": 10313,
    "Ġlouisiana": 25076,
    "Ġget": 1621,
    "Ġwavering": 23277,
    "Ġdeclared": 5595,
    "Ġmeet": 2805,
    "log": 18535,
    "Ġpigs": 19746,
    "Ġimpenet": 14219,
    "Ġcataract": 23426,
    "laug": 10707,
    "Ġunwillingly": 15846,
    "presum": 12865,
    "Ġwhales": 1828,
    "į": 240,
    "miseries": 16757,
    "Ġforbade": 15213,
    "Ġlandless": 23377,
    "americans": 25042,
    "eld": 962,
    "Ġ84": 19708,
    "Ġsane": 21220,
    "Ġterr": 3277,
    "Ġdrugged": 12599,
    "Ġto": 297,
    "Ġimpetuously": 20370,
    "Ġstature": 10863,
    "Ġdoxology": 22241,
    "Ġostr": 21323,
    "stained": 21652,
    "Ġarmy": 11742,
    "Ġdespite": 19351,
    "Ġtrack": 7450,
    "wins": 21128,
    "biting": 20779,
    "Ġaff": 1119,
    "quest": 4538,
    "swiss": 24255,
    "rimsh": 17027,
    "Ġphrases": 2798,
    "Ġimbalance": 22171,
    "Ġobstructed": 24677,
    "Ġunkindness": 22039,
    "Ġwa": 1754,
    "Ġminut": 2203,
    "ark": 849,
    "Ġdolphins": 20394,
    "Ġastr": 15493,
    "Ġsuffocated": 20727,
    "ensibility": 22544,
    "Ġjav": 7901,
    "Ġwreak": 16817,
    "Ġhackluyt": 25655,
    "Ġquestions": 3970,
    "glimmer": 26321,
    "res": 2760,
    "Ġprice": 10403,
    "Ġprevent": 759,
    "Ġembark": 8560,
    "adem": 21754,
    "umblings": 23927,
    "Ġasser": 6257,
    "ourable": 4967,
    "Ġabated": 18390,
    "neighbourhood": 10024,
    "Ġincantation": 26257,
    "Ġangrily": 9406,
    "courageous": 26127,
    "Ġhealth": 3902,
    "roar": 17952,
    "ria": 15792,
    "accomplished": 17211,
    "Ġmasts": 6465,
    "barbs": 20236,
    "orting": 9734,
    "Ġmission": 13003,
    "Ġdistraction": 22502,
    "endous": 6850,
    "Ġunmindful": 22063,
    "Ġdrunken": 12048,
    "mem": 10709,
    "Ġchildren": 3766,
    "Ġvenetian": 14846,
    "nearest": 16024,
    "Ġdifferently": 10388,
    "phew": 6368,
    "iday": 8829,
    "Ġmanx": 7904,
    "owl": 12681,
    "Ġborrow": 10170,
    "Ġnam": 17948,
    "Ġaffidavit": 20723,
    "Ġdaunt": 19663,
    "Ġsatisf": 2807,
    "Ġbonds": 17869,
    "Ġfa": 4819,
    "Ġindignant": 12237,
    "Ġascertained": 25296,
    "Ġdol": 9664,
    "better": 7119,
    "Ġsummar": 3524,
    "Ġsalary": 13292,
    "hr": 20887,
    "dropout": 3201,
    "pulled": 25145,
    "Ġopportunities": 19248,
    "Ġfished": 21408,
    "Ġstout": 6024,
    "itancy": 21331,
    "0": 20,
    "Ġrestoration": 19024,
    "ilogue": 21721,
    "fire": 6357,
    "pump": 21016,
    "Ġdiscoursing": 26266,
    "nose": 17610,
    "Ġdiscriminator": 3393,
    "Ġhog": 13923,
    "sleeves": 26109,
    "Ġtroublesome": 23999,
    "Ġpillow": 10037,
    "maybe": 23988,
    "Ġsimon": 5172,
    "Ġranged": 10258,
    "remediable": 26294,
    "promise": 12248,
    "Ġvelv": 10619,
    "Ġphilipses": 24452,
    "ratulations": 20124,
    "ł": 259,
    "Ġket": 18347,
    "Ġinto": 648,
    "Ġevidently": 6759,
    "uiperai": 10663,
    "Ġplate": 8898,
    "answ": 15882,
    "Ġwounding": 19585,
    "Ġdoors": 6418,
    "ivened": 22962,
    "Ġmuteness": 19415,
    "Ġjuly": 17236,
    "Ġgold": 3282,
    "Ġgoblets": 20517,
    "Ġchaps": 14177,
    "Ġelect": 10842,
    "Ġseek": 4509,
    "Ġtolland": 24988,
    "similar": 13452,
    "Ġhart": 17921,
    "Ġperceptible": 18451,
    "Ġgoodness": 6058,
    "Ġbowls": 23769,
    "Ġdivergence": 2729,
    "misrepresented": 24211,
    "Ġtamely": 24977,
    "Ġclutch": 15053,
    "Ġfollies": 16252,
    "vable": 10132,
    "Ġarbit": 4652,
    "Ġblame": 6446,
    "Ġdecay": 1013,
    "ental": 7168,
    "Ġtomb": 8807,
    "fabulous": 20472,
    "Ġglued": 20587,
    "inj": 9151,
    "Ġrevolutionized": 3368,
    "Ġabstracted": 17182,
    "Ġsatire": 22897,
    "Ġdeclares": 16992,
    "amous": 15758,
    "Ġpianoforte": 15272,
    "talking": 10006,
    "Ġcocks": 18595,
    "Ġtandem": 26411,
    "phil": 7924,
    "Ġembrace": 16990,
    "Ġbackwater": 18650,
    "Ġquadrant": 11404,
    "Ġangel": 4852,
    "larger": 24202,
    "Ġnupt": 13942,
    "stricken": 9883,
    "eman": 5636,
    "aven": 8208,
    "ous": 477,
    "Ġgrief": 4621,
    "cou": 13694,
    "walls": 25345,
    "Ġfleeting": 19326,
    "ustom": 3787,
    "Ġfreshly": 23984,
    "eth": 618,
    "Ġtreatise": 19343,
    "hypothe": 25905,
    "Ġcoincidences": 26363,
    "Ġcleansed": 26293,
    "Ġunheard": 22022,
    "Ġadding": 2403,
    "sw": 4741,
    "Ġscound": 12829,
    "Ġstained": 11651,
    "omuch": 21637,
    "Ġink": 8802,
    "Ġslily": 23161,
    "Ġlimped": 19180,
    "Ġcocoanuts": 26362,
    "uten": 11621,
    "Ġride": 12755,
    "Ġbinding": 20417,
    "Ġgnashed": 20131,
    "dare": 12451,
    "christmas": 20254,
    "public": 17646,
    "eded": 9673,
    "Ġdecomp": 3809,
    "Ġhartshorn": 26180,
    "Ġlik": 2524,
    "Ġcryst": 9916,
    "Ġmost": 1020,
    "Ġunp": 12769,
    "Ġbrooks": 25700,
    "conviction": 19963,
    "Ġfads": 21414,
    "Ġroots": 11185,
    "lengthwise": 19948,
    "Ġ9": 5900,
    "travellers": 24318,
    "suggest": 20374,
    "Ġstudies": 7955,
    "Ġtouching": 4681,
    "oth": 1185,
    "rippa": 11341,
    "Ġ114": 24438,
    "Ġresearch": 3196,
    "fold": 7546,
    "Ġcompute": 2905,
    "Ġseaman": 8638,
    "Ġstowed": 21733,
    "silent": 9973,
    "Ġreplenished": 13635,
    "Ġboon": 22634,
    "Ġsluggishly": 25891,
    "Ġ3": 3982,
    "Ġunhing": 18241,
    "Ġvaliant": 9799,
    "Ġultimate": 12347,
    "Ġwinged": 16995,
    "Ġleyden": 21744,
    "position": 15412,
    "vocabulary": 25085,
    "uttural": 21586,
    "Ġinsulted": 14991,
    "hotel": 20048,
    "bit": 3930,
    "ingly": 2135,
    "Ġcontinue": 5398,
    "Ġmeasures": 1206,
    "igated": 15704,
    "Ġreliable": 18776,
    "Ġweighty": 16029,
    "Ġmis": 917,
    "Ġreproached": 24891,
    "Ġbrother": 2749,
    "Ġlikewise": 5386,
    "hens": 3935,
    "Ġawaiting": 11390,
    "Ġ50": 24319,
    "reeling": 21243,
    "moonlight": 25375,
    "Ġappearance": 3697,
    "Ġscuff": 15940,
    "Ġcountenance": 3968,
    "pp": 384,
    "adoes": 11659,
    "Ġfortresses": 23623,
    "Ġmechanically": 14397,
    "adv": 4537,
    "Ġquote": 18466,
    "Ġmonth": 2850,
    "ging": 2602,
    "O": 51,
    "Ġjagged": 18407,
    "Ġsnap": 11200,
    "Ġregardless": 19323,
    "Ġmusky": 19380,
    "=": 33,
    "Ġlongbourn": 3508,
    "signed": 21060,
    "Ġuninter": 18246,
    "yard": 5899,
    "Ġjanuary": 13652,
    "Ġassume": 10515,
    "Ġnoblest": 13240,
    "Ġslee": 8974,
    "Ġ>": 21150,
    "Ġundivided": 24119,
    "Ġber": 5698,
    "omited": 21638,
    "Ġaudible": 19880,
    "conjectures": 25180,
    "Ġstrangely": 5677,
    "Ġbrings": 11878,
    "Ġcrash": 12000,
    "Ġquestion": 2778,
    "continuance": 19717,
    "sloop": 26145,
    "Ġperpetual": 12301,
    "Ġstore": 8453,
    "Ġsolitude": 6876,
    "yield": 13808,
    "ization": 482,
    "shott": 11792,
    "Ġgrowled": 19282,
    "Ġsympathise": 16794,
    "resent": 10769,
    "Ġsomehow": 4841,
    "Ġpolynes": 16077,
    "Ġwarp": 8112,
    "Ġspecific": 2000,
    "Ġmomentarily": 22808,
    "Ġmagnus": 18956,
    "Ġventing": 19492,
    "unquiet": 21878,
    "Ġfundamentals": 14635,
    "Ġhypothesis": 14781,
    "alice": 3213,
    "Ġreach": 4046,
    "Ġglut": 18845,
    "iven": 1235,
    "itation": 1780,
    "Ġmarling": 23030,
    "Ġfable": 15574,
    "Ġretreating": 19798,
    "Ġpush": 9184,
    "lengths": 24846,
    "Ġunion": 6839,
    "fi": 12459,
    "Ġoverladen": 22360,
    "Ġwhisper": 6205,
    "omb": 10205,
    "Ġwednesday": 9024,
    "Ġembeddings": 2278,
    "rit": 21034,
    "ross": 807,
    "shadows": 25479,
    "paralleled": 14517,
    "rose": 6013,
    "Ġcalm": 3448,
    "Ġagency": 11803,
    "Ġscrew": 8867,
    "repent": 15512,
    "Ġnext": 2139,
    "revealed": 20414,
    "Ġcorpora": 26580,
    "Ġbowditch": 19322,
    "built": 16825,
    "whole": 6085,
    "oses": 3944,
    "Ġsharper": 17179,
    "Ġspitzbergen": 15286,
    "Ġfoundering": 21417,
    "Ġsoul": 2727,
    "Ġinsensibly": 20074,
    "Ġsatisfying": 23696,
    "Ġintegrity": 12311,
    "Ġdecoyed": 18492,
    "mistakable": 20652,
    "Ġcaptive": 14426,
    "Ġvesu": 21946,
    "iability": 20919,
    "Ġindulged": 13416,
    "Ö": 151,
    "Ġclergy": 7642,
    "Ġrobins": 16255,
    "Ġdescrying": 18618,
    "reg": 2182,
    "Ġtypically": 1535,
    "ĠâĢĺ_": 11117,
    "Ġsettling": 11062,
    "Ġworks": 5858,
    "Ġsk": 961,
    "Ġlengthened": 25958,
    "Ġcasement": 25092,
    "Ġriots": 23890,
    "Ġdigress": 24648,
    "ouncement": 11739,
    "Ġcoffee": 6760,
    "cloudless": 20331,
    "Ġalfred": 21783,
    "Ġrighted": 23175,
    "Ġrambles": 17184,
    "ply": 6366,
    "Ġsmo": 2703,
    "stirred": 20423,
    "Ġdrought": 19277,
    "decease": 25557,
    "Ġsabbee": 17255,
    "anct": 21356,
    "sen": 21048,
    "ĕ": 214,
    "Ġtelescope": 17347,
    "Ġnavigation": 9992,
    "Ġneurons": 976,
    "pshire": 21023,
    "pass": 4293,
    "himself": 3969,
    "Ġasleep": 6836,
    "exped": 16524,
    "Ġpurch": 6599,
    "gate": 12464,
    "Ġdesirable": 8941,
    "Ġdong": 17887,
    "Ġspar": 10921,
    "Ġreasoning": 2015,
    "stige": 21658,
    "ahead": 12432,
    "Ġexhaust": 6399,
    "Ġgild": 15666,
    "Ġhowl": 12851,
    "Ġweeping": 11685,
    "Ġwires": 21294,
    "Ġgenial": 12192,
    "Ġenchantment": 24869,
    "Ġimputable": 22170,
    "Ġsymph": 22208,
    "ructure": 747,
    "Ġasp": 15778,
    "Ġreally": 2158,
    "tea": 18739,
    "Ġscheming": 23268,
    "aiian": 23591,
    "scoured": 22983,
    "Ġdistantly": 18532,
    "Ġsl": 1497,
    "consumed": 25675,
    "Ġnamely": 20688,
    "tails": 21085,
    "Ġlessen": 14532,
    "Ġcomplaints": 12262,
    "Ġenters": 11025,
    "tis": 4105,
    "Ġconvers": 2906,
    "Ġfeverish": 11348,
    "pate": 21009,
    "Ġii": 7384,
    "Ġpleasurable": 23338,
    "hemat": 3129,
    "Ġparty": 3510,
    "Ġhappier": 10359,
    "Ġnatures": 16506,
    "Ġfuture": 1089,
    "Ġtunes": 24619,
    "whosoever": 22237,
    "Ġbleeds": 24397,
    "Ġanimate": 23421,
    "Ġfogs": 25282,
    "Ġunexplored": 26518,
    "Ġplacid": 11824,
    "Ġflukes": 5266,
    "like": 1884,
    "virtue": 20568,
    "lp": 899,
    "Ġnut": 12643,
    "miraculous": 26396,
    "Ġincurable": 22549,
    "Ġvile": 8472,
    "Ġadvanced": 1443,
    "ered": 1683,
    "Ġenumer": 12742,
    "Ġintercept": 14268,
    "Ġfeeling": 3083,
    "aped": 3763,
    "Ġtresses": 21174,
    "Ġliterature": 17148,
    "capt": 3834,
    "Ġcre": 888,
    "Ġexcepting": 14680,
    "Ġincivility": 18572,
    "urre": 10856,
    "Ġplaying": 6910,
    "moor": 22699,
    "Ġfaire": 13363,
    "a": 69,
    "draw": 23896,
    "Ġben": 1111,
    "oura": 1059,
    "Ġhearse": 10420,
    "Ġtainted": 21169,
    "anthrop": 17381,
    "Ġcologne": 12972,
    "Ġmocking": 24000,
    "Ġencamp": 22799,
    "early": 20117,
    "Ġforster": 5230,
    "actor": 11836,
    "slo": 17656,
    "Ġdazz": 11593,
    "elab": 21567,
    "Ġtried": 3646,
    "oam": 8751,
    "Ġadjacent": 20710,
    "pleasures": 24043,
    "Ġmilitary": 11258,
    "erland": 9640,
    "Ġmaritime": 23034,
    "accur": 14593,
    "company": 9459,
    "morn": 20975,
    "Ġprecipice": 19939,
    "Ġrust": 6408,
    "assistance": 20369,
    "gs": 7338,
    "Ġcelest": 9900,
    "ath": 861,
    "Ġtroubles": 19437,
    "iew": 2446,
    "Ġ1": 1016,
    "dington": 11899,
    "Ġlambton": 10657,
    "Ġautonom": 10415,
    "Ġdriven": 6198,
    "Ġopt": 788,
    "Ġ135": 24785,
    "main": 8087,
    "Ġprovides": 1929,
    "Ġpersu": 3562,
    "Ġentity": 10342,
    "Ġscor": 8189,
    "jointed": 24007,
    "Ġcub": 8413,
    "carbuncle": 26382,
    "Ġaffability": 14386,
    "Ġoccasions": 7987,
    "stream": 15684,
    "perse": 15898,
    "ouraged": 22856,
    "Ġpetrified": 19595,
    "Ġrepel": 23357,
    "Ġloath": 7889,
    "forward": 2185,
    "Ġmummy": 25768,
    "art": 584,
    "Ġwitt": 17783,
    "bat": 8071,
    "ose": 718,
    "bott": 9105,
    "Ġtremble": 6906,
    "Ġforgiven": 24024,
    "Ġshark": 5550,
    "Ġcomprehensiveness": 25072,
    "Ġcities": 17827,
    "Ġwhile": 606,
    "astes": 11737,
    "creation": 14805,
    "Ġleaders": 16627,
    "Ġkept": 3348,
    "dict": 15338,
    "ops": 5246,
    "Ġabominably": 20064,
    "Ġbowsman": 11255,
    "consequ": 18504,
    "Ġvivid": 8057,
    "Ġdespondency": 16577,
    "sche": 13012,
    "Ġloun": 7166,
    "expectant": 24275,
    "Ġnantucket": 2839,
    "fishers": 24928,
    "Ġenjoyed": 8007,
    "idable": 8145,
    "tranquil": 25870,
    "Ġbackgammon": 22661,
    "Ġinvited": 6903,
    "Ġced": 10784,
    "Ġfarthing": 14453,
    "Ġnodding": 23333,
    "Ġinfer": 7683,
    "Ġsteelkilt": 5675,
    "onious": 15517,
    "Ġtight": 8107,
    "path": 10118,
    "Ġreaction": 15692,
    "olds": 9310,
    "Ġoverlooking": 22355,
    "Ġridge": 14818,
    "Ġstaggered": 9538,
    "longbourn": 9895,
    "bable": 8718,
    "Ġflaw": 23007,
    "ed": 293,
    "pole": 9332,
    "Ġelevates": 24503,
    "Ġmalays": 19676,
    "apolog": 22330,
    "aneously": 4059,
    "Ġmart": 10779,
    "encouragement": 17422,
    "Ġmonosy": 18843,
    "Ġshallow": 14393,
    "incom": 21180,
    "Ġspot": 4154,
    "odd": 21808,
    "Ġperturbed": 20438,
    "Ġinterrupting": 19556,
    "ape": 1905,
    "hand": 2757,
    "Ġwilful": 10534,
    "Ġcoiling": 12902,
    "Ġ49": 24079,
    "Ġcomplete": 4383,
    "considered": 9580,
    "Ġschedule": 2372,
    "heart": 4526,
    "Ġsparing": 22126,
    "Ġlaug": 3626,
    "Ġsucceeding": 16761,
    "Ġperceive": 6699,
    "attered": 4016,
    "fab": 13715,
    "addressing": 24401,
    "Ġsyrian": 18354,
    "transp": 24512,
    "Ġ33": 16676,
    "Ġrange": 9711,
    "robust": 19727,
    "ologies": 18772,
    "Ġse": 401,
    "Ġgrow": 2860,
    "Ġstowing": 18071,
    "reng": 4000,
    "corner": 13396,
    "Ġgreatness": 12941,
    "Ġobservations": 13552,
    "Ġpott": 21466,
    "Ġflour": 8944,
    "Ġhardware": 4904,
    "Ġcanal": 8181,
    "reated": 10302,
    "print": 23809,
    "Ġspasmodic": 20396,
    "Ġmuslin": 19381,
    "Ġloudly": 7312,
    "with": 1296,
    "Ġtrem": 6659,
    "meeting": 11019,
    "dignity": 15344,
    "dient": 440,
    "Ġostentatiously": 20467,
    "Ġpie": 13914,
    "Ġoriental": 9096,
    "subst": 12162,
    "Ġfretfulness": 25448,
    "Ġnoting": 18221,
    "Ġcovent": 16072,
    "loom": 18536,
    "Ġconstitutes": 13551,
    "culine": 19065,
    "overcoat": 19051,
    "Ġextend": 18683,
    "Ġinexpressible": 17332,
    "Ġnobleman": 19390,
    "Ġextort": 22717,
    "Ġchowders": 18385,
    "Ġargemone": 24274,
    "Ô": 149,
    "ships": 5486,
    "confid": 14866,
    "grampus": 18616,
    "ef": 5134,
    "Ġbumpkin": 20199,
    "polar": 24583,
    "pop": 17631,
    "Ġmerely": 3769,
    "Ġnumberless": 16414,
    "ioneer": 15629,
    "canoes": 16229,
    "glasses": 11215,
    "Ġdisgrace": 7214,
    "totally": 25417,
    "Ġconcrete": 20635,
    "Ġidentify": 12012,
    "ars": 905,
    "Ġguarded": 9825,
    "ognit": 19202,
    "Ġintimate": 6549,
    "then": 2053,
    "Ġgaieties": 24195,
    "Ġphyset": 23197,
    "Ġvultures": 25653,
    "Ġlisten": 4674,
    "Ġunwillingness": 20030,
    "request": 21240,
    "binary": 20783,
    "Ġmerciless": 25246,
    "Ġcollecting": 12284,
    "hopeless": 16917,
    "scythes": 26402,
    "Ġexpert": 18873,
    "Ġdeceitful": 25733,
    "plex": 710,
    "renewed": 19703,
    "Ġdiscussed": 19558,
    "Ġrecognised": 8995,
    "Ġthemselves": 3256,
    "Ġgravity": 9247,
    "Ġfatigued": 13464,
    "ward": 705,
    "Ġmarine": 23029,
    "Ġresources": 2937,
    "Ġfer": 5529,
    "Ġfiles": 21411,
    "Ġcharted": 22247,
    "aint": 2543,
    "Ġrevived": 11368,
    "choose": 23672,
    "Ġshapeless": 24524,
    "Ġwrists": 11113,
    "Ġgallon": 24184,
    "Ġbeats": 21749,
    "Ġhuddled": 20298,
    "Ġwholly": 4447,
    "Ġnecessitates": 23926,
    "links": 20957,
    "Ġswore": 10378,
    "confidence": 16808,
    "Ġpleasantness": 24137,
    "rub": 15891,
    "Ġ91": 24589,
    "Ġtrembling": 7481,
    "school": 10054,
    "Ġafric": 8905,
    "Ġcool": 5734,
    "fug": 17543,
    "Ġnantucketers": 9894,
    "Ġleaves": 5021,
    "Ġpresc": 15923,
    "Ġvari": 831,
    "Ġamsterdam": 22481,
    "Ġharry": 24571,
    "Ġwounded": 8657,
    "Ġmoderate": 10938,
    "Ġimpreg": 15985,
    "87": 20756,
    "punctual": 26355,
    "Ġjonas": 20608,
    "deav": 2676,
    "Ġpains": 5964,
    "<": 32,
    "Ġintrodu": 1924,
    "Ġindu": 5293,
    "Ġarms": 3964,
    "Ġold": 1056,
    "Ġjohnson": 18409,
    "zing": 7820,
    "Ġblasp": 14400,
    "riumph": 4919,
    "ana": 15556,
    "Ġbrag": 23831,
    "Ġinjured": 9039,
    "fleet": 15013,
    "Ġcam": 10161,
    "Ġrolling": 5974,
    "Ġwarmed": 12022,
    "Ġannihilation": 15164,
    "Ġsinging": 7723,
    "anders": 18152,
    "scorched": 25697,
    "Ġmood": 6276,
    "begins": 18522,
    "Ġcured": 21345,
    "caus": 11476,
    "Ġweld": 8111,
    "Ġendangered": 16303,
    "Ġvideos": 13605,
    "hav": 20896,
    "Ġ98": 24593,
    "Ġroast": 18457,
    "Ġundeniable": 26510,
    "context": 3405,
    "Ġbrilliancy": 20105,
    "Ġastern": 6090,
    "Ġoccurrences": 11050,
    "Ġze": 8544,
    "Ġbeacon": 21753,
    "Ġstrides": 22611,
    "Ġdriver": 16473,
    "Ġoutrageous": 20609,
    "conversation": 7122,
    "Ġsupposed": 4559,
    "uff": 2732,
    "Ġdecorum": 16023,
    "iving": 1725,
    "Ġrecklessly": 16983,
    "reported": 24493,
    "Ġworshippers": 25693,
    "previous": 9760,
    "hid": 13733,
    "Ġoh": 2173,
    "Ġconcocted": 26299,
    "alarms": 21502,
    "Ġassum": 4064,
    "wis": 12516,
    "ource": 5243,
    "Ġgritted": 22802,
    "Ġadapts": 3815,
    "Ġanchors": 12610,
    "Ġabandonment": 25603,
    "snow": 10724,
    "inative": 15483,
    "Ġancles": 21444,
    "chief": 4645,
    "commer": 22819,
    "Ġyojo": 7610,
    "gies": 13725,
    "Ġhusband": 3619,
    "Ġjura": 14192,
    "Ġmalignant": 14877,
    "Ġfiltering": 23923,
    "consult": 24169,
    "Ġendeared": 26498,
    "Ġeaglet": 19303,
    "Ġquest": 1999,
    "À": 129,
    "stood": 4116,
    "Ġsepulchre": 20558,
    "Ġrelevant": 1864,
    "upt": 13797,
    "Ġstam": 18065,
    "Ġperemptory": 25740,
    "sympathy": 20541,
    "))": 1514,
    "date": 17517,
    "grin": 19105,
    "omp": 2472,
    "ĠĊ": 12520,
    "[_": 5131,
    "Ġdemeanour": 17336,
    "smart": 23904,
    "Ġfrankness": 16746,
    "Ġaver": 1285,
    "Ġyoung": 1505,
    "Ġwisest": 11232,
    "bing": 7791,
    "Ġprovoking": 16743,
    "Ġsav": 3358,
    "Ġterritories": 23843,
    "uniform": 18157,
    "Ġantiquities": 25598,
    "Ġvoluntary": 14798,
    "Ġbond": 21382,
    "Ġdarkly": 19114,
    "approaching": 15011,
    "Ġeconomy": 17200,
    "atter": 656,
    "Ġconsiderations": 9409,
    "Ġcomparative": 10542,
    "kitty": 10105,
    "Ġmajor": 13290,
    "Ġcigarette": 20655,
    "Ġegyptian": 13585,
    "Ġsquee": 7928,
    "Ġloungers": 24862,
    "cre": 4252,
    "Ġbleak": 10558,
    "Ġinsignificant": 20455,
    "saf": 11524,
    "Ġbarbarously": 24819,
    "Ġmorsel": 20676,
    "cer": 6642,
    "Ġpunch": 9954,
    "Ġimagination": 5759,
    "Ġdazzling": 15210,
    "_,âĢĻ": 12431,
    "face": 3675,
    "Ġtreat": 3178,
    "Ġbubb": 12581,
    "amples": 1823,
    "Ġloathed": 15873,
    "uendoes": 26407,
    "ody": 1479,
    "Ġ95": 19772,
    "Ġexpiration": 22623,
    "Ġfulfilled": 11362,
    "Ġprobable": 5570,
    "Ġopens": 23628,
    "Ġdit": 21418,
    "Ġcon": 348,
    "grey": 14911,
    "Ġcontrive": 16008,
    "properly": 24918,
    "clim": 18929,
    "baggage": 24926,
    "Ġstudied": 11114,
    "Ġbodies": 8031,
    "Ġinfancy": 10409,
    "precision": 4333,
    "Ġzer": 1096,
    "Ġmonosyllable": 20725,
    "Ġsliding": 9363,
    "Ġseldom": 4630,
    "cul": 1900,
    "Ġlatitudes": 9495,
    "Ġshould": 864,
    "mathemat": 19137,
    "Ġpaw": 12617,
    "Ġfret": 10806,
    "Ġ121": 24466,
    "Ġinscribed": 24938,
    "ared": 770,
    "Ġmuttering": 10499,
    "Ġgenerating": 12848,
    "reposed": 24492,
    "Ġpoison": 7219,
    "noise": 14336,
    "conscientious": 19625,
    "longer": 8612,
    "five": 6356,
    "Ġtrailing": 23076,
    "Ġsubur": 12953,
    "royal": 11393,
    "clean": 14759,
    "Ġfun": 525,
    "Ġtestimony": 14474,
    "Ġhope": 1788,
    "devilish": 17082,
    "Ġdubious": 17382,
    "searching": 25103,
    "forming": 15916,
    "Ġvine": 8471,
    "Ġhatter": 4112,
    "ending": 1988,
    "Ġunequal": 14841,
    "Ġocc": 887,
    "later": 20952,
    "revolver": 25627,
    "younger": 11312,
    "resemblance": 25933,
    "Ġexcused": 23311,
    "Ġrib": 4936,
    "Ġcandidate": 16701,
    "neck": 14241,
    "Ġwaldman": 11345,
    "Ġviolates": 3167,
    "Ġunacquainted": 12773,
    "erm": 785,
    "Ġsecured": 6745,
    "Ġopinions": 9414,
    "Ġunostentatious": 22067,
    "orously": 8418,
    "Ġrewards": 10848,
    "Ġgiant": 13967,
    "Ġrepl": 1591,
    "Ġcharmed": 16762,
    "resol": 17760,
    "Ġcosmopolitan": 20640,
    "Ġago": 3136,
    "Ġdoubtful": 19141,
    "Ġcass": 13878,
    "bowl": 14890,
    "Ġblend": 14398,
    "Ġexaggerated": 25650,
    "Ġindulgence": 11319,
    "Ġmask": 1866,
    "Ó": 148,
    "ura": 1035,
    "ledyard": 22388,
    "Ġterrific": 6754,
    "Ġunrestrained": 25554,
    "Ġunlucky": 10049,
    "finer": 17546,
    "Ġslang": 23156,
    "Ġscholar": 26111,
    "Ġcardboard": 19977,
    "Ġhagger": 21488,
    "Ġbrains": 2633,
    "Ġsalisbury": 24060,
    "wester": 21137,
    "Ġsphynx": 20711,
    "danger": 10089,
    "movement": 25577,
    "Ġmerit": 9426,
    "Ġbohemia": 10649,
    "Ġportcull": 23861,
    "Ġrig": 4224,
    "Ġdented": 17891,
    "kinson": 10025,
    "Ġrept": 13982,
    "Ġhaunts": 18198,
    "pleasing": 14741,
    "Ġdependen": 1829,
    "cd": 15322,
    "clad": 14458,
    "hawks": 24694,
    "our": 535,
    "¼": 125,
    "robustness": 26338,
    "Ġribbons": 24329,
    "oysius": 14365,
    "Ġsurmisings": 26593,
    "Ġbleached": 24396,
    "Ġtable": 2501,
    "unbounded": 21882,
    "Ġerskine": 17431,
    "Ġturtle": 4203,
    "Ġignorance": 6618,
    "Ġlivel": 11355,
    "Ġrevellers": 21675,
    "iscre": 17850,
    "Ġindignantly": 16939,
    "Ġdisconsol": 18557,
    "Ġceasing": 23756,
    "Ġdedicated": 19189,
    "etent": 10199,
    "Ġintense": 6157,
    "Ġejaculation": 20253,
    "Ġcaut": 6521,
    "ternatural": 12712,
    "pride": 11210,
    "Ġadored": 18293,
    "Ġfeathers": 15118,
    "princip": 17136,
    "ui": 9144,
    "Ġexplained": 5935,
    "Ġmariner": 7247,
    "Ġrefreshing": 20263,
    "Ġsanctioned": 26349,
    "Ġentreat": 4510,
    "Ġexhausting": 24710,
    "Ġfrom": 434,
    "Ġsleet": 8975,
    "Ġtrib": 13818,
    "Ġdarkened": 16431,
    "tears": 11036,
    "Ġmarvellous": 7538,
    "yl": 7818,
    "storied": 18024,
    "Ġseventh": 18204,
    "deliber": 17425,
    "rants": 13777,
    "draught": 12087,
    "Ġmelancholy": 5606,
    "Ġrequiring": 2920,
    "Ġsayest": 22775,
    "Ġuniversally": 11998,
    "horrors": 20540,
    "ades": 5631,
    "etus": 21575,
    "Ġhermit": 15855,
    "Ġsche": 1704,
    "illity": 18296,
    "Ġglimmering": 25240,
    "requent": 3648,
    "Ġsurgeons": 23463,
    "still": 4218,
    "Ġbab": 5289,
    "Ġmassive": 9931,
    "Ġhiss": 15785,
    "commendation": 26348,
    "Ġthack": 21514,
    "surface": 10530,
    "here": 2551,
    "pointing": 12222,
    "atered": 22004,
    "alization": 731,
    "usation": 18401,
    "heum": 17747,
    "backpropagation": 11984,
    "Ġscra": 5840,
    "Ġenterprise": 8641,
    "oid": 3127,
    "Ġseriously": 7060,
    "chard": 21684,
    "Ġcanoes": 12802,
    "50": 6784,
    "Ġcomplet": 4423,
    "Ġstream": 5186,
    "Ġapp": 498,
    "Ġcottages": 14726,
    "Ġassured": 4373,
    "Ġfury": 7660,
    "unct": 18154,
    "collinses": 19922,
    "ley": 1816,
    "frankly": 20020,
    "Ġenable": 685,
    "erns": 8777,
    "car": 4211,
    "instinctively": 26327,
    "Ġenabling": 1081,
    "Ġquaint": 18465,
    "Ġenter": 4029,
    "Ġnods": 19064,
    "Ġliked": 5264,
    "Ġedition": 16433,
    "Ġple": 1471,
    "Ġgasping": 17038,
    "._": 3225,
    "Ġprodigy": 19791,
    "prove": 11147,
    "Ġ110": 24435,
    "Ġrolled": 4430,
    "Ġtufted": 17014,
    "Ġlikened": 16499,
    "Ġbub": 8117,
    "brim": 23574,
    "tie": 21067,
    "indifferent": 14208,
    "Ġexceedingly": 4615,
    "Ġindustry": 18836,
    "accomplishments": 25326,
    "Ġbaffled": 12401,
    "search": 8464,
    "Ġfe": 489,
    "fail": 17540,
    "Ġslighted": 16567,
    "lingering": 18601,
    "que": 1135,
    "Ġuncomfortable": 8485,
    "Ġdurst": 20351,
    "ulous": 4450,
    "Ġasph": 21895,
    "Ġcul": 17822,
    "azz": 8261,
    "Ġshavings": 14109,
    "opius": 18508,
    "Ġgenus": 24429,
    "Ê": 139,
    "Ġruin": 6055,
    "catch": 17506,
    "Ġdegree": 3701,
    "Ġchatbots": 11349,
    "Ġlodger": 24090,
    "ict": 595,
    "Ġmythologies": 26213,
    "Ġcontempl": 6701,
    "Ġsacrific": 15017,
    "Ġhedge": 8363,
    "ersed": 10257,
    "Ġfamily": 1965,
    "Ġpiling": 17910,
    "Ġshaping": 22000,
    "Ġclutches": 20016,
    "asible": 21539,
    "Ġaqu": 17742,
    "Ġar": 483,
    "fed": 11487,
    "ast": 473,
    "ocity": 8277,
    "cut": 3124,
    "elze": 21570,
    "amp": 2607,
    "Ġgr": 977,
    "Ġmanagement": 8192,
    ".;": 20743,
    "escript": 18471,
    "morland": 24152,
    "arrant": 10474,
    "explanations": 25234,
    "Ġunrel": 14695,
    ",": 16,
    "wart": 17705,
    "Ġreceipt": 20354,
    "Ġ122": 24467,
    "g": 75,
    "fitting": 1508,
    "Ġtears": 4231,
    "Ġdesperately": 24656,
    "Ġpreparation": 13528,
    "wondered": 17029,
    "Ġduc": 4697,
    "Ġdangers": 12352,
    "otent": 8831,
    "immediately": 10048,
    "Ġadaptive": 1370,
    "Ġabode": 7899,
    "Ġmaxim": 3085,
    "Ġmuttered": 7086,
    "Ġdispleasure": 16049,
    "slept": 17169,
    "Ġcravat": 26307,
    "orated": 12588,
    "described": 18895,
    "partly": 14602,
    "Ġfur": 990,
    "Ġdiverse": 19209,
    "Ġautumn": 14507,
    "Ġscru": 8190,
    "Ġunfavourable": 17416,
    "stupid": 12673,
    "Ġleaps": 14007,
    "pin": 13766,
    "suggested": 17298,
    "mists": 17605,
    "Ġsweetly": 23916,
    "Ġencomp": 12960,
    "Ġrevers": 21661,
    "indignation": 18438,
    "Ġlived": 3988,
    "Ġfancying": 12110,
    "//": 11463,
    "Ġgryphon": 4302,
    "Ġhilarity": 20296,
    "Ġextensive": 12938,
    "Ġdescription": 7429,
    "excellent": 8043,
    "Ġgreedy": 3054,
    "Ġpear": 11850,
    "ience": 808,
    "quarters": 24946,
    "isted": 3302,
    "Ġagencies": 18539,
    "Ġimportance": 4900,
    "Ġglimpses": 13431,
    "nlp": 8750,
    "ag": 377,
    "Ġwandered": 6930,
    "rived": 5373,
    "Ġmanhandle": 22326,
    "Ġpurposed": 23551,
    "ign": 1702,
    "bidden": 19736,
    "Ġphysi": 9987,
    "right": 2770,
    "Ġwelded": 9571,
    "Ġlabrador": 23329,
    "Ġwillingly": 8884,
    "Ġvapor": 8699,
    "Ġstript": 23693,
    "Ġ32": 19487,
    "ively": 1319,
    "Ġmelbourne": 24289,
    "Ġmidst": 7985,
    "led": 580,
    "Ġcapt": 1290,
    "ability": 716,
    "Ġestates": 16458,
    "Ġpassing": 4317,
    "Ġcleared": 6074,
    "own": 745,
    "Ġmark": 2331,
    "Ġhyp": 3872,
    "Ġgrizzled": 11450,
    "Ġindecision": 25781,
    "uning": 1310,
    "ford": 2824,
    "Ġriverside": 25247,
    "Ġcandelabra": 26602,
    "Ġfollow": 1396,
    "omination": 21639,
    "ild": 1155,
    "Ġintervened": 25481,
    "Ġcooked": 13267,
    "¥": 103,
    "Ġsheets": 9721,
    "apparent": 11040,
    "ostentatious": 20651,
    "Ġlists": 11166,
    "tubs": 15129,
    "Ġsave": 4051,
    "uries": 6147,
    "Ġviolence": 5962,
    "Ġany": 688,
    "Ġrelentless": 26277,
    "Ġloomings": 24949,
    "Ġextracting": 11104,
    "anse": 12572,
    "Ġseats": 14087,
    "mut": 17595,
    "clergy": 18933,
    "ravelled": 18014,
    "Ġseverely": 14932,
    "Ġfoliage": 18866,
    "threatened": 25462,
    "Ġstumped": 24942,
    "ifiable": 18163,
    "Ġfort": 2581,
    "Ġgurgling": 17445,
    "remarkable": 13497,
    "Ġkid": 9724,
    "Ġphysiology": 25332,
    "resides": 23671,
    "Ġdoubts": 8579,
    "honor": 19899,
    "Ġintercourse": 10998,
    "cription": 20817,
    "Ġvesuvius": 26501,
    "Ġcarefully": 6304,
    "aded": 3548,
    "prior": 21031,
    "Ġprejudiced": 24809,
    "cork": 20795,
    "Ġhate": 5445,
    "capable": 13700,
    "rrh": 26144,
    "Ġphara": 23196,
    "ctor": 13959,
    "batross": 9092,
    "Ġparadise": 11194,
    "Ġwrongfully": 24248,
    "Ġspars": 3808,
    "en": 271,
    "Ġnoises": 18373,
    "Ġbesides": 3513,
    "Ġinsurance": 23681,
    "Ġdoted": 21431,
    "Ġhedgehogs": 25394,
    "Ġproportional": 2526,
    "ek": 1907,
    "Ġpassionate": 11273,
    "Ġdrab": 13069,
    "continual": 20643,
    "ms": 537,
    "âĢ": 294,
    "Ġconfining": 23304,
    "Ġpawn": 12061,
    "scra": 13015,
    "Ġwarming": 23557,
    "dared": 13701,
    "Ġascribe": 16782,
    "Ġsociable": 19402,
    "Ġrio": 23889,
    "Ġdimens": 3150,
    "duing": 22408,
    "Ġabusing": 18393,
    "tting": 17680,
    "Ġbarrels": 9435,
    "Ġbuoy": 8003,
    "Ġparc": 10920,
    "Ġplainpalais": 20736,
    "Ġcalled": 1972,
    "Ġbart": 17857,
    "Ġgrated": 22801,
    "Ġhan": 15615,
    "Ġlandlessness": 23378,
    "Ġimmaculate": 19484,
    "Ġporter": 15608,
    "Ġduplicate": 17215,
    "Ġseries": 7059,
    "latitude": 25259,
    "Ġprofessor": 11230,
    "Ġmodes": 22211,
    "ceed": 1076,
    "Ġselfishness": 12287,
    "Ġmaintaining": 1507,
    "Ġkink": 22190,
    "narr": 12494,
    "Ġ{": 21151,
    "Ġseer": 21949,
    "Ġcrucifix": 26079,
    "Ġchest": 5185,
    "apsed": 6295,
    "Ġminiatures": 20320,
    "Ġbingley": 1675,
    "Ġestablished": 9069,
    "iously": 2679,
    "luck": 5733,
    "Ġvolcanoes": 24145,
    "Ġbackward": 7654,
    "Ġsigned": 11177,
    "endurable": 22225,
    "bel": 3833,
    "Ġdawned": 14993,
    "Ġeconomically": 25288,
    "Ġhooks": 14967,
    "Ġrheumatic": 20704,
    "od": 353,
    "nurs": 20998,
    "Ġnasty": 17442,
    "ooping": 21006,
    "Ġheeded": 13402,
    "Ġthreads": 13116,
    "Ġstarted": 4149,
    "beyond": 8882,
    "Ġunwe": 15836,
    "nursery": 26399,
    "Ġcellars": 24665,
    "Ġpark": 5465,
    "Ġunaware": 22056,
    "Ġbeware": 8827,
    "Ġmarsh": 9820,
    "gracious": 11829,
    "deadly": 17100,
    "ishness": 22339,
    "Ġblows": 5972,
    "Ġfatality": 12092,
    "whips": 22235,
    "Ġcompassion": 6487,
    "Ġcondem": 6338,
    "Ġ129": 24474,
    "Ġlocks": 11722,
    "omy": 6248,
    "Ġreference": 2568,
    "terrific": 25040,
    "iture": 5696,
    "Ġsky": 3967,
    "Ġtime": 690,
    "sharpening": 22451,
    "Ġsupplying": 19797,
    "century": 20045,
    "Ġfalling": 6915,
    "wards": 1276,
    "Ġgently": 7171,
    "Ġfolly": 7940,
    "Ġfunny": 7637,
    "concerted": 16671,
    "quarried": 24945,
    "Ġdwelling": 7322,
    "Ġresisted": 22538,
    "Ġdashes": 21432,
    "wail": 21124,
    "Ġont": 18116,
    "Ġloos": 15869,
    "Ġbe": 336,
    "Ġwrist": 8242,
    "emporary": 15795,
    "previously": 17207,
    "Ġquietude": 19358,
    "Ġpagoda": 19787,
    "atically": 2617,
    "Ġmuscle": 14689,
    "sleeve": 26108,
    "encing": 21281,
    "Ġretains": 20028,
    "Ġwatch": 2744,
    "Ġboots": 5942,
    "Ġfoster": 18991,
    "ske": 13781,
    "Ġchagrin": 20606,
    "Ġprognost": 15280,
    "Ġtak": 15469,
    "seemed": 4306,
    "ubb": 1648,
    "Ġvulture": 17338,
    "Ġbecome": 3158,
    "Ġchristmas": 6924,
    "Ġinherent": 4592,
    "Ġpresent": 1641,
    "Ġstatement": 5254,
    "Ġwindows": 4971,
    "msprop": 2628,
    "distinction": 19570,
    "Ġsounding": 8264,
    "hope": 5989,
    "Ġvind": 10249,
    "expectation": 14855,
    "iny": 4296,
    "Ġblinding": 14727,
    "«": 109,
    "hastily": 19701,
    "Ġupdating": 2693,
    "Ġcumulative": 4210,
    "Ġappointment": 10646,
    "insupportable": 21192,
    "Ġexagger": 12716,
    "xes": 21139,
    "Ġwithheld": 18114,
    "ky": 4520,
    "Ġern": 8396,
    "Ġbaker": 4696,
    "Ġban": 7156,
    "Ġsurrey": 14558,
    "Ġdisdain": 8359,
    "Ġamaz": 5385,
    "Ġhit": 7163,
    "Ġoverwhelm": 25052,
    "ive": 428,
    "blacksmith": 17001,
    "desol": 13066,
    "Ġdesc": 772,
    "ulating": 10887,
    "convolutional": 4958,
    "roman": 22001,
    "Ġdescribe": 2767,
    "Ġrecomm": 4996,
    "Ġcrawl": 11375,
    "declined": 25174,
    "Ġdirt": 15591,
    "Ġfortunes": 12176,
    "finished": 10554,
    "ating": 664,
    "pat": 10116,
    "âĢĶâĢĺ_": 24831,
    "begging": 22493,
    "Ġdyspeps": 16494,
    "transform": 8049,
    "Ġmorbidness": 20627,
    "Ġnautical": 17385,
    "Ġscre": 9736,
    "Ġforefinger": 16443,
    "learnt": 23511,
    "or": 282,
    "lucifer": 25301,
    "Ġxxii": 24478,
    "bon": 13683,
    "Ġunfolding": 17086,
    "Ġcommit": 18654,
    "Ġverd": 6919,
    "ber": 884,
    "Ġconsc": 4276,
    "quired": 21852,
    "Ġrifle": 18214,
    "Ġforesight": 13126,
    "shaped": 10308,
    "Ġinducements": 24965,
    "Ġviol": 2071,
    "Ġunconcerned": 20508,
    "Ġdull": 6384,
    "join": 12111,
    "neat": 22459,
    "Ġeng": 1163,
    "weight": 2940,
    "Ġbewitched": 25975,
    "Ġwhirlpool": 20654,
    "Ġeager": 3569,
    "utterly": 20010,
    "Ġcetacea": 20552,
    "Ġnephews": 24714,
    "Ġaccustomed": 6861,
    "ety": 3520,
    "Ġgrievous": 13259,
    "Ġprince": 18971,
    "Ġeffected": 14353,
    "Ġunsolved": 22030,
    "enes": 5218,
    "izon": 18133,
    "dr": 6221,
    "blue": 13692,
    "Ġwaking": 11569,
    "perquisites": 26531,
    "uses": 11759,
    "deficient": 23114,
    "orious": 6007,
    "Ġrecall": 3854,
    "connections": 14427,
    "Ġhave": 446,
    "Ġnotions": 14098,
    "invariably": 26416,
    "waiter": 24586,
    "urch": 3991,
    "Ġsturgeon": 20590,
    "Ġaddressing": 11164,
    "Ġwhosoever": 21716,
    "proportion": 16182,
    "isen": 10792,
    "formality": 22214,
    "sleeping": 13453,
    "Ġneg": 1335,
    "vation": 4744,
    "damn": 20022,
    "Ġhoping": 11103,
    "Ġcarelessly": 11120,
    "inence": 15480,
    "Ġroused": 7622,
    "either": 6791,
    "reinforcement": 7826,
    "č": 206,
    "Ġasia": 11681,
    "Ġdisinterested": 16054,
    "Ġdislike": 6047,
    "Ġremem": 4315,
    "Ġcounterpart": 24721,
    "Ġboston": 22635,
    "Ġreasonably": 11091,
    "Ġexcuses": 19042,
    "Ġtoy": 15631,
    "Ġho": 1931,
    "Ġarriving": 19217,
    "Ġgravely": 7882,
    "ineer": 11700,
    "sincere": 16907,
    "Ġhipp": 21489,
    "Ġunb": 10907,
    "Ġdepresses": 25797,
    "Ġdefici": 22940,
    "ss": 397,
    "Ġinternal": 2243,
    "ial": 411,
    "moran": 24151,
    "Ġquality": 3527,
    "urous": 10212,
    "Ġswashing": 23053,
    "abular": 4762,
    "Ġappals": 22217,
    "Ġthrilling": 19747,
    "Ġunearthly": 9036,
    "Ġtablets": 13154,
    "Ġenlist": 21933,
    "became": 10514,
    "Ġmermaid": 17813,
    "uteronomy": 15661,
    "Ġheld": 3584,
    "Ġnarrative": 6215,
    "wid": 10134,
    "Ġcivilities": 14847,
    "fourth": 11328,
    "Ġexultation": 15170,
    "butt": 15992,
    "Ġenchant": 7185,
    "bony": 15318,
    "Ġproxim": 3204,
    "touch": 8391,
    "Ġnur": 5710,
    "Ġdisplaying": 16966,
    "Ġmarking": 16468,
    "Ġtrifled": 24674,
    "onym": 14649,
    "Ġunsc": 22011,
    "Ġabandon": 12255,
    "Ġseeth": 21950,
    "Ġrelationship": 2316,
    "Ġexpands": 25237,
    "incing": 15484,
    "bour": 2072,
    "avenue": 25057,
    "Ġbraided": 16581,
    "Ġdepressed": 10883,
    "Ġdiscol": 12950,
    "Ġemerged": 8684,
    "Ġgospel": 18000,
    "Ġtus": 10749,
    "Ġheaths": 25972,
    "joining": 19444,
    "Ġfocused": 16339,
    "gallantry": 15058,
    "eliest": 14745,
    "Ġicelandic": 25886,
    "promontory": 24728,
    "Ġkissed": 10044,
    "Ġbishop": 13901,
    "arrival": 15597,
    "atus": 21259,
    "forget": 11032,
    "decor": 23779,
    "orrah": 17875,
    "Ġassembly": 10642,
    "develop": 13517,
    "hampshire": 23262,
    "þ": 191,
    "Ġscare": 18396,
    "Ġairth": 23316,
    "Ġburly": 19249,
    "Ġpartial": 2129,
    "lashed": 20953,
    "impropriety": 21710,
    "Ġdrowned": 9551,
    "Ġgrapnels": 25551,
    "ins": 1378,
    "increasing": 20268,
    "Ġthereby": 7643,
    "Ġassertion": 13488,
    "collected": 13212,
    "Ġwreat": 15529,
    "Ġunanswerable": 26521,
    "ascertaining": 26460,
    "Ġantilles": 24179,
    "hertfordshire": 10936,
    "Ġfriendless": 23020,
    "Ġpalmy": 19497,
    "Ġbrilliantly": 25120,
    "Ġoutlined": 22317,
    "aunted": 20769,
    "Ġcigar": 9544,
    "governed": 25405,
    "Ġham": 3422,
    "Ġdecomposes": 5506,
    "gloom": 17139,
    "ifford": 15781,
    "Ġsurpass": 13582,
    "Ġadm": 2402,
    "Ġheavily": 6740,
    "murderer": 13392,
    "ah": 1833,
    "Ġnorthern": 7265,
    "gangway": 20666,
    "islands": 21374,
    "Ġoptimizer": 5036,
    "Ġmappings": 2148,
    "requiem": 24856,
    "bruary": 15234,
    "Ġband": 5290,
    "Ġhang": 9187,
    "ble": 542,
    "Ġdenoted": 16565,
    "Ġguided": 10461,
    "Ġcoleridge": 18764,
    "Ġpriority": 19761,
    "Ġstunsail": 25543,
    "Ġtouches": 20569,
    "tormented": 13644,
    "Ġcassock": 20485,
    "Ġblade": 11891,
    "Ġtra": 1385,
    "Ġlashed": 9198,
    "Ġcontradict": 12383,
    "air": 1000,
    "Ġwaistcoat": 12268,
    "Ġtuples": 13476,
    "Ġcontrad": 9754,
    "Ġclearing": 8239,
    "rising": 7557,
    "impulse": 20644,
    "americ": 8155,
    "scornful": 26575,
    "Ġmastery": 23990,
    "Ġslighter": 18939,
    "Ġtransfer": 2305,
    "Ġsorry": 4209,
    "Ġdocument": 15018,
    "rets": 12538,
    "Ġtet": 21156,
    "gone": 6504,
    "condemned": 26060,
    "£": 101,
    "Ġcommend": 10334,
    "Ġfrighten": 13276,
    "hastened": 16845,
    "Ġattic": 16093,
    "Ġthan": 736,
    "Ġreversed": 15694,
    "put": 414,
    "Ġcrime": 4617,
    "Ġupper": 5090,
    "Ġpermit": 9748,
    "Ġfitness": 23997,
    "Ġrumpled": 24600,
    "Ġanx": 3183,
    "Ġcommissionaire": 17000,
    "arb": 1563,
    "hend": 13251,
    "rant": 11516,
    "turner": 19540,
    "Ġslewed": 23383,
    "Ġspotted": 12136,
    "Ġbounty": 26437,
    "Ġseaport": 20598,
    "Ġembraces": 19871,
    "elf": 566,
    "Ġbashful": 20418,
    "evidently": 20344,
    "suitable": 18636,
    "reast": 17758,
    "Ġforlorn": 14014,
    "Ġengage": 9334,
    "Ġfugitives": 25634,
    "sum": 2086,
    "Ġclue": 7019,
    "Ġdevices": 2941,
    "Ġpraise": 6486,
    "Ġbethink": 12377,
    "Ġpell": 21454,
    "supplemental": 25874,
    "tail": 8761,
    "sincerely": 24584,
    "together": 3555,
    "Ġinfamous": 16363,
    "species": 13255,
    "Ġconvincing": 19306,
    "Ġconveying": 19713,
    "record": 16921,
[...]
