{
  "metadata": {
    "vocab_size": 26615,
    "algorithm": "BPE",
    "created_at": "2026-07-16 04:58:45",
    "special_tokens": [
      "<PAD>",
      "<SOS>",
      "<EOS>",
      "<UNK>",
      "<MASK>"
    ]
  },
  "vocab": {
    "branch": 23580,
    "Ġenig": 15803,
    "london": 9611,
    "Ġcast": 3606,
    "crowded": 20193,
    "Ġfinest": 10394,
    "outward": 22165,
    "Ġsatisfaction": 5667,
    "Ġincidentally": 16955,
    "mountains": 15183,
    "boy": 4739,
    "crossing": 19414,
    "Ġdarker": 13123,
    "Ġmost": 1019,
    "Ġpremeditated": 22239,
    "Ġdiscussion": 17196,
    "shire": 3022,
    "Ġmitig": 1335,
    "Ġhanded": 8218,
    "Ġdistinguishing": 16498,
    "Ġpattered": 19033,
    "Ġdesignated": 19524,
    "Ě": 219,
    "tottenham": 25419,
    "Ġnervous": 2407,
    "Ġuncommon": 5026,
    "hack": 20898,
    "Ġschooner": 16748,
    "desp": 6094,
    "Ġlighter": 12657,
    "cating": 20804,
    "housekeeping": 24103,
    "whatever": 6695,
    "Ġsultan": 15187,
    "Ġinnocent": 4922,
    "Ġangle": 8606,
    "Ġactivations": 2719,
    "last": 3803,
    "Ġderbyshire": 6587,
    "giana": 7801,
    "Ġloitering": 22121,
    "agony": 14071,
    "mselves": 2861,
    "Ġmeekly": 26491,
    "tic": 8392,
    "É": 138,
    "Ġremarking": 13128,
    "Ġconversing": 14634,
    "Ġcourage": 4635,
    "Ġseethe": 21968,
    "Ġold": 1056,
    "Ġestimate": 19376,
    "received": 9640,
    "Ġunfor": 15843,
    "Ġprogrammed": 11059,
    "Ġpledge": 11603,
    "match": 15393,
    "Ġfacil": 16963,
    "Ġfattened": 25950,
    "Ġsavann": 14685,
    "Ġgrimes": 11035,
    "Ġsar": 21216,
    "animals": 24737,
    "Ġsockets": 22093,
    "Ġcorners": 18876,
    "shipping": 10309,
    "Ġwhistles": 24626,
    "Ġtiger": 11556,
    "Ġperplexity": 2752,
    "resemblance": 25934,
    "Ġtypes": 8938,
    "Ġbetween": 792,
    "Ġconceal": 5975,
    "Ġlocked": 6036,
    "Ġtin": 15466,
    "gans": 11491,
    "Ġlibr": 16002,
    "Ġfeed": 2126,
    "Ġaroused": 15903,
    "Ġbeaks": 21760,
    "Ġrisks": 9966,
    "Ġwaylaid": 22876,
    "Ġsquall": 7044,
    "Ġpenalizing": 13094,
    "Ġthigh": 10188,
    "beer": 22493,
    "Ġcombined": 8550,
    "introduction": 15126,
    "Ġmustering": 18662,
    "Ġsights": 7471,
    "edily": 17946,
    "Ġrefused": 6716,
    "following": 10574,
    "tooth": 18580,
    "Ġinconven": 7586,
    "Ġtoes": 10830,
    "Ġworrying": 22931,
    "ousand": 2431,
    "Ġrattle": 10900,
    "reposed": 24491,
    "intervals": 10639,
    "tale": 10129,
    "Ġlat": 5087,
    "Ġmuse": 13862,
    "mody": 16187,
    "Ġgallows": 12149,
    "gang": 17554,
    "q": 85,
    "Ġtranque": 14206,
    "cturn": 17989,
    "pig": 8756,
    "Ġmalacca": 24392,
    "Ġtort": 5903,
    "rosings": 15648,
    "Ġnodes": 1967,
    "Ġinjured": 9041,
    "Ġunmingled": 18264,
    "Ġadmits": 23557,
    "Ġfurnishing": 16647,
    "taffrail": 15445,
    "Ġgri": 17990,
    "Ġmanhat": 22332,
    "Ġcolony": 18767,
    "Ġhomely": 25220,
    "Ġhitting": 21491,
    "please": 8178,
    "seized": 14037,
    "Ġcoolness": 16887,
    "Ġsprings": 16687,
    "Ġpercept": 14225,
    "Ġcannibal": 7774,
    "avier": 2831,
    "iciency": 9576,
    "Ġknowest": 12867,
    "Ġlobster": 11390,
    "Ġcasual": 11410,
    "humoured": 11237,
    "ascending": 24706,
    "proceed": 8978,
    "inkles": 7425,
    "odecimoes": 25319,
    "Ġunp": 12776,
    "Ġantiquities": 25599,
    "Ġbasics": 13451,
    "Ġwickedness": 9528,
    "Ġperishing": 22403,
    "atter": 661,
    "Ġdoom": 6417,
    "Ġleghorn": 13149,
    "Ġschedules": 3386,
    "fellows": 12277,
    "Ġcheering": 11134,
    "Ġalive": 4399,
    "earnest": 12402,
    "jonah": 11498,
    "Ġexploded": 15913,
    "abri": 6683,
    "tain": 559,
    "Ġdestro": 3722,
    "iew": 2447,
    "penn": 18828,
    "Ġfollow": 1394,
    "Ġstunsail": 25544,
    "Ġspade": 9261,
    "iftings": 23226,
    "estinated": 15925,
    "iqu": 7803,
    "Ġimbalance": 22179,
    "Ġproposals": 10615,
    "affold": 16564,
    "Ġlaud": 17970,
    "Ġsweatings": 25709,
    "extric": 22769,
    "istered": 14146,
    "Ġfleet": 9434,
    "street": 6495,
    "Ġperusal": 14226,
    "Ġisa": 14027,
    "never": 3153,
    "Ġneat": 6999,
    "american": 11401,
    "itional": 22471,
    "Ġshoal": 12018,
    "Ġproceeding": 9908,
    "Ġlingu": 11616,
    "âĢĿ;": 11672,
    "Ġbread": 5404,
    "Ġinquisitive": 26318,
    "Ġforenoon": 19127,
    "Ġdonkey": 23231,
    "chors": 11646,
    "Ġpiece": 5367,
    "cheeked": 19342,
    "Ġsovereign": 10064,
    "Ġencodings": 4776,
    "covering": 15336,
    "Ġdev": 884,
    "Ġtusked": 25427,
    "illing": 8176,
    "tailed": 17686,
    "Ġbellies": 13359,
    "archical": 1926,
    "Ġexpl": 487,
    "Ġinmost": 17933,
    "Ġutmost": 5496,
    "Ġfrog": 23925,
    "Ġadvertised": 17249,
    "hau": 17563,
    "ignorance": 17163,
    "beam": 16042,
    "quently": 9704,
    "Ġclung": 10957,
    "conducted": 25573,
    "ralian": 19603,
    "mediterranean": 16409,
    "sn": 7139,
    "Ġbears": 6828,
    "Ġlaudanum": 20693,
    "yd": 21145,
    "asked": 8914,
    "dried": 20829,
    "Ġreb": 15695,
    "Ġprogress": 5023,
    "Ġreasoning": 2031,
    "Ġcyp": 21348,
    "Ġterminated": 23511,
    "Ġcrunched": 19122,
    "Ġscreen": 17207,
    "Ġinclinations": 19542,
    "Ġmornings": 16241,
    "Ġklux": 22200,
    "binnacle": 20789,
    "Ġdip": 13909,
    "Ġi": 311,
    "Ġroutine": 13510,
    "Ġunhallowed": 17182,
    "apparatus": 26564,
    "Ġostens": 25276,
    "Ġveritable": 19384,
    "Ġimpotent": 18448,
    "Ġissued": 10601,
    "descried": 11932,
    "Ġgrunted": 16172,
    "masterly": 24529,
    "Ġpictured": 16624,
    "Ġprofund": 13156,
    "Ġconsulted": 13433,
    "Ġchanc": 18385,
    "https": 11687,
    "officer": 17054,
    "Ġ18": 3406,
    "Ġguitar": 16270,
    "ribut": 815,
    "Ġphotography": 24684,
    "Ġstays": 16563,
    "Ġtransformed": 22617,
    "Ġwrithed": 17106,
    "Ġvess": 3293,
    "lutions": 20952,
    "eridge": 15529,
    "Ġaffl": 14388,
    "heard": 5009,
    "Ġinclination": 6625,
    "dismal": 23499,
    "Ġinvests": 14870,
    "Ġdeposition": 18612,
    "jewell": 25524,
    "Ġrevive": 13482,
    "thee": 9692,
    "talk": 6658,
    "gument": 20887,
    "Ġcapstan": 9101,
    "iates": 13739,
    "Ġinvitation": 5188,
    "Ġreadily": 5254,
    "Ġinput": 610,
    "Ġmizen": 17260,
    "Ġsticking": 13430,
    "movement": 25578,
    "complacency": 19916,
    "Ġsuspicion": 6212,
    "pract": 10121,
    "Ġtyrant": 24766,
    "ive": 426,
    "Ġbrooded": 23107,
    "Ġtash": 13822,
    "pall": 17629,
    "ructure": 758,
    "Ġscrape": 14920,
    "Ġseverely": 14935,
    "erland": 9642,
    "og": 857,
    "Ġgaieties": 24197,
    "Ġtinkling": 25213,
    "ounds": 4155,
    "Ġsuggestions": 24452,
    "society": 9974,
    "Ġsk": 960,
    "Ġdeference": 10882,
    "Ġlanterns": 24577,
    "Ġjaw": 3317,
    "Ġcust": 11584,
    "Ġdrooping": 9422,
    "Ġstrugg": 3219,
    "taught": 17685,
    "Ġdefence": 11068,
    "Ġill": 2195,
    "conclusive": 25674,
    "Ġremotest": 10054,
    "Ġfang": 21406,
    "Ġinscrut": 10036,
    "Ġamid": 4959,
    "knife": 6941,
    "Ġrandom": 1587,
    "Ġbrisk": 9805,
    "Ġdimin": 3871,
    "Ġembatt": 18850,
    "Ġbeloved": 5571,
    "leaned": 21372,
    "enchant": 21286,
    "Ġindependent": 9018,
    "inspector": 13649,
    "created": 12454,
    "sper": 4437,
    "specimen": 26606,
    "penny": 22949,
    "onian": 17768,
    "pulling": 25149,
    "Ġfires": 16474,
    "ident": 3379,
    "hateful": 20911,
    "Ġvery": 636,
    "five": 6357,
    "Ġbeliever": 25847,
    "additional": 20467,
    "Ġtolland": 24993,
    "vanity": 24979,
    "Ġdataset": 12824,
    "event": 8078,
    "Ġfarthest": 23120,
    "antique": 18288,
    "Ġartist": 12916,
    "dden": 1803,
    "Ġproject": 5545,
    "Ġcongratulate": 9065,
    "Ġchapters": 10474,
    "Ġinflex": 20637,
    "Ġweal": 21924,
    "Ġawaken": 23588,
    "ĠâĢĶ": 13813,
    "Ġxxxix": 24973,
    "Ġwanting": 6722,
    "gether": 1594,
    "Ġkindling": 19029,
    "Ġpalsy": 25779,
    "conditional": 9080,
    "commend": 19996,
    "Ġgouldings": 26189,
    "Ġflow": 1241,
    "Ġlustre": 15137,
    "Ġnightmare": 18921,
    "Ġadvances": 12996,
    "Ġducks": 25161,
    "Ġmach": 13859,
    "possibility": 13365,
    "Ġbigot": 24565,
    "Ġfarther": 5956,
    "Ġmississippi": 20727,
    "Ġpursu": 3240,
    "Ġunwarranted": 24831,
    "Ġricher": 12763,
    "orrow": 2915,
    "Ġcopy": 10165,
    "cures": 20807,
    "aphys": 15204,
    "Ġdevoid": 18683,
    "Ġfringe": 17273,
    "Ġappropriate": 2251,
    "Ġbount": 15572,
    "ob": 1420,
    "Ġjustinian": 22976,
    "simp": 17666,
    "Ġvisage": 18781,
    "Ġdeputation": 21844,
    "coarse": 16489,
    "Ġcease": 7077,
    "Ġrisen": 9495,
    "Ġeffectual": 18732,
    "Ġsheepfold": 25467,
    "Ġproxim": 3201,
    "ineff": 21985,
    "Ġtax": 13818,
    "horr": 14600,
    "Ġ32": 19492,
    "opinion": 10986,
    "Ġfashioned": 13324,
    "Ġbedroom": 7276,
    "Ġserves": 4670,
    "Ġgiddy": 20500,
    "Ġbleached": 24395,
    "Ġfeminine": 15266,
    "atics": 15526,
    "Ġcounters": 24141,
    "Ġabruptness": 25300,
    "Ġmonth": 2848,
    "Ġstove": 6734,
    "Ġfeasts": 25370,
    "Ġequival": 4784,
    "Ġyields": 19659,
    "Ġimpetus": 25570,
    "aset": 10833,
    "unlike": 18159,
    "leaves": 12582,
    "Ġhero": 5715,
    "monkey": 19172,
    "Ġdeeper": 2083,
    "Ġhypotheses": 4386,
    "Ġnightgown": 23135,
    "Ġnavigation": 9995,
    "divers": 15345,
    "wander": 17710,
    "necess": 4897,
    "escaped": 14232,
    "Ġbegat": 18864,
    "Ġsurface": 5119,
    "portent": 25413,
    "Ġtightly": 13536,
    "suspected": 12375,
    "kne": 20937,
    "Ġenumerating": 15247,
    "Ġsqualls": 17021,
    "Ġproved": 4885,
    "Ġclouded": 13294,
    "wig": 17705,
    "Ġdirty": 9180,
    "Ġindifferent": 6175,
    "Ġcraven": 16472,
    "non": 9613,
    "Ġbower": 15571,
    "Ġhesitation": 13444,
    "continu": 5501,
    "Ġunsc": 22019,
    "worshipping": 16611,
    "moments": 19415,
    "Ġpreprocess": 22238,
    "Ġinstantaneously": 23659,
    "endeav": 7150,
    "Ġwilliam": 3482,
    "Ġcrocodile": 20742,
    "!âĢĻâĢĿ": 16593,
    "Ġconceive": 8463,
    "eagerly": 17318,
    "Ġgun": 4703,
    "Ġinfrequent": 3824,
    "Ġrio": 23894,
    "Ġtopsails": 19196,
    "Ġsnuffing": 25015,
    "ray": 2438,
    "Ġcrest": 12945,
    "Ġle": 333,
    "cham": 10854,
    "Ġted": 13814,
    "Ġledgers": 23941,
    "Ġminuteness": 19140,
    "Ġmarshal": 20222,
    "Ġuncommonly": 7760,
    "Ġintricacies": 15141,
    "Ġrem": 953,
    "Ġregrets": 18595,
    "Ġregion": 2272,
    "Ġcomfor": 14054,
    "Ġturkish": 12265,
    "furn": 10093,
    "walking": 9984,
    "Ġcoming": 2620,
    "animate": 12581,
    "tes": 11530,
    "Ġcrack": 7710,
    "appro": 7045,
    "Ġgin": 13963,
    "Ġq": 1081,
    "Ġstratag": 26029,
    "omin": 4704,
    "banish": 20784,
    "mayhew": 23995,
    "gods": 13370,
    "Ġhy": 5625,
    "irations": 18171,
    "Ġunrest": 11717,
    "Ġransacked": 26505,
    "Ġcordial": 16836,
    "three": 5238,
    "conscientious": 19629,
    "Ġhere": 1084,
    "Ġentreaty": 10531,
    "Ġdecide": 9288,
    "Ĝ": 221,
    "Ġ20": 8617,
    "admire": 24946,
    "Ġconsciousness": 9950,
    "Ġverbal": 19382,
    "Ġprinc": 4198,
    "Ġprows": 19891,
    "women": 15459,
    "Ġcetus": 19887,
    "Ġbreak": 2868,
    "Ġlearned": 2021,
    "Ġglance": 4232,
    "Ġproduced": 2452,
    "Ġgrated": 22808,
    "bringing": 17168,
    "Ġhammock": 5768,
    "Ġinfinite": 8579,
    "stirring": 20429,
    "ropy": 1101,
    "Ġentropy": 2028,
    "others": 7670,
    "Ġtestified": 16334,
    "Ġassumpt": 5415,
    "Ġghostliness": 24652,
    "Ġmur": 2489,
    "Ġ550": 19639,
    "sweetly": 25137,
    "ick": 836,
    "Ġwasn": 6997,
    "Ġvehement": 16205,
    "ation": 320,
    "foremost": 14254,
    "free": 8739,
    "playful": 24356,
    "Ġmonkey": 8228,
    "Ġswarm": 23058,
    "Ġuninterrupted": 22051,
    "Ġsubstance": 5510,
    "Ġhusband": 3621,
    "Ġordered": 5833,
    "scho": 8763,
    "roqu": 21538,
    "Ġperiodically": 19497,
    "mitting": 20975,
    "Ġpours": 17914,
    "ol": 361,
    "Ġhumbly": 16201,
    "future": 13719,
    "Ġrepugn": 23367,
    "59": 17475,
    "Ġwedded": 15539,
    "linearity": 1650,
    "living": 7134,
    "countenance": 6924,
    "presence": 18497,
    "Ġoysters": 20582,
    "senses": 25025,
    "Ġinvest": 4978,
    "Ġderanged": 23181,
    "Ġxviii": 23413,
    "unwho": 21882,
    "distinguish": 19575,
    "Ġfiends": 14830,
    "get": 1020,
    "Ġskeleton": 5514,
    "granting": 23417,
    "Ġwhole": 1662,
    "waiting": 12224,
    "Ġdisco": 3427,
    "fixedly": 24930,
    "Ġbarber": 23792,
    "Ġtriangular": 14861,
    "Ġdevil": 3613,
    "access": 11181,
    "joining": 19449,
    "Ġdiminished": 16667,
    "rowsers": 8698,
    "Ġelephants": 9866,
    "gypt": 8262,
    "orph": 21402,
    "Ġhumor": 11052,
    "Ġhopes": 4233,
    "Ġlandlessness": 23383,
    "Ġintercepted": 25828,
    "named": 9899,
    "inch": 10756,
    "Ġtents": 13820,
    "rades": 8592,
    "ipt": 12482,
    "onom": 9160,
    "breaths": 25337,
    "Ġsherry": 19454,
    "Ġprocesses": 3634,
    "aked": 2013,
    "slipped": 25530,
    "Ġdeportment": 22613,
    "Ġsisters": 3641,
    "Ġparac": 12799,
    "ially": 9249,
    "Ġcl": 550,
    "onsense": 6431,
    "Ġcorps": 13037,
    "Ġclosed": 4606,
    "Ġunquestion": 18249,
    "althy": 8434,
    "Ġregulate": 22584,
    "elements": 25204,
    "Ġdoctors": 12155,
    "Ġbunch": 11327,
    "Ġclothes": 4997,
    "utions": 1889,
    "ress": 929,
    "Ġbenefactor": 14699,
    "Ġbra": 3254,
    "Ġspurred": 22143,
    "Ġda": 5150,
    "Ġhardships": 14453,
    "Ġazores": 20196,
    "Ġwire": 13854,
    "Ġsensibility": 14515,
    "Ġoversampling": 20519,
    "Ġmorass": 22980,
    "abashed": 21797,
    "embraced": 25807,
    "hence": 16626,
    "fears": 18527,
    "many": 5250,
    "tumultuous": 20402,
    "alike": 17945,
    "Ġbounding": 19403,
    "Ġjub": 22300,
    "Ġpossible": 2586,
    "Ġredu": 1352,
    "Ġreside": 22544,
    "Ġrelent": 18775,
    "Ġrighted": 23185,
    "ocations": 23709,
    "ivance": 22080,
    "Ġscarlet": 13227,
    "shock": 19857,
    "Ġjet": 5309,
    "Ġmaximizing": 3170,
    "raltar": 24235,
    "hook": 12056,
    "che": 3172,
    "mme": 22505,
    "Ġeverywhere": 9798,
    "gaffman": 26391,
    "chants": 21696,
    "soup": 21061,
    "ama": 11683,
    "stands": 22432,
    "echo": 15351,
    "Ġunctuous": 10268,
    "Ġpersevering": 20236,
    "Ġcredit": 4820,
    "bon": 13687,
    "Ġprotecting": 24687,
    "Ġcertain": 1560,
    "Ġwarmest": 16486,
    "Ġcrosses": 23065,
    "Ġboscombe": 8327,
    "Ġbol": 6242,
    "Ġapparelled": 20440,
    "actorily": 25577,
    "destiny": 16700,
    "Ġspong": 15885,
    "tled": 3457,
    "Ġresigned": 9770,
    "Ġconveys": 16856,
    "acrity": 14281,
    "Ġeffectually": 16170,
    "Ġform": 1022,
    "estone": 18364,
    "Ġ90": 24590,
    "Ġmeans": 699,
    "Ġsighed": 10339,
    "Ġadvancing": 6878,
    "Ġrounded": 14440,
    "cary": 10692,
    "arance": 4699,
    "Ġtoller": 9093,
    "Ġexpedition": 10635,
    "Ġmoderation": 12823,
    "resum": 17762,
    "Ġleaping": 8342,
    "Ġfemales": 14939,
    "Ġintention": 5638,
    "twig": 23698,
    "stir": 12677,
    "ĠĠĠĠĠĠĠĠĠĠĠĠĠĠĠĠĠĠĠĠĠĠ": 16230,
    "Ġflight": 6581,
    "Ġexpress": 2197,
    "dispositions": 25014,
    "Ġmuchness": 18707,
    "itters": 10782,
    "quely": 10233,
    "Ġduplicity": 25332,
    "Ġliquid": 22409,
    "Ġdiab": 10613,
    "Ġtube": 15004,
    "Ġcomputations": 16005,
    "ner": 1367,
    "ailed": 3247,
    "Ġhiding": 9825,
    "Ġelse": 2481,
    "Ġpasses": 2679,
    "Ġsubsc": 22790,
    "attached": 11938,
    "ugn": 9380,
    "adventurous": 25362,
    "Ġharpooneers": 4733,
    "Ġplayfulness": 23639,
    "chapter": 1401,
    "Ġdictionary": 15115,
    "native": 17612,
    "Ġvoid": 14088,
    "vis": 4579,
    "Ġspectrum": 4476,
    "open": 7026,
    "plans": 21957,
    "Ġplutarch": 22607,
    "Ġbanks": 6814,
    "Ġtune": 17726,
    "Ġmaking": 1779,
    "viv": 17699,
    "Ġor": 437,
    "ourney": 3553,
    "strikes": 24671,
    "Ġawful": 6200,
    "Ġxv": 23410,
    "Ġreligion": 11416,
    "itation": 1780,
    "Ġstung": 21743,
    "isp": 5528,
    "arity": 1300,
    "ortment": 22262,
    "Ġsimilar": 4918,
    "Ġbridal": 14956,
    "Ġfort": 2580,
    "extraordinary": 9097,
    "Ġreflect": 6575,
    "Ġbod": 4583,
    "Ĩ": 233,
    "ouse": 1192,
    "54": 15302,
    "Ġundesired": 12783,
    "neighboring": 20620,
    "177": 20754,
    "Ġconsoled": 18115,
    "enemy": 15530,
    "Ġveget": 11889,
    "Ġtragic": 15258,
    "shrouded": 26363,
    "Ġprojected": 16870,
    "Ġmechanis": 1211,
    "Ġconcise": 23325,
    "escape": 16011,
    "lun": 20948,
    "cut": 3125,
    "Ġpicturesqueness": 24479,
    "superst": 11326,
    "rue": 1129,
    "Ġhack": 12760,
    "Ġstopped": 5958,
    "creature": 5347,
    "Ġstriking": 6089,
    "Ġfolio": 11920,
    "Ġeditions": 19154,
    "Ġjew": 9469,
    "Ġstil": 15722,
    "Ġwhereas": 3855,
    "Ġauthorities": 11265,
    "Ġpresum": 4839,
    "Ġoverdone": 22368,
    "Ġal": 342,
    "windibank": 24163,
    "pled": 7894,
    "agon": 7873,
    "Ġacquaint": 13049,
    "opposing": 24822,
    "Ġbias": 1191,
    "Ġinsincere": 26600,
    "Ġcentre": 5122,
    "olstad": 7611,
    "purse": 20028,
    "dawson": 26129,
    "Ġchronicled": 25329,
    "moving": 11018,
    "Ġanvil": 11599,
    "ield": 2411,
    "Ġmain": 810,
    "Ġcrouching": 23444,
    "othing": 6995,
    "ester": 11600,
    "Ġhurriedly": 11250,
    "Â·": 21152,
    "Ġmessage": 13525,
    "ske": 13784,
    "flag": 14713,
    "iot": 9602,
    "Ġforgo": 21778,
    "Ġincess": 8433,
    "Ġsaturday": 6452,
    "Ġinsensibly": 20079,
    "cares": 24310,
    "Ġmealy": 18123,
    "Ġrage": 5110,
    "rapidly": 15246,
    "Ġlamentations": 17076,
    "endeavouring": 15017,
    "Ġwhither": 10216,
    "Ġrehears": 15704,
    "Ġreplied": 2265,
    "Ġadorned": 15250,
    "Ġwitnessing": 19601,
    "Ġdeacon": 18143,
    "herent": 2530,
    "Ġraptures": 13499,
    "thick": 10262,
    "relate": 24014,
    "Ġcomplying": 18587,
    "Ġexcellence": 11452,
    "uger": 21106,
    "Ġfigure": 4205,
    "umpled": 15880,
    "Ġinterm": 14270,
    "Ġoffences": 18692,
    "Ġconsequences": 11336,
    "Ġopulence": 23630,
    "Ġorganisation": 23585,
    "ctu": 5088,
    "Ġbeams": 14632,
    "Ġthanks": 6708,
    "opp": 6962,
    "Ġarguing": 25471,
    "consid": 4925,
    "Ġsmiling": 5474,
    "Ġproceeded": 5336,
    "Ġhung": 4562,
    "Ġviolence": 5964,
    "Ġsupernatural": 9875,
    "Ġwrinkled": 7263,
    "used": 3259,
    "Ġhandsome": 4907,
    "Ġunra": 18238,
    "Ġmor": 1252,
    "Ġascribed": 14857,
    "macy": 18806,
    "angled": 6843,
    "Ġtypewriting": 16424,
    "Ġprodu": 1205,
    "ution": 4349,
    "Ġparting": 9786,
    "Ġoblivious": 26033,
    "wel": 6118,
    "bidden": 19739,
    "Ġpunct": 8664,
    "Ġlittle": 867,
    "anite": 17839,
    "Ġbounded": 16628,
    "ent": 305,
    "events": 12320,
    "Ġwilfully": 16767,
    "wandered": 20288,
    "Ġunreasonable": 12781,
    "Ġashore": 5352,
    "un": 373,
    "Ġst": 332,
    "Ġdreamed": 16631,
    "--âĢĺ": 22854,
    "Ġaberde": 22282,
    "Ġjava": 12315,
    "ensibility": 22552,
    "Ġflush": 14426,
    "indirect": 22377,
    "Ġinquiring": 9001,
    "Ġconsist": 1934,
    "Ġdefection": 22946,
    "exagger": 22435,
    "onsible": 22566,
    "Ġaromatic": 25926,
    "carefully": 13372,
    ".]": 15301,
    "iel": 11495,
    "Ġwoods": 5406,
    "Ġsold": 6004,
    "observing": 25495,
    "Ġhereditarily": 25225,
    "Ġcommit": 18655,
    "Ġoccupy": 14733,
    "Ġlessened": 19089,
    "elf": 565,
    "bantering": 25254,
    "Ġdoth": 13910,
    "Ġcrotch": 9965,
    "Ġplains": 14624,
    "tained": 4406,
    "Ġeasier": 11166,
    "scheme": 15257,
    "thur": 7187,
    "Ġgathering": 14980,
    "Ġcling": 11774,
    "icuous": 10836,
    "Ġlard": 13949,
    "drunk": 24660,
    "Ġarctic": 12815,
    "Ġelbows": 18637,
    "case": 5206,
    ",_": 11463,
    "Ġimpul": 7207,
    "Ġsensit": 2947,
    "rd": 17650,
    "Ġbarbary": 24218,
    "iquet": 17576,
    "eping": 5834,
    "Ġpitchpoling": 14913,
    "Ġempires": 19077,
    "dle": 3304,
    "ame": 645,
    "ected": 7875,
    "Ġdivinest": 25722,
    "Ġwrite": 3821,
    "Ġoccasion": 3246,
    "six": 7142,
    "mounting": 25208,
    "attempt": 9362,
    "Ġdeath": 2040,
    "âĢĶâĢĺ": 7014,
    "Ġ51": 24315,
    "allers": 22202,
    "Ġdeemed": 7612,
    "Ġcausal": 3410,
    "Ġoper": 2119,
    "Ġsig": 868,
    "preference": 22474,
    "Ġcomforts": 14695,
    "Ġfruits": 17120,
    "cottage": 9571,
    "ollion": 19718,
    "Ġquietly": 4569,
    "persons": 24176,
    "Ġfuss": 13907,
    "lake": 13751,
    "Ġbrawny": 13616,
    "Ġhealthful": 24063,
    "ure": 356,
    "Ġbedfellows": 23448,
    "gu": 3956,
    "eleg": 20851,
    "Ġforty": 5719,
    "stout": 21649,
    "lift": 15387,
    "Ġtook": 1855,
    "crat": 24087,
    "avail": 18605,
    "Ġadversarial": 5606,
    "boxes": 16889,
    "Ġprev": 6265,
    "Ġdirecting": 16303,
    "Ġreturned": 2891,
    "Ġexamine": 7735,
    "Ġpity": 4941,
    "Ġseal": 10258,
    "Ġgam": 11626,
    "Ġbaltic": 18795,
    "Ġpendulous": 25956,
    "precipitance": 25868,
    "roylott": 20030,
    "pitch": 13302,
    "Ġunass": 14116,
    "Ġcompared": 2230,
    "Ġgenteel": 19984,
    "deserving": 17247,
    "belled": 24041,
    "mown": 20972,
    "Ġglasses": 9477,
    "Ġbreeze": 5681,
    "Ġgruff": 21618,
    "look": 2262,
    "Ġcanvassed": 19938,
    "Ġcausing": 16361,
    "Ġidiotic": 25589,
    "Ġsurrey": 14560,
    "Ġphrenologists": 25609,
    "Ġornaments": 17454,
    "lled": 10109,
    "Ġsensitiveness": 23736,
    "ud": 891,
    "pips": 21022,
    "exhibited": 18479,
    "Ġquestion": 2775,
    "Ġdissect": 16057,
    "oda": 15753,
    "big": 13688,
    "_,": 2797,
    "Ġbrahma": 26321,
    "promising": 24725,
    "Ġsalut": 10511,
    "Ġcocked": 12908,
    "proof": 16427,
    "Ġplaster": 16087,
    "queequeg": 4334,
    "Ġdeceitfulness": 25734,
    "Ġcurds": 22968,
    "Ġcontention": 22431,
    "wise": 2576,
    "awful": 23118,
    "tashtego": 9624,
    "Ġancient": 5443,
    "Ġbub": 8119,
    "Ġsource": 6805,
    "Ġstride": 22621,
    "scotland": 20532,
    "importance": 9991,
    "Ġappear": 2485,
    "Ġnorthumbria": 24173,
    "Ġwhipping": 21720,
    "Ġabsorbing": 17130,
    "ination": 2913,
    "Ġremind": 6059,
    "Ġquote": 18467,
    "Ġsnarled": 25715,
    "Ġinquiries": 5678,
    "engines": 18930,
    "als": 2039,
    "bted": 7794,
    "Ġknowing": 4459,
    "Ġmanx": 7907,
    "etence": 21581,
    "Ġunworth": 22041,
    "evil": 11487,
    "diminished": 20841,
    "Ġdowry": 20688,
    "Ġcrater": 16439,
    "Ġchancery": 20718,
    "x": 92,
    "Ġmission": 13010,
    "porary": 14552,
    "ogrand": 26263,
    "recollect": 17225,
    "Ġresist": 7918,
    "comfortably": 16876,
    "Ġcornelius": 13576,
    "leisure": 21374,
    "overfitting": 13103,
    "Ġilliter": 23470,
    "Ġtask": 1309,
    "Ġconject": 6028,
    "words": 7984,
    "grat": 5052,
    "amongst": 24673,
    "Ġfan": 2033,
    "ivided": 22083,
    "ą": 198,
    ",--": 2478,
    "Ġdisgrace": 7214,
    "Ġ166": 25007,
    "wherein": 19109,
    "Ġxxii": 24477,
    "fatig": 17089,
    "88": 20760,
    "Ġpom": 21456,
    "christ": 10212,
    "pread": 7417,
    "S": 55,
    "Ġunjust": 8485,
    "office": 16399,
    "ture": 7557,
    "Ġcomplicated": 14737,
    "lie": 12486,
    "departure": 15237,
    "octavo": 11386,
    "Ġcotton": 17381,
    "stumps": 21663,
    "understood": 13219,
    "oted": 4599,
    "agged": 9239,
    "itably": 10783,
    "rison": 13781,
    "tenderly": 20534,
    "Ġrevelation": 25223,
    "rically": 15420,
    "enger": 10774,
    "Ġincarn": 11817,
    "Ġturtles": 19223,
    "ition": 647,
    "rop": 540,
    "Ġtertiary": 15297,
    "Ġprofessor": 11231,
    "Ġcasually": 25096,
    "Ġpreserving": 19799,
    "Ġdazzling": 15214,
    "ifting": 6546,
    "Ġinev": 10183,
    "Ġcombines": 1170,
    "Ġevents": 4474,
    "Ġstacks": 18077,
    "meet": 11859,
    "Ġshell": 11739,
    "Ġexagger": 12723,
    "Ġswell": 8951,
    "Ġconvince": 14643,
    "ernation": 8213,
    "wondrous": 12341,
    "Ġwreak": 16818,
    "Ġregularizer": 2340,
    "Ġtropics": 17066,
    "Ġhumour": 7933,
    "Ġpromises": 10402,
    "Ġbirth": 6524,
    "courage": 17511,
    "Ġdisd": 7031,
    "Ġsubs": 2129,
    "Ġsidelong": 11439,
    "Ġreflection": 6440,
    "forgotten": 12419,
    "Ġtreatment": 12075,
    "Ġnineveh": 13392,
    "Ġinsurmountable": 16532,
    "osition": 1371,
    "Ġg": 310,
    "Ġsatir": 18794,
    "Ġtransitory": 16023,
    "Ġreasoned": 23066,
    "Ġscroll": 14193,
    "Ġgas": 8134,
    "Ġended": 7951,
    "Ġpredicts": 2596,
    "Ġamphitheat": 26254,
    "bonnet": 25743,
    "Ġdistraction": 22510,
    "Ġreverend": 15262,
    "unwholesome": 26498,
    "qu": 367,
    "vation": 4745,
    "Ġadmiration": 5329,
    "doubt": 6782,
    "waste": 21137,
    "rous": 3751,
    "Ġsleet": 8977,
    "Ġhappiness": 2946,
    "Ġagreed": 7029,
    "Ġepidemic": 20698,
    "uding": 16145,
    "$": 8,
    "encies": 4079,
    "Ġrelig": 8552,
    "matlock": 23471,
    "rusted": 16508,
    "Ġestimation": 11219,
    "ubbub": 23247,
    "Ġtrout": 22360,
    "Ġbutts": 15859,
    "sphere": 22742,
    "trees": 10732,
    "plied": 10256,
    "oe": 7551,
    "Ġbought": 8418,
    "Ġappeared": 2773,
    "Ġgenerate": 1473,
    "Ġsleepless": 14583,
    "Ġaugment": 8695,
    "Ġgovernor": 16492,
    "Ġunqualified": 22066,
    "Ġhish": 21918,
    "adem": 21762,
    "Ġlevel": 5020,
    "incing": 15488,
    "ring": 1752,
    "Ġpuzzled": 7316,
    "Ġplausible": 26554,
    "unction": 10236,
    "unfearing": 21897,
    "Ġfireplace": 13148,
    "cock": 12028,
    "Ġresumed": 11815,
    "accuracy": 9881,
    "offended": 16400,
    "hatchway": 25905,
    "Ġ111": 24435,
    "Ġexplo": 2285,
    "Ġalow": 18102,
    "Ġappe": 1544,
    "Ġdropt": 23675,
    "Ġcounterpane": 11344,
    "Ġtrance": 12845,
    "Ġserpents": 13080,
    "bearing": 9767,
    "civilized": 17075,
    "ernsey": 8904,
    "added": 11661,
    "pole": 9335,
    "Ġreliability": 22884,
    "particularly": 8341,
    "Ġmaybe": 12953,
    "Ġfalsehood": 10525,
    "gris": 8261,
    "Ġ12": 5483,
    "anks": 3917,
    "Ġbumpkins": 25282,
    "utter": 7593,
    "Ġbrightest": 13229,
    "Ġoak": 6129,
    "Ġharpooned": 13265,
    "irements": 22217,
    "Ġbehaves": 23303,
    "isher": 2877,
    "Ġwa": 1753,
    "think": 3609,
    "Ġstruct": 2782,
    "Ġmixing": 24937,
    "Ġtails": 9904,
    "Ġdiabolically": 25514,
    "Ġvineyard": 12333,
    "Ġnation": 12651,
    "Ġenvied": 19279,
    "ivory": 10270,
    "ny": 4014,
    "Ġsmallest": 6430,
    "Ġbegun": 7242,
    "Ġflap": 14424,
    "Ġribbons": 24324,
    "ental": 7168,
    "Ġindispens": 22958,
    "ance": 478,
    "Ġfavour": 3642,
    "aug": 1213,
    "officers": 10629,
    "Ġrestrict": 16377,
    "Ġagreeably": 24955,
    "Ġaffirm": 11890,
    "pemberley": 9622,
    "stonecraft": 24355,
    "lands": 8242,
    "olet": 13768,
    "ribution": 14306,
    "july": 20478,
    "happen": 19333,
    "Ġaccomp": 4714,
    "Ġwalked": 3141,
    "Ġconsecut": 18114,
    "wharf": 20609,
    "Ġinsufficient": 9674,
    "9": 29,
    "Ġtoast": 21516,
    "Ġbinnacle": 8120,
    "Ġstrolled": 16771,
    "ĠdÃ¦mon": 7845,
    "bears": 22495,
    "Ġflounders": 23017,
    "Ġlouisa": 13548,
    "Ġspo": 6845,
    "Ġeloped": 22650,
    "terrors": 25044,
    "Ġsaviour": 20715,
    "Ġfinger": 5274,
    "game": 11492,
    "Ġespe": 21158,
    "Ġgaping": 13971,
    "Ġfeatureless": 22610,
    "Ġedges": 3826,
    "Ġabove": 2936,
    "Ġdent": 13908,
    "oro": 21398,
    "delivered": 24101,
    "Ġlodged": 11252,
    "Ġmystical": 12136,
    "Ġeff": 679,
    "Ġexecute": 7504,
    "iments": 4945,
    "Ġtrust": 4078,
    "comes": 5394,
    "Ġhoot": 19078,
    "enter": 7859,
    "Ġinquirers": 24967,
    "Ġhurrying": 11997,
    "mpus": 13759,
    "apidated": 22341,
    "Ġcoleridge": 18768,
    "Ġplum": 11825,
    "amouch": 21863,
    "Ġkettle": 26234,
    "neural": 3068,
    "Ġstake": 14005,
    "Ġsincer": 13070,
    "Ġautumn": 14504,
    "Ġsl": 1499,
    "Ġ15": 9326,
    "swallowed": 14855,
    "Ġmarines": 16262,
    "umn": 5836,
    "won": 8396,
    "Ġassail": 13067,
    "Ġmeanwhile": 5736,
    "sized": 15431,
    "thine": 15828,
    "Ġsoothing": 8174,
    "retch": 4371,
    "Ġgreenhorn": 23770,
    "Ġinfle": 16366,
    "Ġprocess": 562,
    "Ġpursued": 6329,
    "Ġsixteen": 8284,
    "Ġaunt": 3179,
    "Ġcrows": 24035,
    "performances": 26007,
    "Ġshepherd": 14154,
    "Ġbrute": 8929,
    "Ġtwelve": 4963,
    "Ġsne": 6372,
    "Ġcor": 1322,
    "hill": 15365,
    "laws": 19810,
    "battering": 20788,
    "Ġcaress": 16343,
    "Ġmarvellous": 7537,
    "Ġepistle": 24905,
    "tray": 21080,
    "vocation": 25087,
    "Ġdoubly": 16389,
    "Ġsquee": 7930,
    "Ġpaddled": 20204,
    "Ġwrongfully": 24250,
    "erringly": 16215,
    "Ġdisconnected": 22530,
    "Ġgrind": 18736,
    "Ġinforming": 18742,
    "Ġunfitted": 24109,
    "accessible": 13642,
    "Ġprosecution": 12384,
    "rogress": 21540,
    "hammock": 16357,
    "Ġquee": 1979,
    "Ġif": 698,
    "Ġcoun": 4175,
    "infidel": 24664,
    "loops": 12887,
    "shoals": 24716,
    "Ġresolutely": 14610,
    "vity": 7816,
    "Ġgreatest": 4091,
    "Ġstark": 7389,
    "li": 1188,
    "Ġmace": 21312,
    "Ġubiquitous": 26197,
    "Ġvariety": 8532,
    "ibank": 6879,
    "Ġwharf": 9561,
    "Ġkirwin": 8498,
    "÷": 184,
    "business": 5609,
    "Ġangel": 4854,
    "Ġinf": 1756,
    "savor": 25027,
    "Ġtheir": 644,
    "Ġfaults": 12216,
    "Ġheeds": 24519,
    "Ġtubs": 11371,
    "mud": 20973,
    "resistible": 10645,
    "hyena": 24254,
    "icial": 12659,
    "Ġcomponents": 8895,
    "atoes": 17776,
    "Ġlurks": 11291,
    "Ġamber": 7027,
    "Ġoptimizers": 18628,
    "compliments": 24807,
    "Ġgrammars": 11403,
    "Ġbarrel": 23794,
    "Ġcontentment": 14872,
    "Ġculprit": 26173,
    "start": 7598,
    "sive": 4141,
    "Ġneur": 813,
    "Ġmeasure": 3593,
    "Ġdrows": 21439,
    "Ġelias": 18636,
    "Ġpractical": 3165,
    "Ġpreser": 6042,
    "Ġasse": 8161,
    "Ġimplies": 24874,
    "Ġtip": 15474,
    "89": 20761,
    "Ġgomorrah": 21619,
    "95": 17479,
    "Ġimpetuous": 25571,
    "Ġmines": 21311,
    "continue": 16862,
    "Ġpromised": 5181,
    "Ġexhaust": 6399,
    "Ġhearty": 9848,
    "Ġmode": 8501,
    "Ġacquiesced": 25494,
    "Ġlacey": 10199,
    "Ġsurvivors": 25732,
    "mortals": 25410,
    "Ġindicated": 10470,
    "Ġgallant": 8658,
    "innocent": 20289,
    "Ġalgorithms": 861,
    "outer": 9670,
    "Ġhen": 3503,
    "Ġirre": 7467,
    "Ġbuzz": 24000,
    "Ġjourney": 3879,
    "Ġwestmorland": 24389,
    "Ġyouthful": 16724,
    "ands": 21871,
    "Ġaffords": 16735,
    "entreaties": 26187,
    "Ġasking": 5651,
    "Ġboots": 5944,
    "nowled": 5470,
    "Á": 130,
    "Ġgrave": 5100,
    "Ġindispensable": 11903,
    "Ġsuddenness": 23385,
    "lucases": 20213,
    "mock": 5174,
    "Ġhav": 12758,
    "Ġchurning": 15941,
    "Ġfasc": 12602,
    "Ġfitting": 21412,
    "Ġedge": 5189,
    "Ġuninhabited": 22056,
    "Ġrescued": 24208,
    "itiousness": 21337,
    "Ġobtain": 8917,
    "Ġsurmise": 12298,
    "secur": 18128,
    "desk": 23812,
    "Ġbal": 1133,
    "Ġshin": 18228,
    "Ġscared": 14191,
    "Ġgrooves": 16742,
    "Ġpolitic": 23620,
    "Ġsprained": 15887,
    "!âĢĶ": 2454,
    "distant": 13338,
    "Ġvomit": 21953,
    "ittingly": 18807,
    "Ġmichigan": 26427,
    "Ġunfolding": 17086,
    "Ġmarvels": 11084,
    "Ġcross": 1368,
    "Ġfeedback": 23436,
    "odhead": 18120,
    "Ġaddison": 14234,
    "uniform": 18160,
    "Ġsublime": 8067,
    "Ġexclaim": 11222,
    "Ġbethink": 12382,
    "Ġhesitating": 16948,
    "Ġrejoicing": 13424,
    "Ġapparently": 6778,
    "wail": 21128,
    "Ġbowsman": 11255,
    "Ġgang": 9209,
    "Ġnarrative": 6216,
    "Ġmainz": 22657,
    "giv": 13724,
    "Ġfreely": 7057,
    "presumption": 20445,
    "Ġwide": 4106,
    "Ġriot": 14689,
    "utility": 21591,
    "(": 12,
    "Ġsermon": 12379,
    "Ġflock": 21415,
    "Ġtroublesome": 24005,
    "Ġflip": 11915,
    "Ġheavily": 6741,
    "claims": 25320,
    "Ġhonest": 7286,
    "Ġsalutations": 25383,
    "agger": 7874,
    "Ġmadden": 10448,
    "Ġcramped": 23531,
    "Ġm": 274,
    "Ġlowers": 23245,
    "tedious": 22638,
    "Ġchalk": 15937,
    "beginning": 13564,
    "Ġgrenadier": 21620,
    "honey": 20907,
    "dum": 17519,
    "Ġhuddled": 20302,
    "Ġporpoise": 7107,
    "Ġfearless": 9877,
    "Ġcrawled": 17044,
    "Ġkeenly": 9487,
    "ratulations": 20129,
    "Ġroot": 2652,
    "Ġinser": 6819,
    "Ġfamiliar": 5511,
    "Ġfaced": 10809,
    "adie": 18091,
    "Ġcane": 10928,
    "tried": 13796,
    "Ġstones": 9223,
    "Ġproc": 5544,
    "Ġcassock": 20490,
    "Ġcook": 3712,
    "uously": 7352,
    "yet": 3752,
    "Ġcreativity": 2866,
    "Ġenjoined": 18192,
    "meantime": 9094,
    "ez": 5683,
    "Ġsimilarity": 3168,
    "Ġcomposure": 7216,
    "Ġadmit": 7711,
    "ousness": 10276,
    "Ġboys": 5194,
    "Ġcommanded": 6331,
    "Ġdomin": 10467,
    "te": 995,
    "lynes": 15708,
    "Ġofficers": 4427,
    "Ġmonitors": 3158,
    "Ġhazard": 20435,
    "abular": 4763,
    "rabbit": 20594,
    "str": 2579,
    "Ġsqueaking": 26276,
    "maged": 15396,
    "Ġblacks": 23391,
    "orney": 17875,
    "Ġgurglings": 26466,
    "lesome": 12969,
    "urmountable": 15282,
    "Ġeffort": 8206,
    "Ġcredulous": 17146,
    "Ġencouraged": 9357,
    "Ġunnecessary": 8854,
    "Ġcos": 2210,
    "Ġdisput": 14257,
    "tell": 1377,
    "Ġyork": 11667,
    "ication": 989,
    "sleet": 20152,
    "Ġtig": 13815,
    "Ġrequest": 6052,
    "Ġupdate": 2463,
    "mers": 9612,
    "alous": 7371,
    "Ġforbearing": 25101,
    "Ġheaving": 7600,
    "Ġhammer": 6095,
    "grey": 14914,
    "perquisites": 26532,
    "Ġconfiding": 19036,
    "alliance": 22205,
    "Ġstudied": 11107,
    "placed": 7880,
    "cannon": 22971,
    "ember": 1954,
    "Ġbetter": 1176,
    "Ġsanely": 24985,
    "Ġstanding": 2999,
    "Ġprotracted": 19472,
    "Ġsoil": 9257,
    "Ġknee": 7094,
    "Ġintrepidity": 25551,
    "Ġopening": 5045,
    "swelled": 19613,
    "Ġclenched": 14204,
    "Ġrom": 4527,
    "formal": 14170,
    "note": 14339,
    "Ġagainst": 1696,
    "Ġluxurious": 17313,
    "Ġbodiless": 24228,
    "Ġendeavours": 8621,
    "terrific": 25043,
    "Ġheroines": 19754,
    "Ġlatterly": 24085,
    "Ġcommanding": 16591,
    "Ġcoarse": 14276,
    "ok": 572,
    "laughed": 20284,
    "Ġprecipices": 12281,
    "Ġcarr": 23094,
    "Ġshrew": 22005,
    "lour": 15383,
    "Ġlightened": 23265,
    "Ġ91": 24591,
    "Ġbewildered": 15216,
    "Ġcontemplated": 13467,
    "ilies": 18059,
    "thirst": 15829,
    "mopol": 15398,
    "Ġtowed": 11266,
    "Ġdisquiet": 18553,
    "pregn": 18499,
    "Ġaffright": 9334,
    "Ġsplice": 19311,
    "Ġphyset": 23206,
    "atical": 10772,
    "Ġbohemian": 17135,
    "Ġpressed": 6043,
    "Ġpursuit": 4734,
    "striving": 24670,
    "Ġmightier": 18730,
    "Ġbalanced": 12993,
    "Ġcharing": 14182,
    "Ġinherent": 4593,
    "Ġlights": 8962,
    "zed": 8105,
    "Ġbats": 13902,
    "puff": 21024,
    "Ġallev": 18103,
    "Ġsimplest": 16336,
    "Ġtasks": 1788,
    "Ġensl": 19276,
    "however": 4373,
    "Ġpulse": 13118,
    "copyright": 5278,
    "Ġprof": 2460,
    "wheeler": 16192,
    "Ġfootsteps": 16574,
    "Ġquant": 6424,
    "Ġdol": 9666,
    "Ġnarwhale": 12296,
    "Ġinve": 17931,
    "§": 105,
    "Ġdetected": 18833,
    "Ġequatorial": 13511,
    "laug": 10708,
    "itting": 1152,
    "Ġofficially": 24839,
    "wit": 7818,
    "Ġeuroc": 14961,
    "ersampling": 18217,
    "Ġequ": 1734,
    "Ġtravell": 5575,
    "she": 1395,
    "Ġjacket": 6489,
    "engagement": 14460,
    "Ġdisregard": 22533,
    "Ġanyone": 4461,
    "Ġeber": 18006,
    "Ġpilgrim": 25600,
    "Ġnatives": 17953,
    "Ġasylum": 13669,
    "Ġphotograph": 6303,
    "ien": 10103,
    "yramid": 8369,
    "Ġcarpenter": 4686,
    "saf": 11526,
    "Ġpertur": 12855,
    "motives": 26138,
    "Ġwere": 557,
    "Ġmat": 1149,
    "Ġbenefit": 8294,
    "display": 19158,
    "Ġdup": 21431,
    "Ġimpulse": 10026,
    "rie": 2785,
    "Ġsedentary": 25431,
    "Ġsalt": 8018,
    "Ġpropri": 6739,
    "ignant": 11130,
    "humiliation": 24025,
    "wishes": 13809,
    "Ġparm": 15881,
    "protruding": 24813,
    "Ġcommunications": 16358,
    "Ġjost": 23633,
    "invol": 12534,
    "Ġuncontrollable": 25815,
    "different": 6501,
    "Ġtobacco": 8368,
    "mouse": 15395,
    "Ġtendinous": 16932,
    "ellations": 21949,
    "Ġmonogra": 22986,
    "Ġastern": 6091,
    "Ġshun": 11712,
    "Ġtaffrail": 15479,
    "Ġscuffle": 20611,
    "Ġdegree": 3704,
    "Ġreclining": 26034,
    "voy": 7144,
    "Ġwhispered": 5338,
    "desired": 9007,
    "ely": 622,
    "assed": 6420,
    "Ġblemish": 19682,
    "slowly": 9091,
    "Ġwhirlp": 16964,
    "Ġpossessing": 16577,
    "bitt": 17487,
    "pression": 10408,
    "Ġlexic": 15728,
    "Ġoat": 21326,
    "Ġwarmly": 8989,
    "shuff": 18489,
    "Ġhedges": 19988,
    "twill": 21077,
    "ourse": 8872,
    "Ġrecom": 4557,
    "Ġfolly": 7942,
    "bow": 5424,
    "Ġhaw": 10253,
    "nant": 17610,
    "Ġshoulder": 5849,
    "anxiously": 15113,
    "poster": 11057,
    "Ġdisadvantages": 18559,
    "Ġpossession": 5588,
    "Ġtransparent": 9491,
    "Ġflourish": 17162,
    "dashing": 20838,
    "Ġglimmer": 15144,
    "bergen": 14329,
    "Ġgaunt": 11269,
    "Ġtheory": 5799,
    "Ġvult": 12756,
    "Ġgoes": 3853,
    "Ġshort": 2227,
    "Ġjudiciously": 23881,
    "nep": 20988,
    "oring": 1860,
    "ral": 4629,
    "Ġsmothered": 20722,
    "Ġleathern": 15052,
    "Ġleeward": 6211,
    "otions": 7180,
    "orting": 9737,
    "Ġrecommendation": 17026,
    "apable": 6422,
    "Ġjustify": 11073,
    "convul": 24884,
    "neurons": 3136,
    "Ġcivilly": 19606,
    "virt": 15454,
    "Ġconcent": 8251,
    "crop": 20800,
    "Ġloungers": 24863,
    "Ġshifted": 14109,
    "ribly": 8256,
    "oury": 22316,
    "Ġsomehow": 4843,
    "mbly": 9797,
    "Ġcottages": 14729,
    "Ġcarpet": 9358,
    "Ġevidence": 5270,
    "Ġ53": 19638,
    "Ġsuccour": 20438,
    "Ġsatisf": 2804,
    "Ġdistributed": 18661,
    "wor": 3415,
    "Ġsystematically": 4025,
    "rin": 10123,
    "Ġpersonal": 7478,
    "oles": 21007,
    "Ġunsupervised": 2523,
    "Ġextent": 7656,
    "americ": 8158,
    "Ġcounterbalance": 24721,
    "oned": 4632,
    "Ġcurve": 22965,
    "distance": 12156,
    "fanning": 20868,
    "Ġnewfoundland": 26570,
    "Ġbefall": 8832,
    "umbent": 12093,
    "Ġcallest": 17834,
    "strade": 5065,
    "mies": 20970,
    "Ġheath": 15706,
    "Ġstuffed": 13412,
    "Ġglances": 10374,
    "torn": 17683,
    "Ġintellectual": 11402,
    "augmented": 26288,
    "Ġsyllables": 25299,
    "answ": 15888,
    "Ġperson": 2370,
    "Ġbottled": 23798,
    "Ġquadru": 16008,
    "Ġround": 1365,
    "hammered": 19005,
    "Ġdri": 2364,
    "leman": 21371,
    "talking": 10009,
    "Ġjagged": 18408,
    "ileries": 18061,
    "Ġconsistence": 23360,
    "Ġresolved": 3797,
    "causing": 25519,
    "ylon": 24980,
    "peare": 18913,
    "Ġvalidate": 2924,
    "Ġoverhung": 15979,
    "Ġponderous": 8356,
    "Ġboa": 22640,
    "Ġoakshott": 12233,
    "ihood": 20924,
    "proportion": 16183,
    "Ġblundering": 26285,
    "duct": 3507,
    "Ġmidway": 14605,
    "Ġsquatted": 25843,
    "Ġinclosed": 19541,
    "Ġwished": 3729,
    "taking": 5689,
    "Ġarchly": 22780,
    "Ġmultiplied": 23689,
    "Ġcrouched": 23442,
    "ems": 5235,
    "Ġdelicacy": 6341,
    "cre": 4250,
    "assured": 10953,
    "reckoning": 25271,
    "Ġtravelled": 7772,
    "educated": 17261,
    "Ġ1869": 19387,
    "Ġsongs": 13423,
    "utes": 5915,
    "_?âĢĿ": 15308,
    "Ġinjury": 10542,
    "warp": 17707,
    "Ġcapture": 3384,
    "Ġcran": 12003,
    "abriel": 6949,
    "histor": 13494,
    "Ġdestructive": 23488,
    "swiftly": 20554,
    "Ġits": 707,
    "ethe": 9678,
    "Ġhowever": 1303,
    "appears": 12063,
    "Ġsentinel": 26066,
    "Ġbestowed": 6594,
    "Ġpam": 21458,
    "Ġfestival": 25446,
    "appo": 3914,
    "Ġaims": 15499,
    "Ġbrides": 22869,
    "ious": 771,
    "Ġrepeating": 11214,
    "showing": 22461,
    "Ġhappened": 3713,
    "Ġstandards": 19016,
    "Ġexe": 3993,
    "elevating": 20409,
    "Ġnominally": 17233,
    "thodox": 21993,
    "Ġve": 1108,
    "Ġmariner": 7246,
    "Ġcurv": 3512,
    "Ġblubber": 5666,
    "Ġpushing": 10820,
    "Ġlim": 2383,
    "subst": 12168,
    "Ġwag": 10776,
    "Ġprojects": 9513,
    "Ġceases": 19315,
    "Ġmagnific": 16322,
    "Ġdormouse": 4926,
    "Ġarbitrary": 4737,
    "Ġbrief": 6976,
    "Ġshrieking": 24757,
    "lydon": 13991,
    "Ġmodest": 15919,
    "Ġtotal": 4993,
    "Ġexhibited": 9546,
    "anely": 17838,
    "whales": 5187,
    "Ġchill": 11755,
    "Ġinequal": 21501,
    "archangel": 18782,
    "Ġchristendom": 16695,
    "idirectional": 2423,
    "Ġmacro": 25940,
    "Ġilluminate": 17194,
    "Ġmasks": 23329,
    "consolation": 15155,
    "thou": 4710,
    "touched": 15442,
    "altogether": 12643,
    "oner": 6125,
    "moreover": 12973,
    "reserve": 17766,
    "Ġflint": 23013,
    "Ġsecret": 3720,
    "Ġflea": 23775,
    "helm": 12175,
    "Ġunerring": 15851,
    "Ġpolic": 13164,
    "Ġstating": 15726,
    "Ġconsol": 3815,
    "ark": 849,
    "ence": 394,
    "rench": 3966,
    "Ġpropensity": 18997,
    "Ġpaints": 23525,
    "Ġfol": 1287,
    "Ġdays": 2077,
    "gigantic": 15362,
    "Ġcoloured": 11046,
    "Ġnet": 3627,
    "Ġadjacent": 20713,
    "Ġunusually": 15850,
    "Ġglided": 7446,
    "Ġsharp": 2417,
    "Ġdespaired": 14670,
    "Ġrabb": 4161,
    "ai": 2527,
    "endured": 22232,
    "Ġarc": 14160,
    "Ġstoop": 16313,
    "dist": 4482,
    "Ġspears": 12930,
    "houn": 20895,
    "manner": 6171,
    "Ġfable": 15581,
    "Ġinsulted": 14994,
    "Ġaper": 17744,
    "Ġhartshorn": 26182,
    "----": 4056,
    "score": 18858,
    "Ġexh": 5232,
    "condem": 16347,
    "ilege": 22261,
    "pull": 6796,
    "Ġobscure": 9556,
    "Ġbehavior": 8003,
    "Ġrepairing": 25590,
    "Ġcontract": 18476,
    "Ġmartin": 25437,
    "cool": 19190,
    "sal": 8761,
    "Ġpawn": 12066,
    "à": 161,
    "Ġfrighted": 24033,
    "Ġbulky": 13232,
    "Ġbehalf": 14508,
    "devil": 7897,
    "Ġattempted": 8002,
    "characteristic": 24686,
    "Ġhovel": 8255,
    "Þ": 159,
    "berwell": 22723,
    "Ġtahit": 10755,
    "ally": 530,
    "vari": 1519,
    "Ġremoval": 12121,
    "Ġspirits": 3698,
    "inioned": 19289,
    "Ġeternity": 12282,
    "emy": 14077,
    "Ġknelt": 12162,
    "larger": 24204,
    "arcy": 1274,
    "Ġwisely": 13275,
    "Ġwillingly": 8887,
    "Ġgamming": 25543,
    "Ġdipped": 15599,
    "Ġblanche": 18821,
    "Ġwidespread": 20678,
    "Ġsystems": 793,
    "Ġpie": 13917,
    "Ġfond": 4756,
    "Ġsqueeze": 10041,
    "Ġdyspepsia": 20645,
    "ios": 2149,
    "aco": 12910,
    "Ġbreat": 3460,
    "stays": 15693,
    "Ġplot": 14282,
    "Ġchambers": 16800,
    "mel": 9129,
    ";âĢĿ": 7791,
    "connection": 18869,
    "Ġpassenger": 14372,
    "Ġcrowded": 8013,
    "philosophy": 13583,
    "Ġhats": 14620,
    "Ġimmediately": 3366,
    "Ġpreposterous": 13672,
    "Ġconventional": 25548,
    "Ġdestitute": 14567,
    "Ġinducements": 24970,
    "Ġequalled": 13316,
    "Ġcumulative": 4210,
    "Ġspectacle": 10498,
    "miraculous": 26397,
    "eks": 4729,
    "Ġtattered": 21174,
    "Ġbuckets": 17034,
    "lik": 3916,
    "xology": 21144,
    "Ġgloomy": 7503,
    "Ġunderwent": 23242,
    "tout": 21068,
    "Ġunbounded": 18260,
    "ell": 396,
    "Ġgodly": 19082,
    "Ġpeeling": 22696,
    "Ġstrand": 11831,
    "headsman": 16698,
    "t": 88,
    "Ġunhappy": 5640,
    "Ġprediction": 2175,
    "boone": 23257,
    "Ġcreating": 2997,
    "Ġtreats": 19347,
    "Ġwool": 19436,
    "sensibility": 25026,
    "yard": 5901,
    "Ġintegrity": 12316,
    "ledge": 1328,
    "Ġrotterdam": 25476,
    "Ġdesponding": 25869,
    "Ġadvis": 9812,
    "Ġsaville": 15892,
    "Ġdreaded": 8290,
    "Ġergo": 25032,
    "accomplished": 17213,
    "Ġignor": 4010,
    "Ġwiping": 25766,
    "describe": 1517,
    "command": 6578,
    "Ġliable": 14230,
    "Ġwatchman": 23667,
    "Ġpetty": 19598,
    "batch": 1981,
    "alcul": 15632,
    "Ġstrings": 11832,
    "Ġsnodhead": 19304,
    "100": 11465,
    "elephant": 12354,
    "itar": 15551,
    "Ġshunned": 17295,
    "Ġdarcy": 1342,
    "Ġclimb": 15082,
    "Ġfools": 14483,
    "acquainted": 7312,
    "landsmen": 25062,
    "jerked": 25619,
    "Ġsorrow": 4630,
    "driven": 19774,
    "tical": 10130,
    "okened": 15988,
    "Ġsuppressed": 11914,
    "Ġbenef": 3488,
    "Ġwaved": 9646,
    "endeavoured": 12284,
    "Ġrapid": 1459,
    "cook": 8271,
    "Ġglancing": 5399,
    "accursed": 20543,
    "Ġtennes": 23552,
    "Ġpeered": 18668,
    "ascar": 8437,
    "inserted": 18888,
    "hors": 9600,
    "Ġwarned": 16881,
    "gradient": 2274,
    "ieged": 22582,
    "Ġsequentially": 4915,
    "idated": 11663,
    "Ġoverthrow": 18433,
    "water": 4869,
    "Ġteaches": 18803,
    "Ġlament": 7858,
    "istics": 1628,
    "mason": 17603,
    "Ġnavies": 16901,
    "Ġdispose": 23882,
    "passing": 14814,
    "Ġpore": 21462,
    "Ġheads": 3740,
    "Ġtower": 8320,
    "Ġhonors": 23603,
    "Ġhypocr": 19475,
    "Ġthoroughfare": 16945,
    "Ġwhiskers": 10494,
    "Ġproblems": 2847,
    "Ġsplendour": 20227,
    "dred": 2528,
    "Ġjug": 12839,
    "agree": 14069,
    "Ġinspection": 14545,
    "Ġguessed": 11283,
    "ricane": 16280,
    "aying": 15754,
    "gate": 12470,
    "scratch": 26045,
    "Ġhumorousness": 25378,
    "Ġinvention": 19956,
    "hitherto": 17285,
    "Ġattack": 5478,
    "Ġkeepers": 23539,
    "fen": 20852,
    "av": 739,
    "vision": 5619,
    "Ġdescription": 7428,
    "iteness": 4393,
    "Ġswitching": 23061,
    "Ġreplaced": 13075,
    "retreat": 23141,
    "Ġunsupplied": 22048,
    "Ġvoluntary": 14800,
    "Ġrecurred": 18979,
    "Ġswim": 3820,
    "Ġjourneying": 25566,
    "alf": 4640,
    "Ġears": 4492,
    "Ġridge": 14821,
    "Ġwil": 4582,
    "Ġbravery": 23840,
    "Ġvaried": 11851,
    "Ġcorrect": 2433,
    "mering": 12494,
    "Ġgoodge": 22825,
    "Ġtelegraph": 25584,
    "Ġsoldiers": 8690,
    "Ġczar": 12578,
    "father": 3776,
    "Ġtickled": 20060,
    "Ġaccording": 5508,
    "foundation": 16716,
    "desperate": 17359,
    "Ġwatery": 6297,
    "Ġvary": 15811,
    "Ġ3": 3984,
    "ilated": 18060,
    "date": 17518,
    "aways": 15313,
    "Ġvalidation": 2358,
    "Ġperdition": 15996,
    "Ġsilvery": 13097,
    "Ġglens": 18856,
    "bony": 15322,
    "Ġfails": 13317,
    "depth": 12804,
    "ersburgh": 18216,
    "Ġamends": 14247,
    "Ġdenomin": 12071,
    "Ġack": 5621,
    "Ġobstinate": 11337,
    "www": 17253,
    "countryman": 24640,
    "Ġdivergence": 2726,
    "Ġnobly": 22246,
    "Ġannihil": 10176,
    "Ġwat": 1286,
    "Ġhorrible": 4906,
    "Ġconfines": 23308,
    "rents": 5310,
    "00": 1608,
    "Ġairth": 23321,
    "Ġpedestrian": 25884,
    "Ġlearning": 387,
    "Ġwhitting": 18058,
    "Ġvarious": 3510,
    "Ġwhalers": 8049,
    "Ġapproach": 837,
    "how": 1644,
    "Ġunwaning": 24830,
    "lizzy": 6653,
    "Ġslew": 23386,
    "Ġacquies": 11098,
    "Ġhoped": 5488,
    "fters": 20863,
    "Ġfore": 2153,
    "clear": 9026,
    "etical": 13960,
    "Ġlawyer": 10670,
    "Ġloos": 15875,
    "Ġrestraint": 15130,
    "Ġbriony": 9331,
    "otted": 14026,
    "bone": 5611,
    "Ġnarrating": 24350,
    "Ġrh": 9246,
    "Ġconfirming": 25322,
    "Ġcharacteristics": 8613,
    "ision": 1854,
    "sure": 5522,
    "âĢľâĢĻ": 10223,
    "Ġexploring": 4305,
    "Ġstrainings": 24629,
    "Ġbehaved": 13257,
    "Ġdivin": 13276,
    "Ġforced": 4352,
    "ignominious": 26588,
    "Ġ35": 24079,
    "achines": 1723,
    "Ġpaws": 13923,
    "resp": 13841,
    "Ġcruellest": 19661,
    "Ġbedside": 19125,
    "Ġounce": 15275,
    "loud": 11502,
    "rus": 5931,
    "ornamented": 26596,
    "Ġexceed": 1344,
    "dwelt": 23874,
    "Ġclothe": 4713,
    "Ġphilipp": 23887,
    "Ġwick": 2003,
    "Ġtacit": 21177,
    "Ġhardest": 18914,
    "Ġindefatigable": 17179,
    "Ġjun": 8507,
    "Ġprognostics": 20561,
    "Ġimpute": 18332,
    "delirium": 14786,
    "nlp": 8754,
    "Ġexcel": 3567,
    "Ġcottagers": 6761,
    "elastic": 17983,
    "Ġdesol": 6880,
    "ugues": 19021,
    "Ġinference": 9673,
    "Ġtrains": 10948,
    "Ġfastening": 16360,
    "Ġspir": 2430,
    "Ġcity": 4532,
    "Ġprofundities": 20456,
    "Ġnantucket": 2838,
    "moon": 10337,
    "Ġbill": 4039,
    "vious": 1783,
    "seamen": 13629,
    "Ġheedful": 19743,
    "Ġprogno": 14042,
    "Ġmystery": 5509,
    "Ġgeneral": 1861,
    "desire": 14663,
    "Ġquoted": 22420,
    "eding": 7165,
    "Ġfervent": 14903,
    "Ġric": 18210,
    "Ġrap": 14307,
    "Ġoccasions": 7989,
    "Ġaccept": 4411,
    "Ġscorched": 17101,
    "Õ": 150,
    "conversation": 7123,
    "sharpening": 22464,
    "Ġ1836": 25721,
    "pets": 17637,
    "Ġadver": 5641,
    "Ġdisappointment": 6628,
    "Ġsuspicions": 9481,
    "Ġunlucky": 10052,
    "Ġdeuteronomy": 15764,
    "arming": 8953,
    "matic": 4620,
    "20": 20755,
    "ĠcÃ¦sar": 20583,
    "lever": 2932,
    "satisfaction": 9994,
    "Ġsunset": 8964,
    "kitty": 10107,
    "verize": 21733,
    "powers": 25411,
    "Ġvag": 9710,
    "upper": 11540,
    "Ġnephews": 24713,
    "Ġplainpal": 19280,
    "Ġlamented": 24996,
    "Î": 143,
    "Ġcompunction": 18588,
    "Ġnotion": 7884,
    "rolling": 9062,
    "Ġresignation": 18567,
    "hearing": 8405,
    "Ġmoney": 3417,
    "Ġmachines": 1776,
    "Ġashen": 21904,
    "Ġdefinition": 14406,
    "Ġimpatient": 5602,
    "Ġundressed": 19516,
    "ib": 1237,
    "Ġfishing": 9664,
    "until": 6597,
    "Ġplumber": 16088,
    "ceptible": 10959,
    "eyed": 11488,
    "Ġkitty": 3909,
    "niece": 20997,
    "Ġrear": 6536,
    "Ġstaid": 21740,
    "Ġlandless": 23382,
    "Ġelapsed": 7652,
    "Ġcracks": 12022,
    "Ġconcoct": 19043,
    "Ġbreathlessly": 24282,
    "Ġbridle": 24682,
    "occupation": 15060,
    "Ġfasten": 11133,
    "taller": 26151,
    "Ġyourself": 2595,
    "Ġtidings": 11398,
    "ctors": 21594,
    "Ġvictor": 5125,
    "Ġnoticing": 18225,
    "Ġproduce": 4366,
    "Ġcousin": 3705,
    "Ġchoicest": 24222,
    "mangled": 20983,
    "Ġsun": 1720,
    "pur": 7807,
    "umed": 6555,
    "Ġcus": 21346,
    "Ġboun": 21383,
    "ospit": 22268,
    "Ġsees": 8846,
    "eties": 10838,
    "Ġhearsed": 25042,
    "Ġsupers": 18280,
    "Ġaccordance": 19501,
    "Ġfates": 15582,
    "Ġbundle": 13429,
    "Ġpinched": 17035,
    "spring": 7230,
    "enial": 17781,
    "Ġstoutest": 24630,
    "situation": 11438,
    "Ġcar": 1417,
    "Ġattributed": 11836,
    "Ġeste": 6085,
    "Ġgifted": 17999,
    "drop": 15339,
    "Ġfourth": 7707,
    "Ġarchitecture": 1120,
    "acetti": 13399,
    "Ġsolicitude": 10042,
    "Ġdistributes": 4193,
    "insensibility": 23073,
    "lydia": 6825,
    "Ġunaccountably": 26516,
    "Ġwronged": 24249,
    "pr": 3176,
    "first": 3934,
    "gus": 13727,
    "Ġgums": 21615,
    "ø": 185,
    "Ġcoronet": 6345,
    "smith": 5669,
    "Ġinflamed": 13476,
    "Ġpudding": 17918,
    "Ġsince": 1795,
    "daylight": 19052,
    "Ġgeorgia": 23889,
    "Ġsleeper": 8604,
    "Ġspots": 11732,
    "perai": 10278,
    "atherine": 2597,
    "lying": 7174,
    "initely": 7567,
    "Ġequally": 5258,
    "win": 6801,
    "Ö": 151,
    "wol": 21125,
    "amous": 15768,
    "Ġimpatience": 7508,
    "alescing": 23869,
    "Ġdaugh": 2292,
    "Ġselection": 18205,
    "Ġneedlessly": 23632,
    "boil": 19000,
    "Ġaveraging": 2421,
    "Ġunmo": 12777,
    "Ġrepublican": 17414,
    "Ġnarrowly": 16821,
    "prison": 14664,
    "accept": 8900,
    "brimming": 23579,
    "Ġdeformity": 11678,
    "Ġpreserve": 7528,
    "Ġpractice": 2820,
    "bbing": 6324,
    "Ġam": 659,
    "itig": 1330,
    "Ġcynical": 25771,
    "bearance": 22499,
    "Ġflourishing": 25188,
    "Ġsimply": 7217,
    "Ġpersever": 10005,
    "idence": 4302,
    "umes": 10918,
    "Ġnugent": 26458,
    "Ġviol": 2071,
    "asmuch": 10196,
    "Ġfrantically": 23262,
    "Ġfearful": 6198,
    "Ġminute": 4278,
    "Ġintelligible": 15945,
    "gered": 9278,
    "our": 535,
    "Ġcompensated": 17403,
    "Ġgraces": 18226,
    "Ġpil": 5014,
    "ignorantly": 25190,
    "Ġshark": 5549,
    "Ġdiscoverer": 26036,
    "surpr": 5998,
    "Ġsoul": 2724,
    "Ġvillages": 14750,
    "Ġmeanest": 12914,
    "gi": 17552,
    "holmes": 4433,
    "Ġungenerous": 18267,
    "Ġnantucketer": 6913,
    "Ġdism": 9769,
    "out": 467,
    "quohog": 21852,
    "Ġtranquil": 7309,
    "--": 1044,
    "Ġimmovable": 15896,
    "horse": 8609,
    "wa": 5898,
    "Ġenl": 18190,
    "akened": 7414,
    "mand": 3894,
    "isite": 15567,
    "Ġminers": 22837,
    "Ġworkflow": 2344,
    "Ġmundane": 26430,
    "Ġheaded": 11055,
    "Ġexcursion": 26590,
    "lips": 13752,
    "Ġunpitying": 25661,
    "igner": 21706,
    "Ġsash": 17755,
    "be": 668,
    "Ġpills": 21470,
    "tol": 17673,
    "Ġtool": 21515,
    "body": 2308,
    "Ġhealth": 3903,
    "á": 162,
    "urning": 12921,
    "conv": 7212,
    "Ġvindict": 13608,
    "Ġenough": 1761,
    "Ġsuck": 15864,
    "cely": 3574,
    "Ġexerted": 15761,
    "course": 6105,
    "Ã¦": 4337,
    "sun": 7140,
    "Ġcomprehended": 11295,
    "Ġcombine": 4416,
    "Ġhouse": 1504,
    "diff": 9115,
    "Ġshaster": 22003,
    "misrepresented": 24213,
    "Ġthreats": 13380,
    "Ġvisitor": 5331,
    "header": 11936,
    "Ġvulgarity": 25364,
    "rage": 10844,
    "Ġburn": 3684,
    "sembled": 7262,
    "appropri": 22847,
    "acey": 7649,
    "concern": 5876,
    "!": 5,
    "incident": 14592,
    "Ġimpelled": 11785,
    "Ġenergetic": 15200,
    "Ġmund": 21321,
    "Ġrever": 6537,
    "Ġattitude": 8906,
    "Ġnois": 4267,
    "Ġcomforted": 19394,
    "Ġseasoned": 24404,
    "abound": 15744,
    "buffalo": 20566,
    "coach": 23562,
    "liberal": 26283,
    "Ġpumping": 25644,
    "Ġbathed": 17867,
    "Ġcontrad": 9757,
    "Ġswearing": 16467,
    "calcul": 12991,
    "ó": 180,
    "unbounded": 21890,
    "Ġspleen": 26422,
    "Ġcobbler": 25831,
    "Ġessence": 13408,
    "Ġenumer": 12749,
    "Ġelijah": 9102,
    "disposed": 25013,
    "Ġconversations": 9427,
    "Ġpompous": 20426,
    "Ġprobable": 5569,
    "Ġengine": 1920,
    "Ġsadder": 24056,
    "ouri": 21451,
    "ensities": 22551,
    "Ġsolid": 6443,
    "Ġcore": 13880,
    "====": 1482,
    "ă": 196,
    "Ġnail": 9197,
    "Ġpartly": 6714,
    "Ġuseful": 3558,
    "days": 7688,
    "Ġinsolent": 13603,
    "Ġsunday": 7269,
    "Ġgrass": 5177,
    "strange": 6087,
    "Ġrising": 4355,
    "Ġcomfortless": 23916,
    "westward": 25425,
    "pped": 1996,
    "truth": 9921,
    "Ġinsignificance": 20460,
    "Ġdeclined": 9923,
    "ishes": 6523,
    "Ġdiabol": 11454,
    "udg": 22737,
    "Ġresulting": 24200,
    "Ġcoer": 22585,
    "qual": 8157,
    "ģ": 228,
    "Ġrepe": 3279,
    "fairly": 17221,
    "Ġseeing": 2885,
    "Ġiroqu": 21623,
    "ario": 14249,
    "Ġsty": 6252,
    "Ġmeetings": 16533,
    "Ġlaunched": 14928,
    "Ġjavelin": 26105,
    "Ġstump": 7602,
    "freighted": 14894,
    "uel": 6966,
    "Ġch": 513,
    "Ġdesolation": 12272,
    "puted": 8849,
    "otam": 21803,
    "Ġfast": 1716,
    "Ġjelly": 22305,
    "Ġrichest": 26213,
    "Ġtomb": 8811,
    "Ġamerica": 6763,
    "brother": 7092,
    "Ġminutely": 14562,
    "Ġscore": 9740,
    "zetts": 17715,
    "stolen": 13984,
    "bermaid": 20792,
    "Ġkilburn": 18352,
    "Ġelab": 22647,
    "Ġscorching": 20071,
    "Ġpines": 12621,
    "cruet": 17027,
    "Ġunfav": 14789,
    "cherish": 24551,
    "Ġyojo": 7610,
    "Ġbenevolent": 7773,
    "oboam": 9360,
    "Ġsolicited": 20040,
    "Ġshows": 8484,
    "illum": 15873,
    "Ġlory": 12656,
    "cially": 3489,
    "Ġdiscernible": 15057,
    "pond": 21015,
    "young": 7320,
    "hint": 12479,
    "ant": 438,
    "Ġepicures": 25880,
    "Ġheadland": 22901,
    "Ġentreating": 24209,
    "intense": 22940,
    "-------": 20392,
    "adr": 6994,
    "Ġrecommended": 8671,
    "Ġredeem": 20503,
    "Ġconceived": 8151,
    "Ġexpanse": 14293,
    "Ġinfluence": 5515,
    "Ġmarshy": 20221,
    "ul": 371,
    "Ġtamer": 24981,
    "Ġdipping": 15596,
    "Ġdivine": 6920,
    "Ġsprain": 18306,
    "Ġherbage": 25997,
    "judging": 24203,
    "Ġrestless": 10416,
    "Ġpitiless": 19391,
    "Ġtexas": 25923,
    "itics": 13874,
    "Ġportcull": 23866,
    "Ġsacrificed": 17424,
    "Ġgodson": 23362,
    "thest": 11656,
    "iality": 8847,
    "Ġsurvived": 14936,
    "Ġlone": 11615,
    "Ġkl": 2734,
    "Ġfift": 6382,
    "Ġdiscovers": 4430,
    "Ġhed": 7386,
    "Ġresolve": 13173,
    "Ò": 147,
    "dependence": 17169,
    "Ġdecomposes": 5506,
    "theories": 18081,
    "Ġtribute": 15478,
    "Ġverdant": 15003,
    "Ġresentful": 24633,
    "tur": 5688,
    "Ġcryst": 9919,
    "Ġtiresome": 26157,
    "Ġreceiving": 4883,
    "performed": 18346,
    "Ġbamboo": 17439,
    "gressive": 2751,
    "Ġbee": 21754,
    "owed": 2270,
    "batross": 9095,
    "Ġcunning": 6239,
    "aviour": 11005,
    "Ġantilles": 24181,
    "Ġnice": 6677,
    "forster": 16171,
    "ÿ": 192,
    "Ġrecital": 16143,
    "closed": 23158,
    "heed": 15501,
    "Ġallurements": 22014,
    "Ġunacquainted": 12780,
    "garity": 17555,
    "niest": 18978,
    "neying": 22468,
    "Ġbed": 2152,
    "Ġfisher": 3224,
    "Ġglimpse": 6943,
    "Ġrevolutions": 23845,
    "Ġcorpora": 26581,
    "Ġenterprise": 8645,
    "sion": 8095,
    "Ġoutrage": 15962,
    "Ġcircle": 4977,
    "avor": 14278,
    "shott": 11797,
    "Ġtomahawk": 7538,
    "Ġobed": 8537,
    "pleasant": 5875,
    "Ġinfatuated": 20536,
    "Ġunmanner": 22034,
    "_âĢĶâĢĻ": 13685,
    "Ġpeaking": 22694,
    "Ġconsisted": 10420,
    "ssip": 14081,
    "Ġramsgate": 18651,
    "olera": 21831,
    "Ġap": 5008,
    "rifice": 12507,
    "Ġdanes": 25160,
    "follow": 5680,
    "Ġsubt": 11871,
    "irt": 3079,
    "Ġconv": 2969,
    "alously": 15633,
    "onet": 12549,
    "organ": 15578,
    "Ġunaccountable": 7889,
    "Ġadventures": 7748,
    "Ġbenefits": 4286,
    "Ġarrested": 9562,
    "Ġdisappointed": 7098,
    "Ġsupposing": 6730,
    "Ġcelebrated": 13597,
    "Ġtwilight": 16125,
    "owal": 13995,
    "unctions": 18158,
    "ameter": 2937,
    "Ġglo": 1713,
    "Ġworlds": 11950,
    "Ġpoint": 2053,
    "Ġcritical": 7473,
    "tri": 11531,
    "Ġstores": 18071,
    "Ġrippling": 17279,
    "noon": 5037,
    "Ġsenor": 20153,
    "shine": 9290,
    "Ġorphan": 12386,
    "Ġcoolly": 9774,
    "Ġhesitate": 16947,
    "Ġdavy": 25952,
    "Ġstiffly": 15006,
    "Ġpropagating": 20636,
    "Ġfierceness": 26266,
    "engagements": 25855,
    "atigable": 15273,
    "Ġfragrant": 13109,
    "Ġmercenary": 17195,
    "ache": 8520,
    "Ġearned": 19408,
    "Ġobsolete": 26559,
    "Ġboot": 11842,
    "Ġcouns": 10522,
    "wn": 721,
    "ological": 1884,
    "ord": 665,
    "Ġpunctilious": 26355,
    "Ġfearfully": 23513,
    "Ġunluck": 8486,
    "relation": 19450,
    "Ġqu": 605,
    "Ġunimpeachable": 26523,
    "squ": 7810,
    "Ġslaughter": 20732,
    "Ġcompletely": 4861,
    "Ġhastening": 19338,
    "Ġinhabitant": 19758,
    "quadrille": 20598,
    "Ġmoul": 15548,
    "Ġexplicit": 3588,
    "Ġtender": 5753,
    "Ġworld": 1595,
    "thouse": 21987,
    "Ġfancy": 3745,
    "Ġtru": 4104,
    "Ġemployer": 19435,
    "ermost": 7429,
    "Ġey": 8136,
    "attended": 8954,
    "ondon": 2705,
    "ivot": 11721,
    "presume": 25671,
    "Ġgates": 10202,
    "Ġwaxed": 21300,
    "Ġpatron": 7463,
    "Ġconfeder": 25708,
    "Ġo": 275,
    "Ġtattooing": 15029,
    "Ġconsult": 6058,
    "Ġstealing": 18894,
    "Ġl": 303,
    "Ġmotion": 4568,
    "Ġstoven": 23182,
    "jol": 20927,
    "advent": 10222,
    "ientious": 11694,
    "restored": 18980,
    "Ġrecall": 3856,
    "infliction": 25925,
    "Ġdeterm": 1270,
    "adventures": 20259,
    "Ġcoverage": 4287,
    "igen": 4832,
    "Ġliar": 22408,
    "Ġskirt": 18729,
    "Ġattic": 16099,
    "Ġlunacy": 20031,
    "pen": 1204,
    "Ġaugust": 10599,
    "Ġcloudy": 19480,
    "alongside": 19792,
    "Ġcondescended": 19959,
    "Ġrejection": 19987,
    "restraint": 18981,
    "Ġdanish": 21435,
    "Ġcet": 6671,
    "generally": 9437,
    "Ġtanning": 17730,
    "istical": 8491,
    "Ġinvisibly": 24814,
    "Ġassented": 17340,
    "Ġdus": 8425,
    "Ġsevere": 6033,
    "opposite": 19931,
    "Ġsavor": 23878,
    "Ġthreads": 13121,
    "Ġmanor": 14198,
    "Ġeighteenth": 14756,
    "ittleness": 22381,
    "Ġbehavioral": 11397,
    "Ġtease": 18801,
    "Ġheaped": 18040,
    "wind": 4252,
    "abbering": 21801,
    "boards": 23258,
    "Ġbeaver": 18088,
    "hing": 979,
    "relig": 15515,
    "pening": 2832,
    "6": 26,
    "Ġtired": 9151,
    "chie": 21694,
    "Ġbelonging": 8309,
    "ber": 883,
    "Ġtiles": 17727,
    "Ġafrica": 12348,
    "Ġcomply": 8893,
    "Ġinfamy": 14502,
    "Ġvillanous": 24059,
    "secret": 12240,
    "Ġexempl": 21836,
    "Ġafric": 8908,
    "Ġfew": 1199,
    "Ġsuper": 2155,
    "gent": 7130,
    "veral": 2355,
    "surprising": 16920,
    "Ġunsounded": 15853,
    "ificial": 607,
    "Ġnegative": 1464,
    "escript": 18472,
    "culiarity": 11143,
    "Ġdifficulties": 11226,
    "disappeared": 14571,
    "Ġwaters": 3596,
    "Ġscraped": 16904,
    "Ġstrangers": 8315,
    "xi": 17711,
    "Ġestab": 6316,
    "Ġsteam": 9355,
    "Ġbasic": 24700,
    "Ġpoorly": 9857,
    "Ġshot": 4546,
    "intelligent": 16845,
    "Ġunreserved": 19400,
    "imson": 12693,
    "eel": 11485,
    "Ġid": 1908,
    "Ġrumbling": 18212,
    "------": 12137,
    "threatened": 25463,
    "stall": 21650,
    "iza": 6256,
    "Ġdelicious": 14794,
    "stave": 21653,
    "Ġoutweigh": 22327,
    "hung": 8382,
    "Ġbloss": 19258,
    "Ġpent": 17905,
    "tim": 13793,
    "Ġpadded": 25039,
    "Ġinject": 2710,
    "Ġabandoned": 8353,
    "angular": 11726,
    "Ą": 197,
    "Ġsymptoms": 8708,
    "streamed": 25967,
    "Ġripple": 25505,
    "by": 1158,
    "bond": 17491,
    "tackles": 25625,
    "Ġpiqu": 21481,
    "ee": 1660,
    "Ġincomplete": 17210,
    "Ġhospitable": 17059,
    "atmosphere": 21267,
    "Ġbast": 21382,
    "Ġcurly": 18842,
    "Ġextinction": 14346,
    "Ġcapabilities": 4377,
    "Ġspeaker": 19150,
    "Ġpurport": 14582,
    "oul": 4700,
    "Ġmanip": 8874,
    "Ġserenely": 13509,
    "iffe": 21907,
    "Ġlevels": 12702,
    "Y": 61,
    "fearfully": 25119,
    "Ġjuncture": 17131,
    "tips": 13798,
    "Ġtingling": 15095,
    "Ġstag": 6149,
    "Ġpunish": 12163,
    "effort": 19217,
    "Ġ26": 10471,
    "Ġclicked": 22356,
    "Ġfailed": 6673,
    "Ġoce": 3031,
    "\\": 64,
    "Ġwrithing": 11949,
    "lipped": 16220,
    "Ġgasping": 17038,
    "Ġwise": 6811,
    "Ġopens": 23629,
    "Ġsched": 2338,
    "Ġincorrect": 2727,
    "Ġawaited": 17074,
    "Ġvel": 7185,
    "Ġdepressed": 10883,
    "promise": 12254,
    "Ġsitting": 3605,
    "Ġbegrim": 23019,
    "Ġsevered": 18206,
    "fare": 7799,
    "betrayed": 24641,
    "Ġtame": 17723,
    "Ġbuy": 8301,
    "Ġstair": 8457,
    "itating": 9652,
    "Ġswap": 23056,
    "fortunately": 9452,
    "Ġrapturously": 24889,
    "atre": 17771,
    "Ġclasp": 9745,
    "Ġeggs": 12345,
    "blood": 7780,
    "seen": 2880,
    "sit": 13782,
    "renched": 7909,
    "Ġsalvation": 14759,
    "Ġsebastian": 11701,
    "Ġmus": 3396,
    "Ġbelie": 14408,
    "Ġrespecting": 14485,
    "Ġportly": 14679,
    "Ġvortex": 26210,
    "Ġcustoms": 19655,
    "range": 3495,
    "Ġvicissitudes": 12422,
    "Ġhard": 1441,
    "Ġpalsied": 25780,
    "contains": 16035,
    "Ġbakers": 17868,
    "Ġceleb": 20228,
    "Ġillust": 8264,
    "Ġfriday": 14489,
    "Ġadaptively": 3969,
    "Ġear": 1422,
    "Ġbru": 13897,
    "Ġstarting": 7729,
    "Ġfainted": 8795,
    "Ġloftiest": 16875,
    "Ġmitt": 21310,
    "ograph": 4798,
    "X": 60,
    "marked": 9050,
    "Ġ4": 3985,
    "Ĥ": 229,
    "Ġcomprise": 18586,
    "stein": 5505,
    "Ġdey": 11677,
    "Ġsplend": 9900,
    "oney": 3050,
    "Ġhis": 380,
    "phant": 6288,
    "frame": 17116,
    "Ġembattled": 26291,
    "ighbour": 3388,
    "Ġapparent": 5466,
    "remonstr": 23197,
    "Ġpoultry": 17443,
    "Ġwings": 9165,
    "Ġcan": 470,
    "mitted": 5213,
    "rollable": 13947,
    "Ġretained": 7173,
    "Ġerrand": 11085,
    "iday": 8833,
    "Ġmy": 412,
    "Ġgreece": 17069,
    "Ġconsequently": 8061,
    "tranqu": 14708,
    "entieth": 17981,
    "rug": 18337,
    "Ġimpertinent": 9079,
    "Ġhearth": 11984,
    "Ġemotions": 8971,
    "enorm": 17782,
    "you": 1004,
    "gammon": 20246,
    "blow": 9106,
    "Ġadviser": 25313,
    "blown": 25202,
    "derbyshire": 18322,
    "took": 6165,
    "perse": 15904,
    "Ġgets": 10840,
    "ances": 1336,
    "ė": 216,
    "Ġprovince": 24191,
    "Ġwavering": 23283,
    "Ġstrong": 1787,
    "Ġprofessed": 14726,
    "Ġindistinct": 17410,
    "unmistakable": 21900,
    "Ġcanted": 17833,
    "calabash": 22900,
    "Ġbidding": 9539,
    "on": 267,
    "peculiarities": 13474,
    "Ġcontraction": 16012,
    "Ó": 148,
    "Ġobscurely": 20191,
    "former": 11751,
    "Ġostr": 21328,
    "Ġperse": 6273,
    "Ġpickle": 16723,
    "Ġarose": 7359,
    "Ġpalace": 16690,
    "war": 6802,
    "Ġhorizont": 6936,
    "Ġbremen": 23348,
    "Ġworkmen": 23034,
    "Ġjoker": 22303,
    "plac": 15820,
    "Ġbelf": 21384,
    "Ġmultimodal": 18750,
    "mency": 18928,
    "Ġexhaled": 19685,
    "Ġgermans": 25785,
    "september": 14038,
    "inal": 15483,
    "Ġcaves": 15558,
    "Ġbroiled": 18910,
    "Ġindex": 17049,
    "grave": 16098,
    "Ġunworthy": 11718,
    "esy": 9184,
    "Ġsignificance": 13283,
    "Ġinfirmity": 26299,
    "reduced": 15809,
    "aul": 6353,
    "swell": 17664,
    "Ġbase": 5013,
    "Ġachieves": 4379,
    "Ġappears": 5402,
    "Ġaltar": 9230,
    "Ġrange": 9714,
    "coward": 13703,
    "Ġbidirectional": 3754,
    "waited": 24587,
    "civilities": 24976,
    "Ġsavagely": 26325,
    "Ġnewsp": 9341,
    "inridge": 11562,
    "Ġwapping": 21297,
    "remote": 23196,
    "roof": 17956,
    "function": 4206,
    "Ġbedford": 7474,
    "Ġunmolested": 15248,
    "Ġparasol": 22126,
    "coloured": 7290,
    "Ġrepenting": 25323,
    "Ġinheriting": 25355,
    "ried": 925,
    "Ġsixth": 16560,
    "Ġcool": 5734,
    "exact": 7912,
    "confirm": 16808,
    "Ġmincing": 18753,
    "arising": 17897,
    "Ġdefiance": 11069,
    "sleeve": 26109,
    "single": 10128,
    "roses": 17959,
    "Ġexponentially": 1443,
    "Ġsuit": 5725,
    "Ġexpost": 18625,
    "plan": 15818,
    "Ġnaturalist": 22897,
    "Ĳ": 243,
    "Ġends": 8239,
    "Ġbiography": 22766,
    "Ġlabrador": 23334,
    "Ġminor": 12972,
    "favour": 9551,
    "Ġretarded": 23076,
    "Ġly": 2269,
    "sockets": 22739,
    "Ġsilence": 3267,
    "Ġdesp": 3217,
    "Ġstorms": 11263,
    "oak": 21005,
    "Ġeffects": 7235,
    "phantoms": 24680,
    "Ġdeserted": 8640,
    "Ġconsecutive": 20705,
    "Ġflesh": 5970,
    "Ġain": 6969,
    "uendoes": 26408,
    "dr": 6222,
    "Ġpea": 14319,
    "ively": 1284,
    "acled": 16085,
    "Ġtimbers": 14841,
    "sequ": 2404,
    "Ġbro": 1429,
    "wes": 17704,
    "Ġdiligence": 17114,
    "varieties": 23193,
    "Ġthese": 821,
    "ignity": 4374,
    "comm": 7439,
    "Ġcharging": 23271,
    "Ġspare": 5102,
    "laying": 19775,
    "Ġoverlapping": 26240,
    "desponding": 26343,
    "parad": 16392,
    "Ġwithstand": 10227,
    "Ġdevoutly": 25834,
    "Ġweary": 5635,
    "Ġpowers": 5419,
    "Ġsuits": 22088,
    "Ġshowers": 16606,
    "sensations": 20054,
    "Ġforgiveness": 16658,
    "Ġnarwhales": 24903,
    "Ġrover": 18458,
    "Ġhanover": 20589,
    "Ġbecoming": 4398,
    "Ġeu": 6390,
    "contracting": 19296,
    "thes": 7390,
    "Ġstick": 6027,
    "Ġunimpe": 22077,
    "Ġexcused": 23316,
    "Ġcrocod": 19631,
    "Ġeng": 1163,
    "Ġfruit": 12329,
    "comprehensive": 20629,
    "conditionally": 24835,
    "tribute": 21091,
    "smooth": 20251,
    "Ġrobbed": 23051,
    "Ġcomplet": 4424,
    "Ġinch": 7851,
    "Ġ7": 4746,
    "Ġscolded": 25473,
    "Ġenvirons": 13187,
    "acute": 22599,
    "Ġinsignificant": 20459,
    "arbuck": 2022,
    "process": 11149,
    "stript": 21661,
    "tically": 3392,
    "backpropagation": 11988,
    "bag": 7541,
    "Ġpains": 5966,
    "lamps": 25261,
    "Ġ120": 16859,
    "Ġdexter": 9703,
    "Ġproof": 6154,
    "Ġsensible": 4976,
    "Ġwicked": 5962,
    "Ġbefitting": 15730,
    "Ġmutiny": 13263,
    "Ġsobs": 14137,
    "Ġmelting": 24289,
    "Ġcrawl": 11376,
    "pennies": 26287,
    "Ġnook": 15932,
    "Ġprophe": 13082,
    "Ġdedu": 5583,
    "Ġlearnt": 7614,
    "southern": 20412,
    "Ġclinched": 17396,
    "Ġjinglers": 26019,
    "which": 1707,
    "oup": 2012,
    "Ġgangway": 20161,
    "scissors": 20729,
    "accusations": 23601,
    "Ġsermons": 20197,
    "Ġanything": 2189,
    "ĠĠĠĠĠĠĠĠĠĠĠĠĠĠĠĠĠĠĠĠĠĠĠĠĠ": 24441,
    "erm": 786,
    "Ġtrous": 10960,
    "Ġdebt": 12171,
    "Ġpoetical": 25059,
    "urpr": 2287,
    "Ġnash": 5820,
    "anke": 15565,
    "eskye": 21454,
    "atlantic": 15527,
    "Ġwherein": 14295,
    "Ġhurried": 4031,
    "Ġnew": 1195,
    "concealed": 25118,
    "Ġroundabout": 23064,
    "Ġchicha": 15940,
    "lement": 10168,
    "Ġdevoured": 16140,
    "Ġlodging": 24096,
    "Ġbelted": 22952,
    "Ġmerrily": 23733,
    "Ġknives": 14839,
    "ledyard": 22396,
    "Ġcare": 1636,
    "Ġsoft": 1458,
    "Ġregulations": 18594,
    "ċ": 204,
    "Ġdestruction": 6601,
    "dreadful": 11422,
    "Ġclever": 7055,
    "Ġdrove": 4984,
    "Ġshabby": 14113,
    "orious": 6009,
    "sustained": 20571,
    "Ġambitious": 18513,
    "Ġcured": 21350,
    "money": 8753,
    "staring": 18023,
    "Ġdrawings": 14724,
    "Ġlug": 15656,
    "Ġconstables": 19069,
    "Ġprudential": 17922,
    "Ġnile": 21525,
    "quimaux": 21853,
    "Ġmeets": 7395,
    "Ġbunger": 9998,
    "accounted": 16503,
    "ui": 9146,
    "Ġserm": 9635,
    "yl": 7819,
    "Ġnautical": 17388,
    "ansion": 10926,
    "Ġepoch": 26473,
    "clock": 3933,
    "Ġ44": 16680,
    "Ġpockets": 8898,
    "Ġlanguages": 1569,
    "Ġworms": 25217,
    "Ġcomely": 21855,
    "Ġspies": 22133,
    "Ġsalmon": 24066,
    "takes": 21079,
    "Ġhasn": 12931,
    "mas": 5212,
    "đ": 210,
    "resist": 8277,
    "surgeon": 24216,
    "unt": 2041,
    "Ġidly": 16407,
    "Ġinfl": 6892,
    "Ġissue": 2311,
    "Ġrearing": 12681,
    "Ġexperience": 1412,
    "far": 5787,
    "Ġcliffs": 15971,
    "Ġjackets": 19605,
    "solic": 16380,
    "Ġtunnel": 14932,
    "Ġesteem": 7530,
    "*": 14,
    "]": 65,
    "Ġexcitement": 9383,
    "acceptance": 25186,
    "Ġmuttering": 10501,
    "Ġrevolt": 24500,
    "Ġbenevol": 5963,
    "Ġslope": 14464,
    "Ġjingling": 26018,
    "devouring": 24953,
    "Ġdissolved": 18555,
    "Ġsound": 2244,
    "Ġseren": 7400,
    "Ġcelestial": 10069,
    "Ġmarshalled": 25316,
    "Ġsnowy": 9020,
    "representation": 20199,
    "Ġruss": 18718,
    "they": 1879,
    "Ġdisagreeable": 9300,
    "lat": 9606,
    "Ġdrunk": 9426,
    "apparent": 11043,
    "Ġindomit": 22959,
    "perth": 22190,
    "searching": 25106,
    "Ġhawk": 15176,
    "Ġturned": 2132,
    "Ġrobes": 16272,
    "doctor": 19097,
    "âĢĶâĢĻ": 8189,
    "Ġrallied": 14097,
    "smitten": 23912,
    "Ġheartless": 13076,
    "perch": 18343,
    "Ġlazarus": 15030,
    "Ġrenounce": 19471,
    "oves": 15406,
    "fishery": 10034,
    "rayed": 23565,
    "Ġmeadow": 17153,
    "Ġded": 2531,
    "Ġsc": 531,
    "Ġsociable": 19407,
    "effectually": 25131,
    "rine": 21040,
    "Ġignorant": 5344,
    "Ġcosine": 2374,
    "ope": 4123,
    "Ġconjunction": 25103,
    "amy": 8469,
    "thousands": 16871,
    "Ġdiddled": 22671,
    "Ġfinite": 2326,
    "Ġnose": 4403,
    "Ġhurricane": 16435,
    "ians": 2360,
    "pt": 388,
    "yth": 981,
    "Ġdropped": 4473,
    "Ġvexatious": 19784,
    "startled": 24944,
    "Ġundertake": 14481,
    "Ġdozing": 22248,
    "besides": 8699,
    "stra": 4044,
    "fo": 5279,
    "ã": 164,
    "âĢľ": 344,
    "Ġevermore": 18813,
    "Ġcapsizing": 20092,
    "shorn": 22457,
    "Ġvener": 8165,
    "try": 7813,
    "baked": 20781,
    "Ġbattle": 5909,
    "Ġlengthen": 15658,
    "Ġhusbands": 16644,
    "Ġarrant": 23301,
    "Ġsap": 18324,
    "Ġskul": 22800,
    "insula": 23070,
    "scans": 22993,
    "Ġdespised": 14668,
    "Ġrelatives": 12985,
    "Ġrides": 21976,
    "Ġannoyance": 20664,
    "Ġsays": 3561,
    "jam": 15374,
    "Ġvii": 13112,
    "mechanical": 25579,
    "Ġbridegroom": 10606,
    "Ġtreachery": 15104,
    "Ġbiographical": 22767,
    "build": 12191,
    "Ġcovered": 5171,
    "Ġnominal": 15171,
    "desolation": 20462,
    "Ġrecommend": 7103,
    "actually": 14297,
    "Ġbegin": 3100,
    "Ġwithered": 19468,
    "Ġtrump": 8197,
    "worm": 15456,
    "Ġroom": 1463,
    "Ġeludes": 26555,
    "Ġlarger": 1400,
    "supper": 12924,
    "Ġissu": 6254,
    "pleasure": 5979,
    "Ġpacifics": 24372,
    "wh": 508,
    "pervading": 18967,
    "solute": 16599,
    "Ġaerial": 21201,
    "neville": 22470,
    "Ġonto": 14031,
    "Ġdoublo": 6079,
    "islanders": 25443,
    "Ġforce": 5092,
    "Ġlistened": 4471,
    "Ġign": 8295,
    "Ġdeaden": 23462,
    "Ġprov": 4401,
    "Ġgave": 2219,
    "Ġconsuming": 22793,
    "wish": 8101,
    "nelson": 25621,
    "wealth": 22692,
    "akness": 14196,
    "ringle": 21043,
    "icacy": 15662,
    "Ġalmanac": 26486,
    "uting": 15664,
    "Ġlocking": 18299,
    "Ġbeast": 7179,
    "irms": 18169,
    "yset": 21148,
    "Ġfrowning": 13626,
    "²": 115,
    "Ġinstance": 2546,
    "Ġfelicity": 7259,
    "earthly": 24723,
    "Ġdegener": 14050,
    "explanations": 25235,
    "weigh": 18665,
    "'s": 2471,
    "dipped": 20839,
    "Ġesquimaux": 25154,
    "Ġharpooneer": 3771,
    "Ġ1839": 20463,
    "Ġstarboard": 7604,
    "Ġevanesc": 24295,
    "hounds": 20909,
    "ellig": 523,
    "Ġgust": 21601,
    "µ": 118,
    "Ġindicates": 3196,
    "twenty": 6608,
    "otence": 14025,
    "Ġsubstances": 24167,
    "splice": 17172,
    "sorting": 17005,
    "philips": 20038,
    "Ġbetrayed": 9563,
    "Ġur": 5539,
    "Ġsoftware": 18920,
    "Ġcruelty": 9971,
    "sect": 8154,
    "Ġconverted": 16117,
    "Ġmonstr": 7668,
    "aking": 973,
    "Ġinviting": 19145,
    "Ġhil": 10822,
    "Ġparallelization": 3429,
    "Ġgrieve": 14709,
    "Ġrat": 4353,
    "reement": 15514,
    "Ġaskance": 23154,
    "othe": 2617,
    "Ġpatagonian": 20538,
    "Ġenter": 4029,
    "consent": 18502,
    "convinced": 10624,
    "umbled": 8494,
    "Ġunden": 22018,
    "afternoon": 13190,
    "Ġflask": 3040,
    "Ġboasted": 16110,
    "Ġclub": 8876,
    "Ġbrain": 2087,
    "Ġdialogue": 12407,
    "cooks": 25070,
    "Ġimmensity": 25330,
    "Ġhearing": 4762,
    "omn": 15686,
    "Ġhappening": 14385,
    "tre": 8764,
    "Ġdependen": 1828,
    "vering": 15720,
    "allah": 5839,
    "Ġplight": 14283,
    "ancing": 1758,
    "Ġaction": 5797,
    "Ġposit": 1304,
    "iest": 4035,
    "Ġsuspense": 9420,
    "Ġtouched": 6002,
    "Ġslabs": 13065,
    "oried": 10803,
    "ume": 4837,
    "Ġsurprising": 14598,
    "Ġsummoned": 9913,
    "âĢĶ": 517,
    "Ġdespite": 19356,
    "Ġbathe": 25444,
    "accompl": 9882,
    "Ġjutting": 22306,
    "Ġaux": 21202,
    "ort": 522,
    "Ġfif": 4216,
    "aurs": 20771,
    "axing": 18548,
    "Ġmarsh": 9823,
    "Ġwarmed": 12026,
    "failed": 20865,
    "Ġcollins": 2184,
    "Ġmuster": 16126,
    "ado": 11660,
    "\"": 6,
    "entric": 11621,
    "ppa": 10241,
    "peace": 13053,
    "Ġhug": 6979,
    "unearthly": 19275,
    "Ġdrink": 4788,
    "apprec": 22848,
    "Ġconfidential": 9090,
    "Ġobstin": 14955,
    "Ġsagaciously": 24730,
    "itu": 1228,
    "gloomy": 25147,
    "assist": 11770,
    "warm": 8103,
    "Ġblacksmiths": 19875,
    "enses": 10995,
    "Ġunlock": 18244,
    "chairs": 21697,
    "Ġstrange": 2273,
    "Ġdelicately": 24126,
    "Ġdealer": 23980,
    "Ġcame": 1298,
    "ath": 863,
    "innacle": 7518,
    "Ġquaker": 10972,
    "Ġsperma": 19046,
    "race": 11633,
    "Ġfalls": 14645,
    "Ġhearts": 4972,
    "Ġflour": 8946,
    "attributed": 23124,
    "Ġinhabitants": 7523,
    "Ġjumbled": 22302,
    "Ġcustom": 5078,
    "inois": 17739,
    "Ġvertu": 23893,
    "nns": 1892,
    "fect": 2301,
    "Ġlav": 13952,
    "iz": 364,
    "winding": 16721,
    "Ġpad": 8126,
    "enhall": 13852,
    "Ġwhites": 21721,
    "Ġschoolmasters": 19723,
    "Ġdrag": 6185,
    "Ġalluded": 7887,
    "Ġpuzz": 5532,
    "atching": 8203,
    "Ġrecognised": 8994,
    "âĢĿ]": 21820,
    "fee": 12884,
    "Ġpolluted": 25594,
    "Ġigniting": 25073,
    "Ġapartment": 6635,
    "good": 2900,
    "Ġbestirred": 20454,
    "Ġimaginations": 16518,
    "transferred": 24510,
    "Ġcronies": 23443,
    "Ġoft": 9196,
    "Ġimprecate": 20521,
    "aternity": 21268,
    "seventy": 10877,
    "Ġstaring": 8828,
    "Ġolder": 9329,
    "Ġbeckoning": 20505,
    "ollen": 11299,
    "Ġendeavoured": 4919,
    "owers": 12688,
    "ierce": 14393,
    "Ġsupervised": 3295,
    "breat": 10080,
    "Ġvictims": 19807,
    "Ġser": 1671,
    "rubbed": 22185,
    "Ġrock": 5311,
    "Ġpersuasions": 16633,
    "Ġweighing": 20019,
    "Ġlad": 2365,
    "Ġadvisable": 11443,
    "Ġprepared": 5878,
    "Ġburtons": 19255,
    "nez": 22466,
    "Ġexplaining": 15964,
    "Ġsanguinary": 25930,
    "purp": 8092,
    "Ġcurling": 9343,
    "Ġparticularly": 5056,
    "attoo": 6807,
    "alogue": 25163,
    "Ġtraits": 23079,
    "Ġpew": 9317,
    "Ġperman": 10966,
    "Ġsinners": 18953,
    "scuttle": 11913,
    "Ġscream": 5936,
    "conceal": 25117,
    "Ġstops": 3167,
    "Ġpipes": 9852,
    "Ġriv": 10747,
    "Ġmagic": 8234,
    "deser": 10480,
    "Ġholes": 16412,
    "learning": 2564,
    "fun": 3800,
    "draughts": 20391,
    "farm": 15354,
    "Ġsons": 10767,
    "Ġaccusations": 22385,
    "rubber": 12813,
    "earnestly": 17315,
    "Ġgoose": 5939,
    "Ġpretending": 19317,
    "Ġmer": 2930,
    "Ġverdure": 10614,
    "aded": 3549,
    "Ġgn": 8821,
    "Ġcirc": 1984,
    "me": 882,
    "Ġserious": 4322,
    "Ġsunshine": 14495,
    "inct": 3290,
    "dron": 17526,
    "Ġperemptory": 25741,
    "Ġimputation": 22177,
    "mun": 20964,
    "Ġrepaid": 19084,
    "Ġrepublic": 14532,
    "Ġhatchet": 16530,
    "Ġepid": 18007,
    "Ġcorresponding": 13441,
    "sto": 3200,
    "Ġaccess": 9749,
    "gling": 10099,
    "Ġilluminating": 25246,
    "redible": 15808,
    "Ġprivileged": 20116,
    "Ġoccurs": 1857,
    "Ġimmortality": 26327,
    "Ġbarmaid": 19337,
    "Ġrefuge": 8541,
    "cused": 15334,
    "Ġmeadows": 11423,
    "Ġproperly": 7946,
    "goin": 23406,
    "Ġdeposit": 17270,
    "prove": 11148,
    "boom": 18999,
    "Ġwallow": 19469,
    "this": 1437,
    "ict": 599,
    "Ġspray": 7896,
    "duchess": 18464,
    "Ġrevers": 21668,
    "holder": 13285,
    "Ġsulphur": 24934,
    "Ġsnow": 3707,
    "Ġrecounted": 22729,
    "Ġbeggar": 9351,
    "Ġbuilt": 8302,
    "cour": 4481,
    "inex": 14098,
    "set": 3865,
    "arr": 3045,
    "Ġaccelerating": 1616,
    "Ġdesiring": 14417,
    "phia": 22799,
    "thole": 21991,
    "Ġexquis": 9702,
    "Ġcompelled": 14267,
    "Ġcharming": 6630,
    "Ġbosoms": 16796,
    "Ġfrequent": 3285,
    "Ġstraps": 19312,
    "Ġbul": 3291,
    "actions": 8909,
    "Ġnomine": 26457,
    "Ġshavings": 14112,
    "Ġtheorem": 2327,
    "Ġplayfully": 19241,
    "Ġquicker": 16509,
    "Ġrafters": 22665,
    "Ġheard": 1398,
    "icated": 7590,
    "Ġgrief": 4622,
    "bird": 9587,
    "opotam": 22484,
    "box": 5749,
    "Ġshowed": 4498,
    "pour": 17631,
    "opol": 12876,
    "articulate": 17400,
    "Ġtepid": 26413,
    "Ġvind": 10251,
    "swinging": 25913,
    "Ġhampshire": 15245,
    "crier": 20822,
    "Ġjiff": 22301,
    "Ġperemptorily": 17369,
    "handsome": 13179,
    "sailing": 14716,
    "usation": 18402,
    "Ġheedfully": 24520,
    "enty": 2916,
    "Ġwhelmed": 26000,
    "vessels": 10627,
    "any": 3338,
    "Ġadjusts": 8982,
    "Ġharry": 24571,
    "swed": 24255,
    "Ġundec": 22024,
    "ory": 1078,
    "leather": 13892,
    "Ġnecessitated": 23932,
    "Ġtalent": 12300,
    "Ġforth": 3462,
    "Ġgr": 977,
    "aid": 1922,
    "Ġscra": 5841,
    "stars": 18022,
    "Ġlent": 21551,
    "like": 1885,
    "Ġformidable": 8221,
    "Ġhuman": 1317,
    "Ġmillion": 14989,
    "bol": 8721,
    "Ġprosperous": 15173,
    "Ġasser": 6258,
    "inlaid": 21193,
    "Ġchip": 12829,
    "ê": 171,
    "Ġcringing": 25942,
    "read": 3274,
    "Ġkeel": 6444,
    "Ġcomputing": 2221,
    "Ġcastaways": 19431,
    "Ġvanished": 6873,
    "Ġconcluded": 5658,
    "Ġmanual": 14199,
    "Ġforbe": 8459,
    "==": 944,
    "Ġclerical": 25569,
    "Ġeastern": 11631,
    "makers": 20984,
    "Ġhopkins": 23133,
    "omorrah": 18020,
    "acknowledging": 25477,
    "chest": 11209,
    "Ġmisanthropic": 26561,
    "Ġhudson": 15194,
    "Ġbind": 12586,
    "backed": 9868,
    "Ġdeal": 3608,
    "lion": 20946,
    "Ġhandled": 12942,
    "hated": 17562,
    "alk": 1153,
    "³": 116,
    "flagged": 23975,
    "Ġdocuments": 10025,
    "Ġgrating": 14357,
    "Ġwearing": 12743,
    "redit": 3876,
    "Ġplata": 25120,
    "instr": 12535,
    "Ġlucases": 9012,
    "arthur": 14832,
    "renadier": 18420,
    "ple": 455,
    "Ġprevents": 2558,
    "Ġapr": 12536,
    "library": 13003,
    "Ġforest": 9873,
    "Ġseam": 3908,
    "Ġcoldly": 14651,
    "iciously": 17976,
    "usations": 15951,
    "Ġaccordingly": 6621,
    "nest": 10115,
    "Ġunknown": 4455,
    "ographical": 16787,
    "Ġsecrecy": 7315,
    "Ġrecord": 5317,
    "Ġoverfitting": 1546,
    "Ġpremises": 10489,
    "found": 4213,
    "pretty": 10623,
    "Ġjud": 3358,
    "Ġdry": 5624,
    "Ġlogs": 16350,
    "ignation": 11129,
    "help": 1478,
    "walked": 10572,
    "Ġcalm": 3447,
    "Ġstrasburgh": 18616,
    "Ġbene": 2029,
    "scene": 14422,
    "Ġnovelties": 24777,
    "Ġsage": 17753,
    "ĠĠĠĠĠĠĠ": 7631,
    "Ġsupper": 4667,
    "Ġfreer": 23212,
    "atus": 21263,
    "Ġstreets": 5864,
    "Ġmultipl": 2789,
    "iasm": 8062,
    "Ġorgans": 15869,
    "standard": 22433,
    "completed": 19997,
    "Ġrueful": 25582,
    "neither": 9760,
    "rossing": 18643,
    "Ġexpectation": 6903,
    "expressive": 24306,
    "Ġideal": 13124,
    "overed": 2853,
    "Ġgreek": 10632,
    "hamed": 6306,
    "bourne": 19104,
    "otle": 21802,
    "Ġsurveying": 25326,
    "Ġcistern": 17383,
    "rannical": 26402,
    "Ġsneering": 24696,
    "Ġdet": 509,
    "Ġattracted": 8907,
    "retion": 9364,
    "mouthed": 12403,
    "Ġ27": 8618,
    "Ġballs": 9017,
    "Ġconfederate": 17355,
    "erative": 21274,
    "Ġaccumulates": 2890,
    "Ġcolt": 11045,
    "signs": 16540,
    "Ġwithdra": 6398,
    "Ġhans": 12630,
    "Ġheav": 1851,
    "continuing": 24478,
    "ical": 753,
    "asher": 15650,
    "Ġactivation": 918,
    "Ġremembered": 5277,
    "Ġramad": 8530,
    "Ġassisted": 11112,
    "Ġsiam": 13840,
    "mir": 20965,
    "jumped": 20249,
    "âĢľâĢĺ": 1485,
    "Ġbackward": 7653,
    "Ġsnaky": 23743,
    "Ġintellig": 526,
    "_.)": 7277,
    "test": 13794,
    "Ġpartner": 6715,
    "iter": 4392,
    "Ġinterven": 10998,
    "Ġgeneralize": 3102,
    "Ġad": 445,
    "furnish": 25339,
    "Ġsmilingly": 22565,
    "Ġcrossing": 7251,
    "edding": 4368,
    "ads": 5718,
    "Ġscud": 14192,
    "Ġdiverted": 14593,
    "Ġcorrespondent": 19825,
    "astic": 1868,
    "Ġsemicirc": 16396,
    "Ġcrests": 25686,
    "Ġsoc": 3526,
    "Ġmadness": 6602,
    "Ġaxis": 12310,
    "Ġlocations": 12416,
    "Ġanyhow": 14256,
    "Ġpat": 1804,
    "Ġatt": 774,
    "Ġ73": 24262,
    "Ġhated": 7584,
    "Ġskull": 6289,
    "Ġbabies": 19695,
    "fluke": 25205,
    "Ġne": 390,
    "feren": 768,
    "ē": 212,
    "Ġcongealed": 25982,
    "relics": 24018,
    "Ġfaintest": 24569,
    "Ġegypt": 9680,
    "þ": 191,
    "Ġtur": 2566,
    "Ġprotesting": 14743,
    "leton": 5148,
    "ilight": 12697,
    "Ġgrop": 12668,
    "Ġinnermost": 12164,
    "Ġlam": 21553,
    "Ġshank": 22002,
    "Ġosc": 2835,
    "Ġcoronation": 13337,
    "Ġappearance": 3700,
    "Ġmanufactured": 22335,
    "Ġdollar": 25284,
    "loa": 18534,
    "accomplishment": 20226,
    "Ġglitter": 25126,
    "seemingly": 25363,
    "ostentatious": 20654,
    "Ġholder": 6725,
    "Ġsalad": 19482,
    "congratulations": 20282,
    "propriety": 14367,
    "books": 8667,
    "uming": 8493,
    "Ġcraw": 7281,
    "Ġmet": 1895,
    "Ġplow": 21463,
    "erably": 7572,
    "superiority": 20188,
    "Ġgo": 614,
    "Ġaround": 3611,
    "Ġgayer": 24497,
    "obstructed": 15229,
    "Ġreve": 2933,
    "Ġcruelly": 13378,
    "aming": 5829,
    "sis": 1840,
    "Ġmastiff": 23726,
    "serv": 7450,
    "ability": 715,
    "Ġimitation": 22176,
    "Ġcurrent": 13011,
    "Ġingenious": 12351,
    "Ġspars": 3810,
    "Ġnoiseless": 10358,
    "Ġtroop": 24898,
    "Ġprom": 1528,
    "splinter": 25211,
    "Ġdivision": 19447,
    "Ġtrop": 7564,
    "Ġsurprised": 3830,
    "Ġsultry": 20291,
    "Ġcontextual": 3742,
    "Ġsquared": 1379,
    "blunder": 24130,
    "hideous": 25408,
    "Ġ121": 24465,
    "Ġliber": 5168,
    "nameless": 19905,
    "osures": 22266,
    "Ġyoun": 1406,
    "ins": 1374,
    "Ġcaulking": 20296,
    "fle": 7129,
    "spikes": 10342,
    "noise": 14328,
    "Ġargosy": 24275,
    "permitted": 18347,
    "ascertain": 21547,
    "networks": 2408,
    "Ġ56": 24319,
    "brandy": 19203,
    "Ġchange": 1992,
    "nurs": 21001,
    "Ġblasphemy": 26116,
    "aimed": 3952,
    "Ġcome": 1243,
    "Ġbuttoning": 17237,
    "Ġvul": 10249,
    "Ġyoungest": 7956,
    "Ġcommentators": 25230,
    "country": 6104,
    "eches": 8079,
    "suddenly": 6493,
    "incredible": 16500,
    "Ġjealously": 24125,
    "Ġadditional": 7937,
    "Ġconfirms": 23312,
    "ouses": 5163,
    "Ġendeavour": 4679,
    "icult": 3341,
    "Ġattended": 5391,
    "exertion": 16020,
    "Ġinconsistency": 26184,
    "Ġbodies": 8033,
    "Ġgeorge": 3748,
    "cig": 17505,
    "rank": 21044,
    "ivility": 12787,
    "Ġrests": 13096,
    "Ġpenal": 1772,
    "Ġdescrib": 2717,
    "published": 26143,
    "twain": 23699,
    "Ġcaresses": 26060,
    "assment": 9741,
    "Ġscene": 3099,
    "spr": 7435,
    "Ġspaulding": 11734,
    "Ġtrifle": 10603,
    "entary": 21571,
    "Ġterms": 2563,
    "likeness": 19481,
    "Ġconveniences": 19815,
    "prejudiced": 17299,
    "Ġmassa": 19457,
    "pus": 3414,
    "Ġimprinted": 22394,
    "absolute": 17124,
    "Ġknitting": 24220,
    "ele": 9116,
    "shattered": 22459,
    "Ġindia": 10372,
    "neighbours": 24882,
    "doubted": 17527,
    "Ġparcel": 15202,
    "Ġabundant": 17156,
    "c": 71,
    "atters": 18514,
    "Ġstraight": 3703,
    "men": 1486,
    "each": 7334,
    "bohemia": 20733,
    "cst": 10086,
    "Ġrefine": 2995,
    "Ġprocedure": 2807,
    "Ġancestors": 25643,
    "Ġmagnitudes": 3822,
    "Ġspeckled": 14311,
    "laughing": 15182,
    "Ġillum": 9402,
    "Ġprevent": 756,
    "Ġnantucketers": 9896,
    "Ġdrab": 13074,
    "Ġmechan": 1180,
    "Ġtalks": 23373,
    "Ġunfaltering": 24113,
    "ake": 749,
    "Ġqual": 6275,
    "Ġlurked": 11292,
    "Ġbeliefs": 24582,
    "dare": 12457,
    "oth": 1185,
    "boo": 16354,
    "Ġdismast": 12892,
    "Ġthem": 639,
    "rown": 2194,
    "Ġwickham": 2207,
    "Ġthanking": 18603,
    "sorrow": 12512,
    "desirable": 23813,
    "mat": 2201,
    "disaster": 23495,
    "Ġentreat": 4511,
    "Ġconcisely": 19042,
    "Ġga": 4448,
    "Ġraving": 16119,
    "Ġced": 10785,
    "writing": 7721,
    "amused": 21864,
    "instead": 14815,
    "it": 276,
    "Ġoverhanging": 22370,
    "Ġindications": 14633,
    "Ġbuoyed": 20044,
    "figures": 20125,
    "Ġretrie": 10384,
    "rael": 21633,
    "Ġwonderfully": 10431,
    "itive": 6670,
    "Ġslaught": 23174,
    "Ġan": 286,
    "Ġreturn": 1709,
    "Ġlighting": 13086,
    "atched": 6375,
    "itigated": 23049,
    "Ġmethod": 1483,
    "furthest": 19844,
    "Ġcups": 16883,
    "Ġ94": 17718,
    "bib": 17493,
    "irement": 18356,
    "Ġchemical": 10411,
    "expanded": 23664,
    "Ġenjoyment": 7299,
    "Ġj": 533,
    "darted": 20834,
    "success": 6711,
    "Ġmysterious": 7526,
    "Ġarab": 7824,
    "Ġtro": 7355,
    "movable": 14326,
    "Ġoxford": 11372,
    "Ġwood": 2291,
    "Ġrelied": 16198,
    "Ġfiendish": 13331,
    "Ġmccarthys": 19665,
    "older": 15757,
    "Ġpled": 17909,
    "Ġhuge": 4701,
    "Ġplainly": 4381,
    "eprints": 12795,
    "Ġbearded": 15731,
    "iguous": 18047,
    "Ġinstruments": 12227,
    "Ġendowed": 18925,
    "Ġresent": 6050,
    "Ġdearly": 10403,
    "Ġ118": 19701,
    "inf": 6233,
    "Ġgum": 21599,
    "gments": 12473,
    "desc": 1392,
    "Ġconsecrate": 26490,
    "neck": 14243,
    "honour": 13470,
    "uber": 15448,
    "Ġcontempl": 6702,
    "Ġprocure": 9512,
    "undertaking": 23790,
    "ckets": 6842,
    "wilful": 25152,
    "Ġzealand": 12353,
    "Ġdemoniac": 15069,
    "Ġelasticity": 19561,
    "ilities": 6991,
    "Ġkilled": 4955,
    "Ġpicked": 6342,
    "Ġbark": 10799,
    "gress": 2215,
    "Ġdeline": 16335,
    "Ġprefer": 6416,
    "tisement": 6767,
    "fine": 10092,
    "trunk": 23951,
    "Ġnails": 12652,
    "Ġtranscend": 25668,
    "Ġsubfield": 11872,
    "ently": 1612,
    "uff": 2729,
    "hercules": 22209,
    "Ġexasperate": 20101,
    "Ġgifts": 21616,
    "rell": 11565,
    "posterity": 25489,
    "Ġhospitality": 13515,
    "spoken": 11867,
    "mentioning": 24886,
    "ceiling": 21631,
    "ate": 421,
    "amb": 5723,
    "Ġelsewhere": 7713,
    "eenth": 12464,
    "finish": 24383,
    "murmured": 24454,
    "Ġconstantly": 11975,
    "Ġvort": 18194,
    "Ġspectators": 19410,
    "small": 6472,
    "Ġhowling": 8511,
    "Ġplaces": 5390,
    "hatherley": 17569,
    "Ġciv": 3307,
    "Ġtrifling": 10604,
    "Ġpowdered": 24239,
    "Ġproofs": 19817,
    "ctuous": 9207,
    "clinging": 20824,
    "Ġwhatsoever": 18456,
    "Ġult": 9076,
    "eld": 967,
    "semicirc": 26492,
    "Ġpreference": 9735,
    "Ġuncles": 23434,
    "Ġwound": 4530,
    "Ā": 193,
    "professor": 17251,
    "Ġsubproblems": 12961,
    "oblivious": 26583,
    "Ġtear": 6723,
    "Ġanalysis": 1911,
    "laden": 14931,
    "Ġarrayed": 25665,
    "helpless": 16791,
    "Ġchord": 22250,
    "ioning": 21513,
    "Ġwantest": 18791,
    "twelve": 14623,
    "Ġdepend": 790,
    "Ġcrushed": 9425,
    "Ġimbu": 15895,
    "tempted": 26404,
    "Ġheroism": 24543,
    "Ġrecess": 10848,
    "Ġretrogression": 26582,
    "Ġcontinents": 16850,
    "overlooked": 23326,
    "ington": 21304,
    "nes": 6960,
    "whom": 8186,
    "Ġantichron": 24183,
    "Ġcongen": 10874,
    "fresh": 13395,
    "Ġillustrative": 25069,
    "accomplishments": 25327,
    "stairs": 5155,
    "Ġdons": 17890,
    "Ġcommunicative": 24547,
    "mblance": 7322,
    "Ġcorrupt": 11925,
    "Ġforc": 9229,
    "Ġthither": 6820,
    "Ġinstructing": 3124,
    "Ġdesperate": 7777,
    "Ġpupella": 20425,
    "Ġepaulets": 24906,
    "shirt": 22458,
    "manifested": 20529,
    "Ġabruptly": 15153,
    "Ġwhitened": 24868,
    "Ġglades": 19375,
    "Ġwip": 13855,
    "earth": 6502,
    "uced": 13802,
    "sword": 10727,
    "Ġbor": 5805,
    "Ġportraits": 20145,
    "being": 3913,
    "Ġshelves": 14999,
    "aire": 10682,
    "Ġcoars": 14273,
    "Ġcollinses": 19131,
    "vocabulary": 25088,
    "Ġpeddler": 26181,
    "Ġmontan": 22987,
    "Ġfri": 17880,
    "Ġrighteous": 18949,
    "Ġshirt": 8852,
    "Ġassaults": 15159,
    "orders": 12878,
    "Ġremem": 4313,
    "Ġacquaintance": 4131,
    "Ġthreatening": 16829,
    "Ġomit": 17817,
    "Ġlouisiana": 25079,
    "Ġploughing": 26261,
    "Ġpacing": 8428,
    "Ġdecomposition": 5343,
    "Ġline": 1850,
    "inced": 3336,
    "mists": 17605,
    "sense": 11525,
    "Ġsuffocated": 20730,
    "Ġindividual": 5744,
    "Ġproviding": 1357,
    "Ġundulated": 19519,
    "Ġtrappings": 23086,
    "drab": 23902,
    "Ġdiary": 24738,
    "Ġmuch": 922,
    "Ġbash": 12590,
    "imaux": 21716,
    "power": 7137,
    "Ġacquisition": 18900,
    "upon": 2720,
    "covery": 11172,
    "itancy": 21336,
    "Ġsunny": 13089,
    "Ġretreated": 13436,
    "nder": 20989,
    "Ġdividing": 12115,
    "Ġinhab": 5083,
    "dw": 3333,
    "Ġlicense": 20094,
    "tstone": 21087,
    "Ġaff": 1119,
    "Ġsheaves": 22163,
    "Ġpartners": 11856,
    "enjoy": 10775,
    "Ġluff": 15657,
    "Ġbengal": 18785,
    "Ġgreat": 898,
    "ecess": 17533,
    "Ġtech": 1639,
    "somewhat": 11161,
    "Ġanchored": 17442,
    "Ġappropri": 2229,
    "love": 9296,
    "Ġdisturbing": 19949,
    "etrics": 21589,
    "Ġexter": 7396,
    "Ġtarred": 23611,
    "female": 20669,
    "floor": 14938,
    "quit": 15765,
    "Ġfrayed": 23352,
    "Ġtang": 13816,
    "Ġunspeakably": 25173,
    "Ġperched": 10301,
    "Ġpublished": 11243,
    "itzerland": 9997,
    "Ġcorrectly": 9406,
    "ificent": 8185,
    "Ġluggage": 25958,
    "Ġpurposes": 11169,
    "blog": 19842,
    "Ġyes": 2688,
    "reflected": 24732,
    "Ġmaggie": 26293,
    "Ġdisturbance": 15014,
    "bid": 5610,
    "Ġforged": 12708,
    "berg": 11861,
    "Ġfallen": 5969,
    "Ġguest": 7248,
    "Ġsneezes": 24697,
    "ezing": 10575,
    "Ġunable": 4951,
    "Ġunreliable": 3929,
    "Ġamusement": 8057,
    "nal": 1901,
    "beautiful": 10650,
    "Ġguards": 16269,
    "Ġscor": 8191,
    "Ġignorantly": 19498,
    "Ġspotted": 12142,
    "incom": 21184,
    "supposed": 13319,
    "Ġdum": 10812,
    "icism": 13958,
    "Ġcapricious": 20541,
    "imming": 9689,
    "Ġlightning": 5750,
    "lesson": 22774,
    "ront": 15421,
    "ushion": 14722,
    "Ġscheming": 23274,
    "castles": 14637,
    "Ġcordon": 24393,
    "buff": 15321,
    "Ġbales": 21392,
    "savagery": 25028,
    "Ġthickness": 13280,
    "Ġhissed": 15793,
    ",)": 9103,
    "Ġferocity": 16872,
    "Ġonly": 789,
    "Ġtennessee": 26597,
    "Ġ6": 5141,
    "Ġfarm": 7841,
    "offered": 14519,
    ".âĢĻ": 1719,
    "iocr": 20925,
    "Ġmabel": 17326,
    "<EOS>": 2,
    "Ġwhispers": 14702,
    "Ġparent": 14646,
    "Ġmine": 3181,
    "ju": 13743,
    "killer": 20479,
    "Ġcataract": 23431,
    "meeting": 11021,
    "Ġminded": 23234,
    "pha": 22797,
    "Ġ86": 24460,
    "remaining": 20223,
    "Ġrestore": 9382,
    "Ġneutral": 12748,
    "Ġperception": 9752,
    "tack": 12516,
    "Ġactionable": 24559,
    "Ġbegins": 7243,
    "hic": 3248,
    "Ġsavi": 18326,
    "Ġmasterly": 23997,
    "lad": 5993,
    "bee": 16041,
    "Ġoperated": 14548,
    "irm": 3110,
    "Ġruin": 6057,
    "Ġtropic": 17064,
    "Ġdismal": 11813,
    "Ġlandscape": 12420,
    "Ġpiping": 23235,
    "Ġtoday": 12647,
    "Ġdevice": 1929,
    "middle": 11311,
    "Ġexerting": 21838,
    "Ġbourgh": 5069,
    "wanted": 10744,
    "Ġtwitching": 25684,
    "Ė": 215,
    "handkerchief": 14618,
    "wand": 10739,
    "irregular": 21916,
    "Ġconcentrate": 25066,
    "Ġslackened": 15129,
    "doing": 8587,
    "hew": 5286,
    "doub": 6224,
    "admirably": 24947,
    "Ġmulti": 1046,
    "Ġcheerily": 13311,
    "oundering": 11749,
    "Ġhope": 1789,
    "feelings": 5674,
    "Ġgamy": 18001,
    "Ġ&": 6513,
    "Ġputs": 19031,
    "barn": 17484,
    "ard": 465,
    "Ġstrongest": 11136,
    "Ġinitial": 823,
    "Ġspool": 24803,
    "Ġprinciple": 6770,
    "intend": 16227,
    "commun": 15035,
    "Ġdeck": 2137,
    "Ġkeys": 11999,
    "Ġloadstone": 25817,
    "Ġwarmup": 3922,
    "Ġcalled": 1972,
    "Ġnoah": 10943,
    "Ġpoured": 8804,
    "Ġsteadfast": 8682,
    "Ġhelen": 16657,
    "Ġplank": 7034,
    "cular": 15330,
    "Ġrestoration": 19026,
    "nuee": 17432,
    "Ġbleeds": 24396,
    "jac": 8383,
    "Ġhill": 5626,
    "Ġvest": 8164,
    "Ġgunwale": 7324,
    "hab": 1075,
    "Ġstirred": 12221,
    "Ġcruising": 6912,
    "Ġanecdote": 26356,
    "Ġsensationalism": 26067,
    "Ġcir": 21344,
    "Ġplague": 11827,
    "rying": 3188,
    "Ġladder": 8601,
    "Ġreap": 18029,
    "pent": 3494,
    "Ġjoyous": 14665,
    "Ġplane": 11826,
    "Ġreduce": 7944,
    "Ġalteration": 9548,
    "ĠĠĠĠĠĠĠĠĠĠĠĠĠĠĠĠĠĠĠĠĠĠĠĠĠĠĠĠĠĠĠĠĠĠĠ": 19260,
    "Ġdisgraceful": 15021,
    "Ġes": 8773,
    "Ġpuppy": 12408,
    "chain": 18042,
    "Ġmostly": 7664,
    "Ġknob": 24406,
    "Ġthroat": 7771,
    "Ġlucas": 3832,
    "Ġfly": 3869,
    "Ġxii": 11993,
    "onents": 8781,
    "Ġmournfully": 20120,
    "Ġfuneral": 10284,
    "Ġbusiness": 2234,
    "Ġconvergence": 972,
    "Ġbraw": 23838,
    "awing": 18917,
    "Ġapply": 1777,
    "Ġringleader": 26214,
    "Ġchosen": 7200,
    "written": 7996,
    "heading": 5487,
    "hon": 6793,
    "Ġvow": 10248,
    "mill": 13756,
    "imens": 1746,
    "Ġcand": 3275,
    "ooped": 17624,
    "Ġcases": 3960,
    "Ġdeer": 12724,
    "Ġcooked": 13272,
    "Ġ{": 21155,
    "emorial": 10245,
    "Ġallures": 22013,
    "Ġreus": 8825,
    "prince": 23818,
    "dischar": 19155,
    "Ġhunters": 6301,
    "their": 2542,
    "Ġgoodness": 6060,
    "Ġcolumns": 14378,
    "Ġgould": 17992,
    "carte": 25401,
    "orified": 21405,
    "Ġbreezes": 14871,
    "Ġdeployment": 11186,
    "Ġpositives": 4317,
    "Ġburnished": 24001,
    "Ġher": 427,
    "Ġtragedies": 25242,
    "Ġdrank": 16537,
    "onym": 14650,
    "crippled": 26385,
    "Ġfigures": 8633,
    "Ġprodigies": 19796,
    "Ġprofoundly": 16860,
    "Ġinstability": 3813,
    "Ġbeen": 627,
    "Ġdamn": 11159,
    "accountable": 7110,
    "uteronomy": 15668,
    "stained": 21659,
    "Ġsoothe": 7404,
    "uation": 17695,
    "Ġsquares": 11170,
    "Ġexchanging": 18135,
    "dening": 22782,
    "terror": 18131,
    "phur": 16165,
    "Ġcovariate": 2352,
    "zen": 5140,
    "Ġtransl": 2830,
    "Ġsign": 2495,
    "zes": 11550,
    "bank": 10081,
    "ullen": 8236,
    "Ġsolely": 9912,
    "gracechurch": 24581,
    "Ġcombing": 22862,
    "ons": 709,
    "Ġbecause": 2212,
    "agues": 8162,
    "Ġcowards": 12577,
    "shazzar": 15292,
    "condemned": 26061,
    "swaying": 25911,
    "Ġunkindness": 22047,
    "Ġsale": 14156,
    "Ġmeddling": 21323,
    "mathemat": 19139,
    "posted": 24637,
    "Ġentit": 22749,
    "Ę": 217,
    "Ġstur": 15721,
    "Ġproduces": 2092,
    "infant": 19830,
    "urrection": 12412,
    "Ġbelt": 13007,
    "Ġdistrict": 10320,
    "Ġhabitual": 24789,
    "Ġresting": 7963,
    "point": 6064,
    "Ġkeeping": 7282,
    "Ġdeploy": 2651,
    "Ġclutch": 15055,
    "Ġmodern": 3213,
    "unaccountable": 15783,
    "eminently": 25108,
    "sip": 10726,
    "oper": 7346,
    "Ġoutput": 928,
    "disputed": 23502,
    "Ġfavourably": 16365,
    "Ġwrenching": 17325,
    "Ġcontain": 1556,
    "Ġprint": 18971,
    "Ġincumbent": 16066,
    "Ġfor": 340,
    "Ġauthority": 7749,
    "Ġrickety": 26506,
    "Ġshivering": 10267,
    "Ġleaped": 8829,
    "Ġlonged": 6436,
    "Ġgratifying": 13309,
    "Ġmeditations": 25016,
    "Ġdissu": 18551,
    "Ġbedfellow": 16442,
    "maintained": 25023,
    "Ġalighted": 18106,
    "iii": 14778,
    "Ġentra": 18694,
    "Ġshreds": 12774,
    "Ġsealed": 15822,
    "after": 2897,
    "Ġconference": 15751,
    "Ġsummons": 13236,
    "Ġbrand": 16190,
    "surd": 6933,
    "usion": 3299,
    "ĠĠĠĠĠĠĠĠĠĠĠĠĠĠĠĠĠĠĠĠĠĠĠĠĠĠĠĠĠĠĠ": 19703,
    "windows": 19537,
    "Ġastonishment": 4795,
    "Ġtarquin": 23612,
    "Ġpattern": 1438,
    "Ġshag": 9253,
    "Ġrig": 4223,
    "ifer": 11686,
    "Ġcontriv": 9284,
    "Ġaddress": 2271,
    "Ġstranded": 9777,
    "Ġcommunic": 5751,
    "Ġbordering": 17230,
    "Ġpitches": 23905,
    "Ġeurope": 8063,
    "live": 7549,
    "Ġsculpt": 15950,
    "Ġjeopard": 9945,
    "princip": 17138,
    "Ġlabourers": 23335,
    "Ġchilian": 25564,
    "Ġhunger": 8569,
    "overcome": 19048,
    "franch": 24285,
    "description": 11095,
    "ft": 911,
    "Ġhorr": 3192,
    "leep": 4636,
    "Ġguardsmen": 20633,
    "Ġcru": 2824,
    "Ġfocuses": 8653,
    "need": 10984,
    "Ġreckon": 19872,
    "fel": 8737,
    "cer": 6644,
    "Ġcleaning": 23187,
    "impatiently": 20474,
    "oded": 11671,
    "Ġfumbling": 21421,
    "Ġsituation": 4070,
    "Ġhabit": 6771,
    "Ġrenowned": 26195,
    "Ġdishonor": 25602,
    "Ġencoura": 1363,
    "ulpt": 10886,
    "coburg": 13601,
    "Ġdecap": 16024,
    "verted": 10219,
    "Ġdisgust": 6706,
    "dreaded": 25141,
    "came": 4572,
    "Ġlongbourn": 3509,
    "admitted": 18094,
    "Ġamput": 16038,
    "deliberated": 26119,
    "iony": 9193,
    "dz": 4740,
    "Ġconvulsively": 25716,
    "Ġgibraltar": 25788,
    "composure": 24038,
    "paws": 21031,
    "Ġenveloped": 12212,
    "Ġspermaceti": 8969,
    "project": 16428,
    "sleepers": 24729,
    "felt": 5890,
    "ifling": 15787,
    "ë": 172,
    "ipotent": 10961,
    "companions": 15025,
    "?âĢĻ": 2642,
    "hood": 2660,
    "Ġrecently": 11863,
    "achable": 14133,
    "Ġsolemnity": 9943,
    "Ġenvironmental": 24039,
    "Ġperverseness": 13657,
    "Ġsuccessfully": 19432,
    "Ġowest": 25094,
    "lifted": 15389,
    "Ġbet": 1134,
    "Ġspecialized": 3921,
    "speechless": 25396,
    "Ġwearily": 18180,
    "garet": 9599,
    "inkling": 16093,
    "Ġundoubted": 19517,
    "conqu": 14246,
    "iline": 21725,
    "Ġelated": 18635,
    "Ġcandid": 4097,
    "timidity": 25754,
    "tumbled": 21093,
    "Ġlater": 6018,
    "Ġze": 8546,
    "Ġkeels": 11062,
    "Ġtint": 13819,
    "Ġfitted": 6244,
    "extrem": 18709,
    "Ġfinds": 6300,
    "Ġhosmer": 6774,
    "ensive": 6280,
    "isen": 10793,
    "Ġmcc": 21309,
    "Ġattribute": 16101,
    "Ġdiffers": 23784,
    "Ġaccumul": 1409,
    "Ġunlikely": 10909,
    "Ġnoted": 15834,
    "ale": 506,
    "onical": 21256,
    "Ġholmes": 1307,
    "method": 17286,
    "aur": 15311,
    "Ġreverence": 12062,
    "Ġgladstone": 23872,
    "Ġgestures": 13538,
    "teak": 22819,
    "wag": 21126,
    "Ġsandwiched": 26611,
    "iour": 4036,
    "impul": 16557,
    "whaleman": 23439,
    "addition": 13387,
    "Ġrevolution": 3303,
    "forty": 9376,
    "houses": 9601,
    "tremble": 17143,
    "Ġskrimshander": 22803,
    "Ġkins": 22199,
    "da": 17515,
    "plifted": 9712,
    "report": 13402,
    "Ġsuspended": 5665,
    "Ġstock": 7454,
    "Ġscraps": 16903,
    "Ġnations": 8813,
    "Ġsoftly": 7949,
    "Ġoppose": 16521,
    "iop": 20921,
    "axen": 22526,
    "Ġimproper": 22747,
    "Ġbubble": 13537,
    "numbers": 17617,
    "Ġtoilet": 13939,
    "idirection": 2414,
    "icher": 9204,
    "Ġshelf": 12271,
    "Ġcontest": 18474,
    "jure": 20926,
    "combe": 7663,
    "spouter": 22743,
    "confusion": 13373,
    "Ġclaim": 5106,
    "Ġinvolved": 8925,
    "Ġseem": 914,
    "Ġhereditary": 10666,
    "Ġpecks": 18669,
    "Ġtorpor": 25034,
    "Ġans": 1645,
    "dy": 4074,
    "Ġunembarrassed": 22076,
    "fully": 2204,
    "ror": 7350,
    "Ġabed": 22270,
    "Ġpenetration": 19919,
    "Ġwhoever": 10976,
    "Ġwants": 5742,
    "speaking": 12102,
    "gences": 20879,
    "Ġwretchedness": 9028,
    "Ġessentially": 24925,
    "Ġhandkerchief": 8916,
    "Ġglowed": 24865,
    "Ġjudges": 14686,
    "kin": 7132,
    "penetrate": 20327,
    "Ġhunter": 5401,
    "Ġtuning": 3075,
    "ging": 2602,
    "glasses": 11216,
    "string": 15690,
    "newsp": 23137,
    "Ġvivacious": 19818,
    "Ġ64": 24366,
    "ware": 3935,
    "uss": 8767,
    "Ġdarted": 4759,
    "Ġpeculiarities": 12074,
    "imodal": 17449,
    "withstanding": 8947,
    "Ġopinions": 9417,
    "lit": 9607,
    "Ġcorrob": 16266,
    "Ġvales": 21951,
    "Ġdefilements": 26286,
    "Ġmud": 11575,
    "Ġharpoon": 3616,
    "narrowly": 20350,
    "marrying": 19550,
    "ounded": 9750,
    "Ġbitterly": 8316,
    "Ġremorseless": 13454,
    "whale": 2139,
    "Ġlance": 4880,
    "Ġtraveller": 8050,
    "utting": 17987,
    "rocket": 13946,
    "shabbily": 26248,
    "Ġgle": 7860,
    "Ġlogits": 3450,
    "Ġthoroughly": 8349,
    "brary": 5755,
    "Ġsoaked": 15867,
    "iag": 20918,
    "ile": 521,
    "hearts": 13348,
    "Ġthirt": 13941,
    "n": 82,
    "Ġwell": 902,
    "emporary": 15802,
    "Ä": 133,
    "Ġstreams": 12196,
    "Ġprivate": 5346,
    "ampled": 18885,
    "Ġincalculable": 17462,
    "ials": 11709,
    "Ġgratitude": 5598,
    "Ġascertain": 9708,
    "Ġnick": 21527,
    "Ġsobbed": 14139,
    "Ġul": 6827,
    "tland": 21076,
    "pos": 15413,
    "stubb": 6019,
    "Ġbrightly": 13228,
    "Ġlevers": 18080,
    "Ġresolute": 19247,
    "Ġtempest": 8215,
    "Ġbaff": 10800,
    "Ġrepairs": 19085,
    "pane": 10122,
    "Ġinformation": 1049,
    "Ġernest": 8720,
    "themselves": 6541,
    "Ġbalm": 22908,
    "Ġleatherhead": 20017,
    "Ġdiscoursing": 26267,
    "Ġfinish": 7950,
    "soc": 5175,
    "estab": 14172,
    "Ġcheery": 16371,
    "Ġadmiral": 17307,
    "putable": 10902,
    "Ġimperson": 14220,
    "changing": 10855,
    "acy": 3954,
    "hertfordshire": 10937,
    "Ġsponge": 26004,
    "remained": 8572,
    "Ġaval": 15496,
    "Ġarmy": 11744,
    "Ġsavage": 4009,
    "Ġscaled": 2105,
    "Ġsubdued": 11031,
    "Ġtranquillity": 7535,
    "nne": 20991,
    "hro": 20893,
    "bildad": 9588,
    "Ġorganization": 7985,
    "them": 3020,
    "Ġmoses": 21318,
    "Ġchiefly": 5766,
    "Ġintrusion": 12769,
    "downward": 16620,
    "Ġperpetually": 17070,
    "Ġfills": 12598,
    "december": 25559,
    "children": 9057,
    "uncomfortable": 18163,
    "Ġtunes": 24621,
    "bra": 6220,
    "Ġintellect": 8171,
    "Ġflaw": 23014,
    "ana": 15563,
    "Ġanaly": 1168,
    "Ġbutler": 18271,
    "deceiving": 22149,
    "Ġwave": 7575,
    "Ġsecured": 6746,
    "ressing": 8921,
    "oriental": 23722,
    "returning": 12209,
    "seat": 18127,
    "Ġanomaly": 25637,
    "kee": 18274,
    "hollow": 24045,
    "kicked": 20945,
    "Ġerected": 12237,
    "Ġfading": 15588,
    "himself": 3971,
    "Ġclasses": 4053,
    "Ġcruisers": 25864,
    "Ġsneezing": 12251,
    "Ġmart": 10780,
    "Ġplowdon": 26448,
    "Ġjan": 11765,
    "uns": 21875,
    "appointment": 24064,
    "phology": 3010,
    "Ġbuttons": 12785,
    "Ġplanted": 9776,
    "fred": 20857,
    "Ġshudder": 9052,
    "ury": 3310,
    "warmest": 25030,
    "ription": 5676,
    "Ġgoat": 16010,
    "pra": 15410,
    "Ġrmsprop": 3355,
    "croquet": 25748,
    "Ġprairies": 20024,
    "Ġpigeon": 9518,
    "gorge": 22342,
    "Ġexpeditions": 24957,
    "new": 1466,
    "Ġfind": 1457,
    "Ġgable": 15671,
    "gone": 6504,
    "tap": 17677,
    "sharp": 10308,
    "Ġportent": 12085,
    "Ġfragmentary": 25859,
    "Ġbestir": 13113,
    "Ġpotency": 14647,
    "Ġbritish": 11338,
    "agrad": 2744,
    "Ġdiscussing": 5202,
    "Ġiii": 7862,
    "Ġparacels": 13670,
    "theless": 4260,
    "leviathans": 19941,
    "Ġunstructure": 2994,
    "Ġprocessing": 892,
    "Ġvillainous": 25134,
    "rief": 6203,
    "Ġdangerously": 23940,
    "flying": 13723,
    "scotch": 25852,
    "gings": 7548,
    "Ġdeliverer": 11953,
    "Ġbeseeching": 26312,
    "======================================================================": 10070,
    "nursery": 26400,
    "Ġamused": 11802,
    "84": 15304,
    "lies": 15384,
    "Ġbroad": 3640,
    "oarsman": 25262,
    "hester": 9633,
    "Ġdictionaries": 12343,
    "methodically": 20666,
    "Ġfabric": 25948,
    "Ġdesper": 6177,
    "irious": 15790,
    "Ġhoarse": 14527,
    "Ġimprec": 14219,
    "Ġevenly": 4127,
    "Ġentertainment": 12226,
    "Ġbri": 21381,
    "stead": 10847,
    "bran": 23576,
    "gro": 10096,
    "become": 14248,
    "Ġwhereby": 11840,
    "pivot": 21033,
    "Ġfat": 3461,
    "Ġgleam": 12311,
    "Ġoffend": 16149,
    "Ġenraged": 10246,
    "Ġsolemnisation": 24114,
    "Ġitself": 2522,
    "Ġmoulton": 17437,
    "Ġspence": 22131,
    "Ġquarters": 8623,
    "youth": 11878,
    "Ġcharacters": 9374,
    "Ġminim": 1323,
    "ivering": 7698,
    "aton": 21261,
    "sloop": 26146,
    "Ġxlvi": 25591,
    "merc": 19283,
    "Ġhumorous": 10361,
    "Ġturtle": 4202,
    "Ġwalls": 6762,
    "recl": 15513,
    "ohn": 4563,
    "crooked": 25747,
    "Ġut": 2279,
    "wic": 21123,
    "ky": 4522,
    "Ġpreferment": 19855,
    "esc": 618,
    "Ġmult": 1021,
    "Ġgracefully": 13394,
    "Ġoutrageous": 20613,
    "language": 5129,
    "uble": 21105,
    "Ġdews": 21843,
    "Ġswiftly": 5670,
    "Ġxiii": 25592,
    "Ġabused": 22274,
    "Ġmonday": 6128,
    "Ġparade": 18302,
    "shaped": 10310,
    "jub": 20931,
    "els": 1763,
    "========": 2312,
    "Ġoverwrites": 5033,
    "Ġnooks": 26012,
    "Ġfiled": 15584,
    "Ġhipp": 21496,
    "Ġecstasy": 11632,
    "Ġelix": 22649,
    "Ġevangelist": 20341,
    "Ġruined": 12958,
    "andes": 18154,
    "Ġbam": 15570,
    "extinguish": 22771,
    "hello": 13367,
    "Ġfall": 2986,
    "Ġmist": 2876,
    "Ġvalues": 2653,
    "Ġfootpath": 19340,
    "Ġcopied": 20011,
    "Ġrandomly": 1921,
    "Ġroy": 4227,
    "Ġhook": 6453,
    "Ġstrategies": 1838,
    "want": 8770,
    "Ġduke": 7756,
    "Ġforbidden": 17078,
    "Ġrejoinder": 24599,
    "gence": 875,
    "Ġdeficiencies": 26571,
    "Ġfiftieth": 24702,
    "Ġwarriors": 19726,
    "Ġstepping": 9356,
    "Ġbristling": 20530,
    "Ġsociet": 9451,
    "dial": 20827,
    "Ġfixedly": 19250,
    "Ġdear": 1543,
    "Ġcheese": 9379,
    "conven": 6163,
    "Ġwhaleboats": 18480,
    "Ġthrow": 3783,
    "trimmed": 23952,
    "specul": 23946,
    "craft": 12250,
    "Ġoffice": 4965,
    "Ġsubterr": 10350,
    "culine": 19064,
    "Ġpermission": 9281,
    "Ġagonies": 14253,
    "2": 22,
    "Ġcertainly": 2497,
    "previously": 17209,
    "Ġlustrous": 20159,
    "Ġimposing": 11784,
    "Ġahead": 6664,
    "Ġprofound": 5497,
    "injustice": 17738,
    "Ġunsatisfied": 22049,
    "Ġrhine": 12359,
    "Ġconvinced": 4204,
    "Ġcanterbury": 22173,
    "Ġmerid": 13198,
    "Ġroads": 13292,
    "critical": 19499,
    "useless": 14595,
    "Ġbehaviour": 4384,
    "Ġpopulous": 16827,
    "Ġfloundering": 16253,
    "facts": 19845,
    "morn": 20978,
    "Ġgibe": 25960,
    "Ġredoubled": 23755,
    "Ġgap": 21603,
    "Ġanimation": 11153,
    "pitching": 24078,
    "Ġforebodings": 17306,
    "affectionate": 24922,
    "Ġdoubling": 23322,
    "Ġchaos": 17010,
    "covenant": 23564,
    "Ġchat": 6561,
    "Ġidler": 16408,
    "eteenth": 20160,
    "Ġhabitu": 19531,
    "Ġremoving": 12120,
    "Ġsingular": 4425,
    "etieth": 21588,
    "Ġempt": 5051,
    "Ġage": 3896,
    "Ġmaintaining": 1509,
    "proves": 23397,
    "mar": 4335,
    "Ġstarry": 16924,
    "broker": 13308,
    "Ġdetection": 3594,
    "Ġdashed": 6011,
    "ben": 4927,
    "Ġsuspecting": 14912,
    "Ġbud": 10170,
    "Ġwaking": 11572,
    "Ġcigaret": 16977,
    "Ġabominably": 20069,
    "Ġliveliness": 13646,
    "hug": 17564,
    "hailed": 17566,
    "Ġcro": 4874,
    "Ġgallon": 24186,
    "Ġdetailed": 12828,
    "def": 1452,
    "closing": 23160,
    "Ġdesirable": 8943,
    "Ġcombinations": 22865,
    "Ġgleamed": 17077,
    "Ġstaple": 26200,
    "inations": 7566,
    "province": 26073,
    "Ġcircumstance": 4987,
    "ern": 750,
    "Ġhumaneval": 25583,
    "consciously": 19628,
    "hide": 10704,
    "seemed": 4304,
    "Ġsnugly": 17111,
    "Ġappetite": 12387,
    "Ġcurios": 18845,
    "Ġsequel": 14358,
    "Ġturns": 4981,
    "Ġdesertion": 24786,
    "putting": 14102,
    "¨": 106,
    "urious": 21707,
    "Ġev": 4830,
    "alyards": 18800,
    "ojo": 7348,
    "Ġsafety": 6340,
    "Ġrelationships": 2926,
    "idays": 21775,
    "Ġunhappily": 18263,
    "itten": 3441,
    "Ġoblige": 10490,
    "Ġstern": 4185,
    "toed": 18579,
    "Ġgidd": 25784,
    "Ġpier": 7162,
    "orte": 14186,
    "Ġbusily": 9387,
    "imately": 12692,
    "Ġties": 12531,
    "bel": 3836,
    "Ġdab": 15592,
    "shriek": 20523,
    "Ġmockery": 12111,
    "Ġminister": 18754,
    "Ġmouthful": 16576,
    "lod": 15381,
    "garnished": 26389,
    "Ġunw": 7004,
    "Ġpewter": 17187,
    "Ġobsole": 22704,
    "Ġpoltro": 23621,
    "ogra": 4575,
    "ilburn": 18062,
    "van": 7815,
    "Ġforegoing": 23451,
    "recol": 10152,
    "quitted": 21851,
    "Ġgreen": 3053,
    "adamite": 20596,
    "towing": 17690,
    "Ġeddystone": 25736,
    "Ġpia": 21468,
    "Ġbeneath": 3238,
    "stri": 6250,
    "Ġmallet": 17812,
    "Ġfurthest": 22818,
    "Ġtags": 20574,
    "Ġjudgment": 5765,
    "Ġdejected": 20307,
    "Ġcubs": 20090,
    "Ġshivered": 14110,
    "Ġexerc": 6833,
    "Ġisland": 4047,
    "outs": 7009,
    "lux": 14227,
    "Ġsymp": 4504,
    "Ġtoe": 13938,
    "Ġache": 18663,
    "ogn": 2323,
    "Ġtoll": 7853,
    "Ġhob": 12633,
    "dressing": 11483,
    "throw": 14100,
    "Ġalluding": 18237,
    "pers": 4336,
    "Ġfrequ": 3326,
    "shoes": 14241,
    "ater": 3370,
    "Ġcategorization": 12140,
    "Ġdec": 641,
    "thinness": 25811,
    "Ġrusty": 14966,
    "Ġquaff": 22419,
    "endure": 22230,
    "ost": 5361,
    "Ġmaw": 15544,
    "Ġgreas": 17994,
    "Ġdirected": 5578,
    "Ġallegor": 25546,
    "plainly": 11091,
    "Ġstaving": 21742,
    "ket": 17583,
    "suspicions": 25392,
    "Ġcrozetts": 19632,
    "icles": 17975,
    "Ġregression": 4410,
    "fire": 6358,
    "Ġnatural": 1113,
    "Ġabsurdities": 24879,
    "occup": 7753,
    "Ġyonder": 7391,
    "Ġmahogany": 20581,
    "Ġbeing": 1164,
    "larking": 17595,
    "Ġtem": 806,
    "Ġlivid": 14991,
    "Ġscruples": 15081,
    "rugg": 15900,
    "Ġaccused": 8509,
    "Ġbefriend": 18084,
    "Ġcrash": 12004,
    "Ġpartaking": 22703,
    "weather": 7228,
    "Ġrebell": 21673,
    "fireside": 24693,
    "Ġaffectation": 14443,
    "Ġpa": 2988,
    "nerable": 16278,
    "Ġ43": 14771,
    "Ġunattended": 15847,
    "Ġvisitors": 7986,
    "Ġunquestionable": 26223,
    "Ġupbraiding": 26228,
    "encoun": 12301,
    "Ġbare": 6133,
    "Ġtemptations": 24504,
    "Ġdoomed": 11343,
    "Ġreminisc": 18724,
    "Ġcope": 17832,
    "Ġcondescend": 19958,
    "hark": 15368,
    "Ġrestrain": 8966,
    "keepers": 16661,
    "Ġrepugnant": 26591,
    "Ġwarehouses": 20421,
    "Ġspoiled": 11364,
    "izers": 18145,
    "bowsprit": 16854,
    "mushroom": 26396,
    "plete": 10920,
    "ifully": 13189,
    "Ġmotioned": 19595,
    "disguise": 26307,
    "chariot": 26480,
    "hies": 17561,
    "Ġscal": 1516,
    "Ġunimaginable": 15249,
    "jet": 13744,
    "Ġwatched": 6298,
    "Ġexclaiming": 13644,
    "oof": 15408,
    "Ġstrokes": 16770,
    "Ġtou": 15469,
    "Ġstudious": 23162,
    "becoming": 18517,
    "Ġunimportant": 22035,
    "separ": 9232,
    "erately": 21276,
    "consequ": 18505,
    "artificial": 980,
    "Ġlaughter": 9029,
    "old": 800,
    "abled": 12798,
    "Ġsharks": 4499,
    "binder": 17501,
    "Ġblank": 5952,
    "Ġprynne": 25541,
    "Ġshrouds": 11345,
    "Ġtranced": 18427,
    "Ġsleep": 2403,
    "Ġcolon": 18766,
    "ishop": 9747,
    "Ġfishes": 11593,
    "Ġtimor": 24226,
    "ery": 1269,
    "shoulder": 16585,
    "Ġapproximates": 2420,
    "sies": 21057,
    "Ġimag": 2675,
    "arial": 5531,
    "Ġropes": 10749,
    "murdered": 12206,
    "Ġusual": 3943,
    "Ġderivatives": 2372,
    "Ġhes": 6251,
    "humoredly": 26326,
    "Ġdropout": 1561,
    "Ġgroups": 3719,
    "welt": 12524,
    "chose": 18043,
    "Ġsoothingly": 25050,
    "Ġrecip": 16142,
    "Ġvicinity": 7314,
    "Ġcultiv": 13559,
    "Ġshooting": 11163,
    "message": 17374,
    "Ġphyseter": 26587,
    "hair": 9124,
    "ivity": 1638,
    "Ġrocking": 10970,
    "minute": 11275,
    "Ġhilarious": 20301,
    "bers": 2572,
    "flames": 14714,
    "Ġconvent": 11670,
    "thing": 1480,
    "Ġware": 12558,
    "Ġcivility": 4789,
    "Ġbliss": 13005,
    "Ġserpent": 6738,
    "onde": 21254,
    "Ġdiscl": 9799,
    "eliest": 14748,
    "moderate": 22853,
    "rested": 13078,
    "Ġbush": 23340,
    "Ġcre": 889,
    "cripp": 20821,
    "Ġpassages": 12974,
    "jolly": 20933,
    "glanced": 19369,
    "py": 17625,
    "Ġreply": 4516,
    "Ġresnet": 5473,
    "Ġunjustifiable": 25112,
    "Ġislands": 6766,
    "Ġveter": 15815,
    "Ġdetest": 8502,
    "asingly": 17963,
    "Ġhopeless": 7461,
    "Ġfearlessness": 19163,
    "Ġrises": 9715,
    "gs": 7337,
    "Ġlighted": 7064,
    "Ġthoughtfully": 12983,
    "Ġgrin": 5482,
    "proportions": 22831,
    "Ġretribution": 16283,
    "fear": 8515,
    "advise": 24219,
    "banked": 25338,
    "Ġpillows": 24991,
    "born": 7542,
    "quee": 4128,
    "Ġoverpow": 14209,
    "Ġenglishmen": 19433,
    "Ġtore": 6531,
    "Ġwhite": 1542,
    "Ġagrees": 22521,
    "Ġaccidental": 16849,
    "cou": 13698,
    "gno": 13729,
    "mp": 3727,
    "rawling": 21640,
    "Ġcommenced": 8533,
    "oqu": 7554,
    "onged": 18411,
    "Ġlegs": 4917,
    "Ġwilled": 21294,
    "com": 1012,
    "Ġpre": 507,
    "Ġforgotten": 5679,
    "Ġmildness": 9946,
    "verbally": 25361,
    "Ġadventurous": 16734,
    "schoolmaster": 15164,
    "law": 6116,
    "Ġbroadway": 23987,
    "Ġwheeled": 14140,
    "Ġtelegra": 11894,
    "Ġdescent": 987,
    "Ġfle": 3093,
    "Ġchoking": 15938,
    "Ġentertained": 10000,
    "athom": 12944,
    "mutually": 26137,
    "asting": 12810,
    "Ġpursue": 6315,
    "Ġconvincing": 19310,
    "Ġlasting": 18792,
    "achalot": 15865,
    "Ġmuff": 8115,
    "Ġtipped": 17729,
    "Ġslily": 23171,
    "bull": 13693,
    "Ġwonders": 7499,
    "pointing": 12228,
    "cottagers": 20051,
    "Ġunion": 6838,
    "favourable": 12267,
    "thanked": 24326,
    "Ġpack": 5444,
    "Ġharbour": 19983,
    "iod": 3840,
    "abs": 11669,
    "corn": 13702,
    "Ġ275": 20114,
    "Ġlabour": 7273,
    "Ġoriginally": 7303,
    "Ġproflig": 23569,
    "Ġpriest": 7525,
    "Ġdifficult": 3571,
    "Ġseparate": 5778,
    "atural": 937,
    "Ġhire": 21489,
    "è": 169,
    "glorious": 19370,
    "Ġcongreg": 8464,
    "Ġbruised": 25773,
    "Ġsubterranean": 13614,
    "compared": 24037,
    "Ġstall": 12700,
    "Ġdisabled": 18562,
    "Ġvilla": 14749,
    "Ġdin": 3626,
    "arn": 358,
    "lott": 6652,
    "Ġdespair": 4008,
    "Ġelegance": 11333,
    "Ġjobs": 24833,
    "Ġdiction": 8798,
    "Ġperform": 1037,
    "Ġtwit": 12933,
    "Ġarticulate": 24431,
    "Ġlucifers": 16589,
    "Ġloomings": 24952,
    "mortar": 25409,
    "produ": 10721,
    "Ġalacrity": 15741,
    "insufferable": 21195,
    "devoted": 20020,
    "Ġroaring": 10969,
    "Ġundoubtedly": 8314,
    "gen": 6503,
    "Į": 239,
    "Ġstat": 1490,
    "Ġbehav": 3540,
    "Ġindian": 4129,
    "Ġfiery": 6870,
    "Ġlecture": 13570,
    "Ġcrad": 21352,
    "hend": 13256,
    "autumn": 23345,
    "Ġbowditch": 19325,
    "Ġprospect": 4707,
    "vellers": 16675,
    "Ġunfortunate": 5376,
    "ividually": 22085,
    "Ġaltered": 7392,
    "Ġalternately": 15033,
    "va": 4744,
    "Ġsimultaneously": 4311,
    "rers": 14720,
    "olently": 15758,
    "Ġcenturies": 8626,
    "ici": 8442,
    "Ġrequesting": 24634,
    "ais": 8072,
    "ivorous": 22084,
    "Ġjoints": 12039,
    "ounts": 4653,
    "iting": 2159,
    "inea": 7623,
    "Ġinex": 6528,
    "Ġpropag": 16351,
    "Ġoffices": 14337,
    "Ġsinks": 19552,
    "mal": 6794,
    "Ġeastward": 13393,
    "Ġadvertising": 25390,
    "Ġinsince": 23678,
    "critters": 14777,
    "Ġheadstrong": 14390,
    "Ġthereupon": 18435,
    "Ġnod": 1888,
    "Ġtoils": 10187,
    "ouble": 2662,
    "Ġsoftness": 18919,
    "Ġpatted": 16383,
    "Ġseized": 4835,
    "Ġfishe": 15590,
    "preservation": 25306,
    "Ġstifle": 18076,
    "arson": 22753,
    "looking": 4032,
    "Ġtidy": 17093,
    "xes": 21143,
    "Ġ49": 24084,
    "Ġinsists": 23677,
    "Ġninetieth": 25358,
    "Ġsacred": 10931,
    "ober": 15409,
    "ensation": 22550,
    "strangely": 17278,
    "travel": 24336,
    "Ġblasted": 7939,
    "Ġcurse": 7667,
    "evenings": 19466,
    "Ġemail": 19076,
    "Ġobeyed": 12220,
    "ds": 4689,
    "Ġtable": 2499,
    "Ġfinny": 23130,
    "omist": 21642,
    "Ġcomplain": 6686,
    "Ġicy": 10748,
    "Ġsnapped": 9898,
    "Ġcanoes": 12809,
    "Ġmonster": 3793,
    "Ġnovelty": 13466,
    "plunging": 25988,
    "Ġafloat": 9310,
    "erable": 1917,
    "provided": 13640,
    "ificant": 22214,
    "par": 1849,
    "iply": 22363,
    "Ġburg": 23653,
    "Ġbecomes": 6396,
    "Ġsaws": 23053,
    "Ġhelping": 3266,
    "taste": 10131,
    "Ġcondemned": 7779,
    "pockets": 16213,
    "rely": 6124,
    "Ġtwins": 16124,
    "Ġpair": 5706,
    "Ġsufferings": 7512,
    "hero": 21207,
    "Ġakin": 15498,
    "Ġrivers": 9444,
    "Ġembedd": 1418,
    "au": 778,
    "Ġovertaken": 18431,
    "Ġdull": 6384,
    "Ġrelated": 3715,
    "Ġcompanies": 14559,
    "Ġprocedural": 12034,
    "ines": 674,
    "Ġapplies": 11962,
    "Ġlydia": 2375,
    "Ġnatures": 16507,
    "Ġlandlord": 5580,
    "draw": 23903,
    "Ġcomprehend": 6494,
    "Ġexcavating": 23318,
    "seam": 10875,
    "rifle": 21049,
    "Ġdidst": 11852,
    "hampshire": 23268,
    "aze": 10077,
    "Ġimposed": 14216,
    "anim": 6522,
    "Ġwall": 3843,
    "Ġfaultless": 24539,
    "¼": 125,
    "Ġsteady": 4849,
    "plague": 21958,
    "links": 20960,
    "Ġanticipated": 13513,
    "Ġgradient": 449,
    "attent": 9361,
    "Ġvector": 1971,
    "pagans": 25526,
    "Ġsuspend": 14609,
    "work": 1846,
    "nial": 20986,
    "Ġhigh": 930,
    "Ġprying": 15613,
    "princ": 8624,
    "Ġushered": 18360,
    "instant": 8655,
    "Ġtrusty": 24105,
    "dancing": 12458,
    "handle": 11192,
    "fooled": 24418,
    "Ġmock": 3692,
    "Ġsymptom": 13486,
    "Ġfreedom": 9084,
    "assisted": 22311,
    "Ġarthur": 7195,
    "interest": 5421,
    "furniture": 20245,
    "andy": 8159,
    "armed": 7250,
    "rarely": 21638,
    "fluttering": 23976,
    "Ġsecurely": 16803,
    "mansion": 20985,
    "since": 5896,
    "initions": 21190,
    "Ġcontinues": 18810,
    "ited": 1750,
    "rowed": 22866,
    "Ġcentury": 8292,
    "ards": 2504,
    "cable": 20799,
    "Ġprim": 8245,
    "Ġmau": 21313,
    "bell": 7331,
    "Ġduties": 6610,
    "Ġtrading": 23082,
    "Ġfolios": 23022,
    "hardly": 6491,
    "Ġheaven": 3365,
    "v": 90,
    "Ġchron": 19441,
    "steam": 23963,
    "Ġdeliber": 7267,
    "Ġtarget": 2822,
    "Ġenjoys": 19453,
    "Ġsalutation": 12400,
    "Ġthrilling": 19751,
    "Ġornamented": 20365,
    "speeches": 25240,
    "olog": 1085,
    "ologies": 18773,
    "Ġcrushing": 20179,
    "âĢľ_": 5720,
    "Ġwhereof": 16106,
    "liest": 6295,
    "tt": 13792,
    "Ġoblig": 3445,
    "Ġbone": 4696,
    "Ġaquiline": 26160,
    "followed": 8340,
    "..": 5783,
    "Ġmott": 17805,
    "Ġassociated": 12253,
    "Ġjesty": 18406,
    "Ġsigh": 10338,
    "urer": 18124,
    "particulars": 11316,
    "Ġcomprehension": 15089,
    "origin": 7581,
    "Ġwondering": 7972,
    "rity": 13778,
    "Ġkneel": 14809,
    "Ġgover": 2461,
    "Ġfur": 992,
    "Ġ104": 24411,
    "Ġslow": 2382,
    "ittle": 812,
    "Ġravings": 18649,
    "bewil": 22503,
    "Ġdaboll": 25951,
    "fleece": 19951,
    "ck": 436,
    "Ġviolation": 23409,
    "paused": 17376,
    "Ġaloft": 4303,
    "Ġquies": 18465,
    "Ġbutcher": 18272,
    "isance": 17849,
    "dar": 20826,
    "Ġteneriffe": 26415,
    "crime": 14776,
    "Ġnoiselessly": 22867,
    "compass": 9461,
    "Ġembark": 8559,
    "threw": 21989,
    "Ġcreditors": 20133,
    "Ġforeboding": 20387,
    "maul": 11895,
    "unable": 14061,
    "Ġfrosts": 19805,
    "Ġmythologies": 26215,
    "ables": 7892,
    "Ġant": 4345,
    "Ġperempt": 13676,
    "Ġcoherent": 3262,
    "Ġguardianship": 17422,
    "ustry": 18362,
    "ĠâĢľâĢĺ_": 25114,
    "values": 4973,
    "was": 1421,
    "Ġdistension": 22509,
    "Ġsmothe": 18574,
    "caught": 8730,
    "Ġmiss": 1231,
    "silly": 24421,
    "Ġpatient": 6894,
    "ivation": 3112,
    "unguarded": 23668,
    "Ġdish": 6137,
    "Ġarrest": 7408,
    "contrivance": 26317,
    "Ġdiscu": 4363,
    "ribs": 23369,
    "robe": 15646,
    "fif": 9118,
    "inguish": 9399,
    "Ġpauper": 26180,
    "yingly": 23119,
    "Ġconsider": 2570,
    "Ġridicule": 13514,
    "Ġhasten": 10479,
    "msman": 9272,
    "ift": 1604,
    "Ġshone": 7403,
    "Ġformless": 22833,
    "Ġinsight": 16531,
    "discrimin": 19611,
    "Ġdiscipline": 26562,
    "Ġvirtue": 4923,
    "treatment": 20415,
    "ancies": 11586,
    "Ġcringed": 25943,
    "Ġlobes": 22120,
    "Ġfellows": 8258,
    "Ġferrule": 24516,
    "Ġanom": 12615,
    "Ġintroduced": 7691,
    "penet": 11071,
    "Ġexperiences": 13035,
    "Ġmerchantmen": 19862,
    "etition": 7381,
    "Ġsurrender": 16450,
    "asion": 5714,
    "observed": 7675,
    "Ê": 139,
    "Û": 156,
    "fashioned": 9572,
    "abilizing": 2925,
    "anting": 6412,
    "Ġafrican": 20140,
    "because": 4924,
    "carriage": 9948,
    "Ġmaternal": 11060,
    "rador": 19129,
    "7": 27,
    "Ġdomain": 3619,
    "Ġrefinement": 18698,
    "Ġrigged": 16718,
    "iscre": 17852,
    "Ġwretch": 6378,
    "Ġmightiest": 12964,
    "uing": 17694,
    "Ġarticles": 7109,
    "wholly": 10942,
    "ļ": 253,
    "urried": 21708,
    "Ġpeak": 16130,
    "Ġuntouched": 16468,
    "igan": 21703,
    "hauteur": 26392,
    "Ġhousemaid": 14468,
    "Ġcharles": 11959,
    "Ġsisterly": 16307,
    "iven": 1239,
    "appetite": 22851,
    "Ġnewly": 9340,
    "fastened": 19327,
    "atiously": 15525,
    "bestow": 16930,
    "Ġcats": 8981,
    "Ġtenderness": 12219,
    "bastian": 10675,
    "Ġberth": 8683,
    "Ġwhim": 14001,
    "run": 10722,
    "Ġcastles": 16641,
    "Ġdevelop": 1635,
    "Ġwhaler": 7519,
    "order": 1958,
    "?âĢĿ": 700,
    "Ġmalicious": 10559,
    "Ġslewed": 23388,
    "Ġloosed": 22117,
    "ensing": 12900,
    "Ġneurons": 976,
    "Ġkicked": 10583,
    "Ġbleak": 10560,
    "antages": 7191,
    "Ġoverlooked": 15978,
    "Ġcrosswise": 18887,
    "Ġreconciled": 13590,
    "Ġthinker": 22813,
    "rences": 9274,
    "Ġunsavory": 20709,
    "ales": 3315,
    "Ġpretended": 19316,
    "owl": 12687,
    "Ġpropontis": 17467,
    "ñ": 178,
    "Ġmusic": 5269,
    "Ġstriving": 8998,
    "sat": 4811,
    "Ġjour": 11767,
    "ellest": 21578,
    "Ġaccents": 14212,
    "Ġperceiving": 8878,
    "Ġlocker": 16912,
    "anthrop": 17384,
    "trifling": 19417,
    "salis": 25150,
    "phew": 6368,
    "reas": 988,
    "Ġcave": 10786,
    "Ġblunder": 18820,
    "sander": 11528,
    "poise": 6172,
    "Ġcelebrate": 26359,
    "Ġperiods": 13307,
    "Ġholland": 10367,
    "Ġcongratulations": 10582,
    "caused": 25520,
    "Ġhealthy": 10852,
    "Ġdeliverance": 15160,
    "ortal": 6266,
    "Ġpurse": 12013,
    "nurtured": 25525,
    "Ġbenjamin": 26568,
    "Ġvehemently": 26040,
    "natured": 7111,
    "Ġwarehouse": 20420,
    "Ġwh": 328,
    "fing": 13715,
    "awakened": 14455,
    "?âĢĿâĢĶ": 12899,
    "Ġtables": 9880,
    "jected": 22716,
    "Ġtargets": 4203,
    "Ġphilips": 5410,
    "Ġexaggerated": 25651,
    "Ġpractises": 23331,
    "ª": 108,
    "bree": 15317,
    "Ġsolemn": 4098,
    "Ġsophisticated": 1718,
    "Ġensue": 18191,
    "form": 497,
    "Ġdoctrine": 24199,
    "Ġrecollection": 6622,
    "experienced": 15124,
    "vi": 2376,
    "Ġloite": 22116,
    "Ġolive": 12569,
    "Ġunsh": 14117,
    "Ġconvert": 11846,
    "Ġinterchange": 16075,
    "Ġrings": 11702,
    "boots": 11127,
    "Ġinterrupted": 6344,
    "nearer": 22469,
    "}": 97,
    "Ġloved": 4601,
    "Ġquoin": 22423,
    "Ġlucy": 17972,
    "Ġsavannah": 17418,
    "seals": 21822,
    "Ġmoot": 22437,
    "Ġansw": 2206,
    "Ġsounding": 8266,
    "Ġunctuousness": 17236,
    "recollected": 25348,
    "Ġsafe": 5103,
    "gentleman": 7517,
    "Ġendured": 6074,
    "Ġclean": 5652,
    "Ġgrounds": 6750,
    "Ġneighbor": 25804,
    "Ġaffrighted": 13575,
    "Ġcreations": 18685,
    "Ġattentive": 9035,
    "Ġmole": 11794,
    "united": 14062,
    "vishnoo": 21122,
    "Ġmanager": 11772,
    "delights": 19704,
    "rians": 21930,
    "Ġplaited": 14285,
    "Ġvehicles": 10661,
    "Ġtren": 17722,
    "seeking": 17154,
    "charmed": 21700,
    "?âĢĻâĢĿ": 23645,
    "Ġhotel": 8654,
    "endar": 18365,
    "Ġchoose": 5983,
    "sleep": 6511,
    "ette": 15663,
    "Ġheap": 12682,
    "trade": 19647,
    "Ġdimension": 3241,
    "Ġtrumpet": 9575,
    "st": 316,
    "Ġsafer": 22175,
    "Ġtwisting": 18658,
    "Ġrocks": 6862,
    "more": 1031,
    "school": 10057,
    "bable": 8722,
    "Ġporthole": 24398,
    "Ġvain": 3630,
    "frightened": 17197,
    "influ": 9543,
    "Ġmedicine": 15209,
    "Ġsolar": 22888,
    "Ġethiop": 26156,
    "Ġomn": 8412,
    "Ġchances": 9265,
    "ears": 20847,
    "Ġtongue": 6348,
    "Ġtophet": 23575,
    "verse": 9690,
    "Ġglued": 20592,
    "Ġregiment": 6432,
    "Ġwon": 1665,
    "rength": 4099,
    "ertain": 1207,
    "fourth": 11329,
    "Ġmen": 1433,
    "Ġmccauley": 26428,
    "unhappy": 10239,
    "enthus": 17980,
    "Ġsummit": 7731,
    "ange": 1016,
    "ĠĠĠĠĠĠĠĠĠĠĠĠĠĠĠĠĠĠĠĠĠĠĠĠĠĠĠĠĠĠĠĠĠĠĠĠĠĠĠĠ": 4518,
    "Ġspeeches": 22667,
    "Ġrooted": 13172,
    "Ġrans": 21971,
    "Ġformed": 3884,
    "assemblies": 25957,
    "Ġabutted": 22280,
    "ws": 7354,
    "name": 6795,
    "Ġobst": 6285,
    "pense": 10370,
    "acc": 2535,
    "Ġbiases": 2401,
    "tering": 3807,
    "Ġscrutiny": 26016,
    "prairies": 20569,
    "despicable": 24639,
    "Ġsickbed": 24248,
    "Ġwoodlands": 23522,
    "Ġneedle": 8276,
    "Ġweaken": 21926,
    "Ġincredulity": 11312,
    "Ġdis": 695,
    "Ġamerican": 5061,
    "Ġtrifles": 16952,
    "Ġunde": 11715,
    "Ġswam": 6448,
    "Ġexplanatory": 22207,
    "invite": 25091,
    "Ġbluff": 16519,
    "Ġhungry": 10534,
    "Ġemboldened": 22978,
    "Ġimpenetrable": 17399,
    "pow": 10718,
    "Ġdistinctions": 18530,
    "eur": 7544,
    "meanwhile": 10611,
    "itories": 15553,
    "Ġmutter": 23957,
    "wreck": 21139,
    "Ġway": 1082,
    "harm": 13737,
    "Ġrushed": 4086,
    "Ġenabled": 9298,
    "Ġflies": 13029,
    "Ġbasin": 19850,
    "Ġwhitewashed": 14472,
    "Ġrowing": 10302,
    "Ġcharted": 22255,
    "Ġfeeds": 16437,
    "ilingly": 21728,
    "iterranean": 15554,
    "bert": 4664,
    "thern": 4953,
    "silenced": 24422,
    "Ġetext": 23953,
    "ve": 322,
    "Ġincludes": 2009,
    "Ġtransplanted": 22446,
    "Ġblinding": 14730,
    "Ġsecretary": 19445,
    "Ġaccompan": 5513,
    "Ġmalays": 19680,
    "mont": 19171,
    "Ġdevouring": 11862,
    "Ġnourishment": 15195,
    "Ġcountess": 11967,
    "anous": 21362,
    "Ġbugs": 13651,
    "Ġlegendary": 20540,
    "Ġcloak": 9536,
    "races": 21634,
    "Ġunavailing": 26217,
    "Ġblack": 2030,
    "Ġsufferer": 16260,
    "Ġpreced": 6041,
    "enge": 21283,
    "Ġmutilated": 23962,
    "Ġbishop": 13904,
    "ď": 208,
    "Ġparliament": 18303,
    "Ġhas": 825,
    "Ġjon": 15952,
    "brew": 11474,
    "computer": 2065,
    "Ġclimates": 25053,
    "Ġinform": 998,
    "Ġshares": 23250,
    "chess": 16575,
    "Ġmachine": 798,
    "obli": 23098,
    "Ġdivineness": 25724,
    "mph": 20974,
    "Ġlbs": 11617,
    "Ġdeliciousness": 24127,
    "Ġmich": 21308,
    "Ġcontact": 9283,
    "Ġdepresses": 25798,
    "proud": 9906,
    "Ġ66": 24368,
    "cet": 15327,
    "oons": 12502,
    "Ġconscious": 7744,
    "Ġjabbering": 22308,
    "Ġday": 955,
    "Ġcapacity": 10441,
    "Ġvulture": 17341,
    "intments": 18822,
    "triumph": 15443,
    "Ġtroubling": 26548,
    "Ġconcern": 2587,
    "Ġcontr": 1916,
    "glancing": 11215,
    "Ġtransformations": 3484,
    "experience": 17160,
    "Ġsettling": 11063,
    "detached": 19677,
    "Ġcask": 5527,
    "Ġoccupied": 5273,
    "Ġtil": 12528,
    "Ġreplenished": 13639,
    "Ġlaughing": 5339,
    "Ġsemicircle": 26068,
    "Ġnour": 10831,
    "eye": 6225,
    "Ġindelicacy": 25696,
    "corrid": 24483,
    "ortunity": 4404,
    "Ġincreas": 1692,
    "ily": 1030,
    "Ġbuttoned": 25369,
    "Ġnative": 4642,
    "Ġindic": 2887,
    "Ġeleven": 9392,
    "Ġdescrying": 18619,
    "Ġpag": 6012,
    "extreme": 11030,
    "expound": 23662,
    "Ġhaws": 21956,
    "introduce": 25187,
    "Ġpreparing": 8651,
    "osop": 4405,
    "Ġlizzy": 3546,
    "<SOS>": 1,
    "output": 4402,
    "Ġ87": 19713,
    "alarm": 15631,
    "Ġruffled": 25837,
    "Ġmortifying": 13249,
    "certainly": 5340,
    "Ġresolving": 9421,
    "Ġnocturnal": 20717,
    "isure": 6241,
    "Ġgracechurch": 12202,
    "Ġdemocracy": 25459,
    "Ġfork": 15736,
    "Ġingolstadt": 8334,
    "fth": 20858,
    "affection": 7486,
    "Ġtumult": 7115,
    "Ġaccidents": 10297,
    "combination": 25487,
    "Ġboth": 1656,
    "spread": 8390,
    "Ġoutdone": 22323,
    "wal": 10135,
    "Ġ95": 19776,
    "aculate": 16086,
    "unteered": 26496,
    "namely": 23744,
    "handled": 19263,
    "paradise": 20640,
    "rential": 22923,
    "Ġunallied": 22037,
    "Ġrope": 4338,
    "swift": 14854,
    "Ġlethar": 21751,
    "mmed": 7916,
    "desolate": 25717,
    "Ġpronouncing": 16970,
    "Ġcomfortably": 16616,
    "Ġsurely": 6308,
    "vius": 23542,
    "nosed": 20994,
    "knew": 9128,
    "safie": 20351,
    "ateful": 5928,
    "Ġprofess": 3699,
    "locks": 14458,
    "attacks": 23126,
    "Ġwrites": 23204,
    "Ġum": 10213,
    "Ġrecognise": 12030,
    "Ġwashed": 15769,
    "Ġthickening": 24028,
    "Ġexcite": 11969,
    "Ġineff": 12638,
    "ug": 1766,
    "popular": 26141,
    "del": 4075,
    "Ġthinnest": 24185,
    "adjust": 21764,
    "Ġcumul": 4176,
    "legged": 10466,
    "Ġdome": 15593,
    "ogue": 9784,
    "peleg": 16297,
    "Ġcarpets": 18903,
    "Ġfreed": 7266,
    "Ġenormity": 19698,
    "Ġadro": 15871,
    "ven": 780,
    "Ġassistant": 7297,
    "itions": 4145,
    "omination": 21646,
    "Ġoccasioned": 13231,
    "cceed": 4140,
    "Ġimpartial": 15222,
    "Ġanyways": 22525,
    "Ġpersuaded": 5769,
    "Ġbulldog": 23862,
    "asis": 12654,
    "presbyterian": 26370,
    "rever": 21238,
    "clergyman": 20731,
    "atches": 13848,
    "instrument": 15241,
    "Ġporch": 19683,
    "Ġmiz": 10778,
    "an": 278,
    "Ġdance": 4444,
    "Ġcatastrophe": 10485,
    "L": 48,
    "Ġarm": 2492,
    "Ġinteractions": 12907,
    "Ġinvolves": 1064,
    "Ġunh": 9255,
    "seriously": 18906,
    "Ġassistance": 6334,
    "Ġgobern": 22430,
    "aught": 2680,
    "Ġgaped": 13969,
    "Ġattractions": 12920,
    "Ġstrangely": 5677,
    "ly": 319,
    "Ġimproved": 7655,
    "walks": 19724,
    "interesting": 12205,
    "elijah": 19476,
    "Ġpuff": 6526,
    "Ġoverwhelmed": 11404,
    "iron": 3439,
    "ff": 461,
    "Ġcharity": 8865,
    "Ġbulkhead": 24507,
    "Ġgestic": 21612,
    "Ġhost": 7069,
    "Ġchimneys": 16973,
    "Ġgore": 17991,
    "bbed": 6909,
    "Ġpol": 2578,
    "Ġminiature": 11040,
    "Ġgreedily": 18966,
    "learned": 8603,
    "orial": 8419,
    "Ġsecretly": 13274,
    "Ġcrystals": 20230,
    "Ġcocks": 18598,
    "ete": 9205,
    "Ġsallow": 12540,
    "Ġcrawford": 24894,
    "Ġinterlude": 16074,
    "plex": 705,
    "heartily": 24217,
    "es": 288,
    "icking": 8913,
    "Ġdr": 2825,
    "cen": 17504,
    "kshire": 13748,
    "begging": 22502,
    "Ġdrowned": 9554,
    "Ġboard": 3383,
    "Ġembarrassment": 10628,
    "Ġentranced": 25835,
    "Ġphil": 3385,
    "Ġagatha": 6865,
    "Ġdispleased": 18556,
    "questions": 16761,
    "Ġunav": 18241,
    "Ġalleg": 14019,
    "Ġhur": 2099,
    "Ġbestow": 6455,
    "great": 3517,
    "Ġtherein": 11779,
    "savage": 15078,
    "Ġservants": 6611,
    "helmsman": 24288,
    "Ġridges": 16732,
    "Ġhindrance": 25221,
    "Ġeffected": 14355,
    "usiveness": 22298,
    "Ġsideways": 6183,
    "ram": 13974,
    "inside": 23069,
    "Ġexercise": 8360,
    "Ġdece": 6996,
    "Ġmail": 17802,
    "cent": 8074,
    "Ġpy": 21455,
    "Ġverses": 17063,
    "gg": 1994,
    "Ġsimultaneous": 22592,
    "Ġallowed": 4057,
    "Ġwarrant": 17796,
    "Ġright": 1506,
    "smo": 10127,
    "Ġignorance": 6620,
    "Ġpomp": 12626,
    "further": 7534,
    "Ġpenetrating": 17012,
    "Ġdespairing": 14775,
    "Ġillinois": 19138,
    "reds": 12754,
    "Ġsuperlative": 26075,
    "Ġsacrilege": 26230,
    "Ġliberality": 24376,
    "Ġpaddington": 17095,
    "Ġmouthfuls": 20648,
    "Ġimages": 1598,
    "watson": 12247,
    "Ġvanishing": 1345,
    ").âĢĿ": 20743,
    "Ġdoll": 10814,
    "Ġsufficiently": 8975,
    "health": 13835,
    "anyone": 16594,
    "Ġfads": 21420,
    "ŀ": 257,
    "Ġconsum": 9801,
    "Ġvote": 21952,
    "nose": 17611,
    "Ġpresence": 5031,
    "madness": 14884,
    "Ġlirra": 21564,
    "spe": 3560,
    "hers": 7635,
    "Ġsplitting": 4383,
    "Ġoccasional": 7288,
    "crated": 16684,
    "Ġpanelled": 19657,
    "Ġpardon": 5727,
    "Ġxli": 14543,
    "Ġclanking": 20614,
    "Ġsoldier": 16921,
    "Ġpatter": 858,
    "Ġunprecedented": 15858,
    "ituted": 13875,
    "herds": 22208,
    "rendering": 22345,
    "Ġpolitics": 19227,
    "ole": 9615,
    "Ġengagements": 9980,
    "Ġawakened": 10454,
    "unsuitable": 21898,
    "Ġcontradictory": 20400,
    "Ġdeclare": 6615,
    "etween": 776,
    "pierced": 26142,
    "Ġasiatic": 20433,
    "Ġslippers": 19618,
    "Ġgreeting": 18964,
    "Ġassembl": 20064,
    "Ġlieuten": 13330,
    "ning": 948,
    "Ġhedge": 8365,
    "slept": 17171,
    "ribute": 7224,
    "decoder": 3645,
    "aguy": 21915,
    "Ġwreck": 7313,
    "watching": 16931,
    "urry": 13996,
    "australian": 20564,
    "arab": 21445,
    "Ġimmort": 19487,
    "Ġinquired": 7484,
    "onden": 13846,
    "Ġtinge": 25090,
    "Ġmadam": 5663,
    "gh": 3801,
    "drown": 13707,
    "Ġswashing": 23060,
    "Ġscold": 10951,
    "encouragement": 17425,
    "pute": 8848,
    "Ġmississ": 18840,
    "iters": 21332,
    "prolong": 23398,
    "mong": 15392,
    "entiful": 10837,
    "ications": 4447,
    "Ġscenery": 11457,
    "happening": 16566,
    "Ġflirting": 16252,
    "blacksmith": 17002,
    "mastod": 23977,
    "Ġstalls": 25648,
    "ishing": 1145,
    "Ġsuccessful": 9925,
    "keeping": 8638,
    "Ġmoisture": 12362,
    "Ġevaluation": 16562,
    "Ã¦us": 14819,
    "Ġpeninsula": 23202,
    "Ġnowadays": 18547,
    "aps": 1230,
    "Ġdaring": 8122,
    "Ġlocks": 11727,
    "Ġregards": 16077,
    "rrh": 26145,
    "akes": 2220,
    "Ġeducation": 5128,
    "ises": 3654,
    "jackets": 24896,
    "Ġtumb": 21172,
    "Ġportrait": 10663,
    "Ġcounsel": 13618,
    "Ġnumerical": 4245,
    "Ġbaronial": 23796,
    "Ġlac": 17967,
    "lady": 4435,
    "Ġnetwork": 451,
    "Ġturban": 23615,
    "fit": 6647,
    "woes": 21136,
    "spell": 22741,
    "Ġloom": 7628,
    "Ġineffectual": 17386,
    "Ġdisposition": 5409,
    "Ġfeebly": 24878,
    "Ġtearing": 14396,
    "Ġhappy": 2465,
    "Ġamaz": 5385,
    "Ġavalanche": 17435,
    "Ġtreble": 16505,
    "Ġbolt": 11335,
    "Ġostrich": 26431,
    "ĠĠĠĠĠĠĠĠĠĠĠĠĠĠĠĠĠĠĠĠĠĠĠĠĠĠĠĠĠĠĠĠĠĠ": 14614,
    "Ġarchitect": 974,
    "Ġbristles": 25845,
    "dition": 15341,
    "hmael": 7341,
    "Ġlord": 2966,
    "Ġdrow": 21430,
    "Ġinexper": 16981,
    "Ġensemble": 1605,
    "ibbald": 18849,
    "behaviour": 11302,
    "leo": 21367,
    "rels": 6666,
    "ships": 5486,
    "Ġpress": 5933,
    "Ġpow": 4639,
    "Ġbil": 15569,
    "Ġlodge": 5779,
    "iceland": 21570,
    "verdict": 21734,
    "Ġav": 3581,
    "indust": 18436,
    "intolerable": 22942,
    "Ġcaterpillar": 5865,
    "Ġdial": 10811,
    "horizon": 23617,
    "Ġregarded": 5762,
    "Ġglobe": 6077,
    "patient": 25343,
    "kinson": 10028,
    "Ġcustomary": 8673,
    "¦": 104,
    "Ġparlor": 13542,
    "Ì": 141,
    "Ġthough": 993,
    "Ġresponsible": 9888,
    "clo": 5612,
    "Ġproximity": 3221,
    "Ġlens": 8440,
    "ause": 1312,
    "Ġstack": 21738,
    "Ġbes": 2661,
    "declined": 25175,
    "gust": 6361,
    "Ġscener": 10950,
    "Ġcompletion": 12151,
    "oniously": 21260,
    "Ġpromptly": 23821,
    "Ġgroping": 13668,
    "aries": 6245,
    "Ġghostly": 24651,
    "notches": 22755,
    "Ġslaugh": 18941,
    "Ġchowders": 18387,
    "Ġintersect": 22580,
    "loom": 18536,
    "Ġabated": 18391,
    "Ġsluggishly": 25892,
    "ith": 330,
    "Ġapple": 14168,
    "Ġtransfer": 2241,
    "Ġsulky": 13517,
    "page": 13773,
    "Ġparsee": 6413,
    "Ġcon": 348,
    "appre": 14373,
    "Ġrode": 16004,
    "Ġclinging": 10293,
    "Ġsur": 2186,
    "Ġagencies": 18542,
    "Ġverte": 9443,
    "oin": 17618,
    "Ġsheltered": 19913,
    "Ġreceived": 2952,
    "Ġdearest": 5457,
    "Ġpatentee": 25587,
    "weaknesses": 26031,
    "Ġlift": 8814,
    "ontory": 10460,
    "Ġreceives": 20357,
    "Ġpointing": 5661,
    "Ġcruel": 5121,
    "police": 10585,
    "Ġlake": 5227,
    "Ġimped": 18444,
    "osque": 22267,
    "idered": 4555,
    "Ġarrow": 10932,
    "naturally": 14581,
    "treated": 21097,
    "Ġdusting": 24598,
    "Ġpeeled": 14320,
    "Ġbuild": 6474,
    "Ġ1778": 25730,
    "fre": 5425,
    "irectly": 6939,
    "definition": 23122,
    "Ġjudging": 16596,
    "Ġenchantment": 24870,
    "stories": 18026,
    "Ġterrified": 14673,
    "Ġveiled": 16204,
    "Ġamendment": 26025,
    "Ġplu": 8802,
    "Ġruins": 16160,
    "wretchedness": 17254,
    "Ġaspects": 4171,
    "Ġyesterday": 5333,
    "arranging": 19320,
    "Ġfeat": 10938,
    "Ġmiscellaneous": 17464,
    "Ġpitied": 14693,
    "Ġje": 4121,
    "Ġeuroclydon": 15299,
    "Ġfossiliferous": 25610,
    "obtained": 23099,
    "spir": 5738,
    "transformer": 25018,
    "misfortunes": 16757,
    "Ġsignal": 5946,
    "Ġcaucus": 17382,
    "Ġrefrain": 12950,
    "Ġcondition": 6764,
    "reat": 616,
    "Ġdundee": 16998,
    "Ġyea": 8918,
    "Ġfiltering": 23930,
    "Ġbearing": 5300,
    "Ġtrooped": 24900,
    "Ġatrocious": 21948,
    "Ġextras": 22764,
    "Ġmorals": 22981,
    "Ġth": 299,
    "Ġpennies": 17272,
    "stood": 4114,
    "Ġsword": 6733,
    "Ġvexation": 10588,
    "Ġnieces": 8435,
    "Ġindignantly": 16940,
    "Ġconstitutional": 25128,
    "Ġdames": 23475,
    "Ġcorruption": 15228,
    "ton": 1727,
    "Ġrestored": 7067,
    "Ġoverjoy": 15976,
    "Ġagree": 7646,
    "ics": 3256,
    "feeders": 25236,
    "Ġsagacious": 14973,
    "Ġromish": 19587,
    "que": 1126,
    "Ġberkshire": 16885,
    "iated": 5891,
    "Ġconcealing": 23906,
    "istol": 6260,
    "Ġincident": 6281,
    "complain": 14362,
    "Ġplaguy": 22608,
    "olstadt": 7789,
    "Ġsooty": 25816,
    "Ġtoward": 17949,
    "æ": 167,
    "iem": 20919,
    "Ġneedn": 19231,
    "Ġdefile": 18825,
    "ě": 220,
    "Ġagon": 10322,
    "Ġsounds": 5190,
    "burg": 16774,
    "Ġvill": 3877,
    "Ġslanting": 23179,
    "encing": 21285,
    "Ġisinglass": 21807,
    "remed": 18956,
    "scent": 13025,
    "violets": 23544,
    "ection": 4948,
    "sust": 15425,
    "Ġdamned": 13135,
    "Ġtemples": 18641,
    "recur": 4439,
    "Ġwaif": 9377,
    "Ġthirty": 4944,
    "monster": 8595,
    "Ġtalker": 23374,
    "Ġmuffled": 10642,
    "Ġrepul": 16413,
    "impropriety": 21717,
    "Ġcompare": 9304,
    "Ġbec": 1348,
    "Ġadhering": 14141,
    "acknowledged": 15205,
    "Ġoperate": 19117,
    "Ġknot": 7012,
    "Ġshipped": 9717,
    "Ġseap": 15821,
    "orers": 14105,
    "Ġimagenet": 19248,
    "ropri": 2183,
    "Ġconsidering": 4617,
    "._]]": 5335,
    "compan": 7300,
    "Ġchoosing": 19593,
    "Ġpeeping": 16131,
    "andromeda": 21873,
    "iminished": 19022,
    "ologically": 22882,
    "Ġplate": 8901,
    "Ġloosened": 26003,
    "Ġjonah": 3480,
    "Ġmercifully": 20181,
    "Ġdisplays": 19859,
    "Ġparl": 8179,
    "Ġstre": 2107,
    "ide": 722,
    "Ġclaimed": 14202,
    "ering": 1267,
    "Ġagric": 22520,
    "nowledge": 10291,
    "Ġpredicting": 2418,
    "Ġmomentous": 16173,
    "tubes": 25212,
    "Ġcork": 12573,
    "Ġunful": 22016,
    "Ġexacted": 23605,
    "Ġtorrents": 20059,
    "Ġcash": 9654,
    "Ġhymn": 24517,
    "Ġgases": 21606,
    "Ġnight": 1465,
    "whether": 5320,
    "cery": 20810,
    "supportable": 12373,
    "Ġheadsmen": 14734,
    "Ġdesperation": 19821,
    "isters": 11921,
    "õ": 182,
    "Ġcarted": 21353,
    "ility": 624,
    "abouts": 9454,
    "Ġpetersburgh": 24230,
    "Ġsuff": 1301,
    "Ġdepl": 14046,
    "wling": 11546,
    "Ġbackwards": 12928,
    "Ġstoke": 10397,
    "Ġ\"": 6120,
    "lantic": 6364,
    "lemagne": 26437,
    "spending": 18691,
    "Ġirregularly": 25324,
    "Ġladyship": 5046,
    "Ġconceals": 23907,
    "Ġshook": 4470,
    "strength": 13982,
    "Ġforwarded": 19041,
    "Ġdairy": 20689,
    "Ġrubbing": 9322,
    "dignity": 15348,
    "one": 615,
    "Ġfanning": 23393,
    "Ġpeterson": 9485,
    "Ġbluish": 23651,
    "Ġspecially": 12000,
    "Ġmilan": 19538,
    "land": 1534,
    "Ġrigid": 16717,
    "Ġtake": 1578,
    "Ġxvi": 19106,
    "exciting": 19671,
    "laborers": 23919,
    "isco": 12585,
    "joint": 24012,
    "_.âĢĻâĢĿ": 17481,
    "Ġwindibank": 7256,
    "Ġfinery": 23129,
    "Ġhypothe": 4073,
    "Ġfreshness": 23991,
    "knell": 24554,
    "division": 20052,
    "mechanically": 17302,
    "familiar": 19786,
    "Ġmann": 18417,
    "zeal": 16287,
    "twilight": 23701,
    "lev": 1238,
    "Ġsay": 931,
    "rints": 12506,
    "Ġunprincipled": 20710,
    "Ġyear": 3284,
    "Ġmajestic": 8643,
    "Ġ130": 24780,
    "Ġglorious": 11076,
    "queens": 22904,
    "ravity": 21639,
    "sav": 8098,
    "mean": 6438,
    "Ġobeying": 13417,
    "ulates": 14057,
    "Ġmutinous": 23961,
    "ge": 560,
    "Ġste": 1386,
    "wis": 12522,
    "Ġsoapstone": 20514,
    "self": 617,
    "Ġmoonlight": 9960,
    "Ġdeserve": 8310,
    "Ġghost": 6143,
    "Ġbuying": 23999,
    "Ġaustrian": 24301,
    "from": 1989,
    "Ġsweet": 3465,
    "Ġpatagon": 14509,
    "Ġparched": 11730,
    "Ġcaw": 13885,
    "oms": 4595,
    "alley": 23025,
    "would": 2353,
    "allowed": 5728,
    "oftentimes": 19424,
    "Ġloveliness": 13611,
    "Ġopposed": 11190,
    "Ġrefreshment": 17241,
    "ouncement": 11748,
    "ever": 1074,
    "Ġadieus": 25113,
    "Ġcolds": 23760,
    "Ġflashes": 11918,
    "grace": 5847,
    "dilig": 17284,
    "Ġrewarding": 13440,
    "Ġgoing": 2066,
    "Ġswarming": 16275,
    "west": 10740,
    "unworthy": 18164,
    "crimin": 17510,
    "heric": 15915,
    "estruct": 22228,
    "Ġbeth": 9659,
    "Ġrefers": 1567,
    "Ġtheories": 13851,
    "Ġchained": 16391,
    "Ġhogarth": 25781,
    "Ġsummary": 19406,
    "Ġbranded": 14381,
    "Ġconfluent": 19038,
    "injury": 25214,
    "equally": 19901,
    "Ġforts": 21777,
    "ccarthy": 4890,
    "Ġsepul": 14092,
    "Ġpour": 13916,
    "Ġlimbs": 5967,
    "Ġdelight": 2549,
    "Ġconfusing": 23310,
    "ifford": 15788,
    "Ġdrama": 16331,
    "fered": 5559,
    "Ġapothe": 12378,
    "vic": 13804,
    "pres": 16032,
    "Ġcyl": 15561,
    "immedi": 8452,
    "thousand": 5546,
    "gra": 770,
    "owe": 15712,
    "Ġterrify": 19364,
    "sol": 1790,
    "Ġbeautifully": 13270,
    "isons": 17851,
    "illustration": 2283,
    "Ġslappin": 18946,
    "Ġcheap": 13092,
    "Ġ103": 24410,
    "Ġexcl": 3475,
    "Ġdrug": 11411,
    "Ġresolution": 5500,
    "Ġ1828": 25720,
    "Ġsoundings": 13136,
    "Ġmists": 14631,
    "Ġthine": 7373,
    "ogne": 12940,
    "Ġvillage": 5774,
    "surf": 24214,
    "task": 13795,
    "Ġsill": 10766,
    "Ġprofoundest": 16861,
    "Ġflowers": 8942,
    "relatively": 24017,
    "Ġemigrant": 25860,
    "Ġcrews": 8992,
    "Ġshad": 3850,
    "verity": 14003,
    "Ġcollar": 11882,
    "Ġannouncing": 16755,
    "Ġdoubled": 19640,
    "put": 414,
    "metallic": 19882,
    "stem": 569,
    "Ġcolleague": 17161,
    "Ġduncan": 13464,
    "tures": 21072,
    "profitable": 17071,
    "Ġmis": 916,
    "Ġgloss": 11960,
    "Ġmaketh": 15190,
    "Ġheighten": 19532,
    "Ġmelbourne": 24290,
    "Ġgot": 2280,
    "Ġdeigned": 18141,
    "burnt": 20083,
    "safety": 20352,
    "Ġfac": 6381,
    "Ġaccumulated": 11934,
    "ezes": 9993,
    "Ġproposed": 7459,
    "soled": 14333,
    "wives": 15458,
    "Ġabominate": 20068,
    "formed": 2555,
    "sens": 8097,
    "Ġaw": 2509,
    "claimed": 9838,
    "Ġbelongs": 8016,
    "lance": 12485,
    "Ġyelling": 18099,
    "achine": 608,
    "uc": 1876,
    "Ġlonger": 3360,
    "Ġabsorbed": 12334,
    "Ġantip": 24179,
    "Ġbronze": 22871,
    "Ġspind": 18308,
    "ters": 1573,
    "Ġdrinking": 12172,
    "Ġcreates": 2007,
    "aging": 2239,
    "Ġlegit": 16475,
    "etymology": 14703,
    "Ġshoots": 14569,
    "Ġprestige": 22241,
    "underneath": 23791,
    "Ġomen": 11578,
    "Ġundulates": 24119,
    "Ġstammered": 26201,
    "iloquent": 21730,
    "reached": 13843,
    "Ġmarvelled": 18874,
    "allet": 11083,
    "Ġinstrum": 6056,
    "Ġdisgusting": 19896,
    "arched": 10816,
    "Ġhoisting": 9864,
    "wich": 11545,
    "eldest": 22807,
    "Ġrecent": 7434,
    "Ġcrept": 11022,
    "Ġintruding": 21996,
    "Ġcaged": 21355,
    "Ġwander": 9033,
    "Ġgrassy": 24378,
    "Ġpresenting": 18989,
    "difficulty": 12393,
    "ascertaining": 26461,
    "Ġincantation": 26259,
    "Ġabandonment": 25604,
    "Ġcost": 2505,
    "asleep": 21548,
    "uzza": 11271,
    "Ġinferred": 14501,
    "Ġsimpl": 1579,
    "Ġgasped": 11373,
    "Ġproudly": 19745,
    "Ġcaptivating": 26050,
    "Ġmonotonically": 3833,
    "Ġcomplaisance": 19452,
    "Ġdegenerated": 20509,
    "condition": 7060,
    "inferences": 17740,
    "Ġ1": 1013,
    "mysteries": 26051,
    "places": 7879,
    "Ġalex": 15136,
    "twinkle": 23702,
    "gunwale": 20665,
    "mate": 5359,
    "Ġspoke": 2745,
    "Ġhem": 8447,
    "Ġ59": 24322,
    "Ġcontemplation": 11358,
    "sprang": 19994,
    "Ġinterference": 8896,
    "omeness": 18018,
    "Ġsetbacks": 11064,
    "ý": 190,
    "shr": 10980,
    "cords": 25139,
    "Ġasyl": 12738,
    "Ġhighest": 3529,
    "oked": 4308,
    "etch": 9206,
    "Ġzeal": 9100,
    "limin": 8385,
    "Ġbaleful": 24987,
    "ay": 355,
    "Ġblotches": 25315,
    "Ġscare": 18397,
    "Ġgenerously": 22397,
    "poke": 18798,
    "adam": 15734,
    "dropping": 14984,
    "Ġwindings": 18911,
    "Ġaisle": 21204,
    "Ġboarding": 12090,
    "ov": 15403,
    "Ġstowing": 18074,
    "Ġket": 18348,
    "Ġthroes": 24574,
    "Ġverily": 16604,
    "Ġ112": 24436,
    "benefact": 24642,
    "Ġape": 21199,
    "Ġdowncast": 18652,
    "Ġtant": 12529,
    "ounced": 4954,
    "inform": 10145,
    "ork": 416,
    "Ġblinds": 8008,
    "Ġbrother": 2746,
    "Ġannihilation": 15168,
    ".âĢĶâĢľ": 20749,
    "involved": 25627,
    "arled": 21446,
    "rict": 8094,
    "Ġattraction": 18620,
    "bec": 4051,
    "do": 1993,
    "ourably": 14379,
    "easily": 17535,
    "is": 280,
    "Ġalleviated": 26205,
    "Ġgener": 582,
    "Ġrare": 7038,
    "Ġvulgar": 13607,
    "Ġter": 2048,
    "Ġbaby": 6638,
    "summon": 23419,
    "getting": 12971,
    "destro": 13313,
    "Ġparameter": 897,
    "Ġprender": 22240,
    "Ġquery": 2480,
    "Ġinitialization": 1255,
    "======": 9835,
    "Ġleaned": 7607,
    "storied": 18027,
    "Ġdancing": 5703,
    "Ġleech": 24156,
    "pits": 15415,
    "Ġdominant": 12399,
    "Ġencounter": 6629,
    "special": 14707,
    "urp": 1472,
    "Ġpovels": 22596,
    "Ġpitched": 9446,
    "neighbouring": 19967,
    "Ġpractically": 13105,
    "Ġalas": 5923,
    "Ġloose": 4650,
    "verty": 8454,
    "Ġlined": 15654,
    "Ġsabbee": 17257,
    "Ġentire": 2560,
    "iogn": 20923,
    "Ġlinear": 3432,
    "usoid": 4768,
    "Ġventured": 7500,
    "Ġinvented": 17037,
    "unfortunate": 15781,
    "Ġguise": 14434,
    "comp": 3816,
    "procure": 23400,
    "originally": 24940,
    "Ġnodded": 11972,
    "Ġinferiority": 17115,
    "Ġcard": 7362,
    "Ġencompassed": 15256,
    "Ġsigmoid": 2462,
    "exceedingly": 9568,
    "Ġhousekeeper": 7455,
    "stranger": 9885,
    "japan": 15377,
    "aved": 5475,
    "Ġwildly": 9416,
    "Ġwitnessed": 14846,
    "Ġunlim": 18254,
    "Ġ11": 5319,
    "Ġrepast": 16415,
    "Ġsuperl": 16446,
    "oot": 13767,
    "Ġamiss": 18511,
    "Ġamaze": 22488,
    "Ġfortunes": 12182,
    "Ġvarying": 15814,
    "Ġtools": 11611,
    "Ġmoist": 9287,
    "ampl": 21860,
    "Ġsaddest": 16664,
    "opportunity": 12278,
    "Ġbedrooms": 19973,
    "deliver": 19507,
    "car": 4211,
    "moid": 2450,
    "Ġdir": 21425,
    "Ġbas": 6380,
    "Ġrevelations": 25224,
    "Ġobe": 5801,
    "Ġinputs": 843,
    "Ġunderneath": 16341,
    "beyond": 8885,
    "bearers": 18522,
    "Ġblame": 6446,
    "Ġglobules": 26589,
    "Ġclang": 15966,
    "Ġindignity": 18835,
    "Ġcoincidence": 25484,
    "Ġcautiousness": 19868,
    "Ġwho": 612,
    "osh": 18389,
    "Ġhilarity": 20300,
    "ium": 4865,
    "Ġstockings": 20000,
    "Ġclothing": 18423,
    "shook": 19858,
    "Ġevidently": 6759,
    "Ġexposes": 22629,
    "Ġacc": 573,
    "arse": 7160,
    "ķ": 248,
    "inary": 3273,
    "Ġproud": 5654,
    "Ġrasc": 21979,
    "sought": 15430,
    "Ġere": 3686,
    "Ġstore": 8455,
    "Ġthinks": 6170,
    "Ġemblaz": 16238,
    "cord": 8727,
    "Ġencapsulate": 13677,
    "Ġsucceeding": 16762,
    "rust": 2582,
    "unnatural": 15777,
    "Ġdearer": 14051,
    "solut": 3364,
    "Ġloomed": 12304,
    "Ġvibrating": 13540,
    "Ġpend": 15610,
    "quod": 2166,
    "Ġassures": 14469,
    "anoke": 21364,
    "Ġdeem": 18136,
    "Ġinsol": 10182,
    "Ġreliably": 22883,
    "ostent": 16847,
    "cial": 2649,
    "Ġoverheard": 11777,
    "Ġdestination": 19151,
    "Ġequinoctial": 20535,
    "despair": 8345,
    "Ġcanaan": 22172,
    "_)": 9104,
    "Ġrefres": 14341,
    "ficial": 17549,
    "Ġchewed": 16373,
    "Ġlain": 17964,
    "Ġreconc": 9685,
    "Ġconnex": 10667,
    "Ġguilty": 7249,
    "ignified": 14491,
    "Ġtops": 14587,
    "Ġcommercial": 22678,
    "ved": 869,
    "Ġmorocco": 26574,
    "yea": 23091,
    "Ġthomson": 26455,
    "harrow": 20910,
    "Ġslain": 8955,
    "collect": 16565,
    "urable": 8927,
    "ous": 477,
    "Ġwarning": 9060,
    "Ġhilariously": 25451,
    "Ġ181": 23899,
    "Ġhumane": 11887,
    "Ġcollateral": 20075,
    "Ġwee": 21923,
    "Ġmad": 2428,
    "afterwards": 7483,
    "Ġblossom": 26313,
    "Ġtoiled": 12646,
    "counter": 20281,
    "Ġchanging": 11756,
    "nue": 15399,
    "Ġindication": 22956,
    "Ġprometheus": 15295,
    "Ġphiladelphia": 26605,
    "perpendicular": 14166,
    "moved": 9787,
    "Ġrambling": 18647,
    "twas": 15440,
    "jury": 15376,
    "Ġsauc": 15891,
    "Ġlike": 667,
    "little": 3352,
    "Ġfacet": 15589,
    "mical": 9130,
    "Ġcarpent": 4467,
    "Ġsuite": 18279,
    "Ġgoverning": 2793,
    "Ġweb": 9242,
    "Ġterra": 13120,
    "Ġmistaken": 4986,
    "izz": 7613,
    "overcoat": 19049,
    "loun": 17589,
    "prick": 19346,
    "Ġmake": 1283,
    "ron": 5216,
    "50": 6784,
    "cri": 17507,
    "hib": 15370,
    "Ġworsted": 19998,
    "Ġtantalizing": 20417,
    "Ġenvelopes": 24506,
    "itely": 5365,
    "Ġfrigates": 25707,
    "Ġfry": 17881,
    "ahawk": 23319,
    "homage": 25617,
    "algorithms": 8300,
    "anse": 12579,
    "Ġrealities": 18983,
    "Ġbrag": 23837,
    "Ġdine": 7365,
    "================================": 5671,
    "emone": 21932,
    "Ġdiadem": 24740,
    "gives": 15360,
    "Ġcleans": 18951,
    "shad": 10982,
    "Ġtowns": 11174,
    "Ġabode": 7902,
    "ues": 2079,
    "Ġferguson": 17471,
    "Ġdetermination": 9821,
    "mere": 11858,
    "Ġpassers": 18761,
    "Ġinterruption": 9475,
    "Ġlump": 21556,
    "Ġcensured": 25097,
    "_).": 5888,
    "Ġhinge": 25542,
    "bpp": 20774,
    "Ġconstit": 8586,
    "Ġdisconsol": 18558,
    "Ġrele": 2917,
    "Ġallude": 12775,
    "Ġdictated": 25219,
    "Ġresentment": 7529,
    "Ġoppressive": 20458,
    "frock": 20124,
    "Ġencourages": 2060,
    "ots": 3292,
    "Ġhaven": 8475,
    "Ġplates": 11007,
    "ifted": 4496,
    "Ġbusied": 19065,
    "fted": 9120,
    "Ġminimum": 23044,
    "objects": 13473,
    "Ġreasonable": 7252,
    "thrusting": 20262,
    "Ġgrotesque": 26331,
    "osing": 3690,
    "(_": 7539,
    "Ġrheumatic": 20707,
    "Ġbroke": 5323,
    "Ġgilder": 21617,
    "argue": 21448,
    "Ġtaught": 6803,
    "interval": 7992,
    "Ġpur": 2218,
    "Ġdiligent": 25078,
    "Ġbrig": 11048,
    "present": 1137,
    "Ġworked": 6583,
    "K": 47,
    "ase": 1159,
    "Ġhearers": 15707,
    "sul": 15424,
    "Ġdream": 3538,
    "reed": 6373,
    "Ġmusty": 22684,
    "Ġinsects": 25647,
    "belief": 13284,
    "vol": 720,
    "Ġdismissed": 12896,
    "Ġcompasses": 11268,
    "Ġriggers": 24157,
    "30": 20756,
    "Ġoriental": 9099,
    "rowing": 7932,
    "Ġfronts": 19003,
    "century": 20050,
    "Ġcurtain": 14413,
    "ching": 5156,
    "purposes": 25024,
    "Ġmetallic": 19062,
    "Ġparagraph": 17456,
    "Ġpronounce": 16969,
    "professional": 20278,
    "ĠâĢľâĢĺ": 8505,
    "Ġforcing": 3226,
    "ccess": 3185,
    "Ġantarctic": 19555,
    "Ġlively": 5449,
    "strike": 14951,
    "dwell": 15344,
    "Ġthinner": 24184,
    "Ġones": 3021,
    "athed": 7829,
    "Ġfeverish": 11349,
    "ized": 1529,
    "moran": 24153,
    "70": 17477,
    "serious": 14450,
    "acquaintance": 6937,
    "Ġbegging": 11080,
    "Ġinfirm": 19018,
    "Ġswing": 13041,
    "Ġaustralia": 15235,
    "fe": 677,
    "interred": 23738,
    "ply": 6366,
    "Ġtemple": 7654,
    "Ġmoth": 17804,
    "looks": 12020,
    "beat": 10987,
    "Ġearnest": 3930,
    "Ġtossing": 8127,
    "Ġredress": 23754,
    "Ġhardship": 18915,
    "harpooneers": 8693,
    "instruct": 19545,
    "Ġtroubled": 6617,
    "Ġmarry": 4418,
    "ineering": 21986,
    "Ġmounting": 19980,
    "Ġcharcoal": 19008,
    "elab": 21574,
    "Ġpens": 21464,
    "Ġfellow": 2774,
    "Ġcountenances": 11968,
    "Ġefforts": 11807,
    "Ġcompos": 22574,
    "Ġadvised": 16216,
    "nailed": 20998,
    "remediable": 26296,
    "ellow": 3875,
    "Ġsubmitted": 11874,
    "Ġextremely": 2669,
    "Ġborrow": 10172,
    "thr": 12764,
    "Ġswayed": 15049,
    "cake": 20806,
    "ropes": 7905,
    "Ġhails": 21955,
    "Ġtreacle": 14596,
    "Ġscarce": 8625,
    "Ġsignification": 19205,
    "por": 2150,
    "aby": 18109,
    "Ġcargo": 16293,
    "ep": 442,
    "Ġ}": 21156,
    "Ġunrel": 14697,
    "Ġhonestly": 19975,
    "Ġroofs": 16986,
    "Ġendued": 14079,
    "started": 10846,
    "eu": 17531,
    "Ġcoarsely": 25830,
    "Ġjoist": 19234,
    "Ġaback": 22271,
    "Ġeye": 2281,
    "Ġappeals": 16319,
    "Ġprime": 10405,
    "Ġvide": 10252,
    "Ġphrensy": 25127,
    "Ġupward": 9723,
    "Ġ98": 24595,
    "Ġbraved": 23841,
    "Ġtoo": 1165,
    "Ġambergris": 8709,
    "Ġhateful": 19716,
    "Ġrace": 5848,
    "Ġcake": 12574,
    "Ġschoolmaster": 16863,
    "atha": 6573,
    "Ġgravity": 9250,
    "Ġproficiency": 19195,
    "hours": 9126,
    "Ġintruder": 25992,
    "Ġpush": 9186,
    "grief": 13733,
    "Ġfrig": 13084,
    "Ġcannib": 6037,
    "wet": 15455,
    "Ġthemselves": 3251,
    "bye": 5951,
    "Ġyawned": 15053,
    "Ġreporting": 24658,
    "Ġapoplexy": 25266,
    "Ġanatomy": 12323,
    "Ġrepresentations": 1875,
    "Ġoffered": 5817,
    "Ġwheeling": 18289,
    "gladness": 25195,
    "Ġcontributed": 16013,
    "restrained": 16339,
    "Ġposter": 14277,
    "Ġcomplacency": 19451,
    "sheets": 14444,
    "Ġpresumably": 19627,
    "plentiful": 21961,
    "Ġelevates": 24499,
    "Ġgenerative": 5644,
    "Ġrevol": 5536,
    "umberland": 16838,
    "byshire": 6173,
    "Ġcastle": 14719,
    "Ġmales": 17807,
    "Ġordering": 18998,
    "Ġyell": 21782,
    "Ġparalle": 1408,
    "Ġembra": 6579,
    "merely": 16139,
    "Ġplying": 17916,
    "renew": 24449,
    "lig": 3174,
    "Ġinvite": 14564,
    "Ġestablishment": 13582,
    "Ġzig": 18743,
    "Ġjacobians": 2894,
    "Ġheroine": 24542,
    "Ġdiffidence": 14660,
    "indisc": 22378,
    "isome": 17850,
    "uling": 2258,
    "Ġwasted": 9706,
    "heaven": 8054,
    "Ġinspecting": 24615,
    "anity": 9656,
    "Ġreproofs": 24893,
    "Ġopenshaw": 7957,
    "mend": 20968,
    "Ġerad": 25031,
    "grained": 20885,
    "Ġoften": 1953,
    "combined": 20323,
    "icates": 11619,
    "Ġscramble": 24578,
    "shudder": 26247,
    "anche": 10789,
    "Ġflashing": 13032,
    "Ġrelate": 6874,
    "Ġprison": 5403,
    "commer": 22828,
    "----âĢĻ": 24100,
    "lin": 9605,
    "consider": 6349,
    "Ġtag": 15471,
    "),": 1346,
    "property": 20003,
    "Ġnewcastle": 16226,
    "Ġgretna": 26469,
    "brous": 19201,
    "spent": 12946,
    "Ġrept": 13985,
    "comfortable": 7319,
    "ed": 293,
    "character": 6332,
    "Ġtrod": 15028,
    "Ġprejudiced": 24806,
    "Ġdoubloons": 13437,
    "Ġsave": 4050,
    "ivers": 1982,
    "dued": 7911,
    "nihil": 9850,
    "hetically": 21211,
    "Ġconjured": 25102,
    "Ġcattle": 12576,
    "spiracle": 22745,
    "hess": 4748,
    "boys": 13363,
    "lamp": 9610,
    "scythes": 26403,
    "Ġwow": 15532,
    "Ġseizing": 7881,
    "Ġalbert": 12710,
    "ital": 4819,
    "Ġtransportation": 13645,
    "Ġcrusad": 23708,
    "happiest": 19334,
    "contents": 12061,
    "clusion": 16308,
    "Ġqueequeg": 2010,
    "Ġcontinued": 2922,
    "Ġdestabilizing": 5053,
    "toss": 22571,
    "Ġhear": 1965,
    "Ġjustice": 5111,
    "Ġseclusion": 18209,
    "Ġcaring": 23095,
    "Ġprec": 2919,
    "ressed": 3024,
    "Ġcents": 17830,
    "Ġmenaces": 23110,
    "type": 16177,
    "dear": 6556,
    "iling": 3095,
    "Ġwallowed": 24047,
    "Ġvisiting": 10362,
    "Ġnational": 13944,
    "entrance": 12661,
    "Ġdeveloped": 16342,
    "expression": 10549,
    "include": 23591,
    "kye": 20940,
    "Ġbeard": 11657,
    "Ġslack": 8957,
    "Ġach": 2623,
    "Ġdeep": 801,
    "Ġoarsman": 8641,
    "Ġdiggings": 24650,
    "afforded": 25866,
    "hid": 13736,
    "Ġgag": 21597,
    "Ġprotruding": 16660,
    "Ġdiscipl": 22786,
    "Ġlabelled": 23333,
    "Ġsummar": 3525,
    "aloons": 20014,
    "having": 5211,
    "Ġprophecy": 25706,
    "enance": 3371,
    "Ġtormenting": 15107,
    "olence": 10231,
    "sam": 21054,
    "Ġsend": 4105,
    "Ġchowder": 10282,
    "Ġcommenting": 25229,
    "Ġpyth": 21465,
    "rederick": 14082,
    "Ġlob": 7627,
    "adays": 14015,
    "Ġcompanionship": 14922,
    "Ġmaid": 5287,
    "Ġrealistic": 5861,
    "Ġlouder": 13471,
    "iarity": 8747,
    "Ġharshly": 25250,
    "Ġscand": 7202,
    "Ġwouldn": 6047,
    "Ġsandwic": 24665,
    "pot": 10119,
    "steelkilt": 10049,
    "Ġw": 272,
    "Ġartfully": 22615,
    "allowing": 24357,
    "Ġtwelfth": 22682,
    "Ġdoubt": 2225,
    "Ġscenes": 5730,
    "Ġcoat": 4556,
    "Ġspr": 4023,
    "throwing": 11706,
    "msprop": 2627,
    "prepared": 13593,
    "blooded": 20026,
    "Ġsunken": 14494,
    "Ġobstacle": 16956,
    "discovery": 12019,
    "Ġslavery": 16310,
    "enjoyments": 25434,
    "Ġsketch": 16168,
    "Ġpedro": 15067,
    "Ġstandard": 14497,
    "Ġangry": 5498,
    "Ġsewing": 21966,
    "Ġwaits": 23282,
    "Ġnast": 15643,
    "osely": 9267,
    "Ġmeaning": 1414,
    "anders": 18155,
    "soft": 12513,
    "Ġincognita": 26552,
    "Ġbreast": 8970,
    "Ġdisciple": 22785,
    "pronounce": 25193,
    "conda": 18994,
    "aly": 1139,
    "model": 4194,
    "chari": 21693,
    "Ġrepugnance": 19088,
    "asper": 7856,
    "Ġbitter": 4170,
    "isation": 13895,
    "acing": 2716,
    "sided": 17665,
    "verd": 21732,
    "p": 84,
    "Ġstriding": 16097,
    "ma": 1151,
    "idity": 8834,
    "cutting": 23787,
    "ev": 6951,
    "Ġexclude": 19039,
    "treas": 17680,
    "likely": 9025,
    "weeks": 14318,
    "secure": 12239,
    "field": 3074,
    "Ġdeliberately": 10626,
    "du": 604,
    "imprudent": 14652,
    "Ġcharacter": 2792,
    "Ġbos": 4876,
    "oology": 21008,
    "Ġmysteries": 11323,
    "Ġpavement": 9579,
    "Ġexceedingly": 4616,
    "Ġcared": 8786,
    "Ġspoken": 4838,
    "Ġsuddenly": 2647,
    "Ġscaling": 3632,
    "impossible": 8827,
    "uther": 8820,
    "Ġwidow": 8666,
    "eminent": 25107,
    "Ġencoun": 4513,
    "Ġcorrid": 9826,
    "Ġdelic": 4132,
    "Ġriotous": 20547,
    "Ġbrazen": 23843,
    "Ġdod": 6674,
    "Ġfing": 3756,
    "ial": 410,
    "Ġadmirals": 20388,
    "Ġdella": 21443,
    "brance": 7283,
    "bro": 4033,
    "Ġmonica": 22989,
    "Ġignoble": 19402,
    "Ġtyph": 10010,
    "ready": 2361,
    "Ġsaucer": 20608,
    "Ġtrousers": 12418,
    "Ġannouncement": 14835,
    "cooee": 12421,
    "ruding": 9726,
    "Ġlanc": 19767,
    "Ġdispute": 16060,
    "Ġjudge": 5502,
    "Ġadduced": 26525,
    "Ġlaughs": 24117,
    "flu": 9119,
    "Ġjaws": 5592,
    "Ġswash": 23059,
    "Ġincarnate": 20378,
    "Ġobserver": 11991,
    "Ġcorpor": 23043,
    "press": 1731,
    "Ġsakes": 18327,
    "Ġassociate": 13453,
    "Ġoutrages": 18416,
    "Ġgambler": 26192,
    "Ġubiqu": 18049,
    "Ġding": 12603,
    "Ġinstantly": 3591,
    "entiating": 3437,
    "Ġpleasantest": 24138,
    "Ġmember": 8588,
    "Ġwrung": 14473,
    "Ġmaterials": 11289,
    "Ġporus": 24397,
    "Ġindolent": 13009,
    "grasp": 16434,
    "folio": 10548,
    "subsided": 25832,
    "Ġrushes": 20511,
    "Ġstrang": 4158,
    "Ġaloysius": 15742,
    "Ġunlab": 3788,
    "Ġgnarled": 25169,
    "impress": 18054,
    "onse": 21252,
    "Ġcreative": 9832,
    "Ġcigars": 12256,
    "ino": 15482,
    "million": 25752,
    "Ġdoran": 9181,
    "shone": 22453,
    "Ġdomestic": 6911,
    "aste": 4603,
    "Ġshield": 22004,
    "too": 4509,
    "frequent": 15356,
    "Ġsor": 4143,
    "Ġrud": 8479,
    "Ġpleated": 16300,
    "Ġautom": 3328,
    "retired": 11939,
    "Ġthenceforth": 25183,
    "Ġmiser": 18702,
    "Ġpartial": 2128,
    "Ġhenry": 5197,
    "Ġterrier": 23402,
    "Ġver": 3393,
    "Ġoppressively": 25711,
    "ambition": 13414,
    "rid": 5137,
    "inching": 21192,
    "ĠĠĠĠĠĠĠĠĠĠĠĠĠĠĠĠĠĠĠĠĠĠĠĠĠĠĠĠĠ": 19702,
    "inisc": 15491,
    "Ġarrogance": 26233,
    "Ġcolours": 12978,
    "eastern": 17534,
    "Ġheiress": 20700,
    "Ġanoint": 25538,
    "================": 3723,
    "18": 20753,
    "killing": 20944,
    "Ġemig": 14525,
    "epend": 3313,
    "Ġanat": 8125,
    "aust": 15312,
    "Ġfollowed": 1793,
    "Ġseries": 7061,
    "Ġhappiest": 11885,
    "adequate": 15206,
    "bacc": 7795,
    "fair": 10094,
    "Ġlose": 5028,
    "drive": 8686,
    "Ġexp": 779,
    "Ġdaft": 19666,
    "ichever": 13959,
    "Ġsombre": 18861,
    "Ġpott": 21472,
    "Ġtrivial": 10144,
    "Ġencamp": 22804,
    "Ġlou": 6821,
    "burning": 25081,
    "gryphon": 15361,
    "ham": 1700,
    "Ġhab": 4217,
    "Ġwalled": 15538,
    "Ġevalu": 3065,
    "allies": 14167,
    "Ġsolitude": 6875,
    "Ġevils": 9022,
    "prevailed": 17347,
    "tomahawk": 25916,
    "supervised": 1961,
    "cork": 20798,
    "yed": 3271,
    "Ġlaughed": 5059,
    "Ġinserting": 19908,
    "Ġenlivened": 26209,
    "iration": 4542,
    "Ġcalamity": 17351,
    "pher": 11513,
    "Ġwilds": 16510,
    "ivery": 17573,
    "Ġleviathans": 8283,
    "Ġrol": 3555,
    "Ġdif": 871,
    "Ġgrow": 2859,
    "canst": 22970,
    "grown": 10101,
    "Ġeuropean": 20049,
    "Ġminimax": 5859,
    "Ġhonourable": 10457,
    "ones": 2740,
    "Ġwedge": 24935,
    "ieves": 4004,
    "Ġfuller": 11157,
    "Ġsallied": 12541,
    "exactly": 10638,
    "Ġnot": 413,
    "breast": 11247,
    "smoke": 17224,
    "Ġcomstock": 21858,
    "Ġcircumst": 2974,
    "amidst": 25653,
    "Ġperpendicularly": 11375,
    "Ġfever": 6559,
    "Ġadvent": 4356,
    "joined": 13278,
    "service": 15038,
    "Ġfirmest": 16666,
    "oman": 2015,
    "Ġchry": 22251,
    "Ġpatches": 4236,
    "Ġreced": 15696,
    "Ġforgery": 25978,
    "Ġboneless": 19608,
    "Ġsan": 7825,
    "lived": 12490,
    "fol": 4863,
    "Ġpreluding": 18369,
    "Ġinitialized": 3948,
    "thickness": 25368,
    "Ġremembr": 24172,
    "Ġextensive": 12952,
    "metic": 14986,
    "Ġ[_": 15464,
    "Ġsmith": 16068,
    "Ġstar": 6024,
    "expectations": 24278,
    "bergs": 18682,
    "odox": 21816,
    "Ġgladness": 16592,
    "Ġcharm": 4550,
    "derness": 11740,
    "pron": 9008,
    "Ġcath": 17828,
    "Ġstring": 11830,
    "Ġepisode": 26349,
    "arians": 18524,
    "Ġdiffident": 23786,
    "Ġtiller": 8967,
    "Ġsto": 1501,
    "Ġgay": 5534,
    "rip": 9243,
    "Ġunicorn": 22062,
    "Ġblot": 9814,
    "rushing": 10020,
    "Ġurgent": 16868,
    "Ġepicurean": 20558,
    "subjects": 19878,
    "Ġreadiness": 13054,
    "Ġsubset": 9872,
    "Ġintuitions": 17343,
    "anybody": 12086,
    "Ġfries": 21419,
    "'t": 3146,
    ":--âĢľ": 24549,
    "neys": 23584,
    "strip": 19833,
    "Ġingratitude": 17470,
    "Ġflorid": 17137,
    "Ġoppressed": 11191,
    "scornful": 26576,
    "Ġwoollen": 12107,
    "shore": 10307,
    "Ġprincipally": 11310,
    "Ġxxi": 24475,
    "mor": 4214,
    "Ġautonomous": 10677,
    "Ġxxx": 7767,
    "Ġinv": 2226,
    "Ġquadruped": 20618,
    "Ġwonder": 2116,
    "luent": 16000,
    "ĠĠĠĠĠĠĠĠĠĠĠĠĠĠĠĠĠĠĠĠĠĠĠĠĠĠ": 13391,
    "Ġfilling": 13411,
    "monsters": 19173,
    "Ġcalling": 5662,
    "Ġinsure": 13181,
    "Ġindepend": 3669,
    "occupations": 24969,
    "snap": 24849,
    "icted": 5938,
    "there": 1423,
    "obedience": 17412,
    "Ġpill": 7847,
    "ceiving": 3902,
    "Ġlearn": 365,
    "Ġuncounted": 19118,
    "é": 170,
    "childhood": 16867,
    "without": 4848,
    "Ġentities": 11868,
    "Ġoriginated": 24123,
    "Ġpulpit": 7469,
    "descend": 23089,
    "Ġagony": 5388,
    "Ġferry": 24514,
    "haust": 5777,
    "few": 8204,
    "Ġreducing": 1956,
    "Ġstool": 14465,
    "Ġecho": 12672,
    "Ġapologizing": 25198,
    "Ġreceptacle": 23198,
    "Ġprotruded": 19473,
    "Ġfru": 8422,
    "Ġchests": 19674,
    "Ġzeros": 3323,
    "ception": 6563,
    "Ġemployments": 12106,
    "olen": 9701,
    "Ġnovelist": 24776,
    "Ġserved": 8247,
    "Ġletter": 2199,
    "Ġgent": 7382,
    "Ġstrives": 23694,
    "Ġbounty": 26438,
    "fer": 1928,
    "caut": 20814,
    "drew": 7333,
    "friend": 3862,
    "Ġsuggestive": 11298,
    "urred": 8451,
    "ieved": 3231,
    "Ġdepressions": 25799,
    "Ġex": 362,
    "Ġfashion": 4298,
    "Ġtroops": 24899,
    "Ġbeh": 1800,
    "Ġfolk": 10377,
    "barrel": 17060,
    "Ġsqueezing": 25009,
    "Ġming": 9647,
    "well": 1690,
    "orange": 21403,
    "Ġentreaties": 9037,
    "Ġproportion": 7280,
    "ency": 3868,
    "Ġstile": 21737,
    "Ġmount": 7361,
    "icy": 6141,
    "bler": 11473,
    "Ġgene": 15676,
    "spouting": 25005,
    "concerning": 9066,
    "Ġaffect": 1383,
    "Ġsentiments": 7962,
    "Ġincl": 4270,
    "Ġmonogram": 26575,
    "a": 69,
    "ashing": 4826,
    "beholding": 16044,
    "Ġfade": 21411,
    "gunw": 17222,
    "Ġlanguage": 650,
    "preserving": 25305,
    "Ġsigma": 1545,
    "Ġanchor": 7367,
    "Ġbarque": 23793,
    "U": 57,
    "Ġchair": 3663,
    "ts": 957,
    "Ġstup": 14007,
    "Ġaffidav": 18790,
    "Ġreconcile": 25292,
    "uth": 3019,
    "Ġstrait": 23752,
    "omical": 9682,
    "consumed": 25676,
    "Ġpsychology": 11449,
    "lob": 22512,
    "generous": 16570,
    "Ġinclusive": 24165,
    "Ġinterrupt": 4359,
    "Ġfabulous": 25949,
    "Ġhyperborean": 26341,
    "baggage": 24927,
    "worth": 8630,
    "itudes": 3016,
    "ahit": 9384,
    "arms": 10175,
    "Ġsemantics": 2895,
    "Ġcadiz": 17327,
    "Ġwhoa": 22427,
    "Ġglimp": 6067,
    "Ġtranslates": 12054,
    "Ġdiscourage": 3118,
    "proceeded": 25191,
    "principle": 10652,
    "Ġmant": 9649,
    "nment": 20992,
    "Ġwooing": 19437,
    "Ġearthy": 23714,
    "attempted": 20177,
    "groom": 8743,
    "proved": 11989,
    "bey": 10315,
    "._": 3222,
    "matical": 13132,
    "pan": 10717,
    "Ġtenement": 23551,
    "Ġcostly": 23586,
    "trust": 21081,
    "Ġcomm": 839,
    "ulty": 22572,
    "azed": 9401,
    "fore": 687,
    "crowning": 25749,
    "tart": 21070,
    "Ġhieroglyphic": 25588,
    "Ġrural": 21972,
    "Ġcomparison": 7100,
    "Ġopposition": 16522,
    "iriously": 18172,
    "caterpillar": 26384,
    "umer": 9260,
    "Ġclinch": 18424,
    "Ġhel": 3786,
    "Ġwr": 1547,
    "Ġcaptioning": 23024,
    "Ġsuppression": 23004,
    "wishing": 21131,
    "Ġrights": 10398,
    "cking": 4265,
    "Ġwhatever": 3474,
    "Ġintimately": 24801,
    "Ġresol": 2666,
    "icant": 21566,
    "alid": 13937,
    "Ġmultitudinous": 26275,
    "Ġimbecile": 17394,
    "ifle": 10892,
    "Ġwhalemen": 3912,
    "Ġcobweb": 22590,
    "Ġburying": 19254,
    "aders": 21763,
    "Ġcucumber": 21359,
    "Ġsy": 491,
    "Ġpence": 17907,
    "Ġnecessitates": 23933,
    "Ġinvolve": 11041,
    "repeated": 12342,
    "Ġclosely": 6488,
    "history": 15016,
    "Ġgovernment": 15179,
    "Ġexploitation": 2349,
    "Ġrolled": 4432,
    "Ġjapanese": 10634,
    "Ġrelaps": 18776,
    "Ġinsatiate": 19272,
    "Ġtransp": 4771,
    "Ġpeasants": 12335,
    "Ġaxe": 15065,
    "Ġshrieked": 9550,
    "Ġremarkably": 7703,
    "Ġpropriety": 10012,
    "companies": 24895,
    "Ġinherited": 25354,
    "manif": 14375,
    "Ġbraided": 16583,
    "Ġpossess": 3205,
    "stud": 8823,
    "Ġphysiognomical": 25612,
    "detective": 24382,
    "Ġlonging": 14302,
    "Ġcurled": 8227,
    "Ġxavier": 2854,
    "sailor": 14717,
    "Ġjunior": 15102,
    "bureau": 20791,
    "fin": 5209,
    "Ġcount": 1815,
    "Ġincognit": 22559,
    "atig": 13847,
    "Ġrewarded": 14942,
    "Ġsil": 1796,
    "convenient": 12241,
    "Ġvect": 1226,
    "Ġlik": 2524,
    "Ġcurric": 22967,
    "track": 24334,
    "jets": 20930,
    "Ġ9": 5902,
    "warrant": 21140,
    "87": 20759,
    "Ġair": 1834,
    "Ġglobular": 19011,
    "Ġgain": 4829,
    "super": 5945,
    "punishment": 15148,
    "Ġsearching": 13165,
    "Ġwayward": 22875,
    "Ġdenying": 14659,
    "venerable": 26409,
    "Ġpraise": 6486,
    "Ġwelfare": 12563,
    "accustomed": 13160,
    "adru": 15735,
    "alot": 15630,
    "Ġauthent": 14505,
    "Ġzigzag": 26274,
    "Ġemails": 13110,
    "Ġbrooks": 25701,
    "Ġconductor": 24010,
    "Ġfire": 2334,
    "chery": 24550,
    "Ġdescribe": 2764,
    "Ġimprovement": 7965,
    "ustom": 3789,
    "ilar": 10217,
    "Ġwear": 6032,
    "Ġrelief": 6061,
    "rised": 10125,
    "Ġweltering": 19588,
    "Ġdisposed": 7084,
    "Ġdishon": 12234,
    "Ġvexations": 24611,
    "Ġtechnical": 17193,
    "Ġembarr": 7445,
    "table": 5795,
    "handed": 7481,
    "Ġopportunities": 19251,
    "Ġrepose": 6742,
    "ere": 6789,
    "Ġweighted": 2089,
    "Ġrout": 7401,
    "Ġtrim": 15973,
    "rises": 17656,
    "mured": 6959,
    "Ġhelmsman": 10506,
    "Ġcleat": 18950,
    "wearing": 22691,
    "lightened": 12068,
    "Ġcrown": 5289,
    "Ġlock": 5929,
    "Ġadd": 630,
    "wra": 11543,
    "itors": 2914,
    "Ġclamorous": 24910,
    "Ġstretching": 10017,
    "so": 893,
    "stocks": 23824,
    "Ġunresting": 25554,
    "Ġforlorn": 14017,
    "Ġshare": 1658,
    "Ġdoubtless": 6196,
    "Ġimpudence": 26243,
    "Ġloves": 10916,
    "liv": 9609,
    "Ġtester": 21175,
    "Ġswart": 14436,
    "Ġescorted": 23508,
    "Ġswamp": 14438,
    "Ġregret": 5560,
    "comprehens": 16180,
    "subject": 6633,
    "Ġwade": 17786,
    "Ġsecluded": 11995,
    "Ġscuff": 15946,
    "Ġpredict": 686,
    "vac": 15453,
    "Ġimplore": 24873,
    "Ġinsinuating": 19273,
    "enges": 13058,
    "Ġgreyish": 24210,
    "Ġunsocial": 18257,
    "Ġavailed": 23955,
    "!âĢĿ": 847,
    "Ġrather": 1494,
    "Ġcarriage": 3950,
    "hav": 20899,
    "Ġremonstr": 16163,
    "march": 13757,
    "Ġsmile": 4271,
    "Ġsplintered": 11419,
    "Ġenhancement": 23778,
    "Ġtout": 17720,
    "Ġsoot": 14134,
    "presently": 9809,
    "Ġgulf": 10637,
    "Ġmortals": 9918,
    "umber": 5240,
    "Ġexchange": 15760,
    "Ġpleasanter": 19066,
    "zers": 21149,
    "Ġforg": 3787,
    "ercely": 12554,
    "Ġsolve": 4195,
    "butter": 11788,
    "clump": 23159,
    "Ġoverlook": 10962,
    "Ġtakings": 20575,
    "turkish": 24532,
    "Ġtor": 8107,
    "az": 2185,
    "Ģ": 227,
    "Ġtrunks": 15975,
    "Ġnecks": 18186,
    "Ġbelieving": 8226,
    "Ġalert": 18104,
    "outon": 12807,
    "Ġidiot": 11974,
    "Ġspanish": 2828,
    "_âĢĶâĢĿ": 20765,
    "Ġdemeanour": 17339,
    "crucible": 24843,
    "Ġcompliance": 12118,
    "Ġchap": 5935,
    "Ġpred": 682,
    "Ġglist": 9347,
    "Ġvoids": 25808,
    "Ġsets": 8778,
    "went": 6512,
    "Ġadvancement": 24474,
    "Ġembarkation": 25125,
    "heat": 15500,
    "drovand": 24759,
    "binary": 20786,
    "Ġspl": 2983,
    "breeding": 16676,
    "mosp": 8090,
    "Ġgalvan": 21621,
    "Ġyard": 5922,
    "Ġforces": 12706,
    "features": 14807,
    "impe": 21712,
    "Ġpriests": 15042,
    "Ġrending": 19470,
    "Ġincrease": 9372,
    "Ġfulfilled": 11363,
    "Ġunite": 9256,
    "Ġsanta": 26421,
    "Ġreven": 18031,
    "uttural": 21593,
    "Ġcatches": 23430,
    "Ġdinnertime": 16720,
    "aling": 1033,
    "Ġshrinking": 14806,
    "context": 3404,
    "Ġnightfall": 23134,
    "iltrated": 19308,
    "Ġglared": 13022,
    "Ġacquiescence": 20333,
    "----âĢĿ": 13310,
    "hoped": 20912,
    "Ġunrecorded": 17469,
    "lording": 24055,
    "Ġphaet": 16321,
    "perfectly": 9088,
    "Ġorphans": 20207,
    "Ġbattering": 13903,
    "Ġminutest": 14561,
    "pred": 2800,
    "Ġcounter": 6481,
    "Ġunprejudiced": 18270,
    "Ġexpands": 25238,
    "revenge": 13844,
    "omit": 13976,
    "nowadays": 22343,
    "curious": 10484,
    "perishing": 22191,
    "Ġgratify": 19506,
    "Ġbehooves": 20735,
    "Ġcostume": 16497,
    "Ġborder": 10171,
    "Ġbeadle": 26485,
    "Ġschedu": 1823,
    "Ġjackson": 24242,
    "urmount": 13998,
    "Ġswallows": 18884,
    "Ġoutcast": 18415,
    "sively": 13788,
    "Ġdeaf": 12725,
    "Ġdiff": 3117,
    "Ġdesolate": 10015,
    "programming": 10065,
    "Ġcompan": 2176,
    "nowhere": 18419,
    "Ġoverflowing": 17239,
    "Ġnetworks": 595,
    "Ġhinting": 19652,
    "Ġsumatra": 15289,
    "Ġprivacy": 19527,
    "Ġpap": 8801,
    "Ġcatching": 9480,
    "Ġmalady": 24391,
    "Ġoctavo": 15166,
    "Ġpracticable": 19055,
    "sherlock": 5422,
    "Ġacceler": 1606,
    "Ġhistory": 4006,
    "drowned": 17371,
    "barbaric": 26360,
    "Ġdistances": 22508,
    "Ġrestlessness": 23296,
    "application": 12366,
    "Ġundeserving": 18269,
    "Ġspinning": 15054,
    "hes": 1396,
    "Ġmimic": 3145,
    "Ġyield": 5093,
    "befriend": 22497,
    "aulding": 11340,
    "Ġstandpoint": 23281,
    "leag": 21369,
    "Ġpalm": 10515,
    "herald": 22210,
    "lighted": 23756,
    "Ġ132": 19898,
    "green": 7116,
    "Ġcheerfulness": 10518,
    "Ġloading": 15878,
    "interview": 19301,
    "Ġhidden": 1372,
    "rages": 15685,
    "antically": 22101,
    "Ġiteratively": 3059,
    "Ġdeferred": 18827,
    "Ġcalculate": 13267,
    "Ġbespeaking": 26311,
    "Ġpaces": 13921,
    "Ġextend": 18706,
    "Ġimpress": 6861,
    "det": 5207,
    "Ġmexic": 14034,
    "principal": 20662,
    "Ġhooded": 12409,
    "Ġramadan": 9577,
    "take": 4578,
    "Ġlashes": 17969,
    "Ġgardener": 19136,
    "propagation": 1220,
    "uneasy": 23685,
    "Ġoverspread": 14208,
    "ification": 1015,
    "aspect": 10195,
    "Ġwatches": 11082,
    "Ġwinged": 16996,
    "Ġhorrify": 23822,
    "shabb": 18493,
    "Ġstarve": 24627,
    "income": 15489,
    "insult": 16281,
    "milk": 20480,
    "opes": 10312,
    "aet": 15310,
    "Ġevangelists": 20342,
    "Ġrepresented": 8940,
    "allied": 7409,
    "abst": 21793,
    "Ġgross": 11627,
    "Ġcabinet": 23864,
    "weed": 14317,
    "mpt": 6655,
    "Ġcont": 621,
    "Ġducking": 17148,
    "Ġsandwich": 19831,
    "then": 2050,
    "Ġskil": 14353,
    "stat": 21648,
    "gledy": 25404,
    "ahead": 12437,
    "contact": 23729,
    "Ġrecklessness": 24744,
    "Ġcarav": 18902,
    "assure": 9271,
    "Ġwer": 12556,
    "sin": 21051,
    "itory": 12571,
    "Ġven": 4649,
    "tese": 21086,
    "ciousness": 20819,
    "Ġattics": 22625,
    "tackle": 17323,
    "Ġprodigious": 8058,
    "Ġtoss": 10186,
    "ateur": 22011,
    "Ġdissatisfied": 14258,
    "indef": 17736,
    "Ġforming": 7043,
    "oved": 5215,
    "Ġunrivalled": 26520,
    "Ġbillow": 14782,
    "Ġfactor": 19013,
    "Ġconfirm": 9858,
    "Ġdisinterested": 16061,
    "Ġdocks": 14179,
    "Ġconjectures": 16926,
    "Ġdinners": 23985,
    "Ġgravel": 14104,
    "Ġsnuff": 7993,
    "irium": 8163,
    "club": 26381,
    "adders": 24399,
    "quietude": 24656,
    "Ġfrequented": 16587,
    "ampton": 18150,
    "meth": 11504,
    "Ġredden": 15698,
    "Ġplaymate": 23640,
    "-": 17,
    "ges": 2873,
    "icate": 9203,
    "Ġsuggested": 8322,
    "compar": 14363,
    "missionary": 24617,
    "icha": 11741,
    "syntax": 5867,
    "Ġmeasured": 9806,
    "fights": 20867,
    "Ġromantic": 8032,
    "Ġmusk": 7493,
    "Ġconsume": 12962,
    "Ġgroans": 14826,
    "Ġtracks": 18891,
    "pre": 649,
    "erne": 21272,
    "Ġrecognition": 2776,
    "Ġrum": 5925,
    ">": 34,
    "Ġexpressed": 4469,
    "Ġpettic": 14843,
    "Ġarchitectures": 2910,
    "Ġsnatches": 16545,
    "Ġneighbouring": 12122,
    "Ġprecipitous": 24836,
    "Ġsepulchre": 20562,
    "iers": 5992,
    "hotel": 20053,
    "Ġwert": 12560,
    "Ġconverts": 2803,
    "Ġangrily": 9409,
    "Ġhelplessly": 20081,
    "Ġfear": 2277,
    "cstasy": 11446,
    "Ġcurves": 18843,
    "Ġwalker": 23313,
    "Ġunprinciple": 18255,
    "Ġbrimming": 22870,
    "sartain": 25623,
    "Ġglobal": 2371,
    "zas": 17713,
    "amet": 591,
    "Ġtutored": 20131,
    "Ġchili": 25562,
    "Ġfrance": 7682,
    "cong": 10690,
    "alogies": 25162,
    "Ġsouth": 4912,
    "palms": 25263,
    "Ġsocial": 7008,
    "Ġboom": 9312,
    "Ġsomething": 1794,
    "Ġwarbling": 26169,
    "Ġintensity": 10018,
    "Ġstory": 2902,
    "Ġinsp": 2100,
    "unks": 15779,
    "Ġoccupies": 24011,
    "blubber": 15239,
    "onsensical": 18577,
    "Ġheredit": 9218,
    "alas": 8807,
    "Ġperiodical": 14774,
    "orrah": 17877,
    "Ġhe": 318,
    "Ġgemini": 26470,
    "Ġcapering": 21357,
    "Ġloathed": 15879,
    "ping": 9617,
    "Ġfurlong": 18740,
    "ohnson": 16328,
    "distinctive": 25726,
    "bb": 2798,
    "ute": 4644,
    "Ġcurious": 3361,
    "Ġafterwards": 3531,
    "Ġscrupled": 25052,
    "Ġfortifications": 23622,
    "Ġenquired": 21945,
    "Ġcaught": 3730,
    "Ġact": 691,
    "pump": 21019,
    "Ġcul": 17824,
    "£": 101,
    "exercise": 17461,
    "varied": 23191,
    "Ġinclud": 1512,
    "Ġyouth": 4261,
    "Ġbroom": 18908,
    "Ġlime": 13950,
    "unched": 10237,
    "thanking": 24325,
    "vered": 4831,
    "Ġdetails": 6566,
    "gaze": 17558,
    ".;": 20746,
    "Ġs": 265,
    "Ġdomineer": 23704,
    "Ġbree": 5012,
    "unvarying": 21892,
    "Ġoceans": 7997,
    "chop": 21692,
    "Ġspring": 4119,
    "_,âĢĻ": 12436,
    "Ġentrance": 7232,
    "Ġadrift": 11725,
    "Ġabomination": 22283,
    "commod": 16179,
    "autions": 20769,
    "luxur": 25823,
    "control": 16544,
    "Ġdependence": 18630,
    "Ġevangelical": 25507,
    "Ġbook": 2701,
    "Ġabout": 633,
    "thro": 12765,
    "Ġplantation": 11424,
    "Ġroots": 11187,
    "Ġmisled": 22758,
    "dom": 6223,
    "Ġscheme": 7065,
    "Ġtrail": 16284,
    "Ġstand": 1735,
    "Ġcocoa": 25483,
    "Ġtruest": 16701,
    "Ġstages": 14006,
    "Ġmaritime": 23041,
    "Ġrephrased": 26478,
    "pulled": 25148,
    "û": 188,
    "Ġparents": 6753,
    "distrust": 19573,
    "Ġslate": 11941,
    "readiness": 19366,
    "Ġskeletons": 16792,
    "recognised": 15265,
    "Ġinh": 10825,
    "carried": 16713,
    "ksome": 10106,
    "Ġspent": 3963,
    "nt": 921,
    "Ġintervened": 25482,
    "Ġfrequencies": 4790,
    "Ġslam": 13062,
    "Ġentangled": 10344,
    "hosmer": 25903,
    "Ġshri": 5375,
    "Ġwonderful": 4565,
    "Ġhatch": 7849,
    "rese": 15511,
    "Ġstop": 2501,
    "scores": 22996,
    "Ġpensive": 21479,
    "tit": 11529,
    "Ġstructure": 831,
    "Ġanticipatingly": 26103,
    "relapse": 24019,
    "trowsers": 17692,
    "Ġcontaining": 2233,
    "Ġgarnery": 17389,
    "legra": 10790,
    "cils": 20816,
    "lingering": 18602,
    "calmly": 20142,
    "Ġfierce": 7436,
    "precisely": 6916,
    "tempest": 16960,
    "Ġdiscriminator": 3391,
    "acknowledge": 18469,
    "Ġsentiment": 6589,
    "tha": 15827,
    "ract": 1034,
    "Ġpip": 1619,
    "Ġarmed": 9262,
    "Ġwharves": 13508,
    "between": 5071,
    "onial": 11568,
    "Ġretreating": 19802,
    "assistance": 20374,
    "Ġbab": 5291,
    "Ġcurving": 16234,
    "Ġbumpkin": 20203,
    "meas": 7433,
    "Ġtainted": 21173,
    "Ġquivering": 12862,
    "Ġcategor": 4137,
    "Ġthickest": 16656,
    "edy": 2858,
    "nyder": 16686,
    "Ġcontinually": 5042,
    "Ġcandelabra": 26603,
    "Ġblueprints": 13174,
    "Ġsecuring": 11994,
    "uend": 21104,
    "Ġcolour": 4463,
    "br": 2479,
    "Ġabreast": 18395,
    "Ġhell": 5019,
    "Ġhushed": 13927,
    "ĠĠĠĠ": 459,
    "Ġdegrad": 2591,
    "Ġind": 1223,
    "shoe": 14969,
    "habit": 16193,
    "Ġparaphrasing": 26527,
    "dogs": 25403,
    "peculiarity": 23113,
    "Ġdifferen": 936,
    "Ġadventure": 5982,
    "largely": 19577,
    "Ġprofit": 14586,
    "Ġexperiment": 11923,
    "Ġconsort": 18722,
    "Ġhaunts": 18199,
    "here": 2550,
    "ished": 1426,
    "omed": 13977,
    "orum": 12594,
    "Ġrag": 18644,
    "Ġdisconsolate": 20721,
    "ruin": 22181,
    "Ġslugg": 15271,
    "Ġsingers": 23773,
    "Ġaffections": 10386,
    "Ġbehaviors": 13258,
    "Ġravine": 18650,
    "conced": 22475,
    "advanced": 19591,
    "ores": 2416,
    "certain": 3677,
    "Ġlightness": 23264,
    "gaff": 20884,
    "Ġacquirement": 19257,
    "de": 460,
    "believing": 19465,
    "Ġaustral": 12176,
    "Ġworried": 22930,
    "riot": 18183,
    "Ġdagger": 21441,
    "Ġfiercely": 12956,
    "study": 15120,
    "ediction": 17947,
    "text": 1973,
    "felicity": 25143,
    "butt": 15998,
    "Ġfresh": 3671,
    "ondency": 15272,
    "Ġlongest": 18631,
    "Ġroast": 18459,
    "kitchen": 17586,
    "ula": 2826,
    "Ġuncompromised": 20606,
    "grounds": 11152,
    "Ġomnipotent": 13551,
    "Ġwarmer": 19188,
    "Ġpon": 10177,
    "Ġplaid": 22604,
    "Ġabstraction": 26540,
    "Ġstroll": 13356,
    "Ġarise": 7898,
    "admiration": 11388,
    "Ġpigs": 19750,
    "Ġpoltroon": 26599,
    "Ġlion": 9677,
    "Ġmastery": 23996,
    "ms": 541,
    "Ġratio": 5066,
    "ble": 542,
    "Ġreverber": 19871,
    "Ġunre": 3478,
    "recollection": 25349,
    "Ġxx": 5492,
    "Ġdived": 9179,
    "Ġenters": 11025,
    "Ġprovid": 1006,
    "Ġhamper": 19392,
    "ology": 1586,
    "Ġmiserably": 12951,
    "inferior": 12397,
    "Ġspeaking": 4026,
    "separately": 25228,
    "Ġstorm": 4301,
    "wam": 10137,
    "ville": 6088,
    "Ġbushes": 16404,
    "ifers": 15786,
    "Ġemerging": 24614,
    "Ġv": 399,
    "Ġprincip": 5599,
    "sell": 13783,
    "Ġstudded": 18937,
    "Ġimbued": 17457,
    "Ġglass": 4369,
    "simply": 20673,
    "rices": 4561,
    "Ġens": 2786,
    "Ġquarter": 3976,
    "Ġwages": 13856,
    "0": 20,
    "correct": 24482,
    "gment": 4391,
    "suppose": 8648,
    "Ġscrewing": 20211,
    "č": 206,
    "Ġrealise": 16340,
    "Ġorbs": 22097,
    "Ġbachelor": 7787,
    "Ġbass": 17857,
    "iom": 20917,
    "Ġcontrive": 16014,
    "Ġcommendation": 13613,
    "strong": 6323,
    "Ġguide": 3218,
    "Ġ1820": 25718,
    "Ġvalu": 5038,
    "ĠĠĠĠĠĠĠĠĠĠĠĠĠĠĠĠĠĠĠĠĠĠĠĠ": 5322,
    "Ġnich": 21524,
    "_),": 7126,
    "Ġ74": 24263,
    "Ġdecreed": 18485,
    "uberance": 25917,
    "attentions": 13577,
    "slave": 16896,
    "ricade": 13043,
    "Ġarmada": 23582,
    "Ġtwink": 8217,
    "Ġarticulated": 24432,
    "eries": 6808,
    "Ġotherwise": 4659,
    "mile": 17598,
    "Ġpict": 3500,
    "Ġnarr": 5085,
    "suited": 22645,
    "listened": 15045,
    "Ġfortune": 4239,
    "Ġexpon": 968,
    "Ġcontribute": 12865,
    "Ġskirts": 14354,
    "Ġinterview": 9772,
    "Ġinsepar": 17936,
    "Ġbreakfast": 3975,
    "itated": 4442,
    "Ġgu": 1327,
    "aunt": 8371,
    "Ġmidst": 7987,
    "idation": 5022,
    "Ġtwice": 4663,
    "bold": 17489,
    "Ġprove": 5231,
    "emberley": 4168,
    "Ġport": 3308,
    "Ġbraz": 19361,
    "Ġbandages": 24426,
    "Ġmomentarily": 22815,
    "embra": 14078,
    "Ġimpotently": 22395,
    "Ġpoetic": 17103,
    "aneous": 7239,
    "rote": 4594,
    "Ġcontains": 2791,
    "port": 10720,
    "ckles": 22094,
    "elev": 12462,
    "Ġdefinitions": 22948,
    "Ġrepel": 23363,
    "slanting": 24557,
    "attendants": 25496,
    "ian": 1240,
    "remem": 13071,
    "spades": 14335,
    "rod": 10832,
    "Ġstars": 6150,
    "Ġ29": 23731,
    "Ġcontinuation": 22921,
    "ivil": 6411,
    "Ġconsented": 11296,
    "Ġcurb": 16233,
    "Ġmag": 1428,
    "Ġpermit": 9751,
    "permission": 15907,
    "prodigious": 17468,
    "calm": 8936,
    "sorrows": 17322,
    "camp": 15332,
    "discovering": 24253,
    "magnificent": 20277,
    "Ġpalms": 8647,
    "Ġidleness": 11145,
    "ration": 2002,
    "Ġwidest": 24236,
    "Ġmish": 15541,
    "sil": 5283,
    "Ġsax": 10930,
    "terdam": 18132,
    "Ġrecur": 1621,
    "Ġlighten": 23263,
    "ivates": 18276,
    "pillar": 5618,
    "Ġenvelop": 5585,
    "Ġintervening": 17269,
    "ris": 9139,
    "ortunities": 15944,
    "Ġwallet": 21301,
    "Ġcharger": 19006,
    "Ġimposs": 16617,
    "network": 1907,
    "Ġlargely": 14287,
    "residence": 19265,
    "Ġuncertain": 4066,
    "Ġbough": 13896,
    "Ġhighly": 4846,
    "Ġexaggerate": 25650,
    "Ġland": 1995,
    "Ġ68": 24369,
    "ieces": 4773,
    "Ġguided": 10461,
    "Ġplead": 14457,
    "mish": 17599,
    "Ġsublimity": 26348,
    "Ġunaccount": 22032,
    "Ġstrides": 22622,
    "horses": 17568,
    "tum": 11533,
    "Ġreigns": 21675,
    "Ġafter": 870,
    "Ġtortured": 14926,
    "ogy": 22700,
    "Ġapproxim": 1219,
    "weakness": 16128,
    "Ġincreasing": 8248,
    "faint": 17546,
    "Ġexpanding": 25239,
    "Ġfleece": 10616,
    "crazy": 24692,
    "Ġcontextually": 11961,
    "leagues": 21376,
    "Ġcalculus": 23986,
    "finger": 10095,
    "Ġadaptation": 3157,
    "Ġunconsciously": 10007,
    "Ġsickening": 19607,
    "Ġdepose": 22611,
    "Ġunintellig": 22031,
    "squee": 15433,
    "dimensional": 2350,
    "anation": 5804,
    "mush": 20979,
    "tender": 14476,
    "Ġsepulchral": 25893,
    "Ġactivity": 7922,
    "Ġrevealing": 3925,
    "dec": 3114,
    "pect": 1256,
    "Ġimprecations": 25821,
    "Ġcaused": 5048,
    "Ġbride": 6292,
    "uttermost": 24943,
    "Ġjulia": 22307,
    "letons": 14613,
    "Ġprivately": 19526,
    "scorched": 25698,
    "oir": 21004,
    "Ġintentionally": 24522,
    "Ġrepair": 11981,
    "shazz": 14242,
    "Ġjames": 6419,
    "Ġspringing": 10520,
    "Ġexalted": 12415,
    "Ġdeliberate": 15024,
    "trip": 21094,
    "modesty": 22852,
    "¾": 127,
    "tw": 2809,
    "afer": 17483,
    "assistant": 25568,
    "Ġbart": 17859,
    "Ġstrict": 7221,
    "ifying": 5252,
    "Ġche": 1762,
    "Ġungover": 18256,
    "Ġtashtego": 4488,
    "ars": 906,
    "Ġmanufact": 22333,
    "severe": 21823,
    "Ġdazz": 11596,
    "Ġbanker": 8670,
    "Ġunfrequently": 20741,
    "Ġend": 1474,
    "Ġlizzie": 26463,
    "Ġadmired": 7983,
    "ureau": 10228,
    "Ġministers": 22838,
    "Ġinducement": 16844,
    "Ġtrusted": 10519,
    "Ġpyramid": 8805,
    "Ġbold": 5293,
    "Ġsetting": 7047,
    "Ġbarn": 11589,
    "zek": 16286,
    "Ġranged": 10259,
    "Ġspans": 18305,
    "Ġwhich": 502,
    "Ġsinusoid": 4782,
    "Ġinherit": 25353,
    "Ġhapless": 15816,
    "Ġstreatham": 17451,
    "Ġtigris": 25760,
    "ference": 1882,
    "Ġaffording": 14823,
    "Ġgesture": 11400,
    "sentence": 2940,
    "Ġfired": 16156,
    "treasures": 26153,
    "Ġfun": 524,
    "inable": 11557,
    "Ġnam": 17951,
    "paying": 25412,
    "Ġuniformly": 19149,
    "alleging": 23026,
    "Ġrightly": 13069,
    "arnel": 18130,
    "Ġdelineations": 26059,
    "voyage": 7786,
    "ream": 2708,
    "Ġtrib": 13821,
    "Ġsanction": 20029,
    "Ġreiter": 21670,
    "olets": 21010,
    "ronted": 14879,
    "Ġic": 9627,
    "spike": 16147,
    "Ġsoftmax": 1687,
    "Ġthunders": 15642,
    "Ġyawn": 7609,
    "hot": 8085,
    "Ġdrop": 4344,
    "Ġapplications": 4785,
    "swear": 16919,
    "Ġinvoluntary": 18758,
    "nostr": 22718,
    "Ġwane": 21291,
    "Ġborrowed": 17231,
    "Ï": 144,
    "Ġreproached": 24892,
    "ger": 1105,
    "Ġdestroyed": 5272,
    "Ġjacobian": 2893,
    "ĠvertebrÃ¦": 11436,
    "Ġhast": 3152,
    "Ġgodfre": 14530,
    "Ġclergy": 7642,
    "Ġpleaded": 16302,
    "Ġrabbit": 4288,
    "Ġcorporeally": 25729,
    "Ġcolle": 8926,
    "Ġharmony": 16815,
    "valuable": 8249,
    "Ġslip": 8956,
    "Ġmanifold": 13563,
    "Ġthumb": 6981,
    "Ġheartily": 6889,
    "Ġrevenge": 5452,
    "Ġsegmentation": 17342,
    "Ġjavel": 17084,
    "Ġarter": 22187,
    "Ġtheoretic": 23314,
    "Ġparson": 6688,
    "Ġcheck": 7270,
    "itance": 13870,
    "Ġsignify": 16496,
    "Ġagency": 11809,
    "anyth": 5438,
    "together": 3556,
    "Ġpowder": 11276,
    "linked": 17594,
    "Ġadler": 8175,
    "finer": 17547,
    "Ġfollows": 7673,
    "Ġintolerable": 8483,
    "su": 802,
    "contain": 18501,
    "stove": 21656,
    "Ġeve": 13972,
    "shell": 16290,
    "Ġfebruary": 15916,
    "Ġcompar": 4772,
    "Ġwinding": 8237,
    "with": 1295,
    "Ġjem": 18403,
    "Ġcatastrop": 3347,
    "Ġlieutenant": 15264,
    "Ġsubmit": 11873,
    "Ġ65": 24367,
    "Ġdivinely": 25723,
    "Ġportion": 7491,
    "Ġsoph": 1715,
    "Ġpianoforte": 15276,
    "least": 8788,
    "screw": 9349,
    "metal": 24764,
    "Ġpretence": 13210,
    "Ġforward": 1836,
    "Ġfrankly": 16746,
    "Ġmoored": 11795,
    "Ġembracing": 14982,
    "s": 87,
    "idually": 21774,
    "Ġoutwardly": 25003,
    "mut": 17596,
    "Ġliterature": 17150,
    "Ġexertions": 13413,
    "Ġauthorized": 16736,
    "Ġslender": 11943,
    "afflicted": 23781,
    "mare": 17600,
    "Ġawoke": 7285,
    "over": 1845,
    "Ġsubstit": 19543,
    "Ġinternal": 2248,
    "Ġinnoc": 3794,
    "Ġblackest": 19100,
    "Ġsolitudes": 22889,
    "Ġindiam": 22957,
    "Ġbeg": 1281,
    "Ġletting": 10364,
    "Ġhardihood": 23115,
    "Ġglacier": 11434,
    "Ġposture": 24166,
    "oo": 7552,
    "Ġmoon": 4610,
    "Ġtraps": 23084,
    "Ġbennets": 9808,
    "assault": 22310,
    "Ġdistrustful": 25057,
    "magnet": 14972,
    "dis": 2252,
    "Ġtesting": 23228,
    "matter": 5136,
    "moonlight": 25376,
    "barbar": 20241,
    "ove": 1742,
    "conquerable": 17401,
    "Ġimpro": 904,
    "iam": 2508,
    "Ġlevelled": 11285,
    "Ġextracted": 16338,
    "Ġvoices": 7878,
    "Ġnind": 17952,
    "Ġkate": 15909,
    "Ġwand": 4341,
    "Ġhole": 6080,
    "approve": 19940,
    "Ġsink": 4340,
    "Ġmedic": 11257,
    "my": 1314,
    "Ġinns": 17932,
    "bene": 6113,
    "Ġdisasters": 16058,
    "vulgar": 25919,
    "everywhere": 23697,
    "person": 7746,
    "Ġscales": 4851,
    "Ġmortal": 4683,
    "el": 306,
    "Ġphantom": 8710,
    "Ġsomnambul": 26577,
    "rior": 12745,
    "Ġprovincial": 20652,
    "cont": 2920,
    "Ġconduct": 3733,
    "Ġhams": 16613,
    "burst": 10539,
    "Ġbending": 12589,
    "Ġguarded": 9828,
    "Ġoriginate": 24122,
    "Ġstirring": 10581,
    "Ġbrutality": 26278,
    "bolts": 11421,
    "bestowed": 12229,
    "Ġwhelm": 25999,
    "Ġrejecting": 17051,
    "imperturbable": 25791,
    "befall": 22500,
    "Ġ97": 19777,
    "Ġcoll": 8222,
    "Ġtrunk": 7204,
    "remarked": 12291,
    "listen": 13516,
    "Ġburning": 5978,
    "Ġmilky": 9949,
    "Ġswinging": 7448,
    "Ġextort": 22763,
    "Ġtwelvemonth": 12181,
    "Ġseaman": 8642,
    "saturday": 14860,
    "cheap": 23807,
    "Ġfrancisco": 26065,
    "direct": 12460,
    "Ġvenetian": 14849,
    "Ġcoroner": 7509,
    "Ġaudacious": 13463,
    "Ġoutriders": 26544,
    "Ġcoin": 9773,
    "terms": 15755,
    "Ġtwig": 11853,
    "Ġdisappointing": 19582,
    "leaning": 10791,
    "ides": 2163,
    "Ġblasp": 14403,
    "better": 7120,
    "Ġstraighten": 24007,
    "gentle": 5357,
    "Ġhar": 5815,
    "Ġrepresenting": 4059,
    "Ġvague": 6406,
    "Ġcasc": 15560,
    "Ġwatching": 4856,
    "Ġhorsham": 10407,
    "Ġinseparable": 20691,
    "Ġvaguely": 17368,
    "Ġbecalmed": 18089,
    "Ġencircling": 26273,
    "Ġhint": 5016,
    "Ġscreening": 25301,
    "Ġfumes": 21422,
    "Ġeucl": 24708,
    "Ġgrunt": 18737,
    "rium": 3134,
    "Ġsalisbury": 24068,
    "rating": 7809,
    "Ġautoregressive": 3431,
    "expectation": 14858,
    "Ġgaff": 17996,
    "Ġcheerless": 16694,
    "Ġexpiration": 22630,
    "bent": 15314,
    "Ġstories": 10866,
    "erted": 7360,
    "Ġfowl": 11331,
    "Ġattention": 1154,
    "Ġsouls": 6309,
    "Ġrobbery": 11926,
    "got": 6954,
    "eler": 1572,
    "Ġparlour": 12324,
    "Ġbattery": 21397,
    "Ġengage": 9337,
    "asing": 5913,
    "broken": 8021,
    "dington": 12069,
    "Ġrocky": 13390,
    "Ġtying": 15476,
    "Ġsordid": 26423,
    "Ġphysiognomy": 25611,
    "Ġhighway": 14348,
    "ti": 8391,
    "Ġlanding": 11987,
    "Ġboats": 2639,
    "horn": 8087,
    "proper": 7470,
    "truck": 15444,
    "osal": 11762,
    "fowl": 17550,
    "Ġpride": 3823,
    "Ġdefect": 8556,
    "or": 282,
    "Ġfortnight": 6201,
    "Ġarts": 11009,
    "Ġvexed": 9996,
    "Ġsaying": 3244,
    "¢": 100,
    "Ġposted": 16725,
    "Ġwolves": 25935,
    "Ġcultured": 25158,
    "supers": 22646,
    "acon": 10683,
    "Ġdownwards": 8531,
    "Ġfuture": 1110,
    "amp": 2608,
    "died": 11481,
    "Ġfranc": 16355,
    "Ġopposite": 5120,
    "Ġcoils": 9305,
    "slo": 17657,
    "icle": 10835,
    "Ġtwentieth": 18659,
    "Ġnames": 4535,
    "Ġwindigate": 18912,
    "Ġhardly": 2434,
    "Ġenticements": 26035,
    "Ġauxiliary": 26419,
    "Ġshouts": 19540,
    "supposing": 24135,
    "Ġjurymen": 16848,
    "asiness": 8130,
    "Ġdefines": 1741,
    "Ġlashing": 11618,
    "Ġcellars": 24666,
    "otently": 21805,
    "Ġbecher": 18881,
    "Ġapo": 9632,
    "Ġchink": 15936,
    "Ġowners": 7662,
    "Ġhints": 8432,
    "Ġhundreds": 4328,
    "osure": 5308,
    "pronouncing": 25194,
    "wonders": 17145,
    "Ġcathed": 14549,
    "Ġcareer": 11119,
    "Ġcrisp": 12005,
    "Ġability": 2762,
    "iny": 4294,
    "announce": 24560,
    "Ġeddy": 13549,
    "Ġgroves": 16741,
    "âĢĶ.": 11758,
    "verest": 13993,
    "Ġwaving": 8578,
    "Ġserene": 8168,
    "ore": 418,
    "Ġarsacidean": 20368,
    "Ġprofits": 16491,
    "ught": 2748,
    "Ġengagement": 5397,
    "exp": 2735,
    "prow": 15414,
    "Ġbye": 12742,
    "Ġgood": 1000,
    "cure": 11475,
    "Ġple": 1469,
    "happy": 4426,
    "Ġnoticed": 5548,
    "abetical": 15747,
    "Ġpop": 5151,
    "Ġtangled": 13829,
    "warning": 25532,
    "amid": 12729,
    "âĢĶâĢľ_": 13207,
    "Ğ": 223,
    "Ġsuperlatively": 26076,
    "Ġstud": 1496,
    "rings": 10723,
    "Ġlungs": 8363,
    "Ġ117": 19700,
    "Ġsinews": 20290,
    "Ġepo": 21625,
    "apparently": 15207,
    "pie": 21013,
    "Ġclergyman": 8715,
    "vent": 681,
    "aston": 7407,
    "Ġfeeble": 12287,
    "blasted": 20192,
    "whereby": 23421,
    "immediately": 10051,
    "Ġcontrolled": 23254,
    "Ġphantoms": 13489,
    "Ġparallel": 1413,
    "whalebone": 19120,
    "Ġfolded": 7768,
    "explaining": 23146,
    "town": 7143,
    "Ġagents": 9768,
    "Ġgirth": 13139,
    "Ġhalls": 19528,
    "Ġslices": 23172,
    "Ġcherish": 10591,
    "Ġherein": 16194,
    "Ġstrained": 10220,
    "Ġnotions": 14101,
    "Ġuseless": 7037,
    "Ġsecre": 5493,
    "Ġsult": 10768,
    "):": 11462,
    "Ġrome": 12159,
    "eric": 3470,
    "length": 7135,
    "Ġskill": 6871,
    "Ġwhitney": 11374,
    "oregressive": 3423,
    "Ġcalam": 13038,
    "Ġrespected": 11956,
    "unknown": 10891,
    "Ġvenom": 24240,
    "exerc": 16019,
    "Ġabound": 8866,
    "Ġinjunction": 19620,
    "Ġgeneric": 18449,
    "Ġmore": 675,
    "appalling": 22849,
    "Ġinconvenient": 20013,
    "beside": 19879,
    "Ġtold": 2188,
    "chemical": 23811,
    "Ġconsiderable": 4005,
    "confused": 19642,
    "breckinridge": 24077,
    "Ġdusty": 14927,
    "setting": 13288,
    "Ġsnoo": 21231,
    "Ġatmosphere": 10898,
    "Ġcourtship": 24136,
    "Ġuninter": 18247,
    "Ġviii": 16417,
    "ain": 343,
    "Ġseething": 18204,
    "cob": 10088,
    "poises": 11892,
    "Ġliterary": 25166,
    "Ġreflections": 5947,
    "murder": 10566,
    "fishers": 24929,
    "Ġsecondary": 23336,
    "ories": 4754,
    "Ġshaded": 14107,
    "Ġdistillation": 16048,
    "Ġislets": 21806,
    "Ġeyed": 12673,
    "lleg": 20953,
    "Ġlucky": 7759,
    "Ġappertain": 22219,
    "Ġwaterward": 23371,
    "crown": 13701,
    "Ġslipping": 13364,
    "elson": 16374,
    "Ġnone": 3225,
    "leaving": 10792,
    "suff": 4961,
    "Ġsoar": 18284,
    "forbid": 14356,
    "Ġmainten": 16118,
    "ament": 2440,
    "Ġprinciples": 10013,
    "Ġmenaced": 16296,
    "vices": 21119,
    "Ġtrying": 4840,
    "Ġplanet": 14752,
    "okingly": 22383,
    "Ġsurvivor": 17365,
    "Ġupbra": 22159,
    "Ġskiff": 16167,
    "Ġcommitted": 7430,
    "inter": 2949,
    "compasses": 19461,
    "Ġglassy": 19563,
    "Ġshoot": 11162,
    "Ġbetray": 7441,
    "Ġrelish": 14386,
    "Ġlace": 13951,
    "Ġmarking": 16471,
    "ique": 8746,
    "Ġbowlines": 19324,
    "Ġerrors": 2598,
    "gained": 20883,
    "Ġperformed": 8549,
    "Ġarrived": 3746,
    "Ġprow": 6685,
    "Ġmortar": 19396,
    "Ġfairly": 6326,
    "Ġconfusion": 7272,
    "Ġmilitary": 11259,
    "minutely": 19596,
    "chosen": 21699,
    "Ġlan": 5821,
    "Ġchronic": 9931,
    "already": 6980,
    "excellent": 8045,
    "related": 24016,
    "hroom": 12480,
    "Ġpruning": 18972,
    "Ġinjurious": 24272,
    "meadow": 18680,
    "nails": 17615,
    "Ġlounging": 10024,
    "arling": 10815,
    "Ġbackwoods": 22654,
    "Ġunt": 2293,
    "intimate": 22941,
    "rendered": 22344,
    "Ġcam": 10163,
    "whaler": 20312,
    "Ġsweeter": 23921,
    "Ġ89": 19715,
    "Ġinferior": 8367,
[...]
