{
  "metadata": {
    "vocab_size": 26617,
    "algorithm": "BPE",
    "created_at": "2026-05-23 05:38:44",
    "special_tokens": [
      "<PAD>",
      "<SOS>",
      "<EOS>",
      "<UNK>",
      "<MASK>"
    ]
  },
  "vocab": {
    "Ġcaul": 10787,
    "Ġjew": 9469,
    "arying": 9803,
    "anders": 18155,
    "yt": 17713,
    "waters": 11333,
    "Ġavenue": 13625,
    "Ġastern": 6092,
    "bulk": 19928,
    "instinct": 19548,
    "Ġhorror": 3773,
    "long": 2908,
    "Ġscrolled": 22278,
    "Ġtaste": 5524,
    "Ġcabin": 3304,
    "Ġvillain": 8639,
    "Ġsense": 3251,
    "aternity": 21268,
    "Ġadam": 2125,
    "matters": 14876,
    "Ì": 141,
    "ilingly": 21729,
    "Ġinference": 9673,
    "Ġbil": 15568,
    "comprehens": 16173,
    "Ġamusing": 11803,
    "Ġsheep": 10926,
    "Ġobserving": 6082,
    "Ġtawny": 20485,
    "rew": 3649,
    "Ġconnected": 5393,
    "Ġmummy": 25772,
    "Ġstands": 5259,
    "Ġedition": 16457,
    "Ġdivision": 19449,
    "Ġfamiliarity": 16730,
    "machines": 8386,
    "Ġcenturies": 8626,
    "Ġquill": 12862,
    "Ġark": 10276,
    "Ġlonged": 6437,
    "Ġdiscourse": 9800,
    "Ġnine": 5369,
    "Ġobstacle": 16956,
    "Ġbang": 17857,
    "Ġuntidy": 23528,
    "Ġrecommendation": 17026,
    "perai": 10275,
    "Ġspringing": 10518,
    "alarm": 15630,
    "Ġfloat": 12036,
    "otion": 4947,
    "ooped": 17625,
    "attentive": 17191,
    "esy": 9184,
    "Ġnaval": 16900,
    "velling": 14764,
    "Ġbon": 8788,
    "Ġbare": 6134,
    "train": 2033,
    "rador": 19131,
    "Ġtears": 4233,
    "Ġfrequented": 16587,
    "peasant": 23118,
    "Ġwaggish": 25438,
    "canallers": 22978,
    "Ġcocaine": 20723,
    "trial": 20353,
    "Ġstrolled": 16771,
    "Ġodds": 13334,
    "Ġstrasburgh": 18617,
    "Ġilluminating": 25249,
    "Ġfolds": 12211,
    "je": 11497,
    "irons": 10238,
    "iness": 1281,
    "Ġescaping": 13138,
    "raint": 18315,
    "anque": 13891,
    "king": 3057,
    "Ġinterference": 8896,
    "gainst": 25406,
    "Ġunclad": 22059,
    "irable": 5776,
    "antucket": 2644,
    "Ġmexic": 14033,
    "Ġhereafter": 9332,
    "ishnoo": 10955,
    "Ġscimet": 22282,
    "istic": 989,
    "Ġrustling": 24717,
    "Ġgames": 11628,
    "elly": 17983,
    "Ġtalker": 23377,
    "leading": 15565,
    "Ġselect": 3998,
    "Ġstamp": 7866,
    "counterpart": 26363,
    "]": 65,
    "Ġadmired": 7983,
    "Ġmalady": 24394,
    "Ġtide": 6661,
    "Ġafore": 10758,
    "prob": 7071,
    "Ġsaratoga": 26426,
    "Ġvul": 10247,
    "specim": 23950,
    "rough": 591,
    "À": 129,
    "cim": 8723,
    "himself": 3972,
    "conjectures": 25184,
    "Ġdent": 13909,
    "Ġdl": 3380,
    "aried": 10987,
    "Ġsuperseded": 26227,
    "joining": 19451,
    "ij": 7803,
    "Ġsor": 4141,
    "Ġsuperstitious": 13523,
    "Ġrails": 22660,
    "bowing": 24456,
    "dia": 2133,
    "irted": 14075,
    "Ġquarto": 17298,
    "Ġebb": 21629,
    "Ġripples": 25509,
    "Ġannesley": 19582,
    "Ġchecking": 23293,
    "sies": 21057,
    "uck": 1233,
    "Ġbefall": 8831,
    "Ġhor": 1661,
    "Ġstag": 6150,
    "Ġunb": 10906,
    "proud": 9905,
    "fulfil": 16039,
    "Ġactuated": 18547,
    "sche": 13024,
    "Ġbeaver": 18088,
    "iliar": 15717,
    "positive": 20570,
    "ilder": 15716,
    "Ġscolding": 15203,
    "Ġtoo": 1167,
    "Ġstuffed": 13413,
    "withdrawn": 23035,
    "Ġenumer": 12750,
    "Ġreeling": 18036,
    "Ġmonosyllable": 20728,
    "Ġflowed": 10371,
    "Ġunassuming": 20512,
    "Ġoverlooked": 15977,
    "Ġsleek": 23390,
    "Ġcocoanuts": 26366,
    "Ġpleased": 4062,
    "presbyterian": 26372,
    "ract": 1007,
    "dece": 11737,
    "street": 6496,
    "Ġcredited": 25160,
    "gin": 4931,
    "obliv": 23104,
    "¿": 128,
    "Ġdishonoured": 20394,
    "answering": 26007,
    "Ġwept": 7184,
    "Ġbrilliancy": 20112,
    "Ġnib": 13943,
    "feed": 9295,
    "Ġsucceeded": 6107,
    "makes": 10711,
    "Ġhalts": 3160,
    "aract": 17897,
    "Ġmaster": 3681,
    "Ġkno": 5242,
    "Ġresource": 10993,
    "Ġrides": 21981,
    "Ġprep": 4192,
    "grateful": 10427,
    "tr": 3581,
    "Ġgreek": 10631,
    "Ġconceive": 8463,
    "iforn": 14067,
    "lies": 15384,
    "Ġrelapses": 26282,
    "Ġpill": 7847,
    "riages": 10243,
    "partly": 14603,
    "Ġol": 17817,
    "Ġouthouse": 22322,
    "Ġdoxology": 22252,
    "Ġdestroying": 14731,
    "Ġdecipher": 22454,
    "Ġindependence": 12109,
    "Ġtren": 17723,
    "persecutor": 26532,
    "Ġburgl": 13177,
    "embraces": 25807,
    "bennet": 5353,
    "Ġcordial": 16836,
    "Ġadmeasure": 18294,
    "Ġrogue": 22413,
    "Ġpoor": 1709,
    "augment": 18831,
    "Ġvanquished": 22883,
    "Ġlat": 5088,
    "Ġscrewed": 15123,
    "Ġcuriosities": 26292,
    "expedition": 26081,
    "pow": 10717,
    "Ġvisible": 4779,
    "Ġcompact": 2262,
    "Ġtimidly": 11338,
    "folding": 24932,
    "recurring": 24199,
    "Ġsmut": 22564,
    "Ġblush": 14404,
    "wishes": 13810,
    "aging": 2238,
    "Ġber": 5698,
    "spr": 7435,
    "Ġblunder": 18821,
    "ingle": 1037,
    "Ġships": 3715,
    "mured": 6960,
    "Ġgrieve": 14709,
    "bert": 4663,
    "za": 13813,
    "Ġsnail": 19304,
    "Ġvictoria": 14875,
    "Ġpeninsula": 23206,
    "Ġreplen": 11114,
    "gypt": 8262,
    "Ġhonoured": 9882,
    "Ġclassification": 1101,
    "Ġunwarrant": 19938,
    "Ġsof": 18283,
    "attacked": 23128,
    "Ġresearch": 3369,
    "Ġphaet": 16321,
    "ozy": 17624,
    "turned": 7306,
    "Ġwheeling": 18289,
    "arson": 22755,
    "Ġmarvel": 23042,
    "Ġjacket": 6490,
    "exact": 7912,
    "Ġerecting": 24656,
    "Ġmoses": 21318,
    "squ": 7810,
    "lant": 20949,
    "Ġacquies": 11097,
    "Ġvalley": 5852,
    "Ġtransactions": 18484,
    "Ġbatt": 13902,
    "art": 584,
    "yramid": 8369,
    "leton": 5148,
    "Ġpalsied": 25783,
    "Ġirrevocably": 15300,
    "Ġmultitudinous": 26277,
    "uned": 21878,
    "Ġphrases": 2796,
    "Ġter": 2049,
    "Ġbenef": 3491,
    "Ĭ": 237,
    "Ġwearer": 21930,
    "sav": 8098,
    "remain": 11944,
    "Ġthousands": 6750,
    "thine": 15827,
    "mus": 10110,
    "Ġwoodcock": 19167,
    "bal": 2154,
    "Ġbeen": 626,
    "Ġsalesman": 13672,
    "fashion": 8082,
    "Ġmembrane": 20507,
    "Ġinstruments": 12228,
    "Ġradney": 6776,
    "Ġheight": 4223,
    "Ġpreventing": 881,
    "Ġtraits": 23083,
    "Ġcries": 7155,
    "Ġabated": 18397,
    "Ġofficers": 4428,
    "Ġcarve": 23100,
    "chari": 21694,
    "reached": 13844,
    "Ġinstrument": 7120,
    "amongst": 24676,
    "Ġhonest": 7287,
    "cares": 24313,
    "Ġprovinc": 16743,
    "rifice": 12508,
    "Ġcoincid": 20320,
    "dy": 4073,
    "wrong": 13210,
    "Ġdemands": 19643,
    "further": 7536,
    "Ġscrews": 25181,
    "Ġwrought": 11948,
    "darker": 24515,
    "Ġrefrained": 14342,
    "nosed": 20994,
    "ardy": 22162,
    "iation": 7343,
    "Ġestimated": 16595,
    "Ġpostponed": 20393,
    "Ġsquaring": 22844,
    "hy": 4742,
    "Ġimparts": 18448,
    "Ġrossum": 3008,
    "wood": 5900,
    "Ġfishe": 15589,
    "Ġmayhap": 18711,
    "Ġpallid": 12303,
    "hilar": 25088,
    "Ġsizes": 1521,
    "Ġfamiliar": 5511,
    "dashed": 12460,
    "rayed": 23568,
    "Ġproves": 14041,
    "Ġdetail": 635,
    "frankly": 20027,
    "Ġdifficult": 3573,
    "Ġspades": 12801,
    "Ġting": 8400,
    "Ġinfidel": 13092,
    "departed": 24796,
    "Ġlamentations": 17076,
    "Ġfinancier": 26586,
    "Ġdare": 3547,
    "Ġwrongfully": 24253,
    "18": 20753,
    "Ġpersuade": 5874,
    "Ġblundering": 26287,
    "xology": 21144,
    "run": 10721,
    "Ġcubs": 20092,
    "isons": 17852,
    "Ġhairy": 23871,
    "then": 2051,
    "Ġspeculations": 23005,
    "Ġorgies": 18286,
    "Ġstroll": 13357,
    "Ġinconsiderable": 21499,
    "Ġshelves": 14999,
    "Ġxiv": 23413,
    "Ġaverted": 16259,
    "Ġhuddled": 20302,
    "Ġegypt": 9680,
    "Ġexcl": 3478,
    "Ġsched": 2338,
    "Ġpenalties": 10413,
    "Ġenviron": 3799,
    "pole": 9335,
    "Ġrelief": 6062,
    "Ġcaval": 25773,
    "beam": 16042,
    "Ġright": 1503,
    "Ġapplicable": 19019,
    "Ġperverseness": 13658,
    "Ġardu": 22191,
    "Ġegyptian": 13590,
    "Ġgroan": 13329,
    "Ġcheerfulness": 10516,
    "Ġtouched": 6003,
    "oured": 2671,
    "Ġwrinkled": 7264,
    "Ġstacks": 18077,
    "mysteries": 26054,
    "nez": 22455,
    "Ġallegor": 25549,
    "Ġcompos": 22579,
    "Ġinser": 6820,
    "Ġblossom": 26315,
    "Ġstagger": 10591,
    "Ġframework": 2173,
    "Ġly": 2268,
    "Ġmagnanim": 14475,
    "Ġleaves": 5022,
    "Ġwails": 21299,
    "Ġlonger": 3362,
    "signs": 16539,
    "Ġremonstr": 16164,
    "Ġargument": 7100,
    "Ġcoach": 6867,
    "ashtego": 4100,
    "utterly": 20017,
    "Ġimpo": 3445,
    "connected": 1309,
    "Ġdiscove": 16158,
    "est": 498,
    "Ġtongue": 6349,
    "jewell": 25527,
    "Ġannihil": 10174,
    "Ġasking": 5651,
    "Ġmischief": 8544,
    "Ġreco": 9793,
    "orted": 4604,
    "aboard": 21801,
    "ided": 2784,
    "weather": 7229,
    "Ġcollateral": 20077,
    "tures": 21072,
    "Ġkink": 22200,
    "Ġtemporarily": 11167,
    "Ġsmiting": 12903,
    "Ġapologies": 25200,
    "Ġconveying": 19719,
    "Ġringle": 18211,
    "Ġderision": 16311,
    "symp": 14613,
    "Ġstationary": 19699,
    "Ġmutilated": 23965,
    "Ġcolle": 8926,
    "Ġclassifies": 11839,
    "Ġpoised": 22597,
    "Ġconcuss": 19048,
    "Ġbackbones": 22667,
    "Ġreaped": 18033,
    "Ġlawy": 9456,
    "cask": 12451,
    "Ġsunken": 14494,
    "Ġpil": 5015,
    "henomenon": 13618,
    "Ġrepent": 9864,
    "emason": 18184,
    "Ġherds": 9718,
    "Ġperplex": 2714,
    "Ġmyster": 5928,
    "everything": 6326,
    "Ġlandsman": 11350,
    "Ġconsuming": 22799,
    "Ġring": 4454,
    "Ġclothing": 18425,
    "Ġerskine": 17434,
    "Ġdenied": 9002,
    "Ġbaboon": 19698,
    "Ġhints": 8432,
    "line": 1439,
    "Ġprettier": 23770,
    "Ġenormous": 5608,
    "eprints": 12797,
    "Ġparr": 22126,
    "rious": 11692,
    "recur": 4439,
    "Ġadhering": 14142,
    "Ġeliza": 6438,
    "Ġtroops": 24903,
    "Ġarsacidean": 20368,
    "Ġvertically": 19385,
    "enty": 2912,
    "Ġordin": 16652,
    "omb": 10205,
    "Ġpunctures": 25140,
    "Ġphant": 7057,
    "buck": 17492,
    "ferent": 4195,
    "ress": 932,
    "Ġlamb": 8815,
    "neglect": 25672,
    "tempest": 16960,
    "loath": 22516,
    "Ġattacking": 24467,
    "Ġmeddling": 21323,
    "Ġago": 3137,
    "deprived": 19902,
    "Ġoccasioned": 13232,
    "phology": 3004,
    "Ġunfl": 22025,
    "Ġcouple": 5423,
    "bouton": 17503,
    "Ġswift": 3669,
    "Ġhammers": 13246,
    "Ġforswe": 21781,
    "Ġtilted": 20416,
    "Ġtut": 8773,
    "Ġmended": 21316,
    "Ġelaborate": 18638,
    "Ġoutline": 15957,
    "Ġrich": 2989,
    "Ġscreen": 17207,
    "times": 8100,
    "scure": 22995,
    "warn": 11544,
    "Ġdeliciousness": 24131,
    "Ġblinds": 8008,
    "letons": 14614,
    "ieged": 22587,
    "Ġvector": 1972,
    "drawers": 19391,
    "Ġwel": 4528,
    "Ġimplac": 24879,
    "Ġoptimizers": 18621,
    "Ġvii": 13113,
    "Ġentire": 2559,
    "Ġcurse": 7669,
    "Ġbreezes": 14871,
    "Ġrobots": 11080,
    "Ġskul": 22803,
    "Ġeludes": 26557,
    "venge": 4659,
    "Ġconventional": 25551,
    "banish": 20784,
    "deemed": 18317,
    "vint": 21117,
    "Ġdress": 4020,
    "Ġhurriedly": 11248,
    "Ġcommodores": 25377,
    "Ġspiced": 22140,
    "vation": 4746,
    "Ġglasses": 9477,
    "Ġbee": 21756,
    "parsee": 14515,
    "establish": 17395,
    "Ġgam": 11626,
    "Ġlecture": 13571,
    "Ġdwelt": 12610,
    "Ġexacted": 23608,
    "Ġghostly": 24654,
    "merged": 11193,
    "Ġcompliance": 12119,
    "Ġcharts": 12832,
    "Ġpoint": 2054,
    "Ġrecounted": 22743,
    "uncontrollable": 20599,
    "Ġimmens": 9940,
    "Ġstubbs": 23303,
    "Ġexig": 21833,
    "Ġspake": 18309,
    "Ġglistened": 20176,
    "Ġdinah": 9455,
    "itia": 11581,
    "whalers": 17265,
    "Ġoffended": 7042,
    "americans": 25049,
    "Ġemer": 5961,
    "inno": 10756,
    "safety": 20352,
    "Ġtrance": 12846,
    "Ġvelvets": 25396,
    "Ġcoolly": 9774,
    "Ġreports": 19088,
    "Ġyoke": 18098,
    "Ġeating": 8137,
    "prises": 23820,
    "duct": 3509,
    "Ġfurled": 22821,
    "Ġafresh": 18629,
    "Ġmate": 3709,
    "mere": 11858,
    "Ġneglecting": 25014,
    "southern": 20412,
    "enormous": 26169,
    "Ġsemi": 11972,
    "poles": 16211,
    "Ġlabors": 23335,
    "Ġliver": 14229,
    "Ġnormal": 1201,
    "Ġquest": 2001,
    "Ġresentment": 7531,
    "Ġmetaphys": 16391,
    "Ġbonds": 17872,
    "Ġdreamy": 14705,
    "Ġplanets": 24064,
    "eluded": 21579,
    "Ġroses": 11789,
    "Ġoverlooking": 22366,
    "Ġdefy": 11900,
    "james": 15375,
    "Ġsleep": 2399,
    "Ġspecksnyder": 17405,
    "ampling": 12731,
    "mod": 1047,
    "poss": 4780,
    "strike": 14951,
    "Ġcrippled": 25282,
    "icated": 7592,
    "tackles": 25628,
    "illustration": 2283,
    "uation": 17696,
    "Ġmiracle": 15096,
    "Ġhurt": 7702,
    "Ġgourmand": 26469,
    "within": 6732,
    "Ġrejoice": 10208,
    "me": 882,
    "Č": 205,
    "scheme": 15257,
    "Ġperv": 15993,
    "Ġopens": 23632,
    "late": 11500,
    "Ġwhirl": 13453,
    "Ġtechniques": 2865,
    "kine": 15378,
    "Ġgive": 1714,
    "Ġridicule": 13515,
    "Ġoverflowed": 20265,
    "Ġchinks": 22259,
    "ould": 428,
    ".]": 15301,
    "cheerfulness": 20184,
    "performed": 18340,
    "hunting": 24387,
    "Ġdenominated": 15231,
    "ĠĠĠĠĠĠĠĠĠĠĠĠĠĠĠĠĠĠĠĠĠĠĠĠĠĠĠĠĠĠĠĠĠĠĠĠĠĠĠĠĠĠ": 24214,
    "Ġfounded": 8561,
    "ruck": 6848,
    "Ġbecause": 2210,
    "pier": 17637,
    "Ġbrittle": 22871,
    "Ġhieroglyphics": 17305,
    "Ġengine": 1921,
    "conjecture": 15125,
    "pect": 1256,
    "Ġgroves": 16741,
    "Ġconfusing": 23315,
    "Ġtemporal": 2614,
    "Ġclerks": 17297,
    "Ġresources": 2932,
    "necessarily": 19636,
    "Ġo": 275,
    "clear": 9026,
    "Ġshowing": 7733,
    "confusion": 13374,
    "Ġhab": 4221,
    "Ġboister": 12924,
    "ius": 5789,
    "Ġtarts": 10753,
    "Ġconsec": 21812,
    "val": 1169,
    "Ġghosts": 12237,
    "Ġgritted": 22812,
    "mbl": 5948,
    "avery": 13687,
    "agation": 1249,
    "iality": 8847,
    "Ġraven": 16118,
    "Ġpostscript": 14810,
    "Ġfulfil": 9553,
    "Ġhawsers": 26505,
    "Ġselection": 18203,
    "Ġovercome": 6046,
    "Ġbowditch": 19327,
    "ourably": 14379,
    "Ġfasten": 11132,
    "Ġmau": 21313,
    "Ġseas": 3077,
    "Ġimbec": 14159,
    "Ġhosmer": 6775,
    "Ġparagra": 15882,
    "Ġwards": 17792,
    "Ġgap": 21603,
    "Ġcivilities": 14850,
    "Ġnostrils": 10943,
    "Ġdesper": 6178,
    "Ġrat": 4356,
    "misery": 13348,
    "indifferent": 14210,
    "Ġtransferred": 16455,
    "Ġprospect": 4707,
    "limbs": 20195,
    "eminent": 25111,
    "Ġguidance": 9419,
    "ental": 7169,
    "Ġener": 10896,
    "Ġrelent": 18777,
    "Ġexist": 9233,
    "del": 4074,
    "Ġbrilliant": 11415,
    "Ġcanal": 8183,
    "mr": 1900,
    "Ġpity": 4941,
    "Ġfam": 1585,
    "Ġtwink": 8217,
    "Ġstraightened": 12113,
    "Ġvivacity": 14943,
    "Ġfavourites": 16646,
    "ileries": 18062,
    "sleeve": 26111,
    "vener": 21114,
    "Ġsupplication": 25495,
    "Ġverdict": 13479,
    "Ġbarbara": 24818,
    "³": 116,
    "Ġcork": 12574,
    "Ġcreated": 2706,
    "Ġportion": 7493,
    "Ġcease": 7078,
    "Ġquantity": 6948,
    "forced": 11031,
    "Ġsoup": 7069,
    "appointment": 24067,
    "Ġsteepest": 3088,
    "Ġresounded": 22552,
    "became": 10514,
    "minutely": 19598,
    "Ġearliest": 9833,
    "Ġbuilding": 8064,
    "Ġfierceness": 26269,
    "Ġmasterly": 24000,
    "former": 11751,
    "Ġlengthwise": 10451,
    "onstr": 12551,
    "imly": 12692,
    "berwell": 22753,
    "Ġser": 1674,
    "Ġmarket": 7710,
    "Ġdissipate": 13637,
    "Ġwindings": 18912,
    "pre": 647,
    "Ġfleshy": 24619,
    "Ġknowest": 12868,
    "paying": 25415,
    "Ġplaus": 22606,
    "charming": 15709,
    "Ġwork": 1327,
    "ibule": 13016,
    "Ġidentifies": 12018,
    "Ġequally": 5258,
    "Ġlithe": 24672,
    "Ġ59": 24325,
    "Ġclings": 15966,
    "Ġharm": 5018,
    "Ġsoph": 1601,
    "Ġpul": 2039,
    "courage": 17511,
    "theast": 21755,
    "destruction": 11254,
    "Ġdiabolically": 25517,
    "Ġwrenching": 17325,
    "Ġwednesday": 9086,
    "wis": 12523,
    "Ġnotions": 14102,
    "Ġcleaning": 23190,
    "Ġalfred": 21793,
    "Ġproprietor": 12377,
    "shock": 19859,
    "utting": 17988,
    "Ġdaugh": 2294,
    "Ġthinker": 22818,
    "regularly": 13212,
    "Ġtrophy": 20012,
    "Ġsubaltern": 22798,
    "Ġconceal": 5976,
    "suddenly": 6494,
    "Ġcate": 4106,
    "original": 9087,
    "Ġsacred": 10930,
    "Ġsav": 3359,
    "Ġcoco": 11000,
    "Ġrocks": 6863,
    "Ġstreatham": 17451,
    "Ġcabs": 23646,
    "Ġrosy": 18460,
    "ouching": 13181,
    "Ġhonourable": 10455,
    "strongly": 24688,
    "arding": 22163,
    "Ġindependent": 9018,
    "Ġusefulness": 19413,
    "Ġshall": 1139,
    "Ġdoll": 10813,
    "romising": 18234,
    "Ġrobbery": 11921,
    "Ġproposals": 10613,
    "Ġproble": 1107,
    "Ġsteersman": 13046,
    "95": 17479,
    "Ġwas": 370,
    "Ġswallowed": 7945,
    "ria": 15801,
    "Ġnerve": 16342,
    "Ġevangelists": 20342,
    "Ġmort": 3462,
    "Ġfashionable": 19549,
    "Ġrestrain": 8966,
    "Ġbewitched": 25978,
    "Ġrealities": 18984,
    "Ġencountered": 8323,
    "main": 8089,
    "rium": 3134,
    "Ġbubbles": 11399,
    "Ġbeckoned": 25797,
    "post": 6064,
    "Ġhedgehog": 10644,
    "Ġcra": 2333,
    "Ġwhelm": 26001,
    "secur": 18129,
    "ative": 738,
    "deser": 10478,
    "sorts": 21063,
    "title": 17289,
    "Ġhogarth": 25784,
    "verb": 10216,
    "Ġdagger": 21441,
    "particularly": 8341,
    "Ġcompany": 3722,
    "Ġreceives": 20357,
    "Ġbanquet": 15243,
    "Ġwebster": 20165,
    "Ġsavesoul": 26231,
    "Ġascended": 8669,
    "Ġblessing": 11263,
    "adders": 24402,
    "zwilliam": 5075,
    "Ġthreshold": 2807,
    "Ġillustrations": 17108,
    "prom": 6510,
    "Ġmidnight": 5266,
    "throwing": 11705,
    "Ġguessed": 11282,
    "lord": 3865,
    "Ġgales": 12670,
    "Ġhearers": 15706,
    "Ġkiller": 19573,
    "Ġdraws": 19441,
    "Ġbewildered": 15216,
    "Ġgaiety": 16750,
    "Ġcurve": 22966,
    "Ġdifficulty": 5770,
    "Ġensures": 3052,
    "opence": 18509,
    "Ġevenings": 18756,
    "Ġrev": 6989,
    "shattered": 22469,
    "Ġalteration": 9548,
    "Ġorange": 8489,
    "Ġderives": 16310,
    "Ġlodging": 24100,
    "Ġinquirers": 24971,
    "brous": 19202,
    "Ġretreated": 13437,
    "Ġfloating": 6606,
    "cu": 10083,
    "ipotence": 22373,
    "Ġsatisfactory": 11192,
    "dinner": 11407,
    "Ġtyph": 10009,
    "infer": 10144,
    "live": 7551,
    "abbering": 21803,
    "Ġbecame": 2690,
    "Ġmallet": 17813,
    "quer": 11682,
    "Ġ82": 24460,
    "Ġmule": 13865,
    "Ġpredomin": 16040,
    "Ġtelegra": 11894,
    "Ġerrand": 11085,
    "Ġtemptations": 24507,
    "ondon": 2705,
    "Ġfilling": 13412,
    "Ġcomprise": 18589,
    "derick": 22169,
    "hyena": 24257,
    "Ġtablets": 13159,
    "Ġperformance": 1307,
    "sar": 12509,
    "nour": 20990,
    "Ġmanage": 7642,
    "pitchpoling": 25728,
    "Ġnecessity": 7296,
    "action": 3727,
    "come": 2378,
    "Ġcolony": 18768,
    "Ġoverwhelming": 17102,
    "Ġtravellers": 11308,
    "myst": 9824,
    "Ġdisplaying": 16967,
    "plac": 15823,
    "ogue": 9787,
    "Ġsigns": 2440,
    "gunpowder": 25342,
    "Ġliving": 3060,
    "Ġimpending": 22389,
    "Ġhanding": 16133,
    "trouble": 8297,
    "asper": 7856,
    "Ġopposite": 5120,
    "Ġsells": 21226,
    "Ġexasperate": 20103,
    "Ġmounts": 17809,
    "Ġinspector": 6499,
    "elder": 21576,
    "Ġagainst": 1698,
    "Ġeldest": 6573,
    "Ġpipeline": 2477,
    "unlike": 18159,
    ":âĢĶâĢĺ": 24198,
    "uniform": 18160,
    "Ġlimbs": 5968,
    "Ġsultry": 20291,
    "Ġlives": 4829,
    "Ġoft": 9196,
    "garden": 15027,
    "ich": 469,
    "cho": 2761,
    "cannibal": 15227,
    "Ġwithheld": 18117,
    "sion": 8095,
    "roll": 9198,
    "influence": 13582,
    "Ġcherry": 16936,
    "Ġrichest": 26215,
    "Ġwhipcord": 20100,
    "Ġshoal": 12019,
    "intelligent": 16845,
    "Ġseems": 2483,
    "Ġsubmerged": 11875,
    "Ġhelped": 7459,
    "ientific": 6549,
    "Ġcandour": 14674,
    "mand": 3894,
    "Ġdivide": 12115,
    "fe": 677,
    "ease": 12462,
    "restoration": 23241,
    "derstand": 645,
    "Ġheated": 21687,
    "Ġclink": 22353,
    "Ġresolutely": 14610,
    "rigged": 17063,
    "Ġwilds": 16510,
    "christ": 10210,
    "Ġfalsely": 20585,
    "Ġcarved": 7948,
    "Ġcircum": 8259,
    "Ġchapel": 9525,
    "Ġmachinery": 20488,
    "Ġawfulness": 23592,
    "fanning": 20868,
    "Ġeyeing": 6461,
    "Ġidly": 16406,
    "Ġtows": 19567,
    "olently": 15760,
    "hard": 4691,
    "Ġimpressive": 15000,
    "Ġconverted": 16114,
    "Ġpemberley": 4589,
    "Ġbarbar": 6935,
    "Ġrested": 9381,
    "Ġfeed": 2126,
    "Ġkindled": 19032,
    "Ġharp": 17927,
    "Ġdangerously": 23943,
    "larking": 17596,
    "Ġprophe": 13083,
    "calling": 12454,
    "Ġastir": 14641,
    "Ġreiterating": 26477,
    "Ġleaders": 16629,
    "Ġjanuary": 13657,
    "commotion": 24918,
    "Ġwaiter": 16362,
    "entiating": 3441,
    "ishly": 14201,
    "Ġincl": 4272,
    "Ġassociated": 12254,
    "Ġra": 815,
    "Ġswart": 14437,
    "ru": 481,
    "grees": 20888,
    "iors": 9127,
    "Ġamsterdam": 22492,
    "Ġwashes": 21868,
    "Ġmotionless": 8325,
    "Ġflooded": 24968,
    "Ġamiss": 18514,
    "Ġsongs": 13424,
    "volous": 18592,
    "Ġslackened": 15129,
    "Ġconj": 8462,
    "ulnerable": 18153,
    "Ġbalanced": 12994,
    "Ġundoubtedly": 8314,
    "Ġoften": 1956,
    "ē": 212,
    "ĠĠĠĠĠĠĠĠĠĠĠĠĠĠĠĠĠĠĠĠĠĠĠĠĠĠĠĠĠĠĠĠĠĠĠĠĠĠ": 16527,
    "Ġnational": 13945,
    "Ġbestow": 6456,
    "Ġgallon": 24189,
    "disappearing": 23507,
    "barbaric": 26362,
    "Ġintrusted": 21999,
    "Ġpepper": 9783,
    "Ġroofs": 16986,
    "ilations": 21727,
    "ternatural": 12720,
    "Ġsocially": 22094,
    "Ġbitterly": 8316,
    "fish": 3518,
    "Ġperpet": 7646,
    "Ġtucked": 12396,
    "ourney": 3555,
    "Ġsinews": 20290,
    "sul": 15423,
    "Ġket": 18348,
    "Ġdines": 21427,
    "ables": 7892,
    "regiment": 16451,
    "Ġtormenting": 15107,
    "bler": 11473,
    "brew": 11474,
    "rates": 21041,
    "Ġforefinger": 16442,
    "rocket": 13947,
    "Ġsideways": 6183,
    "Ġforemost": 12008,
    "Ġbedfellow": 16440,
    "Ġcooped": 22590,
    "b": 70,
    "Ġplough": 18610,
    "Ġostr": 21328,
    "utarch": 15665,
    "Ġruss": 18721,
    "Ġpict": 3502,
    "Ġreb": 15694,
    "Ġbubbling": 17328,
    "building": 17311,
    "sneezes": 11447,
    "Ġplan": 3882,
    "abash": 18110,
    "Ġsnar": 13204,
    "overing": 6308,
    "resses": 16156,
    "Ġfaithfulness": 24448,
    "Ġcolour": 4463,
    "Ġpequod": 2324,
    "Ġabominable": 12326,
    "Ġincumbent": 16065,
    "Ġseats": 14091,
    "Ġretired": 6073,
    "ander": 6402,
    "Ġwaterproof": 19092,
    "Ġdoing": 3661,
    "sleet": 20153,
    "greatly": 16625,
    "Ġbizarre": 17874,
    "rice": 13780,
    "Ġperilous": 7770,
    "Ġoverjoy": 15975,
    "Ġbri": 21381,
    "mitting": 20975,
    "ada": 14014,
    "Ġefforts": 11810,
    "Ġdreams": 7497,
    "umpled": 15879,
    "dances": 17522,
    "allingly": 22206,
    "Ġjoined": 4565,
    "izure": 21841,
    "Ġmixture": 9564,
    "Ġreceive": 4705,
    "Ġexcursion": 26592,
    "am": 367,
    "anelles": 26437,
    "Ġjackal": 24244,
    "obscure": 23105,
    "Åĵuv": 15185,
    "Ġchapters": 10472,
    "Ġsteamer": 17190,
    "Ġplat": 8523,
    "Ġwildest": 16511,
    "Ġlimit": 10442,
    "Ġscores": 2713,
    "Ġstruggle": 3675,
    "distant": 13339,
    "towards": 5004,
    "Ġinsufferable": 13934,
    "Ġ120": 16859,
    "abetical": 15746,
    "cl": 1492,
    "Ġmichaelmas": 26378,
    "okers": 18443,
    "Ġtapering": 8774,
    "stately": 18025,
    "Ġmaimed": 21319,
    "omically": 13979,
    "Ġthanking": 18604,
    "Ġsurpassed": 25271,
    "Ġdesiring": 14417,
    "Ġnarr": 5086,
    "Ġmut": 3584,
    "Ġupbraid": 18318,
    "Ġtearless": 24788,
    "undant": 14789,
    "Ġexclaiming": 13645,
    "Ġrepute": 18038,
    "inder": 9154,
    "immediately": 10049,
    "gather": 20877,
    "Ġprolonged": 8359,
    "Ġtragedy": 10667,
    "Ġindian": 4127,
    "Ġcivilly": 19608,
    "ician": 21569,
    "Ġthickening": 24030,
    "Ġfleet": 9434,
    "acceptable": 25188,
    "onial": 11568,
    "distrustful": 26334,
    "Ġglimmer": 15144,
    "Ġdistricts": 20266,
    "Ġpastures": 23425,
    "Ġrele": 2913,
    "Ġruns": 8599,
    "Ġwool": 19438,
    "Ġaven": 10759,
    "Ġscandal": 9083,
    "Ġvacant": 9497,
    "hinting": 17571,
    "Ġlectures": 17180,
    "Ġunh": 9255,
    "ipp": 10102,
    "hemat": 3130,
    "birth": 15324,
    "still": 4222,
    "Ġcaucus": 17382,
    "Ġrelate": 6875,
    "Ġdefilements": 26288,
    "oice": 1383,
    "publ": 17640,
    "Ġspot": 4150,
    "englishman": 23680,
    "Ġflint": 23017,
    "Ġshare": 1658,
    "Ġdiscovers": 4430,
    "Ġdead": 2169,
    "Ġhazard": 20435,
    "Ġplank": 7035,
    "violent": 14581,
    "alo": 7589,
    "Ġunalterable": 15854,
    "Ġpurple": 10432,
    "Ġhalyards": 21498,
    "Ġattendant": 11285,
    "windlass": 16722,
    "Ġspind": 18308,
    "Ġmanhood": 22335,
    "prior": 21035,
    "Ġswan": 23059,
    "Ġsubstit": 19545,
    "Ġnoiselessly": 22870,
    "Ġnat": 12650,
    "tur": 5688,
    "isure": 6242,
    "cousin": 10652,
    "Ġimmaculate": 19491,
    "experienced": 15124,
    "Ġaccord": 4025,
    "Ġhill": 5626,
    "ation": 320,
    "Ġresolve": 13174,
    "Ġsusp": 2662,
    "Ġexh": 5232,
    "term": 3759,
    "Ġmachine": 784,
    "attest": 23126,
    "previously": 17209,
    "resnet": 4068,
    "many": 5251,
    "aces": 2067,
    "tall": 17675,
    "Ġtoiling": 15638,
    "Ġklux": 22202,
    "niece": 20997,
    "Ġoverbearing": 12848,
    "below": 12126,
    "Ġsmells": 8892,
    "Ġont": 18121,
    "accordingly": 19217,
    "arks": 2843,
    "Ġsafie": 6620,
    "Ġforbid": 7867,
    "Ġrachel": 11850,
    "Ġtorrents": 20061,
    "Ġhieroglyphic": 25591,
    "Ġattract": 11837,
    "Ġthickest": 16656,
    "Ġlestrade": 5826,
    "Ġtension": 13827,
    "alarmed": 21507,
    "queness": 18150,
    "Ġconfine": 14511,
    "cooee": 12422,
    "osed": 1962,
    "instruct": 19547,
    "ifies": 6688,
    "reve": 12544,
    "Ġhesitate": 16947,
    "Ġduly": 13355,
    "killed": 15379,
    "works": 6592,
    "affect": 13216,
    "unavoidable": 17392,
    "Ġvoluntarily": 12145,
    "ends": 6041,
    "auley": 22628,
    "ullied": 23112,
    "Ġcommentaries": 20164,
    "Ġsupremacy": 20263,
    "gressive": 2754,
    "Ġvisitor": 5331,
    "Ġturk": 6605,
    "Ġindeed": 1682,
    "Ġpromised": 5181,
    "Ġmir": 9648,
    "Ġpreferred": 14968,
    "Ġmarling": 23041,
    "Ġla": 5915,
    "itting": 1151,
    "Ġhoof": 23360,
    "merry": 16537,
    "Ġunsafe": 22046,
    "Ġaperture": 26163,
    "azed": 9401,
    "neural": 3065,
    "confined": 24330,
    "Ġadversity": 24307,
    "problem": 25248,
    "Ġspared": 7895,
    "Ġinfluence": 5515,
    "iled": 1764,
    "bethink": 25748,
    "Ġinvests": 14870,
    "conqu": 14246,
    "Ġhams": 16613,
    "Ġbou": 17855,
    "Ġanticipatingly": 26105,
    "Ġforthwith": 16619,
    "Ġidentical": 10433,
    "emptied": 23641,
    "cceed": 4138,
    "Ġbroadened": 23991,
    "alter": 10826,
    "Ġmaiden": 13390,
    "valued": 2851,
    "backpropagation": 11989,
    "Ġamerica": 6764,
    "rights": 23678,
    "names": 16520,
    "mortar": 25412,
    "luckily": 19757,
    "Ġsymmetrical": 20370,
    "constant": 11324,
    "Ġanswered": 2850,
    "scores": 22999,
    "onstrate": 17770,
    "Ġest": 2265,
    "Ġbachelor": 7788,
    "utions": 1890,
    "se": 358,
    "icher": 9204,
    "Ġtrotting": 19981,
    "Ġmanly": 22333,
    "Ġsons": 10766,
    "flaming": 23976,
    "itute": 9653,
    "Ġepaulets": 24910,
    "Ġduties": 6612,
    "Ġder": 1496,
    "venison": 22633,
    "Ġrain": 5006,
    "unexpected": 15781,
    "lone": 11501,
    "Ġcal": 1324,
    "Ġembedding": 2100,
    "Ġfer": 5623,
    "Ġnash": 5820,
    "Ġglare": 13022,
    "Ġsermons": 20198,
    "Ġcruel": 5121,
    "Ġrighted": 23188,
    "Ġfundament": 2922,
    "onies": 6807,
    "Ġburnished": 24004,
    "Ġdaughters": 4424,
    "arman": 11597,
    "ginger": 13167,
    "Ġdispleasure": 16055,
    "Ġpatches": 4239,
    "istically": 14146,
    "wheeling": 22877,
    "Ġshouting": 10522,
    "Ġchancing": 22256,
    "tering": 3808,
    "Ġcontrari": 23356,
    "hess": 4749,
    "network": 1932,
    "Ġpatterns": 1213,
    "Ġblankness": 24615,
    "Ġwoollen": 12108,
    "Ġteasing": 11893,
    "romang": 22012,
    "Ġarticulate": 24434,
    "Ġtroop": 24902,
    "Ġframe": 2056,
    "Ġperfection": 19222,
    "Ġindel": 13009,
    "Ġveneration": 25051,
    "assault": 22314,
    "Ġcosmopol": 16454,
    "----": 4056,
    "Ġprudent": 9187,
    "Ġthe": 270,
    "critters": 14778,
    "ela": 21573,
    "urmount": 13999,
    "reliable": 21243,
    "faith": 15026,
    "ced": 697,
    "Ġcome": 1242,
    "Ġloops": 8855,
    "Ġvind": 10249,
    "Ġdus": 8425,
    "Ġloggerhead": 13661,
    "Ġdwelling": 7322,
    "Ġender": 11693,
    "adm": 7610,
    "Ġsurrounding": 12167,
    "cursed": 23850,
    "reflection": 13459,
    "hate": 20894,
    "idation": 5023,
    "created": 12455,
    "mal": 6795,
    "circumstance": 7765,
    "ones": 2743,
    "drugg": 20840,
    "Ġconvenient": 8347,
    "blow": 9106,
    "Ġgravel": 14105,
    "Ġvehement": 16204,
    "Ġenigmatical": 20600,
    "Ġfrantically": 23265,
    "Ġdeliverance": 15160,
    "wreck": 21139,
    "knowledge": 7479,
    "twelve": 14623,
    "Ġrascally": 26510,
    "Ġseam": 3908,
    "Ġswain": 18883,
    "now": 549,
    "books": 8667,
    "doubt": 6783,
    "key": 5462,
    "Â·": 21152,
    "Ġnaturally": 2466,
    "Ġdistrust": 8205,
    "Ġepid": 18008,
    "marked": 9050,
    "Ġstormy": 16729,
    "Ġforked": 11666,
    "Ġlip": 6534,
    "Ġmerryweather": 9524,
    "Ġrambled": 20172,
    "Ġtumble": 16880,
    "Ġinvoluntarily": 8550,
    "fab": 13719,
    "irc": 1730,
    "Ġevalu": 3074,
    "indignation": 18440,
    "rely": 6125,
    "Ġbeneath": 3239,
    "Ġclo": 6045,
    "Ġarsac": 11745,
    "transferred": 24513,
    "understood": 13220,
    "Ġextant": 18701,
    "Ġagonising": 25376,
    "Ġhyperborean": 26343,
    "Ġpredictions": 1455,
    "Ġtru": 4103,
    "Ġwindpipe": 23113,
    "Ġpanelled": 19659,
    "Ġbravest": 23847,
    "prep": 9760,
    "Ġicelandic": 25889,
    "Ġcrouching": 23446,
    "eleg": 20851,
    "distinguished": 10526,
    "Ġsegment": 12762,
    "Ġdr": 2822,
    "ificent": 8185,
    "ckled": 9259,
    "Ġslew": 23389,
    "ler": 3494,
    "Ġslumbering": 25705,
    "calculation": 25692,
    "Ġberry": 19751,
    "Ġastonishment": 4796,
    "Ġlawyer": 10668,
    "Ġfingertips": 24023,
    "cheap": 23810,
    "Ġgettest": 23236,
    "Ġforth": 3465,
    "Ġsalutations": 25385,
    "ile": 520,
    "tar": 8099,
    "Ġdiscernment": 15056,
    "process": 11148,
    "Ġcovent": 16077,
    "ille": 9221,
    "Ġmiles": 3805,
    "Ġanaly": 1106,
    "<SOS>": 1,
    "ref": 6516,
    "ically": 832,
    "Ġdemon": 7871,
    "Ġvibrating": 13541,
    "ear": 8734,
    "Ġwhilst": 9220,
    "oy": 1028,
    "europe": 20668,
    "investments": 25536,
    "Ġfooting": 14484,
    "Ġautoregressive": 3434,
    "Ġrange": 9714,
    "Ġsoutherly": 23341,
    "Ġscriptures": 26239,
    "Ġwidest": 24239,
    "raltar": 24238,
    "Ġbundle": 13430,
    "threshold": 21994,
    "creatures": 7518,
    "ober": 15408,
    "Ġbachel": 7159,
    "strils": 10457,
    "Ġbalances": 2341,
    "Ġsaintly": 25934,
    "Ġchronic": 9930,
    "Ġho": 1933,
    "Ġlane": 5627,
    "Ġdeduce": 8338,
    "intelligence": 5885,
    "Ġtexel": 25926,
    "Ġdropping": 7484,
    "itous": 13870,
    "Ġwithdrawing": 11340,
    "squeezing": 25916,
    "aware": 16297,
    "Ġmature": 17802,
    "avern": 24794,
    "ª": 108,
    "Ġruled": 22793,
    "Ġcontrivance": 17185,
    "Ġvirgin": 7328,
    "reserve": 17767,
    "code": 15331,
    "Ġsundering": 23281,
    "P": 52,
    "Ġinjuring": 24273,
    "Ġcombination": 22858,
    "sharp": 10307,
    "izer": 2029,
    "proceeded": 25194,
    "Ġbuckle": 17033,
    "robust": 19732,
    "orously": 8421,
    "Ġexpense": 7653,
    "Ġtold": 2185,
    "Ġarchitects": 18733,
    "Ġasylum": 13670,
    "Ġcapst": 8600,
    "benefact": 24645,
    "Ġbast": 21382,
    "Ġmoral": 6581,
    "ization": 484,
    "Į": 239,
    "violence": 16479,
    "closing": 23163,
    "treacle": 25154,
    "object": 6884,
    "Ġstand": 1735,
    "without": 4848,
    "meet": 11859,
    "âĢľ_": 5720,
    "Ġscare": 18392,
    "Ġresign": 18566,
    "downward": 16620,
    "fleet": 15015,
    "etuous": 21587,
    "romed": 10905,
    "Ġdrawled": 23995,
    "expound": 23666,
    "Ġexterior": 19993,
    "Ġincor": 2611,
    "iliary": 21732,
    "Ġbearing": 5300,
    "Ġpoverty": 9306,
    "Ġeither": 2604,
    "oglyph": 11018,
    "preservation": 25309,
    "Ġzones": 22826,
    "atter": 656,
    "Ã¦mon": 7096,
    "specul": 23949,
    "Ġtrifling": 10602,
    "Ġatlantic": 7001,
    "Ġcrossing": 7253,
    "Ġfake": 5811,
    "perpendicular": 14162,
    "ortations": 22266,
    "Ġimposs": 16617,
    "mean": 6439,
    "gris": 8261,
    "Ġrept": 13986,
    "andy": 8159,
    "Ġack": 5621,
    "Ġinches": 5846,
    "returning": 12210,
    "Ġmonoman": 7940,
    "Ġpe": 852,
    "Ġrecognised": 8997,
    "Ġinstruction": 14346,
    "Ġfatality": 12100,
    "Ġrisks": 9965,
    "Ġvanished": 6874,
    "Ġlim": 2381,
    "Ġchrysalis": 26541,
    "Ġnantucketers": 9896,
    ".}": 20747,
    "Ġneeds": 6607,
    "uits": 21107,
    "Ġcirculating": 23379,
    "Ġstable": 2698,
    "Ġmethods": 3161,
    "Ġpropose": 9854,
    "Ġshoving": 23494,
    "warnings": 20354,
    "Ġdotted": 16793,
    "Ġonce": 1489,
    "Ġdevices": 2936,
    "Ġinvoked": 19148,
    "peter": 24302,
    "Ġtemptation": 8681,
    "Ġke": 1156,
    "Ġunappalled": 22070,
    "Ġinexhaustible": 16982,
    "com": 985,
    "Ġspirits": 3698,
    "Ġdraughts": 20224,
    "ructure": 762,
    "Ġdissimilar": 22539,
    "urity": 8144,
    "Ġtowns": 11173,
    "cruet": 17027,
    "Ġsebastian": 11699,
    "Ġadmirals": 20388,
    "anning": 10164,
    "âĢĶâĢĶâĢĿ": 15942,
    "breathing": 25338,
    "anyone": 16594,
    "Ġdischar": 11811,
    "Ġpolitic": 23623,
    "invol": 12535,
    "urred": 8451,
    "igger": 21706,
    "Ġlids": 12280,
    "ĠvertebrÃ¦": 11436,
    "og": 870,
    "Ġtwelfth": 22685,
    "indispensable": 14211,
    "merely": 16137,
    "urns": 10213,
    "Ġfarm": 7841,
    "Ġjamming": 17266,
    "Ġmice": 13862,
    "function": 4737,
    "Ġpetty": 19600,
    "Ġ0": 1902,
    "Ġcloudless": 16670,
    "rushed": 10584,
    "Ġleatherhead": 20019,
    "Ġmanip": 8874,
    "Ġscarcity": 23833,
    "gird": 20881,
    "Ġdivert": 23598,
    "kindred": 24057,
    "Ġwalker": 23318,
    "ids": 21770,
    "Ġdebility": 24277,
    "Ġdelighted": 5499,
    "77": 15303,
    "Ġmeddle": 20580,
    "twenty": 6609,
    "Ġdeterminate": 23011,
    "currents": 23851,
    "Ġhis": 380,
    "Ġpyramids": 15117,
    "scorched": 25701,
    "Ġwink": 11571,
    "Ġsane": 21224,
    "oky": 8199,
    "length": 7136,
    "Ġcharms": 11130,
    "Ġoffering": 3002,
    "expl": 9285,
    "tawn": 21083,
    "Ġhinge": 25545,
    "Ġplaint": 10325,
    "Ġembra": 6580,
    "Ġune": 4599,
    "imprisonment": 23767,
    "Ġacquiesce": 20332,
    "photograph": 16155,
    "Ġcommotion": 9782,
    "Ġevolved": 9893,
    "Ġaband": 6563,
    "ig": 323,
    "Ġsake": 4090,
    "Ġswimmer": 19464,
    "Ġremorselessly": 16968,
    "Ġso": 434,
    "Ġtweezers": 26559,
    "icate": 9203,
    "Ġph": 1552,
    "accountable": 7111,
    "Ġvessel": 3800,
    "Ġcreative": 9832,
    "Ġfilm": 23932,
    "ordered": 8792,
    "vering": 15719,
    "Ġanimate": 23428,
    "rifle": 21049,
    "Ġtrade": 2547,
    "osa": 22268,
    "enial": 17782,
    "Ġtenth": 13829,
    "Ġchambermaid": 24308,
    "resolved": 9641,
    "Ġtrunk": 7205,
    "gang": 17554,
    "Ġmaggie": 26295,
    "Ġunexpected": 6841,
    "Ġquaint": 18467,
    "Ġmeanwhile": 5736,
    "rets": 12546,
    "?âĢĶ": 3471,
    "Ġprot": 3848,
    "Ġsugg": 4501,
    "till": 6966,
    "Ġfejee": 18355,
    "urday": 13998,
    "Ġhumanity": 6733,
    "Ġaddressed": 5263,
    "Ġgallied": 19561,
    "Ġsnaky": 23744,
    "Ġoy": 15549,
    "strugg": 21667,
    "later": 20955,
    "Ġdespondence": 25872,
    "Ġlips": 3991,
    "Ġalle": 11668,
    "Ġdanes": 25163,
    "Ġbernard": 20687,
    "Ġlistening": 6320,
    "Ġrock": 5311,
    "iii": 14779,
    "Ġlanguid": 14218,
    "Ġbroke": 5323,
    "initions": 21190,
    "Ġtattered": 21174,
    "Ġcook": 3713,
    "Ġ1950": 11359,
    "Ġvote": 21954,
    "Ġghost": 6144,
    "mariners": 19553,
    "secured": 16939,
    "irksome": 18175,
    "Ġvigilance": 12375,
    "Ġblows": 5975,
    "Ġtender": 5753,
    "Ġnugent": 26460,
    "strom": 15687,
    "Ġunquestion": 18246,
    "Ġcad": 12573,
    "Ġmich": 21308,
    "scotland": 20532,
    "boots": 11126,
    "oquence": 11387,
    "Ġmoderate": 10939,
    "?--": 15306,
    "Ġ(_": 3738,
    "Ġgreeks": 20018,
    "Ġlater": 6019,
    "Ġprofanely": 23575,
    "Ġrevolutionized": 3371,
    "Ġglances": 10372,
    "Ġsqualid": 14370,
    "Ġcarr": 23098,
    "fing": 13716,
    "Ġsauc": 15890,
    "onsense": 6432,
    "Ġemaciated": 20641,
    "body": 2309,
    "icacy": 15661,
    "unusual": 21886,
    "Ġneatly": 17017,
    "Ġchaise": 9078,
    "Ġgrenadier": 21621,
    "ourers": 21453,
    "Ġfem": 6136,
    "Ġgleamed": 17077,
    "handed": 7483,
    "Ġremarking": 13128,
    "continued": 8679,
    "ri": 391,
    "Ġgin": 13964,
    "Ġarched": 10932,
    "Ġkidn": 20209,
    "Ķ": 247,
    "Ġsoaked": 15866,
    "Ġrumours": 24603,
    "suppose": 8648,
    "fishery": 10032,
    "Ġdrenched": 12608,
    "Ġincorrect": 2727,
    "Ġoffered": 5817,
    "Ġquitted": 5312,
    "âĢĻ!âĢĿ": 18170,
    "extinguish": 22764,
    "Ġimagination": 5759,
    "Ġpriority": 19767,
    "Ġenquired": 21947,
    "Ġsoda": 25538,
    "Ġhindrance": 25224,
    "linging": 16081,
    "Ġherb": 15859,
    "bodily": 17317,
    "Ġprove": 5231,
    "Ġ68": 24372,
    "Ġimpelled": 11785,
    "mish": 17600,
    "sue": 2074,
    "Ġarg": 4768,
    "Ġ89": 19717,
    "Ġbolts": 16944,
    "placed": 7882,
    "Ġcoward": 7156,
    "arse": 7161,
    "Ġdeparture": 6491,
    "Ġequalled": 13317,
    "Ġabruptness": 25304,
    "Ġwithhold": 18118,
    "Ġcruelty": 9970,
    "Ġpreliminaries": 25180,
    "doesn": 19825,
    "brevi": 24080,
    "Ġfantastic": 10059,
    "Ġrepetition": 8974,
    "Ġincul": 22557,
    "utes": 5916,
    "Ġsummers": 23879,
    "secret": 12241,
    "Ġguineas": 16274,
    "Ġforced": 4355,
    "Ġclaw": 22355,
    "Ġyounge": 16289,
    "Ġcomfortably": 16616,
    "ppo": 18178,
    "nevertheless": 8287,
    "meditated": 19073,
    "Ġ1883": 23904,
    "Ġmischie": 22771,
    "ingu": 2118,
    "Ġsnapping": 19305,
    "weary": 22693,
    "Ġavoid": 5199,
    "Ġdraw": 3671,
    "Ġfunctional": 3044,
    "uries": 6149,
    "Ġbroker": 23109,
    "Ġbased": 3341,
    "50": 6785,
    "Ġoccurrences": 11050,
    "Ġexpressions": 7707,
    "Ġcomposed": 8894,
    "appear": 13202,
    "Ġundeceive": 25556,
    "Ġfield": 1240,
    "Ġamidst": 9496,
    "Ġresearches": 13143,
    "antarctic": 22106,
    "Ġinitials": 11014,
    "Ġsaturation": 2061,
    "Ġcommonest": 23097,
    "Ġpry": 11602,
    "Ġfulf": 6773,
    "Ġdecreed": 18486,
    "ineer": 11702,
    "metallic": 19884,
    "Ġaspired": 25987,
    "Ġmy": 412,
    "Ġkindest": 23301,
    "concluding": 19486,
    "alot": 15629,
    "Ġfreshness": 23994,
    "vity": 7816,
    "ropy": 1099,
    "Ġtons": 11551,
    "things": 6035,
    "Ġpre": 507,
    "Ġdriver": 16475,
    "Ġgradual": 20604,
    "Ġaffectionate": 5584,
    "ugnance": 12371,
    "obliged": 20634,
    "disappo": 8986,
    "----âĢĿ": 13311,
    "Ġneighbouring": 12123,
    "avoiding": 25240,
    "Ġstages": 14007,
    "deepest": 22868,
    "Ġvill": 3878,
    "home": 7341,
    "Ġunaccount": 22032,
    "Ġmiguel": 25770,
    "Ġstoke": 10395,
    "_,âĢĿ": 6220,
    "dest": 4101,
    "heum": 17749,
    "Ġconstructed": 9389,
    "Ġbegat": 18866,
    "gravel": 22627,
    "satisfied": 10578,
    "uneven": 23688,
    "feeling": 6619,
    "Ġcetace": 14990,
    "Ġpetrified": 19601,
    "Ġscuttle": 7414,
    "ulation": 5458,
    "Ġleadenhall": 16630,
    "heat": 15499,
    "super": 5946,
    "yonder": 21147,
    "al": 292,
    "Ġtherefore": 2239,
    "inions": 8404,
    "Ġharness": 17931,
    "Ġsiberia": 26164,
    "Ġlinn": 13956,
    "comparatively": 25843,
    "ester": 11600,
    "Ġrake": 18645,
    "assertion": 22319,
    "masculine": 24389,
    "Ġcalf": 16269,
    "execut": 13659,
    "Ġhardest": 18915,
    "sheet": 16287,
    "wondered": 17117,
    "Ġappo": 8500,
    "Ġresembles": 25972,
    "sufferable": 12181,
    "Ġeh": 6988,
    "Ġunt": 2295,
    "Ġgoodge": 22830,
    "Ġlords": 14642,
    "Ġfrigates": 25710,
    "uend": 21104,
    "Ġabject": 18398,
    "Ġdel": 1617,
    "wrapped": 15212,
    "Ġteased": 18804,
    "Ġtarn": 21161,
    "property": 20005,
    "scorn": 22998,
    "intentions": 22946,
    "Ġminut": 2203,
    "running": 6798,
    "Ġshamefully": 24718,
    "ĠĠĠĠĠĠĠĠĠĠĠĠĠĠĠĠĠĠĠĠĠĠĠĠĠĠĠĠĠĠĠĠĠĠĠĠĠĠĠĠĠĠĠĠĠĠĠĠĠĠĠĠĠĠĠĠĠĠĠĠ": 19264,
    "Ġtap": 12531,
    "Ġconfession": 11235,
    "Ġgarb": 21607,
    "Ġcoupled": 16852,
    "judging": 24206,
    "Ġimport": 1030,
    "repe": 8779,
    "Ġcommunicative": 24550,
    "Ġframed": 19076,
    "egypt": 15352,
    "Ġnervousness": 23562,
    "Ġpillar": 21477,
    "Ġinvulnerable": 19150,
    "Ġpave": 8802,
    "bweb": 20793,
    "Ġharpoon": 3617,
    "Ġmodels": 777,
    "Ġpar": 456,
    "Ġdecomposes": 5506,
    "whisper": 17083,
    "Ġ4": 3986,
    "Ġpronounce": 16969,
    "Ġentertainment": 12227,
    "Ġhatch": 7849,
    "Ġdraught": 9845,
    "û": 188,
    "comprehend": 14361,
    "Ġearthquake": 14629,
    "burning": 25085,
    "Ġattached": 5392,
    "Ġtest": 1500,
    "Ġsupp": 1266,
    "calcul": 12992,
    "nowledge": 10289,
    "Ġlazarus": 15030,
    "Ġtarpaul": 17732,
    "istrate": 7406,
    "Ġsinking": 7307,
    "Ġtin": 15465,
    "Ġclutched": 13522,
    "Ġintegration": 9869,
    "Ġsuits": 22084,
    "Ġmabel": 17326,
    "Ġworaciousness": 22936,
    "Ġrepented": 23369,
    "Ġinfiltrated": 23289,
    "Ġsmoky": 22566,
    "fer": 1916,
    "ullo": 12734,
    "Ġperiodical": 14775,
    "lesson": 22780,
    "heaven": 8054,
    "Ġcrazy": 8597,
    "Ġcrosswise": 18888,
    "verity": 14004,
    "Ġdefer": 18825,
    "assment": 9742,
    "unity": 4147,
    "Ġassuring": 13069,
    "Ġcharcoal": 19010,
    "gold": 9122,
    "Ġcompanion": 3644,
    "Ġbase": 5014,
    "Ġinferior": 8367,
    "vi": 2376,
    "L": 48,
    "Ġsofas": 26228,
    "Ġsimilarly": 24312,
    "ilet": 12834,
    "Ġbureau": 11592,
    "Ġmanilla": 15962,
    "Ġcaved": 21356,
    "Ġghastly": 10060,
    "Ġheartless": 13077,
    "Ġtainted": 21173,
    "Ġmisunderstand": 18708,
    "Ġtempt": 5564,
    "Ġausten": 5883,
    "erated": 21273,
    "Ġheave": 7601,
    "Ġmagn": 1558,
    "changed": 7176,
    "rosc": 17958,
    "Ġmarried": 3412,
    "carbuncle": 26385,
    "Ġswinging": 7449,
    "pret": 7212,
    "Ġretrieval": 10674,
    "plendent": 21971,
    "promising": 24728,
    "Ġoffing": 16146,
    "Ġcognitive": 13638,
    "Ġslung": 23175,
    "Ġinstinct": 6577,
    "Ġskeleton": 5514,
    "acters": 9311,
    "Ġlightened": 23268,
    "Ġtrous": 10958,
    "Ġcaution": 11346,
    "thousands": 16871,
    "least": 8787,
    "Ġsworn": 14438,
    "Ġshrimp": 24162,
    "ham": 1702,
    "Ġsta": 18066,
    "scar": 9818,
    "ĠĠĠĠĠĠĠĠĠĠĠĠĠĠĠĠĠĠĠĠĠĠĠĠĠĠĠĠ": 9976,
    "odes": 18122,
    "Ġcommanded": 6332,
    "leader": 25354,
    "Ġhuman": 1317,
    "announce": 24563,
    "urry": 13997,
    "ondency": 15272,
    "Ġpore": 21462,
    "Ġhing": 11606,
    "mbling": 3347,
    "onent": 21251,
    "handle": 11190,
    "baned": 17497,
    "Ġadmirer": 16839,
    "Ġwonder": 2115,
    "Ġrustic": 14967,
    "vacancies": 25922,
    "mb": 883,
    "Ġnights": 7258,
    "Ġfors": 21778,
    "iations": 11496,
    "dut": 10087,
    "accompl": 9881,
    "arking": 16128,
    "Ġthickly": 12120,
    "cannibals": 25588,
    "aited": 12439,
    "highest": 20411,
    "oper": 7347,
    "conda": 18996,
    "da": 17515,
    "Ġgreyish": 24213,
    "Ġmarked": 4620,
    "Ġoccup": 3741,
    "Ġ84": 19714,
    "Ġinconvenience": 9565,
    "Ġarid": 22189,
    "Ġdimensions": 16573,
    "Ġsigning": 22713,
    "bation": 9105,
    "inaw": 21186,
    "Ġapprised": 18362,
    "contrasted": 17308,
    "Ġthrill": 24543,
    "Ġincommun": 25312,
    "wrinkles": 16556,
    "Ġpainter": 19172,
    "shud": 18495,
    "Ġassurance": 7776,
    "remem": 13072,
    "oking": 4607,
    "Ġstairs": 5540,
    "alescence": 15927,
    "Ġleading": 7297,
    "w": 91,
    "wich": 11545,
    "Ġbrotherhood": 23673,
    "Ġpin": 7162,
    "Ġsuggestions": 24455,
    "Ġfearlessness": 19165,
    "fere": 10989,
    "fury": 17548,
    "dough": 15337,
    "sustained": 20571,
    "Ġexpected": 3697,
    "Ġross": 2765,
    "Ġrepeated": 3832,
    "Ġhappiest": 11885,
    "Ġanalogy": 25643,
    "gra": 770,
    "Ġjune": 10288,
    "Ġvilla": 14749,
    "devils": 20038,
    "Ġthre": 2058,
    "Ġmor": 1251,
    "Ġchildhood": 13141,
    "Ġstil": 15721,
    "Ġhinges": 15215,
    "Ġstick": 6028,
    "Ġott": 13869,
    "Ġindepend": 3668,
    "Ġhate": 5445,
    "Ġcoarse": 14276,
    "scand": 18858,
    "Ġdenoted": 16567,
    "ading": 5092,
    "inch": 10755,
    "Ġhot": 4259,
    "Ġchagrin": 20610,
    "Ġpine": 8799,
    "Ġcompatibility": 2954,
    "Ġdetermined": 2223,
    "Ġmacro": 25942,
    "Ġestablish": 9545,
    "Ġabsorbing": 17130,
    "iers": 5993,
    "Ġpist": 12620,
    "Ġperman": 10964,
    "Ġunful": 22016,
    "Ġelder": 7223,
    "Ġafrican": 20141,
    "Ġineff": 12639,
    "Ġzeros": 3327,
    "terrors": 25048,
    "Ġrumbling": 18212,
    "Ġeul": 21625,
    "Ġcadiz": 17327,
    "Ġwelfare": 12564,
    "sheltered": 25589,
    "Ġfulfilment": 20191,
    "Ġhorn": 6187,
    "malicious": 19906,
    "affairs": 14657,
    "Ġconsisting": 8973,
    "Ġunderstanding": 1782,
    "confidence": 16809,
    "na": 13763,
    "icting": 12857,
    "Ġpedest": 15068,
    "different": 6502,
    "Ġblasphe": 17409,
    "Ġturning": 3329,
    "endeavour": 17031,
    "Ġwillow": 18532,
    "_.,": 14562,
    "Ġmodesty": 12825,
    "Ġflurry": 18864,
    "unwholesome": 26500,
    "Ġsullenly": 17174,
    "danger": 10089,
    "Ġcracks": 12023,
    "farintosh": 24555,
    "urried": 21709,
    "ergy": 2362,
    "Ġcopestone": 24943,
    "Ġfinds": 6301,
    "stealthily": 23968,
    "_)âĢĶ": 20148,
    "happening": 16566,
    "iro": 20916,
    "Ġtinge": 25094,
    "plunging": 25990,
    "Ġwester": 25159,
    "e": 73,
    "Ġprofundity": 20455,
    "Ġenabling": 1076,
    "Ġrafters": 22663,
    "Ġimplore": 24877,
    "Ġsnuff": 7993,
    "somers": 19373,
    "grim": 19110,
    "youn": 5690,
    "oce": 10714,
    "uming": 8494,
    "Ġteneriffe": 26417,
    "Ġsacrifice": 9557,
    "Ġprank": 23224,
    "rying": 3189,
    "sales": 17669,
    "Ġpossessor": 23830,
    "ectual": 21922,
    "court": 7512,
    "coff": 9111,
    "Ġdelayed": 9520,
    "Ġemail": 19078,
    "Ġstricken": 9778,
    "Ġdeficient": 18827,
    "Ġappearance": 3700,
    "Ġlurk": 13387,
    "Ġsofa": 10270,
    "fluttering": 23979,
    "Ġshoreless": 24299,
    "being": 3913,
    "blame": 14796,
    "eness": 2292,
    "Ġfow": 6135,
    "Ġliberally": 16831,
    "uel": 6967,
    "handled": 19265,
    "Ġnarrowly": 16821,
    "Ġsymphony": 26535,
    "Ġplease": 4724,
    "Ġcomprehending": 24447,
    "Ġac": 846,
    "Ġdiabolism": 25518,
    "Ġhardships": 14453,
    "city": 15329,
    "ork": 416,
    "Ġtroubling": 26550,
    "Ġtemporary": 7982,
    "Ġdecks": 6900,
    "Ġappeals": 16319,
    "Ġpollard": 20389,
    "between": 5072,
    "othic": 16218,
    "Ġrefreshed": 15293,
    "shall": 4551,
    "Ġgiven": 1628,
    "Ġcontextual": 3744,
    "Ġsuite": 18279,
    "vid": 916,
    "fleece": 19953,
    "Ġwestern": 10654,
    "Ġbrick": 8927,
    "Ġdonkey": 23232,
    "outward": 22167,
    "Ġbraw": 23841,
    "Ġresolved": 3798,
    "Ġslugg": 15271,
    "Ġingrat": 16841,
    "Ġf": 283,
    "Ġweld": 8113,
    "Ġoblong": 14323,
    "Ġbottle": 7491,
    "Ġlothario": 26188,
    "Ġgret": 21605,
    "Ġ235": 25715,
    "Ġmysterious": 7528,
    "ignity": 4377,
    "Ġbrit": 6291,
    "Ġamong": 1670,
    "ccas": 15895,
    "Ġharsh": 9523,
    "hello": 13368,
    "missing": 13224,
    "distinct": 13340,
    "Ġeclips": 20699,
    "Ġindicates": 3197,
    "Ġcurt": 18840,
    "skirted": 24491,
    "Ġmoulton": 17437,
    "Ġsn": 2944,
    "immed": 9219,
    "Ġinstituted": 18705,
    "Ġdecorated": 22453,
    "hammer": 14490,
    "Ġfits": 8793,
    "Ġtrains": 10947,
    "Ġexal": 10877,
    "Ġserene": 8168,
    "profess": 10628,
    "Ġfoss": 9852,
    "Ġchimneys": 16973,
    "younger": 11312,
    "Ġwaking": 11572,
    "Ġchinese": 14185,
    "Ġhogshe": 20495,
    "Ġfre": 1572,
    "oftener": 23971,
    "ulum": 21870,
    "verbally": 25363,
    "Ġdogs": 7743,
    "Ġunaffected": 14124,
    "nihil": 9849,
    "Ġcoars": 14273,
    "iving": 1726,
    "Ġdrama": 16332,
    "Ġbowsman": 11253,
    "vii": 13152,
    "Ġsilken": 16384,
    "ow": 325,
    "Ġfollies": 16260,
    "Ġenough": 1761,
    "Ġentering": 6287,
    "Ġruth": 14097,
    "_.)": 7278,
    "masts": 19430,
    "Ġpiling": 17914,
    "Ġwrites": 23208,
    "Ġyankees": 26205,
    "Ġenemies": 9040,
    "Ġbeing": 1166,
    "Ġpoints": 5249,
    "Ġsuspicions": 9481,
    "aping": 8195,
    "elaborate": 21580,
    "Ġaudacity": 19886,
    "versed": 9827,
    "party": 8994,
    "asht": 4082,
    "zors": 21150,
    "Ġfishers": 19359,
    "mistak": 16879,
    "onse": 21252,
    "shell": 16288,
    "anoke": 21364,
    "ipelagoes": 13675,
    "Ġplainer": 23707,
    "Ġwire": 13855,
    "Ġrefuge": 8542,
    "cures": 20807,
    "Ġattics": 22634,
    "Ġcomfits": 21859,
    "Ġgrip": 11629,
    "Ġset": 1177,
    "Ġsavage": 4010,
    "Ġrubber": 22794,
    "elves": 2156,
    "Ġcheering": 11133,
    "lott": 6653,
    "glances": 23859,
    "eat": 11484,
    "Ġdri": 2364,
    "evidence": 25525,
    "Ġarranging": 11174,
    "Ġribbed": 16805,
    "Ġflu": 3279,
    "Ġslapped": 23178,
    "affections": 17358,
    "near": 5843,
    "Ġangels": 11178,
    "Ġstring": 11830,
    "bies": 15315,
    "lascar": 20962,
    "Ġendeavours": 8621,
    "gods": 13371,
    "blooded": 20028,
    "Ġceasing": 23762,
    "Ġwithdra": 6399,
    "Ġgrowl": 16538,
    "leg": 2812,
    "Ġscrut": 15948,
    "Ġclothes": 4998,
    "Ġcared": 8785,
    "Ġsurrounded": 5881,
    "Ġstare": 10864,
    "Ġpracticable": 19038,
    "Ġperilously": 24506,
    "Ġaudience": 24771,
    "itty": 3556,
    "Ġbowels": 9432,
    "Ġescort": 23510,
    "Ġfrenchman": 11283,
    "Ġenvelop": 5585,
    "Ġhandles": 22702,
    "Ġmincer": 14366,
    "Ġborrow": 10170,
    "Ġhurts": 19115,
    "Ġtribe": 10751,
    "darted": 20834,
    "wandered": 20288,
    "algorith": 3355,
    "Ġfoiled": 23251,
    "Ġstartling": 14672,
    "Ġ113": 19701,
    "craft": 12251,
    "Ġbands": 14886,
    "adventure": 17235,
    "Ġtransformer": 2637,
    "Ġ13": 6720,
    "Ġunpleasant": 7191,
    "Ġdandy": 17895,
    "Ġtransom": 22446,
    "Ġattributed": 11838,
    "Ġoverwhelm": 25059,
    "pair": 21014,
    "omitted": 18020,
    "Ġdiscomp": 11869,
    "Ġpuppy": 12409,
    "Ġdrew": 3539,
    "legs": 13186,
    "mospheric": 17091,
    "Ġbiggest": 24569,
    "Ġgroups": 3720,
    "Ġbesee": 19247,
    "Ġinsect": 12641,
    "Ġassembled": 9238,
    "fool": 9049,
    "Ġadieu": 10051,
    "Ġdrawings": 14724,
    "Ġactions": 6280,
    "Ġpair": 5706,
    "isc": 6241,
    "Ġpavement": 9579,
    "Ġdiscrimin": 2546,
    "Ġprince": 18974,
    "Ġkneel": 14809,
    "Ġhoard": 23359,
    "Ġreappeared": 21670,
    "lested": 14885,
    "Ġdissol": 18553,
    "Ġdough": 8423,
    "Ġillustrate": 25072,
    "Ġapproximate": 2343,
    "Ġdece": 6997,
    "Ġwarmup": 3921,
    "Ġmomentum": 1604,
    "ht": 375,
    "Ġmoss": 9286,
    "Ġomnipotent": 13552,
    "Ġlxi": 21565,
    "Ġacute": 16126,
    "Ġabhor": 5467,
    "kovoko": 20672,
    "Ġcomprehensive": 15090,
    "Ġjun": 8508,
    "Ġbathed": 17868,
    "Ġrestrained": 16378,
    "race": 11633,
    "Ġrevelations": 25227,
    "Ġfallen": 5970,
    "oughed": 22082,
    "Ġjohn": 5033,
    "Ġtrustees": 24112,
    "Ġflutter": 16249,
    "Ġwantest": 18793,
    "eaten": 20347,
    "Ġsteadfast": 8682,
    "batross": 9095,
    "regarded": 12011,
    "Ġnantucket": 2836,
    "Ġrel": 1092,
    "Ġtennessee": 26599,
    "bounded": 13443,
    "Ġflattening": 26051,
    "Ġgrassy": 24381,
    "!--": 10677,
    "Ġdrink": 4789,
    "Ġlod": 4041,
    "disappointed": 25195,
    "mrs": 3746,
    "ad": 337,
    "Ġmachines": 1776,
    "Ġsoon": 1228,
    "Ġentirely": 3436,
    "ir": 379,
    "Ġnotion": 7884,
    "Ġcommissionaire": 17001,
    "thes": 7391,
    "cur": 3272,
    "Ġoffending": 22746,
    "vig": 15448,
    "stun": 18022,
    "Ġbeaufort": 13572,
    "Ġsphynx": 20714,
    "splash": 25213,
    "Ġstillness": 13000,
    "Ġdumb": 7844,
    "alarms": 21509,
    "Ġegyptians": 25293,
    "floating": 12232,
    "Ġbeating": 8146,
    "Ġfinger": 5274,
    "Ġawoke": 7286,
    "Ġimpact": 10293,
    "Ġjelly": 22308,
    "Ġlearnt": 7615,
    "Ġlaws": 8004,
    "zening": 21151,
    "Ġwomanly": 23557,
    "Ġinhospit": 25456,
    "Ġneskye": 21535,
    "hurrying": 14985,
    "complet": 11384,
    "Ġanatomical": 15079,
    "Ġpirate": 14997,
    "Ġphilosop": 5058,
    "inform": 10143,
    "singing": 24365,
    "all": 486,
    "Ġphase": 14474,
    "athies": 22707,
    "Ġmonarchs": 25853,
    "conv": 7213,
    "abroad": 18111,
    "arest": 4004,
    "Ġimprudence": 10294,
    "Ġsuavely": 26526,
    "Ġimpunity": 14214,
    "Ġpuzzled": 7317,
    "allah": 5839,
    "Ġlived": 3990,
    "Ġimpetus": 25573,
    "Ġfet": 5808,
    "ifix": 21910,
    "Ġfoster": 18994,
    "aurus": 20563,
    "Ġdeclining": 23970,
    "pool": 16210,
    "Ġconve": 5455,
    "Ġintruding": 21998,
    "quite": 4647,
    "iam": 2510,
    "Ġwarming": 23563,
    "Ġremote": 8922,
    "Ġcaress": 16341,
    "lift": 15387,
    "Ġpurposes": 11168,
    "learn": 2275,
    "Ġprotruded": 19475,
    "Ġsubmit": 11873,
    "Ġshoes": 7073,
    "Ġsleepy": 8269,
    "ilated": 18061,
    "ptic": 21925,
    "ashion": 3859,
    "Ġheedfully": 24523,
    "Ġsavages": 9913,
    "distressed": 24204,
    "vocation": 25091,
    "pistol": 17644,
    "Ġmerchant": 6468,
    "shortly": 12263,
    "Ġobjection": 6587,
    "ieved": 3231,
    "iscuit": 10598,
    "Ġcheek": 8581,
    "Ġissue": 2313,
    "Ġtranquo": 14845,
    "held": 3841,
    "Ġproceeding": 9907,
    "knew": 9128,
    "vit": 13804,
    "Ġforbidden": 17078,
    "take": 4577,
    "astrous": 15888,
    "Ġsnowy": 9020,
    "Ġprovidence": 18748,
    "Ġshudder": 9052,
    "simp": 17667,
    "Ġdive": 10172,
    "etch": 9206,
    "Ġconsists": 11981,
    "Ġbouquet": 20686,
    "Ġdemoniacal": 20559,
    "Ġolfactories": 26174,
    "Ġchurchyard": 16778,
    "._)": 10480,
    "Ġsalted": 14758,
    "tram": 19648,
    "Ġprosperous": 15173,
    "Ġrespectable": 6738,
    "Ġservices": 11217,
    "Ġdiet": 13913,
    "horr": 14600,
    "Ġlead": 3525,
    "Ġlun": 7857,
    "Ġinsp": 2097,
    "Ġseat": 4950,
    "Ġoblivion": 26034,
    "ittleness": 22384,
    "Ġleviathans": 8283,
    "Ġrod": 9282,
    "Ġeuropean": 20051,
    "Ġscrutin": 26017,
    "uteronomy": 15667,
    "Ġjon": 15951,
    "Ġoverjoyed": 17460,
    "Ġunimportant": 22035,
    "desper": 13223,
    "Ġhumaneval": 25586,
    "Ġsumat": 14133,
    "Ġcamp": 9166,
    "Ġson": 2979,
    "Ġspeed": 2446,
    "Ġhart": 17925,
    "Ġprognost": 15284,
    "Ġdiffer": 18679,
    "trad": 21078,
    "snatched": 24855,
    "Ġenjoined": 18192,
    "Ġcamberwell": 25353,
    "inkers": 22626,
    "drink": 10595,
    "Ġglens": 18857,
    "definition": 23125,
    "Ġinscrut": 10034,
    "Ġstony": 21746,
    "Ġinflex": 20637,
    "antingly": 22105,
    "Ġlouisiana": 25083,
    "Ġgrimes": 11034,
    "Ġsuperiors": 23459,
    "Ġexplored": 23523,
    "Ġdemanding": 16806,
    "humanity": 24844,
    "Ġproved": 4885,
    "rush": 7012,
    "h": 76,
    "virtue": 20572,
    "mselves": 2860,
    "Ġlitter": 19834,
    "erve": 12554,
    "Ġsecurely": 16803,
    "liest": 6296,
    "Ġreputed": 18039,
    "Ġinflicted": 11365,
    "Ġadler": 8175,
    "travellers": 24341,
    "Ġpope": 11604,
    "motion": 17608,
    "ational": 5716,
    "customary": 25898,
    "Ġinnermost": 12165,
    "Ġbushes": 16403,
    "ary": 988,
    "Ġclut": 7643,
    "hitherto": 17285,
    "Ġtying": 15475,
    "cannot": 5745,
    "wear": 22690,
    "Ġcautious": 12258,
    "Ġrecomm": 4997,
    "judges": 19578,
    "Ġlakeman": 6987,
    "Ġharb": 7370,
    "dam": 7799,
    "Ġpoetic": 17103,
    "Ġlashing": 11618,
    "Ġnotwithstanding": 9716,
    "washed": 13051,
    "insula": 23074,
    "speaks": 19724,
    "Ġgardiner": 3240,
    "Ġwont": 9853,
    "Ġcooper": 16080,
    "Ġunlimited": 26226,
    "Ġhardened": 14452,
    "Ġ92": 24595,
    "gallantry": 15062,
    "Ġtrial": 6637,
    "Ġrome": 12160,
    "ain": 343,
    "Ġparents": 6754,
    "exagger": 22436,
    "Ġfondly": 19621,
    "Ġbulldog": 23865,
    "Ġfriendship": 7246,
    "Ġbreach": 11977,
    "Ġsailors": 4279,
    "athom": 12944,
    "leaves": 12583,
    "Ġbass": 17858,
    "ura": 1121,
    "Ġcrow": 3806,
    "crat": 24091,
    "inite": 6004,
    "sey": 5542,
    "lingering": 18603,
    "yder": 10138,
    "Ġsmelt": 16068,
    "iably": 13741,
    "Ġunclasp": 26514,
    "Ġsteeple": 19292,
    "Ġstoop": 16312,
    "Ġmornings": 16240,
    "ool": 17620,
    "yet": 3754,
    "there": 1424,
    "Ġsli": 4750,
    "ationally": 15708,
    "Ġinvincible": 23484,
    "wild": 8770,
    "irt": 3076,
    "Ġfails": 13318,
    "league": 17847,
    "Ġwalks": 8968,
    "Ġantics": 24183,
    "Ġseedy": 21962,
    "aves": 3600,
    "treasures": 26155,
    "gd": 3126,
    "poster": 11056,
    "Ġtant": 12530,
    "Ġbale": 7839,
    "destined": 24119,
    "sed": 4175,
    "Ġnow": 692,
    "watches": 14949,
    "alously": 15632,
    "Ġxxxvi": 24978,
    "chancing": 22923,
    "Ġpretended": 19318,
    "memory": 13621,
    "seam": 10874,
    "torn": 17684,
    "Ġprecipices": 12282,
    "Ġdetection": 3235,
    "Ġbye": 12743,
    "season": 14037,
    "ed": 293,
    "Ġcarried": 3694,
    "gentle": 5357,
    "Ġposs": 1619,
    "Ġinvent": 7165,
    "Ġflush": 14426,
    "mystic": 25320,
    "Ġs": 265,
    "Ġyoked": 15738,
    "empty": 23640,
    "Ġfumbled": 17884,
    "Ġsemicircular": 26072,
    "Ġrepaid": 19086,
    "Ġsplash": 16550,
    "Ġmessages": 24990,
    "Ġhove": 17926,
    "Ġgrapple": 25815,
    "Ġglittering": 10053,
    "Ġlifting": 10196,
    "probability": 17023,
    "Ġconvincing": 19312,
    "Ġsmiles": 6708,
    "Ġconcerning": 4067,
    "mpus": 13760,
    "Ġundergo": 23242,
    "90": 12436,
    "Ġmalignant": 14880,
    "Ġknocking": 10559,
    "Ġwonderful": 4564,
    "Ġcolouring": 16752,
    "Ġdrawback": 23996,
    "abil": 2007,
    "Ġleisure": 6541,
    "į": 240,
    "fur": 6357,
    "Ġdews": 21846,
    "Ġscener": 10949,
    "Ġmassac": 14738,
    "ines": 667,
    "Ġbarrier": 16571,
    "tenderly": 20534,
    "wick": 5363,
    "Ġlaid": 3940,
    "Ġclipping": 2438,
    "Ġeuroclydon": 15299,
    "recogn": 13429,
    "Ġmining": 22836,
    "icted": 5939,
    "salesman": 20674,
    "Ġmending": 17807,
    "rad": 2151,
    "Ġadvanced": 1530,
    "Ġgovernor": 16492,
    "Ġdisputing": 25827,
    "enhall": 13853,
    "Ġgasps": 24870,
    "Ġfail": 4144,
    "Ġlance": 4880,
    "Ġgrapes": 15218,
    "Ġsupper": 4666,
    "darcy": 5208,
    "Ġbended": 21388,
    "Ġconsecut": 18114,
    "Ġnowadays": 18548,
    "Ġcomparable": 24283,
    "Ġinaudible": 21503,
    "twig": 23702,
    "eler": 1573,
    "Î": 143,
    "Ġplanned": 14754,
    "Ġbutcher": 18272,
    "bled": 5469,
    "hearts": 13349,
    "Ġjudged": 12088,
    "Ġmottled": 20681,
    "Ġshaped": 15837,
    "Ġlany": 21558,
    "Ġmoist": 9287,
    "Ġpretence": 13211,
    "Ġcath": 17829,
    "obviously": 25246,
    "Ġesteem": 7532,
    "mical": 9130,
    "Ġlightness": 23267,
    "Ġdesol": 6881,
    "Ġmonomaniac": 9570,
    "Ġpauper": 26182,
    "Ġeconomically": 25292,
    "Ġpatch": 4181,
    "roofed": 26187,
    "Ġhawaiian": 25369,
    "sperm": 5203,
    "iluvian": 18064,
    "iriously": 18174,
    "Ġ53": 19640,
    "butter": 11788,
    "ively": 1304,
    "Ġgodly": 19084,
    "Ġdit": 21424,
    "Ġmarriage": 3191,
    "answered": 10273,
    "disinterested": 23506,
    "irresist": 21919,
    "Ġtheory": 5799,
    "es": 288,
    "accepted": 20140,
    "Ġ-": 1946,
    "ineff": 21973,
    "Ġpossessed": 5195,
    "Ġsuspicion": 6213,
    "plicable": 10256,
    "proceeding": 20145,
    "Ġchimer": 24607,
    "Ġambitious": 18516,
    "atiable": 17776,
    "insisted": 23075,
    "Ġlongitudes": 22641,
    "ef": 5134,
    "Ġvessels": 6757,
    "eminence": 20104,
    "Ġpregnant": 26538,
    "Ġdesolate": 10014,
    "wandering": 20287,
    "Ġbir": 17856,
    "Ġbackbone": 22666,
    "Ġemma": 20697,
    "struck": 7864,
    "Ġbaker": 4697,
    "lished": 8384,
    "tube": 20414,
    "bots": 10082,
    "Ġmidst": 7987,
    "anqu": 4107,
    "hush": 20908,
    "Ġhellaswag": 24345,
    "Ġmainmast": 9781,
    "Ġprivilege": 11420,
    "Ġdaboll": 25953,
    "lightened": 12069,
    "utch": 21590,
    "Ġsuckling": 26000,
    "Ġcompensated": 17403,
    "Ġbeacon": 21763,
    "Ġsignificant": 8637,
    "Ġconfident": 11138,
    "Ġsecluded": 11996,
    "Ġclubbed": 26549,
    "Ġimpulsively": 24885,
    "Ġunworthy": 11718,
    "painting": 17046,
    "woof": 21142,
    "Ġdilated": 24706,
    "Ġet": 3582,
    "Ġchoking": 15937,
    "Ġinter": 729,
    "Ġhooded": 12410,
    "Ġninetieth": 25360,
    "woman": 5901,
    "varied": 23194,
    "Ġbooks": 4676,
    "accursed": 20543,
    "Ġpacific": 5153,
    "Ġextracted": 16331,
    "lovely": 16049,
    "tes": 11530,
    "again": 3402,
    "$": 8,
    "retch": 4374,
    "cases": 12452,
    "mbles": 23096,
    "successful": 11358,
    "Ġfeeling": 3083,
    "Ġunlo": 22017,
    "yielded": 25760,
    "Ġfairness": 9895,
    "Ġmermaid": 17816,
    "iling": 3093,
    "than": 4087,
    "soup": 21061,
    "Ġmary": 3844,
    "Ġcave": 10785,
    "puted": 8849,
    "orable": 8121,
    "Ġpromises": 10400,
    "onde": 21254,
    "Ġconjoined": 21813,
    "drawn": 9914,
    "wholly": 10941,
    "Ġpalp": 11249,
    "Ġmind": 1622,
    "back": 2016,
    "Ġenglishmen": 19435,
    "Ġgaping": 13972,
    "Ġemergencies": 17364,
    "etical": 13961,
    "Ġmccarthy": 5145,
    "Ġevap": 19628,
    "clergy": 18937,
    "Ġsensibility": 14513,
    "atical": 10771,
    "Ġborder": 10169,
    "Ġchemical": 10411,
    "isters": 11923,
    "nantucketer": 24981,
    "Ġfrank": 4422,
    "dangerous": 20243,
    "Ġpenal": 1773,
    "hedge": 22507,
    "Ġsevent": 18201,
    "pilot": 25911,
    "longer": 8616,
    "Ġought": 3422,
    "Ġlandlady": 10421,
    "Ġpursuers": 13231,
    "Ġslight": 3120,
    "Ġrepairing": 25593,
    "Ġbrought": 2517,
    "Ġsubsequently": 16163,
    "Ġcruisers": 25866,
    "Ġcrib": 21351,
    "Ġri": 3398,
    "Ġending": 18925,
    "Ġspray": 7896,
    "value": 18813,
    "Ġindistinct": 17410,
    "Ġloosed": 22119,
    "Ġimminent": 11244,
    "ghost": 20889,
    "Ġram": 11013,
    "dun": 17517,
    "det": 5207,
    "Ġdict": 9177,
    "Ġuseful": 3560,
    "erable": 1917,
    "Ġaware": 5756,
    "Ġdecided": 5471,
    "ets": 1160,
    "Ġupward": 9723,
    "Ġgour": 21602,
    "acity": 5735,
    "somebody": 14565,
    "Ġbeards": 21758,
    "licted": 20958,
    "Ġnoon": 6561,
    "whatsoever": 18489,
    "sigma": 2998,
    "Ġcos": 2207,
    "Ġfishermen": 5973,
    "iters": 21332,
    "Ġguards": 16272,
    "Ġeven": 1024,
    "Ġpupp": 10820,
    "Ġigniting": 25077,
    "Ġajar": 21205,
    "Ġberyls": 25779,
    "devouring": 24957,
    "head": 1435,
    "Ġcoding": 8117,
    "icide": 11620,
    "Ġzig": 18746,
    "accidents": 19216,
    "breaking": 14767,
    "Ġluxuries": 25170,
    "atch": 674,
    "Ġsaloon": 24070,
    "Ġjoosy": 23637,
    "Ġbush": 23343,
    "Ġpatient": 6894,
    "Ġcapture": 3388,
    "Ġfing": 3758,
    "Ġmod": 501,
    "keeping": 8638,
    "size": 15426,
    "Ġthinner": 24187,
    "Ġsupported": 9820,
    "Ġsuperstitions": 17072,
    "Ġhebrew": 13991,
    "Ġsherry": 19456,
    "Ġst": 332,
    "Ġelevate": 24501,
    "Ġheld": 3587,
    "abez": 10222,
    "ts": 959,
    "Ġankles": 17902,
    "Ġhugh": 15005,
    "ith": 330,
    "ult": 723,
    "Ġtar": 2563,
    "dient": 440,
    "Ġfriesland": 26445,
    "Ġunwell": 22022,
    "inquire": 16933,
    "Ġestimate": 19378,
    "Ġsuccor": 25666,
    "quarried": 24952,
    "Ġit": 339,
    "Ġhurling": 19114,
    "exam": 10976,
    "fully": 2202,
    "tend": 17676,
    "Ġwooing": 19439,
    "Ġchim": 5935,
    "oubted": 5861,
    "Ġstealing": 18895,
    "itying": 22001,
    "suspicions": 25394,
    "Ġunlock": 18241,
    "Ġsky": 3969,
    "ĕ": 214,
    "Ġrug": 16160,
    "ensical": 18569,
    "Ġtoilet": 13940,
    "ssip": 14082,
    "Ġrecovered": 5481,
    "Ġvigorous": 10566,
    "Ġbreathe": 9014,
    "Ġprogressive": 5025,
    "Ġtag": 15470,
    "met": 6655,
    "Ġignited": 25076,
    "hab": 1074,
    "opolising": 25680,
    "Ġcane": 10927,
    "Ġlou": 6822,
    "Ġspinning": 15054,
    "Ġparchment": 13656,
    "Ġsplendour": 20227,
    "Ġeagerly": 4991,
    "Ġpoorly": 9856,
    "clings": 23159,
    "Ġtree": 5285,
    "Ġelusive": 22653,
    "Ġvacancies": 24347,
    "Ġexerc": 6833,
    "bene": 6114,
    "umbria": 23901,
    "Ġbags": 24539,
    "Ġlights": 8962,
    "itage": 17819,
    "visual": 24227,
    "Ġstones": 9223,
    "lanterns": 17431,
    "Ġdispirited": 23888,
    "Ġaltering": 18105,
    "Ġsensible": 4977,
    "inates": 21183,
    "advance": 12161,
    "Ġexhaustion": 14963,
    "Ġbriskly": 25315,
    "olstadt": 7790,
    "Ġmerited": 23733,
    "Ġgold": 3280,
    ".âĢĶâĢľ": 20749,
    "atlantic": 15526,
    "that": 851,
    "Ġpositively": 13036,
    "Ġopposing": 12044,
    "Ġreturned": 2888,
    "Ġfruit": 12330,
    "Ġprosecution": 12385,
    "Ġmisfortunes": 7043,
    "Ġpossesses": 19357,
    "Ġsermon": 12380,
    "Ġhigh": 933,
    "Ġrallied": 14099,
    "Ġenhance": 3124,
    "Ġventil": 8020,
    "principle": 10650,
    "Ġbar": 3149,
    "Ġobserve": 4671,
    "ivity": 1678,
    "Ġdies": 11595,
    "Ġfeeding": 7973,
    "Ġlucifers": 16589,
    "mur": 5428,
    "Ġtransformations": 3487,
    "gazing": 12476,
    "Ġundaunted": 24124,
    "Ġgaiters": 20464,
    "Ġestimation": 11218,
    "Ġvisit": 2584,
    "arboard": 7266,
    "icable": 6389,
    "Ġsurging": 19137,
    "similar": 13457,
    "bre": 3979,
    "Ġunsc": 22019,
    "Ġannihilation": 15168,
    "Ġupdate": 2463,
    "adam": 15733,
    "Ġrepaired": 13112,
    "4": 24,
    "Ġcrushed": 9425,
    "Ġfriendly": 9822,
    "stem": 567,
    "Ġstabilizing": 3657,
    "som": 3292,
    "Ġparading": 23713,
    "edged": 15634,
    "Ġzoned": 22827,
    "Ġtypewriting": 16423,
    "Ġproject": 5545,
    "uity": 12522,
    "daugh": 6789,
    "Ġplanet": 14752,
    "depart": 12270,
    "Ġgreenwich": 19325,
    "Ġmountains": 4429,
    "Ġcurses": 13013,
    "Ġmighty": 4232,
    "ahab": 4293,
    "Ġcountryside": 23601,
    "frozen": 25146,
    "peddling": 21034,
    "Ġnourishment": 15195,
    "glanced": 19371,
    "Ġaccounted": 10296,
    "Ġink": 8805,
    "atmospheric": 17778,
    "Ġorganically": 3007,
    "Ġpassing": 4318,
    "Ġpeep": 6870,
    "Ġcomforters": 25804,
    "clinging": 20824,
    "Ġcoroner": 7511,
    "udg": 22776,
    "billiard": 25337,
    "rom": 420,
    "Ġsoldiers": 8690,
    "onden": 13847,
    "Ġserm": 9635,
    "Ġshores": 8851,
    "Ġpanting": 11605,
    "Ġheadway": 18795,
    "Ġsleet": 8977,
    "illings": 14145,
    "throne": 25661,
    "Ġunho": 18243,
    "Ġfortunately": 12184,
    "Ġthanks": 6709,
    "Ġ81": 24459,
    "Ġrotterdam": 25479,
    "Ġcam": 10161,
    "Ġposted": 16725,
    "pence": 15411,
    "Ġbethinking": 25283,
    "urches": 12690,
    "Ġequals": 4728,
    "Ġnarrative": 6217,
    "Ġprematurely": 24012,
    "seriously": 18907,
    "Ġtelling": 5747,
    "offensive": 16401,
    "Ġcamel": 25352,
    "Ġhoofs": 14528,
    "Ġpadded": 25043,
    "Ġdarting": 7758,
    "Ġirons": 7698,
    "Ġselves": 21225,
    "can": 1232,
    "Ġminutest": 14560,
    "Ġshaded": 14108,
    "adel": 15732,
    "Ġdaw": 21433,
    "benevol": 12231,
    "Ġgets": 10839,
    "acey": 7651,
    "Ġflorida": 20661,
    "Ġpurchased": 12265,
    "bular": 15316,
    "Ġdeliriously": 23233,
    "Ġmisgivings": 15294,
    "Ġ38": 24085,
    "Ġpregn": 22239,
    "Ġcrowding": 13284,
    "Ġbrag": 23840,
    "Ġrare": 7038,
    "Ġensigns": 23692,
    "Ġohio": 19132,
    "Ġperish": 8877,
    "note": 14339,
    "Ġbusy": 6191,
    "Ġeclipsed": 26380,
    "left": 6976,
    "Ġagonies": 14253,
    "arrangement": 17417,
    "blister": 24132,
    "Ġnursery": 19755,
    "writhed": 26083,
    "whole": 6087,
    "Ġchristendom": 16695,
    "Ġoftentimes": 20159,
    "Ġdistance": 3486,
    "windows": 19539,
    "stooped": 23828,
    "tch": 9143,
    "Ġpasture": 14543,
    "accessible": 13643,
    "Ġunlucky": 10050,
    "Ġquality": 3530,
    "Ġinst": 914,
    "Ġhardship": 18916,
    "delivered": 24105,
    "Ġreigned": 13990,
    "Ġherd": 7890,
    "Ġuncomfortable": 8488,
    "het": 5435,
    "Ġrugged": 18722,
    "Ġsleepers": 13153,
    "Ġcusack": 26436,
    "aim": 2756,
    "turns": 14908,
    "Ġinjury": 10540,
    "Ġthrown": 4640,
    "elsewhere": 19872,
    "Ġnug": 21529,
    "could": 2870,
    "fore": 685,
    "Ġwearied": 15797,
    "tra": 5003,
    "Ġ(`": 12858,
    "rrh": 26147,
    "meth": 11504,
    "aked": 2015,
    "Ġtahitian": 25431,
    "Ġstudies": 7957,
    "ifling": 15786,
    "Ġstockings": 20002,
    "Ġmarlingspike": 26582,
    "apology": 22342,
    "revenge": 13845,
    "Ġdexterous": 15151,
    "Ġskirts": 14355,
    "Ġstrives": 23698,
    "Ġravine": 18649,
    "atered": 22014,
    "Ġxxiv": 24479,
    "Ġdegenerating": 25803,
    "Ġpermitted": 9280,
    "Ġwaned": 17794,
    "Ġdiscreet": 16483,
    "ounded": 9750,
    "Ġze": 8548,
    "Ġvindictiveness": 25742,
    "pray": 5429,
    "Ġskip": 1845,
    "Ġrespons": 2683,
    "perseus": 26008,
    "Ġfads": 21420,
    "Ġserpents": 13081,
    "Ġseasonable": 24408,
    "Ġconsummation": 17427,
    "Ġcheese": 9379,
    "istical": 8492,
    "pit": 3983,
    "Ġpotency": 14647,
    "Ġgreat": 894,
    "judged": 14833,
    "Ġforger": 15736,
    "Ġcomes": 3426,
    "Ġgirdle": 19162,
    "thern": 4954,
    "Ġundue": 25996,
    "urer": 18124,
    "Ġmistaking": 23721,
    "Ġrewards": 10848,
    "iveness": 2467,
    "Ġmumbled": 17810,
    "Ġrecent": 7436,
    "Ġlongbourn": 3511,
    "neighbour": 7211,
    "Ġmaria": 7126,
    "Ġscornful": 25005,
    "concent": 19485,
    "Ġcircling": 19096,
    "inhab": 10757,
    "Ġwhiff": 21723,
    "Ġdeficiency": 14405,
    "Ġbeckoning": 20505,
    "abomin": 15745,
    "Ġdrooping": 9422,
    "Ġvaried": 11851,
    "Ġdaft": 19668,
    "quis": 7872,
    "Ġfurs": 18742,
    "judge": 13341,
    "ities": 1827,
    "Ġbaggy": 24540,
    "inger": 6813,
    "Ġscent": 10284,
    "idean": 14264,
    "Ġtable": 2500,
    "Ġforgot": 4685,
    "Ġaltered": 7393,
    "Ġgard": 2190,
    "Ġwharves": 13509,
    "Ġstammered": 26203,
    "listen": 13517,
    "travel": 24339,
    "contents": 12062,
    "Ġchil": 11754,
    "Ġindoors": 18838,
    "Ġmountainous": 16600,
    "Ġexotic": 21838,
    "hunter": 10555,
    "Ġbetray": 7442,
    "Ġcitizens": 25443,
    "Ġfoot": 3163,
    "diligence": 26113,
    "hetic": 12208,
    "Ġorigin": 4116,
    "Ġcorrespond": 6211,
    "ared": 772,
    "Ġunmo": 12777,
    "cr": 4012,
    "Ġhumorousness": 25380,
    "jug": 17582,
    "ise": 708,
    "eches": 8079,
    "dug": 18464,
    "tap": 17678,
    "bore": 13690,
    "ential": 827,
    "Ġstating": 15725,
    "Ġimproving": 1209,
    "Ġdemean": 12728,
    "Ġremoter": 20111,
    "Ġrepulses": 26073,
    "mass": 12494,
    "Ġproblems": 2846,
    "cart": 10689,
    "iture": 5696,
    "Ġflaming": 8567,
    "Ġwait": 4908,
    "Ġgood": 1000,
    "Ġfret": 10806,
    "ledge": 1329,
    "Ġdeformity": 11678,
    "wl": 17704,
    "+": 15,
    "ertips": 23645,
    "Ġleaking": 21752,
    "Ġerudite": 26355,
    "bonnet": 25746,
    "Ġmol": 12566,
    "Ġcover": 3559,
    "hoping": 17568,
    "Ġstrategies": 1840,
    "Ġpumps": 8429,
    "Ġtorch": 25037,
    "Ġjoin": 4855,
    "Ġjoist": 19236,
    "Ġpeople": 2544,
    "infliction": 25927,
    "Ġsteps": 2861,
    "gings": 7550,
    "wit": 7818,
    "erect": 20850,
    "Ġlunging": 24998,
    "eps": 12796,
    "Ġvenerable": 9096,
    "Ġsuff": 1303,
    "Ġsleeve": 20144,
    "ected": 7875,
    "thin": 14100,
    "inserted": 18889,
    "oved": 5215,
    "grandfather": 25016,
    "Ġqualities": 7534,
    "clouded": 20334,
    "cst": 10084,
    "Ġinstance": 2545,
    "Ġprivately": 19528,
    "Ġdiv": 3732,
    "Ġcountenances": 11969,
    "marrying": 19552,
    "Ġsheltered": 19915,
    "Ġmountain": 3376,
    "Ġhue": 8431,
    "Ġezek": 18013,
    "Ġbrigandish": 25491,
    "Ġbulkhead": 24510,
    "Ġwheel": 9720,
    "change": 6393,
    "rederick": 14083,
    "Ġmuhammad": 26172,
    "ignant": 11129,
    "Ġgull": 15673,
    "gered": 9278,
    "luxur": 25825,
    "Ġobsequious": 17406,
    "Ġlearned": 2023,
    "imen": 12691,
    "leag": 21369,
    "Ġdiabol": 11454,
    "Ġbeauty": 3770,
    "balance": 12010,
    "Ġsturgeon": 20595,
    "questioning": 16851,
    "Ġeccentric": 13653,
    "Ġdigesting": 19814,
    "Ġembellished": 25852,
    "Ġcottage": 4735,
    "inqu": 6123,
    "condition": 7061,
    "Ġstretched": 5922,
    "shoe": 14969,
    "Ġbuildings": 24722,
    "Ġthereof": 22376,
    "Ġstooped": 14465,
    "ultaneously": 4194,
    "Ġterminating": 23515,
    "ladies": 9531,
    "zz": 4296,
    "Ġbenevol": 5964,
    "Ġspeechless": 13358,
    "Ġallowed": 4057,
    "aside": 10191,
    "izing": 1064,
    "Ġ126": 24473,
    "Ġneskyeuna": 26462,
    "fortunately": 9452,
    "carrying": 16714,
    "Ġescape": 2647,
    "Ġtennes": 23555,
    "Ġcountess": 11968,
    "Ġheedful": 19745,
    "single": 10126,
    "Ġbreathing": 9447,
    "asional": 17963,
    "tolerable": 17690,
    "Ġdifferently": 10388,
    "Ġsighing": 18675,
    "Ġmultiplication": 2869,
    "Ġlandlord": 5580,
    "chosen": 21700,
    "animated": 14977,
    "laborers": 23922,
    "Ġunconquerable": 22068,
    "Ġmors": 17804,
    "feel": 3813,
    "Ġaccompany": 9489,
    "Ġsoftness": 18920,
    "royal": 11394,
    "Ġceleb": 20228,
    "Ġcashier": 20202,
    "Ġlighted": 7065,
    "Ġsummit": 7732,
    "sus": 6230,
    "fatigue": 20660,
    "Ġbulk": 5590,
    "unvarying": 21894,
    "Ġcolds": 23763,
    "socket": 22732,
    "Ġkicking": 16902,
    "ivot": 11721,
    "england": 18932,
    "reinforcement": 7827,
    "Ġintention": 5638,
    "Ġslo": 15508,
    "Ġdeceitful": 25736,
    "Ġinfle": 16365,
    "Ġsallies": 21232,
    "Ġfiddle": 25448,
    "ilities": 6992,
    "Ġbloodshed": 23806,
    "Ġarticles": 7110,
    "opes": 10310,
    "Ġstuff": 5717,
    "Ġmight": 965,
    "Ġprincipal": 6497,
    "Ġinsip": 19271,
    "Ġfle": 3091,
    "Ġappeal": 16318,
    "Ġfearfully": 23517,
    "Ġiter": 2948,
    "rougham": 15996,
    "Ġsweatings": 25712,
    "impart": 21714,
    "Ġquadrille": 13544,
    "Ġout": 543,
    "islanders": 25446,
    "Ġsequentially": 4915,
    "accepting": 20139,
    "Ġmeanly": 12914,
    "treatment": 20415,
    "Ġindefinitely": 25225,
    "Ġcemeteries": 26379,
    "Ġfronted": 23264,
    "Ġcavity": 20491,
    "Ġscraping": 13420,
    "Ġjuggling": 20442,
    "Ġsweat": 13144,
    "pe": 1436,
    "Ġstarlight": 24631,
    "Ġenderby": 13655,
    "sorrow": 12513,
    "Ġle": 333,
    "Ġcaulking": 20296,
    "Ġloaded": 8493,
    "Ġill": 2193,
    "Ġsteals": 23092,
    "Ġbulwarks": 5591,
    "Ġforces": 12707,
    "Ġdecreasing": 2442,
    "Ġinvestig": 10549,
    "difficult": 10058,
    "robustness": 26342,
    "Ġopera": 23431,
    "xim": 1089,
    "blazing": 24136,
    "miss": 3177,
    "Ġkelson": 18351,
    "elevating": 20409,
    "Ġplug": 17149,
    "isco": 12586,
    "Ġacknowledged": 7535,
    "ureau": 10226,
    "Ġevidence": 5270,
    "onic": 7828,
    "Ġserious": 4325,
    "Ġdiscovering": 13362,
    "unities": 15774,
    "Ġchained": 16390,
    "Ġscheme": 7066,
    "surround": 16759,
    "#": 7,
    "Ġarrangement": 2656,
    "Ġunerring": 15850,
    "thodox": 21995,
    "uses": 11764,
    "Ġrequisite": 18642,
    "Ġdecanting": 22451,
    "happy": 4427,
    "operations": 19980,
    "Ġtoe": 13939,
    "tically": 3396,
    "Ġsympathy": 6348,
    "Ġconversing": 14634,
    "Ġalow": 18102,
    "distraction": 24205,
    "Ġpurporting": 19186,
    "Ġreal": 1635,
    "Ġtrades": 8233,
    "assumed": 22316,
    "Ġflavor": 16253,
    "children": 9057,
    "Ġreven": 18032,
    "Ġlanyard": 26464,
    "Ġlux": 8816,
    "Ġcircumn": 11987,
    "Ġcetacea": 20556,
    "Ġboa": 22642,
    "Ġmoluccas": 25633,
    "Ġquarters": 8623,
    "Ġheedless": 14905,
    "Ġviciss": 11292,
    "Ġwalk": 1826,
    "Ġschooner": 16748,
    "loun": 17590,
    "corrupt": 14897,
    "Ġpersonified": 19182,
    "trick": 19418,
    "Ġceti": 24775,
    "aw": 1448,
    "Ġventilator": 8717,
    "Ġkin": 15907,
    "Ġcynical": 25774,
    "Ġshore": 4836,
    "Ġimpressed": 8200,
    "Ġpursue": 6316,
    "Ġaccount": 2322,
    "Ġcensure": 15098,
    "Ġcurled": 8227,
    "itz": 6008,
    "Ġres": 696,
    "Ġlinen": 12411,
    "Ġcircumspection": 25887,
    "Ġheidelburgh": 11645,
    "medical": 23349,
    "Ġblemish": 19684,
    "gir": 8084,
    "umed": 6556,
    "Ġsovereign": 10062,
    "Ġannals": 17901,
    "aid": 1923,
    "plain": 1359,
    "toes": 22572,
    "Ġseeth": 21960,
    "Ġinv": 2225,
    "maged": 15396,
    "Ġhare": 5157,
    "Ġravines": 25835,
    "â": 163,
    "Ġdisent": 22531,
    "isk": 9169,
    "Ġinconven": 7588,
    "hereabouts": 23611,
    "Ġscarlet": 13228,
    "assin": 22313,
    "rical": 11520,
    "Ġmasking": 2418,
    "Ġmagg": 18908,
    "Ġvow": 10246,
    "Ġspanish": 2826,
    "olet": 13769,
    "doubtless": 17003,
    "perth": 22183,
    "Ġcool": 5734,
    "ithing": 11651,
    "Ġpian": 13920,
    "scent": 13026,
    "feren": 767,
    "Ġbrigs": 20325,
    "Ġoffspring": 16148,
    "Ġstigma": 25795,
    "vap": 13806,
    "observed": 7677,
    "Ġmo": 629,
    "ace": 717,
    "Ġearnest": 3929,
    "oors": 17622,
    "Ġcrackling": 24967,
    "Ġadjac": 18293,
    "Ġrhyme": 21988,
    "token": 21085,
    "adem": 21764,
    "fingers": 17372,
    "Ġlascar": 9201,
    "Ġdiscourage": 3117,
    "Ġharris": 13930,
    "forecastle": 10990,
    "Ġcourtiers": 24141,
    "Ġinvis": 6902,
    "onious": 15520,
    "stricken": 9885,
    "appalling": 22849,
    "Ġregent": 18584,
    "Ġmentioning": 9900,
    "Ġvelocity": 10620,
    "Ġstructured": 2968,
    "appearing": 14638,
    "adjust": 21766,
    "Ġpunctil": 20119,
    "ast": 471,
    "Ġcomplaints": 12269,
    "ishing": 1140,
    "language": 5129,
    "cks": 3079,
    "Ġdesisted": 22987,
    "atus": 21263,
    "woes": 21136,
    "ti": 8391,
    "Ġdreaded": 8290,
    "Ġcalendar": 18879,
    "Ġeagle": 13206,
    "adopt": 25548,
    "ĠâĢľ": 517,
    "mixed": 17607,
    "brown": 15320,
    "Ġlapse": 17122,
    "empt": 2619,
    "Ġinterest": 2249,
    "tossed": 10996,
    "Ġkrem": 9728,
    "rimin": 2421,
    "difficulty": 12394,
    "Ġvillas": 24061,
    "lim": 9608,
    "Ġblades": 11898,
    "Ġendure": 5958,
    "Ġebony": 18012,
    "december": 25562,
    "Ġrefusal": 10343,
    "Ġbreath": 4793,
    "Ġfurnish": 9021,
    "ury": 3314,
    "Ġbattered": 17865,
    "Ġbo": 795,
    "Ġbear": 3658,
    "alive": 10827,
    "Ġimmemorial": 10510,
    "Ġlodgings": 8313,
    "?": 35,
    "helping": 23148,
    "anzas": 17843,
    "agre": 18167,
    "p": 84,
    "inese": 12881,
    "stay": 9683,
    "ressed": 3018,
    "lipped": 16219,
    "Ġmowers": 17815,
    "two": 3860,
    "Ġfeverish": 11348,
    "capt": 3837,
    "Ġsqualidness": 25846,
    "Ġnotice": 4544,
    "Ġmuse": 13863,
    "exceed": 7913,
    "Ġfalse": 4346,
    "backed": 9867,
    "Ġnetwork": 451,
    "Ġmayhew": 12955,
    "Ġunden": 22018,
    "Ġnautical": 17388,
    "Ġkentuckian": 26346,
    "haust": 5777,
    "Ġbristles": 25847,
    "Ġswash": 23063,
    "Ġdisgra": 18551,
    "romised": 14115,
    "Ġeaves": 15679,
    "Ġyarman": 12710,
    "Ġfeebly": 24882,
    "latitude": 25263,
    "mindful": 19604,
    "Ġincarnation": 25577,
    "ivil": 6412,
    "Ġetc": 7086,
    "hyp": 15369,
    "oriously": 17877,
    "Ġexclam": 6759,
    "Ġ1807": 26086,
    "Ġstratag": 26031,
    "Ġscrew": 8866,
    "âĢĶâĢĻâĢĿ": 20069,
    "bbed": 6910,
    "perpetually": 20515,
    "Ġcash": 9654,
    "Ġwee": 21926,
    "Ġcontrivances": 12361,
    "Ġmatrimony": 13639,
    "conception": 22480,
    "airing": 16179,
    "Ġvigorously": 11299,
    "tormented": 13649,
    "inioned": 19291,
    "ied": 941,
    "Ġantip": 24182,
    "Ġglossy": 15230,
    "Ġcontingency": 26248,
    "Ġcosine": 2374,
    "Ġacquisition": 18902,
    "important": 7114,
    "Ġadapted": 11040,
    "Ġpresto": 22237,
    "Ġmasks": 23334,
    "Ġmenaced": 16295,
    "unquiet": 21888,
    "Ġinestim": 15627,
    "Ġapparently": 6779,
    "horse": 8609,
    "compliment": 11364,
    "Ġprevent": 757,
    "ction": 500,
    "significant": 25089,
    "rog": 15643,
    "ridge": 9499,
    "Ġremnants": 22800,
    "Ġgros": 14825,
    "indulged": 22383,
    "wake": 11547,
    "Ġentries": 22748,
    "ieves": 4005,
    "Ġcheetah": 14505,
    "spass": 18687,
    "Ġdodging": 19891,
    "ling": 735,
    "Ġtempestuous": 20076,
    "reflected": 24735,
    "Ġfaults": 12217,
    "Ġdusky": 13553,
    "Ġcoaxing": 18602,
    "Ġacquiesced": 25497,
    "Ġcolonnades": 26279,
    "Ġgriev": 16636,
    "azing": 7706,
    "Ġnecessitated": 23935,
    "tried": 13797,
    "Ġforc": 9229,
    "Ġuntimely": 16468,
    "Ġpaddington": 17095,
    "Ġoblique": 20173,
    "Ġhipp": 21496,
    "chard": 21692,
    "Ġgazes": 24101,
    "rmsprop": 4523,
    "Ġeffeminacy": 20720,
    "Ġqueerest": 16417,
    "william": 4563,
    "fav": 6649,
    "Ġencapsulate": 13678,
    "Ġsubterraneous": 20268,
    "Ġ199": 3005,
    "Ġnervously": 19188,
    "Ġcens": 8415,
    "Ġjuncture": 17131,
    "Ġsecre": 5493,
    "Ġscandinav": 19965,
    "Ġusurpation": 18358,
    "Ġorganization": 7985,
    "Ġhearsed": 25046,
    "approbation": 11459,
    "Ġlive": 2734,
    "Ġimpro": 897,
    "Ġcups": 16883,
    "Ġmurmured": 7481,
    "ating": 663,
    "Ġfumes": 21422,
    "Ġfigured": 16645,
    "Ġthree": 1371,
    "Ġland": 1997,
    "dig": 4930,
    "Ġsplintered": 11419,
    "master": 5687,
    "daylight": 19058,
    "elephant": 12355,
    "Ġfolding": 19731,
    "Ġchry": 22254,
    "Ġsally": 15504,
    "grammar": 6436,
    "Ġtransc": 12869,
    "Ġworrying": 22934,
    "_),": 7127,
    "amet": 586,
    "ø": 185,
    "Ġhesitation": 13445,
    "grief": 13734,
    "Ġacutely": 14316,
    "Ġillness": 8593,
    "magistrate": 19867,
    "Ġgre": 1583,
    "vell": 3957,
    "Ġrescue": 13347,
    "superstitiousness": 25512,
    "omination": 21647,
    "Ġreasonably": 11086,
    "Ġinsane": 19273,
    "Ġgaunt": 11268,
    "ldog": 21924,
    "parm": 21016,
    "Ġmodest": 15924,
    "Ġfever": 6560,
    "Ġbl": 1190,
    "Ġdowncast": 18653,
    "Ġdisappeared": 5645,
    "Ġmorals": 22984,
    "game": 11492,
    "pull": 6797,
    "Ġsnatched": 10469,
    "Ġslop": 23169,
    "Ġcoppers": 22592,
    "anum": 17838,
    "Ġhos": 4942,
    "Ġbandaged": 16843,
    "turn": 4295,
    "Ġmotions": 8282,
    "xes": 21143,
    "Ġeverlasting": 9339,
    "Ġpierced": 12286,
    "Ġuniversity": 13126,
    "wid": 10134,
    "fort": 1748,
    "Ġcleaned": 23192,
    "Ġphilipses": 24454,
    "shortened": 24750,
    "stige": 21666,
    "irting": 11688,
    "pede": 19934,
    "ap": 547,
    "Ġdeact": 18141,
    "Ġsanta": 26423,
    "Ġvoice": 2191,
    "Ġtenderly": 11314,
    "whalebone": 19122,
    "Ġmaj": 3926,
    "Ġtreating": 4286,
    "Ġell": 17717,
    "threadbare": 25992,
    "place": 4149,
    "helm": 12176,
    "Ġannounced": 9036,
    "charmed": 21701,
    "soundest": 24799,
    "Ġsulkily": 25884,
    "aus": 1498,
    "Ġbegrim": 23023,
    "Ġtools": 11611,
    "Ġcachalot": 17837,
    "Ġhanover": 20589,
    "Ġskies": 8923,
    "blown": 25205,
    "Ġuncovered": 23437,
    "Ġpond": 13919,
    "Ġemblazonings": 26046,
    "Ġdazzling": 15214,
    "Ġsubst": 4275,
    "abated": 14023,
    "which": 1708,
    "oqu": 7556,
    "Ġstay": 3094,
    "Ġmanhandle": 22338,
    "Ġclim": 8196,
    "ruct": 687,
    "Ġi": 311,
    "person": 7747,
    "Ġquadru": 16006,
    "ouri": 21451,
    "anybody": 12087,
    "Ġmothers": 14541,
    "Ġadvertisement": 6941,
    "Ġrespond": 11176,
    "paws": 21031,
    "Ġtube": 15004,
    "Ġmeditate": 16708,
    "cheered": 23811,
    "Ġanticipated": 13514,
    "Ġpeculiar": 3154,
    "Ġdecide": 9288,
    "illating": 22114,
    "striking": 13444,
    "Ġsmoked": 10322,
    "Ġomniscient": 20091,
    "Ġsummar": 3527,
    "Ġlasted": 11053,
    "Ġobedient": 20110,
    "Ġfears": 5729,
    "ure": 356,
    "direct": 12461,
    "elf": 565,
    "Ġspat": 2663,
    "Ġgeological": 14534,
    "leful": 17845,
    "corrid": 24486,
    "Ġbaff": 10799,
    "Ġgrammars": 11403,
    "Ġgoug": 17994,
    "etween": 775,
    "Ġadoration": 18291,
    "Ġprocedure": 2808,
    "Ġconsum": 9801,
    "marvell": 24177,
    "midnight": 14902,
    "Ġrestless": 10414,
    "loo": 10319,
    "iece": 3230,
    "Ġnearly": 3366,
    "Ġpatched": 16375,
    "leaned": 21372,
    "Ġquito": 24410,
    "Ġsepulch": 15287,
    "omited": 21646,
    "indeed": 4489,
    "ellig": 525,
    "Ġhalting": 16276,
    "q": 85,
    "Ġtus": 10749,
    "Ġslime": 23168,
    "Ġheaven": 3368,
    "cible": 20808,
    ".âĢĶ": 4250,
    "bl": 4137,
    "solut": 3367,
    "msgate": 18412,
    "smoke": 17224,
    "Ġ*": 1273,
    "Ġreliable": 18779,
    "/": 19,
    "Ġventured": 7502,
    "Ġcoleman": 22594,
    "Ġapril": 13666,
    "88": 20760,
    "Ġdeft": 21844,
    "Ġeyford": 10641,
    "Ġtidings": 11398,
    "uttle": 6249,
    "Ġplants": 22605,
    "Ġentail": 9795,
    "Ġteaching": 10364,
    "Ġobsc": 7041,
    "Ġmoth": 17805,
    "azz": 8263,
    "Ġunhinged": 26220,
    "Ġfacts": 2290,
    "Ġyards": 5371,
    "Ġgriff": 22813,
    "Ġmorphology": 3006,
    "humoured": 11236,
    "ui": 9146,
    "Ġclum": 8875,
    "look": 2261,
    "Ġbrooks": 25704,
    "elihood": 4623,
    "Ġsomehow": 4843,
    "Ġshapes": 14112,
    "cle": 3954,
    "experience": 17160,
    "Ġantiqu": 12149,
    "Ġrampart": 20321,
    "Ġaudacious": 13464,
    "Ġmainz": 22655,
    "ased": 1268,
    "Ġwaterloo": 11984,
    "ush": 3633,
    "Ġacknowledge": 13406,
    "ters": 1574,
    "Ġoblig": 3448,
    "Ĩ": 233,
    "Ġbetokened": 18799,
    "Ġtailed": 21171,
    "mosphere": 10043,
    "additional": 20467,
    "Ġcommunity": 19012,
    "Ġpoising": 22598,
    "convul": 24888,
    "Ġreproach": 9558,
    "solely": 19821,
    "Ġthan": 736,
    "Ġchilian": 25567,
    "Ġtester": 21175,
    "sky": 12515,
    "neither": 9759,
    "bout": 20775,
    "ufact": 10733,
    "Ġprofit": 14586,
    "ivial": 15864,
    "gangway": 20670,
    "Ġpork": 21461,
    "Ġdazed": 15599,
    "ato": 17771,
    "dataset": 23250,
    "Ġdoomed": 11342,
    "step": 2456,
    "Ġmed": 4177,
    "Ġfigures": 8633,
    "Ã": 132,
    "Ġsurvive": 9069,
    "imental": 16534,
    "erest": 10696,
    "abs": 11669,
    "Ġafternoon": 6055,
    "um": 454,
    "Ġanvil": 11599,
    "Ġstaring": 8827,
    "Ġtexture": 19164,
    "orative": 21401,
    "Ġerection": 24007,
    "Ġ119": 24443,
    "upp": 10130,
    "sper": 4437,
    "troubled": 17112,
    "Ġobservable": 25133,
    "Ġreproofs": 24897,
    "thing": 1479,
    "Ġrueful": 25585,
    "philosop": 9569,
    "indef": 17737,
    "Ġwarm": 2423,
    "sample": 12511,
    "Ġsickness": 10538,
    "Ġheartily": 6890,
    "Ġlivelihood": 24776,
    "Ġthrusts": 24352,
    "isbury": 21380,
    "Ġenjoyment": 7300,
    "Ġhappens": 2189,
    "arranging": 19322,
    "Ġvicinity": 7315,
    "Ġeffects": 7236,
    "Ġphrenologically": 20397,
    "fever": 22509,
    "ique": 8745,
    "Ġimpotently": 22395,
    "Ġahab": 1214,
    "gentleness": 24849,
    "Ġpivot": 13926,
    "Ġsplinter": 23752,
    "converse": 22481,
    "vil": 2731,
    "oga": 22716,
    "ires": 6040,
    "Ġinvoluntary": 18765,
    "Ġlowering": 7988,
    "utherland": 9580,
    "lightning": 16553,
    "talk": 6659,
    "Ġastonished": 7089,
    "``": 15309,
    "cherish": 24554,
    "appe": 2939,
    "Ġopenshaw": 7956,
    "ram": 13975,
    "Ġhatchet": 16530,
    "Ġeaglet": 19309,
    "Ġcompression": 18148,
    "este": 15921,
    "ificant": 22215,
    "otograph": 5827,
    "Ġconver": 804,
    "Ġenable": 684,
    "Ġcomprehen": 5350,
    "advantages": 11271,
    "Ġactive": 7917,
    "brain": 13691,
    "Ġfire": 2334,
    "Ġfamil": 4323,
    "Ġlock": 5930,
    "Ġextinguished": 10345,
    "Ġbackwater": 18652,
    "Ġspectacle": 10496,
    "Ġblotted": 20221,
    "Ġbathing": 20203,
    "ighter": 7969,
    "Ġremarkable": 4916,
    "Ġyourselves": 9030,
    "popular": 26143,
    "Ġfir": 17880,
    "Ġgrown": 5628,
    "Ġbehooves": 20735,
    "Ġdiscontented": 16062,
    "Ġwalls": 6763,
    "chair": 5919,
    "Ġsubs": 2128,
    "owder": 8450,
    "Ġbroad": 3640,
    "Ġresignation": 18568,
    "Ġstature": 10863,
    "wretch": 17710,
    "determined": 9081,
    "Ġbecome": 3159,
    "hing": 981,
    "inuating": 16205,
    "_âĢĶâĢĻ": 13686,
    "Ġarmchair": 8272,
    "ask": 857,
    "Ġstumped": 24949,
    ".,": 5990,
    "ulgent": 18152,
    "Ġcholera": 22261,
    "Ġfervent": 14903,
    "lynes": 15707,
    "impl": 21712,
    "wondering": 19849,
    "floor": 14938,
    "tumultuously": 25617,
    "rib": 1947,
    "Ġwinter": 5220,
    "Ġerie": 20059,
    "intending": 22942,
    "!âĢĿ": 848,
    "Ġinherit": 25355,
    "Ġcraven": 16471,
    "scissors": 20729,
    "Ġoverspread": 14208,
    "Ġinteractions": 12908,
    "owing": 7603,
    "vol": 727,
    "Ġshoulder": 5849,
    "Â£": 4814,
    "Ġirreducible": 5519,
    "âĢĿ)": 21818,
    "Ġfurious": 10353,
    "Ġincurable": 22560,
    "Ġestablished": 9071,
    "pulling": 25152,
    "Ġsincerity": 13682,
    "Ġcaw": 13886,
    "Ġdistingu": 2515,
    "Ġjupiter": 17458,
    "Ġpaus": 4302,
    "aby": 18109,
    "Ġcondem": 6340,
    "Ġ[": 6968,
    "ĠâĢľâĢĶ": 9736,
    "hypothe": 25908,
    "lungs": 26138,
    "Ġreinforcement": 3313,
    "Ġannoyance": 20664,
    "copper": 19192,
    "Ġfurnaces": 24011,
    "ß": 160,
    "Ġverify": 12092,
    "Ġpatchwork": 24146,
    "Ġdestiny": 8985,
    "Ġperform": 1035,
    "Ġentailed": 11026,
    "Ġconflag": 20338,
    "Ġatmosphere": 10897,
    "),": 1347,
    "Ġupper": 5091,
    "yea": 23095,
    "Ġnile": 21525,
    "Ġgulp": 20034,
    "Ġcrowded": 8013,
    "Ġcountless": 16385,
    "fle": 7130,
    "Ġvaults": 17155,
    "aze": 10075,
    "Ġexploit": 19166,
    "hip": 8743,
    "Ġcott": 3710,
    "Ġbarber": 23795,
    "Ġflirt": 14425,
    "ck": 436,
    "Ġsupercil": 23458,
    "Ġadvantageously": 19550,
    "ingolstadt": 21306,
    "Ġcontrast": 2116,
    "Ġfurlong": 18743,
    "Ġhelping": 3268,
    "lounged": 26136,
    "Ġgarnery": 17389,
    "Ġwa": 1752,
    "redible": 15807,
    "unbounded": 21892,
    "Ġinflamed": 13477,
    "Ġimportance": 4901,
    "Ġhitting": 21491,
    "ĠĠĠĠĠĠĠ": 7633,
    "osity": 14187,
    "stolidity": 21668,
    "ies": 582,
    "Ġscrutiny": 26018,
    "incing": 15487,
    "Ġlabels": 3289,
    "Ġphilist": 16602,
    "Ġdiscuss": 9476,
    "rud": 4191,
    "damp": 15346,
    "minute": 11274,
    "Ġobey": 9521,
    "violently": 23549,
    "Ġsacrilege": 26232,
    "Ġox": 7154,
    "ckles": 22096,
    "princip": 17138,
    "resembling": 25935,
    "ighbour": 3392,
    "Ġexposing": 11835,
    "ech": 4392,
    "Ġnail": 9197,
    "colonel": 8286,
    "Ġbridges": 24686,
    "build": 12192,
    "omet": 3075,
    "windibank": 24166,
    "Ġcrawled": 17044,
    "Ġwheels": 10912,
    "Ġtract": 21168,
    "Ġbestowed": 6595,
    "Ġexcept": 3315,
    "lest": 5290,
    "Ġaroused": 15901,
    "Ġproud": 5654,
    "ay": 354,
    "Ġclust": 9276,
    "Ġendwise": 23142,
    "plete": 10919,
    "Ġclustered": 25237,
    "Ġrehearsed": 25974,
    "Ġperadventure": 22406,
    "muttered": 13762,
    "inquiry": 15145,
    "Ġmercenary": 17195,
    "ink": 756,
    "Ġpresc": 15928,
    "conf": 4958,
    "Ġbran": 5252,
    "Ġvehicles": 10659,
    "Ġconception": 10313,
    "bast": 10077,
    "Ġadapt": 1027,
    "Ġsubterranean": 13615,
    "Ġreminiscences": 26273,
    "affording": 23782,
    "Ġgoin": 18472,
    "acknowledge": 18470,
    "Ġicy": 10747,
    "Ġbohem": 8529,
    "protest": 24815,
    "ceiling": 21632,
    "Ġpitched": 9446,
    "chase": 11647,
    "Ġpermit": 9751,
    "Ġsqu": 1036,
    "round": 3372,
    "Ġranges": 2880,
    "plutarch": 21970,
    "avor": 14278,
    "ayed": 12717,
    "compan": 7301,
    "Ġnoticing": 18225,
    "circumstantial": 24446,
    "Ġuncont": 14118,
    "Ġutility": 23519,
    "perquis": 22188,
    "Ġquadruped": 20618,
    "skeleton": 17378,
    "Ġe": 312,
    "ional": 1081,
    "stranger": 9884,
    "Ġlur": 5226,
    "Ġapt": 9157,
    "iful": 2879,
    "Ġboldly": 9503,
    "Ġstared": 8456,
    "ñ": 178,
    "Ġargemone": 24279,
    "Ġforging": 18096,
    "Ġtraged": 9354,
    "Ġnomine": 26459,
    "arian": 10316,
    "culiarity": 11142,
    "ently": 1618,
    "Ġsituation": 4070,
    "Ġardour": 8044,
    "¼": 125,
    "Ġunerringly": 18263,
    "ou": 287,
    "Ġsuicide": 12791,
    "Ġmanoir": 22340,
    "Ġsway": 7572,
    "Ġlosing": 10916,
    "but": 592,
    "cut": 3125,
    "Ġcorporeal": 17362,
    "Ġ96": 24597,
    "Ġunjustifiable": 25116,
    "companies": 24899,
    "beings": 12882,
    "Ġbody": 2434,
    "helmsman": 24291,
    "buff": 15321,
    "Ġoffences": 18691,
    "haired": 14769,
    "cused": 15334,
    "Ġshould": 864,
    "eck": 20846,
    "Ġsax": 10929,
    "endure": 22232,
    "Ġstreaming": 19678,
    "Ġinvited": 6903,
    "Ġwhoever": 10973,
    "Ġshelter": 17009,
    "Ġexclaim": 11221,
    "Ġskewer": 19625,
    "Ġasked": 2278,
    "Ġcovering": 13260,
    "Ġsurpasses": 25272,
    "Ġfailing": 12142,
    "remind": 23198,
    "Ġoily": 13867,
    "Ġgigantic": 5917,
    "Ġintersect": 22585,
    "rifled": 21050,
    "ca": 20795,
    "your": 1985,
    "unaffected": 21890,
    "Ġclaims": 13377,
    "istics": 1631,
    "devoted": 20022,
    "Ġvariety": 8533,
    "sc": 1260,
    "Ġalps": 10870,
    "Ġstacked": 21750,
    "Ġwhipping": 21721,
    "Ġfries": 21419,
    "Ġprediction": 2179,
    "Ġinspect": 5966,
    "mathemat": 19141,
    "Ġfair": 2835,
    "oriented": 2942,
    "suggest": 20379,
    "manner": 6172,
    "Ġ33": 16677,
    "Ġlobsters": 13520,
    "Ġswords": 19901,
    "Ġcomforts": 14695,
    "awake": 14454,
    "Ġswallow": 8952,
    "ism": 4875,
    "Ġcarted": 21353,
    "Ġrope": 4341,
    "Ġrudimental": 25115,
    "**:": 4739,
    "sake": 13786,
    "Ġreplace": 14478,
    "Ġwarp": 8114,
    "Ġrashness": 25464,
    "chambers": 25458,
    "Ġglaring": 11911,
    "Ġlydia": 2375,
    "Ġdint": 15594,
    "Ġfit": 3684,
    "Ġtremulous": 14988,
    "bearing": 9767,
    "dreams": 12341,
    "Ġwaiting": 4326,
    "ses": 3023,
    "otions": 7181,
    "Ġrud": 8480,
    "fearing": 18531,
    "ercial": 21277,
    "Ġagrippa": 11809,
    "Ġcyp": 21348,
    "cro": 13700,
    "Ġethere": 23957,
    "Ġslate": 11941,
    "Ġteach": 8555,
    "Ġbanqu": 12593,
    "Ġsatisf": 2805,
    "Ġsigh": 10336,
    "Ġedd": 8399,
    "capital": 15091,
    "Ġtombed": 25167,
    "Ġ121": 24468,
    "Ġcrater": 16437,
    "Ġupd": 946,
    "Ġturbid": 23616,
    "Ġsuspected": 9064,
    "prec": 3204,
    "Ġshaft": 18230,
    "Ġbutterfly": 19914,
    "datasets": 11955,
    "Ġur": 5539,
    "vengeance": 13361,
    "Ġdeline": 16335,
    "Ġmediterranean": 12319,
    "Ġcarn": 17824,
    "shone": 22463,
    "handsome": 13180,
    "Ġconveniently": 20084,
    "Ġstream": 5186,
    "Ġkettle": 26236,
    "uteness": 17989,
    "simon": 16974,
    "Ġhagger": 21495,
    "Ġdrawling": 19442,
    "Ġthrob": 21522,
    "Ġchink": 15935,
    "Ġpulley": 2972,
    "ai": 2527,
    "Ġseparation": 11246,
    "thyself": 19302,
    "gard": 7339,
    "Ġhappiness": 2940,
    "ho": 2856,
    "Ġwild": 2602,
    "Ë": 140,
    "incible": 16499,
    "allies": 14168,
    "uttered": 8443,
    "ĠĠĠĠĠĠĠĠĠĠĠĠĠĠĠĠĠĠĠĠĠĠĠĠĠĠĠĠĠĠĠĠ": 2738,
    "speed": 19414,
    "corn": 13703,
    "Ġlovel": 10271,
    "Ġobjecting": 18898,
    "Ġwarbling": 26171,
    "Ġhovers": 19082,
    "compassion": 12372,
    "wicked": 24451,
    "Ġencompassed": 15256,
    "Ġdock": 15933,
    "lacings": 26137,
    "85": 13685,
    "Ġrefrain": 12951,
    "occ": 4486,
    "Ġexam": 3712,
    "Ġmet": 1848,
    "Ġfluctuations": 5516,
    "aloons": 20016,
    "pshaw": 21030,
    "Ġarabic": 24987,
    "Ġirresolution": 24920,
    "Ġweakness": 9968,
    "concerted": 16673,
    "Ġadvisable": 11443,
    "Ġovertaken": 18431,
    "Ġentertain": 6056,
    "Ġshape": 5639,
    "Ġchance": 3320,
    "dred": 2528,
    "relate": 24017,
    "uss": 8766,
    "Ġhip": 17924,
    "Ġrifled": 21986,
    "Ġcomplacency": 19453,
    "Ġspeedily": 7713,
    "Ġsolved": 8932,
    "Ġassisted": 11110,
    "Ġdisclose": 16159,
    "Ġspeeding": 23569,
    "lutions": 20952,
    "Ġunlocked": 14122,
    "Ġcomrade": 11681,
    "Ġrevelry": 15139,
    "killer": 20479,
    "Ġmacey": 12568,
    "fel": 8737,
    "intments": 18823,
    "Ġwhirlwinds": 20468,
    "Ġcoun": 4178,
    "Ġhig": 754,
    "Ġcarpets": 18905,
    "Ġ79": 24269,
    "Ġagreeable": 4553,
    "Ġhymn": 24520,
    "iter": 4394,
    "impotence": 23766,
    "quarters": 24953,
    "Ġfort": 2579,
    "fare": 7800,
    "....": 11316,
    "Ġelimin": 16110,
    "Ġgrooves": 16742,
    "Ġlament": 7858,
    "Ġpadd": 9671,
    "Ġconfronted": 23316,
    "87": 20759,
    "Ġbaw": 15572,
    "respectable": 19851,
    "Ġvisibly": 22878,
    "Ġinsatiable": 19276,
    "crack": 19845,
    "Ġeasy": 3455,
    "Ġserve": 9371,
    "ip": 557,
    "Ġbequeathed": 20704,
    "Ġskirting": 22804,
    "Ġequival": 4785,
    "Ġdol": 9666,
    "Ġcon": 348,
    "bra": 6221,
    "Ġmutineer": 19423,
    "love": 9296,
    "eling": 6683,
    "parameter": 3020,
    "inter": 2943,
    "Ġwoll": 21296,
    "lin": 9605,
    "Ġgryphon": 4303,
    "dark": 5613,
    "Ġpriv": 4183,
    "invested": 17119,
    "Ġembedd": 1403,
    "Ġafter": 869,
    "crooked": 25750,
    "Ġdestination": 19153,
    "Ġperiodically": 19499,
    "cru": 7128,
    "alk": 1153,
    "Ġheire": 18040,
    "Ġruinous": 24638,
    "Ġbreaches": 14521,
    "Ġcertain": 1560,
    "Ġrick": 21980,
    "upset": 23027,
    "unwilling": 14064,
    "Ġadopted": 15181,
    "earliest": 20125,
    "Ġcommunicate": 10577,
    "Ġbeautifully": 13271,
    "Ġprincely": 24153,
    "Ġannihilated": 20255,
    "promontory": 24730,
    "ever": 1073,
    "ond": 1163,
    "Ġinsinuating": 19275,
    "Ġfleecy": 17024,
    "muring": 17603,
    "Ġappre": 5165,
    "Ġunlim": 18251,
    "Ġconsort": 18725,
    "carefully": 13373,
    "Ġsatirical": 26283,
    "Ġequ": 1734,
    "Ġchain": 1844,
    "Ġforeshad": 23456,
    "Ġflogged": 23630,
    "Ġrevenge": 5452,
    "Ġinterested": 6459,
    "Ġcalls": 6746,
    "Ġcomput": 606,
    "Ġattained": 14081,
    "Ġunfit": 14790,
    "Ġprudence": 13923,
    "Ġtrod": 15028,
    "atoes": 17777,
    "Ġleft": 1760,
    "opened": 7915,
    "Ġminds": 6305,
    "Ġlvi": 21557,
    "Ġrucastle": 5176,
    "Ġawakened": 10452,
    "Ġimage": 3407,
    "Ġconstantly": 11976,
    "ronted": 14879,
    "Ġbilliard": 16689,
    "anned": 17842,
    "Ġsuspicious": 9482,
    "bo": 1691,
    "Ġpillows": 24995,
    "Ġhardy": 8569,
    "iss": 2175,
    "Ġrevers": 21669,
    "emin": 8472,
    "Ġmantel": 11440,
    "ged": 1512,
    "aling": 1034,
    "Ġcounting": 13100,
    "dw": 3335,
    "projecting": 26076,
    "looked": 6085,
    "Ġshipwreck": 20449,
    "Ġspite": 4151,
    "Ġlif": 10195,
    "Ġwake": 4751,
    "ientious": 11694,
    "li": 1188,
    "Ġmarines": 16264,
    "someone": 14564,
    "Ġparalle": 1409,
    "rison": 13782,
    "context": 3408,
    "aborate": 14025,
    "wretchedness": 17254,
    "Ġpoltroon": 26601,
    "lement": 10166,
    "Ġmovements": 24361,
    "Ġrandomly": 1922,
    "ĠĠĠĠĠĠĠĠĠĠ": 18579,
    "Ġmonument": 16242,
    "Ġexhausting": 24712,
    "Ġdaunt": 19669,
    "Ġproductions": 22953,
    "Ġenchanted": 9082,
    "po": 1136,
    "despairing": 25081,
    "_âĢĶâĢĻâĢĿ": 25745,
    "ulgences": 21872,
    "Ġbreeding": 14522,
    "Ġcumberland": 21358,
    "discovered": 8326,
    "turbable": 24533,
    "Ġmuseum": 15274,
    "Ġcreations": 18683,
    "organic": 25949,
    "Ġworkmen": 23052,
    "tor": 15434,
    "discovery": 12020,
    "Ġharpooned": 13266,
    "Ġrepine": 16413,
    "tick": 17680,
    "Ġresuming": 12898,
    "tern": 4226,
    "berish": 22751,
    "salis": 25153,
    "Ġshilling": 18229,
    "cheeks": 23813,
    "Ġlangu": 577,
    "Ġharpooneer": 3772,
    "Ġdawned": 14996,
    "overcoat": 19053,
    "Ġopal": 23631,
    "Ġvigil": 9509,
    "Ġpra": 4349,
    "Ġfist": 21407,
    "Ġorder": 1687,
    "Ġthom": 21520,
    "Ġuniversal": 2234,
    "Ġesq": 15111,
    "Ġ$": 21153,
    "Ġobstinacy": 17423,
    "Ġache": 18665,
    "Ġprefers": 20517,
    "Ġladder": 8602,
    "Ġirish": 14535,
    "Ġye": 900,
    "olog": 1094,
    "Ġscratch": 25568,
    "Ġsolution": 9807,
    "Ġsteadfastly": 10651,
    "Ġapartment": 6636,
    "Ġwing": 6668,
    "ifiable": 18166,
    "Ġfinery": 23132,
    "Ġfacet": 15588,
    "Ġmantle": 25278,
    "Ġdromedary": 17441,
    "Ġclasped": 17208,
    "scrape": 25702,
    "Ġgreece": 17070,
    "Ġloitered": 26528,
    "Ġgra": 415,
    "quakes": 21863,
    "Ġchaff": 18385,
    "Ġrenowned": 26197,
    "Ġvacancy": 9046,
    "Ġoscill": 2855,
    "Ġstrides": 22623,
    "ĠĠĠĠĠĠĠĠĠĠĠĠĠ": 22570,
    "advent": 10220,
    "Ġ1890": 23903,
    "Ġdeplored": 20508,
    "Ġsolving": 2484,
    "Ġ10": 5250,
    "Ġarchbishop": 18712,
    "Ġclearness": 23193,
    "scans": 22996,
    "ason": 1248,
    "happiness": 6470,
    "Ġreciprocating": 26373,
    "famous": 16917,
    "Ġlunacy": 20033,
    "Ġcolours": 12979,
    "outon": 12808,
    "Ġchoke": 22257,
    "Ġvalue": 2082,
    "Ġverses": 17064,
    "Ġsit": 4219,
    "Ġcrescentic": 20624,
    "Ġsnug": 8281,
    "Ġwhereof": 16105,
    "Ġpicture": 4858,
    "quitted": 21864,
    "cook": 8271,
    "ploy": 2105,
    "Ġdecomposition": 5343,
    "described": 18896,
    "Ġforecastle": 5495,
    "bold": 17489,
    "Ġmalicious": 10557,
    "Ġpag": 6013,
    "Ġreversed": 15700,
    "Ġpoul": 15616,
    "Ġknotted": 17020,
    "open": 7027,
    "Ġrejo": 5918,
    "Ġgangs": 21614,
    "zing": 7821,
    "Ġvaliantly": 22807,
    "Ġkept": 3348,
    "miniature": 16766,
    "Ġprender": 22242,
    "Ġmagnus": 18962,
    "desol": 13222,
    "ail": 566,
    "aren": 10074,
    "ospit": 22271,
    "Ġavail": 11226,
    "icken": 6713,
    "unched": 10235,
    "Ġham": 3424,
    "sect": 8154,
    "third": 8169,
    "disp": 7977,
    "weep": 22691,
    "lasting": 8012,
    "Ġproducts": 5198,
    "apped": 5395,
    "Ġcrime": 4617,
    "Ġlaughter": 9029,
    "Ġsnapped": 9898,
    "Ġsandwiched": 26613,
    "Ġpreside": 18366,
    "Ġare": 526,
    "agings": 18168,
    "univers": 15775,
    "Ġluff": 15656,
    "arranged": 19323,
    "Ġgentleness": 8713,
    "laugh": 10108,
    "sticking": 21665,
    "Ġ270": 25137,
    "Ġeulogy": 26474,
    "active": 16106,
    "Ġnets": 21528,
    "Ġsheath": 14154,
    "Ġconvalescence": 23751,
    "teenth": 11877,
    "benefit": 24646,
    "Ġsu": 432,
    "Ġresurrection": 12899,
    "Ġvoyage": 3051,
    "rote": 4593,
    "blocks": 25521,
    "Ġliberated": 19671,
    "inside": 23073,
    "Ġinsular": 19272,
    "spin": 22734,
    "malice": 17605,
    "Ġcapric": 14577,
    "Ġconjectured": 9998,
    "et": 307,
    "Ġenveloped": 12213,
    "Ġbelonged": 6922,
    "ruin": 22193,
    "shooting": 16966,
    "Ġjagged": 18409,
    "Ġagric": 22522,
    "Ġmann": 18418,
    "Ġbermud": 26442,
    "Ġbusied": 19067,
    "thread": 15829,
    "lorious": 17594,
    "Ġbarbs": 10531,
    "Ġdefined": 11901,
    "Ġturned": 2132,
    "Ġglow": 7171,
    "Ġsignificance": 13285,
    "Ġtrans": 637,
    "Ġint": 411,
    "Ġsublim": 19972,
    "erland": 9642,
    "Ġfurrow": 22822,
    "fellow": 6793,
    "shame": 16028,
    "Ġidolator": 20003,
    "Ġcalculus": 23989,
    "Ġunfrequ": 19513,
    "Ġslang": 23166,
    "Ġaltar": 9230,
    "rever": 21238,
    "Ġpal": 4040,
    "cra": 6356,
    "Ġpeculiarly": 8288,
    "Ġblazing": 11899,
    "Ġtro": 7356,
    "Ġful": 4300,
    "omon": 10206,
    "Ġfiles": 21417,
    "collins": 6916,
    "Ġrescales": 5069,
    "Ġopening": 5046,
    "Ġelephant": 8257,
    "Ġsimpler": 2046,
    "ange": 1015,
    "Ġspoutings": 14677,
    "fes": 20853,
    "kinson": 10026,
    "Ġunfavourable": 17419,
    "Ġmultitud": 18749,
    "Ġpockets": 8898,
    "ember": 1957,
    "Ġparsonage": 7125,
    "Ġgermany": 25789,
    "also": 7852,
    "Ġconjunction": 25107,
    "Ġnarrower": 24356,
    "Ġeleven": 9392,
    "Ġarts": 11008,
    "Ġanointing": 25543,
    "Ġnarratives": 24355,
    "Ġdisreputable": 22542,
    "Ġhills": 6528,
    "Ġungrateful": 14123,
    "Ġbelfry": 26441,
    "Ġuniformly": 19151,
    "Ġpagans": 16923,
    "Ġdamned": 13135,
    "Ġnaught": 8129,
    "iage": 17575,
    "Ġprovincial": 20652,
    "merit": 19286,
    "Ġshepherd": 14155,
    "alice": 3210,
    "staking": 21653,
    "solving": 3099,
    "Ġval": 962,
    "Ġperches": 18450,
    "Ġicebergs": 23981,
    "Ġdiscipl": 22792,
    "john": 11499,
    "Ġghostliness": 24655,
    "Ġthose": 1174,
    "Ġplayfully": 19243,
    "Ġfronts": 19005,
    "doc": 23382,
    "Ġviolet": 19093,
    "Ġ1836": 25724,
    "Ġced": 10784,
    "Ġconceited": 12096,
    "ckinridge": 11722,
    "Ġprotesting": 14743,
    "Ġapologizing": 25201,
    "atra": 17773,
    "Ġgems": 9210,
    "Ġfabulous": 25951,
    "Ġwrithed": 17106,
    "Ġdemocracy": 25462,
    "return": 5489,
    "rudence": 7094,
    "ufactured": 15184,
    "Ġpressing": 9263,
    "senses": 25029,
    "ograph": 4799,
    "inked": 12918,
    "servants": 15039,
    "shabbily": 26250,
    "authority": 13595,
    "interruption": 20117,
    "surgeon": 24219,
    "ediction": 17948,
    "Ġrevolver": 14900,
    "forehead": 8518,
    "Ġhaw": 10251,
    "Ġlatin": 16822,
    "bran": 23579,
    "Ġmetropolitan": 17277,
    "Ġnightfall": 23137,
    "Ġreally": 2157,
    "ung": 2746,
    "Ġgrego": 18965,
    "tier": 12519,
    "Ġlaboratory": 13616,
    "athans": 7433,
    "inable": 11557,
    "Ġdro": 2771,
    "Ġvagueness": 25741,
    "Ġlet": 1108,
    "Ġintermix": 25829,
    "ners": 3273,
    "Ġsummoning": 23880,
    "ite": 714,
    "ined": 1261,
    "Ġwarnings": 16882,
    "whar": 15930,
    "Ġproperty": 6451,
    "jam": 15374,
    "Ġdisd": 7032,
    "Ġmarty": 20293,
    "leaped": 17846,
    "Ġhospitality": 13516,
    "icient": 809,
    "Ġplaymate": 23643,
    "Ġprows": 19893,
    "moral": 14804,
    "era": 13850,
    "Ġtheology": 21279,
    "leave": 7838,
    "Ġthirds": 16709,
    "Ġtread": 9411,
    "binnacle": 20789,
    "Ġwestmorland": 24392,
    "Ġblank": 5953,
    "rec": 6006,
    "Ġconsidered": 4612,
    "Ġproportion": 7281,
    "Ġtweed": 22684,
    "Ġpurse": 12014,
    "Ġelbow": 12926,
    "Ġprotracted": 19474,
    "Ġunconditional": 15847,
    "¸": 121,
    "Ġscreening": 25303,
    "Ġconnexion": 11455,
    "Ġrabb": 4159,
    "disposition": 10042,
    "Ġfamed": 16329,
    "ario": 14249,
    "lorn": 12492,
    "Ġtouching": 4682,
    "Ġsp": 457,
    "vers": 1326,
    "Ġpoker": 13925,
    "Ġpaid": 5016,
    "Ġsparing": 22136,
    "shorn": 22467,
    "fates": 20860,
    "comprehensive": 20629,
    "Ġencode": 4367,
    "Ġchamois": 16801,
    "autions": 20769,
    "andam": 10888,
    "_?âĢĿ": 15308,
    "Ġchased": 8864,
    "Ġsuch": 792,
    "mist": 5686,
    "Ġcheap": 13093,
    "Ġreading": 5114,
    "Ġinputs": 844,
    "Ġrespectability": 14486,
    "Ġcrop": 10162,
    "pale": 13774,
    "Ġsubl": 7235,
    "ads": 5718,
    "Ġneedles": 11184,
    "reported": 24495,
    "charles": 14701,
    "Ġpreluding": 18369,
    "Ġstreets": 5865,
    "Ġdebt": 12172,
    "Ġblind": 3717,
    "Ġunrel": 14697,
    "Ġstagnant": 24658,
    "Ġmultitude": 9327,
    "complied": 19917,
    "Ġphenomena": 21488,
    "Ġoppressive": 20458,
    "Ġfeasts": 25372,
    "Ġfainted": 8794,
    "Ġdie": 3960,
    "serve": 13052,
    "Ġserenity": 10028,
    "her": 488,
    "taffrail": 15444,
    "Ġconcisely": 19046,
    "Ġcertainty": 6736,
    "Ġduke": 7757,
    "Ġlab": 1872,
    "waves": 10742,
    "Ġtwinkling": 12328,
    "Ġaltogether": 4833,
    "Ġvicissitudes": 12423,
    "Ġmish": 15540,
    "Ġbes": 2659,
    "Ġstash": 18070,
    "Ġstrata": 26030,
    "Ġphysical": 7523,
    "Ġslices": 23172,
    "Ġintervene": 25484,
    "Ġinto": 646,
    "gust": 6362,
    "Ġcrocod": 19633,
    "acter": 2507,
    "boiling": 19003,
    "Ġcombined": 8551,
    "Ġprobability": 1123,
    "ravelled": 18018,
    "Ġshyness": 20309,
    "antically": 22103,
    "taught": 17686,
    "Ġidentified": 19154,
    "alvan": 21508,
    "Ġfore": 2150,
    "arctic": 12615,
    "--------": 14785,
    "remarked": 12292,
    "sworn": 24261,
    "Ġbigness": 19765,
    "Ġstud": 1629,
    "page": 13775,
    "Ġpaddled": 20205,
    "shaped": 10309,
    "apsed": 6297,
    "Ġinc": 702,
    "Ġcond": 3875,
    "Ġsubord": 22795,
    "Ĵ": 245,
    "match": 15393,
    "levelled": 23649,
    "arch": 1122,
    "crew": 7545,
    "maltese": 24797,
    "Ġdispelling": 23886,
    "Ġmasses": 10503,
    "Ġnear": 1719,
    "mown": 20972,
    "agrad": 2747,
    "fugitive": 26134,
    "Ġprepared": 5879,
    "ollion": 19720,
    "Ġscoresby": 10460,
    "did": 3198,
    "Ġbaleen": 10037,
    "Ġrefined": 18699,
    "Ġsolemnisation": 24118,
    "Ġmanx": 7907,
    "Ġweeds": 21931,
    "Ġresponses": 23653,
    "âĢĿ]": 21819,
    "Ġbrid": 6292,
    "Ġtwin": 12933,
    "ilar": 10215,
    "retion": 9364,
    "Ġimposed": 14212,
    "Ġinfernal": 11965,
    "accusations": 23604,
    "nest": 10113,
    "Ġflatter": 9350,
    "skull": 24490,
    "irous": 8842,
    "Ġerrone": 14432,
    "Ġspare": 5102,
    "Ġscra": 5841,
    "hero": 21207,
    "Ġmalignity": 10556,
    "tery": 14040,
    "gathered": 13735,
    "Ġactively": 18655,
    "bulwarks": 12277,
    "Ġslender": 11943,
    "Ġmanhat": 22336,
    "Ġpyramid": 8804,
    "Ġgodfrey": 15296,
    "Ġdatasets": 2389,
    "Ġclutching": 24958,
    "izers": 18137,
    "Ġvowed": 14087,
    "âĢĻ-": 18169,
    "Ġsound": 2243,
    "Ġglued": 20592,
    "Ġworse": 4720,
    "Ġstock": 7455,
    "ques": 2840,
    "med": 1912,
    "frock": 20126,
    "izard": 10879,
    "Ġprison": 5403,
    "Ġbestirred": 20454,
    "sings": 4253,
    "Ġpalsy": 25782,
    "Ġthoughts": 3139,
    "ode": 1453,
    "Ġpestilent": 25781,
    "interests": 19713,
    "Ġdeer": 12725,
    "Ġsearched": 15819,
    "ige": 12685,
    "Ġfilled": 4397,
    "Ġfagged": 17885,
    "bill": 10076,
    "Ġdeceit": 13485,
    "Ġbricks": 13566,
    "ĠÂ£": 5007,
    "Ġmatrices": 4970,
    "Ġinterpreted": 1712,
    "Ġchronicle": 20231,
    "gle": 20871,
    "Ġprone": 18971,
    "disciple": 16779,
    "Ġerred": 21159,
    "ored": 3895,
    "notches": 22757,
    "Ġturnkeys": 23037,
    "Ġus": 493,
    "Ġref": 911,
    "Ġhumane": 11887,
    "Ġpiled": 8427,
    "Ġpick": 4258,
    "Ġinsomuch": 23686,
    "Ġarguing": 25474,
    "heav": 5694,
    "holland": 24048,
    "Ġbloodshot": 23805,
    "wouldn": 23542,
    "Ġphara": 23209,
    "Ġveritable": 19386,
    "Ġvoyagings": 19240,
    "Ġacknowledges": 24692,
    "Ġinde": 7371,
    "Ġsurv": 6083,
    "Ġvalid": 1699,
    "Ġenvirons": 13188,
    "Ġdeficiencies": 26573,
    "lestrade": 9658,
    "Ġdominant": 12400,
    "Ġdz": 4758,
    "Ġoutermost": 22327,
    "acious": 5561,
    "matlock": 23474,
    "Ġarchitect": 967,
    "shazz": 14244,
    "Ġmab": 12565,
    "ople": 2321,
    "feet": 6570,
    "surrounded": 26091,
    "Ġdru": 8424,
    "young": 7321,
    "Ġamericans": 14745,
    "doing": 8588,
    "wilful": 25155,
    "Ġmasked": 3695,
    "onday": 6066,
    "Ġresult": 4462,
    "outre": 18321,
    "Ġboat": 1277,
    "Ġtongs": 9962,
    "Ġro": 599,
    "satisfaction": 9993,
    "monograph": 23531,
    "Ġrascal": 11704,
    "Ġq": 1082,
    "Ġeighteenth": 14756,
    "Ġcrowds": 14741,
    "Ġglit": 8563,
    "Ġwipe": 25768,
    "Ġwallowing": 24050,
    "Ġimpartial": 15222,
    "atre": 17772,
    "Ġinterview": 9772,
    "log": 18536,
    "Ġtumb": 21172,
    "Ġguar": 23053,
    "âĢĺ": 940,
    "Ġcrescent": 16140,
    "ructed": 7031,
    "Ġsidel": 9637,
    "sailed": 17668,
    "cain": 15328,
    "women": 15458,
    "Ġsplendid": 17215,
    "Ġtoilette": 20496,
    "Ġvial": 10248,
    "Ġaltern": 7394,
    "Ġbursting": 8659,
    "rably": 21638,
    "Ġinsurgents": 26603,
    "Ġstained": 11654,
    "thoughtfully": 24051,
    "Ġdesolation": 12273,
    "resum": 17763,
    "Ġsurmises": 17056,
    "Ġiterate": 13205,
    "Ġinboard": 17936,
    "Ġclimes": 12845,
    "Ġimpropriety": 17397,
    "ener": 562,
    "Ĥ": 229,
    "Ġmus": 3400,
    "Ġdesponding": 25871,
    "too": 4509,
    "Ġvindict": 13609,
    "ommod": 13980,
    "tout": 21068,
    "Ġoverlapping": 26242,
    "Ġsecure": 4913,
    "Ġfasting": 16358,
    "elastic": 17984,
    "Ġfig": 3625,
    "Ġchiswick": 25564,
    "Ġexcavating": 23323,
    "Ġcy": 13877,
    "were": 2558,
    "Ġdumplings": 15193,
    "Ġconjugal": 25108,
    "Ġmend": 8408,
    "tranquil": 25873,
    "Ġprogram": 12996,
    "Ġsire": 15503,
    "elius": 13292,
    "consult": 24174,
    "Ġhad": 442,
    "Ġcentrally": 23838,
    "Ġinjustice": 9192,
    "Ġunnecessary": 8854,
    "Ġmask": 1867,
    "umes": 10917,
    "ething": 1603,
    "barbar": 20241,
    "receiving": 12548,
    "Ġbarbed": 14837,
    "deployment": 26530,
    "Ġruminated": 24604,
    "whispering": 26106,
    "Ġmarching": 16697,
    "idate": 21774,
    "Ġtolerably": 8069,
    "eers": 20845,
    "Ġhandkerchief": 8916,
    "Ġdisadvantage": 12895,
    "Ġmansion": 17812,
    "Ġburton": 23658,
    "breeze": 20565,
    "aggo": 5097,
    "Ġcand": 3278,
    "urn": 776,
    "Ġdisobey": 18561,
    "continue": 16862,
    "Ġelegant": 7533,
    "sol": 1790,
    "Ġtransfer": 2209,
    "ii": 4014,
    "omuch": 21645,
    "ourselves": 9013,
    "mentioning": 24890,
    "Ġbelrive": 18833,
    "Ġfoe": 7682,
    "Ġloveliness": 13612,
    "anity": 9656,
    "Ġrese": 2276,
    "alike": 17946,
    "Ġabrid": 22290,
    "ade": 879,
    "Ġga": 4448,
    "Ġguests": 12291,
    "Ġinhaled": 25455,
    "Ġparis": 8180,
    "Ġwhine": 21720,
    "twill": 21077,
    "26": 10073,
    "Ġwarriors": 19728,
    "Ġbelf": 21384,
    "Ġchowder": 10280,
    "Ġthousand": 2781,
    "torture": 26154,
    "Ġcustody": 13651,
    "surpr": 5999,
    "guest": 19487,
    "Ġlevers": 18080,
    "Ġcrashes": 13129,
    "Ġthistle": 21923,
    "Ġclearly": 6897,
    "Ġoverwhelmed": 11404,
    "possesses": 24621,
    "Ġperchance": 15994,
    "lude": 6163,
    "Ġwants": 5742,
    "Ġfrightful": 7737,
    "supp": 4157,
    "Ġproceedings": 9908,
    "oard": 4811,
    "Ġagony": 5388,
    "Ġducking": 17148,
    "Ġsolve": 4198,
    "Ġvir": 7002,
    "tis": 4102,
    "Ġopinions": 9417,
    "Ġprovoke": 14828,
    "ut": 308,
    "Ġphilosophical": 26338,
    "Ġamiable": 4271,
    "Ġtumbled": 13410,
    "ign": 1703,
    "Ġdistinct": 4610,
    "Ġvillage": 5774,
    "usiveness": 22301,
    "ors": 855,
    "Ġpup": 12624,
    "Ġpants": 21469,
    ")âĢĶâĢľ": 20745,
    "Ġbank": 4878,
    "iar": 2379,
    "Ġgleaming": 25002,
    "distance": 12157,
    "lig": 3176,
    "mits": 13759,
    "Ġearlier": 9089,
    "Ġradiance": 13375,
    "Ġmanner": 2196,
    "Ġblack": 2032,
    "Ġglobe": 6078,
    "plex": 706,
    "Ġplunged": 8696,
    "Ġ1846": 26087,
    "oarsman": 25265,
    "Ġseparated": 9466,
    "Ġsable": 15502,
    "icha": 11741,
    "Ġdegrees": 7294,
    "Ġfunere": 22267,
    "Ġdan": 8795,
    "Ġmorbid": 16239,
    "Ġtil": 12529,
    "Ġfires": 16473,
    "mountain": 10713,
    "palms": 25266,
    "saved": 15433,
    "Ġlieuten": 13331,
    "Ġpound": 12621,
    "m": 81,
    "Ġwhoa": 22428,
    "Ġcoats": 16079,
    "Ġwonderland": 23430,
    "Ġaccess": 9749,
    "oles": 21007,
    "Ġspears": 12929,
    "patched": 17645,
    "Ġmira": 8409,
    "Ġfang": 21406,
    "Ġfossils": 20225,
    "Ġsuggestive": 11297,
    "Ġprairies": 20026,
    "Ġhapless": 15815,
    "mel": 9129,
    "âĢĻ": 378,
    "Ġvulgar": 13608,
    "Ġorbs": 22099,
    "Ġindignation": 8348,
    "Ġsubstant": 14811,
    "Ġtongues": 14865,
    "Ġfaintness": 24573,
    "Ġgasped": 11373,
    "prodig": 16429,
    "Ġsubsiding": 23439,
    "Ġtrough": 15972,
    "Ġpetulance": 24232,
    "pretending": 17041,
    "Ġalms": 21787,
    "Ġimpenit": 22393,
    "Ġforge": 8458,
    "Ġdecreases": 3413,
    "fatality": 25026,
    "Ġcat": 2120,
    "Ġeagerness": 6611,
    "august": 11071,
    "Ġhears": 8140,
    "Ġsinned": 18954,
    "rivial": 9436,
    "Ġhistorically": 19383,
    "etah": 12666,
    "Ġharmless": 9966,
    "Ġconcer": 23328,
    "rily": 7623,
    "Ġcontest": 18475,
    "Ġplot": 14282,
    "Ġsorting": 3236,
    "ains": 3734,
    "Ġcounterpart": 24723,
    "ĠĠĠĠĠĠĠĠĠĠĠĠĠĠĠĠĠĠĠĠĠĠĠĠĠĠĠĠĠĠĠĠĠĠĠĠĠĠĠĠĠĠĠ": 12159,
    "Ġsqualls": 17021,
    "Ġspecks": 14310,
    "ended": 1834,
    "S": 55,
    "test": 13795,
    "Ġunlikely": 10907,
    "fil": 12467,
    "Ġtone": 4038,
    "itted": 2439,
    "Ġpen": 1534,
    "uger": 21106,
    "Ġmould": 6520,
    "Ġconfirms": 23317,
    "Ġcrosses": 23070,
    "Ġegot": 18011,
    "resent": 10769,
    "Ġexpanded": 14291,
    "Ġpint": 17912,
    "oppressed": 24824,
    "burn": 8372,
    "pick": 17636,
    "Ġwired": 17789,
    "Ġdesertion": 24789,
    "Ġmechan": 1178,
    "Ġgarn": 13966,
    "Ġret": 1380,
    "uding": 16153,
    "Ġprized": 23226,
    "Ġseer": 21959,
    "Ġprometheus": 15295,
    "zza": 24172,
    "Ġconfidently": 24964,
    "header": 11936,
    "rages": 15684,
    "coat": 5407,
    "Ġmeditating": 20048,
    "neighbouring": 19969,
    "Ġmemories": 14556,
    "Ġspasmod": 12418,
    "Ġparsee": 6414,
    "thankful": 16807,
    "middle": 11310,
    "Ġthou": 1809,
    "rusted": 16508,
    "Ġmoul": 15547,
    "Ġclams": 19994,
    "atever": 3078,
    "Ġoaths": 13527,
    "adieu": 26204,
    "passing": 14814,
    "Ġtwig": 11853,
    "Ġgrope": 17998,
    "beginning": 13565,
    "Ġbeatrix": 24209,
    "Ġalchemists": 26490,
    "ellect": 7381,
    "Ġinstructive": 19290,
    "Ġunsocial": 18254,
    "ulty": 22577,
    "Ġparlour": 12325,
    "7": 27,
    "Ġyouthful": 16724,
    "perplex": 18339,
    "beholding": 16044,
    "opius": 18510,
    "anatory": 21366,
    "Ġcarriage": 3949,
    "Ġdiscover": 4719,
    "Ġcetacean": 25881,
    "prove": 11147,
    "Ġable": 3080,
    "\":": 9583,
    "Ġattention": 1183,
    "iply": 22372,
    "ly": 319,
    "·": 120,
    "Ġwoeful": 19624,
    "considerably": 13449,
    "Ġcharing": 14182,
    "Ġcassock": 20490,
    "Ġdeepest": 8215,
    "shine": 9291,
    "Ġbruited": 25777,
    "iple": 4808,
    "ilege": 22264,
    "Ġgentlemen": 3643,
    "Ġwoes": 23992,
    "prince": 23821,
    "Ġspikes": 22143,
    "Ġexhale": 24404,
    "Ġmournful": 12340,
    "ĠĠĠĠĠĠĠĠĠĠĠĠĠĠĠĠĠĠĠĠĠĠĠĠĠĠĠĠĠĠĠĠĠĠĠĠĠĠĠĠĠĠĠĠĠĠĠĠĠĠĠ": 20044,
    "ju": 13744,
    "Ġvalu": 5040,
    "Ġhold": 2245,
    "Ġflung": 8566,
    "Ġappl": 1739,
    "Ġillum": 9402,
    "Ġslips": 23173,
    "circumstances": 8048,
    "Ġapo": 9632,
    "caps": 20809,
    "Ġbiographical": 22774,
    "pretty": 10621,
    "har": 20892,
    "Ġcompelled": 14267,
    "Ġblackest": 19102,
    "Ġrattled": 15071,
    "Ġ_": 840,
    "Ġdesperate": 7778,
    "Ġtemples": 18639,
    "legra": 10789,
    "Ġhastened": 9006,
    "č": 206,
    "Ġresponsiveness": 2894,
    "Ġcompromised": 22581,
    "thouse": 21989,
    "Ġstrove": 9958,
    "Ġshot": 4545,
    "Ġquietly": 4568,
    "amused": 21853,
    "Ġacceler": 1614,
    "formed": 2554,
    "pictures": 15093,
    "Ġmaid": 5287,
    "omely": 21644,
    "Ġlegitimate": 20644,
    "Ġadduced": 26527,
    "Ġdevouring": 11861,
    "miraculous": 26399,
    "Ġabroad": 8869,
    "combination": 25490,
    "turning": 8318,
    "Ġconv": 2964,
    "earn": 10695,
    "Ġhaze": 18197,
    "os": 524,
    "ator": 1924,
    "pents": 11514,
    "Ġunwelcome": 12784,
    "pursue": 24982,
    "Ġvice": 6550,
    "Ġeag": 2962,
    "influences": 25254,
    "Ġ70": 11276,
    "Ġany": 686,
    "cess": 540,
    "Ġturkey": 19223,
    "Ġprofession": 6209,
    "idelburgh": 10561,
    "Ġ9": 5903,
    "flukes": 25209,
    "Ġcongeal": 25983,
    "ioneer": 15635,
    "Ġbomb": 17870,
    "Ġdais": 24374,
    "Ġordering": 19000,
    "Ġsooner": 5572,
    "vain": 15449,
    "Ġconsciousness": 9949,
    "Ġsupers": 18280,
    "Ġfidelity": 15244,
    "Ġrecollected": 8312,
    "Ġpump": 12626,
    "Ġwere": 556,
    "Ġrural": 21977,
    "restraint": 18982,
    "Ġcoarsely": 25832,
    "sorrows": 17322,
    "jump": 10103,
    "benevolently": 25604,
    "Ġelijah": 9102,
    "Ġburgled": 23659,
    "Ġhug": 6980,
    "s": 87,
    "Ġrecall": 3856,
    "Ġcont": 618,
    "Ġdisinclined": 22537,
    "Ġentered": 2844,
    "Ġexplanations": 15913,
    "orial": 8419,
    "¯": 112,
    "Ġnupt": 13946,
    "rushing": 10018,
    "Ġincantation": 26261,
    "Ġheron": 22080,
    "cross": 3577,
    "rr": 17652,
    "Ġcolder": 22862,
    "Ġsingers": 23776,
    "iffs": 9024,
    "Ġimpregnable": 26026,
    "Ġposture": 24169,
    "japan": 15377,
    "listener": 24935,
    "bordered": 17500,
    "Ġincome": 7919,
    "Ġsoftly": 7949,
    "under": 3133,
    "pil": 15410,
    "pleasures": 24053,
    "Ġfinite": 2326,
    "evil": 11487,
    "Ġevils": 9022,
    "Ġseparating": 16683,
    "Ġnovember": 11752,
    "Ġthence": 8884,
    "eteenth": 20161,
    "Ġunsolved": 22038,
    "Ġeverywhere": 9798,
    "acing": 2716,
    "ĠĠĠĠĠĠĠĠĠĠĠĠĠĠĠĠĠĠĠĠĠĠĠĠĠĠĠĠĠĠĠĠĠĠĠĠĠĠĠĠĠĠĠĠĠĠĠ": 16756,
    "Ġunkindness": 22047,
    "Ġindulging": 16905,
    "Ġrolling": 5977,
    "ivory": 10269,
    "iates": 13740,
    "iscuits": 24670,
    "hour": 7340,
    "Ġadroit": 26003,
    "Ġkeeled": 18810,
    "Ġcritically": 23448,
    "eagerly": 17318,
    "Ġtantamount": 25629,
    "Ġtimes": 2303,
    "Ġgame": 3629,
    "Ġjeopardy": 13600,
    "Ġreciproc": 20625,
    "Ġshetland": 22166,
    "Ġloath": 7893,
    "inferior": 12398,
    "Ġprevailing": 24677,
    "Ġfanny": 23397,
    "Ġdisappointed": 7099,
    "Ġstack": 21740,
    "Ġspear": 9316,
    "Ġhunted": 7453,
    "bearer": 18523,
    "mell": 20966,
    "affair": 14656,
    "Ġexaggerated": 25654,
    "Ġpatted": 16374,
    "Ġjogged": 26240,
    "some": 2235,
    "vial": 17699,
    "Ġtransparency": 10676,
    "Ġdiff": 3116,
    "jaw": 13746,
    "Ġstreamed": 14546,
    "rim": 7139,
    "Ġhush": 13215,
    "Ġscud": 14190,
    "Ġrang": 9247,
    "Ġhurtling": 24966,
    "Ġhover": 15623,
    "Ġcontrolled": 23257,
    "ution": 4352,
    "Ġbites": 23748,
    "Ġbanish": 15573,
    "Ġapr": 12537,
    "successively": 24781,
    "Ġartfully": 22619,
    "Ġdeliberately": 10624,
    "Ġunspeakable": 10056,
    "manned": 18766,
    "etent": 10199,
    "Ġchall": 10944,
    "Ġyielded": 14874,
    "Ġdisregarded": 22538,
    "Ġdisadvantages": 18560,
    "©": 107,
    "forty": 9376,
    "deceiving": 22151,
    "Ġruddy": 17127,
    "Ġexquis": 9701,
    "Ġexplore": 15911,
    "Ġfault": 5702,
    "Ġimmense": 4953,
    "acle": 4717,
    "Ġfurn": 3711,
    "Ġthickets": 24029,
    "ruded": 15906,
    "Ġmightier": 18732,
    "Ġabsence": 4895,
    "Ġvillainous": 25138,
    "Ġcircumstance": 4988,
    "Ġunite": 9256,
    "elizabeth": 1987,
    "Ġuncommon": 5027,
    "Ġpedd": 17913,
    "Ġreproachfully": 25255,
    "Ġrubbing": 9323,
    "Ġrefused": 6717,
    "roused": 16654,
    "Ġsacrific": 15019,
    "Ġcourage": 4634,
    "Ġdefects": 12337,
    "sub": 4660,
    "ape": 1904,
    "Ġinfall": 7961,
    "Ġdummy": 25453,
    "Ġcontemptible": 16954,
    "Ġcem": 17826,
    "encoun": 12302,
    "Ġconfid": 7689,
    "Ġad": 444,
    "leaving": 10791,
    "ton": 1727,
    "obedience": 17412,
    "Ġeducated": 16786,
    "||": 4870,
    "Ġgoverning": 2794,
    "Ġshrieked": 9550,
    "byter": 16216,
    "Ġrescued": 24211,
    "howling": 18993,
    "Ġtransp": 4772,
    "Ġsits": 10768,
    "Ġremot": 8546,
    "retched": 3067,
    "grinder": 23420,
    "://": 11466,
    "Ġallow": 1124,
    "Ġnois": 4269,
    "ignorant": 13567,
    "Ġmeasured": 9806,
    "Ġindolence": 16230,
    "Ġmedicine": 15209,
    "opinion": 10984,
    "anim": 6523,
    "Ġcoiling": 12910,
    "--âĢľ": 12977,
    "Ġrepl": 1594,
    "worthy": 7734,
    "cas": 20796,
    "Ġillustrative": 25073,
    "Ġbacked": 12930,
    "Ġmother": 2066,
    "Ġembatt": 18847,
    "Ġabridged": 26544,
    "Ġtarpaulin": 26160,
    "rus": 5932,
    "Ġcircumnavigating": 25618,
    "Ġgrizzled": 11451,
    "equal": 14995,
    "Ġvolcano": 24152,
    "orton": 11759,
    "Ġrapture": 13499,
    "Ġvariance": 1170,
    "Ġilluminated": 20179,
    "Ġpoll": 12033,
    "scho": 8762,
    "madam": 24423,
    "Ġjabez": 11769,
    "Ġdissatisfied": 14258,
    "Ġmiddle": 4134,
    "Ġrender": 8306,
    "Ġpark": 5465,
    "occasion": 7755,
    "Ġagent": 6279,
    "Ġargu": 10934,
    "Ġtame": 17724,
    "Ġcraft": 4379,
    "Ġascribed": 14857,
    "Ġtarquin": 23615,
    "Ġshutters": 9938,
    "Ġpetticoat": 15298,
    "gloomy": 25150,
    "Ġservants": 6613,
    "Ġunequal": 14844,
    "Ġimmensity": 25333,
    "Ġinmost": 17934,
    "Ġpods": 17918,
    "Ġpurchas": 19878,
    "Ġlargely": 14287,
    "Ġseating": 18200,
    "Ġstall": 12701,
    "Ġindiscriminately": 20630,
    "Ġyoungest": 7955,
    "pain": 7350,
    "Ġdedicated": 19225,
    "Ġloose": 4649,
    "isles": 15567,
    "Ġpitchpoling": 14913,
    "Ġpalms": 8647,
    "Ġinferred": 14501,
    "Ġfriday": 14489,
    "haz": 17566,
    "Ġclang": 15965,
    "Ġfring": 11127,
    "Ġsplashed": 23753,
    "Ġinfinity": 23288,
    "Ġfold": 5530,
    "Ġdecapitated": 20619,
    "Ġtobacc": 7854,
    "ilted": 21728,
    "Ġgeneric": 18455,
    "bare": 12445,
    "cleanliness": 25874,
    "heartedness": 24828,
    "iciously": 17977,
    "Ġinvol": 1041,
    "Ġamaz": 5385,
    "enari": 21284,
    "Ġspaulding": 11734,
    "adequ": 11019,
    "Ġthrew": 3974,
    "nursery": 26402,
    "Ġrap": 14306,
    "assed": 6422,
    "bildad": 9588,
    "Ġyore": 21785,
    "Ġinscribed": 24945,
    "Ġthreats": 13381,
    "Ġmer": 2925,
    "Ġunctuous": 10266,
    "burnt": 20085,
    "Ġledgers": 23944,
    "thirst": 15828,
    "Ġanomalously": 25642,
    "supposed": 13320,
    "mercenary": 26318,
    "Ġmonkey": 8228,
    "Ġacross": 1330,
    "Ġcomposition": 1689,
    "olstad": 7613,
    "eyes": 5684,
    "g": 75,
    "spoke": 11023,
    "firm": 10697,
    "Ġfielding": 16238,
    "Ġpenalty": 1841,
    "finished": 10554,
    "Ġjam": 10951,
    "grass": 23418,
    "Ġswarm": 23062,
    "rix": 1575,
    "peculiar": 6886,
    "Ġsources": 10147,
    "Ġparticularly": 5057,
    "Ġintact": 21996,
    "Ġcaravan": 26294,
    "Ġvisions": 12982,
    "Ġpeter": 10535,
    "fth": 20858,
    "Ġnuptials": 20497,
    "k": 79,
    "Ġescapes": 23512,
    "Ġsuav": 22083,
    "ĠâĢĶâĢľ_": 17720,
    "Ġarrives": 23612,
    "Ġtrembled": 8705,
    "separately": 25231,
    "ee": 1660,
    "Ġcirclings": 26434,
    "situation": 11438,
    "overcome": 19052,
    "dining": 13709,
    "vigorous": 25920,
    "ston": 15686,
    "widows": 25347,
    "Ġpleasure": 2693,
    "uling": 2257,
    "Ġkilburn": 18352,
    "fifth": 20150,
    "Ġmutable": 23961,
    "Ġunrestrained": 25558,
    "provoke": 26074,
    "Ġguiltless": 16941,
    "bone": 5611,
    "Ġexciting": 23320,
    "Ġnarwhales": 24907,
    "Ġwhirled": 14962,
    "Ġtre": 2537,
    "Ġbreathlessly": 24285,
    "Ġtreat": 3179,
    "icates": 11619,
    "aws": 8238,
    "Ġceremonious": 24842,
    "Ġquaff": 22422,
    "Ġthee": 2623,
    "rict": 8094,
    "Ġholland": 10365,
    "Ġhave": 443,
    "forward": 2188,
    "Ġbumping": 25284,
    "Ġmeeting": 5193,
    "itations": 17820,
    "Ġpassion": 4558,
    "purse": 20030,
    "barrel": 17061,
    "others": 7672,
    "Ġincidents": 9301,
    "odhead": 18123,
    "Ġwickedness": 9528,
    "Ġdistrusting": 25060,
    "Ġindividuals": 24548,
    "Ġpatter": 843,
    "Ġcust": 11584,
    "Ġperceptibly": 25824,
    "Ġsidelong": 11439,
    "ifer": 11687,
    "Ġcomposedly": 25187,
    "advise": 24222,
    "Ġmoment": 992,
    "Ġheedfulness": 24524,
    "haven": 20914,
    "Ġdart": 4586,
    "Ġclattered": 22357,
    "greeting": 24556,
    "Ġrefine": 3003,
    "hever": 13834,
    "Ġpolice": 4675,
    "wrote": 11548,
    "Ġgiddy": 20500,
    "spike": 16142,
    "Ġ17": 5740,
    "reputation": 15517,
    "Ġcell": 6239,
    "riet": 18186,
    "trans": 5593,
    "somewhat": 11160,
    "Ġtingling": 15095,
    "beneath": 9537,
    "Ġgul": 7861,
    "greatest": 10493,
    "eding": 7166,
    "Ġaper": 17745,
    "confess": 12180,
    "mat": 2199,
    "west": 10739,
    "Ġgemini": 26472,
    "Ġweight": 655,
    "Ġstood": 2551,
    "Ġvirt": 3907,
    "Ġremind": 6060,
    "Ġdivulged": 16650,
    "Ġestab": 6317,
    "cuniary": 26382,
    "Ġpatients": 24813,
    "bet": 6111,
    "Ġwhereas": 3855,
    "Ġemergency": 25734,
    "Ġsprung": 11247,
    "etus": 21582,
    "Ġsordid": 26425,
    "Ġemblematical": 25792,
    "Ġtroublesome": 24008,
    "leness": 4692,
    "Ġellenborough": 26157,
    "Ġparac": 12800,
    "Ġpatronage": 17053,
    "hies": 17562,
    "Ġrevolutions": 23848,
    "Ġtexas": 25925,
    "Ġcommenced": 8534,
    "Ġsoliloqu": 11888,
    "urp": 1472,
    "Ġche": 1762,
    "Ġcatastrophe": 10483,
    "entle": 1738,
    "accuracy": 9880,
    "produ": 10720,
    "Ġentitled": 8541,
    "Ġunhappiness": 14120,
    "Ġbracing": 16582,
    "Ġcompiled": 22580,
    "Ġanswer": 2599,
    "swept": 19791,
    "porary": 14551,
    "Ġgrand": 3594,
    "Ġdepended": 9779,
    "Ġbourgh": 5070,
    "baby": 25519,
    "achable": 14132,
    "laden": 14931,
    "portuguese": 25417,
    "Ġstation": 5299,
    "Ġcrisis": 13130,
    "care": 4929,
    "inating": 9155,
    "dying": 15343,
    "Ġjoists": 19237,
    "Ġthreatens": 24377,
    "Ġmystic": 7504,
    "Ġspeaks": 11159,
    "Ġmetropol": 11140,
    "Ġcheapside": 23295,
    "Ġstepfather": 7221,
    "wantonly": 25156,
    "ropri": 2178,
    "Ġsyn": 15915,
    "blubber": 15239,
    "lamp": 9610,
    "Ġfalling": 6915,
    "Ġtalk": 1970,
    "Ġdisordered": 16058,
    "î": 175,
    "service": 15038,
    "Ġarchangel": 8545,
    "wol": 21125,
    "web": 18666,
    "Ġdoctors": 12156,
    "Ġtell": 1468,
    "crowded": 20194,
    "Ġhollows": 19746,
    "zen": 5140,
    "Ġbud": 10168,
    "Ġindifference": 6727,
    "Ġfaces": 6011,
    "Ġinstrum": 6057,
    "ă": 196,
    "Ġcomplied": 14736,
    "Ġgrave": 5100,
    "civilized": 17075,
    "storied": 18028,
    "Ġobliter": 14324,
    "ash": 1992,
    "rocious": 21543,
    "sugg": 11844,
    "bitts": 26125,
    "countenance": 6925,
    "Ġbleak": 10558,
    "obst": 11935,
    "Ġbells": 19606,
    "lantic": 6365,
    "Ġlethar": 21753,
    "interference": 23740,
    "Ġsy": 489,
    "hint": 12480,
    "Ġbirch": 26177,
    "Ġdistrusted": 13545,
    "Ġmislead": 22768,
    "impropriety": 21718,
    "Ġcanall": 10928,
    "harpooneer": 8692,
    "Ġentities": 11866,
    "even": 3838,
    "Ġenraptured": 26503,
    "igations": 18047,
    "darkened": 24516,
    "Ġdeed": 7870,
    "Ġsincer": 13071,
    "Ġwrithing": 11950,
    "att": 1456,
    "Ġflat": 8229,
    "speckled": 23951,
    "holder": 13287,
    "Ġjudiciously": 23884,
    "Ġrespectively": 23255,
    "Ġdubious": 17385,
    "Ġhopes": 4236,
    "Ġcontention": 22434,
    "Ġencircling": 26275,
    "Ġ133": 24785,
    "oked": 4311,
    "Ġsend": 4104,
    "Ġroundabout": 23069,
    "Ġjuicy": 25373,
    "Ġhamp": 12635,
    "accur": 14594,
    "Ġplans": 7920,
    "Ġfolios": 23028,
    "Ġluggage": 25960,
    "Ġspouting": 9441,
    "Ġassisting": 13262,
    "ops": 5248,
    "ylon": 24984,
    "Ġsuperficial": 23460,
    "Ġcounsell": 25387,
    "itate": 6670,
    "Ġcontinuing": 14399,
    "Ġappeased": 23207,
    "deed": 1519,
    "Ġloos": 15874,
    "Ġimmortality": 26329,
    "Ġprocession": 11778,
    "Ġtravel": 5955,
    "Ġencoding": 4776,
    "teringly": 21830,
    "Ġmakest": 25439,
    "Ġtwos": 18658,
    "Ġpalmed": 24097,
    "Ġincluding": 2849,
    "flakes": 23974,
    "repeating": 20133,
    "Ġcobb": 14274,
    "iasm": 8062,
    "Ġpercept": 14225,
    "mast": 3603,
    "Ġtire": 17722,
    "Ġremonstrance": 20626,
    "odd": 21821,
    "horror": 13163,
    "Ġbeaut": 2393,
    "Ġedged": 23492,
    "Ġcontraction": 16011,
    "Ġconstant": 6311,
    "Ġlionel": 25290,
    "ishness": 22350,
    "Ġremaining": 6190,
    "Ġagile": 22520,
    "pus": 3418,
    "dles": 11482,
    "Ġroanoke": 22415,
    "Ġprofits": 16491,
    "Ġtimidity": 24691,
    "Ġcast": 3607,
    "Ġbuckler": 24864,
    "Ġsheepfold": 25470,
    "abound": 15743,
    "Ġthinnest": 24188,
    "Ġsimpleton": 16337,
    "computer": 1951,
    "Ġcommunicates": 24549,
    "convenient": 12242,
    "labours": 16618,
    "Ġrobbed": 23024,
    "finer": 17547,
    "thrust": 10260,
    "Ġfirm": 3871,
    "Ġcharmed": 16763,
    "Ġintently": 8170,
    "Ġhealth": 3903,
    "Ġconjure": 17125,
    "sens": 8097,
    "degrad": 22150,
    "Ġmonoton": 3637,
    "Ġpatriot": 23299,
    "expressive": 24309,
    "Ġwholesome": 16008,
    "sisters": 13380,
    "concerning": 9066,
    "Ġgamy": 18002,
    "Ġdolphins": 20399,
    "Ġcope": 17833,
    "Ġfitly": 24005,
    "Ġilleg": 21623,
    "ators": 7830,
    "croquet": 25751,
    "Ġcultured": 25161,
    "Ġequivalent": 4804,
    "duing": 22419,
    "Ġsunday": 7270,
    "Ġlaugh": 4110,
    "Ġmarrying": 6179,
    "Ġplentiful": 12916,
    "Ġshattered": 7886,
    "band": 3056,
    "Ġbrushed": 15574,
    "Ġmatrix": 1610,
    "masters": 16835,
    "Ġswitzerland": 10379,
    "Ġcats": 8981,
    "Ġchurches": 12833,
    "Ġburglar": 17356,
    "Ġelectric": 15197,
    "Ġprayed": 16669,
    "Ġton": 15466,
    "clay": 18934,
    "Ġteacher": 22918,
    "Ġpledged": 20690,
    "ientiously": 21948,
    "Ġfiercely": 12957,
    "Ġsen": 9158,
    "Ġrehears": 15703,
    "Ġshri": 5375,
    "Ġquarter": 3977,
    "Ġwandering": 8657,
    "Ġadmirers": 19691,
    "Ġpraises": 16731,
    "Ġextreme": 2516,
    "exc": 5169,
    "procure": 23403,
    "estruct": 22228,
    "Ġattacked": 10567,
    "Ġfeminine": 15266,
    "since": 5897,
    "Ġbellies": 13360,
    "Ġfarthest": 23123,
    "Ġapple": 14169,
    "Ġaverage": 3140,
    "Ġscot": 5643,
    "Ġ49": 24088,
    "brimming": 23582,
    "succeeded": 15178,
    "ulence": 15769,
    "Ġlimb": 9404,
    "Ġloss": 824,
    "Ġthump": 11613,
    "Ġhatter": 4109,
    "Ġfarmhouse": 24993,
    "Ġreturns": 11929,
    "Ġpuff": 6527,
    "mming": 1173,
    "Ġsimple": 1623,
    "final": 19681,
    "Ġguardianship": 17422,
    "Ġmin": 1023,
    "itives": 17822,
    "row": 1063,
    "Ġtwentieth": 18660,
    "Ġresnet": 5473,
    "Ġrh": 9246,
    "Ġrear": 6537,
    "Ġprocesses": 3634,
    "Ġtrag": 13044,
    "Ġbreed": 19074,
    "Ġbrand": 16189,
    "rift": 11521,
    "Ġperry": 22404,
    "itten": 3444,
    "Ġmaternal": 11059,
    "capable": 13705,
    "Ġaught": 8776,
    "speptic": 23952,
    "Ġknows": 4155,
    "Ġpenet": 6888,
    "olen": 9702,
    "Ġconcentric": 20080,
    "Ġbrutality": 26280,
    "uttermost": 24947,
    "iquet": 17577,
    "Ġattendance": 12186,
    "sixty": 24857,
    "Ġbending": 12590,
    "Ġsaville": 15891,
    "Ġopportunities": 19253,
    "arn": 357,
    "Ġcomforted": 19396,
    "mole": 22708,
    "ns": 758,
    "Ġinnocent": 4922,
    "heard": 5010,
    "Ġpresumably": 19629,
    "Ġsteer": 10386,
    "Ġstolen": 14010,
    "Ġhandy": 12941,
    "possibly": 10543,
    "ol": 362,
    "Ġste": 1388,
    "Ġsandwich": 19833,
    "ethe": 9678,
    "Ġdelusion": 18976,
    "Ġsecrecy": 7316,
    "Ġthoughtless": 16195,
    "feather": 16046,
    "Ġidea": 2488,
    "Ġpulse": 13119,
    "confirmed": 19645,
    "à": 161,
    "Ġpoison": 7219,
    "embraced": 25808,
    "angular": 11726,
    "Ġdrab": 13075,
    "excellent": 8045,
    "Ġwrap": 24599,
    "Ġprevious": 2086,
    "idirectional": 2419,
    "Ġholds": 7976,
    "Ġrestlessness": 23300,
    "Ġinterior": 8897,
    "Ġmasoned": 20254,
    "Ġzodiac": 16177,
    "bows": 10081,
    "paddington": 20481,
    "reast": 17760,
    "Ġthreading": 23408,
    "dispositions": 25018,
    "joy": 3337,
    "omical": 9682,
    "Ġapprehens": 5682,
    "Ġnose": 4405,
    "Ġadv": 1146,
    "Ġcounterpane": 11343,
    "spirited": 19758,
    "Ġpersistence": 3364,
    "Ġpython": 1065,
    "Ġsevere": 6034,
    "anxiety": 25162,
    "rent": 1172,
    "Ġschools": 9479,
    "runs": 25419,
    "untarily": 6314,
    "Ġburke": 19255,
    "Ġtalks": 23376,
    "entered": 8817,
    "Ġguilt": 6181,
    "dden": 1804,
    "Ġimply": 18446,
    "Ġblowing": 10484,
    "Ġrum": 5926,
    "ffic": 22164,
    "Ġcontinuation": 22925,
    "Ġgilder": 21618,
    "Ġgases": 21606,
    "anch": 15563,
    "sively": 13789,
    "Ġdeactivates": 20706,
    "Ġdampening": 2892,
    "vult": 21116,
    "iring": 1707,
    "Ġbats": 13903,
    "taining": 7206,
    "circ": 4391,
    "Ġgates": 10200,
    "def": 1452,
    "Ġchecked": 9378,
    "Ġshield": 22006,
    "Ġtruck": 19516,
    "Ġrot": 10967,
    "Ġinexper": 16981,
    "Ġemir": 23357,
    "Ġreflecting": 24753,
    "news": 23139,
    "Ġfunction": 588,
    "Ġperformer": 18757,
    "Ġsouls": 6310,
    "Ġrequ": 807,
    "Ġpiqu": 21481,
    "Ġindecision": 25785,
    "Ġstraining": 11327,
    "Ġprovocation": 24196,
    "Ġincom": 9771,
    "Ġsatisfied": 4169,
    "modesty": 22855,
    "orter": 4257,
    "ifference": 5632,
    "luc": 9754,
    "Ġdam": 2216,
    "Ġmexico": 15283,
    "appl": 9328,
    "Ġsoftware": 18921,
    "Ġentangled": 10342,
    "ariously": 18529,
    "mar": 4338,
    "Ġflea": 23778,
    "Ġtelesc": 12997,
    "Ġdomin": 10471,
    "Ġcham": 4893,
    "tt": 13793,
    "Ġmccauley": 26430,
    "ksome": 10104,
    "soldiers": 25914,
    "Ġsombre": 18862,
    "Ġtastes": 15479,
    "Ġdislike": 6050,
    "eral": 9161,
    "Ġmournfully": 20122,
    "Ġprofessor": 11230,
    "Ġseek": 4510,
    "alterable": 13628,
    "Ġpredicts": 2595,
    "Ġdiscoveries": 13363,
    "Ġmaximizing": 3172,
    "Ġgib": 13968,
    "Ġunrestingly": 20364,
    "itance": 13871,
    "tri": 11531,
    "Ġfigure": 4208,
    "Ġassociations": 14965,
    "Ġinformed": 6719,
    "riminately": 16484,
    "catch": 17508,
    "Ġcheeks": 5960,
    "Ġtags": 20574,
    "Ġranks": 21982,
    "69": 17476,
    "quimaux": 21866,
    "Ġpresentiment": 18992,
    "Ġrespects": 7269,
    "Ġknights": 15152,
    "Ġban": 7157,
    "laid": 10109,
    "rose": 6016,
    "growing": 13736,
    "Ġside": 1386,
    "handedness": 24925,
    "circuit": 24193,
    "tains": 10962,
    "joint": 24015,
    "hearing": 8405,
    "aving": 2405,
    "Ġungovernable": 20711,
    "dry": 13707,
    "ortment": 22265,
    "Ġrotation": 25478,
    "Ġradiant": 16810,
    "Ġexploration": 2337,
    "looking": 4032,
    "isite": 15566,
    "Ġapproving": 18511,
    "par": 1861,
    "hunters": 16834,
    "Ġroving": 22411,
    "Ġcourse": 2130,
    "Ġwarrant": 17797,
    "Ġloadstone": 25820,
    "Ġdropt": 23679,
    "Ġspaniard": 20366,
    "Ġsteed": 13045,
    "Ġthinkings": 22819,
    "lic": 17589,
    "becoming": 18521,
    "Ġquant": 6425,
    "Ġstaves": 21747,
    "Ġdesert": 6729,
    "Ġexecuted": 9474,
    "peculiarity": 23117,
    "Ġcustoms": 19657,
    "Ġredeem": 20503,
    "Ġyard": 5923,
    "Ġsmith": 16067,
    "Ġrough": 7187,
    "Ġupp": 13995,
    "Ġunexpectedly": 19913,
    "reward": 15511,
    "whose": 6852,
    "stairs": 5155,
    "Ġstings": 21741,
    "Ġfarther": 5957,
    "scot": 14420,
    "ule": 6801,
    "Ġdella": 21443,
    "conside": 9292,
    "Ġ184": 16608,
    "infall": 21191,
    "relation": 19452,
    "Ġsuppose": 2864,
    "Ġconversations": 9427,
    "cool": 19191,
    "Ġstirs": 14919,
    "worth": 8630,
    "stays": 15692,
    "Ġundulated": 19521,
    "Ġcigaret": 16977,
    "paper": 9138,
    "Ġfocus": 4238,
    "Ġpurplish": 19144,
    "Ġvastly": 23866,
    "Ġguard": 6180,
    "Ġnominal": 15171,
    "Ġesquimaux": 25157,
    "Ġmetrics": 19057,
    "unte": 21880,
    "dragging": 16610,
    "Ġdownward": 10331,
    "Ġnobler": 14176,
    "Ġag": 683,
    "stones": 11638,
    "Ġsorrows": 13359,
    "Ġelephants": 9865,
    "Ġretained": 7174,
    "cence": 9590,
    "Ġmumbling": 11576,
    "star": 12677,
    "Ġtapers": 11553,
    "Ġbru": 13898,
    "ons": 711,
    "Ġsnugly": 17111,
    "Ġsaxe": 13632,
    "Ġfortifications": 23625,
    "Ġdoubted": 7967,
    "transition": 24512,
    "Ġlarge": 1061,
    "suspicious": 25393,
    "Ġrelates": 12986,
    "Ġgodson": 23365,
    "Ġforcing": 3226,
    "Ġphilosophy": 7105,
    "taller": 26153,
    "Ġhypotheses": 4389,
    "Ġsquire": 16181,
    "Ġinclement": 22561,
    "lighted": 23759,
    "Ġproceeds": 12082,
    "impregn": 21719,
    "Ġsorely": 17258,
    "Ġbustle": 17229,
    "kes": 3678,
    "Ġinert": 15625,
    "Ġappellation": 22225,
    "Ġsublime": 8067,
    "dom": 6224,
    "Ġsuffer": 4723,
    "yed": 3274,
    "resemblance": 25936,
    "Ġslavery": 16309,
    "Ġhatherley": 7850,
    "Ġfingers": 5672,
    "asc": 6387,
    "Ġfolded": 7769,
    "rugged": 6849,
    "lined": 12488,
    "Ġshipw": 12984,
    "Ġunbroken": 18248,
    "Ġbenefactor": 14699,
    "Ġwhim": 14002,
    "Ġtrain": 514,
    "Ġoptimizer": 5036,
    "Ġtry": 3135,
    "overfitting": 13105,
    "decoder": 3645,
    "eks": 4729,
    "slowly": 9091,
    "Ġweigh": 10894,
    "Ġapology": 8329,
    "Ġreview": 18034,
    "Ġstrike": 4857,
    "Ġallowance": 14391,
    "gment": 4393,
    "Ġreceived": 2947,
    "Ġwearily": 18180,
    "Ġmarvelled": 18876,
    "Ġpretend": 7723,
    "Ġoccupied": 5273,
    "ose": 718,
    "Ġimmured": 24077,
    "Ġloom": 7630,
    "Ġilliterate": 26597,
    "Ġhall": 4184,
    "Ġkuiperai": 10935,
    "towns": 24859,
    "rative": 17654,
    "Ġinspecting": 24618,
    "Ġjar": 15953,
    "Ġtrivial": 10142,
    "Ġtumult": 7116,
    "Ġegress": 21628,
    "Ġmines": 21311,
    "Ġfritters": 23263,
    "Ġdutch": 6329,
    "anct": 21361,
    "Ġfished": 21414,
    "Ġcondescending": 24873,
    "Ġsince": 1795,
    "Ġcopse": 17068,
    "Ġhaughty": 11450,
    "secondly": 16985,
    "Ġpennies": 17272,
    "voy": 7145,
    "Ġlaughs": 24121,
    "Ġweedy": 15796,
    "educ": 10828,
    "Ġimprove": 1799,
    "Ġlifeless": 8950,
    "Ġsheer": 14153,
    "veh": 12684,
    "Ġintermediate": 18596,
    "loaded": 22519,
    "Ġembod": 14413,
    "Ġvide": 10250,
    "determ": 7107,
    "Ġperth": 7024,
    "Ġpretext": 22236,
    "Ġdepending": 14301,
    "dead": 8181,
    "Ġ86": 24463,
    "Ġwhosoever": 21724,
    "Ġpalpitated": 26088,
    "unch": 14061,
    "Ġattempted": 8002,
    "Ġtrading": 23086,
    "ired": 1445,
    "dressed": 10694,
    "Ġunchanging": 22050,
    "Ġchap": 5936,
    "hairs": 20906,
    "ppered": 15794,
    "Ġveiled": 16203,
    "Ġtasks": 1788,
    "week": 12936,
    "Ġfavourable": 7960,
    "Ġsinging": 7725,
    "Ġscaled": 2102,
    "Ġdormouse": 4926,
    "Ġpolar": 9413,
    "Ġattentively": 9951,
    "Ġmagazine": 23107,
    "Ġembalmed": 13660,
    "relapse": 24022,
    "Ġespecial": 26413,
    "ellations": 21951,
    "Ġboard": 3387,
    "Ġflower": 16236,
    "Ġslacked": 25192,
    "Ġply": 21457,
    "nephew": 26400,
    "mens": 20971,
    "Ġclose": 3033,
    "Ġexpl": 487,
    "following": 10572,
    "Ġprying": 15612,
    "D": 40,
    "Ġdiscussed": 19564,
    "Ġdefine": 9817,
    "hammad": 23270,
    "Ġribbons": 24327,
    "Ġlessened": 19091,
    "Ġregion": 2271,
    "steak": 14710,
    "faced": 8081,
    "Ġscraps": 16903,
    "ures": 838,
    "Ġgardeners": 12125,
    "Ġgeneva": 5450,
    "Ġheartfelt": 18970,
    "Ġchip": 12830,
    "Ġquee": 1981,
    "Ġwigwam": 11429,
    "nes": 6961,
    "Ġmany": 1102,
    "Ġspan": 11731,
    "insurance": 18890,
    "Ġgrazed": 15836,
    "Ġelizabeth": 1126,
    "ivable": 10910,
    "Ġarrogance": 26235,
    "magn": 10610,
    "plish": 18209,
    "Ġmarble": 7671,
    "olic": 14045,
    "Ġappears": 5402,
    "vanished": 15064,
    "Ġricher": 12764,
    "assisted": 22315,
    "Ġcopper": 7425,
    "warm": 8103,
    "Ġcarefully": 6306,
    "Ġcomplaisance": 19454,
    "Ġfootmen": 23803,
    "Ġnap": 8811,
    "Ġdefendants": 15143,
    "Ġgenerating": 12856,
    "anely": 17839,
    "urements": 18126,
    "itan": 10159,
    "Ġsine": 10763,
    "unning": 4495,
    "Ġbatch": 889,
    "Ġforlorn": 14018,
    "Ġhimself": 1352,
    "Ġhelpless": 8303,
    "Ġsubtle": 6718,
    "Ġembarrassed": 11385,
    "!âĢĻâĢĿ": 16593,
    "Ġwarped": 25042,
    "Ġinsisted": 12050,
    "science": 11912,
    "Ġdied": 4108,
    "atic": 4017,
    "Ġnewcastle": 16225,
    "Ġsanctioned": 26354,
    "Ġgills": 17996,
    "Ġblurred": 22938,
    "orrow": 2911,
    "Ġpecks": 18671,
    "Ġscrewing": 20212,
    "moid": 2448,
    "figures": 20127,
    "Ġann": 4491,
    "scy": 21058,
    "how": 1644,
    "Ġtreacherous": 13558,
    "Ġfresh": 3670,
    "Ġfriendless": 23033,
    "bowed": 10684,
    "Ġrio": 23897,
    "Ġensu": 7877,
    "Ġadvantages": 9813,
    "Ġguess": 4904,
    "Ġclouds": 5775,
    "Ġtotal": 4994,
    "Ġtale": 5142,
    "Ġdusty": 14927,
    "spirits": 8056,
    "Ġbite": 10797,
    "Ġseldom": 4630,
    "Ġscr": 11763,
    "Ġimpertinence": 11366,
    "Ġdepartments": 24247,
    "Ġminim": 1322,
    "Ġstrait": 23755,
    "Ġimpl": 7195,
    "scept": 21056,
    "Ġfavoring": 2345,
    "Ġbleeds": 24399,
    "Ġobject": 1394,
    "Ġlog": 1679,
    "Ġpattered": 19025,
    "Ġclaws": 15969,
    "Ġbulge": 23863,
    "Ġperiod": 4003,
    "crown": 13702,
    "Ġconcern": 2586,
    "Ġclout": 22351,
    "Ġaccent": 10295,
    "Ġblaze": 16222,
    "Ġexercise": 8360,
    "Ġwidely": 8034,
    "ention": 859,
    "Ġretreating": 19804,
    "Ġimmensities": 25334,
    "Ġdetached": 10279,
    "Ġdining": 6978,
    "Ć": 199,
    "book": 4670,
    "actions": 8909,
    "activity": 22639,
    "control": 16543,
    "sway": 15427,
    "Ġdeference": 10882,
    "Ġpoles": 11003,
    "Ġtechni": 1713,
    "Ġsanity": 24988,
    "define": 1527,
    "asleep": 21548,
    "getic": 12971,
    "estab": 14172,
    "lion": 20946,
    "Ġgothic": 18003,
    "Ġresolving": 9421,
    "Ġgirdled": 19163,
    "Ġimpaling": 22388,
    "Ġimpatience": 7510,
    "Ġovertake": 15976,
    "bask": 20778,
    "03": 20750,
    "civil": 7798,
    "Ġstum": 21738,
    "Ġsibbald": 21233,
    "Ġmilitia": 13322,
    "Ġdecision": 2675,
    "off": 1887,
    "Ġstart": 3259,
    "Ġreluct": 14374,
    "Ġribs": 7103,
    "Ġbountiful": 25947,
    "ctions": 952,
    "Ġunex": 11716,
    "fill": 15353,
    "lances": 15386,
    "Ġunfelt": 24115,
    "looks": 12021,
    "Ġcontribut": 12864,
    "business": 5609,
    "Ġbalancing": 2429,
    "cries": 17512,
    "gall": 6361,
    "Ġbarred": 9004,
    "gallant": 7782,
    "themselves": 6542,
    "Ġunimag": 12779,
    "Ġsticking": 13431,
    "Ġkills": 15909,
    "groom": 8742,
    "Ġapproxim": 1217,
    "Ġjog": 18406,
    "Ġphilipp": 23890,
    "Ġremained": 3143,
    "Ġclothe": 4713,
    "sit": 13783,
    "rapid": 12675,
    "wound": 21129,
    "Ġxxxix": 24977,
    "Ġaver": 1287,
    "orand": 21400,
    "Ġentit": 22747,
    "Ġegg": 8821,
    "Ġgent": 7383,
    "Ġwasting": 12733,
    "Ġavert": 14427,
    "Ġaccident": 5380,
    "Ġcanallers": 13631,
    "ock": 15404,
    "Ġalighted": 18106,
    "Ġdissolved": 18556,
    "Ġnecess": 3479,
    "Ġcau": 13884,
    "Ġthomas": 17951,
    "Ġplace": 1654,
    "Ġbaby": 6639,
    "Ġjunior": 15102,
    "Ġfill": 5701,
    "Ġcringed": 25945,
    "oura": 1058,
    "Ġreiter": 21671,
    "Ġterrier": 23405,
    "Ġ69": 19666,
    "Ġmythologies": 26217,
    "dashing": 20838,
    "Ġtunnel": 14932,
    "rid": 5137,
    "lording": 24058,
    "Ġkeels": 11061,
    "Ġpencils": 23205,
    "obser": 11099,
    "Ġacqu": 1416,
    "char": 3506,
    "Ġautonomous": 10675,
    "ready": 2361,
    "Ġintensity": 10017,
    "_,": 2798,
    "Ġcommunications": 16357,
    "view": 5898,
    "Ġpatron": 7462,
    "Ġhauling": 14090,
    "Ġrecollect": 8311,
    "girdling": 26392,
    "Ġchanc": 18386,
    "Ġforests": 13596,
    "tranquillity": 20549,
    "humoredly": 26328,
    "Ġexertions": 13414,
    "Ġbiting": 17864,
    "Ġenchantment": 24874,
    "nonsense": 17617,
    "Ġtruest": 16701,
    "ological": 1885,
    "umbers": 10918,
    "Ġgoing": 2065,
    "Ġexternal": 8366,
    "Ġvisiting": 10357,
    "Ġundoubted": 19519,
    "Ġobtain": 8917,
    "Ġmincing": 18753,
    "Ġperplexed": 23664,
    "Ġcrazed": 19179,
    "treat": 12518,
    "wra": 11543,
    "Ġbab": 5291,
    "Ġpropagating": 20636,
    "ios": 2117,
    "Ġinfatuation": 25859,
    "Ġharbour": 19985,
    "Ġguido": 2973,
    "Ġwell": 901,
    "itic": 11580,
    "Ġlav": 13953,
    "ugues": 19024,
    "Ġboston": 22645,
    "Ġbott": 3150,
    "Ġtrappers": 23089,
    "Ġdenote": 19337,
    "Ġspire": 18307,
    "Ġalter": 6544,
    "Ġideal": 13125,
    "Ġamuse": 5942,
    "Ġsymptoms": 8708,
    "Ġcranial": 25596,
    "Ġverse": 16603,
    "Ġnature": 2539,
    "Ġrestored": 7068,
    "Ġalleged": 17292,
    "Ġfootmarks": 19341,
    "Ġsadly": 7302,
    "comput": 1944,
    "Ġrickety": 26509,
    "urean": 18125,
    "Ġwinds": 5746,
    "Ġundeniable": 26513,
    "Ġoptimization": 1419,
    "ulent": 21869,
    "falling": 24363,
    "Ġsires": 21229,
    "ibility": 2390,
    "swimming": 24263,
    "Ġneutral": 12746,
    "Ġfranc": 16354,
    "Ġcompl": 3760,
    "elag": 12663,
    "ten": 1559,
    "oves": 15405,
    "rusion": 11323,
    "suff": 4962,
    "?_": 8071,
    "rip": 9243,
    "Ġsurrey": 14559,
    "Ġchairs": 12831,
    "Ġsle": 2013,
    "Ġtales": 10141,
    "osoever": 17345,
    "Ġbohemia": 10649,
    "Ġunsub": 22028,
    "Ġworst": 7444,
    "emberley": 4167,
    "Ġep": 7385,
    "deploy": 22149,
    "Ġvivacious": 19820,
    "Ġdissuade": 26260,
    "Ġdangers": 12358,
    "Ġsunwards": 19014,
    "Ġcongenial": 12415,
    "perv": 1548,
    "ctor": 13963,
    "Ġprim": 8245,
    "Ġrind": 21979,
    "Ġminimizing": 3468,
    "Ġparties": 7040,
    "umb": 3406,
    "report": 13403,
    "Ġseparately": 13307,
    "Ġfeeble": 12288,
    "Ġ106": 24416,
    "Ġchill": 11755,
    "Ġlobster": 11390,
    "ript": 4148,
    "rucastle": 22195,
    "Ġsamuel": 10033,
    "eenth": 12465,
    "Ġwollstonecraft": 26428,
    "idled": 21775,
    "Ġinterrupt": 4362,
    "swed": 24258,
    "Ġcompanions": 5867,
    "offices": 19064,
    "Ġmouths": 7492,
    "resolutions": 26167,
    "involuntarily": 20418,
    "tooth": 18581,
    "Ġacts": 2296,
    "Ġgl": 1257,
    "phantoms": 24683,
    "grave": 16097,
    "Ġjustify": 11072,
    "Ġoccupies": 24014,
    "eringly": 23010,
    "ching": 5156,
    "urned": 9308,
    "Ġimpertinent": 9079,
    "ots": 3295,
    "animate": 12582,
    "Ġweakened": 16824,
    "Ġinspire": 11999,
    "Ġsurtout": 23470,
    "westward": 25428,
    "umnal": 18301,
    "Ġwer": 12557,
    "point": 6065,
    "Ġbeads": 18086,
    "Ġapprehensiveness": 16878,
    "Ġuttered": 7280,
    "absolute": 17124,
    "Ġcatching": 9480,
    "herfield": 3631,
    "Ġshops": 22008,
    "formality": 22227,
    "yellow": 9626,
    "Ġproviding": 1362,
    "Ġdreary": 10407,
    "Ġfren": 10805,
    "impatiently": 20474,
    "beth": 13692,
    "Ġsatire": 22907,
    "ide": 721,
    "Ġate": 8843,
    "Ġilliter": 23473,
    "most": 1258,
    "Ġcontributed": 16012,
    "blows": 17167,
    "Ġfrighten": 13283,
    "Ġunwound": 24832,
    "Ġsenior": 17173,
    "Ġscarce": 8625,
    "Ġfidget": 15192,
    "theories": 18081,
    "discern": 14853,
    "stra": 4044,
    "ications": 4447,
    "Ġproduces": 2090,
    "bon": 13688,
    "Ġreserve": 9972,
    "Ġestablishment": 13583,
    "Ġconnectivity": 3667,
    "species": 13261,
    "watch": 6120,
    "Ġpredef": 18518,
    "Ġamazed": 14891,
    "twist": 23704,
    "Ġbeats": 21759,
    "herds": 22210,
    "castle": 3351,
    "Ġratio": 5067,
    "Ġroused": 7625,
    "Ġiteratively": 3054,
    "Ġhoops": 9391,
    "cord": 8727,
    "Ġadieus": 25117,
    "Ġwantonly": 22900,
    "iability": 20922,
    "Ġunrecord": 16622,
    "ms": 536,
    "six": 7143,
    "Ġdragg": 23222,
    "Ġshrink": 14806,
    "Ġcravat": 26310,
    "gale": 13726,
    "Ġ183": 13243,
    "gorge": 22332,
    "Ġhunks": 18939,
    "Ġdur": 11594,
    "Ġstalls": 25651,
    "Ġruggedness": 26272,
    "Ġneatness": 19937,
    "Ġinasmuch": 10825,
    "ject": 874,
    "Ġroute": 11382,
    "Ġpaul": 12066,
    "bony": 15322,
    "Ġinvective": 26185,
    "Ġreasoning": 1976,
    "fellows": 12278,
    "Ġdistinguish": 2725,
    "tin": 6118,
    "Ġbelieved": 4370,
    "Ġagreeably": 24959,
    "Ġinvader": 23483,
    "Ġgushed": 21611,
    "Ġinex": 6529,
    "civilities": 24980,
    "Ġpagoda": 19793,
    "Ġaberdeen": 26545,
    "Ġregretted": 13404,
    "fow": 20855,
    "princ": 8624,
    "Ġpendulous": 25958,
    "hullo": 17572,
    "Ġpressure": 13426,
    "persuade": 13536,
    "amed": 4450,
    "Ġremarks": 7474,
    "Ġglared": 13023,
    "ient": 394,
    "returned": 7767,
    "<MASK>": 4,
    "Ġreservo": 16832,
    "Ġcontinental": 19710,
    "Ġcombing": 22857,
    "Ġpoky": 21483,
    "ase": 1159,
    "Ġverte": 9443,
    "Ġaffronted": 22899,
    "Ġmarvels": 11084,
    "Ġshreds": 12775,
    "Ġcourses": 10412,
    "Ġloth": 17969,
    "impatient": 13644,
    "apping": 5853,
    "iony": 9193,
    "leaning": 10790,
    "ativeness": 15523,
    "ante": 11724,
    "aswag": 21550,
    "Ġsurely": 6309,
    "crazy": 24695,
    "Ġhosts": 19944,
    "Ġecl": 18009,
    "urs": 6990,
    "Ġver": 3397,
    "Ġsetbacks": 11063,
    "Ġfac": 6382,
    "Ġpermission": 9281,
    "Ġtok": 1245,
    "Ġintegrated": 13534,
    "Ġpretending": 19319,
    "Ġbetween": 790,
    "Ġvaliant": 9802,
    "Ġapp": 496,
    "fic": 20854,
    "jumping": 20248,
    "Ġrandom": 1588,
    "caterpillar": 26386,
    "rised": 10123,
    "Ġtroubles": 19444,
    "Ġbred": 9171,
    "renew": 24452,
    "Ġdesirable": 8943,
    "Ġgladstone": 23875,
    "itaries": 21339,
    "threaten": 25465,
    "musket": 25344,
    "critical": 19501,
    "Ġkindred": 16380,
    "Ġarabian": 9092,
    "Ġloads": 22121,
    "lilies": 20963,
    "chester": 23812,
    "Ġcom": 368,
    "Ġforest": 9872,
    "Ġmeadow": 17153,
    "Ġcringing": 25944,
    "Ġalien": 14021,
    "sin": 21051,
    "delights": 19706,
    "Ġ1820": 25721,
    "society": 9973,
    "Ġsquared": 1382,
    "alleging": 23032,
    "tawny": 26407,
    "detained": 24384,
    "Ġoverseeing": 22369,
    "Ġarising": 10933,
    "Ġrelu": 1046,
    "pher": 11513,
    "Ġsultanism": 25891,
    "Ġpreviously": 3919,
    "Ġawkward": 7075,
    "Ġinduced": 8674,
    "Ġzigzag": 26276,
    "fly": 13717,
    "blunder": 24134,
    "Ġmadly": 16486,
    "Ġcrowder": 19461,
    "als": 2040,
    "Ġechoed": 20427,
    "Ġconvinced": 4207,
    "Ġresistance": 13533,
    "Ġstubb": 1786,
    "Ġcruise": 12053,
    "Ġcle": 1508,
    "wam": 10135,
    "crimin": 17510,
    "Ġturner": 7051,
    "Ġimmediately": 3370,
    "prevent": 11796,
    "unhesitatingly": 26499,
    "impression": 15714,
    "Ġfanc": 6745,
    "invest": 11561,
    "isome": 17851,
    "mund": 13761,
    "Ġmess": 7832,
    "Ġdomestic": 6914,
    "utility": 21591,
    "renadier": 18421,
    "Ġmonarch": 14418,
    "aint": 2542,
    "Ġgest": 8135,
    "Ġdisliked": 12896,
    "baboon": 25520,
    "Ġplaces": 5390,
    "Ġhelper": 24032,
    "Ġquarrel": 7292,
    "Ġsaturn": 22908,
    "Ġtranslation": 3087,
    "Ġmartyr": 26364,
    "Ġattacks": 12209,
    "Ġafghan": 22636,
    "Ġitem": 12706,
    "Ġphrenolog": 12338,
    "Ġshocking": 10434,
    "Ġprodigiously": 14934,
    "ue": 1180,
    "Ġfaced": 10808,
    "Ġdoubloons": 13438,
    "Ġcastor": 19432,
    "slo": 17658,
    "Ġshan": 9251,
    "Ġmiscell": 16152,
    "going": 6315,
    "Ġoverpower": 12847,
    "whis": 7900,
    "Ġetext": 23956,
    "Ġensure": 23691,
    "Ġpractically": 13099,
    "Ġexasperated": 11413,
    "Ġexposes": 22629,
    "Ġprolong": 6832,
    "tastes": 21099,
    "cket": 3687,
    "Ġintrusion": 12770,
    "Ġsanely": 24989,
    "Ġsquaw": 22843,
    "Ġown": 1005,
    "tears": 11037,
    "Ġenh": 3064,
    "av": 739,
    "gee": 15980,
    "Ġslewed": 23391,
    "collected": 13217,
    "whiskers": 12315,
    "Ġmitig": 1335,
    "Ġmemory": 2274,
    "Ġpalace": 16690,
    "Ġhumiliation": 16201,
    "Ġchamounix": 14866,
    "Ġsubsc": 22796,
    "Ġindications": 14633,
    "Ġoysters": 20582,
    "Ġingratitude": 17470,
    "uncommon": 11684,
    "Ġcame": 1300,
    "Ġkl": 2735,
    "Ġangrily": 9409,
    "Ġcoquet": 22591,
    "pense": 10368,
    "Ġjumbled": 22305,
    "Ġlucas": 3833,
    "jerked": 25622,
    "Ġbenignity": 18785,
    "Ġinduce": 7764,
    "extending": 22763,
    "Ġwhale": 627,
    "Ġgentleman": 3037,
    "Ġsto": 1497,
    "Ġobsole": 22705,
    "Ġports": 10818,
    "sleeves": 26112,
    "upon": 2720,
    "Ġwhaleboats": 18480,
    "supplementary": 20552,
    "Ġknife": 7309,
    "ryder": 18640,
    "Ġhurricane": 16433,
    "Ġenergies": 25463,
    "Ġcrystals": 20230,
    "seen": 2878,
    "Ġinstruct": 2862,
    "Ġanteced": 26180,
    "gue": 12472,
    "Ġfan": 2034,
    "Ġop": 2603,
    "Ġacquit": 18900,
    "Ġsoundings": 13136,
    "Ġsher": 3764,
    "Ġpresentation": 14482,
    "Ġbewil": 11659,
    "Ġjavan": 25006,
    "Ġhaggerston": 26455,
    "Ġconfidential": 9090,
    "Ġconsume": 12963,
    "ellow": 3877,
    "Ġnav": 5819,
    "Ġphilosopher": 12188,
    "Ġkate": 15908,
    "sincere": 16908,
    "Ġsympat": 13345,
    "althily": 19364,
    "ulties": 12906,
    "tired": 21075,
    "Ġsure": 1866,
    "overs": 17623,
    "Ġperceiving": 8878,
    "dropped": 12267,
    "Ġincreased": 2212,
    "Ġflames": 7941,
    "Ġgrimly": 17052,
    "Ġsuffusing": 23038,
    "Ġscene": 3097,
    "Ġtraveller": 8050,
    "Ġinnumerable": 13356,
    "Ġstowed": 21743,
    "arp": 2026,
    "daw": 17523,
    "Ġforgive": 8011,
    "shazzar": 15292,
    "Ġslipper": 24270,
    "fortune": 4976,
    "poor": 6063,
    "Ġdoor": 1740,
    "Ġbehaviour": 4387,
    "Ġreality": 7059,
    "Ġatom": 18193,
    "enemy": 15529,
    "officer": 17054,
    "octial": 20010,
    "wonderful": 16961,
    "Ġwanting": 6723,
    "Ġgaily": 16749,
    "Ġdiffused": 12073,
    "Ġdeath": 2041,
    "Ġvineyards": 25113,
    "Ġciv": 3310,
    "Ġinfinitely": 8965,
    "Ġsoftened": 11102,
    "committed": 18740,
    "Ġlash": 8441,
    "Ġbur": 2697,
    "Ġcontrasting": 11154,
    "erer": 8735,
    "Ġhy": 5625,
    "ĠĠĠĠĠĠĠĠĠĠĠĠĠĠĠĠĠĠĠĠĠĠĠĠĠĠĠĠĠĠĠĠĠĠĠĠĠĠĠ": 19263,
    "uncont": 15777,
    "rive": 9709,
    "Ġnote": 4265,
    "Ġconducting": 16651,
    "ob": 1420,
    "Ġtand": 21163,
    "exasper": 22435,
    "Ġlikely": 3599,
    "Ġblandly": 20326,
    "ensity": 11816,
    "headers": 23116,
    "ent": 305,
    "Ġpoliceman": 15261,
    "Ġ115": 24441,
    "Ġlooks": 4161,
    "Ġperusal": 14226,
    "Ġaspect": 3096,
    "Ġfainter": 14916,
    "pidation": 18897,
    "erie": 21274,
    "Ġdod": 6675,
    "Ġhereditary": 10664,
    "Ġodious": 12155,
    "Ġcrack": 7711,
    "Ġspacious": 18313,
    "Ġfanning": 23396,
    "departure": 15237,
    "sized": 15430,
    "Ġwide": 4105,
    "fate": 17540,
    "Ġlambton": 10657,
    "Ġfeedback": 23438,
    "Ġacquiescence": 20333,
    "æ": 167,
    "Ġpertur": 12855,
    "Ġsustenance": 19939,
    "boats": 6206,
    "ibilities": 13017,
    "cott": 8075,
    "Ġfabric": 25950,
    "itement": 7836,
    "Ġrudeness": 17126,
    "Ġcowards": 12578,
    "Ġneighbor": 25809,
    "Ġalternating": 15032,
    "Ġprair": 7748,
    "ecess": 17533,
    "Ġepistle": 24909,
    "folio": 10546,
    "Ġspeckled": 14311,
    "twice": 14622,
    "Ġlocks": 11727,
    "buttons": 22409,
    "van": 7815,
    "Ġsignals": 10585,
    "Ġboast": 7036,
    "Ġdidst": 11852,
    "conven": 6164,
    "Ġsubstitute": 16727,
    "´": 117,
    "inished": 17736,
    "fired": 20862,
    "stretched": 10207,
    "Ġentreaties": 9037,
    "loving": 18539,
    "Ġrowing": 10300,
    "together": 3558,
    "maritime": 24178,
    "better": 7121,
    "Ġwrote": 5012,
    "Ġparcel": 15202,
    "Ġceased": 6469,
    "see": 3043,
    "thousand": 5546,
    "Ġnor": 1555,
    "Ġtruly": 4798,
    "Ġletting": 10361,
    "Ġrapid": 1443,
    "inting": 9816,
    "Ġsatisfying": 23700,
    "Ġrelevant": 1865,
    "Ġeveryone": 8920,
    "Ġswearing": 16466,
    "Ġwe": 388,
    "Ġnoises": 18374,
    "ilogue": 21730,
    "Ġclicked": 22360,
    "Ġbadge": 16681,
    "Ġfeels": 6882,
    "Ġ71": 24264,
    "Ġinsurg": 23684,
    "abiding": 21800,
    "Ġslumbers": 18945,
    "company": 9463,
    "Ġclin": 14202,
    "Ġxvi": 19108,
    "Ġhousehold": 8571,
    "ab": 345,
    "Ġyourself": 2594,
    "Ġv": 399,
    "alse": 4185,
    "Ġsinners": 18953,
    "slipping": 25532,
    "Ġpip": 1646,
    "Ġger": 21595,
    "aviour": 11004,
    "Ġtrim": 15971,
    "Ġimprudent": 12851,
    "Ġunre": 3481,
    "Ġtortured": 14926,
    "inf": 6234,
    "model": 4197,
    "Ġacting": 10991,
    "attention": 2108,
    "Ġ180": 16607,
    "ump": 2284,
    "incidentally": 20542,
    "Ġabuse": 18399,
    "ik": 17573,
    "Ġmamm": 25097,
    "pitch": 13303,
    "erringly": 16213,
    "ç": 168,
    "mortal": 10112,
    "Ġparl": 8179,
    "Ġadequately": 15201,
    "fanc": 20866,
    "!âĢĶ": 2452,
    "Ġfiss": 21416,
    "Ġfools": 14483,
    "Ġdistributions": 1051,
    "Ġbeaches": 18087,
    "urance": 10857,
    "Ġdoleful": 18379,
    "Ġsubdued": 11030,
    "Ġballs": 9017,
    "elve": 4642,
    "Ġbirds": 5875,
    "Ġtwinkled": 14314,
    "ignorantly": 25193,
    "Ġphysiognomical": 25615,
    "õ": 182,
    "magnificent": 20277,
    "Ġauthority": 7750,
    "Ġstung": 21745,
    "Ġ25": 13198,
    "Ġdearer": 14054,
    "ma": 1150,
    "Ġrepe": 3282,
    "Ġfibres": 12956,
    "Ġneighbours": 8304,
    "Ġtrifled": 24678,
    "Ġfitzwilliam": 5771,
    "Ġeasily": 3891,
    "impatience": 25504,
    "writ": 16554,
    "untering": 15779,
    "Ġreconciled": 13591,
    "Ġlegit": 16474,
    "Ġsolitudes": 22893,
    "Ġsweetheart": 19400,
    "Ġsignature": 16495,
    "Ġseeks": 14304,
    "Ġforgiveness": 16658,
    "Ġprocure": 9512,
    "Ġvexations": 24614,
    "Ġabsorb": 25119,
    "Ġwater": 1949,
    "Ġunsuccessful": 18255,
    "Ġaright": 11743,
    "flask": 12104,
    "rable": 11634,
    "Ġplatonian": 25125,
    "flagged": 23978,
    "ounced": 4955,
    "making": 2573,
    "Ġofficio": 23822,
    "Ġpoltro": 23624,
    "Ġundiscernible": 22073,
    "inative": 15485,
    "silence": 8046,
    "bastian": 10673,
    "Ġpelt": 15613,
    "Ġtotally": 9473,
    "Ġth": 299,
    "slow": 7811,
    "Ġlonging": 14299,
    "Ġwhenever": 5166,
    "Ġstudent": 14480,
    "Ġfashions": 17888,
    "thest": 11656,
    "Ġim": 474,
    "Ġbingleys": 18998,
    "Ġexclaimed": 4684,
    "stout": 21650,
    "Ġexecute": 7506,
    "apable": 6423,
    "Ġdances": 10812,
    "Ġsymph": 22214,
    "Ġscruple": 25055,
    "Ġtimid": 6347,
    "Ġhasty": 10476,
    "Ġcrucifix": 26082,
    "sex": 12718,
    "Ġuninhabited": 22056,
    "arbuck": 2024,
    "Ġtoy": 15637,
    "Ġadequate": 20311,
    "Ġhelmsman": 10504,
    "Ġremembering": 14611,
    "Ġformidable": 8221,
    "Ġdamps": 23479,
    "Ġclenched": 14205,
    "pshire": 21026,
    "Ġconvention": 25550,
    "Ġthus": 2035,
    "Ġconge": 15749,
    "european": 26375,
    "Ġmuslin": 19388,
    "Ġband": 5292,
    "qualified": 17098,
    "ties": 2759,
    "Ġcling": 11774,
    "Ġfilthy": 13253,
    "Ġunluck": 8487,
    "Ġslanting": 23179,
    "humored": 19458,
    "Ġcucumber": 21359,
    "umbling": 6614,
    "interval": 7992,
    "methodically": 20666,
    "Ġscale": 1553,
    "Ġoath": 7834,
    "iated": 5892,
    "shadows": 25483,
    "Ġbristling": 20530,
    "except": 5383,
    "Ġascending": 14856,
    "Ġsuperlatively": 26078,
    "appin": 18760,
    "garious": 17560,
    "Ġhon": 2538,
    "quarrel": 20020,
    "Ġorphan": 12387,
    "Ġpresenting": 18991,
    "Ġincessantly": 11412,
    "etics": 21585,
    "Ġcurved": 18843,
    "fancy": 7337,
    "Ġbottomless": 12111,
    "ived": 1535,
    "Ġcollecting": 12290,
    "Ġtelescope": 17350,
    "Ġbrilliantly": 25127,
    "Ġfaire": 13369,
    "atha": 6574,
    "Ġvariation": 22672,
    "Ġembark": 8560,
    "Ġdegradation": 2632,
    "Ġloite": 22118,
    "resolution": 17768,
    "feeder": 12365,
    "Ġdissembling": 26258,
    "Ġsolitary": 5856,
    "Ġfailure": 13319,
    "igner": 21707,
    "Ġprejudiced": 24809,
    "visited": 13352,
    "Ġpassed": 2010,
    "establishment": 26116,
    "Ġcharacters": 9374,
    "Ġdesignated": 19526,
    "Ġcomplex": 741,
    "Ġseaport": 20602,
    "Ġwithdraw": 16965,
    "Ġcheerless": 16694,
    "Ġreassure": 21677,
    "Ġaddresses": 3769,
    "secut": 7869,
    "bringing": 17168,
    "mess": 13756,
    "numerous": 17433,
    "danced": 20830,
    "Ġchewing": 23292,
    "Ġfish": 2709,
    "Ġopenness": 18961,
    "verize": 21734,
    "Ġentic": 16149,
    "instantly": 7507,
    "Ġeaster": 15678,
    "fallen": 19664,
    "ville": 6089,
    "ì": 173,
    "Ġirreduc": 5491,
    "Ġhidden": 1375,
    "Ġdundee": 16998,
    "opotam": 22487,
    "alty": 17942,
    "Ġfolly": 7942,
    "Ġir": 1993,
    "Ġcupboard": 16884,
    "contented": 14635,
    "Ġcoming": 2618,
    "Ġbarbarous": 13480,
    "Ġaffecting": 2325,
    "Ġgrudge": 20696,
    "Ġcushion": 17836,
    "Ġhunger": 8570,
    "Ġdarcy": 1342,
    "eray": 21269,
    "occupations": 24973,
    "Ġneedlessly": 23635,
    "yd": 21145,
    "condemned": 26063,
    "ele": 9116,
    "netherfield": 9815,
    "Ġang": 2512,
    "Ġdeserted": 8640,
    "Ġcoronation": 13338,
    "esley": 17905,
    "Ġfame": 21409,
    "Ġadmires": 19690,
    "Ġchatbots": 11349,
    "Ġacquaint": 13050,
    "innocent": 20289,
    "flutterings": 26609,
    "acquainted": 7313,
    "Ġdepresses": 25801,
    "Ġgid": 13965,
    "Ġagon": 10320,
    "foreseen": 14255,
    "Ġtip": 15473,
    "Ġdefection": 22949,
    "orting": 9737,
    "noon": 5038,
    "Ġsafety": 6341,
    "per": 479,
    "Ġlikeness": 11179,
    "Ġunw": 7005,
    "Ġpatagonian": 20538,
    "Ġdisplays": 19861,
    "Ġdespair": 4009,
    "Ġfrontispiece": 23920,
    "Ġspouter": 12803,
    "removing": 17766,
    "onze": 21258,
    "Ġunaccountable": 7888,
    "Ġfragments": 19077,
    "shaven": 18499,
    "apple": 22846,
    "Ġstrangers": 8315,
    "Ġexcited": 5579,
    "Ġplates": 11006,
    "Ġpainful": 6463,
    "whe": 1069,
    "ro": 301,
    "Ġgarden": 3826,
    "Ġmute": 19421,
    "despicable": 24642,
    "Ġtail": 3089,
    "¦": 104,
    "appo": 3914,
    "supposing": 24139,
    "Ġelix": 22651,
    "Ġpromontory": 11945,
    "Ġforbe": 8459,
    "Ġcasement": 25099,
    "entions": 17978,
    "Ġrecord": 5317,
    "Ġpropensity": 18999,
    "Ġmaking": 1779,
    "Ġcommended": 18657,
    "Ġslavish": 23180,
    "Ġmoody": 8202,
    "aded": 3551,
    "Ġpersuas": 23953,
    "bil": 20773,
    "Ġcolon": 18767,
    "Ġfading": 15587,
    "itoring": 21335,
    "Ġpersecutor": 26099,
    "past": 8091,
    "Ġmagnitudes": 3823,
    "Ġvisited": 5950,
    "Ġcoal": 18597,
    "Ġpioneer": 17922,
    "Ġputs": 19035,
    "Ġkrempe": 10669,
    "calmly": 20143,
    "tallied": 21092,
    "Ġscor": 8190,
    "smitten": 23915,
    "agitation": 14071,
    "Ġjudgment": 5765,
    "staff": 21661,
    "er": 269,
    "Ġseason": 5238,
    "swells": 26151,
    "Ġunseason": 22057,
    "Ġmoney": 3421,
    "Ġdives": 17893,
    "arness": 11673,
    "Ġrightly": 13070,
    "Ġpiny": 21474,
    "Ġour": 1008,
    "Ġexpectations": 13147,
    ",_": 11463,
    "Ġcommunication": 1871,
    "ume": 4837,
    "Ġfortresses": 23626,
    "orts": 2555,
    "Ġferry": 24517,
    "Ġplow": 21463,
    "Ġcandles": 9909,
    "Ġlin": 10833,
    "Ġdocument": 15020,
    "unks": 15778,
    "confused": 19644,
    "zed": 8105,
    "Ġarms": 3964,
    "Ġhopelessly": 16381,
    "Ġconcoct": 19047,
    "Ġvibrated": 25052,
    "Ġinnoc": 3795,
    "Ġpursuits": 12081,
    "Ġtowards": 1729,
    "Ġmixed": 6975,
    "sufficiently": 14983,
    "Ġsignification": 19206,
    "Ġdistribut": 842,
    "Ġinterven": 10997,
    "Ġbishop": 13905,
    "Ġjaw": 3321,
    "Ġdived": 9179,
    "Ġtowering": 16740,
    "rumours": 23927,
    "comm": 7440,
    "Ġleather": 7608,
    "âĢĶâĢĻ": 8189,
    "Ġroyalty": 19740,
    "Ġbetake": 22913,
    "ugl": 23296,
    "Ġfighting": 12202,
    "iousness": 4900,
    "Ġpoet": 8209,
    "furnish": 25341,
    "ales": 3319,
    "Ġchanged": 5243,
    "Ġheath": 15705,
    "Ġmace": 21312,
    "Ġostens": 25279,
    "Ġapparition": 8068,
    "absent": 21797,
    "Ġreynolds": 10209,
    "sequently": 14584,
    "Ġpause": 5707,
    "Ġremains": 4911,
    "Ġunfulfilled": 26512,
    "enchanted": 26427,
    "Ġelementary": 24814,
    "Ġstupendous": 20504,
    "Ġital": 10866,
    "exhibited": 18479,
    "Ġtrump": 8197,
    "Ġgrievous": 13265,
    "exper": 8880,
    "Ġwatchful": 16528,
    "unctions": 18158,
    "iary": 15373,
    "abst": 21795,
    "Ġsickle": 24250,
    "hearth": 15501,
    "Ġuse": 821,
    "ohog": 9844,
    "Ġequal": 4131,
    "Ġunhappily": 18260,
    "lamps": 25264,
    "Ġdens": 21428,
    "skin": 10568,
    "weakness": 16127,
    "ickering": 22677,
    "Ġpossess": 3206,
    "ription": 5676,
    "itarian": 21340,
    "ible": 1110,
    ":--âĢľ": 24552,
    "dri": 5890,
    "typewritten": 26041,
    "convalescence": 24889,
    "Ġclap": 10956,
    "±": 114,
    "Ġreproached": 24896,
    "Ġdelay": 5748,
    "Ġthinking": 4030,
    "weekly": 25688,
    "!âĢĿâĢĶ": 8535,
    "ager": 6548,
    "Ġbust": 10167,
    "Ġfin": 1459,
    "Ġnuts": 17955,
    "Ġsa": 473,
    "Ġpay": 3961,
    "Ġneuron": 1808,
    "bury": 9109,
    "Ġinsc": 7587,
    "Ġrans": 21976,
    "Ġwildness": 14604,
    "enched": 10154,
    "Ġcomstock": 21858,
    "Ġtoes": 10829,
    "hammered": 19007,
    "Ġpettiness": 24234,
    "Ġscrape": 14920,
    "Ġsunbeam": 23282,
    "Ġlottery": 19892,
    "conclusions": 25676,
    "Ġviewed": 10461,
    "Ġscrawled": 24583,
    "icking": 8913,
    "Ġkicks": 19773,
    "Ġfrancis": 26066,
    "Ġfeat": 10937,
    "igns": 8449,
    "Ġpir": 6818,
    "Ġcontemptuous": 24680,
    "iff": 3905,
    "Ġthomson": 26457,
    "gged": 3778,
    "ice": 587,
    "Ġrekindled": 21682,
    "missed": 11209,
    "Ġthinks": 6171,
    "whaleman": 23441,
    "glance": 16588,
    "Ġarticulated": 24435,
    "fourths": 25513,
    "Ġdistracted": 11806,
    "Ġresent": 6051,
    "Ġvehemently": 26042,
    "Ġwallow": 19471,
    "inc": 2521,
    "Ġheavenly": 12089,
    "Ġwhistling": 19795,
    "know": 2320,
    "Ġprint": 18972,
    "Ġanguish": 5582,
    "Ġturbulence": 26600,
    "Ġmamma": 10048,
    "Ġdistinguishing": 16498,
    "Ġexclamations": 11361,
    "Ġk": 485,
    "Ġroasted": 18461,
    "Ġrelev": 1717,
    "sal": 8760,
    "Ġforbear": 17123,
    "Ġemperor": 15161,
    "ression": 3409,
    "Ġstrand": 11831,
    "delirious": 19510,
    "!)": 10069,
    "Ġadvise": 7937,
    "Ġsponge": 26006,
    "Ġlongitude": 11011,
    "Ġswims": 12124,
    "Ġshadow": 5595,
    "vice": 15451,
    "Ġmaintained": 12939,
    "Ġsliding": 9365,
    "Ġwoke": 21292,
    "Ġslain": 8955,
    "deception": 22152,
    "tempered": 13450,
    "Ġgable": 15670,
    "disappointment": 11426,
    "Ġoversight": 22367,
    "superstitious": 17282,
    "unk": 4540,
    "Ġwondrous": 4736,
    "compliments": 24810,
    "Ġoccasions": 7989,
    "Ġsneezes": 24700,
    "separ": 9232,
    "Ġdeceased": 15007,
    "Ġsque": 18758,
    "ruined": 18346,
    "Ġsighs": 22714,
    "Ġclassical": 22637,
    "Ġviolent": 5117,
    "Ġharmony": 16815,
    "Ġwalton": 14974,
    "Ġvain": 3630,
    "Ġcouch": 12576,
    "spermaceti": 12198,
    "up": 1284,
    "Ġglimmering": 25244,
    "Ġhandsom": 11124,
    "Ġmutters": 23962,
    "cheon": 23809,
    "drive": 8686,
    "Ġminority": 18755,
    "Ġwiser": 14732,
    "gish": 20875,
    "Ġacres": 14315,
    "Ġshaking": 6553,
    "Ġclam": 7416,
    "unned": 21885,
    "frantic": 24287,
    "arab": 21445,
    "consolation": 15155,
    "particip": 23621,
    "ening": 3106,
    "Ġtrusting": 24110,
    "Ġburden": 8611,
    "Ġcostly": 23589,
    "Ġhaunts": 18199,
    "eel": 11485,
    "emotions": 15798,
    "Ġfreshets": 25708,
    "lane": 10706,
    "Ġdog": 4193,
    "mushroom": 26398,
    "iloqu": 11650,
    "strength": 13983,
    "chel": 11207,
    "Ġmourning": 13482,
    "movement": 25581,
    "office": 16399,
    "Ġworth": 4419,
    "Ġrepresentation": 14407,
    "Ġalthough": 4146,
    "Ġsuspended": 5665,
    "machine": 947,
    "amplified": 26497,
    "uff": 2730,
    "Ġray": 18644,
    "osition": 1374,
    "Ġphysiogn": 12392,
    "Ġproperties": 3119,
    "Ġshells": 20367,
    "Ġappear": 2486,
    "þ": 191,
    "Ġlac": 17968,
    "period": 15898,
    "ion": 296,
    "Ġexclamation": 8702,
    "pin": 13770,
    "accomplishments": 25330,
    "Ġunceasingly": 20362,
    "Ġspurn": 18310,
    "shroud": 20315,
    "or": 282,
    "Ġhood": 10823,
    "reproof": 25436,
    "Ġfoliage": 18870,
    "miserably": 24215,
    "Ġchains": 8252,
    "Ġcripp": 9655,
    "Ġsteak": 9831,
    "clo": 5612,
    "Ġempty": 5354,
    "Ġmount": 7362,
    "itive": 6671,
    "Ġapproved": 16036,
    "Ġcircle": 4978,
    "Ġdist": 680,
    "tu": 12516,
    "Ġhoriz": 4727,
    "wn": 720,
    "half": 4932,
    "ubl": 3596,
    "nals": 16402,
    "Ġpipes": 9851,
    "Ġmalay": 24393,
    "borean": 25747,
    "ampled": 18886,
    "Ġconstitution": 20114,
    "scuttle": 11913,
    "Ġhumbly": 16200,
    "Ġsavagely": 26327,
    "Ġfrighted": 24035,
    "feels": 22510,
    "Ġimprovement": 7965,
    "orified": 21405,
    "parlour": 16395,
    "Ġconviction": 6328,
    "oder": 2459,
    "tim": 13794,
    "Ġconcentrate": 25070,
    "Ġbrush": 17867,
    "Ġinclu": 1097,
    "Ġpromethe": 14471,
    "Ġbrides": 22872,
    "Ġdeacon": 18146,
    "Ġaud": 6664,
    "Ġdistressing": 12223,
    "Ġpoets": 11824,
    "Ġdetected": 18849,
    "Ġenjoying": 11234,
    "ĠĠĠĠĠĠĠĠĠĠĠĠĠĠĠĠĠĠĠĠĠĠĠĠĠĠĠĠĠĠĠĠĠ": 12047,
    "Ġbeg": 1282,
    "Ġintend": 12769,
    "quality": 10232,
    "Ġmajority": 13297,
    "Ġfoundations": 11073,
    "Ġpewter": 17187,
    "Ġshirr": 18232,
    "Ġornaments": 17454,
    "Ġlashings": 25104,
    "Ġcet": 6672,
    "onement": 21259,
    "introduction": 15126,
    "stalls": 26476,
    "Ġcounters": 24145,
    "Ġgrating": 14357,
    "Ġprodigious": 8058,
    "Ġstores": 18071,
    "Ġpolitics": 19229,
    "Ġstruggles": 16580,
    "Ġphiladel": 23891,
    "ment": 691,
    "Ġphysi": 9989,
    "Ġsimulation": 2752,
    "Ġalexander": 17426,
    "produced": 25418,
    "Ġfool": 4237,
    "Ġindividual": 5744,
    "Ġelemental": 19923,
    "Ġaddressing": 11164,
    "elect": 20848,
    "Ġtravelling": 11307,
    "Ġdisappearing": 22541,
    "Ġascertained": 25300,
    "plexy": 18577,
    "Ġenumerating": 15247,
    "Ġask": 1490,
    "osp": 6854,
    "hither": 11494,
    "standard": 22439,
    "read": 3277,
    "ciousness": 20819,
    "Ġwhaling": 2782,
    "extent": 22761,
    "excited": 13384,
    "lodged": 25910,
    "dramatic": 19390,
    "Ġadver": 5641,
    "Ġlofty": 6219,
    "upper": 11540,
    "ply": 6367,
    "queen": 12732,
    "Ġblow": 3378,
    "Ġelapsed": 7654,
    "Ġhap": 18196,
    "Ġmilliner": 19888,
    "nailed": 20998,
    "vens": 21115,
    "Ġcit": 10783,
    "Ġaboard": 6699,
    "oregressive": 3427,
    "Ġbuttoning": 17237,
    "Ġalive": 4401,
    "Ġrighteous": 18949,
    "Ġappointment": 10646,
    "Ġdisturbance": 15014,
    "Ġcruisings": 25867,
    "spite": 16141,
    "Ġdoctrine": 24202,
    "yset": 21148,
    "Ġpagan": 7119,
    "Ġdifferent": 1428,
    "Ġfootfall": 14662,
    "Ġconsulting": 13433,
    "vy": 21110,
    "Ġtapped": 11555,
    "Ġrecords": 12200,
    "Ġlodger": 24099,
    "Ġhuge": 4701,
    "Ġjoppa": 12040,
    "mannered": 22861,
    "Ġconfeder": 25711,
    "hundreds": 25080,
    "Ġmilitary": 11258,
    "Ġcensured": 25101,
    "Ġgestures": 13539,
    "Ġunwarranted": 24834,
    "Ġcontinues": 18812,
    "Ġarsacides": 17296,
    "wig": 17706,
    "Ġsinister": 8572,
    "Ġwhere": 785,
    "Ġinanimate": 13936,
    "Ġhideous": 5985,
    "Ġprognostics": 20561,
    "Ġanswering": 7478,
    "irwin": 8471,
    "Ġbald": 16208,
    "governed": 25409,
    "Ġpathways": 11153,
    "ignomin": 23273,
    "ountain": 2914,
    "Ġ72": 19616,
    "Ġbodily": 6108,
    "Ġinterpretation": 19721,
    "lace": 13751,
    "angry": 18295,
    "Ġfurthest": 22823,
    "shake": 22465,
    "Ġpleas": 1906,
    "Ġswore": 10378,
    "Ġped": 7846,
    "Q": 53,
    "ls": 1291,
    "Ġtrepidation": 19219,
    "cop": 20803,
    "extraordinary": 9097,
    "Ġrags": 18647,
    "Ġach": 2621,
    "Ġtrap": 7674,
    "Ġgri": 17991,
    "Ġfinding": 3266,
    "Ġtakes": 5008,
    "afric": 19183,
    "mouse": 15395,
    "Ġghast": 9211,
    "announced": 19764,
    "Ġtouches": 20573,
    "recked": 17764,
    "Ġsympath": 4862,
    "belated": 24044,
    "Ġimpropri": 14213,
    "abled": 12799,
    "carpenter": 11428,
    "Ġyarns": 15198,
    "oner": 6126,
    "thed": 8829,
    "pleas": 3852,
    "Ġswamp": 14439,
    "Ġpleasures": 11143,
    "Ġcountry": 2533,
    "Ġhilarity": 20300,
    "Ġshad": 3850,
    "arabian": 26449,
    "Ġdiscoloured": 15255,
    "secure": 12240,
    "outs": 7010,
    "ext": 913,
    "Ġdescend": 7427,
    "Ġweariness": 19799,
    "Ġjokes": 18410,
    "._": 3222,
    "Ġcottages": 14729,
    "Ġfloated": 7288,
    "Ġspitz": 14151,
    "Ġportions": 19374,
    "oll": 5456,
    "Ġsolace": 16202,
    "Ġcripple": 11441,
    "tender": 14476,
    "Ġgathers": 24745,
    "Ġcellar": 8060,
    "Ġexplicit": 3590,
    "rece": 21237,
    "Ġliberties": 19672,
    "lady": 4435,
    "Ġsulk": 15047,
    "Ġrecourse": 22744,
    "Ġpitches": 23908,
    "organ": 15577,
    "astrop": 3318,
    "Ġneighb": 14079,
    "ivered": 7007,
    "Ġkeenest": 12166,
    "Ġvaguely": 17368,
    "oded": 11672,
    "Ġforeign": 9873,
    "Ġarmed": 9262,
    "Ġclimbing": 20075,
    "Ġindefatigable": 17179,
    "adier": 18092,
    "Ġlandscape": 12421,
    "Ġboxes": 13378,
    "eu": 17531,
    "Ġbuilded": 24721,
    "Ġhedge": 8365,
    "oub": 1634,
    "separation": 25230,
    "Ġelderly": 13498,
    "Ġperil": 5556,
    "Ġincorruption": 26312,
    "Ġpattering": 18663,
    "Ġcaptive": 14429,
    "Ġglacier": 11434,
    "els": 1763,
    "Ġcabal": 23647,
    "ouement": 21452,
    "Ġcorner": 4373,
    "Ġuneasiness": 9486,
    "akeman": 6269,
    "Ġunfathom": 14792,
    "accomplished": 17213,
    "Ġproportions": 16469,
    "Ġpenetration": 19921,
    "Ġdup": 21431,
    "Ġbrimstone": 25690,
    "Ġdeploy": 3063,
    "Ġnumbers": 2885,
    "Ġlawyers": 25252,
    "thirds": 25053,
    "ittarius": 22385,
    "ù": 186,
    "Ġmurderer": 4981,
    "Ġtheore": 1830,
    "Ġintroduces": 3271,
    "Ġsprinkled": 19502,
    "ignantly": 23272,
    "cell": 10686,
    "ested": 3482,
    "Ġgrotesque": 26333,
    "Ġbiscuit": 12594,
    "Ġrespect": 1671,
    "Ġfact": 1728,
    "prot": 6899,
    "Ġinjunctions": 24274,
    "Ġshower": 11713,
    "melted": 25210,
    "Ġtwist": 11854,
    "Ġloves": 10915,
    "tempt": 21082,
    "Ġfine": 1316,
    "Ġbench": 7238,
    "Ġactivations": 2718,
    "Ġhere": 1086,
    "luent": 15999,
    "pread": 7418,
    "Ġthack": 21521,
    "Ġchallenge": 25475,
    "Ġunforeseen": 22058,
    "eli": 3874,
    "Ġretrogress": 23081,
    "Ġlucky": 7760,
    "Ġeternal": 5978,
    "Ġwet": 6519,
    "Ġtricks": 13488,
    "Ġlift": 8813,
    "nearest": 16025,
    "built": 16826,
    "Ġport": 3311,
    "Ġsaucer": 20608,
    "apprec": 22848,
    "cd": 15325,
    "crossing": 19416,
    "Ġblocks": 6323,
    "having": 5211,
    "Ġens": 2787,
    "Ġevinced": 7102,
    "Ġknees": 6928,
    "Ġcocks": 18599,
    "unctuous": 21889,
    "Ġhorner": 8960,
    "Ġblanc": 11065,
    "ertion": 12043,
    "Ġcylinders": 25946,
    "Ġvolume": 6770,
    "Ġdiver": 2531,
    "Ġfinal": 5400,
    "Ġverbal": 19384,
    "arity": 1302,
    "Ġcorpulence": 24508,
    "Ġemblem": 20501,
    "Ġkey": 2098,
    "prevented": 20377,
    "Ġtigris": 25763,
    "Ġchron": 19443,
    "thither": 21990,
    "pits": 15414,
    "Ġexperienced": 6582,
    "witted": 17709,
    "Ġlar": 766,
    "burst": 10537,
    "Ġpencil": 11947,
    "attle": 4468,
    "rant": 11518,
    "Ġrevive": 13483,
    "xic": 9147,
    "Ġuninjured": 22061,
    "orrah": 17878,
    "Ġgild": 15672,
    "Ġbuy": 8301,
    "Ġfalls": 14645,
    "Ġrevived": 11368,
    "Ġcable": 11582,
    "rising": 7558,
    "oted": 4598,
    "Ġkirwin": 8499,
    "Ġmassacre": 20550,
    "Ġannealing": 1557,
    "Ġcrowned": 16842,
    "addressing": 24403,
    "oak": 21005,
    "lanter": 15390,
    "aved": 5475,
    "Ġbut": 424,
    "Ġcanoe": 9725,
    "Ġaslant": 21908,
    "Ġlouisa": 13549,
    "chronicle": 26483,
    "whether": 5320,
    "wanted": 10743,
    "Ġpromising": 10399,
    "Ġmuttering": 10499,
    "Ġoccur": 1079,
    "Ġnortheast": 23212,
    "Ġspilled": 10924,
    "Ġshine": 12771,
    "Ġaboriginal": 14193,
    "Ġswish": 23061,
    "Ġhalloa": 13321,
    "Ġnooks": 26014,
    "Ġcommission": 6714,
    "Ġsprings": 16687,
    "Ġendless": 7055,
    "Ġeternities": 19948,
    "missionary": 24620,
    "Ġact": 690,
    "ingly": 2134,
    "Ġdescrib": 2717,
    "antage": 3879,
    "thinks": 16643,
    "Ġpublic": 4335,
    "Ġaccomp": 4714,
    "Ġdu": 4585,
    "Ġcomfortable": 6097,
    "sword": 10726,
    "Ġchannels": 26016,
    "dron": 17526,
    "consent": 18503,
    "Ġgallantry": 15106,
    "Ġbloss": 19260,
    "Ġpenalizing": 13095,
    "Ġimprudently": 22391,
    "Ġinheritance": 25358,
    "Ġyears": 1892,
    "helpless": 16791,
    "Ġmeekly": 26493,
    "Ġenlarge": 21942,
    "Ġstarts": 16584,
    "moby": 8539,
    "generous": 16570,
    "uded": 6288,
    "Ġeyed": 12674,
    "Ġedward": 19155,
    "Ġelse": 2482,
    "devilish": 17082,
    "fier": 9595,
    "plifted": 9713,
    "Ġtimely": 19599,
    "aspect": 10193,
    "ersman": 11706,
    "Ġsums": 2899,
    "chet": 13221,
    "ippers": 17578,
    "Ġblindly": 12114,
    "ricane": 16280,
    "native": 17613,
    "Ġwint": 15535,
    "rap": 21633,
    "roqu": 21538,
    "like": 1886,
    "etence": 21581,
    "straw": 24102,
    "physiogn": 26268,
    "ensing": 12901,
    "Ġsling": 21223,
    "Ġbrandy": 11049,
    "Ġoccurring": 2791,
    "15": 12434,
    "aloud": 17944,
    "unaccountable": 15782,
    "Ġwaters": 3597,
    "Ġoriental": 9099,
    "Ġsaints": 20677,
    "Ġpasses": 2678,
    "Ġpersisted": 13048,
    "Ġardent": 9971,
    "continually": 11302,
    "presence": 18492,
    "cull": 20811,
    "walks": 19726,
    "abond": 15744,
    "fordshire": 4677,
    "floated": 24647,
    "indian": 11781,
    "Ġtam": 7822,
    "Ġprojects": 9513,
    "Ġviol": 2069,
    "Ġnarrating": 24353,
    "osh": 18390,
    "bewil": 22506,
    "Ġheiress": 20700,
    "Ġreads": 23120,
    "Ġnailed": 10189,
    "Ġinterruption": 9475,
    "Ġdesign": 4128,
    "Ġdomineer": 23746,
    "Ġcure": 21343,
    "softened": 20413,
    "Ġcandelab": 23855,
    "cher": 5786,
    "Ġdiscrimination": 23610,
    "Ġceremonies": 24841,
    "calm": 8935,
    "jure": 20926,
    "ades": 5631,
    "Ġlevels": 12703,
    "Ġgn": 8820,
    "Ġirksome": 13116,
    "Ġsparkled": 13466,
    "instrument": 15241,
    "Ġillinois": 19140,
    "Ġlumps": 21560,
    "ord": 666,
    "wanderer": 25427,
    "anging": 3553,
    "xi": 17712,
    "Ġinterrupted": 6345,
    "Ġfrederick": 15590,
    "Ġreasons": 6022,
    "rey": 12543,
    "Ġcigar": 9547,
    "Ġgouge": 26192,
    "Ġtriumphantly": 11287,
    "because": 4924,
    "chanced": 18811,
    "port": 10719,
    "Ġinviting": 19147,
    "Ġbengal": 18786,
    "Ġkiss": 8184,
    "ble": 542,
    "Ġfrocks": 23929,
    "Ġburning": 5979,
    "obli": 23102,
    "Ġtwine": 14313,
    "arris": 13213,
    "Ġenclosure": 20627,
    "Ġlayer": 1010,
    "Ġmr": 661,
    "Ġeyelids": 26110,
    "Ġconstraints": 2741,
    "Ġyale": 21786,
    "properly": 24923,
    "mency": 18929,
    "Ġclinch": 18426,
    "Ġsurf": 19135,
    "Ġscand": 7202,
    "Ġmanned": 9273,
    "Ġaddress": 2270,
    "swe": 5998,
    "bermaid": 20792,
    "Ġavailed": 23958,
    "Ġkeep": 2357,
    "revol": 12545,
    "Ġberries": 13411,
    "Ġhole": 6081,
    "Ġbattery": 21397,
    "jammed": 25909,
    "Ġdeck": 2137,
    "stained": 21660,
    "Ġelbowed": 16112,
    "Ġcarpenter": 4686,
    "Ġdisclosed": 15156,
    "Ġsalut": 10509,
    "pieces": 8757,
    "Ġaghast": 16050,
    "Ġmonstrous": 7791,
    "Ġxliv": 23414,
    "house": 4075,
    "highly": 24766,
    "occup": 7754,
    "ivility": 12792,
    "Ġdoubloon": 6945,
    "ë": 172,
    "Ġgain": 4945,
    "Ġhoist": 11980,
    "Ġvocabulary": 4996,
    "Ġhearties": 18969,
    "pon": 17627,
    "Ġfairer": 20465,
    "Ġdistress": 5845,
    "ums": 10272,
    "depend": 9114,
    "Ġinsignificance": 20460,
    "Ġmechanical": 7938,
    "hardly": 6492,
    "Ġmood": 6278,
    "Ġpursued": 6330,
    "hast": 5358,
    "preserving": 25308,
    "Ġuseless": 7039,
    "Ġcultiv": 13560,
    "Ġpursu": 3241,
    "Ġinstances": 5567,
    "returns": 23145,
    "Ġalmost": 1657,
    "ims": 7177,
    "Ġcloser": 8663,
    "Ġignominy": 15088,
    "Ġchemistry": 11461,
    "Ġmontan": 22990,
    "Ġwisdom": 11233,
    "Ġheavily": 6742,
    "mediterranean": 16408,
    "plun": 15822,
    "vocabulary": 25092,
    "Ġvis": 1077,
    "Ġhunt": 6185,
    "Ġhorsham": 10405,
    "Ġdeductions": 19737,
    "Ġsophisticated": 1611,
    "ogrand": 26265,
    "picture": 11408,
    "behaved": 24465,
    "Ġhealthy": 10851,
    "lop": 20950,
    "Ġmatters": 4975,
    "Ġsimulates": 2740,
    "Ġspiritual": 9931,
    "Ġard": 5164,
    "mill": 13757,
    "Ġ11": 5319,
    "absurd": 21802,
    "Ġedge": 5189,
    "silver": 19695,
    "Ġconvent": 11670,
    "Ġspiral": 14585,
    "watson": 12248,
    "Ġspies": 22135,
    "Ġbeams": 14632,
    "§": 105,
    "bus": 5355,
    "adays": 14016,
    "è": 169,
    "Ġform": 1021,
    "Ġhunch": 18938,
    "Ġstranded": 9777,
    "Ġassociation": 24713,
    "Ð": 145,
    "import": 5668,
    "Ġsag": 6515,
    "Ġstrategy": 2307,
    "amid": 12729,
    "hounds": 20909,
    "Ġfris": 23262,
    "Ġjoining": 13168,
    "Ġboil": 16107,
    "Ġabove": 2931,
    "Ġincline": 18571,
    "thinness": 25814,
    "Ġsult": 10767,
    "points": 14395,
    "Ġeastward": 13394,
    "Ġmillions": 11354,
    "Ġlustre": 15137,
    "Ġcur": 1221,
    "pervading": 18960,
    "german": 11493,
    "Ġbern": 17861,
    "Ġpinioned": 21487,
    "Ġbony": 12592,
    "covery": 11171,
    "Ġrue": 11870,
    "Ġbusily": 9387,
    "Ġpeeling": 22699,
    "Ġreappearance": 21672,
    "latin": 25262,
    "Ġsong": 5905,
    "ength": 2315,
    "Ġtheirs": 7026,
    "streets": 13399,
    "ached": 2323,
    "Ġlend": 17966,
    "Ġprovince": 24194,
    "Ġcowardice": 17032,
    "Ġcarcase": 14446,
    "country": 6105,
    "Ġscorn": 7902,
    "Ġavenues": 25433,
    "Ġgroaned": 11266,
    "find": 6954,
    "Ġutmost": 5496,
    "Ġmustering": 18664,
    "Ġthat": 335,
    "yourself": 6744,
    "stool": 23826,
    "eric": 3474,
    "opard": 9293,
    "Ġlabel": 14517,
    "aths": 22706,
    "Ġchristian": 6480,
    "glad": 9010,
    "Ġalacrity": 15740,
    "whel": 7667,
    "Ġinsens": 8278,
    "aries": 6246,
    "Ġheredit": 9218,
    "lays": 14924,
    "ishmael": 18422,
    "spee": 9319,
    "exception": 9977,
    "Ġbond": 21387,
    "Ġworship": 10366,
    "Ġcondemned": 7780,
    "Ġswandam": 11089,
    "r": 86,
    "Ġsteel": 3889,
    "Ġtinged": 20088,
    "bern": 20777,
    "Ġbridal": 14956,
    "Ġpositive": 2298,
    "aceti": 7113,
    "ocation": 14627,
    "Ġsin": 1513,
    "Ġexhausted": 8697,
    "Ġheathenish": 13620,
    "Ġmid": 2616,
    "Ġreconcile": 25295,
    "sk": 5521,
    "_.âĢĶ": 23477,
    "Ġbingley": 1677,
    "Ġemph": 14526,
    "Ġvicious": 24405,
    "Ġbits": 11590,
    "Ġis": 347,
    "fortnight": 13091,
    "thinking": 9016,
    "linked": 17595,
    "somewhere": 12016,
    "Ġbuoyancy": 20047,
    "Ġvoc": 4453,
    "Ġjoking": 12842,
    "Ġbottles": 16572,
    "sufficient": 6638,
    "Ġlowest": 11122,
    "Ġwhitewashed": 14472,
    "Ġsimul": 1807,
    "Ġridic": 7509,
    "bunger": 20405,
    "Ġsuperst": 7705,
    "talking": 10008,
    "Ġnameless": 7701,
    "elzebub": 26467,
    "contain": 18502,
    "Ġexcell": 10416,
    "uguese": 20734,
    "Ġwhitish": 24871,
    "Ġimmedi": 2901,
    "Ġkicked": 10581,
    "Ġcrust": 21354,
    "dock": 16421,
    "Ġdown": 831,
    "range": 3497,
    "Ġsur": 2183,
    "Ġdiscompose": 25583,
    "folly": 20864,
    "unken": 10236,
    "Ġslammed": 20451,
    "leeward": 15213,
    "Ġenergetic": 15200,
    "inea": 7624,
    "Ġlovers": 9722,
    "congreg": 25401,
    "Ġdischarged": 15223,
    "Ġdeity": 18140,
    "Ġapolog": 9045,
    "Ġaccording": 5508,
    "osop": 4407,
    "quaker": 15766,
    "Ġbolted": 12249,
    "aunt": 8371,
    "ath": 862,
    "Ġowners": 7665,
    "Ġmax": 2006,
    "lake": 13752,
    "proves": 23400,
    "ĠâĢĶâĢĶ": 25761,
    "sought": 15429,
    "ulous": 4452,
    "i": 77,
    "Ġy": 341,
    "damn": 20029,
    "Ġindustry": 18839,
    "Ġenorm": 5304,
    "Ġelegance": 11332,
    "Ġindulgence": 11319,
    "Ġdefray": 22948,
    "oe": 7553,
    "urous": 10212,
    "Ġfurthermore": 1171,
    "O": 51,
    "Ġdidn": 4365,
    "Ġfusion": 21418,
    "civility": 17514,
    "ire": 492,
    "imes": 1301,
    "possess": 5986,
    "Ġpeev": 22700,
    "revolver": 25631,
    "Ġimpreg": 15990,
    "rage": 10843,
    "Ġconfessor": 24025,
    "Ġapply": 1777,
    "Ġconsid": 1814,
    "Ġfaintest": 24572,
    "Ġdisposing": 19380,
    "err": 1138,
    "penn": 18829,
    "Ġtasted": 12534,
    "ailed": 3248,
    "Ġjot": 11766,
    "Ġbus": 1903,
    "Ġdames": 23478,
    "Ł": 258,
    "Ġtrem": 6662,
    "Ġglimpses": 13436,
    "Ġprize": 11952,
    "affectionate": 24926,
    "Ġplumber": 16087,
    "Ġduncan": 13465,
    "Ġa": 263,
    "rather": 5430,
    ").": 1272,
    "Ġunwe": 15841,
    "Ġtolerable": 6949,
    "Ġlevel": 5021,
    "voyages": 24860,
    "Ġindependently": 4248,
    "Ġreminding": 19802,
    "Ġunlabeled": 3801,
    "Ġunearthly": 9038,
    "harpo": 4807,
    "ites": 3898,
    "Ġreconsidered": 21678,
    "Ġexhibited": 9546,
    "Ġuntouched": 16467,
    "retrospect": 23146,
    "Ġsealed": 15818,
    "Ġsmothered": 20722,
    "han": 12477,
    "Ġanalyze": 1546,
    "visit": 7756,
    "Ġexaggerate": 25653,
    "aset": 10832,
    "mong": 15392,
    "Ġgospel": 18004,
    "Ġinferences": 17938,
    "Ġprices": 15615,
    "dar": 20826,
    "contracting": 19298,
    "Ġboasting": 19941,
    "Ġinclemency": 22563,
    "ĠĠĠĠ": 459,
    "Ġhaggard": 17332,
    "£": 101,
    "agonies": 21916,
    "Ġchurned": 18387,
    "gammon": 20246,
    "charlotte": 6474,
    "Ġpiteous": 17921,
    "Ġsashes": 21228,
    "Ġsacri": 18329,
    "unbe": 21879,
    "Ġviciously": 24406,
    "sweeping": 24623,
    "ipping": 2206,
    "Ġwherein": 14295,
    "incident": 14592,
    "Ġlaw": 3655,
    "Ġdebated": 9042,
    "pane": 10120,
    "Ġjing": 15952,
    "å": 166,
    "Ġcomfortless": 23919,
    "Ġgreatly": 5851,
    "op": 657,
    "Ġhorizontal": 7784,
    "Ġbutt": 14128,
    "offended": 16400,
    "comparison": 25844,
    "Ġchanges": 2286,
    "Ġtravelled": 7773,
    "Ġeffemin": 18546,
    "ulations": 6031,
    "private": 13586,
    "Ġspectrum": 4476,
    "opposite": 19933,
    "Ġjustly": 11907,
    "Ġattach": 14293,
    "Ġalbert": 12711,
    "Ġsounds": 5190,
    "Ġagents": 9768,
    "Ġdespatched": 23836,
    "brows": 17498,
    "mediate": 16515,
    "Ġclaimed": 14203,
    "ribe": 1223,
    "insist": 23072,
    "Ġsh": 419,
    "Ġeffected": 14356,
    "istered": 14147,
    "Ġlabour": 7274,
    "above": 8149,
    "Ġbeh": 1801,
    "cast": 2923,
    "course": 6106,
    "estinated": 15923,
    "Ġfishing": 9664,
    "comp": 3817,
    "Ġhoarse": 14527,
    "Ġshipwrecked": 25691,
    "Ġkitty": 3909,
    "approached": 13489,
    "Ġreve": 2928,
    "Þ": 159,
    "Ġmogul": 12867,
    "T": 56,
    "hatherley": 17570,
    "Ġadagrad": 2900,
    "beauty": 20109,
    "Ġproxim": 3202,
    "Ġcombines": 1143,
    "Ġunlab": 3789,
    "flatter": 23973,
    "Ġchiefly": 5766,
    "Ġgans": 5822,
    "Ġunstructure": 2990,
    "Ġhilariously": 25454,
    "claps": 23160,
    "Ġmiller": 19887,
    "tone": 8765,
    "Ġcubic": 20093,
    "smooth": 20251,
    "belong": 12127,
    "Ġsaid": 576,
    "Ġaforethought": 25432,
    "Ġcouples": 16853,
    "Ġgreenness": 23772,
    "Ġanecdote": 26358,
    "affa": 23781,
    "owner": 18612,
    "Ġtax": 13819,
    "Ġjur": 12839,
    "Ġinvaders": 23485,
    "Ġlimber": 16480,
    "Ġnumberless": 16418,
    "Ġforgotten": 5679,
    "Ġreigning": 15704,
    "ins": 1377,
    "Ġpalpable": 15208,
    "Ġexamination": 8006,
    "Ġmoved": 4841,
    "Ġyield": 5094,
    "Ġshifted": 14110,
    "opatra": 22485,
    "merchant": 10465,
    "Ġmerely": 3771,
    "Ġ28": 19299,
    "Ġshe": 466,
    "Ġexertion": 8055,
    "Ġinsensibly": 20081,
    "Ġdiabolical": 20345,
    "learnt": 23516,
    "ipotent": 10961,
    "antages": 7192,
    "Ġvesu": 21956,
    "Ġterrors": 6918,
    "Ġhome": 2027,
    "Ġaccelerating": 1621,
    "shunned": 22475,
    "Ġdocile": 19964,
    "Ġshowers": 16606,
    "Ġheadstrong": 14390,
    "various": 10397,
    "Ġanchor": 7368,
    "Ġshadowed": 24052,
    "dening": 22788,
    "icle": 10834,
    "cheerful": 13579,
    "sometimes": 5974,
    "Ġknots": 15010,
    "Ġcheshire": 13094,
    "ren": 550,
    "swelled": 19615,
    "silly": 24424,
    "ague": 3906,
    "Ġhandling": 8915,
    "Ġshouted": 5348,
    "Ġlung": 7168,
    "moderate": 22856,
    "Á": 130,
    "every": 2809,
    "Ġsociety": 3978,
    "acute": 22602,
    "behind": 6780,
    "Ġextracts": 9367,
    "Ġgang": 9209,
    "ifled": 14066,
    "omed": 13978,
    "Ġrespective": 16347,
    "Ġsomeone": 6705,
    "apparent": 11041,
    "Ġlies": 5297,
    "desolation": 20462,
    "Ġacquire": 2722,
    "Ġirrad": 19097,
    "happily": 14658,
    "moments": 19417,
    "Ġapproximates": 2416,
    "Ġforgetfulness": 14607,
    "Ġbloom": 9890,
    "ripp": 6406,
    "Ġimmersed": 19490,
    "Ġodd": 6627,
    "ouched": 4637,
    "Ġrepugn": 23370,
    "porpoise": 16436,
    "Ġwaving": 8579,
    "Ġcatches": 23432,
    "Ġhire": 21489,
    "eye": 6226,
    "Ġconsequent": 18113,
    "Ġbutton": 10267,
    "Ġprior": 11318,
    "Ġendeavoured": 4919,
    "Ġrumpled": 24605,
    "Ġcharmingly": 24226,
    "longing": 23728,
    "Ġul": 6828,
    "Ġrains": 24342,
    "disgust": 23501,
    "Ġunaccountably": 26518,
    "Ġspectators": 19412,
    "unreasonable": 18165,
    "Ġquaker": 10971,
    "ld": 385,
    "Ġaudio": 24774,
    "bro": 4033,
    "Ġassailed": 23187,
    "Ġrifts": 21985,
    "re": 266,
    "Ġdancing": 5703,
    "ounted": 5031,
    "Ġattractive": 25579,
    "event": 8078,
    "Ġchristianity": 19865,
    "Ġii": 7384,
    "Ġpours": 17915,
    "Ġallures": 22078,
    "Ġsuccour": 20438,
    "Ġshrunk": 16719,
    "nights": 16448,
    "Ġcanaller": 25471,
    "Ġwindows": 4972,
    "intercourse": 14639,
    "soled": 14332,
    "Ġferocious": 17421,
    "raised": 15682,
    "counter": 20281,
    "Ġencouraging": 2263,
    "Ġpitied": 14693,
    "Ġpossession": 5588,
    "Ġredeemed": 25793,
    "rically": 15419,
    "Ġlie": 4409,
    "Ġgiver": 21609,
    "Ġcrocodile": 20742,
    "Ġdressing": 7092,
    "unknown": 10890,
    "Ġdelirium": 10404,
    "ĠĠĠĠĠĠĠĠĠĠĠĠĠĠĠĠĠĠĠĠĠĠĠĠĠĠĠĠĠĠĠ": 19705,
    "Ġeduc": 4787,
    "vict": 11542,
    "Ġamusement": 8057,
    "asily": 13949,
    "Ġissues": 9544,
    "searching": 25110,
    "albatross": 15633,
    "Ġdet": 510,
    "Ġhan": 15621,
    "Ġdesk": 11910,
    "Ġproprietors": 20190,
    "Ġactivation": 918,
    "Ġstories": 10865,
    "Ġmob": 16020,
    "por": 2147,
    "sullenly": 26152,
    "for": 960,
    "Ġstraw": 9431,
    "Ġimitated": 18330,
    "scales": 23001,
    "ished": 1427,
    "Ġoccurs": 1858,
    "Ġuneasily": 24235,
    "Ġruined": 12959,
    "harpoon": 9493,
    "case": 5206,
    "Ġstructures": 2719,
    "Ġrav": 14307,
    "Ġintelligent": 1440,
    "Ġsevered": 18204,
    "Ġmajestic": 8643,
    "Ġhackluyt": 25659,
    "Ġinvolves": 1084,
    "Ġcreditors": 20134,
    "Ġgratefully": 20448,
    "Ġsorts": 6887,
    "Ġeast": 5370,
    "Ġinseparable": 20691,
    "Ġarguments": 8038,
    "Ġraise": 6168,
    "Ġforeheads": 23452,
    "Ġhandful": 9784,
    "ffy": 18319,
    "chor": 6148,
    "Ġmeant": 3552,
    "heredit": 21212,
    "farewell": 12310,
    "piece": 6658,
    "Ġtermination": 16462,
    "falsehood": 25904,
    "Ġminiatures": 20324,
    "Ġthrilling": 19753,
    "encies": 4078,
    "Ġrises": 9715,
    "Ġbreadth": 10563,
    "Ġstiff": 6993,
    "recurrent": 4995,
    "Ġdoub": 1837,
    "Ġtremble": 6906,
    "throw": 14101,
    "Ġcultivation": 17147,
    "Ġmoored": 11795,
    "Ġcompunction": 18591,
    "Ġclamped": 18427,
    "Ġonset": 12716,
    "Ġlurked": 11291,
    "Ġplowdon": 26450,
    "Ġgrief": 4621,
    "Ġreducing": 1958,
    "ants": 1389,
    "residence": 19267,
    "ning": 950,
    "raged": 9213,
    "Ġexplanatory": 22209,
    "ference": 1883,
    "Ġrattler": 25004,
    "Ġgreenland": 5761,
    "Ġpounds": 5368,
    "Ġentrapped": 26266,
    "Ġhilarious": 20301,
    "Ġresid": 22546,
    "Ġintimately": 24804,
    "Ġunce": 11714,
    "Ġnosegay": 24197,
    "Ġserved": 8247,
    "conversations": 24751,
    "worm": 15455,
    "Ġsending": 8778,
    "Ġarom": 15494,
    "Ġwretched": 4079,
    "Ġoccupation": 9932,
    "Ġrefusing": 11027,
    "Ġspain": 15883,
    "Ġmodern": 3213,
    "Ġauthentic": 20537,
    "odiac": 14035,
    "Ġbloodthirst": 23807,
    "Ġenvied": 19284,
    "Ġexpand": 9309,
    "inity": 5693,
    "Ġengage": 9337,
    "thee": 9692,
    "Ġdire": 865,
    "Ġoutset": 15958,
    "Ġtopmost": 14588,
    "Ġforever": 14553,
    "Ġflour": 8946,
    "Ġcalamities": 25703,
    "whale": 2139,
    "Ġinit": 818,
    "vert": 15718,
    "bott": 9108,
    "arling": 10814,
    "thereby": 14449,
    "Ġdemand": 4948,
    "oology": 21008,
    "Ġtried": 3648,
    "add": 5229,
    "green": 7117,
    "Ġpreparation": 13532,
    "Ġeat": 4644,
    "Ġsocietal": 11437,
    "Ġexpectantly": 23530,
    "Ġbenefits": 4289,
    "screw": 9349,
    "Ġmildness": 9945,
    "Ġprocessing": 896,
    "pillar": 5618,
    "Ġwindibank": 7257,
    "icions": 21567,
    "Ġfaltering": 17887,
    "Ġlain": 17965,
    "box": 5749,
    "gration": 9123,
    "Ġunusually": 15849,
    "shot": 2221,
    "Ġwaved": 9646,
    "Ġunwinding": 22065,
    "Ġthreads": 13122,
    "belais": 24045,
    "le": 279,
    "Ġ1671": 25012,
    "Ġreddening": 25973,
    "Ġpost": 4274,
    "Ġinvariably": 8065,
    "Ġprisoner": 8676,
    "author": 9861,
    "olets": 21010,
    "Ġproportionate": 17043,
    "Ġbrill": 8552,
    "Ġthroats": 24578,
    "Ġcomplain": 6687,
    "Ġbegone": 11920,
    "Ġsea": 1207,
    "Ġenables": 725,
    "Ġdepart": 4657,
    "Ġmemorable": 16447,
    "Ġdiminish": 14747,
    "iate": 6506,
    "Ġoutlines": 15960,
    "Ġdoth": 13911,
    "Ġirreparable": 20004,
    "front": 12175,
    "Ġtens": 17725,
    "ird": 2425,
    "Ġlewis": 15728,
    "nets": 9134,
    "narrated": 25625,
    "Ġoverwrites": 5034,
    "adru": 15734,
    "Ġtarshish": 12032,
    "Ġmoments": 4847,
    "Ġembraces": 19876,
    "âĢĶâĢľ_": 13208,
    "Ġincreasing": 8248,
    "pt": 386,
    "Ġaverages": 2398,
    "ills": 1630,
    "abounding": 25982,
    "Ġrigged": 16718,
    "vac": 15452,
    "jewel": 20349,
    "Ġrecur": 1624,
    "connections": 14430,
    "Ġonly": 788,
    "written": 7996,
    "faint": 17546,
    "shuff": 18496,
    "Ġglanced": 5954,
    "Ġcolonial": 22866,
    "ments": 1399,
    "Ġpaces": 13922,
    "Ġtawn": 13826,
    "Ġcasualty": 20344,
    "Ġdistances": 22511,
    "Ġintrospective": 20603,
    "ower": 1033,
    "Ġnoise": 1066,
    "Ġbremen": 23351,
    "Ġporing": 21471,
    "Ġtower": 8320,
    "Ġdeserved": 7738,
    "Ġmulti": 1044,
    "Ġregions": 10323,
    "apparently": 15207,
    "rained": 5162,
    "sails": 7498,
    "Ġrelation": 2140,
    "Ġsword": 6734,
    "¤": 102,
    "Ġthoughtfully": 12985,
    "Ġcontemplate": 19896,
    "murmured": 24457,
    "Ġthough": 994,
    "Ġprofessors": 14727,
    "unimportant": 18162,
    "Ġindul": 5858,
    "flame": 16639,
    "thanked": 24329,
    "Ġbeget": 9227,
    "Ġsettling": 11062,
    "pitching": 24082,
    "countryman": 24643,
    "Ġaunts": 21203,
    "ateness": 15522,
    "content": 11197,
    "Ġgenuine": 14887,
    "Ġpiping": 23246,
    "Ġspecific": 2002,
    "Ġstops": 3168,
    "Ġburtons": 19257,
    "ĠĠĠĠĠĠĠĠĠĠĠĠĠĠĠĠĠĠĠĠĠĠĠĠĠĠĠĠĠĠĠĠĠĠĠĠĠĠĠĠĠĠĠĠĠĠĠĠĠ": 20043,
    "Ġorganisation": 23588,
    "coffin": 10662,
    "been": 3346,
    "Ġofficious": 19353,
    "Ġterrific": 6756,
    "oro": 21398,
    "Ġsuit": 5725,
    "narrative": 17321,
    "Ġru": 949,
    "Ġvideos": 13610,
    "Ġlump": 21556,
    "itable": 5437,
    "embow": 21936,
    "sounding": 24798,
    "Ġdiscoverer": 26038,
    "Ġtossing": 8127,
    "ingley": 1549,
    "Ġfervour": 19743,
    "Ġfrogs": 23930,
    "Ġexchanging": 18134,
    "face": 3677,
    "anxiously": 15113,
    "pip": 6657,
    "umber": 5241,
    "Ġrephr": 21684,
    "Ġdish": 6138,
    "Ġpresume": 8039,
    "Ġcocksure": 26262,
    "Ġloungers": 24867,
    "Ġmen": 1434,
    "opol": 12876,
    "Ġscheduling": 2350,
    "Ġpres": 9734,
    "Ġpanegyric": 26452,
    "Ġplum": 11825,
    "Ġsupre": 10268,
    "Ġdusk": 12331,
    "fitzwilliam": 11352,
    "ignominious": 26590,
    "inous": 8775,
    "Ġinfluenced": 19637,
    "Ġoffer": 4845,
    "Ġamazement": 7766,
    "Ġ60": 14877,
    "Ġreferences": 21679,
    "Ġgrasping": 12170,
    "pp": 384,
    "Ġgrated": 22811,
    "Ġshop": 9254,
    "Ġowe": 8116,
    "Ġextend": 18702,
    "Ġanimals": 8980,
    "Ġmister": 22766,
    "Ġsled": 21221,
    "Ġanchors": 12618,
    "foundered": 20869,
    "Ġsubstantiated": 25878,
    "Ġsust": 7008,
    "Ġspence": 22133,
    "attempts": 17192,
    "ie": 730,
    "Ġcuriosity": 2288,
    "fearfully": 25123,
    "risonment": 17377,
    "absolutely": 10645,
    "Ġpoem": 22596,
    "done": 6501,
    "asant": 17962,
[...]
