{
  "metadata": {
    "vocab_size": 26613,
    "algorithm": "BPE",
    "created_at": "2026-06-23 06:05:41",
    "special_tokens": [
      "<PAD>",
      "<SOS>",
      "<EOS>",
      "<UNK>",
      "<MASK>"
    ]
  },
  "vocab": {
    "Ġperfidious": 25665,
    "Ġflora": 11417,
    "august": 11072,
    "Ġtreasure": 9559,
    "Ġheaths": 25971,
    "refusal": 24735,
    "Ġplayed": 9416,
    "jonah": 11497,
    "Ġsen": 9157,
    "stalls": 26472,
    "roylott": 20024,
    "onse": 21247,
    "telesc": 22812,
    "Ġsloping": 11936,
    "ur": 325,
    "truth": 9919,
    "itatingly": 25277,
    "vi": 2372,
    "Ġtrembled": 8702,
    "Ġheav": 1853,
    "adding": 21755,
    "Ġgap": 21595,
    "Ġunnear": 22024,
    "Ġlieutenant": 15259,
    "amongst": 24671,
    "Ġdearest": 5457,
    "Ġobscured": 15009,
    "Ġunderwent": 23235,
    "Ġwalked": 3139,
    "conspicuous": 26246,
    "Ġzigzag": 26271,
    "Ġcastle": 14715,
    "rope": 3183,
    "encountered": 20390,
    "garn": 20868,
    "Ġchance": 3317,
    "Ġimmortality": 26324,
    "forster": 16158,
    "Ġfill": 5701,
    "Ġnoah": 10943,
    "commun": 15032,
    "Ġwilson": 6629,
    "Ġmultimodal": 18747,
    "difficulty": 12387,
    "Ġassisted": 11112,
    "Ġterra": 13112,
    "Ġtired": 9150,
    "Ġsupreme": 13604,
    "Ġard": 5164,
    "tery": 14035,
    "reme": 2423,
    "Ġmish": 15534,
    "poster": 11057,
    "objections": 19914,
    "sford": 5997,
    "Ġcatholic": 20679,
    "Ġhundredth": 16517,
    "Ġrises": 9713,
    "bler": 11473,
    "Ġmounttop": 19975,
    "Ġearn": 3547,
    "Ġprocessing": 883,
    "Ġchopping": 24218,
    "fulfilment": 26024,
    "Ġapproached": 5843,
    "retreat": 23132,
    "rified": 15417,
    "Ġunbounded": 18258,
    "Ġrubbed": 12950,
    "Ġadmiring": 16478,
    "Ġmarshy": 20216,
    "Ġaided": 17744,
    "Ġhoard": 23349,
    "sixty": 24851,
    "Ġconvent": 11667,
    "arest": 4006,
    "Ġhelplessness": 25070,
    "Ġmale": 9649,
    "Ġconcerning": 4068,
    "Ġbusks": 23336,
    "Ġdiscussing": 5202,
    "Ġtablet": 19203,
    "Ġroots": 11186,
    "spanish": 14334,
    "inkling": 16087,
    "Ġcompos": 22565,
    "Ġswings": 11087,
    "Ġentail": 9791,
    "ake": 749,
    "Ġbulls": 23855,
    "Ġgenius": 8045,
    "Ġdefy": 11894,
    "Ġmax": 2007,
    "Ġaver": 1288,
    "Ġindirect": 18833,
    "Ġnavigators": 19761,
    "Ġconsulted": 13426,
    "dden": 1805,
    "Ġspies": 22124,
    "Ġgate": 6825,
    "Ġstunsail": 25543,
    "Ġvarieties": 14308,
    "Ġsubmitted": 11868,
    "Ġsupervised": 3478,
    "firmly": 20278,
    "Ġrepulsive": 14529,
    "const": 5938,
    "mai": 22910,
    "alth": 3256,
    "jury": 15371,
    "spe": 3560,
    "Ġsole": 3298,
    "Ġhandful": 9783,
    "Ġpaddling": 25285,
    "Ġinto": 647,
    "Ġubiqu": 18045,
    "Ġberry": 19744,
    "Ġmuffled": 10641,
    "shone": 22451,
    "Ġgloom": 4199,
    "gaz": 20876,
    "Ġfif": 4215,
    "Ġhasty": 10478,
    "slo": 17655,
    "Ġbery": 13896,
    "Ġcolossal": 11460,
    "Ġcampaign": 20659,
    "Ġcontemplated": 13460,
    "Ġconfined": 7465,
    "Ġexcellent": 4237,
    "Ġdived": 9178,
    "Ġconcre": 16384,
    "hit": 20887,
    "Ġround": 1369,
    "ssible": 2997,
    "ul": 371,
    "Ġigniting": 25069,
    "Ġbody": 2435,
    "sc": 1258,
    "Ġnotion": 7881,
    "arians": 18528,
    "Ġimitated": 18330,
    "mency": 18924,
    "Ġequinox": 25855,
    "lue": 8508,
    "io": 3802,
    "idually": 21765,
    "Ġstaple": 26197,
    "Ġriots": 23889,
    "Ġwoodlands": 23519,
    "Ġdevout": 14328,
    "Ġprognost": 15279,
    "ub": 1225,
    "ay": 355,
    "dient": 441,
    "farmer": 25898,
    "because": 4923,
    "Ġelegance": 11333,
    "app": 1040,
    "atived": 21260,
    "Ġrouted": 24906,
    "reported": 24492,
    "crow": 9591,
    "Ġpicking": 11260,
    "Ġmerited": 23729,
    "Ġbehaviour": 4383,
    "narrated": 25620,
    "Ġnotes": 7189,
    "Ġbeyond": 2459,
    "Ġslipper": 24264,
    "Ġpry": 11599,
    "Ġanticipated": 13507,
    "ague": 3907,
    "Ġinexorable": 12252,
    "dick": 11480,
    "Ġalternating": 15029,
    "sorting": 17003,
    "Ġruinous": 24632,
    "Ġess": 5691,
    "Ġcaress": 16336,
    "Ġnarrowly": 16819,
    "swells": 26147,
    "Ġstir": 5823,
    "consc": 4839,
    "Ġhomeward": 9392,
    "horse": 8606,
    "Ġcapering": 21351,
    "Ġcrimes": 8589,
    "uttle": 6247,
    "Ġburglar": 17353,
    "Ġpuffs": 14974,
    "Ġneg": 1334,
    "Ġcrushing": 20174,
    "evening": 7089,
    "Ġtreacher": 8605,
    "Ġconfess": 3767,
    "Ġlee": 4221,
    "Ġsuns": 23271,
    "Ġdazz": 11594,
    "Ġmak": 10779,
    "Ġmar": 1312,
    "Ġthousands": 6748,
    "Ġmutters": 23952,
    "sil": 5282,
    "Ġain": 6969,
    "Ġprivileges": 25132,
    "Ġreducing": 1958,
    "Ġacquiesce": 20327,
    "ferent": 4192,
    "Ġdivide": 12107,
    "Ġsemicirc": 16390,
    "itancy": 21330,
    "Ġheadsman": 13270,
    "Ġforetold": 23449,
    "acious": 5563,
    "rose": 6013,
    "Ġsmith": 16061,
    "Ġpool": 5173,
    "intelligence": 5882,
    "lashed": 20952,
    "inferior": 12391,
    "Ġdarker": 13115,
    "Ġbolted": 12241,
    "quarters": 24945,
    "etian": 13957,
    "doc": 23373,
    "imately": 12685,
    "mology": 12488,
    "sw": 4740,
    "Ġgash": 15667,
    "Ġfulfil": 9551,
    "Ġdistrusting": 25052,
    "Ġaright": 11738,
    "frantic": 24282,
    "Ġdoor": 1743,
    "Ġhar": 5814,
    "inferiors": 25346,
    "whispered": 20031,
    "name": 6795,
    "divided": 25017,
    "Ġcolumb": 22857,
    "Ġfry": 17878,
    "Ġbrim": 12971,
    "Ġflap": 14420,
    "Ġreports": 19083,
    "Ġn": 300,
    "Ġramble": 9313,
    "Ġsuccor": 25661,
    "Ġnowadays": 18545,
    "Ġstraggling": 23749,
    "Ġprefer": 6416,
    "Ġorange": 8486,
    "Ġoverlapping": 26237,
    "Ġsign": 2498,
    "rudently": 16709,
    "pleasantness": 19768,
    "Ġsport": 6688,
    "Ġwide": 4108,
    "Ġgoodge": 22819,
    "impenetrable": 26195,
    "Ġtear": 6721,
    "Ġpaper": 4282,
    "Ġstormy": 16727,
    "chor": 6146,
    "onday": 6063,
    "Ġimpetus": 25569,
    "Ġassuredly": 14820,
    "offer": 19059,
    "Ġstun": 11649,
    "empt": 2620,
    "ulance": 15763,
    "Ġbald": 16205,
    "Ġdocumentation": 20552,
    "baden": 25614,
    "Ġridge": 14817,
    "Ġrounds": 18884,
    "Ġstochastic": 3266,
    "reat": 614,
    "Ġwonders": 7500,
    "Ġpleasurable": 23337,
    "Ġtherein": 11773,
    "Ġcocks": 18592,
    "thank": 4950,
    "Ġsevere": 6031,
    "Ġsubfield": 11866,
    "Ġexagger": 12716,
    "ien": 10102,
    "Ġspoken": 4835,
    "irt": 3077,
    "Ġrespectfully": 18994,
    "Ġremem": 4312,
    "Ġpelt": 15606,
    "Ġpassionate": 11274,
    "assault": 22302,
    "Ġmonoman": 7938,
    "Ć": 199,
    "Ġhealthy": 10852,
    "moment": 3578,
    "Ġrequisition": 22658,
    "Ġnasty": 17441,
    "Ġslappin": 18941,
    "Ġinert": 15618,
    "Ġvowed": 14082,
    "Ġconfidential": 9088,
    "Ġthickness": 13273,
    "Ġmemorable": 16425,
    "Ġminutes": 3005,
    "clean": 14759,
    "Ġcontriv": 9282,
    "osh": 18387,
    "ational": 5716,
    "Ġunluck": 8484,
    "Ġunreasoning": 15842,
    "Ġconsult": 6056,
    "Ġinf": 1758,
    "Ġum": 10212,
    "apering": 8040,
    "ites": 3899,
    "apprehens": 17404,
    "asion": 5714,
    "Ġcunning": 6238,
    "Ġline": 1852,
    "natured": 7110,
    "Ġlearnt": 7614,
    "ju": 13739,
    "Ġasked": 2275,
    "Ġordinary": 6096,
    "Ġplanets": 24052,
    "Ġpar": 456,
    "Ġimputable": 22169,
    "Ġbasics": 13444,
    "road": 6677,
    "ier": 1137,
    "Ġming": 9646,
    "nment": 20988,
    "Ġshivered": 14106,
    "Ġfugitives": 25633,
    "ty": 1002,
    "Ġincivility": 18571,
    "Ġincalcul": 16060,
    "ersman": 11699,
    "Ġrightly": 13059,
    "Ġessentials": 20000,
    "Ġlay": 583,
    "Ġtraged": 9352,
    "ue": 1178,
    "Ġrecollections": 10513,
    "irectly": 6940,
    "))": 1515,
    "Ġfounder": 17882,
    "Ġrisks": 9964,
    "Ġspoilt": 24806,
    "Ġnupt": 13941,
    "Ġprehensile": 26533,
    "Ġinfernal": 11958,
    "square": 15058,
    "Ġaverse": 11082,
    "Ġ91": 24588,
    "linen": 25257,
    "Ġconceals": 23900,
    "vul": 15446,
    "Č": 205,
    "Ġtempered": 12921,
    "revealed": 20413,
    "Ġjurymen": 16846,
    "con": 654,
    "Ġliber": 5168,
    "bout": 20771,
    "Ġjoyous": 14662,
    "Ġsentiments": 7960,
    "Ġlumber": 13950,
    "smallest": 23908,
    "Ġbuffaloes": 25217,
    "Ġunable": 4951,
    "Ġflukes": 5266,
    "Ġidentified": 19149,
    "Ġsauntering": 18326,
    "Ġsilk": 11960,
    "Ġperusal": 14217,
    "precaution": 23819,
    "Ġapprehension": 7113,
    "Ġprovid": 1008,
    "accustomed": 13153,
    "Ġtown": 2456,
    "magnificent": 20272,
    "Ġsupp": 1265,
    "pread": 7418,
    "boast": 23250,
    "Ø": 153,
    "z": 94,
    "Ġsex": 8842,
    "aul": 6352,
    "Ġmedit": 8018,
    "Ġmurmured": 7480,
    "racted": 4773,
    "Ġturk": 6603,
    "Ġrepeatedly": 9021,
    "Ġunb": 10908,
    "Ġfrogs": 23919,
    "Ġforever": 14552,
    "ern": 762,
    "Ł": 258,
    "Ġtricks": 13480,
    "Ġgin": 13959,
    "Ġcured": 21344,
    "hearing": 8402,
    "ike": 5000,
    "cross": 3575,
    "bib": 17490,
    "lower": 8881,
    "Ġdiscoveries": 13354,
    "Ġbuoyant": 13528,
    "Ġfathers": 16293,
    "alle": 1295,
    "izing": 1070,
    "Ġadv": 1119,
    "iew": 2447,
    "bears": 22486,
    "Ġbegg": 16251,
    "destro": 13305,
    "iner": 2673,
    "Ġsuavely": 26522,
    "Ġstri": 2808,
    "Ġshel": 6847,
    "red": 396,
    "engthen": 14455,
    "Ġincognit": 22550,
    "said": 4104,
    "salis": 25147,
    "luc": 9752,
    "Ġsupply": 6066,
    "Ġratt": 7880,
    "Ġregards": 16074,
    "ger": 1108,
    "Ġvaulted": 25167,
    "Ġsends": 14788,
    "fam": 5988,
    "cking": 4264,
    "Ġstrip": 9421,
    "Ġnods": 19061,
    "Ġdisposing": 19372,
    "superior": 9525,
    "Ġearthly": 7989,
    "Ġnoticing": 18223,
    "Ġexterior": 19985,
    "Ġembedding": 2104,
    "Ġbet": 1135,
    "achable": 14136,
    "Ġempires": 19074,
    "Ġliking": 23589,
    "Ġstaircase": 20093,
    "Ġconcealing": 23899,
    "Ġprevent": 756,
    "Ġpersuading": 19407,
    "Ġinsight": 16529,
    "hung": 8380,
    "Ġmustard": 12926,
    "lier": 20947,
    "ske": 13780,
    "eping": 5833,
    "Ġclean": 5652,
    "Ġsociable": 19400,
    "Ġmonstrous": 7789,
    "aphs": 22331,
    "fatal": 17087,
    "Ġparcel": 15197,
    "rey": 12534,
    "though": 2116,
    "Ġnight": 1467,
    "Ġmagnitude": 1945,
    "usive": 8191,
    "Ġcoat": 4553,
    "Ġrattling": 11396,
    "ages": 828,
    "Ġmajest": 24057,
    "ster": 1953,
    "Ġyore": 21774,
    "Ġplying": 17910,
    "Ġsecondly": 14517,
    "Ġcomes": 3424,
    "ost": 5360,
    "gun": 10097,
    "procure": 23394,
    "Ġbitterly": 8314,
    "Ġmend": 8405,
    "trust": 21076,
    "county": 25396,
    "Ġnorton": 12646,
    "Ġunde": 11710,
    "Ġcannib": 6035,
    "Ġcanst": 8858,
    "Ġtexel": 25922,
    "Ġoily": 13862,
    "ounding": 22379,
    "Ġbureau": 11590,
    "Ġmushroom": 13231,
    "loose": 11803,
    "presum": 12865,
    "antically": 22095,
    "Ġstarboard": 7604,
    "54": 15297,
    "Ġbegone": 11914,
    "istered": 14143,
    "Ġfought": 12590,
    "smo": 10126,
    "Ġengraving": 17079,
    "Ġdismantled": 20214,
    "Ġsmote": 18573,
    "fred": 20853,
    "Ġscrutiny": 26014,
    "kish": 20932,
    "Ġlife": 1354,
    "Ġcollar": 11876,
    "lantic": 6363,
    "ringle": 21038,
    "particular": 5757,
    "Ġdodging": 19885,
    "pinn": 21024,
    "Ġresid": 22534,
    "acher": 6868,
    "atherley": 7220,
    "Ġrolled": 4429,
    "Ġhamper": 19386,
    "Ġconstruct": 23339,
    "Ġlord": 2971,
    "Ġinvaluable": 10183,
    "Ġcensure": 15093,
    "Ġfe": 491,
    "Ġexploitation": 2344,
    "Ġawaken": 23584,
    "Ġseemed": 1280,
    "Ġones": 3024,
    "sailors": 9922,
    "Ġinterruptions": 24184,
    "Ġrejoined": 14925,
    "Ġpaws": 13919,
    "gloom": 17138,
    "Ġrevelations": 25223,
    "Ġprediction": 2363,
    "Ġdeposition": 18603,
    "ti": 8389,
    "business": 5610,
    "kward": 6958,
    "Ġseparately": 13298,
    "Ġputting": 5326,
    "Ġnone": 3223,
    "Ġfills": 12591,
    "Ġtropical": 17064,
    "Ġfirst": 938,
    "ope": 4125,
    "Ġfancies": 10425,
    "Ġairs": 14510,
    "Ġinvolves": 1098,
    "ording": 9764,
    "Ġdeadly": 5405,
    "Ġconsulting": 13425,
    "Ġmutable": 23951,
    "henry": 16624,
    "Ġmol": 12557,
    "dear": 6555,
    "Ġoccupy": 14729,
    "Ġsetbacks": 11064,
    "appear": 13192,
    "Ġarrogance": 26230,
    "Ġsignature": 16492,
    "Ġanno": 9668,
    "Ġmoulton": 17433,
    "Ġerred": 21154,
    "Ġlibrary": 6423,
    "Ġmicroscopic": 26372,
    "Ġhumane": 11881,
    "regret": 16449,
    "Ġunho": 18244,
    "unnecessary": 21876,
    "Ġfavourites": 16643,
    "Ġbeak": 18078,
    "Ġcop": 7579,
    "ulgent": 18148,
    "expectant": 24274,
    "Ġbeneficial": 23928,
    "load": 12878,
    "formed": 2556,
    "eteenth": 20155,
    "ag": 377,
    "angled": 6844,
    "Ġeff": 667,
    "Ġhorse": 4723,
    "Ġpitch": 5767,
    "christ": 10211,
    "narrow": 11508,
    "stump": 21649,
    "Ġinfancy": 10410,
    "Ġkeeps": 8266,
    "bench": 16802,
    "Ġashen": 21895,
    "mother": 5480,
    "================================================================": 9990,
    "expected": 5780,
    "Ġlongest": 18628,
    "âĢĿ": 354,
    "Ġwoll": 21291,
    "queen": 12724,
    "Ġcircumn": 11981,
    "Ġmodular": 12813,
    "cheeked": 19338,
    "thereby": 14445,
    "enance": 3370,
    "Ġheaps": 11641,
    "drown": 13702,
    "Ġrestrained": 16370,
    "Ġexpress": 2191,
    "Ġobjections": 8565,
    "Ġlabel": 14515,
    "hval": 20896,
    "gratitude": 16815,
    "Ġmotive": 6091,
    "Ġjohn": 5032,
    "Ġrepugnant": 26589,
    "Ġexperiments": 23034,
    "gest": 5426,
    "shoulder": 16582,
    "Ġsplit": 7992,
    "Ġaccurately": 3978,
    "hab": 1079,
    "Ġarticle": 9502,
    "Ġscroll": 14190,
    "Ġunmolested": 15243,
    "attacked": 23119,
    "Ġfreshly": 23983,
    "Ġimmovable": 15889,
    "probability": 17021,
    "iers": 5990,
    "Ġheh": 21676,
    "^{": 15302,
    "Ġsakes": 18325,
    "Ġleast": 2064,
    "picture": 11408,
    "scept": 21051,
    "Ġcerem": 7077,
    "Ġtoes": 10830,
    "·": 120,
    "Ġconstantly": 11970,
    "cav": 17506,
    "Ġglorious": 11076,
    "Ġrepressed": 21664,
    "Ġfeminine": 15261,
    "Ġjoky": 18405,
    "eer": 15345,
    "Ġcontinuously": 23204,
    "test": 13790,
    "Ġbottomless": 12103,
    "precious": 12069,
    "Ġhellish": 10551,
    "Ġdistension": 22501,
    "Ġscheme": 7064,
    "Ġplank": 7033,
    "Ġbade": 9172,
    "kilt": 4866,
    "Ġabruptness": 25299,
    "Ġmacey": 12559,
    "ation": 320,
    "Ġnobly": 22237,
    "âĢĶ.âĢĿ": 22251,
    "springs": 24910,
    "Ġmonument": 16234,
    "et": 307,
    "feeling": 6616,
    "cull": 20807,
    "Ġpanther": 16818,
    "Ġappre": 5165,
    "Ġweb": 9240,
    "Ġirreproachable": 24916,
    "Ġdisagree": 22528,
    "avenue": 25056,
    "lady": 4433,
    "Ġheeded": 13399,
    "Ġseat": 4949,
    "Ġtriumphantly": 11288,
    "Ġclo": 6042,
    "Ġviciss": 11293,
    "disgraceful": 26075,
    "Ġdispelling": 23877,
    "Ġstorms": 11263,
    "Ġraptures": 13493,
    "Ġcheat": 19020,
    "Ġtrinity": 22341,
    "Ġgrapp": 14099,
    "arily": 4126,
    "rief": 6202,
    "Ġdecomp": 3811,
    "Ġpretend": 7721,
    "Ġassociations": 14961,
    "Ġinsufferable": 13929,
    "Ġres": 697,
    "angu": 569,
    "Ġconsequent": 18109,
    "Ġgradually": 3400,
    "preserve": 25303,
    "Ġhisself": 21910,
    "will": 1968,
    "favour": 9549,
    "Ġabomination": 22274,
    "Ġwithin": 2162,
    "Ġacceded": 22374,
    "ira": 3958,
    "Ġtravel": 5952,
    "?âĢĿ": 700,
    "Ġfight": 5366,
    "Ġdelayed": 9518,
    "Ġbrains": 2632,
    "Ġsquint": 22834,
    "Ġexpatiate": 18624,
    "protest": 24814,
    "iter": 4391,
    "greater": 13248,
    "Ġsuspense": 9418,
    "rative": 17651,
    "Ġstoutly": 16923,
    "otograph": 5826,
    "Ġconspicuous": 13600,
    "Ġjig": 15948,
    "ceptibly": 22362,
    "gh": 3801,
    "Ġgenerations": 10967,
    "Ġintric": 9247,
    "ility": 624,
    "Ġdeck": 2138,
    "amore": 21839,
    "flood": 19804,
    "Ġzeros": 3324,
    "romang": 22001,
    "shock": 19853,
    "Ġasser": 6257,
    "Ġmoulded": 16974,
    "Ġgraphs": 25463,
    "Ġmounts": 17805,
    "Ġdoze": 14173,
    "Ġnicely": 8709,
    "Ġcompany": 3721,
    "harpoone": 6107,
    "Ġdecline": 9287,
    "gether": 1599,
    "Ġcoffin": 4428,
    "iscuit": 10599,
    "Ġvacantly": 16814,
    "adier": 18088,
    "âĢĻ,": 14068,
    "linearity": 1652,
    "feature": 3915,
    "friends": 8304,
    "Ġ55": 24322,
    "Ġsocially": 22081,
    "Ġfinger": 5273,
    "Ġyer": 15730,
    "Ġbamboo": 17435,
    "retirement": 23135,
    "Ġreject": 7386,
    "odious": 21806,
    "Ġlabors": 23326,
    "box": 5749,
    "Ġfamiliar": 5511,
    "Ġdivert": 23591,
    "Ġspinal": 12299,
    "ħ": 232,
    "Ġderivatives": 2368,
    "latitude": 25259,
    "Ġprosperous": 15168,
    "Ġbeheading": 21750,
    "kindled": 16659,
    "Ġsnarl": 25714,
    "Ġdams": 16455,
    "Ġregion": 2270,
    "pad": 13766,
    "Ġlurking": 11290,
    "imp": 3036,
    "georgiana": 26019,
    "leeward": 15208,
    "symp": 14610,
    "ap": 546,
    "Ġponies": 21472,
    "Ġsummarization": 3647,
    "Ġislands": 6766,
    "Ġfirmest": 16663,
    "Ġale": 9155,
    "Ġsocial": 7006,
    "Ġrachel": 11844,
    "Ġovercame": 9746,
    "Ġpigeon": 9516,
    "caps": 20805,
    "Ġphysiognomically": 25611,
    "Ġsolely": 9910,
    "Ġspecial": 2103,
    "pretty": 10622,
    "rogress": 21532,
    "Ġslime": 23157,
    "iousness": 4899,
    "Ġmagnus": 18956,
    "angles": 18294,
    "iii": 14773,
    "Ġapex": 24341,
    "utting": 17983,
    "Ġconcentric": 20072,
    "unfortunate": 15773,
    "Ġodd": 6624,
    "olet": 13764,
    "Ġwalker": 23309,
    "Ġgreeted": 23210,
    "murmured": 24454,
    "Ġ150": 22822,
    "Ġforlorn": 14013,
    "Ġbrazen": 23836,
    "atched": 6375,
    "Ġmiscell": 16147,
    "perth": 22181,
    "tumultuously": 25612,
    "Ġpiercing": 13490,
    "tumultuous": 20396,
    "Ġris": 4886,
    "Ġhistories": 14686,
    "Ġshadow": 5596,
    "Ġwhistled": 24622,
    "mouthed": 12397,
    "Ġwreck": 7314,
    "Ġnick": 21519,
    "beam": 16035,
    "!âĢĶâĢĻ": 23563,
    "agra": 14064,
    "Ġtransaction": 22435,
    "Ġswe": 2288,
    "Ġexec": 19490,
    "ulled": 14054,
    "oy": 1028,
    "Ġadmin": 23551,
    "nered": 18487,
    "Ġdistributed": 18660,
    "plicable": 10257,
    "Ġswims": 12116,
    "Ġunholy": 26217,
    "Ġpacific": 5153,
    "chari": 21685,
    "Ġturnpike": 23024,
    "dragging": 16608,
    "Ġbohemian": 17132,
    "Ġquestion": 2783,
    "eminent": 25103,
    "Ġdecide": 9286,
    "Ġitself": 2524,
    "Ġpartly": 6713,
    "direction": 17523,
    "ĩ": 234,
    "inc": 2523,
    "serious": 14446,
    "Ġconsecutive": 20700,
    "Ġdiffused": 12065,
    "unwittingly": 25800,
    "surface": 10531,
    "boiling": 19000,
    "awed": 10392,
    ":--": 5784,
    "Ġhaunt": 18196,
    "Ġscenes": 5730,
    "Ġrim": 21961,
    "ict": 591,
    "Ġsomething": 1796,
    "acetti": 13392,
    "blocks": 25517,
    "both": 5785,
    "near": 5842,
    "Ġspit": 22120,
    "Ġrummaged": 16909,
    "Ġcaptive": 14425,
    "Ġbeeches": 9227,
    "bourine": 9396,
    "cring": 20809,
    "Ġdecrease": 4198,
    "inde": 17730,
    "benefact": 24640,
    "onsible": 22557,
    "lect": 1222,
    "Ġcity": 4529,
    "Ġrepairing": 25588,
    "Ġblu": 2689,
    "isis": 12576,
    "summer": 11991,
    "Ġmeanly": 12906,
    "smiled": 16613,
    "Ġsofa": 10270,
    "shad": 10983,
    "calmed": 16203,
    "ghost": 20885,
    "hypothe": 25904,
    "Ġcontemptuous": 24675,
    "jackets": 24894,
    "Ġphilistines": 26081,
    "Ġdesertion": 24786,
    "Ġtantamount": 25624,
    "pointed": 9810,
    "Ġcirculating": 23370,
    "Ġappetite": 12381,
    "Ġrobbery": 11909,
    "otion": 4946,
    "crown": 13696,
    "sur": 4522,
    "impression": 15707,
    "Ġclassify": 1629,
    "Ġtheatre": 21276,
    "Ġadopt": 10632,
    "]]": 5205,
    "Ġrossum": 3017,
    "Ġdecoyed": 18485,
    "originally": 24936,
    "Ġloftiest": 16873,
    "Ġpuff": 6526,
    "leaving": 10792,
    "Ġmonoton": 3637,
    "Ġpanic": 11287,
    "uc": 1877,
    "Ġneedn": 19226,
    "84": 15299,
    "Ġsy": 489,
    "Ġcrystals": 20225,
    "Ġmari": 6813,
    "mus": 10111,
    "Ġbewitched": 25974,
    "Ġfeebly": 24876,
    "=": 33,
    "Ġpursuers": 13221,
    "date": 17516,
    "Ġstudded": 18957,
    "gard": 7339,
    "Ġhabitation": 14801,
    "sunlight": 24850,
    "Ġmuch": 924,
    "ĠâĢľ_": 6696,
    "ascending": 24706,
    "Ġlobes": 22111,
    "warmly": 25025,
    "Ġgarb": 21599,
    "Ġcynical": 25769,
    "Ġeddy": 13119,
    "probably": 10020,
    "Ġfundament": 2929,
    "itioned": 22465,
    "anct": 21355,
    "Ġdynamically": 4034,
    "Ġhurtling": 24956,
    "league": 17843,
    "Ġvestige": 20060,
    "Ġelix": 22645,
    "soc": 5175,
    "isting": 5551,
    "Ġencapsulate": 13672,
    "Ġeyeing": 6460,
    "Ġinflexibly": 26369,
    "Ġissu": 6253,
    "Ġdexterous": 15146,
    "instances": 13315,
    "Ġinfrequent": 3824,
    "Ġdelineations": 26057,
    "itious": 8780,
    "racting": 10349,
    "arent": 4248,
    "expectation": 14854,
    "Ġinns": 17928,
    "Ġstanzas": 21740,
    "abulary": 4799,
    "Ġcounteracted": 19860,
    "always": 5708,
    "Ġobscurely": 20186,
    "together": 3556,
    "Ġviolates": 3163,
    "Ġmanly": 22320,
    "Ġfearfully": 23510,
    "Ġunbending": 25464,
    "Ġcatastrop": 3347,
    "Ġsymph": 22203,
    "riet": 18183,
    "Ġcomfits": 21848,
    "Ġconject": 6026,
    "Ġchar": 1708,
    "Ġeighteenth": 14752,
    "Ġlaughs": 24114,
    "esu": 17917,
    "maged": 15391,
    "brow": 15313,
    "Ġeddies": 23435,
    "equally": 19897,
    "Ġrang": 9245,
    "Ġamazing": 9977,
    "Ġoblong": 14319,
    "Ġexactly": 2773,
    "Ġhierarchical": 1930,
    "Ġcountless": 16380,
    "Ġloosed": 22108,
    ";âĢĿ": 7790,
    "Ġcomposed": 8892,
    "Ġnames": 4532,
    "gish": 20871,
    "Ġcategorization": 12133,
    "Ġwhiting": 10860,
    "Ġscarce": 8622,
    "Ġprivately": 19521,
    "Ġqueens": 16705,
    "Ġrows": 10562,
    "Ġpoised": 22586,
    "seat": 18123,
    "Ġmischief": 8542,
    "Ġextract": 1457,
    "gam": 10096,
    "Ġejaculation": 20252,
    "onder": 3779,
    "ision": 1856,
    "Ġfurnished": 6475,
    "rebell": 17762,
    "Ġneatly": 17015,
    "mushroom": 26394,
    "Ġinfamy": 14501,
    "colonel": 8284,
    "Ġclouds": 5775,
    "Ġindign": 6173,
    "Ġinnocently": 24024,
    "Ġinfluence": 5515,
    "Ġmajor": 13287,
    "alyards": 18779,
    "Ġoppressed": 11190,
    "Ġimpending": 22389,
    "Ġple": 1471,
    "Ġwithdraw": 16963,
    "leaned": 21366,
    "expressing": 16800,
    "Ġexploring": 4304,
    "iates": 13735,
    "Ġmaj": 3928,
    "use": 2537,
    "Ġfaithful": 9503,
    "nesday": 8703,
    "Ġencountering": 11270,
    "Ġpau": 17905,
    "Ġcaptured": 7245,
    "Ġgirdled": 19156,
    "inity": 5693,
    "Ġtending": 17723,
    "unken": 10237,
    "½": 126,
    "pl": 402,
    "fellow": 6792,
    "omy": 6248,
    "Ġdexterity": 25294,
    "Ġhood": 10824,
    "Ġmaking": 1780,
    "spark": 18693,
    "suffer": 24332,
    "Ġthief": 11610,
    "Ġcher": 6129,
    "putting": 14098,
    "Ġresources": 2940,
    "ĠâĢĺ_": 11118,
    "wake": 11546,
    "Ġframed": 19005,
    "Ġglobules": 26587,
    "Ġsenate": 25214,
    "queequeg": 4334,
    "acity": 5735,
    "ibid": 18838,
    "Ġworlds": 11944,
    "crier": 20818,
    "Ġoptimizer": 5035,
    "ohnson": 16323,
    "Ġequal": 4135,
    "intim": 22930,
    "Ġ(": 595,
    "Ġencourages": 2061,
    "Ġsed": 10762,
    "Ġtooth": 9193,
    "Ġinboard": 17931,
    "Ġmurky": 19200,
    "if": 376,
    "cavity": 26125,
    "atement": 17772,
    "hastening": 24447,
    "Ġlewis": 15721,
    "united": 14058,
    "Ġremarks": 7474,
    "Ġhither": 4758,
    "stood": 4116,
    "Ġverse": 16601,
    "Ġgodlike": 23354,
    "Ġreceived": 2954,
    "Ġfilial": 16619,
    "Ġbut": 424,
    "fier": 9594,
    "Ġunclad": 22050,
    "Ġemer": 5958,
    "Ġaskance": 23146,
    "Ġtrustworthy": 24104,
    "arb": 1567,
    "violets": 23541,
    "ructive": 18543,
    "Ġri": 3394,
    "Ġporpoises": 13378,
    "Ġflattered": 10375,
    "took": 6164,
    "Ġmaledictions": 26427,
    "icide": 11618,
    "Ġaft": 5737,
    "nns": 1893,
    "Ġstepped": 7051,
    "Ġs": 265,
    "ogany": 18671,
    "ane": 1177,
    "thing": 1480,
    "voc": 8393,
    "Ġappertain": 22215,
    "Ġimitation": 22167,
    "Ġflea": 23771,
    "rev": 17755,
    "ines": 677,
    "----âĢĻ": 24094,
    "U": 57,
    "become": 14245,
    "Ġswashing": 23052,
    "sighted": 19783,
    "comb": 11039,
    "extra": 8218,
    "semic": 21816,
    "Ġquoin": 22414,
    "Ġacross": 1332,
    "Ġpositive": 2295,
    "Ġthr": 5709,
    "tackle": 17319,
    "Ġcott": 3709,
    "ica": 10199,
    "bert": 4661,
    "Ġfret": 10807,
    "perceive": 12809,
    "Ġharness": 17926,
    "Ġdestination": 19148,
    "mysteries": 26049,
    "Ġidleness": 11145,
    "Ġprecipices": 12274,
    "presumption": 20439,
    "Ġpeels": 22687,
    "Ġcoach": 6867,
    "Ġpsych": 10177,
    "Ġmagician": 25057,
    "omorrah": 18016,
    "Ġswarm": 23050,
    "former": 11746,
    "Ġal": 342,
    "Ġrushes": 20505,
    "Ġunflinching": 26511,
    "Ġbefall": 8829,
    "Ġpersons": 6180,
    "cano": 18837,
    "Ġreference": 2568,
    "Ġgoverning": 2800,
    "rix": 1578,
    "Ġelevating": 19727,
    "collins": 6916,
    "shelf": 20378,
    "Ġwhitened": 24866,
    "Ġperiod": 4005,
    "Ġbite": 10798,
    "Ġsplintered": 11419,
    "Ġcombines": 1166,
    "Ġcrawling": 17044,
    "Ġrueful": 25580,
    "threatened": 25462,
    "ufactured": 15179,
    "Ġsparing": 22125,
    "Ġwrote": 5011,
    "Ġsto": 1500,
    "Ġrides": 21967,
    "Ġingratitude": 17467,
    "later": 20951,
    "Ġovers": 14204,
    "Ġcountries": 13093,
    "Ġattitudes": 16096,
    "Ġimpatience": 7509,
    "Ġminiatures": 20319,
    "ame": 644,
    "Ġzealand": 12347,
    "rubbed": 22180,
    "customary": 25894,
    "Ġsteam": 9353,
    "Ġloun": 7166,
    "Ġplunder": 22601,
    "Ġmiller": 19881,
    "Ġseams": 12121,
    "trunk": 23944,
    "Ġgospel": 17999,
    "eline": 2492,
    "flex": 24842,
    "ashes": 6015,
    "Ġpenal": 1774,
    "Ġinclusive": 24160,
    "Ġregal": 16073,
    "Ġformal": 2945,
    "holder": 13278,
    "Ġglut": 18845,
    "Ġspectre": 16629,
    "Ġ88": 19709,
    "Ġfreemason": 23209,
    "reeling": 21242,
    "penetrate": 20322,
    "establish": 17391,
    "necessity": 13363,
    "fulfil": 16038,
    "Ġsealed": 15812,
    "beholding": 16037,
    "Ġmarked": 4618,
    "Ġadvoc": 12983,
    "Ġforeshad": 23450,
    "Ġnephews": 24712,
    "erably": 7573,
    "belief": 13277,
    "Ġillustrious": 17108,
    "Ġbonds": 17868,
    "oes": 4434,
    "Ġtendinous": 16930,
    "grained": 20881,
    "Ġbiographical": 22764,
    "Ġgrooves": 16740,
    "Ġsudden": 2000,
    "Ġdilig": 8349,
    "Ġafore": 10759,
    "Ġdocument": 15017,
    "Ġchildren": 3768,
    "Ġarter": 22173,
    "velling": 14761,
    "Ġsword": 6732,
    "Ġconstitution": 20106,
    "Ġasleep": 6836,
    "Ġrel": 1095,
    "Ġperman": 10965,
    "Ġlong": 794,
    "Ġrelieve": 8223,
    "instantly": 7506,
    "Ġtrivial": 10143,
    "hospit": 25902,
    "Ġumbrell": 13647,
    "Ġblazing": 11893,
    "Ġentr": 14338,
    "Ġmake": 1287,
    "Ġadieu": 10051,
    "parm": 21012,
    "Ġpenalty": 1842,
    "conv": 7213,
    "giv": 13720,
    "operations": 19972,
    "verbally": 25360,
    "Ġlords": 14640,
    "Ġpropensity": 18996,
    "Ġsheaves": 22154,
    "å": 166,
    "Ġirritated": 17241,
    "Ġresidence": 8206,
    "Ġloafer": 18298,
    "Ġalders": 21780,
    "Ġleaders": 16626,
    "Ġleviathans": 8281,
    "Ġburst": 4379,
    "Ġentreat": 4509,
    "Ġwheelbarrow": 17203,
    "Ġsiamese": 20480,
    "Ġthoughtfully": 12974,
    "Ġgodfre": 14528,
    "however": 4372,
    "Ġunctuousness": 17233,
    "Ġslew": 23380,
    "Ġsubstant": 14807,
    "alleled": 14427,
    "Ġjournal": 15216,
    "ass": 539,
    "Ġburnt": 9928,
    "dinah": 20078,
    "Ġmulti": 1043,
    "Ġshutter": 16669,
    "Ġflesh": 5968,
    "omeness": 18014,
    "Ġslate": 11935,
    "Ġtender": 5753,
    "Ġdriver": 16472,
    "Ġdamning": 19138,
    "ittle": 811,
    "Ġexcepting": 14679,
    "--------": 14779,
    "Ġvess": 3296,
    "ow": 326,
    "ropes": 7902,
    "Ġliv": 6679,
    "Ġtrifle": 10602,
    "Ġsn": 2952,
    "Ġfir": 17876,
    "intern": 23734,
    "fed": 11488,
    "Ġmetropolitan": 17274,
    "bunger": 20399,
    "Ġschedule": 2369,
    "Ġwarehouse": 20414,
    "Ġtortoise": 16907,
    "Ġyawn": 7609,
    "Ġours": 4611,
    "shame": 16022,
    "neighbours": 24880,
    "tremble": 17140,
    "eted": 7591,
    "Ġput": 1799,
    "mason": 17602,
    "Ġprovide": 7749,
    "Ġdiminishing": 4207,
    "Ġprefers": 20511,
    "Ġbadly": 12128,
    "Ġnational": 13940,
    "Ġstruck": 3388,
    "abby": 14019,
    "Ġir": 1993,
    "Ġacutely": 14312,
    "Ġblanc": 11066,
    "Ġominous": 12421,
    "Ġdaunt": 19662,
    "Ġcontrols": 1736,
    "trained": 4238,
    "©": 107,
    "Ġcheerfulness": 10517,
    "Ġbambooz": 26118,
    "Ġdistinction": 8886,
    "rist": 10123,
    "Ġpersonified": 19176,
    "simon": 16972,
    "Ġwindibank": 7257,
    "Ġextraction": 11255,
    "hic": 3249,
    "Ġencirc": 18731,
    "brown": 15315,
    "Ġcas": 8410,
    "Ġcasual": 11410,
    "Ġpassions": 7929,
    "eringly": 22994,
    "independ": 15978,
    "Ġfluctu": 5267,
    "Ġaught": 8773,
    "Ġwooing": 19431,
    "apothe": 22330,
    "Ġcompetent": 11814,
    "Ġaccounts": 7207,
    "uing": 17692,
    "aming": 5828,
    "Ġempire": 11146,
    "Ġstruggled": 9905,
    "harpoons": 24284,
    "aved": 5475,
    "Ġpersecutor": 26095,
    "Ġjungfrau": 15246,
    "Ġdundee": 16996,
    "scene": 14415,
    "distinguish": 19570,
    "asher": 15642,
    "legra": 10790,
    "Ġdaughter": 2872,
    "comra": 16169,
    "Ġstrewed": 23419,
    "banish": 20780,
    "omited": 21637,
    "res": 2762,
    "Ġaccompany": 9487,
    "Ġmap": 2390,
    "Ġadvertisement": 6941,
    "Ġdexterously": 25295,
    "Ġneural": 621,
    "Ġpoetical": 25055,
    "Ġbagging": 24538,
    "Ġneurons": 978,
    "Ġobsequ": 14318,
    "Ġparadise": 11195,
    "ó": 180,
    "ertion": 12036,
    "invite": 25087,
    "Ġplaced": 3445,
    "Ġsorting": 3234,
    "Ġmeadows": 11423,
    "Ġstraps": 19307,
    "Ġcolog": 12567,
    "Ġexact": 2544,
    "Ġcand": 3277,
    "Ġretreats": 16927,
    "Ġdecoding": 3082,
    "Ġthree": 1370,
    "Ġimmut": 13293,
    "Ġperf": 12845,
    "Ġjenny": 20160,
    "87": 20755,
    "Ġdeposit": 17267,
    "ni": 1542,
    "<UNK>": 3,
    "threshold": 21983,
    "rapt": 13971,
    "Ġcompliments": 8633,
    "assistant": 25567,
    "bishop": 13692,
    "Ġpreparations": 12307,
    "Ġfriesland": 26441,
    "Ġadmirer": 16837,
    "irting": 11684,
    "Ġaffectionately": 13164,
    "Ġapiece": 16812,
    "Ġelij": 8909,
    "Ġsubterraneous": 20263,
    "Ġgovernor": 16488,
    "main": 8087,
    "ides": 2160,
    "embarrassed": 20594,
    "ensing": 12893,
    "mag": 6508,
    "ention": 865,
    "Ġhebrew": 13986,
    "Ġimpediments": 26239,
    "Ġcommercial": 22670,
    "Ġgaunt": 11269,
    "Ġstarts": 16581,
    "Ġinestimable": 17440,
    "Ġaper": 17742,
    "trees": 10732,
    "Ġnodes": 1967,
    "Ġthroughout": 8877,
    "ular": 716,
    "Ġyards": 5371,
    "Ġdaugh": 2291,
    "barn": 17481,
    "insufferable": 21190,
    "Ġenvelope": 7319,
    "Ġlounged": 19951,
    "Ġconjunction": 25099,
    "ater": 3369,
    "Ġsound": 2239,
    "mbles": 23085,
    "Ġtwelvemonth": 12174,
    "manifested": 20523,
    "Ġconsternation": 9859,
    "Ġburden": 8608,
    "protected": 19919,
    "perquisites": 26530,
    "Ġterrier": 23396,
    "wooden": 24586,
    "Ġdefici": 22939,
    "musical": 25340,
    "complaisance": 24810,
    "Ġpreface": 18366,
    "Ġloitered": 26524,
    "daggoo": 13705,
    "Ġbaggy": 24537,
    "fore": 686,
    "heav": 5694,
    "Ġcontributes": 15248,
    "Ġsher": 3763,
    "Ġcurv": 3512,
    "Ġhedge": 8363,
    "Ġmature": 17798,
    "Ġrallied": 14093,
    "Ġjackal": 24238,
    "Ġwid": 4631,
    "earliest": 20117,
    "Ġweapons": 10594,
    "Ġhercules": 14126,
    "sleet": 20147,
    "ivering": 7697,
    "asy": 5294,
    "Ġobligations": 12088,
    "powerful": 24846,
    "Ġmortified": 14693,
    "Ġwelcomed": 9482,
    "ce": 313,
    "impossible": 8824,
    "Ġoutside": 5554,
    "henomen": 10495,
    "killed": 15374,
    "Ġrepresent": 1210,
    "Ġinherit": 25352,
    "Ġpreternatural": 12820,
    "pop": 17630,
    "Ġsleek": 23381,
    "gus": 13723,
    "Ġrevisit": 21666,
    "turner": 19539,
    "Ġcreases": 22723,
    "Ġspot": 4154,
    "nades": 20995,
    "Ġwheel": 9718,
    "Ġmidnight": 5265,
    "Ġbosom": 6939,
    "Ġcalamity": 17347,
    "Ġsulphur": 24932,
    "Ġbrougham": 17869,
    "Ġresembling": 4097,
    "Ġhang": 9188,
    "separately": 25227,
    "Ġdeveloped": 16337,
    "throne": 25656,
    "perch": 18341,
    "Ġknelt": 12155,
    "clergyman": 20727,
    "porary": 14551,
    "Ġcommand": 3321,
    "Ġacknowled": 6350,
    "Ġbenevol": 5961,
    "Ġalter": 6542,
    "Ġmarrying": 6177,
    "Ġrole": 15994,
    "treated": 21092,
    "Ġyounge": 16285,
    "Ġdon": 1616,
    "client": 18930,
    "ù": 186,
    "Ġbark": 10799,
    "Ġleap": 5824,
    "Ġsensitive": 13193,
    "Ġsoda": 25534,
    "steady": 14707,
    "Ġformed": 3885,
    "usoid": 4766,
    "ousand": 2428,
    "thes": 7391,
    "Ġburned": 8631,
    "50": 6784,
    "Ġextraordinary": 5415,
    "uary": 11538,
    "Ġrejected": 12291,
    "text": 1973,
    "Ġbennets": 9806,
    "Ġwondered": 11126,
    "Ġcoarse": 14272,
    "Ġpots": 9428,
    "gd": 3124,
    "Ġimmediate": 6089,
    "Ġpul": 2041,
    "Ġmood": 6276,
    "Ġrenewed": 9538,
    "Ġrich": 2998,
    "Ġslam": 13052,
    "rods": 21534,
    "imperturbable": 25789,
    "unfearing": 21888,
    "Ġgrows": 4985,
    "repid": 11565,
    "Ġalb": 14014,
    "Ġspeakest": 23485,
    "Ġlongbourn": 3509,
    "arthy": 4821,
    "Ġbankrupt": 16795,
    "Ġken": 22187,
    "sir": 5001,
    "Ġchis": 11748,
    "Ġconfusing": 23306,
    "ss": 397,
    "Ġcad": 12564,
    "Ġcrescent": 16133,
    "Ġbuckskin": 19949,
    "Ġstretching": 10015,
    "hereafter": 19214,
    "gladness": 25194,
    "ogra": 4572,
    "Ġvaults": 17152,
    "Ġmarling": 23029,
    "Ġsquaw": 22835,
    "Ġgoverness": 8602,
    "Ġtinged": 20080,
    "Ġbehooves": 20731,
    "ross": 807,
    "garious": 17557,
    "inkles": 7426,
    "Ġsite": 17752,
    "Ġability": 2768,
    "Ġunimag": 12772,
    "inspect": 11559,
    "Ġisolation": 17149,
    "augment": 18827,
    "stache": 15686,
    "Ġspots": 11727,
    "oriented": 2950,
    "art": 586,
    "Ġskip": 1846,
    "bitious": 16668,
    "Ġintruder": 25990,
    "Ġbarbed": 14833,
    "Ġmeta": 3329,
    "Ġhandsom": 11125,
    "Ġtoss": 10185,
    "Ġegot": 18006,
    "bow": 5424,
    "Ġpurposes": 11169,
    "Ġapothe": 12372,
    "arboard": 7266,
    "Ġoverhung": 15971,
    "Ġspaniards": 25555,
    "Ġangry": 5498,
    "Ġdispersed": 16596,
    "sam": 21049,
    "Ġintermission": 18586,
    "anoke": 21358,
    "Ġbrighter": 16185,
    "oir": 21000,
    "visitor": 15056,
    "Ġnamely": 20687,
    "ĠâĢĶâĢĶ": 25756,
    "Ġost": 9650,
    "Ġimpute": 18332,
    "manned": 18762,
    "Ġbrides": 22864,
    "Ġexasperated": 11413,
    "),": 1347,
    "Ġsplash": 16547,
    "sorts": 21058,
    "Ġarom": 15490,
    "causing": 25518,
    "numerous": 17429,
    "Ġwindsor": 16886,
    "ucumber": 19057,
    "Ġfoolishly": 19780,
    "Ġtimor": 24223,
    "altering": 12637,
    "Ġdissipate": 13630,
    "robust": 19726,
    "Ġexhibition": 14955,
    "Ġwolfish": 25934,
    "Ġchanced": 8186,
    "foot": 9047,
    "Ġshare": 1662,
    "Ġrifts": 21971,
    "runs": 25415,
    "Ġperch": 10297,
    "Ġobliquely": 12359,
    "haut": 20900,
    "Ġcusack": 26432,
    "secut": 7866,
    "Ġvariance": 1165,
    "announce": 24559,
    "Ġstatistics": 1687,
    "vult": 21111,
    "Ġstars": 6149,
    "Ġforging": 18092,
    "presume": 25669,
    "Ġoverpowered": 15286,
    "hold": 3983,
    "ize": 758,
    "Ġpavement": 9578,
    "ceed": 1077,
    "Ġhardships": 14449,
    "Ġsepar": 4001,
    "anely": 17835,
    "phant": 6287,
    "Ġcondesc": 7181,
    "Ġenergetic": 15195,
    "Ġvisibly": 22861,
    "beds": 16585,
    "oric": 21393,
    "Ġswart": 14432,
    "ignity": 4373,
    "Ġtenderly": 11315,
    "Ġpremature": 3725,
    "Ġingenious": 12345,
    "Ġsoil": 9255,
    "Ġplatform": 17130,
    "Ġrem": 957,
    "Ġmoluccas": 25628,
    "Ġillness": 8590,
    "Ġsuffered": 5649,
    "oftener": 23961,
    "Ġjunks": 25112,
    "Ġgouldings": 26186,
    "critters": 14782,
    "Ġwinding": 8235,
    "Ġbund": 17862,
    "Ġwatchman": 23667,
    "dischar": 19150,
    "Ġcordiality": 24394,
    "pan": 10717,
    "Ġinflamed": 13469,
    "Ġsickly": 16773,
    "ity": 417,
    "Ġaccumulated": 11928,
    "alog": 8805,
    "buffalo": 20561,
    "smoke": 17221,
    "ios": 2389,
    "icken": 6711,
    "Ġrealising": 18982,
    "Ġbubb": 12581,
    "Ġrepul": 16407,
    "rep": 5525,
    "Ġparcels": 25465,
    "ody": 1479,
    "endless": 22220,
    "weigh": 18664,
    "Ġpaste": 23416,
    "wandered": 20283,
    "preference": 22449,
    "Ġtopmost": 14586,
    "Ġband": 5290,
    "Ġsteer": 10387,
    "Ġnarrating": 24350,
    "bos": 17482,
    "Ġ48": 24078,
    "inative": 15482,
    "Ġmasterly": 23990,
    "australian": 20559,
    "Ġcling": 11769,
    "idly": 12697,
    "Ġedinburgh": 16434,
    "weep": 22680,
    "alone": 10184,
    "Ġsalutation": 12394,
    "mist": 5686,
    "ere": 6789,
    "Ġomen": 11576,
    "Ġcharacteristic": 12045,
    "Ġaffairs": 6877,
    "hs": 8377,
    "ching": 5156,
    "pond": 21011,
    "Ġdiligently": 11406,
    "Ġsignals": 10586,
    "Ġpositional": 2598,
    "Ġdiscuss": 9474,
    "20": 20751,
    "moral": 14800,
    "Ġsnar": 13194,
    "Ġadmirable": 8268,
    "Ġsavory": 23873,
    "Ġsurve": 9874,
    "Ġhaw": 10252,
    "Ġoaks": 16932,
    "Ġprofund": 13149,
    "Ġtouches": 20568,
    "generous": 16566,
    "Ġoutlines": 15954,
    "Ġslacked": 25188,
    "Ġeast": 5370,
    "gaff": 20880,
    "Ġarchangel": 8543,
    "Ġdisappearing": 22529,
    "Ġminim": 1326,
    "Ġblindly": 12106,
    "Ġsized": 11563,
    "magnet": 14968,
    "rabb": 15676,
    "Ġsatire": 22898,
    "Ġliberality": 24376,
    "ell": 398,
    "oubtedly": 6943,
    "_:": 17477,
    "herald": 22201,
    "Ġdrawers": 12102,
    "representation": 20194,
    "Ġunwilling": 7885,
    "anations": 12573,
    "ev": 6952,
    "Ġreckon": 19868,
    "Ġelemental": 19917,
    "Ġher": 427,
    "Ġenabling": 1081,
    "inople": 13827,
    "Ġnoiselessly": 22862,
    "luent": 15993,
    "striving": 24668,
    "masterly": 24529,
    "abhorred": 17334,
    "finished": 10555,
    "Ġharpoone": 2913,
    "mort": 10711,
    "precision": 4331,
    "preced": 10306,
    "Ġrighted": 23175,
    "explain": 1481,
    "repro": 10771,
    "Ġgrecian": 26295,
    "sal": 8758,
    "Ġleave": 2458,
    "Ġanger": 5442,
    "Ġposition": 1955,
    "Ġcovering": 13252,
    "Ġrichness": 19308,
    "capitals": 25079,
    "anned": 17838,
    "Ġadopted": 15176,
    "names": 16525,
    "Ġweek": 2830,
    "Ġpredecessor": 26252,
    "Ġmeanwhile": 5736,
    "Ġtrial": 6634,
    "prints": 23809,
    "Ġreverend": 15257,
    "Ġenticements": 26033,
    "Ġquito": 24407,
    "purse": 20022,
    "bird": 9586,
    "evil": 11486,
    "Ġfinish": 7948,
    "Ġcognitive": 13631,
    "Ġinvective": 26180,
    "isite": 15559,
    "married": 9949,
    "Ġgentlemen": 3643,
    "Ġenlarge": 21931,
    "richard": 17285,
    "behind": 6779,
    "Ġbounded": 16625,
    "Ġwarmer": 19183,
    "us": 532,
    "Ġflashes": 11913,
    "!)": 10069,
    "Ġhoarsely": 26301,
    "Ġwrites": 23195,
    "Ġinferred": 14500,
    "ilogue": 21720,
    "Ġgentleman": 3043,
    "inside": 23061,
    "ented": 4348,
    "Ġloveliest": 20259,
    "Ġowner": 8922,
    "holloa": 19461,
    "ondon": 2709,
    "Ġobserved": 3541,
    "Ġconcluding": 9857,
    "clinging": 20820,
    "eric": 3470,
    "Ġride": 12755,
    "Ġconven": 6151,
    "ression": 3404,
    "securing": 19811,
    "Ġiron": 3235,
    "Ġroanoke": 22403,
    "Ġwhole": 1668,
    "Ġclamped": 18425,
    "Ġdeeds": 15755,
    "despatched": 19799,
    "culiarity": 11143,
    "Ġgratitude": 5599,
    "postp": 24633,
    "la": 10706,
    "Ġbrig": 11048,
    "mansion": 20981,
    "Ġrumpled": 24599,
    "Ġnext": 2139,
    "Ġpromptly": 23814,
    "Ġfiftieth": 24702,
    "Ġnotice": 4542,
    "lacings": 26133,
    "Ġflann": 23010,
    "Ġradiant": 16808,
    "Ġcritical": 7475,
    "Ġsample": 3176,
    "Ġinspired": 2521,
    "Ġceasing": 23755,
    "Ġresponsible": 9886,
    "Ġvenetian": 14845,
    "mot": 17595,
    "Ġsurp": 9635,
    "captain": 3954,
    "Ġinsertion": 26342,
    "Ġbore": 5079,
    "Ġliveliest": 24774,
    "screen": 22985,
    "Ġactivation": 919,
    "ieties": 19024,
    "Ġcategor": 4139,
    "Ġembellished": 25849,
    "akness": 14193,
    "Ġcrusad": 23704,
    "beautiful": 10649,
    "ogene": 18670,
    "itten": 3442,
    "Ġimprecations": 25820,
    "Ġsucceeding": 16760,
    "Ġfugitive": 17325,
    "Ġformer": 3322,
    "Ġvocabulary": 4995,
    "luded": 4226,
    "Ġobservable": 25126,
    "atic": 4018,
    "Ġderision": 16307,
    "Ġfaults": 12209,
    "Ġentic": 16142,
    "Ġpacifics": 24372,
    "eray": 21264,
    "Ġvindication": 25364,
    "Ġscor": 8189,
    "allowed": 5728,
    "Ġpresently": 5116,
    "Ġletter": 2194,
    "abond": 15737,
    "relations": 14731,
    "Ġstopped": 5956,
    "Ġstriking": 6088,
    "pping": 1424,
    "Ġdebated": 9041,
    "Ġpreserved": 9262,
    "Ġclimbing": 20067,
    "Ġdetest": 8500,
    "Ġsubstituting": 26325,
    "rising": 7557,
    "Ġunfulfilled": 26508,
    "Ġmouthfuls": 20644,
    "Ġmarred": 23027,
    "agreeable": 5829,
    "Ġcoal": 18590,
    "Ġharrow": 17924,
    "Ġwink": 11569,
    "Ġug": 8140,
    "Ġwickedness": 9526,
    "dil": 11479,
    "lig": 3171,
    "place": 4153,
    "Ġaccident": 5380,
    "Ġexploded": 15906,
    "Ġbreast": 8969,
    "arched": 10816,
    "Ġswiss": 18880,
    "lord": 3864,
    "Ġpeeped": 10012,
    "Ġvap": 6837,
    "Ġvehemently": 26038,
    "Ġuntimely": 16465,
    "ores": 2412,
    "Ġrobes": 16243,
    "ĠâĢľâĢĶ": 9734,
    "Ġapprehensiveness": 16876,
    "gre": 5788,
    "cries": 17509,
    "fel": 8734,
    "knife": 6942,
    "Ġpeterson": 9483,
    "Ġensure": 23686,
    "Ġvectors": 1772,
    "Ġvile": 8472,
    "Ġtouched": 6000,
    "Ġgradients": 611,
    "Ġascend": 9960,
    "Ġsorely": 17255,
    "Ġdeputation": 21836,
    "Ġgloves": 8575,
    "Ġinsignific": 13176,
    "Ġproceeds": 12074,
    "Ġilluminate": 17191,
    "Ġagony": 5388,
    "Ġpon": 10176,
    "Ġsutherland": 10149,
    "Ġaffronted": 22889,
    "Ġwashington": 17201,
    "preading": 18490,
    "Ġnapkins": 25161,
    "garet": 9598,
    "Ġmarch": 4081,
    "Ġsizes": 1520,
    "Ġskiff": 16161,
    "labour": 23911,
    "Ġinquiry": 6484,
    "god": 4863,
    "alter": 10827,
    "Ġnavel": 24575,
    "Ă": 195,
    "Ġwhile": 606,
    "Ġcushion": 17832,
    "Ġamber": 7026,
    "Ġtoiling": 15631,
    "Ġbon": 8786,
    "Ġcreditors": 20127,
    "Ġcompared": 2225,
    "jee": 17578,
    "Ġsuccessive": 10501,
    "according": 12025,
    "Ġstabilizing": 3657,
    "look": 2258,
    "Ġcorrect": 2431,
    "pistol": 17641,
    "Ġlabels": 3288,
    "ime": 625,
    "Ġcoppers": 22579,
    "aloes": 21498,
    "Ġbloss": 19253,
    "Ġpolynesian": 26025,
    "Ġwipe": 25763,
    "Ġexamining": 8005,
    "parsee": 14511,
    "immortal": 21706,
    "Ġmists": 14629,
    "ignomin": 23264,
    "Ġfog": 9662,
    "Ġdrama": 16326,
    "Ġpainted": 7978,
    "ivation": 3110,
    "motion": 17605,
    "principle": 10651,
    "lucases": 20208,
    "ckles": 22085,
    "Ġtipt": 21171,
    "atter": 649,
    "Ġcondescension": 10619,
    "affections": 17355,
    "storied": 18023,
    "Ġtempor": 2364,
    "Ġcompanions": 5865,
    "Ġinvented": 17036,
    "Ġaltering": 18101,
    "este": 15918,
    "india": 22367,
    "intellect": 18820,
    "Ġsuspended": 5665,
    "Ġnaval": 16898,
    "Ġpsalmody": 20582,
    "Ġshrew": 21996,
    "Ġsimpl": 1584,
    "except": 5383,
    "lessly": 4555,
    "Ġcardboard": 19976,
    "Ġconfided": 19038,
    "shrugged": 22458,
    "Ġfeat": 10938,
    "Ġop": 2603,
    "iest": 4037,
    "Ġsteeply": 23721,
    "Ġsunda": 13540,
    "mish": 17597,
    "Ġdescend": 7427,
    "Ġdistingu": 2517,
    "Ġconfid": 7686,
    "Ġcommons": 22668,
    "Ġslavish": 23169,
    "Ġcharity": 8863,
    "stoke": 18021,
    "Ġstanding": 3003,
    "Ġphantom": 8707,
    "ures": 838,
    "Ġcase": 1942,
    "arius": 14247,
    "clusion": 16303,
    "arrant": 10475,
    "Ġcoloss": 11047,
    "Ġfollowed": 1794,
    "dramatic": 19382,
    "Ġinconstant": 21492,
    "Ġoccupied": 5272,
    "Ġindifference": 6725,
    "performances": 26005,
    "Ġkiller": 19566,
    "ð": 177,
    "Ġdus": 8422,
    "Ġunexpected": 6841,
    "Ġl": 303,
    "Ġimposed": 14218,
    "Ġlearnedly": 23383,
    "agation": 1212,
    "Ġoaths": 13520,
    "Ġquivering": 12855,
    "Ġnarration": 13500,
    "Ġbountiful": 25943,
    "Ġbuoy": 8003,
    "Ġconsiderable": 4008,
    "Ġindisp": 18832,
    "Ġtables": 9878,
    "Ġsamuel": 10033,
    "Ġrecom": 4554,
    "Ġfootman": 8287,
    "pled": 7891,
    "Ġhurriedly": 11251,
    "Ġservant": 5764,
    "bus": 5354,
    "Ġtormenting": 15102,
    "Ġproof": 6153,
    "Ġcheery": 16365,
    "Ġcaucus": 17378,
    "several": 5544,
    "idable": 8145,
    "Ġfounded": 8557,
    "Ġnose": 4402,
    "Ġswept": 7977,
    "Ġassociated": 12246,
    "jammed": 25905,
    "Ġbriefly": 11368,
    "omitted": 18015,
    "Ġfrenz": 25446,
    "Ġpaddock": 25036,
    "wish": 8099,
    "Ġspatial": 2732,
    "list": 7551,
    "accomplishments": 25326,
    "Ġfellows": 8256,
    "Ġjost": 23631,
    "Ġtottenham": 24139,
    "Ġcoll": 8220,
    "Ġsoon": 1227,
    "Ġoftentimes": 20153,
    "itation": 1781,
    "Ġmyself": 1455,
    "follow": 5680,
    "Ġhertfordshire": 5377,
    "resolution": 17765,
    "com": 997,
    "Ġdictating": 20150,
    "kindred": 24045,
    "89": 20757,
    "Ġmusic": 5268,
    "Ġoblique": 20167,
    "Ġrelied": 16192,
    "Ġseek": 4508,
    "Ġagonising": 25373,
    "Ġceti": 24772,
    "Ġrestrict": 16371,
    "Ġoutlandish": 12835,
    "Ġevening": 2654,
    "uteronomy": 15660,
    "Ġginger": 9211,
    "wam": 10136,
    "Ġberkshire": 16883,
    "bec": 4053,
    "esc": 617,
    "belonged": 25596,
    "ctors": 21586,
    "recurrent": 4994,
    "apside": 22956,
    "starbuck": 6018,
    "Ġed": 2143,
    "Ġsuite": 18279,
    "Ġtre": 2538,
    "helm": 12168,
    "etting": 21576,
    "Ġaccording": 5508,
    "Ġsuspects": 16889,
    "hounds": 20905,
    "Ġglobular": 19012,
    "Ġdiscredit": 22778,
    "Ġfierce": 7437,
    "pleasing": 14740,
    "Ġassent": 12730,
    "Ġmargin": 11917,
    "ogue": 9782,
    "Ġjackson": 24239,
    "collected": 13209,
    "isturbed": 18296,
    "prev": 12864,
    "ac": 741,
    "arctic": 12607,
    "Ġutter": 3975,
    "Ġpants": 21461,
    "Ġendeavors": 16544,
    "Ġbreach": 11971,
    "Ġevolve": 3006,
    "Ġpunctually": 17137,
    "compliments": 24809,
    "epend": 3314,
    "Ġoy": 15542,
    "Ġsli": 4747,
    "Ġo": 275,
    "Ċ": 203,
    "Ġgrimesby": 11458,
    "slept": 17168,
    "roar": 17951,
    "Ġcountenance": 3971,
    "hen": 3518,
    "Ġoccurs": 1859,
    "Ġundulated": 19514,
    "Ġungracious": 18257,
    "meet": 11852,
    "Ġintent": 6409,
    "Ġuncommon": 5026,
    "Ġcontact": 9281,
    "inquir": 9536,
    "Ġassumed": 9466,
    "Ġalacrity": 15733,
    "Ġmutually": 23953,
    "Ġpattern": 1300,
    "Ġuse": 830,
    "Ġrace": 5847,
    "contracting": 19291,
    "Ġmillion": 14985,
    "Ġengagements": 9978,
    "seventh": 12711,
    "Ġmitigating": 1621,
    "exact": 7909,
    "Ġeluc": 16106,
    "Ġsticks": 14929,
    "Ġcontains": 2798,
    "rices": 4558,
    "Ġassembl": 20058,
    "division": 20046,
    "Ġblades": 11892,
    "sleepers": 24729,
    "hib": 15365,
    "madness": 14880,
    "Ġnin": 10188,
    "les": 1016,
    "max": 1689,
    "bo": 1694,
    "squee": 15428,
    "ĠĠĠĠĠĠĠĠĠĠĠĠĠĠĠĠĠĠĠĠĠĠĠĠĠĠĠĠ": 9975,
    "Ġtrous": 10957,
    "Ġsimilarity": 3166,
    "Ġapologize": 15126,
    "Ġabsence": 4894,
    "Ġguineas": 16269,
    "gang": 17552,
    "lotts": 23822,
    "az": 2179,
    "Ġcarve": 23089,
    "gathered": 13730,
    "Ġshapeless": 24523,
    "Ġaffliction": 25843,
    "Ġ26": 10471,
    "confess": 12172,
    "story": 9213,
    "Ġsally": 15500,
    "Ġcrevice": 22725,
    "Ġlaughing": 5338,
    "stee": 21647,
    "Ġbeck": 14007,
    "Ġoverhear": 15972,
    "sank": 17661,
    "oid": 3126,
    "mark": 5281,
    "**": 4684,
    "Ġinterested": 6458,
    "Ġwalking": 4323,
    "dawson": 26127,
    "Ġberyls": 25774,
    "Ġcongreg": 8462,
    "mped": 16646,
    "Ġpebbles": 16126,
    "Ġmincing": 18750,
    "Ġfamine": 16325,
    "examination": 25478,
    "Ġrefrain": 12938,
    "Ġdented": 17890,
    "Ġhumor": 11053,
    "boscombe": 26120,
    "Ġguided": 10462,
    "squall": 13518,
    "social": 11024,
    "Ġreptile": 15275,
    "insupportable": 21191,
    "Ġsnorting": 23739,
    "_.âĢĿ": 5885,
    "Ġfolly": 7940,
    "Ġbronze": 22866,
    "icha": 11736,
    "match": 15388,
    "foolish": 12344,
    "Ġflexible": 23773,
    "Ġunfathomably": 25872,
    "Ġeag": 2972,
    "Ġriveted": 13615,
    "Ġresp": 2497,
    "Ġsecuring": 11989,
    "arted": 2199,
    "Ġshadows": 8012,
    "gaze": 17556,
    "Ġpron": 6451,
    "reckoning": 25270,
    "Ġpand": 21451,
    "covery": 11172,
    "Ġcoronation": 13329,
    "Ġyawned": 15050,
    "Ġmixed": 6974,
    "pon": 17624,
    "old": 798,
    "Ġrecogn": 2639,
    "Ġeffort": 8201,
    "Ġsharkish": 24505,
    "Ġvertically": 19377,
    "iously": 2679,
    "ught": 2754,
    "Ġdecks": 6900,
    "impud": 23758,
    "icuous": 10836,
    "Ġaffording": 14819,
    "Ġlanguages": 1572,
    "Ġsordid": 26421,
    "Ġlashes": 17965,
    "Ġapplications": 4782,
    "viii": 12018,
    "Ġdramatic": 4849,
    "Ġling": 7377,
    "Ġblended": 16216,
    "R": 54,
    "itous": 13865,
    "honorable": 19899,
    "gainst": 25141,
    "Ġprodu": 1204,
    "arab": 21438,
    "ubbub": 23240,
    "Ġcucumber": 21353,
    "fishers": 24927,
    "Ġdecisions": 6702,
    "Ġdividing": 12108,
    "_âĢĶ": 11468,
    "eler": 1576,
    "Ġvillains": 14747,
    "chest": 11209,
    "Ġdecl": 3589,
    "philosophy": 13577,
    "rals": 21040,
    "Ġreiter": 21662,
    "Ġintermix": 22573,
    "Ġcome": 1243,
    "Ġbene": 2032,
    "Ġinfallibly": 10041,
    "Ġdistinguishing": 16495,
    "exp": 2739,
    "Ġcontain": 1553,
    "rop": 538,
    "Ġsedentary": 25430,
    "rusion": 11324,
    "minutely": 19591,
    "ggy": 13109,
    "Ġwails": 21294,
    "Ġperforms": 11874,
    "Ġbizarre": 17870,
    "âĢľâĢĶ": 10873,
    "Ġunconcerned": 20507,
    "Ġfict": 21402,
    "Ġrepeated": 3831,
    "Ġell": 17714,
    "Ġcomplacency": 19445,
    "Ġtransc": 12861,
    "absence": 12705,
    "hedge": 22495,
    "Ġprovincial": 20648,
    "Ġresol": 2667,
    "Ġoftener": 13562,
    "adequate": 15201,
    "Ġbaleful": 24981,
    "ructure": 763,
    "tailed": 17684,
    "Ġdarkened": 16430,
    "Ġrecommend": 7102,
    "Ġsuperst": 7703,
    "Ġarticulated": 24432,
    "streamed": 25965,
    "inced": 3336,
    "Ġundiscovered": 18251,
    "twelvemonth": 25861,
    "Ġclapham": 17264,
    "Ġneedles": 11185,
    "Ġlengths": 19204,
    "Ġremarked": 3696,
    "Ġdiscover": 4716,
    "improve": 15708,
    "Ġf": 283,
    "Ġbelie": 14404,
    "Ġirr": 10422,
    "hent": 12530,
    "extrem": 18702,
    "keep": 3850,
    "ause": 1314,
    "Ġcrater": 16437,
    "Ġdarting": 7756,
    "Ġstiffly": 15004,
    "Ġes": 8769,
    "Ġassault": 9837,
    "Ġcanallers": 13624,
    "ential": 827,
    "by": 1156,
    "Ġactual": 3737,
    "sailed": 17665,
    "garnished": 26387,
    "Ġfurled": 22808,
    "dred": 2529,
    "Ġdistricts": 20261,
    "Ġbequest": 21749,
    "brain": 13685,
    "Ġhorn": 6185,
    "even": 3837,
    "Ġgordon": 26466,
    "Ġimpression": 5732,
    "Ġprecise": 7075,
    "ach": 435,
    "ĠĠĠĠĠĠĠĠĠĠĠĠĠĠĠĠ": 1219,
    "Ġweeps": 24946,
    "Ġcoarsely": 25827,
    "Ġanon": 9667,
    "ribut": 815,
    "lamp": 9609,
    "Ġcarefully": 6304,
    "Ġkilled": 4955,
    "regards": 23464,
    "Ġpreservative": 24628,
    "Ġsupercil": 23452,
    "rodu": 1820,
    "Ġyarn": 10869,
    "Ġvehement": 16199,
    "oman": 2018,
    "Ġdesiring": 14410,
    "Ġcorpus": 13026,
    "Ġsubject": 2465,
    "holding": 7738,
    "Ġunch": 18238,
    "Ġincumbent": 16059,
    "Ġextra": 4091,
    "supposed": 13311,
    "Ġgemini": 26468,
    "dying": 10695,
    "Ġnoiseless": 10358,
    "Ġmodels": 761,
    "Ġmoth": 17801,
    "Ġsustenance": 19931,
    "Ġmedic": 11248,
    "ouncing": 8494,
    "Ġtaste": 5524,
    "Ġhoist": 11974,
    "confused": 19642,
    "quer": 11678,
    "Ġjud": 3357,
    "Ġterminating": 23509,
    "Ġenvy": 13206,
    "deemed": 18314,
    "Ġscener": 10950,
    "cturn": 17985,
    "Ġringleader": 26211,
    "Ġ12": 5483,
    "Ġdownright": 16115,
    "itchen": 7787,
    "'m": 9583,
    "Ġund": 4119,
    "otions": 7180,
    "Ġface": 1725,
    "Ġtwelve": 4963,
    "sensations": 20048,
    "Ġcaptains": 7457,
    "Ġideal": 13116,
    "Ġsubstance": 5510,
    "onel": 3090,
    "Ġvindictiveness": 25737,
    "Ġsanguine": 25927,
    "Ġchained": 16385,
    "Ġtribe": 10752,
    "Ġinfatuated": 20531,
    "Ġadmirers": 19684,
    "inioned": 19284,
    "Ġfalse": 4343,
    "irr": 12734,
    "Ġsummers": 23870,
    "Ġcircumnav": 12423,
    "Ġfuneral": 10283,
    "Ġelegant": 7532,
    "prehend": 14234,
    "Ġaggregate": 25676,
    "Ġexpands": 25237,
    "floor": 14934,
    "pockets": 16209,
    "Ġbumping": 25280,
    "Ġscoresby": 10463,
    "85": 13679,
    "Ġwaking": 11570,
    "depth": 12797,
    "Ġdesirable": 8942,
    "jar": 17576,
    "ension": 6569,
    "Ġanalytical": 22904,
    "Ġspeedily": 7711,
    "Ġdetaining": 25817,
    "Ġopulent": 23626,
    "dw": 3333,
    "rigged": 17061,
    "Ġairy": 23316,
    "ze": 1323,
    "Ġquaint": 18464,
    "Ġlifts": 25358,
    "Ġrecomm": 4996,
    "Ġeve": 13968,
    "Ġconsisted": 10420,
    "Ġtragic": 15253,
    "source": 11526,
    "Ġconsume": 12954,
    "Ġancestry": 25640,
    "ual": 945,
    "º": 123,
    "Ġsaturday": 6452,
    "isen": 10793,
    "Ġdefilements": 26283,
    "Ġduring": 873,
    "ousings": 18329,
    "Ġfestival": 25445,
    "Ġgleam": 12305,
    "ental": 7168,
    "announced": 19757,
    "Ġ124": 24468,
    "liking": 22920,
    "Ġarbitrary": 4734,
    "cun": 20793,
    "Ġdisplaying": 16965,
    "D": 40,
    "Ġcousins": 9915,
    "mysterious": 26050,
    "Ġsashes": 21223,
    "._": 3220,
    "Ġender": 11688,
    "Ġcritics": 23442,
    "Ġinstantly": 3591,
    "Ġhaunts": 18197,
    "Ġchrist": 4072,
    "Ġcra": 2329,
    "stricken": 9884,
    "discernible": 20548,
    "teak": 22811,
    "ercial": 21272,
    "Ġmade": 1049,
    "enty": 2918,
    "Ġuseless": 7037,
    "traced": 19635,
    "direful": 25895,
    "civilities": 24970,
    "Ġbanquet": 15238,
    "roads": 17956,
    "Ġcorrob": 16264,
    "Ġuniversity": 13117,
    "quaker": 15759,
    "Ġinfamous": 16362,
    "Ġincreases": 3795,
    "Ġduodecimo": 16766,
    "Ġscanning": 18398,
    "ľ": 255,
    "Ġreserve": 9971,
    "Ġinte": 2065,
    "omical": 9680,
    "rences": 9272,
    "Ġlime": 13946,
    "Ġsevent": 18199,
    "beards": 22487,
    "Ġterror": 5124,
    "sciss": 18849,
    "aster": 1868,
    "need": 10980,
    "Ġwish": 2098,
    "Ġsnoo": 21226,
    "Ġnegatived": 23044,
    "Ġpint": 17906,
    "Ġstupid": 7603,
    "Ġcompleted": 8998,
    "Ġvisitor": 5330,
    "Ġparting": 9784,
    "erness": 6434,
    "Ġpadd": 9670,
    "Ġfrighted": 24025,
    "ignant": 11130,
    "Ġkrempe": 10670,
    "Ġpalpit": 16690,
    "Ġharpooned": 13258,
    "cheer": 9437,
    "interred": 23735,
    "Ġeffectively": 2548,
    "Ġwriter": 11942,
    "Ġgroping": 13663,
    "Ġtexture": 19158,
    "Ġequator": 7461,
    "Ġpaused": 5416,
    "you": 1006,
    "struck": 7861,
    "Ġtwice": 4660,
    "Ġguest": 7249,
    "Ġshrinking": 14803,
    "growing": 13731,
    "athered": 6972,
    "project": 16422,
    "Ġtuesday": 9627,
    "helmsman": 24286,
    "grace": 5846,
    "hed": 670,
    "Ġnormalization": 1244,
    "ipagos": 22361,
    "Ġmiserably": 12943,
    "Ġfreezing": 23880,
    "Ġbeloved": 5572,
    "Ġinterrupted": 6343,
    "Ġinformation": 1046,
    "poles": 16208,
    "droppers": 24758,
    "Ġimaginations": 16515,
    "Ġembarked": 17133,
    "Ġsundry": 20071,
    "âĢľ_": 5720,
    "Ġfeelingly": 22986,
    "liberal": 26280,
    "kingly": 20937,
    "cellar": 20275,
    "isk": 9168,
    "Ġbears": 6829,
    "Ġheart": 1597,
    "Ġregression": 4409,
    "Ġlunch": 13522,
    "Ġherb": 15853,
    "ological": 1884,
    "Ġeastward": 13386,
    "Ġunintelligible": 26513,
    "\":": 9582,
    "Ġcommander": 8625,
    "Ġ105": 24412,
    "Ġvague": 6406,
    "Ġundergone": 18985,
    "Ġhatches": 12042,
    "Ġtrop": 7565,
    "ä": 165,
    "Ã¦mon": 7094,
    "Ġshortly": 6196,
    "proposal": 18745,
    "mal": 6794,
    "Ġret": 1384,
    "Ġhogarth": 25779,
    "illuminated": 17451,
    "Ġjutting": 22297,
    "Ġicelandic": 25885,
    "M": 49,
    "Ġentertained": 9998,
    "Ġexhibited": 9544,
    "etuous": 21579,
    "Ġraiment": 22649,
    "dense": 18715,
    "token": 21080,
    "Ġalps": 10871,
    "Ġrap": 14301,
    "ulnerable": 18149,
    "Ġbird": 3756,
    "Ġimputed": 12805,
    "Ġsides": 4578,
    "sher": 5217,
    "ism": 4874,
    "Ġpresumed": 10545,
    "Ġhighly": 4843,
    "ouses": 5163,
    "Ġresting": 7961,
    "Ġfruit": 12323,
    "Ġtorpor": 25030,
    "Ġdaniel": 15109,
    "compar": 14357,
    "Ġunostentatious": 22066,
    "osity": 14184,
    "Ġcomposure": 7217,
    "preserver": 20211,
    "Ġcathed": 14547,
    "bohem": 19001,
    "Ġdis": 694,
    "bro": 4035,
    "Ġfollowing": 4062,
    "downward": 16618,
    "Ġblacksmiths": 19871,
    "uneasy": 23684,
    "binary": 20782,
    "Ġhindrance": 25220,
    "gay": 11489,
    "Ġultimate": 12346,
    "Ġlapse": 17119,
    "closing": 23152,
    "Ġcloudless": 16667,
    "Ġcomput": 601,
    "eridge": 15523,
    "Ġdrawback": 23986,
    "himself": 3972,
    "Ġthought": 1093,
    "matical": 13124,
    "Ġinvisibly": 24816,
    "Ġfrench": 4939,
    "elsewhere": 19866,
    "dering": 5305,
    "Ġemployments": 12099,
    "hug": 17562,
    "Ġhorizontal": 7782,
    "Ġmanipulation": 10659,
    "Ġseals": 11693,
    "Ġ": 225,
    "re": 266,
    "ĠâĢĶ": 13809,
    "Ġtumult": 7114,
    "Ġmelt": 21315,
    "Ġflit": 23004,
    "Ġpicturesque": 14892,
    "Ġlucky": 7758,
    "atered": 22005,
    "Ġmaintain": 855,
    "adow": 18086,
    "money": 8750,
    "Ġdated": 10940,
    "learning": 2565,
    "rmsprop": 4521,
    "unmistakable": 21891,
    "Ġsmiles": 6706,
    "chie": 21686,
    "amed": 4448,
    "involved": 25625,
    "Ġbroadened": 23981,
    "Ġjago": 22295,
    "Ġgallon": 24182,
    "step": 2457,
    "iday": 8830,
    "Ġdomineer": 23628,
    "rows": 6442,
    "ied": 941,
    "Ġminor": 12963,
    "Ġadjusts": 8981,
    "Ġpreacher": 18368,
    "Ġsolace": 16197,
    "Ġconsp": 10225,
    "Ġaffidav": 18790,
    "Ġglimpse": 6944,
    "Ġdesired": 4663,
    "treasures": 26151,
    "Ġrecollecting": 17112,
    "Ġfishe": 15582,
    "Ġglobe": 6076,
    "rity": 13774,
    "Ġprime": 10405,
    "inuating": 16201,
    "gently": 13727,
    "threaten": 25461,
    "rab": 7596,
    "rossed": 11013,
    "embraces": 25802,
    "ieves": 4007,
    "Ġmermaid": 17812,
    "Ġsm": 704,
    "aternity": 21263,
    "Ġrmsprop": 3354,
    "anxiety": 25155,
    "Ġohio": 19127,
    "Ġmccarthys": 19660,
    "cannibal": 15222,
    "conda": 18993,
    "Ġinvoluntary": 18761,
    "crop": 20796,
    "ourable": 4967,
    "ladder": 19782,
    "drovand": 24759,
    "Ġfrantic": 7956,
    "Ġfrigate": 13077,
    "liv": 9608,
    "strils": 10459,
    "itable": 5437,
    "meadow": 18676,
    "Ġcoverage": 4287,
    "Ġincessantly": 11412,
    "marry": 13319,
    "assed": 6421,
    "Ġnapoleon": 20555,
    "hammered": 19003,
    "Ġdictated": 25218,
    "Ġwhatever": 3473,
    "suggested": 17297,
    "Ġflanks": 11912,
    "Ġbeginning": 4242,
    "chel": 11208,
    "aux": 14288,
    "Ġwrenching": 17321,
    "Ġchick": 22243,
    "achment": 5464,
    "flaming": 23966,
    "uss": 8764,
    "incing": 15483,
    "Ġgases": 21598,
    "noise": 14339,
    "Ġledge": 19398,
    "Ġarchitects": 18732,
    "Ġpolitics": 19222,
    "Ġmute": 19413,
    "ernally": 22615,
    "amiable": 14051,
    "Ġbirth": 6524,
    "Ġ81": 24456,
    "Ġheed": 5630,
    "Ġdespaired": 14667,
    "Ġacquiring": 2771,
    "recover": 24621,
    "observed": 7674,
    "Ġslay": 16304,
    "Ġcripp": 9654,
    "Ġappo": 8498,
    "Ġarsacides": 17292,
    "Ġbreat": 3461,
    "ued": 7561,
    "Ġsilvery": 13090,
    "Ġexposes": 22618,
    "gabriel": 15358,
    "Ġwarning": 9059,
    "Ġhansom": 13662,
    "indeed": 4487,
    "produ": 10721,
    "Ġtackles": 8050,
    "uff": 2733,
    "corners": 17366,
    "Ġsar": 21211,
    "Ġfocus": 4235,
    "Ġfishing": 9663,
    "Ġlost": 2637,
    "Ġfasting": 16353,
    "Ġcircumvent": 25063,
    "Ġexercising": 19905,
    "antarctic": 22098,
    "delirium": 14783,
    "Ġstillness": 12989,
    "Ġnobler": 14172,
    "Ġecon": 9678,
    "xes": 21138,
    "merit": 19279,
    "ibank": 6880,
    "fal": 17535,
    "Ġfire": 2330,
    "Ġdomin": 10460,
    "Ġrights": 10397,
    "Ġdiet": 13908,
    "path": 10119,
    "ĭ": 238,
    "naught": 20992,
    "Ġdrawings": 14720,
    "Ġimpose": 22387,
    "Ġleg": 2332,
    "Ġjo": 2610,
    "Ġjoke": 8869,
    "Ġvoids": 25806,
    "Ġunst": 18237,
    "Ġharvest": 13411,
    "allet": 11084,
    "Ġwant": 1120,
    "Ġ1890": 23892,
    "Ġimport": 1058,
    "utely": 8131,
    "Ġatone": 15799,
    "Ġindignity": 18831,
    "Ġvillainous": 25131,
    "Y": 61,
    "Ġbud": 10169,
    "Ġparty": 3511,
    "Ġastonishment": 4793,
    "Ġmechanical": 7937,
    "Ġrails": 22650,
    "pract": 10120,
    "midnight": 14900,
    "Ġthan": 736,
    "clock": 3934,
    "Ġcontents": 7210,
    "Ġharriet": 24571,
    "subsided": 25829,
    "Ġexcite": 11963,
    "Ġdisquiet": 18551,
    "Ġpict": 3498,
    "mankind": 14372,
    "english": 2779,
    "moil": 22703,
    "Ġendangered": 16302,
    "Ġingen": 9050,
    "Ġcondu": 18108,
    "Ġcompressed": 21846,
    "Ġflourishing": 25187,
    "ount": 1115,
    "------": 12130,
    "Ġsaviour": 20711,
    "Ġhates": 21482,
    "abri": 6682,
    "Ġconception": 10320,
    "script": 11078,
    "Ġretirement": 25378,
    "Ġmug": 21310,
    "Ġcounty": 9031,
    "stands": 22431,
    "Ġinterven": 10998,
    "Ġskylight": 24070,
    "Ġglow": 7170,
    "Ġ-": 1946,
    "Ġminers": 22829,
    "Ġcrests": 25684,
    "Ġrain": 5005,
    "Ġincluded": 8931,
    "Ġunconsciously": 10005,
    "rics": 13032,
    "Ġsmooth": 2784,
    "Ġdepose": 22590,
    "swe": 5995,
    "bbs": 23690,
    "heading": 5487,
    "Ġasiatic": 20427,
    "Ġruin": 6055,
    "medi": 2630,
    "prodig": 16424,
    "Ġfeather": 8860,
    "Ġburying": 19249,
    "Ġfatal": 5871,
    "idirection": 2410,
    "Ġlace": 13947,
    "necessities": 24305,
    "Ġimpetuous": 25570,
    "Ġwindpipe": 23102,
    "_,": 2804,
    "Ġplumber": 16082,
    "fav": 6646,
    "Ġseldom": 4628,
    "Ġbowed": 6242,
    "Ġcommunic": 5751,
    "Ġubiquitous": 26194,
    "Ġshave": 21992,
    "Ġindul": 5856,
    "hark": 15363,
    "opolising": 25675,
    "remaining": 20218,
    "enari": 21279,
    "Ġclasses": 4055,
    "Ġtars": 21162,
    "Ġthews": 21275,
    "regulated": 23465,
    "Ġovertook": 18427,
    "cham": 10854,
    "Ġlieu": 19562,
    "Ġforemast": 12003,
    "Ġimpet": 11779,
    "Ġheedfulness": 24521,
    "Ġscr": 11758,
    "Ġent": 903,
    "simple": 13448,
    "solving": 3100,
    "Ġanyways": 22516,
    "Ġunparalleled": 15850,
    "Ġfra": 1706,
    "Ġlondon": 2843,
    "cular": 15326,
    "Ġcapstan": 9099,
    "Ġstim": 18062,
    "charming": 15702,
    "Ġraging": 14303,
    "Ġideas": 5494,
    "Ġpig": 5705,
    "ella": 12746,
    "Ġjog": 18403,
    "Ġexhaled": 19680,
    "Ġobed": 8536,
    "eskye": 21480,
    "mer": 2837,
    "Ġinquirer": 24960,
    "umberland": 16836,
    "Ġthenceforth": 25182,
    "Ġaltar": 9229,
    "ols": 2411,
    "istle": 15867,
    "Ġhereafter": 9330,
    "ometer": 19323,
    "unching": 18157,
    "proportions": 22823,
    "Ġamazement": 7764,
    "Ġcriminal": 7537,
    "Ġpredomin": 16033,
    "Ġdusty": 14923,
    "Ġmetallic": 19062,
    "Ġpointed": 4772,
    "wont": 21130,
    "uded": 6286,
    "Ġgushed": 21603,
    "Ġt": 261,
    "Ġheaped": 18036,
    "Ġstrongest": 11136,
    "umbers": 10919,
    "Ġcetology": 10009,
    "Ġroll": 5381,
    "Ġriotous": 20542,
    "Ġstory": 2904,
    "table": 5795,
    "read": 3276,
    "Ġprecip": 7074,
    "ons": 709,
    "Ġtows": 19560,
    "fooled": 24418,
    "Ġintegration": 9868,
    "fun": 3800,
    "rically": 15415,
    "Ġsuspicions": 9479,
    "drowned": 17367,
    "Ġakin": 15493,
    "Ġclump": 15965,
    "Ġraised": 4659,
    "tisement": 6767,
    "olstad": 7611,
    "Ġscandinav": 19958,
    "Ġsymb": 2592,
    "uns": 21866,
    "going": 6313,
    "Ġbrewed": 23343,
    "Ġupwards": 7633,
    "hers": 7635,
    "Ġhog": 13922,
    "Ġmortar": 19390,
    "Ġblinding": 14726,
    "Ġshun": 11707,
    "alt": 12635,
    "Ġcontribute": 12858,
    "Ġaxe": 15060,
    "orse": 5806,
    "Ġbravely": 23835,
    "Ġrelent": 18773,
    "Ġtranqu": 4603,
    "Ġscrawled": 24579,
    "Ġleaks": 16446,
    "Ġmortification": 12090,
    "uce": 11536,
    "Ġmadman": 13147,
    "ingu": 2120,
    "reck": 9637,
    "Ġpitied": 14690,
    "Ġme": 353,
    "etts": 12657,
    "obedience": 17408,
    "Ġgenerates": 3664,
    "Ġpains": 5964,
    "appin": 18757,
    "Ġpurp": 2391,
    "condescended": 26247,
    "vid": 916,
    "Ġpra": 4346,
    "Ġmany": 1107,
    "Ġgravely": 7882,
    "isl": 21372,
    "musket": 25341,
    "Ġsumatra": 15284,
    "unable": 14057,
    "Ġforbear": 17120,
    "Ġcircumstantial": 14642,
    "entric": 11619,
    "oug": 431,
    "Ġende": 21928,
    "etent": 10200,
    "Ġapoplexy": 25265,
    "Ġremind": 6057,
    "Ġreal": 1637,
    "Ġtriangular": 14857,
    "Ġauthentic": 20533,
    "cerem": 15674,
    "reposed": 24491,
    "Ġrequested": 14305,
    "Ġmount": 7362,
    "±": 114,
    "usation": 18400,
    "Ġwhereon": 16098,
    "next": 5891,
    "ī": 236,
    "Ġbiggest": 24565,
    "Ġbachelors": 24859,
    "Ġcolouring": 16750,
    "Ġyaw": 18093,
    "Ġrecent": 7436,
    "Ġ31": 12127,
    "begging": 22493,
    "Ġpitiable": 9914,
    "reluct": 26162,
    "Ġunpleasant": 7191,
    "Ġmuff": 8113,
    "azine": 19129,
    "lan": 15375,
    "Ġfisherman": 12072,
    "choose": 23671,
    "conceal": 25113,
    "Ġrains": 24339,
    "Ġchancery": 20714,
    "gen": 6503,
    "Ġsickle": 24244,
    "Ġshowed": 4496,
    "Ġoldest": 12968,
    "between": 5071,
    "Ġwouldst": 18500,
    "somewhere": 12010,
    "Ġpoultry": 17439,
    "Ġaccommod": 14211,
    "Ġerroneous": 17407,
    "geneva": 13728,
    "particulars": 11316,
    "Ġrecklessly": 16982,
    "Ġrainy": 24340,
    "Ġbutcher": 18270,
    "Ġunlabeled": 3799,
    "Ġring": 4452,
    "kes": 3679,
    "ĝ": 222,
    "ustom": 3789,
    "Ġfidelity": 15239,
    "Ġthickly": 12112,
    "Ġawaited": 17073,
    "Ġopposed": 11189,
    "aired": 8368,
    "Ġoverwrites": 5033,
    "conce": 8510,
    "comprehensive": 20624,
    "dimly": 15344,
    "Ġsuffering": 8947,
    "Ġdowncast": 18651,
    "thur": 7188,
    "actor": 11834,
    "itching": 21332,
    "Ġjagged": 18406,
    "prehensible": 12357,
    "aint": 2543,
    "Ġinsince": 23677,
    "P": 52,
    "moreover": 12964,
    "Ġcuts": 14606,
    "Ġrestraint": 15125,
    "Ġwaif": 9375,
    "getting": 12962,
    "resh": 8403,
    "Ġstretched": 5919,
    "Ġweapon": 7775,
    "Ġcrackling": 24957,
    "Ġadvantage": 4315,
    "oquent": 12496,
    "Ġsumat": 14134,
    "travel": 24315,
    "levelled": 23644,
    "Ġdetail": 634,
    "Ġconstru": 19070,
    "Ġhearers": 15699,
    "Ġsoot": 14128,
    "Ġhorizon": 6632,
    "Ġprecipitate": 19939,
    "Ġdog": 4190,
    "shaken": 16023,
    "accident": 11182,
    "Ġric": 18208,
    "ded": 2420,
    "Ġeagerly": 4990,
    "Ġloo": 22106,
    "Ġspake": 18307,
    "Ġmaz": 15538,
    "Ġheadland": 22893,
    "Ġkind": 1786,
    "Ġdyspepsia": 20641,
    "cigar": 26123,
    "Ġcauses": 2563,
    "Ġfruitless": 25604,
    "ratches": 20122,
    "ieged": 22574,
    "Ġgroups": 3719,
    "significant": 25081,
    "ounts": 4650,
    "Ġnormalizes": 1864,
    "opp": 6963,
    "_.âĢĻâĢĿ": 17478,
    "lounged": 26132,
    "protested": 13470,
    "berries": 22717,
    "accordingly": 19211,
    "Ġendeavour": 4676,
    "Ġindividually": 22953,
    "Ġanomaly": 25635,
    "boil": 18999,
    "Ġ73": 24259,
    "disappointed": 25191,
    "concerns": 24064,
    "mistak": 16877,
    "Ġrumbling": 18210,
    "Ġrav": 14302,
    "oward": 6020,
    "Ġcorpusants": 13675,
    "arbuck": 2025,
    "Ġmary": 3843,
    "ignorant": 13560,
    "](": 11467,
    "walked": 10571,
    "Ġdeformed": 14047,
    "Ġsending": 8775,
    "Ġperpet": 7644,
    "dening": 22776,
    "sn": 7138,
    "Ġreigned": 13985,
    "Ġvault": 8841,
    "Ġcruisers": 25862,
    "Ġbuild": 6474,
    "tears": 11038,
    "historian": 25734,
    "Ġpret": 3038,
    "accepted": 20134,
    "Ġineffable": 17330,
    "ë": 172,
    "deed": 1518,
    "Ġcrescentic": 20618,
    "ructed": 7029,
    "Ġkate": 15902,
    "Ġparading": 23708,
    "Ġstyle": 6946,
    "Ġcre": 889,
    "ancies": 11584,
    "reasonable": 7751,
    "Ġswaths": 23054,
    "society": 9972,
    "wishing": 21126,
    "Ġwiser": 14728,
    "mosphere": 10043,
    "dark": 5614,
    "Ġwow": 15526,
    "Ġbush": 23334,
    "tall": 17672,
    "Ġ14": 9323,
    "lording": 24046,
    "agne": 21901,
    "Ġfires": 16470,
    "é": 170,
    "Ġ123": 24467,
    "Ġexquisitely": 20200,
    "Ġkne": 4265,
    "gravel": 22616,
    "Ġcetus": 19883,
    "Ġfatig": 6756,
    "Ġpreluding": 18367,
    "reward": 15507,
    "Ġexpressing": 12006,
    "kerchief": 7525,
    "ittarius": 22373,
    "ench": 21277,
    "ditch": 17527,
    "Ġcoars": 14269,
    "Ġminority": 18752,
    "tails": 21084,
    "aviour": 11006,
    "Ġscaling": 3632,
    "Ġsecrecy": 7316,
    "from": 1991,
    "Ġaccomp": 4711,
    "abetical": 15739,
    "Ġintended": 5548,
    "Ġmeditate": 16681,
    "Ġsatiated": 22900,
    "======": 9833,
    "Ġextremest": 19193,
    "Ġuncontrollable": 25813,
    "fluttering": 23969,
    "seemed": 4303,
    "Ġbunger": 9996,
    "oniously": 21255,
    "Ġstocks": 23172,
    "Ġsurmount": 19998,
    "Ġferule": 24498,
    "Ġhal": 1362,
    "hast": 5357,
    "gue": 12464,
    "Ġstages": 14002,
    "fishery": 10032,
    "elopement": 23173,
    "Ġpleasanter": 19066,
    "grim": 19105,
    "inkle": 22610,
    "ado": 11657,
    "Ġpermit": 9749,
    "facts": 19840,
    "Ġriot": 14687,
    "buttons": 22397,
    "Ġactiv": 833,
    "Ġintentions": 10608,
    "Ġprominence": 18952,
    "evade": 24819,
    "Ġspr": 4025,
    "Ġruddy": 17124,
    "Ġplanks": 5564,
    "plate": 18206,
    "Ġmathematics": 12070,
    "Ġwol": 15527,
    "Ġcountrymen": 23593,
    "illum": 15866,
    "genteel": 19946,
    "Ġinfirmity": 26297,
    "Ġreeled": 13984,
    "words": 7982,
    "Ġprograms": 7239,
    "Ġeasiest": 23535,
    "Ġknown": 1644,
    "Ġsubsiding": 23431,
    "Ġhandsomer": 20331,
    "Ġexposing": 11830,
    "unteered": 26494,
    "Ġguernsey": 9351,
    "Ġjovial": 19231,
    "fatigue": 20656,
    "Ġglens": 18846,
    "Ġgift": 10841,
    "vering": 15712,
    "Ġcoward": 7155,
    "Ġaspects": 4173,
    "Ġtransports": 24276,
    "Ġsuspend": 14607,
    "Ġhovers": 19077,
    "lighted": 23752,
    "?âĢĿâĢĶ": 12892,
    "nament": 11507,
    "Ġpinched": 17034,
    "Ġmaterially": 12188,
    "Ġhish": 21909,
    "intments": 18819,
    "Ġcocksure": 26257,
    "ilder": 15709,
    "Ġgene": 15668,
    "Ġimpropri": 14219,
    "Ġcar": 1419,
    "Ġviv": 6156,
    "Ġcomrades": 9555,
    "Ġdepartments": 24241,
    "Ġinnumerable": 13347,
    "Ġdiscreet": 16480,
    "happened": 9433,
    "Ġevaporate": 26331,
    "Ġupp": 13990,
    "Ġsighing": 18677,
    "Ġsimplicity": 2926,
    "Ġpeddler": 24799,
    "Ġgrammar": 1061,
    "tremendous": 20671,
    "licted": 20954,
    "Ġsharpen": 13566,
    "Ġmichael": 20677,
    "spersed": 22732,
    "Ġnaked": 8126,
    "Ġupdate": 2464,
    "dom": 6222,
    "descend": 23082,
    "Ġdomain": 3245,
    "Ġcontrolled": 23248,
    "Ġhailed": 6407,
    "Ġlanding": 11982,
    "Ġdiligent": 25074,
    "Ġmumbling": 11574,
    "Ġstacked": 21739,
    "chemical": 23806,
    "receive": 12538,
    "Ġsne": 6372,
    "reception": 15512,
    "Ġtasselled": 25920,
    "Ġprevious": 2089,
    "Ġhop": 1462,
    "imin": 1770,
    "Ġcrozetts": 19627,
    "Ġcoron": 4464,
    "eers": 20841,
    "Ġprofile": 16486,
    "times": 8098,
    "becomes": 22492,
    "Ġdestroying": 14727,
    "breeding": 16674,
    "ubines": 22955,
    "Ġnoting": 18220,
    "Ġaugust": 10598,
    "Ġsensible": 4976,
    "Ġexplanatory": 22198,
    "bushes": 24446,
    "Ġpacket": 14891,
    "Ġapothecary": 13656,
    "hampshire": 23261,
    "Ġpout": 17903,
    "Ġmistress": 8612,
    "Ġzer": 1094,
    "toss": 22562,
    "Ġelizabeth": 1131,
    "Ġattraction": 18626,
    "ipp": 10103,
    "calmly": 20137,
    "Ġslo": 15504,
    "Ġindicate": 23720,
    "Ġboth": 1659,
    "Ġstubbs": 23293,
    "Ġcommonest": 23086,
    "bable": 8719,
    "owers": 12682,
    "Ġboone": 11837,
    "riety": 12741,
    "Ġfranc": 16349,
    "Ġprogeny": 17386,
    "Ġimpaling": 22388,
    "Ġinterfere": 11815,
    "grees": 20884,
    "Ġfed": 5530,
    "aiian": 23590,
    "Ġindications": 14631,
    "Ġbod": 4580,
    "Ġgiants": 25959,
    "Ġflushed": 13021,
    "notice": 16145,
    "Ġglove": 14491,
    "Ġperpendicular": 7208,
    "noo": 9792,
    "veral": 2350,
    "Ġcigars": 12249,
    "Ġabove": 2939,
    "Ġdecap": 16017,
    "aper": 4999,
    "Ġsustained": 13478,
    "Ġhart": 17920,
    "hack": 20894,
    "ustration": 2256,
    "Ġwithal": 18112,
    "Ġinflict": 15000,
    "amplified": 26493,
    "mystery": 15153,
    "Ġchapter": 2958,
    "Ġsupport": 6727,
    "Ġdiscours": 18717,
    "ital": 4816,
    "upright": 23014,
    "Ġsteward": 6584,
    "Ġsucked": 14135,
    "Ç": 136,
    "Ġcarpet": 9356,
    "Ġunmanner": 22025,
    "Ġplates": 11008,
    "¹": 122,
    "ome": 535,
    "<PAD>": 0,
    "Ġdecaying": 2244,
    "Ġdrooping": 9420,
    "Ġlinks": 13953,
    "tashtego": 9623,
    "Ġloitering": 22112,
    "Ġintrospect": 15825,
    "Ġdoxology": 22240,
    "wrinkles": 16553,
    "Ġarc": 14157,
    "Ġdep": 738,
    "Ġsugg": 4499,
    "Ġphenomena": 21479,
    "Ġstowing": 18070,
    "Ġcourt": 4168,
    "norm": 20983,
    "Ġplum": 11820,
    "too": 4507,
    "Ġsuperiority": 14616,
    "Ġbelly": 10370,
    "Ġpatriot": 23290,
    "Ġhabitu": 19526,
    "Ġreciprocating": 26368,
    "ency": 3868,
    "ston": 15679,
    "rigible": 24930,
    "iteness": 4392,
    "masculine": 24386,
    "Ġdeacon": 18142,
    "Ġwood": 2290,
    "Ġboscombe": 8325,
    "Ĳ": 243,
    "Ġwestern": 10655,
    "Ġfelt": 1748,
    "uck": 1235,
    "rimin": 2422,
    "Ġexpressly": 16452,
    "Ġcondemned": 7778,
    "Ġland": 1998,
    "ave": 980,
    "Ġthus": 2036,
    "Ġanalyzing": 18798,
    "Ġimagine": 3925,
    "anth": 13885,
    "Ġaudio": 24771,
    "desk": 23205,
    "ciousness": 20815,
    "Ġextravagance": 17278,
    "Ġgeorgiana": 8626,
    "Ġlungs": 8361,
    "Ġautomatically": 3621,
    "Ġstealing": 18893,
    "Ġtransparent": 9489,
    "Ġflirting": 16248,
    "Ġprivacy": 19522,
    "uesday": 8588,
    "Ġcorrupt": 11920,
    "Ġbible": 9319,
    "blog": 19837,
    "Ġartic": 5314,
    "Ġnocturnal": 20713,
    "Ġsurpr": 2552,
    "Ġtrappings": 23079,
    "ferences": 10327,
    "Ġperplexed": 23659,
    "Ġdeliberate": 15021,
    "Ġaug": 6234,
    "assertion": 22307,
    "Ġexam": 3711,
    "Ġthumb": 6981,
    "Ġoppose": 16518,
    "Ġli": 602,
    "Ġfetch": 7769,
    "Ġdummy": 25449,
    "Ġbulge": 23854,
    "erde": 21266,
    "Ġconvul": 13197,
    "flatter": 23963,
    "Ġtyphoon": 12386,
    "succeeded": 15173,
    "Ġtorments": 13390,
    "Ġmatted": 22909,
    "Ġportions": 19366,
    "Ġconstructed": 9387,
    "Ġfunere": 22255,
    "Ġmanhood": 22322,
    "bbings": 19274,
    "zing": 7820,
    "bottle": 20143,
    "kshire": 13744,
    "Ġmixing": 24933,
    "Ġwhilst": 9219,
    "Ġorder": 1690,
    "cooee": 12415,
    "Ġinfl": 6893,
    "blue": 13691,
    "Ġtrumpet": 9574,
    "Ġturning": 3326,
    "Ġmut": 3582,
    "apply": 18758,
    "Ġlouis": 8356,
    "onsense": 6431,
    "Ġsaturn": 22899,
    "repaid": 24490,
    "exerc": 16012,
    "Ġsearching": 13158,
    "Ġwhatsoever": 18459,
    "over": 1847,
    "Ġstarvation": 19789,
    "Ġcharmingly": 24220,
    "into": 3681,
    "Ġarr": 1800,
    "breath": 15160,
    "acies": 14276,
    "rian": 10243,
    "Ġmisty": 16538,
    "recklessly": 25269,
    "Ġnavy": 14914,
    "Ġdiscriminative": 4326,
    "sprit": 11383,
    "Ġundersampling": 19516,
    "Ġmors": 17800,
    "Ġforster": 5230,
    "sincerely": 24583,
    "blazing": 24129,
    "Ġmust": 844,
    "Ġtermination": 16459,
    "Ġtrustees": 24105,
    "arle": 21437,
    "shud": 18494,
    "Ġposture": 24161,
    "forgive": 18722,
    "miraculous": 26395,
    "Ġspect": 3552,
    "actions": 8907,
    "cheerful": 13572,
    "constit": 24603,
    "overfitting": 13097,
    "foundered": 20865,
    "Ġepoch": 26470,
    "rations": 10724,
    "Ġaccomplishments": 13375,
    "Ġabiding": 22266,
    "Ġappertaining": 26532,
    "Ġtreatment": 12068,
    "Ġminus": 18749,
    "Ġpsal": 15612,
    "Ġpotency": 14645,
    "Ġtour": 9148,
    "lesome": 12960,
    "usiveness": 22289,
    "Ġderive": 10395,
    "Ġprovince": 24187,
    "illing": 8174,
    "Ġpeep": 6870,
    "Ġraving": 16111,
    "log": 18536,
    "Ġclass": 790,
    "Ġwreath": 25935,
    "ĠĠĠĠĠĠĠĠĠĠĠĠĠ": 22558,
    "Ġinterp": 16066,
    "Ġquote": 18465,
    "Ġfeatureless": 22607,
    "verted": 10218,
    "doubtful": 24790,
    "Ġbor": 5804,
    "Ġcabs": 23641,
    "Ġsunset": 8963,
    "cor": 5520,
    "Ġincreas": 1698,
    "Ġtrades": 8231,
    "Ġathirst": 20596,
    "unicorn": 21885,
    "net": 1194,
    "Ġhappily": 9331,
    "Ġsepulch": 15282,
    "Ġenlist": 21932,
    "nameless": 19901,
    "Ġthence": 8882,
    "Ġsmothe": 18572,
    "lest": 5288,
    ".âĢĻâĢĿ": 6739,
    "Ġcongratulated": 19764,
    "Ġsnap": 11201,
    "nyder": 16685,
    "Ġlitter": 19827,
    "sheep": 23083,
    "Ġkilling": 13328,
    "Ġarrangements": 16514,
    "progression": 20379,
    "Ġpervers": 11777,
    "!_âĢĿ": 11377,
    "whis": 7897,
    "Ġhearses": 20057,
    "Ġvon": 14079,
    "Ġquestions": 3973,
    "Ġtypewriter": 19096,
    "Ġvariants": 1792,
    "embra": 14072,
    "bye": 5949,
    "Ġhiss": 15784,
    "rudence": 7092,
    "Ġneskyeuna": 26458,
    "anity": 9655,
    "Ġcaval": 25768,
    "Ġexhaustion": 14959,
    "Ġtold": 2182,
    "brill": 16489,
    "phr": 18707,
    "Ġunless": 4089,
    "Ġcorp": 5575,
    "Ġinanimate": 13931,
    "Ġsoldiers": 8687,
    "Ġjump": 4503,
    "erable": 1919,
    "seeking": 17151,
    "Ġoverthrow": 18430,
    "Ġtook": 1857,
    "Ġcruising": 6913,
    "Ġfluctuations": 5516,
    "Ġslyness": 25266,
    "Ġaberde": 22273,
    "Ġold": 1054,
    "marching": 25751,
    "Ġtasks": 1789,
    "well": 1695,
    "Ġheard": 1400,
    "Ġtenants": 23545,
    "sulphur": 25908,
    "Ġhan": 15614,
    "Ġfringed": 17271,
    "Ġunsupervised": 2439,
    "ricted": 15418,
    "Ġcock": 11000,
    "utional": 17982,
    "Ġmorphology": 3015,
    "respectively": 24699,
    "Ġeavesdroppers": 25962,
    "Ġfingers": 5672,
    "niece": 20993,
    "Ġ25": 13188,
    "Ġunquestionable": 26220,
    "abounding": 25978,
    "Ġgl": 1254,
    "Ġbuck": 7157,
    "engaged": 7452,
    "Ġaudits": 24769,
    "Ġpalsied": 25778,
    "wherein": 19106,
    "Ġdignity": 5704,
    "whilst": 18370,
    "Ġbristol": 14378,
    "Åĵuvre": 25886,
    "Ġpalsy": 25777,
    "oquence": 11387,
    "Ġcetacean": 25877,
    "Ġfo": 1653,
    "Ġgu": 1330,
    "Ġmouthful": 16572,
    "Ġfancy": 3745,
    "Ġunsur": 22018,
    "Ġabsolutely": 4856,
    "steam": 23956,
    "yourselves": 24955,
    "stall": 21642,
    "Ġpri": 5813,
    "posture": 16926,
    "Ġescape": 2649,
    "Ġshar": 9250,
    "Ġafterwards": 3531,
    "Ġrushing": 7403,
    "Ġmasts": 6465,
    "Ġsteered": 11094,
    "fully": 2200,
    "laws": 19805,
    "ports": 13772,
    "Ġsacrifice": 9556,
    "Ġdedication": 3413,
    "Ġunworth": 22032,
    "ainty": 21783,
    "incredible": 16497,
    "Ġclue": 7020,
    "adv": 4536,
    "Ġlandsmen": 11352,
    "Ġguardians": 14941,
    "book": 4668,
    "Ġsignificantly": 4518,
    "limin": 8383,
    "Ġdan": 8793,
    "iment": 2820,
    "Ġungod": 22020,
    "Ġchewed": 16367,
    "pure": 17625,
    "desire": 14473,
    "pate": 21008,
    "spirited": 19751,
    "trimmed": 23945,
    "Ġchaplain": 19910,
    "ugal": 19021,
    "ets": 1158,
    "Ġallowing": 2172,
    "Ġdefects": 12330,
    "rinted": 21041,
    "Ġim": 478,
    "Ġsupplication": 25491,
    "Ġexceptions": 13225,
    "Ġcook": 3712,
    "Ġperfectly": 3701,
    "transformers": 8715,
    "ouring": 6420,
    "Ġlarboard": 11010,
    "mblance": 7323,
    "Ġapp": 497,
    "cop": 20799,
    "Ġ30": 10512,
    "Ġpillar": 21469,
    "itely": 5365,
    "ĠĠĠĠĠĠĠĠĠĠĠĠĠĠĠĠĠĠĠĠĠĠĠĠĠĠĠĠĠĠĠĠĠĠĠĠĠĠĠĠĠĠĠĠĠĠĠĠĠ": 20035,
    "Ġsuch": 793,
    "Ġcups": 16881,
    "icant": 21558,
    "Ġconvey": 9981,
    "sperm": 5203,
    "Ġexc": 1833,
    "grand": 7969,
    "Ġsnug": 8279,
    "down": 3469,
    "Ġhurrah": 9869,
    "Ġsand": 6235,
    "Ġkings": 7197,
    "Ġdetain": 14175,
    "socket": 22726,
    "Ġfavourably": 16359,
    "ieces": 4771,
    "Ġgreenland": 5761,
    "ters": 1577,
    "carried": 16710,
    "Ġhey": 11640,
    "Ġarrest": 7409,
    "toes": 22560,
    "ories": 4752,
    "Ġanyhow": 14253,
    "iour": 4038,
    "Ġhate": 5445,
    "Ġemblem": 20495,
    "involuntarily": 20412,
    "Ġarms": 3967,
    "Ġpregnant": 26534,
    "Ġadjac": 18288,
    "Ġboots": 5942,
    "about": 3586,
    "Ġinsurance": 23680,
    "Ġrevenue": 26193,
    "sle": 9139,
    "ą": 198,
    "Ġfundamental": 3018,
    "Ġfresher": 23208,
    "Ġindian": 4131,
    "quent": 2095,
    "Ġpositions": 2057,
    "Ġweeping": 11685,
    "transom": 19733,
    "tom": 15433,
    "Ġepicures": 25879,
    "Ġmunro": 25629,
    "history": 15013,
    "Ġcharms": 11131,
    "ks": 3144,
    "Ġroy": 4227,
    "Ġduplicity": 25331,
    "Ġhen": 3502,
    "splice": 17169,
    "ington": 21299,
    "beauty": 20101,
    "Ġartfully": 22606,
    "Ġhugest": 17014,
    "Ġdepresses": 25796,
    "Ġfortresses": 23619,
    "attached": 11932,
    "Ġirrad": 19092,
    "Ġdeclaring": 19417,
    "skylight": 25622,
    "whel": 7664,
    "Ġnumberless": 16413,
    "Ġgentle": 1890,
    "Ġberries": 13403,
    "Ġadvertising": 25389,
    "Ġglacier": 11434,
    "Ġconvulsively": 25716,
    "olstadt": 7788,
    "Ġsecrets": 9055,
    "returns": 23133,
    "aside": 10192,
    "Ġconstrained": 19237,
    "Ġunwillingly": 15845,
    "Ġbrix": 12580,
    "Ġskirts": 14352,
    "Ġhearties": 18966,
    "traces": 24314,
    "Ġjac": 1898,
    "fain": 13713,
    "Ġhunters": 6300,
    "pivot": 21029,
    "Ġreflection": 6440,
    "Ġdirected": 5579,
    "Ġthundering": 24290,
    "bast": 10077,
    "ĠdÃ¦mon": 7844,
    "rib": 1947,
    "agers": 5633,
    "ulatory": 15764,
    "Ġuser": 15913,
    "Ġconfessed": 8008,
    "Ġspacious": 18311,
    "Ġcalamities": 25698,
    "Ġdoubloons": 13430,
    "Ġblan": 18815,
    "daw": 17521,
    "Ġobliv": 16130,
    "brace": 16941,
    "oun": 482,
    "âĢĻ!âĢĿ": 18166,
    "Ġgripping": 26185,
    "Ġaloof": 21781,
    "Ġgre": 1587,
    "Ġvales": 21942,
    "Ġattracted": 8906,
    "Ġsubord": 22785,
    "followed": 8338,
    "Ġdanger": 3520,
    "alf": 4637,
    "horizon": 23613,
    "younger": 11313,
    "Ġtell": 1470,
    "ologist": 22846,
    "nt": 923,
    "mid": 5617,
    "Ġgar": 10839,
    "onstrate": 17767,
    "Ġhills": 6527,
    "Ġresc": 4506,
    "ieving": 7031,
    "stun": 18017,
    "Ġadvocate": 13674,
    "Ġimpudence": 26240,
    "tick": 17677,
    "Ġgood": 1001,
    "atory": 6125,
    "Ġshri": 5375,
    "borean": 25742,
    "Ġcrunched": 19122,
    "Ġrefres": 14332,
    "Ġoak": 6128,
    "sleepy": 24728,
    "Ġoptimization": 1348,
    "fortunately": 9451,
    "Ġworker": 23035,
    "Ġchecked": 9376,
    "Ġgodly": 19079,
    "successively": 24778,
    "Ġcircumspection": 25883,
    "complet": 11384,
    "Ġsums": 2905,
    "writes": 4988,
    "Ġcelest": 9901,
    "Ġdifferen": 937,
    "deser": 10403,
    "Ġtrusty": 24102,
    "ĠâĢľ": 516,
    "ops": 5247,
    "Ġshaping": 21999,
    "Ġagreement": 18541,
    "Ġreproofs": 24891,
    "position": 15411,
    "touched": 15437,
    "semble": 1525,
    "Ġlion": 9676,
    "Ġautonomous": 10676,
    "iver": 2049,
    "noon": 5037,
    "Ġrecords": 12192,
    "tese": 21081,
    "arrangement": 17413,
    "offended": 16393,
    "Ġfid": 10804,
    "irresist": 21908,
    "Ġjeroboam": 10601,
    "Ġdang": 9175,
    "Ġdaring": 8120,
    "Ġfastened": 7065,
    "Ġsafety": 6339,
    "Ġseer": 21948,
    "Ġharshly": 25249,
    "ortal": 6265,
    "Ġarchly": 22771,
    "Ġschooner": 16746,
    "Ġextend": 18680,
    "Ġzero": 1201,
    "Ġcables": 15554,
    "Ġsentin": 16369,
    "firm": 10699,
    "aware": 16292,
    "Ġescaping": 13130,
    "Ġoct": 10159,
    "call": 8723,
    "fortunate": 4791,
    "utter": 7593,
    "confirmed": 19643,
    "Ġmantelpiece": 15205,
    "Ġfainted": 8792,
    "Ġrendering": 16656,
    "Ġwasted": 9704,
    "Ġperform": 1035,
    "Ġtener": 21161,
    "myster": 16259,
    "Ġawhile": 13828,
    "Ġexpect": 2304,
    "Ġcarn": 17820,
    "Ġstays": 16559,
    "itche": 7578,
    "face": 3678,
    "Ġauthorities": 11265,
    "Ġgallied": 19554,
    "fold": 7546,
    "Ġharpoon": 3616,
    "Ġtrusted": 10518,
    "Ġexerting": 21828,
    "Ġ177": 13408,
    "teeth": 10356,
    "Ġellenborough": 26153,
    "Ġassailants": 20446,
    "Ġpoker": 13920,
    "Ġtransformer": 2638,
    "drawers": 19383,
    "Ġstared": 8454,
    "Ġsave": 4052,
    "Ġeach": 892,
    "Ġhaven": 8473,
    "riers": 18185,
    "Ġalbino": 20500,
    "Ġmill": 6666,
    "swiftly": 20549,
    "Ġdetached": 10280,
    "Ġhugh": 15003,
    "Ġchas": 18378,
    "again": 3398,
    "disguise": 26305,
    "Ġconsumm": 15152,
    "Ġlocked": 6034,
    "mentioning": 24884,
    "Ġwakeful": 24265,
    "turning": 8316,
    "pend": 6367,
    "ushing": 5731,
    "splash": 25209,
    "Ġstreaked": 19112,
    "Ġperem": 12928,
    "Ġunspeakably": 25172,
    "Ġoverwhel": 8196,
    "Ġshaft": 18228,
    "stige": 21657,
    "Ġmilliner": 19882,
    "front": 12167,
    "Ġfearfulness": 23511,
    "Ġbeggar": 9349,
    "Ġilleg": 21619,
    "sav": 8096,
    "Ġporch": 19678,
    "Ġspasmodic": 20395,
    "Ġsched": 2334,
    "Ġcalculating": 9925,
    "Ġsufficient": 2004,
    "umbrance": 22114,
    "frame": 17115,
    "Ġtowed": 11266,
    "Ġrevelation": 25222,
    "centre": 17086,
    "Ġarisen": 11741,
    "Ġrushed": 4086,
    "cut": 3123,
    "Ġbrother": 2752,
    "Ġreb": 15687,
    "Ġregarded": 5762,
    "officers": 10628,
    "period": 15899,
    "alously": 15625,
    "Ġacquies": 11098,
    "deav": 2676,
    "Ġhalloa": 13312,
    "Ġmercy": 8999,
    "serve": 13041,
    "Ġsuppressing": 22992,
    "lings": 8746,
    "Ġeternally": 11370,
    "Ġsqueaking": 26273,
    "Ġda": 5150,
    "slightest": 25416,
    "Ġuntrodden": 23520,
    "emone": 21921,
    "onged": 18409,
    "rights": 23673,
    "Ġcease": 7076,
    "Ġdramat": 23214,
    "Ġplays": 12034,
    "Ġclothed": 19604,
    "doubted": 17525,
    "Ġmoved": 4838,
    "Ġspeeding": 23562,
    "Ġfaintly": 14913,
    "quely": 10232,
    "Ġguardianship": 17418,
    "Ġthoughtlessness": 16191,
    "Ġgratify": 19500,
    "Ġrequ": 817,
    "define": 1526,
    "importance": 9989,
    "warrior": 24797,
    "Ġstoutest": 24627,
    "Ġlone": 11613,
    "Ġsneezes": 24697,
    "Ġsubstantial": 14808,
    "divers": 15340,
    "Ġhide": 4588,
    "Ġsworn": 14433,
    "morn": 20974,
    "Ġdumb": 7843,
    "Ġillustrative": 25065,
    "Ġevidence": 5269,
    "Ġxiv": 23405,
    "ers": 405,
    "ships": 5486,
    "Ġcontemptible": 16952,
    "Ġplaguy": 22603,
    "Ġparties": 7038,
    "Ġthese": 820,
    "Ġrobberies": 23003,
    "Ġbolts": 16942,
    "Ġfears": 5729,
    "cig": 17502,
    "umber": 5241,
    "Ġembed": 1447,
    "Ġear": 1422,
    "Ġtent": 15465,
    "Ġsuccessfully": 19426,
    "ape": 1907,
    "pyramid": 21028,
    "Ġmeth": 1412,
    "Ġbelonging": 8307,
    "Ġstamped": 13523,
    "Ġshyness": 20304,
    "Ġattack": 5478,
    "ucy": 15442,
    "Ġvows": 15805,
    "'d": 12424,
    "rugged": 6849,
    "Ġpencil": 11940,
    "Ġbackwater": 18633,
    "dearest": 11733,
    "Ġdisregarded": 22526,
    "sery": 17660,
    "Ġtalent": 12294,
    "quake": 11679,
    "Ġdisagreeable": 9298,
    "abs": 11666,
    "Ġjoys": 13215,
    "affrail": 11206,
    "Ġinev": 10182,
    "prolong": 23392,
    "Ġstup": 14003,
    "pleasure": 5977,
    "Ġadvertised": 17246,
    "believed": 9933,
    "Ġbroom": 18905,
    "Ġoften": 1956,
    "de": 460,
    "Ġvouch": 15806,
    "Ġprejudiced": 24808,
    "itud": 2934,
    "judgment": 16752,
    "peleg": 16291,
    "Ġridiculous": 10629,
    "Ġbreak": 2871,
    "Ġribbons": 24328,
    "spike": 16135,
    "Ġactions": 6278,
    "Ġclubbed": 26546,
    "Ġhissed": 15785,
    "Ġforts": 21768,
    "Ġwester": 25152,
    "yl": 7818,
    "poke": 18800,
    "Ġsafer": 22166,
    "Ġdefines": 1745,
    "Ġtur": 2567,
    "Ġhard": 1442,
    "Ġabundance": 17154,
    "erns": 8778,
    "me": 862,
    "verity": 13999,
    "braces": 24657,
    "persons": 24172,
    "Ġgrammatical": 13535,
    "rises": 17654,
    "themselves": 6540,
    "appearing": 14636,
    "absent": 21785,
    "Ġdocks": 14174,
    "alliance": 22196,
    "Ġcouldn": 7648,
    "iness": 1284,
    "system": 4098,
    "Ġrid": 4354,
    "got": 6955,
    "Ġindiam": 22949,
    "girdling": 26388,
    "Ġvisiting": 10357,
    "desol": 13063,
    "Ġprotecting": 24685,
    "Ġgrowing": 6750,
    "Ġpresents": 8244,
    "Ġpolice": 4673,
    "Ġslipping": 13356,
    "Ġjollity": 25566,
    "Ġ36": 14766,
    "Ġshakespeare": 20305,
    "annica": 24560,
    "shirt": 22456,
    "Ġvictim": 6097,
    "Ġwanderings": 20141,
    "'s": 2470,
    "Ġmod": 492,
    "Ġsinusoidal": 4800,
    "sat": 4809,
    "shipping": 10309,
    "Ġhomeless": 23384,
    "holland": 24037,
    "Ġupd": 946,
    "Ġalice": 1483,
    "vex": 21694,
    "indirectly": 18436,
    "Ġimmensities": 25330,
    "isp": 5528,
    "Ġovertaken": 18428,
    "Ġbehaves": 23298,
    "Ġkeep": 2352,
    "Ġinfat": 14499,
    "Ġhush": 13205,
    "Ġintrospective": 20598,
    "Ġleaned": 7607,
    "Ġye": 900,
    "Ġperiods": 13299,
    "Ġmastery": 23989,
    "Ġstoner": 7178,
    "itors": 2916,
    "Ġsubdued": 11031,
    "bulkington": 19923,
    "Ġegyptian": 13583,
    "Ġunspeakable": 10056,
    "unning": 4493,
    "Ġfasc": 12595,
    "Ġtremor": 24767,
    "fered": 5560,
    "oned": 4629,
    "Ġ120": 16857,
    "Ġinequalities": 26452,
    "Ġhose": 12624,
    "constable": 24604,
    "tranquillity": 20544,
    "ientific": 6547,
    "Ġgruff": 21610,
    "Ġunreliable": 3930,
    "Ġtopsails": 19192,
    "Ġundue": 25992,
    "arming": 8952,
    "Ġobjective": 3766,
    "alty": 17937,
    "haustible": 16890,
    "Ġfilling": 13404,
    "Ġpermitting": 22386,
    "chapter": 1403,
    "Ġused": 2060,
    "Ġascertaining": 17202,
    "Ġrefill": 18689,
    "ivided": 22074,
    "Ġpert": 22382,
    "es": 289,
    "Ġgeological": 14532,
    "Ġxliv": 23406,
    "Ġso": 432,
    "Ġroarings": 25302,
    "as": 302,
    "¬": 110,
    "Ġsickening": 19602,
    "Ġchallenges": 13627,
    "Ġlistening": 6318,
    "Ġladyship": 5046,
    "Ġcasked": 24496,
    "Ġneglected": 10378,
    "Ġgidd": 25782,
    "endom": 15917,
    "Ġappals": 22216,
    "bree": 15312,
    "Ġdelighted": 5499,
    "ree": 874,
    "continued": 8676,
    "watching": 16929,
    "extraordinary": 9095,
    "Ġwrung": 14468,
    "cial": 2650,
    "course": 6104,
    "Ġunlab": 3788,
    "Ġ16": 7926,
    "eded": 9674,
    "icular": 2023,
    "rage": 10844,
    "hauled": 20666,
    "Ġper": 587,
    "Ġfoaming": 18991,
    "assemblies": 25955,
    "heavenly": 20042,
    "Ġlinear": 3434,
    "oner": 6124,
    "dest": 4103,
    "oused": 6556,
    "Ġfrankenstein": 7095,
    "enary": 12547,
    "Ġrepay": 19080,
    "nosed": 20990,
    "Ġfirmly": 8013,
    "Ġbes": 2662,
    "%": 9,
    "Ġexplanations": 15907,
    "pans": 13768,
    "Ġconstitutional": 25125,
    "longer": 8613,
    "Ġtrampling": 25492,
    "Ġmagnet": 10391,
    "Ġvolley": 24142,
    "Ġneighbouring": 12115,
    "Ġ19": 6719,
    "expound": 23661,
    "Ġblank": 5950,
    "Ġcaulking": 20291,
    "Ġplanisphere": 26606,
    "Ġid": 1912,
    "Ġfibres": 12946,
    "Ġsquare": 2395,
    "spirits": 8054,
    "Ġwight": 12549,
    "Ġfielding": 16226,
    "mud": 20969,
    "Ġcontinue": 5398,
    "july": 20472,
    "Ġoffence": 12941,
    "Ġmanned": 9271,
    "Ġstiffness": 24829,
    "inea": 7623,
    "Ġheroines": 19749,
    "causes": 20341,
    "Ġtimber": 13345,
    "Ġcooking": 16645,
    "Ġe": 311,
    ",âĢĿ": 579,
    "Ġcapable": 5054,
    "Ġunheard": 22021,
    "idated": 11660,
    "mat": 2196,
    "Ľ": 254,
    "Ġ1950": 11360,
    "Ġscene": 3098,
    "Ġgunwales": 12237,
    "ature": 519,
    "Ġlie": 4406,
    "Ġcredulous": 17143,
    "Ġreplete": 15694,
    "Ġpolar": 9411,
    "Ġboasting": 19933,
    "Ġdumbly": 24984,
    "Ġcontinued": 2925,
    "Ġgirth": 13131,
    "Ġdealer": 23973,
    "Ġrequiring": 2924,
    "hun": 5210,
    "Ġrather": 1496,
    "Ġnlp": 3063,
    "Ġblotting": 25313,
    "Ġmachinery": 20482,
    "blubber": 15234,
    "Ġomn": 8409,
    "difference": 13706,
    "Ġforesight": 13123,
    "Ġfavours": 23278,
    "Ġspreading": 13374,
    "Ġbarrow": 12066,
    "develop": 13514,
    "Ġaccord": 4026,
    "degra": 22137,
    "Ġinterference": 8894,
    "Ġblueprints": 13167,
    "_,âĢĻ": 12430,
    "aloud": 17939,
    "Ġpassenger": 14368,
    "ered": 1688,
    "unquiet": 21877,
    "successful": 11359,
    "Ġlump": 21548,
    "Ġpremises": 10488,
    "Ġinstance": 2546,
    "convinced": 10623,
    "vice": 15447,
    "Ġrecord": 5316,
    "icts": 22396,
    "Ġsecluded": 11990,
    "Ġpurchases": 24755,
    "crimin": 17507,
    "joint": 24005,
    "Ġentrances": 25833,
    "Ġcask": 5527,
    "Ġpipes": 9851,
    "september": 14034,
    "Ġfleece": 10615,
    "lantern": 17426,
    "Ġsmack": 9300,
    "Ġbecher": 18878,
    "Ġcirculation": 16414,
    "Ġdelicacy": 6340,
    "older": 15752,
    "Ġunsolved": 22029,
    "Ġowed": 10781,
    "Ġshamefully": 24715,
    "grasp": 16428,
    "brew": 11474,
    "ilities": 6991,
    "shining": 18496,
    "Ġlat": 5087,
    "Ġgreek": 10631,
    "Ġpossibly": 4513,
    "Ġcinque": 20483,
    "ĉ": 202,
    "Ġhadn": 9719,
    "Ġundulates": 24116,
    "Ġsunwards": 19014,
    "Ġlabyrin": 13100,
    "Ġchatbots": 11350,
    "Ġboundless": 10496,
    "hil": 8378,
    "Ġrud": 8477,
    "Ġdevelopments": 23237,
    "Ġbehavior": 8001,
    "Ġapo": 9631,
    "arat": 9181,
    "Ġgleamed": 17076,
    "Ġdoesn": 7438,
    "Ġinterlude": 16067,
    "Ġfriendly": 9820,
    "Ġcourtship": 24133,
    "Ġdum": 10812,
    "brance": 7284,
    "answered": 10274,
    "mathematics": 26303,
    "aches": 6570,
    "Ġcolour": 4461,
    "Ġvehic": 8934,
    "okingly": 22377,
    "Ġtravelling": 11308,
    "Ġbulkington": 14676,
    "Ġcongealed": 25980,
    "Ġcharing": 14179,
    "Ġupdates": 1301,
    "Ġreliability": 22877,
    "Ġvastly": 23857,
    "below": 12118,
    "Ġutil": 4671,
    "Ġgates": 10201,
    "surd": 6934,
    "Ġadapted": 11035,
    "pron": 9006,
    "Ġtelescope": 17346,
    "Ġsuper": 2153,
    "promise": 12247,
    "Ġconveying": 19712,
    "sudden": 5315,
    "usages": 22286,
    "Ġadvancing": 6878,
    "Ġdollars": 11456,
    "Ġbull": 7839,
    "Ġstarting": 7728,
    "Ġmidst": 7985,
    "inaw": 21181,
    "pooh": 18801,
    "elihood": 4621,
    "Ġcontrivances": 12354,
    "Ġscrut": 15942,
    "nne": 20987,
    "Ġthoroughfares": 26094,
    "Ġfragment": 14489,
    "ford": 2826,
    "Ġhollowly": 24525,
    "connections": 14426,
    "Ġpriv": 4181,
    "aet": 15305,
    "looked": 6083,
    "Ġsurely": 6307,
    "urbed": 15704,
    "Ġnewcastle": 16220,
    "Ġravings": 18646,
    "Ġbead": 21746,
    "Ġsurmise": 12292,
    "Ġemotions": 8970,
    "Ġperdition": 15985,
    "Ġlaughter": 9028,
    "Ġbefriend": 18080,
    "fishing": 20857,
    "phantoms": 24678,
    "Ġsmiting": 12895,
    "engine": 18925,
    "Ġcaw": 13881,
    "Ġstiffest": 24828,
    "little": 3351,
    "Ġprincipally": 11310,
    "Ġsmite": 22553,
    "thinks": 16640,
    "Ġhemp": 9216,
    "Ġhorsey": 24248,
    "Ġlodge": 5779,
    "increased": 20268,
    "Ġviolation": 23403,
    "Ġlofty": 6217,
    "Ġshattered": 7883,
    "whalemen": 10432,
    "farewell": 12303,
    "Ġunintermitted": 26218,
    "Ġmainz": 22655,
    "inexplicable": 25808,
    "Ġrelating": 2708,
    "Ġunfold": 8022,
    "prosperity": 20733,
    "earnestly": 17311,
    "Ġtraitors": 23075,
    "Ġwatery": 6296,
    "overlooked": 23322,
    "ions": 449,
    "Ġord": 3735,
    "Ġnurse": 9517,
    "Ġboyhood": 23753,
    "Ġinhabitants": 7524,
    "Ġrashly": 20303,
    "Ġpoll": 12027,
    "Ġsuffoc": 18868,
    "Ġpurporting": 19180,
    "Ġlonging": 14297,
    "beside": 19875,
    "quired": 21851,
    "Ġforge": 8456,
    "oration": 2206,
    "Ġoutermost": 22315,
    "Ġantagon": 19548,
    "acks": 11786,
    "Ġmincer": 14363,
    "Ġdow": 17885,
    "_)": 9102,
    "Ġminimizes": 2047,
    "Ġhoney": 12629,
    "umbered": 22113,
    "Ġapproving": 18513,
    "Ġprocopius": 19729,
    "Ġcomposition": 1692,
    "Ġlunacy": 20025,
    "umbling": 6758,
    "Ġriddle": 14818,
    "Ġtastes": 15475,
    "among": 6256,
    "isation": 13891,
    "Ġpalms": 8644,
    "Ġinsol": 10181,
    "Ġenl": 18187,
    "smart": 23903,
    "Ġplaned": 24051,
    "Ġreconc": 9683,
    "15": 12427,
    "Ġprophet": 7680,
    "humour": 7498,
    "Ġ39": 19487,
    "urs": 6989,
    "hamed": 6305,
    "lim": 9607,
    "gunwale": 20661,
    "baron": 24924,
    "Ġagreeing": 20016,
    "Ġpetulance": 24226,
    "Ġtantalizing": 20411,
    "Ġreproof": 24889,
    "Ġsustain": 10017,
    "cannot": 5745,
    "ls": 1292,
    "Ġequ": 1738,
    "iag": 20914,
    "Ġdoubting": 13096,
    "loveliness": 26548,
    "Ġmenaces": 23103,
    "Ġvelvets": 25393,
    "Ġrabbit": 4288,
    "ily": 1031,
    "osing": 3690,
    "Ġpines": 12614,
    "Ġedition": 16432,
    "Ġsensation": 6896,
    "allowance": 16823,
    "aps": 1228,
    "Ġchina": 8039,
    "Ġdreaded": 8288,
    "Ġ78": 19611,
    "Ġmysticetus": 24921,
    "Ġhardy": 8566,
    "Ġstation": 5297,
    "reporting": 24493,
    "astrous": 15883,
    "dro": 6644,
    "Ġpaddington": 17094,
    "racts": 14349,
    "Ġpeak": 16123,
    "Ġwidow": 8663,
    "obed": 14444,
    "Ġfreed": 7267,
    "Ġtruest": 16702,
    "Ġviolence": 5962,
    "Ġoath": 7833,
    "Ê": 139,
    "Ġcore": 13876,
    "rudent": 6482,
    "Ġtale": 5142,
    "Ġarabian": 9090,
    "li": 1186,
    "itar": 15543,
    "Ġponder": 6819,
    "Ġmeal": 9697,
    "Ġstrainings": 24626,
    "zealand": 26051,
    "heim": 17745,
    "ulged": 12727,
    "Ġlivelong": 25511,
    "largely": 19572,
    "Ġdaft": 19661,
    "Ġsi": 21210,
    "proportion": 16176,
    "Ġcards": 7580,
    "shazzar": 15287,
    "Ġpikes": 21474,
    "Ġfool": 4234,
    "Ġtransitory": 16015,
    "Ġtrading": 23073,
    "iform": 2198,
    "Ġsometimes": 2165,
    "icher": 9203,
    "Ġhall": 4182,
    "Ġhapp": 1089,
    "usion": 3301,
    "!âĢĻâĢĿ": 16591,
    "Ġstained": 11651,
    "ĠĠĠĠĠĠĠĠĠĠĠĠĠĠĠĠĠĠĠĠĠĠĠĠĠ": 24441,
    "Ġbodily": 6106,
    "Ġfished": 21407,
    "Ġcrowd": 6336,
    "vic": 13800,
    "senses": 25021,
    "desper": 13064,
    "Ġexpert": 18872,
    "Ġsigning": 22706,
    "Ġsimultaneous": 22584,
    "Ġsoftened": 11104,
    "Ġtho": 21510,
    "atives": 2233,
    "Ġmonsieur": 12418,
    "score": 18848,
    "eland": 11620,
    "Ġpod": 15600,
    "Ġaudacity": 19880,
    "Ġfettered": 24567,
    "Ġborder": 10170,
    "russian": 22179,
    "Ġmonth": 2853,
    "andes": 18150,
    "Ġbrightened": 23825,
    "Ġafford": 4365,
    "ascertaining": 26459,
    "ample": 1364,
    "Ġidentity": 2526,
    "Ġpredicting": 2414,
    "Ġslewed": 23382,
    "bodily": 17313,
    "Ġradiating": 24334,
    "Ġache": 18662,
    "Ġcobb": 14270,
    "Ġrudimental": 25107,
    "ison": 3075,
    "Ġdescription": 7429,
    "black": 6768,
    "Ġdescending": 8903,
    "Ġdie": 3963,
    "Ġrequesting": 24631,
    "ctuous": 9206,
    "Ġshouting": 10523,
    "Ġlard": 13945,
    "Ġfem": 6134,
    "Ġamel": 18508,
    "Ġrecept": 1524,
    "Ġtand": 21158,
    "Ġcare": 1640,
    "quished": 21850,
    "Ġcent": 3254,
    "Ġrhine": 12353,
    "Ġfling": 9661,
    "urous": 10213,
    "Ġstammered": 26198,
    "Ġdives": 17889,
    "univers": 15768,
    "Ġagrippa": 11805,
    "Ġpertin": 18443,
    "Ġmou": 13853,
    "Ġconstantinople": 19835,
    "Ġlull": 15647,
    "Ġmaze": 23827,
    "bbing": 6323,
    "pt": 385,
    "Ġrake": 18643,
    "Ġnails": 12645,
    "hest": 3368,
    "plexion": 14259,
    "ĠĠĠĠĠĠĠĠĠĠĠĠĠĠĠĠĠĠĠĠĠĠĠĠĠĠĠĠĠĠĠĠĠĠĠĠĠĠĠĠĠĠĠĠĠĠĠĠĠĠĠ": 20036,
    "č": 206,
    "unt": 2044,
    "berg": 11855,
    "itters": 10782,
    "Ġthrob": 21514,
    "Ġpleasing": 6190,
    "Ġsomnam": 22996,
    "Ġstate": 1811,
    "Ġdistrusted": 13538,
    "insufficient": 15487,
    "Ġsings": 15503,
    "Ġeats": 15673,
    "Ġeven": 1026,
    "Ġpace": 9183,
    "ĠĠĠĠĠĠĠĠĠĠĠĠĠĠĠĠĠĠĠĠĠĠĠĠĠĠĠĠĠĠĠ": 19698,
    "shavings": 22461,
    "Ġbetake": 22903,
    "resolutions": 26163,
    "Ġrequires": 1039,
    "Ġjar": 15947,
    "Ġsons": 10767,
    ".âĢĿ": 464,
    "Ġknot": 7011,
    "Ġstil": 15714,
    "grinder": 23412,
    "Ġconfinement": 19040,
    "Ġdrags": 16940,
    "Ġdz": 4755,
    "Ġdiddled": 22663,
    "responsible": 25762,
    "kington": 11204,
    "Ġpurch": 6599,
    "Ġgovernment": 15174,
    "answering": 26003,
    "Ġindec": 13926,
    "dar": 20822,
    "quadr": 15760,
    "Ġthankful": 14736,
    "scythes": 26401,
    "happiest": 19330,
    "Ġdiminished": 16664,
    "Ġpugnacious": 26450,
    "huzza": 20911,
    "hunting": 24384,
    "oded": 11668,
    "Ġtech": 1573,
    "Ġtutored": 20125,
    "christmas": 20253,
    "acters": 9309,
    "phon": 4127,
    "characteristic": 24684,
    "Ġdistur": 5312,
    "Ġcr": 2151,
    "Ġfuss": 13903,
    "neying": 22445,
    "histicated": 20899,
    "sensible": 20049,
    "couldn": 23715,
    "Ġgovern": 10451,
    "regarding": 15069,
    "Ġconfederate": 17352,
    "equal": 14991,
    "Ġnaturally": 2467,
    "Ġpunchbowl": 20229,
    "ÿ": 192,
    "whaler": 20307,
    "Ġarg": 4765,
    "ustry": 18355,
    "Ġconv": 2974,
    "vill": 10736,
    "Ġfeeling": 3084,
    "Ġvan": 1087,
    "closed": 23150,
    "onness": 21252,
    "Ġdispute": 16052,
    "Ġsenses": 8251,
    "Ġcurbstone": 26045,
    "Ġcapacious": 19174,
    "injustice": 17736,
    "Ġaccepted": 7750,
    "Ġis": 347,
    "Ġrag": 18641,
    "Ġearly": 2078,
    "Ġamid": 4959,
    "Ġdisturbed": 8672,
    "cur": 3271,
    "Ġfonder": 17879,
    "Ġfron": 14486,
    "Ġcove": 22576,
    "Ġnovels": 15926,
    "Ġbruited": 25772,
    "Ġbridges": 24681,
    "ceiving": 3903,
    "very": 499,
    "Ġcleaving": 23178,
    "Ġul": 6828,
    "Ġperseverance": 13594,
    "Ġsusp": 2665,
    "Ġstrat": 16089,
    "clothes": 9058,
    "Ġdispatched": 23878,
    "Ġassembled": 9236,
    "Ġbleeds": 24396,
    "design": 18958,
    "Ġbelieving": 8224,
    "dling": 9112,
    "Ġforefinger": 16442,
    "noticed": 14341,
    "anywhere": 14681,
    "Ġruins": 16155,
    "Ġcontinental": 19703,
    "Ġshared": 10264,
    "reshold": 21237,
    "quohog": 21854,
    "hard": 4688,
    "Ġcheering": 11134,
    "Ġstructural": 2803,
    "Ġflail": 23005,
    "Ġsteadfastly": 10652,
    "Ġemigrant": 25858,
    "Ġciv": 3308,
    "shell": 16284,
    "Ġfeet": 2255,
    "Ġaccompanied": 6780,
    "spade": 10343,
    "uced": 13798,
    "Ġresolving": 9419,
    "Ġsturgeon": 20589,
    "Ġsill": 10766,
    "Ġindispensable": 11897,
    "Ġassociates": 24711,
    "committed": 18741,
    "Ġgame": 3629,
    "indebted": 26157,
    "Ġdialogue": 12401,
    "Ġessentially": 24923,
    "Ġhungry": 10533,
    "Ġgreenwich": 19318,
    "Ġinsists": 23676,
    "Ġhasn": 12923,
    "Ġquaff": 22410,
    "Ġribs": 7101,
    "<EOS>": 2,
    "prof": 7698,
    "why": 2833,
    "Ġontario": 26203,
    "urance": 10858,
    "Ġcynicism": 25770,
    "urch": 3995,
    "accessible": 13636,
    "brimming": 23575,
    "Ġfellow": 2782,
    "Ġexists": 14039,
    "Ġcountryside": 23594,
    "abling": 1080,
    "thankful": 16805,
    "Ġbakers": 17865,
    "Ġissue": 2309,
    "Ġcord": 5222,
    "Ġcommerce": 11016,
    "prick": 19340,
    "rect": 1601,
    "Ġaveraging": 2417,
    "inities": 21183,
    "Ġduplicate": 17214,
    "requ": 7148,
    "Ġcovent": 16069,
    "Ġlive": 2737,
    "Ġdisturbance": 15011,
    "sun": 7139,
    "advantage": 8659,
    "Ġdifferent": 1427,
    "entreaties": 26184,
    "ateness": 15517,
    "je": 11496,
    "Ġcurving": 16242,
    "Ġinestim": 15620,
    "Ġeleg": 6192,
    "Ġjewelled": 20181,
    "Ġmotioned": 19590,
    "Ġcheese": 9377,
    "Ġforgotten": 5679,
    "restored": 18978,
    "gallantry": 15057,
    "Ġsqualidness": 25841,
    "Ġvelocity": 10621,
    "precise": 19348,
    "interrupt": 8616,
    "keeping": 8635,
    "Ġbressed": 21384,
    "Ġmarvellous": 7538,
    "Ġimportant": 1124,
    "meantime": 9092,
    "Ġspectrum": 4474,
    "Ġtongs": 9961,
    "Ġbefore": 810,
    "Ġgeneral": 1863,
    "iated": 5889,
    "avo": 8517,
    "Ġannealing": 1554,
    "Ġwindows": 4971,
    "Ġelucidated": 26028,
    "Ġalike": 8146,
    "Ġquarter": 3977,
    "Ġalgorith": 567,
    "Ġcomprising": 16065,
    "S": 55,
    "ences": 1262,
    "outside": 12801,
    "Ġhalting": 16272,
    "Ġwindlass": 7256,
    "note": 14340,
    "Ġtumble": 16878,
    "Ġforthwith": 16617,
    "Ġalluded": 7884,
    "Ġawakened": 10454,
    "Ġquarters": 8620,
    "Ġlighter": 12650,
    "wicked": 24448,
    "Ġsoles": 22079,
    "satisfied": 10579,
    "Ġprep": 4189,
    "orrowed": 19287,
    "shortly": 12255,
    "otam": 21794,
    "Ġsight": 2111,
    "entreat": 17974,
    "Ġhud": 10823,
    "Ġgave": 2215,
    "Ġspoils": 24807,
    "----âĢĿ": 13302,
    "Ġtelescopes": 25687,
    "imming": 9687,
    "Ġuntamed": 19162,
    "Ġobject": 1396,
    "Ġresnet": 5473,
    "chains": 9685,
    "Ġveneration": 25043,
    "hammer": 14488,
    "Ġbirch": 26173,
    "ting": 1335,
    "Ġexter": 7397,
    "Ġpreprocessing": 26535,
    "approach": 24832,
    "Ġmounting": 19974,
    "worm": 15451,
    "Ġallude": 12768,
    "Ġweaving": 12737,
    "autions": 20765,
    "Ġbrutality": 26275,
    "Ġ76": 24261,
    "Ġxx": 5492,
    "Ġgrow": 2863,
    "Ġintensity": 10016,
    "Ġtechni": 1615,
    "abern": 21786,
    "eel": 11484,
    "hertfordshire": 10937,
    "ulus": 21860,
    "Ġanimate": 23420,
    "Ġstamping": 20028,
    "Ġdoings": 18374,
    "swiss": 24254,
    "Ġtranquill": 6630,
    "Ġcelerity": 17434,
    "Ġlaw": 3655,
    "Ġgaiety": 16748,
    "Ġwitnessing": 19596,
    "Ġcrate": 19121,
    "Ġadded": 2719,
    "shoes": 14240,
    "Ġdagger": 21434,
    "Ġinscriptions": 20006,
    "pipe": 8697,
    "worshipping": 16609,
    "Ġmonsters": 11075,
    "Ġsummit": 7730,
    "Ġfeatures": 1431,
    "rious": 11687,
    "Ġtilted": 20410,
    "Ġleaping": 8340,
    "Ġadjusting": 3412,
    "Ġannot": 15598,
    "Ġearls": 18902,
    "onents": 8777,
    "pig": 8753,
    "my": 1316,
    "Ġ75": 19610,
    "syntax": 5866,
    "Ġcannibal": 7773,
    "Ġsupposition": 9817,
    "Ġtransferred": 16453,
    "conf": 4957,
    "best": 6111,
    "Ġfine": 1317,
    "Ġfurnaces": 24001,
    "Ġherds": 9716,
    "Ġhushed": 13923,
    "ego": 4036,
    "Ġdisgusted": 14988,
    "Ġtendons": 19806,
    "writing": 7720,
    "ladyship": 14827,
    "Ġconfirming": 25321,
    "utility": 21583,
    "Ġdeclare": 6614,
    "raising": 21628,
    "Ġdisplays": 19855,
    "write": 14646,
    "Ġpetrified": 19594,
    "Ġbuckets": 17033,
    "prevented": 20371,
    "Ġpoor": 1713,
    "Ġstrings": 11827,
    "honour": 13463,
    "Ġbreaches": 14520,
    "Ġpiqu": 21473,
    "Ġbreathed": 11221,
    "Ġorders": 5340,
    "Ġproposition": 23247,
    "ung": 2748,
    "Ġlegendary": 20535,
    "studied": 17148,
    "Ġtierce": 15476,
    "flow": 2210,
    "ortunities": 15937,
    "Ġxvi": 19103,
    "Ġsquire": 16179,
    "larking": 17593,
    "Ġcost": 2508,
    "exc": 5169,
    "Ġadro": 15863,
    "start": 7598,
    "py": 17623,
    "Ġhunch": 18933,
    "thorough": 21981,
    "Ġgroup": 2037,
    "Ġbubbling": 17324,
    "Ġabst": 9266,
    "Ġdangers": 12351,
    "Ġnecks": 18182,
    "Ġand": 295,
    "Ġcentury": 8290,
    "Ġreasoner": 14437,
    "roofed": 26182,
    "Ġsuccessful": 9923,
    "Ġwarrant": 17793,
    "Ġmanners": 3790,
    "Ġglories": 16235,
    "Ġbold": 5291,
    "Ġheroine": 24542,
    "Ġqueer": 4478,
    "Ġbarbarous": 13472,
    "vari": 1516,
    "Ġfretfully": 25447,
    "Ġseclusion": 18205,
    "Ġstruct": 2789,
    "admit": 18089,
    "laden": 14927,
    "Ġmu": 17794,
    "Ġcorpore": 13397,
    "Ġobtru": 18674,
    "Ġspitzbergen": 15285,
    "Ġoverboard": 6044,
    "Ġprofession": 6207,
    "Ġbland": 11065,
    "Ġne": 390,
    "Ġlike": 668,
    "deliber": 17424,
    "Ġwholesome": 16002,
    "Ġfrolic": 23920,
    "linked": 17592,
    "harbor": 13561,
    "Ġinquirers": 24961,
    "orphans": 26439,
    "foundation": 16713,
    "N": 50,
    "Ġharder": 14447,
    "Ġconsecrated": 26487,
    "Ġportcullis": 26602,
    "murdered": 12199,
    "ids": 21759,
    "Ġcocoan": 20314,
    "Ġtawn": 13821,
    "aulding": 11340,
    "holes": 12051,
    "hundreds": 25072,
    "Ġpanting": 11602,
    "separ": 9231,
    "Ġobscure": 9554,
    "apparent": 11042,
    "inforcement": 2963,
    "convalescence": 24883,
    "Ġplayfulness": 23637,
    "teness": 23201,
    "pleasant": 5874,
    "Ġreposing": 23358,
    "Ġhearse": 10421,
    "Ġschools": 9477,
    "iction": 4267,
    "Ý": 158,
    "Ġunravel": 26213,
    "Ġphilips": 5410,
    "Ġdepressed": 10884,
    "giving": 8739,
    "Ġbrightness": 16575,
    "Ġaddison": 14231,
    "Ġpropos": 7062,
    "Ġwr": 1544,
    "Ġhospital": 15038,
    "subject": 6631,
    "Ġven": 4646,
    "Ġunwe": 15835,
    "Ġsurvey": 13590,
    "contrad": 19289,
    "Ġmonogra": 22971,
    "Ġbrotherly": 16527,
    "Ġknowledge": 1445,
    "Ġfiltering": 23922,
    "Ġdecreases": 3409,
    "Ġthro": 5817,
    "Ġinsatiate": 19268,
    "Ġpemberley": 4587,
    "ood": 966,
    "Ġspiced": 22129,
    "Ġservice": 6471,
    "wedded": 24338,
    "Ġunceasing": 20355,
    "just": 1703,
    "Ġmeanest": 12907,
    "aswag": 21542,
    "Ġilliter": 23466,
    "Ġguess": 4903,
    "Ġstood": 2553,
    "mand": 3895,
    "Ġfads": 21413,
    "Ġsultanism": 25887,
    "Ġhack": 12753,
    "Ġunrestrained": 25554,
    "Ġfigures": 8630,
    "Ġbeque": 18079,
    "victim": 25530,
    "enses": 10995,
    "Ġapply": 1778,
    "title": 17286,
    "Ġderbyshire": 6586,
    "Ġsoliloquized": 17300,
    "Ġhouses": 6138,
    "Ġadvancement": 24474,
    "repeating": 20126,
    "commanders": 16988,
    "arranging": 19315,
    "Ġremnants": 22792,
    "Ġembraces": 19870,
    "elijah": 19470,
    "Ġunfathom": 14787,
    "oried": 10803,
    "devoted": 20014,
    "Ġinternal": 2243,
    "Ġjenkinson": 11432,
    "Ġgratifying": 13301,
    "Ġconcrete": 20634,
    "Ġclubs": 25179,
    "town": 7142,
    "Ġpromise": 4196,
    "Ġsprout": 24085,
    "turkish": 24532,
    "buckets": 26122,
    "smooth": 20246,
    "Ġpe": 850,
    "!âĢĿ": 846,
    "Ġdiscomposed": 25579,
    "way": 767,
    "buff": 15316,
    "executed": 25738,
    "legs": 13178,
    "achine": 613,
    "Ġenthus": 7232,
    "Ġbloodshed": 23798,
    "judge": 13332,
    "Ġlinked": 15075,
    "Ġsports": 18309,
    "biscuit": 17499,
    "john": 11498,
    "impetuous": 23761,
    "Ġpreserve": 7529,
    "Ġaccorded": 24086,
    "Ġpulling": 5862,
    "plutarch": 21959,
    "af": 2375,
    "vis": 4576,
    "baggage": 24925,
    "Ġsermons": 20192,
    "Ġscheduling": 2346,
    "erer": 8732,
    "Ġwiping": 25764,
    "Ġjavelins": 26104,
    "hill": 15360,
    "iracle": 11245,
    "ithmetic": 18060,
    "Ġfrigid": 17351,
    "Ġmarking": 16467,
    "Ġmagistrate": 8233,
    "Ġprofessors": 14723,
    "Ġhero": 5715,
    "iance": 5279,
    "Ġjoining": 13160,
    "frankenstein": 11392,
    "Ġcovariate": 2347,
    "Â·": 21147,
    "Ġvertu": 23887,
    "unavoidable": 17388,
    "bered": 4504,
    "breaths": 25336,
    "pence": 15407,
    "Ġobtruded": 20720,
    "Ġpract": 1812,
    "Ġneat": 6999,
    "drove": 16992,
    "Ġspotted": 12135,
    "income": 15484,
    "corrob": 24484,
    "Ġdelineate": 26056,
    "sin": 21046,
    "ĠĠĠĠĠĠĠĠĠĠĠĠĠĠĠĠĠĠĠĠĠĠĠĠĠĠĠĠĠĠĠĠĠĠĠĠĠĠĠĠĠĠĠ": 12151,
    "Ġsignal": 5944,
    "shire": 3025,
    "Ġattendant": 11286,
    "Ġmenaced": 16290,
    "Ġdebt": 12164,
    "cain": 15324,
    "wick": 5362,
    "inting": 9814,
    "Ġblooming": 17211,
    "Ġcomfort": 3440,
    "Ġdismast": 12885,
    "Ġdistressed": 8514,
    "Ġrestrictions": 20633,
    "Ġgiddy": 20494,
    "uracy": 1090,
    "istic": 975,
    "Ġdownward": 10332,
    "Ġunconcern": 14115,
    "Ġportion": 7492,
    "affectionate": 24920,
    "Ġopen": 1551,
    "Ġemployment": 8629,
    "began": 6426,
    "Ġbrought": 2519,
    "Ġadds": 1806,
    "Ġinaccessible": 13932,
    "Ġcoleman": 22581,
    "Ġdidn": 4362,
    "Ġpurposely": 10445,
    "prevent": 11791,
    "Ġtyph": 10008,
    "Ġiceland": 15144,
    "Ġinstead": 2795,
    "Ġapproach": 857,
    "alarmed": 21499,
    "blow": 9104,
    "Ġvexations": 24608,
    "Ġghost": 6142,
    "cab": 7333,
    "Ġclerval": 4652,
    "remediable": 26293,
    "Ġornam": 15861,
    "Ġfacilitate": 26097,
    "cous": 8722,
    "Ġamounted": 18511,
    "iation": 7343,
    "Ġcrews": 8991,
    "rably": 21629,
    "pounds": 21023,
    "n": 82,
    "Ġinquir": 4241,
    "Ġark": 10276,
    "enter": 7857,
    "ee": 1664,
    "bureau": 20787,
    "fic": 20850,
    "Ġgossiping": 26242,
    "Ġdoctor": 5067,
    "mutually": 26135,
    "andromeda": 21864,
    "Ġlessened": 19086,
    "Ġy": 341,
    "Ġenquired": 21936,
    "Ġgeography": 23369,
    "Ġdandy": 17891,
    "tanh": 5204,
    "softened": 20407,
    "iarity": 8744,
    "Ġnormal": 1202,
    "Ġtheology": 21274,
    "Ġpaced": 7583,
    "Ġcentaurs": 23829,
    "mbl": 5946,
    "raid": 3280,
    "nour": 20986,
    "Ġplenty": 6708,
    "Ġlodgings": 8311,
    "clopÃ¦": 13050,
    "Ġalph": 9695,
    "itan": 10160,
    "illar": 5101,
    "Ġacquire": 2726,
    "Ġtub": 7146,
    "Ġlawless": 19432,
    "ixed": 4850,
    "Ġheaving": 7600,
    "Ġtraces": 7945,
    "Ġgirls": 4279,
    "cast": 2930,
    "Ġtut": 8770,
    "inarticulate": 21193,
    "Ġirreparable": 19996,
    "footed": 19687,
    "poison": 14391,
    "Ġimminent": 11246,
    "Ġnug": 21521,
    "Ġnaturalists": 10365,
    "Ġpositively": 13024,
    "Ġexceeded": 14431,
    "irations": 18169,
    "Ġmargaret": 10377,
    "Ġhooded": 12403,
    "uvian": 12239,
    "Ġsplitting": 4382,
    "hors": 9599,
    "scotland": 20525,
    "Ġdeep": 805,
    "Ġinmost": 17929,
    "Ġislanders": 19499,
    "Ġstructures": 2723,
    "Ġapolog": 9044,
    "Ġmentioned": 4328,
    "Ġensl": 19272,
    "Ġwriting": 4666,
    "Ġappeal": 16313,
    "Ġsledge": 8110,
    "Ġinvestment": 24335,
    "uger": 21101,
    "monster": 8592,
    "itect": 970,
    "ugnance": 12364,
    "Ġbound": 3519,
    "Ġirreduc": 5491,
    "opened": 7912,
    "handed": 7482,
    ",": 16,
    "ellent": 3761,
    "Ġgenerating": 12850,
    "Ġgould": 17988,
    "silenced": 24422,
    "inct": 3293,
    "Ġceler": 15547,
    "Ġpeered": 18667,
    "nonsense": 17614,
    "rock": 15637,
    "Ġnursery": 19748,
    "Ġhermits": 22070,
    "Ġunharmed": 15137,
    "Ġjoyfully": 19343,
    "Ġostrich": 26429,
    "bergen": 14327,
    "late": 11499,
    "Ġdarkly": 19113,
    "Ġdates": 6693,
    "tram": 19633,
    "Ġgallery": 10525,
    "Ġamends": 14244,
    "Ġuncomfortable": 8485,
    "Ġcontinual": 6777,
    "mighty": 9467,
    "Ġjuggler": 26365,
    "anatory": 21360,
    "Ġmilan": 19533,
    "elstrom": 17980,
    "Ġplied": 22596,
    "Ġoffices": 14337,
    "ils": 3180,
    "Ġinviting": 19142,
    "Ġguests": 12284,
    "Ġbern": 17857,
    "rus": 5929,
    "oak": 21001,
    "Ġcorner": 4369,
    "pondicherry": 26399,
    "Ġloaded": 8490,
    "Ġpaying": 9938,
    "Ġwallow": 19463,
    "Ġaugmentation": 20113,
    "ipper": 13738,
    "Ġsmitten": 12896,
    "Ġmidday": 23633,
    "want": 8766,
    "Ġtransition": 14232,
    "Ġenemy": 5605,
    "Ġforbid": 7864,
    "varying": 13802,
    "Ġtime": 689,
    "andy": 8157,
    "Ġgn": 8818,
    "Ġvia": 2381,
    "Ġindividuals": 24545,
    "Ġregarding": 13204,
    "Ġdefine": 9815,
    "Ġeight": 3902,
    "Ġex": 361,
    "Ġumb": 11645,
    "Ġgrievances": 20646,
    "recollected": 25347,
    "Ġemperor": 15156,
    "Ġinsist": 9891,
    "corpse": 24485,
    "Ġabsurdly": 19957,
    "uble": 21100,
    "week": 12927,
    "_?âĢĿ": 15303,
    "indian": 11776,
    "Ġelastic": 4361,
    "Ġbehave": 23297,
    "certain": 3677,
    "Ġbillow": 14777,
    "disapprobation": 19154,
    "Ġreluct": 14370,
    "Ġrecollection": 6620,
    "Ġhastily": 5763,
    "ional": 1084,
    "Ġbelrive": 18829,
    "Ġcolonel": 3406,
    "deformity": 22142,
    "ind": 568,
    "ellest": 21570,
    "Ġdictionary": 15110,
    "Ġsplinter": 23745,
    "dishonourable": 26364,
    "canoes": 16228,
    "ldog": 21914,
    "Ġwhite": 1538,
    "Ġrates": 1404,
    "housekeeping": 24100,
    "awned": 19457,
    "rol": 5713,
    "sicilian": 21061,
    "Ġcrabs": 19172,
    "Ġharvard": 24572,
    "_)âĢĶ": 20142,
    "Ġflamingo": 15098,
    "Ġenderby": 13648,
    "_âĢĶâĢĻ": 13680,
    "bots": 10083,
    "aby": 18105,
    "Ġflavor": 16250,
    "Ġdepart": 4655,
    "Ġpromote": 23189,
    "representativeness": 25272,
    "everlasting": 18771,
    "placidity": 25987,
    "entions": 17973,
    "proves": 23391,
    "cheered": 23803,
    "Ġducking": 17145,
    "Ġtragedy": 10668,
    "Ġvertebra": 20179,
    "heartily": 24214,
    "impe": 21704,
    "aintance": 3569,
    "Ġheel": 9684,
    "Ġhawaiian": 25366,
    "Ġsidel": 9636,
    "Ġenforced": 21934,
    "impulse": 20643,
    "Ġseethings": 26502,
    "Ġremembrance": 8317,
    "turn": 4291,
    "find": 6954,
    "Ġdecision": 2678,
    "Ġterrify": 19358,
    "Ġuttermost": 19485,
    "instinctively": 26326,
    "beaten": 20313,
    "Ġdismal": 11808,
    "Ġbrothers": 13171,
    "jol": 20923,
    "Ġsund": 8247,
    "ield": 2407,
    "Ġhatty": 19263,
    "Ġmercifully": 20176,
    "Ġhumble": 8552,
    "etween": 776,
    "Ġtr": 551,
    "volume": 18589,
    "adoes": 11659,
    "Ġbarren": 11207,
    "Ġarrow": 10932,
    "pacing": 21019,
    "Ġapprehended": 26090,
    "Ġdines": 21420,
    "Ġwhel": 15865,
    "proble": 9394,
    "Ġconquer": 14025,
    "Ġsquee": 7928,
    "Ġglit": 8559,
    "ices": 2137,
    "Ġbringing": 5869,
    "Ġseamen": 5063,
    "reputation": 15513,
    "Ġconcerned": 5331,
    "Ġcitations": 25437,
    "them": 3023,
    "Ġlearned": 2024,
    "lace": 13746,
    "artic": 14214,
    "soo": 18686,
    "Ġthickest": 16653,
    "undant": 14790,
    "handkerchief": 14617,
    "Ġ}": 21151,
    "iss": 2174,
    "Ġinfinitely": 8964,
    "Ġgrounds": 6749,
    "Ġanimal": 2501,
    "Ġvoice": 2187,
    "tree": 11534,
    "Ġhost": 7068,
    "Ġyell": 21773,
    "Ġthoughts": 3137,
    "Ġrepented": 23359,
    "Ġvincent": 15281,
    "¼": 125,
    "Ġhopelessly": 16376,
    "77": 15298,
    "Ġsanctified": 25882,
    "clergy": 18932,
    "Ġdear": 1539,
    "feeder": 12358,
    "appointment": 24056,
    "Ġgale": 5822,
    "ierce": 14390,
    "Ġskills": 1840,
    "Ġmajestic": 8640,
    "Ġissues": 9542,
    "anqu": 4110,
    "Ġhorns": 11124,
    "Ġsociety": 3979,
    "Ġunallied": 22028,
    "calculation": 25688,
    "thou": 4707,
    "companions": 15022,
    "Ġdescribes": 3121,
    "fted": 9119,
    "exceedingly": 9567,
    "Ġinvariably": 8063,
    "increas": 10455,
    "Ġoverseeing": 22356,
    "vent": 683,
    "Ġclanging": 18422,
    "Ġ1869": 19381,
    "Ġshiver": 12764,
    "professor": 17248,
    "endous": 6850,
    "gammon": 20241,
    "Ġcared": 8783,
    "Ġkey": 2102,
    "avering": 24792,
    "Ġsmoking": 6429,
    "Ġslackened": 15124,
    "Ġdetailed": 12821,
    "Ġrh": 9244,
    "reserve": 17764,
    "uctive": 17695,
    "orte": 14183,
    "Ġtunes": 24618,
    "derer": 4599,
    "ł": 259,
    "Ġdark": 2112,
    "Ġexpanse": 14290,
    "quis": 7869,
    "hopes": 15367,
    "ven": 782,
    "Ġapt": 9156,
    "dire": 15334,
    "Ġdestroy": 5772,
    "Ġwicked": 5960,
    "Ġarcher": 22175,
    "andam": 10889,
    "bble": 17483,
    "Ġif": 698,
    "dra": 3414,
    "tried": 13792,
    "Ġfeasible": 22207,
    "Ġnotwithstanding": 9714,
    "Ġcomprehending": 24444,
    "Ġcomprised": 14266,
    "disreputable": 23502,
    "Ġpirate": 14995,
    "bread": 10685,
    "astrop": 3315,
    "Ġquartered": 20370,
    "iliar": 15710,
    "slanting": 24557,
    "regarded": 12005,
    "Ġindistinctly": 26116,
    "lin": 9604,
    "Ġneutral": 12738,
    "Ġsaville": 15886,
    "Ġinsip": 19265,
    "Ġhung": 4559,
    "felt": 5888,
    "structure": 2302,
    "Ġcrags": 23526,
    "Ġproblems": 2852,
    "ouching": 13173,
    "Ġviews": 7290,
    "âĢĶâĢĺ_": 24830,
    "ĠĠĠĠĠĠĠĠĠĠĠĠĠĠĠĠĠĠĠĠĠĠĠĠĠĠĠĠĠĠĠĠ": 2740,
    "Ġlaborious": 13099,
    "Ġinglorious": 24423,
    "attentions": 13571,
    "Ġfut": 15571,
    "leagues": 21370,
    "Ġsomebody": 7911,
    "Ġsix": 3046,
    "Ġfixing": 13152,
    "anning": 10165,
    "Ġmansfield": 25937,
    "Ġwrapt": 24594,
    "Ġthing": 1641,
    "Ġvul": 10248,
    "Ġsust": 7007,
    "room": 2176,
    "Ġcass": 13877,
    "Ġsoftly": 7947,
    "attent": 9360,
    "enchant": 21281,
    "Ġhunted": 7453,
    "carrying": 16711,
    "Ġlasting": 18792,
    "Ġdolph": 12377,
    "Ġwants": 5742,
    "impatient": 13637,
    "mechanically": 17298,
    "Ġfile": 13901,
    "Ġlichen": 20089,
    "abouts": 9453,
    "algorithm": 4384,
    "cles": 8726,
    "Ġtamer": 24975,
    "cry": 12442,
    "Ġconsec": 21801,
    "Ġcondense": 21804,
    "Ġbackpropagation": 1229,
    "Ġeverybody": 4510,
    "Ġleaning": 5228,
    "impropriety": 21709,
    "Ġgomorrah": 21611,
    "Ġmodern": 3228,
    "Ġencircling": 26270,
    "Ġbordeaux": 24563,
    "Ġgrinning": 9054,
    "Ġbapt": 13894,
    "Ġcommence": 6167,
    "mill": 13752,
    "Ġfulfilment": 20185,
    "Ġobe": 5800,
    "Ġassist": 3564,
    "miss": 3172,
    "master": 5687,
    "Ġholder": 6724,
    "Ġlamps": 14789,
    "Ġscience": 1579,
    "ife": 1024,
    "nantucketer": 24971,
    "Ġcust": 11582,
    "complete": 15033,
    "Ġdescent": 987,
    "Ġpubl": 3941,
    "larger": 24201,
    "Ġregretted": 13396,
    "Ġrefined": 18690,
    "kl": 4865,
    "enough": 6809,
    "Ġevangelist": 20336,
    "Ġcommonplaces": 16286,
    "Ġimplicate": 24875,
    "Ġunbroken": 18249,
    "Ġram": 11014,
    "Ġ1820": 25717,
    "mind": 4625,
    "erated": 21268,
    "jo": 3751,
    "enthus": 17976,
    "Ġquery": 2481,
    "Ġcaged": 21349,
    "Ġcompassion": 6487,
    "only": 3307,
    "Ġwoman": 2385,
    "Ġde": 364,
    "**:": 4735,
    "ux": 7813,
    "×": 152,
    "Ġremember": 2681,
    "raved": 18011,
    "Ġstating": 15718,
    "Ġdenial": 13210,
    "odiac": 14027,
    "sleeves": 26108,
    "Ġshoes": 7071,
    "Ġ80": 24455,
    "Ġexplo": 2283,
    "Ġoscill": 2860,
    "Ġdemean": 12720,
    "Ġsir": 1574,
    "Ġperforming": 7927,
    "cement": 2764,
    "cabinet": 25076,
    "Ġbowels": 9430,
    "Ġmonster": 3793,
    "Ġoffensive": 18697,
    "Ġfeedback": 23430,
    "Ġfault": 5702,
    "Ġcoquet": 22578,
    "Ġdreading": 23796,
    ".,": 5987,
    "ises": 3654,
    "Ġhonoured": 9881,
    "Ġsort": 1508,
    "Ġlean": 7605,
    "Ġexcept": 3312,
    "Ġacres": 14311,
    "Ġvillage": 5774,
    "Ġcompanionship": 14918,
    "sacrifice": 13488,
    "Ġhighway": 14346,
    "Ġheidelburgh": 11642,
    "waited": 24584,
    "Ġassurances": 10000,
    "Ġbolivia": 24666,
    "scotch": 25846,
    "burst": 10538,
    "ience": 825,
    "Ġill": 2189,
    "unc": 15765,
    "Ġdilatory": 24704,
    "Ġ41": 24077,
    "Ġcontaining": 2228,
    "second": 6543,
    "ced": 691,
    "Ġgrasped": 8033,
    "sherlock": 5422,
    "Ġsleeps": 10447,
    "blast": 9588,
    "race": 11631,
    "made": 4807,
    "Ġswelled": 11088,
    "Ġnominal": 15166,
    "gardiner": 12288,
    "destined": 24112,
    "Ġdive": 10173,
    "needles": 20309,
    "Ġgenealogies": 25960,
    "Ġexploration": 2333,
    "under": 3131,
    "Ġadversity": 24302,
    "fes": 20849,
    "amusement": 15280,
    "knowledge": 7478,
    "Ġchamois": 16799,
    "poise": 6171,
    "Ġresearch": 3389,
    "Ġtradeoff": 2660,
    "ampling": 12723,
    "Ġsimultaneously": 4310,
    "ibbald": 18839,
    "Ġinduce": 7762,
    "fool": 9048,
    "fly": 13712,
    "itage": 17815,
    "imprudent": 14650,
    "Ġsounds": 5190,
    "Ġpassers": 18756,
    "Ġdisengaged": 12886,
    "progra": 9395,
    "bb": 2805,
    "pregn": 18491,
    "Ġcheer": 4066,
    "supers": 22636,
    "Ġlabor": 10419,
    "ert": 2634,
    "Ġdefile": 18822,
    "metals": 24765,
    "nder": 20985,
    "Ġpaltry": 16691,
    "Ġdeftly": 26492,
    "Ġsequences": 1753,
    "Ġoakshott": 12226,
    "pense": 10369,
    "warmest": 25026,
    "elf": 563,
    "ieth": 10705,
    "Ġtrail": 16280,
    "Ġvoracity": 25985,
    "assuming": 22306,
    "Ġrickety": 26504,
    "Ġob": 861,
    "Ġalone": 2569,
    "Ġtire": 17719,
    "elder": 21568,
    "umnal": 18299,
    "Ġbedfellows": 23436,
    "rigging": 20003,
    "vessels": 10626,
    "earn": 10697,
    "Ġrecover": 9790,
    "bott": 9106,
    "aculate": 16080,
    "Ġdreaminess": 23936,
    "early": 20116,
    "Ġrelate": 6875,
    "Ġexplanation": 6692,
    "istence": 2362,
    "Ġelephants": 9864,
    "england": 18927,
    "Ġunassuming": 20506,
    "dirty": 20832,
    "Ġpreach": 14171,
    "Ġelbow": 12919,
    "Ġlayer": 1011,
    "Ġbier": 22762,
    "Ġcitadel": 25438,
    "Ġtattooings": 24899,
    "Ġsubdiv": 16156,
    "rapidly": 15241,
    "no": 904,
    "topic": 10528,
    "Ġdair": 17888,
    "Ġslave": 7454,
    "disaster": 23492,
    "Ġhandsome": 4906,
    "Ġscruples": 15076,
    "saf": 11525,
    "Ġcombination": 22850,
    "safety": 20347,
    "coo": 11171,
    "bits": 17487,
    "proved": 11984,
    "Ġglimmer": 15139,
    "Ġclenched": 14203,
    "Ġdire": 867,
    "idation": 5022,
    "Ġhogshe": 20489,
    "Ġpick": 4255,
    "Ġupon": 720,
    "shoals": 24716,
    "Ġscrewing": 20206,
    ",âĢĻ": 2325,
    "Ġburly": 19247,
    "Ġsplendid": 17212,
    "Ġpertur": 12846,
    "resentment": 15183,
    "Ġriddles": 16731,
    "unforeseen": 21884,
    "Ġhes": 6250,
    "Ġxv": 23404,
    "Ġcomplained": 16997,
    "rod": 10832,
    "Ġcontext": 1680,
    "more": 1032,
    "mean": 6438,
    "Ġconsented": 11296,
    "seals": 21813,
    "Ġforce": 5092,
    "Ġenvironment": 4431,
    "impotence": 23759,
    "ram": 13970,
    "ispiece": 19723,
    "possesses": 24615,
    "entiating": 3439,
    "Ġfailed": 6671,
    "Ġdeclines": 23959,
    "Ġdirections": 1970,
    "positive": 20565,
    "Ġmarble": 7668,
    "Ġcaution": 11347,
    "Ġdank": 21425,
    "Ġestim": 3348,
    "Ġunconquerable": 22059,
    "sor": 7352,
    "Ġcrumbs": 20638,
    "orters": 21398,
    "suspended": 15175,
    "Ġ38": 24076,
    "Ġembarrassment": 10627,
    "Ġwes": 8779,
    "Ġwhal": 5454,
    "assumed": 22304,
    "combined": 20318,
    "ht": 375,
    "Ġhonorable": 16875,
    "across": 10325,
    "Ġnovel": 6695,
    "landlord": 9840,
    "Ġstumbling": 21738,
    "Ġscornful": 24995,
    "Ġeulogy": 26469,
    "Ġimpulse": 10024,
    "Ġtwist": 11848,
    "Ġparc": 10921,
    "Ġ1778": 25729,
    "Ġbount": 15564,
    "âĢĶâĢĺ": 7013,
    "Ġsoften": 23121,
    "Ġgable": 15663,
    "Ġdesolate": 10013,
    "Ġledgers": 23934,
    "male": 15386,
    "mass": 12486,
    "Ġonto": 14026,
    "Ġhappiness": 2948,
    "Ġetern": 7085,
    "arabian": 26445,
    "Ġrippling": 17276,
    "Ġdisadvantage": 12887,
    "Ġshore": 4833,
    "Ġplucked": 15111,
    "encies": 4079,
    "races": 21626,
    "Ġperceived": 4712,
    "Ġhoof": 23350,
    "Ġbraced": 16578,
    "Ġattentions": 5877,
    "acquired": 24295,
    "Ġlees": 18074,
    "Ġantique": 19549,
    "ior": 2040,
    "Ġfluttered": 16247,
    "anchor": 13887,
    "Ġexceptionable": 25503,
    "Ġbeef": 6830,
    "Ġjealous": 9469,
    "Ġresiding": 16058,
    "ine": 406,
    "Ġparacels": 13665,
    "Ġcascade": 20578,
    "Ġcases": 3962,
    "Ġjup": 15949,
    "Ġhappy": 2466,
    "Ġgrease": 26188,
    "Ġaffidavit": 20722,
    "inv": 8400,
    "Ġrevolve": 19728,
    "sharks": 14239,
    "Ġevinced": 7100,
    "Ġmanipulated": 25178,
    "Ġkicking": 16900,
    "deficient": 23115,
    "consuming": 25673,
    "rical": 11519,
    "boom": 18998,
    "Ġrationally": 18212,
    "Ġbrilliantly": 25120,
    "Ġarguments": 8036,
    "lands": 8240,
    "bedroom": 14675,
    "Ġfleets": 23772,
    "ĠĠĠĠĠĠĠĠĠĠĠĠĠĠĠĠĠĠĠĠĠĠĠĠĠĠĠĠĠĠĠĠĠĠĠĠĠĠĠĠĠĠĠĠĠĠĠĠĠĠĠĠĠ": 20037,
    "Ġbalm": 22901,
    "Ġovertake": 15969,
    "Ġoffing": 16139,
    "spr": 7435,
    "terbury": 21820,
    "Ġballasted": 23976,
    "ided": 2790,
    "Ġcanv": 7009,
    "Ġembell": 14417,
    "superstitiousness": 25508,
    "Ġdistorted": 14248,
    "passed": 8025,
    "Ġtooks": 23324,
    "Ġshy": 10904,
    "Ġrepe": 3281,
    "page": 13769,
    "Ġpitiless": 19385,
    "tem": 6369,
    "Ġclubb": 22347,
    "Ġhomely": 25219,
    "Ġwatch": 2746,
    "algorithms": 8305,
    "Ġnantucketer": 6914,
    "itself": 7834,
    "cra": 6354,
    "liber": 18812,
    "stay": 9681,
    "winding": 16719,
    "enjoy": 10775,
    "ying": 1367,
    "unless": 9235,
    "Ġhilariously": 25450,
    "shoulders": 16583,
    "landsmen": 25058,
    "Ġexpeditions": 24953,
    "Ġowl": 20081,
    "Ġdet": 512,
    "Ġclair": 6269,
    "Ġawfulness": 23585,
    "Ġblocks": 6321,
    "Ġmethod": 1437,
    "Ġproceedings": 9907,
    "Ġhypotheses": 4386,
    "itz": 6005,
    "Ġawa": 7713,
    "Ġdetained": 18376,
    "Ġcurls": 22998,
    "Ġconfidently": 24954,
    "glimmer": 26320,
    "Ġboston": 22634,
    "Ġgiving": 4084,
    "Ġshoal": 12013,
    "Ġposted": 16723,
    "irm": 3108,
    "Ġugl": 12679,
    "lock": 1472,
    "Ġdivers": 9666,
    "fig": 8735,
    "Ġaccurate": 13246,
    "Ġtorm": 5434,
    "Ġwrench": 12553,
    "iac": 6225,
    "devil": 7894,
    "neural": 3067,
    "Ġlaz": 7378,
    "Ġtest": 1626,
    "adders": 24399,
    "wealth": 22684,
    "Ġdealing": 14045,
    "globe": 25142,
    "cushion": 20819,
    "Ġbohem": 8527,
    "concluded": 11244,
    "Ġblandly": 20321,
    "ertips": 23640,
    "Ġmirth": 15541,
    "iltrated": 19303,
    "method": 17283,
    "itt": 571,
    "hope": 5989,
    "Ġshilling": 18227,
    "Ġcalmer": 23040,
    "Ġaunts": 21198,
    "Ġparm": 15874,
    "Ġprophecy": 25705,
    "Ġautumnal": 19033,
    "Ġcit": 10784,
    "Ġpresto": 22226,
    "apologizing": 26543,
    "Ġinsepar": 17932,
    "Ġtunnels": 24619,
    "Ġtags": 20569,
    "á": 162,
    "Ġvaliant": 9799,
    "ies": 582,
    "Ġquart": 11785,
    "Ġpreference": 9733,
    "Ġbelieve": 2147,
    "Ġwines": 21285,
    "Ġlad": 2360,
    "Ġinherited": 25353,
    "Ġcontingency": 26243,
    "Ġbeget": 9226,
    "Ġspecially": 11995,
    "Ġpleas": 1908,
    "Ġtwelfth": 22674,
    "Ġreturning": 5325,
    "Ġsurvivor": 17361,
    "Ġcastaway": 16639,
    "conversation": 7122,
    "Ġdiscriminator": 3391,
    "Ġremain": 1874,
    "Ġgenteel": 19978,
    "Ġsqueeze": 10039,
    "Ġpostp": 12140,
    "bright": 8990,
    "especially": 3572,
    "Ġarist": 14158,
    "Ġleviathan": 3289,
    "Ġunguarded": 15847,
    "Ġboxed": 24359,
    "Ġbidding": 9537,
    "Ġreiterating": 26473,
    "Á": 130,
    "Ġgrimly": 17051,
    "admire": 24942,
    "đ": 210,
    "Ġsidelong": 11439,
    "Ġone": 570,
    "Ġballs": 9015,
    "Ġhorr": 3188,
    "grate": 23409,
    "Ġbeing": 1162,
    "Ġlocal": 1199,
    "Ġfondly": 19614,
    "thirds": 25045,
    "smile": 23902,
    "leman": 21365,
    "Ġ86": 24460,
    "bing": 7791,
    "Ġpyramids": 15112,
    "profound": 16423,
    "Ġbetter": 1173,
    "peaceful": 20444,
    "ultural": 22564,
    "othe": 2616,
    "Ġhurled": 10430,
    "oup": 2015,
    "point": 6062,
    "Ġairth": 23317,
    "Ġgazes": 24091,
    "riot": 18184,
    "Ġindefinitely": 25221,
    "daughters": 13462,
    "Ġwanting": 6722,
    "Ġsorrowful": 10537,
    "Ġrib": 4936,
    "tawny": 26403,
    "companies": 24893,
    "Ġcontinuing": 14395,
    "hearted": 6970,
    "Ġindic": 2889,
    "enjoyments": 25433,
    "ainted": 3659,
    "Ġimpud": 18449,
    "Ġkrusenstern": 26376,
    "Ġlamentations": 17075,
    "Ġintend": 12761,
    "Ġextort": 22712,
    "Ġindia": 10371,
    "Ġsheltered": 19909,
    "hastily": 19700,
    "untarily": 6312,
    "dependence": 17166,
    "Ġloud": 4699,
    "Ġwhitting": 18054,
    "Ġice": 3603,
    "ĠĠĠĠĠĠĠĠĠĠĠĠ": 12897,
    "Ġsagacity": 16973,
    "ĠĠĠĠĠĠĠĠĠĠĠĠĠĠ": 22559,
    "Ġpurest": 14937,
    "inement": 11558,
    "Ġcourtesy": 9945,
    "Ġpolicy": 10458,
    "Ġmurder": 4280,
    "saddest": 25527,
    "toed": 18577,
    "Ġprimary": 25059,
    "Ġinterpreted": 1715,
    "Ġworking": 5574,
    "icing": 9201,
    "Ġrats": 21969,
    "people": 7676,
    "flames": 14710,
    "Ġturkish": 12258,
    "cating": 20800,
    "Ġproximity": 3219,
    "understood": 13212,
    "Ġ99": 10746,
    "Ġstorm": 4300,
    "pard": 9619,
    "Ġtimid": 6345,
    "Ġthom": 21512,
    "sens": 8095,
    "iating": 3205,
    "ider": 21761,
    "Ġbob": 22632,
    "olidity": 18131,
    "Ġlabeled": 3718,
    "bey": 10314,
    "del": 4075,
    "Ġconst": 1913,
    "Ġsongs": 13416,
    "Ġappropri": 2224,
    "mountain": 10714,
    "Ġsensations": 5259,
    "Ġpride": 3823,
    "sincere": 16906,
    "Ġobjects": 5578,
    "Ġdata": 521,
    "Ġpane": 21459,
    "chastic": 2331,
    "Ġmerryweather": 9522,
    "set": 3865,
    "Ġbounce": 21390,
    "Ġseeth": 21949,
    "Ġcrowder": 19453,
    "hours": 9125,
    "Ġcaterpillar": 5864,
    "Ġincompetent": 25678,
    "complexion": 14359,
    "Ġunrem": 18243,
    "flagged": 23968,
    "Ġguilt": 6179,
    "Ġlagged": 21554,
    "Ġcoopers": 20519,
    "camp": 15328,
    "rub": 15892,
    "Ġswamp": 14434,
    "glings": 23848,
    "Ġnarrations": 24351,
    "Ġpol": 2578,
    "ai": 2528,
    "Ġ1836": 25720,
    "maritime": 24171,
    "Ġthrowing": 6335,
    "ate": 422,
    "Ġwager": 17791,
    "Ġconvolutional": 2161,
    "Ġprofited": 19190,
    "Ġglen": 18844,
    "Ġplayful": 19234,
    "Ġvoyage": 3056,
    "Ġbracing": 16579,
    "completely": 12417,
    "torture": 26150,
    "Ġserved": 8245,
    "scar": 9816,
    "Ġclosest": 16762,
    "Ġun": 423,
    "large": 6625,
    "Ġbulldog": 23856,
    "ast": 473,
    "Ġfoundations": 11074,
    "Ġ117": 19695,
    "Ġfled": 6670,
    "Ġlongitudes": 22630,
    "Ġhast": 3149,
    "accountable": 7109,
    "iple": 4805,
    "Ġunearthly": 9037,
    "Ġcongregated": 20094,
    "Ġsomnambul": 26575,
    "Ġproperly": 7944,
    "Ġprincipal": 6496,
    "Ġmastiff": 23723,
    "atre": 17769,
    "Ġchoking": 15931,
    "esteemed": 26008,
    "Ġwat": 1289,
    "impenet": 18052,
    "Ġdoubts": 8580,
    "Ġdarted": 4757,
    "Ġexulting": 20256,
    "rested": 13070,
    "Ġwidely": 8032,
    "been": 3344,
    "how": 1646,
    "Ġdisordered": 16051,
    "Ġswitching": 23053,
    "Ġswords": 19895,
    "Ġspurned": 12794,
    "spoken": 11858,
    "creator": 26380,
    "Ġchap": 5933,
    "onical": 21251,
    "Ġsacri": 18327,
    "Ġitaly": 10868,
    "Ġparticip": 16128,
    "Ġintuitions": 17339,
    "Ġuneasiness": 9484,
    "Ġinno": 1453,
    "div": 8075,
    "Ġepisode": 26345,
    "Ġpudding": 17912,
    "plex": 708,
    "hated": 17560,
    "hav": 20895,
    "Ġconfound": 23303,
    "Ġpointing": 5661,
    "persu": 8027,
    "Ġwhenever": 5166,
    "hump": 12474,
    "Ġattribute": 16097,
    "Ġrepining": 23357,
    "Ġderived": 8238,
    "Ġunlimited": 26221,
    "ickory": 22665,
    "Ġeagerness": 6608,
    "Ġfootfalls": 25865,
    "Ġunmo": 12770,
    "Ġtolerably": 8067,
    "increasing": 20267,
    "Ġnoticed": 5549,
    "Ġsatan": 14389,
    "spoke": 11026,
    "Ġpostponed": 20387,
    "Ġtweed": 22673,
    "Ġhinges": 15210,
    "Ġdrunken": 12047,
    "Ġmach": 13855,
    "Ġrevers": 21660,
    "ician": 21561,
    "Ġfrig": 13076,
    "scru": 16237,
    "Ġwaterward": 23364,
    "ashed": 3784,
    "Ġiroquois": 26471,
    "ky": 4519,
    "Ġforbearing": 25097,
    "jerked": 25617,
    "scor": 13010,
    "Ġmassachusetts": 24018,
    "swallow": 24256,
    "onomy": 12543,
    "wind": 4251,
    "Ġshipw": 12973,
    "Ġdormouse": 4925,
    "shrouded": 26360,
    "ĠcÃ¦sar": 20577,
    "Ġcleansed": 26292,
    "Ġhats": 14618,
    "Ġguilty": 7250,
    "Ġshelves": 14997,
    "Ġbraces": 14668,
    "Ġpangs": 15611,
    "Ġbully": 23853,
    "Ġpy": 21447,
    "Ġdirectly": 2105,
    "Ġmince": 22828,
    "Ġlogits": 3451,
    "Ġirritation": 20264,
    "astern": 8582,
    "Ġoptim": 766,
    "Ġpre": 507,
    "Ġstrenuously": 17446,
    "Ġruff": 14347,
    "ieved": 3230,
    "Ġmant": 9648,
    "esteem": 26007,
    "strangers": 20334,
    "gn": 8081,
    "oring": 1862,
    "Ġcal": 1328,
    "fish": 3516,
    "Ġmessage": 13519,
    "Ġjumped": 7096,
    "Ġadaptive": 1282,
    "rous": 3752,
    "Ġgone": 2107,
    "nin": 17607,
    "Ġdoct": 4455,
    "owal": 13994,
    "utted": 15657,
    "Ġpriority": 19760,
    "Ġcedar": 15186,
    "upon": 2724,
    "iveness": 2468,
    "Ġprosecution": 12378,
    "Ġtul": 21157,
    "Ġsights": 7472,
    "Ġpaus": 4298,
    "fowl": 17548,
    "principal": 20658,
    "lid": 20943,
    "Ġsubl": 7235,
    "aples": 20766,
    "Ġevil": 3806,
    "Ġwilderness": 14838,
    "Ġfunction": 588,
    "Ġfright": 3796,
    "Ġcolleague": 17158,
    "ped": 6365,
    "hills": 13734,
    "Ġoarsman": 8638,
    "Ġasp": 15777,
    "widely": 25343,
    "Ġdraughts": 20219,
    "Ġwhir": 6393,
    "Ġprey": 6415,
    "uttural": 21585,
    "Ġmiriam": 25273,
    "Ġgouge": 26187,
    "Ġwhither": 10215,
    "Ġ]": 15457,
    "specimen": 26604,
    "add": 5229,
    "hearty": 14832,
    "Ġengraved": 17080,
    "ocity": 8277,
    "conversations": 24748,
    "Ġgentlemanlike": 12063,
    "Ġcopying": 17067,
    "moonlight": 25375,
    "Ġinstantaneously": 23658,
    "Ġattested": 22625,
    "Ġlikelihood": 16499,
    "Ġcashier": 20196,
    "Ġergo": 25028,
    "Ġforbearance": 12325,
    "definition": 23116,
    "Ġdeject": 10882,
    "Ġlighted": 7063,
    "medium": 23639,
    "Ġimproves": 22755,
    "Ġsuccession": 12098,
    "Ġgamy": 17997,
    "Ġbriony": 9329,
    "Ġcarriage": 3951,
    "Ġforeman": 23445,
    "prodigious": 17465,
    "utmost": 21584,
    "Ġeyford": 10642,
    "Ġmerest": 14029,
    "Ġpoisonous": 24886,
    "Ġyears": 1892,
    "appeared": 4281,
    "Ġbalanced": 12986,
    "Ġconverts": 2810,
    "muttered": 13757,
    "erm": 788,
    "proceeding": 20139,
    "Ġiii": 7860,
    "ĠĠĠĠĠĠĠĠ": 711,
    "quadrille": 20592,
    "Ġtaurus": 21176,
    "Ġspaulding": 11729,
    "stript": 21653,
    "Ġprof": 2461,
    "Ġunh": 9253,
    "uy": 21097,
    "Ġdiverted": 14591,
    "Ġcrab": 13140,
    "Ġsqualid": 14367,
    "Ġtus": 10750,
    "Ġrucastles": 18720,
    "Ġdiscipl": 22780,
    "Ġgriefs": 16770,
    "Ġtight": 8107,
    "Ġmight": 967,
    "ributed": 8214,
    "arms": 10174,
    "Ġadorn": 12787,
    "Ġholmes": 1309,
    "Ġaccosted": 13670,
    "bowed": 10684,
    "oided": 11509,
    "gown": 9597,
    "Ġvexation": 10587,
    "neys": 23580,
    "arcy": 1274,
    "Ġhandspikes": 12934,
    "Ġsingular": 4423,
    "shold": 2778,
    "eman": 5636,
    "iments": 4945,
    "Ġbled": 17855,
    "Ġrephr": 21675,
    "Ġbreath": 4790,
    "persuaded": 15071,
    "doom": 23374,
    "Ġmild": 4146,
    "Ġgoest": 22419,
    "Ġfeature": 748,
    "Ġsinging": 7723,
    "Ġmomentous": 16166,
    "Ġintellig": 526,
    "Ġunthinkingly": 26219,
    "ason": 1264,
    "forbearance": 22789,
    "Ġmediterranean": 12312,
    "Ġtis": 15463,
    "Ġinqu": 2970,
    "brary": 5755,
    "send": 15421,
    "approached": 13481,
    "tottenham": 25418,
    "Ġlandlessness": 23377,
    "Ġlowers": 23238,
    "Ġshift": 2280,
    "https": 11682,
    "inated": 6804,
    "Ġinhabitant": 19753,
    "inkers": 22611,
    "Ġflock": 21408,
    "spl": 9140,
    "abama": 12706,
    "Ġpositives": 4316,
    "Ġjonah": 3481,
    "Ġgover": 2462,
    "sentiment": 12911,
    "Ġharpoons": 5659,
    "Ġnook": 15925,
    "idered": 4552,
    "bies": 15310,
    "confidential": 25875,
    "Ġgradient": 450,
    "Ġmythologies": 26212,
    "garden": 15024,
    "ignantly": 23263,
    "Ġcracked": 8594,
    "Ġinquest": 16545,
    "theast": 21744,
    "Ġork": 18283,
    "Ġspeechless": 13349,
    "Ġhereby": 10359,
    "Ġlifeless": 8949,
    "oko": 18439,
    "insanity": 23064,
    "Ġgestures": 13532,
    "ness": 852,
    "Ġjeer": 24121,
    "Ġscotland": 6639,
    "itional": 22464,
    "Ġefforts": 11799,
    "jane": 4482,
    "Ġdolphin": 17310,
    "showing": 22459,
    "Ġfrankly": 16744,
    "Ġagreed": 7028,
    "confined": 24331,
    "Ġdeferred": 18824,
    "mens": 20967,
    "Ġintrodu": 1927,
    "Ġweaver": 11686,
    "Ġbroiled": 18907,
    "Ġturns": 4981,
    "Ġmorals": 22966,
    "eight": 9592,
    "gement": 13726,
    "overhearing": 19053,
    "entrance": 12654,
    "Ġmember": 8586,
    "Ġwield": 21288,
    "Ġ63": 24365,
    "entropy": 1438,
    "Ġremot": 8544,
    "placed": 7879,
    "enet": 10153,
    "Ġthickets": 24019,
    "Ġnoises": 18372,
    "Ġshout": 4263,
    "Ġreconciliation": 25292,
    "ivened": 22961,
    "Ġexactness": 23602,
    "Ġholidays": 22918,
    "iforn": 14062,
    "Ġod": 4439,
    "Ġscru": 8190,
    "henomena": 20270,
    "Ġhumorously": 18777,
    "crimes": 16696,
    "Ġrelaps": 18774,
    "vol": 730,
    "pens": 17631,
    "Ġsome": 655,
    "spring": 7231,
    "Ġtrad": 9829,
    "Ġsouls": 6308,
    "rets": 12537,
    "Ġhandsomest": 20332,
    "taught": 17683,
    "Ġbasis": 16960,
    "Ġdaily": 5986,
    "Ġ127": 24471,
    "Ġwaters": 3595,
    "ifting": 6545,
    "ny": 4016,
    "Ġcocain": 18593,
    "Ġfarewell": 9520,
    "Ġalleys": 25977,
    "copy": 5133,
    "Ġowned": 11873,
    "Ġtack": 5621,
    "ission": 6457,
    "announcement": 24561,
    "Ġmills": 21309,
    "Ġobli": 9316,
    "Ġopt": 765,
    "Ġgratefully": 20442,
    "Ġdeclined": 9921,
    "Ġing": 5283,
    "Ġtame": 17721,
    "Ġpaddled": 20199,
    "Ġlivid": 14987,
    "Ġconsid": 1815,
    "~": 98,
    "calabash": 22891,
    "Ġcleaning": 23177,
    "Ġtester": 21170,
    "borrowed": 20790,
    "Ġpassion": 4556,
    "¿": 128,
    "Ġemper": 9861,
    "Ġcurric": 22999,
    "itor": 12562,
    "Ġunfailing": 24109,
    "ohog": 9845,
    "Ġblowing": 10485,
    "Ġinfle": 16360,
    "carry": 19524,
    "Ġrepeat": 7999,
    "Ġmaternal": 11060,
    "Ġ\"": 6119,
    "Ġimmaculate": 19483,
    "functions": 11238,
    "Ġvariation": 22661,
    "Ġtinge": 25086,
    "Ġgoethe": 22420,
    "Ġcomparatively": 9490,
    "cannon": 22958,
    "Ġrandomly": 1923,
    "itics": 13870,
    "aco": 12903,
    "Ġsnatching": 10473,
    "Ġtries": 9151,
    "sides": 12504,
    "Ġnations": 8810,
    "Ġhousings": 21489,
    "offered": 14516,
    "formity": 10279,
    "chet": 13213,
    "ements": 11109,
    "Ġcreature": 2382,
    "Ġdevoured": 16132,
    "stealthily": 23958,
    "Ġbesee": 19240,
    "opposing": 24824,
    "buttoned": 13629,
    "Ġshook": 4468,
    "Ġyounger": 5252,
    "Ġstro": 4594,
    "Ġconsideration": 5191,
    "pered": 4195,
    "Ġhatch": 7847,
    "Ġwhirl": 13445,
    "Ġgoblet": 25822,
    "Ġsucceed": 4544,
    "Ġrequisite": 18649,
    "Ġwatches": 11083,
    "Ġpeering": 8535,
    "crack": 19838,
    "acency": 12905,
    "Ġcreated": 2710,
    "Ġlining": 13949,
    "ifiable": 18162,
    "emotions": 15791,
    "Ġdeterm": 1270,
    "Ġdiamond": 15595,
    "imony": 12687,
    "Ġaccompl": 5167,
    "Ġjuncture": 17128,
    "vengeance": 13352,
    "iary": 15368,
    "remember": 7262,
    "Ġstrife": 18612,
    "Ġscandalous": 24878,
    "Ġvocation": 10526,
    "Ġprobably": 4313,
    "Ġsuppressed": 11908,
    "Ġjames": 6419,
    "Ġbeheld": 4492,
    "Ġrefuge": 8538,
    "Ġthoughtful": 16189,
    "scornful": 26574,
    "Ġgibberish": 25785,
    "death": 6261,
    "Ġabominably": 20063,
    "amples": 1824,
    "Ġpro": 360,
    "Ġraw": 3320,
    "mun": 20960,
    "Ġinstances": 5568,
    "informed": 17735,
    "Ġkeenest": 12158,
    "Ġshovel": 23490,
    "Ġquietly": 4566,
    "gall": 6359,
    "Ġskeleton": 5514,
    "Ġincarn": 11812,
    "Ġgunwale": 7325,
    "Ġcastaways": 19425,
    "Ġconstable": 19069,
    "Ġwine": 6810,
    "Ġuneasy": 8662,
    "Ġimmemorially": 25383,
    "Ġsynd": 22202,
    "Ġfalsely": 20579,
    "Ġpredicts": 2595,
    "Ġ74": 24260,
    "Ġdivined": 19440,
    "exception": 9976,
    "na": 13758,
    "classes": 12132,
    "Ġimbec": 14155,
    "Ġclients": 19730,
    "scuttle": 11906,
    "ittance": 12842,
    "Ġitems": 9692,
    "Ġ93": 24590,
    "Ġsummons": 13227,
    "interchange": 23737,
    "Ġtash": 13818,
    "Ġintact": 21985,
    "ulent": 21858,
    "hro": 20889,
    "request": 21239,
    "Ġlimited": 23543,
    "Ġrack": 9312,
    "Ġcalam": 13028,
    "Ġlug": 15648,
    "?_": 8069,
    "Ġabstra": 22267,
    "fired": 20858,
    "experienced": 15119,
    "iards": 17573,
    "Ġpast": 2099,
    "Ġinstruments": 12220,
    "flowing": 14562,
    "Ġindication": 22948,
    "etics": 21577,
    "Ġsooty": 25814,
    "Ġripple": 25504,
    "ogr": 18669,
    "Ġcorre": 3889,
    "Ġmagnetic": 17239,
    "fanc": 20862,
    "Ġgoney": 14544,
    "Ġbites": 23741,
    "Ġthyself": 6602,
    "Ġleading": 7297,
    "Ġcreditable": 19620,
    "ffy": 18315,
    "Ġlydia": 2371,
    "Ġdrinks": 24278,
    "Ġmovement": 9968,
    "Ġinwards": 15617,
    "Ġneskye": 21527,
    "limbs": 20189,
    "Ġspars": 3810,
    "delay": 16697,
    "Ġconcept": 682,
    "anyth": 5438,
    "1775": 26377,
    "Ġconfidence": 6590,
    "Ġtrance": 12836,
    "union": 15766,
    "Ġphilosop": 5057,
    "Ġmotions": 8280,
    "horror": 13155,
    "Ġserpentine": 11361,
    "Ġnailing": 21523,
    "da": 17513,
    "tedious": 22629,
    "Ġswish": 23049,
    "Ġpoles": 11004,
    "Ġrendered": 5773,
    "Ġbidden": 24645,
    "Ġscatter": 18396,
    "Ġwounds": 17789,
    "Ġbeads": 18082,
    "sticking": 21656,
    "Ġincome": 7916,
    "Ġsyntax": 960,
    "izard": 10880,
    "ilight": 12690,
    "Ġconsiderations": 9410,
    "Ġserpents": 13072,
    "Ġsearch": 2591,
    "Ġincludes": 2012,
    "Ġmort": 3460,
    "Ġajar": 21200,
    "Ġconjectures": 16924,
    "os": 525,
    "Ġmin": 1025,
    "Ġmizzen": 20287,
    "Ġports": 10819,
    "Ġscrew": 8868,
    "Ġhumility": 12979,
    "Ġglad": 3325,
    "Ġhastened": 9005,
    "Ġabandon": 12254,
    "arned": 21817,
    "Ġtogether": 1879,
    "Ġcommunicative": 24547,
    "nav": 17610,
    "Ġdisguise": 10046,
    "Ġsingled": 23770,
    "Ġintens": 7003,
    "erc": 5904,
    "stir": 12670,
    "omn": 15678,
    "Ġplowdon": 26446,
    "Ġguiltless": 16939,
    "Ġabroad": 8866,
    "Ġmetropol": 11141,
    "Ġcronies": 23440,
    "Ġmoodily": 19832,
    "Ġlevers": 18076,
    "palms": 25262,
    "Ġrigged": 16716,
    "Ġexcl": 3474,
    "chess": 16571,
    "treatment": 20409,
    "Ġinstruction": 14342,
    "Ġreceipt": 20353,
    "Ġcin": 13873,
    "Ġindefatigable": 17176,
    "Ġdiadem": 24740,
    "twinkle": 23701,
    "Ġappearance": 3700,
    "Ġallured": 14111,
    "Ġmasks": 23325,
    "Ġglitter": 25122,
    "B": 38,
    "Ġtemperate": 16160,
    "edy": 2862,
    "rin": 10122,
    "windward": 24157,
    "Ġanother": 1741,
    "discovery": 12014,
    "Ġtracks": 18890,
    "Ġsaves": 18323,
    "hibited": 17425,
    "Ġlan": 5820,
    "Ġmorning": 1750,
    "Ġbalancing": 2429,
    "Ġlocking": 18297,
    "published": 26141,
    "caroline": 24146,
    "Ġirre": 7468,
    "Ġevolved": 9892,
    "Ġdiff": 3115,
    "rador": 19157,
    "Ġstrung": 22614,
    "Ġelab": 22643,
    "Ġparsonage": 7123,
    "Ġstepping": 9354,
    "Ġwall": 3842,
    "Ġdeliriously": 23224,
    "Ġprofound": 5497,
    "Ġpitches": 23898,
    "Ġnibbling": 17383,
    "Ġmeryton": 4438,
    "animals": 24737,
    "miles": 10713,
    "Ġunwound": 25169,
    "Ġproper": 1381,
    "ca": 20791,
    "Ġcrossing": 7252,
    "intended": 11067,
    "conclusive": 25672,
    "Ġstur": 15713,
    "gled": 10700,
    "Ġresembled": 18032,
    "Ġcompose": 12899,
    "rippling": 24713,
    "wedding": 13367,
    "boards": 23252,
    "falgar": 26129,
    "dipped": 20835,
    "Ġworkman": 16261,
    "Ġscriptures": 26234,
    "reason": 4414,
    "rush": 7010,
    "Ġ550": 19639,
    "Ġvary": 15804,
    "Ġpressure": 13418,
    "Ġcultivated": 17362,
    "account": 5329,
    "charitable": 23929,
    "Ġbulb": 23852,
    "Ġproverb": 12713,
    "Ġplat": 8520,
    "riv": 3109,
    "idual": 1561,
    "Ġabilities": 8867,
    "urning": 12913,
    "Ġmerits": 13190,
    "Ġhardly": 2432,
    "Ġtaught": 6803,
    "iqu": 7802,
    "japan": 15372,
    "Ġhavoc": 15810,
    "but": 593,
    "Ġangel": 4851,
    "Ġflattering": 13023,
    "Ġfreshe": 13065,
    "igate": 8823,
    "Ġcommenting": 25228,
    "iters": 21326,
    "Ġinasmuch": 10826,
    "Ġhans": 12623,
    "jump": 10104,
    "restrained": 16333,
    "Ġcopy": 10164,
    "abiding": 21789,
    "Ġsymbolize": 24959,
    "degrees": 22146,
    "Ġshoving": 23488,
    "Ġmetropolis": 17273,
    "tawn": 21078,
    "pity": 17626,
    "Ġpocket": 4898,
    "Ġploughing": 26258,
    "Ġabhor": 5467,
    "Ġscuffle": 20606,
    "Ġordained": 19442,
    "Ġdens": 21421,
    "ulum": 21859,
    "i": 77,
    "Ġpunct": 8661,
    "Ġlively": 5449,
    "belais": 24034,
    "Ġpaw": 12617,
    "Ġhurrying": 11992,
    "Ġlonger": 3359,
    "Ġspectators": 19404,
    "fabulous": 20471,
    "Ġdial": 10811,
    "iger": 8446,
    "Ġsubset": 9870,
    "Ġangle": 8603,
    "Ġwillingly": 8885,
    "Ġseasons": 9431,
    "Ġcommended": 18655,
    "latitudes": 17195,
    "spent": 12939,
    "making": 2574,
    "Ġexcess": 3342,
    "Ġhonest": 7287,
    "Ġcharnel": 22248,
    "Ġheadsmen": 14730,
    "Ġsells": 21221,
    "Ġabominate": 20062,
    "Ġyouth": 4260,
    "Ġbrightly": 13219,
    "gunw": 17219,
    "Ġforg": 3787,
    "Ġrealities": 18981,
    "Ġperformance": 1308,
    "Ġdisappo": 4505,
    "uguese": 20730,
    "osc": 18386,
    "Ġxxx": 7766,
    "Ġceremony": 8360,
    "wing": 2522,
    "Ġshoulder": 5848,
    "Ġerudite": 26349,
    "Ġshreds": 12767,
    "Ġalluding": 18235,
    "whalebone": 19117,
    "meeting": 11018,
    "sacred": 17027,
    "Ġbohemia": 10650,
    "Ġfortunate": 6214,
    "Ġcommitted": 7431,
    "olence": 10231,
    "Ġprofundity": 20450,
    "Ġtattoo": 7359,
    "Ġdusky": 13545,
    "gging": 7696,
    "Ġsickbed": 24245,
    "Ġhails": 21946,
    "ct": 309,
    "Ġ199": 3014,
    "Ġsatur": 1933,
    "convers": 6567,
    "complained": 25837,
    "Ġnewcomer": 26039,
    "scheme": 15252,
    "staff": 21652,
    "Ġimplement": 3203,
    "lleg": 20949,
    "Ġextensive": 12936,
    "Ġdiscussion": 17193,
    "Ġroofs": 16984,
    "Ġflood": 7715,
    "Ġsensitiveness": 23733,
    "Ġhol": 1180,
    "sweetly": 25134,
    "Ġweeks": 4564,
    "latin": 25258,
    "Ġ[\"": 19928,
    "london": 9610,
    "Ġsoothingly": 25046,
    "Ġpeaking": 22686,
    "Ġserving": 14484,
    "Ġfriday": 14487,
    "Ġshuttle": 12123,
    "Ġretarded": 23069,
    "oura": 1057,
    "Ġestab": 6315,
    "Ġtit": 8398,
    "moved": 9786,
    "Ġfestoon": 20292,
    "gage": 13721,
    "tranqu": 14704,
    "Ġmusty": 22676,
    "ased": 1268,
    "most": 1255,
    "dislike": 23493,
    "Ġsale": 14153,
    "Ġabsurd": 7202,
    "umes": 10918,
    "reflections": 24734,
    "Ġmaterials": 11289,
    "Ġuntouched": 16464,
    "estab": 14169,
    "different": 6501,
    "values": 4973,
    "Ġvariously": 18652,
    "Ġshrine": 19529,
    "ore": 418,
    "Ġpearl": 20374,
    "Ġstraightened": 12105,
    "Ġwound": 4527,
    "Ġwhar": 7388,
    "itting": 1151,
    "Ġtroub": 22340,
    "Ġerecting": 24651,
    "Ġresembles": 25968,
    "Ġconjure": 17122,
    "Ġluff": 15649,
    "irty": 4050,
    "Ġloomings": 24948,
    "vint": 21112,
    "Ġdistinctly": 7311,
    "appl": 9326,
    "ignor": 8962,
    "Ġgardeners": 12117,
    "Ġargu": 10935,
    "our": 534,
    "conscience": 14858,
    "Ġxxxvi": 24968,
    "Ġcauldron": 25441,
    "thin": 14095,
    "Ġorbs": 22088,
    "É": 138,
    "tling": 9143,
    "Ġsentence": 6187,
    "H": 44,
    "Ġprinces": 23219,
    "Ġcontextual": 3742,
    "Ġprometheus": 15290,
    "professional": 20273,
    "tranquil": 25869,
    "grandfather": 25008,
    "Ġdistinct": 4608,
    "naturally": 14558,
    "Ġoppression": 23651,
    "fever": 22497,
    "imble": 10859,
    "msgate": 18411,
    "Ġsneeze": 24698,
    "Ġadaptively": 3613,
    "Ġeliza": 6437,
    "inguished": 6598,
    "blunder": 24127,
    "isa": 17844,
    "Ġstaid": 21731,
    "illes": 12691,
    "atoes": 17774,
    "directed": 20402,
    "Ġbranded": 14377,
    "Ġheathen": 10566,
    "entitled": 21564,
    "ledyard": 22378,
    "Ġtropics": 17065,
    "asable": 21537,
    "Ġloads": 22110,
    "iliating": 12692,
    "hyp": 15364,
    "Ġvide": 10251,
    "Ġintegrity": 12310,
    "ou": 287,
    "Ġdiscrete": 2477,
    "jumped": 20244,
    "regard": 7972,
    "Ġindelicacy": 25694,
    "Ġarrive": 6907,
    "Ń": 260,
    "Ġblossom": 26311,
    "Ġinward": 11607,
    "granting": 23411,
    "clings": 23148,
    "remain": 9838,
    "etency": 21578,
    "ina": 21177,
    "recognised": 15260,
    "scand": 18847,
    "Ġhesitated": 10002,
    "Ġopposite": 5120,
    "orum": 12587,
    "during": 6787,
    "onet": 12541,
    "ten": 1557,
    "lascar": 20958,
    "remorse": 14465,
    "tains": 10963,
    "rell": 11564,
    "icacy": 15654,
    "Ġpalm": 10514,
    "ims": 7176,
    "Ġunshored": 25812,
    "counter": 20276,
    "Ġembra": 6579,
    "heed": 15496,
    "Ġtormented": 8675,
    "continu": 5501,
    "drifting": 19822,
    "Ġflashing": 13022,
    "valuable": 8248,
    "Ġjet": 5307,
    "Ġpopularly": 12238,
    "Ġtig": 13811,
    "Ġspurred": 22134,
    "seem": 10228,
    "rail": 10205,
    "Ġfuller": 11157,
    "inform": 10144,
    "Ġsaving": 15884,
    "relu": 17758,
    "Ġembracing": 14978,
    "ariously": 18529,
    "Ġpossesses": 19349,
    "worse": 14689,
    "ary": 988,
    "hee": 10761,
    "Ġasse": 8159,
    "Ġlined": 15646,
    "Ġemboldened": 22989,
    "timidity": 25752,
    "Ġgambler": 26189,
    "Ġswitzerland": 10380,
    "started": 10846,
    "pet": 4867,
    "Ġlifting": 10197,
    "Ġott": 13864,
    "Ġdoubtful": 19140,
    "Ġ182": 13232,
    "Ġnine": 5369,
    "guilty": 19480,
    "Ġlimits": 3454,
    "Ġrabb": 4163,
    "Ġlower": 2664,
    "Ġmim": 3106,
    "elope": 14462,
    "mount": 9130,
    "Ġfervently": 25876,
    "ease": 12454,
    "rs": 7807,
    "Ġparched": 11725,
    "odox": 21807,
    "Ġcontinu": 1164,
    "ersampling": 18215,
    "Ġresurrection": 12891,
    "Ġforbidden": 17077,
    "utored": 15659,
    "Ġpalp": 11252,
    "Ġjokes": 18407,
    "Ġane": 9182,
    "Ġbenignity": 18781,
    "Ġunerring": 15844,
    "Ġbutterfly": 19908,
    "Ġrestlessness": 23289,
    ",âĢĶ": 3169,
    "Ġra": 808,
    "ick": 837,
    "Ġembarkation": 25123,
    "polar": 24582,
    "Ġidle": 8252,
    "lucky": 24544,
    "princip": 17135,
    "Ġaye": 3352,
    "ilent": 21716,
    "Ġ43": 14768,
    "tor": 15430,
    "Ġthirdly": 24140,
    "Ġamaz": 5385,
    "Ġapproximates": 2416,
    "Ġsilent": 3411,
    "Ġboom": 9310,
    "cases": 12444,
    "standers": 18478,
    "tooth": 18578,
    "Ġshrunk": 16717,
    "promote": 24726,
    "snowy": 20281,
    "Ġchooses": 13342,
    "Ġtidy": 17092,
    "pursuit": 20338,
    "tumult": 12420,
    "harpo": 4804,
    "mockery": 24377,
    "Ġ64": 24366,
    "anyone": 16592,
    "spoutings": 25000,
    "rible": 3227,
    "Ġspiral": 14583,
    "Ġsullenly": 17171,
    "rifice": 12500,
    "Ġshortened": 23482,
    "Ġcler": 11768,
    "Ġ28": 19292,
    "Ġwee": 21915,
    "Ġdat": 500,
    "Ġanything": 2183,
    "Ġdistillation": 16042,
    "Ġindisposed": 26286,
    "herds": 22199,
    "Ġinvest": 4978,
    "Ġcaulk": 25440,
    "ena": 11568,
    "Ġunman": 12771,
    "ruit": 22177,
    "orously": 8418,
    "fifth": 20144,
    "Ġsnail": 19297,
    "grew": 17554,
    "steak": 14706,
    "relieved": 13272,
    "Ġhinting": 19647,
    "Ġperturbation": 20438,
    "reg": 2181,
    "sub": 4658,
    "Ġforgiveness": 16655,
    "forth": 9322,
    "waving": 21129,
    "onement": 21254,
    "Ġassur": 6073,
    "Ġapparatus": 24907,
    "Ġsubsided": 14549,
    "Ġdism": 9767,
    "inordinate": 21192,
    "Ġconsistent": 14527,
    "Ġweigh": 10895,
    "Ġscal": 1530,
    "Ġrelatives": 12976,
    "Ġnews": 3819,
    "contr": 12054,
    "aken": 1870,
    "Ġartist": 12909,
    "Ġdisgra": 18548,
    "ootiful": 17371,
    "Ġemploying": 23974,
    "Ġsagaciously": 24730,
    "elaborate": 21572,
    "Ġsuperficial": 23454,
    "Ġgrie": 3583,
    "atically": 2480,
    "hero": 21202,
    "Ġvigilance": 12368,
    "Ġplunged": 8693,
    "Ġandromeda": 21504,
    "Ġpolite": 9882,
    "Ġmarines": 16257,
    "Ġcharley": 19008,
    "Ġinvariable": 13452,
    "wow": 21119,
    "suited": 22635,
    "Ġweak": 5098,
    "Ġwashed": 15761,
    "Ġcomparison": 7099,
    "Ġestimates": 3747,
    "Ġtakes": 5007,
    "Ġleagues": 9224,
    "activation": 3231,
    "every": 2815,
    "Ġtusked": 25426,
    "dreaded": 25138,
    "Ġtower": 8318,
    "gazing": 12468,
    "Ġgem": 21590,
    "pers": 4336,
    "Ġremainder": 9858,
    "Ġstumble": 26481,
    "infliction": 25923,
    "Ġprodigiously": 14930,
    "Ġdiminish": 14743,
    "Ġperplex": 2718,
    "Ġnow": 692,
    "ivility": 12779,
    "Ġdinah": 9454,
    "Ġgriev": 16633,
    "Ġspecimen": 13013,
    "Ġtraining": 531,
    "Ġintellect": 8169,
    "Ġdread": 3161,
    "Ġbluish": 23650,
    "Ġjaw": 3318,
    "Ġseems": 2483,
    "Ġidiotic": 25587,
    "taller": 26149,
    "Ġslugg": 15266,
    "Ġreproachfully": 25251,
    "lovely": 16043,
    "Ġliberties": 19665,
    "avers": 17479,
    "ivery": 17571,
    "Ġproposal": 10019,
    "Ġbaker": 4694,
    "Ġejaculated": 15167,
    "Ġpredef": 18514,
    "judging": 24200,
    "hall": 8084,
    "Ġconfining": 23305,
    "Ġadding": 2401,
    "Ġphrenolog": 12331,
    "amb": 5723,
    "Ġyojo": 7610,
    "gl": 3291,
    "Ġtended": 21164,
    "Ġhumiliation": 16196,
    "initely": 7568,
    "Ġretrie": 10383,
    "Ġclimate": 9275,
    "Ġsquall": 7043,
    "Ġpa": 2994,
    "Ġwade": 17783,
    "Ġcurds": 23000,
    "Ġsig": 869,
    "Ġfacetious": 20581,
    "Ġcleaned": 23179,
    "Ġsobbing": 14132,
    "Ġintense": 6157,
    "Ġcomrade": 12280,
    "abb": 15735,
    "Ġshouldn": 14323,
    "Ġswears": 16462,
    "paying": 25411,
    "employ": 10896,
    "Ġvideo": 25365,
    "unpardonable": 21886,
    "buried": 14847,
    "Ġillustration": 19134,
    "Ġcabaco": 13163,
    "inion": 2878,
    "mrs": 3744,
    "upt": 13796,
    "Ġpine": 8797,
    "Ġshaggy": 13567,
    "darcy": 5208,
    "Ġdownst": 3559,
    "Ġancestors": 25641,
    "Ġdeact": 18137,
    "discovered": 8324,
    "Ġsmallest": 6430,
    "Ġcompacted": 23507,
    "Ġthrown": 4638,
    "Ġflattened": 26046,
    "activity": 22627,
    "ounders": 22380,
    "Ġrequirements": 9793,
    "Ġclutching": 24950,
    "Ġwhisky": 23930,
    "mmed": 7913,
    "loss": 22504,
    "paint": 21016,
    "Ġindolence": 16225,
    "Ġsurmis": 23461,
    "Ġgroan": 13320,
    "Ġdiscernment": 15066,
    "Ġdivision": 19441,
    "è": 169,
    "oglyph": 11017,
    "Ġrepair": 11976,
    "bal": 2155,
    "ountain": 2920,
    "Ġgor": 9207,
    "Ġnumber": 1980,
    "steps": 9405,
    "Ġidentify": 12011,
    "ales": 3316,
    "Ġquarrels": 16564,
    "Ġtru": 4106,
    "Ġsurpasses": 25268,
    "hastened": 16844,
    "Ġfailing": 12134,
    "tempest": 16958,
    "ô": 181,
    "and": 372,
    "Ġcylinders": 25942,
    "ntax": 936,
    "Ġhospit": 7514,
    "Ġheighten": 19527,
    "endar": 18361,
    "Ġstile": 21728,
    "Ġoverhead": 11771,
    "rim": 7137,
    "mits": 13754,
    "Ġbuoyed": 20038,
    "stumps": 21655,
    "boots": 11127,
    "Ġloadstone": 25815,
    "Ġinfluences": 14863,
    "Ġpicture": 4855,
    "Ġaval": 15491,
    "comp": 3817,
    "Ġ21": 11199,
    "endeav": 7150,
    "reputable": 15515,
    "Ġcorresponds": 19819,
    "Ġbeaks": 21751,
    "Ġsinusoid": 4780,
    "ignorance": 17160,
    "Ġsmiled": 5940,
    "Ġhap": 18194,
    "etymology": 14699,
    "Ġcredited": 25153,
    "Ġsaved": 6690,
    "drew": 7334,
    "shaven": 18498,
    "Ġworshipping": 22924,
    "Ġgenus": 24428,
    "Ġmatrimony": 13632,
    "Ġlent": 21543,
    "Ġparaph": 22116,
    "Ġalgorithm": 775,
    "Ġcadiz": 17323,
    "Ġindelible": 25693,
    "Ġduncan": 13457,
    "Ġhempen": 13546,
    "dissatisf": 26128,
    "Ġcanaller": 25467,
    "corrupt": 14893,
    "amaz": 21840,
    "Ġdragged": 6889,
    "Ġnorthumbria": 24168,
    "Ġsharp": 2413,
    "Ġmacy": 19352,
    "Ġquarrelling": 13495,
    "Ġfiled": 15576,
    "draught": 12086,
    "Ġmutiny": 13256,
    "ister": 1296,
    "cle": 3956,
    "congreg": 25398,
    "Ġlanes": 19763,
    "Ġepaulets": 24904,
    "tales": 17685,
    "Ġungrateful": 14119,
    "Ġnaught": 8127,
    "Ġculprit": 26171,
    "Ġbabel": 24425,
    "ĠĠĠĠĠĠĠĠĠĠĠĠĠĠĠĠĠĠĠĠĠĠĠĠĠĠĠĠĠĠĠĠĠ": 12040,
    "Ġcandidate": 16700,
    "Ġirene": 8443,
    "Ġhur": 2100,
    "Ġshrieks": 12196,
    "Ġalabama": 14017,
    "awk": 23112,
    "Ġvishnoo": 12750,
    "iferous": 17290,
    "Ġhay": 11605,
    "Ġjem": 18401,
    "Ġmeanings": 18607,
    "idence": 4301,
    "Ġvenge": 5420,
    "Ġexeget": 24083,
    "solut": 3363,
    "Ġunceasingly": 20356,
    "unaffected": 21879,
    "Ġneighb": 14074,
    "pulled": 25145,
    "gans": 11490,
    "Ġsprings": 16686,
    "dz": 4737,
    "Ġmallet": 17809,
    "arp": 2027,
    "Ġdisregard": 22524,
    "Ġsuperglue": 23455,
    "Ġattributed": 11832,
    "commission": 22814,
    "Ġemph": 14524,
    "Ġhidden": 1376,
    "Ġdivinest": 25721,
    "izarre": 17387,
    "Ġrobinson": 17462,
    "um": 454,
    "Ġfaithfully": 14885,
    "fair": 10093,
    "Ġaust": 4871,
    "Ġintroduced": 7690,
    "obscure": 23094,
    "Ġbattery": 21391,
    "Ġproflig": 23565,
    "grammar": 6435,
    "Ġliked": 5264,
    "Ġstoke": 10396,
    "Ġsemantics": 2896,
    "Ġadmitted": 8987,
    "Ġmeek": 21808,
    "Ġdiscoursing": 26265,
    "number": 10115,
    "oe": 7552,
    "Ġusing": 718,
    "rann": 21042,
    "Ġleaps": 14006,
    "Ġeternal": 5975,
    "emptied": 23636,
    "Ġchair": 3662,
    "tot": 10729,
    "Ġgros": 14821,
    "Ġabode": 7899,
    "Ġgranted": 22803,
    "Ġfamed": 16324,
    "Ġgrown": 5628,
    "forecastle": 10991,
    "Ġauthority": 7748,
    "Ġaccelerating": 1622,
    "Ġelevate": 24501,
    "unte": 21869,
    "Ġhovel": 8253,
    "ess": 412,
    "Ġunex": 11711,
    "piece": 6655,
    "fiery": 13578,
    "J": 46,
    "Ġrelationship": 2313,
    "ato": 17768,
    "Ġsallow": 12532,
    "Ġxl": 11987,
    "Ġpromotion": 23190,
    "irons": 10239,
    "ball": 7792,
    "Ġsmaller": 1883,
    "el": 306,
    "Ġerud": 20052,
    "Ġsomewhat": 4897,
    "Ġdoubt": 2220,
    "uit": 8392,
    "Ġmountain": 3371,
    "Ġtrotting": 19973,
    "Ġref": 893,
    "Ġsaddest": 16661,
    "Ġcoop": 14268,
    "Ġdom": 2604,
    "ings": 636,
    "Ġpole": 6433,
    "puted": 8846,
    "Ġrepresentations": 1876,
    "Ġaustral": 12169,
    "Ġindiscriminately": 20625,
    "satisfactory": 16892,
    "Ġdynam": 3164,
    "deeply": 16178,
    "Ġbrilliant": 11415,
    "petulance": 24298,
    "lude": 6161,
    "Ġvivacious": 19813,
    "5": 25,
    "177": 20750,
    "Ġbended": 21382,
    "Ġprayers": 12120,
    "Ġfurrow": 22809,
    "Ġadmits": 23552,
    "Ġbert": 4581,
    "fashioned": 9571,
    "rers": 14716,
    "Ġstretch": 6993,
    "Ġunmingled": 18262,
    "Ġhorror": 3773,
    "Ġdardanelles": 26442,
    "Ġpistol": 7846,
    "Ġfountain": 7365,
    "abomin": 15738,
    "Ġbarriers": 23792,
    "Ġvi": 1954,
    "Ġshrouded": 14967,
    "edmund": 17944,
    "Ġinsulted": 14990,
    "Ġarid": 22172,
    "gryphon": 15356,
    "Ġtomahawk": 7539,
    "atively": 2699,
    "vacancies": 25918,
    "Ġjudge": 5502,
    "learned": 8600,
    "caught": 8727,
    "phren": 22766,
    "sand": 21050,
    "Ġcarrying": 6071,
    "Ġassuming": 16692,
    "ulia": 18147,
    "igators": 18044,
    "Ġrattler": 24994,
    "Ġindustry": 18835,
    "Ġhedgehogs": 25394,
    "Ġimag": 2677,
    "onic": 7827,
    "Ġmeddling": 24080,
    "Ġarticulate": 24431,
    "Ġrevealing": 3926,
    "kitty": 10106,
    "Ġbroken": 3449,
    "Ġafraid": 3530,
    "Ġencode": 4364,
    "comfortably": 16874,
    "Ġsmoky": 22554,
    "Ġprejudices": 13465,
    "Ġdiscussed": 19557,
    "Ġacquaint": 13039,
    "Ġaffected": 5577,
    "xic": 9146,
    "properly": 24917,
    "Ġelasticity": 19556,
    "Ġano": 11596,
    "Ġaddress": 2268,
    "acted": 11011,
    "Ġappears": 5402,
    "Ġextinct": 14324,
    "Ġthoroughly": 8347,
    "Ġ129": 24473,
    "Ġerect": 6143,
    "Ġgrenadier": 21612,
    "wr": 3031,
    "enorm": 17780,
    "Ġmariners": 6067,
    "Ġstarve": 24624,
    "Ġmess": 7831,
    "bowl": 14889,
    "Ġsource": 6805,
    "Ġbrazier": 26319,
    "doors": 19093,
    "Ġemperors": 15157,
    "Ġbrings": 11877,
    "ining": 3221,
    "arrived": 12606,
    "Ġlar": 768,
    "Ġintrusted": 21988,
    "savage": 15073,
    "Ġpathetic": 19029,
    "Ġlistener": 16473,
    "arranged": 19316,
    "Ġcur": 1276,
    "float": 19803,
    "Ġwoody": 23517,
    "Ġunnatural": 7190,
    "gg": 1997,
    "Ġsnoring": 23738,
    "relics": 24011,
    "x": 92,
    "Ġtopic": 9406,
    "Ġnoise": 1073,
    "Ġflaming": 8564,
    "Ġseren": 7401,
    "Ġworaciousness": 22925,
    "Ġantichronical": 26608,
    "Ġslee": 8975,
    "ricity": 23059,
    "Ġaddresses": 3769,
    "Ġpreserving": 19794,
    "Ġtaking": 3250,
    "anzas": 17839,
    "report": 13395,
    "crowded": 20188,
    "Ġdenominated": 15226,
    "chiefly": 14844,
    "Ġknees": 6928,
    "material": 13125,
    "Ġsorts": 6887,
    "alescing": 23863,
    "Ġrenegades": 26475,
    "Ġtask": 1311,
    "Ġdidst": 11846,
    "Ġuproar": 22151,
    "Ġcough": 11581,
    "wling": 11545,
    "Ġinflu": 4909,
    "Ġembrace": 16989,
    "Ġclos": 4548,
    "Ġweltering": 19583,
    "Ġweighed": 8711,
    "Ġlascar": 9200,
    "Ġfond": 4754,
    "Ġdegenerating": 25798,
    "Ġmatter": 1737,
    "ture": 7558,
    "Ġhurts": 19110,
    "Ġtechnique": 2117,
    "Ġcomplex": 745,
    "upp": 10131,
    "Ġransacked": 26503,
    "Ġcig": 6520,
    "Ġprudence": 13918,
    "james": 15370,
    "Ġunhe": 22006,
    "human": 7088,
    "Ġunlocking": 20704,
    "Ġagreeably": 24951,
    "harbors": 20146,
    "Ġfurthermore": 1167,
    "Ġsense": 3251,
    "Ġslapped": 23167,
    "magistrate": 19861,
    "ergy": 2357,
    "Ġdecomposes": 5506,
    "Ġreco": 9789,
    "Ġborders": 15568,
    "ah": 1835,
    "deployment": 26526,
    "prise": 7726,
    "Ģ": 227,
    "inence": 15479,
    "sof": 17656,
    "Ġsoothe": 7405,
    "Ġforbe": 8457,
    "Ġlig": 21544,
    "Ġindolent": 12999,
    "pagans": 25525,
    "Ġfinal": 5400,
    "narwhale": 17316,
    "Ġdost": 7636,
    "Ġsinister": 8569,
    "Ġgrazed": 15830,
    "ignation": 11129,
    "thern": 4953,
    "Ġworn": 6445,
    "Ġcannon": 14152,
    "Ġrepulses": 26069,
    "Ġflorid": 17134,
    "opportunity": 12271,
    "ateg": 1371,
    "Ġbandages": 24426,
    "Ġsaith": 14154,
    "Ġlap": 8436,
    "Ġcrony": 23438,
    "Ġbeard": 11654,
    "Ġpoets": 11819,
    "Ġmast": 2903,
    "value": 18808,
    "Ġbomb": 17866,
    "chambers": 25454,
    "Ġlands": 6594,
    "Ġsatisfied": 4171,
    "shown": 22452,
    "organ": 15570,
    "mil": 13750,
    "Ġloop": 14145,
    "cupboards": 25401,
    "Ġhave": 446,
    "otted": 14022,
    "Ġmumbled": 17806,
    "Ġfascinating": 17326,
    "Ġimprisonment": 22392,
    "thought": 3848,
    "clever": 20811,
    "Ġcream": 22721,
    "oney": 3051,
    "charles": 14697,
    "Ġreconciled": 13584,
    "Ġjavel": 17083,
    "tend": 17673,
    "Ġfl": 1283,
    "Ġmac": 15535,
    "Ġrelev": 1718,
    "Ġunlock": 18242,
    "Ġdemoniacal": 20554,
    "Ġdomes": 23627,
    "Ġagitates": 22513,
    "Ġpatronage": 17052,
    "fixedly": 24928,
    "clear": 9024,
    "bulk": 19922,
    "constantinople": 25507,
    "ush": 3633,
    "model": 4274,
    "Ġperiodically": 19492,
    "Ġanalogy": 25638,
    "lotte": 3331,
    "sized": 15426,
    "aging": 2235,
    "Ġsystems": 812,
    "Ġreverence": 12056,
    "Ġdisastrous": 16056,
    "Ġdisdain": 8359,
    "Ġdad": 12597,
    "Ġseparating": 16684,
    "Ġexcursion": 26588,
    "Ġscowl": 22281,
    "feel": 3812,
    "determ": 7105,
    "Ġcivility": 4787,
    "ruined": 18339,
    "rised": 10124,
    "venge": 4657,
    "straw": 24092,
    "Ġconsummate": 25310,
    "Ġprogressive": 5024,
    "Ġanom": 12608,
    "ĠâĢľâĢĺ": 8503,
    "barrow": 15319,
    "consequence": 9763,
    "Ġserenely": 13503,
    "Ġfrequented": 16584,
    "consist": 14814,
    "Ġentities": 11861,
    "Ġpulley": 2981,
    "Ġstart": 3259,
    "Ġflying": 5413,
    "consumed": 25674,
    "chat": 21682,
    "Ġincrust": 22546,
    "whence": 23212,
    "Ġjumping": 13337,
    "infallibly": 26416,
    "favourable": 12260,
    "Ġeasiness": 23534,
    "Ġfailure": 13310,
    "metal": 24764,
    "Ġoutbreak": 22313,
    "Ġgolden": 5336,
    "isure": 6240,
    "matic": 4617,
    "Ġboast": 7034,
    "necess": 4896,
    "Ġadvisable": 11443,
    "Ġabrupt": 9736,
    "breast": 11247,
    "snatched": 24849,
    "Ġdistribution": 2019,
    "ot": 346,
    "withstanding": 8946,
    "eches": 8077,
    "Ġfant": 9174,
    "Ġstockings": 19994,
    "Ġmatch": 4528,
    "Ã¦us": 14815,
    "Ġprofoundest": 16859,
    "asp": 3340,
    "sure": 5522,
    "Ġimprovement": 7965,
    "ably": 1849,
    "Ġconcert": 11964,
    "shark": 14238,
    "Ġsteadily": 8051,
    "alterable": 13621,
    "gee": 15974,
    "Ġunderstood": 5655,
    "Ġvapors": 19906,
    "Ġdeceitfulness": 25733,
    "Ġcurve": 22997,
    "Ġtreating": 4283,
    "conject": 8880,
    "Ġbuckler": 24858,
    "ke": 430,
    "ogy": 22692,
    "hetic": 12200,
    "Ġsecret": 3720,
    "bring": 9105,
    "Ġmat": 1148,
    "Ġscript": 18397,
    "Ġcarelessly": 11121,
    "tie": 21066,
    "Ġmagnanim": 14470,
    "Ġsupplied": 8944,
    "programming": 10063,
    "lust": 15377,
    "Ġprogram": 12988,
    "Ġshut": 3943,
    "Ġsenseless": 12075,
    "Ġwearily": 18176,
    "Ġdressed": 5081,
    "Ġsupper": 4664,
    "european": 26370,
    "adel": 15725,
    "Ġarrival": 4729,
    "hook": 12050,
    "Ġflame": 7448,
    "Ġforbade": 15212,
    "Ġhind": 9189,
    "sort": 6798,
    "Ġowns": 22820,
    "prim": 23807,
    "Ġcholera": 22249,
    "Ġwhose": 2009,
    "Ġthine": 7374,
    "Ġfeelings": 2453,
    "Ġsaloon": 24059,
    "andering": 21863,
    "Ġunsav": 18250,
    "Ġwavering": 23277,
    "_,âĢĻâĢĿ": 20398,
    "Ġbugs": 13645,
    "âĢĿâĢĶ": 5721,
    "Ġlung": 7167,
    "Ġbi": 920,
    "evid": 11485,
    "Ġproceeded": 5335,
    "Ġaccordingly": 6619,
    "Ġbewil": 11656,
    "Ġusages": 15914,
    "Ġsnugness": 20074,
    "Ġpeddling": 24798,
    "Ġconsiderably": 7714,
    "Ġshoe": 14567,
    "pute": 8845,
    "birth": 15320,
    "evinced": 19924,
    "Ġten": 2384,
    "Ġdirection": 1793,
    "Ġkiss": 8182,
    "goes": 10427,
    "Ġsubstitute": 16725,
    "msprop": 2627,
    "Ġrusty": 14962,
    "Ġnaut": 13939,
    "Ġwhichever": 13998,
    "arking": 16122,
    "Ġminimize": 7050,
    "Ġiter": 2955,
    "teous": 16168,
    "âĢĶ(": 15935,
    "Ġchag": 15928,
    "Ġdeprived": 8208,
    "msman": 9270,
    "Ġwork": 1321,
    "Ġinspiring": 19111,
    "Ġdevotion": 22720,
    "Ġcomfortable": 6094,
    "Ġanxiety": 5408,
    "Ġtraps": 23077,
    "Ġhorrors": 10480,
    "Ġsisters": 3641,
    "Ġprints": 16328,
    "shorn": 22455,
    "Ġfaithfulness": 24445,
    "Ġpled": 17904,
    "spread": 8388,
    "Ġbaffled": 12400,
    "Ġirresistible": 13108,
    "ŀ": 257,
    "ienced": 5685,
    "Ġvices": 14081,
    "Ġborne": 6351,
    "Ġslighter": 18938,
    "Ġcam": 10162,
    "Ġticking": 25032,
    "Ġcolumns": 14375,
    "hearts": 13340,
    "Ġpan": 5082,
    "Ġsweep": 8265,
    "blu": 12437,
    "Ġcachalot": 17833,
    "Ġsleepers": 13145,
    "output": 4401,
    "Ġmout": 17797,
    "hel": 4813,
    "non": 9612,
    "Ġdemig": 20354,
    "Ġcrumb": 16438,
    "rew": 3649,
    "Ġshalt": 18229,
    "Ġcus": 21340,
    "Ġripe": 13230,
    "Ġpalace": 16689,
    "Ġherring": 14125,
    "Ġmccauley": 26426,
    "Ġnarratives": 24352,
    "Ġaddressed": 5262,
    "Ġsanguinary": 25928,
    "atible": 17771,
    "article": 22381,
    "asingly": 17959,
    "Ġdiffusion": 23780,
    "Ġcapricious": 20536,
    "imental": 16532,
    "somers": 19365,
    "hateful": 20907,
    "glances": 23850,
    "Ġcoachman": 14999,
    "Ġplague": 11822,
    "Ġvoyagings": 19233,
    "Ġfalls": 14643,
    "assisted": 22303,
    "Ġtranquillity": 7536,
    "Ġphysiology": 25332,
    "Ġcounterbalance": 24721,
    "lengths": 24845,
    "chester": 23804,
    "Ġinterior": 8895,
    "Ġfeeble": 12281,
    "Ġtowering": 16738,
    "Ġ94": 17716,
    "venor": 16094,
    "mar": 4335,
    "Ġscenarios": 26541,
    "dorff": 15235,
    "Ġswallows": 18881,
    "Ġfift": 6382,
    "usions": 6159,
    "Ġconjectured": 9997,
    "Ġdistributing": 22675,
    "grateful": 10429,
    "Ġallusion": 7625,
    "village": 25422,
    "Ġdy": 2491,
    "neighboring": 20614,
    "quality": 10233,
    "Ġwithdrew": 9696,
    "Ġbounding": 19397,
    "Ġtints": 17726,
    "Ġrecoil": 18695,
    "Ġsnake": 12058,
    "Ġpainful": 6462,
    "cst": 10085,
    "cas": 20792,
    "Ġrecall": 3855,
    "Ġmitig": 1337,
    "sey": 5543,
    "Ġcircum": 8257,
    "Ġinvol": 1047,
    "Ġsubur": 12951,
    "Ġlucy": 17968,
    "Ġproperties": 3118,
    "iverer": 11714,
    "taking": 5689,
    "Ġtomorrow": 21509,
    "Ġgi": 15662,
    "enthusiastic": 20690,
    "acrity": 14278,
    "shooting": 16964,
    "Ġrest": 1782,
    "real": 10150,
    "Ġplanisp": 24053,
    "threw": 21980,
    "aks": 8506,
    "Ġmonarchs": 25845,
    "Ġwafted": 14498,
    "besides": 8696,
    "âĢľâĢĺ": 1484,
    "Ġusually": 6263,
    "Ġhigh": 934,
    "cruise": 24840,
    "osed": 1961,
    "Ġjetted": 24430,
    "concerning": 9068,
    "Ġendeared": 26497,
    "Ġcringed": 25941,
    "min": 4570,
    "iscreet": 20680,
    "ĠĠĠĠĠĠĠĠĠĠĠĠĠĠĠĠĠĠĠĠĠĠĠĠĠĠĠĠĠĠĠĠĠĠĠĠĠĠĠĠĠ": 19580,
    "ised": 1099,
    "Ġalternate": 19983,
    "Ġneighbours": 8301,
    "Ġconting": 18471,
    "Ġmuteness": 19414,
    "descending": 16282,
    "Ġstatue": 23145,
    "Ġsleep": 2398,
    ")": 13,
    "Ġbelt": 12997,
    "Ġbars": 13895,
    "afforded": 25864,
    "dec": 3112,
    "Ġchicha": 15933,
    "Ġpile": 8423,
    ".": 18,
    "Ġbehalf": 14508,
    "uth": 3022,
    "Ġrested": 9379,
    "gul": 12462,
    "steel": 8297,
    "Ġsaintsbury": 26371,
    "Ġmccarthy": 5145,
    "bab": 11469,
    "Ġentrance": 7233,
    "Ġnominally": 17230,
    "Ġflint": 23007,
    "Ġcompact": 2259,
    "enched": 10155,
    "Ġdoc": 7200,
    "Ġspar": 10922,
    "bank": 10080,
    "Ġachieves": 4378,
    "Ġeleventh": 23366,
    "Ġdrily": 23537,
    "Ġpledged": 20685,
    "Ġdiscomposure": 20376,
    "hatchway": 25903,
    "Ġknob": 24406,
    "Ġgreater": 3040,
    "Ġskrimshander": 22797,
    "Ġtribes": 20478,
    "Ġpleasant": 4169,
    "Ġpreceding": 7528,
    "Ġstalked": 20426,
    "stairs": 5155,
    "doesn": 19818,
    "sen": 21047,
    "Ġcol": 1067,
    "Ġclapping": 14202,
    "cooks": 25066,
    "Ġwaiting": 4322,
    "Ġswayed": 15046,
    "Ġunforgiving": 25994,
    "Ġlapl": 19775,
    "Ġcomprise": 18582,
    "Ġrejoicing": 13417,
    "icism": 13954,
    "Ġembal": 11907,
    "Ġrobins": 16244,
    "presently": 9809,
    "Ġexpl": 487,
    "Ġwalls": 6762,
    "Ġje": 4123,
    "yard": 5899,
    "conside": 9290,
    "cook": 8269,
    "Ġresort": 18562,
    "Ġworship": 10367,
    "angered": 16177,
    "chors": 11643,
    "Ġforces": 12699,
    "agrad": 2749,
    "Ġcopies": 24934,
    "Ġcrouched": 23439,
    "arts": 6563,
    "thro": 12758,
    "wrapped": 15207,
    "Ġpossible": 2586,
    "Ġfringe": 17270,
    "awake": 14450,
    "Ġii": 7385,
    "Ġarch": 931,
    "Ġstranger": 3486,
    "Ġopal": 23623,
    "Ġuncivil": 11156,
    "Ġindefinite": 17175,
    "dition": 15338,
    "Ġadvance": 5484,
    "imens": 1749,
    "Ġte": 1113,
    "Ġsuperl": 16444,
    "Ġgoblets": 20516,
    "Ġpaling": 21458,
    "Ġoctavo": 15161,
    "skill": 24486,
    "Ġwildness": 14602,
    "Ġrenow": 18026,
    "Ġdrinking": 12165,
    "Ġpouch": 21465,
    "Ġamusements": 16912,
    "Ġimplicated": 24874,
    "gigantic": 15357,
    "warp": 17705,
    "aited": 12432,
    "Ġguards": 16267,
    "Ġworth": 4416,
    "scale": 3535,
    "results": 20384,
    "shattered": 22457,
    "inked": 12910,
    "itals": 17819,
    "kindness": 10506,
    "Ġgarnery": 17385,
    "skinned": 25387,
    "Ġscrolled": 22280,
    "Ġcalled": 1972,
    "Ġnorms": 3666,
    "ige": 12677,
    "strength": 13978,
    "Ġboards": 14298,
    "Ġnortheast": 23199,
    "Ġmalicious": 10558,
    "Ġkink": 22189,
    "Ġsee": 801,
    "Ġchest": 5185,
    "introduce": 25186,
    "grampus": 18617,
    "Ġarrant": 23296,
    "Ġincomplete": 17207,
    "Ġfierceness": 26264,
    "sorrow": 12505,
    "harpooneers": 8690,
    "Ġviciously": 24403,
    "bitter": 11242,
    "ario": 14246,
    "Ġhoky": 17925,
    "Ġanomalous": 25636,
    "Ġglimpses": 13428,
    "ucket": 2485,
    "Ġassume": 10516,
    "Ġcro": 4873,
    "captains": 12124,
    "igation": 5917,
    "Ġmovements": 24358,
    "philips": 20032,
    "aged": 2608,
    "Ġvain": 3630,
    "Ġoccurring": 2797,
    "Ġtoken": 2038,
    "Ġdegrees": 7294,
    "pr": 3173,
    "Ġmotion": 4565,
    "Ġrestore": 9380,
    "Ġperfect": 2558,
    "Ġblow": 3373,
    "Ġbeauties": 10446,
    "duty": 20237,
    "Ġdecisive": 18484,
    "Ġadhes": 22094,
    "information": 12390,
    "Ġenchanting": 17038,
    "Ġcareful": 2613,
    "Ġdecency": 18482,
    "respective": 19844,
    "Ġleague": 6538,
    "theless": 4259,
    "Ġheeds": 24519,
    "Ļ": 252,
    "ailing": 7021,
    "Ġow": 8407,
    "Ġgrace": 5374,
    "Ġwreat": 15528,
    "Ġanyone": 4459,
    "Ġsafe": 5103,
    "quar": 7615,
    "bale": 20772,
    "Ġenviron": 4329,
    "bling": 10079,
    "Ġclimb": 15077,
    "Ġcommonplace": 11097,
    "Ġgrowled": 19281,
    "Ġsummer": 4789,
    "Ġfeared": 5930,
    "Ġointment": 21323,
    "Ġshakes": 10905,
    "Ġalready": 2715,
    "ars": 906,
    "resting": 23232,
    "Ġdead": 2169,
    "Ġimperfect": 13335,
    "yours": 7694,
    "Ġjanuary": 13650,
    "Ġpioneer": 17915,
    "reeable": 3611,
    "Ġpres": 9732,
    "cherish": 24551,
    "Ġreputation": 11639,
    "Ġann": 4489,
    "ari": 671,
    "Ġlines": 4533,
    "pped": 1999,
    "deep": 1033,
    "Ġkept": 3346,
    "Ġacute": 16120,
    "ispensable": 9096,
    "Ġ29": 23728,
    "Ġmaddening": 17242,
    "ves": 696,
    "Ġjewels": 12366,
    "wrath": 23754,
    "Ġrejecting": 17050,
    "Ġel": 800,
    "uction": 15441,
    "Ġpiratical": 24800,
    "igated": 15703,
    "Ġcooper": 16072,
    "Ġsurprising": 14596,
    "Ġpersonal": 7479,
    "continually": 11303,
    "Ġdesk": 11903,
    "Ġcub": 8413,
    "rowing": 7930,
    "elev": 12455,
    "Ġdischarged": 15218,
    "char": 3503,
    "entary": 21563,
    "Ġcretan": 22724,
    "Ġarrows": 18335,
    "pshaw": 21026,
    "Ġsped": 22121,
    "Ġdiffident": 23781,
    "unts": 12728,
    "Ġrussian": 14348,
    "barbar": 20236,
    "Ġbrave": 6329,
    "mense": 4779,
    "Ġcamel": 25349,
    "hundred": 8330,
    "Ġintrepidity": 25550,
    "Ġprot": 3847,
    "Ġkneeling": 12139,
    "likelihood": 4992,
    "ĠĠĠĠĠĠĠĠĠĠĠĠĠĠĠĠĠĠĠĠĠĠĠĠĠĠ": 13384,
    "Ġbri": 21375,
    "haz": 17563,
    "Ġmarsh": 9821,
    "Ġcry": 3496,
    "atlantic": 15521,
    "Ġmuhammad": 26168,
    "surpr": 5996,
    "verse": 9688,
    "Ġtremulous": 14984,
    "Ġspring": 4121,
    "oved": 5215,
    "Ġsplin": 8619,
    "these": 3241,
    "osy": 11756,
    "Ġxxxii": 24969,
    "Ġprestige": 22232,
    "Ġyea": 8917,
    "Ġendeavouring": 8034,
    "Ġveins": 8933,
    "Ġsatir": 18795,
    "Ġshudder": 9051,
    "coarse": 16485,
    "begone": 12875,
    "Ġhints": 8429,
    "Ġconclusion": 5985,
    "Ġswimmer": 19456,
    "modesty": 22853,
    "pha": 22765,
    "Ġbubblingly": 25631,
    "unwilling": 14059,
    "Ġbra": 3255,
    "Â": 131,
    "liter": 11502,
    "Ġ60": 14873,
    "therly": 18340,
    "zek": 16262,
    "athan": 2959,
    "Ġlux": 8814,
    "great": 3517,
    "Ġswiftness": 9927,
    "chop": 21684,
    "bery": 9787,
    "icating": 15651,
    "throw": 14096,
    "Ġtalks": 23367,
    "Ġinland": 11608,
    "Ġvineyards": 25105,
    "Ġwhalemen": 3913,
    "Ġconfusion": 7273,
    "Ġdit": 21417,
    "inst": 4294,
    "4": 24,
    "Ġwept": 7184,
    "slave": 16894,
    "ak": 537,
    "Ġlying": 4824,
    "orts": 2557,
    "prehens": 9288,
    "Ġcarpenters": 16751,
    "almost": 4943,
    "Ġfitzwilliam": 5771,
    "ket": 17581,
    "Ġdivin": 13269,
    "comfort": 5647,
    "Ġwhine": 21711,
    "Ġembodied": 25847,
    "joke": 20928,
    "attempted": 20172,
    "ping": 9616,
    "Ġroads": 13284,
    "manif": 14371,
    "Ġjun": 8505,
    "Ġquiver": 16000,
    "Ġpremeditated": 22230,
    "punctual": 26354,
    "Ġ61": 24363,
    "Ġpolitic": 23616,
    "Ġstudied": 11115,
    "Ġchief": 3380,
    "Ġstepfather": 7221,
    "Ġeng": 1160,
    "relig": 15510,
    "carb": 20808,
    "Ġbale": 7838,
    "various": 10398,
    "Ġtoller": 9091,
    "ridge": 9497,
    "Ġtiar": 21165,
    "Ġregularly": 7657,
    "fainting": 20470,
    "allows": 15904,
    "Ġausten": 5880,
    "Ġinsects": 25645,
    "Ġhyster": 16872,
    "Ġillinois": 19135,
    "Ġeldest": 6571,
    "Ġinclemency": 22551,
    "Ġdemocracy": 25458,
    "Ġprophetic": 20017,
    "¢": 100,
    "umn": 5835,
    "Ġreading": 5114,
    "Ġwrest": 11571,
    "luyt": 18453,
    "faced": 8079,
    "Ġpersonality": 16475,
    "Ġspouts": 7729,
    "Ġnothing": 1360,
    "Ġblessings": 24174,
    "Ġbending": 12582,
    "dial": 20823,
    "Ġpervading": 20610,
    "Ġfanny": 23388,
    "Ġcontemplative": 19891,
    "Ġscuttle": 7414,
    "uously": 7353,
    "Ġspared": 7892,
    "Ġbelieves": 14405,
    "Ġascertained": 25296,
    "Ġbuttoning": 17234,
    "sol": 1791,
    "Ġveter": 15808,
    "forgot": 11034,
    "Ġshowers": 16604,
    "Ġpropriet": 9550,
    "rip": 9241,
    "Ġlouisa": 13542,
    "Ġpen": 1533,
    "ending": 1989,
    "Ġstraining": 11328,
    "ugl": 23286,
    "unned": 21874,
    "berish": 22714,
    "Ġmour": 6973,
    "attery": 18493,
    "Ġfemin": 13432,
    "urities": 18047,
    "Ġgrated": 22800,
    "Ġmaelstrom": 19353,
    "Ġdrop": 4344,
    "Ġtar": 2566,
    "Ġprofounder": 23567,
    "Ġrattled": 15064,
    "langu": 4806,
    "Ġsquid": 11875,
    "Ġfails": 13309,
    "Ġowest": 25090,
    "Ġlog": 1682,
    "Ġstrive": 23691,
    "excepting": 19704,
    "aff": 3102,
    "Ġproposed": 7460,
    "Ġlayers": 816,
    "strikes": 24669,
    "Ġproduced": 2452,
    "moments": 19409,
    "Ġroutine": 13504,
    "Ġimprudence": 10300,
    "Ġpompous": 20420,
    "Ġcircles": 7966,
    "arth": 4443,
    "Ġbuying": 23992,
    "Ġshunned": 17291,
    "Ġpersuasion": 10499,
    "Ġtarshish": 12026,
    "Ġargosy": 24272,
    "vely": 3866,
    "Ġanatomical": 15074,
    "Ġcatch": 4441,
    "Ġinvincible": 23479,
    "imag": 6990,
    "Ġhaunted": 10254,
    "Ġunwelcome": 12777,
    "Ġ200": 19293,
    "farintosh": 24552,
    "lilies": 20959,
    "osa": 22256,
    "Ġtumbled": 13402,
    "/": 19,
    "Ġleghorn": 13142,
    "ursday": 12273,
    "Ġadmit": 7710,
    "Ġsincere": 11137,
    "Ġtechniques": 2870,
    "arken": 18666,
    "th": 408,
    "concern": 6099,
    "ri": 391,
    "bearance": 22490,
    "ø": 185,
    "accept": 8898,
    "Ġcrossed": 6068,
    "rah": 8136,
    "Ġfals": 15577,
    "Ġremarking": 13120,
    "Ġethiopian": 26612,
    "Ġbutts": 15852,
    "Ġacting": 10992,
    "suit": 18629,
    "prow": 15409,
    "Ġwith": 349,
    "lined": 12481,
    "Ġcarter": 18899,
    "Ġgoverned": 23569,
    "proud": 9904,
    "Ġesteemed": 10589,
    "planks": 21956,
    "rushing": 10018,
    "Ġorb": 22087,
    "Ġbitter": 4172,
    "Ġcivilly": 19601,
    "alice": 3207,
    "Ġtoad": 21506,
    "Ġinhab": 5083,
    "Ġworkmen": 23036,
    "Ġload": 14144,
    "ghan": 19452,
    "wait": 11321,
    "court": 7511,
    "Ġerected": 12230,
    "commend": 19990,
    "inburgh": 15488,
    "ribly": 8254,
    "rously": 17653,
    "Ġgriff": 22802,
    "Ġdedu": 5585,
    "Ġturner": 7049,
    "delight": 5344,
    "Ġgreeks": 20010,
    "acon": 10682,
    "Ġgroans": 14822,
    "wives": 15453,
    "Ġingolstadt": 8332,
    "Ġprogrammed": 11059,
    "eaten": 20342,
    "Ġmister": 22756,
    "Ñ": 146,
    "control": 16541,
    "Ġtor": 8105,
    "Ġpanelled": 19652,
    "Ġphase": 14469,
    "Ġcouns": 10521,
    "Ġfish": 2713,
    "Ġbrad": 8787,
    "redible": 15801,
    "hears": 12529,
    "Ġcomparing": 14263,
    "utterly": 20009,
    "À": 129,
    "left": 6975,
    "Ġimprudent": 12847,
    "belled": 24032,
    "Ġdanish": 21428,
    "aton": 21256,
    "Ġunnecessary": 8852,
    "produce": 20280,
    "omuch": 21636,
    "season": 14032,
    "Ġfitly": 23995,
    "Ġurgent": 16868,
    "7": 27,
    "aloft": 8807,
    "cannib": 11899,
    "Ġfretfulness": 25448,
    "uten": 11622,
    "ĠâĢĺ": 1634,
    "Ġheavens": 5050,
    "Ġpartake": 18672,
    "Ġshocks": 16456,
    "Ġchrysalis": 26537,
    "Ġtaller": 16687,
    "Ġsister": 1475,
    "Ġrock": 5310,
    "Ġuninterrupted": 22042,
    "force": 12953,
    "Ġtheory": 5798,
    "branch": 23576,
    "Ġharris": 13925,
    "Ġmouse": 4692,
    "Ġagonized": 25372,
    "antly": 1988,
    "Ġretrogress": 23070,
    "Ġivory": 4476,
    "vere": 4883,
    "Ġneed": 2609,
    "Ġassumptions": 5517,
    "Ġquite": 1744,
    "Ġwisdom": 11234,
    "ling": 735,
    "Ġunfeeling": 14117,
    "Ġoutline": 15951,
    "Ġhaggerston": 26451,
    "Ġmouldy": 14972,
    "Ġvice": 6548,
    "Ġquitted": 5311,
    "Ġouter": 6859,
    "Ġferguson": 17468,
    "Ġmomentary": 11037,
    "Ġcolours": 12969,
    "Ġblunder": 18817,
    "Ġsurf": 19130,
    "africa": 26307,
    "Ġinspector": 6498,
    "mered": 8217,
    "believing": 19459,
    "wit": 7817,
    "Ġtok": 1246,
    "ana": 15555,
    "itions": 4147,
    "Ġfaintness": 24569,
    "Ġalex": 15131,
    "live": 7550,
    "¯": 112,
    "Ġimportance": 4900,
    "visits": 24222,
    "Ġdavy": 25950,
    "Ġenjoyment": 7300,
    "appropri": 22839,
    "Ġharb": 7370,
    "Ġtherefore": 2236,
    "allen": 22192,
    "Ġclearly": 6897,
    "Ġevenly": 4129,
    "Ġalternately": 15030,
    "Ġbales": 21386,
    "Ġsecondary": 23333,
    "ingale": 21297,
    "Ġodorous": 19564,
    "Ġindistinct": 17406,
    "pent": 3493,
    "Ġhomage": 12352,
    "befall": 22491,
    "Ġarsacidean": 20362,
    "Ġcares": 9367,
    "Ġkill": 4454,
    "Ġjustify": 11073,
    "woods": 13415,
    "Ġhermit": 15854,
    "Ġhunt": 6183,
    "Ġforgiven": 24023,
    "rally": 17650,
    "vable": 10133,
    "Ġsalesman": 13666,
    "Ġdishon": 12227,
    "irth": 5634,
    "amount": 10885,
    "Ġeyelids": 26106,
    "Ġpunctil": 20111,
    "Ġ113": 19694,
    "Ġswim": 3820,
    "Ġhover": 15616,
    "Ġconnivance": 25225,
    "ident": 3378,
    "injury": 25213,
    "falsehood": 25900,
    "finer": 17545,
    "perseus": 26004,
    "Ġroot": 2652,
    "arity": 1304,
    "mody": 16183,
    "Ġrevel": 9215,
    "called": 6292,
    "lightened": 12062,
    "malice": 17603,
    "speak": 5504,
    "Ġlim": 2379,
    "Ġlingering": 11380,
    "mselves": 2865,
    "iciency": 9575,
    "Ġdisconsol": 18556,
    "rever": 21233,
    "moderate": 22854,
    "introdu": 8938,
    "lled": 10108,
    "laborers": 23912,
    "Ġsmells": 8890,
    "Ġadd": 629,
    "Ġbottle": 7490,
    "fail": 17539,
    "Ġorganizations": 12311,
    "Ġpraying": 19552,
    "insisted": 23063,
    "Ġwanted": 4968,
    "conclusions": 25671,
    "surely": 10570,
    "mit": 4933,
    "Ġgrieve": 14705,
    "collinses": 19921,
    "¡": 99,
    "Ġfood": 5080,
    "Ġrow": 5309,
    "Ġtool": 21507,
    "ctic": 8441,
    "Ġcareer": 11119,
    "mine": 5618,
    "Ġcommunications": 16352,
    "Ġdipping": 15588,
    "Ġ----": 7145,
    "Ġnewspaper": 12361,
    "accomplished": 17210,
    "izz": 7612,
    "ville": 6087,
    "Ġready": 3397,
    "Ġdream": 3538,
    "ws": 7355,
    "Ġsult": 10768,
    "Ġsources": 10148,
    "behold": 12874,
    "Ġaccustomed": 6861,
    "Ġmales": 17804,
    "Ġgent": 7383,
    "dangerous": 20238,
    "Ġaffirm": 11886,
    "Ġprospects": 9959,
    "Ġwounded": 8658,
    "Ġunidirectional": 3426,
    "france": 24281,
    "Ġclay": 7019,
    "urons": 3130,
    "Ġshould": 866,
    "Ġsupposing": 6728,
    "Ġterrific": 6754,
    "Ġstabbed": 25456,
    "ansion": 10926,
    "Ġhappiest": 11879,
    "Ġobeyed": 12213,
    "upid": 6581,
    "unvarying": 21883,
    "dropped": 12259,
    "Ġjudging": 16594,
    "Ġmartyr": 26359,
    "Ġmarbles": 18870,
    "wins": 21127,
    "Ġsubaltern": 22788,
    "Ġfrequent": 3287,
    "Ġsolution": 9805,
    "Ġhauled": 11692,
    "creature": 5346,
    "ilations": 21718,
    "Ġoust": 21321,
    "que": 1097,
    "Ġpent": 17900,
    "Ġcharlotte": 3891,
    "Ġbeamed": 23719,
    "size": 15422,
    "empl": 5724,
    "oran": 8789,
    "Ġreigning": 15697,
    "Ġcontradictory": 20394,
    "Ġcause": 2409,
    "Ġinsensible": 12322,
    "Ġsuckling": 25996,
    "Ġheedfully": 24520,
    "Ġcoefficient": 2886,
    "Ġcryst": 9917,
    "Ġcrying": 10787,
    "Ġfactor": 19015,
    "Ġcour": 1769,
    "Ġdriven": 6198,
    "Ġpadded": 25035,
    "sed": 4175,
    "Ġvirtues": 9936,
    "Ġrecourse": 22736,
    "escript": 18470,
    "Ġtakings": 20570,
    "instance": 24165,
    "Ġcounterpane": 11344,
    "Ġdistinguish": 2729,
    "Ġhing": 11604,
    "aunted": 20768,
    "Ġtoy": 15630,
    "iguous": 18043,
    "Ġlightning": 5750,
    "Ġsavag": 19371,
    "Ġhumanity": 6731,
    "Ġgild": 15665,
    "Ġeul": 21614,
    "Ġphysiognomical": 25610,
    "flu": 9118,
    "custom": 15331,
    "crucible": 24841,
    "Ġstroll": 13348,
    "Ġphotography": 24682,
    "Ġtranquo": 14841,
    "direct": 12453,
    "doubtless": 17001,
    "pun": 9618,
    "Ġparad": 2846,
    "Ġforemost": 12002,
    "Ġxii": 11988,
    "thrasher": 25657,
    "ı": 242,
    "mouse": 15390,
    "unwillingness": 25801,
    "dict": 15337,
    "Ġenraged": 10245,
    "ble": 542,
    "Ġgrappling": 25811,
    "Ġcourse": 2131,
    "Ġfigure": 4204,
    "Ġchambers": 16798,
    "Ġcrowded": 8011,
    "Ġ100": 14361,
    "Ġdisclose": 16153,
    "Ġdoes": 942,
    "Ġend": 1485,
    "qualities": 25042,
    "Ġwilfully": 16765,
    "erial": 4630,
    "Ġdupl": 9954,
    "infall": 21186,
    "Ġnavigation": 9993,
    "Ġtraced": 10384,
    "houses": 9600,
    "cho": 2765,
    "Ġcrack": 7709,
    "rocious": 21535,
    "Ġdestiny": 8984,
    "Ġyields": 19654,
    "ive": 426,
    "Ġdetermining": 14418,
    "Ġdirectors": 18920,
    "Ġantelope": 24178,
    "ivity": 1619,
    "american": 11401,
    "Ġsan": 7824,
    "Ġtread": 9409,
    "Ġoper": 2121,
    "viating": 14578,
    "in": 262,
    "Ġderick": 9365,
    "prec": 3200,
    "Ġraven": 16112,
    "c": 71,
    "leather": 13888,
    "Ġpatentee": 25585,
    "Ġadventure": 5980,
    "ective": 18173,
    "dozen": 23375,
    "Ġpit": 3421,
    "Ġluxury": 20129,
    "shows": 22454,
    "Ġpeculiar": 3151,
    "Ġhis": 380,
    "Ġvari": 832,
    "papers": 12498,
    "Ġhoot": 19075,
    "Ġcircular": 13106,
    "Ġlawyers": 25248,
    "Ġscuff": 15939,
    "Ġyarman": 12702,
    "merry": 16535,
    "Ġfaces": 6008,
    "sense": 11524,
    "ally": 529,
    "Ġformidable": 8219,
    "Ġrepel": 23356,
    "Ġpath": 2114,
    "ctive": 11623,
    "Ġfluke": 14672,
    "Ġpropagating": 20631,
    "Ġinstituted": 18700,
    "Ġvision": 1589,
    "Ġreverber": 19867,
    "knew": 9127,
    "Ġscra": 5840,
    "detached": 19672,
    "Ġunwarranted": 25171,
    "Ġsurface": 5119,
    "Ġenter": 4030,
    "than": 4087,
    "Ġrival": 10486,
    "Ġwhether": 2001,
    "eldom": 4413,
    "Ġbad": 3989,
    "Ġvisage": 18767,
    "Ġcommendation": 13607,
    "reach": 17756,
    "Ġtombed": 25160,
    "Ġcaravan": 26289,
    "Ġgrain": 15828,
    "Ġsorrows": 13350,
    "nails": 17613,
    "Ġkrusen": 20712,
    "ran": 11516,
    "wards": 1278,
    "ĠâĢľâĢĻ": 22250,
    "l": 80,
    "romised": 14110,
    "reflected": 24732,
    "Ġwitnesses": 9486,
    "broke": 14775,
    "Ġhurry": 4913,
    "Ġequin": 14495,
    "Ġturned": 2133,
    "/*": 10071,
    "Ġsetting": 7046,
    "leave": 7837,
    "alogue": 25159,
    "Ġcustody": 13644,
    "agony": 14067,
    "Ġoffers": 12942,
    "collar": 19326,
    "Ġcontortions": 18475,
    "Ġjoy": 3182,
    "Ġproprietors": 20184,
    "Ġregain": 22582,
    "Ġintegrated": 13527,
    "Ġnetwork": 451,
    "perfectly": 9086,
    "Ġcreaking": 14329,
    "Ġquantization": 19852,
    "Ġbeech": 18081,
    "Ġvagabond": 20201,
    "Ġlanterns": 24576,
    "Ġunfortunate": 5376,
    "Ġearthquake": 14627,
    "ineering": 21977,
    "ark": 848,
    "Ġclearness": 23180,
    "comfortableness": 24524,
    "Ġmate": 3708,
    "Ġrecurrent": 1804,
    "Ġsuppression": 22991,
    "clifford": 23153,
    "Ġlou": 6822,
    "Ġlanc": 19762,
    "Ġnonce": 23231,
    "ik": 17570,
    "Ġabund": 8865,
    "beh": 5472,
    "Ġconstrain": 2631,
    "Ġjustice": 5111,
    "Ġsquared": 1385,
    "Ġcalls": 6744,
    "scy": 21053,
    "Ġprompted": 23813,
    "Ġchocks": 13341,
    "Ġdistributions": 1050,
    "aust": 15307,
    "continual": 20642,
    "Ġbridal": 14952,
    "whips": 22234,
    "Ġcurses": 13017,
    "Ġrep": 1939,
    "Ġjacobian": 2894,
    "whims": 22235,
    "figured": 20120,
    "ibilities": 13002,
    "Ġintrepid": 11704,
    "Ġdeclared": 5595,
    "chief": 4643,
    "Ġrecollected": 8310,
    "Ġfoundation": 4230,
    "Ġasph": 21894,
    "Ġcorners": 18873,
    "Ġdisappointment": 6626,
    "Ġunimportant": 22026,
    "Ġlamented": 24990,
    "Ġupbra": 22150,
    "Ġmonomaniac": 9569,
    "itating": 9651,
    "mates": 5073,
    "Ġprivileged": 20110,
    "Ġopera": 23423,
    "Ġconnecting": 18631,
    "Ġbeg": 1285,
    "Ġ67": 19658,
    "Ġjoin": 4852,
    "Ġconclude": 8581,
    "Ġconcentrated": 15081,
    "affold": 16560,
    "places": 7878,
    "Ġinventing": 24860,
    "Ġsooner": 5573,
    "Ġstationary": 19692,
    "Ġclothing": 18423,
    "desirable": 23206,
    "Ġpower": 1266,
    "Ġtertiary": 15292,
    "Ġsuspected": 9063,
    "reast": 17757,
    "Ġvest": 8162,
    "Ġcargo": 16287,
    "Ġjail": 22290,
    "Ġjury": 5378,
    "tout": 21063,
    "Ġcom": 368,
    "Ġprofit": 14584,
    "Ġsatisfy": 6912,
    "turbaned": 24531,
    "Ġcarving": 14441,
    "ruin": 22176,
    "Ġjacobians": 2895,
    "Ġpacing": 8425,
    "Ą": 197,
    "Ġsufferable": 16255,
    "Ġfulfilled": 11363,
    "anging": 3551,
    "Ġdiffered": 22709,
    "Ġrigid": 16715,
    "Ġmoss": 9284,
    "resembled": 21244,
    "atigable": 15268,
    "Ġadie": 8487,
    "Ġrings": 11697,
    "Ġeurope": 8061,
    "stationed": 25453,
    "folio": 10547,
    "organic": 25945,
    "Ġlashed": 9199,
    "adler": 21758,
    "steep": 19416,
    "yarn": 15455,
    "Ġbushy": 16399,
    "evident": 25520,
    "Ġkitty": 3910,
    "Ġsent": 1776,
    "Ġignoble": 19396,
    "boxes": 16887,
    "mate": 5358,
    "Ġdried": 7367,
    "detective": 24382,
    "Ġscorn": 7900,
    "chanced": 18809,
    "permitted": 18345,
    "lances": 15381,
    "Ġer": 8104,
    "inhabited": 13617,
    "Ġcaved": 21350,
    "ptember": 10894,
    "Ġexclamations": 11362,
    "Ġshield": 21995,
    "Ġgrammars": 11403,
    "eneva": 5118,
    "Ġrejoiced": 8684,
    "Ġwashes": 21857,
    "Ġbeh": 1802,
    "aration": 12604,
    "²": 115,
    "Ġaverage": 3138,
    "quarried": 24944,
    "Ġmig": 13854,
    "Ġfragments": 19006,
    "Ġoffice": 4965,
    "augh": 1783,
    "Ġplentiful": 12908,
    "mming": 1169,
    "property": 19997,
    "Ġsang": 12531,
    "Ġcircumstance": 4987,
    "mblings": 19778,
    "Ġgenerally": 4157,
    "Ġhval": 21484,
    "idol": 21762,
    "Ġmeasured": 9804,
    "served": 5043,
    "lies": 15379,
    "È": 137,
    "Ġfring": 11128,
    "display": 19153,
    "intending": 22931,
    "ipotence": 22360,
    "Ġpenn": 11113,
    "contempl": 13185,
    "things": 6032,
    "Ġdesperado": 19817,
    "Ġpronounce": 16967,
    "Ġsgd": 3129,
    "Ġabject": 18390,
    "Ġplunge": 13439,
    "Ġrecommendation": 17024,
    "Ġannoy": 17197,
    "Ġamusing": 11798,
    "azing": 7704,
    "Ġunspeak": 8851,
    "Ġhip": 17919,
    "Ġdefect": 8555,
    "Ġrejection": 19981,
    "xible": 13806,
    "Ġfearing": 12812,
    "elect": 20844,
    "nor": 2743,
    "Ġobliged": 4285,
    "Ġ1671": 25004,
    "Ġounce": 15270,
    "key": 5463,
    "Ġchristianity": 19859,
    "Ġere": 3686,
    "Ġendurance": 23141,
    "Ġsolitary": 5854,
    "Ġnetherfield": 3932,
    "Ġwherein": 14293,
    "Ġapplicable": 19013,
    "ute": 4641,
    "Ġardent": 9970,
    "Ġsquires": 16180,
    "Ġener": 10897,
    "Ġtreacherous": 13551,
    "limping": 26392,
    "deadly": 17099,
    "Ġstooping": 13056,
    "Ġfrozen": 9013,
    "prophet": 16175,
    "Ġholes": 16406,
    "fters": 20859,
    "perpendicular": 14163,
    "illity": 18295,
    "archbishop": 22897,
    "Ġrisen": 9493,
    "cowardly": 25748,
    "Ġ1894": 5196,
    "Ġunra": 18236,
    "foreign": 18542,
    "Ġsain": 17749,
    "ikes": 8086,
    "ected": 7872,
    "dler": 13704,
    "when": 1594,
    "Ġordering": 18997,
    "Ġsandwiched": 26609,
    "Ġdoll": 10814,
    "Ġinner": 9671,
    "pleasanter": 24043,
    "Ġappellation": 22218,
    "Ġuncles": 23428,
    "madam": 24420,
    "tons": 7559,
    "Ġdelirium": 10406,
    "Ġdistrustful": 25053,
    "Ġdepths": 4325,
    "Ġparalle": 1409,
    "Ġhold": 2241,
    "Ġinsipid": 26312,
    "Ġcumberland": 21352,
    "Ġpitching": 16610,
    "Ġvindict": 13602,
    "allied": 7410,
    "comput": 1990,
    "head": 1435,
    "jephro": 26391,
    "Ġdispirited": 23879,
    "Ġans": 1647,
    "Ġpreparation": 13525,
    "yet": 3753,
    "confirmation": 26088,
    "Ġshriek": 6637,
    "Ġprom": 1527,
    "Ġhoary": 23351,
    "G": 43,
    "Ġpepper": 9781,
    "Ġnights": 7258,
    "Ġphrensy": 25124,
    "volous": 18588,
    "companion": 9558,
    "Ġthreat": 5154,
    "unched": 10236,
    "Ġwantonly": 22890,
    "Ġpil": 5014,
    "Ġdisappointing": 19577,
    "Ġplunging": 14950,
    "Ġincarnate": 20372,
    "Ġanticip": 7507,
    "C": 39,
    "Ġpretending": 19312,
    "Ġassistance": 6333,
    "Ġapparently": 6778,
    "Ġsits": 10769,
    "Ġcomo": 21843,
    "Ġmemory": 2273,
    "bacc": 7794,
    "k": 79,
    "Ġjan": 11760,
    "company": 9461,
    "fri": 20852,
    "Ġunfrequ": 19506,
    "Ġprofusion": 23566,
    "Ġirrevocably": 15295,
    "1": 21,
    "Ġpersecut": 16951,
    "Ġincommunicable": 26610,
    "stories": 18022,
    "Ġwitnessed": 14842,
    "Ġmarket": 7708,
    "Ġshops": 21997,
    "Ġdust": 5908,
    "binnacle": 20785,
    "_;": 6640,
    "balanced": 14554,
    "Ġfaster": 3195,
    "Ġfrayed": 23262,
    "arpo": 1757,
    "grief": 13729,
    "gered": 9276,
    "Ġmerid": 13189,
    "Ġerie": 20051,
    "Ġcarry": 4778,
    "Ġtruthful": 23864,
    "Ġchowder": 10281,
    "like": 1885,
    "ection": 4948,
    "conjecturing": 20132,
    "avast": 8897,
    "Ġadam": 2127,
    "ault": 2305,
    "Ġceases": 19310,
    "Ġcanoes": 12802,
    "Ġdavis": 25951,
    "Ġcrawled": 17043,
    "Ġdwelling": 7322,
    "ache": 8518,
    "Ġadvert": 10572,
    "mo": 864,
    "kee": 18273,
    "tiness": 21069,
    "Ġspong": 15878,
    "fluke": 25204,
    "circumspect": 26085,
    "Ġawoke": 7286,
    "Ġsuddenness": 23379,
    "Ġiteratively": 3059,
    "terdam": 18128,
    "Ġeloquent": 16108,
    "Ġblasted": 7936,
    "Ġgazette": 19498,
    "mbling": 3345,
    "Ġtwos": 18656,
    "Ġfitting": 21405,
    "Ġdowry": 20683,
    "Ġaffectation": 14439,
    "Ġbrushed": 15567,
    "orers": 14101,
    "up": 1286,
    "Ġdesc": 774,
    "Ġbone": 4693,
    "Ġluxuries": 25163,
    "seldom": 13785,
    "Ġvacant": 9495,
    "waters": 11334,
    "nical": 20989,
    "Ġplants": 22597,
    "Ġsurgeons": 23462,
    "Ġaffront": 18789,
    "ulsive": 10234,
    "Ġupheld": 22148,
    "points": 14392,
    "touching": 15089,
    "Ġpolluted": 25592,
    "Ġfangs": 12594,
    "Ġparacelsus": 15264,
    "abilities": 3236,
    "slowly": 9089,
    "Ġshetland": 22155,
    "decl": 8857,
    "Ġbeckoned": 25792,
    "hig": 12471,
    "horrible": 14599,
    "occupied": 12301,
    "Ġsupposed": 4557,
    "Ġrobert": 10971,
    "Ġdespise": 14664,
    "Ġmechan": 1192,
    "ofs": 11828,
    "gone": 6504,
    "í": 174,
    "Ġwed": 3961,
    "Ġrampart": 20316,
    "Ġexpiring": 16092,
    "Ġpart": 859,
    "eps": 12788,
    "Ġvolcanoes": 24143,
    "fugitive": 26130,
    "Ġrepaired": 13103,
    "ui": 9145,
    "pidation": 18888,
    "Ġopening": 5045,
    "Ġburns": 16521,
    "Ġlover": 7193,
    "inquiries": 13574,
    "itzerland": 9995,
    "Ġfeel": 1260,
    "Ġreceptacle": 23188,
    "ensive": 6279,
    "Ġfast": 1719,
    "Ġdames": 23473,
    "Ġdivinely": 25722,
    "leag": 21363,
    "Ġhosmer": 6774,
    "bers": 2572,
    "an": 278,
    "....": 11317,
    "eed": 20839,
    "Ġeternity": 12275,
    "Ġsignifies": 19202,
    "Ġdeportment": 22592,
    "hilar": 25080,
    "Ġinvulnerable": 19145,
    "Ġcompletely": 4859,
    "Ġjumbled": 22293,
    "heart": 4525,
    "Ġimproving": 1209,
    "Ġleft": 1762,
    "rat": 8756,
    "ms": 541,
    "Ġdrifted": 14624,
    "Ġev": 4827,
    "generally": 9435,
    "Ġhyp": 3872,
    "gorith": 556,
    "Ġorlop": 22089,
    "roots": 15639,
    "Ġcivilized": 8665,
    "Ġengaging": 9336,
    "Ġburgled": 23654,
    "Ġmeeting": 5193,
    "wol": 21120,
    "Ġimplements": 2487,
    "Ġstrides": 22613,
    "Ġuses": 1208,
    "plexy": 18574,
    "Ġperth": 7022,
    "rice": 13775,
    "Ġdrowned": 9552,
    "extending": 22751,
    "estion": 18362,
    "resp": 13837,
    "based": 2965,
    "Ġwhispers": 14698,
    "Ġhabit": 6771,
    "Ġopposing": 12038,
    "volut": 1563,
    "fork": 20855,
    "embed": 18181,
    "Ġtents": 13816,
    "Ġharbor": 10027,
    "Ġintercept": 14267,
    "care": 4928,
    "Ġvigorous": 10567,
    "bohemia": 20729,
    "Ġanoint": 25537,
    "Ġperpetual": 12300,
    "Ġasia": 11681,
    "Ġunwinding": 22056,
[...]
