{
  "metadata": {
    "vocab_size": 26613,
    "algorithm": "BPE",
    "created_at": "2026-07-09 06:03:04",
    "special_tokens": [
      "<PAD>",
      "<SOS>",
      "<EOS>",
      "<UNK>",
      "<MASK>"
    ]
  },
  "vocab": {
    "abode": 21789,
    "Ġtwentieth": 18659,
    "dropped": 12259,
    "Ġhuman": 1320,
    "Ġadmeasure": 18293,
    "Ġcapabilities": 4376,
    "ws": 7355,
    "Ġtouches": 20569,
    "Ġair": 1834,
    "speed": 19407,
    "calmed": 16201,
    "Ġseeking": 7036,
    "Ġaugmentation": 20114,
    "Ġcode": 1722,
    "results": 20385,
    "Ġclim": 8195,
    "Ġencounters": 19579,
    "Ġflavor": 16248,
    "Ġglens": 18847,
    "Ġprovides": 1926,
    "inhabited": 13617,
    "ructure": 748,
    "_?âĢĿ": 15303,
    "rr": 17649,
    "claim": 9833,
    "Ġexecutioner": 12268,
    "uce": 11534,
    "nelson": 25620,
    "Ġapologies": 25196,
    "representing": 25271,
    "kine": 15373,
    "named": 9885,
    "Ġstability": 1363,
    "slept": 17168,
    "Ġgovernment": 15174,
    "appear": 13195,
    "Ġdesolated": 24812,
    "Ġengine": 1917,
    "Ġnine": 5369,
    "Ġlur": 5226,
    "Ġjune": 10287,
    "Ġpreprocessing": 26535,
    "Ġleaps": 14006,
    "Ġinterchange": 16068,
    "Ġvehicle": 20137,
    "possibly": 10542,
    "exp": 2735,
    "Ġpads": 21472,
    "Ġprophecy": 25706,
    "date": 17516,
    "ented": 4348,
    "programming": 10061,
    "ached": 2320,
    "Ġclust": 9272,
    "Ġutterly": 6100,
    "Ġpursuers": 13222,
    "po": 1137,
    "Ġabruptness": 25299,
    "Ġadvance": 5484,
    "Ġmartyr": 26360,
    "Ġimprove": 1855,
    "Ġconsiderably": 7715,
    "Ġmending": 17804,
    "Ġantique": 19550,
    "Ġwhe": 439,
    "ifice": 7198,
    "Ġintrude": 25990,
    "Ġroods": 22401,
    "Ġnorthwards": 19545,
    "Ġattentive": 9032,
    "Ġgardens": 16451,
    "Ġsinful": 18948,
    "Ġintroducing": 11972,
    "Ġheav": 1848,
    "Ġmole": 11788,
    "Ġpredecessor": 26250,
    "Ġuttered": 7280,
    "Ġactions": 6278,
    "Ġdistribution": 2017,
    "Ġleghorn": 13143,
    "Ġthreatens": 24374,
    "tured": 13793,
    "Ġbit": 2966,
    "Ġonset": 12707,
    "deceiving": 22142,
    "Ġglimpse": 6944,
    "Ġprince": 18971,
    "Ġarduous": 26528,
    "Ġreading": 5114,
    "ignity": 4373,
    "being": 3915,
    "Ġrobe": 18456,
    "cy": 641,
    "cc": 470,
    "swell": 17662,
    "Ġyarman": 12702,
    "iteous": 14260,
    "ity": 418,
    "Ġseptember": 18207,
    "incible": 16496,
    "inarticulate": 21194,
    "Ġcommunic": 5751,
    "nour": 20987,
    "weekly": 25684,
    "wouldn": 23532,
    "Ġpricking": 23220,
    "âĢĿ": 354,
    "Ġbun": 6007,
    "mar": 4335,
    "Ġquitting": 7645,
    "Ġsavi": 18325,
    "Ġintermix": 22575,
    "dec": 3112,
    "ician": 21563,
    "vocation": 25084,
    "Ġshout": 4264,
    "iors": 9124,
    "Ġtimes": 2301,
    "Ġachieves": 4378,
    "Ġalternating": 15029,
    "Ġreasoner": 14437,
    "igin": 3657,
    "mistress": 14903,
    "excellent": 8044,
    "Ġplun": 6281,
    "fer": 1933,
    "ppo": 18175,
    "Ġstamping": 20029,
    "Ġmuzzle": 21319,
    "judge": 13333,
    "Ġairs": 14510,
    "Ġtrous": 10958,
    "aside": 10190,
    "Ġaverted": 16250,
    "Ġspiced": 22131,
    "Ġfif": 4218,
    "ceptible": 10957,
    "Ġworkflow": 2381,
    "anter": 9165,
    "Ġvictor": 5125,
    "commotion": 24913,
    "Ġhoarse": 14525,
    "Ġintricate": 15135,
    "Ġ87": 19709,
    "Ġswap": 23050,
    "this": 1439,
    "Ġiron": 3235,
    "gyric": 19109,
    "Ġlinn": 13951,
    "Ġsmoothe": 23658,
    "Ġrabbit": 4288,
    "Ġdaresay": 14702,
    "Ġwhimsical": 20426,
    "ensity": 11810,
    "Ġunreserved": 19395,
    "Ġmund": 21317,
    "Ġmistress": 8611,
    "Ġ>": 21150,
    "Ġgoes": 3855,
    "marked": 9047,
    "Ġpiping": 23234,
    "alle": 1292,
    "omet": 3075,
    "separated": 20158,
    "Ġmantelpiece": 15205,
    "ĠĠĠĠĠĠĠĠĠĠĠĠ": 12897,
    "boats": 6204,
    "ional": 1086,
    "Ġsuavely": 26522,
    "urer": 18121,
    "val": 1151,
    "masculine": 24386,
    "Ġinquiring": 8998,
    "Ġ113": 19695,
    "Ġremark": 2147,
    "Ġticklish": 25034,
    "Ġinstructive": 19285,
    "id": 338,
    "Ġcrooked": 11280,
    "irium": 8162,
    "Ġseize": 8166,
    "Ġstand": 1735,
    "Ġhumped": 19768,
    "Ġincivility": 18572,
    "Ġfruitless": 25605,
    "Ġcorrect": 2429,
    "ause": 1314,
    "Ġreflection": 6440,
    "Ġrag": 18640,
    "quit": 15758,
    "Ġintrospective": 20599,
    "brow": 15313,
    "Ġapparition": 8067,
    "outside": 12801,
    "Ġremembered": 5276,
    "Ġentreat": 4511,
    "Ġaided": 17744,
    "lynes": 15700,
    "Ġcompared": 2226,
    "Ġpaths": 2567,
    "Ġhauled": 11691,
    "Ġincluding": 2851,
    "Ġpolice": 4675,
    "inburgh": 15488,
    "Ġclaws": 15963,
    "rons": 21038,
    "Ġneat": 6999,
    "Ġsympathetic": 17357,
    "Ġhe": 318,
    "represent": 9636,
    "Ġrent": 11637,
    "Ġlewis": 15721,
    "Ġprepared": 5877,
    "bellies": 19972,
    "speckled": 23942,
    "Ġdrink": 4787,
    "loose": 11802,
    "Ġwrinkled": 7264,
    "Ġgradu": 15829,
    ".âĢĶâĢľ": 20746,
    "charmed": 21694,
    "Ġinsufficient": 9671,
    "ogra": 4574,
    "Ġven": 4648,
    ".âĢĶ": 4248,
    "Ġprivate": 5345,
    "Ġdetailed": 12821,
    "python": 4692,
    "iny": 4294,
    "Ġconfronted": 23307,
    "Ġsultry": 20287,
    "mass": 12486,
    "tumultuous": 20397,
    "Ġmessages": 24983,
    "Ġfierceness": 26264,
    "Ġworn": 6445,
    "?âĢĶ": 3470,
    "kes": 3679,
    "Ġcollinses": 19129,
    "Ġbulldog": 23857,
    "Ġrally": 21966,
    "Ġfrantically": 23257,
    "act": 789,
    "Ġnose": 4402,
    "Ġlapl": 19776,
    "Ġpretend": 7722,
    "Ġsalut": 10508,
    "Ġdeportment": 22595,
    "Ġarchy": 14344,
    "Ġcuff": 17829,
    "etical": 13956,
    "Ġtoils": 10184,
    "Ġerudite": 26350,
    "Ġperception": 9748,
    "desp": 6076,
    "recurring": 24193,
    "Ġliked": 5264,
    "yt": 17710,
    "wedded": 24338,
    "manner": 6170,
    "Ġwheels": 10911,
    "omnipotent": 25964,
    "Ġvillages": 14746,
    "Ġdolphins": 20394,
    "Ġsummer": 4790,
    "Ġdrifted": 14624,
    "Ġpermitted": 9276,
    "Ġcracks": 12016,
    "expose": 23664,
    "iffs": 9020,
    "etieth": 21582,
    "Ġchrist": 4076,
    "impul": 16555,
    "emotions": 15793,
    "Ġvisiting": 10357,
    "Ġlent": 21545,
    "cull": 20808,
    "hemat": 3129,
    "stocks": 23818,
    "Ġdecidedly": 9507,
    "Ġconsidered": 4612,
    "Ġnodded": 11966,
    "itu": 1225,
    "scor": 13011,
    "allic": 12810,
    "Ġretain": 7864,
    "Ġsabbee": 17254,
    "Ġlowermost": 23242,
    "Ġtranspointed": 22438,
    "Ġcellar": 8059,
    "Ġwhims": 12689,
    "cut": 3124,
    "Ġchief": 3384,
    "anguish": 15980,
    "ĉ": 202,
    "Ġpropose": 9851,
    "Ġheave": 7599,
    "securer": 25602,
    "upid": 6581,
    "Ġmuff": 8114,
    "Ġramsgate": 18647,
    "prov": 16420,
    "helping": 23138,
    "Ġwindlass": 7256,
    "gazing": 12468,
    "uend": 21100,
    "Ġsmitten": 12896,
    "Ġmrs": 1466,
    "dually": 3284,
    "chancing": 22928,
    "Ġcandid": 4101,
    "apothe": 22333,
    "###": 3829,
    "izure": 21839,
    "Ġcruisings": 25864,
    "Ġbarrens": 25501,
    "motion": 17605,
    "hardly": 6491,
    "Ġinsurg": 23681,
    "Ġstriving": 8995,
    "Ġcordiality": 24394,
    "Ġlonely": 6823,
    "qualified": 17097,
    "monograph": 23523,
    "Ġcares": 9364,
    "far": 5787,
    "Ġdepression": 21838,
    "Ġgodlike": 23356,
    "Ġcapture": 3387,
    "Ġdeser": 3889,
    "alescing": 23864,
    "Ġohio": 19128,
    "scoured": 22986,
    "Ġcooped": 22581,
    "Ġcedar": 15186,
    "lers": 10105,
    "ours": 3429,
    "Ġshoving": 23487,
    "Ġdischarge": 18556,
    "phew": 6368,
    "Ġvic": 5237,
    "urns": 10212,
    "Ġherbage": 25996,
    "Ġtraversed": 18891,
    "those": 4496,
    "Ġassault": 9835,
    "deser": 10401,
    "Ġever": 1177,
    "family": 7324,
    "Ġnavigators": 19762,
    "Ġentreaties": 9034,
    "Ġbachelor": 7787,
    "soldiers": 25911,
    "Ġjapanese": 10631,
    "Ġimbalanced": 18334,
    "Ġextend": 18695,
    "Ġbye": 12735,
    "bowing": 24453,
    "Ġox": 7153,
    "approached": 13482,
    "susp": 10595,
    "Ġtinker": 15129,
    "Ġconfidential": 9086,
    "satisfactory": 16892,
    "save": 13783,
    "kicked": 20942,
    "Ġ43": 14767,
    "Ġconvers": 2909,
    "Ġtumble": 16878,
    "Ġjustified": 11902,
    "bold": 17486,
    "Ġunhappily": 18262,
    "ivened": 22963,
    "holloa": 19462,
    "unt": 2044,
    "olidity": 18131,
    "Ġdisappointing": 19578,
    "ric": 1376,
    "Ġgratitude": 5598,
    "presumption": 20440,
    "Ġsomehow": 4841,
    "stones": 11634,
    "Ġattorney": 18626,
    "Ġwardrobe": 17224,
    "Ġcommon": 1415,
    "Ġxxi": 24475,
    "load": 12878,
    "Ġprisoner": 8672,
    "Ġobe": 5800,
    "dom": 6222,
    "Ġtester": 21171,
    "Ġfumbling": 21416,
    "Ġflutter": 16244,
    "Ġminutes": 3001,
    "sword": 10725,
    "Ġbrooding": 18907,
    "Ġpretence": 13204,
    "lie": 12479,
    "Ġwalker": 23309,
    "Ġconstrain": 2628,
    "Ġrepay": 19079,
    "Ġdiscourage": 3116,
    "Ġinterior": 8893,
    "Ġundertaken": 18987,
    "âĢĶâĢĻ": 8188,
    "Ġhartshorn": 26180,
    "Ġsurmount": 19999,
    "Ġburying": 19251,
    "Ġdishonor": 25601,
    "ol": 361,
    "speps": 14332,
    "unpardonable": 21888,
    "Ġ91": 24590,
    "Ġquarrel": 7292,
    "Ġpots": 9426,
    "nine": 13759,
    "without": 4846,
    "glue": 17555,
    "Ġgirdled": 19157,
    "inks": 6869,
    "impatient": 13637,
    "Ġrequirements": 9794,
    "Ġsquire": 16178,
    "commodore": 20624,
    "Ġprojected": 16868,
    "Ġdut": 2989,
    "Ġsunny": 13082,
    "Ġcoronation": 13330,
    "Ġreplied": 2262,
    "onah": 3337,
    "Ġjon": 15945,
    "Ġpalpit": 16690,
    "rolled": 9058,
    "shold": 2773,
    "dwelling": 20563,
    "Ġunchanged": 22029,
    "unk": 4540,
    "Ġraiment": 22649,
    "gun": 10095,
    "flagged": 23969,
    "brary": 5755,
    "Ġsnake": 12058,
    "utions": 1887,
    "ology": 1519,
    "Ġoblivion": 26031,
    "telesc": 22816,
    "gainst": 25141,
    "ma": 1148,
    "ouched": 4637,
    "Ġzealand": 12347,
    "ssing": 3811,
    "Ġhereford": 22876,
    "Ġencl": 16163,
    "Ġmeditations": 25013,
    "Ġbodings": 21389,
    "Ġtransaction": 22437,
    "Ġendure": 5956,
    "Ġnapoleons": 25885,
    "Ġnin": 10186,
    "Ġargosy": 24272,
    "Ġfoundering": 21418,
    "envelope": 17782,
    "Ġsafe": 5103,
    "winds": 10520,
    "Ġsense": 3251,
    "Ġbusks": 23338,
    "Ġreversed": 15693,
    "Ġbrew": 23343,
    "lording": 24049,
    "Ġsaturn": 22900,
    "Ġcr": 2152,
    "Ġ183": 13235,
    "Ġinvite": 14562,
    "terogene": 21823,
    "inder": 9151,
    "onym": 14648,
    "rimin": 2421,
    "Ġbetter": 1169,
    "Ġstra": 2992,
    "trade": 19635,
    "ct": 309,
    "Ġpistol": 7847,
    "surprising": 16918,
    "Ġend": 1485,
    "Ġvillainous": 25131,
    "Ġafrican": 20136,
    "Ġmerid": 13192,
    "Ġbrighter": 16185,
    "Ġbreathes": 13243,
    "Ġadventurous": 16732,
    "Ġdefer": 18821,
    "Ġmummy": 25768,
    "Ġexagger": 12716,
    "Ġrefusing": 11027,
    "ette": 15655,
    "Ġflanks": 11912,
    "Ġembra": 6579,
    "higher": 20405,
    "icip": 6389,
    "antages": 7192,
    "Ġcannib": 6036,
    "Ġsisterly": 16299,
    "Ġall": 422,
    "Ġnumerous": 6920,
    "dial": 20824,
    "hinting": 17568,
    "Ġimpetus": 25569,
    "Ġpopulation": 16826,
    "Ġencouraged": 9353,
    "factories": 19842,
    "prodig": 16424,
    "Ġswayed": 15046,
    "Ġfabric": 25947,
    "ologist": 22850,
    "Ġelig": 9776,
    "Ġneedles": 11183,
    "ohog": 9841,
    "Ġunch": 18239,
    "Ġundoing": 22033,
    "Ġslighted": 16566,
    "Ġwith": 349,
    "shiver": 16021,
    "Ġinherited": 25353,
    "Ġobst": 6284,
    "plex": 710,
    "boom": 18998,
    "roylott": 20025,
    "lydon": 13987,
    "Ġfuel": 13902,
    "Ġtransport": 11277,
    "answered": 10272,
    "erman": 5108,
    "biting": 20779,
    "toes": 22562,
    "expressed": 9040,
    "sake": 13781,
    "Ġbrad": 8785,
    "ernity": 18613,
    "mis": 4522,
    "reen": 21230,
    "Ġbigot": 24564,
    "Ġlance": 4879,
    "mem": 10708,
    "rics": 13032,
    "ascar": 8435,
    "Ġpatagonia": 25857,
    "mockery": 24377,
    "gpt": 5355,
    "venth": 9293,
    "feel": 3814,
    "Ġchristians": 13305,
    "iour": 4041,
    "Ġcumulative": 4211,
    "mill": 13752,
    "tled": 3460,
    "Ã¦us": 14815,
    "Ġ166": 25004,
    "ĠĠĠĠĠĠĠĠĠĠĠĠĠĠĠĠĠĠĠĠĠĠĠĠĠĠĠĠĠĠĠĠĠĠĠĠĠĠĠĠĠĠĠĠĠĠĠ": 16754,
    "Ġmisled": 22754,
    "humanity": 24839,
    "isive": 10792,
    "deduction": 23553,
    "gentleness": 24844,
    "Ġstag": 6148,
    "Ġimitated": 18330,
    "boiling": 19000,
    "Ġinjure": 16780,
    "Ġvancouver": 26564,
    "oons": 12495,
    "Ġbranch": 8332,
    "Á": 130,
    "imagination": 13477,
    "Ġguards": 16265,
    "Ġbeaut": 2391,
    "library": 12994,
    "Ġshilling": 18228,
    "Ġlevi": 3035,
    "mrs": 3745,
    "Ġmurder": 4280,
    "ney": 2489,
    "smoking": 23908,
    "ropout": 1324,
    "Ġaware": 5756,
    "Ġplays": 12034,
    "yth": 981,
    "phren": 22776,
    "hearth": 15497,
    "Ġannealing": 1552,
    "Ġshrill": 12138,
    "roots": 15639,
    "Ġmeets": 7396,
    "prevailed": 17343,
    "ints": 3419,
    "Ġexamples": 2602,
    "despond": 19799,
    "Ġhourly": 23301,
    "that": 850,
    "Ġunrolled": 22036,
    "Ġhumbled": 16194,
    "Ġ46": 19489,
    "Ġdeadly": 5405,
    "impression": 15707,
    "fleece": 19946,
    "Ġolder": 9325,
    "cries": 17509,
    "Ġdesponding": 25868,
    "Ġglare": 13008,
    "inition": 11555,
    "Ġsignify": 16493,
    "Ġch": 512,
    "inioned": 19286,
    "south": 8758,
    "Ġgrown": 5628,
    "Ġways": 5396,
    "pitchpoling": 25725,
    "Ġfac": 6381,
    "answ": 15881,
    "Ġundone": 24117,
    "octavo": 11384,
    "Ġabsence": 4894,
    "Ġcloud": 3913,
    "paradise": 20636,
    "Ġspasmodic": 20396,
    "Ġmanage": 7640,
    "axed": 8887,
    "Ġlbs": 11613,
    "plan": 15811,
    "Ġprelimin": 8859,
    "Ġseeth": 21958,
    "means": 9784,
    "Ġmorsel": 20676,
    "Ġobvious": 4964,
    "Ġphil": 3388,
    "Ġwhoa": 22418,
    "Ġmounted": 7833,
    "Ġchronicle": 20227,
    "nearly": 8680,
    "Ġinspire": 11992,
    "Ġdownstairs": 11223,
    "mens": 20968,
    "Ġimpassable": 20611,
    "Ġhut": 15615,
    "familiar": 19782,
    "Ġdeed": 7869,
    "Ġincline": 18569,
    "Ġswept": 7978,
    "Ġsleepless": 14580,
    "sea": 4763,
    "Ġprevail": 13439,
    "Ġbales": 21387,
    "Ġmisunderstand": 18704,
    "Ġautonomous": 10674,
    "evenings": 19461,
    "Ġoutrage": 15955,
    "Ġravine": 18646,
    "concerning": 9063,
    "Ġlurking": 11288,
    "Ġjoy": 3182,
    "Ġtwice": 4662,
    "Ġdire": 866,
    "Ġlurks": 11289,
    "Ġdawned": 14992,
    "Ġregulations": 18593,
    "Ġquality": 3528,
    "angles": 18295,
    "Ġpassages": 12966,
    "Ġencamp": 22799,
    "Ġpurchas": 19873,
    "Ġautonom": 10414,
    "Ġkindling": 19027,
    "Ġimperilled": 19577,
    "Ġcontributed": 16006,
    "Ġconception": 10312,
    "Ġtall": 4042,
    "full": 7420,
    "ulous": 4451,
    "dington": 11898,
    ",âĢĻâĢĶ": 23524,
    "adam": 15726,
    "Ġcomparatively": 9488,
    "fed": 11486,
    "Ġ110": 24434,
    "Ġorganize": 8990,
    "stirred": 20423,
    "iag": 20915,
    "Ġparticularly": 5056,
    "ĝ": 222,
    "Ġobjections": 8564,
    "3": 23,
    "Ġguided": 10460,
    "Ġfortifications": 23619,
    "Ġarchitecture": 1108,
    "Ġturbulence": 26596,
    "ocris": 23708,
    "Ġstudying": 9844,
    "haired": 14764,
    "Ġhoof": 23352,
    "urons": 3131,
    "Ġlee": 4223,
    "cery": 20807,
    "Ġstarlight": 24627,
    "exasper": 22425,
    "Ġgrieved": 8297,
    "Ġ7": 4745,
    "harpoone": 6107,
    "uther": 8815,
    "Ġproportionably": 19969,
    "whatever": 6694,
    "Ġscuffle": 20607,
    "Ġbloom": 9886,
    "Ġnlp": 3061,
    "Ġwild": 2599,
    "Ġpage": 6978,
    "beheld": 11798,
    "Ġiroqu": 21622,
    "Ġanxiety": 5408,
    "mat": 2199,
    "Ġard": 5164,
    "Ġparacelsus": 15264,
    "Ġemerged": 8684,
    "Ġmeadows": 11421,
    "Ġtimor": 24223,
    "Ġfaded": 10808,
    "joint": 24006,
    "iron": 3441,
    "kindly": 14742,
    "Ġhurt": 7701,
    "Ġpause": 5707,
    "Ġrnns": 2392,
    "trans": 5593,
    "Ġillum": 9398,
    "Ġhereafter": 9328,
    "Ġtwinkle": 12320,
    "ot": 346,
    "icha": 11734,
    "Ġarchitects": 18732,
    "ends": 6039,
    "Ġexpon": 968,
    "Ġperturbation": 20439,
    "Ġrem": 955,
    "Ġsemicircular": 26068,
    "Ġrig": 4225,
    "limin": 8384,
    "unwho": 21875,
    "swed": 24252,
    "Ġlatterly": 24083,
    "Ġcraw": 7282,
    "aked": 2014,
    "Ġresnet": 5473,
    "Ġstock": 7455,
    "Ġpitches": 23899,
    "single": 10125,
    "Ġceased": 6468,
    "Ġenriched": 26498,
    "coach": 23556,
    "interest": 5421,
    "aboard": 21792,
    "Ġnuts": 17951,
    "Ġunfathomable": 20547,
    "Ġdiff": 3115,
    "Ġgor": 9205,
    "Ġsize": 1217,
    "measure": 10029,
    "oniously": 21256,
    "Ġancest": 12611,
    "Ġandes": 12638,
    "idirection": 2409,
    "tical": 10127,
    "Ġ96": 24593,
    "swing": 15427,
    "Ġbrooks": 25700,
    "Ġleech": 24154,
    "Ġlandlady": 10421,
    "tained": 4405,
    "Ġphant": 7055,
    "machine": 972,
    "Ġspat": 2662,
    "itated": 4441,
    "anging": 3552,
    "Ġget": 1623,
    "idays": 21768,
    "Ġremarks": 7474,
    "Ġrendering": 16656,
    "Ġdur": 11590,
    "produce": 20281,
    "Ġturtle": 4204,
    "told": 7812,
    "aper": 4999,
    "usable": 22287,
    "oy": 1018,
    "Ġornaments": 17450,
    "shaped": 10307,
    "Ġswaying": 15045,
    "Ġ500": 24327,
    "Ġperpetually": 17069,
    "complacency": 19913,
    "solved": 7685,
    "adie": 18088,
    "bourgh": 19103,
    "Ġin": 291,
    "won": 7144,
    "ugging": 23288,
    "Ġarguments": 8037,
    "oar": 12494,
    "Ġsangu": 15502,
    "Ġsteed": 13035,
    "Ġriddles": 16731,
    "endeavoured": 12277,
    "Ġpeep": 6870,
    "Ġimpulses": 19960,
    "Ġliberality": 24376,
    "Ġweal": 21918,
    "Ġjuggl": 20436,
    "asions": 12648,
    "footsteps": 25199,
    "centred": 25017,
    "Ġgrasshopper": 24379,
    "out": 467,
    "Ġsports": 18310,
    "fedallah": 25522,
    "Ġmumbling": 11572,
    "Ġplants": 22601,
    "Ġcovent": 16071,
    "Ġporter": 15607,
    "azine": 19130,
    "ished": 1427,
    "Ġinfinite": 8576,
    "Ġjuncture": 17128,
    "Ġlands": 6594,
    "Ġlikelihood": 16499,
    "Ġjuly": 17235,
    "Ġtestimony": 14475,
    "Ġenvirons": 13181,
    "Ġstrand": 11825,
    "ignation": 11127,
    "Ġcloset": 19590,
    "tes": 11527,
    "Ġfagged": 17882,
    "Ġsweetly": 23916,
    "generosity": 23785,
    "Ġdriven": 6198,
    "mselves": 2866,
    "sicilian": 21062,
    "ulance": 15763,
    "Ġproprietor": 12370,
    "offing": 23332,
    "Ġsi": 21211,
    "irection": 2386,
    "bies": 15310,
    "Ġchronicler": 20228,
    "Ġinvisible": 7327,
    "Ġinter": 728,
    "Ġentertained": 9996,
    "contented": 14633,
    "Ġrecip": 16138,
    "Ġdodging": 19886,
    "abulary": 4800,
    "Ġ37": 24076,
    "Ġconstantly": 11969,
    "Ġcho": 4548,
    "weaving": 18666,
    "Ġnorms": 3667,
    "hopes": 15367,
    "Ġastern": 6091,
    "Ġdairy": 20685,
    "Ġdegenerated": 20504,
    "Ġbells": 19600,
    "Ġcranial": 25592,
    "Ġnervousness": 23552,
    "Ġmot": 2986,
    "Ġkidn": 20204,
    "Ġhappiness": 2947,
    "Ġjoes": 19229,
    "inex": 14094,
    "Ġintruder": 25991,
    "Ġarchitect": 969,
    "set": 3868,
    "Ġsenses": 8252,
    "Ġfever": 6558,
    "Ġpsal": 15612,
    "Ġcritical": 7475,
    "Ġperforming": 7928,
    "Ġdeliciousness": 24126,
    "Ġlarge": 1063,
    "questions": 16759,
    "Ġyield": 5093,
    "unavoidable": 17388,
    "Ġyawn": 7609,
    "ousings": 18335,
    "etics": 21579,
    "Ġconvenient": 8346,
    "intosh": 22937,
    "aken": 1868,
    "Ġgrapnels": 25551,
    "Ġmid": 2613,
    "greeting": 24553,
    "remarked": 12285,
    "Ġcoolly": 9770,
    "Ġfortunate": 6214,
    "Ġdiscipline": 26560,
    "Ġlanes": 19764,
    "Ġsurviving": 24638,
    "Ġcries": 7154,
    "tie": 21067,
    "Ġpound": 12613,
    "Ġalarm": 4051,
    "sal": 8757,
    "Ġscarlet": 13219,
    "Ġpollard": 20384,
    "por": 2151,
    "spe": 3561,
    "Ġwaylaid": 22872,
    "Ġstubbornness": 25380,
    "threw": 21982,
    "Ġsubset": 9868,
    "Ġcorrectly": 9402,
    "Ġreliance": 14383,
    "Ġbags": 24536,
    "Ġinheriting": 25354,
    "const": 5939,
    "Ġdistributing": 22677,
    "Ġfailed": 6671,
    "Ġreception": 9837,
    "Ġshooting": 11161,
    "Ġacid": 22680,
    "peleg": 16291,
    "Ġugl": 12679,
    "Ġdrunkard": 20176,
    "oldened": 22637,
    "Ġcon": 348,
    "icil": 17971,
    "Ġbewildered": 15211,
    "Ġexplaining": 15957,
    "striking": 13437,
    "Ġbelong": 3888,
    "Ġlick": 21548,
    "Ġalleghan": 25795,
    "oing": 15399,
    "Ġwho": 612,
    "Ġmeasured": 9802,
    "Ġmajor": 13288,
    "effect": 8603,
    "Ġwalls": 6762,
    "Ġmetrics": 19090,
    "Ġsuperstitious": 13517,
    "Ġforbear": 17120,
    "Ġcousins": 9913,
    "Ġimbu": 15888,
    "Ġcoat": 4555,
    "reasoning": 9474,
    "chant": 4258,
    "Ġindec": 13926,
    "Ġstudious": 23223,
    "Ġconcisely": 19044,
    "urp": 1472,
    "Ğ": 223,
    "Ġexpressive": 8981,
    "lightened": 12062,
    "real": 10148,
    "Ġmethinks": 10387,
    "splice": 17169,
    "Ġevangel": 11279,
    "Ġhoot": 19074,
    "Ġthieves": 15632,
    "Ġembod": 14416,
    "Ġriveted": 13615,
    "estic": 4956,
    "mit": 4933,
    "Ġhorr": 3189,
    "Ġcoloured": 11044,
    "Ġtrance": 12838,
    "edily": 17943,
    "_âĢĶ": 11466,
    "hall": 8085,
    "Ġtweezers": 26555,
    "Ġsemicircle": 26067,
    "christmas": 20254,
    "Ġinvaders": 23479,
    "Ġglue": 15670,
    "Ġhaving": 1879,
    "Ġforthwith": 16617,
    "Ġtows": 19561,
    "dwell": 15339,
    "Ġmanufact": 22326,
    "Ġwolves": 25934,
    "men": 1486,
    "bone": 5611,
    "clo": 5612,
    "Ġpiling": 17908,
    "perils": 22185,
    "Ġfolly": 7941,
    "Ġcrony": 23439,
    "Ġvirgin": 7328,
    "Ġincess": 8431,
    "Ġhandsom": 11123,
    "makes": 10710,
    "oters": 21797,
    "Ġsavesoul": 26227,
    "Ġhandsome": 4906,
    "door": 6193,
    "jug": 17579,
    "Ġdeceitfulness": 25734,
    "Ġpriests": 15039,
    "Ġsurvivors": 25732,
    "Ġcoquet": 22582,
    "devoted": 20015,
    "Ġprophes": 16346,
    "Ġbeech": 18082,
    "ately": 1662,
    "Ġinstinctively": 13456,
    "Ġnormalizes": 1861,
    "alid": 13933,
    "fleet": 15012,
    "Ġbaptized": 25774,
    "Ġthoroughly": 8348,
    "Ġhis": 380,
    "Ġreverie": 13454,
    "ipotence": 22357,
    "Ġblotted": 20216,
    "everybody": 8610,
    "Ġefforts": 11799,
    "Ġhesitating": 16946,
    "Ġinequal": 21495,
    "ann": 5802,
    "Ġathe": 17740,
    "Ġextending": 11026,
    "Ġplus": 3885,
    "Ġbohemian": 17132,
    "Ġhemisphere": 26477,
    "Ġerroneous": 17407,
    "endom": 15916,
    "dun": 17515,
    "Ġsprout": 24087,
    "Ġholy": 6591,
    "oner": 6124,
    "disposition": 10040,
    "Ġnecessary": 4474,
    "Ġsensitive": 13196,
    "Ġnotable": 18222,
    "Ġfrance": 7682,
    "Ġlodge": 5779,
    "Ġoptimal": 1854,
    "alk": 1150,
    "Ġsharkish": 24502,
    "Ġengra": 7875,
    "Ġpatagonian": 20533,
    "seeing": 7078,
    "Ġenchantment": 24869,
    "Ġestimates": 3749,
    "Ġcompression": 18145,
    "Ġtag": 15466,
    "Ġwaste": 9232,
    "Ġardour": 8043,
    "board": 3566,
    "Ġlany": 21552,
    "Ġbewit": 15724,
    "misfortunes": 16755,
    "ustomed": 6099,
    "unctions": 18155,
    "scuttle": 11907,
    "Ġrepresent": 1210,
    "somewhere": 12009,
    "hack": 20895,
    "Ġfinery": 23125,
    "Ġprodigiously": 14930,
    "Ġpermission": 9277,
    "Ġjem": 18402,
    "Ġsacrificial": 24871,
    "ĠcÃ¦sar": 20578,
    "prev": 12864,
    "Ġbund": 17863,
    "Ġwarn": 5695,
    "Ġsystemat": 18447,
    "tot": 10727,
    "Ġmont": 8557,
    "Ġvertebra": 20180,
    "uarded": 21104,
    "cloud": 11104,
    "Ġsouthwards": 19632,
    "Ġmaj": 3929,
    "lifeless": 24311,
    "Ġprecipitate": 19940,
    "Ġrenewing": 19809,
    "myster": 16259,
    "phr": 18713,
    "Ġflowing": 14408,
    "imes": 1301,
    "sloop": 26145,
    "Ġreusability": 13555,
    "Ġwrecked": 9964,
    "Ġdiscoloured": 15250,
    "indisc": 22371,
    "wickham": 5884,
    "rendering": 22338,
    "Ġpattered": 19029,
    "Ġsurpassed": 25267,
    "Ġsplashed": 23747,
    "qu": 369,
    "Ġauthorities": 11263,
    "Ġlowest": 11121,
    "Ġskipper": 22797,
    "Ġconceive": 8461,
    "Ġcompromised": 22569,
    "Ġbegg": 16249,
    "Ġescapes": 23505,
    "Ġleaf": 15719,
    "Ġsympathising": 24296,
    "Ġstark": 7390,
    "Ġgroup": 2038,
    "ds": 4688,
    "Ġcouple": 5423,
    "transom": 19733,
    "Ġcomputing": 2218,
    "Ġrestrain": 8963,
    "mccarthy": 15393,
    "Ġpad": 8125,
    "Ġdetail": 633,
    "Ġgild": 15665,
    "ice": 590,
    "surd": 6934,
    "Ġfetched": 24566,
    "Ġsprawling": 22137,
    "expectant": 24274,
    "ilar": 10214,
    "Ġcre": 888,
    "Ġdisinterested": 16053,
    "town": 7142,
    "Ġmaimed": 21315,
    "Ġmayhap": 18707,
    "Ġdurst": 20351,
    "leaning": 10789,
    "Ġscreen": 17204,
    "Ġneedless": 19228,
    "rail": 10203,
    "Ġfoundling": 22968,
    "Ġneur": 812,
    "custom": 15331,
    "Ġmetropolitan": 17274,
    "Ġsupremacy": 20259,
    "Ġbars": 13895,
    "Ġconcentration": 25062,
    "Ġvanish": 8926,
    "Ġthree": 1370,
    "until": 6596,
    "Ġpalp": 11250,
    "Ġrepenting": 25322,
    "ake": 749,
    "Ġexploding": 2109,
    "icity": 2538,
    "thur": 7188,
    "walked": 10569,
    "rints": 12499,
    "Ġardently": 9496,
    "dark": 5613,
    "Ġgayer": 24497,
    "ay": 355,
    "Ġcontrari": 23348,
    "Ġrol": 3556,
    "Ġgazes": 24093,
    "Ġeluc": 16106,
    "Ġlabourers": 23331,
    "Ġcontrol": 13076,
    "officer": 17053,
    "Ġbuckskin": 19950,
    "doctor": 19095,
    "Ġtanning": 17728,
    "Ġhence": 4989,
    "elf": 565,
    "animal": 16977,
    "Ġ10": 5249,
    "Ġtranquillity": 7536,
    "Ġmysteriously": 24602,
    "pth": 2378,
    "Ġcoal": 18595,
    "Ġsnarled": 25716,
    "wretched": 10740,
    "Ġdom": 2622,
    "Ġaccurate": 13228,
    "Ġpaddle": 20057,
    "Ġchilled": 18382,
    "unken": 10235,
    "Ġthan": 737,
    "Ġexploitation": 2346,
    "Ġnile": 21519,
    "Ġpupella": 20420,
    "explained": 23140,
    "Ġautumn": 14507,
    "Ġstayed": 7998,
    "Ġsagittarius": 24732,
    "Ġreal": 1635,
    "Ġtamer": 24978,
    "civility": 17512,
    "Ġbloodless": 19338,
    "Ġtort": 5902,
    "Ġprocessing": 890,
    "Ġhonour": 3924,
    "Ġmyster": 5926,
    "Ġpresumed": 10543,
    "connect": 1290,
    "pointed": 9806,
    "Ġforg": 3790,
    "Ġimbecile": 17390,
    "Ġtransplanted": 22439,
    "Ġscept": 15501,
    "Ġdrove": 4984,
    "ĠĠĠ": 2115,
    "lestrade": 9655,
    "Ġchuckled": 10646,
    "Ġboughs": 20487,
    "atha": 6572,
    "Ġplanning": 14749,
    "privilege": 25263,
    "Ġexpanse": 14290,
    "farintosh": 24552,
    "ĠâĢľâĢĺ_": 25111,
    "suitable": 18632,
    "Ġextreme": 2510,
    "Ġcir": 21339,
    "Ġcats": 8978,
    "Ġwrongfully": 24247,
    "Ġtransc": 12861,
    "Ġdevice": 1925,
    "Ġnavy": 14914,
    "aver": 6785,
    "appearance": 5333,
    "Ġjan": 11759,
    "Ġinconceivable": 17937,
    "entire": 6824,
    "Ġlovers": 9718,
    "Ġforeheads": 23447,
    "Ġaccost": 12842,
    "Ġlass": 15644,
    "Ġrejoice": 10207,
    "Ġshoreless": 24294,
    "Ġgomorrah": 21613,
    "Ġhunting": 7259,
    "Ġauger": 21202,
    "Ġsweetheart": 19393,
    "arus": 13910,
    "Ġtuesday": 9625,
    "Ġcrater": 16437,
    "fortunately": 9449,
    "Ġpeculiarly": 8287,
    "Ġluxuries": 25163,
    "Ġsubdivisions": 26037,
    "beam": 16036,
    "mine": 5617,
    "Ġunresting": 25553,
    "Ġcomposed": 8890,
    "Ġmultipl": 2791,
    "Ġcommission": 6712,
    "Ġstages": 14002,
    "Ġbash": 12583,
    "Ġprovision": 14823,
    "retirement": 23137,
    "Ġencouragement": 13037,
    "owed": 2267,
    "gates": 20871,
    "orm": 425,
    "princ": 8620,
    "Ġdiscovering": 13354,
    "haz": 17563,
    "Ġadversary": 12170,
    "astonished": 15031,
    "Ġoperate": 19115,
    "breathing": 25335,
    "Ġabout": 631,
    "Ġcarve": 23091,
    "Ġshift": 2281,
    "Ġearnest": 3932,
    "Ġprivileges": 25132,
    "iscient": 17851,
    "joined": 13272,
    "Ġwickham": 2205,
    "rougham": 15990,
    "yd": 21141,
    "jointed": 24007,
    "venison": 22627,
    "Ġabraham": 18395,
    "ear": 8730,
    "Ġtrotting": 19974,
    "seamen": 13623,
    "athan": 2958,
    "details": 19674,
    "Ġslaughter": 20729,
    "mut": 17594,
    "Ġshoots": 14567,
    "ust": 492,
    "ieves": 4009,
    "prepare": 20211,
    "Ġconfidence": 6590,
    "Ġstr": 752,
    "Ġfancy": 3746,
    "oko": 18440,
    "women": 15454,
    "Ġbrotherly": 16527,
    "loo": 10318,
    "aciousness": 18607,
    "Ġbended": 21383,
    "Ġmightier": 18730,
    "Ġimmortal": 8018,
    "Ġinvoked": 19144,
    "orial": 8417,
    "Ġlargely": 14283,
    "Ġsake": 4094,
    "arding": 22155,
    "Ġconsuming": 22791,
    "crimson": 24099,
    "Ġord": 3736,
    "press": 1731,
    "unable": 14057,
    "Ġtoss": 10183,
    "Ġscho": 4437,
    "Ġdumplings": 15188,
    "Ġcombination": 22859,
    "Ġabridged": 26539,
    "neighboring": 20615,
    "Ġunsh": 14113,
    "Ġclutching": 24951,
    "Ġiroquois": 26471,
    "def": 1451,
    "Ġrelated": 3716,
    "obscure": 23096,
    "piled": 21014,
    "accomplished": 17210,
    "Ġpersecut": 16951,
    "tur": 5688,
    "Ġhaz": 12752,
    "infallibly": 26416,
    "vard": 21109,
    "Ġchamp": 18381,
    "Ġjoys": 13216,
    "Ġpaper": 4282,
    "recursion": 13325,
    "ore": 417,
    "Ġprove": 5231,
    "Ġundu": 15834,
    "Ġfixed": 2682,
    "Ġheart": 1591,
    "Ġmisfortunes": 7041,
    "Ġreflecting": 24751,
    "Ġhav": 12751,
    "Ġabominably": 20064,
    "Ġcongreg": 8462,
    "Ġmarlingspike": 26578,
    "charm": 13988,
    "Ġfine": 1318,
    "Ġnarrative": 6215,
    "Ġoften": 1951,
    "esting": 7412,
    "Ġplace": 1654,
    "pertaining": 22186,
    "Ġsteep": 2892,
    "lady": 4434,
    "Ġsailed": 4889,
    "Ġpolitely": 8992,
    "Ġpersever": 10001,
    "Ġrenewed": 9536,
    "roc": 9673,
    "Ġmr": 663,
    "Ġblasted": 7937,
    "continual": 20643,
    "Ġrules": 1916,
    "Ġoccup": 3740,
    "Ġpierced": 12278,
    "Ġking": 2303,
    "stationed": 25453,
    "Ġbreath": 4791,
    "Ġinquiries": 5678,
    "ğ": 224,
    "solic": 16374,
    "Ġrighteous": 18945,
    "Ġscrape": 14916,
    "Ġeven": 1029,
    "Ġindication": 22950,
    "bular": 15311,
    "viating": 14577,
    "Ġsaintsbury": 26372,
    "Ġrepl": 1590,
    "Ġdir": 21420,
    "eze": 20846,
    "Ġpours": 17909,
    "Ġinquirers": 24964,
    "Ġresided": 11808,
    "Ġremotest": 10050,
    "Ġdoctor": 5067,
    "Ġbroom": 18906,
    "Ġfavour": 3643,
    "Ġmic": 17797,
    "Ġlimped": 19180,
    "Ġdawn": 6816,
    "Ġcro": 4873,
    "allied": 7410,
    "Ġsandwiched": 26609,
    "ctive": 11621,
    "Ġgrind": 18735,
    "rennial": 22339,
    "regarded": 12004,
    "Ġtraining": 529,
    "visit": 7755,
    "Ġfade": 21406,
    "Ġninety": 13598,
    "Ġpractised": 23324,
    "onsensical": 18575,
    "Ġtells": 9359,
    "Ġbil": 15561,
    "oftentimes": 19419,
    "angle": 22102,
    "Ġloss": 823,
    "glimmer": 26321,
    "ulls": 8836,
    "pard": 9617,
    "Ġthorough": 6245,
    "Ġkitchen": 8495,
    "Ġcounted": 12136,
    "Ġintellig": 525,
    "wheel": 22869,
    "rates": 21037,
    "Ġblindly": 12106,
    "Ġseat": 4949,
    "Ġsprain": 18305,
    "Ġextensive": 12942,
    "Ġascertain": 9704,
    "Ġrequire": 941,
    "arrested": 15597,
    "Ġbite": 10796,
    "remes": 21236,
    "Ġamelia": 26252,
    "icy": 6140,
    "pen": 1200,
    "Ġgangway": 20157,
    "solution": 14685,
    "beer": 22486,
    "Ġbelieving": 8225,
    "ounted": 5030,
    "cul": 1898,
    "degree": 12798,
    "Ġlift": 8809,
    "ald": 15621,
    "lungs": 26135,
    "suffer": 24332,
    "ained": 3064,
    "Ġsheeted": 19830,
    "inhab": 10756,
    "Ġtradesman": 20071,
    "squall": 13519,
    "Ġeffected": 14352,
    "Ġcorpse": 6638,
    "phenomenon": 17647,
    "crown": 13696,
    "burnt": 20078,
    "Ġquaff": 22412,
    "Ġspaniard": 20361,
    "Ġcringed": 25942,
    "Ġsturgeon": 20590,
    "Ġenclosure": 20622,
    "Ġdisgust": 6705,
    "Ġbefriend": 18081,
    "Ġsignals": 10584,
    "inite": 6002,
    "Ġunquestionable": 26221,
    "Ġdoorway": 14496,
    "!--": 10676,
    "Ġpurposely": 10443,
    "Ġoriginate": 24121,
    "events": 12314,
    "Ġnavel": 24575,
    "Ġlightnings": 16350,
    "Ġawhile": 13828,
    "Ġconversation": 3330,
    "Ġrequested": 14308,
    "repaid": 24490,
    "Ġchivalry": 25819,
    "ocations": 23707,
    "Ġbos": 4875,
    "next": 5892,
    "Ġdestiny": 8982,
    "Ġinsurmountable": 16530,
    "Ġtranquillize": 24757,
    "Ġdesirous": 8941,
    "Ġscrupled": 25049,
    "iable": 3334,
    "Ġaddition": 1145,
    "Ġlamps": 14789,
    "Ġsolar": 22883,
    "Ġfacility": 19849,
    "gered": 9274,
    "Ġsheer": 14149,
    "Ġcaps": 8415,
    "line": 1440,
    "Ġstrokes": 16768,
    "expect": 4769,
    "hos": 15361,
    "strate": 12671,
    "Ġbloodthirst": 23800,
    "Ġprofessions": 11231,
    "nels": 12492,
    "Ġspecial": 2103,
    "ble": 542,
    "aneously": 4063,
    "Ġhoars": 19075,
    "conf": 4957,
    "Ġnecess": 3477,
    "Ġostent": 13581,
    "swimming": 24257,
    "reported": 24492,
    "Ġbuild": 6474,
    "actually": 14295,
    "Ġfew": 1196,
    "®": 111,
    "Ġcrushing": 20175,
    "Ġpane": 21461,
    "Ġcells": 13883,
    "Ġsho": 2241,
    "Ġwhirl": 13446,
    "oquent": 12496,
    "Ġsurface": 5119,
    "Ġcos": 2207,
    "Ġoakum": 16933,
    "Ġversion": 10628,
    "Ġacquiescence": 20329,
    "Ġwithout": 1121,
    "lid": 20944,
    "Ġmarchant": 14784,
    "Ġtrapped": 23076,
    "tar": 8098,
    "Ġglimpses": 13429,
    "sailing": 14712,
    "Ġmir": 9645,
    "racted": 4776,
    "Ġrelationship": 2314,
    "Ġinterpreter": 23210,
    "Ġinstinct": 6574,
    "Ġundulating": 19516,
    "Ġshadows": 8013,
    "Ġmiracle": 15091,
    "Ġvisit": 2581,
    "cripp": 20818,
    "Ġanticipation": 17056,
    "create": 24158,
    "ahit": 9380,
    "Ġlac": 17964,
    "Ġforesight": 13124,
    "Ġceleb": 20224,
    "stonecraft": 24355,
    "Ġnoisier": 4625,
    "Ġluc": 3311,
    "Ġrod": 9278,
    "farmer": 25899,
    "Ġjustine": 4970,
    "Ġproflig": 23565,
    "airs": 2219,
    "Ġigniting": 25070,
    "Ġshirt": 8847,
    "Ġstraw": 9427,
    "Ġslanting": 23170,
    "Ġpossessions": 23822,
    "politeness": 16905,
    "Ġcirclings": 26430,
    "comfortableness": 24524,
    "gre": 5788,
    "Ġportrait": 10660,
    "Ġrebounds": 25967,
    "restrained": 16333,
    "Ġinexperienced": 26100,
    "Ġgunwale": 7325,
    "Ġlibr": 15997,
    "Ġcomplet": 4424,
    "Ġglimmered": 20170,
    "Ġstays": 16560,
    "fearfully": 25116,
    "Ġoccurrence": 14380,
    "rants": 13776,
    "Ġoar": 6236,
    "Ġdates": 6693,
    "purse": 20023,
    "Ġstroll": 13349,
    "salis": 25147,
    "Ġbequest": 21751,
    "Ġindef": 9188,
    "folding": 24927,
    "allah": 5838,
    "Ġxlvi": 25590,
    "robber": 21535,
    "Ġsallow": 12532,
    "imod": 15706,
    "robust": 19726,
    "Ġportentous": 15227,
    "Ġuniversal": 2231,
    "Ġgiddy": 20495,
    "childhood": 16865,
    "boscombe": 26121,
    "99": 1893,
    "Ġatt": 783,
    "strained": 21656,
    "Ġflu": 3277,
    "Ġgeorge": 3750,
    "Ġtraverse": 18890,
    "Ġstupidity": 15048,
    "Ġdry": 5624,
    "Ġhart": 17921,
    "semicirc": 26490,
    "ises": 3655,
    "listened": 15042,
    "olerable": 7182,
    "Ġatlantic": 7000,
    "ĠĊ": 12519,
    "Ġsuccour": 20433,
    "osure": 5306,
    "iem": 20916,
    "Ġlost": 2635,
    "una": 21867,
    "wandered": 20284,
    "warp": 17705,
    "Ġflattered": 10373,
    "Ġpro": 360,
    "opening": 10311,
    "Ġbeneath": 3237,
    "ellation": 12747,
    "Ġwooing": 19432,
    "Ġexp": 781,
    "Ġtropical": 17064,
    "Ġfergus": 16871,
    "Ġrewarded": 14938,
    "Ġbabies": 19691,
    "bert": 4663,
    "wel": 6117,
    "backed": 9864,
    "relu": 17758,
    "Ġchased": 8860,
    "burg": 16772,
    "Ġyounge": 16285,
    "Ġswim": 3822,
    "ee": 1661,
    "Ġarmchair": 8271,
    "Ġmyst": 4054,
    "Ġvaliantly": 22790,
    "ile": 520,
    "Ġtroublesome": 23999,
    "harb": 9122,
    "Ġunmingled": 18263,
    "Ġreaching": 7303,
    "Ġsigned": 11176,
    "Ġabrid": 22270,
    "Ġprotecting": 24686,
    "Ġsublimity": 26345,
    "poor": 6061,
    "just": 1702,
    "recurrent": 4994,
    "õ": 182,
    "Ġpurchases": 24756,
    "Ġorb": 22089,
    "Ġhopeless": 7462,
    "waving": 21130,
    "ating": 666,
    "crooked": 25746,
    "erest": 10696,
    "Ġtaken": 2524,
    "Ġcrystall": 20225,
    "ky": 4521,
    "Ġgratefully": 20443,
    "Ġmadden": 10446,
    "Ġinfirm": 19017,
    "nson": 16090,
    "pool": 16205,
    "uth": 3019,
    "Ġbring": 3324,
    "Ġdusting": 24597,
    "creature": 5346,
    "P": 52,
    "bedroom": 14675,
    "Ġforked": 11662,
    "Ġanchored": 17438,
    "Ġmort": 3462,
    "Ġemails": 13103,
    "Ġheartily": 6890,
    "Ġkith": 22190,
    "ivorous": 22080,
    "Ġvillain": 8635,
    "Ġpossibly": 4515,
    "Ġjovial": 19232,
    "Ġoverboard": 6045,
    "Ġtorm": 5434,
    "prise": 7727,
    "leagues": 21371,
    "uting": 15656,
    "Ġsweeping": 8984,
    "Ġtumbling": 13824,
    "fitters": 24761,
    "Ġjoyful": 13217,
    "Ġapology": 8328,
    "ig": 323,
    "woof": 21138,
    "twas": 15435,
    "Ġunfolding": 17085,
    "Ġlapse": 17119,
    "inisc": 15486,
    "changing": 10853,
    "Ġwreck": 7314,
    "sher": 5217,
    "finding": 17012,
    "bare": 12438,
    "Ġeastern": 11627,
    "Ġfo": 1653,
    "osal": 11756,
    "Ġclose": 3037,
    "Ġwarmup": 3923,
    "Ġnorm": 764,
    "thick": 10259,
    "af": 2373,
    "Ġwilliam": 3484,
    "ilent": 21718,
    "Ġcent": 3254,
    "Ġslung": 23166,
    "Ġservice": 6471,
    "horner": 23613,
    "Ġfasting": 16353,
    "derick": 22166,
    "Ġhilarity": 20296,
    "Ġcommanded": 6330,
    "Ġjuicy": 25370,
    "Ġjolly": 6858,
    "Ġelement": 6898,
    "archical": 1923,
    "Ġunsuccessful": 18257,
    "Ġcared": 8781,
    "Ġsashes": 21224,
    "Ġsimpler": 2048,
    "residence": 19262,
    "pip": 6654,
    "accusations": 23598,
    "ator": 1920,
    "ituted": 13871,
    "Ġvers": 7563,
    "Ġpiqu": 21475,
    "osa": 22258,
    "Ġgibe": 25959,
    "cess": 537,
    "Ġreassure": 21670,
    "atics": 15520,
    "Ġpurple": 10432,
    "Ġsooty": 25815,
    "Ġremember": 2675,
    "doesn": 19819,
    "Ġhunters": 6300,
    "Ġdeclining": 23961,
    "Ġanom": 12608,
    "Ġswore": 10377,
    "auley": 22620,
    "Ġdisc": 944,
    "ifted": 4495,
    "Ġinfiltrated": 23281,
    "unvarying": 21885,
    "Ġentertain": 6054,
    "Ġforfeit": 21773,
    "her": 489,
    "Ġvicissitudes": 12416,
    "ually": 2770,
    "Ġunrel": 14694,
    "fl": 3600,
    "respond": 12540,
    "metals": 24766,
    "Ġundersampling": 19517,
    "clearer": 24066,
    "Ġcruising": 6913,
    "web": 18664,
    "Ġgene": 15668,
    "Ġblade": 11890,
    "Ġserviceable": 24718,
    "Ġden": 3107,
    "rucastle": 22176,
    "Ġchasing": 11751,
    "Ġrecords": 12192,
    "Ġpubl": 3942,
    "mastod": 23971,
    "irs": 14068,
    "ptic": 21916,
    "haustible": 16890,
    "Ġrumbling": 18211,
    "everything": 6324,
    "mits": 13754,
    "fain": 13713,
    "Ġross": 2765,
    "Ġevolved": 9890,
    "Ġtarpaul": 17729,
    "Ġbound": 3519,
    "Ġmoral": 6578,
    "sheets": 14440,
    "garet": 9596,
    "Ġmasterless": 23992,
    "Ġworld": 1593,
    "sound": 6799,
    "ench": 21278,
    "vocabulary": 25085,
    "copy": 5133,
    "Ġreducing": 1953,
    "Ġupstairs": 5836,
    "Ġfat": 3464,
    "per": 482,
    "Ġorgies": 18285,
    "Ġattention": 1176,
    "unwholesome": 26496,
    "Ġtransmit": 10303,
    "Ġveiled": 16198,
    "Ġproject": 5545,
    "Ġagricultural": 26549,
    "distance": 12149,
    "Ġextraordinary": 5414,
    "imen": 12683,
    "Ġdie": 3965,
    "Ġheedless": 14901,
    "Ġunderstand": 831,
    "Ġcentral": 7728,
    "Ġcontemptuous": 24676,
    "Ġaggregate": 25677,
    "scream": 11076,
    "Ġtalking": 3860,
    "Ġbulkington": 14676,
    "blasted": 20188,
    "ĠĠĠĠĠĠĠĠĠĠĠĠĠ": 22560,
    "Ġvigil": 9505,
    "Ġartic": 5314,
    "Ġtroops": 24898,
    "iot": 9599,
    "yn": 7820,
    "Ġpovelson": 26551,
    "cowardly": 25749,
    "blacksmith": 17000,
    "Ġsizes": 1521,
    "Ġlucas": 3834,
    "Ĭ": 237,
    "Ġviv": 6156,
    "Ġplunge": 13440,
    "apering": 8041,
    "Ġargu": 10933,
    "itical": 5801,
    "Ġcritically": 23444,
    "Ġ18": 3408,
    "Ġprinted": 11946,
    "ensical": 18567,
    "shell": 16283,
    "Ġjollity": 25566,
    "consequ": 18506,
    "Ġluggage": 25957,
    "meryton": 10110,
    "ana": 15555,
    "Ġbitt": 10795,
    "Ġquite": 1740,
    "lilies": 20960,
    "terrific": 25040,
    "Ġdisco": 3430,
    "appalled": 18759,
    "Ġmarlings": 23033,
    "Ġhysterical": 26092,
    "signed": 21060,
    "Ġhealthful": 24057,
    "Ġinsol": 10179,
    "Ġrelinqu": 12978,
    "Ġgreen": 3052,
    "Ġcontrad": 9753,
    "Ġtwink": 8216,
    "published": 26142,
    "village": 25422,
    "Ġbugs": 13645,
    "Ġchink": 15929,
    "Ġblu": 2684,
    "Ġpolitical": 19222,
    "Ġapproaching": 6283,
    "Ġfinding": 3265,
    "Ġconcussion": 26300,
    "thrust": 10260,
    "Ġunprovided": 18260,
    "brace": 16941,
    "thou": 4709,
    "geor": 15975,
    "course": 6104,
    "ctu": 5088,
    "Ġgemini": 26468,
    "Ġassign": 11108,
    "prehend": 14241,
    "abbering": 21794,
    "fugitive": 26131,
    "Ġger": 21589,
    "Ġamours": 22480,
    "Ġhours": 2823,
    "Ġfemin": 13433,
    "Ġbelie": 14404,
    "Ġgust": 21595,
    "Ġsavann": 14683,
    "redible": 15798,
    "Ġdz": 4756,
    "Ġkiller": 19567,
    "Ġdisappears": 18560,
    "scy": 21054,
    "angs": 5834,
    "Ġimprecate": 20516,
    "talk": 6656,
    "Ġexclusion": 19394,
    "naturedly": 24840,
    "Ġrefuse": 5739,
    "Ġaccumulates": 2893,
    "Ġfaculties": 14956,
    "dining": 13703,
    "Ġprev": 6264,
    "Ġdarcy": 1345,
    "Ġthine": 7374,
    "boil": 18999,
    "Ġslighter": 18939,
    "abern": 21787,
    "Ġpatriot": 23295,
    "Ġdaunt": 19663,
    "Ġexpanded": 14289,
    "Ġcheered": 16366,
    "rict": 8093,
    "apping": 5851,
    "Ġfly": 3872,
    "Ġautomation": 13252,
    "elastic": 17980,
    "Ġloves": 10914,
    "Ġrehearsed": 25971,
    "Ġfollow": 1394,
    "Ġwhistled": 24624,
    "ruding": 9722,
    "Ġcritic": 19124,
    "gers": 8376,
    "Ġspiritual": 9928,
    "Ġsaturday": 6452,
    "Ġglances": 10371,
    "Ġequatorial": 13506,
    "Ġroads": 13285,
    "bald": 16445,
    "opatra": 22475,
    "Ġoutlandish": 12835,
    "Ġquestionable": 19265,
    "remains": 10397,
    "Ġincommunicable": 26610,
    "Ġdelightfully": 13155,
    "ines": 680,
    "Ġnews": 3821,
    "preserving": 25304,
    "Ġfortunately": 12176,
    "Ġinno": 1353,
    "Ġforeb": 12000,
    "idents": 6150,
    "Ġagonizing": 17237,
    "Ġscener": 10948,
    "Ġcapsizing": 20087,
    "fold": 7546,
    "dense": 18716,
    "owl": 12680,
    "Ġstepfather": 7222,
    "powder": 17644,
    "reds": 12744,
    "·": 120,
    "enses": 10993,
    "Ġale": 9153,
    "rive": 9705,
    "plague": 21951,
    "Ġimitate": 14156,
    "lipped": 16214,
    "nurtured": 25524,
    "Ġtraits": 23074,
    "able": 452,
    "Ġbat": 10794,
    "xi": 17709,
    "ims": 7176,
    "Ġbabel": 24425,
    "Ġ35": 24075,
    "Ġruins": 16155,
    "close": 9984,
    "Ġperil": 5556,
    "reader": 23844,
    "Ġhatty": 19264,
    "Ġadvances": 12987,
    "Ġpig": 5705,
    "swells": 26148,
    "Ġfacetious": 20582,
    "quality": 10231,
    "Ġdesperado": 19818,
    "Ġmatrix": 1605,
    "Ġdilig": 8350,
    "Ġcan": 468,
    "Ġlies": 5295,
    "Ġdirectors": 18921,
    "Ġresumed": 11809,
    "iriously": 18169,
    "ĠĠĠĠĠĠĠ": 7632,
    "Ġpresentiment": 18989,
    "Ġarranged": 9875,
    "Ġhooked": 19077,
    "Ġsitt": 21216,
    "superstitious": 17279,
    "Ġcolonies": 14374,
    "representativeness": 25272,
    "Ġenormousness": 24511,
    "Ġcomforter": 20505,
    "habit": 16187,
    "Ġperf": 12847,
    "Ġwoody": 23516,
    "need": 10982,
    "lect": 1221,
    "condition": 7059,
    "orrah": 17875,
    "secret": 12233,
    "Ġhugh": 15003,
    "Ġkent": 6691,
    "Ġdarkness": 4277,
    "Ġburton": 23655,
    "Ġteacher": 22907,
    "Ġquarrels": 16565,
    "Ġain": 6969,
    "Ġalien": 14016,
    "opy": 4459,
    "Ġjew": 9466,
    "attoo": 6807,
    "Ġhill": 5626,
    "reward": 15507,
    "obliged": 20630,
    "Ġindestruct": 22956,
    "Ġlegitimate": 20641,
    "Ġenlightened": 12743,
    "Ġcollected": 2608,
    "Ġdard": 21421,
    "/(": 2983,
    "Ġappropriated": 23483,
    "ivia": 22077,
    "Ġshelves": 14997,
    "Ġdenny": 9000,
    "oney": 3049,
    "Ġroanoke": 22404,
    "exact": 7911,
    "Ġunmethodically": 22069,
    "Ġangular": 19205,
    "carriage": 9944,
    "Ġfluctuations": 5516,
    "Ġgirl": 3085,
    "Ġlend": 17962,
    "Ġcircumvent": 25064,
    "oubled": 23647,
    "fishery": 10030,
    "Ġfrenzy": 13619,
    "Ġzoned": 22818,
    "Ġspeak": 2227,
    "hullo": 17569,
    "Ġdistricts": 20262,
    "Ġanimated": 7702,
    "exper": 8877,
    "Ġendeared": 26497,
    "scruple": 26043,
    "Ġrounding": 16270,
    "Ġboston": 22636,
    "Ġmechanism": 2558,
    "resides": 23672,
    "Ġbanished": 10615,
    "Ġconnect": 797,
    "Ġperemptory": 25740,
    "corners": 17366,
    "Ġuncouth": 14548,
    "Ġremot": 8543,
    "tub": 9142,
    "Ġriggers": 24155,
    "Ġwhereupon": 14294,
    "hot": 8084,
    "Ġhorrible": 4905,
    "youth": 11872,
    "Ġbeaten": 10527,
    "Ġad": 442,
    "Ġendeavours": 8617,
    "Ġrind": 21967,
    "Ġfiery": 6871,
    "Ġ181": 23892,
    "Ġvelvets": 25393,
    "Ġborders": 15568,
    "Ġsplendidly": 25327,
    "Ġleaping": 8341,
    "certain": 3677,
    "Ġscrewed": 15118,
    "Ġshrivelled": 19702,
    "Ġinsens": 8277,
    "planks": 21952,
    "Ġfury": 7662,
    "answers": 22138,
    "track": 24313,
    "Ġtraffic": 23082,
    ",--âĢľ": 19195,
    "Ġfunctional": 3048,
    "Ġassumpt": 5415,
    "Ġrepeated": 3833,
    "Ġeverlasting": 9335,
    "Ġtendons": 19807,
    "Ġterr": 3273,
    "Ġgather": 6534,
    "Ġwarden": 17223,
    "âĢĿ;": 11668,
    "Ġcru": 2827,
    "Ġgash": 15667,
    "Ġreceives": 20353,
    "settled": 10505,
    "smallest": 23909,
    "Ġaffrighted": 13569,
    "Ġaccusations": 22375,
    "assemblies": 25956,
    "secur": 18125,
    "ia": 1255,
    "levelled": 23646,
    "bbed": 6911,
    "utral": 12660,
    "alled": 5911,
    "rah": 8137,
    "Ġtunnel": 14928,
    "decl": 8855,
    "iple": 4806,
    "----": 4061,
    "Ġcocain": 18598,
    "ological": 1882,
    "Ġgrud": 17995,
    "bonnet": 25742,
    "Ġgranted": 22805,
    "Ġhydraulic": 10062,
    "ention": 857,
    "Ġeach": 892,
    "ospit": 22261,
    "Ġtandem": 26410,
    "Ġstooping": 13057,
    "Ġassertion": 13486,
    "fishing": 20858,
    "achalot": 15860,
    "Ġhearken": 21683,
    "Ġquarto": 17294,
    "ump": 2283,
    "Ġgreat": 895,
    "âĢĻ-": 18172,
    "Ġaloud": 6252,
    "Ġcomprised": 14266,
    "pick": 17633,
    "Ġdisclose": 16153,
    "Ġline": 1847,
    "Ġsepul": 14088,
    "Ġzer": 1098,
    "Ġsurrounding": 12159,
    "Ġvoyages": 6908,
    "Ġharp": 17923,
    "bank": 10078,
    "tery": 14035,
    "peasant": 23111,
    "Ġloomed": 12298,
    "sacred": 17027,
    "arrival": 15596,
    "inclined": 10638,
    "Ġperished": 11781,
    "wal": 10132,
    "symp": 14619,
    "Ġaskance": 23148,
    "cri": 17504,
    "mounting": 25207,
    "constable": 24606,
    "Ġunwaning": 25170,
    "fashion": 8081,
    "utch": 21584,
    "Ġsmiled": 5941,
    "Ġpear": 11849,
    "Ġnecessitated": 23925,
    "Ġsatin": 12983,
    "Ġparchment": 13649,
    "Ġmultimodal": 18747,
    "subs": 14299,
    "Ġdashed": 6010,
    "Ġlazy": 17049,
    "Ġallowance": 14387,
    "anct": 21356,
    "token": 21081,
    "Ġsuspecting": 14908,
    "Ġrelevant": 1862,
    "Ġmoved": 4839,
    "Ġconsisted": 10418,
    "Ġcemet": 20679,
    "Ġ36": 14765,
    "ignantly": 23264,
    "Ġanger": 5442,
    "Ġsanity": 24981,
    "Ġorders": 5340,
    "Ġscience": 1600,
    "oregressive": 3426,
    "Ġazores": 20192,
    "Ġassumed": 9464,
    "Ġsecretly": 13268,
    "Ġearned": 19403,
    "security": 26206,
    "Ġsuperficial": 23455,
    "Ġpronounce": 16967,
    "drugg": 20837,
    "pedest": 24695,
    "Ġagitates": 22515,
    "Ġhail": 7400,
    "gage": 13721,
    "bolts": 11419,
    "Ġquitted": 5311,
    "Ġaccelerating": 1615,
    "Ġslip": 8953,
    "sively": 13784,
    "Ġconfusion": 7273,
    "Ġimprinted": 22387,
    "Ġthreaten": 24373,
    "Ġservant": 5764,
    "destined": 24114,
    "otently": 21798,
    "Ġkirwin": 8496,
    "Ġreplacing": 3452,
    "Ġrecursive": 4782,
    "Ġpsych": 10175,
    "Ġmacro": 25939,
    "Ġhoe": 23350,
    "Ġmembrane": 20502,
    "Ġagrippa": 11804,
    "Ġselect": 4001,
    "ĠĠĠĠĠĠĠĠĠĠĠĠĠĠĠĠĠĠĠĠĠĠĠĠ": 5321,
    "model": 3973,
    "Ġlighten": 23258,
    "Ġimmedi": 2907,
    "iveness": 2465,
    "Ġwra": 5906,
    "Ġgrooves": 16740,
    "walking": 9980,
    "Ġresembles": 25969,
    "consequential": 26249,
    "laying": 19771,
    "Ġwilful": 10533,
    "misrepresented": 24210,
    "handedness": 24920,
    "heartily": 24214,
    "Ġlandau": 16417,
    "Ġirritated": 17241,
    "Ġsavagely": 26323,
    "Ġintrusted": 21990,
    "aders": 21756,
    "Ġfervour": 19737,
    "apside": 22958,
    "Ġneither": 3687,
    "eted": 7591,
    "Ġcapital": 7980,
    "Ġrival": 10484,
    "Ġsee": 804,
    "ousand": 2427,
    "Ġ64": 24366,
    "Ġwondering": 7971,
    "Ġstep": 753,
    "Ġstomach": 11651,
    "Ġhid": 1323,
    "Ġtastes": 15475,
    "olerably": 11671,
    "Ġpersisting": 18896,
    "Ġherein": 16188,
    "Ġmessage": 13520,
    "revival": 26162,
    "darted": 20831,
    "Ġway": 1088,
    "Ġdoor": 1739,
    "Ġblackstone": 23387,
    "Ġvenom": 24237,
    "Ġmature": 17799,
    "Ġlad": 2362,
    "Ġmuteness": 19415,
    "ē": 212,
    "?âĢĻ": 2640,
    "Ġimpatience": 7509,
    "Ġclams": 19987,
    "Ġother": 760,
    "Ġjoll": 11762,
    "Ġforbid": 7866,
    "jabez": 20932,
    "Ġderanged": 23172,
    "bordered": 17497,
    "add": 5229,
    "Ġcharacteristically": 23691,
    "Ġsubsided": 14549,
    "Ġmodesty": 12816,
    "Ġhover": 15616,
    "Ġspool": 24806,
    "Ġcrusad": 23706,
    "Ġdefray": 22938,
    "Ġconvulsive": 19306,
    "Ġbland": 11063,
    "Ġval": 953,
    "anc": 6379,
    "Ġpeaceful": 9454,
    "contrivance": 26316,
    "interference": 23737,
    "Ġadviser": 25312,
    "Ġpreyed": 18366,
    "Ġdiscompose": 25579,
    "Ġpalace": 16689,
    "verest": 13989,
    "Ġmeanly": 12907,
    "Ġwreath": 25936,
    "Ġimplicated": 24875,
    "Ġticking": 25033,
    "none": 6962,
    "Ġagitation": 6865,
    "Ġdefence": 11066,
    "Ġliver": 14226,
    "Ġcleared": 6075,
    "Ġpruning": 18970,
    "stars": 18019,
    "Ġplacid": 11823,
    "Ġpatted": 16376,
    "rees": 5436,
    "boy": 4738,
    "Ġtram": 11090,
    "progress": 11984,
    "Ġgodfrey": 15291,
    "contempt": 13187,
    "Ġexperience": 1403,
    "Ġreality": 7057,
    "ever": 1079,
    "friendship": 24047,
    "Ġhandful": 9781,
    "comp": 3818,
    "Ġhorner": 8957,
    "clergy": 18933,
    "Ġapprovingly": 26251,
    "Åĵ": 10743,
    "Ġaccomplish": 14874,
    "Ġcurtain": 14427,
    "Ġintervals": 5597,
    "Ġtom": 15629,
    "Ġhelpless": 8302,
    "uded": 6286,
    "notice": 16144,
    "mannered": 22849,
    "chery": 24550,
    "their": 2539,
    "Ġmodeling": 2096,
    "Ġreck": 6537,
    "Ġsundry": 20072,
    "hurt": 19877,
    "Ġ78": 19612,
    "sometimes": 5972,
    "Ġasp": 15777,
    "Ġinward": 11605,
    "Ġfatal": 5871,
    "Ġwave": 7575,
    "Ġgoverness": 8600,
    "Ġdefend": 9338,
    "Ġresolves": 23649,
    "gone": 6504,
    "Ġinnovative": 1520,
    "Ġabandoned": 8352,
    "Ġrake": 18642,
    "Ġferocity": 16870,
    "alarms": 21503,
    "Ě": 219,
    "Ġunrestingly": 20359,
    "rain": 462,
    "chairs": 21691,
    "Ġthick": 3785,
    "Ġtum": 5692,
    "Ġcompact": 2259,
    "stained": 21653,
    "Ġextinct": 14335,
    "tling": 9141,
    "awn": 3837,
    "Ġprobably": 4314,
    "Ġmediocrity": 26607,
    "Ġrelieved": 7666,
    "acher": 6868,
    "Ġtenement": 23544,
    "Ġmiller": 19882,
    "Ġhap": 18195,
    "Ġconsort": 18723,
    "Ġfilters": 3930,
    "Ġreflections": 5946,
    "ichron": 22164,
    "Ġamply": 22481,
    "Ġstring": 11824,
    "Ġbegging": 11079,
    "Ġans": 1647,
    "oughed": 22075,
    "Ġcosmetic": 23470,
    "Ġexile": 12714,
    "entrance": 12654,
    "Ġdraughts": 20220,
    "Ġrequired": 7227,
    "Ġplan": 3884,
    "Ġmatrimonial": 25489,
    "Ġsideways": 6181,
    "science": 11906,
    "Ġaccept": 4411,
    "Ġuncertain": 4071,
    "ermaid": 14296,
    "elop": 1498,
    "Ġapprobation": 10984,
    "Ġkl": 2734,
    "neurons": 3135,
    "Ġoutline": 15951,
    "Ġsmoked": 10321,
    "cial": 2647,
    "Ġanim": 2113,
    "Ġluxury": 20130,
    "Ġlights": 8959,
    "horrible": 14599,
    "ometer": 19325,
    "construction": 19777,
    "traced": 19636,
    "queness": 18147,
    "Ġsecondly": 14516,
    "Ġstrongest": 11134,
    "ally": 530,
    "Ġburnt": 9926,
    "Ġmart": 10778,
    "Ġnecks": 18183,
    "victim": 25530,
    "ß": 160,
    "84": 15299,
    "Ġgrand": 3593,
    "ermost": 7430,
    "noted": 22747,
    "Ġblasphe": 17405,
    "Ġtimely": 19593,
    "varying": 13802,
    "ially": 9244,
    "Ġreproach": 9555,
    "dancing": 12451,
    "execution": 20470,
    "Ġdecomp": 3813,
    "Ġsibbald": 21229,
    "Ġintru": 15824,
    "Ġretrogression": 26580,
    "understood": 13213,
    "Ġlocked": 6035,
    "Ġcollege": 11423,
    "Ġstatue": 23147,
    "irra": 15781,
    "Ġincensed": 18571,
    "Ġdevelopment": 7058,
    "Ġirreproachable": 24917,
    "leisure": 21369,
    "answering": 26004,
    "Ġpersistence": 3245,
    "Ġmalignity": 10555,
    ":--âĢľ": 24549,
    "Ġworm": 9161,
    "sk": 5521,
    "Ġpunishment": 9954,
    "Ġshar": 9248,
    "ripp": 6404,
    "Ġtrophy": 20005,
    "Ġtutored": 20126,
    "scorn": 22984,
    "Ġbasin": 19847,
    "Ġscra": 5840,
    "ela": 21567,
    "Ġevalu": 2919,
    "lowering": 16028,
    "Ġexpressly": 16452,
    "Ġresign": 18564,
    "bohem": 19001,
    "Ġevangelist": 20337,
    "quietly": 10591,
    "Ġexamining": 8006,
    "Ġpurchase": 12256,
    "stoke": 18022,
    "husband": 8042,
    "Ġharpooned": 13259,
    "Ġoblig": 3447,
    "Ġpatchwork": 24140,
    "Ġslyness": 25266,
    "Ġconquer": 14025,
    "Ġprograms": 7239,
    "browed": 25894,
    "renew": 24449,
    "Ġnigh": 4878,
    "gledy": 25403,
    "Ġgleaming": 24995,
    "claimed": 9834,
    "Ġrage": 5110,
    "Ġchristianity": 19860,
    "itudes": 3016,
    "wearing": 22685,
    "approbation": 11457,
    "Ġconjoined": 21804,
    "Ġkitty": 3911,
    "Ġdanes": 25156,
    "oh": 1576,
    "Ġrestrained": 16370,
    "belais": 24037,
    "Ġsuck": 15856,
    "hip": 8740,
    "Ġsorry": 4210,
    "hoping": 17565,
    "Ġinserted": 8356,
    "Ġbob": 22634,
    "vid": 913,
    "amouch": 21843,
    "Ġfunction": 588,
    "Ġwidth": 16771,
    "Ġliquid": 22407,
    "book": 4670,
    "Ġmicha": 17811,
    "Ġornamented": 20360,
    "Ġbeer": 10218,
    "Ġdigress": 24648,
    "Ġscotland": 6639,
    "Ġcol": 1065,
    "urously": 18050,
    "Ġsquare": 2394,
    "Ġcandles": 9906,
    "Ġtot": 4186,
    "Ġsurtout": 23464,
    "Ġshuttle": 12123,
    "Ġmoreover": 6163,
    "insult": 16274,
    "Ġfondly": 19615,
    "Ġtranspired": 16783,
    "Ġmagistrate": 8234,
    "Ġfavoring": 2343,
    "Ġcataract": 23426,
    "Ġviolent": 5117,
    "Ġpau": 17906,
    "scotland": 20526,
    "!_âĢĿ": 11375,
    "Ġclergyman": 8711,
    "iner": 2668,
    "aways": 15308,
    "Ġsoph": 1624,
    "Ġsickness": 10537,
    "Ġobstetrics": 24678,
    "Ġprotectors": 9069,
    "Ġfattened": 25949,
    "Ġphiladelphia": 26603,
    "Ġexceeding": 1579,
    "wig": 17703,
    "sper": 4436,
    "arling": 10813,
    "Ġdew": 14041,
    "remained": 8569,
    "Ġpainfully": 13139,
    "Ġbravely": 23836,
    "Ġstubborn": 10413,
    "Ġjingling": 26017,
    "Ġexquisitely": 20201,
    "damn": 20022,
    "Ġpowder": 11274,
    "Ġlabours": 8582,
    "dawson": 26128,
    "Ġty": 6657,
    "ights": 8475,
    "Ġfeed": 2127,
    "Ġwoe": 4793,
    "idation": 5022,
    "inno": 10755,
    "Ġunlocking": 20705,
    "contains": 16027,
    "Ġrobbed": 22964,
    "Ġply": 21451,
    "Ġdeficiency": 14400,
    "Ġpadd": 9668,
    "heaven": 8053,
    "Ġconducting": 16648,
    "Ġgiven": 1629,
    "Ġnotwithstanding": 9712,
    "stop": 11633,
    "R": 54,
    "formality": 22218,
    "Ġfall": 2988,
    "Ġalph": 9693,
    "orns": 12589,
    "Ġaid": 6122,
    "Ġselfish": 7272,
    "Ġcompletely": 4860,
    "Ġbride": 6291,
    "Ġsqueaking": 26274,
    "Ġital": 10865,
    "Ġevian": 24291,
    "Ġejaculated": 15167,
    "beheaded": 22491,
    "Ġtwo": 1043,
    "ĠĠĠĠĠĠĠĠĠĠĠĠĠĠĠĠĠĠĠĠĠĠĠĠĠĠĠĠĠĠĠĠĠĠĠĠĠĠĠĠ": 4518,
    "Ġgrey": 4514,
    "Ġobjection": 6585,
    "Ġharm": 5017,
    "Ġmbpp": 21320,
    "Ġeaglet": 19304,
    "Ġtruck": 19510,
    "Ġminiatures": 20320,
    "Ġballasted": 23977,
    "europe": 20664,
    "Í": 142,
    "names": 16516,
    "snatched": 24850,
    "Ġcontest": 18473,
    "Ġelias": 18634,
    "Ġdirected": 5578,
    "mies": 20967,
    "Ġimpulsively": 24880,
    "wants": 21129,
    "Ġori": 8409,
    "physiogn": 26265,
    "Ġeasiest": 23534,
    "Ġdiscomp": 11863,
    "future": 13715,
    "anxiously": 15108,
    "acter": 2502,
    "Ġguise": 14430,
    "Ġunsocial": 18256,
    "venant": 22626,
    "Ġalex": 15131,
    "librarian": 26567,
    "Ġconceit": 7295,
    "Ġdiving": 12598,
    "ering": 1265,
    "Ġpovels": 22590,
    "scans": 22982,
    "oon": 6364,
    "Ġstung": 21736,
    "Ġobed": 8535,
    "design": 18957,
    "Ġmonday": 6127,
    "irons": 10237,
    "Ġbrist": 14376,
    "Ġscenes": 5730,
    "Ġamb": 9290,
    "Ġcool": 5734,
    "tormented": 13642,
    "Ġsilk": 11960,
    "os": 527,
    "Ġundergone": 18986,
    "satisfaction": 9990,
    "Ġbeating": 8145,
    "Ġability": 2764,
    "Ġstrike": 4855,
    "Ġvancou": 22874,
    "corner": 13394,
    "Ġdented": 17891,
    "darkened": 24513,
    "Ġunicorn": 22055,
    "Ġpossibility": 7458,
    "Ġresort": 18563,
    "Ġcomrade": 12280,
    "Ġsacri": 18328,
    "urious": 21701,
    "Ġklux": 22193,
    "allies": 14164,
    "Ġaff": 1118,
    "requirements": 24857,
    "Ġconsiderable": 4010,
    "Ġeffectual": 18734,
    "bearings": 25371,
    "Ġfollows": 7673,
    "Ġreciprocating": 26369,
    "Ġheartless": 13069,
    "Ġships": 3715,
    "Ġrans": 21964,
    "Ġdelineate": 26057,
    "yea": 23086,
    "Ġpanthe": 19652,
    "window": 7743,
    "imagine": 19930,
    "Ġinfluence": 5515,
    "blocks": 25517,
    "bolt": 25135,
    "Ġerection": 23998,
    "simultaneously": 19863,
    "Ġbrig": 11046,
    "Ġ83": 24458,
    "Ġexpost": 18623,
    "hom": 12470,
    "Ġincommod": 25307,
    "Ġowns": 22822,
    "zed": 8104,
    "Ġlizzie": 26461,
    "gate": 12463,
    "Ġdirest": 22705,
    "Ġapplicable": 19009,
    "contained": 22468,
    "Ġmoses": 21314,
    "dutch": 17217,
    "Ġpress": 5932,
    "Ġintim": 6838,
    "Ġbold": 5291,
    "Ġfeat": 10936,
    "by": 1155,
    "playful": 24356,
    "Ġcombined": 8548,
    "hooked": 23715,
    "leep": 4635,
    "Ġrecollection": 6620,
    "Ġcommonest": 23088,
    "ĠĠĠĠĠĠĠĠĠĠĠĠĠĠĠĠĠĠĠĠĠĠĠĠĠĠĠĠĠĠĠĠĠĠĠĠĠĠĠĠĠĠĠĠĠĠĠĠĠĠĠĠĠ": 20038,
    "Ġpassage": 3887,
    "Ġchanc": 18384,
    "warn": 11541,
    "senses": 25022,
    "Ġhoney": 12629,
    "began": 6426,
    "travelling": 24316,
    "Ġimpossible": 3544,
    "Ġundiscernible": 22066,
    "Ġsources": 10146,
    "Ġprobed": 18733,
    "stud": 8818,
    "un": 373,
    "echo": 15346,
    "Ġsav": 3359,
    "league": 17844,
    "horror": 13156,
    ".âĢĻâĢĿ": 6739,
    "iastic": 12476,
    "Ġmach": 13855,
    "Ġsab": 10761,
    "Ġdried": 7367,
    "Ġreligious": 25121,
    "excuse": 13378,
    "Ġclaps": 22344,
    "Ġwhitt": 18054,
    "Ġreckoning": 14977,
    "ell": 398,
    "sust": 15420,
    "Ġvulgar": 13601,
    "Ġaccomplishments": 13376,
    "estations": 22226,
    "aur": 15306,
    "ications": 4446,
    "beneath": 9533,
    "Ġincorpor": 13162,
    "Ġunconsc": 6552,
    "Ġshop": 9250,
    "beginning": 13558,
    "Ġsolemnity": 9939,
    "prints": 23810,
    "analysis": 26173,
    "Ġexplanation": 6692,
    "Ġhopelessly": 16373,
    "Ġflounders": 23008,
    "Ġhesitated": 10000,
    "Ġembraced": 10004,
    "Ġsash": 17753,
    "Ġdiscomposure": 20377,
    "rem": 1522,
    "Ġardent": 9968,
    "Ġmaintenance": 17460,
    "Ġcontinually": 5042,
    "Ġtemperature": 1005,
    "expl": 9281,
    "Ġwasn": 6997,
    "hereabouts": 23605,
    "Ġisolated": 13556,
    "impossible": 8822,
    "tackles": 25624,
    "ubines": 22957,
    "Ġdisputing": 25824,
    "Ġsurging": 19133,
    "Ġremembr": 24169,
    "Ġcit": 10782,
    "Ġvultures": 25653,
    "Ġpervading": 20612,
    "Ġconvert": 11840,
    "Ġtre": 2535,
    "eties": 10836,
    "Ġimplements": 2482,
    "Ġsucceeding": 16760,
    "isc": 6239,
    "Ġmeet": 2806,
    "Ġsymmetrical": 20365,
    "Ġflaw": 23005,
    "Ġdestro": 3723,
    "Ġburglar": 17353,
    "Ġfug": 12592,
    "Ġdoubting": 13096,
    "iting": 2157,
    "Ġbreakfast": 3979,
    "Ġprocedural": 12027,
    "omed": 13973,
    "Ġmechanis": 1249,
    "Ġdoes": 943,
    "Ġfills": 12591,
    "Ġmeryton": 4439,
    "Ġseaward": 22945,
    "Ġposted": 16723,
    "oned": 4631,
    "putable": 10900,
    "Ġnames": 4534,
    "Ġjeroboam": 10599,
    "Ġledger": 19400,
    "Ġpersist": 16284,
    "ribe": 1222,
    "generally": 9433,
    "Ġloaf": 15869,
    "ampton": 18144,
    "rimshander": 20656,
    "Ġposterity": 17400,
    "mystery": 15153,
    "transition": 24509,
    "hearted": 6970,
    "umul": 1287,
    "Ġpeddler": 24800,
    "owing": 7601,
    "Ġexterm": 21828,
    "Ġdreading": 23797,
    "paid": 15412,
    "etite": 21577,
    "Ġflexible": 23774,
    "orange": 21398,
    "advanced": 19587,
    "Ġelopement": 10328,
    "Ġexhibited": 9542,
    "Ġoverlook": 10960,
    "Ġfists": 15579,
    "Ġfad": 17876,
    "Ġvertical": 16603,
    "displayed": 20735,
    "Ġcarbuncle": 14443,
    "alously": 15625,
    "4": 24,
    "Ġconstrued": 26301,
    "Ġrus": 14090,
    "Ġmicroscopic": 26373,
    "ustom": 3792,
    "Ġproceeding": 9904,
    "Ġbehold": 5049,
    "Ġinsp": 2101,
    "Ġfewer": 16222,
    "Ġbudge": 15162,
    "Ġth": 299,
    "Ġtim": 4579,
    "Ġopportunity": 4786,
    "deceit": 25556,
    "Ġsword": 6732,
    "Ġfatig": 6756,
    "Ġcreat": 1409,
    "Ġtwitch": 22674,
    "Ġkin": 15901,
    "opposition": 24823,
    "oring": 1859,
    "Ġbilliard": 16688,
    "Ġbreaths": 14855,
    "Ġscratch": 25564,
    "Ġtwisted": 7228,
    "urrection": 12406,
    "Ġplaying": 6910,
    "Ġanonym": 17897,
    "....": 11315,
    "Ġconsequ": 6254,
    "Ġcomrades": 9553,
    "braces": 24658,
    "purp": 8091,
    "Ġhearties": 18966,
    "proud": 9902,
    "terms": 15747,
    "Ġrole": 15991,
    "suggested": 17297,
    "Ġconst": 1908,
    "Ġinvaluable": 10181,
    "ulating": 10886,
    "Ġembarkation": 25123,
    "Ġchristmas": 6924,
    "Ġbeaufort": 13565,
    "Ġshakespeare": 20306,
    "quid": 18146,
    "magnetic": 20551,
    "apprec": 22842,
    "Ġvineyarder": 25606,
    "brothers": 17023,
    "persecutor": 26529,
    "month": 6463,
    "sincere": 16906,
    "Ġimpreg": 15984,
    "ancy": 4393,
    "Ġshavings": 14108,
    "socket": 22727,
    "arb": 1561,
    "featured": 24085,
    "steps": 9403,
    "charles": 14697,
    "Ġserpentine": 11359,
    "lips": 13748,
    "seven": 8463,
    "entions": 17974,
    "least": 8783,
    "Ġendeav": 2956,
    "Ġdevices": 2943,
    "hyena": 24251,
    "Ġsight": 2111,
    "usoid": 4767,
    "Ġchace": 14177,
    "Ġgodly": 19078,
    "planted": 11693,
    "Ġwings": 9162,
    "spouter": 22732,
    "Ġmah": 15537,
    "Ġshowers": 16604,
    "Ġmerchantmen": 19859,
    "Ġspeeches": 22655,
    "Ġcrowd": 6336,
    "Ġdeact": 18135,
    "Ġeffaced": 18528,
    "generations": 23784,
    "hogs": 20080,
    "sp": 894,
    "Ġcost": 2501,
    "taffrail": 15440,
    "jerked": 25618,
    "Ġunappe": 22016,
    "theless": 4260,
    "Ġdejected": 20303,
    "Ġowned": 11873,
    "Ġplay": 2625,
    "Ġimpass": 15982,
    "Ġmappings": 2149,
    "Ġhovel": 8254,
    "Ġperpendicular": 7209,
    "watch": 6118,
    "interesting": 12198,
    "Ġfamous": 5255,
    "Ġfert": 15578,
    "erer": 8731,
    "sharpening": 22457,
    "Ġpropriety": 10008,
    "forbid": 14349,
    "ar": 285,
    "Ġresides": 22538,
    "iloqu": 11646,
    "quet": 6835,
    "andes": 18151,
    "yarn": 15455,
    "Ġdives": 17890,
    "Ġapproximates": 2415,
    "Ġinviting": 19143,
    "Ġperchance": 15988,
    "pidation": 18895,
    "oc": 2838,
    "corrupt": 14893,
    "Ġloving": 8176,
    "ributed": 8215,
    "Ġspilling": 22135,
    "irty": 4053,
    "Ġwish": 2098,
    "Ġgardener": 19134,
    "unched": 10234,
    "Ġtowing": 9192,
    "Ġrephrased": 26476,
    "Ġreign": 13983,
    "Ġepoch": 26470,
    "Ġtok": 1244,
    "Ġmatrimony": 13632,
    "Ġrevolution": 3306,
    "intense": 22933,
    "ulence": 15762,
    "Ġdeformed": 14045,
    "Ġfurs": 18739,
    "Ġsufferer": 16256,
    "Ġempire": 11143,
    "vices": 21115,
    "'(": 2980,
    "Ġwaterproof": 19086,
    "Ġfright": 3799,
    "bride": 19198,
    "Ġcoupled": 16850,
    "hatchet": 24822,
    "Ġspared": 7894,
    "Ġincommun": 25308,
    "K": 47,
    "Ġslavish": 23171,
    "leave": 7838,
    "Ġmodes": 22223,
    "Ġimagined": 8606,
    "Ġyonder": 7392,
    "Ġtruest": 16702,
    "Ġchronicled": 25328,
    "laugh": 10107,
    "Ġcompany": 3722,
    "nal": 1900,
    "iality": 8842,
    "becomes": 22494,
    "ê": 171,
    "ries": 3356,
    "Ġcomputers": 2644,
    "rice": 13775,
    "Ġrotterdam": 25475,
    "Ġcomplaints": 12261,
    "tis": 4107,
    "thirst": 15822,
    "Ġentering": 6285,
    "Ġangrily": 9405,
    "Ġshroud": 6483,
    "======================================================================": 10066,
    "Ġwearied": 15790,
    "Ġprocess": 562,
    "atiable": 17773,
    "Ġsor": 4147,
    "Ġconn": 9228,
    "Ġmultiplication": 2875,
    "Ġoverjoyed": 17456,
    "Ġpromise": 4199,
    "imly": 12684,
    "exped": 16524,
    "verbally": 25360,
    "Ġreject": 7386,
    "Ġzero": 1198,
    "Ġgallant": 8654,
    "Ġadver": 5641,
    "Ġsquatted": 25841,
    "Ġsuppress": 13015,
    "ington": 21300,
    "Ġunpardonable": 22060,
    "Ġ107": 24414,
    "astes": 11736,
    "Ġlessen": 14531,
    "Ġdined": 9175,
    "Ġcomprehens": 8320,
    "Ġspile": 22125,
    "Ġseveral": 2670,
    "Ġpoltroon": 26597,
    "Ġmanif": 8869,
    "Ġ76": 24261,
    "Ġcred": 8779,
    "Ġaveraging": 2416,
    "Ġmasked": 3695,
    "clear": 9022,
    "Ġdelusion": 18974,
    "Ġmarvel": 23032,
    "Ġsolicited": 20035,
    "Ġpoll": 12026,
    "Ġapartments": 19613,
    "general": 7489,
    "critical": 19502,
    "ostentatious": 20651,
    "Ġdey": 11673,
    "Ġequinoctial": 20531,
    "Ġlinguistic": 12422,
    "Ġsoothing": 8173,
    "slee": 17167,
    "abominable": 20592,
    "Ġcontempl": 6701,
    "ches": 2150,
    "Ġleisurely": 24746,
    "Ġsutherland": 10147,
    "Ġthou": 1810,
    "seemingly": 25362,
    "Ġcurb": 16253,
    "Ġpervers": 11780,
    "Ġswelled": 11086,
    "Ġinco": 14258,
    "thomas": 18219,
    "Ġextravag": 11253,
    "ighbour": 3391,
    "Ġverge": 23885,
    "Ġshrieks": 12196,
    "Ġjackal": 24238,
    "ui": 9143,
    "judges": 19572,
    "solely": 19815,
    "blades": 24130,
    "Ġpest": 13911,
    "urous": 10211,
    "offered": 14515,
    "vering": 15712,
    "Ġproduct": 3534,
    "Ġslipped": 6492,
    "Ġsaf": 4004,
    "Ġtub": 7146,
    "Ġbrother": 2747,
    "Ġstood": 2549,
    "Ġread": 1446,
    "Ġcomputation": 964,
    "Ġgladly": 14680,
    "Ġsuffers": 2975,
    "Ġbr": 1075,
    "Ġbind": 12579,
    "Ġportent": 12078,
    "Ġtroubling": 26546,
    "Ġtides": 13819,
    "Ġfobbing": 26440,
    "Ġprovinc": 16741,
    "eleg": 20848,
    "Ġgrinned": 16856,
    "Ġprincipal": 6496,
    "Â£": 4812,
    "lift": 15382,
    "Ġintertw": 18588,
    "Ġebony": 18008,
    "eenth": 12457,
    "inous": 8771,
    "bitious": 16668,
    "Ġperempt": 13671,
    "Ġplunging": 14950,
    "Ġclanking": 20610,
    "roded": 17955,
    "Ġ-": 1942,
    "stige": 21659,
    "Ġfavourably": 16359,
    "Ġdescribing": 19253,
    "chooses": 23674,
    "uity": 12514,
    "beef": 18523,
    "irements": 22216,
    "consp": 18504,
    "opotam": 22477,
    "izens": 18143,
    "Ġsyllables": 25298,
    "vy": 21106,
    "Ġdevote": 10337,
    "Ġgrave": 5100,
    "Ġhilarious": 20297,
    "Ġthief": 11608,
    "Ġgrace": 5374,
    "f": 74,
    "Ġmarch": 4085,
    "idea": 9299,
    "Ġparameter": 876,
    "Ġfountains": 13500,
    "Ġderived": 8239,
    "ing": 273,
    "Ġlessened": 19085,
    "solid": 16375,
    "Ġatone": 15801,
    "Ġprop": 1683,
    "Ġoccurring": 2792,
    "Ġconfirmation": 17209,
    "rupt": 3210,
    "Ġrecorded": 11292,
    "consumed": 25675,
    "Ġrecur": 1619,
    "Ġfocuses": 8649,
    "Ġskill": 6872,
    "overspreading": 26139,
    "Ġaffords": 16733,
    "Ġgraceful": 11295,
    "Ġlombardy": 26462,
    "Ġeaves": 15672,
    "clair": 18932,
    "ullen": 8235,
    "if": 375,
    "Ġfreezing": 23881,
    "twig": 23699,
    "Ġsands": 14946,
    "roofed": 26183,
    "akness": 14193,
    "00": 1610,
    "Ġconcepts": 4552,
    "Ġmyself": 1453,
    "Ġmexic": 14030,
    "house": 4080,
    "Ġdown": 832,
    "Ġpitched": 9443,
    "Ġdeeply": 4717,
    "agonies": 21907,
    "Ġirreducible": 5519,
    "Ġperceived": 4714,
    "Ġpreparations": 12307,
    "Ġrare": 7037,
    "Ġoverpower": 12840,
    "Ġhospital": 15038,
    "Ġscrutin": 26014,
    "attentions": 13571,
    "aving": 2404,
    "sincerely": 24585,
    "company": 9459,
    "gon": 17551,
    "Ġdraw": 3672,
    "Ġunfortunate": 5376,
    "elephant": 12348,
    "û": 188,
    "possession": 12218,
    "Ġph": 1547,
    "Ġrelev": 1717,
    "Ġfossil": 12384,
    "Ġdim": 4757,
    "Ġsticking": 13424,
    "Ġtheoretically": 3567,
    "Ġimpul": 7208,
    "Ġevidence": 5269,
    "whom": 8185,
    "Ġresisted": 22539,
    "Ġmethodically": 23105,
    "Ġunra": 18237,
    "Ġoutermost": 22317,
    "itate": 6667,
    "Ġentrapped": 26262,
    "ren": 549,
    "appro": 7044,
    "Ġcarn": 17821,
    "~": 98,
    "rowed": 22862,
    "Ġconviction": 6326,
    "Ġderivatives": 2368,
    "ority": 8418,
    "Ġinfants": 16361,
    "Ġuncl": 22014,
    "seam": 10873,
    "Ġashes": 7616,
    "enary": 12547,
    "Ġnortheast": 23200,
    "assisted": 22305,
    "thread": 15823,
    "Ġenergy": 2550,
    "Ġlobsters": 13514,
    "Ġpain": 2302,
    "Ġincorrect": 2727,
    "sius": 13786,
    "Ġ114": 24437,
    "utherland": 9577,
    "tinted": 17682,
    "ì": 173,
    "Ġgood": 1001,
    "precip": 14663,
    "Ġgem": 21592,
    "Ġraise": 6166,
    "Ġriot": 14687,
    "Ġattested": 22625,
    "Ġopulence": 23627,
    "Ġconclude": 8580,
    "Ġnuptial": 25782,
    "obedience": 17408,
    "Ġwrung": 14468,
    "Ġnick": 21521,
    "Ġst": 332,
    "Ġmeridian": 25714,
    "Ġimpress": 6862,
    "Ġisol": 8832,
    "satisf": 5781,
    "zors": 21146,
    "Ġnavigation": 9991,
    "deal": 12796,
    "superstitiousness": 25508,
    "Ġarguing": 25470,
    "Ġbod": 4582,
    "volutional": 1932,
    "ideas": 18581,
    "Ġominous": 12421,
    "along": 6013,
    "tons": 7559,
    "Ġsmell": 7216,
    "Ġannihilation": 15163,
    "ige": 12677,
    "oved": 5215,
    "happened": 9431,
    "Ġregiment": 6432,
    "Ġperch": 10297,
    "ob": 1421,
    "ckled": 9255,
    "orers": 14101,
    "Ġunaccount": 22025,
    "Ġspy": 22121,
    "Ġawaited": 17073,
    "Ġregard": 3067,
    "Ġinaudible": 21497,
    "Ġinner": 9669,
    "yramid": 8368,
    "cause": 7796,
    "Ġrelig": 8550,
    "looking": 4036,
    "Ġdemanding": 16804,
    "Ø": 153,
    "Ġintegration": 9866,
    "baggage": 24926,
    "Ġexplained": 5936,
    "Ġire": 12666,
    "Ġheels": 10849,
    "Ġcovariate": 2349,
    "Ġmystic": 7503,
    "sailors": 9920,
    "Ġexpans": 18621,
    "Ġplot": 14279,
    "_,âĢĻ": 12430,
    "Ġelevation": 14895,
    "Ġexempt": 21827,
    "hatches": 19927,
    "Ġorganizations": 12311,
    "Ġtaught": 6803,
    "Ġspect": 3553,
    "Ġpick": 4256,
    "1": 21,
    "Ġreputed": 18035,
    "Ġoffence": 12940,
    "Ġcircles": 7967,
    "Ġblanche": 18817,
    "cast": 2930,
    "Ġremnants": 22792,
    "Ġvexatious": 19780,
    "Ġviol": 2072,
    "Ġsuccessfully": 19427,
    "Ġretrie": 10381,
    "exertion": 16013,
    "ocation": 14625,
    "alive": 10826,
    "stochastic": 3777,
    "Ġirene": 8444,
    "Ġrelatives": 12977,
    "ouching": 13174,
    "bug": 17491,
    "Ġpretext": 22227,
    "Ġsurvive": 9066,
    "Ġdefault": 3039,
    "ullied": 23103,
    "olog": 1054,
    "Ġsweat": 13137,
    "ortunity": 4403,
    "Ġbristol": 14378,
    "oles": 21004,
    "Ġexposes": 22621,
    "ĠĠĠĠĠĠĠĠĠĠĠĠĠĠĠĠĠĠĠĠĠĠĠĠĠĠĠĠ": 9973,
    "Ġstriding": 16086,
    "Ġadjusts": 8979,
    "doub": 6223,
    "grass": 23411,
    "itable": 5437,
    "Ġrobberies": 22965,
    "Ġleviathans": 8282,
    "Ġbosom": 6939,
    "Ġbluish": 23652,
    "Ġrooms": 5180,
    "Ġimprovements": 14513,
    "prepared": 13587,
    "compar": 14356,
    "Ġprofile": 16487,
    "Ġrapt": 7226,
    "Ġtroub": 22354,
    "Ġadvert": 10570,
    "discoveries": 25385,
    "inkled": 5477,
    "Ġswamp": 14434,
    "Ġattempting": 14695,
    "Ġcensure": 15093,
    "brimming": 23575,
    "Ġroughs": 19955,
    "ography": 13359,
    "Ġcompare": 9300,
    "Ġreside": 22537,
    "idel": 5299,
    "hawks": 24694,
    "Ġfifteen": 6947,
    "Ġmiz": 10776,
    "Ġcrying": 10785,
    "Ġfut": 15571,
    "Ġpreservation": 24631,
    "Ġfurnishes": 19439,
    "Ġsworn": 14433,
    "Ġmaintaining": 1507,
    "Ġarrive": 6907,
    "Ġstirred": 12214,
    "mospheric": 17090,
    "cabinet": 25077,
    "originally": 24937,
    "Ġcosmopolitan": 20640,
    "Ġweb": 9238,
    "Ġvalleys": 14917,
    "Ġwakeful": 24265,
    "devilish": 17081,
    "Ġsixty": 7723,
    "Ġsnapping": 19300,
    "resembled": 21245,
    "Ġpennies": 17269,
    "Ġuniversally": 11996,
    "Ġmuscles": 12085,
    "ashes": 6016,
    "Ġblight": 18815,
    "Ġquiet": 3261,
    "ext": 929,
    "assed": 6421,
    "Ġsentiment": 6589,
    "Ġlion": 9674,
    "shows": 22449,
    "Ġterra": 13113,
    "threaten": 25461,
    "Ġmerchants": 23732,
    "Ġundecided": 22046,
    "Ġniagara": 26457,
    "Ġje": 4125,
    "Ġlunch": 13523,
    "Ġruined": 12950,
    "Ġhumorousness": 25377,
    "Ġamusing": 11797,
    "Ġsouthern": 7689,
    "Ġpag": 6011,
    "Ġmalady": 24391,
    "Ġprobabilities": 4966,
    "Ć": 199,
    "Ġchase": 3947,
    "Ġraised": 4661,
    "Ġcontinuing": 14395,
    "Ġcurly": 18864,
    "third": 8168,
    "Ġdecorum": 16018,
    "Ġul": 6828,
    "laughed": 20280,
    "opol": 12868,
    "Ġvillains": 14747,
    "Ġrequesting": 24633,
    "Ġinde": 7371,
    "Ġdoted": 21432,
    "Ġnightgown": 23131,
    "Ġcreaking": 14327,
    "Ġinjuring": 24267,
    "likes": 18812,
    "Ġbalm": 22902,
    "Ġmurky": 19200,
    "Ġausten": 5881,
    "«": 109,
    "Ġimpo": 3444,
    "Ġmoulton": 17433,
    "Ġsuperl": 16444,
    "Ġpicturesque": 14892,
    "condemned": 26060,
    "ceased": 21624,
    "clinging": 20821,
    "Ġrepose": 6741,
    "Ġproverb": 12713,
    "bowed": 10682,
    "Ġconvey": 9979,
    "revol": 12536,
    "supervised": 1958,
    "Ġlearn": 364,
    "Ġmaz": 15538,
    "Ġwork": 1321,
    "Ġfifth": 11256,
    "ameter": 3065,
    "Ġjudgment": 5765,
    "itely": 5365,
    "Ġinexpress": 12632,
    "uated": 10130,
    "Ġrings": 11696,
    "impatiently": 20469,
    "secondly": 16983,
    "Ġunrival": 22045,
    "Ġtransient": 18481,
    "Ġfavours": 23279,
    "Ġuses": 1206,
    "Ġsecret": 3721,
    "Ġillustrative": 25066,
    "Ġbuckets": 17033,
    "Ġrattler": 24997,
    "Ġscan": 22277,
    "Ġidly": 16401,
    "Ġgifted": 17996,
    "sun": 7139,
    "Ġnecessarily": 13246,
    "Ġoriental": 9095,
    "Ġpers": 1398,
    "Ġlandless": 23377,
    "define": 1526,
    "www": 17250,
    "bears": 22488,
    "aited": 12432,
    "Ġthews": 21276,
    "Ġdi": 6525,
    "uendoes": 26406,
    "Ġskies": 8919,
    "Ġpleases": 16295,
    "english": 2775,
    "Ġdonkey": 23227,
    "esy": 9184,
    "vanity": 24976,
    "Ġsmells": 8888,
    "peculiarities": 13468,
    "_).âĢĶ": 8681,
    "Ġbedfellow": 16435,
    "Ġinstead": 2790,
    "Ġaway": 1243,
    "imin": 1768,
    "likewise": 13102,
    "lott": 6650,
    "abhorred": 17334,
    "closed": 23152,
    "Ġsurp": 9633,
    "rippling": 24713,
    "Ġdistributes": 4196,
    "Ġsanct": 15063,
    "Ġtashtego": 4487,
    "waist": 13415,
    "Ġelaborate": 18636,
    "Ġshave": 21994,
    "Ġattaining": 15802,
    "Ġstair": 8455,
    "Ġrespite": 13151,
    "virtue": 20568,
    "moments": 19410,
    "Ġfortunes": 12175,
    "ari": 673,
    "Ġmountainous": 16598,
    "Ġsurvived": 14932,
    "Ġinclement": 22551,
    "Ġinf": 1756,
    "Ġheaven": 3368,
    "Ġintrepid": 11703,
    "Ġpacked": 9978,
    "Ġplaything": 19236,
    "holes": 12051,
    "26": 10071,
    "approve": 19935,
    "orient": 2882,
    "causes": 20342,
    "Ġconciliating": 19047,
    "oman": 2016,
    "james": 15370,
    "corpse": 24485,
    "Ġsigmoid": 2460,
    "Ġhell": 5019,
    "Ġsocieties": 20181,
    "Ġproport": 2297,
    "Ġwoods": 5406,
    "wonders": 17142,
    "Ġcordage": 19677,
    "shunned": 22458,
    "Ġreflect": 6575,
    "evidently": 20344,
    "flutterings": 26605,
    "Ġjeer": 24123,
    "Ġandrew": 21505,
    "Ġtypes": 8935,
    "darcy": 5208,
    "spanish": 14330,
    "Ġjudged": 12080,
    "asily": 13944,
    "Ġdiscl": 9795,
    "Ġsche": 1707,
    "Ġrich": 2994,
    "surf": 24211,
    "Ġrural": 21965,
    "Ġtahit": 10753,
    "grey": 14910,
    "Ġowing": 6005,
    "Ġpleasanter": 19065,
    "striving": 24669,
    "Ġproximity": 3220,
    "S": 55,
    "patched": 17642,
    "disapprobation": 19155,
    "Ġplying": 17911,
    "Ġcontradictory": 20395,
    "Ġstrongly": 5657,
    "Ġunfathom": 14787,
    "Ĥ": 229,
    "code": 15327,
    "irene": 15913,
    "anges": 1677,
    "Ġdecanter": 22442,
    "Ġannouncement": 14831,
    "Ġavast": 9918,
    "Ġcurving": 16254,
    "ired": 1444,
    "Ġdelivery": 18975,
    "Ġpoetic": 17102,
    "know": 2317,
    "training": 2512,
    "Ġincessantly": 11410,
    "Ġphotography": 24683,
    "Ġrevel": 9213,
    "Ġtherefore": 2236,
    "Ġimmemorial": 10509,
    "Ġtrod": 15025,
    "pra": 15405,
    "Ġdeputation": 21837,
    "compan": 7301,
    "Ġroused": 7622,
    "Ġloitered": 26524,
    "Ġhab": 4219,
    "Ġvalid": 1671,
    "Ġfell": 1976,
    "much": 3707,
    "Ġfronts": 20530,
    "turns": 14904,
    "Ġforming": 7042,
    "feren": 768,
    "Ġgradual": 20600,
    "Ġjoppa": 12033,
    "Ġbenefactor": 14696,
    "Ġunmindful": 22064,
    "Ġneed": 2605,
    "Ġperturbed": 20438,
    "Ġintens": 7003,
    "Ġmatches": 14394,
    "Ġterms": 2561,
    "Ġrecklessness": 24745,
    "Ġmorrow": 9340,
    "Ġtesting": 23214,
    "conceivable": 17129,
    "Ġsuffice": 18869,
    "Ġimpression": 5732,
    "odecimo": 11443,
    "Ġtrial": 6634,
    "Ġabed": 22263,
    "Ġlovely": 4710,
    "provided": 13634,
    "Ġdecreases": 3411,
    "Ġwholly": 4448,
    "Ġdreamed": 16628,
    "Ġallude": 12768,
    "Ġportra": 9007,
    "Ġ121": 24465,
    "Ġstumped": 24942,
    "rer": 3623,
    "stave": 21647,
    "Ġsprained": 15880,
    "Ġbeliefs": 24581,
    "ris": 9136,
    "Ġeffectively": 2719,
    "Ġusher": 22215,
    "Ġshr": 4226,
    "Ġsul": 7570,
    "increasing": 20268,
    "?": 35,
    "received": 9637,
    "suited": 22638,
    "Ġpre": 507,
    "Ġchin": 4891,
    "Ġdivine": 6921,
    "neys": 23580,
    "Ġcomb": 1066,
    "Ġmajority": 13289,
    "acific": 4960,
    "\"]": 17469,
    "weaknesses": 26030,
    "Ġextremely": 2666,
    "Ġyesterday": 5332,
    "Ġsaratoga": 26422,
    "Ġpacket": 14891,
    "broken": 8021,
    "Ġcolt": 11043,
    "Ġproblems": 2852,
    "Ġsubaltern": 22789,
    "counters": 25397,
    "Ġconcert": 11964,
    "Ġminimax": 5858,
    "Ġretreat": 6070,
    "saying": 8640,
    "ospel": 17009,
    "wheels": 14379,
    "Ġdepended": 9775,
    "Ġdesp": 3215,
    "source": 11524,
    "Ġdissuade": 26256,
    "Ġworlds": 11944,
    "Ġdungeon": 16995,
    "Ġobserving": 6081,
    "Ġlike": 670,
    "Ġdissatisfied": 14255,
    "itic": 11576,
    "Ġconsciousness": 9946,
    "came": 4571,
    "wag": 21122,
    "ffic": 22149,
    "ojo": 7349,
    "follows": 24527,
    "Ġchival": 14181,
    "Ġthumb": 6981,
    "Ġweapon": 7776,
    "Ġthrilling": 19747,
    "sequent": 6831,
    "Ġfangs": 12594,
    "Ġinvest": 4978,
    "Ġczar": 12571,
    "Ġengland": 3859,
    "harpooneers": 8689,
    "ferent": 4195,
    "Ġorganisation": 23581,
    "ike": 5000,
    "Ġang": 2506,
    "Ġvide": 10249,
    "Ġmoist": 9283,
    "Ġdollars": 11454,
    "Ġstro": 4596,
    "emberley": 4172,
    "incredible": 16497,
    "Ġrichness": 19310,
    "Ġcreep": 22723,
    "welt": 12517,
    "claims": 25319,
    "Ġforce": 5092,
    "Ġdri": 2361,
    "earthly": 24724,
    "oriented": 2949,
    "invested": 17116,
    "jonah": 11495,
    "hap": 17558,
    "painter": 24896,
    "ĠâĢĶ_": 3461,
    "Ġdelineations": 26058,
    "ase": 1156,
    "Ġcongeal": 25980,
    "Ġmisanthrop": 22757,
    "Ġplead": 14453,
    "Ġflint": 23004,
    "Ġeulogy": 26469,
    "Ġdelayed": 9516,
    "limbs": 20190,
    "longer": 8612,
    "Ġmott": 17803,
    "Ġdelirium": 10404,
    "angled": 6844,
    "Ġcoroner": 7510,
    "Ġpilot": 5985,
    "Ġtestified": 16328,
    "lorious": 17591,
    "Ġdismal": 11807,
    "Ġflights": 24753,
    "furthest": 19840,
    "promote": 24727,
    "Ġappals": 22212,
    "Ġconce": 3424,
    "Ġfisheries": 17436,
    "autions": 20766,
    "Ġtreacher": 8604,
    "national": 20997,
    "Ġfict": 21403,
    "pur": 7807,
    "Ġdisplaying": 16965,
    "Ġslammed": 20446,
    "Ġprey": 6415,
    "Ġcha": 6853,
    "Ġbreathlessly": 24279,
    "somebody": 14564,
    "Ġsled": 21217,
    "Ġformula": 2869,
    "Ġpleasantest": 24137,
    "tt": 13788,
    "đ": 210,
    "Ġeduc": 4785,
    "Ġtormented": 8674,
    "Ġquest": 1999,
    "Ġresolved": 3800,
    "Ġbask": 8117,
    "loat": 8885,
    "Ġcheshire": 13086,
    "Ġbefitting": 15722,
    "pyramid": 21029,
    "Ġmetal": 9388,
    "lord": 3867,
    "impe": 21706,
    "Ġcollateral": 20070,
    "Ġimmeas": 18331,
    "Ġgranite": 22806,
    "proved": 11983,
    "one": 615,
    "Ġsternly": 16708,
    "pp": 384,
    "Ġmeasuring": 22880,
    "Ġsavage": 4014,
    "Ġhunts": 23156,
    "thought": 3851,
    "Ġvest": 8163,
    "Ġdol": 9663,
    "Ġhailed": 6407,
    "Ġbegat": 18856,
    "Ġhurts": 19111,
    "Ġperches": 18448,
    "burgh": 6773,
    "Ġhoard": 23351,
    "Ġseating": 18201,
    "Ġsheltered": 19910,
    "Ġpar": 456,
    "Ġcompetition": 14265,
    "behaviour": 11300,
    "Ġcus": 21341,
    "addressed": 13382,
    "Ġwhilst": 9217,
    "Ġtribe": 10750,
    "sweet": 8685,
    "Ġhailing": 11690,
    "Ġchick": 22245,
    "Ġwash": 9701,
    "order": 1955,
    "Ġunimportant": 22028,
    "windward": 24159,
    "Ġimpelling": 22383,
    "Ġmanagement": 8193,
    "lanter": 15385,
    "Ġcontrary": 5260,
    "Ġgar": 10837,
    "Ġresolution": 5500,
    "Ġtiar": 21166,
    "Ġflood": 7716,
    "Ġliking": 23589,
    "Ġheinous": 18038,
    "luent": 15995,
    "E": 41,
    "passenger": 24165,
    "eler": 1571,
    "Ġinscrutable": 10671,
    "Ġharbour": 19978,
    "Ġharpoone": 2913,
    "Ġinspector": 6498,
    "Ġgordon": 26466,
    "character": 6331,
    "Ġexotic": 21830,
    "cutting": 23783,
    "business": 5609,
    "adjust": 21758,
    "Ġsides": 4580,
    "Ġcur": 1298,
    "unavoid": 14060,
    "Ġpulley": 2977,
    "ÿ": 192,
    "Ġanimating": 23422,
    "Ġencoding": 4774,
    "whalers": 17262,
    "Ġmeals": 12708,
    "Ġsetting": 7046,
    "endeavour": 17030,
    "Ġworshipped": 25691,
    "Ġjewels": 12366,
    "backpropagation": 11982,
    "william": 4563,
    "Ġfinest": 10391,
    "Ġpantry": 20294,
    "Ġdarts": 16767,
    "Ġagency": 11803,
    "Ġburgled": 23656,
    "Ġslide": 10392,
    "Ġoutputs": 2889,
    "vult": 21112,
    "receiving": 12539,
    "Ġannounce": 13335,
    "fail": 17539,
    "Ġprodig": 6028,
    "Ġnuptials": 20492,
    "Ġboun": 21378,
    "posture": 16926,
    "promontory": 24728,
    "osis": 18389,
    "Ġimpulse": 10022,
    "kward": 6958,
    "Ġpaid": 5015,
    "Ġappar": 7411,
    "inting": 9812,
    "erately": 21272,
    "Ġstandards": 19015,
    "Ġfist": 21402,
    "Ġlibraries": 20613,
    "persuasion": 20042,
    "ondon": 2704,
    "Ġstruggle": 3676,
    "Ġlodged": 11251,
    "orious": 6008,
    "confidence": 16807,
    "Ġsurf": 19131,
    "Ġresent": 6049,
    "Ġmau": 21309,
    "Ġsatisfy": 6912,
    "Ġfidelity": 15239,
    "Ġtexas": 25922,
    "arted": 2201,
    "£": 101,
    "in": 262,
    "Ġplump": 14281,
    "Ġcle": 1510,
    "Ġunsolved": 22031,
    "Ġglades": 19370,
    "Ġestablished": 9068,
    "Ġrecess": 10846,
    "Ġgesture": 11398,
    "!âĢĿ": 846,
    "Ġestablish": 9541,
    "Ġvishnoo": 12750,
    "Ġfigured": 16642,
    "Ġunnearable": 26515,
    "Ġfaces": 6009,
    "ssian": 3402,
    "Ġtro": 7356,
    "eag": 20841,
    "mortar": 25408,
    "Ġdistorted": 14248,
    "plexy": 18576,
    "Ġheavy": 3744,
    "Ġfirm": 3873,
    "Ġrefreshment": 17238,
    "athom": 12936,
    "Ġcalifornia": 20528,
    "Ġomit": 17815,
    "antique": 18287,
    "Ġleaky": 2345,
    "ated": 730,
    "Ġmustering": 18662,
    "Ġpondered": 15164,
    "Ġclad": 12836,
    "Ġanteced": 26177,
    "verity": 13999,
    "Ġlogits": 3453,
    "Ġpertur": 12848,
    "escript": 18471,
    "Ġanalysis": 2079,
    "Ġtacit": 21173,
    "Ġunjust": 8483,
    "Ġinsufferable": 13929,
    "yder": 10137,
    "Ġapples": 22210,
    "witness": 10033,
    "Ġdilatory": 24705,
    "Ġunkindness": 22040,
    "Ġshouting": 10521,
    "ipp": 10101,
    "Ġdrought": 19278,
    "Ġaudience": 24769,
    "Ġfearing": 12812,
    "Ġdetective": 14409,
    "host": 5867,
    "body": 2307,
    "posted": 24636,
    "Ġswerve": 14435,
    "Ġscaramouch": 23825,
    "Ġtornado": 24622,
    "gladness": 25194,
    "Ġinducements": 24967,
    "Ġdissimilar": 22529,
    "confidential": 25876,
    "Ġdesign": 4134,
    "Ġheight": 4221,
    "Ġassociates": 24712,
    "Ġgroups": 3720,
    "Ġmeditating": 20041,
    "Ġunche": 23427,
    "open": 7025,
    "ff": 461,
    "Ġmira": 8407,
    "intments": 18819,
    "Ġempty": 5353,
    "Ġhorses": 6385,
    "augment": 18828,
    "Ġponies": 21474,
    "Ġsiamese": 20481,
    "Ġtick": 8109,
    "considerably": 13442,
    "fen": 20849,
    "apers": 3483,
    "fth": 20855,
    "Ġburn": 3684,
    "Ġstrategy": 2190,
    "Ġagon": 10319,
    "rowsers": 8694,
    "Ġbeach": 6541,
    "Ġcharacteristic": 12045,
    "executed": 25739,
    "flatter": 23964,
    "Ġimpact": 10295,
    "icirc": 15652,
    "Ġfranc": 16349,
    "watery": 19825,
    "gener": 3126,
    "sentence": 2941,
    "melted": 25206,
    "Ġspirits": 3699,
    "illation": 14140,
    "Ġcomplimented": 14902,
    "jaws": 20931,
    "ber": 884,
    "Ġlicensing": 20091,
    "Ġpersuas": 23944,
    "Ġlightened": 23260,
    "Ġrelations": 5852,
    "Ġmien": 17808,
    "surrounded": 26088,
    "diff": 9112,
    "Ġassert": 7120,
    "priv": 9618,
    "opportunity": 12271,
    "aution": 9385,
    "pretty": 10620,
    "Ġhaste": 9002,
    "W": 59,
    "Ġbeat": 4492,
    "Ġspecific": 2000,
    "pit": 3986,
    "happily": 14656,
    "Ġsaloon": 24061,
    "ensions": 14257,
    "Ġerror": 1765,
    "Ġastonishing": 10500,
    "12": 20748,
    "Ġpatches": 4237,
    "ropy": 1104,
    "Ġhatred": 8608,
    "Ġtorrents": 20054,
    "datasets": 11951,
    "Ġgratify": 19501,
    "Ġfathoms": 9082,
    "Ġmurderous": 8316,
    "hs": 8378,
    "p": 84,
    "hear": 10145,
    "rably": 21631,
    "inian": 21181,
    "Ġstocks": 23175,
    "Ġrending": 19465,
    "between": 5071,
    "Ġalman": 21779,
    "Ġleaned": 7607,
    "wart": 17704,
    "Ġindignantly": 16938,
    "Ġfiercely": 12948,
    "Ġexchanged": 10877,
    "µ": 118,
    "relative": 24010,
    "Ġdespond": 14666,
    "pl": 401,
    "Ġarrived": 3747,
    "Ġperpetual": 12300,
    "Ġclearly": 6897,
    "brÃ¦": 11174,
    "Ġpride": 3825,
    "Ġvarying": 15807,
    "Ġemergency": 25731,
    "|": 96,
    "Ġwheel": 9716,
    "Ġcommanding": 16589,
    "impart": 21707,
    "ineering": 21979,
    "about": 3587,
    "amongst": 24672,
    "Ġ/*": 10138,
    "etus": 21576,
    "Ġdeclared": 5594,
    "abated": 14018,
    "Ġsailor": 3536,
    "Ġperman": 10963,
    "three": 5239,
    "Ġled": 3522,
    "Ġfaithful": 9501,
    "lesson": 22763,
    "Ġserene": 8167,
    "hon": 6793,
    "Ġstaves": 21738,
    "Ġenviron": 3774,
    "aping": 8194,
    "Ġeyelashes": 26106,
    "Ġinvoluntary": 18761,
    "Ġcoinc": 11000,
    "Ġjustly": 11901,
    "shoulders": 16583,
    "=": 33,
    "shuff": 18490,
    "ank": 1365,
    "wn": 720,
    "Ġmumbled": 17807,
    "Ġlive": 2733,
    "Ġfruits": 17117,
    "Ġattendant": 11284,
    "op": 657,
    "Ġrug": 16154,
    "77": 15298,
    "police": 10582,
    "Ġsilver": 7464,
    "Ġquantization": 19853,
    "Ġreinforcement": 3281,
    "Ġapothe": 12372,
    "ither": 1546,
    "Ġe": 311,
    "Ġsocks": 14132,
    "Ġtrif": 6269,
    "Ġinspirited": 23419,
    "Ġgallop": 19554,
    "Ġassurances": 9998,
    "simp": 17664,
    "Ġlegend": 14573,
    "aire": 10679,
    "iability": 20919,
    "tried": 13792,
    "Ġvolcanoes": 24145,
    "inked": 12910,
    "Ġchildish": 13134,
    "Ġrespectively": 23247,
    "depths": 25663,
    "Ġbelike": 18829,
    "Ġhelping": 3267,
    "headed": 4318,
    "Ġsays": 3562,
    "Ġfalsehood": 10522,
    "Ġmile": 7151,
    "ification": 978,
    "Ġguns": 16775,
    "dilig": 17281,
    "Ġlengthen": 15650,
    "Ġalley": 15732,
    "Ġgemin": 21608,
    "Ġfath": 7364,
    "Ġmoonshine": 19596,
    "lance": 12478,
    "Ġtrim": 15966,
    "Ġrenewal": 12231,
    "Ġmes": 17796,
    "cures": 20804,
    "Ġteacup": 16208,
    "Ġlives": 4826,
    "Ġswiss": 18881,
    "Ġforeshad": 23451,
    "Ġstrugg": 3217,
    "Ġspices": 22128,
    "Ġchronic": 9927,
    "Ġconfl": 11136,
    "j": 78,
    "met": 6652,
    "Ġarmada": 23578,
    "Ġinconsistency": 26182,
    "Ġproprietors": 20185,
    "ple": 455,
    "horse": 8605,
    "said": 4106,
    "Ġentail": 9790,
    "Ġtradeoff": 2656,
    "Ġdependen": 1828,
    "Ġsickened": 16774,
    "Ġgore": 17988,
    "Ġexter": 7397,
    "quite": 4647,
    "Ġadjusted": 23457,
    "assumed": 22306,
    "Ġsleepers": 13146,
    "pie": 21010,
    "georgiana": 26020,
    "Ġgratified": 8022,
    "Ġoperated": 14546,
    "becoming": 18519,
    "Ġparagraph": 17452,
    "Ġelder": 7223,
    "Ġcarpets": 18902,
    "Ġaberde": 22275,
    "Ġ12": 5483,
    "Ġvinc": 14083,
    "Ġboomer": 20166,
    "Ġblasphemer": 26116,
    "Ġcum": 21340,
    "Ġcontented": 9754,
    "Ġbear": 3659,
    "eded": 9672,
    "Ġinevitably": 17229,
    "irr": 12733,
    "wis": 12515,
    "elope": 14459,
    "aves": 3599,
    "rers": 14716,
    "ahab": 4290,
    "Ġdespaired": 14667,
    "Ġbears": 6829,
    "legra": 10788,
    "hunsford": 24385,
    "share": 14234,
    "Ġunintellig": 22024,
    "Ġcovered": 5171,
    "Ġunsounded": 15846,
    "stout": 21643,
    "Ġlikened": 16498,
    "Ġerrand": 11084,
    "v": 90,
    "modesty": 22826,
    "bers": 2568,
    "rical": 11517,
    "Ġbrigs": 20321,
    "christ": 10209,
    "Ġadvice": 4901,
    "Ď": 207,
    "Ġconsc": 4274,
    "Ġsimul": 1807,
    "Ġneedle": 8275,
    "nameless": 19902,
    "Ġcal": 1329,
    "through": 4027,
    "regularization": 3515,
    "Ġporus": 24397,
    "Ġpirate": 14995,
    "Ġshorter": 4499,
    "ython": 1033,
    "play": 5099,
    "Ġnotion": 7883,
    "strade": 5065,
    "forgive": 18726,
    "Ġstabilizing": 3658,
    "Ġtapers": 11550,
    "Ġravines": 25831,
    "fters": 20860,
    "inted": 2648,
    "Ġdevils": 7230,
    "Ġsimilar": 4917,
    "Ġtouching": 4681,
    "Ġhop": 1460,
    "Ġadopted": 15176,
    "Ġdavis": 25952,
    "Ġsold": 6003,
    "Ġchorus": 10945,
    "Ġdiverged": 23593,
    "Ġinsert": 19904,
    "hro": 20890,
    "piteous": 21032,
    "stand": 634,
    "Ġbegun": 7243,
    "Ġenrapt": 21937,
    "hmael": 7342,
    "gra": 770,
    "spirits": 8055,
    "kshire": 13744,
    "Ġrect": 18025,
    "Ġharb": 7370,
    "nin": 17607,
    "Ġsubmitted": 11868,
    "sterdam": 19088,
    "Ġgoethe": 22420,
    "extra": 8219,
    "Ġtatters": 21176,
    "oking": 4607,
    "doing": 8584,
    "Ġelasticity": 19557,
    "ahead": 12431,
    "isted": 3300,
    "Ġdeacon": 18140,
    "loss": 22506,
    "Ġsteelkilt": 5675,
    "Ġrevolver": 14896,
    "ihood": 20921,
    "mathematics": 26304,
    "Ġsucceed": 4546,
    "Ġheld": 3586,
    "Ġbegged": 8230,
    "Ġsort": 1506,
    "Ġelsewhere": 7713,
    "Ġcontrived": 10302,
    "Ġtobacco": 8367,
    "swe": 5996,
    "Ġheadway": 18791,
    "abases": 3008,
    "Ġcontracting": 16008,
    "Ġravings": 18645,
    "Ġquivering": 12855,
    "Ġdeductions": 19731,
    "Ġ50": 24318,
    "Ġtimorous": 24224,
    "Ġex": 362,
    "Ġilluminating": 25245,
    "remediable": 26294,
    "ess": 410,
    "Ġjub": 22293,
    "oise": 15402,
    "T": 56,
    "ards": 2500,
    "Ġbutt": 14124,
    "Ġcease": 7076,
    "Ġmaze": 23828,
    "Ġclear": 1946,
    "fell": 6953,
    "Ġ[": 6967,
    "Ġlawn": 7379,
    "writing": 7721,
    "Ġcursory": 18868,
    "ed": 293,
    "insist": 23063,
    "O": 51,
    "Ġchancing": 22246,
    "Ġelijah": 9098,
    "Ġtrusted": 10516,
    "Ġbathing": 20198,
    "narwhale": 17316,
    "Ġboasted": 16103,
    "Ġinterlude": 16067,
    "arned": 21819,
    "Ġdistress": 5844,
    "thyself": 19297,
    "machines": 8385,
    "Ġpremium": 23902,
    "Ġcommunicative": 24547,
    "Ġlifeless": 8947,
    "Ġconcealment": 16913,
    "Ġwad": 13849,
    "Ġpositive": 2295,
    "Ġconsequences": 11334,
    "erc": 5905,
    "scarcely": 12383,
    "Ġsepulchral": 25892,
    "Ġventure": 7740,
    "Ġprosperity": 20256,
    "followed": 8339,
    "Ġeel": 18001,
    "Ġoverhear": 15973,
    "Ġoil": 3376,
    "Ġempt": 5051,
    "marks": 7346,
    "Ġfail": 4150,
    "torn": 17681,
    "Ġsap": 18323,
    "Ġbackwards": 12924,
    "Ġsteadily": 8052,
    "recollected": 25347,
    "commencement": 26347,
    "Ġblessing": 11262,
    "agreeable": 5829,
    "Ġegg": 8817,
    "jump": 10102,
    "Ġocc": 887,
    "sweetly": 25134,
    "drovand": 24760,
    "Ġfolding": 19725,
    "Ġflattened": 26046,
    "Ġformation": 2945,
    "Ġpuffs": 14974,
    "Ġdwelling": 7322,
    "Ġimbec": 14155,
    "Ġplenty": 6708,
    "cords": 25136,
    "Ġpedestrian": 25879,
    "Ġinferiority": 17114,
    "Ġ": 225,
    "bred": 11468,
    "Ġmeagre": 21811,
    "Ġmarked": 4620,
    "iciously": 17973,
    "Ġsteady": 4847,
    "vari": 1516,
    "prairies": 20565,
    "Ġinboard": 17932,
    "Ġelastic": 4361,
    "Ġindiam": 22951,
    "Ġprocure": 9508,
    "Ġbreed": 19071,
    "adem": 21755,
    "Ġpredicted": 2045,
    "Ġbarrels": 9434,
    "Ġla": 5913,
    "Ġnaut": 13939,
    "Ġinvulnerable": 19146,
    "Ġprofundity": 20451,
    "Ġprocesses": 3635,
    "Ġtoday": 12640,
    "ario": 14246,
    "Ġbidirectional": 3758,
    "agree": 14065,
    "doms": 20834,
    "entirely": 7782,
    "impressions": 20697,
    "iverer": 11713,
    "Ġinsipid": 26313,
    "atched": 6375,
    "urable": 8922,
    "roy": 7854,
    "emic": 18184,
    "andish": 18153,
    "Ġasleep": 6836,
    "tea": 18741,
    "Ġcarry": 4779,
    "iance": 5279,
    "Ġunfl": 22018,
    "hy": 4740,
    "Ġcoldly": 14649,
    "Ġwhiskers": 10491,
    "Ġblast": 7445,
    "ruction": 4357,
    "behold": 12874,
    "Ġder": 1497,
    "ror": 7351,
    "ĠĠĠĠĠĠĠĠĠĠĠĠĠĠĠĠĠĠĠĠĠĠĠĠĠĠĠĠĠĠĠĠĠĠĠĠĠĠĠĠĠĠĠĠĠĠĠĠĠĠĠĠĠĠĠĠĠĠĠĠ": 19259,
    "luded": 4229,
    "Ġquantity": 6948,
    "Ġindist": 14406,
    "Ġdreaming": 11222,
    "Ġvener": 8164,
    "Ġremonstr": 16158,
    "Ġcommended": 18656,
    "Ġjoyous": 14662,
    "Ġirregularly": 25323,
    "Ġstrives": 23695,
    "Ġsally": 15500,
    "plate": 18199,
    "Ġclothes": 4997,
    "Ġlens": 8438,
    "Ġmorass": 22969,
    "Ġchamois": 16799,
    "Ġpeev": 22691,
    "gy": 2097,
    "Ġancles": 21445,
    "inn": 5363,
    "outer": 9667,
    "Ġl": 303,
    "Ġiteratively": 3057,
    "Ġfren": 10804,
    "Ġwashington": 17201,
    "Ġhabitation": 14801,
    "tart": 21066,
    "Ġscorn": 7902,
    "swallow": 24256,
    "slack": 16893,
    "Ġchalk": 15930,
    "Ġbrutality": 26276,
    "Ġunrestrained": 25554,
    "Ġsettled": 3742,
    "Ġmeasureless": 14708,
    "Ġprovincial": 20649,
    "Ġspeaker": 19148,
    "Ġbill": 4044,
    "Ġsubsisting": 23433,
    "Ġuncompromised": 20602,
    "Ġcapering": 21352,
    "Ġaccomplishment": 19664,
    "Ġaudibly": 24771,
    "Ġscrutiny": 26015,
    "Ġblind": 3717,
    "game": 11489,
    "continually": 11301,
    "Ġdisasters": 16050,
    "wil": 8396,
    "Ġrespons": 2681,
    "Ġiii": 7861,
    "Ġwhenever": 5166,
    "Ġjun": 8505,
    "Ġrap": 14302,
    "Ġstubb": 1786,
    "Ġcheese": 9375,
    "cro": 13694,
    "uring": 818,
    "Ġcorners": 18875,
    "Ġsparing": 22127,
    "Ġerie": 20052,
    "Ġunexampled": 20358,
    "Ġost": 9648,
    "possessed": 9526,
    "Ġengraving": 17079,
    "Ġeludes": 26553,
    "ertion": 12036,
    "Ġhelplessness": 25071,
    "contriv": 19292,
    "Ġbordered": 24562,
    "Ġnatur": 17332,
    "Ġhaughty": 11448,
    "Ġunexplored": 26517,
    "anxious": 15107,
    "Ġimpotently": 22388,
    "Ġartfully": 22598,
    "breakfast": 8687,
    "Ġsable": 15498,
    "encyclopÃ¦dia": 16662,
    "Ġfrayed": 23297,
    "Ġisolation": 17149,
    "Ġrepute": 18034,
    "ships": 5486,
    "Ġforget": 2634,
    "Ġharpoons": 5659,
    "tails": 21085,
    "Ġfresh": 3671,
    "Ġabuse": 18392,
    "onies": 6806,
    "Ġdiscover": 4718,
    "Ġweighty": 16029,
    "Ġfrank": 4421,
    "Ġbroods": 23101,
    "Ġowe": 8115,
    "move": 11851,
    "urg": 8142,
    "Ġrigid": 16715,
    "Ġbeggar": 9346,
    "written": 7995,
    "Ġamiable": 4269,
    "Ġungover": 18255,
    "iam": 2504,
    "Ġasked": 2276,
    "Ġstoke": 10394,
    "paralleled": 14518,
    "rusted": 16505,
    "Ġalternately": 15030,
    "Ġcompos": 22567,
    "pervading": 18959,
    "agings": 18165,
    "Ġashamed": 6403,
    "incidentally": 20538,
    "Ġfleet": 9430,
    "clock": 3935,
    "Ġfighting": 12194,
    "fulfil": 16032,
    "Ġspurned": 12794,
    "Ġtearing": 14392,
    "Ġgreek": 10629,
    "Ġwane": 21287,
    "Ġdiscovery": 5412,
    "Ġenhancement": 23671,
    "Ġdinah": 9452,
    "Ġgathering": 14976,
    "Ġparting": 9782,
    "ences": 1262,
    "Ġawful": 6199,
    "ood": 962,
    "Ġadjusting": 3414,
    "idean": 14261,
    "Ġcivilities": 14846,
    "liament": 16215,
    "Ġrecognition": 3101,
    "oping": 5558,
    "Ġcrime": 4617,
    "Ġsymbolize": 24962,
    "Ġsneer": 13444,
    "pract": 10118,
    "Ġprotested": 9932,
    "Ġdeliberately": 10623,
    "Ġunthinkingly": 26220,
    "Ġpulse": 13111,
    "chat": 21684,
    "Ġaz": 9628,
    "situ": 9620,
    "Ġincidentally": 16953,
    "Ġnooks": 26011,
    "faint": 17544,
    "gences": 20876,
    "omically": 13974,
    "Ġremind": 6058,
    "Ġplumage": 17296,
    "Ġado": 7626,
    "inking": 6709,
    "Ġsped": 22123,
    "Ġcurt": 18863,
    "der": 472,
    "Ġchurned": 18385,
    "Ġexord": 21826,
    "iousness": 4899,
    "Ġquill": 12854,
    "Ġyou": 366,
    "ingolstadt": 21302,
    "giving": 8738,
    "Ġbeaks": 21753,
    "inities": 21184,
    "east": 9114,
    "ul": 371,
    "organ": 15570,
    "Ġhypotheses": 4386,
    "Ġmurmured": 7480,
    "Ġxiii": 25591,
    "Ġtap": 12522,
    "Ġspermacetti": 19049,
    "Ġfarthest": 23116,
    "Ġpossibilities": 18976,
    "Ġcomplaisance": 19447,
    "Ġdrawing": 3919,
    "rier": 9240,
    "89": 20758,
    "Ġrepairing": 25589,
    "Ġdaggoo": 5441,
    "Ġevenly": 4131,
    "Ġgratifying": 13302,
    "Ġsurv": 6082,
    "usions": 6159,
    "Ġsharp": 2412,
    "Ġpurest": 14937,
    "Ġoutward": 7905,
    "emone": 21925,
    "Ġswallow": 8949,
    "Ġcompassion": 6487,
    "Ġacquire": 2722,
    "locks": 14454,
    "âĢĿâĢĶ": 5721,
    "Ġperv": 15987,
    "Ġsovere": 9254,
    "Ġchagrin": 20606,
    "Ġmaid": 5285,
    "Ġcivilized": 8664,
    "Ġfishe": 15582,
    "Ġleft": 1760,
    "Ġdexterity": 25294,
    "aits": 20765,
    "Ġyanke": 18097,
    "Ġhon": 2536,
    "served": 5043,
    "mbles": 23087,
    "there": 1424,
    "Ġentry": 11024,
    "Ġcommands": 16588,
    "obey": 11508,
    "Ġneeds": 6605,
    "Ġcrawled": 17043,
    "Ġxli": 14541,
    "forget": 11031,
    "Ġscatter": 18397,
    "Ġtiller": 8964,
    "aset": 10831,
    "edy": 2862,
    "Ġslowly": 3619,
    "Ġwatches": 11081,
    "Ġepaulets": 24905,
    "hundred": 8331,
    "arity": 1302,
    "Ġplaced": 3446,
    "Ġharry": 24570,
    "Ġglide": 22979,
    "arks": 2848,
    "apable": 6422,
    "Ġwednesday": 9023,
    "Ġcold": 3033,
    "Ġhalyards": 21492,
    "hopper": 23714,
    "Ġnetwork": 451,
    "Ġpurposes": 11167,
    "itering": 17818,
    "glit": 23848,
    "Ġsullenly": 17171,
    "furnished": 20240,
    "Ġlace": 13947,
    "didn": 9005,
    "Ġfragment": 14505,
    "teeth": 10353,
    "Ġcrystal": 17213,
    "Ġfurnace": 19438,
    "hark": 15363,
    "lee": 11583,
    "Ġconjugal": 25101,
    "Ġphilosophical": 26334,
    "Ġconfinement": 19039,
    "Ġshelter": 17007,
    "Ġcaulk": 25440,
    "itories": 15545,
    "vens": 21111,
    "regularly": 13205,
    "less": 925,
    "/`)": 13657,
    "petulance": 24298,
    "addition": 13381,
    "Ġringing": 13328,
    "features": 14771,
    "Ġbroadway": 23981,
    "Ġcommanders": 23866,
    "osc": 18387,
    "Ġmississ": 18837,
    "Ġble": 5223,
    "Ġmoon": 4609,
    "uary": 11536,
    "Ġapply": 1777,
    "carries": 19526,
    "Ġabandon": 12254,
    "hung": 8381,
    "Ġdeem": 18133,
    "roses": 17956,
    "Ġprecipitous": 24835,
    "mical": 9127,
    "Ġcask": 5527,
    "Ġbeware": 8826,
    "ú": 187,
    "seventy": 10875,
    "Ġconsolidation": 5060,
    "Ġvestibule": 13534,
    "Ġridiculous": 10627,
    "ape": 1903,
    "jumping": 20244,
    "Ġbolts": 16942,
    "midnight": 14898,
    "regard": 7973,
    "utility": 21585,
    "asses": 7016,
    "whispered": 20032,
    "Ġdiction": 8793,
    "Ġdisobey": 18559,
    "Ġfantastic": 10057,
    "Ġcustody": 13644,
    "Ġgaze": 6932,
    "Ġspam": 7630,
    "poke": 18796,
    "Ġprediction": 2275,
    "til": 17670,
    "alarmed": 21501,
    "Ġsurely": 6307,
    "Ġduchess": 4799,
    "Ġhollow": 5648,
    "Ġdecisive": 18485,
    "tempest": 16958,
    "Ġcasualty": 20340,
    "Ġknots": 15007,
    "itional": 22472,
    "justified": 19002,
    "hyp": 15364,
    "Ġquebec": 24132,
    "Ġweight": 656,
    "insurance": 18887,
    "Ġconnexion": 11453,
    "Ġsecurity": 8976,
    "ester": 11601,
    "Ġwaned": 17791,
    "true": 2584,
    "Ġconcrete": 20635,
    "Ġspe": 821,
    "Ġinstituted": 18697,
    "Ġsparks": 22130,
    "willingly": 11979,
    "Ġdow": 17886,
    "Ġdistributions": 1051,
    "heat": 15495,
    "Ġinsincere": 26598,
    "Ġgrounded": 23711,
    "Ġ40": 14766,
    "Ġadhes": 22101,
    "remind": 23186,
    "Ġtasselled": 25921,
    "Ġcistern": 17379,
    "ivery": 17571,
    "Ġfrancis": 26063,
    "Ġcrowding": 13276,
    "Ġacceded": 22374,
    "Ġdisciple": 22782,
    "Ġcher": 6129,
    "Ġbubbles": 11397,
    "Ġsink": 4340,
    "Ġjour": 11761,
    "Ġbetween": 793,
    "ondency": 15267,
    "Ġclimate": 9273,
    "Ġkrem": 9724,
    "Ġstructured": 2974,
    "Ġcharnel": 22250,
    "Ġlow": 1649,
    "Ġunfinished": 19508,
    "Ġdreaded": 8289,
    "ouch": 2780,
    "Ġsoar": 18282,
    "Ġloc": 10913,
    "Ġwallet": 21297,
    "Ġcoffin": 4430,
    "Ġsharks": 4498,
    "directed": 20403,
    "orph": 21397,
    "wol": 21121,
    "agitation": 14066,
    "umnal": 18300,
    "Ġwick": 2004,
    "Ġporthole": 24398,
    "Ġslang": 23157,
    "Ġoverl": 18428,
    "Ġhumorously": 18778,
    "Ġdashing": 8794,
    "otics": 10222,
    "enhall": 13848,
    "sleepers": 24730,
    "chamber": 13622,
    "sax": 21055,
    "Ġxvi": 19104,
    "Ġdisinclination": 22534,
    "mitted": 5213,
    "Ġalliance": 18235,
    "Ġintrospect": 15825,
    "Ġconscientious": 16726,
    "Ġrept": 13981,
    "Ġpolitic": 23617,
    "Ġhorizont": 6937,
    "Ġapprehended": 26091,
    "Ġoverseeing": 22362,
    "Ġports": 10817,
    "Ġafforded": 8029,
    "abling": 1081,
    "verize": 21726,
    "reputable": 15515,
    "Ġvor": 15803,
    "Ġstarve": 24626,
    "Ġsigning": 22706,
    "Ġcandle": 8292,
    "Ġhole": 6080,
    "ositions": 10282,
    "Ġvicious": 24402,
    "oward": 6021,
    "kindled": 16659,
    "Ġwandering": 8653,
    "Ġarchbishop": 18708,
    "improve": 15708,
    "thin": 14095,
    "Ġcrowned": 16840,
    "Ġware": 12550,
    "orative": 21396,
    "Ġsuperst": 7704,
    "Ġsuspicion": 6211,
    "Ġlaud": 17967,
    "initions": 21186,
    "Ġalong": 1978,
    "mush": 20976,
    "doors": 19094,
    "during": 6787,
    "rugg": 15893,
    "catherine": 7127,
    "Ġparamet": 608,
    "aet": 15305,
    "Ġsuspic": 4471,
    "dough": 15333,
    "ickory": 22667,
    "Ġsuperb": 16443,
    "Ġpoky": 21477,
    "sort": 6798,
    "Ġpremature": 3726,
    "Ġanoints": 25538,
    "Ġraving": 16111,
    "Ġ38": 24077,
    "Ġduke": 7756,
    "Ġdisadvantage": 12887,
    "Ġcultiv": 13553,
    "Ġconfid": 7687,
    "ag": 377,
    "isp": 5528,
    "Ġseaport": 20598,
    "Ġfold": 5530,
    "Ġxlix": 25860,
    "Ġpalms": 8643,
    "Ġmushroom": 13233,
    "shriek": 20518,
    "companion": 9556,
    "wer": 8395,
    "Ġnods": 19062,
    "Ġmilliner": 19883,
    "luding": 6700,
    "Ġintercourse": 10997,
    "Ġindications": 14631,
    "Ġlaws": 8003,
    "shelf": 20379,
    "Ġagric": 22513,
    "Ġmeddling": 24081,
    "Ġanecd": 20153,
    "Ġconge": 15742,
    "take": 4577,
    "Ġcorrupt": 11920,
    "child": 5537,
    "Ġexpatiate": 18624,
    "Ġcross": 1372,
    "frost": 15104,
    "pass": 4291,
    "ancial": 21360,
    "Ġarrow": 10930,
    "000": 2559,
    "Ġspade": 9257,
    "Ġsolemnly": 8024,
    "Ġapiece": 16812,
    "apple": 22840,
    "steaks": 23958,
    "Ġmischief": 8541,
    "Ġcreativity": 2959,
    "ius": 5789,
    "prince": 23812,
    "oubted": 5859,
    "Ġcomfortable": 6095,
    "shipping": 10306,
    "Ġ(_": 3737,
    "Ġriver": 5411,
    "ulatory": 15764,
    "Ġcurses": 13023,
    "appears": 12057,
    "Ġmeddle": 19490,
    "Ġliv": 6679,
    "Ġsuperior": 2751,
    "frock": 20119,
    "more": 1035,
    "Ġextrem": 2472,
    "establishment": 26113,
    "Ġislets": 21799,
    "useness": 22290,
    "Ġreser": 5170,
    "sugg": 11838,
    "Ġshells": 20362,
    "Ġretains": 20028,
    "Ġsunda": 13541,
    "balls": 12302,
    "Ġimplies": 24873,
    "particularly": 8340,
    "orter": 4255,
    "Ġop": 2600,
    "Ġarched": 10931,
    "Ġdense": 8123,
    "Ġalso": 1346,
    "Ġdeny": 7488,
    "Ġtrain": 516,
    "mense": 4780,
    "Ġtu": 6968,
    "Ġprotruded": 19468,
    "agos": 21902,
    "itiously": 13869,
    "â": 163,
    "Ġmounts": 17806,
    "Ġpsalmody": 20583,
    "Ġbiography": 22760,
    "Ġur": 5539,
    "Ġqueer": 4479,
    "Ġsufficiently": 8972,
    "ipt": 12475,
    "Ġauthority": 7749,
    "pulled": 25145,
    "Ġclasp": 9742,
    "Ġvesu": 21947,
    "Ġdispleasure": 16048,
    "onical": 21252,
    "Ġcrackling": 24960,
    "Ġre": 317,
    "residual": 19261,
    "acrity": 14278,
    "Ġthinner": 24181,
    "Ġpartially": 13119,
    "Ġslim": 18936,
    "baboon": 25516,
    "Ġcases": 3964,
    "ove": 1742,
    "trifling": 19412,
    "requ": 7148,
    "pagans": 25525,
    "Ġweig": 7618,
    "bern": 20774,
    "ge": 560,
    "Ġcomforters": 25800,
    "critters": 14782,
    "kles": 17583,
    "afford": 14653,
    "Ġmantel": 11438,
    "Ġbred": 9168,
    "cre": 4250,
    "my": 1317,
    "icuous": 10834,
    "Ġrecording": 24433,
    "Ġantelope": 24179,
    "Ġadieus": 25110,
    "principal": 20659,
    "coarse": 16485,
    "discharging": 26305,
    "poky": 17643,
    "ription": 5676,
    "Ġmimic": 3143,
    "Ġunited": 6840,
    "Ġdust": 5909,
    "Ġhorns": 11122,
    "merry": 16535,
    "street": 6495,
    "Ġuncounted": 19116,
    "offended": 16390,
    "ratulations": 20124,
    "Ġrespectfully": 18994,
    "oyed": 14362,
    "Ġpocket": 4898,
    "Ġsimplicity": 2926,
    "âĢ": 294,
    "aped": 3767,
    "Ġincarnate": 20373,
    "event": 8077,
    "Ġentire": 2557,
    "orough": 5700,
    "undant": 14790,
    "Ġtraditions": 11442,
    "Ġhides": 16261,
    "Ġfidget": 15187,
    "Ġpam": 21452,
    "å": 166,
    "sebastian": 21817,
    "Ġappetite": 12381,
    "Ġoat": 21321,
    "Ġquadrant": 11403,
    "fiend": 13658,
    "some": 2232,
    "Ġsuff": 1303,
    "Ġdisastrous": 16056,
    "pr": 3173,
    "wedding": 13368,
    "Ġmomentary": 11035,
    "Ġatrocious": 21941,
    "springing": 24889,
    "beg": 22485,
    "umblings": 23927,
    "eye": 6224,
    "assment": 9737,
    "Ġacted": 7422,
    "Ġdisgracing": 26255,
    "osop": 4404,
    "Ġintegral": 25008,
    "Ġblan": 18814,
    "Ġbrawn": 10480,
    "recognised": 15260,
    "voyage": 7786,
    "oglyph": 11015,
    "Ġreap": 18026,
    "Ġstaggering": 20272,
    "Ġlethargy": 26482,
    "Ġprecipices": 12274,
    "berish": 22715,
    "Ġo": 275,
    "Ġrenounce": 19466,
    "Ġscarcity": 23824,
    "Ġspine": 7407,
    "Ġinterlacing": 22574,
    "Ġemotions": 8968,
    "Ġprint": 18969,
    "Ġresidence": 8207,
    "glancing": 11213,
    "rec": 6004,
    "pane": 10119,
    "lucky": 24544,
    "A": 37,
    "ush": 3634,
    "Ġjet": 5307,
    "Ġconsummation": 17423,
    "Ġfeverish": 11347,
    "Ġgrosvenor": 17416,
    "lets": 7837,
    "Ġobservation": 6597,
    "Ġgermany": 25785,
    "desc": 1392,
    "Ġslacked": 25188,
    "Ġthreatening": 16827,
    "thodox": 21986,
    "ified": 3227,
    "state": 13977,
    "Ġambition": 11431,
    "Ġburke": 19250,
    "Ġsignature": 16492,
    "ived": 1533,
    "Ġpledged": 20686,
    "eel": 11482,
    "Ġpaddling": 25285,
    "Ġspoil": 17006,
    "Ġcarrying": 6072,
    "Ġnovelty": 13460,
    "Ġsustain": 10015,
    "enger": 10772,
    "Ġevermore": 18809,
    "Ġcontinu": 1162,
    "Ġascended": 8665,
    "Ġdau": 21424,
    "Ġelderly": 13492,
    "Ġdaughter": 2873,
    "ro": 301,
    "Ġfry": 17879,
    "Ġgri": 17987,
    "cons": 4309,
    "Ġtrials": 16788,
    "Ġheroines": 19750,
    "Ġduties": 6609,
    "pens": 17631,
    "Ġloth": 17965,
    "Ġsuperglue": 23456,
    "Ġlandscape": 12414,
    "Ġgreyish": 24207,
    "Ġinsensible": 12322,
    "Ġcomes": 3425,
    "Ġresources": 2939,
    "wood": 5898,
    "illum": 15866,
    "confined": 24331,
    "Ġbehind": 2810,
    "lleg": 20950,
    "ings": 636,
    "madly": 24419,
    ".;": 20743,
    "Ġpropri": 6738,
    "floor": 14934,
    "Ġpaved": 17910,
    "cloth": 11934,
    "Ġreserves": 19669,
    "Ġchil": 11748,
    "Ġdarting": 7757,
    "Ġknight": 9725,
    "collins": 6916,
    "Ġhunch": 18934,
    "part": 2571,
    "Ġday": 958,
    "consolation": 15150,
    "Ġstranded": 9773,
    "Ġbumpkins": 25281,
    "Ġcharing": 14179,
    "retch": 4370,
    "G": 43,
    "Ġdisinclined": 22527,
    "Ġabove": 2938,
    "Ġassuring": 13059,
    "Ġbadly": 12128,
    "ikes": 8087,
    "Ġseek": 4510,
    "gged": 3780,
    "Ġfacet": 15581,
    "tables": 19756,
    "Ġgret": 21599,
    "Ġsympat": 13337,
    "Ġecho": 12663,
    "ingale": 21298,
    "nature": 5359,
    "Ġpugnacious": 26450,
    "Ġsexes": 25168,
    "Ġdoub": 1835,
    "Ġanalog": 12609,
    "Ġstructure": 826,
    "Ġgallery": 10523,
    "ateful": 5927,
    "Ġequality": 16356,
    "iac": 6225,
    "ksome": 10103,
    "sartain": 25622,
    "Ġp": 288,
    "adieu": 26200,
    "augh": 1782,
    "Ġconsisting": 8970,
    "Ġgeneric": 18453,
    "cottage": 9568,
    "apparat": 22844,
    "Ġrickety": 26504,
    "wr": 3029,
    "screaming": 20324,
    "scratch": 26042,
    "Ġpropos": 7062,
    "sex": 12710,
    "Ġjonas": 20608,
    "pudding": 17646,
    "Ġtests": 8956,
    "Ġfunere": 22257,
    "past": 8090,
    "anyth": 5438,
    "Ġmoulded": 16974,
    "shavings": 22456,
    "spr": 7435,
    "Ġrough": 7187,
    "lingly": 9771,
    "ain": 343,
    "Ġhung": 4561,
    "gan": 2198,
    "leman": 21366,
    "reluct": 26163,
    "destroy": 19509,
    "asis": 12647,
    "Ġexchanging": 18132,
    "apped": 5395,
    "Ġtransition": 14232,
    "isance": 17847,
    "Ġseats": 14087,
    "dinah": 20079,
    "half": 4931,
    "itarian": 21335,
    "fair": 10091,
    "hetic": 12200,
    "izon": 18141,
    "Ġencourage": 10379,
    "Ġcaw": 13881,
    "Ġstreet": 2960,
    "Ġstiffly": 15004,
    "Ġfelt": 1744,
    "circumstances": 8047,
    "amidst": 25652,
    "Ġpleasantly": 14519,
    "declared": 15116,
    "Ġmouldy": 14972,
    "Ġsouth": 4911,
    "Ġcanaan": 22162,
    "ised": 1089,
    "ulia": 18148,
    "er": 269,
    "Ġaccustomed": 6861,
    "Ġswearing": 16463,
    "Ġcupidity": 24534,
    "Ġneskye": 21529,
    "especially": 3573,
    "fabulous": 20472,
    "Ġbra": 3255,
    "Ġallusions": 10905,
    "unders": 13307,
    "iction": 4268,
    "Ġputs": 19031,
    "Ġenabled": 9294,
    "Ġgro": 4396,
    "Ġleg": 2334,
    "tray": 21076,
    "output": 4401,
    "stool": 23817,
    "stories": 18023,
    "Ġinnocence": 6477,
    "Ġbeliever": 25845,
    "Ġunsc": 22012,
    "Ġunintermitted": 26219,
    "Ġvapors": 19907,
    "Ġelev": 5535,
    "č": 206,
    "Ġprincipally": 11308,
    "inging": 5907,
    "Ġspars": 3812,
    "Ġropes": 10747,
    "Ġlatin": 16820,
    "Ġislanders": 19500,
    "Ġvol": 4190,
    "questioning": 16849,
    "rods": 21536,
    "tort": 17674,
    "'": 11,
    "Ġpra": 4346,
    "Ġdependencies": 2313,
    "Ġworms": 25216,
    "Ġhydraul": 9512,
    "Ġscold": 10949,
    "achment": 5464,
    "Ġsleepy": 8268,
    "Ġreached": 4026,
    "Ġsynthe": 26007,
    "Ġsporting": 16998,
    "Ġtwitching": 25683,
    "Ġleaks": 16446,
    "Ġunceasing": 20356,
    "Ġburden": 8607,
    "comrade": 20623,
    "uning": 1313,
    "Ġ29": 23729,
    "Ġvind": 10248,
    "cooee": 12415,
    "harm": 13733,
    "nails": 17613,
    "pencil": 18826,
    "Ġvalued": 12179,
    "walk": 5523,
    "Ġhur": 2100,
    "halfway": 24310,
    "arson": 22746,
    "atory": 6125,
    "Ġpaused": 5416,
    "ille": 9218,
    "Ġtrade": 2545,
    "Ġperiodical": 14770,
    "Ġuninterrupted": 22044,
    "hanging": 10099,
    "fast": 3070,
    "Ġcarpet": 9354,
    "Ġtrans": 639,
    "wholly": 10940,
    "Ġsunset": 8961,
    "cork": 20795,
    "Ġjavelin": 26104,
    "Ġlamentations": 17075,
    "Ġstudent": 14477,
    "Ġextremities": 19194,
    "carefully": 13365,
    "Ġmiddle": 4140,
    "humour": 7498,
    "Ġimbued": 17453,
    "promised": 12248,
    "rom": 420,
    "Ġprocopius": 19729,
    "Ġmental": 21318,
    "Ġsog": 22082,
    "Ġheadstrong": 14386,
    "acute": 22596,
    "Ġadie": 8488,
    "Ġcontro": 1688,
    "Ġpoint": 2056,
    "Ġmum": 13856,
    "Ġmarvell": 7248,
    "itions": 4149,
    "itch": 10159,
    "Ġprimary": 25060,
    "Ġrhone": 25230,
    "Ġsqueezing": 25006,
    "Ġsailors": 4276,
    "pumps": 21026,
    "Ġsubfield": 11866,
    "Ġhue": 8429,
    "condem": 16341,
    "Ġequator": 7461,
    "Ġcaprice": 14575,
    "ture": 7558,
    "flour": 23963,
    "Ġstabbed": 25456,
    "Ġstrip": 9419,
    "Ġnight": 1464,
    "ses": 3028,
    "Ġafterwards": 3531,
    "Ġsubtle": 6716,
    "onent": 21247,
    "Ġfrock": 10488,
    "Ġflurry": 18854,
    "veral": 2352,
    "Ġcheer": 4070,
    "Ġbenevolent": 7773,
    "usually": 10284,
    "Ġproceeded": 5335,
    "rocket": 13942,
    "Ġastronomy": 25926,
    "bureau": 20788,
    "Ġspace": 1530,
    "Ġ\"": 6119,
    "Ġremove": 7499,
    "Ġbelly": 10368,
    "Ġslender": 11937,
    "Ġbubblingly": 25632,
    "Ġalgorithms": 859,
    "introduce": 25186,
    "Ġbuying": 23993,
    "Ġgibraltar": 25787,
    "Ġinsatiable": 19271,
    "Ġspr": 4028,
    "Ġunfair": 19506,
    "ishness": 22340,
    "Ġheard": 1399,
    "parted": 21015,
    "phantoms": 24679,
    "ĠĠĠĠĠĠĠĠĠĠĠĠĠĠĠĠĠĠĠĠĠĠ": 16224,
    "Ġwondrous": 4735,
    "arts": 6563,
    "Ġmysteries": 11321,
    "prehensible": 12357,
    "Ġcommodores": 25374,
    "Ġbottles": 16569,
    "Ġugly": 8715,
    "Ġdevelop": 1640,
    "diver": 20830,
    "Ġhandspike": 22696,
    "Ġsteepest": 3088,
    "Ġsuper": 2154,
    "Ġdreams": 7496,
    "confess": 12172,
    "itancy": 21331,
    "thanking": 24329,
    "Ġachieved": 13163,
    "Ġcommunity": 19008,
    "isa": 17845,
    "unction": 10233,
    "Ġpleaded": 16296,
    "fire": 6357,
    "ique": 8742,
    "ther": 481,
    "preserve": 25303,
    "ĠâĢĺ_": 11116,
    "troubled": 17111,
    "Ġpersonages": 23537,
    "ly": 319,
    "largely": 19573,
    "sav": 8097,
    "Ġfavoured": 16358,
    "henomen": 10493,
    "Ġmortification": 12090,
    "Ġwearisome": 19794,
    "contr": 12054,
    "dishon": 20402,
    "Ġlav": 13948,
    "Ġconsole": 8151,
    "Ġconsist": 1931,
    "inion": 2879,
    "Ġfingers": 5672,
    "Ġchance": 3318,
    "Ġcontrivance": 17182,
    "Ġportable": 19368,
    "conveyed": 20519,
    "Ġneatness": 19931,
    "hammock": 16351,
    "Ġpenalizing": 13087,
    "Ġflask": 3040,
    "till": 6965,
    "Ġsupported": 9816,
    "trivial": 21091,
    "Ġconfed": 13094,
    "stranded": 19224,
    "Ĳ": 243,
    "concealed": 25115,
    "mong": 15387,
    "Ġfort": 2576,
    "Ġmerits": 13193,
    "Ġdelightful": 6320,
    "entimes": 12653,
    "pop": 17630,
    "sympathy": 20541,
    "Ġsleeps": 10445,
    "Ġbl": 1186,
    "Ġerrors": 2594,
    "Ġraw": 3321,
    "iony": 9190,
    "Ġensuing": 12306,
    "========": 2311,
    "brother": 7091,
    "Ġdemand": 4947,
    "Ġspaces": 3111,
    "mate": 5358,
    "Ġdestitute": 14565,
    "Ġcarpenter": 4685,
    "profitable": 17070,
    "Ġdeceased": 15005,
    "Ġsubjects": 7072,
    "placidity": 25988,
    "Ġrussian": 14348,
    "ion": 296,
    "Ġeu": 6390,
    "successively": 24779,
    "Ġslugg": 15266,
    "contrasted": 17304,
    "social": 11021,
    "Ġlarboard": 11008,
    "ribly": 8255,
    "Ġrepugnant": 26589,
    "veil": 18042,
    "bots": 10081,
    "ine": 405,
    "Ġate": 8838,
    "Ġcarries": 7674,
    "iliar": 15710,
    "sand": 21051,
    "Ġcaptive": 14424,
    "Ġspan": 11725,
    "Ġlaunched": 14924,
    "european": 26371,
    "difficulty": 12387,
    "Ġvibrated": 25045,
    "Ġsalary": 13290,
    "Ġeas": 2351,
    "Ġissued": 10598,
    "Ġinvincible": 23478,
    "relation": 19445,
    "Ġwreat": 15528,
    "Ġanimate": 23421,
    "Ġdist": 682,
    "intellect": 18820,
    "Ġintelligible": 15938,
    "limping": 26392,
    "countenance": 6925,
    "Ġmelancholy": 5605,
    "Ġattractions": 12915,
    "ashed": 3787,
    "Ġrout": 7402,
    "Ġgritted": 22803,
    "Ġtypewritten": 16419,
    "male": 15386,
    "Ġmoustache": 20482,
    "worship": 19385,
    "urity": 8143,
    "trip": 21090,
    "Ġathirst": 20597,
    "Ġis": 347,
    "Ġeighteen": 11238,
    "ĠĠĠĠĠĠĠĠĠĠĠĠĠĠĠĠĠĠĠĠĠĠĠĠĠĠĠĠĠĠĠĠĠĠĠĠĠ": 14613,
    "Ġinfl": 6893,
    "Ġpict": 3499,
    "Ġfoolscap": 24157,
    "speptic": 23943,
    "Ġaristocratic": 20510,
    "zers": 21145,
    "Ġspake": 18308,
    "Ġhellish": 10549,
    "itous": 13865,
    "Ġstack": 21731,
    "Ġerred": 21155,
    "Ġworry": 18813,
    "Ġpettic": 14839,
    "Ġthinking": 4034,
    "Ġjeopard": 9941,
    "Ġcharcoal": 19006,
    "Ġputting": 5326,
    "angel": 5726,
    "Ġdeuteronomy": 15756,
    "accents": 19210,
    "brown": 15315,
    "Ġobjective": 3768,
    "thoroughly": 26507,
    "Ħ": 231,
    "vill": 10734,
    "Ġrudimental": 25108,
    "conduct": 11794,
    "Ġ1890": 23893,
    "Ġhosts": 19937,
    "leaves": 12575,
    "Ġunwell": 22015,
    "Ġcynicism": 25771,
    "spee": 9315,
    "gabriel": 15358,
    "Ġrapturously": 24888,
    "Ġsleek": 23382,
    "Ġunavailing": 26215,
    "hard": 4690,
    "Ġpike": 12620,
    "Ġal": 342,
    "Ġknitting": 24217,
    "Ġgrammars": 11401,
    "Ġpled": 17905,
    "Ġdrives": 14576,
    "Ġcouns": 10519,
    "Ġpenetrated": 13469,
    "sky": 12507,
    "failed": 20862,
    "Ġsolitudes": 22884,
    "Ġsuspicions": 9477,
    "Ġadaptive": 1304,
    "Ġequilib": 4138,
    "Ġtemptation": 8677,
    "Ġvoices": 7877,
    "Ġswitzerland": 10378,
    "Ġassertions": 19945,
    "Ġadapted": 11037,
    "iant": 5427,
    "Ġsaint": 15505,
    "Ġforests": 13589,
    "indeed": 4488,
    "vineyard": 25421,
    "Ġbriefly": 11366,
    "dham": 20829,
    "©": 107,
    "clifford": 23155,
    "gn": 8082,
    "vol": 727,
    "steam": 23957,
    "Ġdrab": 13067,
    "Ġpall": 7582,
    "eminently": 25105,
    "Ġabhorrence": 9051,
    "bour": 2073,
    "Ġundulated": 19515,
    "Ġbashee": 19848,
    "ulent": 21860,
    "Ġtinge": 25087,
    "murdered": 12199,
    "Ġprofits": 16488,
    "rically": 15415,
    "abby": 14019,
    "woods": 13416,
    "Ġheroic": 14906,
    "Ġsealed": 15815,
    "Ġconverse": 11841,
    "benevol": 12223,
    "Ġprehensile": 26533,
    "notwithstanding": 22749,
    "Ġpursued": 6328,
    "ales": 3317,
    "Ġconcoct": 19045,
    "Ġdragged": 6889,
    "tastes": 21095,
    "ground": 4672,
    "Ġpatiently": 19917,
    "Ġburning": 5977,
    "Ġdundee": 16996,
    "onic": 7828,
    "oused": 6556,
    "Ġthirt": 13937,
    "Ġthy": 2508,
    "Ġdependent": 14288,
    "Ġdialogue": 12401,
    "weather": 7229,
    "Ġruminated": 24600,
    "hears": 12529,
    "Ġcome": 1239,
    "lights": 13202,
    "Ġneighbor": 25803,
    "rians": 21923,
    "trial": 20349,
    "Ġsqualid": 14366,
    "occur": 19574,
    "Ġfrom": 434,
    "Ġpaddles": 15145,
    "Ġjib": 14192,
    "force": 12955,
    "Ġladen": 19176,
    "dozen": 23376,
    "Ġinterference": 8892,
    "Ġwar": 5526,
    "gratitude": 16815,
    "Ġtrumpet": 9572,
    "Ġrevelry": 15134,
    "vishnoo": 21118,
    "Ġsnugness": 20075,
    "Ġbeing": 1160,
    "Ġhush": 13208,
    "Ġdragg": 23212,
    "Ġethics": 15460,
    "Ġpreference": 9731,
    "last": 3805,
    "Ġs": 265,
    "Ġsubstantial": 14808,
    "perv": 1567,
    "Ġjing": 15946,
    "Ġsinew": 25431,
    "vable": 10131,
    "pat": 10115,
    "sided": 17663,
    "complain": 14355,
    "Ġcomposedly": 25183,
    "Ġpopular": 6216,
    "Ġinherent": 4592,
    "Ġspind": 18307,
    "Ġparac": 12792,
    "Ġimbedded": 18333,
    "absolutely": 10644,
    "orous": 5292,
    "Ġunh": 9251,
    "ª": 108,
    "fixed": 7548,
    "Ġpapered": 20129,
    "Ġconsideration": 5191,
    "Ġbaby": 6636,
    "ers": 406,
    "Ġprogress": 5023,
    "Ġcottage": 4734,
    "Ġcontinual": 6777,
    "pale": 13770,
    "Ġdedu": 5583,
    "itative": 13868,
    "Ġsuppressed": 11908,
    "Ġcorrespondence": 10593,
    "tier": 12511,
    "reposed": 24491,
    "Ġforging": 18093,
    "c": 71,
    "hastily": 19701,
    "Ġvilla": 14745,
    "Ġrepairs": 19081,
    "Ġanchors": 12610,
    "Ġrisks": 9962,
    "Ġransacked": 26503,
    "Ġhousekeeper": 7456,
    "animals": 24738,
    "Ġpow": 4638,
    "Ġinduce": 7763,
    "jolly": 20930,
    "birth": 15320,
    "disp": 7977,
    "romising": 18233,
    "Ġsoil": 9253,
    "Ġpawn": 12060,
    "Ġenchanted": 9079,
    "Ġscratching": 20367,
    "Ġign": 8294,
    "wic": 21119,
    "Ġeaster": 15671,
    "rival": 12739,
    "Ġpassengers": 13673,
    "alvan": 21502,
    "Ġsam": 7569,
    "Ġrepulsive": 14529,
    "Ġannotations": 25954,
    "Ġtil": 12520,
    "Ġfrenchman": 11282,
    "Ġcosine": 2370,
    "Ġsust": 7006,
    "Ġlegit": 16471,
    "Ġinvestigation": 9041,
    "Ġmended": 21312,
    "Ġnursery": 19749,
    "Ġoverwhelm": 25052,
    "Ġcounterpane": 11342,
    "Ġchiefly": 5766,
    "Ġuseful": 3559,
    "Ġbare": 6132,
    "rength": 4103,
    "etts": 12657,
    "Ġtumultuous": 10614,
    "Ġlandsc": 11145,
    "Ġoverjoy": 15969,
    "Ġpot": 2991,
    "artic": 14221,
    "Ġrainbows": 19647,
    "vell": 3961,
    "Ġstranger": 3487,
    "Ġfingertips": 24014,
    "Ġsafely": 9024,
    "Ġunfavourable": 17415,
    "ns": 759,
    "Ġconsequence": 5541,
    "farewell": 12303,
    "Ġmerryweather": 9520,
    "Ġwickedness": 9524,
    "rigging": 20004,
    "Ġchair": 3663,
    "Ġtackle": 9511,
    "Ġknock": 9971,
    "Ġrevisit": 21668,
    "Ġlawless": 19433,
    "Ġcarelessly": 11119,
    "Ġinterruptions": 24185,
    "Ġmean": 744,
    "Ġfurnishing": 16644,
    "ison": 3074,
    "spades": 14331,
    "tanh": 5204,
    "Ġpreser": 6041,
    "Ġsqualidness": 25842,
    "Ġframe": 1928,
    "linearity": 1652,
    "appe": 2946,
    "eping": 5833,
    "Ġsincerity": 13676,
    "reat": 618,
    "creat": 20799,
    "Ġglo": 1716,
    "Ġhelmsman": 10503,
    "Ġcas": 8411,
    "Ġredress": 23751,
    "Ġconceits": 19388,
    "Ġink": 8801,
    "Ġbasement": 24702,
    "quod": 2164,
    "Ġsnap": 11200,
    "Ġdressed": 5081,
    "Ġducking": 17145,
    "feeders": 25235,
    "Ġchron": 19436,
    "Ġrejected": 12291,
    "Ġregards": 16070,
    "gely": 10699,
    "Ġfluke": 14672,
    "wherever": 13115,
    "Ġspokes": 18313,
    "vacancies": 25919,
    "Ġ128": 24472,
    "arat": 9179,
    "Ġdeigned": 18138,
    "Ġpondering": 17004,
    "Ġunspeakable": 10054,
    "instrument": 15236,
    "Ġwa": 1753,
    "iety": 2822,
    "late": 11497,
    "Ġsingularly": 12145,
    "Ġarthur": 7196,
    "Ġkeeled": 18806,
    "Ġdumb": 7844,
    "Ġleak": 2160,
    "extric": 22767,
    "Ġuniformity": 23482,
    "Ġaccounts": 7207,
    "Ġcongratulate": 9062,
    "Ġtrivial": 10141,
    "Ġdocumentation": 20553,
    "Ġswish": 23051,
    "bent": 15309,
    "Ġabased": 22266,
    "Ġheroes": 10575,
    "everywhere": 23698,
    "Ġdemeanour": 17335,
    "nobody": 16132,
    "cu": 10082,
    "belonged": 25597,
    "Ġlees": 18075,
    "Ġeye": 2280,
    "Ġfamilies": 8027,
    "Ġcont": 621,
    "Ġke": 1153,
    "isle": 13890,
    "Ġzodiac": 16172,
    "province": 26072,
    "Ġplush": 18611,
    "ided": 2785,
    "Ġboasting": 19934,
    "Ġascertained": 25296,
    "cav": 17506,
    "ckets": 6843,
    "Ġproceeds": 12074,
    "Ġalready": 2710,
    "account": 5329,
    "ashtego": 4104,
    "Ġshipping": 14102,
    "Ġconsol": 3817,
    "uer": 21099,
    "swallowed": 14851,
    "Ġgruff": 21612,
    "Ġstrangled": 24133,
    "Ġdial": 10809,
    "Ġtortures": 14921,
    "Ġcheetah": 14501,
    "Ġbrimming": 22866,
    "accounted": 16500,
    "Ġadv": 1141,
    "poise": 6171,
    "Ġshadowed": 24044,
    "eneva": 5118,
    "Ġfirmament": 19469,
    "Ġassist": 3565,
    "Ġlime": 13946,
    "befall": 22493,
    "Ġdisposed": 7083,
    "list": 7551,
    "Ġbirth": 6524,
    "Ġetern": 7085,
    "sub": 4660,
    "na": 13758,
    "Ġbrazen": 23837,
    "Ġhoarsely": 26302,
    "Ġinsanity": 12044,
    "Ġimmensity": 25329,
    "apsed": 6295,
    "Ġneighbourhood": 5126,
    "Ġscowl": 22283,
    "Ġsurvey": 13590,
    "Ġ(": 596,
    "retired": 11933,
    "Ġvagu": 13586,
    "orne": 17872,
    "perquisites": 26530,
    "sul": 15419,
    "pression": 10406,
    "Ġvaults": 17152,
    "Ġimperson": 14217,
    "Ġblackest": 19098,
    "whaling": 7900,
    "95": 17476,
    "Ġrav": 14303,
    "moored": 22704,
    "Ġprevention": 16089,
    "Ġagreed": 7029,
    "cra": 6354,
    "Ġfestoon": 20293,
    "animated": 14973,
    "mblings": 19779,
    "ĠĠĠĠĠĠĠĠĠĠĠĠĠĠĠĠĠĠĠĠĠĠĠĠĠĠĠĠĠĠĠĠĠĠ": 14612,
    "queequeg": 4334,
    "Ġfriesland": 26441,
    "thing": 1479,
    "zag": 17712,
    "Ġtwins": 16117,
    "Ġtuck": 10139,
    "undoubtedly": 13308,
    "Ġsocietal": 11435,
    "expedition": 26078,
    "Ġparcel": 15197,
    "Ġche": 1762,
    "even": 3840,
    "Ġ89": 19711,
    "Ġblades": 11892,
    "Ġlogical": 14485,
    "Ġcracking": 14572,
    "Ġthoughts": 3138,
    "entiating": 3439,
    "Ġadditionally": 1170,
    "Ġdispositions": 13230,
    "subject": 6631,
    "Ġamphitheat": 26253,
    "Ġclut": 7641,
    "Ġarranging": 11173,
    "Ġresearches": 13125,
    "ħ": 232,
    "protested": 13471,
    "steering": 16634,
    "Ġdevil": 3614,
    "Ġnapkins": 25161,
    "Ġpoisonous": 24887,
    "Ġadopt": 10630,
    "Ġsplice": 19308,
    "spade": 10338,
    "Ġbam": 15562,
    "walls": 25345,
    "must": 3578,
    "Ġplaymate": 23640,
    "Ġglimp": 6066,
    "asher": 15642,
    "foreign": 18544,
    "Ġregions": 10322,
    "Ġinterven": 10996,
    "crane": 24098,
    "Ġoutrageous": 20609,
    "gave": 7800,
    "Ġattracted": 8903,
    "Ġbarmaid": 19334,
    "Ġextracting": 11112,
    "Ġceaseless": 13485,
    "Ġneglect": 7942,
    "Ġbestirred": 20450,
    "Ġtorrid": 25032,
    "Ġdemoniac": 15064,
    "Ġhull": 5446,
    "camp": 15328,
    "enough": 6809,
    "Ġtaffrail": 15474,
    "lake": 13747,
    "Ġjot": 11760,
    "Ġstun": 11648,
    "Ġcruis": 14623,
    "Ġformless": 22828,
    "Ġsince": 1796,
    "Ġunmanufactured": 20432,
    "Ġfeared": 5931,
    "circle": 16735,
    "independent": 26021,
    "Ġperpet": 7644,
    "Ġpermitting": 22398,
    "Ġconsistence": 23355,
    "Ġmarried": 3410,
    "Ġlangs": 13952,
    "Ġloft": 5642,
    "itect": 965,
    "rent": 1165,
    "Ġrattle": 10898,
    "aches": 6570,
    "nnight": 20992,
    "Ġclearness": 23182,
    "Ġuneasily": 24229,
    "eng": 1488,
    "otted": 14022,
    "Ġlying": 4825,
    "Ġspinning": 15051,
    "Ġinvolve": 11042,
    "Ġbands": 14882,
    "Ġfrosted": 19802,
    "Ġprincess": 23222,
    "Ġplatonian": 25118,
    "Ġclue": 7019,
    "backs": 9389,
    "Ġshuddering": 9050,
    "Ġriverside": 25247,
    "westward": 25424,
    "itiousness": 21332,
    "Ġah": 5075,
    "Ġdisgusting": 19893,
    "anders": 18152,
    "mell": 20963,
    "Ġembarr": 7447,
    "Ġlatent": 19654,
    "Ġcordially": 16835,
    "Ġstreamed": 14545,
    "vener": 21110,
    "hum": 3781,
    "Ġcircumspect": 15082,
    "Ġrick": 21968,
    "ru": 479,
    "Ġcompliment": 5673,
    "ayed": 12709,
    "Ġcruc": 16533,
    "Ġjavelins": 26105,
    "54": 15297,
    "Ġspot": 4156,
    "Ġhyena": 24518,
    "Ġstripped": 10464,
    "Ġnug": 21523,
    "unbounded": 21883,
    "prec": 3201,
    "libr": 22919,
    "Ġdecapitated": 20614,
    "Ġunprinciple": 18254,
    "Ġminority": 18752,
    "Ġmatrim": 11059,
    "sculpt": 16241,
    "Ġmanipulation": 10657,
    "Ġitem": 12698,
    "heim": 17745,
    "Ġlancaster": 26340,
    "Ġinseparable": 20687,
    "concluded": 11242,
    "Ġdiscretion": 10346,
    "trop": 15434,
    "nostr": 22713,
    "Ġpopulous": 16825,
    "typewritten": 26038,
    "Ġwomanly": 23547,
    "Ġlonged": 6436,
    "Ġimpart": 11777,
    "Ġenjoys": 19448,
    "Ġtiger": 11553,
    "ox": 9132,
    "haul": 14763,
    "Ġwithdrawing": 11339,
    "Ġthigh": 10185,
    "Ġnic": 7376,
    "Ġthousandth": 23684,
    "Ġli": 601,
    "ft": 908,
    "active": 16100,
    "vers": 1330,
    "Ġheiress": 20696,
    "etence": 21575,
    "rell": 11562,
    "Ġbond": 21382,
    "gall": 6359,
    "Ġthistle": 21914,
    "Ġascending": 14852,
    "Ġactionable": 24558,
    "inces": 13826,
    "shake": 22448,
    "ĠĠĠĠĠĠĠĠĠĠĠĠĠĠĠĠĠĠĠĠĠĠĠĠĠĠĠ": 14884,
    "Ġrosy": 18457,
    "Ġarter": 22180,
    "Ġtool": 21509,
    "Ġsolely": 9908,
    "Ġstructural": 2799,
    "enjoy": 10773,
    "interrupt": 8615,
    "Ġvice": 6548,
    "ead": 2597,
    "Ġmurmur": 14588,
    "opposing": 24825,
    "particulars": 11314,
    "rubbery": 17340,
    "ė": 216,
    "Ġheadache": 22897,
    "Ġsenseless": 12075,
    "seldom": 13785,
    "ria": 15791,
    "tro": 15431,
    "Ġcalmed": 16264,
    "Ġstreaked": 19113,
    "america": 17096,
    "Ġheroism": 24543,
    "Ġuntouched": 16464,
    "Ġholiday": 12993,
    "Ġterrier": 23397,
    "taining": 7206,
    "Ġskylight": 24071,
    "ents": 1895,
    "Ġsol": 1105,
    "Ġ1828": 25720,
    "ediction": 17944,
    "Ġlithe": 24668,
    "acon": 10680,
    "Ġexpressing": 12005,
    "Ġidentifies": 12011,
    "Ġsolutions": 1944,
    "Ġbloodthirsty": 26600,
    "arming": 8950,
    "Ġarticulate": 24431,
    "Ġsplinter": 23746,
    "Ġshrouded": 14967,
    "oundering": 11743,
    "Ġpositions": 2057,
    "Ġimaginative": 19246,
    "Ġsundering": 23273,
    "mblies": 24609,
    "mble": 1408,
    "wa": 5897,
    "Ġensigns": 23689,
    "Ġadmired": 7982,
    "Ġcompromising": 22571,
    "sec": 6152,
    "build": 12184,
    "Ġomen": 11574,
    "ica": 10197,
    "Ġsed": 10760,
    "fam": 5989,
    "Ġturn": 1297,
    "Ġmerchant": 6467,
    "Ġinstincts": 16985,
    "Ġpicking": 11258,
    "shad": 10980,
    "Ġdecorated": 22443,
    "ample": 1364,
    "Ġcalled": 1971,
    "Ġinfat": 14498,
    "owner": 18612,
    "Ġproposals": 10612,
    "Ġwouldst": 18501,
    "proceeded": 25190,
    "cad": 17503,
    "Ġwept": 7184,
    "Ġbackwoods": 22659,
    "Ġparticip": 16128,
    "flesh": 13487,
    "vember": 10854,
    "Ġpumps": 8427,
    "standard": 22434,
    "Ġward": 10154,
    "infer": 10143,
    "entials": 22656,
    "matter": 5136,
    "figures": 20120,
    "wers": 12516,
    "!âĢĶ": 2452,
    "lingering": 18601,
    "impressed": 12688,
    "Ġneskyeuna": 26458,
    "Ġrevers": 21662,
    "Ġlucifers": 16587,
    "ta": 13787,
    "Ġhaunt": 18197,
    "interested": 9504,
    "Ġcompl": 3762,
    "Ġinvoluntarily": 8547,
    "cheeks": 23806,
    "gentlemen": 9502,
    "Ġrashness": 25460,
    "Ġchain": 1842,
    "Ġpatron": 7463,
    "Ġappertaining": 26532,
    "ins": 1377,
    "bbs": 23692,
    "Ġrepresents": 4902,
    "Ġm": 274,
    "Ġrecollect": 8310,
    "Ġlordly": 23743,
    "Ġmaled": 21313,
    "clay": 18930,
    "Ġemph": 14524,
    "orn": 2239,
    "Ġbleeding": 14878,
    "vicious": 21117,
    "gue": 12464,
    "Ġbark": 10797,
    "Ġindistinctly": 26117,
    "upon": 2720,
    "Ġmeans": 699,
    "breaking": 14762,
    "Ġpersuasions": 16630,
    "âĢĻâĢĶ": 12734,
    "superior": 9523,
    "Ġobstin": 14951,
    "Ġcrammed": 16469,
    "committed": 18738,
    "Ġprec": 2922,
    "Ġsweating": 16461,
    "ember": 1952,
    "Ġsteeple": 19287,
    "Ġcomfortless": 23910,
    "Ġexamine": 7735,
    "Ġguiltless": 16939,
    "urried": 21702,
    "Ġstuck": 9219,
    "Ġluxur": 12338,
    "cceed": 4144,
    "tish": 17676,
    "comm": 7440,
    "ifferent": 4262,
    "knives": 14911,
    "Ġcarved": 7947,
    "Ġdisplayed": 10607,
    "Ġasserted": 16948,
    "Ġunav": 18240,
    "Ġdiligence": 17113,
    "Ġtrades": 8232,
    "getting": 12963,
    "Ġwildness": 14602,
    "_,âĢĿ": 6218,
    "Ġmarvelled": 18873,
    "Ġheightens": 24153,
    "ridge": 9495,
    "Ġwealth": 7620,
    "Ġbroiled": 18908,
    "71": 20755,
    "light": 3018,
    "Ġangle": 8601,
    "head": 1436,
    "ose": 718,
    "Ġkind": 1784,
    "wow": 21120,
    "Ġrattling": 11394,
    "unwittingly": 25801,
    "Ġanecdote": 26354,
    "Ġappalling": 8498,
    "wharf": 20605,
    "Ġstill": 1154,
    "Ġlucky": 7759,
    "rise": 6226,
    "Ġimp": 576,
    "slipping": 25528,
    "Ġlaurel": 20653,
    "Ġfancies": 10423,
    "Ġtask": 1310,
    "Ġ1": 1017,
    "Ġshoes": 7071,
    "iet": 1774,
    "Ġregent": 18591,
    "Ġhuge": 4700,
    "Ġbeauties": 10444,
    "hamed": 6305,
    "Ġheroine": 24542,
    "Ġenvironmental": 24033,
    "Ġconfine": 14509,
    "ization": 486,
    "Ġdivined": 19441,
    "Ġinscriptions": 20007,
    "Ġseverest": 14089,
    "Ġtalker": 23369,
    "Ġfurnaces": 24002,
    "Ġsuperlative": 26074,
    "bber": 4569,
    "Ġenvelopes": 24506,
    "centre": 17086,
    "Ġphysiogn": 12385,
    "Ġunex": 11710,
    "evid": 11483,
    "iation": 7343,
    "inj": 9150,
    "erring": 11056,
    "dried": 20826,
    ".]": 15296,
    "Ġofficially": 24838,
    "Ġintroduces": 3269,
    "sence": 3307,
    "Ġawkwardness": 13484,
    "landish": 11939,
    "ham": 1704,
    "Ġconfidently": 24957,
    "oriously": 17874,
    "Ġflock": 21410,
    "Ġbarn": 11585,
    "Ġscaled": 2106,
    "rief": 6202,
    "Ġfolded": 7768,
    "Ġmemo": 18119,
    "Ġspeakest": 23484,
    "ancholy": 5070,
    "Ġclumsy": 9578,
    "Ġdisposing": 19373,
    "Ġchimneys": 16971,
    "Ġkneel": 14805,
    "virt": 15449,
    "Ġjudges": 14684,
    "Ġsavor": 23873,
    "Ġlogger": 11950,
    "Ġinitial": 822,
    "ven": 784,
    "Ġreel": 9212,
    "Ġanalogy": 25639,
    "Ġjenkinson": 11430,
    "Ġpanting": 11600,
    "Ġshrew": 21998,
    "cely": 3575,
    "ague": 3908,
    "Ġimminent": 11244,
    "jewel": 20345,
    "pond": 21012,
    "ane": 1174,
    "buried": 14847,
    "Ġmabel": 17322,
    "suddenly": 6493,
    "atives": 2233,
    "hurry": 24763,
    "Ġinstructed": 19284,
    "âĢĶ.": 11752,
    "Ġjuggling": 20437,
    "Ġmiriam": 25273,
    "examined": 17265,
    "<PAD>": 0,
    "Ġcompass": 4409,
    "interchange": 23738,
    "lement": 10165,
    "ĠarchÃ¦": 22765,
    "Ġbowl": 11203,
    "Ġdeclares": 16991,
    "view": 5896,
    "cabin": 8363,
    "life": 4932,
    "Ġhastening": 19335,
    "Ġjerk": 16949,
    "Ġsincer": 13061,
    "Ġwillingness": 24910,
    "deemed": 18315,
    "Ġmitigating": 1614,
    "forgetting": 25485,
    "Ġmethodology": 2261,
    "arled": 21441,
    "Ġprejudices": 13466,
    "Ġheeded": 13400,
    "Ġdevotion": 22721,
    "Ġjoky": 18406,
    "hideous": 25407,
    "Ġmorocco": 26572,
    "Ġargemone": 24273,
    "Ġwhile": 607,
    "reserve": 17764,
    "signs": 16537,
    "worked": 19016,
    "Ġeyford": 10640,
    "21": 10070,
    "threshold": 21985,
    "Ġconversed": 13185,
    "Ġearlier": 9085,
    "Ġpul": 2041,
    "Ġbarbary": 24215,
    "Ġforemost": 12001,
    "Ġapproach": 849,
    "Ġelephants": 9862,
    "cas": 20793,
    "Ġwrit": 8242,
    "Ġclanging": 18422,
    "ament": 2436,
    "thereby": 14445,
    "impregnable": 26480,
    "Ġhessian": 3549,
    "Ġfollies": 16251,
    "side": 2300,
    "pursuit": 20339,
    "Ġprov": 4400,
    "Ġrib": 4936,
    "inexplicable": 25809,
    "rese": 15506,
    "Ġeventually": 8616,
    "Ġirresolute": 24916,
    "Ġgaily": 16747,
    "Ġveil": 7934,
    "bacc": 7795,
    "umbria": 23928,
    "Ġrepressed": 21666,
    "Ġgreatest": 4095,
    "algorith": 3627,
    "Ġabruptly": 15148,
    "Ġwow": 15526,
    "skinned": 25387,
    "Ġpoetry": 15078,
    "Ġexplicit": 3589,
    "avoiding": 25236,
    "Ġungod": 22022,
    "20": 20752,
    "regards": 23465,
    "conceal": 25114,
    "additional": 20462,
    "ower": 1008,
    "ĠĠĠĠĠĠĠĠĠĠĠĠĠĠĠĠĠĠĠĠĠĠĠĠĠĠĠĠĠĠĠĠĠĠĠĠĠĠ": 16525,
    "Ġtid": 8107,
    "cannon": 22960,
    "semic": 21818,
    "Ġmajesty": 5201,
    "Ġjourney": 3882,
    "Ġbegin": 3098,
    "Ġunansw": 22056,
    "follow": 5680,
    "Ġdat": 493,
    "Ġarchitectures": 2912,
    "Ġfaintly": 14913,
    "iard": 9600,
    "Ġneural": 620,
    "Ġmoderate": 10938,
    "Ġrumors": 11320,
    "Ġlighting": 13079,
    "when": 1588,
    "venerable": 26407,
    "sleepy": 24729,
    "Ġrelent": 18774,
    "Ġminut": 2203,
    "Ġdeclined": 9919,
    "Ġliveliness": 13640,
    "Ġsoothed": 10027,
    "uccas": 21105,
    "ably": 1845,
    "Ġfreighted": 16321,
    "unc": 15765,
    "Ġunreason": 15839,
    "Ġdetermination": 9817,
    "Ġapparel": 20434,
    "attempts": 17189,
    "Ġgrowing": 6750,
    "Ġstumble": 26481,
    "Ġsofas": 26224,
    "Ġwishes": 4795,
    "guilt": 24067,
    "Ġconjure": 17122,
    "croquet": 25747,
    "studies": 25166,
    "lacings": 26134,
    "welcome": 9999,
    "Ġwilled": 21290,
    "Ġarch": 926,
    "accuracy": 9877,
    "Ġunhing": 18241,
    "anchor": 13887,
    "scand": 18848,
    "assin": 22303,
    "volous": 18586,
    "Ġbraced": 16578,
    "Ġcommis": 22669,
    "Ġseldom": 4630,
    "Ġadro": 15864,
    "Ġ32": 19487,
    "appre": 14368,
    "Ġdisclosed": 15151,
    "_âĢĶâĢĻâĢĿ": 25741,
    "Ġhuggins": 24828,
    "Ġirregularity": 25324,
    "hotel": 20048,
    "tisement": 6767,
    "gossip": 23402,
    "persons": 24173,
    "Ġsystematically": 4406,
    "Ġthro": 5817,
    "Ġpreliminaries": 25176,
    "Ġkindred": 16372,
    "bulk": 19923,
    "Ġnarrations": 24351,
    "Ġalcoves": 26485,
    "beloved": 19459,
    "Ġlining": 13949,
    "iate": 6505,
    "Ġremedy": 18724,
    "Ġbelieves": 14405,
    "Ġoctober": 17225,
    "Ġembed": 1458,
    "Ġtied": 7357,
    "swim": 16778,
    "Ġeconomy": 17199,
    "inable": 11554,
    "causing": 25518,
    "Ġcertain": 1555,
    "flex": 24843,
    "Ġbacked": 12923,
    "hil": 8379,
    "Ġlasted": 11052,
    "fine": 10089,
    "onness": 21253,
    "Ġportraits": 20141,
    "Ġpoet": 8208,
    "Ġell": 17714,
    "Ġstaggered": 9537,
    "Ġbarred": 9001,
    "Ġminuteness": 19138,
    "Ġstaying": 8284,
    "Ġforegoing": 23448,
    "Ġundeceive": 25552,
    "Ġset": 1171,
    "Ġrevive": 13476,
    "Ġmechanically": 14403,
    "yl": 7819,
    "make": 5793,
    "Ġprojecting": 9983,
    "agger": 7873,
    "Ġtingling": 15090,
    "Ġasyl": 12731,
    "Ġinvented": 17036,
    "enc": 7574,
    "tland": 21072,
    "Ġchaos": 17008,
    "subst": 12161,
    "suspicions": 25391,
    "it": 276,
    "cating": 20801,
    "sensibility": 25023,
    "Ġtravels": 11924,
    "Ġpleasures": 11141,
    "Ġwindibank": 7257,
    "Ġindia": 10369,
    "Ġmirth": 15541,
    "eld": 967,
    "Ġclassify": 1618,
    "leading": 15558,
    "Ġlast": 1122,
    "Ġsinners": 18949,
    "struck": 7863,
    "pless": 6260,
    "Ġsegmentation": 17338,
    "Ġolfactories": 26171,
    "Ġstrait": 23749,
    "Ġcrashes": 13122,
    "Ġtorment": 8673,
    "snap": 24848,
    "Ġmichigan": 26425,
    "Ġunluck": 8484,
    "Ġorange": 8486,
    "noble": 7923,
    "valu": 1676,
    "Ġuttering": 16460,
    "Ġdegradation": 2630,
    "Ġfervently": 25877,
    "Ġthereof": 22366,
    "Ġroared": 7023,
    "Ġstreets": 5863,
    "Ġunmanner": 22027,
    "Ġcanvas": 7784,
    "Ġafghan": 22628,
    "Ġstretching": 10013,
    "Ġ(`": 12851,
    "Ġwarb": 17787,
    "remem": 13062,
    "aimed": 3954,
    "wont": 21131,
    "Ġdoran": 9178,
    "Ġconsented": 11294,
    "hill": 15360,
    "cies": 1814,
    "Ġcra": 2331,
    "Ġforbearance": 12325,
    "Ġincorporated": 25711,
    "madam": 24420,
    "Ġmonogra": 22975,
    "Ġswiftness": 9925,
    "Ġconclusions": 10552,
    "Ġdeceive": 12719,
    "Ġnotes": 7189,
    "Ġsoup": 7067,
    "ainted": 3660,
    "counter": 20277,
    "Ġmedicine": 15203,
    "Ġbel": 1216,
    "Ġintensely": 17016,
    "Ġrequ": 835,
    "Ġdream": 3538,
    "Ġcoburg": 18599,
    "Ġcalmness": 12089,
    "warrant": 21136,
    "Ġcous": 3438,
    "6": 26,
    "fil": 12459,
    "Ġdedication": 3218,
    "hood": 2657,
    "Ġseeing": 2888,
    "Ġapproxim": 1218,
    "Ġcens": 8413,
    "Ġshaking": 6551,
    "Ġshifted": 14105,
    "Ġperfectly": 3702,
    "shutters": 20310,
    "Ġcooked": 13266,
    "Â": 131,
    "Ġpassers": 18756,
    "giv": 13720,
    "can": 1230,
    "bel": 3838,
    "Ġpreparation": 13526,
    "Ġoldest": 12969,
    "related": 24009,
    "Ġpurch": 6599,
    "Ġinarticulate": 21498,
    "agre": 18164,
    "ladder": 19783,
    "Ġevident": 6612,
    "Ġceti": 24773,
    "Ġlengths": 19204,
    "ceptibly": 22352,
    "colnett": 19329,
    "Ġdegener": 14046,
    "Ġcock": 10998,
    "Ġallowed": 4062,
    "arers": 12126,
    "»": 124,
    "Ġthreat": 5154,
    "Ġshowed": 4497,
    "Ġcame": 1300,
    "ders": 8075,
    "indirect": 22370,
    "vic": 13800,
    "Ġblowing": 10483,
    "Ġclaim": 5106,
    "reas": 988,
    "Ġbeam": 2883,
    "ded": 2419,
    "aff": 3102,
    "Ġwilling": 7421,
    "Ġalb": 14014,
    "Ġlaborious": 13100,
    "ific": 487,
    "rudent": 6482,
    "Ġfob": 21408,
    "Ġadvertised": 17246,
    "rifice": 12500,
    "Ġresolve": 13167,
    "honorable": 19900,
    "wonderful": 16959,
    "mistaken": 12207,
    "ccas": 15882,
    "Ġdescribed": 6606,
    "orum": 12587,
    "Ġelizabeth": 1129,
    "Ġmetropol": 11144,
    "pper": 3208,
    "Ġremoval": 12114,
    "draughts": 20386,
    "bec": 4056,
    "chains": 9683,
    "Ġstairs": 5540,
    "appointment": 24058,
    "Ġopp": 2694,
    "counterpart": 26359,
    "Ġexceed": 1347,
    "rat": 8755,
    "Ġrejoicing": 13418,
    "Ġtelescopes": 25690,
    "Ġ112": 24436,
    "Ġoccasions": 7988,
    "Ġdistressed": 8514,
    "Ġvivacious": 19814,
    "Ġthey": 575,
    "Ġwarsaw": 26167,
    "gul": 12462,
    "Ġlip": 6532,
    "Ġslay": 16303,
    "ister": 1293,
    "furthermore": 20002,
    "shudder": 26245,
    "simon": 16972,
    "Ġunpleasing": 22053,
    "Ġcopse": 17066,
    "Ġillinois": 19136,
    "warmest": 25027,
    "Ġseasoned": 24404,
    "/`": 12426,
    "Ġinhabited": 12182,
    "Ġclimates": 25050,
    "Ġdeline": 16330,
    "rin": 10120,
    "Ġsympathised": 14860,
    "Ġgreenhorn": 23767,
    "Ġrighted": 23177,
    "hurrying": 14981,
    "Ġdangerously": 23934,
    "Ġearthy": 23712,
    "Ġenlarge": 21933,
    "Ġcaught": 3731,
    "Ġpomp": 12619,
    "july": 20473,
    "Ġhastily": 5763,
    "sense": 11522,
    "Ġborn": 5224,
    "magnitude": 17247,
    "ober": 15404,
    "immense": 18052,
    "engineer": 23146,
    "Ġslapped": 23169,
    "Ġauthors": 10415,
    "Ġdoors": 6418,
    "Ġwedged": 24069,
    "Ġlodgings": 8312,
    "Ġbas": 6380,
    "Ġclusters": 25232,
    "Ġsetbacks": 11062,
    "aced": 2405,
    "obviously": 25242,
    "Ġmincer": 14364,
    "ë": 172,
    "Ġviii": 16410,
    "Ġlighted": 7063,
    "Ġhighland": 18711,
    "Ġjumbled": 22295,
    "ntax": 932,
    "177": 20751,
    "Ġfeedforward": 2326,
    "sleep": 6511,
    "Ġsh": 419,
    "Ġislands": 6766,
    "Ġnail": 9194,
    "Ġbony": 12584,
    "51": 12428,
    "Ġrachel": 11844,
    "danish": 20832,
    "resol": 17759,
    "sighted": 19784,
    "become": 14245,
    "Ġvalu": 5038,
    "llable": 6878,
    "yond": 2329,
    "elder": 21570,
    "Ġapolog": 9042,
    "Ġsphynx": 20711,
    "Ġrejecting": 17050,
    "computer": 1972,
    "cask": 12443,
    "Ġowes": 20083,
    "Ġmermaid": 17813,
    "Ġanalytical": 22944,
    "Ġunworth": 22034,
    "Ġsome": 655,
    "Ġointment": 21324,
    "Ġtuning": 3072,
    "dispute": 23497,
    "Ġslice": 23158,
    "sme": 17657,
    "aching": 5831,
    "Ġirr": 10420,
    "Ġfeedback": 23431,
    "Ġbecher": 18879,
    "wretch": 17707,
    "Ġbewitching": 25976,
    "Ġannals": 17898,
    "Ġwake": 4749,
    "Ġtoward": 17946,
    "interview": 19298,
    "iliary": 21724,
    "Ġrights": 10395,
    "ef": 5134,
    "Ġhabits": 6926,
    "Ġsubdiv": 16156,
    "orted": 4604,
    "Ġcrouched": 23440,
    "chorus": 19810,
    "objections": 19915,
    "individual": 18436,
    "Ġcompacted": 23506,
    "Ġdavy": 25951,
    "repeated": 12336,
    "Ġcramped": 23527,
    "Ġrelentless": 26277,
    "Ġshears": 18319,
    "Ġrhyme": 21976,
    "harbors": 20147,
    "Ġadmits": 23550,
    "Ġhelen": 16654,
    "Ġtemptations": 24504,
    "obser": 11098,
    "Ġcherub": 23285,
    "Ġtrappers": 23080,
    "Ġofficious": 19346,
    "Ġomniscient": 20084,
    "inguished": 6598,
    "gration": 9120,
    "Ġconfessed": 8009,
    "Ġmanor": 14195,
    "Ġblotting": 25313,
    "Ġignoble": 19397,
    "trimmed": 23946,
    "Ġexercised": 24803,
    "Ġspeedily": 7712,
    "Ġtire": 17719,
    "herfield": 3632,
    "Ġtug": 11549,
    "Ġdeception": 18139,
    "nerable": 16271,
    "ulnerable": 18150,
    "Ġclosed": 4605,
    "Ġcondem": 6338,
    "Ġantip": 24176,
    "Ġten": 2383,
    "Ġattached": 5392,
    "Ġstoper": 14461,
    "Ġthre": 2059,
    "Ġwander": 9030,
    "Ġreligions": 20106,
    "ena": 11566,
    "Ġdoze": 14173,
    "Ġasylum": 13664,
    "Ġunnatural": 7190,
    "Ġunbending": 25464,
    "Ġseren": 7401,
    "Ġneglected": 10376,
    "Ġax": 7823,
    "Ġmissing": 6175,
    "pet": 4867,
    "conversations": 24749,
    "Ġdrop": 4344,
    "Ġpianoforte": 15271,
    "thes": 7391,
    "whosoever": 22238,
    "div": 8076,
    "uniform": 18157,
    "vice": 15447,
    "led": 581,
    "uneven": 23685,
    "fug": 17542,
    "Ġjetted": 24430,
    "Ġhushed": 13923,
    "Ġswitching": 23055,
    "Ġmaritime": 23035,
    "Ġresulting": 24197,
    "Ġuninjured": 22054,
    "Ġconceited": 12087,
    "Ġhumor": 11050,
    "Ġmanner": 2196,
    "Ġsuppressing": 22994,
    "Ġusual": 3945,
    "Ġtops": 14585,
    "accepted": 20135,
    "Ġvale": 14080,
    "Ġwithhold": 18115,
    "belief": 13278,
    "Ġahab": 1215,
    "Ġcatches": 23425,
    "Ġevolve": 3002,
    "Ġgreenness": 23766,
    "Ġsells": 21222,
    "Ġpronouncing": 16968,
    "commanders": 16988,
    "Ġseasons": 9429,
    "Ġsad": 3870,
    "Ġwindigate": 18910,
    "za": 13808,
    "Ġspilled": 10923,
    "mother": 5480,
    "Ġhump": 5853,
    "affected": 10475,
    "left": 6975,
    "Ġsig": 868,
    "Ġfetch": 7770,
    "cher": 5786,
    "fts": 18696,
    "Ġtapped": 11552,
    "Ġspec": 1260,
    "Ġsomnam": 23000,
    "olera": 21824,
    "niece": 20994,
    "Ġavailed": 23949,
    "occurred": 13334,
    "Ġtipt": 21172,
    "ĠÂ£": 5006,
    "Ġtamely": 24979,
    "Ġgloves": 8574,
    "Ġhighly": 4844,
    "Ġmartin": 25436,
    "clever": 20812,
    "ains": 5094,
    "royal": 11392,
    "Ġbracing": 16579,
    "Ġfoam": 6891,
    "Ġmapple": 11149,
    "osh": 18388,
    "Ġfarther": 5955,
    "Ġsatisfaction": 5667,
    "h": 76,
    "strugg": 21660,
    "moment": 3579,
    "Ġindoors": 18835,
    "Ġpoland": 23616,
    "clings": 23150,
    "Ġadhering": 14138,
    "Ġconcealing": 23900,
    "Ġslouched": 13054,
    "Ġhilariously": 25450,
    "Ġbeautifully": 13264,
    "Ġshortly": 6196,
    "Ġpump": 12618,
    "ades": 5631,
    "discover": 10538,
    "Ġdisapprobation": 16054,
    "Ġobtain": 8913,
    "Ġcorre": 3890,
    "Ġlearnable": 3998,
    "Ġmutual": 8296,
    "Ġcogn": 11001,
    "Ġtreat": 3174,
    "Ġsch": 13833,
    "result": 12041,
    "orated": 12588,
    "awakened": 14451,
    "Ġmantle": 25274,
    "iline": 21719,
    "yours": 7695,
    "Ġfully": 6342,
    "Ġhomely": 25219,
    "instinct": 19542,
    "Ġeliminating": 20618,
    "Ġisn": 7867,
    "Ġschedule": 2369,
    "Ġgener": 592,
    "ad": 337,
    "Ġpaternal": 16378,
    "Ġcharitable": 23268,
    "Ġcleanse": 24526,
    "see": 3047,
    "ording": 9762,
    "Ġbressed": 21385,
    "Ġoffensive": 18692,
    "Ġunreliable": 3931,
    "Ġcachalot": 17834,
    "Ġhanover": 20584,
    "Ġgir": 2251,
    "Ġtimidly": 11337,
    "occupation": 15057,
    "Ġmiserably": 12944,
    "Ġimpenetrable": 17395,
    "tired": 21071,
    "Ġhaw": 10250,
    "Ġfe": 491,
    "Ġbreathing": 9444,
    "Ġvengeance": 5885,
    "Ġlibrary": 6423,
    "Ġcaus": 1725,
    "perpetually": 20511,
    "Ġmalicious": 10556,
    "green": 7115,
    "Ġexceedingly": 4615,
    "Ġparson": 6687,
    "Ġsplashing": 16549,
    "Ġsummit": 7731,
    "ghan": 19453,
    "hors": 9597,
    "icult": 3341,
    "Ġtufted": 17013,
    "Ġgrie": 3584,
    "dissatisfied": 26611,
    "ignorance": 17160,
    "Ġhimmale": 18329,
    "Ġseventh": 18206,
    "Ġtaste": 5524,
    "large": 6625,
    "s": 87,
    "Ġmode": 8499,
    "Ġsubstances": 24164,
    "osoever": 17341,
    "Ġfle": 3091,
    "probably": 10018,
    "Ġlayer": 1012,
    "Ġhaught": 10251,
    "Ġbulge": 23855,
    "handsome": 13173,
    "angels": 22104,
    "Ġfanny": 23389,
    "Ġconstit": 8583,
    "nantucketer": 24974,
    "cond": 1668,
    "absence": 12705,
    "mercenary": 26315,
    "cherries": 19755,
    "whether": 5319,
    "cousins": 20116,
    "tit": 11526,
    "Ġblazing": 11893,
    "Ġdepose": 22593,
    "Ġbrushed": 15567,
    "Ġgeneva": 5450,
    "Ġlagged": 21556,
    "Ġrecompense": 14836,
    "Ġincrust": 22548,
    "@": 36,
    "Ġrepining": 23359,
    "Ġentertainment": 12219,
    "Ġwhereas": 3857,
    "y": 93,
    "aking": 975,
    "Ġexplored": 23515,
    "thr": 12757,
    "Ġcongregated": 20095,
    "Ġbarbarous": 13473,
    "warks": 5004,
    "^": 66,
    "Ġ28": 19294,
    "Ġcalling": 5662,
    "Ġbreaks": 13182,
    "epilogue": 22098,
    "Ġhorizontally": 17011,
    "Ġrocky": 13384,
    "Ġpolluted": 25593,
    "Ġinvestment": 24335,
    "Ġapproximation": 2340,
    "Ġmysticetus": 24922,
    "Ġgentleman": 3041,
    "orte": 14183,
    "Ġdreaminess": 23937,
    "daring": 20828,
    "Ġghast": 9208,
    "Ġglobu": 23270,
    "Ġsuddenly": 2645,
    "Ġbreckinridge": 14522,
    "Ġfeature": 754,
    "Ġutility": 23511,
    "Ġcurls": 23024,
    "Ġshares": 23245,
    "catch": 17505,
    "Ġbrace": 11210,
    "iously": 2674,
    "hel": 4814,
    "brilliancy": 26077,
    "wra": 11540,
    "Ġfoster": 18991,
    "execut": 13652,
    "Ġarchly": 22764,
    "Ġcigarette": 20655,
    "Ġpoising": 22589,
    "streets": 13392,
    "Ġdegenerating": 25799,
    "Ġlived": 3994,
    "acies": 14276,
    "comes": 5394,
    "ă": 196,
    "ibank": 6880,
    "Ġfled": 6670,
    "Ġnegatived": 23046,
    "hatch": 15362,
    "stiff": 12672,
    "Ġasph": 21896,
    "Ġfusion": 21413,
    "proceeding": 20140,
    "Ġcontextual": 3743,
    "Ġaffidavit": 20723,
    "Ġappeals": 16312,
    "ateg": 1316,
    "Ġanswerable": 23469,
    "Ġcoiling": 12902,
    "Ġcongealed": 25981,
    "Ġmeth": 1407,
    "Ġformed": 3886,
    "Ġvain": 3631,
    "Ġwrath": 16313,
    "gl": 3292,
    "Ġperformance": 1307,
    "tum": 11530,
    "inkle": 22616,
    "hend": 13249,
    "Ġwear": 6031,
    "chron": 21692,
    "Ġconstitutes": 13549,
    "Ġclustered": 25233,
    "gd": 3125,
    "Ġdetestation": 17126,
    "now": 548,
    "term": 3761,
    "sleeping": 13451,
    "Ġboon": 22635,
    "Ġparched": 11724,
    "rol": 5713,
    "Ġsentimental": 24754,
    "Ġmorbidness": 20627,
    "started": 10844,
    "Ġleader": 14700,
    "Ġthe": 270,
    "Ġthrone": 12210,
    "Ġsupplying": 19797,
    "Ġfors": 21769,
    "row": 1067,
    "Ġsymp": 4503,
    "Ġmetaphysical": 26070,
    "gam": 10094,
    "Ġlid": 6983,
    "Ġwhosoever": 21717,
    "at": 268,
    "intelligent": 16843,
    "br": 2475,
    "Ġpractically": 13099,
    "Ġsk": 961,
    "Ġclung": 10956,
    "Ġempires": 19073,
    "Ġterrified": 14670,
    "Ġsemi": 11965,
    "Ġlobes": 22113,
    "Ġunaccountably": 26514,
    "Ġstory": 2904,
    "Ġinvests": 14866,
    "below": 12118,
    "Ġsnuff": 7992,
    "urre": 10855,
    "smith": 5669,
    "Ġappeal": 16311,
    "Ġcounters": 24139,
    "flood": 19805,
    "otions": 7180,
    "Ġhedgehogs": 25394,
    "Ġmerest": 14029,
    "Ġbitterly": 8315,
    "Ġbefell": 14008,
    "Ġbridegroom": 10603,
    "Ġdishon": 12227,
    "lun": 20945,
    "Ġexecut": 4247,
    "together": 3557,
    "sac": 7140,
    "Ġalbert": 12703,
    "Ġrel": 1099,
    "Ġdesert": 6726,
    "lust": 15377,
    "matic": 4619,
    "canallers": 22962,
    "observation": 17268,
    "naturalist": 23560,
    "Ġfre": 1570,
    "Ġlistless": 16474,
    "Ġthither": 6821,
    "ended": 1833,
    "Ġstoutly": 16923,
    "Ġlashes": 17966,
    "Ġmute": 19414,
    "Ġcharmingly": 24220,
    "data": 2324,
    "professional": 20274,
    "Ġ*/": 10372,
    "Ġwail": 21285,
    "Ġsegment": 12754,
    "Ġweariness": 19793,
    "Ġinsinuating": 19270,
    "rix": 1573,
    "rumours": 23897,
    "shoe": 14965,
    "Ġfrancisco": 26064,
    "Ġdrowsy": 26443,
    "Ġj": 533,
    "to": 714,
    "outward": 22158,
    "wolf": 26408,
    "Ġunwinding": 22058,
    "Ġfreshly": 23984,
    "bos": 17482,
    "Ġnorthumbria": 24170,
    "U": 57,
    "geon": 6270,
    "rible": 3228,
    "Ġjoker": 22296,
    "Ġlistening": 6318,
    "Ġpuzzling": 14894,
    "thed": 8825,
    "chors": 11642,
    "Ġhappy": 2463,
    "Ġquadrille": 13538,
    "isation": 13891,
    "teen": 6370,
    "Ġattraction": 18625,
    "Ġconnections": 971,
    "Ġlavater": 20494,
    "Ġplanisp": 24056,
    "Ġpaunch": 23748,
    "Ġsixteen": 8283,
    "Ġenem": 4708,
    "Ġsp": 457,
    "<MASK>": 4,
    "occasion": 7754,
    "Ġsmart": 11812,
    "Ġschedu": 1823,
    "Ġoffended": 7040,
    "Ġwrinkles": 8570,
    "Ġjungfrau": 15246,
    "Ġsucc": 12780,
    "mechan": 11854,
    "Ġdistillation": 16042,
    "shut": 10979,
    "balance": 12003,
    "Ġmed": 3990,
    "Ġnowhere": 12883,
    "Ġlady": 1584,
    "Ġcoil": 11815,
    "Ġalongside": 6311,
    "Ġisle": 8831,
    "ilies": 18056,
    "Ġmassa": 19452,
    "Ġ550": 19640,
    "chambers": 25454,
    "Ġexchange": 15752,
    "Ġpantheistic": 26335,
    "Ġpassionate": 11272,
    "Ġinc": 702,
    "bit": 3934,
    "Ġspar": 10920,
    "Ġhurry": 4913,
    "Ġguilty": 7250,
    "scenes": 16240,
    "Ġeditions": 19120,
    "Ġindiscriminately": 20626,
    "Ġinmost": 17930,
    "four": 6113,
    "ale": 506,
    "Ġcolleague": 17158,
    "Ġfru": 8420,
    "Ġsecretary": 19440,
    "Ġprimitive": 25061,
    "Ġtoilet": 13935,
    "holder": 13279,
    "Ġdetained": 18377,
    "Ġenchanting": 17038,
    "Ġawe": 7147,
    "Ġwards": 17789,
    "Ġdisquiet": 18552,
    "Ġlose": 5028,
    "Ġindustry": 18836,
    "Ġnation": 12644,
    "Ġcontemplate": 19891,
    "Ġpart": 861,
    "Ġloops": 8851,
    "Ġrepugn": 23362,
    "relig": 15510,
    "clopÃ¦": 13051,
    "Ġtotal": 4993,
    "Ġfame": 21404,
    "Ġfloats": 9411,
    "ĠâĢĻ": 3043,
    "Ġlanc": 19763,
    "Ġcauldron": 25441,
    "Ġorgans": 15862,
    "rocious": 21537,
    "Ġindiscreet": 22954,
    "Ġexe": 3997,
    "Ġgestures": 13533,
    "Ġdeaths": 14536,
    "Ġcond": 3877,
    "Ġfetching": 16895,
    "et": 307,
    "goldsmith": 20146,
    "Ġless": 1936,
    "Ġproperly": 7945,
    "Ġspurn": 18309,
    "app": 1041,
    "occup": 7753,
    "Ġtant": 12521,
    "Ġdrama": 16326,
    "rised": 10122,
    "Ġany": 688,
    "._": 3221,
    "enthus": 17977,
    "hau": 17561,
    "Ġthackeray": 26454,
    "Ġpremeditated": 22232,
    "Ġcommentaries": 20159,
    "Ġstake": 14001,
    "protest": 24815,
    "eluded": 21573,
    "leviathans": 19936,
    "Ġbehaviors": 13251,
    "Ġcommercial": 22672,
    "Ġtempted": 9055,
    "Ġpuffing": 12251,
    "Ġxviii": 23408,
    "Ġcluster": 13568,
    "carp": 9108,
    "Ġdropt": 23676,
    "bable": 8718,
    "Ġshreds": 12767,
    "crated": 16695,
    "oth": 1181,
    "Ġnonsensical": 21527,
    "honey": 20904,
    "beside": 19876,
    "del": 4079,
    "Ġclay": 7018,
    "prevented": 20372,
    "attached": 11932,
    "Ġundressed": 19512,
    "Ġdl": 3379,
    "Ġthee": 2621,
    "Ġperceive": 6699,
    "Ġbeacon": 21754,
    "annica": 24560,
    "Ġconve": 5455,
    "testing": 12513,
    "acks": 11785,
    "Ġspeckled": 14306,
    "Ġbolivia": 24667,
    "Ġrevolved": 9982,
    "Ġtahitian": 25427,
    "Ġeligible": 10669,
    "Ġhot": 4257,
    "stock": 13218,
    "Ġsult": 10766,
    "Ġverbal": 19377,
    "Ġpal": 4045,
    "Ġlastly": 16202,
    "ulsive": 10232,
    "Ġblocked": 19221,
    "Ġunconcern": 14115,
    "killer": 20474,
    "Ġprolonged": 8358,
    "ivates": 18280,
    "deliber": 17424,
    "Ġvehemently": 26039,
    "Ġoccur": 1085,
    "Ġunlike": 7004,
    "Ġweeds": 21922,
    "vity": 7816,
    "first": 3936,
    "abriel": 6950,
    "sigma": 3003,
    "ures": 838,
    "Ġpel": 17902,
    "Ġdenied": 8999,
    "Ġpenny": 16310,
    "Ġcorporeal": 17358,
    "Ġjer": 6266,
    "Ġcord": 5222,
    "commun": 15032,
    "fury": 17546,
    "Ġsa": 474,
    "Ġflo": 2586,
    "Ġquench": 22417,
    "atherley": 7220,
    "1775": 26377,
    "Ġberg": 24535,
    "cles": 8725,
    "innocence": 15181,
    "admirably": 24944,
    "tubes": 25211,
    "Ġcolonel": 3409,
    "breath": 15160,
    "Ġactivation": 916,
    "Ġnailing": 21525,
    "Ġbaron": 19333,
    "je": 11494,
    "Ġworried": 22922,
    "Ġthenceforth": 25182,
    "iosity": 2618,
    "Ġwedge": 24068,
    "ires": 6038,
    "Ġvirginia": 13497,
    "Ġcoopers": 20520,
    "Ġsecured": 6745,
    "recl": 15508,
    "Ġsemblance": 20733,
    "Ġric": 18209,
    "Ġemperors": 15157,
    "il": 329,
    "unks": 15771,
    "Ġdeliber": 7268,
    "utes": 5914,
    "Ġrehears": 15696,
    "Ġgleams": 17308,
    "bles": 7017,
    "ver": 331,
    "Ġstrewed": 23420,
    "Ġgills": 17992,
    "Ġdiscrimin": 2544,
    "whose": 6852,
    "omach": 11632,
    "Ġenemies": 9037,
    "umbling": 6758,
    "Ġmarvels": 11083,
    "arded": 5029,
    "Ġdesired": 4665,
    "Ġsends": 14788,
    "Ġthack": 21515,
    "Ġsiam": 13836,
    "Ġrecognise": 12040,
    "tap": 17675,
    "Ġphilosop": 5057,
    "els": 1763,
    "exam": 10975,
    "functions": 11227,
    "Ġunhinged": 26216,
    "Ġlegible": 23530,
    "Ġunholy": 26218,
    "Ġpurport": 14579,
    "Ġassu": 21895,
    "Ġireland": 17333,
    "Ġvalley": 5850,
    "Ġdisposition": 5409,
    "Ġabundantly": 17155,
    "Ġdread": 3162,
    "Ġencomp": 12959,
    "Ġnightmare": 18919,
    "pregn": 18500,
    "Ġabsorbed": 12328,
    "incl": 8110,
    "Ġvariety": 8530,
    "speech": 10665,
    "Ġhorn": 6185,
    "Ġhenceforth": 19646,
    "Ġgest": 8134,
    "Ġprank": 23217,
    "Ġclubs": 25179,
    "hval": 20897,
    "Ġtales": 10140,
    "Ġwester": 25152,
    "Ġmagician": 25058,
    "phil": 7926,
    "abhor": 12704,
    "Ġwelcome": 5603,
    "Ġclothe": 4712,
    "hammer": 14488,
    "extreme": 11028,
    "Ġundivided": 24120,
    "Ġsweep": 8266,
    "Ġsty": 6251,
    "Ġvisitor": 5330,
    "Ġregulate": 22578,
    "Ġintervening": 17266,
    "Ġlinear": 3434,
    "Ġduplicate": 17214,
    "oil": 7806,
    "inch": 10754,
    "Ġjump": 4505,
    "composure": 24032,
    "Ġsuffer": 4722,
    "Ġshoal": 12012,
    "Ġsharpened": 17363,
    "cheerfulness": 20179,
    "Ġstoutest": 24629,
    "knew": 9125,
    "Ġascribed": 14853,
    "Ġcopying": 17067,
    "Į": 239,
    "Ġroast": 18455,
    "prisoner": 20542,
    "Ġstruggling": 12071,
    "iter": 4391,
    "Ġobsolete": 26557,
    "cheerful": 13572,
    "handled": 19260,
    "Ġmarking": 16467,
    "Ġhelmet": 19686,
    "rayed": 23559,
    "Ġclos": 4550,
    "Ġkill": 4455,
    "hic": 3249,
    "Ġmac": 15535,
    "silenced": 24422,
    "Ġvulgarity": 25363,
    "Ġcaul": 10786,
    "Ġbarrow": 12066,
    "Ġcomprising": 16065,
    "onde": 21250,
    "Ġsnatched": 10470,
    "Ġfleets": 23773,
    "oky": 8198,
    "metallic": 19879,
    "onze": 21254,
    "Ġbuilt": 8301,
    "ivation": 3110,
    "Ġjacob": 1897,
    "Ġstrung": 22613,
    "Ġindex": 17048,
    "prom": 6509,
    "approb": 11041,
    "Ġtable": 2495,
    "flukes": 25205,
    "ved": 869,
    "Ġmundane": 26428,
    "Ġsummers": 23871,
    "nearer": 22462,
    "Ġenigmatical": 20596,
    "mix": 20973,
    "Ġdisordered": 16051,
    "mod": 1020,
    "cell": 10684,
    "leo": 21362,
    "Ġreddening": 25970,
    "Ġinsurgents": 26599,
    "frau": 15087,
    "spl": 9138,
    "Ġscriptures": 26235,
    "Ġacquainted": 5179,
    "Ġtolland": 24990,
    "hued": 20910,
    "Ġabatement": 22274,
    "Ġdardanelles": 26442,
    "Ġabutted": 22273,
    "Ġhandspikes": 12935,
    "arance": 4698,
    "inordinate": 21193,
    "Ġmonsie": 11446,
    "ville": 6088,
    "Ġsounded": 8590,
    "youngest": 19742,
    "Ġreliably": 22878,
    "asion": 5714,
    "Ġdisappearance": 9295,
    "Ġdizzy": 21431,
    "tempt": 21078,
    "Ē": 211,
    "wishing": 21127,
    "Ġum": 10210,
    "Ġmoving": 1680,
    "Ġinnocent": 4921,
    "Ġfortresses": 23620,
    "Ġoffing": 16140,
    "Ġbelieve": 2148,
    "mistake": 24528,
    "ceived": 1961,
    "Ġnecessitates": 23926,
    "Ġgot": 2279,
    "returned": 7766,
    "easy": 9591,
    "masterly": 24529,
    "dimens": 2316,
    "Ġbethink": 12376,
    "Ġpauses": 14813,
    "Ġlest": 6395,
    "Ġheel": 9682,
    "Ġarrowy": 25469,
    "anded": 5923,
    "Ġamber": 7026,
    "ick": 837,
    "sorting": 17003,
    "illuminated": 17451,
    "Ġstooped": 14462,
    "doubt": 6782,
    "sleeve": 26108,
    "Ġstillness": 12990,
    "bod": 12434,
    "Ġubiqu": 18046,
    "unwilling": 14059,
    "straight": 9938,
    "wled": 15452,
    "ime": 625,
    "etency": 21580,
    "Ġpinched": 17034,
    "bingley": 4927,
    "Ġindu": 5293,
    "Ġthin": 4347,
    "Ġappears": 5402,
    "leton": 5148,
    "Ġamounts": 6704,
    "tri": 11528,
    "invari": 21183,
    "ď": 208,
    "circum": 16736,
    "case": 5206,
    "Ġpossesses": 19350,
    "sutherland": 21061,
    "star": 12669,
    "ersed": 10258,
    "Ġquieted": 23840,
    "Ġfl": 1279,
    "Ġrecurring": 23230,
    "children": 9054,
    "Ġimproper": 22750,
    "Ġbu": 3683,
    "found": 4214,
    "Ġhack": 12753,
    "years": 6883,
    "Ġturk": 6603,
    "hester": 9630,
    "Ġprocuring": 16867,
    "uteronomy": 15660,
    "Ġwater": 1945,
    "unte": 21871,
    "these": 3241,
    "Ġegotistical": 26191,
    "oper": 7347,
    "Ġalternative": 19985,
    "word": 2484,
    "pierced": 26141,
    "archbishop": 22891,
    "Ġslight": 3119,
    "Ġlocket": 22111,
    "Ġ9": 5901,
    "mediate": 16512,
    "Ġattributed": 11833,
    "Ġexig": 21825,
    "ccarthy": 4888,
    "Ġridicule": 13509,
    "Ġmason": 10156,
    "twinkle": 23703,
    "oysius": 14363,
    "Ġresignation": 18566,
    "etition": 7382,
    "fitting": 1508,
    "Ġargument": 7098,
    "Ġpen": 1532,
    "Ġtwin": 12925,
    "Ġmuttered": 7086,
    "turkish": 24532,
    "sh": 643,
    "Ġliberated": 19665,
    "Ġwaits": 23277,
    "Ġreporting": 24657,
    "Ġintellect": 8170,
    "Ġannesley": 19576,
    "Ġsemantic": 1954,
    "Ġdiversion": 17196,
    "Ġbreat": 3463,
    "Ġoysters": 20577,
    "Ġlays": 15986,
    "ized": 1528,
    "sight": 5995,
    "entering": 17976,
    "gracechurch": 24580,
    "americ": 8156,
    "Ġrealism": 18984,
    "Ġguest": 7249,
    "pans": 13768,
    "Ġwheeled": 14137,
    "erity": 21266,
    "however": 4372,
    "Ġimpudence": 26241,
    "ic": 304,
    "Ġdiscomposed": 25580,
    "Ġcrushed": 9421,
    "Ġtrowsers": 9626,
    "iger": 8446,
    "umb": 3480,
    "usage": 12830,
    "Ġwhole": 1664,
    "Ġroots": 11184,
    "break": 6101,
    "sey": 5542,
    "Ġdefendants": 15138,
    "fulfilment": 26024,
    "system": 4380,
    "iday": 8828,
    "Ġglistening": 12362,
    "Ġpressing": 9259,
    "Ġtemporal": 2610,
    "affections": 17355,
    "Ġcyn": 13884,
    "animation": 16978,
    "Ġquestion": 2778,
    "Ġcautiously": 16976,
    "perth": 22183,
    "ofs": 11827,
    "Ġguar": 23044,
    "Ġrelaps": 18775,
    "Ġimpersonal": 17394,
    "unhesitatingly": 26495,
    "Ġmethods": 3159,
    "Ġcruelly": 13372,
    "Ġand": 295,
    "ense": 2052,
    "Ġmissionary": 25696,
    "ids": 21761,
    "Ġgrating": 14353,
    "Ġextract": 1563,
    "Ġsoap": 14131,
    "Ġintelligently": 4504,
    "portent": 25412,
    "Ġkeels": 11060,
    "liness": 8746,
    "Ġmix": 7576,
    "eldom": 4414,
    "hide": 10702,
    "Ġboards": 14298,
    "extraordinary": 9093,
    "Ġ41": 24078,
    "Ġrue": 11864,
    "mort": 10709,
    "Ġitalian": 12407,
    "gammon": 20242,
    "Ġdisp": 3361,
    "Ġseventy": 7881,
    "Ġmanaging": 22323,
    "Ġhearty": 9843,
    "Ġentitled": 8538,
    "Ġvarious": 3510,
    "Ġnotions": 14097,
    "liberal": 26281,
    "Ġdogs": 7742,
    "Ġintent": 6409,
    "Ġbuck": 7157,
    "Ġinspiring": 19112,
    "Ġrebell": 21667,
    "isms": 12577,
    "Ġjohn": 5032,
    "Ġbroad": 3641,
    "rugged": 6849,
    "Ġbountiful": 25944,
    "Ġown": 1007,
    "dman": 10087,
    "Ġgirth": 13133,
    "Ġworthless": 19564,
    "Ġletting": 10361,
    "Ġassuming": 16692,
    "Ġinvitation": 5189,
    "Ġactive": 7916,
    "ful": 661,
    "Ġleaking": 21743,
    "Ġgroans": 14822,
    "gg": 1994,
    "Ġbushes": 16397,
    "Ġcanes": 22159,
    "Ġwars": 17785,
    "ļ": 253,
    "Ġconting": 18472,
    "isters": 11916,
    "resistible": 10642,
    "Ġsched": 2336,
    "lonely": 20956,
    "Ġmomentarily": 22811,
    "Ġmurdering": 14809,
    "classes": 12132,
    "Ġassociate": 13447,
    "Ġlean": 7605,
    "Ġfiles": 21412,
    "Ġgenerally": 4159,
    "descend": 23084,
    "Ġgenerous": 6273,
    "Ġmagnet": 10389,
    "remembrance": 25702,
    "attempted": 20173,
    "Ġcoff": 3508,
    "suit": 18631,
    "Ġpanther": 16818,
    "Ġtent": 15465,
    "Ġgen": 5296,
    "sworn": 24255,
    "ĠĠĠĠ": 460,
    "Ġfireplace": 13142,
    "weight": 2942,
    "haw": 6361,
    "Ġbarbaric": 10012,
    "warm": 8102,
    "Ġinvesting": 19645,
    "Ġpasture": 14542,
    "Ġcolossal": 11458,
    "Ġrambled": 20167,
    "tempted": 26402,
    "Ġcurse": 7668,
    "fear": 8513,
    "Ġcontact": 9279,
    "Ġinsertion": 26343,
    "Ġont": 18116,
    "Ġungodly": 26512,
    "enial": 17779,
    "mouse": 15390,
    "Ġphysical": 7522,
    "Ġunique": 12775,
    "Ġinattention": 17931,
    "Ġrender": 8305,
    "Ġrevolve": 19728,
    "Ġturning": 3327,
    "Ġtranced": 18426,
    "Ġsomewhere": 5384,
    "momentum": 4991,
    "urmountable": 15277,
    "Ġrelevance": 5184,
    "ordingly": 18518,
    "butter": 11783,
    "Ġwillingly": 8883,
    "Ġpedest": 14994,
    "Ġreiterating": 26473,
    "spersed": 22733,
    "Ġflattering": 13020,
    "ominy": 13976,
    "swelled": 19609,
    "Ġcreature": 2380,
    "Ġadmirers": 19685,
    "Ġbrains": 2629,
    "Ġgunw": 6212,
    "Ġsnatch": 14638,
    "Ġthroes": 24573,
    "Ġfootsteps": 16571,
    "depth": 12797,
    "estruct": 22225,
    "Ġbeads": 18083,
    "Ġamiss": 18515,
    "atible": 17771,
    "Ġvine": 8471,
    "ortion": 11754,
    "Ġstaple": 26198,
    "Ġlunging": 24991,
    "Ġbo": 796,
    "Ġconstitutional": 25125,
    "Ġlandowner": 23379,
    "Ġmonuments": 22977,
    "Ġyoke": 18095,
    "Ġpor": 5225,
    "itself": 7835,
    "Ġepidemic": 20694,
    "Ġripples": 25505,
    "Ġup": 463,
    "este": 15918,
    "occurrences": 26331,
    "ht": 376,
    "Ġhearses": 20058,
    "Ġnoisy": 13315,
    "all": 485,
    "invisible": 17739,
    "Ġhopkins": 23129,
    "iles": 2865,
    "Ġtattered": 21170,
    "Ġalleg": 14015,
    "Ġcoleman": 22585,
    "ushion": 14718,
    "Ġpin": 7161,
    "Ġchemical": 10409,
    "Ġgnarled": 25165,
    "iro": 20913,
    "Ġinflict": 15000,
    "Ġwitnessed": 14842,
    "Ġbewitched": 25975,
    "Ġicy": 10746,
    "Ġholes": 16404,
    "Ġaccused": 8507,
    "garious": 17557,
    "Ġfurious": 10352,
    "Ġlod": 4046,
    "°": 113,
    "Ġperhaps": 1909,
    "Ġinquiry": 6484,
    "rossing": 18639,
    "Ġkneeling": 12139,
    "menced": 23144,
    "Ġmontan": 22976,
    "Ġplans": 7919,
    "human": 7088,
    "Ġshake": 6034,
    "Ġfant": 9172,
    "Ġserve": 9367,
    "Ġclub": 8872,
    "Ġbowing": 10474,
    "Ġfatigued": 13462,
    "Ġpa": 2990,
    "lost": 8886,
    "Ġdis": 693,
    "Ġpredicts": 2592,
    "slight": 10726,
    "Ġmotions": 8281,
    "bre": 3982,
    "dischar": 19151,
    "imony": 12687,
    "È": 137,
    "Ġthus": 2036,
    "Ġexpress": 2195,
    "tide": 11531,
    "Ġintimidated": 24805,
    "Ġacknowled": 6350,
    "violent": 14578,
    "enged": 23145,
    "rely": 6123,
    "Ġyour": 632,
    "Ġones": 3021,
    "Ġaddressing": 11163,
    "Ġcalls": 6744,
    "Ġscruple": 25048,
    "distinguish": 19571,
    "Ġscream": 5935,
    "Ġexpiration": 22622,
    "Ġdetestable": 15096,
    "Ġstud": 1606,
    "thrusting": 20258,
    "elly": 17979,
    "Ġchiswick": 25560,
    "Ġplacing": 8899,
    "Ġballs": 9013,
    "Ġrefuge": 8540,
    "Ġperforms": 11874,
    "income": 15484,
    "Ġcompat": 2940,
    "Ġprair": 7747,
    "outs": 7008,
    "Ġcaulking": 20292,
    "Ġrevolt": 24500,
    "danced": 20827,
    "perquis": 22188,
    "Ġyielding": 12183,
    "Ġmerged": 19296,
    "Ġlassitude": 20585,
    "Ġfragrant": 13091,
    "Ġbuckle": 17032,
    "ancho": 4938,
    "countryman": 24639,
    "Ġreports": 19082,
    "Ġuns": 15833,
    "Ġtyphoons": 20233,
    "Ġhar": 5814,
    "Ġdu": 4585,
    "underneath": 23787,
    "uncommonly": 25549,
    "Ġsacr": 7194,
    "acted": 11009,
    "Ġstore": 8453,
    "following": 10571,
    "Ġcriminals": 19921,
    "Ġpagans": 16921,
    "lins": 2025,
    "Ġyankees": 26201,
    "Ġrescue": 13339,
    "ird": 2425,
    "Ġpince": 21469,
    "69": 17473,
    "Ġpleasantness": 24138,
    "omuch": 21638,
    "Ġnormalizing": 1821,
    "Ġfir": 17877,
    "footman": 17161,
    "Ġsymbols": 2797,
    "atisf": 21262,
    "Ġsweetest": 13244,
    "und": 4120,
    "founded": 16713,
    "ornamented": 26594,
    "Ġpitch": 5767,
    "readily": 19360,
    "Ġphrenologists": 25608,
    "Ġnotorious": 18223,
    "ppers": 7617,
    "utterly": 20010,
    "Ġberths": 20113,
    "cocks": 23557,
    "Ġthreats": 13374,
    "Ġarr": 1799,
    "Ġtam": 7822,
    "Ġarrange": 3120,
    "listener": 24930,
    "vac": 15448,
    "Ġloom": 7628,
    "Ġgenealogies": 25961,
    "Ġcream": 22722,
    "unity": 4153,
    "salesman": 20670,
    "Ġirrespective": 23373,
    "crowded": 20189,
    "presbyterian": 26368,
    "Ġscrib": 22281,
    "Ġimpressions": 9551,
    "Ġimag": 2672,
    "Ġlads": 8596,
    "Ġtablet": 19203,
    "Ġliber": 5168,
    "slo": 17655,
    "bee": 16035,
    "Ġbarbed": 14833,
    "ray": 2434,
    "Ġwrote": 5011,
    "laz": 15383,
    "Ġincessant": 15095,
    "Ġmarry": 4419,
    "Ġcandidates": 4333,
    "Ġinfidel": 13084,
    "Ġmultitudinous": 26273,
    "Ġembellished": 25850,
    "Ġblameless": 19858,
    "bler": 11471,
    "Ġrepeat": 8000,
    "âĢľâĢĻ": 10220,
    "Ġlydia": 2371,
    "Ġmark": 2330,
    "Ġgriff": 22804,
    "Ġamazed": 14887,
    "bearance": 22492,
    "berwell": 22717,
    "Ġimper": 4502,
    "Ġ[\"": 19929,
    "Ġreferred": 8915,
    "Ġderiv": 1736,
    "inery": 17732,
    "Ġfirmly": 8014,
    "audible": 17131,
    "england": 18928,
    "introduced": 15122,
    "sell": 13779,
    "Ġnewcastle": 16220,
    "Ġgrampus": 21991,
    "Ġtraps": 23079,
    "Ġwet": 6518,
    "barn": 17481,
    "mering": 12487,
    "Ġneuron": 1808,
    "resolutions": 26164,
    "ittarius": 22378,
    "Ġexal": 10876,
    "ild": 1152,
    "ten": 1554,
    "Ġcourtship": 24135,
    "Ġgilt": 21604,
    "Ġmagg": 18905,
    "Ġfocus": 4236,
    "Ġinhale": 20299,
    "rip": 9239,
    "Ġmat": 1146,
    "chair": 5917,
    "Ġexercise": 8359,
    "Ġdarker": 13116,
    "five": 6356,
    "Ġrelative": 11880,
    "gris": 8260,
    "congratulations": 20278,
    "Ġshabby": 14109,
    "mouthful": 25208,
    "Ġvindication": 25364,
    "Ľ": 254,
    "Ġwhaleman": 4655,
    "asburgh": 15643,
    "Ġaccommod": 14211,
    "enter": 7858,
    "Ġkeel": 6444,
    "Ġq": 1087,
    "Ġcretan": 22725,
    "range": 3495,
    "fowl": 17548,
    "Ġstreams": 12189,
    "Ġdiscoverer": 26035,
    "madness": 14880,
    "astic": 1866,
    "Ġdevoted": 6573,
    "Ġboy": 3023,
    "Ġgrief": 4621,
    "Ġpuzz": 5532,
    "cooks": 25067,
    "Ġentropy": 2030,
    "Ġinfluenced": 19631,
    "hedge": 22497,
    "tipt": 25083,
    "useless": 14593,
    "fit": 6645,
    "Ġ_": 840,
    "drab": 23895,
    "ą": 198,
    "Ġmuseum": 15269,
    "chance": 6827,
    "whel": 7665,
    "tete": 10731,
    "discoloured": 23496,
    "riend": 1182,
    "Ġgraces": 18225,
    "fel": 8733,
    "Ġperceptibly": 25821,
    "atters": 18487,
    "sacrifice": 13489,
    "Ġsaw": 1352,
    "Ġoverall": 4358,
    "rine": 21036,
    "allingly": 22197,
    "Ġcontradicted": 20210,
    "Ġexerc": 6834,
    "pleased": 8852,
    "Ġbidding": 9535,
    "Ġlog": 1679,
    "Ġsplitting": 4383,
    "Ġmingling": 20196,
    "Ġrandom": 1586,
    "Ġelated": 18633,
    "Ġpagan": 7117,
    "rolling": 9059,
    "downward": 16618,
    "teringly": 21821,
    "etent": 10198,
    "mushroom": 26394,
    "parts": 14600,
    "Ġruns": 8594,
    "inspector": 13643,
    "Ġhumph": 22881,
    "Ġberkshire": 16883,
    "vulgar": 25918,
    "stands": 22433,
    "Ġmidships": 23633,
    "Ġexternal": 8365,
    "overcoat": 19051,
    "neighbour": 7211,
    "Ġunc": 2124,
    "intention": 10366,
    "dation": 2611,
    "Ġtried": 3649,
    "icilian": 20690,
    "Ġprodigy": 19791,
    "Ġsavannah": 17414,
    "Ġruss": 18719,
    "Ġtumb": 21168,
    "Ġslate": 11935,
    "plicable": 10254,
    "necessities": 24305,
    "Ġpositives": 4317,
    "cerem": 15674,
    "Ġtusked": 25426,
    "try": 7813,
    "Ġfascinated": 25635,
    "comparatively": 25839,
    "Ġtol": 6675,
    "Ġoccasioned": 13223,
    "Ġparadise": 11193,
    "mon": 2308,
    "Ġbracelets": 25502,
    "give": 4689,
    "Ġcongregational": 25102,
    "Ġscientific": 6857,
    "Ġbour": 4876,
    "tooth": 18579,
    "wondering": 19844,
    "```": 25893,
    "Ġgamesome": 17288,
    "Ġrelief": 6060,
    "Ġaffectionately": 13165,
    "Ġunnear": 22026,
    "otam": 21796,
    "Ġdescend": 7427,
    "Ġdiscours": 18718,
    "Ġconsume": 12954,
    "Ġtip": 15469,
    "Ġdecember": 15006,
    "party": 8991,
    "Ġsuccession": 12098,
    "Ġbrown": 6298,
    "Ġfeathers": 15117,
    "Ġfanc": 6743,
    "hent": 12530,
    "Ġshield": 21997,
    "ples": 6845,
    "clam": 13050,
    "insula": 23065,
    "mbling": 3346,
    "chief": 4645,
    "Ġbetokened": 18794,
    "Ġcontinuously": 23203,
    "ism": 4874,
    "ston": 15679,
    "Ġbush": 23336,
    "Ġaccommodate": 20515,
    "Ġreclining": 26033,
    "Ġaffidav": 18788,
    "Ġluxurious": 17309,
    "olstadt": 7789,
    "Ġskylarking": 19485,
    "Ġunfelt": 24110,
    "helpless": 16789,
    "Ġminutely": 14560,
    "Ġstupendous": 20499,
    "Ġhowling": 8509,
    "Ġprecaution": 11196,
    "Ġsubsisted": 19117,
    "Ġ**": 4721,
    "ivility": 12784,
    "officers": 10626,
    "ortment": 22255,
    "Ġpaste": 23417,
    "moil": 22703,
    "pronounce": 25192,
    "forty": 9372,
    "ouder": 17900,
    "ness": 852,
    "Ġsplinters": 15100,
    "Ġnarr": 5085,
    "ounders": 22392,
    "bedstead": 23847,
    "Ġstolen": 14005,
    "droppers": 24759,
    "assuming": 22308,
    "rets": 12537,
    "Ġwaggish": 25434,
    "Ġsupple": 22992,
    "Ġretired": 6071,
    "asant": 17958,
    "Ġscheme": 7064,
    "conditional": 9077,
    "capt": 3839,
    "confused": 19643,
    "varieties": 23185,
    "Ġmoccas": 22432,
    "Ġcripp": 9652,
    "Ġexpected": 3698,
    "Ġindicate": 23722,
    "Ġchoice": 2165,
    "ravelled": 18014,
    "zen": 5140,
    "Ġwond": 3941,
    "Ġstamped": 13524,
    "Ġconcentrate": 25063,
    "Ġresource": 10992,
    "Ġremorseless": 13448,
    "nurs": 20998,
    "vely": 3869,
    "Ġvoc": 4452,
    "riptions": 14793,
    "Ġsuccess": 3611,
    "osures": 22259,
    "Ġbowlines": 19321,
    "Ġremorselessly": 16966,
    "Ġintensified": 17017,
    "Ġcomplain": 6685,
    "viii": 12017,
    "Ġhurtling": 24959,
    "Ġjack": 4653,
    "rived": 5373,
    "Ġsave": 4055,
    "arn": 358,
    "imens": 1745,
    "broad": 8642,
    "Ġhawk": 15171,
    "Ġbodies": 8032,
    "objects": 13467,
    "Ġteneriffe": 26413,
    "Ġduck": 8792,
    "Ġknocking": 10558,
    "^{": 15302,
    "Ġperfections": 23607,
    "Ġescaped": 6459,
    "Ġunseason": 22050,
    "Ġnaval": 16898,
    "Ġvestige": 20061,
    "Ġcuring": 21342,
    "successful": 11357,
    "pivot": 21030,
    "bidden": 19735,
    "vels": 5432,
    "owders": 18047,
    "Ġern": 8397,
    "vous": 2247,
    "Ġunaccountable": 7888,
    "Ġ4": 3989,
    "Ġincidents": 9297,
    "Ġhabitu": 19527,
    "Ġhalloa": 13313,
    "tremble": 17140,
    "Ġcraggy": 23526,
    "Ġshameful": 19851,
    "Ġruefully": 17299,
    "Ġslew": 23381,
    "ĠâĢĺ": 1632,
    "Ġobligations": 12088,
    "christian": 17231,
    "couldn": 23717,
    "Ġgretna": 26467,
    "itting": 1149,
    "Ġlight": 1703,
    "page": 13769,
    "aces": 2068,
    "vel": 2382,
    "eman": 5636,
    "Ġaccidentally": 9503,
    "Q": 53,
    "Ġbattalions": 25776,
    "Ġoctavo": 15161,
    "Ġlap": 8437,
    "Ġbutchers": 18272,
    "Ġthem": 638,
    "Ġtimid": 6345,
    "ipping": 2206,
    "Ġsociet": 9448,
    "Ġriotous": 20543,
    "Ġtrifles": 16950,
    "Ġyellow": 5300,
    "respective": 19845,
    "bask": 20775,
    "empty": 23634,
    "writer": 14647,
    "decor": 23779,
    "thrill": 25656,
    "Ġoverflow": 10291,
    "speaks": 19718,
    "Ġpolite": 9880,
    "frank": 7758,
    "Ġcake": 12566,
    "mp": 3728,
    "astrous": 15883,
    "Ġshag": 9249,
    "Ġsem": 1876,
    "unch": 14056,
    "painful": 13499,
    "Ġcringing": 25941,
    "Ġconfirmed": 11138,
    "Ġrouse": 15818,
    "Ġdreary": 10407,
    "column": 19328,
    "Ġ119": 24440,
    "Ġpersuasion": 10497,
    "Ġmutilated": 23956,
    "Ġtrespass": 23599,
    "weary": 22684,
    "Ġworaciousness": 22925,
    "Ġtrading": 23075,
    "Ġlanguid": 14212,
    "Ġankers": 21444,
    "Ġcruises": 23705,
    "refuge": 24734,
    "why": 2832,
    "Ġ84": 19708,
    "Ġapplying": 13088,
    "Ġbless": 4342,
    "sens": 8096,
    "cable": 20796,
    "Ġabounding": 12341,
    "Ġtransom": 22436,
    "Ġinvestig": 10548,
    "uzza": 11269,
    "ilder": 15709,
    "reach": 17756,
    "Ġtongues": 14861,
    "Ġ73": 24259,
    "comput": 1963,
    "Ġfurlongs": 20722,
    "ustry": 18355,
    "inguish": 9395,
    "Ġc": 277,
    "Ġsteward": 6584,
    "Ġhelper": 24024,
    "Ġinst": 910,
    "Ġyell": 21775,
    "Ġoverlooking": 22359,
    "Ġumb": 11644,
    "Ġcarriages": 11097,
    "Ġmisconduct": 22756,
    "velled": 9874,
    "died": 10692,
    "win": 6801,
    "lover": 18540,
    "ante": 11718,
    "Ġdynamic": 5122,
    "inc": 2515,
    "Ġsteadfastly": 10650,
    "trem": 17680,
    "Ġamel": 18513,
    "agement": 4189,
    "Ġfossiliferous": 25609,
    "urn": 776,
    "Ġbreathe": 9010,
    "affectionate": 24921,
    "Ġanything": 2184,
    "Ġcondition": 6764,
    "intu": 22930,
    "iece": 3229,
    "freighted": 14890,
    "dignity": 15343,
    "Ġnineveh": 13386,
    "Ġarrog": 18339,
    "Ġtrifled": 24674,
    "unts": 12728,
    "Ġtypically": 1535,
    "bird": 9584,
    "Ġamid": 4959,
    "Ġmun": 12558,
    "Ġhandsomer": 20332,
    "ission": 6457,
    "velling": 14760,
    "ĠĠ": 352,
    "ribs": 23364,
    "harpooneer": 8688,
    "Ġuncommon": 5026,
    "smoke": 17221,
    "Ġadieu": 10049,
    "Ġceases": 19312,
    "Ġunluckily": 20100,
    "ithmetic": 18061,
    "turning": 8317,
    "Ġprogra": 1144,
    "Ġfascinating": 17326,
    "crawling": 16957,
    "Ġmoss": 9282,
    "avast": 8895,
    "preservation": 25305,
    "Ġsandwich": 19827,
    "Ġsmothe": 18573,
    "voices": 21116,
    "Ġmaster": 3682,
    "inously": 21185,
    "Ġeng": 1159,
    "Ġinjunction": 19616,
    "drawers": 19384,
    "Ġwhiteness": 5919,
    "Ġrelu": 1047,
    "Ġroll": 5381,
    "Ġgra": 415,
    "Ġphaeton": 17463,
    "forgot": 11032,
    "Ġunable": 4951,
    "highest": 20406,
    "Ġairth": 23317,
    "Ġrevenue": 26194,
    "Ġgas": 8133,
    "Ġdirectly": 2105,
    "Ġadvertise": 25388,
    "ĺ": 251,
    "Ġcontortions": 18476,
    "Ġobservant": 20108,
    "Ġunwilling": 7887,
    "splinter": 25210,
    "Ġmeeting": 5193,
    "Ġezek": 18009,
    "stretch": 13979,
    "Ġsacred": 10929,
    "odings": 4399,
    "upright": 23011,
    "noon": 5037,
    "gings": 7549,
    "Ġperceiving": 8874,
    "Ġtemporary": 7981,
    "Ġbutton": 10266,
    "ips": 2590,
    "inary": 3274,
    "Ġchisel": 20366,
    "prit": 19340,
    "elve": 4642,
    "achines": 1724,
    "itically": 21328,
    "Ġwrenching": 17321,
    "desperate": 17350,
    "inal": 15478,
    "Ġwrithing": 11943,
    "oriental": 23720,
    "the": 334,
    "Ġvisibly": 22877,
    "Ġgreas": 17991,
    "Ġexec": 19491,
    "adding": 21757,
    "Ġforehead": 5261,
    "Ġpersonified": 19177,
    "Ġlegal": 10438,
    "ruin": 22174,
    "trouble": 8295,
    "Ġdespise": 14664,
    "Ġsires": 21225,
    "Ġav": 3582,
    "Ġspouting": 9437,
    "ggy": 13110,
    "Ġoverwhel": 8197,
    "Ġavowal": 19413,
    "taste": 10128,
    "Ġsystem": 577,
    "Ġchag": 15928,
    "Ġnervously": 19183,
    "doublo": 24660,
    "u": 89,
    "Ġurged": 6781,
    "Ġquoted": 22413,
    "supplied": 10518,
    "Ġprob": 970,
    "Ġbul": 3295,
    "around": 12605,
    "Ġdent": 13904,
    "algorithms": 8299,
    "Ġroughly": 17039,
    "Ġtrampled": 20327,
    "studied": 17148,
    "Ġsons": 10765,
    "Ġbleak": 10557,
    "Ġwhistling": 19789,
    "Ġshock": 6083,
    "Ġtand": 21159,
    "Ġnantucketer": 6914,
    "Ġheadlands": 22896,
    "independ": 15978,
    "Ġdupl": 9952,
    "stalls": 26472,
    "Ġdishonoured": 20389,
    "Ġworks": 5857,
    "anoke": 21359,
    "Ġgamy": 17998,
    "useful": 16501,
    "Ġcities": 17827,
    "Ġoccupant": 16650,
    "Ġenjoying": 11234,
    "Ġpretended": 19313,
    "Ġaugment": 8691,
    "Ġgun": 4702,
    "Ġshocking": 10434,
    "Ġstim": 18063,
    "rally": 17650,
    "ching": 5156,
    "startled": 24941,
    "Ġweighted": 2091,
    "glasses": 11214,
    "/": 19,
    "Ġunsupervised": 2517,
    "Ġkn": 4547,
    "Ġgame": 3630,
    "Ġsurmise": 12292,
    "Ġfair": 2841,
    "teenth": 11871,
    "Ġcomplied": 14732,
    "are": 637,
    "welcomed": 24644,
    "Ġfulfilled": 11361,
    "Ġrivals": 20270,
    "Ġsights": 7472,
    "Ġshortened": 23481,
    "thern": 4953,
    "Ġstrive": 23693,
    "Ġintric": 9245,
    "Ġpacifics": 24372,
    "Ġimprec": 14216,
    "Ġmaintained": 12931,
    "assure": 9267,
    "Ġacknowledge": 13399,
    "Ġhawaiian": 25366,
    "dy": 3864,
    "church": 8140,
    "Ġunseasonable": 26519,
    "talked": 14983,
    "Ġbringing": 5869,
    "Ġessentially": 24924,
    "ured": 1655,
    "mingled": 14711,
    "alarm": 15623,
    "Ġfet": 5807,
    "bpp": 20771,
    "tempered": 13443,
    "Ġdisrespect": 18553,
    "transformers": 8714,
    "churning": 21695,
    "kl": 4865,
    "Ġput": 1798,
    "Ġmight": 963,
    "anche": 10787,
    "Ġtraitors": 23077,
    "Ġspades": 12793,
    "nyder": 16685,
    "Ġbones": 4584,
    "opposite": 19928,
    "Ġsw": 1357,
    "nay": 7135,
    "Ġhowl": 12852,
    "Ġconcern": 2583,
    "Ġcurrents": 13024,
    "Ġtouched": 6001,
    "ezes": 9989,
    "libra": 22921,
    "ulations": 6029,
    "ickering": 22668,
    "asy": 5294,
    "isions": 6130,
    "Ġthickly": 12112,
    "Ġinjuries": 11276,
    "Ġghost": 6142,
    "Ġadapt": 1003,
    "Ġcuts": 14606,
    "Ġtorrent": 17091,
    "Ġstation": 5297,
    "Ġmeekly": 26489,
    "iary": 15368,
    "Ġafric": 8904,
    "rous": 3755,
    "Ġ156": 20169,
    "Ġred": 3007,
    "deployment": 26526,
    "elopement": 23173,
    "Ġflooring": 23623,
    "Ġunbelief": 22047,
    "Ġholds": 7976,
    "Ġfogs": 25282,
    "Ġimmeasurable": 26230,
    "Ġdeplored": 20503,
    "Ġune": 4599,
    "Ġz": 1000,
    "endering": 21283,
    "nineteenth": 26138,
    "Ġautomatically": 3751,
    "Ġpauper": 26179,
    "itious": 8778,
    "Ġcontext": 1746,
    "Ġfind": 1456,
    "Ġhistorically": 19376,
    "Ġaloof": 21783,
    "Ġloathing": 15067,
    "cer": 6642,
    "importance": 9987,
    "necessary": 5882,
    "process": 11147,
    "Ġscornful": 24998,
    "atmosphere": 21263,
    "Ġabhorrent": 16855,
    "Ġprosper": 10227,
    "Ġwan": 15525,
    "antic": 1604,
    "Ġpredecess": 18511,
    "stirring": 20424,
    "does": 6194,
    "Ġsharply": 9401,
    "Ġfreed": 7267,
    "Ġpresently": 5116,
    "Ġmccarthys": 19661,
    "Ġprotesting": 14739,
    "sheet": 16282,
    "Ġwhaler": 7520,
    "Ġanon": 9665,
    "Ġportents": 14678,
    "Ġinnumerable": 13348,
    "Ġslept": 8259,
    "fainting": 20471,
    "Ġsilent": 3413,
    "wandering": 20283,
    "Ġaugmented": 15103,
    "aying": 15746,
    "inate": 6233,
    "prejudiced": 17295,
    "peace": 13044,
    "Ġvastly": 23858,
    "emorial": 10242,
    "Ġbeside": 5192,
    "Ġpurporting": 19181,
    "Ġopened": 3513,
    "Ġmishap": 20575,
    "ript": 4154,
    "itzerland": 9993,
    "sli": 11521,
    "back": 2015,
    "Ġpoul": 15609,
    "Ġsneering": 24697,
    "ton": 1727,
    "fastened": 19324,
    "Ġwinding": 8236,
    "Ġbench": 7238,
    "Ġsacrificed": 17420,
    "alyards": 18808,
    "Ġmounting": 19975,
    "Ġsensibly": 14512,
    "main": 8088,
    "mid": 5616,
    "Ġopportunities": 19248,
    "Ġcowards": 12570,
    "ounder": 11741,
    "than": 4091,
    "Ġinj": 4760,
    "une": 2786,
    "Ġmagnified": 23201,
    "Ġgleam": 12305,
    "Ġpresum": 4837,
    "ates": 519,
    "Ġcassock": 20485,
    "ernation": 8211,
    "Ġcounsell": 25384,
    "moor": 22702,
    "eland": 11618,
    ":": 30,
    "ceptive": 15965,
    "inced": 3336,
    "arious": 10316,
    "Ġobscure": 9552,
    "Ġtissu": 25920,
    "ution": 4349,
    "Ġhonors": 23600,
    "Ġgroves": 16739,
    "footed": 19688,
    "utter": 7593,
    "Ġevol": 2817,
    "Ġcastaway": 16639,
    "Ġhideous": 5983,
    "Ġanyhow": 14253,
    "Ġregain": 22577,
    "Ġpeddling": 24799,
    "help": 1477,
    "enet": 10151,
    "Ġchannels": 26013,
    "usiveness": 22291,
    "Ġwonder": 2117,
    "Ġprofoundly": 16858,
    "larking": 17593,
    "Ġpitied": 14690,
    "Ġfrighten": 13275,
    "tedious": 22631,
    "bury": 9105,
    "Ġnobody": 6158,
    "ilburn": 18059,
    "Ġcruelty": 9967,
    "Ġflushed": 13018,
    "newsp": 23133,
    "above": 8148,
    "philosop": 9566,
    "manifested": 20524,
    "Ġexcellence": 11450,
    "Ġtell": 1468,
    "Ġther": 17777,
    "destruction": 11255,
    "Ġhistor": 3393,
    "ur": 326,
    "flakes": 23965,
    "Ö": 151,
    "shout": 22445,
    "Ġattempt": 3488,
    "Ġcorridor": 10670,
    "Ġroving": 22400,
    "erson": 7002,
    "Ġmel": 4816,
    "condite": 23246,
    "Ġcorpor": 23039,
    "Ġinverted": 12634,
    "Ġsinging": 7724,
    "Ġmottled": 20677,
    "Ġthirteen": 15272,
    "omorrah": 18017,
    "Ġmasterly": 23991,
    "aks": 8506,
    "Ġlosing": 10915,
    "Ġremainder": 9856,
    "Ġstings": 21732,
    "Ġidiotic": 25588,
    "loveliness": 26548,
    "ileries": 18058,
    "Ġessential": 7523,
    "forest": 22516,
    "enchant": 21282,
    "istence": 2528,
    "Ġsimply": 7218,
    "Ġwaiter": 16357,
    "Ġepicurean": 20554,
    "Ġbec": 1351,
    "tent": 21063,
    "Ġtwain": 16116,
    "Ġtendinous": 16930,
    "growing": 13731,
    "2": 22,
    "ocratic": 17244,
    "Ġenter": 4033,
    "Ġsolution": 9803,
    "Ġensures": 3055,
    "Ġoughts": 23898,
    "Ġinscrut": 10032,
    "Ġsickly": 16773,
    "Ġbasket": 9571,
    "Ġestimated": 16593,
    "Ġaspire": 21898,
    "¯": 112,
    "common": 4130,
    "Ġaft": 5737,
    "stairs": 5155,
    "confirmed": 19644,
    "Ġshark": 5549,
    "oft": 3591,
    "Ġlucerne": 23862,
    "Ġexceptions": 13226,
    "sperm": 5203,
    "Ġodds": 13326,
    "Ġleatherhead": 20012,
    "Ġas": 374,
    "arnel": 18127,
    "Ġflickering": 23009,
    "constit": 24605,
    "Ġnathan": 21524,
    "apply": 18758,
    "Ġerrone": 14428,
    "Ġkicks": 19767,
    "Ġdivineness": 25724,
    "parameter": 3121,
    "Ġbabes": 24424,
    "Ġ61": 24363,
    "Ġdejection": 15194,
    "olently": 15750,
    "Ġescorted": 23504,
    "Ġfourth": 7707,
    "Ġresemblance": 7974,
    "conjecturing": 20133,
    "deli": 15342,
    "Ġexclaiming": 13638,
    "dings": 2277,
    "Ġdischar": 11805,
    "Ġplausible": 26552,
    "Ġvaguely": 17364,
    "atre": 17769,
    "Ġclimb": 15077,
    "ux": 7814,
    "emptied": 23635,
    "very": 499,
    "lengths": 24846,
    "Ġsill": 10764,
    "Ġpip": 1628,
    "Ġobliterated": 17403,
    "Ġmanx": 7906,
    "ronted": 14875,
    "Ġyields": 19655,
    "Ġjavan": 24999,
    "itheat": 21336,
    "endured": 22221,
    "convul": 24883,
    "Ġdesper": 6176,
    "Ġnational": 13940,
    "Ġrecommending": 24336,
    "eyed": 11485,
    "jeroboam": 25619,
    "Ġstingy": 25455,
    "Ġboldness": 24427,
    "ĠĠĠĠĠĠĠĠĠĠĠĠĠĠĠĠĠĠĠĠĠĠĠĠĠĠĠĠĠĠĠĠĠĠĠ": 19257,
    "crippled": 26383,
    "Ġspoon": 22132,
    "imaux": 21710,
    "Ġhavoc": 15810,
    "strong": 6322,
    "Ġanticip": 7507,
    "Ġcolumb": 22855,
    "pine": 13767,
    "Ġsuperiors": 23454,
    "Ġweeping": 11684,
    "Ġpratt": 23218,
    "Ġcomposure": 7217,
    "jour": 20926,
    "nose": 17609,
    "Ġblackness": 9391,
    "Ġswallowed": 7944,
    "ecess": 17531,
    "Ġmartial": 20290,
    "Ġloun": 7166,
    "Ġkeenest": 12158,
    "Ġbert": 4583,
    "fingers": 17368,
    "Ġhow": 599,
    "Ġrejection": 19982,
    "Ġsaith": 14154,
    "Ġmother": 2067,
    "Ġendangered": 16301,
    "Ġdelicately": 24125,
    "Ġtrooped": 24899,
    "Ġrueful": 25581,
    "stalk": 21648,
    "inquiry": 15140,
    "Ġbeen": 626,
    "Ġpains": 5965,
    "Ġyards": 5371,
    "laden": 14927,
    "Ġluckily": 16797,
    "Ġork": 18284,
    "Ġcorner": 4369,
    "Ġdeck": 2139,
    "Ġcoffins": 13247,
    "Ġdepressions": 25798,
    "Ġirrad": 19093,
    "Ġbefall": 8827,
    "Ġgrandeur": 8627,
    "b": 70,
    "creator": 26380,
    "Ġmedical": 9462,
    "rodu": 1818,
    "Ġ177": 13409,
    "Ġspin": 7629,
    "could": 2876,
    "ù": 186,
    "Ġlust": 9196,
    "Ġdrawers": 12102,
    "izar": 14048,
    "aim": 2756,
    "Ġpoultry": 17439,
    "Ġtrusty": 24104,
    "clut": 23149,
    "Ġlabour": 7274,
    "Ġshops": 21999,
    "Ġbenignity": 18781,
    "Ġrede": 13982,
    "Ġillness": 8589,
    "ravity": 21633,
    "either": 6791,
    "utmost": 21586,
    "Ġantagonist": 26328,
    "further": 7535,
    "rium": 3133,
    "Ġhapless": 15809,
    "ium": 4864,
    "Ġdeployment": 11194,
    "Ġstrangeness": 16706,
    "Ġesteemed": 10587,
    "Ġdivulged": 16647,
    "Ġwandered": 6930,
    "Ġdecap": 16017,
    "Ġdece": 6996,
    "dislike": 23492,
    "wise": 2572,
    "Ġharness": 17927,
    "Ġfonder": 17880,
    "Ġcelebrate": 26357,
    "nursery": 26398,
    "fetch": 12461,
    "Ġseething": 18203,
    "onomy": 12543,
    "nne": 20988,
    "Ġimmort": 19482,
    "Ġrapture": 13493,
    "Ġhide": 4590,
    "Ġmicrosc": 20675,
    "Ġwaved": 9643,
    "ool": 17617,
    "Ġelud": 22641,
    "Ġhist": 2443,
    "Ġfee": 7199,
    "Ġiv": 4048,
    "Ġappearances": 10450,
    "Ġpupils": 20419,
    "Ġishmael": 7395,
    "Ġhieroglyphic": 25587,
    "Ġdestination": 19149,
    "Ġjust": 1238,
    "Ġcoppers": 22583,
    "pinn": 21025,
    "Ġpyramid": 8800,
    "Ġpenalties": 10411,
    "acceptance": 25185,
    "par": 1894,
    "Ę": 217,
    "luyt": 18459,
    "Ġphrases": 2798,
    "Ġunfrequ": 19507,
    "Ġthings": 1959,
    "Ġapologizing": 25197,
    "desolate": 25703,
    "contemplated": 20457,
    "Ġquaint": 18465,
    "Ġ1846": 26084,
    "Ġmemb": 14028,
    "Ġnast": 15635,
    "kin": 7131,
    "Ġhier": 1892,
    "Ġsurgeons": 23463,
    "Ġabstraction": 26538,
    "Ġgerm": 13962,
    "Ġcircumnavigating": 25614,
    "Ġcomplexion": 8212,
    "Ġmarred": 23029,
    "Ġlethar": 21744,
    "Ġpres": 9730,
    "Ġbuff": 9171,
    "Ġexcess": 3342,
    "Ġ184": 16606,
    "Ġpew": 9313,
    "ont": 2620,
    "Ġcomprehension": 15084,
    "Ġcynical": 25770,
    "Ġrichest": 26211,
    "idge": 14012,
    "Ġimpute": 18332,
    "pronounced": 12343,
    "Ġbucket": 8786,
    "due": 22408,
    "ĠâĢľ": 517,
    "Ġspend": 5304,
    "upper": 11537,
    "Ġconcl": 5095,
    "itor": 12562,
    "Ġpipes": 9848,
    "Ġdisturb": 7107,
    "Ġglobe": 6077,
    "mare": 17598,
    "Ġpostscript": 14806,
    "pile": 17628,
    "Ġpleated": 16294,
    "Ġmus": 3399,
    "Ġfeeding": 7972,
    "onings": 21251,
    "Ġfuller": 11155,
    "Ġmeaning": 1417,
    "atig": 13843,
    "Ġupbraiding": 26226,
    "itatingly": 25277,
    "Ġdangers": 12351,
    "Ġprogen": 14037,
    "ckles": 22087,
    "Ġinsurance": 23682,
    "conclusive": 25673,
    "Ġmowers": 17812,
    "Ġentreating": 24206,
    "Ġhelped": 7459,
    "Ġbloodshed": 23799,
    "Ġrigging": 5600,
    "Ġrep": 1935,
    "Ġperformer": 18754,
    "Ġcombines": 1167,
    "Ġdollar": 25283,
    "Ġcommence": 6167,
    "Ġhighest": 3529,
    "Ġgrowled": 19283,
    "richard": 17285,
    "shr": 10978,
    "Ġpresuming": 16792,
    "uts": 8814,
    "Ġdetermined": 2220,
    "Ġpeevish": 26556,
    "near": 5842,
    "Ġseparating": 16684,
    "goodbye": 12053,
    "Ġgloomy": 7504,
    "Ġturner": 7049,
    "Ġarmed": 9258,
    "Ġcastles": 16638,
    "Ġmathematical": 3353,
    "umbered": 22115,
    "Ġbursting": 8655,
    "uted": 7592,
    "insufficient": 15487,
    "Ġthr": 5709,
    "Ġsnowy": 9016,
    "Û": 156,
    "Ġlightning": 5750,
    "Ġspecies": 5112,
    "draul": 9442,
    "ously": 2487,
    "Ġlines": 4535,
    "unbidden": 21892,
    "Ġcharges": 23267,
    "Ġwines": 21286,
    "Ġelimin": 16105,
    "Ġslumber": 13055,
    "Ġduncan": 13458,
    "Ġdrugged": 12599,
    "duck": 22410,
    "falsehood": 25901,
    "cod": 12440,
    "Ġalle": 11664,
    "Ġbenchmarks": 15020,
    "Ġ*": 1272,
    "Ġdislike": 6048,
    "Ġdromedary": 17437,
    "Ġpile": 8424,
    "Ġhoops": 9386,
    "zar": 11546,
    "arch": 1115,
    "enance": 3374,
    "Ġott": 13864,
    "Ġleakage": 23458,
    "iform": 2200,
    "Ġmilitia": 13314,
    "Ġdistressing": 12215,
    "Ġinvolves": 1094,
    "Ġarrives": 23606,
    "Ġkra": 18348,
    "Ġphilosoph": 19650,
    "Ġoverbearing": 12841,
    "Ġhorseback": 14848,
    "sir": 5001,
    "governed": 25405,
    "achel": 7032,
    "Ġinto": 648,
    "Ġsabbath": 17253,
    "foreseen": 14252,
    "âĢľ_": 5720,
    "Ġgrove": 12143,
    "grim": 19106,
    "frantic": 24282,
    "Ġleyden": 21745,
    "Ġdab": 15584,
    "Ġdownright": 16115,
    "peaceful": 20445,
    "Ġattent": 4360,
    "Ġwhereby": 11834,
    "ste": 3585,
    "Ġlikes": 9406,
    "Ġdid": 836,
    "ispens": 8336,
    "Ġpatience": 2809,
    "Ġgpus": 3733,
    "du": 604,
    "Ġfairness": 9892,
    "positive": 20566,
    "Ġintervene": 25480,
    "Ġnoticed": 5548,
    "iamond": 14589,
    "disappointed": 25191,
    "Ġdowry": 20684,
    "Ġsmothered": 20719,
    "ler": 3492,
    "Ġsn": 2951,
    "season": 14032,
    "ruded": 15894,
    "jud": 4482,
    "Ġascribe": 16781,
    "Ġcomfort": 3440,
    "Ġlittle": 867,
    "Ġ60": 14873,
    "Ġoutlined": 22318,
    "Ġkelson": 18350,
    "bringing": 17165,
    "aid": 1919,
    "Ġcanals": 22160,
    "timidity": 25753,
    "Ġwhite": 1537,
    "aky": 18411,
    "Ġpyth": 21459,
    "Ġarisen": 11740,
    "Ġreason": 1373,
    "ī": 236,
    "Ġperplex": 2713,
    "Ġcommit": 18655,
    "Ġfurther": 1056,
    "Ġspeed": 2446,
    "Ġmutters": 23953,
    "Ġshoals": 13131,
    "Ġthinnest": 24182,
    "oe": 7552,
    "Ġsundial": 15080,
    "va": 4743,
    "Ġmurdered": 6464,
    "complexion": 14358,
    "inserted": 18886,
    "Ġpromised": 5181,
    "Ġconditions": 8307,
    "icial": 12652,
    "Ġglu": 15664,
    "Ġcoopman": 25827,
    "Ġflip": 11910,
    "sory": 17658,
    "Ġgasp": 7172,
    "Ġventing": 19492,
    "Ġshy": 10902,
    "ithing": 11647,
    "impropriety": 21711,
    "Ġdost": 7636,
    "Ġjagged": 18407,
    "Ġcuriously": 13022,
    "slanting": 24557,
    "Ġerect": 6143,
    "Ġgenius": 8046,
    "attering": 7418,
    "tail": 8761,
    "Ġwherever": 8523,
    "Ġonto": 14026,
    "ited": 1750,
    "Ġtrousers": 12412,
    "Ġsacrific": 15016,
    "classification": 4387,
    "Ġthrobbing": 16897,
    "Ġinheritance": 25355,
    "Ġapprehending": 26090,
    "Ġhither": 4759,
    "Ġconfide": 13095,
    "dies": 15336,
    "plunging": 25987,
    "Ġnoon": 6559,
    "Ġbreeding": 14521,
    "alone": 10182,
    "Ġconfiding": 19038,
    "Ġyear": 3286,
    "Ġruggedness": 26268,
    "Ġask": 1492,
    "Ġweap": 6155,
    "ribution": 14301,
    "Ġcombinations": 22861,
    "Ġhookah": 16969,
    "Ġbrook": 13043,
    "Ġabusive": 22271,
    "Ġraved": 22648,
    "Ġbronze": 22867,
    "impress": 18051,
    "Ġveget": 11883,
    "Ġglories": 16237,
    "equally": 19898,
    "Ġnom": 21517,
    "Ġrecommend": 7102,
    "Ġardu": 22181,
    "Ġundisturbed": 19518,
    "Ġhitherto": 5880,
    "Ġproportion": 7281,
    "mal": 6794,
    "Ġentranced": 25833,
    "Ġmississippi": 20724,
    "Ġgained": 4536,
    "Ġunrecorded": 17466,
    "courage": 17508,
    "gans": 11488,
    "crews": 15041,
    "Ġcarr": 23089,
    "superiority": 20184,
    "Ġvehic": 8932,
    "Ġkeepers": 23535,
    "ream": 2707,
    "Ġunfolded": 10637,
    "post": 6062,
    "Č": 205,
    "omeness": 18015,
    "es": 289,
    "Ġblended": 16216,
    "ignor": 8960,
    "Ġhogshe": 20490,
    "feather": 16040,
    "Ġscreaming": 13420,
    "Ġbad": 3991,
    "heavens": 19744,
    "Ġsax": 10928,
    "Ġlabrador": 23330,
    "Ġingolstadt": 8333,
    "inlaid": 21189,
    "Ġwestern": 10653,
    "Ġweaver": 11685,
    "emporary": 15794,
    "Ġdefinition": 14401,
    "Ġshoot": 11160,
    "Ġfloated": 7288,
    "Ġsurgeon": 8980,
    "Ġtrampling": 25492,
    "stead": 10845,
    "afterwards": 7484,
    "fee": 12876,
    "istics": 1631,
    "Ġresponses": 23650,
    "Ġoffences": 18691,
    "van": 7815,
    "Ġanno": 9666,
    "Ġming": 9644,
    "adoes": 11658,
    "Ġattentively": 9948,
    "================================================================": 9988,
    "bran": 23572,
    "Ġcrumbs": 20639,
    "conv": 7213,
    "Ġselects": 4385,
    "home": 7341,
    "Ġstreat": 15717,
    "Ġsolitary": 5854,
    "eon": 8729,
    "Ġrobbery": 11900,
    "Ġrio": 23889,
    "phants": 9318,
    "Ġfordham": 21774,
    "Ġreaches": 18031,
    "encies": 4083,
    "throwing": 11700,
    "Ġcin": 13873,
    "Ġforgot": 4684,
    "Ġconvergence": 974,
    "fiercely": 25256,
    "Ġgrandfather": 19420,
    "hing": 980,
    "recover": 24623,
    "dz": 4739,
    "Ġshare": 1658,
    "hibited": 17425,
    "Ġvon": 14079,
    "Ġdoesn": 7438,
    "Ġfits": 8789,
    "ij": 7802,
    "mock": 5174,
    "Ð": 145,
    "boo": 16348,
    "Ġwrecks": 16817,
    "Ġgirdle": 19156,
    "Ġtreading": 16503,
    "alogue": 25159,
    "precision": 4331,
    "Ġglance": 4233,
    "Ġsaid": 578,
    "Ġbowels": 9428,
    "bling": 10077,
    "ĠcÃ¦": 15551,
    "Ġmorality": 22971,
    "Ġstarbuck": 2194,
    "Ġimpro": 909,
    "Ġgolden": 5336,
    "opes": 10309,
    "ifled": 14061,
    "strip": 19829,
    "Ġheath": 15698,
    "Ġsymphony": 26531,
    "Ġclassifies": 11829,
    "Ġeff": 675,
    "Ġdevoutly": 25832,
    "Ġdisplays": 19856,
    "Ġyaw": 18094,
    "Ġinfallibly": 10039,
    "cham": 10852,
    "Ġadvisable": 11441,
    "Ġperseus": 10602,
    "Ġinclinations": 19538,
    "Ġbradstreet": 9575,
    "tempestuous": 26097,
    "Ġdimmed": 24266,
    "Ġterritories": 23843,
    "grace": 5846,
    "Ġharmless": 9963,
    "Ġlye": 21549,
    "nib": 5214,
    "Ġuntutored": 19165,
    "evident": 25520,
    "ands": 21864,
    "Ġcadiz": 17323,
    "Ġassailed": 23176,
    "Ġ52": 24320,
    "Ġdaboll": 25950,
    "Ġcrows": 24029,
    "entropy": 1438,
    "Ġexercising": 19906,
    "Ġstruggled": 9903,
    "Ġinstance": 2543,
    "trampled": 26333,
    "Ġmisgiv": 14343,
    "Ġcaptiv": 16252,
    "Ġpleasant": 4171,
    "humoredly": 26324,
    "msman": 9268,
    "rant": 11515,
    "Ġcolder": 22853,
    "Ġdatasets": 2385,
    "unalterable": 21884,
    "operation": 13498,
    "Ġmaxim": 3084,
    "Ġship": 1095,
    "peculiar": 6886,
    "Ġconvince": 14641,
    "Ġlimber": 16477,
    "Ġpatronage": 17052,
    "Ġwisely": 13269,
    "Ġexpert": 18874,
    "Ġunful": 22009,
    "iii": 14773,
    "Ġvary": 15804,
    "Ġactually": 5389,
    "Ġfootmarks": 19336,
    "capting": 24038,
    "medium": 23641,
    "Ġpreliminary": 10055,
    "Ġ98": 24594,
    "Ġ122": 24466,
    "emed": 3383,
    "pattern": 4289,
    "Ġfro": 3473,
    "Ġscandinav": 19959,
    "adagrad": 9689,
    "Ġseclusion": 18208,
    "Ġwelfare": 12555,
    "Ġlam": 21547,
    "Ġtriumphantly": 11286,
    "Ġcanterbury": 22163,
    "meas": 7434,
    "Ġresembling": 4100,
    "Ġende": 21930,
    "fier": 9592,
    "Ġupheld": 22150,
    "Ġsupreme": 13604,
    "gast": 20870,
    "Ġduodecimo": 16766,
    "Ġdangling": 17173,
    "Ġfinished": 5044,
    "nx": 17606,
    "Ġfanatic": 23390,
    "abb": 15735,
    "fluke": 25204,
    "unusually": 15776,
    "Ġdisputes": 25825,
    "ctic": 8442,
    "muttered": 13757,
    "clothes": 9056,
    "university": 25983,
    "Ġsquaw": 22837,
    "Ġconcluded": 5658,
    "accident": 11180,
    "eding": 7165,
    "Ġprobability": 1126,
    "Ġconstitution": 20107,
    "Ġtoil": 6531,
    "fortunes": 6332,
    "Ġjoists": 19231,
    "Ġchip": 12822,
    "Ġmorose": 18842,
    "Ġvessel": 3801,
    "gor": 546,
    "Ġusages": 15912,
    "Ġreiter": 21664,
    "Ġpea": 14315,
    "Ġpreservative": 24630,
    "¨": 106,
    "Ġreader": 11931,
    "quired": 21853,
    "Ġintrodu": 1922,
    "Ġnorth": 4319,
    "asingly": 17960,
    "Ġaged": 10320,
    "aulding": 11338,
    "Ġbeau": 9223,
    "Ġaspects": 4175,
    "Ġtackles": 8051,
    "Ġstained": 11650,
    "Ġeating": 8136,
    "separately": 25227,
    "Ġmass": 3783,
    "Ġmovements": 24358,
    "dimly": 15344,
    "faith": 15023,
    "colonel": 8285,
    "Ġserpents": 13073,
    "Ġromans": 16758,
    "Ġrelation": 2142,
    "Ġaverage": 3139,
    "immedi": 8450,
    "dishonourable": 26365,
    "Ġthickness": 13274,
    "Ġcontin": 5382,
    "ise": 707,
    "Ġob": 862,
    "raise": 18011,
    "Ġslu": 13834,
    "ant": 438,
    "Ġfiftieth": 24703,
    "Ġmainly": 22646,
[...]
