{
  "metadata": {
    "vocab_size": 26613,
    "algorithm": "BPE",
    "created_at": "2026-09-07 06:58:52",
    "special_tokens": [
      "<PAD>",
      "<SOS>",
      "<EOS>",
      "<UNK>",
      "<MASK>"
    ]
  },
  "vocab": {
    "oarsman": 25261,
    "daggoo": 13705,
    "Ġunfortunately": 10907,
    "sure": 5522,
    "Ġcub": 8414,
    "Ġcorresponds": 19820,
    "cut": 3127,
    "thorough": 21983,
    "deeply": 16176,
    "Ġconverts": 2806,
    "Ġacknowledged": 7534,
    "Ġsnorting": 23739,
    "greek": 25404,
    "Ġsubstantiated": 25875,
    "distant": 13332,
    "Ġbetake": 22903,
    "ocris": 23707,
    "acute": 22593,
    "Ġrecoil": 18692,
    "Ġconvinced": 4206,
    "Ġchamp": 18380,
    "ī": 236,
    "despairing": 25074,
    "blast": 9586,
    "aired": 8369,
    "Ġkno": 5241,
    "Ġpunctual": 17136,
    "linearity": 1648,
    "Ġapartment": 6633,
    "Ġevaluation": 16564,
    "Ġpiny": 21469,
    "Ġpreliminaries": 25176,
    "Ġicebergs": 23972,
    "told": 7812,
    "Ġemm": 18002,
    "Ġtarshish": 12025,
    "affold": 16560,
    "Ġaston": 3702,
    "Ġevenness": 22831,
    "Ġzeal": 9096,
    "Ġneskye": 21529,
    "Ġpawn": 12060,
    "Ġtender": 5753,
    "bil": 20770,
    "interrupted": 11416,
    "Ġdipped": 15593,
    "Ġdate": 7842,
    "rimshander": 20656,
    "scho": 8759,
    "Ġidentity": 2524,
    "Ġcrate": 19122,
    "Ġended": 7950,
    "Ġbount": 15564,
    "vac": 15448,
    "Ġspinal": 12299,
    "Ġevents": 4471,
    "Ġseap": 15811,
    "eng": 1488,
    "Ġscotch": 12206,
    "forks": 26386,
    "neighbour": 7211,
    "Ġmuhammad": 26169,
    "Ġpleadings": 25852,
    "throwing": 11700,
    "Ġwalk": 1826,
    "enses": 10993,
    "Ġwhereof": 16099,
    "conceive": 16026,
    "Ġign": 8295,
    "iantly": 13737,
    "Ġeloped": 22650,
    "olly": 3228,
    "Ġargu": 10933,
    "Ġvitality": 15170,
    "Ġmultitude": 9323,
    "84": 15299,
    "mble": 1406,
    "Ġscener": 10948,
    "inous": 8771,
    "Ġstim": 18066,
    "Ġbeatrix": 24203,
    "Ġeddies": 23438,
    "irious": 15782,
    "adding": 21757,
    "Ġbending": 12581,
    "Ġricher": 12755,
    "Ġdisappo": 4504,
    "Ġdarkly": 19114,
    "Ġinfinity": 23280,
    "Ġexig": 21824,
    "edily": 17943,
    "Ġinfiltrated": 23281,
    "discovered": 8325,
    "Ġconcl": 5095,
    "Ġquarter": 3978,
    "Ġcorroboration": 26053,
    "Ġpalsied": 25779,
    "Ġmamm": 25090,
    "p": 84,
    "Ġpines": 12613,
    "Ġbapt": 13894,
    "need": 10982,
    "arrangement": 17413,
    "Ġmur": 2491,
    "Ġcurtain": 14418,
    "Ġshop": 9250,
    "Ġlakes": 8131,
    "Ġarts": 11006,
    "Ġrush": 5925,
    "Ġparent": 14644,
    "Ġturtle": 4204,
    "Ġdesponding": 25868,
    "Ġain": 6969,
    "Ġtendons": 19807,
    "Ġoriginated": 24121,
    "entirely": 7782,
    "Ġturkey": 19218,
    "puff": 21021,
    "Ġsurveying": 25325,
    "Ġemig": 14523,
    "Ġtrophy": 20005,
    "command": 6576,
    "olent": 8155,
    "Ġdangerous": 6613,
    "hom": 12470,
    "Ġpathways": 11152,
    "Ġdemeanour": 17335,
    "preservation": 25305,
    "Ġmending": 17804,
    "Ġduodecimo": 16766,
    "Ġmerc": 9424,
    "Ġvoracity": 25986,
    "Ġscattered": 6856,
    "gaff": 20881,
    "Ġcared": 8781,
    "Ġcontextually": 11955,
    "utility": 21585,
    "Ġmeddle": 19490,
    "®": 111,
    "Ġeu": 6390,
    "copy": 5133,
    "queness": 18147,
    "ribute": 7226,
    "Ġwisely": 13270,
    "Ġscorn": 7902,
    "Ġfix": 2509,
    "Ġplain": 2817,
    "Ġflattering": 13025,
    "leton": 5148,
    "hav": 20896,
    "Ġdevice": 1929,
    "riage": 2124,
    "three": 5238,
    "Ġvicissitudes": 12416,
    "Ġfunction": 590,
    "vicious": 21117,
    "respectable": 19846,
    "Ġcirclings": 26430,
    "Ġvane": 22873,
    "shown": 22442,
    "Ġsombre": 18859,
    "Ġsneezing": 12244,
    "tural": 21065,
    "handled": 19260,
    "Ġshave": 21994,
    "Ġsunshine": 14493,
    "Ġdrove": 4984,
    "Ġcanst": 8856,
    "Ġdilatory": 24705,
    "ê": 171,
    "erring": 11056,
    "Ġneck": 4885,
    "lass": 5993,
    "us": 531,
    "Ġpaid": 5015,
    "Ġtables": 9876,
    "somers": 19366,
    "Ġprendergast": 26536,
    "Ġcracking": 14572,
    "Ġzoned": 22818,
    "mistress": 14903,
    "aur": 15306,
    "Ġnautical": 17384,
    "Ġcrawled": 17043,
    "Ġrever": 6536,
    "Ġtrick": 7020,
    "tips": 13794,
    "Ġbeneath": 3239,
    "Ġinference": 9670,
    "driver": 14919,
    "endar": 18364,
    "Ġpicturesqueness": 24479,
    "rev": 17755,
    "Ġbulldog": 23857,
    "herfield": 3632,
    "Ġpaddled": 20200,
    "Ġwrenched": 12554,
    "Ġuntamed": 19163,
    "cho": 2760,
    "habit": 16187,
    "Ġharris": 13925,
    "sold": 15424,
    "cull": 20808,
    "horn": 8086,
    "Ġimpending": 22382,
    "Ġfri": 17878,
    "Ġcarted": 21347,
    "Ġjurymen": 16846,
    "Ġencouragement": 13039,
    "Ġclassifies": 11829,
    "Ġchurning": 15934,
    "Ġoccupied": 5272,
    "Ġgrotesque": 26329,
    "gings": 7549,
    "equ": 6790,
    "Ġcorporeal": 17358,
    "more": 1032,
    "izarre": 17387,
    "Ġrucastles": 18719,
    "Ġinvented": 17036,
    "Ġvulgarity": 25363,
    "Ġentr": 14339,
    "Ġnormal": 1202,
    "Ġro": 600,
    "confl": 22469,
    "Ġcongen": 10872,
    "hunters": 16832,
    "Ġnone": 3226,
    "wrinkled": 16552,
    "Ġbuoy": 8004,
    "Ġgifted": 17996,
    "Ġpythag": 26447,
    "remediable": 26294,
    "Ġspectre": 16629,
    "Ġunfelt": 24108,
    "twice": 14620,
    "inch": 10754,
    "Ġsquatted": 25841,
    "Ġencouraged": 9353,
    "notice": 16144,
    "ú": 187,
    "Ġhumane": 11881,
    "Ġwilfully": 16765,
    "ented": 4348,
    "Ġdefine": 9813,
    "Ġachieve": 3674,
    "iverer": 11713,
    "judges": 19572,
    "Ġbanquet": 15238,
    "spending": 18690,
    "Ġmissing": 6175,
    "Ġharb": 7370,
    "Ġriv": 10745,
    "Ġdishonor": 25601,
    "Ġcontinu": 1166,
    "abond": 15737,
    "Ġselects": 4384,
    "Ġangrily": 9405,
    "Ġbroken": 3450,
    "iary": 15368,
    "pth": 2381,
    "Ġind": 1219,
    "Ġaccomplice": 24375,
    "Ġprophetic": 20018,
    "Ġcapsized": 20088,
    "Ġstack": 21734,
    "gged": 3778,
    "Ġclams": 19987,
    "Ġflo": 2588,
    "mathematics": 26304,
    "Ġprosperous": 15168,
    "Ġdeductions": 19731,
    "Ġinvade": 19142,
    "Ġreproofs": 24892,
    "Ġwarmth": 6905,
    "Ġutterly": 6100,
    "Ġim": 475,
    "etween": 774,
    "ai": 2526,
    "Ġlivid": 14987,
    "Ġstooping": 13058,
    "rich": 11516,
    "Ġsymp": 4501,
    "lovely": 16042,
    "Ġcomprehended": 11293,
    "quely": 10230,
    "angel": 5726,
    "Ġmeth": 1424,
    "Ġcream": 22718,
    "Ġpanthe": 19652,
    "attacked": 23121,
    "Ġclay": 7018,
    "Ġelix": 22649,
    "Ġtroub": 22354,
    "glad": 9006,
    "Ġutil": 4672,
    "Ġpiled": 8425,
    "Ġfigure": 4207,
    "Ġeuroc": 14957,
    "Ġburned": 8630,
    "Ġsiamese": 20481,
    "Ġshadows": 8013,
    "lipped": 16214,
    "swept": 19785,
    "ill": 447,
    "responsible": 25763,
    "Ġplate": 8897,
    "eps": 12787,
    "Ġadmits": 23552,
    "acies": 14275,
    "Ġportcullis": 26602,
    "making": 2571,
    "Ġbidden": 24646,
    "Ġwhitting": 18055,
    "Ġvapory": 17005,
    "Ġderives": 16305,
    "Ġglow": 7170,
    "Ġnut": 12642,
    "Ġleathern": 15048,
    "Ġretention": 23069,
    "Ġrepublic": 14530,
    "Ġum": 10210,
    "isure": 6240,
    "Ġacquaintance": 4133,
    "Ġbriony": 9327,
    "Ġaltitude": 26202,
    "Ġtoad": 21508,
    "placed": 7881,
    "asleep": 21542,
    "âĢĶâĢĺ_": 24831,
    "Ġcoasts": 12160,
    "Ġcognitive": 13632,
    "renew": 24449,
    "Ġsagittarius": 24732,
    "Ġoverpowered": 15286,
    "promised": 12248,
    "stairs": 5155,
    "Ġcreaking": 14325,
    "Ġoars": 3898,
    "gences": 20876,
    "Ġdetest": 8501,
    "Ġbored": 16103,
    "Ġcetacea": 20552,
    "resist": 8276,
    "Ġauxiliary": 26417,
    "Ġmingled": 12374,
    "Ġperception": 9748,
    "regulated": 23468,
    "Ġtrumpet": 9572,
    "professional": 20274,
    "twilight": 23701,
    "Ġber": 5698,
    "Ġannesley": 19576,
    "ribution": 14304,
    "Ġpublic": 4332,
    "Ġmarry": 4416,
    "Ġacquirement": 19254,
    "Ġacross": 1331,
    "pulous": 15414,
    "Ġdut": 2987,
    "Ġcaravan": 26290,
    "Ġlandowner": 23379,
    "icilian": 20690,
    "hero": 21203,
    "Ġprivilege": 11418,
    "child": 5537,
    "gress": 2216,
    "ear": 8730,
    "Ġbehaves": 23300,
    "Ġridges": 16730,
    "date": 17516,
    "bers": 2569,
    "Ġplayers": 12035,
    "Ġinland": 11606,
    "Ġyoked": 15731,
    "aped": 3766,
    "Ġenvelop": 5586,
    "Ġendured": 6073,
    "dawson": 26128,
    "Ġedition": 16432,
    "Ġviciss": 11291,
    "hint": 12472,
    "):": 11460,
    "inkers": 22614,
    "Ġthickly": 12112,
    "gover": 10701,
    "sciss": 18851,
    "burnt": 20078,
    "Ġinserted": 8356,
    "Ġmoves": 14230,
    "man": 1053,
    "uit": 8393,
    "Ġattested": 22627,
    "Ġfloats": 9411,
    "Ġreside": 22537,
    "iment": 2816,
    "ester": 11596,
    "Ġdreamt": 23936,
    "queequeg": 4334,
    "Ġflit": 23004,
    "Ġdisagreeable": 9296,
    "arranted": 19319,
    "swelled": 19609,
    "Ġpromised": 5181,
    "renched": 7908,
    "Ġoverjoyed": 17456,
    "Ġbat": 10794,
    "Ġconquer": 14025,
    "Ġezekiel": 26192,
    "!âĢĶâĢĻ": 23563,
    "Ġproceeding": 9904,
    "Ġalow": 18099,
    "arthy": 4820,
    "host": 5867,
    "Ġdynamic": 5122,
    "Ġjewelled": 20182,
    "Ġpiqu": 21476,
    "including": 23589,
    "bloom": 24689,
    "spin": 22728,
    "Ġshapeless": 24523,
    "Ġsuggest": 5417,
    "Ġtre": 2536,
    "Ġguiltless": 16939,
    "Ġnecess": 3476,
    "says": 13297,
    "Ġpoison": 7219,
    "Ħ": 231,
    "Ġgaiety": 16748,
    "teenth": 11871,
    "Ġfearing": 12811,
    "Ġbackwater": 18650,
    "Ġhardship": 18913,
    "Ġresponses": 23651,
    "Ġheavenly": 12081,
    "typewritten": 26038,
    "orrow": 2914,
    "Ġanonymous": 26178,
    "Ġhyper": 19738,
    "Ġblessing": 11262,
    "rolling": 9059,
    "Ġindomit": 22953,
    "Ġgrounded": 23710,
    "ield": 2409,
    "Ġeyebrows": 23515,
    "fing": 13711,
    "Ġjudge": 5502,
    "distance": 12149,
    "Ġpredomin": 16037,
    "Ġhurst": 5581,
    "Ġunworthy": 11712,
    "Ġbrick": 8923,
    "astron": 22167,
    "Ġcastle": 14715,
    "winds": 10520,
    "nowhere": 18418,
    "Ġpondered": 15164,
    "Ġlodges": 19498,
    "Ġamuse": 5940,
    "Ġabsorbing": 17127,
    "Ġrags": 18636,
    "Ġtherein": 11773,
    "gentleness": 24844,
    "Ġsi": 21211,
    "dashing": 20835,
    "Ġlistless": 16474,
    "Ġtainted": 21169,
    "13": 20749,
    "toes": 22562,
    "Ġcruel": 5121,
    "Ġfr": 1694,
    "bel": 3837,
    "amb": 5723,
    "to": 716,
    "description": 11093,
    "Ġmessages": 24983,
    ".âĢĻâĢĿ": 6739,
    "Ġenclosure": 20622,
    "harpooneers": 8689,
    "Ġconfined": 7465,
    "ock": 15400,
    "Ġcavity": 20486,
    "Ġbalmoral": 16205,
    "Ġexploring": 4304,
    "Ġdie": 3962,
    "tum": 11530,
    "Ġinsinuating": 19270,
    "Ġconvention": 25546,
    "Ġdan": 8791,
    "Ġrefreshed": 15288,
    "lashed": 20953,
    "Ġinclemency": 22553,
    "grinder": 23413,
    "Ġscent": 10284,
    "Ġimmemorially": 25383,
    "byter": 16211,
    "Ġgladness": 16590,
    "Ġmour": 6973,
    "Ġpond": 13914,
    "Ġeast": 5370,
    "Ġinaccessible": 13932,
    "Ġfairness": 9892,
    "Ġthousand": 2781,
    "mency": 18925,
    "retreat": 23134,
    "tube": 20409,
    "female": 20665,
    "Ġadvancing": 6877,
    "point": 6063,
    "Ġhonor": 5664,
    "Ġharpooned": 13260,
    "Ġsoundings": 13131,
    "Ġpole": 6433,
    "organic": 25946,
    "Ġpomp": 12618,
    "hap": 17558,
    "Ġmaintained": 12930,
    "Ġrejoinder": 24598,
    "ernsey": 8900,
    "Ġpraying": 19553,
    "Ġdifferent": 1429,
    "Ġchronicler": 20228,
    "Ġbi": 919,
    "Ġpulpit": 7470,
    "Ġpalms": 8643,
    "Ġhumor": 11050,
    "iasm": 8061,
    "Ġheartless": 13070,
    "uary": 11536,
    "Ġread": 1447,
    "Ġentit": 22742,
    "ounix": 14162,
    "Ġbutt": 14124,
    "whaleman": 23436,
    "Ġimmediately": 3367,
    "aint": 2541,
    "Ġsinging": 7724,
    "Ġabusing": 18393,
    "Ġaromatic": 25925,
    "Ġunmingled": 18260,
    "examined": 17265,
    "angible": 22103,
    "Ġwinding": 8236,
    "Ġpronounced": 8351,
    "que": 1123,
    "Ġgirdled": 19157,
    "Ġincarnation": 25573,
    "long": 2911,
    "kept": 11714,
    "Ġven": 4646,
    "Ġapprehension": 7113,
    "Ġsentiments": 7961,
    "Ġfifth": 11256,
    "execut": 13653,
    "bular": 15311,
    "Ġern": 8397,
    "rougham": 15990,
    "vour": 17698,
    "Ġlongitude": 11010,
    "Ġwhite": 1538,
    "Ġsaints": 20673,
    "wooden": 24588,
    "luyt": 18454,
    "Ġdeterminate": 23002,
    "questions": 16759,
    "send": 15421,
    "me": 872,
    "Ġvivacity": 14939,
    "Ġright": 1505,
    "cutting": 23783,
    "Ġacc": 574,
    "Ġunbecoming": 22058,
    "formity": 10277,
    "jewel": 20345,
    "Ġsurve": 9872,
    "ont": 2621,
    "Ġforecastle": 5495,
    "Ġcame": 1298,
    "Ġtrait": 23072,
    "toller": 20671,
    "Ġflaw": 23008,
    "Ġobstinacy": 17419,
    "Ġswap": 23049,
    "cuniary": 26378,
    "retaining": 21244,
    "ices": 2138,
    "solic": 16377,
    "nson": 16088,
    "meet": 11853,
    "Ġfilters": 3928,
    "Ġsens": 1852,
    "Ġunprincipled": 20707,
    "consp": 18504,
    "miss": 3175,
    "Ġshouts": 19536,
    "Ġnib": 13938,
    "Ġmoist": 9283,
    "steel": 8299,
    "ognit": 19193,
    "real": 10148,
    "american": 11399,
    "Ġsch": 13833,
    "Ġalike": 8147,
    "Ġfisher": 3225,
    "mb": 910,
    "Ġhonourable": 10455,
    "Ġkingdom": 12015,
    "soft": 12506,
    "Ġstren": 15719,
    "lascar": 20959,
    "strom": 15680,
    "ton": 1728,
    "Ġperch": 10297,
    "Ġstrength": 4258,
    "Ġandrew": 21505,
    "Ġbasement": 24702,
    "narrative": 17317,
    "Ġderiv": 1737,
    "Ġtranquilly": 12287,
    "Ġmontan": 22976,
    "descend": 23083,
    "Ġmetrics": 19087,
    "Ġdep": 753,
    "there": 1425,
    "Ġtumultuous": 10614,
    "Ġcurric": 22994,
    "Ġcentral": 7728,
    "Ġvent": 3999,
    "Ġfriendship": 7246,
    "Ġmarvellous": 7538,
    "Ġlose": 5028,
    "Ġcollected": 2610,
    "Ġmanxman": 9564,
    "Ġwrongfully": 24247,
    "Ġoverladen": 22361,
    "Ġlou": 6822,
    "ivance": 22074,
    "ruin": 22174,
    "Ġalighted": 18103,
    "generosity": 23785,
    "Ġmeditation": 16679,
    "silly": 24421,
    "Ġperiodically": 19493,
    "Ġautomatically": 3573,
    "Ġelasticity": 19557,
    "Ġfloat": 12029,
    "Ġii": 7384,
    "Ġblandly": 20322,
    "##": 2315,
    "Ġflaming": 8563,
    "Ġspoutings": 14674,
    "Ġumbrell": 13648,
    "indebted": 26158,
    "Ġengraving": 17079,
    "health": 13831,
    "unfort": 21874,
    "Ġeyed": 12665,
    "Ġyoungest": 7954,
    "Ġemblem": 20496,
    "fetch": 12461,
    "idents": 6150,
    "Ġsage": 17751,
    "Ġagony": 5388,
    "Ġcarefully": 6304,
    "ignorance": 17160,
    "Ġneg": 1333,
    "Ġlouder": 13466,
    "^": 66,
    "Ġwhaler": 7520,
    "Ġintim": 6838,
    "Ġdyspeps": 16480,
    "repent": 15511,
    "ously": 2493,
    "ac": 741,
    "witted": 17706,
    "Ġprinciple": 6770,
    "Ġactual": 3738,
    "ploy": 2167,
    "Ġsubject": 2466,
    "finished": 10553,
    "Ġsanguine": 25928,
    "Ġgirdle": 19156,
    "Ġafloat": 9306,
    "aphs": 22334,
    "igating": 21698,
    "conc": 3947,
    "Ġvariously": 18653,
    "particulars": 11314,
    "Ġ/*": 10138,
    "Ġfugitives": 25634,
    "Ġbrute": 8924,
    "impul": 16554,
    "Ġobst": 6284,
    "suspended": 15175,
    "confined": 24331,
    "Ġcharted": 22248,
    "Ġmonday": 6127,
    "Ġexcite": 11963,
    "gest": 5426,
    "hear": 10145,
    "rodu": 1819,
    "necessity": 13365,
    "ateral": 19375,
    "Ġmister": 22751,
    "Ġboldly": 9499,
    "Ġengra": 7875,
    "Ġirritated": 17241,
    "Ġimaginative": 19245,
    "shaven": 18487,
    "squee": 15428,
    "prospect": 23394,
    "uniform": 18157,
    "isance": 17847,
    "Ġpresumed": 10543,
    "Ġdictated": 25218,
    "doubtless": 17001,
    "cor": 5520,
    "Ġdarted": 4758,
    "traversed": 19638,
    "Ġrides": 21972,
    "Ġcom": 368,
    "Ġpolicy": 10456,
    "Ġwherefore": 8524,
    "satisfy": 16891,
    "Ġchill": 11749,
    "Ġrestored": 7066,
    "completely": 12417,
    "Ġchurch": 4710,
    "Ġresolve": 13168,
    "passenger": 24165,
    "urs": 6989,
    "Ġtyrant": 24767,
    "Ġhove": 17922,
    "cape": 13695,
    "Ġtra": 1385,
    "dar": 20823,
    "agged": 9235,
    "representativeness": 25272,
    "Ġviolates": 3167,
    "Ġfet": 5807,
    "Ġswaying": 15045,
    "Ġpoisonous": 24887,
    "Ġwarsaw": 26167,
    "Ġkindest": 23291,
    "Ġimmeas": 18330,
    "hoping": 17565,
    "rebell": 17762,
    "oregressive": 3427,
    "wherein": 19107,
    "etieth": 21582,
    "ulence": 15762,
    "Ġavowal": 19413,
    "Ġblindly": 12106,
    "tch": 9140,
    "Ġdons": 17891,
    "such": 3086,
    "Ġfists": 15579,
    "Ġmorality": 22971,
    "gia": 20875,
    "Ġsilently": 6895,
    "urable": 8925,
    "Ġspermacetti": 19049,
    "haust": 5777,
    "Ġsophisticated": 1695,
    "Ġmizen": 17257,
    "tubes": 25211,
    "omen": 4086,
    "Ġexploit": 19161,
    "urmountable": 15277,
    "Ġsmoothed": 23659,
    "Ġsurround": 4616,
    "Ġafraid": 3530,
    "city": 15325,
    "Ġdomestic": 6910,
    "estim": 14168,
    "Ġconcrete": 20635,
    "Ġpossessed": 5195,
    "Ġprecipice": 19939,
    "Ġjing": 15946,
    "tuesday": 17689,
    "Ġinhabitant": 19754,
    "Ġmeal": 9695,
    "consolatory": 25306,
    "Ġhyster": 16872,
    "ĳ": 244,
    "Ġanecdote": 26354,
    "kward": 6958,
    "Ġprimary": 25060,
    "afraid": 10440,
    "Ġplunged": 8692,
    "neighbourhood": 10023,
    "Ġincludes": 2013,
    "Ġcordon": 24393,
    "Ġbleeds": 24396,
    "animation": 16978,
    "Ġdiagon": 24740,
    "Ġincessantly": 11410,
    "Ġhab": 4218,
    "Ġrelease": 19289,
    "Ġinvincible": 23480,
    "Ġintermediate": 18592,
    "Ġlord": 2964,
    "picture": 11406,
    "Ġmoments": 4845,
    "Ġavenue": 13619,
    "Ġspurned": 12793,
    "Ġpossibility": 7458,
    "Ġadaptive": 1253,
    "Ġopp": 2697,
    "Ġscraggy": 24578,
    "Ġmisfortunes": 7041,
    "Ġmuskets": 17055,
    "aggra": 21904,
    "board": 3565,
    "Ġsoftmax": 1686,
    "least": 8783,
    "Ġmusic": 5268,
    "Ġtones": 8400,
    "Ġconfines": 23304,
    "Ġtall": 4038,
    "breast": 11245,
    "Ġexaggerated": 25650,
    "Ġalmanac": 26484,
    "Ġlandsmen": 11350,
    "Ġachieved": 13164,
    "yset": 21144,
    "Ġjapanese": 10631,
    "msman": 9268,
    "Ġworth": 4415,
    "Ġreflection": 6440,
    "Ġteacher": 22909,
    "Ġreign": 13983,
    "Í": 142,
    "surf": 24211,
    "Ġconfusion": 7273,
    "Ġsilken": 16379,
    "ĠĠĠĠĠĠĠĠĠĠĠĠĠĠĠĠĠĠĠĠĠĠĠĠĠĠĠĠĠĠĠĠĠĠĠĠĠĠĠĠĠĠ": 24208,
    "omeness": 18015,
    "Ġcoin": 9769,
    "Ġchased": 8860,
    "Ġlucerne": 23862,
    "Ġsandwich": 19827,
    "ceiving": 3903,
    "Ġwhirlpool": 20654,
    "Ġflail": 23005,
    "Ġclues": 18421,
    "wit": 7818,
    "Ġdispel": 16595,
    "Ġsearching": 13160,
    "Ġresolution": 5500,
    "Ġsentiment": 6589,
    "Ġcoward": 7155,
    "explanation": 12355,
    "Ġstalls": 25647,
    "native": 17611,
    "prejud": 11793,
    "Ġenlarged": 25985,
    "Ġbonnet": 10654,
    "Ġreced": 15688,
    "mistaken": 12207,
    "Ġlayer": 1011,
    "Ġpressure": 13420,
    "Ġpreluding": 18368,
    "Ġtheir": 643,
    "Ġperiods": 13301,
    "Ġtales": 10140,
    "ans": 458,
    "Ġsuits": 22081,
    "delay": 16697,
    "unless": 9233,
    "Ġapartments": 19613,
    "1775": 26377,
    "iah": 14414,
    "Ġcomplicated": 14733,
    "smallest": 23909,
    "Ġglistening": 12362,
    "Ġattending": 3285,
    "ominy": 13976,
    "adventurous": 25361,
    "Ġsurvivors": 25732,
    "ail": 566,
    "ath": 863,
    "Ġ65": 24367,
    "Ġown": 1006,
    "Ġone": 569,
    "Ġunholy": 26218,
    "Ġtickets": 17093,
    "Ġhelplessness": 25071,
    "Ġensigns": 23688,
    "Ġsmoothe": 23658,
    "Ġwaterloo": 11977,
    "knowing": 10436,
    "Ġabsurdities": 24878,
    "Ġdrink": 4787,
    "Ġweaken": 21920,
    "Ġunhing": 18238,
    "Ġpanelled": 19653,
    "Ġmish": 15534,
    "declare": 25173,
    "Ġpersu": 3563,
    "Ġsavory": 23874,
    "Ġparsee": 6413,
    "Ġbillow": 14777,
    "orted": 4602,
    "Ġreassure": 21670,
    "Ġneglected": 10376,
    "Ġhaggerston": 26451,
    "bears": 22487,
    "procure": 23395,
    "fanning": 20865,
    "achment": 5464,
    "Ġslime": 23159,
    "Ġsuccour": 20433,
    "Ġlazy": 17049,
    "Ġpeeping": 16124,
    "Ġextravag": 11253,
    "Ġignited": 25069,
    "Ġupbraiding": 26226,
    "Ġtol": 6675,
    "Ġbleeding": 14878,
    "Ġprevent": 757,
    "lacings": 26134,
    "shunned": 22453,
    "Ġlip": 6532,
    "foolish": 12344,
    "Ġpower": 1319,
    "Ġ10": 5248,
    "agonies": 21907,
    "Ġfretfulness": 25448,
    "100": 11463,
    "dutch": 17217,
    "south": 8758,
    "Ġspoiled": 11362,
    "Ġdemoniac": 15064,
    "Ġeighteenth": 14752,
    "hes": 1397,
    "Ġtemperature": 1004,
    "Ġ82": 24457,
    "contrast": 25594,
    "Ġstates": 1851,
    "Ġloomings": 24949,
    "shelf": 20379,
    "meth": 11501,
    "ively": 1304,
    "ped": 6365,
    "Ġdrows": 21439,
    "Ġattentive": 9032,
    "abroad": 18108,
    "tumultuously": 25613,
    "jected": 22712,
    "Ġrely": 8819,
    "offing": 23332,
    "Ġremains": 4910,
    "Ġkne": 4265,
    "gladness": 25194,
    "Ġfewer": 16218,
    "Ġdistinction": 8884,
    "Ġoppress": 13170,
    "Ġdecline": 9286,
    "Ġvari": 834,
    "Ġicy": 10746,
    "Ġplaint": 10324,
    "roded": 17955,
    "Ġorph": 9715,
    "eat": 11481,
    "entitled": 21566,
    "Ġlounged": 19952,
    "Ġspecks": 14306,
    "ho": 2857,
    "Ġsince": 1798,
    "Ġinstructive": 19284,
    "est": 501,
    "Ġtransom": 22436,
    "Ġwalks": 8965,
    "Ġfield": 1235,
    "Ġcompanion": 3645,
    "Ġtopsails": 19192,
    "Ġopal": 23625,
    "Ġodorous": 19565,
    "Ġhearts": 4972,
    "pshaw": 21027,
    "Ġtolerably": 8068,
    "Ġ57": 24324,
    "sc": 1260,
    "Ġindividually": 22955,
    "Ġrue": 11864,
    "narwhale": 17316,
    "Ġilliterate": 26593,
    "token": 21081,
    "sought": 15425,
    "Ġevermore": 18811,
    "ividual": 5463,
    "parameter": 3042,
    "Ġmaddened": 17243,
    "Ġlurked": 11290,
    "Ġpondering": 17004,
    "individual": 18436,
    "Ġbottom": 3675,
    "Ġrobust": 1383,
    "Ġstatements": 7516,
    "exact": 7911,
    "risonment": 17373,
    "Ġgen": 5296,
    "eldest": 22799,
    "Ġclassify": 1528,
    "athan": 2955,
    "Ġwaste": 9232,
    "Ġworsh": 12996,
    "chants": 21690,
    "Ġconveys": 16854,
    "Ġtoils": 10184,
    "scrape": 25698,
    "Ġlabyrin": 13102,
    "helpless": 16789,
    "sized": 15426,
    "ë": 172,
    "miles": 10711,
    "Ġstraps": 19308,
    "Ġhercules": 14126,
    "task": 13791,
    "estate": 12817,
    "Ġtakes": 5007,
    "disappeared": 14569,
    "Ġremarked": 3696,
    "Ġvexations": 24610,
    "Ġsacrificed": 17420,
    "Ġacknowledgment": 16956,
    "Ġdiffident": 23782,
    "Ġsaid": 578,
    "Ġspam": 7630,
    "Ġparcel": 15197,
    "Ã": 132,
    "consideration": 14953,
    "Ġspurn": 18309,
    "ound": 585,
    "Ġtragedies": 25241,
    "hol": 3840,
    "Ġchapter": 2954,
    "Ġrobots": 11082,
    "aper": 4999,
    "Ġought": 3422,
    "Ġtempor": 2366,
    "Ġblessings": 24175,
    "rossed": 11012,
    "Ġcrouching": 23444,
    "client": 18931,
    "Ġboasting": 19934,
    "Ġguided": 10459,
    "bitious": 16668,
    "Ġsmiting": 12894,
    "conditionally": 24834,
    "Ġfortifications": 23619,
    "cen": 17501,
    "Ġhurled": 10428,
    "Ġrested": 9377,
    "harbor": 13562,
    "Ġguards": 16266,
    "shame": 16017,
    "Ġspouting": 9437,
    "Ġfanatic": 23390,
    "acknowledging": 25476,
    "Ġardent": 9968,
    "Ġnicely": 8708,
    "Ġbremen": 23344,
    "ethe": 9675,
    "Ġsquaw": 22841,
    "oat": 13762,
    "then": 2053,
    "Ġal": 342,
    "secre": 18127,
    "itt": 571,
    "itically": 21328,
    "illed": 2623,
    "Ġsavann": 14683,
    "Ġmeetings": 16531,
    "Ġ126": 24470,
    "ophisticated": 22476,
    "Ġcivilities": 14846,
    "Ć": 199,
    "astic": 1868,
    "Ġtuples": 13475,
    "partiality": 13158,
    "always": 5708,
    "ohog": 9841,
    "Ġsummary": 19401,
    "Ġcretan": 22721,
    "Ġrises": 9711,
    "Ġaccomplishments": 13377,
    "Ġglit": 8559,
    "Ġmaxim": 3088,
    "slanting": 24557,
    "Ġrover": 18456,
    "Ġcottage": 4734,
    "enchant": 21282,
    "presum": 12864,
    "Ġfamiliarity": 16728,
    "opposite": 19928,
    "ĭ": 238,
    "devil": 7896,
    "ß": 160,
    "Ġoverwhelming": 17101,
    "Ġacquainted": 5179,
    "oise": 15402,
    "fect": 2299,
    "Ġunreserved": 19395,
    "Ġproverb": 12712,
    "bid": 5610,
    "Ġsurgeons": 23465,
    "gather": 20874,
    "hent": 12530,
    "Ġstrongest": 11134,
    "gor": 546,
    "supers": 22632,
    "Ġskip": 1844,
    "adoes": 11658,
    "Ġearls": 18903,
    ")(": 2980,
    "Ġbeeches": 9225,
    "Ġadler": 8174,
    "Ġsteal": 16281,
    "Ġacquaint": 13041,
    "Ġri": 3397,
    "Ġhonoured": 9879,
    "Ġliv": 6679,
    "Ġgangway": 20157,
    "Ġveins": 8931,
    "aswag": 21544,
    "Ġserving": 14484,
    "yd": 21141,
    "Ġbruised": 25772,
    "Ġfishe": 15582,
    "aciously": 12903,
    "Ġmounts": 17806,
    "Ġloc": 10913,
    "Ġcordage": 19677,
    "Ġrevel": 9213,
    "Ġwra": 5906,
    "screen": 22989,
    "trowsers": 17690,
    "Ġextravagant": 17277,
    "Ġquadrant": 11403,
    ").": 1272,
    "Ġdominic": 25381,
    "³": 116,
    "Ġforbade": 15212,
    "orn": 2243,
    "Ġstarlight": 24627,
    "ria": 15795,
    "Ġunch": 18236,
    "ful": 683,
    "Ġepicurean": 20554,
    "Ġfollies": 16251,
    "Ġaccurately": 4072,
    "Ġbo": 797,
    "Ġbelief": 5855,
    "Ġindustry": 18836,
    "verest": 13989,
    "cou": 13693,
    "odhead": 18120,
    "furthest": 19840,
    "rrh": 26144,
    "Ġconfinement": 19039,
    "also": 7851,
    "Ġconcisely": 19044,
    "bringing": 17165,
    "congreg": 25398,
    "Ġspeak": 2231,
    "ersman": 11699,
    "Ġaccumulating": 2723,
    "Ġsnugly": 17110,
    "Ġprovid": 1007,
    "Ġsupports": 3054,
    "irty": 4049,
    "scorched": 25697,
    "Ġshoot": 11160,
    "Ġcusack": 26432,
    "Ġregular": 934,
    "Ġthickness": 13275,
    "Ġneighb": 14074,
    "outer": 9667,
    "Ġcuriosity": 2546,
    "bonnet": 25742,
    "Ġ34": 16676,
    "Ġtimber": 13347,
    "Ġmusical": 23891,
    "Ġplague": 11821,
    "Ġprecious": 5760,
    "\",": 10677,
    "Ġgrappling": 25812,
    "Ġoper": 2121,
    "Ġappeal": 16312,
    "Ġcareer": 11117,
    "Ġchronicle": 20227,
    "Ġmaybe": 12945,
    "Ġassail": 13059,
    "Ġdarcy": 1343,
    "Ġconj": 8460,
    "on": 267,
    "Ġ74": 24260,
    "miserably": 24209,
    "Ġalternate": 19984,
    "first": 3934,
    "ding": 1229,
    "Ġasp": 15777,
    "circumstantial": 24443,
    "Ġconcre": 16384,
    "Ġcash": 9651,
    "pense": 10367,
    "present": 1138,
    "Ġsqualid": 14367,
    "Ġconciliating": 19047,
    "warmly": 25026,
    "appalling": 22849,
    "Ġpurchas": 19873,
    "Ġinsurgents": 26599,
    "Ġstrive": 23692,
    "Ġtrivial": 10141,
    "gives": 15355,
    "ivil": 6411,
    "incl": 8110,
    "thence": 23398,
    "Ġfringe": 17270,
    "Ġsteel": 3890,
    "Ġacting": 10990,
    "pse": 21008,
    "Ġtelegram": 15221,
    "Ġrequested": 14305,
    "Ġgurglings": 26464,
    "caused": 25519,
    "Ġdeposit": 17267,
    "Ġways": 5396,
    "Ġpainting": 13139,
    "Ġresigned": 9766,
    "prove": 11146,
    "resum": 17760,
    "ek": 1906,
    "stra": 4045,
    "Ġribbons": 24328,
    "Ġkind": 1784,
    "plexion": 14259,
    "Ġdefines": 1743,
    "Ġwool": 19431,
    "Ġtraditions": 11442,
    "Ġexperience": 1401,
    "ying": 1452,
    ".âĢĿ": 463,
    "ą": 198,
    "signs": 16537,
    "Ġrecovery": 11440,
    "Ġframed": 19030,
    "protested": 13472,
    "Ġargued": 13627,
    "Ġhist": 2447,
    "Ġpalaces": 24088,
    "serpent": 16289,
    "arted": 2205,
    "Ġtawn": 13821,
    "Ġilluminating": 25245,
    "savage": 15073,
    "sequence": 2855,
    "Ġexhilarating": 26337,
    "Ġscare": 18397,
    "Ġdam": 2218,
    "vine": 10733,
    "Ġforked": 11662,
    "idirection": 2413,
    "support": 9468,
    "men": 1486,
    "jammed": 25906,
    "shiver": 16019,
    "Ġsundering": 23273,
    "Ġcomparison": 7099,
    "Ġseen": 1370,
    "Ġmant": 9646,
    "col": 3105,
    "jackets": 24895,
    "insupportable": 21192,
    "Ġincline": 18569,
    "Ġagrees": 22513,
    "aul": 6352,
    "itioned": 22467,
    "uiperai": 10662,
    "shape": 10980,
    "Ġberg": 24535,
    "blunder": 24128,
    "thoughts": 9933,
    "faced": 8080,
    "Ġpicture": 4856,
    "Ġtopmost": 14586,
    "Ġsolemnity": 9939,
    "yard": 5900,
    "Ġcouns": 10519,
    "Ġdr": 2824,
    "Ġwrapped": 8342,
    "acca": 23596,
    "secure": 12232,
    "Ġsultry": 20287,
    "Ġswiftness": 9925,
    "appin": 18758,
    "impenet": 18053,
    "Ġswam": 6448,
    "ideas": 18581,
    "sleeve": 26108,
    "requ": 7148,
    "Ġneedle": 8275,
    "ough": 470,
    "threshold": 21985,
    "Ġsending": 8774,
    "pro": 2050,
    "ahead": 12431,
    "Ġfibres": 12947,
    "Ġwherein": 14291,
    "Ġlively": 5449,
    "rendered": 22337,
    "Ġfeast": 10276,
    "sar": 12501,
    "Ġconversations": 9423,
    "Ġsocial": 7007,
    "Ġinvaluable": 10181,
    "Ġrandom": 1586,
    "Ġcottages": 14725,
    "Ġjealousy": 13574,
    "Ġhatter": 4112,
    "Ġconveniently": 20077,
    "cheered": 23804,
    "Ġrushed": 4087,
    "Ġjealous": 9467,
    "tumult": 12420,
    "Ġhatherley": 7849,
    "Ġholes": 16405,
    "Ġtram": 11091,
    "Ġsnowy": 9016,
    "Ġvesu": 21947,
    "Ġdeified": 18140,
    "zes": 11547,
    "Ġvowed": 14082,
    "Ġnapoleon": 20556,
    "Ġgenerations": 10963,
    "Ġrepair": 11975,
    "Ġunthink": 18244,
    "Ġlivel": 11354,
    "snatched": 24850,
    "ensibility": 22545,
    "Ġplaid": 22598,
    "Ġrenew": 6145,
    "Ġsummoned": 9909,
    "Ġaristotle": 25817,
    "crimin": 17507,
    "days": 7688,
    "Ġstudded": 18973,
    "Ġrueful": 25581,
    "xes": 21139,
    "Ġowners": 7663,
    "Ġannum": 24202,
    "ference": 1882,
    "uge": 4017,
    "idual": 1558,
    "delighted": 10561,
    "Ġunerring": 15844,
    "corpse": 24485,
    "Ġtrance": 12837,
    "Ġranks": 21973,
    "Ġprincipally": 11308,
    "Ġreaders": 18914,
    "ince": 4339,
    "Ġpres": 9730,
    "tered": 2232,
    "Ġturn": 1296,
    "Ġlament": 7857,
    "Ġpacifics": 24372,
    "Ġunfinished": 19508,
    "Ġsacrific": 15016,
    "sisters": 13374,
    "Ġhoneymoon": 25645,
    "ental": 7168,
    "Ġclimbing": 20068,
    "Ġentangled": 10344,
    "Ġimped": 18443,
    "over": 1845,
    "Ġproof": 6153,
    "Ġcrater": 16437,
    "Ġplatform": 17130,
    "persuasion": 20042,
    "Ġfiends": 14826,
    "Ġontario": 26205,
    "jo": 3753,
    "dragging": 16608,
    "Ġbunch": 11325,
    "Ġexagger": 12715,
    "absent": 21788,
    "fluke": 25204,
    "Ġcoquet": 22582,
    "Ġprophets": 20449,
    "Ġprejudiced": 24809,
    ",âĢĻ": 2326,
    "Ġsublimity": 26345,
    "ith": 330,
    "Ġdedicated": 19247,
    "Ġafter": 870,
    "Ġbordeaux": 24563,
    "Ġquestioning": 10463,
    "Ġcouldn": 7648,
    "Ġgore": 17988,
    "Ġascertaining": 17202,
    "collins": 6916,
    "Ġconven": 6151,
    "Ġcircumstance": 4987,
    "Ġproject": 5545,
    "sence": 3308,
    "Ġgallery": 10523,
    "Ġglare": 13009,
    "Ġinflex": 20633,
    "Ġunbelief": 22043,
    "Ġpliny": 11822,
    "Ġrelinquish": 17345,
    "Ġknitting": 24217,
    "fav": 6646,
    "blending": 24127,
    "whims": 22237,
    "Ġbowing": 10474,
    "aunt": 8370,
    "event": 8077,
    "Ġdisquis": 22525,
    "often": 6165,
    "best": 6111,
    "Ġharriet": 24571,
    "Ġph": 1548,
    "ism": 4874,
    "Ġsashes": 21224,
    "Ġgrap": 11704,
    "Ġdismantled": 20215,
    "Ġpermanent": 13629,
    "pool": 16206,
    "Ġtex": 15470,
    "Ġsane": 21220,
    "ynolds": 10034,
    "Ġmentioned": 4329,
    "Ġembrace": 16989,
    "achable": 14130,
    "Ġunrival": 22041,
    "Ġmaid": 5285,
    "loath": 22505,
    "Ġcattle": 12568,
    "Ġheaviest": 23323,
    "mo": 864,
    "haz": 17563,
    "pleas": 3853,
    "Ġheadland": 22894,
    "difference": 13706,
    "Ġdumbly": 24987,
    "Ġglories": 16236,
    "disciple": 16777,
    "Ġ----": 7145,
    "Ġassizes": 11108,
    "Ġfootfall": 14660,
    "Ġboister": 12916,
    "warn": 11541,
    "Ġwhilst": 9217,
    "Ġsorry": 4210,
    "Ġmemo": 18116,
    "Ġelement": 6898,
    "desired": 8955,
    "Ġdash": 8122,
    "Ġvisitor": 5330,
    "cturn": 17986,
    "ladyship": 14827,
    "warks": 5004,
    "din": 8374,
    "Ġmutable": 23952,
    "Ġmaintain": 856,
    "ificent": 8184,
    "Ġsupers": 18279,
    "Ġsar": 21212,
    "Ġdaw": 21433,
    "gam": 10094,
    "Ġdaughter": 2869,
    "Ġsaint": 15505,
    "ifying": 5251,
    "Ġagain": 814,
    "plish": 18208,
    "uned": 21869,
    "ase": 1159,
    "theories": 18078,
    "Ġpelt": 15606,
    "inea": 7622,
    "nesday": 8702,
    "torn": 17681,
    "what": 642,
    "Ġalbino": 20501,
    "cannon": 22960,
    "Ġviolent": 5117,
    "ram": 13970,
    "Ġprank": 23214,
    "attracted": 13047,
    "Ġtransaction": 22437,
    "Ġelements": 2665,
    "berwell": 22716,
    "Ġstorms": 11261,
    "instance": 24167,
    "Ġbraved": 23835,
    "Ġburg": 23654,
    "Ġwall": 3844,
    "pervading": 18948,
    "mightily": 24101,
    "watch": 6118,
    "Ġsquint": 22840,
    "Ô": 149,
    "Ġperv": 15987,
    "Ġnails": 12644,
    "Ġinclu": 1098,
    "asper": 7855,
    "Ġinexpressible": 17331,
    "greg": 6647,
    "Ġdoings": 18375,
    "lyph": 10851,
    "Ġfeel": 1262,
    "Ġhunks": 18935,
    "Ġsits": 10767,
    "Ġcumulative": 4211,
    "wheel": 22869,
    "inable": 11554,
    "Ġgazed": 6478,
    "amy": 8467,
    "Ġsweat": 13138,
    "clever": 20812,
    "do": 1997,
    "Ġdisput": 14254,
    "Ġskipper": 22796,
    "uch": 877,
    "henomena": 20271,
    "less": 927,
    "Ġexecute": 7505,
    "Ġhateful": 19712,
    "rally": 17650,
    "Ġsto": 1499,
    "derick": 22160,
    "Ġexpectation": 6904,
    "Ġnomine": 26455,
    "urp": 1474,
    "Ġunscrew": 22034,
    "urning": 12912,
    "Ġrapt": 7224,
    "bar": 7541,
    "Ġsubordinate": 18720,
    "sorrows": 17318,
    "Ġtreading": 16503,
    "Ġwholly": 4446,
    "ister": 1293,
    "Ġcomparable": 24277,
    "gaining": 20122,
    "Ġboyhood": 23753,
    "attentive": 17188,
    "Ġgracious": 8845,
    "Ġdistrust": 8204,
    "Ġunhallowed": 17179,
    "Ġhurriedly": 11249,
    "Ġiteratively": 3061,
    "Ġwhiskers": 10491,
    "Ġarising": 10932,
    "Ġfeeble": 12281,
    "]": 65,
    "umed": 6554,
    "î": 175,
    "lim": 9605,
    "heim": 17745,
    "Ġjamming": 17263,
    "Ġgracechurch": 12195,
    "Ġstudied": 11114,
    "hills": 13734,
    "Ġcrawford": 24893,
    "excitement": 19668,
    "lested": 14881,
    "Ġuns": 15833,
    "Ġsublim": 19965,
    "Ġcandles": 9906,
    "Ġ1671": 25005,
    "Ġpilot": 5985,
    "Ġwidely": 8033,
    "Ġprying": 15605,
    "Ġunimaginable": 15244,
    "Ġstum": 21732,
    "loud": 11499,
    "Ġoriginate": 24120,
    "Ġacknowledges": 24688,
    "databases": 3026,
    "Ġhailed": 6407,
    "Ġshouted": 5347,
    "Ġminim": 1324,
    "Ġordered": 5832,
    "aurs": 20768,
    "Ġhereditarily": 25224,
    "Ġinquiring": 8998,
    "Ġyea": 8914,
    "Ġvine": 8471,
    "Ġindignantly": 16938,
    "Ġindic": 2886,
    "involved": 25626,
    "Ġjustification": 22964,
    "Ġgrind": 18734,
    "Ġwillingly": 8883,
    "Ġdisgra": 18549,
    "aves": 3601,
    "âĢľ": 344,
    "mouthful": 25208,
    "thousands": 16869,
    "Ġrepast": 16408,
    "Ġunlab": 3789,
    "Ġlac": 17964,
    "âĢĿ;": 11668,
    "Ġdangling": 17173,
    "Ġconcise": 23321,
    "comfortably": 16874,
    "tiger": 13795,
    "Ġferrule": 24516,
    "Ġwhatsoever": 18455,
    "Ġguardians": 14941,
    "ilty": 6394,
    "strangers": 20335,
    "entering": 17976,
    "rue": 1125,
    "movement": 25577,
    "Ġmarshal": 20218,
    "Ġencamped": 22801,
    "Ġvegetables": 15219,
    "Ġexhausting": 24710,
    "Ġfurnishes": 19439,
    "remembered": 17349,
    "itate": 6667,
    "vessel": 11376,
    "Ġgratification": 24093,
    "ble": 542,
    "culiarity": 11140,
    "Ġabhorred": 9506,
    "Ġfamiliarly": 11302,
    "Ġflash": 8230,
    "Ġtherefore": 2240,
    "taller": 26150,
    "fi": 12458,
    "Ġsteps": 2863,
    "Ġinclination": 6623,
    "Ġswamp": 14435,
    "latitude": 25259,
    "inconsiderable": 21190,
    "Ġaccused": 8507,
    "Ġdocumentation": 20553,
    "Ġclutching": 24951,
    "corners": 17366,
    "assment": 9737,
    "Ġglancing": 5399,
    "Ġcertainty": 6734,
    "Ġboxes": 13372,
    "Ġprocuring": 16867,
    "Ġtrustees": 24105,
    "freighted": 14890,
    "Ġmighty": 4229,
    "Ġgait": 13328,
    "etimes": 1989,
    "uguese": 20731,
    "Ġcabs": 23640,
    "icial": 12651,
    "Ġcalmness": 12089,
    "li": 1188,
    "Ġspeakest": 23486,
    "Ġinspirited": 23419,
    "devils": 20031,
    "Ġgardens": 16452,
    "Ġhospitable": 17058,
    "Ġvaried": 11845,
    "tle": 2410,
    "Ġendowed": 18924,
    "Ġoccasionally": 5589,
    "Ġspies": 22126,
    "Ġhamp": 12626,
    "Ġrecorded": 11292,
    "Ġrossum": 3015,
    "partner": 19220,
    "reserve": 17764,
    "Ġassign": 11109,
    "nonsense": 17614,
    "Ġcommunications": 16352,
    "natured": 7110,
    "birds": 15142,
    "Ġlucy": 17969,
    "Ġsubproblems": 12953,
    "Ġrecourse": 22739,
    "hide": 10702,
    "Ġequinox": 25855,
    "guess": 14759,
    "chronicle": 26479,
    "Ġrustic": 14963,
    "Ġpardon": 5727,
    "Ġroute": 11380,
    "timidity": 25753,
    "becomes": 22493,
    "Ġsaturday": 6452,
    "Ġparagraph": 17452,
    "Ġshoved": 23490,
    "Ġpractically": 13100,
    "Ġpassenger": 14368,
    "laid": 10108,
    "liest": 6294,
    "teeth": 10354,
    "gyric": 19109,
    "sche": 13011,
    "Ġhowling": 8509,
    "Ġnobler": 14172,
    "Ġbedford": 7473,
    "easily": 17533,
    "Ġweighty": 16028,
    "Ġphil": 3386,
    "Ġbeat": 4490,
    "Ġrocking": 10968,
    "au": 777,
    "Ġslily": 23162,
    "Ġicelandic": 25886,
    "Ġbenefactor": 14696,
    "sick": 13782,
    "ving": 594,
    "compliment": 11363,
    "Ġsubstit": 19539,
    "Ġcords": 14877,
    "nels": 12492,
    "Ġ110": 24434,
    "Ġweigh": 10893,
    "ccess": 3184,
    "Ġnash": 5819,
    "Ġfilled": 4393,
    "Ġmccauley": 26426,
    "mysteries": 26051,
    "bitt": 17484,
    "Ġlaurel": 20653,
    "Ġdyspepsia": 20642,
    "Ġcontain": 1552,
    "sequ": 2401,
    "Ġnotable": 18222,
    "Ġagonies": 14250,
    "aret": 7417,
    "skirted": 24488,
    "Ġtwee": 22673,
    "resol": 17759,
    "your": 1986,
    "Ġspit": 22122,
    "paus": 13771,
    "Ġleap": 5823,
    "Ġequilib": 4136,
    "Ġnorms": 3667,
    "antic": 1601,
    "filled": 9593,
    "Ġpropose": 9851,
    "Ġsteadfast": 8678,
    "prep": 9757,
    "ĠĠĠĠĠĠĠĠĠĠĠĠĠĠĠĠĠĠĠĠĠĠĠĠĠĠĠĠĠĠĠĠĠĠ": 14612,
    "Ġdot": 4821,
    "Ġabsolute": 6765,
    "nt": 921,
    "Ġagreeing": 20017,
    "anity": 9653,
    "Ġdiscrimin": 2545,
    "Ġdorm": 4822,
    "Ġsculpt": 15944,
    "hands": 5967,
    "fact": 6358,
    "poverty": 22907,
    "ch": 321,
    "indust": 18435,
    "Ġfreezing": 23881,
    "admon": 21759,
    "ulsive": 10232,
    "Ġdevoted": 6573,
    "Ġattention": 1181,
    "Ī": 235,
    "Ġinstructed": 19283,
    "slee": 17167,
    "sam": 21050,
    "Ġcriminal": 7537,
    "actorily": 25576,
    "Ġsharing": 3477,
    "ignorantly": 25189,
    "Ġoverhear": 15973,
    "Ġrespects": 7269,
    "Ġwreak": 16816,
    "right": 2768,
    "wholly": 10940,
    "Ġunfrequ": 19507,
    "Ġmirror": 12375,
    "Ġmargin": 11918,
    "Ġwager": 17792,
    "Ġheightened": 8648,
    "Ġinsatiable": 19271,
    "definition": 23118,
    "Ġper": 587,
    "Ġtahit": 10753,
    "msgate": 18412,
    "Ġkeeps": 8267,
    "Ġafghan": 22628,
    "august": 11070,
    "Ġredden": 15690,
    "networks": 2405,
    "soles": 18687,
    "azore": 23463,
    "bred": 11468,
    "Ġproblems": 2848,
    "onings": 21251,
    "Ġlig": 21546,
    "Ġhopkins": 23129,
    "Ġimpetuous": 25570,
    "Ġexasper": 8466,
    "insurance": 18888,
    "Ġconnections": 971,
    "Ġi": 311,
    "hyena": 24251,
    "ded": 2423,
    "ab": 345,
    "Ġmari": 6813,
    "tons": 7559,
    "Ġpork": 21456,
    "Ġfixedly": 19246,
    "Ġrambling": 18635,
    "Ġvess": 3296,
    "Ġslammed": 20446,
    "Ġethics": 15460,
    "Ġquivering": 12854,
    "Ġelsewhere": 7713,
    "Ġ52": 24320,
    "gust": 6360,
    "Ġprudential": 17919,
    "ø": 185,
    "Ġfurled": 22812,
    "shipping": 10306,
    "va": 4743,
    "Ġancestry": 25641,
    "urbed": 15704,
    "sutherland": 21061,
    "mbl": 5947,
    "Ġsporting": 16998,
    "za": 13808,
    "Ġmorcar": 13007,
    "meditation": 19066,
    "ogne": 12932,
    "Ġtem": 806,
    "Ġmorsel": 20676,
    "Ġnarwhale": 12290,
    "Ġglimmering": 25240,
    "Ġregularization": 1168,
    "Ġc": 277,
    "Ġped": 6817,
    "Ġsensitivity": 3072,
    "Ġunimag": 12770,
    "Ġnarrated": 14869,
    "actions": 8905,
    "elect": 20845,
    "vengeance": 13354,
    "storm": 9680,
    "_,âĢĻâĢĿ": 20399,
    "Ġattachment": 6050,
    "J": 46,
    "thin": 14095,
    "Ġobserve": 4670,
    "Ġeber": 18003,
    "Ġbu": 3683,
    "Ġshrill": 12138,
    "Ġig": 3501,
    "desol": 13065,
    "Ġdl": 3377,
    "trained": 4238,
    "benefact": 24641,
    "Ġlink": 8130,
    "matical": 13127,
    "Ġheaving": 7600,
    "Ġconcerning": 4068,
    "seeking": 17151,
    "Ġassures": 14463,
    "ogany": 18672,
    "Ġmasterly": 23991,
    "Ġrucastle": 5176,
    "blacksmith": 17000,
    "Ġwhose": 2010,
    "Ġwood": 2291,
    "Ġauthent": 14504,
    "Ġgreenland": 5761,
    "abb": 15735,
    "mystical": 25317,
    "Ġceremonies": 24836,
    "plendent": 21962,
    "glow": 20873,
    "Ġcompare": 9300,
    "pen": 1203,
    "hastening": 24447,
    "Ġarsac": 11739,
    "soundest": 24797,
    "sl": 5794,
    "Ġfare": 5809,
    "Ġvote": 21945,
    "Ġmaintaining": 1508,
    "Ġsarat": 21226,
    "lovel": 22507,
    "Ġgild": 15665,
    "Ġhull": 5446,
    "Ġgrud": 17995,
    "Ġscramble": 24577,
    "german": 11490,
    "Ġimpat": 4455,
    "Ġriddle": 14818,
    "Ġperfect": 2556,
    "Ġcultivation": 17144,
    "oration": 2212,
    "uded": 6286,
    "Ġloth": 17965,
    "¿": 128,
    "hereditary": 26418,
    "pencil": 18827,
    "prick": 19341,
    "Ġfatig": 6756,
    "inuating": 16201,
    "flying": 13719,
    "Ġhearers": 15699,
    "Ġcondu": 18109,
    "ousness": 10273,
    "Ġmich": 21304,
    "Ġchief": 3382,
    "Ġdeliber": 7268,
    "Ġunde": 11709,
    "Ġarrival": 4731,
    "Ġhomage": 12352,
    "simply": 20669,
    "Ġsalutations": 25382,
    "rol": 5713,
    "Ġadjust": 2156,
    "Ġideal": 13119,
    "hanging": 10099,
    "Ġburly": 19249,
    "Ġkill": 4453,
    "ines": 663,
    "Ġhuge": 4699,
    "ie": 729,
    "Ġoccupant": 16650,
    "Ġpoland": 23616,
    "Ġcreating": 2997,
    "Ġmilliner": 19883,
    "na": 13758,
    "Ġconcern": 2585,
    "Ġmem": 2069,
    "expose": 23664,
    "Ġlunacy": 20026,
    ";--": 8069,
    "Ġpane": 21462,
    "terr": 8154,
    "Ġshavings": 14108,
    "author": 9858,
    "Ġverdant": 15001,
    "Ġadmeasurements": 26225,
    "|": 96,
    "Ġcaptioning": 23018,
    "spir": 5738,
    "Ġassault": 9835,
    "descried": 11926,
    "much": 3706,
    "ances": 1338,
    "icing": 9199,
    "unfortunate": 15773,
    "med": 1907,
    "Ġrejo": 5916,
    "triumph": 15438,
    "Ġroods": 22402,
    "impenetrable": 26196,
    "apprehens": 17404,
    "Ġbund": 17863,
    "Ġbird": 3758,
    "Ġarrowy": 25469,
    "Ġhearken": 21683,
    "black": 6768,
    "Ġlaughs": 24115,
    "Ġunerringly": 18262,
    "Ġameric": 3855,
    "Ġtwisting": 18658,
    "said": 4104,
    "Ġcerem": 7077,
    "dart": 20825,
    "unavoid": 14060,
    "itional": 22466,
    "but": 592,
    "Ġthen": 666,
    "Ġjolly": 6858,
    "sch": 21049,
    "Ġhumble": 8551,
    "Ġavenues": 25429,
    "onomy": 12543,
    "Ġcollectively": 19966,
    "Ġcomplexion": 8210,
    "Ġreigned": 13985,
    "Ġunduly": 25994,
    "Ġmaking": 1779,
    "Ġneighbourhood": 5126,
    "Ġrout": 7402,
    "Ġidler": 16403,
    "Ġhiding": 9821,
    "adr": 6994,
    "cannibals": 25584,
    "Ġtheirs": 7024,
    "gloom": 17138,
    "Ġoxford": 11370,
    "Ġplayed": 9414,
    "wondrous": 12335,
    "Ġstudies": 7956,
    "Ġplucked": 15111,
    "Ġwhether": 2002,
    "ĠĠĠĠĠĠĠĠĠĠĠĠĠĠĠĠĠĠĠĠĠĠĠĠĠĠĠĠĠĠĠĠĠĠĠĠĠĠĠĠĠĠĠĠĠ": 9950,
    "Ġgreen": 3056,
    "Ġcarve": 23090,
    "Ġhopelessly": 16376,
    "Ġrevolve": 19728,
    "Ġplaintiffs": 13607,
    "coff": 9107,
    ".,": 5988,
    "Ġcensure": 15093,
    "Ġticklish": 25034,
    "Ġundecided": 22042,
    "iron": 3712,
    "Ġwalking": 4324,
    "ills": 1626,
    "Ġidiotic": 25588,
    "Ġaugment": 8691,
    "love": 9292,
    "Ġunwe": 15835,
    "Ġriver": 5411,
    "uits": 21103,
    "Ġ2026": 12332,
    "ting": 1334,
    "ically": 850,
    "Ġcoronation": 13331,
    "Ġactiv": 835,
    "Ġpit": 3423,
    "prop": 1035,
    "Ġmarlings": 23034,
    "proved": 11983,
    "ceive": 3067,
    "Ġrestrained": 16370,
    "repeat": 25151,
    "Ġsweeter": 23915,
    "mai": 22912,
    "oing": 15399,
    "Ġsplashing": 16548,
    "Ġinarticulate": 21498,
    "Ġdoom": 6417,
    "Ġthrusts": 24349,
    "Ġoblivion": 26031,
    "lu": 597,
    "dark": 5613,
    "Ġbarred": 9001,
    "Ġteacup": 16210,
    "ii": 4015,
    "mingled": 14711,
    "Ġembell": 14410,
    "prof": 7699,
    "Ġcommod": 10332,
    "Ġlibr": 15997,
    "Ġwines": 21286,
    "Ġpaused": 5416,
    "twenty": 6607,
    "elling": 5830,
    "lotts": 23823,
    "Ġhinges": 15210,
    "Ġardu": 22187,
    "anging": 3551,
    "hun": 5210,
    "precisely": 6917,
    "Ġgetting": 4065,
    "Ġremorselessly": 16966,
    "last": 3803,
    "Ġmisfortune": 5568,
    "cheerful": 13573,
    "Ġancest": 12610,
    "Ġcertainly": 2499,
    "fr": 4804,
    "Ġgloss": 11954,
    "Ġharsh": 9519,
    "Ġskirting": 22795,
    "ichever": 13955,
    "Ġdelightfully": 13156,
    "grand": 7971,
    "Ġdoubted": 7965,
    "caves": 20815,
    "Ġvinc": 14083,
    "Ġchall": 10943,
    "Ġalgorithms": 840,
    "Ġcollect": 7237,
    "Ġdeveloped": 16348,
    "craft": 12243,
    "Ġhospital": 15038,
    "Ġsing": 3077,
    "Ġquicker": 16506,
    "plied": 10254,
    "Ġcleanse": 24526,
    "heidelburgh": 21210,
    "Ġsplit": 7993,
    "Ġbrig": 11046,
    "Ġtechnically": 12363,
    "Ġmonoman": 7939,
    "sies": 21053,
    "bore": 13684,
    "Ġrambles": 17183,
    "Ġoptimization": 1436,
    "Ġthroats": 24574,
    "Ġflee": 7079,
    "enit": 17778,
    "Ġintroducing": 11972,
    "Ġwretchedness": 9025,
    "Ġresentment": 7530,
    "Ġfrantically": 23257,
    "upwards": 18863,
    "Ġmarrying": 6177,
    "Ġbrain": 2088,
    "Ġpow": 4636,
    "prec": 3203,
    "Ġlevel": 5020,
    "Ġunwelcome": 12775,
    "hawk": 7121,
    "Ġdancing": 5703,
    "adow": 18087,
    "Ġlist": 2365,
    "Ġheavens": 5050,
    "skylight": 25623,
    "Ġsnap": 11199,
    "card": 11474,
    "Ġsparkling": 11355,
    "Ġplum": 11819,
    "twinkle": 23702,
    "Ġhumility": 12981,
    "Ġtrip": 16787,
    "Ġrevolt": 24500,
    "medi": 2627,
    "Ġanxiously": 8290,
    "Ġpent": 17903,
    "elements": 25203,
    "orrah": 17875,
    "intu": 22931,
    "uture": 1132,
    "Ġsubstitute": 16725,
    "Ġabound": 8862,
    "Ġdisplays": 19856,
    "place": 4153,
    "Ġcountry": 2532,
    "nets": 9131,
    "Ġincognita": 26550,
    "Ġepis": 19980,
    "Ġbitterly": 8315,
    "Ġinherent": 4590,
    "Ġreason": 1356,
    "Ġconcert": 11964,
    "Ġtubs": 11369,
    "Ġinquiry": 6484,
    "Ġwarb": 17787,
    "ping": 9614,
    "Ġmichigan": 26425,
    "Ġhanged": 17924,
    "madly": 24419,
    "follow": 5680,
    "Ġscra": 5841,
    "favourite": 15141,
    "Ġburied": 7719,
    "Ġwedge": 24066,
    "beryls": 25309,
    "Ġanat": 8124,
    "Ġpollard": 20384,
    "etwork": 443,
    "Ġcondescended": 19954,
    "concent": 19478,
    "god": 4863,
    "Ġaustral": 12169,
    "Ġmists": 14629,
    "opence": 18507,
    "Ġperuvian": 18453,
    "Ġbenignity": 18783,
    "prodig": 16424,
    "Ġleader": 14700,
    "Ġkeener": 22913,
    "helmsman": 24286,
    "gle": 20868,
    "Ġhenceforth": 19646,
    "Ġminiature": 11039,
    "six": 7141,
    "che": 3173,
    "ampling": 12722,
    "Ġforeman": 23448,
    "nx": 17606,
    "Ġwis": 3729,
    "Ġvalidate": 2973,
    "Ġmention": 2985,
    "icating": 15651,
    "Ġharpooneer": 3773,
    "nuee": 17428,
    "unnecessary": 21878,
    "points": 14391,
    "unken": 10235,
    "Ġrecomm": 4996,
    "okingly": 22376,
    "Ġgouge": 26188,
    "Ġlitter": 19828,
    "idually": 21767,
    "oric": 21394,
    "Ġsoftly": 7948,
    "Ġju": 10285,
    "orrowed": 19288,
    "Ġencounters": 19579,
    "Ġawa": 7714,
    "Ġdeterm": 1270,
    "Ġnarrating": 24350,
    "Ġmagg": 18905,
    "wondered": 17028,
    "grained": 20882,
    "ren": 550,
    "Ġante": 17896,
    "Ġhilarious": 20297,
    "fever": 22498,
    "Ġspitz": 14147,
    "à": 161,
    "charge": 9446,
    "Ġdoctor": 5067,
    "ders": 8075,
    "Ġnotorious": 18223,
    "eted": 7591,
    "Ġfeat": 10936,
    "Ġwharf": 9558,
    "hercules": 22202,
    "Ġfront": 3453,
    "Ġremark": 2148,
    "cher": 5786,
    "icant": 21560,
    "+": 15,
    "ertain": 1206,
    "ire": 493,
    "Ġtelesc": 12989,
    "discrimin": 19607,
    "Ġhypothe": 4074,
    "Ġchatting": 24747,
    "formality": 22213,
    "Ġrumors": 11320,
    "Ġgpus": 3733,
    "acific": 4960,
    "gently": 13727,
    "ivia": 22075,
    "Ġdataset": 12812,
    "illustration": 2283,
    "Ġwink": 11567,
    "intelligence": 5883,
    "Ġcorre": 3889,
    "Ġcoopers": 20520,
    "Ġembracing": 14978,
    "Ú": 155,
    "atig": 13843,
    "so": 890,
    "Ġmasterless": 23992,
    "enormous": 26166,
    "Ġgrapes": 15213,
    "Ġaccursed": 9451,
    "Ġmoot": 22428,
    "Ġannounce": 13336,
    "Ġheel": 9682,
    "when": 1588,
    "Ġimpenet": 14218,
    "Ġscript": 18399,
    "chemical": 23807,
    "mand": 3895,
    "strangely": 17275,
    "Ġhark": 8428,
    "brave": 19822,
    "Ġthrown": 4638,
    "Ġexhausted": 8693,
    "Ġinsip": 19266,
    "Ġcheap": 13086,
    "Ġpregnant": 26534,
    "stein": 5505,
    "representation": 20195,
    "concerted": 16670,
    "Ġexhaust": 6399,
    "oundered": 14163,
    "Ġalone": 2566,
    "Ġindulging": 16903,
    "¯": 112,
    "Ġstyle": 6946,
    "Ġexperiments": 23029,
    "Ġwafted": 14497,
    "intim": 22932,
    "Ġtrifles": 16950,
    "=": 33,
    "Ġendow": 23141,
    "Ġroanoke": 22405,
    "ositories": 22262,
    "seventh": 12710,
    "Ġtis": 15463,
    "Ġdecanter": 22456,
    "Ġfrenz": 25446,
    "thinks": 16640,
    "Ġunprofitable": 18264,
    "Ġbrid": 6290,
    "correct": 24482,
    "Ġaperture": 26160,
    "Ġenviron": 4098,
    "consider": 6348,
    "Ġconcoct": 19045,
    "ceremony": 20588,
    "Ġclutches": 20016,
    "Ġ106": 24413,
    "Ġwilliam": 3483,
    "civility": 17512,
    "dick": 11478,
    "Ġindignant": 12236,
    "Ġce": 3033,
    "Ġshirt": 8847,
    "protruding": 24816,
    "Ġhartshorn": 26180,
    "Ġscuff": 15940,
    "Ġsee": 803,
    "cules": 12388,
    "osis": 18389,
    "Ġentitled": 8539,
    "Ġmethodically": 23112,
    "Ġdespaired": 14667,
    "Ġjustify": 11071,
    "Ġmourning": 13476,
    "Ġwert": 12552,
    "Ġatom": 18192,
    "icles": 17972,
    "Ġpull": 5152,
    "Ġspoil": 17006,
    "yden": 21142,
    "Ġfluctuations": 5516,
    "Ġpondicherry": 20489,
    "during": 6787,
    "Ġattractions": 12914,
    "uced": 13798,
    "Ġpinched": 17034,
    "anous": 21357,
    "_.,": 14561,
    "Ġunqualified": 22055,
    "wonderful": 16959,
    "Ġdrowned": 9550,
    "Ġethiopian": 26612,
    "asked": 8910,
    "Ġsobbed": 14136,
    "Ġconceits": 19388,
    "Ġbeheld": 4491,
    "nyder": 16685,
    "develop": 13516,
    "Ġheightens": 24153,
    "drawers": 19384,
    "Ġforesaw": 19127,
    "chastic": 2333,
    "Ġroaring": 10967,
    "gish": 20872,
    "Ġregression": 4408,
    "Ġsober": 10910,
    "Ġbugs": 13646,
    "!âĢĿ": 847,
    "Ġslips": 23164,
    "ched": 1546,
    "wake": 11544,
    "ales": 3318,
    "farintosh": 24552,
    "Ġvulgar": 13602,
    "Ġgreyish": 24207,
    "chest": 11206,
    "Ġsoutherly": 23333,
    "honey": 20904,
    "ullied": 23102,
    "shattered": 22447,
    "Ġgliding": 8560,
    "Ġprophesied": 26062,
    "Ġdearest": 5457,
    "Ġsociet": 9447,
    "Ġrevisit": 21668,
    "Ġprayers": 12120,
    "Ġintensely": 17016,
    "Ġstrands": 25574,
    "ollen": 11297,
    "remes": 21236,
    "Ġglued": 20587,
    "Ġble": 5223,
    "Ġconfining": 23305,
    "Ġrele": 2916,
    "Ġbenediction": 18785,
    "term": 3760,
    "Ġdistorted": 14248,
    "Ġchimney": 6497,
    "july": 20473,
    "ourselves": 9009,
    "union": 15766,
    "Ġclosest": 16762,
    "Ġreception": 9837,
    "Ġdented": 17894,
    "bation": 9101,
    "danger": 10088,
    "feren": 766,
    "Ġmembrane": 20502,
    "dead": 8180,
    "Ġrumbling": 18211,
    "Ġtreas": 7358,
    "Ġequalled": 13310,
    "Ġaper": 17742,
    "Ġcausal": 3413,
    "Ġscot": 5643,
    "Ġnest": 10187,
    "kine": 15373,
    "Ġirreproachable": 24917,
    "confusion": 13367,
    "Ġmiddle": 4138,
    "enary": 12547,
    "Ġmagnus": 18957,
    "allowed": 5728,
    "reel": 21232,
    "backed": 9864,
    "Ġmanual": 14196,
    "boil": 18999,
    "Ġtattooings": 24900,
    "Ġcynical": 25770,
    "Ġbathed": 17865,
    "Ġgradu": 15829,
    "Ġdrop": 4344,
    "overspreading": 26139,
    "arcy": 1275,
    "Ġthundering": 24290,
    "Ġirrevoc": 15037,
    "Ġ270": 25130,
    "Ġuntrodden": 23521,
    "Ġundulations": 19514,
    "Ġunaccountably": 26514,
    "Ġlikeness": 11178,
    "ĠĠĠ": 2116,
    "Ġlodger": 24089,
    "Ġmyself": 1457,
    "Ġphysiognomy": 25610,
    "Ġlets": 18063,
    "danish": 20832,
    "Ġbest": 1976,
    "magistrate": 19862,
    "utral": 12659,
    "balanced": 14555,
    "Ġpraises": 16729,
    "Ġnote": 4262,
    "Ġsimply": 7218,
    "Ġeddy": 13122,
    "Ġstaple": 26198,
    "Ġlingered": 13503,
    "Ġdestro": 3723,
    "Ġsuns": 23272,
    "Ġentity": 10343,
    "varying": 13802,
    "Ġadvance": 5484,
    "Ġrelu": 1047,
    "dece": 11731,
    "blind": 16704,
    "Ġmillar": 13859,
    "unteered": 26494,
    "Ġwrecks": 16817,
    "compar": 14357,
    "Ġsant": 21213,
    "Ġputs": 19035,
    "Ġrephr": 21677,
    "Ġsnatched": 10470,
    "deaux": 22146,
    "Ġshin": 18227,
    "Ġhissing": 15786,
    "imagination": 13478,
    "Ġreliance": 14383,
    "isp": 5528,
    "Ġcompression": 18145,
    "absolute": 17121,
    "99": 1895,
    "Ġreaches": 18031,
    "Ġalabama": 14017,
    "fleece": 19946,
    "owed": 2270,
    "Ġforces": 12698,
    "asp": 3341,
    "robust": 19726,
    "Ġoutwardly": 25000,
    "Ġconstraints": 2740,
    "Ġexecutioner": 12268,
    "choice": 21689,
    "Ġincred": 5646,
    "Ġglimmered": 20170,
    "Ġadditionally": 1176,
    "otions": 7180,
    "resembled": 21245,
    "march": 13753,
    "Ġcharity": 8861,
    "Ġage": 3897,
    "Ġchristians": 13306,
    "assistant": 25567,
    "Ġcontour": 18474,
    "Ġbra": 3256,
    "Ġclasping": 20208,
    "Ġsc": 532,
    "brilliancy": 26077,
    "urer": 18121,
    "Ġopened": 3513,
    "Ġflooring": 23623,
    "Ġtroops": 24898,
    "Ġculprit": 26172,
    "Ġthames": 13936,
    "Ġlot": 6678,
    "Ġ1825": 25719,
    "Ġplaned": 24052,
    "Ġbosoms": 16794,
    "Ġdistended": 16040,
    "garet": 9596,
    "mankind": 14372,
    "Ġmales": 17805,
    "Ġlightnings": 16350,
    "Ġeditions": 19120,
    "Ġordering": 18997,
    "naturalist": 23434,
    "Ġunderstood": 5655,
    "Ġcommonplace": 11096,
    "Ġwhelm": 26000,
    "Ġfan": 2036,
    "swe": 5996,
    "Ġspurred": 22136,
    "merged": 11192,
    "ippi": 20243,
    "torm": 11529,
    "ss": 396,
    "Ġdews": 21837,
    "icherry": 15133,
    "Ġquadr": 8200,
    "Ġcounterpane": 11342,
    "Ġinserting": 19905,
    "Ġchast": 18379,
    "sil": 5282,
    "Ġes": 8768,
    "Ġbitterest": 12399,
    "Ġassumptions": 5517,
    "Ġtidy": 17092,
    "Ġmulti": 1045,
    "Ġgor": 9205,
    "Ġincalcul": 16060,
    "gies": 13724,
    "Ġdelicacy": 6340,
    "Ġsibbald": 21229,
    "Ġresource": 10992,
    "Ġprofusion": 23566,
    "Ġcrabs": 19173,
    "Ġruefully": 17299,
    "Ġnam": 17948,
    "Ġpattern": 1328,
    "ice": 588,
    "clifford": 23155,
    "unerative": 21894,
    "Ġstrike": 4855,
    "Ġnimble": 21526,
    "presbyterian": 26368,
    "complained": 25838,
    "ceed": 1074,
    "analy": 17838,
    "harmony": 25750,
    "Ġireland": 17333,
    "isition": 11584,
    "Ġauthentic": 20533,
    "alt": 12634,
    "Ġ": 225,
    "Ġfootsteps": 16571,
    "impotence": 23760,
    "Ġdiscernible": 15054,
    "kl": 4865,
    "Ġmanaging": 22323,
    "Ġraging": 14300,
    "Ġjunk": 15950,
    "significant": 25082,
    "Ġhanded": 8217,
    "morland": 24152,
    "Ġamericans": 14741,
    "besides": 8695,
    "itance": 13866,
    "Ġpia": 21463,
    "cleanliness": 25871,
    "Ġmastiff": 23723,
    "Ġspeedy": 11171,
    "Ġcountess": 11961,
    "isely": 4487,
    "Ġbeauties": 10444,
    "Ġopens": 23626,
    "icates": 11615,
    "Ġdrawled": 23986,
    "Ġetern": 7085,
    "Ġsorrows": 13352,
    "Ġfootfalls": 25866,
    "ana": 15555,
    "auley": 22620,
    "Ġmultimodal": 18747,
    "Ġdun": 6673,
    "Ġforefinger": 16442,
    "Ġfinal": 5400,
    "Ġversion": 10628,
    "Ġbrilliant": 11413,
    "calmed": 16202,
    "forming": 15914,
    "Ġcomplaisance": 19447,
    "ilar": 10214,
    "Ġcott": 3709,
    "Ġendeavored": 19301,
    "Ġdowncast": 18652,
    "Ġfisheries": 17436,
    "Ġwidespread": 20674,
    "beg": 22484,
    "official": 24914,
    "Ġstruggles": 16577,
    "Ġegg": 8817,
    "Ġexposure": 16093,
    "wantonly": 25149,
    "Ġgaining": 9490,
    "Ġshores": 8846,
    "Ġanonym": 17897,
    "cons": 4308,
    "Ġemploying": 23975,
    "Ġmine": 3180,
    "Ġsol": 1100,
    "Ġmemories": 14540,
    "Ġadorn": 12786,
    "Ġsearch": 2590,
    "miniature": 16764,
    "did": 3196,
    "Ġcomplied": 14732,
    "Ġembarr": 7446,
    "mentioning": 24885,
    "Ġmanoir": 22329,
    "Ġamiss": 18511,
    "Ġimagenet": 19244,
    "Ġpermission": 9277,
    "Ġchat": 6560,
    "Ġrock": 5310,
    "Ġbright": 3216,
    "Ġunreasonable": 12772,
    "Ġreappearance": 21665,
    "Ġfiery": 6871,
    "č": 206,
    "Ġburnt": 9926,
    "roses": 17956,
    "Ġburglar": 17353,
    "Ġmoonlight": 9956,
    "rederick": 14078,
    "Ġarrives": 23606,
    "ignantly": 23264,
    "ivates": 18276,
    "tick": 17677,
    "Ġsure": 1865,
    "Ġformerly": 7493,
    "thed": 8825,
    "Ġheedfully": 24520,
    "each": 7335,
    "kins": 7345,
    "Ġworse": 4719,
    "Ġoverlooking": 22356,
    "Ġsurrounds": 24230,
    "ivility": 12779,
    "Ġdifferences": 18712,
    "story": 9211,
    "Ġdisinclination": 22534,
    "âĢĻâĢĶ": 12732,
    "Ġreported": 11976,
    "Ġimpaling": 22381,
    "named": 9884,
    "Ġnotes": 7189,
    "parts": 14600,
    "Ġshr": 4225,
    "gunw": 17219,
    "Ġloathed": 15872,
    "Ġcheery": 16365,
    "smoke": 17221,
    "Ġretains": 20028,
    "Ġapplications": 4783,
    "concerning": 9063,
    "Ġfarther": 5955,
    "Ġgriff": 22804,
    "Ġgradient": 449,
    "Ġjanuary": 13651,
    "Ġstrangled": 24132,
    "Ġemploy": 3617,
    "Ġreplace": 14474,
    "Ġmoss": 9282,
    "dish": 12449,
    "osp": 6854,
    "Ġmadame": 13148,
    "exceedingly": 9565,
    "incible": 16496,
    "Ġhidden": 1376,
    "Ġfailed": 6671,
    "Ġarrog": 18344,
    "Ġradiating": 24334,
    "quered": 11054,
    "older": 15752,
    "Ġouter": 6859,
    "Ġcolour": 4460,
    "stem": 567,
    "Ġarrang": 2470,
    "irt": 3080,
    "Ġconstantinople": 19836,
    "prevented": 20372,
    "better": 7119,
    "Ġbreeding": 14520,
    "Ġvertical": 16603,
    "ger": 1103,
    "Ġsleeping": 6319,
    "swim": 16778,
    "venth": 9293,
    "Ġreasons": 6020,
    "Ġcontinuing": 14395,
    "Ġdefinite": 11068,
    "Ġpoets": 11818,
    "Ġbudge": 15162,
    "Ġchaff": 18382,
    "Ġobtruded": 20721,
    "Ġwestern": 10653,
    "lifeless": 24311,
    "Ġallowance": 14387,
    "cas": 20793,
    "Ġsynthe": 26007,
    "Ġappears": 5402,
    "reproof": 25432,
    "nigh": 13761,
    "cast": 2927,
    "Ġcircles": 7967,
    "both": 5785,
    "Ġinvite": 14562,
    "Ġmended": 21312,
    "Ġfragrant": 13091,
    "Ġoh": 2179,
    "ilburn": 18059,
    "Ġtransparen": 10540,
    "brad": 20780,
    "Ġimpulse": 10022,
    "Ġhardware": 4904,
    "Ġimbalanced": 18333,
    "Ġshield": 21997,
    "none": 6962,
    "all": 485,
    "Ġtransf": 22435,
    "ĠÂ£": 5006,
    "Ġcompasses": 11266,
    "Ġapprehensiveness": 16876,
    "Ġpersist": 16269,
    "Ġjar": 15947,
    "ament": 2441,
    "Ġresentful": 24632,
    "Ġful": 4296,
    "Ġsubaltern": 22786,
    "Ġcovariate": 2351,
    "Ġhumorousness": 25377,
    "Ġink": 8801,
    "Ġeconomy": 17199,
    "Ģ": 227,
    "Ġimproper": 22757,
    "Ġmary": 3845,
    "ise": 707,
    "Ġagency": 11802,
    "ites": 3899,
    "Ġplaited": 14281,
    "Ġhands": 1662,
    "Ġrecre": 22737,
    "Ġstrife": 18614,
    "Ġbod": 4580,
    "Ġinnocent": 4921,
    "Ġsplend": 9896,
    "reg": 2189,
    "tubs": 15128,
    "rail": 10203,
    "ims": 7176,
    "Ġjoyously": 19345,
    "urred": 8448,
    "capting": 24036,
    "Ġskylight": 24070,
    "Ġoverhead": 11770,
    "hunt": 20902,
    "Ġton": 15462,
    "ilent": 21718,
    "Ġapprehended": 26091,
    "Ġangelic": 19626,
    "Ġroared": 7023,
    "Ġburtons": 19252,
    "Ġfamilies": 8027,
    "gang": 17552,
    "Ġvers": 7563,
    "Ġgifts": 21610,
    "Ġbeggars": 20628,
    "Ġproprietors": 20185,
    "/*": 10069,
    "adier": 18089,
    "Ġcrystals": 20226,
    "composure": 24031,
    "Ġdents": 13910,
    "Ġhoarsely": 26302,
    "Ġcranial": 25592,
    "Ġgardiners": 11156,
    "mmet": 10987,
    "drunk": 24659,
    "Ġstandard": 14495,
    "Ġdireful": 11017,
    "flowing": 14579,
    "Ġsalt": 8017,
    "Ġyou": 366,
    "q": 85,
    "Ġintrepid": 11703,
    "Ġbuckets": 17033,
    "Ġpuzzling": 14894,
    "ris": 9136,
    "Ġsmells": 8888,
    "Ġaltern": 7394,
    "tend": 17673,
    "Ġmiser": 18703,
    "Ġrainbows": 19647,
    "germ": 15354,
    "Ġdifferently": 10388,
    "sooner": 14774,
    "Ġmout": 17798,
    "neither": 9756,
    "Ġmayhew": 12946,
    "Ġpet": 4585,
    "Ġsets": 8773,
    "Ġcontemptible": 16952,
    "Ġthought": 1090,
    "Ġfolios": 23016,
    "Ġintense": 6157,
    "rals": 21041,
    "Ġinstantaneous": 14610,
    "itying": 21992,
    "Ġhabits": 6926,
    "Ġimmensely": 13593,
    "spee": 9315,
    "Ġgenerator": 3383,
    "Ġimmensity": 25329,
    "Ĉ": 201,
    "spark": 18689,
    "either": 6791,
    "Ġmoved": 4839,
    "itiously": 13869,
    "Ġaxe": 15062,
    "Ġlizzy": 3546,
    "Ġinspection": 14543,
    "Ġcoaxing": 18598,
    "ight": 402,
    "content": 11196,
    "Ġstrand": 11825,
    "otics": 10222,
    "Ġabsor": 8504,
    "Ġcrosswise": 18886,
    "wondering": 19844,
    "Ġmarbles": 18872,
    "Ġpleasantly": 14518,
    "rices": 4558,
    "Ġmischie": 22756,
    "guest": 19480,
    "Ġunpleasing": 22049,
    "Ġembatt": 18841,
    "Ġbengal": 18784,
    "Ġcapstan": 9097,
    "rants": 13776,
    ".--": 20745,
    "Ġbump": 9658,
    "Ġtackles": 8051,
    "Ġblessed": 6931,
    "prev": 12863,
    "Ġbutchers": 18272,
    "bott": 9104,
    "Ġembalmed": 13654,
    "searching": 25103,
    "jet": 13740,
    "isive": 10792,
    "Ġobeyed": 12213,
    "Ġnot": 413,
    "5": 25,
    "Ġconver": 807,
    "Ġmechan": 1185,
    "Ġpaved": 17912,
    "Ġsomnam": 23003,
    "Ġmrs": 1469,
    "Ġdecoyed": 18492,
    "Ġdepth": 2440,
    "Ġlar": 765,
    "Ġeffects": 7236,
    "itively": 21329,
    "Ġpreferred": 14964,
    "Ġsuav": 22080,
    "Ġcastaway": 16639,
    "ten": 1555,
    "Ġecon": 9676,
    "unks": 15771,
    "Ġcrossed": 6069,
    "Ġnewcastle": 16221,
    "Ġswitching": 23054,
    "bound": 6220,
    "Ġvertebra": 20180,
    "see": 3051,
    "bies": 15310,
    "Ġsan": 7825,
    "oppressed": 24824,
    "istically": 14142,
    "Ġpurport": 14580,
    "Ġcrest": 12937,
    "disreputable": 23503,
    "Ġscaling": 3634,
    "mira": 20978,
    "Ġintelligent": 1448,
    "george": 26019,
    "sensations": 20049,
    "Ġbough": 13892,
    "Ġgun": 4701,
    "turning": 8317,
    "Ġinterpreted": 1712,
    "Ġscrawled": 24579,
    "sho": 6425,
    "Ġsullenly": 17171,
    "Ġview": 2761,
    "Ġsunda": 13542,
    "Ġpurpose": 2708,
    "Ġgroom": 13964,
    "Ġidleness": 11142,
    "00": 1608,
    "Ġdesirous": 8941,
    "Ġmoving": 1675,
    "Ġstru": 2173,
    "Ġwon": 1663,
    "Ġinducements": 24967,
    "Ġjeopardized": 20229,
    "cent": 8073,
    "Ġspades": 12792,
    "Ġdivers": 9664,
    "chery": 24550,
    "Ġknock": 9971,
    "ivory": 10267,
    "Ġdiminishing": 4209,
    "Ġsect": 17750,
    "Ġreservo": 16830,
    "Ġplants": 22596,
    "Ġsavi": 18325,
    "Ġoffering": 3009,
    "Ġfol": 1287,
    "Ġlegend": 14573,
    "ropy": 1099,
    "Ġphysiognomical": 25611,
    "ato": 17768,
    "ylon": 24977,
    "vity": 7816,
    "Ġregimentals": 19857,
    "winding": 16719,
    "Ġfills": 12590,
    "Ġillustration": 19135,
    "ez": 5683,
    "Ġstratag": 26028,
    "detained": 24381,
    "visible": 10532,
    "Ġopposing": 12038,
    "Ġderick": 9362,
    "Ġangular": 19206,
    "library": 12995,
    "commod": 16167,
    "Ġcalendar": 18876,
    "Ġcosy": 13129,
    "Ġduty": 4070,
    "Ġprovidence": 18745,
    "Ġgrievous": 13258,
    "Ġlob": 7627,
    "Ġinstantaneously": 23660,
    "ician": 21563,
    "Ġmental": 21318,
    "hever": 13829,
    "obey": 11508,
    "Ġaforethought": 25428,
    "amped": 12030,
    "Ġcontinent": 14886,
    "Ġmustard": 12926,
    "Ġlookest": 22713,
    "Ġvirt": 3908,
    "Ġcalmed": 16265,
    "trunk": 23945,
    "Ġpatient": 6894,
    "compose": 24029,
    "ean": 20839,
    "franch": 24283,
    "writer": 14647,
    "increas": 10453,
    "Ġtormenting": 15102,
    "Ġindestruct": 22956,
    "18": 20750,
    "netherfield": 9811,
    "Ġobedience": 11412,
    "Ġdrowsiness": 26445,
    "Ġoccupation": 9929,
    "ission": 6457,
    "Ġtruthful": 23865,
    "surprise": 9528,
    "Ġparson": 6687,
    "foremost": 14251,
    "Ġalleghan": 25795,
    "Ġcad": 12564,
    "Ġpatagonian": 20534,
    "Ġpierced": 12278,
    "Ġpharaoh": 26584,
    "octial": 20003,
    "empt": 2618,
    "Ġgrandfather": 19420,
    "Ġperry": 22394,
    "introduction": 15121,
    "Ġpretty": 3862,
    "Ġemblematical": 25788,
    "Ġbrought": 2517,
    "tables": 19756,
    "Ġskies": 8919,
    "Ġsolace": 16197,
    "Ġringle": 18210,
    "Ġshaggy": 13568,
    "Ġencl": 16163,
    "interview": 19297,
    "asingly": 17960,
    "90": 12429,
    "Ġwantonly": 22892,
    "began": 6426,
    "Ġforg": 3788,
    "Ġhawaiian": 25366,
    "Ġrattle": 10898,
    "Ġspiral": 14583,
    "Ġthackeray": 26454,
    "Ġnominal": 15166,
    "ohnson": 16322,
    "Ġdefault": 3040,
    "atively": 2696,
    "Ġwooded": 23519,
    "atible": 17771,
    "Ġernest": 8716,
    "etymology": 14699,
    "rin": 10120,
    "dering": 5305,
    "locked": 7678,
    "bill": 10074,
    "Ġperverseness": 13652,
    "Ġfooted": 23795,
    "hil": 8379,
    "Ġhereby": 10356,
    "calabash": 22893,
    "inv": 8401,
    "Ġbedrooms": 19968,
    "Ġtrains": 10946,
    "Ġbrooding": 18907,
    "ercely": 12546,
    "_âĢĶâĢĻ": 13680,
    "ructure": 752,
    "pulled": 25145,
    "inu": 1112,
    "ain": 343,
    "spect": 3234,
    "Ġboy": 3024,
    "4": 24,
    "bourne": 19102,
    "Ġsolved": 8930,
    "Ġconceived": 8150,
    "Ġmarines": 16259,
    "Ġswashing": 23053,
    "Ġpalmy": 19497,
    "return": 5489,
    "petulance": 24298,
    "Ġpittance": 15613,
    "dimly": 15344,
    "Ġanatomical": 15074,
    "Ġtrag": 13036,
    "arched": 10810,
    "Ġassured": 4371,
    "Ġdoublo": 6079,
    "isco": 12577,
    "Ġolive": 12561,
    "Ġconjectures": 16924,
    "appe": 2943,
    "Ġmarriage": 3189,
    "Ġroasted": 18460,
    "Ġmislead": 22753,
    "pronounce": 25192,
    "Ġstating": 15721,
    "iceland": 21564,
    "mir": 20962,
    "Ġconflagration": 26364,
    "Ġresemblance": 7970,
    "inferior": 12391,
    "stead": 10845,
    "cc": 474,
    "================================": 5671,
    "Ġmaterial": 5178,
    "Ġbier": 22759,
    "Ġrascal": 11698,
    "Ġmod": 500,
    "shortly": 12255,
    "Ġhogarth": 25780,
    "Ġlearn": 361,
    "Ġcumul": 4179,
    "Ġunwaning": 25170,
    "Ġstark": 7390,
    "Ġsutherland": 10147,
    "Ġfingertips": 24014,
    "icorn": 15653,
    "Ġgoose": 5938,
    "ibly": 2995,
    "Ġhorner": 8957,
    "Ġpal": 4041,
    "umphed": 23516,
    "Ġdances": 10814,
    "Ġvolcanoes": 24145,
    "Ġamounted": 18512,
    "Ġyelled": 9692,
    "izzy": 3098,
    "quarters": 24946,
    "Ġcircumst": 2974,
    "ultaneous": 18582,
    "Ġadequate": 20307,
    "Ġpeace": 3693,
    "structure": 2245,
    "Ġhovel": 8254,
    "Ġcontinual": 6777,
    "Ġfortune": 4239,
    "Ġspatial": 2730,
    "Ġscraping": 13414,
    "lux": 14225,
    "Ġaccuse": 14210,
    "Ġcent": 3255,
    "Ġabstract": 17180,
    "Ġcauldron": 25441,
    "!)": 10067,
    "Ġweight": 656,
    "mend": 20965,
    "Ġprizes": 13071,
    "commanding": 24752,
    "Ġgained": 4534,
    "Ġheat": 5453,
    "Ġchips": 14178,
    "earthquakes": 24725,
    "Ġstolen": 14006,
    "Ġev": 4828,
    "Ġtax": 13814,
    "urns": 10212,
    "Ġbabel": 24425,
    "Ġpouring": 12620,
    "erranean": 9332,
    "Ġgreeks": 20011,
    "Ġbehalf": 14508,
    "fashioned": 9569,
    "Ġfolk": 10374,
    "Ġreward": 6144,
    "Ġissued": 10598,
    "Ġ$": 21149,
    "Ġmaj": 3927,
    "Ġguests": 12284,
    "Ġmajesty": 5201,
    "Ġcoffee": 6760,
    "fits": 13716,
    "Ġdamn": 11157,
    "Ġbourgh": 5069,
    "Ġunjustly": 17125,
    "Ġvexation": 10585,
    "M": 49,
    "excepting": 19705,
    "Ġblanc": 11064,
    "des": 1564,
    "Ġdiscount": 22777,
    "onents": 8776,
    "Ġoutermost": 22317,
    "Ġshud": 5461,
    "couldn": 23716,
    "ination": 2912,
    "thirds": 25046,
    "Ġdistrusting": 25053,
    "erde": 21267,
    "Ġsensit": 2945,
    "Ġinflu": 4909,
    "Ġdru": 8422,
    "prob": 7069,
    "uttered": 8441,
    "conscientious": 19625,
    "mild": 15389,
    "Ġsurprise": 3829,
    "Ġleaped": 8823,
    "rever": 21234,
    "Ġabove": 2935,
    "indeed": 4486,
    "Ġproceedings": 9905,
    "Ġinvoluntary": 18766,
    "Ġseason": 5237,
    "Ġaffront": 18788,
    "lemagne": 26435,
    "herself": 4890,
    "Ġtingling": 15090,
    "Ġcleaving": 23179,
    "ished": 1428,
    "circumstance": 7764,
    "ged": 1512,
    "Ġstrives": 23694,
    "Ġrooms": 5180,
    "ð": 177,
    "Ġmildly": 9028,
    "Ġimaginary": 11185,
    "Ġcomstock": 21849,
    "Ġhosea": 17329,
    "Ġvictor": 5125,
    "Ġgrunt": 18735,
    "enance": 3372,
    "Ġindignity": 18832,
    "Ġfriends": 2653,
    "Ġmock": 3692,
    "archbishop": 22878,
    "Ġcondemn": 13442,
    "Ġdeb": 4764,
    "Ġwriters": 13541,
    "roc": 9673,
    "Ġalleg": 14015,
    "Ġyon": 9691,
    "Ġprivileged": 20111,
    "Ġconcentric": 20073,
    "Ġgranite": 22806,
    "Ġcooper": 16074,
    "Ġpennies": 17269,
    "unbidden": 21892,
    "Ġflush": 14422,
    "severe": 21817,
    "Ġmay": 923,
    "constit": 24605,
    "fishery": 10030,
    "Ġpublisher": 24062,
    "Ġeigenvalues": 4998,
    "Ġballarat": 14717,
    "Ġrep": 1937,
    "Ġtaffrail": 15474,
    "driven": 19770,
    "Ġfable": 15573,
    "Ġrecognition": 3014,
    "Ġsemantic": 1957,
    "Ġtremendous": 8353,
    "Ġhurts": 19111,
    "Ġ67": 19659,
    "Ġtarquin": 23609,
    "Ġsearched": 15813,
    "bres": 11470,
    "Ġclaw": 22346,
    "Ġnaturalist": 22905,
    "insisted": 23065,
    "Ġcolon": 18762,
    "Ġporpoise": 7106,
    "Ġsweep": 8266,
    "Ġlecture": 13565,
    "reported": 24492,
    "sailors": 9920,
    "Ġconvulsively": 25717,
    "Ġoutline": 15951,
    "Ġreality": 7057,
    "eringly": 23001,
    "Ġenvironments": 24111,
    "rugg": 15893,
    "Ġinstinctively": 13457,
    "Ġtusks": 17252,
    "Ġhonors": 23600,
    "Ġpad": 8125,
    "consolation": 15150,
    "autions": 20766,
    "ł": 259,
    "Ġdepending": 14302,
    "inging": 5907,
    "Ġsayest": 22771,
    "Ġnaturalists": 10362,
    "facts": 19841,
    "morning": 4859,
    "Ġpenet": 6888,
    "scruple": 26044,
    "jonah": 11495,
    "Ġumbrella": 15263,
    "Ġan": 286,
    "fil": 12459,
    "onist": 21249,
    "Ġprecipitous": 24835,
    "gangway": 20666,
    "Ġthoroughfares": 26095,
    "Ġdisappointing": 19578,
    "Ġchoose": 5982,
    "Ġextremity": 8987,
    "irene": 15913,
    "sockets": 22726,
    "Ġcurls": 22993,
    "Ġpecks": 18669,
    "increase": 20267,
    "Ġsaying": 3245,
    "flaming": 23967,
    "vain": 15445,
    "relate": 24008,
    "Ġbou": 17852,
    "Ġpartially": 13121,
    "Ġslabs": 13057,
    "suffered": 24333,
    "Ġdisdain": 8360,
    "ineffectual": 26503,
    "ober": 15404,
    "Ġwashes": 21859,
    "Ġpettic": 14839,
    "Ġdecember": 15006,
    "etch": 9203,
    "Ġeffeminacy": 20717,
    "Ġnewcomer": 26040,
    "Ġpist": 12611,
    "Ġabounding": 12341,
    "language": 5129,
    "lesome": 12961,
    "Ġloads": 22112,
    "Ġincreasing": 8247,
    "Ġsmiling": 5474,
    "atches": 13844,
    "Ġperchance": 15988,
    "sive": 4143,
    "Ġbelly": 10368,
    "pshire": 21023,
    "Ġfearful": 6197,
    "ken": 2802,
    "fastened": 19324,
    "Ġappre": 5165,
    "Ġencirc": 18731,
    "bordered": 17497,
    "Ġdegrees": 7294,
    "africa": 26308,
    "Ġitself": 2522,
    "anyone": 16592,
    "Ġgin": 13959,
    "reen": 21230,
    "Ġsubsiding": 23432,
    "evid": 11483,
    "Ġscraped": 16902,
    "Ġcast": 3608,
    "Ġgallons": 14816,
    "Ġwit": 3843,
    "Ġsymptoms": 8704,
    "derbyshire": 18321,
    "cord": 8723,
    "Ġinherited": 25353,
    "banish": 20781,
    "Ġinformed": 6717,
    "herald": 22203,
    "Ġproceeds": 12074,
    "Ġwhenever": 5166,
    "Ġplatonian": 25118,
    "apparatus": 26562,
    "ğ": 224,
    "occasion": 7754,
    "Ġrequire": 914,
    "uted": 7592,
    "Ġinjure": 16780,
    "Ġheated": 21680,
    "Ġexercising": 19906,
    "Ġfell": 1979,
    "Ġneural": 620,
    "Ġsperm": 1842,
    "unned": 21876,
    "Ġliable": 14227,
    "Ġbattle": 5908,
    "Ġroll": 5381,
    "firmly": 20279,
    "Ġsanctioned": 26349,
    "Ġcarav": 18901,
    "Ġparmacetti": 20603,
    "snapping": 24849,
    "Ġdisconsolate": 20718,
    "<MASK>": 4,
    "Ġunex": 11710,
    "happen": 19330,
    "Ġinjured": 9038,
    "engines": 18927,
    "Ġflanks": 11911,
    "Ġmuseum": 15269,
    "beginning": 13559,
    "Ġsubterraneous": 20264,
    "riers": 18186,
    "ured": 1652,
    "Ġrise": 5637,
    "mot": 17595,
    "ensions": 14257,
    "wont": 21131,
    "Ġwarmed": 12020,
    "Ġbrist": 14376,
    "longer": 8612,
    "Ġstarvation": 19790,
    "Ġglobular": 19009,
    "article": 22398,
    "arn": 357,
    "engineer": 23146,
    "Ġglimpse": 6944,
    "Ġthinker": 22807,
    "peculiarity": 23107,
    "uracy": 1108,
    "act": 783,
    "Ġabiding": 22268,
    "endent": 15920,
    "save": 13783,
    "Ġshook": 4467,
    "Ġprodu": 1204,
    "Ġpenalties": 10411,
    "Ġimmort": 19482,
    "Ġsupported": 9816,
    "Ġimpotently": 22388,
    "Ġvessel": 3799,
    "Ġnoisier": 4623,
    "property": 19998,
    "Ġapprove": 12869,
    "Ġeighteen": 11238,
    "Ġunful": 22006,
    "mitting": 17601,
    "hos": 15361,
    "Ġnapole": 15113,
    "rawling": 21634,
    "Ġadvice": 4901,
    "Ġquies": 18464,
    "Ġlav": 13948,
    "Ġfoiled": 23244,
    "virt": 15449,
    "footsteps": 25199,
    "Ġfins": 9662,
    "aim": 2756,
    "Ġseparated": 9463,
    "Ġnothing": 1361,
    "Ġungracious": 18255,
    "Ġlevelled": 11283,
    "Ġdeftly": 26492,
    "Ġsequentially": 4914,
    "liament": 16215,
    "Ġmed": 3988,
    "ospit": 22261,
    "Ġbaker": 4695,
    "Ġreceptive": 1561,
    "Ġdeep": 794,
    "Ġawaited": 17073,
    "Ġremarkable": 4915,
    "Ġfling": 9659,
    "un": 373,
    "Ġinequalities": 26452,
    "aton": 21257,
    "blu": 12437,
    "ored": 3896,
    "unquiet": 21879,
    "Ġbooks": 4675,
    "Ġcrocod": 19627,
    "alongside": 19788,
    "Ġcomprised": 14266,
    "Ġcher": 6129,
    "arp": 2028,
    "cence": 9587,
    "Ġtoilet": 13935,
    "Ġdisquiet": 18552,
    "Ġwound": 4527,
    "!âĢĶ": 2456,
    "ı": 242,
    "Ġimproving": 1209,
    "Ġinspecting": 24614,
    "peddling": 24696,
    "Ġrestless": 10412,
    "deduction": 23555,
    "Ġdeserts": 10506,
    "Ġfainted": 8790,
    "independ": 15978,
    "ban": 9583,
    "Ġsurface": 5119,
    "Ġcirc": 1987,
    "Ġhunsford": 6301,
    "Ġcomforts": 14692,
    "sad": 11519,
    "Ġfloundering": 16247,
    "revolver": 25627,
    "Ġmim": 3108,
    "bled": 5469,
    "Ġbeale": 12695,
    "Ġarea": 14185,
    "Ġprofile": 16487,
    "Ġanomaly": 25636,
    "Ġbarnacled": 25536,
    "Ġyoun": 1407,
    "Ġthrow": 3784,
    "Ġobliging": 13241,
    "separ": 9229,
    "Ġetc": 7084,
    "Ġghostly": 24650,
    "Ġluff": 15649,
    "Ġreve": 2932,
    "Ġrather": 1494,
    "anesc": 21358,
    "humorously": 24017,
    "Ġcharmingly": 24220,
    "resc": 21237,
    "Ġenjoy": 3762,
    "covery": 11170,
    "assed": 6421,
    "Ġspeech": 4609,
    "Ġpolite": 9880,
    "Ġnought": 21520,
    "scarcely": 12383,
    "Ġvolley": 24144,
    "cious": 6643,
    "Ġepit": 18006,
    "Ġlethar": 21729,
    "interested": 9504,
    "Ġparlor": 13538,
    "Ġcondem": 6338,
    "Ġacquire": 2724,
    "accursed": 20539,
    "Ġwhereon": 16098,
    "Ġpapers": 4022,
    "bern": 20774,
    "leo": 21362,
    "ruit": 22175,
    "made": 4808,
    "Ġtransportation": 13640,
    "Ġirksome": 13109,
    "Ġmultiple": 1187,
    "penetrating": 25490,
    "conclusions": 25672,
    "Ġcommit": 18655,
    "Ġreminds": 13429,
    "Ġhval": 21486,
    "vacancies": 25919,
    "Ġcasc": 15552,
    "Ĕ": 213,
    "Ġfaltering": 17884,
    "Ġfeels": 6882,
    "Ġbustle": 17226,
    "many": 5249,
    "Ġnantucketer": 6914,
    "Ġindebted": 8707,
    "Ġprehensile": 26533,
    "chet": 13215,
    "Ġmargaret": 10375,
    "Ġseized": 4833,
    "purse": 20023,
    "Ġinvisible": 7327,
    "Ġoffence": 12942,
    "Ã¦": 4337,
    "abouts": 9450,
    "Ġunspeakably": 25172,
    "osure": 5306,
    "Ġsurviv": 13433,
    "Ġissu": 6253,
    "arrested": 15585,
    "vy": 21106,
    "Ġjustine": 4970,
    "damn": 20022,
    "illar": 5101,
    "gno": 13725,
    "Ġhorizon": 6632,
    "Ġsettling": 11061,
    ",)": 9099,
    "thy": 2933,
    "condescended": 26248,
    "Ġjesty": 18405,
    "Ġsm": 704,
    "Ġunsolved": 22027,
    "raising": 21630,
    "Ġnervously": 19183,
    "Ġseeking": 7036,
    "Ġaffliction": 25844,
    "rayed": 23561,
    "axing": 18547,
    "Ġrector": 21674,
    "Ġsurmis": 23464,
    "Ġdaylight": 10349,
    "Ġenem": 4707,
    "Ġcocain": 18596,
    "lands": 8241,
    "Ġbil": 15561,
    "inct": 3293,
    "hmael": 7342,
    "Ġrespectfully": 18994,
    "ricted": 15418,
    "Ġaware": 5756,
    "Ġsupplication": 25491,
    "Ġferocious": 17417,
    "bots": 10081,
    "Ġworkman": 16271,
    "Ġsevent": 18200,
    "Ġdismal": 11807,
    "dra": 3416,
    "Ġevaluate": 3207,
    "Ġintensity": 10014,
    "glit": 23848,
    "Ġcasualty": 20340,
    "Ġdance": 4442,
    "Ġcrevice": 22722,
    "Ġincrust": 22548,
    "Ġurging": 24501,
    "Ġuncles": 23429,
    "ied": 940,
    "Ġlingering": 11378,
    "Ġlangsdorff": 15274,
    "oman": 2019,
    "Ġinput": 609,
    "Ġoperation": 11995,
    "unwilling": 14059,
    "breaking": 14763,
    "utmost": 21586,
    "Ġallowing": 2177,
    "Ġconcerns": 12028,
    "Ġvinegar": 20098,
    "impregnable": 26480,
    "abled": 12790,
    "Ġsubstantial": 14808,
    "corrupt": 14893,
    "cific": 10084,
    "morn": 20975,
    "bler": 11471,
    "Ġprair": 7747,
    "Ġbrittle": 22864,
    "!": 5,
    "Ġtrowsers": 9626,
    "suspected": 12369,
    "cottagers": 20046,
    "bath": 13687,
    "Ġtrample": 20326,
    "isions": 6130,
    "Ġvineyarder": 25606,
    "Ġliveliest": 24775,
    "enorm": 17780,
    "getic": 12962,
    "Ġdown": 831,
    "Ġcrouched": 23442,
    "Ġmonuments": 22977,
    "Ġhumans": 8928,
    "ower": 1069,
    "Ġtigers": 25758,
    "Ġinterfere": 11814,
    "dreaded": 25138,
    "Ġbore": 5079,
    "Ġtul": 21158,
    "Ġintently": 8169,
    "Ġinvited": 6903,
    "illes": 12690,
    "Ġobtained": 7432,
    "Ġoblige": 10487,
    "Ġlabels": 3288,
    "Ġane": 9180,
    "Ġwoven": 9924,
    "wandering": 20283,
    "Ġdecomposes": 5506,
    "Ġpig": 5705,
    "tled": 3459,
    "Ġnarwhales": 24902,
    "Ġemb": 1246,
    "sullenly": 26149,
    "mistake": 24528,
    "Ġinvestigations": 17245,
    "Ġlie": 4405,
    "Ġliterature": 17147,
    "Ġthrill": 24540,
    "Ġell": 17714,
    "Ġpag": 6011,
    "ins": 1378,
    "Ġforb": 11661,
    "turtle": 12208,
    "Ġsharks": 4496,
    "Ġheroic": 14906,
    "Ġjelly": 22298,
    "destiny": 16701,
    "Ġspokes": 18313,
    "ia": 1259,
    "almost": 4943,
    "Ġhump": 5853,
    "secur": 18126,
    "Ġaccurate": 13259,
    "Ġprobably": 4313,
    "Ġadmirers": 19685,
    "Ġpropensity": 18996,
    "ishes": 6523,
    "Ġworldly": 16327,
    "Ġhall": 4184,
    "tes": 11527,
    "Ġderanged": 23172,
    "preser": 9758,
    "Ġstud": 1596,
    "Ġmechanically": 14396,
    "ari": 671,
    "Ġinattention": 17931,
    "Ġimprudence": 10296,
    "Ġlength": 2502,
    "Ġwithdrew": 9694,
    "Ġprosecuted": 25293,
    "affectionate": 24921,
    "âĢĻ-": 18166,
    "prior": 21031,
    "Ġfishing": 9661,
    "Ġcarriage": 3950,
    "Ġsetbacks": 11062,
    "possess": 5984,
    "crimson": 24097,
    "ò": 179,
    "eager": 12456,
    "Ġcomely": 21846,
    "Ġsentinel": 26065,
    "Ġfeatureless": 22604,
    "square": 15060,
    "vag": 8764,
    "break": 6101,
    "tot": 10727,
    "//": 11462,
    "mole": 22701,
    "Ġanon": 9665,
    "ities": 1827,
    "Ġunfor": 15836,
    "Ġneighbors": 25806,
    "truth": 9917,
    "father": 3777,
    "Ġtu": 6968,
    "Ġfalse": 4343,
    "Ġfaces": 6009,
    "Ġremaining": 6188,
    "sicilian": 21062,
    "rians": 21928,
    "injured": 15130,
    "Ġdeliberation": 19967,
    "Ġgale": 5822,
    "Ġmapp": 2081,
    "Ġintens": 7003,
    "flagged": 23969,
    "ĠĠĠĠĠĠĠĠĠĠĠĠ": 12896,
    "Ġobject": 1394,
    "Ġconstant": 6309,
    "umber": 5240,
    "cheeked": 19339,
    "knives": 14911,
    "Ġ98": 24594,
    "Ġroughly": 17039,
    "Ġfastening": 16354,
    "Ġcoronet": 6344,
    "Ġduration": 20352,
    "Ġdiverted": 14591,
    "Ġcarved": 7947,
    "Ġstride": 22615,
    "pemberley": 9619,
    "Ġheaped": 18037,
    "frightened": 17194,
    "Ġcompos": 22567,
    "pped": 2000,
    "Ġsurvived": 14932,
    "lined": 12480,
    "purpose": 10042,
    "gathered": 13730,
    "Ġunsafe": 22035,
    "aboard": 21792,
    "Ġkelson": 18350,
    "Ġloaf": 15869,
    "Ġwhitened": 24867,
    "Ġheredit": 9215,
    "Ġpurring": 23476,
    "Ġinseparable": 20687,
    "Ġdifferen": 936,
    "Ġsafely": 9024,
    "uck": 1231,
    "Ġtrack": 7450,
    "Ġcircumstantial": 14642,
    "niece": 20994,
    "Ġhelps": 9365,
    "Ġmachines": 1776,
    "Ġformed": 3885,
    "Ġblackness": 9391,
    "Ġpreserve": 7529,
    "Ġplant": 8898,
    "Ġassembly": 10641,
    "Ġobe": 5800,
    "readiness": 19361,
    "Ġunappalled": 22059,
    "charmed": 21694,
    "erve": 12545,
    "'d": 12424,
    "Ġscarcely": 4010,
    "Ġsund": 8249,
    "Ġsex": 8840,
    "Ġdecisions": 6702,
    "ury": 3313,
    "Ġhooded": 12403,
    "ration": 2006,
    "bearings": 25371,
    "Ġencounter": 6627,
    "Ġlogical": 14485,
    "Ġquit": 5245,
    "wishes": 13805,
    "Ġfolio": 11914,
    "Ġpunish": 12156,
    "Ġhermit": 15854,
    "fs": 17534,
    "corrid": 24483,
    "Ġadmeasure": 18292,
    "Ġprogress": 5023,
    "Ġpromotion": 23191,
    "ze": 1300,
    "Ġfinish": 7949,
    "Ġfisherman": 12072,
    "orses": 6052,
    "Ġfirmly": 8014,
    "Ġgrowth": 14628,
    "Ġmiseries": 10345,
    "lic": 17586,
    "Ġpleasant": 4170,
    "aded": 3549,
    "keep": 3852,
    "phant": 6287,
    "ff": 464,
    "Ġuncivilized": 25498,
    "Ġmeantime": 6206,
    "Ġnavigation": 9991,
    "fell": 6953,
    "Ġeag": 2965,
    "Ġwilled": 21290,
    "Ġquakers": 22414,
    "conqu": 14243,
    "Ġarg": 4766,
    "Ġwonder": 2118,
    "Ġoaken": 13863,
    "towing": 17688,
    "vessels": 10624,
    "Ġkicking": 16900,
    "osite": 4893,
    "specim": 23941,
    "Ġlouisa": 13544,
    "extinguish": 22765,
    "Ġslit": 13053,
    "Ġsounding": 8265,
    "Ġwre": 5077,
    "ibid": 18839,
    "Ġdiscretion": 10346,
    "Ġschol": 17375,
    "itory": 12563,
    "Ġentries": 22743,
    "mblings": 19779,
    "Ġbroadway": 23981,
    "rative": 17651,
    "Ġlikewise": 5386,
    "Ġmaintenance": 17460,
    "Ġcoburg": 18597,
    "Ġequival": 4784,
    "Ġdesigns": 13008,
    "Ġimbalance": 22172,
    "beam": 16034,
    "Ġguido": 2976,
    "Ġlacey": 10196,
    "bourn": 3303,
    "cheerfulness": 20179,
    "Ġceti": 24773,
    "Ġmoby": 3666,
    "Ġfordham": 21774,
    "kn": 5791,
    "inquiry": 15140,
    "ertips": 23639,
    "upset": 23015,
    "Ġut": 2278,
    "cig": 17502,
    "Ġpity": 4941,
    "Ġyarman": 12701,
    "shott": 11791,
    "Ġmunro": 25630,
    "Ġindec": 13926,
    "penetrate": 20323,
    "pag": 11509,
    "Ġlabors": 23328,
    "tstone": 21083,
    "Ġbeware": 8826,
    "Ġstrokes": 16768,
    "bod": 12434,
    "pointing": 12221,
    "Ġrowing": 10299,
    "Ġturks": 14597,
    "Ġshuddered": 11299,
    "precedented": 15172,
    "Ġmann": 18416,
    "Ġlic": 8436,
    "Ġdropping": 7483,
    "O": 51,
    "mean": 6438,
    "Ġportrait": 10660,
    "Ġmarried": 3411,
    "Ġpreventing": 882,
    "Ġgriefs": 16770,
    "Ġsecre": 5493,
    "Ġhapp": 1087,
    "Ġprotection": 9460,
    "Ġvia": 2382,
    "binder": 17498,
    "ode": 1456,
    "Ġsurrounded": 5879,
    "Ġlook": 880,
    "separation": 25226,
    "skeleton": 17374,
    "Ġforeseen": 16441,
    "green": 7115,
    "Ġcam": 10160,
    "Ġbeque": 18080,
    "Ġpredictions": 1458,
    "Ġterrify": 19359,
    "Ġselected": 9708,
    "Ġdepose": 22610,
    "Ġcho": 4546,
    "Ġfolds": 12203,
    "process": 11147,
    "Ġlime": 13946,
    "Ġvolat": 24143,
    "ge": 559,
    "Ġscratching": 20367,
    "unworthy": 18161,
    "Ġpoised": 22588,
    "Ġdaresay": 14702,
    "Ġdeser": 3888,
    "Ġdes": 1251,
    "Ġdirecting": 16297,
    "Ġattended": 5391,
    "Ġtomorrow": 21511,
    "Ġancient": 5443,
    "nourished": 26397,
    "Ġforehead": 5261,
    "Ġacquiring": 2766,
    "Ġresided": 11808,
    "pertaining": 22182,
    "Ġimpulsive": 19961,
    "Ġtendinous": 16930,
    "exe": 11786,
    "Ġpitiful": 13237,
    "Ġhorizontally": 17011,
    "Ġgodfre": 14528,
    "ieved": 3232,
    "Ġirrad": 19093,
    "Ġformation": 2942,
    "Ġsuffusing": 23026,
    "Ġfoolishly": 19781,
    "Ġlowering": 7987,
    "manners": 16183,
    "howling": 18990,
    "Ġriot": 14687,
    "Ġcolourless": 19568,
    "Ġshe": 466,
    "Ġenjoys": 19448,
    "Ġgasp": 7172,
    "Ġrobes": 16257,
    "Ġunce": 11708,
    "lingly": 9771,
    "steep": 19417,
    "Ġreporting": 24657,
    "seldom": 13785,
    "Ġpe": 852,
    "Ġ32": 19487,
    "Ġaccident": 5380,
    "Ġpartaking": 22697,
    "Ġsepul": 14087,
    "Ġinvest": 4978,
    "Ġadjac": 18291,
    "Ġminiatures": 20320,
    "Ġunit": 1847,
    "Ġstrung": 22617,
    "Ġunseason": 22046,
    "face": 3678,
    "Ġpugn": 21479,
    "Ġoverpow": 14206,
    "encoun": 12295,
    "Ġeel": 18001,
    "hammered": 19003,
    "Ġprob": 970,
    "wl": 17701,
    "Ġdistances": 22500,
    "Ġobjecting": 18896,
    "Ġpunchbowl": 20230,
    "doesn": 19819,
    "only": 3309,
    "Ġwreck": 7314,
    "Ġdelights": 14595,
    "Ġsobbing": 14135,
    "horner": 23613,
    "Ġdemig": 20355,
    "message": 17370,
    "Ġfruitless": 25605,
    "Ġreceive": 4703,
    "iding": 3848,
    "Ġostentatious": 25736,
    "Ġimpotent": 18447,
    "Ġperempt": 13671,
    "alive": 10826,
    "Ġruddy": 17124,
    "Ġthreat": 5154,
    "Ġmemorable": 16425,
    "âĢĿ": 354,
    "feelings": 5674,
    "Ġhue": 8429,
    "homely": 25617,
    "Ġraise": 6166,
    "Ġleeward": 6210,
    "Ġphrenolog": 12331,
    "Ġfaithfully": 14885,
    "ledge": 1330,
    "Ġwint": 15530,
    "berries": 22717,
    "Ġfancied": 7326,
    "ere": 6789,
    "Ġbud": 10167,
    "idirectional": 2422,
    "Ġparted": 5929,
    "Ġmasoned": 20250,
    "Ġfates": 15574,
    "Ġspasmod": 12411,
    "Ġscan": 22282,
    "Ġattempted": 8001,
    "elab": 21568,
    "Ġsituated": 9445,
    "Ġspaniard": 20361,
    "Ġlatitudes": 9494,
    "fill": 15348,
    "cred": 9106,
    "approaching": 15010,
    "Ġtrail": 16280,
    "Ġxlix": 25860,
    "Ġcamp": 9163,
    "plate": 18207,
    "represent": 9636,
    "necessarily": 19630,
    "alse": 4185,
    "Ġpikes": 21477,
    "Ġsurprised": 3830,
    "Ġarranging": 11173,
    "Ġswallowed": 7944,
    "Ġweig": 7618,
    "happiness": 6469,
    "Ġneur": 813,
    "Ġdrown": 6815,
    "moor": 22702,
    "Ġcharnel": 22250,
    "Ġbreast": 8967,
    "Ġprodig": 6028,
    "preced": 10308,
    "Ġnovelties": 24778,
    "nal": 1901,
    "),": 1347,
    "Ġjudged": 12080,
    "Ġtime": 689,
    "Ġprovoked": 13323,
    "Ġastonishing": 10500,
    "Ġomitted": 12560,
    "acks": 11785,
    "Ġprogen": 14037,
    "Ġcroquet": 9960,
    "Ġcooking": 16645,
    "ars": 905,
    "happ": 3106,
    "ream": 2709,
    "Ġhandled": 12934,
    "Ġ177": 13410,
    "Ġmaintains": 2147,
    "sto": 3199,
    "pin": 13765,
    "Ġnecessary": 4472,
    "Ġcrammed": 16469,
    "Ġhum": 1097,
    "slide": 24555,
    "iliary": 21724,
    "Ġ111": 24435,
    "Ġinterest": 2249,
    "Ġbias": 1191,
    "Ġmagician": 25058,
    "Ġmanx": 7906,
    "Ġcontro": 1683,
    "ww": 10736,
    "Ġmarshy": 20217,
    "grown": 10098,
    "Ġmannish": 26237,
    "Ġmusky": 19380,
    "Ġcardboard": 19977,
    "Ġchosen": 7201,
    "Ġplays": 12034,
    "Ġchristmas": 6924,
    "Ġmaster": 3682,
    "Ġjoking": 12833,
    "Ġseating": 18199,
    "irable": 5776,
    "Ġalgorith": 560,
    "perch": 18338,
    "Ġflank": 8229,
    "Ġcocaine": 20720,
    "gloves": 25143,
    "horr": 14598,
    "captain": 3953,
    "Ġexactness": 23603,
    "malicious": 19901,
    "floating": 12224,
    "hard": 4689,
    "Ġdrow": 21430,
    "Ġsneer": 13445,
    "ine": 404,
    "Ġpresence": 5031,
    "Ġprairie": 8712,
    "tern": 4223,
    "Ġborders": 15568,
    "oner": 6124,
    "Ġcarries": 7674,
    "Ġmotives": 7486,
    "prepared": 13588,
    "Ġunconcerned": 20508,
    "thick": 10259,
    "Ġexploration": 2335,
    "seized": 14033,
    "swallowed": 14851,
    "Ġthomas": 17947,
    "Ġcanted": 17831,
    "Ġflourish": 17159,
    "bly": 6110,
    "orne": 17872,
    "Ġprodigies": 19792,
    "ixed": 4851,
    "Ġcherry": 16934,
    "Ġwasn": 6997,
    "ule": 6800,
    "Ġdere": 21833,
    "Ġod": 4438,
    "Ġsheepfold": 25466,
    "Ġregions": 10322,
    "Ġsubsets": 2346,
    "Ġmeanings": 18607,
    "Ġcachalot": 17834,
    "Ġglobal": 2369,
    "Ġletters": 3793,
    "ange": 1016,
    "Ġilluminated": 20174,
    "Ġhole": 6080,
    "Ġlessened": 19085,
    "ĠĠĠĠĠĠĠĠĠĠĠĠĠĠĠĠĠĠĠĠĠĠĠĠĠĠĠĠĠĠĠĠĠĠĠ": 19257,
    "ures": 838,
    "Ġoppressively": 25712,
    "rendering": 22338,
    "Ġsupervised": 3298,
    "Ġdrug": 11409,
    "Ġundoubtedly": 8313,
    "Ġunfrequent": 24107,
    "Ġamb": 9290,
    "credit": 12445,
    "Ġinsurance": 23681,
    "Ġsociety": 3979,
    "amaz": 21842,
    "unte": 21871,
    "ribut": 815,
    "chambers": 25454,
    "uously": 7353,
    "borean": 25743,
    "Ă": 195,
    "Ġgasfitters": 25038,
    "Ġhalting": 16272,
    "Ġimpelled": 11779,
    "Ġvenerable": 9092,
    "vast": 10735,
    "Ġrepugnance": 19084,
    "Ġmisanthropic": 26559,
    "ĠĠĠĠĠĠĠĠĠĠĠĠĠĠĠĠĠĠĠ": 22948,
    "Ġbred": 9168,
    "Ġaqu": 17741,
    "Ġunallied": 22026,
    "Ġder": 1498,
    "Ġfluid": 11211,
    "akness": 14193,
    "Ġdevils": 7231,
    "Ġhunts": 23156,
    "Ġflatter": 9346,
    "Ġinev": 10180,
    "Ġstumped": 24942,
    "Ġgoble": 14229,
    "Ġcharley": 19005,
    "Ġdistinctly": 7311,
    "thouse": 21980,
    "Ġceased": 6468,
    "Ġelucidated": 26029,
    "Ġchoked": 9262,
    "Ġunfrequently": 20738,
    "going": 6313,
    "itch": 10159,
    "apsed": 6295,
    "Ġfree": 3376,
    "Ġidle": 8253,
    "cely": 3576,
    "Ġdeduce": 8337,
    "Ġyoungster": 23177,
    "rib": 1946,
    "Ġunlabeled": 3800,
    "Ġlye": 21549,
    "Ġnames": 4532,
    "Ġqual": 6274,
    "Ġembraces": 19871,
    "waistcoat": 17359,
    "Ġbreak": 2868,
    "Ġscandalous": 24879,
    "Ġindividuals": 24545,
    "ieves": 4007,
    "irth": 5634,
    "Ġcanvas": 7784,
    "Ġstraw": 9427,
    "ull": 1432,
    "Ġsphere": 15879,
    "Ġdecanting": 22455,
    "Ġsuspended": 5665,
    "Ġacceptance": 14825,
    "Ġstabbing": 20302,
    "estations": 22222,
    "Ġgovernments": 20266,
    "poles": 16207,
    "Ġreciproc": 20620,
    "attempt": 9358,
    "Ġaloft": 4302,
    "Ġhaunts": 18198,
    "extent": 22762,
    "Ġsamples": 2960,
    "feet": 6568,
    "Ġlocked": 6035,
    "Ġwee": 21917,
    "Ġpron": 6451,
    "Ġdangerously": 23934,
    "parsee": 14513,
    "Ġrank": 6258,
    "Ġforgetting": 3437,
    "Ġtenth": 13823,
    "ravelled": 18014,
    "Ġstir": 5825,
    "======": 9831,
    "offic": 7466,
    "inhabited": 13618,
    "hemat": 3132,
    "Ġwiser": 14728,
    "Ġobservable": 25126,
    "Ġretort": 23068,
    "Ġ21": 11197,
    "Ġdisappointment": 6626,
    "Ġupstairs": 5836,
    "pled": 7893,
    "met": 6652,
    "lose": 12878,
    "giana": 7801,
    "Ġwed": 3960,
    "Ġpowder": 11274,
    "od": 353,
    "younger": 11311,
    "Ġinfancy": 10408,
    "Ġprivileges": 25132,
    "Ġfavour": 3643,
    "Ġheroism": 24543,
    "Ġparties": 7038,
    "narrowly": 20346,
    "Ġdevouring": 11858,
    "Ġabruptly": 15148,
    "Ġdiabolically": 25513,
    "Ġhap": 18195,
    "Ġirish": 14533,
    "ppings": 18176,
    "Ġcup": 5697,
    "perishing": 22180,
    "Ġpeculiarly": 8287,
    "Ġfuriously": 9800,
    "Ġmacy": 19353,
    "Ġdesired": 4664,
    "Ġnigh": 4878,
    "Ġbounding": 19398,
    "orse": 5806,
    "Ġfeelings": 2455,
    "Ġcourting": 23289,
    "crossing": 19409,
    "tale": 10126,
    "embedding": 20703,
    "Ġfatally": 19392,
    "Ġgrowled": 19282,
    "course": 6104,
    "Ġstochastic": 3267,
    "bon": 13682,
    "Ġwished": 3730,
    "family": 7324,
    "Ġinfrequent": 3824,
    "succeeded": 15173,
    "repaid": 24490,
    "pillar": 5618,
    "aying": 15746,
    "Ġbritish": 11336,
    "charm": 13988,
    "Ġsustain": 10015,
    "Ġfondness": 16779,
    "Ġtranspired": 16783,
    "heredit": 21208,
    "ats": 4252,
    "Ġartificial": 786,
    "Ġsurpassed": 25267,
    "hess": 4747,
    "encing": 21281,
    "Ġhaul": 11689,
    "stepfather": 19189,
    "Ġadmon": 15864,
    "Ġsooty": 25815,
    "Ġdeal": 3610,
    "Ġfac": 6381,
    "Ġubiqu": 18046,
    "contriv": 19291,
    "Ġgreeted": 23209,
    "corner": 13395,
    "bastian": 10672,
    "Ġshri": 5375,
    "Ġformal": 2941,
    "Ġdeclined": 9919,
    "Ġjeopard": 9941,
    "bacc": 7795,
    "Ġmodeling": 2096,
    "====": 1482,
    "Ġliquid": 22407,
    "acting": 22629,
    "Ġpropri": 6738,
    "ancing": 1758,
    "Ġhoof": 23352,
    "Ġexacted": 23602,
    "Ġmitig": 1337,
    "Ġinspiring": 19112,
    "Ġbiography": 22760,
    "cherries": 19755,
    "cst": 10083,
    "foundation": 16714,
    "bethinking": 25745,
    "joice": 9601,
    "Ġdeaf": 12717,
    "wander": 17708,
    "Ġdizzy": 21436,
    "Ġsultan": 15182,
    "ellations": 21942,
    "Ġcoherent": 3264,
    "Ġobligations": 12088,
    "Ġwondrous": 4735,
    "Ġalchemists": 26486,
    "Ġcubs": 20085,
    "affording": 23776,
    "Ġintellectual": 11400,
    "Ġtails": 9900,
    "Ġhud": 10821,
    "Ġparticip": 16128,
    "Ġexplanatory": 22200,
    "transformers": 8714,
    "rippa": 11340,
    "Ġsummits": 14682,
    "Ġrescue": 13340,
    "things": 6033,
    "Ġfreshet": 25704,
    "Ġadapted": 11030,
    "antial": 8487,
    "ĠĠĠĠĠĠĠĠĠĠĠĠĠĠĠĠĠĠĠĠĠĠĠĠĠĠĠĠĠĠĠĠĠĠĠĠĠĠĠĠĠĠĠ": 12151,
    "Ġwhereas": 3856,
    "Ġsingers": 23770,
    "Ġagricultural": 26549,
    "Ġprimal": 17106,
    "Ġcannon": 14152,
    "priv": 9618,
    "Ġamounts": 6704,
    "Ġchallenge": 25471,
    "Ġburgled": 23656,
    "Ġunnaturally": 24870,
    "ă": 196,
    "Ġscept": 15501,
    "Ġshame": 6410,
    "Ġjerking": 12242,
    "Ġseventh": 18204,
    "Ġpeaceable": 14721,
    "treat": 12510,
    "stream": 15683,
    "Ġacquies": 11097,
    "Ġepo": 21619,
    "Ġmoran": 9339,
    "Ġchildish": 13135,
    "build": 12184,
    "Ġits": 706,
    "blazing": 24130,
    "phology": 3010,
    "Ġconvers": 2906,
    "Ġcares": 9364,
    "Ġslender": 11937,
    "flesh": 13488,
    "Ġdeserve": 8309,
    "ulus": 21862,
    "Ġmaritime": 23036,
    "pivot": 21030,
    "https": 11681,
    "dued": 7910,
    "Ġcatherine": 2813,
    "Ġpip": 1636,
    "Ġknees": 6928,
    "Ġexcited": 5579,
    "Ġare": 526,
    "Ġadvertised": 17246,
    "Ġmig": 13854,
    "Ġbrook": 13044,
    "Ġnosegay": 24191,
    "Ġceremony": 8361,
    "subjects": 19875,
    "Ġturkish": 12258,
    "Ġcasual": 11408,
    "Ġgrievances": 20647,
    "Ġqueen": 3215,
    "satisfied": 10577,
    "Ġtempted": 9055,
    "kers": 7132,
    "Ġfountain": 7365,
    "gods": 13364,
    "Ġredundant": 16549,
    "tallied": 21088,
    "Ġflirt": 14421,
    "owers": 12681,
    "Ġventure": 7740,
    "Ġsweetly": 23916,
    "Ġdeclaration": 16635,
    "yingly": 23115,
    "terogene": 21823,
    "oused": 6556,
    "Ġpaste": 23417,
    "ezes": 9989,
    "swallow": 24256,
    "ason": 1248,
    "occurrences": 26331,
    "Ġhis": 380,
    "aring": 1477,
    "goose": 19101,
    "Ġendeavours": 8617,
    "anthrop": 17380,
    "contented": 14633,
    "stains": 11635,
    "Ġendeavoured": 4918,
    "market": 16838,
    "una": 21867,
    "disp": 7977,
    "Ġconjugal": 25101,
    "Ġloadstone": 25816,
    "arance": 4696,
    "Ġattends": 19649,
    "Ġinterpre": 1587,
    "rifled": 21046,
    "Ġsire": 15499,
    "ileries": 18058,
    "springing": 24889,
    "armed": 7252,
    "crane": 24096,
    "ictions": 14224,
    "Ġyelling": 18096,
    "Ġbless": 4342,
    "Ġpostponed": 20388,
    "creation": 14804,
    "Ġretained": 7173,
    "Ġunavailing": 26215,
    "Ġfath": 7364,
    "Ġthose": 1173,
    "Ġbarrel": 23790,
    "request": 21240,
    "consol": 9760,
    "Ġknitted": 19588,
    "Ġbalanced": 12987,
    "Ġmar": 1312,
    "deal": 12795,
    "Ġtenderly": 11313,
    "Ġepidemic": 20694,
    "confidence": 16807,
    "Ġawful": 6199,
    "Ġadequ": 10911,
    "Ġstiff": 6992,
    "Ġchambers": 16798,
    "dition": 15338,
    "Ġgroups": 3720,
    "Ġunjust": 8483,
    "Ġgregarious": 18964,
    "Ġdest": 2238,
    "Ġhelplessly": 20076,
    "Ġextend": 18685,
    "Ġdigest": 24647,
    "Ġparasol": 22119,
    "some": 2236,
    "gird": 20878,
    "unable": 14057,
    "Ġindecision": 25781,
    "circ": 4387,
    "harrow": 20907,
    "Ġpap": 8796,
    "Ġseverely": 14931,
    "Ġundu": 15834,
    "Ġflu": 3278,
    "feed": 9291,
    "atiate": 12544,
    "Ġalterations": 19870,
    "Ġcheer": 4066,
    "Ġstrugg": 3220,
    "Ġappeased": 23195,
    "Ġhelter": 24022,
    "ordered": 8788,
    "achel": 7032,
    "Ġgould": 17989,
    "95": 17476,
    "Ġjenny": 20161,
    "Ġunusual": 6553,
    "whis": 7899,
    "Ġirresolute": 24916,
    "Ġgrieve": 14705,
    "culine": 19063,
    "Ġbliss": 12997,
    "Ġelephants": 9862,
    "Ġtapped": 11552,
    "peare": 18911,
    "roylott": 20025,
    "invested": 17116,
    "Ġulster": 14996,
    "ye": 1405,
    "igned": 5656,
    "Ġblight": 18817,
    "oga": 22693,
    "Ġacquiesced": 25493,
    "Ġbathing": 20198,
    "Ġflooded": 24961,
    "Ġdashes": 21438,
    "Ġguinea": 8946,
    "Ġtophet": 23571,
    "beheaded": 22490,
    "henry": 16624,
    "Ġpleas": 1905,
    "Ġmantel": 11438,
    "Ġpoliteness": 8274,
    "Ġflowed": 10370,
    "hurry": 24763,
    "afer": 17480,
    "Ġtreatment": 12068,
    "Ġxxv": 19716,
    "asions": 12647,
    "later": 20952,
    "Ġpursuits": 12073,
    "Ġpack": 5444,
    "Ġstormy": 16727,
    "ishment": 3506,
    "allions": 22196,
    "Ġloun": 7166,
    "castle": 3351,
    "seaman": 25457,
    "Ġramad": 8527,
    "Ġhooks": 14966,
    "Ġbread": 5404,
    "Ġpolynes": 16076,
    "Ġteasing": 11887,
    "Ġcommentaries": 20159,
    "Ġhappy": 2467,
    "Ġphilosophers": 10550,
    "Ġdetective": 14411,
    "Ġmainly": 22653,
    "van": 7815,
    "assure": 9267,
    "Ġperpendicular": 7209,
    "wives": 15453,
    "moments": 19410,
    "agement": 4189,
    "Ġow": 8408,
    "Ġlad": 2364,
    "Ġcharts": 12822,
    "pervised": 1529,
    "inction": 6660,
    "enty": 2915,
    "Ġclearer": 16310,
    "Ġwarm": 2427,
    "slack": 16893,
    "Ġswaths": 23055,
    "Ġreasoning": 1978,
    "thesize": 24906,
    "ortations": 22255,
    "Ġlun": 7856,
    "scratch": 26043,
    "ugnance": 12364,
    "Ġcoer": 22579,
    "she": 1396,
    "fig": 8734,
    "til": 17670,
    "Ġcontradicted": 20210,
    "Ġunique": 12773,
    "Ġseaport": 20598,
    "Ġjetted": 24430,
    "ashes": 6016,
    "Ġgraves": 11705,
    "Ġleave": 2459,
    "ace": 718,
    "Ġprecip": 7074,
    "Ġadapt": 956,
    "Ġportcull": 23861,
    "Ġalso": 1344,
    "Ġmuttered": 7086,
    "Ġcollateral": 20070,
    "alone": 10182,
    "Ġentreat": 4508,
    "iciously": 17973,
    "agon": 7872,
    "aws": 8237,
    "Ġeigen": 4881,
    "Ġsuavely": 26522,
    "Ġdramatic": 4850,
    "Ġserious": 4322,
    "Ġperpetual": 12300,
    "Ġcorporeally": 25729,
    "Ġmight": 965,
    "moderate": 22845,
    "alleging": 23020,
    "isons": 17849,
    "Ġawhile": 13828,
    "Ġess": 5691,
    "Ġunsuccessful": 18254,
    "ad": 337,
    "Ġcrosses": 23060,
    "Ġaffidavit": 20723,
    "feature": 3969,
    "tomorrow": 25914,
    "Ġimages": 1597,
    "enial": 17779,
    "Ġbuoyant": 13530,
    "precaution": 23820,
    "Ġmuttering": 10498,
    "Ġchapel": 9521,
    "Ġalbert": 12702,
    "n": 82,
    "dress": 17519,
    "Ġpractices": 19053,
    "Ġhoofs": 14526,
    "crew": 7544,
    "admitted": 18091,
    "sens": 8096,
    "leagued": 26434,
    "Ġcedar": 15186,
    "Ġb": 281,
    "Ġquenched": 22415,
    "Ġproposal": 10017,
    "Ġfossiliferous": 25609,
    "Ġtrousers": 12412,
    "unciation": 25982,
    "Ġpave": 8798,
    "Ġcurses": 13018,
    "char": 3504,
    "wr": 3030,
    "fisher": 7547,
    "americans": 25042,
    "Ġlifted": 6985,
    "Ġplug": 17146,
    "Ġdisliked": 12887,
    "unwholesome": 26496,
    "erate": 7149,
    "Ġburning": 5977,
    "Ġbreeds": 23347,
    "iations": 11493,
    "hatch": 15362,
    "rene": 5379,
    "Ġexploitation": 2348,
    "Ġhemis": 21682,
    "Ġdozing": 22241,
    "Ġintention": 5638,
    "king": 3063,
    "Ġhemisphere": 26477,
    "Ġavalanche": 17431,
    "whal": 10939,
    "Ġtheme": 16016,
    "onday": 6064,
    "abound": 15736,
    "Ġrepeat": 8000,
    "fury": 17546,
    "Ġrendered": 5773,
    "Ġpots": 9426,
    "Ġlaw": 3656,
    "whose": 6852,
    "Ġprolong": 6832,
    "quently": 9700,
    "Ġhieroglyphic": 25587,
    "Ġships": 3715,
    "Ġapologies": 25196,
    "recollection": 25348,
    "Ġglide": 22979,
    "coloured": 7291,
    "obser": 11099,
    "Ġlog": 1674,
    "Ġpale": 4531,
    "Ġcondescension": 10617,
    "pitchpoling": 25725,
    "Ġfinds": 6299,
    "Ġwerter": 15237,
    "Ġmingling": 20196,
    "ared": 773,
    "Ġnewfoundland": 26568,
    "ose": 719,
    "conject": 8878,
    "rons": 21038,
    "ified": 3229,
    "Ġmoulton": 17433,
    "Ġpeddling": 24799,
    "spirit": 11312,
    "raint": 18316,
    "Ġshudder": 9049,
    "Ġswallows": 18883,
    "Ġstowed": 21737,
    "urance": 10856,
    "Ġreceipt": 20354,
    "fitted": 17543,
    "Ġbidding": 9535,
    "Ġoverpower": 12838,
    "Ġeducation": 5128,
    "Ġlowers": 23241,
    "uff": 2731,
    "wled": 15452,
    "Ġspell": 8854,
    "Ġperadventure": 22396,
    "Ġinquiries": 5678,
    "prises": 23811,
    "opened": 7914,
    "Ġsuperstitions": 17071,
    "Ġstretch": 6993,
    "bits": 17487,
    "itating": 9649,
    "Ġpersonal": 7479,
    "Ġprovoking": 16742,
    "Ġbite": 10796,
    "Ġactor": 16045,
    "Ġheaths": 25972,
    "Ġphren": 8571,
    "Ġhardships": 14449,
    "Ġrefuse": 5739,
    "quitted": 21855,
    "Ġdisorder": 16047,
    "Ġtend": 6120,
    "Ġwear": 6031,
    "Ġsinews": 20286,
    "Ġimmured": 24068,
    "ppered": 15787,
    "luc": 9750,
    "Ġey": 8135,
    "exped": 16524,
    "?--": 15301,
    "Ġhams": 16611,
    "Ġwithal": 18113,
    "Ġtail": 3092,
    "satisfaction": 9990,
    "Ġsuperflu": 14554,
    "journey": 8744,
    "ladder": 19783,
    "Ġhesitating": 16946,
    "latitudes": 17195,
    "Ġvows": 15805,
    "Ġcolours": 12970,
    "Ġinde": 7371,
    "rous": 3754,
    "ela": 21567,
    "Ġinhale": 20299,
    "Ġhandsom": 11123,
    "discovering": 24250,
    "contrary": 23727,
    "Ġtoler": 7588,
    "resemblance": 25933,
    "Ġabund": 8863,
    "Ġvarious": 3510,
    "illings": 14141,
    "Ġoy": 15542,
    "Ġcalled": 1973,
    "Ġsupplying": 19797,
    "Ġfortresses": 23620,
    "Ġmuse": 13858,
    "flinging": 20867,
    "Ġdiscoursing": 26265,
    "Ġtints": 17726,
    "Ġbranch": 8332,
    "Ġoysters": 20577,
    "Ġrequiring": 2920,
    "Ġseverity": 15814,
    "Ġpatagon": 14506,
    "Ġsmite": 22555,
    "Ġfame": 21404,
    "cousins": 20116,
    "Ġbackground": 18649,
    "uns": 21868,
    "macy": 18805,
    "belais": 24035,
    "ļ": 253,
    "Ġcontempl": 6701,
    "Ġwhatever": 3474,
    "onze": 21254,
    "Ġsockets": 22086,
    "Ġspark": 6689,
    "Ġdiving": 12602,
    "Ġunaffected": 14119,
    "Ġpiazza": 26449,
    "Ġannual": 14830,
    "seven": 8463,
    "Ġanytime": 12881,
    "Ġinvolve": 11045,
    "remark": 7261,
    "hibited": 17425,
    "privilege": 25263,
    "Ġinquirers": 24964,
    "Ġinsens": 8277,
    "will": 1969,
    "Ġentic": 16143,
    "Ġ156": 20169,
    "Ġbrightly": 13221,
    "Ġdefile": 18823,
    "sorts": 21059,
    "Ġbedfellow": 16435,
    "att": 1459,
    "Ġtrump": 8196,
    "opp": 6963,
    "Ġadvantages": 9806,
    "Ġrocks": 6863,
    "/(": 2981,
    "Ġdiabolism": 25514,
    "sleep": 6511,
    "Ġspar": 10920,
    "ond": 1161,
    "Ġhappening": 14381,
    "Ġsympathy": 6346,
    "Ġimprudent": 12844,
    "ently": 1614,
    "an": 278,
    "Ġpedest": 14994,
    "Ġlouis": 8357,
    "Ġpersuade": 5872,
    "Ġcollecting": 12283,
    "otam": 21796,
    "Ġrivers": 9440,
    "Ġenveloped": 12205,
    "heat": 15495,
    "burned": 25079,
    "Ġleyden": 21730,
    "Ġwomen": 4750,
    "Ġstair": 8455,
    "Ġantiqu": 12141,
    "Ġdavy": 25951,
    "âĢľ_": 5720,
    "Ġadoration": 18289,
    "Ġchivalrous": 20513,
    "Ġends": 8238,
    "ringle": 21039,
    "astonishment": 10028,
    "Ġcogent": 14271,
    "ould": 428,
    "Ġcombinations": 22836,
    "Ġtranque": 14203,
    "destruction": 11255,
    "etting": 21578,
    "Ġheadsmen": 14730,
    "commendation": 26348,
    "Ġvon": 14079,
    "Ġauthority": 7749,
    "Ġprofessional": 7299,
    "Ġsuperficial": 23457,
    "answers": 22138,
    "Ġtears": 4230,
    "barbaric": 26358,
    "Ġhop": 1463,
    "Ġmerited": 23729,
    "Ġset": 1177,
    "Ġdinner": 4243,
    "inaw": 21182,
    "Ġcrooked": 11280,
    "Ġreplied": 2265,
    "Ġextras": 22724,
    ":--âĢľ": 24549,
    "Ġtallest": 15472,
    "Ġlbs": 11613,
    "Ġwater": 1948,
    "sprinkling": 24912,
    "hearted": 6970,
    "Ġscheme": 7064,
    "<PAD>": 0,
    "Ġcl": 553,
    "Ġflying": 5413,
    "Ġshoulder": 5848,
    "absolutely": 10644,
    "Ġinsular": 19267,
    "ena": 11566,
    "shed": 8095,
    "Ġchange": 1995,
    "stalk": 21648,
    "¬": 110,
    "mayhew": 23989,
    "Ġexplicit": 3590,
    "Ġcurios": 18857,
    "Ġprevented": 5942,
    "Ġlastly": 16203,
    "Ġbay": 9167,
    "Ġaccount": 2319,
    "Ġ61": 24363,
    "Ġincl": 4269,
    "Ġsought": 5010,
    "Ġbidirectional": 3757,
    "Ġingenuity": 17162,
    "¤": 102,
    "Ġenticements": 26034,
    "swaying": 25910,
    "Ġdropt": 23675,
    "Ġix": 12662,
    "Ġbuildings": 24720,
    "orange": 21398,
    "Ġaccompanying": 11303,
    "Ġshrivelled": 19702,
    "Ġdried": 7367,
    "Ġpenetrated": 13470,
    "again": 3402,
    "rapidly": 15241,
    "Ġsupp": 1266,
    "nobody": 16133,
    "Ġmisconduct": 22754,
    "could": 2872,
    "Ġmoses": 21314,
    ";âĢĿ": 7791,
    "Ġchaplain": 19911,
    "Ġkeepers": 23537,
    "particular": 5757,
    "Ġcupboard": 16882,
    "Ġplaything": 19236,
    "Ġresignation": 18566,
    "Ġvel": 7186,
    "Ġunimpeachable": 26521,
    "ivation": 3113,
    "Ġincommun": 25308,
    "Ġquery": 2482,
    "Ġnegatived": 23044,
    "retrie": 18922,
    "Ġbethink": 12376,
    "Ġclouded": 13288,
    "iness": 1281,
    "ils": 3183,
    "Ġsides": 4578,
    "Ġintervened": 25481,
    "Ġcruellest": 19657,
    "Ġairth": 23317,
    "Ġbelted": 22946,
    "Ġhelm": 5275,
    "wood": 5898,
    "Ġprejud": 6851,
    "Ġrasc": 21975,
    "Ġremember": 2677,
    "arming": 8950,
    "Ġdestiny": 8982,
    "Ġimprovements": 14522,
    "Ġslippery": 12163,
    "Ġterribly": 10424,
    "odious": 21810,
    "[": 63,
    "Ġunche": 23427,
    "Ġsyllable": 9726,
    "Ġoutset": 15952,
    "Ġviciously": 24403,
    "Ġproportionate": 17042,
    "gratulation": 24348,
    "Ġbring": 3325,
    "Ġreflect": 6574,
    "Ġplanets": 24053,
    "functions": 11221,
    "Ì": 141,
    "quakes": 21854,
    "Ġrepetition": 8971,
    "Ġproportions": 16466,
    "Ġshadowed": 24042,
    "Ġmetal": 9387,
    "Ġacqu": 1416,
    "Ġdoted": 21437,
    "Ġsanity": 24981,
    "fitters": 24761,
    "collect": 16561,
    "Ġdece": 6996,
    "Ġeluded": 12918,
    "Ġbandages": 24426,
    "atmospheric": 17775,
    "Æ": 135,
    "Ġbennett": 16321,
    "brim": 23573,
    "Ġcharmed": 16761,
    "Ġcompunction": 18585,
    "Ġprincely": 24147,
    "icked": 10331,
    "ĠĠĠĠĠĠĠĠĠĠĠĠĠĠĠĠĠĠĠĠĠĠĠ": 18831,
    "Ġcontemptuous": 24676,
    "outward": 22158,
    "Ġmoderately": 22220,
    "Ġquitting": 7645,
    "icking": 8909,
    "Ġdispatched": 23879,
    "Ġbook": 2702,
    "displayed": 20735,
    "Ġrespectively": 23247,
    "hopper": 23713,
    "Ġdomes": 23648,
    "Ġterminated": 23509,
    "wered": 2690,
    "report": 13397,
    "Ġsplash": 16547,
    "Ġconsec": 21803,
    "Ġhanging": 5447,
    "Ġdeepest": 8213,
    "disgu": 19153,
    "mies": 20967,
    "Ġfew": 1193,
    "ruck": 6848,
    "Ò": 147,
    "fts": 18700,
    "opatra": 22475,
    "Ġ120": 16857,
    "Ġassistant": 7298,
    "Ġoutput": 928,
    "Ġhair": 3315,
    "Ġwarrior": 24495,
    "Ġcraggy": 23528,
    "iteous": 14260,
    "Ġbeadle": 26483,
    "Ġsolitudes": 22886,
    "crimes": 16696,
    "mured": 6960,
    "Ġmust": 845,
    "Ġdisc": 943,
    "Ġaugmentation": 20114,
    "Ġrehears": 15696,
    "Ġfortitude": 9883,
    "Ġparac": 12791,
    "Ġcontemplate": 19891,
    "Ġdivineness": 25724,
    "hall": 8085,
    "sailing": 14712,
    "Ġinvests": 14866,
    "Ġget": 1621,
    "unsupervised": 10888,
    "preference": 22465,
    "stone": 5089,
    "Ġgather": 6534,
    "rub": 15890,
    "result": 12041,
    "oury": 22302,
    "Ġramsgate": 18639,
    "Ġforwards": 12699,
    "Ġspecially": 11994,
    "chariot": 26478,
    "oforte": 14284,
    "Ġbehave": 23299,
    "rench": 3967,
    "Ġblasp": 14399,
    "Ġvisual": 5741,
    "Ġviolently": 6456,
    "Ġpleasantness": 24137,
    "dia": 2134,
    "Ġregards": 16067,
    "maul": 11889,
    "wrapped": 15207,
    "calling": 12446,
    "arts": 6563,
    "Ġapparatus": 24908,
    "osing": 3690,
    "fights": 20864,
    "hus": 5072,
    "Ġwrite": 3821,
    "thunder": 10261,
    "Ġblanche": 18819,
    "Ġbrad": 8785,
    "Ġdenomin": 12064,
    "illity": 18296,
    "Ġrifle": 18212,
    "Ġchina": 8040,
    "cerem": 15674,
    "Ġsheets": 9720,
    "Ġcompanionship": 14918,
    "grin": 19105,
    "Ġenemy": 5604,
    "kicked": 20942,
    "ri": 391,
    "Ġtoiling": 15631,
    "Ġbrazier": 26320,
    "hoisted": 19281,
    "Ġpugnacious": 26450,
    "Ġglobu": 23270,
    "Ġmonotonous": 13261,
    "Ġextraordinary": 5414,
    "isbury": 21375,
    "Ġcust": 11580,
    "Ġlieuten": 13324,
    "Ġcat": 2122,
    "Ġsilence": 3269,
    "thrasher": 25658,
    "Ġnervousness": 23554,
    "Ġnearing": 15794,
    "Ġvesuvius": 26500,
    "Ġmartin": 25436,
    "recollect": 17222,
    "Ġunwillingness": 20030,
    "ouraged": 22859,
    "ind": 568,
    "æ": 167,
    "Ġtroubled": 6615,
    "ruct": 682,
    "Ġapothe": 12372,
    "Ġthumb": 6981,
    "combined": 20319,
    "Ġcooked": 13267,
    "Ġfant": 9172,
    "Ġpleaded": 16296,
    "french": 9118,
    "Ġinfant": 11957,
    "Ġsord": 21218,
    "Ġtouches": 20569,
    "Ġcetology": 10007,
    "alous": 7372,
    "Ġgrope": 17994,
    "cing": 1013,
    "understand": 1144,
    "Ġindign": 6173,
    "Ġworry": 18815,
    "jaw": 13741,
    "Ġclang": 15960,
    "Ġdismally": 20213,
    "withstanding": 8944,
    "Ġ45": 14769,
    "ening": 3107,
    "ieth": 10703,
    "hamed": 6305,
    "Ġhereford": 22876,
    "Ġhatchway": 13523,
    "Ġmuchness": 18706,
    "Ġunfit": 14785,
    "inferences": 17738,
    "Ġwhaleman": 4653,
    "Ġsublime": 8066,
    "Ġhandfuls": 17208,
    "too": 4506,
    "Ġunicorn": 22051,
    "Ġopposite": 5120,
    "Ġfro": 3472,
    "Ġhandkerchief": 8912,
    "Ġabundant": 17153,
    "Ġ123": 24467,
    "Ġlydia": 2373,
    "igation": 5918,
    "Ġsauntering": 18327,
    "Ġpunch": 9953,
    "ius": 5789,
    "aker": 3664,
    "Ġprofound": 5497,
    "inkling": 16086,
    "Ġmart": 10778,
    "olerable": 7182,
    "Ġemma": 20693,
    "Ġregarded": 5762,
    "Ġdiet": 13909,
    "Ġcheever": 23282,
    "Ġpossessing": 16574,
    "Ġcour": 1768,
    "Ġdrowning": 19903,
    "Ġoffences": 18697,
    "Ġtanning": 17728,
    "pictures": 15088,
    "Ġlonging": 14296,
    "measured": 19988,
    "gazed": 15359,
    "Ġdoleful": 18376,
    "Ġhastening": 19335,
    "Ġfogs": 25282,
    "iates": 13735,
    "tal": 17669,
    "Ġdetection": 3217,
    "Ġdel": 1613,
    "thanking": 24329,
    "Ġfounder": 17883,
    "Ġfriday": 14487,
    "ene": 2172,
    "Ġlicence": 25096,
    "Ġanalog": 12608,
    "Ġwildest": 16508,
    "vo": 11538,
    "Ġwebster": 20160,
    "Ġconnexion": 11453,
    "Ġfevers": 22206,
    "andering": 21865,
    "Ġ63": 24365,
    "Ġcopying": 17067,
    "Ġbasic": 24701,
    "Ġexcellent": 4237,
    "Ġhide": 4588,
    "Ġpositives": 4316,
    "Ġdesires": 9455,
    "eaten": 20343,
    "agger": 7873,
    "Ġcough": 11579,
    "Ġcolder": 22854,
    "Ġstrange": 2273,
    "hurrying": 14981,
    "av": 738,
    "mes": 1197,
    "Ġappetite": 12381,
    "shall": 4549,
    "Ġgills": 17992,
    "Ġdemonstrate": 24996,
    "Ġlane": 5627,
    "Ġchicha": 15933,
    "cadence": 26125,
    "Ġship": 1088,
    "furnished": 20240,
    "set": 3867,
    "Ġjourney": 3881,
    "anting": 6412,
    "Ġtitle": 11407,
    "Ġhatches": 12042,
    "volut": 1559,
    "Ġsomnambul": 26575,
    "Ġgruff": 21612,
    "osition": 1375,
    "Ġcountless": 16380,
    "lins": 2027,
    "Ġafore": 10757,
    "_.": 2215,
    "proceed": 8975,
    "post": 6062,
    "Ġmeditative": 25014,
    "fine": 10089,
    "cloud": 11104,
    "rian": 10241,
    "Ġdescribing": 19253,
    "Ġlard": 13945,
    "Ġgur": 21590,
    "tha": 15820,
    "Ġbanners": 24858,
    "Ġemac": 16404,
    "Ġroutine": 13506,
    "Ġcomfits": 21850,
    "Ġcoldness": 23758,
    "letters": 13172,
    "Ġfren": 10804,
    "resh": 8404,
    "Ġcaution": 11345,
    "Ġrobberies": 23028,
    "helping": 23138,
    "nihil": 9846,
    "profound": 16423,
    "eel": 11482,
    "Ġshoals": 13132,
    "Ġsprout": 24085,
    "Ġmisunderstand": 18704,
    "Ġwindpipe": 23103,
    "Ġhabitations": 24789,
    "mason": 17602,
    "uttering": 12658,
    "Ġdisaster": 12883,
    "fain": 13713,
    "Ġslippers": 19614,
    "Ġbelike": 18829,
    "Ġdepressed": 10882,
    "Ġnailing": 21525,
    "Ġgrammatical": 13537,
    "Ġmost": 1018,
    "Ġclipping": 2442,
    "display": 19154,
    "warmest": 25027,
    "Ġyarn": 10867,
    "Ġearthy": 23711,
    "Ġmisery": 3814,
    "Ġcomb": 1030,
    "Ġpursued": 6328,
    "Ġdemi": 25548,
    "untarily": 6312,
    "beat": 10985,
    "Ġsupper": 4665,
    "Ġsnar": 13196,
    "Ġoversampling": 20514,
    "ioneer": 15628,
    "thirst": 15822,
    "Ġoutrageous": 20609,
    "Ġquite": 1742,
    "Ġsiam": 13836,
    "Â·": 21148,
    "close": 9984,
    "apable": 6422,
    "Ġunp": 12767,
    "Ġmermaid": 17813,
    "Ġsket": 18728,
    "blows": 17164,
    "Ġsickly": 16773,
    "Ġresidence": 8207,
    "Ġwal": 6517,
    "knows": 19171,
    "Ġimprove": 1916,
    "Ġsnatching": 10471,
    "iac": 6225,
    "Ġstrikes": 13179,
    "Ġstoop": 16307,
    "log": 18534,
    "Ġexerted": 15751,
    "poss": 4778,
    "Ġsecured": 6745,
    "end": 506,
    "ituted": 13871,
    "wonted": 13491,
    "Ġrejoicing": 13419,
    "ance": 478,
    "Ġstun": 11648,
    "screw": 9344,
    "neglect": 25668,
    "Ġembarrassment": 10625,
    "Ġdiversity": 25284,
    "wear": 22681,
    "Ġenumer": 12741,
    "Ġhagger": 21489,
    "search": 8464,
    "Ġoce": 3032,
    "Ġterr": 3274,
    "Ġinvesting": 19645,
    "Ġdeformity": 11674,
    "Ġapplying": 13089,
    "Ġcontest": 18473,
    "Ġungod": 22018,
    "Ġsynd": 22204,
    "Ġspars": 3810,
    "ignorant": 13561,
    "Ġfringed": 17271,
    "vint": 21113,
    "Ġtink": 9147,
    "tail": 8761,
    "mown": 20969,
    "rels": 6664,
    "Ġmeryton": 4437,
    "drive": 8682,
    "Ġmeeting": 5193,
    "ife": 1022,
    "Ġ55": 24322,
    "Ġprobabilities": 4966,
    "Ġrecurrent": 1805,
    "Ġswelling": 11922,
    "Ġlike": 668,
    "É": 138,
    "ky": 4519,
    "Ġpeculiarity": 12929,
    "behind": 6779,
    "Ġunaware": 22053,
    "Ġexcurs": 23313,
    "Ġrod": 9278,
    "Ġnod": 1888,
    "Ġgent": 7383,
    "glim": 19363,
    "Ġwrung": 14468,
    "Ġunhappy": 5640,
    "Ġdra": 1589,
    "paws": 21028,
    "inople": 13827,
    "Ġcoll": 8221,
    "versed": 9823,
    "Ġclapping": 14201,
    "Ġjane": 1757,
    "itted": 2443,
    "uneasiness": 23686,
    "counterpart": 26359,
    "pless": 6260,
    "Ġpads": 21473,
    "sed": 4177,
    "Ġsched": 2336,
    "Ġreciprocating": 26369,
    "Ġregularly": 7657,
    "allowance": 16823,
    "Ġestimation": 11217,
    "Ġfresher": 23207,
    "Ġmachinations": 25767,
    "Ġfi": 933,
    "Ġconcernment": 23621,
    "Ġfurniture": 6476,
    "gd": 3128,
    "outre": 18320,
    "Ġadhering": 14137,
    "Ġconstrued": 26301,
    "Ġwhirlwinds": 20463,
    "ĠĠĠĠĠĠĠĠĠĠĠĠĠĠĠĠĠĠĠĠĠĠĠĠĠĠĠ": 14884,
    "Ġisa": 14023,
    "Ġproposition": 23248,
    "Ġprec": 2918,
    "state": 13977,
    "«": 109,
    "Ġep": 7385,
    "Ġhelper": 24023,
    "Ġinstrum": 6055,
    "question": 5418,
    "Ġiron": 3237,
    "omnipotent": 25964,
    "Ġraw": 3322,
    "Ġgips": 10840,
    "list": 7551,
    "Ġpun": 4586,
    "commodore": 20624,
    "Ġsqu": 1037,
    "rack": 18010,
    "advantages": 11270,
    "Ġrelate": 6875,
    "Ġgone": 2108,
    "blades": 24129,
    "magnetic": 20551,
    "Ġtangle": 25760,
    "prophecy": 22838,
    "Ġfossils": 20221,
    "possible": 5743,
    "Ġparm": 15874,
    "kington": 11201,
    "painter": 24896,
    "Ġchiselled": 25559,
    "Ġdamp": 8264,
    "Ġeul": 21618,
    "simon": 16972,
    "Ġcorrect": 2434,
    "carp": 9108,
    "Ġdistillation": 16041,
    "Ġnose": 4401,
    "Ġwelded": 9570,
    "Ġmarshalled": 25315,
    "ung": 2746,
    "sit": 13778,
    "Ġselection": 18202,
    "beaut": 8512,
    "Ġshine": 12762,
    "leisure": 21369,
    "nowled": 5470,
    "cr": 4075,
    "eling": 6681,
    "offensive": 16395,
    "afric": 19178,
    "Ġdisenc": 22524,
    "philosophers": 25252,
    "Ġlionel": 25286,
    "Ġirreducible": 5519,
    "Ġasia": 11680,
    "Ġcircumspection": 25884,
    "Ġgoing": 2066,
    "Ġknowledge": 1446,
    "anned": 17839,
    "reclining": 20573,
    "Ġvalues": 2650,
    "arthly": 8030,
    "Ġdegenerated": 20504,
    "lays": 14920,
    "whispered": 20032,
    "Ġ58": 24325,
    "Ġnation": 12643,
    "yt": 17710,
    "Ġdownstairs": 11224,
    "raction": 8138,
    "R": 54,
    "constantly": 24607,
    "lengths": 24846,
    "mic": 12485,
    "Ġcrumb": 16438,
    "Ġshipwreck": 20444,
    "Ġneed": 2607,
    "Ġinsupportable": 13930,
    "Ġspanish": 2827,
    "Ġlife": 1354,
    "Ġchurches": 12823,
    "Ġhundreds": 4328,
    "Ġcomforted": 19389,
    "aming": 5828,
    "Ġsheep": 10925,
    "fourths": 25509,
    "Ġowing": 6005,
    "Ġsunwards": 19010,
    "wickham": 5884,
    "Ġray": 18633,
    "autumn": 23342,
    "Ġcables": 15554,
    "Ġbehold": 5049,
    "Ġsky": 3971,
    "quer": 11677,
    "desolate": 25703,
    "rised": 10122,
    "Ġdoub": 1836,
    "curious": 10481,
    "Ġvirtue": 4922,
    "Ġgar": 10837,
    "Ġcovari": 2337,
    "Ġspotted": 12135,
    "Ġtolland": 24990,
    "Ġvisibly": 22882,
    "Ġmagnificent": 9840,
    "nervous": 16275,
    "rium": 3136,
    "servants": 15036,
    "Ġcapricious": 20537,
    "Ġmonarch": 14413,
    "renewed": 19703,
    "Ġgordon": 26466,
    "sn": 7138,
    "cracy": 24690,
    "Ġfrenchman": 11282,
    "Ġheaved": 9381,
    "Ġchag": 15928,
    "Ġissues": 9540,
    "Ġbursting": 8655,
    "Ġspirits": 3698,
    "Ġbas": 6380,
    "Ġsecret": 3721,
    "axen": 22519,
    "Ġed": 2145,
    "Ġbulkington": 14676,
    "Ġbacked": 12920,
    "Ġsil": 1799,
    "aged": 2606,
    "Ġunpardonable": 22056,
    "Ġslapped": 23169,
    "Ġridiculous": 10627,
    "non": 9610,
    "Ġcontinually": 5042,
    "grass": 23411,
    "Ġcases": 3961,
    "Ġmuffled": 10639,
    "Ġearn": 3547,
    "prophet": 16178,
    "Ġtenderest": 23548,
    "Ġers": 15458,
    "Ġbrilliantly": 25120,
    "anation": 5803,
    "giving": 8738,
    "folly": 20861,
    "Ġshel": 6847,
    "ĠĠĠĠĠĠĠĠĠĠĠĠĠĠĠĠĠĠĠĠĠĠĠĠĠĠĠĠĠĠĠĠĠĠĠĠĠĠ": 16525,
    "ther": 482,
    "buckets": 26123,
    "conclusive": 25673,
    "ronted": 14875,
    "Ġbelieves": 14405,
    "Ġlies": 5295,
    "chased": 18041,
    "Ġwrenching": 17321,
    "cery": 20807,
    "Ġcurved": 18856,
    "bs": 3752,
    "anoke": 21359,
    "Ġargue": 16782,
    "Ġdisguises": 25055,
    "up": 1283,
    "throt": 25659,
    "Ġweighed": 8710,
    "Ġcooped": 22581,
    "avers": 17479,
    "Ġsh": 419,
    "Ġthine": 7374,
    "Ġinquisitive": 26317,
    "Ġutter": 3976,
    ".;": 20743,
    "Ġgerm": 13962,
    "Ġbenchmarks": 15020,
    "iss": 2180,
    "shells": 26056,
    "hateful": 20908,
    "Ġcivility": 4788,
    "onious": 15516,
    "Ġinitial": 823,
    "Ġdebt": 12164,
    "Ġbone": 4694,
    "Ġendure": 5956,
    "Ġ69": 19660,
    "f": 74,
    "Ġswings": 11087,
    "Ġskil": 14350,
    "Ġdiamond": 15597,
    "cun": 20794,
    "trans": 5593,
    "ĠĠĠĠĠĠĠĠĠĠĠĠĠĠĠĠĠĠĠĠĠĠĠĠĠĠĠĠĠ": 19698,
    "Ġ85": 24459,
    "ps": 4573,
    "barn": 17481,
    "causes": 20342,
    "fearing": 18529,
    "aken": 1869,
    "Ġback": 820,
    "Ġdrugg": 17118,
    "ckled": 9255,
    "Ġchart": 10944,
    "Ġlaying": 7909,
    "flour": 23963,
    "Ġspeeches": 22661,
    "attery": 18500,
    "Ġtightly": 13532,
    "Ġexterior": 19986,
    "Ġdiscipline": 26560,
    "omics": 21641,
    "inspector": 13644,
    "Ġknights": 15147,
    "stop": 11633,
    "Ġsple": 21214,
    "Ġdella": 21443,
    "ĠĠĠĠĠĠĠĠĠĠĠĠĠĠĠĠĠĠĠĠĠĠĠĠĠĠĠĠĠĠĠĠĠĠĠĠĠĠĠĠĠĠĠĠĠĠĠĠĠĠĠĠĠĠĠĠĠĠĠĠ": 19259,
    "Ġsunlight": 13082,
    "Ġcasualties": 25512,
    "unted": 6998,
    "lee": 11583,
    "wedding": 13369,
    "Ġapprobation": 10984,
    "Ġall": 423,
    "lanter": 15385,
    "Ġcele": 9898,
    "Ġindirectly": 8938,
    "Ġexceedingly": 4613,
    "humanity": 24839,
    "Ġimpart": 11777,
    "material": 13128,
    "Ġquieted": 23840,
    "hampshire": 23263,
    "Ġdisappeared": 5645,
    "Ġkin": 15901,
    "Ġpersonality": 16475,
    "Ġirregular": 9863,
    "inte": 5144,
    "Ġjew": 9466,
    "nay": 7135,
    "concerns": 24582,
    "Ġroad": 3882,
    "goldsmith": 20146,
    "lement": 10165,
    "true": 2586,
    "sphere": 22730,
    "Ġgomorrah": 21613,
    "Ġfearless": 9873,
    "Ġminute": 4277,
    "Ġskill": 6872,
    "Ġused": 2060,
    "slipped": 25529,
    "ral": 4626,
    "Ġdummy": 25449,
    "Ġmothers": 14539,
    "omn": 15678,
    "Ġrural": 21968,
    "inative": 15482,
    "extremely": 26263,
    "heard": 5009,
    "Ġmounting": 19975,
    "Ġfellows": 8257,
    "Ġlicensing": 20091,
    "Ġnorthward": 13319,
    "Ġsafie": 6617,
    "Ġvillas": 24050,
    "phil": 7926,
    "Ġdough": 8421,
    "companies": 24894,
    "Ġchin": 4891,
    "Ġdrooping": 9418,
    "Ġportions": 19367,
    "tempestuous": 26097,
    "Ġstroll": 13350,
    "roads": 17957,
    "Ġcoral": 11919,
    "doubted": 17525,
    "Ġcongratulated": 19765,
    "Ġclaim": 5106,
    "Ġandes": 12637,
    "Ġbleak": 10557,
    "Ġcoldly": 14649,
    "meat": 18678,
    "short": 6566,
    "Ġsplintered": 11417,
    "news": 23132,
    "vel": 2384,
    "fat": 8079,
    "Ġfluttered": 16245,
    "Ġsplinters": 15100,
    "aintance": 3570,
    "warrior": 24798,
    "Ġcrimin": 6901,
    "Ġbeloved": 5571,
    "Ġintrusted": 21990,
    "keenest": 25661,
    "iloqu": 11646,
    "wedded": 24338,
    "widows": 25344,
    "Ġdimensions": 16570,
    "Ġspecimens": 18852,
    "ol": 363,
    "vanished": 15061,
    "erie": 21269,
    "Ġrespect": 1667,
    "rasing": 21044,
    "Ġthigh": 10185,
    "hur": 6648,
    "Ġround": 1371,
    "Ġadventurous": 16732,
    "whisper": 17082,
    "william": 4561,
    "Ġwhal": 5454,
    "leg": 2814,
    "spite": 16134,
    "cept": 552,
    "aited": 12432,
    "princip": 17135,
    "inter": 2947,
    "rown": 2196,
    "singular": 12185,
    "dislike": 23494,
    "Ġ108": 19683,
    "Ġdisappearance": 9295,
    "Ġforenoon": 19126,
    "Ġintegral": 25008,
    "Ġreappeared": 21663,
    "breat": 10076,
    "Ġstash": 18070,
    "tar": 8098,
    "Ġunhinged": 26216,
    "bert": 4661,
    "Ġservices": 11216,
    "Ġforgetfulness": 14605,
    "Ġstrategies": 1839,
    "bright": 8988,
    "Ġdress": 4021,
    "Ġwigwam": 11427,
    "Ġseam": 3909,
    "Ġbusily": 9382,
    "butt": 15991,
    "Ġdepicted": 14282,
    "meant": 7922,
    "Ġsubt": 11865,
    "Ġother": 760,
    "@": 36,
    "Ġleakage": 23460,
    "Ġshout": 4263,
    "gallant": 7781,
    "Ġtowing": 9192,
    "Ġassigned": 16309,
    "antucket": 2642,
    "Ġrobert": 10969,
    "interrupt": 8615,
    "isa": 17845,
    "hook": 12050,
    "Ġsighs": 22707,
    "lin": 9602,
    "Ġwith": 349,
    "Ġsympt": 7012,
    "further": 7535,
    "aurus": 20559,
    "fear": 8513,
    "perpendicular": 14158,
    "quake": 11678,
    "Ġtowed": 11264,
    "Ġideas": 5494,
    "Ġimitation": 22169,
    "Ġge": 1980,
    "iant": 5427,
    "impl": 21705,
    "Ġlengthened": 25958,
    "bee": 16033,
    "Ġswallow": 8949,
    "ugging": 23288,
    "Ġliberties": 19666,
    "Ġclumsy": 9578,
    "Ġgoring": 21602,
    "Ġnile": 21519,
    "Ġreferences": 21672,
    "Ġshetland": 22157,
    "al": 292,
    "immortal": 21708,
    "gratitude": 16815,
    "take": 4575,
    "Ġmichaelmas": 26374,
    "Ġbosom": 6939,
    "miseries": 16756,
    "^{": 15302,
    "Ġcovent": 16071,
    "Ġyes": 2689,
    "atics": 15520,
    "lady": 4431,
    "Ġseeth": 21951,
    "shrouded": 26361,
    "Ġmap": 2390,
    "possibility": 13359,
    "australian": 20560,
    "Ġflounders": 23011,
    "Ġaccusations": 22378,
    "Ġency": 21931,
    "Ġpeak": 16123,
    "Ġpestilent": 25777,
    "Ġsensitive": 13195,
    "Ġthirds": 16707,
    "Ġdigress": 24648,
    "Ġexpressing": 12005,
    "Ġacknowledge": 13400,
    "Ġwhel": 15865,
    "hib": 15365,
    "Ġrifled": 21977,
    "uzza": 11269,
    "Ġillinois": 19136,
    "Ġflashed": 11910,
    "Ġrighteous": 18945,
    "ithmetic": 18061,
    "strang": 11182,
    "incess": 15480,
    "furniture": 20241,
    "Ġmatch": 4528,
    "doub": 6223,
    "stand": 629,
    "Ġoverflowing": 17236,
    "Ġsquall": 7043,
    "existence": 16011,
    "raged": 9210,
    "Ġembraced": 10004,
    "div": 8076,
    "Ġunfolding": 17085,
    "disguise": 26306,
    "Ġklux": 22193,
    "Ġseries": 7059,
    "Ġlambton": 10656,
    "Ġsignifies": 19203,
    "Ġroot": 2649,
    "Ġbreathlessly": 24279,
    "round": 3369,
    "Ġafford": 4365,
    "cle": 3955,
    "Ġwhisky": 23931,
    "baden": 25615,
    "Ġcampaign": 20660,
    "Ġunrecorded": 17466,
    "rested": 13072,
    "comput": 1965,
    "movable": 14322,
    "arpening": 21422,
    "Ġmother": 2067,
    "inqu": 6121,
    "Ġdevout": 14335,
    "Ġtransformers": 1126,
    "boone": 23252,
    "Ġkey": 2102,
    "smiles": 14691,
    "Ġchaos": 17008,
    "hearing": 8403,
    "Ġsaves": 18324,
    "85": 13679,
    "Ġclubs": 25179,
    "Ġmelting": 24287,
    "Ġfertile": 20581,
    "Ġdramat": 23213,
    "Ġoblong": 14319,
    "Ġincurable": 22550,
    "igh": 2030,
    "÷": 184,
    "Ġsomehow": 4841,
    "Ġrevelations": 25223,
    "Ġbowlines": 19321,
    "Ġabused": 22267,
    "ĠâĢľ": 516,
    "Ġexordium": 26491,
    "Ġdecent": 10981,
    "Ġdub": 13908,
    "ckets": 6843,
    "Ġlanguid": 14212,
    "Ġharmony": 16813,
    "Ġdraught": 9842,
    "persuade": 13531,
    "Ġtilted": 20411,
    "Ġdictator": 20152,
    "Ġtaurus": 21177,
    "Ġjury": 5378,
    "convenient": 12234,
    "Ġastr": 15492,
    "Ġche": 1763,
    "Ġfails": 13311,
    "Ġlanded": 7469,
    "Ġrepl": 1590,
    "Ġ4": 3987,
    "Ġingolstadt": 8333,
    "returns": 23135,
    "Ġwakes": 11570,
    "Ġconflag": 20334,
    "iffe": 21900,
    "wrinkles": 16553,
    "ĠĠĠĠĠĠĠĠĠĠĠĠĠĠĠĠĠĠĠĠĠĠĠĠĠĠĠĠĠĠĠĠĠĠĠĠĠĠĠ": 19258,
    "Ġelder": 7225,
    "apparent": 11040,
    "numerous": 17429,
    "Ġelemental": 19918,
    "ifford": 15780,
    "ompl": 4535,
    "force": 12955,
    "Ġglared": 13010,
    "Ġperplexed": 23661,
    "Ġsenate": 25214,
    "Ġinterrupted": 6343,
    "supper": 12915,
    "ullo": 12725,
    "quite": 4645,
    "Ġspeaks": 11158,
    "orter": 4254,
    "Ġemperor": 15156,
    "pard": 9617,
    "ute": 4641,
    "ullen": 8235,
    "Ġsickening": 19603,
    "Ġnourishment": 15190,
    "embers": 21925,
    "Ġrav": 14299,
    "Ġpips": 9847,
    "odiac": 14030,
    "fowl": 17548,
    "Ġpluck": 15610,
    "Ġdiscre": 2418,
    "Ġpervers": 11780,
    "rict": 8093,
    "Ġstrip": 9419,
    "Ġlust": 9196,
    "Ġdealer": 23974,
    "utter": 7593,
    "ulgent": 18149,
    "Ġobsequious": 17402,
    "Ġboard": 3384,
    "consum": 12866,
    "oglyph": 11015,
    "Ġaffecting": 2322,
    "Ġattraction": 18624,
    "Ġchewed": 16367,
    "Ġneat": 6999,
    "teous": 16171,
    "Ġdespatched": 23827,
    "...": 24548,
    "quietly": 10591,
    "Ġchopping": 24218,
    "Ġhorrify": 23816,
    "beating": 22486,
    "la": 10704,
    "low": 657,
    "charles": 14697,
    "Ġsulphur": 24933,
    "Ġvillages": 14746,
    "Ġpers": 1351,
    "Ġextrem": 2477,
    "âĢĶ.": 11752,
    "Ġinto": 647,
    "Ġsepulchral": 25892,
    "su": 790,
    "Ġswan": 23048,
    "Ġresuming": 12889,
    "scar": 9814,
    "had": 1950,
    "Ġdecreas": 1646,
    "vit": 13799,
    "ressed": 3025,
    "Ġyale": 21777,
    "Ġpoor": 1710,
    "Ġbewitching": 25976,
    "arnel": 18124,
    "Ġabstracted": 17181,
    "Ġphilosoph": 19650,
    "horrible": 14599,
    "onel": 3093,
    "Ġexchanged": 10877,
    "Ġchivalry": 25818,
    "oe": 7552,
    "Ġadvocate": 13674,
    "Ġczar": 12570,
    "Ġconcuss": 19046,
    "Ġbowls": 23769,
    "Ġscal": 1577,
    "Ġten": 2385,
    "Ġhappiest": 11879,
    "ouncing": 8494,
    "Ġmale": 9647,
    "Ġvanishing": 1346,
    "Ġsoldier": 16919,
    "Ġannouncing": 16753,
    "ago": 14063,
    "elope": 14466,
    "undoubtedly": 13309,
    "dreams": 12334,
    "Ġfasten": 11131,
    "Ġcrime": 4615,
    "deploy": 22141,
    "Ġquar": 3116,
    "aways": 15308,
    "Ġexpon": 969,
    "Ġrim": 21966,
    "izure": 21832,
    "dressing": 11480,
    "Ġbrings": 11877,
    "kshire": 13744,
    "Ġpounds": 5368,
    "Ġevaporate": 26332,
    "Ġdaboll": 25950,
    "dropout": 3197,
    "bpp": 20771,
    "aneous": 7240,
    "_âĢĶâĢĻâĢĿ": 25741,
    "beware": 16035,
    "Ġcall": 2074,
    "Ġmax": 2008,
    "Ġacquit": 18897,
    "appro": 7044,
    "Ġimplies": 24873,
    "Ġimp": 576,
    "Ġmystical": 12129,
    "Ġtertiary": 15292,
    "erting": 17776,
    "master": 5687,
    "Ġlabor": 10417,
    "stat": 21642,
    "ologist": 22861,
    "Ġshiny": 14104,
    "Ġslacked": 25188,
    "imperturbable": 25790,
    "ultural": 22566,
    "boiling": 19000,
    "shudder": 26245,
    "Ġknown": 1641,
    "ater": 3371,
    "Ġchristian": 6479,
    "Ġbutton": 10266,
    "amed": 4447,
    "Ġincarn": 11811,
    "hideous": 25407,
    "rable": 11630,
    "Ġfagged": 17882,
    "Ġinvariable": 13454,
    "securing": 19812,
    "darted": 20831,
    "Ġoverall": 4358,
    "murmured": 24454,
    "clings": 23150,
    "Ġhogshead": 26367,
    "Ġempt": 5051,
    "Ġeach": 891,
    "plans": 21956,
    "idel": 5299,
    "Ġpeeled": 14316,
    "Ġsatisfied": 4172,
    "Ġtwink": 8216,
    "Ġrelates": 12976,
    "Ġmind": 1618,
    "andam": 10887,
    "Ġjackson": 24239,
    "Ġstartling": 14669,
    "Ġhalloa": 13314,
    "Ġsoph": 1690,
    "shish": 11790,
    "Ġcotton": 17377,
    "Ġnay": 5711,
    "apparently": 15202,
    "alle": 1292,
    "Ġreceived": 2950,
    "Ġrash": 10897,
    "boxes": 16887,
    "ckery": 22088,
    "Ġdread": 3165,
    "aloons": 20009,
    "Ġprofuse": 23564,
    "revival": 26162,
    "Ġcanal": 8182,
    "Ġbuckle": 17032,
    "Ġbenevol": 5962,
    "Ġdropout": 1557,
    "Ġlearning": 385,
    "infl": 15485,
    "pressed": 6587,
    "Ġprovince": 24188,
    "pondicherry": 26399,
    "Ġpredicts": 2594,
    "Ġdiscoveries": 13356,
    "Ġdetaining": 25819,
    "Ġlam": 21547,
    "Ġthan": 736,
    "Ġpainter": 19167,
    "Ġclair": 6268,
    "Ġdisregard": 22526,
    "Ġlandlord": 5580,
    "keen": 12778,
    "Ġthoughtless": 16190,
    "Ġjewel": 9940,
    "Ġchambermaid": 24303,
    "flakes": 23965,
    "Ġinfamy": 14500,
    "Ġsuppression": 22998,
    "Ġskills": 1838,
    "Ġhad": 444,
    "osque": 22260,
    "hued": 20910,
    "Ġarticles": 7108,
    "Ġmarty": 20289,
    "ounders": 22391,
    "Ġcompensated": 17399,
    "Ġbye": 12734,
    "pict": 8386,
    "Ġalarm": 4047,
    "Ġvac": 5025,
    "Ġscr": 11758,
    "Ġazores": 20192,
    "Ġunfav": 14786,
    "Ġalternative": 19985,
    "Ġvector": 1972,
    "Ġsickle": 24244,
    "Ġcasually": 25093,
    "ometer": 19325,
    "Ġpaddling": 25285,
    "Ġnantucketers": 9893,
    "Ġpersevering": 20232,
    "pacific": 17640,
    "Ġobsc": 7039,
    "Ġreasonably": 11086,
    "Ġsuccessfully": 19427,
    "cigar": 26124,
    "Ġestate": 6316,
    "Ġsy": 489,
    "Ġrepublican": 17410,
    "Ġapple": 14166,
    "Ġremonstrance": 20621,
    "Ġmonomania": 17084,
    "Ġflann": 23010,
    "Ġhunter": 5401,
    "Ġcringing": 25941,
    "Ġghastly": 10058,
    "Ġup": 462,
    "bones": 8372,
    "Ġskirts": 14351,
    "================": 3724,
    "Ġtracing": 18890,
    "million": 25751,
    "ized": 1526,
    "ntax": 935,
    "Ġdanced": 7843,
    "Ġadmires": 19684,
    "Ġcoat": 4553,
    "Ġeffective": 1249,
    "leness": 4690,
    "Ġsignificant": 8633,
    "Ġearnestly": 5979,
    "Ġinsignificant": 20455,
    "Ġcontained": 7679,
    "Ġwoody": 23518,
    "Ġblazing": 11893,
    "Ġworld": 1593,
    "Ġaugust": 10596,
    "imodal": 17445,
    "lun": 20945,
    "Ġlicense": 20089,
    "Ġpresented": 5183,
    "Ġmeasurement": 19421,
    "Ġtemptation": 8677,
    "Ġgift": 10839,
    "Ġgoblet": 25823,
    "Ġshadow": 5595,
    "walked": 10569,
    "Ġparts": 4164,
    "startled": 24941,
    "Ġaccorded": 24086,
    "Ġofficio": 23813,
    "Ġphysi": 9986,
    "Ġken": 22189,
    "Ġtipped": 17727,
    "Ġhitting": 21485,
    "Ġhypocritical": 20737,
    "ensils": 22546,
    "boards": 23253,
    "races": 21628,
    "Ġcheeks": 5958,
    "Ġperish": 8873,
    "Ġsiberia": 26161,
    "acit": 16077,
    "Ġpul": 2041,
    "Ġmurdered": 6464,
    "eded": 9672,
    "vis": 4576,
    "Ġcous": 3439,
    "owders": 18050,
    "µ": 118,
    "Ġbass": 17855,
    "understanding": 1164,
    "tall": 17672,
    "Ġerud": 20053,
    "Ġboarding": 12083,
    "?âĢĻ": 2639,
    "Ġbar": 3150,
    "Ġpalp": 11250,
    "explain": 1481,
    "Ġbranches": 6776,
    "Ġmagnificence": 20631,
    "Ġstubbornness": 25380,
    "rmsprop": 4521,
    "Ġmeasure": 3596,
    "Ġ31": 12127,
    "Ġtyp": 1128,
    "Ġcrucifix": 26079,
    "diver": 20830,
    "lude": 6161,
    "Ġrecommend": 7102,
    "omy": 6248,
    "sadly": 25526,
    "Ġforget": 2633,
    "latin": 25258,
    "Ġimpassable": 20611,
    "Ġbelfry": 26437,
    "Ġ[_": 15459,
    "Ġeaten": 14843,
    "Ġhoping": 11102,
    "Ġwhipcord": 20093,
    "Ġsly": 9631,
    "Ġcompressed": 21848,
    "reeable": 3614,
    "Ġpriests": 15039,
    "Ġporch": 19679,
    "ruined": 18337,
    "Ġcarcase": 14442,
    "Ġbubbling": 17324,
    "sion": 8094,
    "Ġmorbid": 16232,
    "Ġadult": 18288,
    "Ġ13": 6718,
    "Ġinitialization": 1254,
    "sets": 17659,
    "Ġapoplexy": 25265,
    "Ġdard": 21426,
    "Ġrumpled": 24601,
    "Ġinstrument": 7118,
    "Ġ48": 24078,
    "Ġceler": 15547,
    "sm": 3438,
    "âĢĶ(": 15935,
    "Ġnorthwards": 19545,
    "rim": 7137,
    "Ġdandy": 17895,
    "pl": 403,
    "ratches": 20123,
    "ship": 1391,
    "thousand": 5546,
    "Ġstag": 6148,
    "lock": 1472,
    "Ġmustering": 18662,
    "ellation": 12746,
    "Ġforgiveness": 16655,
    "Ġoverseeing": 22359,
    "Ġreadiness": 13046,
    "Ġox": 7153,
    "Ġcaroline": 7255,
    "Ġcosmopolitan": 20640,
    "chie": 21688,
    "Ġturned": 2133,
    "Ġreducing": 1956,
    "Ġsurest": 19056,
    "chan": 1174,
    "iles": 2861,
    "mad": 5280,
    "Ġresearch": 2924,
    "Ġwork": 1358,
    "leagues": 21371,
    "Ġgrowl": 16536,
    "Ġclient": 5555,
    "ishness": 22340,
    "dam": 7798,
    "Ġsisterly": 16299,
    "remorse": 14464,
    "ize": 763,
    "plete": 10918,
    "hauled": 20667,
    "mystery": 15153,
    "mag": 6508,
    "unders": 13308,
    "Ġspec": 1263,
    "conjecture": 15120,
    "Ġwails": 21295,
    "Ġinvari": 6529,
    "yrin": 12518,
    "Ġnice": 6676,
    "rest": 1631,
    "begone": 12875,
    "Ġcatching": 9476,
    "Ġflukes": 5266,
    "Ġshallow": 14392,
    "Ü": 157,
    "Ġmonogram": 26573,
    "Ġdespondence": 25869,
    "Ġvillainous": 25131,
    "Ġperhaps": 1910,
    "Ġgle": 7859,
    "Ġmisgiv": 14343,
    "Ġcoleridge": 18764,
    "boilers": 26297,
    "onial": 11565,
    "cried": 8724,
    "Ġkneel": 14805,
    "killing": 20941,
    "jud": 4480,
    "Ġsmelt": 16062,
    "Ġwife": 2587,
    "Ġabsorb": 25112,
    "Ġdetermines": 2367,
    "Ġchanced": 8187,
    "Ġinfernal": 11958,
    "representing": 25271,
    "Ġcoff": 3508,
    "Ġpassionately": 16763,
    "sombre": 23852,
    "Ġallures": 22069,
    "painted": 17638,
    "baggage": 24926,
    "Ġdisposal": 19374,
    "foreign": 18541,
    "Ġassume": 10514,
    "county": 25396,
    "anning": 10163,
    "barbar": 20237,
    "Ġvalley": 5850,
    "define": 1524,
    "Ġpop": 5151,
    "Ġeggs": 12339,
    "classes": 12132,
    "Ġguessed": 11281,
    "specul": 23940,
    "Ġvariety": 8530,
    "begins": 18522,
    "Ġshad": 3851,
    "Ġconclude": 8580,
    "Ġshaft": 18229,
    "Ġmortar": 19391,
    "ulties": 12897,
    "Ġpoles": 11002,
    "Ġbulwarks": 5591,
    "ass": 536,
    "Į": 239,
    "death": 6261,
    "hering": 12810,
    "Ġgurg": 15669,
    "Ġinsulated": 23679,
    "Ġpossibilities": 18976,
    "Ġjerked": 19831,
    "Ġresent": 6049,
    "crazy": 24691,
    "Ġcellars": 24665,
    "difficulty": 12387,
    "recovered": 19786,
    "Ġinit": 818,
    "itable": 5437,
    "Ġevangel": 11279,
    "Ġendless": 7053,
    "Ġcannibal": 7774,
    "Ġlondon": 2838,
    "nne": 20988,
    "Ġscornful": 24998,
    "Ġbestir": 13107,
    "Ġthree": 1372,
    "Ġhinting": 19648,
    "_": 67,
    "Ġlamentations": 17075,
    "Ġpride": 3823,
    "ma": 1152,
    "Ġentrances": 25834,
    "worth": 8626,
    "inquir": 9534,
    "Ġclearing": 8240,
    "Ġmasks": 23327,
    "Ġbottled": 23794,
    "Ġconquest": 15744,
    "Ġharbor": 10025,
    "Ġcutting": 4983,
    "lied": 6507,
    "results": 20385,
    "Ġintimacy": 8700,
    "superior": 9523,
    "pers": 4336,
    "ilst": 8144,
    "Ġbravery": 23834,
    "Ġapply": 1777,
    "Ġplat": 8520,
    "Ġ46": 19489,
    "nose": 17609,
    "Ġbride": 6291,
    "matters": 14872,
    "swells": 26148,
    "Ġloves": 10914,
    "Ġunfold": 8023,
    "Ġmetropolitan": 17274,
    "preserving": 25304,
    "Ġpropag": 16344,
    "Ġalong": 1981,
    "swed": 24252,
    "Ġdominant": 12393,
    "z": 94,
    "life": 4932,
    "Ġalways": 1696,
    "Ġidolator": 19996,
    "----": 4057,
    "Ġunless": 4090,
    "Ġmotive": 6092,
    "Ġtons": 11548,
    "Ġaccidental": 16847,
    "Ġadoption": 24948,
    "Ġ51": 24319,
    "Ġmixture": 9561,
    "Ġextracting": 11107,
    "depths": 25663,
    "Ġto": 297,
    "Ġburke": 19250,
    "Ġattracted": 8903,
    "two": 3861,
    "Ġwise": 6811,
    "fall": 5135,
    "Ġdownright": 16115,
    "Ġhil": 10820,
    "Ġprescribed": 26010,
    "Ġuniformly": 19147,
    "Ġ181": 23892,
    "Ġfelt": 1746,
    "Ġsalad": 19477,
    "ed": 293,
    "Ġunchanging": 22039,
    "Ġantiquities": 25598,
    "Ġadvances": 12983,
    "splash": 25209,
    "Ġadvanced": 1451,
    "Ġdoubled": 19641,
    "limp": 20951,
    "Ġleads": 12093,
    "Ġenorm": 5302,
    "evil": 11484,
    "Ġgriev": 16633,
    "Ġforesight": 13126,
    "Ġoutriders": 26542,
    "Ġfaintly": 14913,
    "brary": 5755,
    "Ġbloodshed": 23799,
    "Ġantarctic": 19551,
    "Ġcurious": 3362,
    "worm": 15451,
    "Ġcircumnavigating": 25614,
    "Ġcommitting": 22671,
    "Ġmarchant": 14784,
    "respective": 19845,
    "Ġmot": 2984,
    "Ġcontract": 18475,
    "Ġclearness": 23181,
    "stud": 8818,
    "Ġtest": 1610,
    "inquiries": 13575,
    "Ġprynne": 25540,
    "aught": 2679,
    "Ġsalmon": 24058,
    "Ġcreativity": 2998,
    "Ġmoderation": 12816,
    "Ġimpertin": 6933,
    "hastened": 16844,
    "Ġindu": 5293,
    "izar": 14041,
    "Ġconverted": 16112,
    "Ġregard": 3070,
    "Ġadvantage": 4315,
    "Ġdivulged": 16647,
    "endeavoured": 12277,
    "Ġstick": 6026,
    "Ġlaboratory": 13610,
    "day": 1858,
    "Ġwooing": 19432,
    "Ġcompassion": 6487,
    "Ġaccomplishment": 19664,
    "Ġspans": 18304,
    "joy": 3336,
    "Ġwatson": 3599,
    "Ġheave": 7599,
    "Ġpleasurable": 23339,
    ">": 34,
    "yarn": 15455,
    "ener": 561,
    "ivers": 1985,
    "Ġassaulted": 25320,
    "Ġcoolness": 16885,
    "Ġunflinching": 26511,
    "Ġheads": 3741,
    "Ġholy": 6591,
    "Ġgirl": 3089,
    "Ġblurred": 22929,
    "Ġgraces": 18225,
    "Ġwes": 8777,
    "ĠĠĠĠĠĠĠĠĠĠĠĠĠĠĠĠĠĠĠĠĠĠ": 16224,
    "arr": 3049,
    "Ġencapsulate": 13672,
    "Ġadditional": 7936,
    "carefully": 13366,
    "Ġhome": 2029,
    "prairies": 20565,
    "airing": 16174,
    "Ġbonds": 17869,
    "Ġlimb": 9400,
    "midnight": 14898,
    "Ġreferred": 8915,
    "Ġvicinity": 7315,
    "Ġavoided": 13256,
    "Ġconclusions": 10552,
    "Ġconveyed": 8335,
    "we": 848,
    "doing": 8584,
    "ceiling": 21625,
    "him": 1939,
    "irresist": 21910,
    "Ġsorely": 17255,
    "Ġperceptibly": 25821,
    "det": 5207,
    "pleasing": 14740,
    "Ġcut": 2640,
    "war": 6802,
    "mond": 20972,
    "Ġresurrection": 12890,
    "Ġliking": 23590,
    "Ġaerial": 21197,
    "pleasures": 24043,
    "mortals": 25409,
    "hist": 7130,
    "Ġsharper": 17178,
    "Ġcomplaint": 24776,
    "gments": 12466,
    "ezing": 10572,
    "Ġtossings": 25356,
    "Ġmanager": 11766,
    "Ġripples": 25505,
    "endeav": 7150,
    "ography": 13360,
    "governed": 25405,
    "alescence": 15919,
    "cous": 8721,
    "bold": 17486,
    "Ġtowering": 16738,
    "dogs": 25402,
    "hammock": 16351,
    "Ġlightly": 13081,
    "Ġwearisome": 19794,
    "ĠĠĠĠ": 459,
    "Ġafternoon": 6053,
    "Ġimpossible": 3543,
    "Ġtwentieth": 18659,
    "Ġravings": 18637,
    "elze": 21571,
    "nikin": 23233,
    "aulets": 18619,
    "oriented": 2946,
    "Ġhearsed": 25039,
    "stealthily": 23959,
    "Ġbrighton": 6470,
    "Ġnets": 21522,
    "announcement": 24561,
    "ridge": 9495,
    "Ġsolicit": 22887,
    "Ġhundred": 2694,
    "odes": 18119,
    "Ġundertake": 14478,
    "Ġgradually": 3404,
    "Ġleadenhall": 16627,
    "Ġraving": 16105,
    "Ġperformer": 18754,
    "Ġordained": 19443,
    "why": 2828,
    "Ġyouth": 4260,
    "Ġcompress": 21847,
    "Ġmates": 4872,
    "utherland": 9577,
    "Ġhawsers": 26501,
    "Ġclothes": 4997,
    "anded": 5923,
    "ospel": 17009,
    "crated": 16695,
    "congratulations": 20278,
    "Ġlanguages": 1566,
    "angered": 16175,
    "Ġbound": 3519,
    "acceler": 23597,
    "Ġforbear": 17120,
    "portuguese": 25413,
    "Ġgulf": 10634,
    "circumamb": 26087,
    "Ġblunder": 18818,
    "Ġdoll": 10815,
    "listener": 24930,
    "Ġdears": 18139,
    "pred": 2803,
    "promontory": 24728,
    "Ġ16": 7927,
    "country": 6103,
    "Ġliber": 5168,
    "Ġdetestable": 15096,
    "Ġfals": 15577,
    "Ġsatisfaction": 5667,
    "Ġbravely": 23836,
    "Ġholds": 7976,
    "Ġwond": 3939,
    "voice": 7817,
    "Ġhelped": 7459,
    "Ġp": 289,
    "Ġrudimental": 25108,
    "Ġdeserving": 14751,
    "Ġjacobian": 2892,
    "Ġcrotch": 9961,
    "Ġprevailing": 24673,
    "Ġbigness": 19759,
    "reader": 23844,
    "Ġfragmentary": 25857,
    "athans": 7433,
    "reas": 989,
    "limbs": 20190,
    "Ġledger": 19400,
    "tasted": 17686,
    "Ġsummoning": 23872,
    "Ġreg": 727,
    "Ġvehicles": 10658,
    "Ġgrassy": 24378,
    "Ġforegoing": 23450,
    "Ġdictionaries": 12337,
    "Ġgroves": 16739,
    "Ġcard": 7363,
    "Ġdelusion": 18974,
    "Ġremo": 3786,
    "levi": 7047,
    "whatsoever": 18493,
    "Ġtrappings": 23080,
    "Ġpri": 5813,
    "educated": 17258,
    "Ġaversion": 18865,
    "Ġrecording": 24433,
    "ses": 3029,
    "Ġdistrict": 10317,
    "istic": 1025,
    "Ġoverpowering": 15247,
    "Ġancestors": 25642,
    "welcomed": 24644,
    "Ġmam": 8405,
    "Ġinsufferable": 13929,
    "brows": 17495,
    "boys": 13357,
    "simple": 13450,
    "Ġconsisted": 10418,
    "Ġlinen": 12404,
    "å": 166,
    "Ġrigged": 16716,
    "Ġchr": 3689,
    "l": 80,
    "Ġhaven": 8473,
    "Ġshowers": 16604,
    "oices": 7348,
    "Ġxvi": 19104,
    "Ġtash": 13818,
    "twill": 21073,
    "Ġattent": 4360,
    "Ġscorched": 17100,
    "Ġsunday": 7270,
    "Ġtantalizing": 20412,
    "Ġreminded": 9997,
    "Ġrosy": 18459,
    "past": 8090,
    "Ġbanished": 10615,
    "Ġfowl": 11329,
    "Ġmatlock": 18803,
    "Ġconjectured": 9995,
    "Ġengravings": 15065,
    "_.âĢĶ": 23473,
    "december": 25558,
    "myster": 16261,
    "seventy": 10875,
    "Ġchamber": 6213,
    "Ġmut": 3584,
    "Ġampl": 22478,
    "Ġresults": 7308,
    "wond": 8767,
    "Ġpoints": 5247,
    "Ġalpha": 13586,
    "Ġemerge": 14926,
    "Ġfam": 1583,
    "batross": 9091,
    "Ġcomplimented": 14902,
    "Ġadvisable": 11441,
    "regiment": 16451,
    "ilingly": 21721,
    "Ġarrows": 18343,
    "Ġform": 1021,
    "Ġthirdly": 24142,
    "Ġnominally": 17230,
    "Ġnarrative": 6215,
    "turns": 14904,
    "Ġrecesses": 17259,
    "sle": 9137,
    "Ġlain": 17961,
    "oves": 15401,
    "Ġflickering": 23012,
    "nurtured": 25524,
    "rence": 5554,
    "Ġbelong": 3887,
    "Ġfirmest": 16663,
    "Ġpress": 5932,
    "Ġmany": 1102,
    "Ġbrim": 12972,
    "brill": 16490,
    "Ġhalyards": 21492,
    "Ġmisgivings": 15289,
    "Ġprovincial": 20649,
    "gunwale": 20662,
    "Ġtravell": 5575,
    "sequently": 14582,
    "Ġpool": 5173,
    "Ġfinally": 4666,
    "'re": 12425,
    "follows": 24527,
    "Ġmoney": 3421,
    "neath": 12862,
    "Ġgiven": 1624,
    "Ġwearied": 15790,
    "Ġtemporary": 7981,
    "Ġpreserving": 19795,
    "Ġaccommod": 14211,
    "cool": 19186,
    "Ġroom": 1465,
    "Ġobliterated": 17403,
    "heavenly": 20043,
    "plenty": 14089,
    "eminently": 25105,
    "icious": 7380,
    "Ġmalignant": 14876,
    "Ġjuicy": 25370,
    "assistance": 20369,
    "mbles": 23086,
    "Ġcorner": 4369,
    "Ġforest": 9869,
    "Ġ114": 24437,
    "Ġdromed": 15595,
    "Ġpathetic": 19033,
    "performances": 26006,
    "gely": 10699,
    "Ġprem": 3429,
    "Ġfortunately": 12176,
    "chamber": 13623,
    "Ġpills": 21465,
    "Ġtortures": 14921,
    "Ġeconomical": 25287,
    "nantucket": 7805,
    "countryman": 24639,
    "Ġlapse": 17119,
    "itical": 5801,
    "Ġapparel": 20434,
    "Ġarches": 14161,
    "visitors": 13346,
    "!--": 10676,
    "ben": 4926,
    "Ġearth": 2850,
    "Ġsalesman": 13666,
    "bow": 5424,
    "Ġbelie": 14404,
    "Ġrazor": 22644,
    "Ġcomputing": 2222,
    "Ġcombination": 22834,
    "Ġgam": 11622,
    "Ġflitting": 13022,
    "Ġlengthwise": 10451,
    "achine": 601,
    "Ġinduced": 8670,
    "ms": 539,
    "dismay": 19152,
    "Ġans": 1643,
    "Ġaspired": 25984,
    "bling": 10077,
    "Ġhospit": 7514,
    "Ġbal": 1130,
    "breckinridge": 24072,
    "Ġplainly": 4380,
    "dev": 7632,
    "Ġordinarily": 20648,
    "night": 2171,
    "Ġcarpet": 9354,
    "ilib": 4117,
    "Ġgenerous": 6271,
    "Ġbru": 13893,
    "Ġdom": 2670,
    "err": 1143,
    "clock": 3933,
    "bald": 16445,
    "Ġpaw": 12616,
    "Ġuntoward": 19164,
    "Ġtrifled": 24674,
    "Ġunfavourable": 17415,
    "Ġrinal": 21978,
    "isters": 11915,
    "%": 9,
    "Ġpil": 5014,
    "Ġape": 21195,
    "archical": 1927,
    "harb": 9122,
    "Ġpersuasions": 16630,
    "aster": 1867,
    "Ġpleasing": 6190,
    "Ġsegmentation": 17338,
    "Ġwisdom": 11233,
    "Ġevidently": 6759,
    "Ġconfident": 11137,
    "becoming": 18516,
    "Ġrichest": 26211,
    "Ġnaval": 16898,
    "_?âĢĿ": 15303,
    "Ġstra": 2990,
    "iz": 364,
    "Ġfanny": 23389,
    "Ġpanther": 16818,
    "Ġblasphe": 17405,
    "Ġgoal": 10300,
    "Ġawake": 8272,
    "Ġsadder": 24048,
    "Ġintroduces": 3270,
    "Ġalarmed": 6923,
    "Ġprodigiously": 14930,
    "Ġincorporate": 20453,
    "Ġnap": 8807,
    "Ġnations": 8808,
    "aceti": 7111,
    "Ġpart": 861,
    "accusations": 23598,
    "Ġvigilant": 20183,
    "Ġattendant": 11284,
    "private": 13580,
    "Ġisolation": 17149,
    "Ġdisgrace": 7214,
    "Ġearthquake": 14627,
    "allow": 5104,
    "Ġpenn": 11111,
    "combination": 25486,
    "Ġtwisted": 7228,
    "Ġpipes": 9848,
    "Ġprotectors": 9069,
    "Ġposterity": 17400,
    "Ġwrinkles": 8570,
    "deceiving": 22142,
    "merry": 16535,
    "Ġsubterranean": 13609,
    "Ġanswers": 7070,
    "Ġguardsmen": 20629,
    "Ġperth": 7022,
    "Ġholidays": 22920,
    "incing": 15483,
    "Ġworthy": 7241,
    "Ġcharacteristically": 23690,
    "Ġguarded": 9824,
    "Ġshares": 23245,
    "Ġdivide": 12107,
    "ĠcÃ¦": 15551,
    "atement": 17772,
    "likes": 18814,
    "Ġventilator": 8713,
    "trifling": 19412,
    "Ġweak": 5098,
    "ĝ": 222,
    "tell": 1380,
    "Ġlake": 5227,
    "rudential": 16709,
    "line": 1441,
    "Ġstandards": 19015,
    "thither": 21981,
    "infor": 3047,
    "retirement": 23137,
    "Ġassiduous": 26292,
    "Ġtierce": 15476,
    "cries": 17509,
    "Ġimpenitent": 26547,
    "Ġsixpence": 19316,
    "Ġeastward": 13388,
    "Ġmomentarily": 22811,
    "Ġattractive": 25575,
    "Ġtrembled": 8701,
    "Ġpistol": 7847,
    "mate": 5358,
    "pow": 10716,
    "Ġresistance": 13528,
    "Ġfollow": 1395,
    "avail": 18604,
    "riot": 18185,
    "obviously": 25242,
    "particip": 23615,
    "Ġweeds": 21922,
    "laden": 14927,
    "put": 414,
    "alogies": 25158,
    "Ġcornelius": 13571,
    "andromeda": 21866,
    "Ġvertu": 23888,
    "stir": 12669,
    "gall": 6359,
    "Ġrate": 1061,
    "ech": 4388,
    "Ġpainful": 6462,
    "Ġneared": 14073,
    "tremendous": 20672,
    "Ġvibrated": 25045,
    "Ġoccurs": 1857,
    "Ġassistants": 9449,
    "hitherto": 17282,
    "tailed": 17684,
    "Ġpoker": 13920,
    "irra": 15781,
    "Ġpreacher": 18369,
    "Ġconstitutes": 13550,
    "reputation": 15513,
    "Ġclothed": 19605,
    "Ġglasses": 9473,
    "Ġgrey": 4511,
    "Ġpreparations": 12307,
    "Ġintimately": 24804,
    "Ġstraits": 7994,
    "claim": 9833,
    "Ġcleansed": 26293,
    "Ġwatchful": 16526,
    "Ġheaps": 11640,
    "Ġchancing": 22246,
    "Ġplease": 4723,
    "ĠâĢĺ": 1630,
    "Ġmat": 1150,
    "Ġcollinses": 19129,
    "Ġtestimony": 14477,
    "Ġoverwhelm": 25052,
    "Ġkick": 5837,
    "Ġragged": 11840,
    "Ġdemon": 7870,
    "Ġcould": 703,
    "Ġhourly": 23301,
    "Ġcoloured": 11043,
    "Ġoakshott": 12226,
    "Ġassuredly": 14820,
    "Ġbites": 23741,
    "prow": 15409,
    "Ġtribe": 10750,
    "ċ": 204,
    "Ġmonths": 3457,
    "rudently": 16710,
    "Ġeffort": 8205,
    "themselves": 6540,
    "Ġaux": 21198,
    "Ġkindling": 19027,
    "Ġext": 889,
    "tering": 3807,
    "A": 37,
    "roll": 9195,
    "ivered": 7005,
    "jub": 20928,
    "no": 893,
    "Ġhun": 1496,
    "Ġminuteness": 19138,
    "Ġliveliness": 13641,
    "Ġdeduced": 12204,
    "Ġwick": 2007,
    "Ġperpetually": 17069,
    "Ġwag": 10774,
    "Ġsoliloqu": 11882,
    "Ġchar": 1705,
    "Ġglove": 14490,
    "Ġuniformity": 23484,
    "Ġswung": 6449,
    "Ġmythologies": 26213,
    "Ġhumiliating": 22884,
    "Ġlooked": 1804,
    "Ġvigorous": 10565,
    "Ġappertaining": 26532,
    "Ġpiercing": 13492,
    "Ġgulp": 20027,
    "izon": 18133,
    "phenomenon": 17647,
    "Ġmocking": 24000,
    "Ġdespairing": 14772,
    "Ġnotice": 4542,
    "ogene": 18671,
    "solute": 16597,
    "Ġdead": 2174,
    "ographical": 16785,
    "asht": 4084,
    "Ġchains": 8251,
    "Ġdil": 6383,
    "Ġsympathised": 14860,
    "Ġpatentee": 25586,
    "Ġinterpreter": 23210,
    "Ġinvader": 23479,
    "Ġdefendants": 15138,
    "Ġquaff": 22412,
    "foreseen": 14252,
    "ray": 2439,
    "penn": 18826,
    "Ġmicrosc": 20675,
    "atious": 10150,
    "Ġfain": 5808,
    "angu": 570,
    "Ġapr": 12528,
    "Ġthrob": 21516,
    "Ġstoried": 18075,
    "comple": 7441,
    "anque": 13886,
    "another": 5439,
    "confess": 12172,
    "Ġblows": 5973,
    "Ġarm": 2494,
    "rings": 10721,
    "aspect": 10192,
    "quadrille": 20593,
    "oo": 7553,
    "Ġaccents": 14209,
    "stricken": 9882,
    "Ġwisest": 11232,
    "taffrail": 15440,
    "Ġhappens": 2193,
    "Ġcedars": 20291,
    "Ġdrifting": 19278,
    "Ġingenious": 12345,
    "Ġliterally": 15114,
    "Ġwip": 13851,
    "Ġsand": 6235,
    "scoured": 22986,
    "ames": 2952,
    "principal": 20659,
    "Ġstopped": 5957,
    "Ġallows": 3235,
    "Ġclimates": 25050,
    "Ġradney": 6775,
    "Ġpatent": 11959,
    "Ġhill": 5626,
    "aw": 1450,
    "Ġnotions": 14097,
    "Ġstrict": 7222,
    "rained": 5162,
    "ault": 2305,
    "project": 16422,
    "awk": 23113,
    "hatherley": 17567,
    "Ġdiggings": 24649,
    "Ġwharves": 13504,
    "Ġelse": 2483,
    "ction": 499,
    "Ġneskyeuna": 26458,
    "Ġslave": 7454,
    "Ġadding": 2403,
    "Ġserviceable": 24718,
    "Ġimmediate": 6090,
    "pp": 384,
    "sub": 4658,
    "Ġstart": 3260,
    "Ġdreadfully": 7726,
    "Ġheight": 4220,
    "Ġmultitudinous": 26273,
    "ķ": 248,
    "Ġneglect": 7942,
    "Ġtreated": 7080,
    "rible": 3230,
    "?âĢĻâĢĿ": 23642,
    "Ġundoing": 22029,
    "Ġunclad": 22048,
    "mped": 16646,
    "nez": 22459,
    "dancing": 12451,
    "iastic": 12476,
    "athom": 12936,
    "Ġimpious": 15983,
    "Ġdrunken": 12047,
    "Ġmilitary": 11257,
    "e": 73,
    "Ġappearance": 3700,
    "Ġdetermining": 14419,
    "presented": 12988,
    "}": 97,
    "orious": 6008,
    "Ġencomp": 12959,
    "Ġsettle": 6293,
    "jur": 17577,
    "oon": 6364,
    "Ġfreshly": 23984,
    "Ġvindictive": 20468,
    "Ġwickham": 2209,
    "Ġconsumed": 10348,
    "Ġcomparative": 10541,
    "Ġfiftieth": 24703,
    "Ġsuspect": 5758,
    "Ġsensibly": 14512,
    "usoid": 4767,
    "Ġdisp": 3360,
    "Ġglossy": 15225,
    "runs": 25415,
    "james": 15370,
    "Ġhopeless": 7463,
    "Ġlesson": 7276,
    "Ġforbearance": 12325,
    "Ġoverhung": 15972,
    "Ġmacey": 12559,
    "Ġacceptable": 16743,
    "Ġprocedure": 2810,
    "Ġmethodology": 2343,
    "ellow": 3878,
    "ambition": 13409,
    "coming": 3562,
    "Ġenvelopes": 24506,
    "Ġsinusoidal": 4801,
    "inated": 6804,
    "Ġreport": 6191,
    "Ġspots": 11726,
    "Ġverses": 17062,
    "Ġmassive": 9930,
    "gryphon": 15356,
    "Ġadvertising": 25389,
    "Ġmassachusetts": 24019,
    "loa": 18533,
    "Ġniag": 21528,
    "Ġroads": 13286,
    "Ġvehicle": 20137,
    "Ġsighing": 18676,
    "Ġempire": 11143,
    "Ġloving": 8176,
    "Ġgeneralize": 3103,
    "arying": 9799,
    "Ġequilibrium": 4140,
    "Ġsped": 22123,
    "ating": 665,
    "Ġforbearing": 25098,
    "Ġensemble": 1605,
    "depart": 12262,
    "yourselves": 24958,
    "Ġdistinguishing": 16495,
    "happily": 14656,
    "Ġsuffered": 5649,
    "Ġsuffering": 8945,
    "Ġgasped": 11371,
    "Ġlory": 12648,
    "Ġjago": 22297,
    "Ġexistence": 4706,
    "Ġworker": 23056,
    "suitable": 18629,
    "buffalo": 20562,
    "Ġpurchased": 12257,
    "exactly": 10635,
    "Ġwaifing": 25243,
    "Ù": 154,
    "Ġbawling": 25945,
    "Ġsteeple": 19286,
    "Ġmun": 12558,
    "professor": 17248,
    "Ġmariners": 6068,
    "Ġquito": 24407,
    "Ġarchitects": 18737,
    "Ġaffectation": 14439,
    "Ġembeddings": 2178,
    "Ġsquee": 7929,
    "Ġcandid": 4099,
    "Ġusing": 710,
    "Ġbended": 21383,
    "Ġmentioning": 9897,
    "sec": 6152,
    "grow": 10097,
    "Ġ1828": 25720,
    "visited": 13345,
    "abling": 1077,
    "Ġairy": 23316,
    "eter": 11619,
    "hosmer": 25902,
    "Ġplunge": 13441,
    "creat": 20799,
    "Ġfountains": 13501,
    "calmly": 20138,
    "Ġextant": 18684,
    "Ġnods": 19062,
    "Ġv": 399,
    "plunging": 25987,
    "Ġgodfrey": 15291,
    "feared": 11799,
    "tinted": 17682,
    "Ġsensitiveness": 23733,
    "Ġtricks": 13482,
    "Ġoccasion": 3247,
    "Ġtypewritten": 16419,
    "ex": 623,
    "lest": 5288,
    "announce": 24559,
    "Ġplumage": 17296,
    "Ġearly": 2078,
    "Ġbroods": 23100,
    "Ġpossession": 5588,
    "worship": 19385,
    ".": 18,
    "ffy": 18318,
    "arian": 10315,
    "Ġlashed": 9197,
    "es": 288,
    "Ġphilips": 5410,
    "Ġcrunched": 19123,
    "Ġmallet": 17810,
    "Ġwest": 5219,
    "ividually": 22079,
    "Ġnoises": 18373,
    "aits": 20765,
    "Ġmonogra": 22975,
    "Ġprovides": 1930,
    "Ġmistaken": 4986,
    "Ġhaving": 1881,
    "Ġfeasible": 22208,
    "Ġ68": 24369,
    "Ġunconscious": 9545,
    "Ġinflict": 15000,
    "rit": 21034,
    "Ġstring": 11824,
    "ĠĠĠĠĠĠĠĠĠĠĠĠĠĠĠĠĠĠĠĠĠĠĠĠĠĠĠĠĠĠĠĠĠĠĠĠĠ": 14613,
    "Ġgrasshopper": 24379,
    "Ġlap": 8437,
    "fit": 6645,
    "Ġ**": 4721,
    "atching": 8202,
    "grammar": 6435,
    "Ġinstability": 3813,
    "Ġstuff": 5717,
    "Ġjudgment": 5765,
    "mine": 5617,
    "Ġeasily": 3892,
    "Ġtiller": 8964,
    "ements": 11106,
    "everywhere": 23697,
    "Ġproprietor": 12370,
    "tee": 16170,
    "loo": 10318,
    "zag": 17712,
    "Ġhousehold": 8567,
    "Ġwanting": 6721,
    "want": 8765,
    "departed": 24794,
    "Ġencoun": 4510,
    "gracechurch": 24580,
    "Ġlod": 4042,
    "Ġlined": 15646,
    "Ġcommunity": 19008,
    "Ġadaptively": 3970,
    "make": 5793,
    "able": 452,
    "solemn": 19816,
    "Ġsecurity": 8976,
    "Ġdo": 510,
    "owl": 12680,
    "Ġconfessed": 8009,
    "daring": 20828,
    "Ġrejecting": 17050,
    "Ġringbolts": 24195,
    "left": 6975,
    "infant": 19826,
    "conception": 22472,
    "cano": 18838,
    "Ġworlds": 11944,
    "repeated": 12336,
    "Ġrepine": 16407,
    "pane": 10119,
    "Ġuses": 1208,
    "Ġliar": 22406,
    "Ġankles": 17899,
    "ario": 14246,
    "Ġloft": 5642,
    "Ġfiver": 22772,
    "Ġvehemence": 26565,
    "table": 5795,
    "Ġrevol": 5536,
    "Ġfluke": 14672,
    "ells": 5303,
    "Ġglue": 15670,
    "Ġsque": 18756,
    "fere": 10988,
    "Ġrotation": 25474,
    "telesc": 22816,
    "Ċ": 203,
    "whalers": 17262,
    "Ġserenity": 10026,
    "ened": 1388,
    "Ġgenerating": 12845,
    "Ġdampening": 2895,
    "Ġgiver": 21603,
    "Ġagainst": 1697,
    "Ġxxxi": 24968,
    "Ġdischarged": 15218,
    "ermost": 7430,
    "Ġfollowed": 1795,
    "Ġfour": 2217,
    "Ġpleases": 16295,
    "Ġdespondency": 16576,
    "ial": 409,
    "Ġadjacent": 20710,
    "vedale": 22708,
    "Ġwidower": 24234,
    "dances": 17520,
    "ours": 3430,
    "enet": 10151,
    "fate": 17538,
    "compliments": 24810,
    "Ġstep": 751,
    "count": 4213,
    "trip": 21090,
    "Ġlur": 5226,
    "dy": 3863,
    "Ġconvolutional": 2164,
    "accessory": 25499,
    "Ġsilly": 7686,
    "Ġseconds": 16396,
    "Ġstowing": 18074,
    "ortunities": 15937,
    "Ġrapidity": 11094,
    "Ġprospects": 9957,
    "vol": 734,
    "yder": 10137,
    "learnt": 23577,
    "Ġpassions": 7930,
    "somehow": 12008,
    "strike": 14947,
    "Ġhappened": 3714,
    "guarded": 13292,
    ",âĢĶ": 3172,
    "Ġcompletely": 4860,
    "Ġactually": 5389,
    "Ġfoaming": 18992,
    "aloes": 21500,
    "Ġescorted": 23506,
    "ave": 978,
    "Ġthunders": 15634,
    "acceptance": 25185,
    "inal": 15478,
    "Ġsuspense": 9416,
    "Ġbrighter": 16185,
    "say": 3985,
    "Ġlaughing": 5338,
    "noted": 22747,
    "ologies": 18767,
    "Ġvarying": 15807,
    "Ġ37": 24075,
    "balance": 12003,
    "Ġstarbuck": 2198,
    "rates": 21037,
    "olog": 1066,
    "egyptians": 25898,
    "Ġelevates": 24499,
    "Ġbattalions": 25776,
    "Ġinviting": 19143,
    "Ġparl": 8178,
    "constellation": 24608,
    "Ġscandal": 9080,
    "dimens": 2316,
    "treas": 17678,
    "Ġfinding": 3266,
    "Ġrecede": 25968,
    "Ġdanger": 3520,
    "commence": 19990,
    "Ġsignal": 5945,
    "Ġmagical": 23096,
    "twelvemonth": 25862,
    "Ġpike": 12619,
    "Ġclergy": 7642,
    "prim": 23808,
    "Ġcreation": 6439,
    "Ġundivided": 24119,
    "Ġhelpless": 8302,
    "Ġstayed": 7998,
    "usive": 8190,
    "Ġstepdaughter": 22609,
    "ourable": 4967,
    "Ġtoo": 1165,
    "Ġarchitecture": 1131,
    "Ġwent": 1536,
    "Ġrampart": 20317,
    "visual": 24221,
    "awakened": 14451,
    "Ġapprehending": 26090,
    "Ġbut": 424,
    "Ġhollow": 5648,
    "Ġwilling": 7420,
    "Ġsofas": 26224,
    "Ġadjusting": 3415,
    "Ġrecommending": 24336,
    "Ġgeography": 23370,
    "heed": 15496,
    "wreat": 21126,
    "Ġlit": 6246,
    "Ġremembering": 14609,
    "Ġcoupled": 16850,
    "Ġoarsman": 8637,
    "Ġsoothed": 10027,
    "Ġrighted": 23176,
    "backs": 9389,
    "Ġjudges": 14684,
    "Ġann": 4488,
    "makes": 10710,
    "maj": 18804,
    "Ġprint": 18969,
    "false": 15352,
    "Ġbows": 4083,
    "Ġmisled": 22752,
    "Ġentities": 11861,
    "suspicious": 25390,
    "Ġrepenting": 25322,
    "Ġtiara": 26414,
    "vapor": 25755,
    "Ġbumping": 25280,
    "asse": 15641,
    "temper": 10002,
    "poky": 17643,
    "console": 22471,
    "phys": 18722,
    "Ġwind": 1434,
    "delivered": 24098,
    "misery": 13341,
    "harbors": 20147,
    "Ġtoilings": 24742,
    "els": 1764,
    "Ġupp": 13990,
    "Ġrepairing": 25589,
    "Ġindispensable": 11897,
    "Ġdisplayed": 10607,
    "Ġstifle": 18076,
    "tashtego": 9621,
    "u": 89,
    "sufficiently": 14979,
    "christian": 17231,
    "Ġ\"": 6119,
    "Ġbackstays": 22659,
    "ipelag": 12840,
    "12": 20748,
    "Ġentire": 2559,
    "Ġflight": 6580,
    "Ġconventional": 25547,
    "Ġgreenhorn": 23767,
    "Ġanxious": 4516,
    "Ġlay": 583,
    "impressions": 20697,
    "brace": 16941,
    "riv": 3112,
    "awing": 18915,
    "Ġheaded": 11053,
    "impress": 18051,
    "Ġlawn": 7379,
    "Ġfeeding": 7973,
    "Ġcassock": 20485,
    "youn": 5690,
    "Ġcritically": 23446,
    "marvell": 24171,
    "Ġsamuel": 10031,
    "impe": 21706,
    "Ġdies": 11592,
    "Ġtreasures": 17046,
    "Ġdiscuss": 9472,
    "obedience": 17408,
    "Ġconfl": 11136,
    "Ġauthors": 10414,
    "wrote": 11545,
    "Ġdick": 3498,
    "âĢĻ": 378,
    "Ġhurtling": 24959,
    "Ġlooking": 2476,
    "Ġprimitive": 25061,
    "Ġdevices": 2940,
    "took": 6164,
    "Ġindeed": 1677,
    "Ġtass": 15467,
    "Ġsixteen": 8283,
    "andy": 8158,
    "Ġringed": 16749,
    "Ġchick": 22245,
    "Ġstumble": 26482,
    "Ġabsolut": 3911,
    "Ġflesh": 5969,
    "bber": 4567,
    "national": 20997,
    "engthen": 14455,
    "ternatural": 12711,
    "Ġbark": 10797,
    "Ġupbra": 22151,
    "Ġforever": 14553,
    "ile": 522,
    "Ġspectrum": 4473,
    "Ġlowered": 6735,
    "Ġbarrowful": 25595,
    "nd": 11502,
    "acet": 5476,
    "Ġforwarded": 19043,
    "brother": 7091,
    "furn": 10090,
    "Ġanswering": 7477,
    "Ġwheelbarrow": 17203,
    "information": 12390,
    "Ġsystem": 573,
    "Ġpresume": 8038,
    "Ġmeditate": 16681,
    "Ġpained": 19166,
    "Ġascending": 14852,
    "omuch": 21638,
    "Ġslope": 14458,
    "Ġmoluccas": 25629,
    "Ġcommitted": 7431,
    "tied": 21069,
    "matter": 5136,
    "Ġbridge": 8349,
    "draw": 23896,
    "Ġbehaviors": 13252,
    "Ġinstincts": 16985,
    "amongst": 24672,
    "Ġdexterous": 15146,
    "promote": 24727,
    "Ġdelineate": 26057,
    "Ġhatch": 7848,
    "Ġexpressive": 8981,
    "flow": 2377,
    "advance": 12153,
    "Ġhiss": 15784,
    "larger": 24201,
    "ision": 1853,
    "ulating": 10886,
    "Ġsail": 1671,
    "Ġonset": 12707,
    "repairing": 24494,
    "y": 93,
    "cherish": 24551,
    "Ġcheck": 7271,
    "Ġchildhood": 13136,
    "Ġuninjured": 22050,
    "Ġexord": 21825,
    "Ġtags": 20570,
    "ghost": 20886,
    "chose": 18040,
    "Ġlanes": 19764,
    "Ġgourmand": 26465,
    "incom": 21180,
    "Ġcomponents": 8891,
    "Ġspiritual": 9928,
    "Ġincidents": 9297,
    "gentlemen": 9502,
    "Ġdock": 15927,
    "Ġtraps": 23078,
    "Ġrig": 4224,
    "Ġcomposing": 16064,
    "mme": 22497,
    "concerned": 24583,
    "Ġspectators": 19405,
    "became": 10513,
    "Ġrespond": 11175,
    "Ġapiece": 16812,
    "rusion": 11322,
    "rucastle": 22176,
    "Ġemployed": 5200,
    "ĠcÃ¦sar": 20578,
    "places": 7880,
    "ipher": 18432,
    "cares": 24308,
    "Ġfetch": 7770,
    "find": 6954,
    "glue": 17555,
    "humored": 19451,
    "Ġdashing": 8794,
    "Ġmore": 676,
    "Ġsmitten": 12895,
    "Ġchronic": 9927,
    "ut": 308,
    "Ġcommentators": 25229,
    "inity": 5693,
    "pr": 3176,
    "Ġyankees": 26201,
    "Ġwilson": 6629,
    "Ġattempts": 10489,
    "Ġasks": 5115,
    "Ġbrooded": 23101,
    "Ġvanquished": 22875,
    "counters": 25397,
    "Ġflapp": 23006,
    "pine": 13767,
    "Ġeaves": 15672,
    "fordshire": 4676,
    "resting": 23235,
    "explanations": 25234,
    "Ġexhale": 24401,
    "earnestly": 17311,
    "Ġretreating": 19798,
    "Ġconsolation": 6208,
    "Ġcried": 1487,
    "Ġknew": 2055,
    "Ġtune": 17724,
    "quod": 2166,
    "girls": 12316,
    "Ġcap": 2362,
    "------": 12130,
    "Ġdebar": 24270,
    "poled": 22906,
    "fishing": 20858,
    "Ġgallantry": 15101,
    "Ġreasoned": 23047,
    "Ġathirst": 20597,
    "Ġsec": 2075,
    "match": 15388,
    "Ġshuddering": 9050,
    "eenth": 12457,
    "initely": 7568,
    "proves": 23392,
    "Ġerred": 21155,
    "onstr": 12542,
    "Ġconsumm": 15152,
    "shake": 22443,
    "irement": 18357,
    "Ġwere": 557,
    "Ġrenounce": 19466,
    "Ġsympat": 13338,
    "indulged": 22373,
    "Ġevince": 24292,
    "omorrah": 18017,
    "awned": 19458,
    "nowledge": 10288,
    "Ġoffered": 5816,
    "Ġelimin": 16108,
    "robe": 15638,
    "whereby": 23416,
    "touching": 15089,
    "Ġsmokes": 22557,
    "Ġseat": 4949,
    "Ġscreamed": 9522,
    "ignant": 11128,
    "Ġupon": 720,
    "Ġsurtout": 23466,
    "suspect": 9538,
    "lone": 11498,
    "produ": 10719,
    "Ġguns": 16775,
    "Ġpand": 21454,
    "Ġ124": 24468,
    "cart": 10687,
    "Ġbeheaded": 11654,
    "Ġcostume": 16494,
    "tit": 11526,
    "Ġclothe": 4711,
    "win": 6801,
    "Ġdesertion": 24787,
    "Ġfreshness": 23985,
    "iscuit": 10597,
    "elson": 16368,
    "Ġdynam": 3045,
    "attributed": 23120,
    "Ġbeaten": 10527,
    "Ġprometheus": 15290,
    "Ġhomeward": 9390,
    "volume": 18600,
    "Ġattitude": 8902,
    "Ġstaircase": 20094,
    "namely": 23643,
    "poor": 6061,
    "Ġfist": 21402,
    "occur": 19574,
    "windward": 24159,
    "hold": 3983,
    "Ġjen": 9265,
    "Ġpraise": 6486,
    "Ġoffic": 3188,
    "Ġexplo": 2285,
    "Ġdownstream": 3776,
    "total": 17249,
    "Ġmortified": 14693,
    "Ġsoda": 25534,
    "Ġinmates": 15619,
    "porpoise": 16436,
    "Ġmeanly": 12905,
    "Ġdescrib": 2718,
    "marked": 9047,
    "iel": 11492,
    "gorge": 22330,
    "pan": 10715,
    "ĠdÃ¦mon": 7845,
    "Ġslappin": 18942,
    "Ġvoy": 2619,
    "Ġwitnessed": 14842,
    "atre": 17769,
    "Ġneeds": 6605,
    "Ġselfish": 7272,
    "Ġladyship": 5046,
    "coach": 23558,
    "inquire": 16931,
    "landed": 18955,
    "Ġinfinitely": 8962,
    "Ġgaiters": 20459,
    "Ġrosings": 4606,
    "tom": 15433,
    "Ġshoving": 23489,
    "Ġalms": 21778,
    "Ġcurrent": 13016,
    "Ġreaped": 18029,
    "Ġappare": 12813,
    "ints": 3420,
    "Ġimportant": 1050,
    "t": 88,
    "Ġmyst": 4050,
    "Ġformless": 22825,
    "pening": 2831,
    "hee": 10759,
    "Ġreduced": 11921,
    "oved": 5215,
    "warm": 8102,
    "Ġswimming": 5507,
    "anch": 15556,
    "erect": 20847,
    "collinses": 19922,
    "Ġcontinue": 5398,
    ",": 16,
    "Ġunfitted": 24106,
    "Ġsoften": 23123,
    "canonical": 22961,
    "Ġhandsomely": 25497,
    "Ġalmighty": 18104,
    "unaffected": 21881,
    "or": 282,
    "ases": 1521,
    "Ġunprecedented": 15851,
    "eyes": 5684,
    "Ġbaff": 10798,
    "interests": 19707,
    "Ġexpanding": 25238,
    "lev": 1233,
    "uger": 21102,
    "Ġrecover": 9789,
    "Ġbeginning": 4242,
    "Ġadvent": 4356,
    "Ġheh": 21678,
    "andish": 18153,
    "Ġtrading": 23074,
    "Ġfarthest": 23116,
    "Ġsubsided": 14549,
    "conced": 22468,
    "ar": 284,
    "Ġ73": 24259,
    "Ġslu": 13834,
    "Ġdiscussed": 19558,
    "deep": 1028,
    "Ġsleeper": 8599,
    "ugal": 19019,
    "humor": 19450,
    "Ġskylarking": 19485,
    "Ġnovelist": 24777,
    "fitzwilliam": 11351,
    "Ġcalhoun": 23041,
    "ę": 218,
    "Ġfavourite": 5270,
    "Ġmodel": 515,
    "Ġbarrels": 9434,
    "methodically": 20663,
    "nament": 11505,
    "mosphere": 10041,
    "independent": 26021,
    "Ġattempt": 3487,
    "Ġrespectability": 14483,
    "Ġincorporated": 25711,
    "Ġwhip": 8451,
    "conjecturing": 20133,
    "supplied": 10518,
    "Ġqu": 605,
    "Ġrefill": 18694,
    "izers": 18134,
    "terday": 4704,
    "Ġsentry": 19023,
    "Ġdrawers": 12102,
    "Ġfoam": 6891,
    "Ġfore": 2154,
    "Ġtraitors": 23076,
    "Ġmidships": 23633,
    "dispute": 23499,
    "Ġano": 11594,
    "Ġsimilar": 4917,
    "Ġheeded": 13401,
    "Ġmediocr": 24081,
    "Ġindividuality": 14907,
    "Ġeyes": 1335,
    "Ġeyford": 10640,
    "Ġjoppa": 12033,
    "Ġcosmetic": 23472,
    "Ġpredicting": 2417,
    "Ġunkindness": 22036,
    "Ġaud": 6661,
    "engagement": 14456,
    "granting": 23412,
    "Ġchancery": 20715,
    "oons": 12495,
    "pire": 9134,
    "nin": 17607,
    "Ġdefence": 11066,
    "gerine": 22888,
    "Ġcomposed": 8890,
    "Ġterra": 13114,
    "Ġostent": 13582,
    "Ġaspect": 3099,
    "Åĵuv": 15180,
    "Ġmodesty": 12815,
    "Ġwindigate": 18910,
    "promising": 24726,
    "precip": 14663,
    "Ġthoughtfulness": 18772,
    "keeper": 5596,
    "protected": 19920,
    "Ġtot": 4186,
    "Ġmonstr": 7667,
    "Ġsine": 10762,
    "Ġcompliment": 5673,
    "leeward": 15208,
    "Ġthereby": 7643,
    "dham": 20829,
    "Ġmerchants": 23731,
    "alling": 6037,
    "Ġfre": 1569,
    "Ġexpedite": 24953,
    "pipe": 8696,
    "Ġvoluntary": 14797,
    "Ġcompelled": 14264,
    "Ġproclaim": 18130,
    "Ġsust": 7006,
    "Ġexposes": 22621,
    "stooped": 23819,
    "Ġnursing": 12211,
    "Ġrenowned": 26193,
    "without": 4846,
    "ricity": 23061,
    "Ġdisturbed": 8671,
    "faint": 17544,
    "Ġdejection": 15194,
    "Ġresolutely": 14608,
    "Ġshriek": 6637,
    "Ġfacilitate": 26098,
    "Ġexpert": 18870,
    "jephro": 26391,
    "Ġabatement": 22274,
    "baned": 17494,
    "Ġorlop": 22091,
    "Ġmansfield": 25938,
    "Ġtheorem": 2324,
    "Ġwoollen": 12100,
    "beside": 19876,
    "Ġsix": 3048,
    "been": 3346,
    "Ġstream": 5186,
    "Ġnodes": 1968,
    "ization": 486,
    "Ġfishy": 16523,
    "Ġmenacing": 23105,
    "Ġahoy": 12181,
    "Ġrefres": 14336,
    "alid": 13933,
    "Ġcolouring": 16750,
    "nered": 18494,
    "Ġberyl": 20488,
    "30": 20753,
    "ĠĠĠĠĠĠĠĠĠĠĠĠĠĠĠĠĠĠĠĠĠĠĠĠĠĠĠĠĠĠĠĠĠĠĠĠ": 23666,
    "Ġprim": 8244,
    "Ġstalk": 12694,
    "hunter": 10554,
    "Ġstepfather": 7221,
    "Ġjoist": 19230,
    "Ġabuse": 18392,
    "Ġfashioned": 13318,
    "Ġtech": 1653,
    "Ġadvert": 10570,
    "ĵ": 246,
    "pump": 21016,
    "itching": 21333,
    "watery": 19825,
    "Ġbathe": 25443,
    "Ġhistorical": 3647,
    "Ġconcentration": 25062,
    "Ġcastors": 23973,
    "il": 329,
    "ports": 13772,
    "Ġanswered": 2851,
    "Ġbewitched": 25975,
    "Ġfloated": 7288,
    "ceptible": 10955,
    "Ġswitzerland": 10378,
    "Ġspitzbergen": 15285,
    "ld": 387,
    "Ġcategories": 4476,
    "Ġdiscern": 7658,
    "Ġmah": 15537,
    "Ġour": 1008,
    "G": 43,
    "Ġrogue": 22403,
    "Ġbellies": 13353,
    "alogue": 25159,
    "Ġtw": 842,
    "Ġenough": 1761,
    "Ġprecisely": 6466,
    "Ġlomb": 21557,
    "Ġretreated": 13431,
    "o": 83,
    "ortions": 10947,
    "Ġtrout": 22353,
    "Ġconsequently": 8060,
    "Ġorganisation": 23582,
    "Ġthus": 2037,
    "Ġglance": 4232,
    "Ġvapors": 19907,
    "Ġsuccessful": 9921,
    "Ġbiological": 1933,
    "Ġtrailing": 23077,
    "Ġinsight": 16529,
    "ö": 183,
    "Ġdistinct": 4608,
    "Ġtravels": 11924,
    "Ġcomrades": 9553,
    "xic": 9144,
    "Ġtruck": 19510,
    "ict": 596,
    "Ġvisited": 5948,
    "Ġthither": 6821,
    "Ġfacet": 15581,
    "ipotent": 10960,
    "Ġrequirements": 9792,
    "Ġtimidly": 11337,
    "ĠĠĠĠĠĠĠĠĠĠĠĠĠĠĠĠĠĠĠĠĠĠĠĠĠĠĠĠĠĠ": 24442,
    "Ġwight": 12549,
    "lungs": 26135,
    "app": 1042,
    "Ġgenerate": 1495,
    "Ġsung": 23271,
    "oubted": 5859,
    "Ġaddu": 22099,
    "shel": 11927,
    "heading": 5487,
    "forest": 22515,
    "friendship": 24045,
    "rippling": 24714,
    "think": 3611,
    "quent": 2095,
    "hair": 9121,
    "Ġswinging": 7449,
    "shoes": 14238,
    "Ġdoubling": 23318,
    "Ġconsulted": 13428,
    "Ġtogether": 1879,
    "Ġfeatures": 1433,
    "verd": 21725,
    "Ġhovering": 10177,
    "lutions": 20949,
    "Ġfervently": 25877,
    "Ġlucas": 3833,
    "revenge": 13840,
    "Ġlifts": 25358,
    "urried": 21702,
    "Ġmountainous": 16598,
    "weary": 22684,
    "Ġsharpened": 17363,
    "Ġfiss": 21411,
    "someone": 14563,
    "Ġdusky": 13547,
    "decor": 23779,
    "row": 1064,
    "Ġguineas": 16268,
    "Ġdinn": 23978,
    "Ġenig": 15796,
    "Ġbrimming": 22866,
    "ì": 173,
    "Ġve": 1104,
    "Ġruinous": 24634,
    "gentle": 5356,
    "ists": 4002,
    "Ġxxi": 24475,
    "Ġevolve": 3003,
    "Ġreneg": 21673,
    "mpus": 13755,
    "Ġchase": 3945,
    "Ġclerval": 4652,
    "Ġride": 12754,
    "Ġcaptured": 7245,
    "Ġoutweigh": 22320,
    "Ġrestraint": 15125,
    "Ġaug": 6234,
    "Ġcircumnav": 12423,
    "fatal": 17087,
    "Ġdiscussing": 5202,
    "Ġgleaming": 24995,
    "quick": 6400,
    "provided": 13635,
    "Ġmariner": 7247,
    "draughts": 20386,
    "housekeeping": 24100,
    "Ġdeliver": 9845,
    "Î": 143,
    "disgust": 23496,
    "Ġhollows": 19740,
    "Ġexceptions": 13227,
    "Ġbuffaloes": 25217,
    "Ġdistinguish": 2727,
    "Ġcommands": 16588,
    "Ġpetty": 19594,
    "anxious": 15107,
    "solitary": 14507,
    "Ġreinforcement": 3343,
    "Ġplanned": 14750,
    "Ġretirement": 25378,
    "Ġstump": 7605,
    "oir": 21001,
    "Ġbattering": 13899,
    "entary": 21565,
    "Ġresolves": 23647,
    "Ġclub": 8872,
    "Ġsends": 14788,
    "Ġbestirred": 20450,
    "Ġinjuring": 24267,
    "Ġresponsible": 9885,
    "Ġgloomy": 7504,
    "staff": 21654,
    "Ġpursuit": 4733,
    "Ġcreases": 22720,
    "icular": 2024,
    "france": 24281,
    "Ġcircling": 19092,
    "Ġshrieked": 9546,
    "Ġfritters": 23256,
    "ouri": 21446,
    "Ġsteak": 9827,
    "Ġtorment": 8673,
    "Ġseething": 18201,
    "Ġmaze": 23828,
    "Ġcontrolled": 23249,
    "Ġsobs": 14134,
    "Ġshan": 9247,
    "Ġworshipped": 25691,
    "sell": 13779,
    "Ġfragment": 14505,
    "somewhere": 12009,
    "isles": 15560,
    "Ġleaning": 5228,
    "Ġ1": 1014,
    "Ġcorp": 5573,
    "Ġtravelling": 11306,
    "Ġtell": 1470,
    "enjoy": 10773,
    "iocr": 20922,
    "Ġmeek": 21807,
    "bask": 20775,
    "Ġvib": 8165,
    "Ġpatience": 2794,
    "Ġlobster": 11388,
    "Ġpretended": 19313,
    "Ġreturned": 2891,
    "Ġchap": 5934,
    "000": 2560,
    "ghan": 19453,
    "Ġunintellig": 22020,
    "Ġdines": 21427,
    "Ġounce": 15270,
    "Ġunalterable": 15848,
    "Ġelastic": 4361,
    "iration": 4539,
    "ibility": 2389,
    "Ġdaintiest": 25953,
    "icate": 9200,
    "regularly": 13206,
    "avings": 12019,
    "sol": 1792,
    "Ġendeavor": 16543,
    "murdered": 12199,
    "Ġtongue": 6347,
    "encounter": 20390,
    "ribbed": 16410,
    "squeezing": 25913,
    "omas": 12667,
    "Ġshrieks": 12196,
    "Ġtarred": 23608,
    "Ġdiscreet": 16481,
    "Ġcig": 6520,
    "Ġwad": 13849,
    "Ġexalted": 12409,
    "Ġdecently": 22454,
    "Ġguest": 7249,
    "ser": 1427,
    "Ġdistingu": 2515,
    "Ġgoin": 18470,
    "establishment": 26113,
    "may": 3680,
    "varieties": 23184,
    "Ġemployment": 8628,
    "wor": 3419,
    "Ġnuts": 17951,
    "discern": 14849,
    "Ġsons": 10765,
    "Ġcoiled": 11817,
    "Ġhart": 17921,
    "Ġindist": 14406,
    "Ġdisciple": 22779,
    "Ġbumpkins": 25281,
    "Ġstranded": 9773,
    "ager": 6546,
    "Ġacquisition": 18899,
    "order": 1958,
    "Ġlees": 18062,
    "muring": 17600,
    "rospect": 11610,
    "Ġroyal": 5601,
    "stories": 18023,
    "Ġrains": 24339,
    "Ġincredulity": 11310,
    "Ġprehens": 22229,
    "Ġagreeably": 24952,
    "Ġgrizz": 10350,
    "Ġpromising": 10398,
    "Ġducks": 25157,
    "Ġpromethe": 14465,
    "Ġwill": 677,
    "rusted": 16505,
    "onde": 21250,
    "Ġgrowing": 6750,
    "iscre": 17850,
    "Ġcraven": 16468,
    "Ġafrica": 12342,
    "squ": 7810,
    "away": 4624,
    "Ġmutter": 23951,
    "Ġhorr": 3191,
    "ediction": 17944,
    "Ġte": 1147,
    "Ġlub": 15645,
    "ractions": 11631,
    "Ġhonestly": 19970,
    "Ġromantic": 8031,
    "banked": 25337,
    "obscure": 23095,
    "Ġelijah": 9098,
    "Ġdis": 694,
    "Ġdare": 3545,
    "gage": 13721,
    "usable": 22277,
    "Ġspat": 2662,
    "Ġwestmorland": 24389,
    "qual": 8157,
    "Ġhanover": 20584,
    "imming": 9685,
    "semic": 21819,
    "¸": 121,
    "Ġborne": 6351,
    "Ġwilderness": 14838,
    "ies": 582,
    "anything": 5518,
    "Ġdarkness": 4276,
    "Ġdamning": 19139,
    "gay": 11487,
    "Ġtoward": 17946,
    "canoes": 16227,
    "Ġwil": 4579,
    "speech": 10665,
    "irons": 10237,
    "Ġpatronage": 17052,
    "Ġintact": 21987,
    "poster": 11055,
    "extending": 22764,
    "Ġprocedures": 9410,
    "Ġsurgeon": 8980,
    "Ġwhat": 599,
    "missionary": 24616,
    "Ġselecting": 16683,
    "Ġstaying": 8284,
    "Ġhon": 2537,
    "Ġintermix": 22577,
    "Ġactive": 7916,
    "Ġhoist": 11973,
    "sailed": 17665,
    "Ġantagon": 19549,
    "etus": 21576,
    "Ġdragging": 14473,
    "aco": 12902,
    "Ġfowler": 16936,
    "Ġhampshire": 15240,
    "nine": 13759,
    "onness": 21253,
    "memory": 13615,
    "Ġvisage": 18777,
    "Ġhumorously": 18779,
    "Ġphara": 23197,
    "burst": 10536,
    "Ġcondescend": 19953,
    "Ġventured": 7501,
    "Ġimpact": 10295,
    "Ġespe": 21154,
    "Ġcontempt": 6275,
    "Ġimprecate": 20516,
    "Ġwave": 7575,
    "Ġxxiv": 24476,
    "Ġsurmises": 17054,
    "Ġrisks": 9962,
    "Ġgossip": 18471,
    "ě": 220,
    "imprudence": 16555,
    "Ġexamination": 8005,
    "aried": 10986,
    "Ġwasting": 12724,
    "forward": 2192,
    "Ġbraided": 16580,
    "Ġjoke": 8867,
    "Ġfaintness": 24569,
    "fiend": 13659,
    "Ġsevered": 18203,
    "arat": 9173,
    "ibule": 13003,
    "uttural": 21587,
    "avating": 18605,
    "Ġsta": 18065,
    "Ġcoincid": 20316,
    "Ġbodies": 8032,
    "Ġpear": 11849,
    "Ġinfl": 6893,
    "book": 4669,
    "yl": 7819,
    "Ġsedentary": 25430,
    "Ġdeeps": 16101,
    "Ġintegrated": 13529,
    "immediate": 20092,
    "Ġholiest": 18812,
    "entieth": 17978,
    "Ġnorris": 23199,
    "Ġrepresentations": 1875,
    "Ġhelmsman": 10503,
    "Ġboys": 5194,
    "Ġsale": 14153,
    "ĩ": 234,
    "Ġsummar": 3525,
    "Ġting": 8398,
    "Ġelevating": 19727,
    "Ġcapable": 5054,
    "sideways": 14570,
    "sworn": 24255,
    "Ġcraw": 7282,
    "Ġassembl": 20059,
    "onds": 12992,
    "Ġmanufactured": 22328,
    "Ġdiscerning": 24955,
    "Ġkrempe": 10668,
    "Ġcontrols": 1733,
    "Ġscru": 8192,
    "Ġisles": 8459,
    "Ġangry": 5498,
    "Ġunattended": 15840,
    "Ġprophecy": 25706,
    "Ġscrupled": 25049,
    "Ġannals": 17898,
    "Ġden": 3109,
    "Ġreckless": 13456,
    "investments": 25532,
    "Ġcandidates": 4333,
    "uarded": 21104,
    "haul": 14764,
    "class": 4095,
    "Ġcalcul": 3639,
    "Ġpertur": 12847,
    "reated": 10301,
    "Ġeloquent": 16111,
    "son": 2328,
    "Ġnetwork": 451,
    "ouncement": 11742,
    "Ġdelicious": 14791,
    "Ġtransparency": 10675,
    "education": 20300,
    "asserted": 22307,
    "earthly": 24724,
    "Ġhandspike": 22696,
    "Ġmarred": 23030,
    "glorious": 19365,
    "Ġbloss": 19255,
    "Ġoverflowed": 20261,
    "Ġmostly": 7664,
    "eze": 20846,
    "Ġdifficulties": 11225,
    "Ġnapoleons": 25885,
    "careful": 14864,
    "bl": 4141,
    "Ġmould": 6519,
    "Ġdeacon": 18143,
    "Ġsuffers": 2972,
    "Ġlearns": 2641,
    "scans": 22982,
    "Ġefficient": 1070,
    "Ġkirwin": 8496,
    "ittered": 18439,
    "Ġabomin": 8189,
    "Ġpierce": 17035,
    "cask": 12443,
    "Ġner": 1644,
    "rist": 10121,
    "Ġenlarge": 21933,
    "receiving": 12539,
    "Ġburn": 3684,
    "innacle": 7519,
    "dispositions": 25011,
    "character": 6331,
    "Ġsense": 3252,
    "object": 6884,
    "pans": 13768,
    "form": 494,
    "Ġzone": 14360,
    "--": 1043,
    "Ġclaws": 15964,
    "reply": 19721,
    "presumption": 20440,
    "Ġanger": 5442,
    "Ġconceited": 12087,
    "ouses": 5163,
    "Ġcalling": 5662,
    "Ġowner": 8920,
    "Ġthews": 21276,
    "quimaux": 21857,
    "ofs": 11827,
    "Ġmorocc": 22972,
    "Ġwarn": 5695,
    "Ġswiftly": 5670,
    "Ġexquis": 9697,
    "Ç": 136,
    "Ġengage": 9333,
    "mortar": 25408,
    "local": 22506,
    "Ġquench": 22417,
    "mult": 8747,
    "soled": 14330,
    "ó": 180,
    "Ġinsurg": 23680,
    "didn": 9005,
    "Ġdenied": 8999,
    "Ġcommanded": 6330,
    "omination": 21640,
    "Ġbestow": 6455,
    "playing": 19656,
    "Ġabode": 7901,
    "Ġcaress": 16336,
    "forced": 11031,
    "Ġidol": 7467,
    "Ġultimately": 17163,
    "Ġcomfort": 3441,
    "Ġdip": 13906,
    "Ġcruelly": 13373,
    "connect": 1291,
    "comprehend": 14358,
    "tremble": 17140,
    "Ġannihilated": 20251,
    "Ġfarewell": 9518,
    "reat": 618,
    "bad": 12433,
    "Ġale": 9153,
    "Ġduties": 6609,
    "Ġconcepts": 4550,
    "Ġret": 1381,
    "Ġdefici": 22941,
    "Ġtangles": 25761,
    "Ġrelationships": 2925,
    "Ġhaw": 10250,
    "Ġevinced": 7100,
    ")": 13,
    "Ġblu": 2686,
    "Ġnative": 4639,
    "creator": 26380,
    "traces": 24314,
    "generous": 16567,
    "Ġemblazonings": 26042,
    "itement": 7836,
    "agrad": 2747,
    "precise": 19349,
    "bes": 6641,
    "Ġcapsizing": 20087,
    "Ġarchy": 14345,
    "Ġproportionably": 19969,
    "Ġrescales": 5068,
    "venant": 22624,
    "Ġflirting": 16246,
    "Ġboxed": 24359,
    "Ġherd": 7889,
    "these": 3243,
    "\"]": 17469,
    "oken": 4306,
    "cri": 17504,
    "moreover": 12965,
    "exception": 9974,
    "include": 23588,
    "Ġflinging": 13583,
    "Ġ2": 2928,
    "Ġfreed": 7267,
    "Ġriotous": 20543,
    "ivering": 7698,
    "Ġsavesoul": 26227,
    "Ġinte": 2065,
    "Ġvagu": 13587,
    "umbered": 22115,
    "ieve": 1657,
    "Ġkeeping": 7283,
    "Ġexcepting": 14679,
    "const": 5939,
    "degree": 12797,
    "station": 10843,
    "Ġdispelling": 23878,
    "Ġderbyshire": 6586,
    "Ġdialogue": 12401,
    "Ġchests": 19670,
    "Ġcasement": 25092,
    "enched": 10153,
    "important": 7112,
    "upp": 10129,
    "Ġengineering": 3027,
    "Ġclanking": 20610,
    "stretch": 13979,
    "Ġar": 481,
    "vic": 13800,
    "Ġtrappers": 23079,
    "Ġmenaces": 23104,
    "Ġawkwardness": 13485,
    "Ġvectors": 1771,
    "dog": 10691,
    "oned": 4629,
    "quee": 4130,
    "Ġwade": 17784,
    "Ġoptimize": 1585,
    "Ġneatness": 19931,
    "opol": 12867,
    "Ġoverthrown": 18430,
    "Ġaudible": 19880,
    "Ġdressed": 5081,
    "ä": 165,
    "Ġrelaps": 18775,
    "rannical": 26400,
    "let": 2733,
    "Ġrolled": 4428,
    "escript": 18469,
    "rinted": 21042,
    "Ġeuroclydon": 15294,
    "Ġcomputers": 2643,
    "Ġberth": 8679,
    "Ġfarm": 7841,
    "Ġvol": 4190,
    "venge": 4657,
    "Ġpurposes": 11167,
    "Ġdotted": 16791,
    "Ġbloodthirst": 23800,
    "henomenon": 13612,
    "gi": 17550,
    "Ġconce": 3425,
    "Ġthorough": 6245,
    "allers": 22195,
    "Ġaff": 1113,
    "Ġmediocrity": 26607,
    "Ġprofession": 6207,
    "Ġinscrut": 10032,
    "Ġrending": 19465,
    "Ġparish": 8853,
    "Ġsledge": 8111,
    "Ġindisc": 16225,
    "se": 358,
    "Ġru": 947,
    "Ġra": 801,
    "Ġbarbarous": 13474,
    "Ġvastly": 23858,
    "Ġevolved": 9890,
    "queer": 10361,
    "jol": 20924,
    "opic": 22474,
    "Ġextensive": 12938,
    "Ġnic": 7376,
    "deserving": 17240,
    "Ġrecursive": 4782,
    "Ġflexible": 23774,
    "Ġsed": 10760,
    "Ġindies": 22949,
    "Ġpulled": 5660,
    "Ġspleen": 26420,
    "gon": 17551,
    "Ġdrab": 13068,
    "Ġostens": 25275,
    "Ġroar": 9751,
    "Ġcolonel": 3410,
    "Ġcoolly": 9770,
    "quohog": 21856,
    "text": 1975,
    "Ġaverages": 2398,
    "Ġcocked": 12900,
    "Ġtwinkled": 14310,
    "Ġbackwards": 12921,
    "Ġsty": 6251,
    "Ġ179": 19753,
    "Ġexecut": 4246,
    "Ġprosecut": 9696,
    "Ġheiress": 20696,
    "commanders": 16988,
    "stalls": 26472,
    "prevailed": 17343,
    "Ġugliness": 20425,
    "Ġagile": 22510,
    "customary": 25895,
    "piteous": 21032,
    "folding": 24927,
    "Ġsmilingly": 22558,
    "Ġfowls": 8690,
    "Ġmonosyllable": 20725,
    "Ġlivery": 15996,
    "igning": 12677,
    "whaling": 7900,
    "Ġgrapnels": 25551,
    "rics": 13034,
    "Ġnumbers": 2887,
    "Ġfrog": 23918,
    "mistakable": 20652,
    "relation": 19445,
    "goodness": 19287,
    "Ġegot": 18007,
    "Ġearnest": 3930,
    "Ġmining": 22827,
    "tedious": 22633,
    "ocation": 14625,
    "sword": 10725,
    "Ġstrateg": 1363,
    "Ġleaky": 2347,
    "Ġdrops": 9031,
    "Ġfid": 10802,
    "Ġjem": 18402,
    "Ġstr": 759,
    "poling": 12216,
    "Ġsoaring": 22084,
    "chors": 11642,
    "written": 7995,
    "falgar": 26130,
    "Ġdirest": 22705,
    "Ġorganically": 3013,
    "Ġdoubloon": 6945,
    "Ġglowed": 24864,
    "Ġfair": 2836,
    "whether": 5319,
    "holder": 13280,
    "Ġscrape": 14916,
    "Ġherb": 15853,
    "Ġinterpret": 5490,
    "Ġconsum": 9797,
    "Ġemble": 13969,
    "Ġmagnanimous": 17409,
    "Ġpresentation": 14479,
    "Ġwaif": 9373,
    "Ġplow": 21458,
    "a": 69,
    "Ġwealthy": 18178,
    "Ġjoined": 4563,
    "Ġdraw": 3672,
    "Ġunluck": 8484,
    "apolog": 22331,
    "Ġcrystall": 20225,
    "Ġmarched": 18871,
    "Ġclum": 8871,
    "Ġunconsc": 6552,
    "Ġ180": 16605,
    "intern": 23734,
    "Ġorder": 1682,
    "unwittingly": 25801,
    "Ġgowns": 25359,
    "Ġsupernatural": 9871,
    "Ġclasped": 17205,
    "ado": 11656,
    "Ġwriter": 11942,
    "Ġcomparatively": 9488,
    "Ġfreemason": 23208,
    "Ġchink": 15929,
    "fem": 17536,
    "Ġmiles": 3804,
    "Ġformality": 22826,
    "mology": 12488,
    "Ġvapor": 8699,
    "saf": 11523,
    "zeal": 16254,
    "Ġpictures": 5503,
    "attend": 11100,
    "Ġprudence": 13918,
    "Ġclamped": 18425,
    "Ġhyperborean": 26339,
    "Ġvineyard": 12327,
    "Ġmassa": 19452,
    "fish": 3516,
    "kish": 20933,
    "Ġconfirming": 25321,
    "Ġbill": 4040,
    "bedroom": 14675,
    "Ġattack": 5478,
    "Ġpat": 1787,
    "ster": 1959,
    "angled": 6844,
    "standing": 5557,
    "Ġstill": 1157,
    "Ġhulls": 13924,
    "sailor": 14713,
    "elizabeth": 1988,
    "ainty": 21785,
    "Ġaquiline": 26159,
    "plac": 15817,
    "reject": 21235,
    "Ġfinite": 2323,
    "Ġkeeled": 18807,
    "Ġgap": 21597,
    "Ġrusty": 14962,
    "Ġpince": 21470,
    "lynes": 15700,
    "Ġdundee": 16996,
    "Ġsuddenly": 2644,
    "Ġinser": 6820,
    "Ġpillows": 24988,
    "herent": 2529,
    "Ġmastery": 23990,
    "Ġvul": 10246,
    "Ġaffording": 14819,
    "Ġsumatra": 15284,
    "wanderer": 25423,
    "Ġqueens": 16705,
    "Ġeasiest": 23536,
    "paused": 17372,
    "aging": 2239,
    "Ġunstructure": 2993,
    "Ġhindoo": 17174,
    "Ġsimpler": 2048,
    "hour": 7340,
    "Ġsucceed": 4544,
    "Ġblocks": 6321,
    "Ġschedules": 3388,
    "Ġforgot": 4683,
    "Ġmumbled": 17807,
    "Ġincapable": 7423,
    "Ġpolic": 13159,
    "Ġcrusad": 23705,
    "Ġdardanelles": 26443,
    "sign": 8388,
    "Ġwitt": 17783,
    "violent": 14578,
    "Ġsingle": 1689,
    "Ġpassers": 18757,
    "Ġcharms": 11129,
    "Ġenvirons": 13202,
    "Ġballs": 9013,
    "Ġyielding": 12183,
    "Ġhoops": 9386,
    "Ġscratches": 22289,
    "Ġoak": 6128,
    "commotion": 24913,
    "Ġcontextual": 3743,
    "tranqu": 14704,
    "Ġuntil": 2666,
    "parad": 16387,
    "instinct": 19542,
    "Ġimagination": 5759,
    "rocious": 21537,
    "fters": 20860,
    "uc": 1877,
    "Ġreplenished": 13634,
    "Ġanteced": 26177,
    "Ġfathom": 17047,
    "served": 5043,
    "Ġparadigms": 3060,
    "Ġmason": 10156,
    "igin": 3657,
    "Ġload": 14144,
    "Ġ104": 24411,
    "Ġundone": 24116,
    "Ġdowry": 20684,
    "cular": 15326,
    "Ġvigil": 9505,
    "arrange": 23765,
    "among": 6256,
    "marching": 25752,
    "Ġpsych": 10175,
    "Ġbrothers": 13173,
    "woman": 5899,
    "Ġreconc": 9681,
    "Ġlance": 4879,
    "iv": 431,
    "america": 17096,
    "Ġinexorable": 12252,
    "regularization": 3515,
    "Ġmurmur": 14588,
    "acked": 10972,
    "Ġstony": 21740,
    "Ġquestionable": 19265,
    "Ġhoars": 19075,
    "Ġinvestigated": 25386,
    "Ġresolved": 3798,
    "approached": 13483,
    "Ġbuild": 6474,
    "cul": 1899,
    "Ġprivile": 8645,
    "Ġuniversity": 13120,
    "Ġcloudy": 19475,
    "ouch": 2779,
    "Ġwondering": 7972,
    "Ġmetallic": 19086,
    "Ġmaddening": 17242,
    "Ġassisted": 11110,
    "Ġwhales": 1828,
    "Ġportent": 12078,
    "Ġvolumes": 14798,
    "uteness": 17985,
    "Ġinanimate": 13931,
    "Ġclaimed": 14200,
    "Ġinforming": 18742,
    "ums": 10271,
    "Ġaberde": 22275,
    "Ġensuring": 11190,
    "Ġplead": 14453,
    "Ġviolin": 16426,
    "Ġheidelburgh": 11641,
    "Ġ44": 16678,
    "Ġjup": 15949,
    "above": 8148,
    "Ġentail": 9790,
    "Ġhatchways": 24989,
    "Ġavail": 11226,
    "Ġintrospective": 20599,
    "Ġbecalmed": 18086,
    "Ġflames": 7940,
    "Ġmercenary": 17192,
    "supernatural": 19778,
    "Ġbrougham": 17870,
    "gris": 8260,
    "Q": 53,
    "Ġsoothing": 8173,
    "wag": 21122,
    "Ġrevolving": 9981,
    "unreasonable": 18162,
    "Ġshy": 10902,
    "und": 4118,
    "trust": 21077,
    "Ġattorney": 18625,
    "Ġstabbed": 25456,
    "Ġgovernor": 16489,
    "Ġevident": 6612,
    "biqu": 17496,
    "Ġdisinterested": 16053,
    "relative": 24010,
    "Ġinsufficient": 9671,
    "Ġbroad": 3641,
    "hig": 12471,
    "tre": 8760,
    "unlike": 18156,
    "Ġguide": 3219,
    "stave": 21647,
    "invincible": 25089,
    "Ġcred": 8779,
    "Ġremoter": 20104,
    "ought": 830,
    "Ġravines": 25831,
    "sensible": 20050,
    "complaisance": 24811,
    "duct": 3507,
    "Ġcharges": 23267,
    "colour": 9901,
    "terrific": 25040,
    "coo": 11169,
    "Ġhoarse": 14525,
    "engagements": 25853,
    "Ġidiot": 11968,
    "ikes": 8087,
    "Ġerrors": 2596,
    "Ġdef": 1200,
    "Ġbuzz": 23994,
    "decl": 8855,
    "Ġdiscol": 12949,
    "houn": 20892,
    "Ġsole": 3299,
    "Ġreef": 10848,
    "verb": 10215,
    "Ġcurves": 18855,
    "frank": 7758,
    "Ġport": 3311,
    "Ġunharmed": 15137,
    "Ġseaman": 8638,
    "Ġeffusions": 18543,
    "Ġfasting": 16353,
    "Ġmarch": 4082,
    "Ġwhereupon": 14292,
    "rs": 7808,
    "Ġxiv": 23406,
    "Ġcanopy": 18322,
    "Ġincumbent": 16059,
    "bal": 2157,
    "Ġrefrain": 12941,
    "ctuous": 9204,
    "Ġanxiety": 5408,
    "Ġobstructed": 24677,
    "data": 2186,
    "Ġsurmisings": 26592,
    "Ġg": 310,
    "Ġpractical": 3166,
    "inctions": 17731,
    "iscreet": 20681,
    "Ġpurchasing": 19874,
    "Ġserv": 3330,
    "bun": 12435,
    "Ġexempl": 21828,
    "Ġklan": 23662,
    "Ġpassing": 4314,
    "Ġmount": 7362,
    "Ġsmut": 22554,
    "direction": 17523,
    "mountains": 15178,
    "Ġwallowing": 24040,
    "Ġprincip": 5599,
    "Ġreverber": 19868,
    "port": 10718,
    "aches": 6570,
    "Ġaffronted": 22891,
    "Ġunhappily": 18259,
    "carrying": 16712,
    "fly": 13712,
    "Ġmouthful": 16573,
    "fashion": 8081,
    "Ġpath": 2115,
    "Ġcrockery": 24300,
    "Ġhur": 2100,
    "Ġoutputs": 2885,
    "Ġconsole": 8151,
    "Ġoffice": 4965,
    "deficient": 23117,
    "headers": 23106,
    "slackened": 26094,
    "Ġbearded": 15723,
    "Ġaspects": 4174,
    "Ġeliza": 6437,
    "itz": 6006,
    "Ġbolt": 11333,
    "clo": 5612,
    "Ġheaven": 3366,
    "Ġlizz": 21555,
    "Ġhumaneval": 25582,
    "across": 10323,
    "icable": 6388,
    "catherine": 7127,
    "Ġswim": 3820,
    "Ġoct": 10157,
    "Ġconfirm": 9854,
    "peculiarities": 13469,
    "alf": 4637,
    "Ġkindly": 6078,
    "etics": 21579,
    "clam": 13051,
    "Ġmeasures": 1205,
    "Ġgallows": 12142,
    "Ġcheered": 16366,
    "Ġschooner": 16746,
    "recurring": 24193,
    "ensity": 11810,
    "Ġdoor": 1741,
    "Ġpartner": 6714,
    "Ġfumbled": 17881,
    "atory": 6125,
    "ve": 322,
    "exerc": 16012,
    "Ġever": 1180,
    "oment": 920,
    "Ġhedgehog": 10643,
    "Ġhose": 12623,
    "pretending": 17040,
    "Ġphyseter": 26585,
    "Ġmurky": 19201,
    "fired": 20859,
    "wreck": 21135,
    "Ġequally": 5257,
    "people": 7677,
    "Ġunited": 6840,
    "meadow": 18679,
    "actually": 14293,
    "variety": 23183,
    "Ġ95": 19772,
    "write": 14646,
    "Ġmiriam": 25273,
    "Ġwealth": 7620,
    "Ġfabulous": 25948,
    "een": 726,
    "ody": 1479,
    "Ġcell": 6237,
    "Ġapp": 497,
    "Ġinquir": 4241,
    "Ġgo": 615,
    "Ġdescends": 14285,
    "ensation": 22543,
    "else": 6533,
    "Ġunthinkingly": 26220,
    "Ġdeprec": 15754,
    "Ġuntutored": 19165,
    "Ġdisconnected": 22523,
    "Ġbelonging": 8308,
    "rubber": 12805,
    "deliberated": 26118,
    "alike": 17942,
    "Ġdisguise": 10044,
    "ittle": 812,
    "Ġreluct": 14370,
    "Ġcherub": 23285,
    "Ġhar": 5814,
    "reng": 4004,
    "infernal": 24662,
    "Ġmalignity": 10555,
    "hetic": 12200,
    "Ġfrayed": 23294,
    "Ġshows": 8482,
    "Ġnoting": 18221,
    "Ġenveloping": 19732,
    "Ġinv": 2226,
    "em": 389,
    "Ġwaiter": 16357,
    "Ġdome": 15587,
    "stirring": 20424,
    "Ġantelope": 24179,
    "Ġluxury": 20130,
    "Ġpuppy": 12402,
    "explaining": 23139,
    "urpr": 2287,
    "drugg": 20837,
    "ital": 4817,
    "Ġrival": 10484,
    "Ġtolerable": 6949,
    "Ġbowels": 9428,
    "Ġmatters": 4974,
    "Ġcalculus": 23980,
    "caught": 8726,
    "Ġdante": 21442,
    "Ġsenses": 8252,
    "Ġscotland": 6639,
    "Ġinestim": 15620,
    "tru": 10728,
    "Ġlips": 3993,
    "Ġrecumbent": 22740,
    "Ġstaggers": 24653,
    "achusetts": 20709,
    "Ġfemale": 8345,
    "Ġhonour": 3923,
    "Ġprefers": 20512,
    "amore": 21841,
    "Ġrelev": 1715,
    "work": 1738,
    "Ġspectator": 19404,
    "tender": 14471,
    "ck": 436,
    "adam": 15726,
    "zwilliam": 5074,
    "uy": 21098,
    "greatly": 16622,
    "serv": 7451,
    "Ġmanned": 9269,
    "Ġquill": 12853,
    "unalterable": 21884,
    "iting": 2159,
    "employ": 10894,
    "ivened": 22963,
    "Ġflour": 8943,
    "Ġenlar": 15797,
    "few": 8203,
    "dington": 11898,
    "Ġfrowning": 13621,
    "Ġfulf": 6772,
    "ved": 869,
    "Ġblacksmith": 6595,
    "wandered": 20284,
    "Ġcomprehensiveness": 25072,
    "Ġprepar": 7898,
    "Ġcomforter": 20505,
    "dwelling": 20563,
    "cking": 4264,
    "Ġvice": 6548,
    "Ġbennet": 1573,
    "ferences": 10325,
    "Ġsurely": 6307,
    "ext": 924,
    "reward": 15507,
    "rah": 8137,
    "Ġtemporal": 2612,
    "Ġnomin": 10189,
    "Ġancho": 15599,
    "otes": 15740,
    "Ġinex": 6528,
    "Ġrespected": 11950,
    "fun": 3491,
    "Ġjub": 22293,
    "mast": 3604,
    "wers": 12516,
    "Ġacknowled": 6350,
    "unc": 15765,
    "bted": 7794,
    "Ġencodings": 4775,
    "jug": 17579,
    "Ġenjoined": 18191,
    "oce": 10713,
    "favour": 9547,
    "Ġexposing": 11830,
    "Ġseven": 4541,
    "Ġperceived": 4714,
    "Ġposted": 16723,
    "ĠĠĠĠĠ": 3527,
    "society": 9970,
    "mock": 5174,
    "Ġpainfully": 13140,
    "Ġdank": 21432,
    "Ġ132": 19895,
    "Ġhearties": 18966,
    "troubled": 17111,
    "Ġstuffed": 13407,
    "Ġdomin": 10460,
    "Ġprovision": 14823,
    "Ġliberty": 7762,
    "Ġgang": 9206,
    "Ġentreaty": 10528,
    "âĢĶ_": 3202,
    "Å": 134,
    "Ġcharacter": 2793,
    "Ġt": 261,
    "tri": 11528,
    "Ġtyros": 26101,
    "Ġwearing": 12735,
    "Ġterror": 5124,
    "Ġbranded": 14377,
    "acup": 14276,
    "Ġscreen": 17204,
    "Ġfurnace": 19438,
    "ject": 875,
    "Ġwidows": 24235,
    "Ġtip": 15469,
    "declaration": 25175,
    "Ġnav": 5818,
    "covered": 11476,
    "quadr": 15760,
    "Ġfoliage": 18866,
    "Ġconsists": 11974,
    "Ġbraz": 19356,
    "Ġvibration": 17098,
    "ancho": 4938,
    "Ġphilosophical": 26334,
    "dipped": 20836,
    "regarded": 12004,
    "ception": 6562,
    "Ġcuff": 17829,
    "Ġfrequented": 16584,
    "Ġ1839": 20458,
    "Ġhairy": 23863,
    "Ġsustenance": 19932,
    "putable": 10900,
    "Ġhosts": 19937,
    "Ġdistur": 5312,
    "Ġelegant": 7532,
    "Ġaverted": 16250,
    "Ġobservations": 13551,
    "Ġfeature": 746,
    "bb": 2801,
    "Ġeffaced": 18542,
    "Ġinfinite": 8576,
    "Ġislands": 6766,
    "comparatively": 25839,
    "Ġbrains": 2629,
    "Ġscenery": 11455,
    "brandy": 19200,
    "Ġsulk": 15044,
    "Ġspong": 15878,
    "Ġrelevance": 5184,
    "yonder": 21143,
    "Ġunsocial": 18253,
    "wolf": 26408,
    "religion": 20574,
    "Ġstaving": 21738,
    "sum": 2087,
    "bulk": 19923,
    "Ġinsects": 25646,
    "fifty": 12349,
    "Ġelevate": 24498,
    "Ġesteem": 7531,
    "jewell": 25523,
    "whel": 7665,
    "Ġwomanly": 23549,
    "precision": 4331,
    "letter": 6201,
    "deck": 4499,
    "ï": 176,
    "Ġinvoked": 19144,
    "Ġallegor": 25545,
    "wling": 11543,
    "Ġunrolled": 22032,
    "Ġpoverty": 9302,
    "ibank": 6880,
    "Ġconductor": 24004,
    "thine": 15821,
    "trees": 10730,
    "advent": 10219,
    "phantoms": 24679,
    "Ġbetween": 793,
    "umns": 14146,
    "Ġjustinian": 22965,
    "Ġcreator": 7254,
    "Ġsunken": 14492,
    "ifted": 4493,
    "fishers": 24928,
    "Ġoat": 21321,
    "Ġxxxvi": 24971,
    "unities": 15767,
    "Ġawe": 7147,
    "Ġcopies": 24935,
    "Ġcountryside": 23595,
    "Ġsequences": 1751,
    "Ġwrist": 8243,
    "words": 7983,
    "transition": 24509,
    "general": 7489,
    "Ġmolasses": 25628,
    "ienced": 5685,
    "Ġcapric": 14574,
    "hearse": 17747,
    "velope": 17700,
    "Ġbe": 336,
    "Ġitem": 12697,
    "Ġvelocity": 10619,
    "Ġpence": 17905,
    "Ġinstruct": 2864,
    "preading": 18497,
    "covenant": 23560,
    "delirium": 14783,
    "urean": 18122,
    "Ġincess": 8431,
    "Ġcontemptuously": 19832,
    "Ġpopulation": 16826,
    "Ġblasphemer": 26116,
    "Ġjoys": 13217,
    "Ġlegisl": 23533,
    "sheet": 16283,
    "Ġgums": 21609,
    "Ġensuing": 12306,
    "mil": 13750,
    "oton": 3609,
    "Ġpauses": 14813,
    "Ġsplitting": 4382,
    "·": 120,
    "Ġlouisiana": 25076,
    "Ġpsychology": 11447,
    "acquired": 24295,
    "topp": 22563,
    "Ġintervening": 17266,
    "Ġprairies": 20019,
    "Ġeagerly": 4990,
    "inglass": 21301,
    "Ġfe": 490,
    "Ġdesiring": 14412,
    "Ġsolemn": 4100,
    "Ġpatch": 4181,
    "Ġclasp": 9742,
    "flukes": 25205,
    "Ġthroughout": 8875,
    "caut": 20811,
    "led": 581,
    "Ġmitigates": 3055,
    "Ġcausing": 16355,
    "stolidity": 21661,
    "Ġnovelty": 13461,
    "Ġfairer": 20460,
    "akeman": 6267,
    "Ġestablishment": 13577,
    "Ġoffer": 4843,
    "Ġbehavior": 8002,
    "Ġbarque": 23789,
    "ralian": 19599,
    "Ġripp": 11218,
    "mass": 12486,
    "erative": 21271,
    "Ġwolfish": 25935,
    "Ġobstacle": 16954,
    "Ġattract": 11832,
    "Ġvaulted": 25167,
    "Ġcuvier": 9164,
    "Ġbackbone": 22656,
    "rily": 7621,
    "Ġgpt": 4350,
    "Ġowns": 22822,
    "Ġconditions": 8307,
    "consid": 4924,
    "Ġchose": 7413,
    "spike": 16135,
    "Ġtrans": 637,
    "Ġletter": 2201,
    "Ġquarters": 8619,
    "Ġspoilt": 24807,
    "warp": 17705,
    "mits": 13754,
    "bran": 23572,
    "Ġmoth": 17802,
    "Ġheroines": 19750,
    "Ġabilities": 8865,
    "iliation": 10859,
    "Ġdism": 9765,
    "Ġfift": 6382,
    "half": 4931,
    "Ġadvis": 9805,
    "Ġriding": 14093,
    "Ġunfl": 22014,
    "suffer": 24332,
    "uerus": 26405,
    "Ġadie": 8488,
    "Ġindisposed": 26287,
    "Ġabout": 632,
    "Ġfalsely": 20580,
    "mons": 17599,
    "Ġcanes": 22162,
    "Ġpenny": 16311,
    "ring": 1752,
    "Ġkentuck": 19890,
    "Ġcanall": 10927,
    "Ġleaps": 14000,
    "Ġmons": 10155,
    "ops": 5246,
    "abominable": 20592,
    "Ġcubic": 20086,
    "Ġfedallah": 6108,
    "Ġwaned": 17791,
    "Ġconstru": 19069,
    "Ġapart": 4746,
    "Ġrejoined": 14925,
    "Ġsnapping": 19299,
    "Ġstructured": 2971,
    "full": 7421,
    "doors": 19094,
    "inno": 10755,
    "Ġhumph": 22883,
    "Ġcover": 3557,
    "Ġwhile": 606,
    "attachment": 13048,
    "Ġfing": 3759,
    "Ġseparate": 5778,
    "Ġdiadem": 24741,
    "Ġembed": 1423,
    "Ġaction": 5796,
    "Ġfangs": 12593,
    "abilities": 3238,
    "Ġcigars": 12249,
    "Ġsanely": 24982,
    "Ġclearly": 6897,
    "Ġcaptivating": 26049,
    "Ġbushes": 16398,
    "ative": 740,
    "accomplishment": 20222,
    "ama": 11675,
    "Ġflapped": 23009,
    "Ġkeenest": 12158,
    "Ġforetold": 23452,
    "Ġtumult": 7114,
    "infliction": 25924,
    "Ġglimpses": 13430,
    "ache": 8518,
    "touch": 8392,
    "Ġpequod": 2321,
    "Ġprompt": 3190,
    "Ġcheating": 16364,
    "Ġexceeded": 14431,
    "Ġenchanted": 9079,
    "comes": 5394,
    "Ġfacetious": 20582,
    "Ġtorpor": 25031,
    "Ġepaulets": 24905,
    "sugg": 11836,
    "Ġfavourites": 16643,
    "ciousness": 20816,
    "contact": 23726,
    "ĠâĢľâĢĶ": 9732,
    "Ġpour": 13912,
    "))": 1515,
    "Ġejac": 10202,
    "Ġrachel": 11841,
    "Ġshamefully": 24716,
    "Ġdisputes": 25825,
    "Ġmakest": 25435,
    "Ġparsonage": 7123,
    "Ġhow": 598,
    "Ġsimplicity": 2922,
    "Ġblanket": 8343,
    "Ġfrench": 4939,
    "reflection": 13453,
    "its": 1151,
    "prit": 19340,
    "rival": 12739,
    "singing": 24362,
    "istle": 15867,
    "Ġhandful": 9781,
    "Ġsealed": 15812,
    "Ġintended": 5547,
    "onder": 3780,
    "apside": 22958,
    "ample": 1367,
    "Ġsog": 22082,
    "icest": 21562,
    "ron": 5216,
    "Ġexplored": 23517,
    "Ġsubmitted": 11868,
    "Ġesc": 2253,
    "meal": 22710,
    "Ġ116": 24439,
    "Ġthomson": 26453,
[...]
