{
  "metadata": {
    "vocab_size": 26614,
    "algorithm": "BPE",
    "created_at": "2026-05-12 05:37:25",
    "special_tokens": [
      "<PAD>",
      "<SOS>",
      "<EOS>",
      "<UNK>",
      "<MASK>"
    ]
  },
  "vocab": {
    "Ġresistance": 13529,
    "Ġrecesses": 17260,
    "difficulty": 12388,
    "Ġdescribes": 3122,
    "Ġscuttle": 7414,
    "life": 4932,
    "Ġmbpp": 21320,
    "Ġalleged": 17290,
    "into": 3680,
    "Ġsomnambul": 26576,
    "Ġworkflow": 2498,
    "han": 12470,
    "include": 23588,
    "rese": 15507,
    "listener": 24930,
    "topic": 10527,
    "penetrating": 25490,
    "bearance": 22491,
    "Ġtranspired": 16784,
    "avings": 12021,
    "Ġfloundered": 18861,
    "Ġcharacteristic": 12046,
    "Ġconceit": 7295,
    "Ġexhaled": 19681,
    "Ġinjunctions": 24269,
    "momentum": 4991,
    "moving": 11015,
    "gabriel": 15359,
    "Ġpierce": 17036,
    "Ġpres": 9731,
    "cence": 9588,
    "Ġdiscrete": 2478,
    "they": 1878,
    "Ġcrater": 16438,
    "skill": 24487,
    "Ġdesisted": 22975,
    "Ġbalm": 22899,
    "Ġprospect": 4706,
    "Ġdoor": 1739,
    "Ġtranquilly": 12288,
    "Ġchamp": 18380,
    "Ġfeel": 1260,
    "Ġdaft": 19662,
    "Ġpauper": 26179,
    "Ġvort": 18193,
    "itively": 21329,
    "Ġwines": 21286,
    "mbles": 23086,
    "Ġshelves": 14998,
    "Ġespecial": 26410,
    "instinct": 19542,
    "Ġsleeping": 6319,
    "Ġlondon": 2842,
    "Ġadvice": 4901,
    "Ġpalsy": 25778,
    "flutter": 23968,
    "Ġtiller": 8965,
    "Ġdesper": 6176,
    "Ġstrongly": 5657,
    "Ġbled": 17856,
    "umbent": 12093,
    "dashing": 20835,
    "Ġcosmopolitan": 20640,
    "Ġunjustly": 17126,
    "mental": 16045,
    "Ġallusion": 7626,
    "Ġforlorn": 14014,
    "Ġoutstretched": 14195,
    "Ġdemi": 25548,
    "Ġplan": 3885,
    "Ġfamiliarly": 11302,
    "Ġscrewing": 20207,
    "Ġstamped": 13526,
    "Ġexcuses": 19043,
    "Ñ": 146,
    "Ġ14": 9322,
    "Ġparson": 6687,
    "ilet": 12826,
    "Ġglu": 15665,
    "bra": 6219,
    "Ġlines": 4532,
    "Ġcrevice": 22725,
    "Ġwor": 1189,
    "Ġaffections": 10384,
    "Ġencoding": 4774,
    "ipotent": 10955,
    "feeling": 6616,
    "Ġup": 463,
    "Ġpoorly": 9854,
    "sake": 13782,
    "Ġspeakest": 23486,
    "Ġloomings": 24949,
    "natural": 2214,
    "Ġletter": 2195,
    "direct": 12454,
    "Ġincom": 9768,
    "Ġprofessors": 14724,
    "Ġflattering": 13026,
    "Ġsmitten": 12896,
    "jected": 22711,
    "Ġembal": 11908,
    "Ġtiger": 11553,
    "Ġmonomaniac": 9568,
    "Ġintent": 6409,
    "Ġvincent": 15282,
    "Ġprotracted": 19467,
    "Ġrake": 18643,
    "condesc": 18505,
    "Ġpass": 1040,
    "Ġinjured": 9039,
    "beloved": 19459,
    "Ġmagnanimous": 17410,
    "Ġportable": 19368,
    "oles": 21004,
    "Ġpenn": 11111,
    "Ġasserted": 16949,
    "Ġepisode": 26346,
    "got": 6955,
    "Ġcoco": 10999,
    "extremely": 26263,
    "Ġworking": 5575,
    "Ġembedding": 2104,
    "furn": 10091,
    "Ġrenders": 13282,
    "breeding": 16675,
    "leep": 4634,
    "sm": 3437,
    "Ġrequest": 6050,
    "Ġsuspend": 14609,
    "Ġtrance": 12837,
    "Ġseventy": 7879,
    "Ġartist": 12909,
    "Ġinsens": 8276,
    "falling": 24361,
    "Ġlegible": 23532,
    "Ġsubsisting": 23433,
    "Ġengagements": 9977,
    "eding": 7165,
    "Ġstum": 21731,
    "Ġlaughter": 9027,
    "Ġcrust": 21349,
    "attracted": 13048,
    "Ġvalidation": 2357,
    "cannibals": 25584,
    "rious": 11687,
    "Ġspain": 15878,
    "Ġpest": 13912,
    ").": 1273,
    "Ġmoon": 4608,
    "vengeance": 13355,
    "Ġsend": 4110,
    "erness": 6434,
    "Ġtried": 3646,
    "Ġheedfully": 24521,
    "Ġhoky": 17926,
    "Ġjack": 4652,
    "cause": 7795,
    "matlock": 23468,
    "nest": 10113,
    "Ġbier": 22763,
    "Ġwal": 6517,
    "Ġstorms": 11261,
    "xology": 21140,
    "Ġstiffest": 24829,
    "Ġnois": 4269,
    "narrative": 17318,
    "Ġbishop": 13901,
    "Ġanonym": 17897,
    "Ġtravell": 5576,
    "solitude": 23296,
    "Ġstyle": 6946,
    "Ġguardsmen": 20629,
    "full": 7420,
    "Ġsangu": 15503,
    "Ġboil": 16102,
    "unavoid": 14061,
    "Ġnoted": 15828,
    "finds": 19926,
    "Ġpushing": 10819,
    "Ġsailors": 4278,
    "Ġeloquence": 11840,
    "Ġcashier": 20197,
    "Ġbones": 4583,
    "estations": 22221,
    "anged": 3587,
    "doc": 23374,
    "Ġdevious": 22713,
    "Ġestate": 6316,
    "ument": 5240,
    "dataset": 23212,
    "tumultuously": 25613,
    "atha": 6572,
    "mir": 20962,
    "Ġbrewed": 23344,
    "Ġfugitives": 25634,
    "Ġembellished": 25850,
    "Ġconfidence": 6590,
    "Ġinsensibility": 17110,
    "Ġ": 225,
    "constantinople": 25507,
    "atics": 15521,
    "Ġtaste": 5524,
    "either": 6791,
    "cture": 15662,
    "constantly": 24606,
    "Ġafore": 10758,
    "Ġrevers": 21661,
    "eyes": 5684,
    "ib": 1233,
    "Ġbaw": 15566,
    "Ġgrizzled": 11449,
    "Ġblurred": 22928,
    "jub": 20928,
    "ampling": 12723,
    "type": 16174,
    "dancing": 12452,
    "Ġscorching": 20066,
    "Ġexposing": 11832,
    "Ġinterment": 22573,
    "Ġusually": 6263,
    "bourne": 19102,
    "Č": 205,
    "Ġdiffer": 18677,
    "Ġdough": 8420,
    "Ġdictated": 25218,
    "ture": 7559,
    "Ġnatur": 17333,
    "Ġinfl": 6894,
    "Ġadmitted": 8986,
    "herfield": 3629,
    "Ġplainer": 23703,
    "ult": 723,
    "Ġbur": 2702,
    "rices": 4559,
    "astonished": 15032,
    "gement": 13727,
    "ructure": 760,
    "formity": 10278,
    "iah": 14413,
    "Ġham": 3423,
    "Ġaffl": 14385,
    "voice": 7816,
    "Ġcollection": 8221,
    "achel": 7032,
    "Ġbusier": 23336,
    "Ġpowers": 5419,
    "Ġwreaths": 25937,
    "faced": 8079,
    "obscure": 23095,
    "Ï": 144,
    "Ġdi": 6525,
    "f": 74,
    "Ġejaculated": 15168,
    "Ġexchange": 15753,
    "grown": 10099,
    "later": 20952,
    "Ġunfathom": 14788,
    "infernal": 24662,
    "Ġcogn": 11001,
    "americ": 8155,
    "Ġshadows": 8012,
    "nowledge": 10289,
    "Ġhauled": 11692,
    "Ġvisiting": 10356,
    "fain": 13714,
    "Ġever": 1180,
    "Ġchat": 6560,
    "Ġplain": 2820,
    "Ġportcull": 23861,
    "Ġauthors": 10417,
    "Ġporter": 15608,
    "Ġefforts": 11802,
    "Ġsetbacks": 11062,
    "Ġwisely": 13270,
    "Ġrecommendation": 17025,
    "Ġport": 3311,
    "Ġheartfelt": 18967,
    "ocean": 12399,
    "Ġunrel": 14695,
    "Ġhumorous": 10360,
    "Ġrue": 11865,
    "unw": 14056,
    "ellation": 12747,
    "Ġninetieth": 25357,
    "Ġprejud": 6851,
    "Ġshrubbery": 18232,
    "Ġpractically": 13092,
    "Ġlogic": 13076,
    "moby": 8536,
    "ims": 7176,
    "ugging": 23288,
    "wid": 10134,
    "Ġmounts": 17806,
    "Ġterrier": 23397,
    "Ġpurport": 14581,
    "Ġalmighty": 18104,
    "Ġknees": 6928,
    "Ġtreating": 4285,
    "being": 3916,
    "Ġai": 3128,
    "aboard": 21791,
    "Ġventured": 7502,
    "ĕ": 214,
    "Ġachieves": 4379,
    "Ġfringe": 17271,
    "Ġtuesday": 9626,
    "Ġbequest": 21750,
    "Ġstacks": 18077,
    "Ġanybody": 5313,
    "Ġoriental": 9096,
    "ost": 5360,
    "philosophy": 13579,
    "¸": 121,
    ".âĢĻâĢĿ": 6739,
    "Ġhuzza": 12630,
    "Ġdardanelles": 26443,
    "disagreeable": 11162,
    "Ġmelancholy": 5606,
    "laughing": 15178,
    "Ġcounties": 23302,
    "Ġlevelled": 11283,
    "Ġwars": 17785,
    "Ġdrag": 6184,
    "derment": 22158,
    "sorrows": 17319,
    "apping": 5851,
    "Ġreserves": 19669,
    "between": 5071,
    "Ġpacket": 14892,
    "Ġconstables": 19070,
    "afric": 19178,
    "osures": 22258,
    "addition": 13383,
    "Ġdespondency": 16576,
    "Ġvengeful": 14889,
    "Ġborne": 6351,
    "Ġknot": 7011,
    "astic": 1867,
    "Ġcaulk": 25440,
    "gloomy": 25144,
    "orph": 21397,
    "atement": 17773,
    "Ġveritable": 19379,
    "so": 890,
    "Ġapprehending": 26090,
    "Ġcom": 368,
    "Ġindomit": 22952,
    "tes": 11527,
    "duct": 3507,
    "Ġsilver": 7464,
    "cept": 553,
    "Ġrendered": 5773,
    "unders": 13308,
    "Ġninety": 13600,
    "rot": 21529,
    "Ġfocus": 4238,
    "total": 17250,
    "lads": 20954,
    "fulfilment": 26025,
    "Ġvital": 9242,
    "Ġpython": 1072,
    "neat": 22459,
    "ux": 7813,
    "Ġstreamed": 14546,
    "Ġrevolver": 14899,
    "Ġdemoniac": 15063,
    "Ġimprovement": 7964,
    "Ġbohemia": 10649,
    "Ġkeenest": 12159,
    "gris": 8259,
    "Ġbefore": 810,
    "Ġpassionately": 16764,
    "Ġperv": 15988,
    "offered": 14516,
    "left": 6975,
    "Ġparad": 2846,
    "Ġvisibly": 22857,
    "Ġheart": 1597,
    "Ġlearnt": 7613,
    "Ġvulture": 17338,
    "Ġdistress": 5844,
    "imodal": 17446,
    "omnipotent": 25964,
    "Ġmine": 3178,
    "lead": 10165,
    "Ġscorn": 7901,
    "Ġbreathes": 13245,
    "Ġwert": 12553,
    "tall": 17673,
    "Ġgenerally": 4159,
    "complain": 14356,
    "Ġhumiliation": 16197,
    "Ġmusket": 12294,
    "Ġarrived": 3745,
    "Ġpeaceable": 14722,
    "Ġfireplace": 13144,
    "ot": 346,
    "Ġstepfather": 7221,
    "Ġmuster": 16120,
    "Ġtattered": 21170,
    "gered": 9275,
    "effort": 19213,
    "path": 10118,
    "Ġhungry": 10532,
    "Ġlocal": 1199,
    "ickering": 22667,
    "Ġnews": 3822,
    "Ġyonder": 7392,
    "Ġunheeded": 18261,
    "Ġ67": 19659,
    "Ġcomm": 839,
    "urring": 21702,
    "estinated": 15919,
    "ager": 6546,
    "oub": 1633,
    "Ġtowns": 11172,
    "instantly": 7507,
    "ually": 2772,
    "Ġendure": 5955,
    "miniature": 16765,
    "Ġstirs": 14916,
    "safety": 20348,
    "Ġtropical": 17066,
    "fes": 20850,
    "whaler": 20308,
    "solid": 16379,
    "itted": 2443,
    "offended": 16391,
    "Ġgalvan": 21614,
    "Ġtimely": 19593,
    "Ġordin": 16650,
    "Ġsums": 2908,
    "Ġdebility": 24272,
    "Ġmarched": 18871,
    "ilst": 8143,
    "Ġado": 7627,
    "Ġsneezing": 12245,
    "endure": 22222,
    "shrouded": 26361,
    "Ġploughing": 26259,
    "osite": 4893,
    "Ġepoch": 26472,
    "Ġdodge": 19885,
    "Ġeaves": 15673,
    "reluct": 26163,
    "Ġscraggy": 24579,
    "Ġverily": 16603,
    "bones": 8371,
    "Ġstanders": 19013,
    "Ġthey": 575,
    "Ġ96": 24592,
    "Ġpet": 4586,
    "Ġhorror": 3775,
    "Ġensemble": 1610,
    "Ġforgo": 21770,
    "Ġdigress": 24648,
    "Ġprominence": 18954,
    "Ġcocksure": 26258,
    "Ġimpetuous": 25570,
    "Ġstays": 16560,
    "Ġnarwhales": 24902,
    "consideration": 14954,
    "Ġmelted": 19620,
    "ighb": 10423,
    "Ġcondem": 6338,
    "Ġguise": 14431,
    "Ġsettee": 22918,
    "Ġhappens": 2187,
    "Ġsteep": 2895,
    "Ġthee": 2624,
    "Ġadv": 1108,
    "ament": 2441,
    "ě": 220,
    "Ġplaying": 6910,
    "orified": 21400,
    "Ġwarn": 5695,
    "Ġoptimizers": 18627,
    "Ġsentiment": 6589,
    "conceive": 16027,
    "und": 4089,
    "Ġtransformations": 3486,
    "Ġexceeding": 1580,
    "pets": 17636,
    "onness": 21253,
    "Ġhorseback": 14849,
    "Ġprovincial": 20649,
    "Ġcannon": 14153,
    "Ġbroadway": 23981,
    "Ġaccursed": 9440,
    "Ġnocturn": 18374,
    "Ġfluffy": 19362,
    "Ġgoug": 17990,
    "lik": 3918,
    "Ġoscillations": 2904,
    "spond": 5567,
    "Ġobedient": 20103,
    "Ġtax": 13815,
    "epilogue": 22097,
    "Ġblessing": 11262,
    "she": 1397,
    "pping": 1423,
    "Ġviv": 6156,
    "Ġembarr": 7447,
    "Ġwarring": 16865,
    "Ġbedroom": 7277,
    "hes": 1398,
    "Ġelias": 18634,
    "usions": 6159,
    "Ġformerly": 7494,
    "hill": 15361,
    "Ġdraught": 9845,
    "inexplicable": 25809,
    "Ġsyrian": 18354,
    "Ġunwillingness": 20030,
    "soldiers": 25911,
    "monsters": 19170,
    "judgment": 16753,
    "stop": 11634,
    "Ġdrunkard": 20176,
    "redible": 15802,
    "Ġsinners": 18949,
    "Ġferule": 24499,
    "Ġrepro": 7275,
    "fam": 5988,
    "Ġimpatiently": 8337,
    "Ġtantamount": 25625,
    "Ġbecalmed": 18086,
    "tro": 15432,
    "Ġcorresponds": 19820,
    "Ġsighed": 10337,
    "Ġran": 3345,
    "Ġemotion": 7690,
    "seem": 10227,
    "Ġstam": 18068,
    "Ġtransp": 4770,
    "returned": 7765,
    "Ġclever": 7054,
    "expectations": 24276,
    "Ġcooper": 16075,
    "Ġrecurring": 23228,
    "pride": 11209,
    "aciously": 12904,
    "Ġpersonified": 19177,
    "Ġlest": 6395,
    "Ġinhabit": 5782,
    "Ġweakened": 16823,
    "aurus": 20559,
    "rank": 21040,
    "Ġconnex": 10665,
    "Ġrev": 6988,
    "tawny": 26404,
    "owners": 16084,
    "Ġwhirling": 12246,
    "Ġslaughtered": 26584,
    "Ġutterly": 6100,
    "mediate": 16513,
    "comprehensive": 20625,
    "Ġlim": 2379,
    "Ġresounds": 22539,
    "achment": 5464,
    "Ġhams": 16612,
    "brows": 17496,
    "Ġparamount": 15876,
    "retch": 4371,
    "Ġreign": 13984,
    "ocr": 10468,
    "Ġbarbary": 24216,
    "Ġdecapitated": 20614,
    "irectly": 6940,
    "ilege": 22253,
    "Ġorganisation": 23582,
    "Ġeggs": 12340,
    "Ġ1890": 23893,
    "throw": 14097,
    "assured": 10951,
    "Ġcrawled": 17044,
    "Ġanswerable": 23469,
    "Ġdissu": 18550,
    "Ġgathering": 14977,
    "Ġunflinching": 26512,
    "animation": 16979,
    "Ġsensibly": 14514,
    "ige": 12676,
    "Ġhorns": 11122,
    "allers": 22194,
    "okened": 15982,
    "ness": 853,
    "pursu": 11391,
    "deployment": 26527,
    "Ġduration": 20352,
    "loat": 8886,
    "ulgences": 21862,
    "Ġshakespeare": 20306,
    "Ġapples": 22214,
    "Ġpressing": 9260,
    "rises": 17655,
    "Ġbadge": 16683,
    "Ġoxen": 19949,
    "Ġcau": 13880,
    "Ġradiant": 16809,
    "Ġphilosop": 5057,
    "Ġprofile": 16488,
    "Ġtw": 841,
    "Ġmet": 1922,
    "Ġliterary": 25162,
    "Ġwhipping": 21713,
    "Ġchocks": 13344,
    "Ġdexter": 9700,
    "Ġincivility": 18572,
    "Ġpresentation": 14480,
    "Ġsn": 2954,
    "Ġthere": 562,
    "impul": 16555,
    "ermaid": 14295,
    "Ġdance": 4441,
    "Ġreminding": 19796,
    "Ġgeomet": 3190,
    "?âĢĿâĢĶ": 12892,
    "Ġsubur": 12954,
    "Ġnarrations": 24352,
    "Ġboy": 3024,
    "Ġsport": 6688,
    "slight": 10727,
    "nder": 20986,
    "animated": 14974,
    "achable": 14137,
    "Ġsquad": 22836,
    "Ġtore": 6530,
    "Ġinquiry": 6484,
    "itch": 10160,
    "irations": 18168,
    "Ġinequal": 21494,
    "som": 3294,
    "Ġus": 496,
    "stained": 21652,
    "âĢĿ)": 21811,
    "calling": 12447,
    "Ġintercepted": 25826,
    "Ġott": 13865,
    "separation": 25226,
    "reputable": 15516,
    "Ġimpud": 18445,
    "Ġmaintainable": 12932,
    "Ġconsequent": 18113,
    "Ġtransactions": 18482,
    "devils": 20031,
    "izens": 18135,
    "Ġrehears": 15697,
    "Ġruinous": 24633,
    "Ġag": 685,
    "Ġget": 1623,
    "Ġcha": 6853,
    "swam": 24254,
    "Ġshooting": 11161,
    "Ġch": 512,
    "sticks": 25965,
    "Ġsuppression": 22997,
    "À": 129,
    "Ġconciliating": 19048,
    "vapor": 25755,
    "fail": 17540,
    "nigh": 13762,
    "ĠĠĠĠĠĠĠĠĠĠĠĠĠĠĠĠĠĠĠĠĠĠĠĠĠĠĠĠĠĠĠĠĠĠĠĠĠ": 14615,
    "take": 4576,
    "Ġbizarre": 17871,
    "Ġbloodless": 19338,
    "Ĥ": 229,
    "t": 88,
    "ishmael": 18420,
    "attle": 4465,
    "tain": 557,
    "plague": 21950,
    "mpt": 6653,
    "Ġmagician": 25058,
    "Ġsaintly": 25931,
    "Ġoblige": 10488,
    "Ġsnorting": 23740,
    "thyself": 19297,
    "Ġkick": 5837,
    "arris": 13208,
    "Ġstruck": 3391,
    "Ġfocuses": 8649,
    "Ġanom": 12608,
    "Ġobliged": 4287,
    "Ġsphynx": 20711,
    "pip": 6654,
    "Ġwarbling": 26168,
    "Ġdeeps": 16114,
    "»": 124,
    "Ġcity": 4528,
    "Ġdupl": 9953,
    "reds": 12745,
    "Ġaccurate": 13230,
    "Ġbefriend": 18081,
    "ability": 716,
    "Ġbeam": 2884,
    "Ġchis": 11748,
    "Ġaccepted": 7750,
    "Ġman": 544,
    "dances": 17521,
    "Ġapprehen": 16829,
    "Ġtwelfth": 22675,
    "Ġreplete": 15695,
    "Ġskeleton": 5514,
    "ctic": 8441,
    "unting": 21871,
    "Ġthree": 1368,
    "wet": 15451,
    "Ġconsiderations": 9409,
    "espe": 3500,
    "Ġforgot": 4683,
    "danger": 10089,
    "Ġadjacent": 20710,
    "Ġcock": 10998,
    "Ġcapabilities": 4377,
    "Ġvalidate": 2857,
    "Ġsex": 8841,
    "Ġheighten": 19528,
    "Ġunsophisticated": 25992,
    "**:": 4737,
    "Ġunctuous": 10266,
    "ellative": 21942,
    "Ġexulting": 20257,
    "Ġswinging": 7449,
    "itching": 21333,
    "Ġwhine": 21712,
    "Ġdarling": 12601,
    "monograph": 23525,
    "Ġactuated": 18545,
    "Ġtrag": 13037,
    "antarctic": 22096,
    "Ġtorrid": 25032,
    "Ġfields": 2144,
    "Ġclo": 6044,
    "Ġchilly": 25562,
    "Ġroofs": 16985,
    "rie": 2788,
    "Ġpurchase": 12257,
    "woman": 5898,
    "Ġswandam": 11088,
    "Ġnimble": 21525,
    "Ġexamination": 8004,
    "Ġcaptain": 1606,
    "Ġmoment": 990,
    "partiality": 13159,
    "Ġassailants": 20447,
    "Ġfut": 15572,
    "Ġhanded": 8216,
    "bug": 17492,
    "rics": 13035,
    "Ġtwelvemonth": 12175,
    "Ġstone": 4645,
    "ensils": 22545,
    "Ġaffliction": 25844,
    "Ġingratitude": 17468,
    "heartedness": 24827,
    "Ġindoors": 18835,
    "hor": 2574,
    "Ġcolouring": 16751,
    "Ġtoilet": 13936,
    "awakened": 14452,
    "Ġframed": 19034,
    "Ġfinished": 5044,
    "match": 15389,
    "window": 7742,
    "party": 8992,
    "Ġrefer": 18704,
    "Ġunless": 4093,
    "Ġpalsied": 25779,
    "Ġbriony": 9328,
    "Ġboats": 2641,
    "Ġnin": 10187,
    "Ġknow": 631,
    "ians": 2359,
    "Ġanomalous": 25637,
    "come": 2376,
    "eyeing": 14945,
    "Ġsaints": 20673,
    "Ġnoon": 6559,
    "Ġsaws": 23046,
    "Ġwe": 387,
    "Ġrecogn": 2741,
    "learning": 2632,
    "Ġabounding": 12342,
    "Ġorgans": 15863,
    "venant": 22624,
    "dropping": 14981,
    "Ġlun": 7855,
    "Ġtarn": 21157,
    "Ġwaves": 3921,
    "pra": 15406,
    "unted": 6998,
    "fabulous": 20472,
    "dearest": 11733,
    "Ġcase": 1939,
    "Ġsurvey": 13592,
    "supportable": 12368,
    "band": 3059,
    "Ġimprecations": 25820,
    "Ġspitz": 14148,
    "Ġcharged": 9853,
    "Ġexhibition": 14956,
    "Ġwide": 4111,
    "Ġsupposed": 4558,
    "Ġpretension": 23763,
    "ructed": 7029,
    "Ġothers": 2585,
    "Ġ=": 1076,
    "Ġdeceased": 15006,
    "advanced": 19587,
    "batch": 1982,
    "Ġrecourse": 22738,
    "Ġsymmetrical": 20365,
    "thinking": 9013,
    "Ġdaggoo": 5441,
    "pulling": 25146,
    "Ġswells": 9826,
    "disaster": 23493,
    "ured": 1654,
    "Ġrecorded": 11292,
    "we": 848,
    "Ġrent": 11638,
    "cowardly": 25749,
    "Ġapr": 12529,
    "tail": 8761,
    "Ġcomposed": 8891,
    "Ġpig": 5705,
    "Ġmaddened": 17244,
    "Ġfoolscap": 24158,
    "Ġaggreg": 12881,
    "Ġcurt": 18841,
    "ott": 1871,
    "complied": 19912,
    "Ġcring": 15549,
    "Ġgest": 8133,
    "Ġtossed": 5815,
    "Ġmalacca": 24393,
    "Ġapology": 8327,
    "Ġpositional": 2598,
    "Ġsliding": 9362,
    "brushing": 20787,
    "ĠarchÃ¦": 22770,
    "Ġneurons": 975,
    "iftings": 23223,
    "iters": 21327,
    "Ġsir": 1570,
    "Ġyankees": 26201,
    "Ġalph": 9694,
    "Ġaqu": 17742,
    "Ġconflict": 17273,
    "Ġclifford": 22363,
    "Ġurging": 24505,
    "Ġconcil": 23320,
    "Ġrecl": 16138,
    "withstand": 23021,
    "Ġlingering": 11378,
    "Ġrabb": 4167,
    "Ġsixpence": 19316,
    "Ġowe": 8114,
    "Ġstruggle": 3675,
    "Ġcontrad": 9754,
    "stranded": 19224,
    "ppers": 7618,
    "Ġbars": 13896,
    "Ġvideo": 25365,
    "landlord": 9839,
    "Ġantip": 24177,
    "desire": 14473,
    "rip": 9240,
    "Ġpeterson": 9482,
    "Ġsinews": 20286,
    "stir": 12670,
    "ounds": 4160,
    "Ġvillainous": 25131,
    "ifies": 6686,
    "Ġcustom": 5078,
    "uniform": 18157,
    "Ġstability": 1361,
    "Ġports": 10818,
    "Ġpon": 10175,
    "unned": 21875,
    "Ġfowls": 8690,
    "Ġfinest": 10392,
    "Ġalgorithm": 775,
    "bask": 20775,
    "Ġexpanse": 14290,
    "Ġastonished": 7087,
    "Ġcleaning": 23178,
    "dro": 6644,
    "wich": 11542,
    "something": 4286,
    "Ġhonestly": 19970,
    "impenet": 18053,
    "Ġconcussion": 26300,
    "Ġapex": 24342,
    "Ġsneering": 24697,
    "Ġunabated": 15850,
    "Ġprank": 23217,
    "Ġsnatching": 10472,
    "_,âĢĿ": 6218,
    "iction": 4270,
    "interesting": 12199,
    "Ġdocuments": 10022,
    "Ġripples": 25505,
    "Ġunhappily": 18262,
    "Ġsche": 1703,
    "Ġhill": 5626,
    "hedge": 22496,
    "rugged": 6849,
    "Ġroyals": 19531,
    "Ġcomprehens": 8319,
    "masters": 16834,
    "worm": 15452,
    "Ġobligation": 13243,
    "oar": 12495,
    "spike": 16137,
    "pooh": 18798,
    "Ġease": 5629,
    "Ġconst": 1908,
    "Ġcontinuing": 14396,
    "Ġconnivance": 25225,
    "Ġbuilding": 8062,
    "that": 851,
    "wn": 721,
    "Ġperverseness": 13653,
    "Ġconvulsive": 19306,
    "sword": 10726,
    "eks": 4728,
    "Ġobliquely": 12360,
    "opol": 12868,
    "Ġpeeped": 10011,
    "aited": 12433,
    "Ġtusks": 17253,
    "tastes": 21095,
    "Ġcarcase": 14443,
    "gir": 8082,
    "uning": 1311,
    "clings": 23150,
    "jack": 7344,
    "Ġsim": 734,
    "emone": 21922,
    "hack": 20895,
    "Ľ": 254,
    "persecut": 22181,
    "Ġstren": 15720,
    "cruet": 17026,
    "Ġcheat": 19020,
    "Ġsequential": 2133,
    "Ġchange": 1994,
    "application": 12361,
    "ject": 875,
    "Ġapiece": 16813,
    "official": 24914,
    "Ġwednesday": 9024,
    "ique": 8742,
    "mbling": 3348,
    "overed": 2858,
    "Ġbalmy": 22900,
    "solution": 14686,
    "Ġdraws": 19434,
    "ishing": 1145,
    "µ": 118,
    "etymology": 14700,
    "Ġexpectantly": 23524,
    "vocabulary": 25085,
    "Ġprevents": 2559,
    "opy": 4457,
    "Ġhomeless": 23385,
    "Ġinduce": 7762,
    "84": 15300,
    "Ġcounted": 12137,
    "Ġthirteen": 15273,
    "skirted": 24489,
    "absolute": 17122,
    "diver": 20830,
    "Ġdyspepsia": 20642,
    "Ġrural": 21964,
    "strangers": 20335,
    "ac": 741,
    "fanc": 20863,
    "Ġresource": 10992,
    "sleepy": 24729,
    "hit": 20888,
    "totally": 25417,
    "hetic": 12201,
    "darcy": 5208,
    "Ġpeev": 22690,
    "Ġencamped": 22800,
    "Ġheadway": 18792,
    "Ġcoop": 14269,
    "Ġtra": 1384,
    "dress": 17520,
    "Ġhome": 2029,
    "elijah": 19471,
    "Ġexperiments": 23026,
    "Ġmarry": 4417,
    "Ġparties": 7038,
    "conversation": 7122,
    "claims": 25319,
    "Ġnaked": 8126,
    "Ġpassive": 22840,
    "Ġhish": 21910,
    "Ġcongen": 10872,
    "Ġoff": 902,
    "Ġkins": 22191,
    "Ġrecognise": 12040,
    "Ġrough": 7187,
    "achine": 610,
    "Ġlimber": 16478,
    "Ġabandonment": 25603,
    "Ġblanc": 11064,
    "dismal": 23497,
    "Ġlands": 6594,
    "Ġoverwhelming": 17102,
    "Ġcit": 10783,
    "lightened": 12063,
    "Ġfollows": 7673,
    "hus": 5072,
    "Ġinsatiate": 19269,
    "loveliness": 26549,
    "cav": 17507,
    "Ġabusing": 18393,
    "Ġdebar": 24271,
    "Ġxerxes": 23409,
    "Ġstilly": 25974,
    "Ġcorrid": 9823,
    "Ġbowed": 6242,
    "su": 794,
    "E": 41,
    "cares": 24309,
    "Ġunconcerned": 20508,
    "Ġmeet": 2806,
    "Ġscared": 14191,
    "Ġfun": 524,
    "Ġconfined": 7465,
    "Ġincrease": 9369,
    "Ġbake": 21380,
    "Ġtossing": 8125,
    "courage": 17509,
    "exertion": 16014,
    "lovel": 22508,
    "Ġconvul": 13202,
    "accomplished": 17211,
    "Ġvoid": 14085,
    "Ġaffairs": 6878,
    "Ġperry": 22394,
    "Ġwave": 7576,
    "posted": 24635,
    "awn": 3838,
    "Ġadmission": 23553,
    "Ġtrample": 20326,
    "ury": 3314,
    "affect": 13211,
    "phon": 4129,
    "swear": 16918,
    "Ġsuspected": 9062,
    "Ġmonstrous": 7789,
    "Ġneskye": 21528,
    "thrusting": 20258,
    "Ġlogger": 11952,
    "Ġmutilated": 23956,
    "Ġsufficient": 2003,
    "reasoning": 9475,
    "Ġglac": 9345,
    "hibited": 17426,
    "Ġmocking": 24000,
    "thirty": 12759,
    "Ġiteratively": 3058,
    "Ġrighteous": 18945,
    "Ġhalyards": 21491,
    "Ġdiggings": 24649,
    "stars": 18019,
    "Ġsoo": 15858,
    "ugl": 23287,
    "cloudless": 20331,
    "solely": 19815,
    "Ġteacher": 22910,
    "rised": 10123,
    "Ġsimilar": 4917,
    "Ġhonoured": 9881,
    "Ġpatroness": 13509,
    "ashions": 16416,
    "Ġdilig": 8349,
    "Ġshave": 21993,
    "Ġforeboding": 20382,
    "Ġportentous": 15228,
    "sink": 11520,
    "Ġtaffrail": 15475,
    "Ġshaded": 14104,
    "Ġquote": 18466,
    "Ġbiases": 2398,
    "poling": 12217,
    "Ġsooner": 5573,
    "sus": 6228,
    "Ġreasoning": 2012,
    "Ġauthentic": 20534,
    "Ġworried": 22923,
    "holloa": 19462,
    "Í": 142,
    "Ġsurmisings": 26593,
    "discrimin": 19607,
    "Ġexempt": 21826,
    "Ġmur": 2490,
    "Ġguid": 2642,
    "Ġindicates": 3194,
    "Ġoutlast": 22310,
    "Ġgiving": 4087,
    "city": 15326,
    "establishment": 26113,
    "Ġwholly": 4446,
    "asible": 21539,
    "nurs": 20998,
    "Ġpupella": 20420,
    "Ġenv": 2819,
    "pits": 15411,
    "sive": 4146,
    "anter": 9166,
    "Ġanvil": 11595,
    "Ġnarrated": 14870,
    "Ġendeavoured": 4918,
    "Ġfrivolous": 26176,
    "Ġslumbers": 18941,
    "event": 8076,
    "Ġstatements": 7517,
    "Ġbuoyed": 20039,
    "ov": 15399,
    "lever": 2936,
    "Ġassertions": 19945,
    "before": 3115,
    "to": 714,
    "Ġgirls": 4281,
    "merc": 19280,
    "Ġrmsprop": 3357,
    "Ġansw": 2203,
    "Ġcaptains": 7457,
    "li": 1188,
    "Ġbelike": 18829,
    "iceland": 21563,
    "aning": 2254,
    "Ġprosecut": 9697,
    "Ġobservable": 25126,
    "Ġimpression": 5732,
    "8": 28,
    "alone": 10183,
    "Ġintruder": 25991,
    "Ġwaking": 11568,
    "Ġwishing": 7830,
    "convolutional": 4958,
    "iar": 2377,
    "Ġdissolved": 18554,
    "Ġdanger": 3520,
    "Ġyouth": 4263,
    "Ġdefy": 11895,
    "Ġstaid": 21735,
    "Ġindicated": 10469,
    "Ġpale": 4530,
    "Ġrestored": 7066,
    "Ġleviathan": 3291,
    "ail": 564,
    "Ġtoes": 10829,
    "Ġendeav": 2959,
    "Ġexhib": 6349,
    "Ġvouch": 15807,
    "Ý": 158,
    "Ġmonotonous": 13261,
    "Ġgrasping": 12163,
    "aloud": 17940,
    "Ġjun": 8505,
    "Ġiceberg": 14715,
    "abiding": 21790,
    "Ġilliterate": 26594,
    "Ġvultures": 25653,
    "Ġge": 1978,
    "Ġdragg": 23213,
    "Ġsurm": 7477,
    "mish": 17598,
    "Ġdepress": 14047,
    "Ġwondrous": 4735,
    "solic": 16378,
    "Ġprobed": 18733,
    "Ġrehearsed": 25971,
    "Ġspark": 6689,
    "Ġinvincible": 23480,
    "Ġdeficient": 18824,
    "Ġhurts": 19111,
    "Ġrestlessness": 23290,
    "spread": 8388,
    "Ġterra": 13115,
    "Ġspeak": 2230,
    "Ġworkman": 16268,
    "Ġwarning": 9058,
    "Ġending": 18189,
    "Ġacquaintance": 4135,
    "Ġcastor": 19425,
    "Ġrail": 7225,
    "Ġbrotherhood": 23670,
    "imagine": 19930,
    "Ġperpendicularly": 11373,
    "prises": 23811,
    "Ġhavoc": 15811,
    "intolerable": 22935,
    "wards": 1277,
    "Ġmari": 6813,
    "Ġextensive": 12941,
    "Ġtries": 9150,
    "Ġsagacious": 14970,
    "subsided": 25830,
    "Ġstigma": 25791,
    "Ġproblem": 1272,
    "ceptible": 10957,
    "footed": 19688,
    "Ġadmit": 7710,
    "reserved": 13842,
    "arpening": 21441,
    "chains": 9684,
    "ificant": 22208,
    "Ġgirdled": 19157,
    "ethics": 8877,
    "iana": 7048,
    "acc": 2535,
    "Ġforster": 5230,
    "Ġnecessary": 4472,
    "Ġpiny": 21467,
    "Ġbuy": 8299,
    "Ġdetain": 14182,
    "iness": 1281,
    "Ġrushes": 20506,
    "Ġsperma": 19049,
    "Ġ105": 24413,
    "Ġpane": 21460,
    "Ġfevers": 22203,
    "Ġembodiment": 20527,
    "Ġravines": 25831,
    "Ġbo": 795,
    "anded": 5922,
    "Ġoblique": 20168,
    "Ġconsol": 3818,
    "throne": 25657,
    "Ġunst": 18238,
    "three": 5239,
    "Ġstrife": 18614,
    "Ġaccuracy": 1071,
    "Ġpledge": 11598,
    "orable": 8119,
    "Ġinterruptions": 24186,
    "bble": 17484,
    "Ġfly": 3873,
    "Ġthis": 382,
    "Ġcomprehen": 5349,
    "Ġtelegraph": 25583,
    "follow": 5680,
    "Ġwhittling": 20698,
    "ties": 2761,
    "Ġgur": 21589,
    "Ġengrossed": 12994,
    "Ġcetace": 14987,
    "belled": 24035,
    "coun": 10686,
    "stripped": 16945,
    "Ġfoundations": 11072,
    "jabez": 20932,
    "Ġhog": 13923,
    "Ġpunct": 8660,
    "gay": 11487,
    "ceived": 1965,
    "Ġwond": 3941,
    "Ġimproper": 22745,
    "doubtless": 17002,
    "Ġburns": 16523,
    "Ġfaintly": 14914,
    "rimshander": 20656,
    "derer": 4600,
    "Ġencirc": 18731,
    "Ġpott": 21465,
    "Ġstup": 14005,
    "ports": 13773,
    "Ġforb": 11662,
    "Ġenjoys": 19448,
    "Ġlungs": 8361,
    "Ġunderstanding": 1829,
    "Ġcope": 17830,
    "Ġirregularity": 25324,
    "braces": 24658,
    "Ġrustic": 14964,
    "Ġparticulars": 5754,
    "Ġcetology": 10008,
    "ner": 1370,
    "istical": 8489,
    "Ġfrighted": 24027,
    "Ġdistribution": 2020,
    "Ġarabian": 9089,
    "Ġhim": 476,
    "Ġsubsisted": 19117,
    "Ġretirement": 25378,
    "Â": 131,
    "Ġdust": 5908,
    "Ġslope": 14460,
    "Ġscraps": 16902,
    "Ġblanched": 26282,
    "Ġter": 2052,
    "Ġbelief": 5855,
    "enet": 10152,
    "urity": 8142,
    "Ġrelish": 14383,
    "retreat": 23131,
    "Ġhope": 1791,
    "Ġxiii": 25591,
    "rained": 5162,
    "englishman": 23676,
    "Ġexplicit": 3588,
    "Ġsubmission": 22788,
    "Ġbestow": 6455,
    "Ġlimited": 23543,
    "sell": 13780,
    "Ġloud": 4701,
    "illation": 14141,
    "Ġcol": 1060,
    "Ġpatched": 16359,
    "up": 1283,
    "Ġoverjoy": 15964,
    "Ġascertaining": 17203,
    "Ġworthless": 19564,
    "Ġross": 2767,
    "Ġmeditative": 25014,
    "aution": 9386,
    "Ġappare": 12816,
    "Ġperplexity": 2758,
    "Ġcapsized": 20088,
    "Ġproblems": 2853,
    "suit": 18629,
    "Ġmultitud": 18746,
    "persons": 24174,
    "Ġunchanging": 22042,
    "Ġvancouver": 26565,
    "aped": 3764,
    "itioned": 22472,
    "Ġthink": 985,
    "Ġunremitting": 26217,
    "Ġstarry": 16923,
    "Ġcarter": 18899,
    "Ġcompan": 2173,
    "Ġmunro": 25630,
    "ang": 446,
    "Ġconvolutions": 21804,
    "Ġdrowsy": 26444,
    "Ġhigh": 933,
    "Ġkentuckian": 26342,
    "Ġmanager": 11767,
    "Ġbenefits": 4288,
    "Ġ55": 24323,
    "por": 2152,
    "umn": 5835,
    "Ġ6": 5141,
    "help": 1477,
    "darker": 24516,
    "Ġsporting": 16999,
    "Ġfry": 17879,
    "Ġgoat": 16004,
    "shortly": 12256,
    "Ġchron": 19436,
    "Ġdelivery": 18975,
    "Ġarray": 12806,
    "Ġsingularly": 12146,
    "inations": 7568,
    "finger": 10093,
    "Ġpharaoh": 26585,
    "Ġlegs": 4916,
    "culiar": 2823,
    "Ġriggers": 24156,
    "Ġelevates": 24503,
    "Ġverse": 16602,
    "\":": 9581,
    "insanity": 23066,
    "ibid": 18839,
    "Ġarctic": 12807,
    "ro": 301,
    "number": 10114,
    "Ġbath": 9658,
    "Ġswarm": 23051,
    "Ġruined": 12952,
    "istically": 14143,
    "laying": 19771,
    "Ġpetersburgh": 24228,
    "Ġpersisting": 18879,
    "Ġreconc": 9682,
    "pest": 6964,
    "Ġlightnings": 16350,
    "Ġdictator": 20152,
    "Ġeaglet": 19304,
    "Ġsolemnisation": 24113,
    "Ġjoyous": 14663,
    "engine": 18926,
    "Ġfortnight": 6200,
    "Ġmusty": 22677,
    "Ġcandour": 14672,
    "Ġreveren": 13196,
    "Ġscaled": 2106,
    "Ġpawn": 12061,
    "mock": 5174,
    "sheets": 14441,
    "Ġrecede": 25968,
    "hurriedly": 25510,
    "highly": 24764,
    "onings": 21251,
    "Ġhazarded": 25654,
    "acup": 14277,
    "Ġunrecorded": 17467,
    "Ġgoodly": 22819,
    "Ġglow": 7170,
    "dles": 11479,
    "Ġhilarious": 20297,
    "Ġvirginia": 13499,
    "umes": 10916,
    "ier": 1136,
    "Ġwondered": 11124,
    "acific": 4960,
    "Ġdipped": 15592,
    "Ġcovari": 2339,
    "grow": 10098,
    "octavo": 11384,
    "Ġsparkling": 11355,
    "Ġmonuments": 22979,
    "Ġestablished": 9069,
    "kinson": 10025,
    "mit": 4933,
    "Ġenh": 2887,
    "kerchief": 7526,
    "Ġfifteen": 6947,
    "Ġsus": 18275,
    "Ġformula": 2870,
    "Ġcad": 12565,
    "Ġshowing": 7731,
    "ings": 636,
    "lesc": 11037,
    "Ġundo": 15838,
    "Ġdelight": 2549,
    "Ġvers": 7564,
    "gs": 7338,
    "Ġmaria": 7124,
    "mix": 20973,
    "Ġseam": 3911,
    "fly": 13713,
    "Ġnautical": 17385,
    "Ġpers": 1349,
    "eleg": 20848,
    "Ġshipped": 9714,
    "sacred": 17028,
    "Ġmiz": 10777,
    "Ġterrified": 14671,
    "iability": 20919,
    "Ġhare": 5157,
    "Ġsplendour": 20223,
    "Ġpreced": 6039,
    "Ġadmirers": 19685,
    "Ġharpooneer": 3773,
    "Ġquies": 18464,
    "autumn": 23341,
    "slanting": 24558,
    "asons": 6014,
    "neglected": 25669,
    "Ġdeep": 812,
    "Ġuncovered": 23430,
    "cary": 10689,
    "social": 11021,
    "ģ": 228,
    "omon": 10206,
    "Ġinsatiable": 19271,
    "Î": 143,
    "gossip": 23402,
    "Ġthoroughfare": 16944,
    "Ġclin": 14204,
    "exam": 10975,
    "scornful": 26575,
    "Ġsymp": 4501,
    "able": 454,
    "Ġdistrust": 8203,
    "Ġappal": 18356,
    "bweb": 20790,
    "Ġsewing": 21958,
    "Ġshaved": 21999,
    "Ġdeploy": 2843,
    "Ġhearties": 18966,
    "Ġsituation": 4073,
    "Ġobey": 9518,
    "www": 17251,
    "Ġworthy": 7241,
    "Ġazores": 20192,
    "greenland": 10020,
    "Ġsibbald": 21229,
    "Ġnewfound": 22929,
    "Ġexplanation": 6692,
    "header": 11931,
    "Ġhospital": 15039,
    "civilities": 24971,
    "Ġweal": 21916,
    "Ġsedentary": 25430,
    "bergs": 18682,
    "Ġobstetrics": 24678,
    "Ġendeared": 26498,
    "Ġgoose": 5937,
    "Ġsill": 10765,
    "head": 1434,
    "nostril": 26559,
    "injured": 15131,
    "Ġforbid": 7864,
    "Ġmabel": 17323,
    "girl": 12316,
    "Ġrather": 1495,
    "Ġcompact": 2263,
    "lled": 10107,
    "mill": 13753,
    "Ġtumbled": 13405,
    "whenever": 11879,
    "aping": 8193,
    "gorith": 558,
    "Ġproper": 1378,
    "Ġchains": 8250,
    "Ġcork": 12566,
    "Ġexplored": 23517,
    "Ġcivilly": 19602,
    "Ġwigwam": 11427,
    "Ġdisquis": 22524,
    "Ġmember": 8585,
    "iogn": 20920,
    "Ġdesist": 16236,
    "sulphur": 25909,
    "Ġreadiness": 13047,
    "ego": 4037,
    "breathing": 25335,
    "Ġjing": 15942,
    "Ġeasily": 3894,
    "corner": 13396,
    "Ġmour": 6973,
    "Ġfainted": 8791,
    "preserve": 25303,
    "Ġarmy": 11739,
    "affairs": 14656,
    "Ġbegins": 7244,
    "Ġtwinkled": 14311,
    "Ġattain": 12744,
    "erne": 21268,
    "Ġcologne": 12972,
    "Ġtertiary": 15293,
    "nel": 11503,
    "antucket": 2647,
    "Ġsynthe": 26007,
    "Ġinfants": 16365,
    "Ġpoured": 8800,
    "Ġremo": 3787,
    "plentiful": 21953,
    "Ġhostile": 19938,
    "oes": 4433,
    "conspicuous": 26247,
    "Ġlose": 5028,
    "Ġblubber": 5666,
    "Ġdetermination": 9818,
    "rayed": 23562,
    "Ġtemperate": 16161,
    "mad": 5280,
    "aborate": 14021,
    "carefully": 13367,
    "Ġvic": 5237,
    "Ġtruly": 4796,
    "imet": 21703,
    "oration": 2207,
    "Ġasser": 6257,
    "cat": 15323,
    "Ġgratification": 24095,
    "seamen": 13625,
    "oe": 7553,
    "fth": 20855,
    "Ġfishers": 19352,
    "Ġthickening": 24022,
    "received": 9638,
    "Ġblunt": 11892,
    "ak": 537,
    "Ġasiatic": 20428,
    "Ġdescends": 14286,
    "Ġpropos": 7062,
    "powers": 25410,
    "Ġhermit": 15855,
    "Ġrejected": 12292,
    "Ġilliter": 23467,
    "Ġphilipp": 23882,
    "cated": 20802,
    "haven": 20911,
    "Ġtube": 15003,
    "Ġphilosophical": 26334,
    "Ġlie": 4406,
    "examine": 25477,
    "tub": 9143,
    "ĠĠĠĠĠĠĠĠĠĠĠĠĠĠĠĠĠĠĠĠĠĠĠĠĠĠĠĠĠĠĠ": 19699,
    "Ġcleat": 18946,
    "Ġlaz": 7378,
    "Ġtells": 9360,
    "shaken": 16021,
    "ined": 1259,
    "Ġvial": 10248,
    "fif": 9116,
    "Ġpledged": 20686,
    "bale": 20773,
    "pitching": 24075,
    "Ġviol": 2072,
    "retired": 11934,
    "Ġindistinct": 17407,
    "Ġwatch": 2747,
    "Ġpassengers": 13674,
    "Ġjacob": 1897,
    "Ġdisse": 18548,
    "overing": 6306,
    "Ġspecksnyder": 17402,
    "Ġimportant": 1095,
    "Ġengraved": 17081,
    "intercourse": 14638,
    "assed": 6421,
    "entreat": 17975,
    "dreaded": 25138,
    "Ġglorious": 11074,
    "Ġsermons": 20193,
    "disgraceful": 26076,
    "Ġcust": 11580,
    "Ġvon": 14080,
    "problems": 11433,
    "Ġcult": 8781,
    "fal": 17536,
    "mud": 20970,
    "Ġmightier": 18730,
    "Ġhunting": 7259,
    "Ġmalay": 24391,
    "Ġtempered": 12920,
    "Ġnursed": 16885,
    "Ġposition": 1954,
    "Ġlinear": 3434,
    "Ġmonogra": 22977,
    "Ġpeering": 8534,
    "Ġnamely": 20688,
    "Ġfamine": 16325,
    "Ġarid": 22173,
    "Ġcough": 11579,
    "ĠĠĠĠĠĠĠĠĠĠĠĠĠĠĠĠĠĠĠĠĠĠĠĠĠĠĠĠĠĠĠĠĠ": 12041,
    "Ġdiscomposure": 20377,
    "Ġcapacious": 19175,
    "ap": 546,
    "Ġrap": 14303,
    "entieth": 17978,
    "creator": 26381,
    "ode": 1454,
    "irwin": 8468,
    "Ġnamed": 6139,
    "aration": 12604,
    "Ġpipeline": 2223,
    "mariners": 19547,
    "Ġtransl": 2832,
    "Ġdecl": 3589,
    "asant": 17958,
    "Ġclams": 19987,
    "cen": 17502,
    "athans": 7433,
    "Ġveins": 8932,
    "Ġinhabited": 12183,
    "ret": 1475,
    "Ġdecline": 9286,
    "sleeve": 26108,
    "Ġlog": 1677,
    "Ġimprudence": 10297,
    "untary": 9866,
    "Ġsaving": 15885,
    "Ġplanisp": 24056,
    "Ġdoors": 6418,
    "claps": 23151,
    "Ġautonom": 10416,
    "details": 19674,
    "Ġadjusted": 23457,
    "Ġequilibrium": 4142,
    "Ġracket": 22651,
    "Ġprejudiced": 24809,
    "Ġcrockery": 24301,
    "wor": 3418,
    "Ġwatchful": 16527,
    "Ġuseless": 7037,
    "Ġbowditch": 19322,
    "riers": 18186,
    "Ġwhich": 502,
    "15": 12428,
    "Ġcontextual": 3741,
    "ribe": 1221,
    "arled": 21440,
    "Ġsombre": 18859,
    "Ġsummons": 13231,
    "Ġwreck": 7314,
    "Ġchinks": 22248,
    "hoped": 20909,
    "ceptive": 15963,
    "Ġelevated": 7318,
    "Ġdeafened": 25651,
    "Ġvaliant": 9799,
    "Ġdedication": 3217,
    "Ġbalancing": 2433,
    "office": 16390,
    "Ġidea": 2488,
    "Ġpumps": 8426,
    "Ġcows": 15550,
    "Ġembeddings": 2275,
    "byshire": 6172,
    "Ġluggage": 25957,
    "Ġsty": 6251,
    "Ġscrib": 22295,
    "audible": 17132,
    "execution": 20470,
    "oo": 7554,
    "Ġserpent": 6737,
    "larger": 24202,
    "compl": 6873,
    "Ġob": 860,
    "Ġacquiesced": 25493,
    "Ġcane": 10926,
    "Ġwords": 1322,
    "Ġsan": 7824,
    "Ġchag": 15929,
    "Ġtragic": 15254,
    "Ġauthoritative": 19560,
    "Ġle": 332,
    "Ġoutline": 15952,
    "covering": 15333,
    "Ġgratitude": 5599,
    "Ġ73": 24260,
    "Ġstates": 1852,
    "Ġhumming": 12983,
    "Ġnorthern": 7265,
    "Ġbewit": 15725,
    "Ġintellectual": 11400,
    "Ġtaking": 3253,
    "Ġunfit": 14786,
    "Ġbeliefs": 24582,
    "saved": 15430,
    "makes": 10711,
    "shone": 22445,
    "Ġjewell": 19519,
    "adagrad": 9690,
    "Ġabundant": 17154,
    "especially": 3572,
    "Ġtoma": 7373,
    "Ġaltern": 7394,
    "ories": 4753,
    "Ġwaters": 3595,
    "Ġgeor": 3389,
    "Ġdawned": 14993,
    "Ġdire": 865,
    "Ġcond": 3878,
    "Ġcondense": 21805,
    "work": 1745,
    "sterns": 23366,
    "Ġinglorious": 24424,
    "Ġeluded": 12919,
    "Ġunhappiness": 14117,
    "Ġimmeas": 18330,
    "Ġflock": 21409,
    "wled": 15453,
    "Ġcontains": 2794,
    "Ġreturns": 11924,
    "Ġimperson": 14218,
    "astonishment": 10029,
    "intense": 22933,
    "Ġabund": 8864,
    "Ġstabilizing": 3656,
    "writhed": 26080,
    "Ġmissing": 6175,
    "Ġshrine": 19530,
    "Ġutmost": 5496,
    "hall": 8084,
    "imper": 13996,
    "Ġemboldened": 22995,
    "onical": 21252,
    "inspect": 11557,
    "pointing": 12222,
    "Ġunconcern": 14116,
    "Ġobed": 8535,
    "Ġweedy": 15789,
    "ying": 1365,
    "direful": 25896,
    "Ġmouthfuls": 20645,
    "contrivance": 26316,
    "bingley": 4927,
    "Ġwhite": 1538,
    "urious": 21700,
    "Ġrevelation": 25222,
    "Ġfacts": 2288,
    "converse": 22470,
    "Ġcontinent": 14887,
    "Ġbraces": 14669,
    "blog": 19838,
    "eyed": 11485,
    "simple": 13451,
    "Ġduties": 6609,
    "Ġell": 17715,
    "Ġadmirer": 16838,
    "unalterable": 21883,
    "assumed": 22305,
    "famous": 16916,
    "Ġeulogy": 26471,
    "av": 739,
    "occ": 4483,
    "Ġamazement": 7764,
    "Ġteeth": 4170,
    "Ġrem": 956,
    "Ġaghast": 16046,
    "Ġlion": 9675,
    "Ġshrieking": 24758,
    "favourable": 12261,
    "impropriety": 21710,
    "Ġgrapp": 14100,
    "Ġsinging": 7723,
    "emper": 18181,
    "Ġsignificance": 13279,
    "Ġselection": 18204,
    "caps": 20806,
    "revolver": 25627,
    "Ġsuspects": 16890,
    "Ġmrs": 1468,
    "Ġdeduce": 8336,
    "wedged": 24338,
    "Ġunw": 8849,
    "Ġoverheard": 11769,
    "Ġwee": 21915,
    "Ġtechnically": 12364,
    "Ġencircling": 26271,
    "idated": 11660,
    "Ġscorched": 17101,
    "circumst": 5348,
    "Ġ50": 24319,
    "pun": 9617,
    "fill": 15349,
    "swell": 17663,
    "Ġgour": 21595,
    "Ġpaus": 4300,
    "med": 1906,
    "Ġangry": 5498,
    "uted": 7593,
    "Ġbegg": 16250,
    "Ġtail": 3090,
    "disgust": 23496,
    "Ġmysteries": 11321,
    "ashing": 4824,
    "Ġfeelingly": 22992,
    "Ġpitiless": 19386,
    "Ġfet": 5807,
    "Ġseparating": 16685,
    "Ġhe": 318,
    "Ġsettling": 11061,
    "Ġwoollen": 12101,
    "Ġmerit": 9426,
    "Ġmay": 924,
    "ident": 3381,
    "Ġunfulfilled": 26509,
    "Ġprinc": 4202,
    "Ġton": 15463,
    "Ġlestrade": 5824,
    "Ġplacing": 8900,
    "Ġcreate": 2092,
    "stream": 15684,
    "Ġscores": 2718,
    "Ġreddening": 25970,
    "Ġcarved": 7946,
    "daughters": 13465,
    "<SOS>": 1,
    "observing": 25494,
    "Ġdexterous": 15147,
    "Ġnailed": 10189,
    "interested": 9505,
    "circumstantial": 24444,
    "Ġorgies": 18285,
    "Ġsidelong": 11437,
    "Ġfishing": 9662,
    "oppressed": 24824,
    "oftentimes": 19419,
    "wonders": 17143,
    "Ġlakeman": 6986,
    "jumping": 20244,
    "Ġparametric": 2396,
    "flu": 9117,
    "Ġfeatures": 1431,
    "Ġtyphoons": 20233,
    "Ġmorning": 1748,
    "Ġunkindness": 22039,
    "Ġcapric": 14576,
    "shadows": 25479,
    "retaining": 21244,
    "Ġhind": 9188,
    "Ġwrist": 8242,
    "Ġ1846": 26084,
    "Ġsuicide": 12783,
    "your": 1984,
    "Ġtowed": 11264,
    "Ġanother": 1737,
    "Ġspirit": 3723,
    "Ġreser": 5170,
    "Ġguilty": 7250,
    "irection": 2387,
    "Ġultimately": 17164,
    "isure": 6240,
    "Ġinfiltrated": 23281,
    "circumstance": 7763,
    "Ġstochastic": 3269,
    "ix": 1802,
    "Ġopenly": 8572,
    "Ġcolleg": 22852,
    "Ġphantoms": 13485,
    "quished": 21851,
    "tackle": 17320,
    "arabian": 26446,
    "Ġunshored": 25813,
    "Ġhorseman": 19606,
    "inburgh": 15489,
    "Ġburg": 23654,
    "Ġremarked": 3695,
    "etimes": 1987,
    "Ġencoun": 4510,
    "Ġtombed": 25160,
    "Ġthreads": 13116,
    "Ġlifts": 25358,
    "uity": 12515,
    "velled": 9875,
    "hilar": 25081,
    "Ġhearth": 11980,
    "Ġinter": 729,
    "Ġdiscovers": 4427,
    "Ġexter": 7397,
    "Ġindestructible": 26572,
    "ignominious": 26587,
    "tle": 2410,
    "Ġsnail": 19299,
    "locked": 7678,
    "Ġencaps": 12959,
    "Ġcircumnavigation": 20398,
    "seemed": 4305,
    "Ġcheerless": 16694,
    "Ġconcerned": 5331,
    "Ġphantom": 8706,
    "ase": 1159,
    "tormented": 13644,
    "Ġsqueaking": 26274,
    "shipmates": 11926,
    "Ġenraptured": 26500,
    "Ġserious": 4323,
    "Ġsally": 15501,
    "Ġsplin": 8618,
    "Ġbasic": 24701,
    "Ġouthouse": 22311,
    "Ġtestified": 16333,
    "Ġguernsey": 9350,
    "expl": 9282,
    "Ġbun": 6006,
    "garn": 20869,
    "coal": 12023,
    "adr": 6994,
    "iverse": 13114,
    "Ġphilistines": 26082,
    "Ġsympathetic": 17358,
    "erce": 6126,
    "Ġhen": 3503,
    "cocks": 23560,
    "Ġbush": 23335,
    "inously": 21185,
    "uteronomy": 15661,
    "ece": 17531,
    "large": 6625,
    "Ġkinds": 14504,
    "Ġchink": 15930,
    "Ġbreaks": 13184,
    "atigable": 15269,
    "flames": 14711,
    "roc": 9674,
    "stones": 11635,
    "mered": 8217,
    "character": 6331,
    "Ġcoiling": 12902,
    "Ġforts": 21769,
    "frau": 15088,
    "ader": 14011,
    "Ġchoosing": 19589,
    "Ġalas": 5921,
    "alluring": 18352,
    "Ġmayhap": 18709,
    "Ġt": 261,
    "Ġhunch": 18934,
    "Ġstrangers": 8313,
    "Ġclust": 9273,
    "Ġprefers": 20512,
    "Ġriots": 23890,
    "Ġenjoined": 18191,
    "degree": 12798,
    "Ġdespite": 19351,
    "!âĢĶ": 2456,
    "Ġaccomp": 4713,
    "rib": 1945,
    "houn": 20892,
    "Ġabandon": 12255,
    "Ġleave": 2459,
    "Ġduke": 7755,
    "laden": 14928,
    "idge": 14013,
    "Ġattention": 1174,
    "Ġloungers": 24862,
    "Ġinsulted": 14991,
    "involved": 25626,
    "Ġfearfully": 23511,
    "Ġglobe": 6076,
    "ology": 1592,
    "Ġchrysalis": 26538,
    "Ġenjoying": 11233,
    "top": 4484,
    "ark": 850,
    "Ġreproached": 24891,
    "Ġmurmur": 14589,
    "Ġtangled": 13826,
    "Ġducking": 17146,
    "istence": 2313,
    "Ġelimin": 16105,
    "Ġteaches": 18803,
    "iliation": 10859,
    "asse": 15642,
    "Ġpeter": 10535,
    "Ġsavory": 23874,
    "Ġgrind": 18734,
    "Ġfossiliferous": 25609,
    "Ġunsettled": 14122,
    "Ġlikewise": 5386,
    "Ġgoverning": 2797,
    "benevolently": 25600,
    "gives": 15356,
    "inguished": 6598,
    "Ġstile": 21732,
    "Ġcurrents": 13011,
    "Ġrelied": 16193,
    "kin": 7131,
    "prob": 7069,
    "Ġrecept": 1524,
    "Ġmeat": 8151,
    "Ġlod": 4044,
    "Ġwings": 9163,
    "Ġhamp": 12627,
    "Ġune": 4598,
    "Ġcrate": 19122,
    "doub": 6223,
    "Ġeyel": 17096,
    "Ġinconvenient": 20008,
    "Ġfac": 6381,
    "Ġflamingo": 15099,
    "execut": 13654,
    "Ġimprovements": 14509,
    "Ġcylinders": 25943,
    "week": 12928,
    "Ġsleepless": 14582,
    "ifferent": 4264,
    "Ġstarbuck": 2192,
    "Ġskilful": 25837,
    "Ġofficio": 23813,
    "deliberated": 26118,
    "securer": 25602,
    "Ġten": 2385,
    "Ġwhitewashed": 14468,
    "arding": 22154,
    "Ġcolony": 18765,
    "problem": 25244,
    "Ġproxim": 3199,
    "Ġbarrens": 25501,
    "Ġdefend": 9339,
    "achus": 18283,
    "Ġcuriosities": 26288,
    "Ġoak": 6128,
    "glim": 19363,
    "Ġfogs": 25282,
    "snatched": 24850,
    "aimed": 3955,
    "omitted": 18016,
    "Ġobtained": 7432,
    ".;": 20743,
    "ships": 5486,
    "Ġbent": 5149,
    "Ġgetting": 4067,
    "Ġoppress": 13171,
    "through": 4026,
    "romising": 18233,
    "parable": 16395,
    "Ġunintelligible": 26514,
    "imen": 12683,
    "Ġlifted": 6985,
    "urmount": 13995,
    "shr": 10978,
    "perseus": 26005,
    "Ġstumbling": 21742,
    "Ġfatigued": 13464,
    "Ġpurely": 12229,
    "if": 376,
    "Ġdiary": 24739,
    "Ġapologies": 25196,
    "Ġsprinkled": 19495,
    "Ġpilot": 5984,
    "Ġjesty": 18400,
    "dig": 4929,
    "Ġportents": 14679,
    "Ġ52": 24321,
    "Ġcorrespond": 6209,
    "continu": 5501,
    "Ġcomparatively": 9489,
    "Ġquicker": 16508,
    "governed": 25405,
    "Ġbesee": 19242,
    "Ġtransc": 12861,
    "ureau": 10226,
    "Ġmicroscopic": 26373,
    "Ġgasping": 17038,
    "Ġspoon": 22131,
    "deliber": 17425,
    "Ġswaths": 23055,
    "shoe": 14966,
    "Ġwandering": 8653,
    "Ġconvict": 23744,
    "Ġcommonplaces": 16287,
    "Ġcowardice": 17032,
    "Ġpier": 7162,
    "ishes": 6523,
    "igan": 21695,
    "Ġauthor": 4375,
    "lose": 12879,
    "wil": 8395,
    "Ġmassive": 9931,
    "Ġbetween": 790,
    "Ġthread": 14539,
    "Ġsoftware": 18918,
    "Ġaddu": 22099,
    "Ġther": 17778,
    "Ġbeliever": 25845,
    "Ġsavesoul": 26227,
    "Ġrecom": 4553,
    "counters": 25397,
    "Ġbashee": 19848,
    "Ġsnodhead": 19301,
    "Ġbonds": 17869,
    "lighter": 20958,
    "depend": 9112,
    "Ġpath": 2114,
    "Ġperilous": 7768,
    "Ġsaith": 14155,
    "Ġrot": 10966,
    "Ġrelating": 2709,
    "Ġje": 4125,
    "Ġrecords": 12193,
    "discharging": 26305,
    "umphed": 23516,
    "Ġduplicates": 17216,
    "kshire": 13745,
    "Ġjenkinson": 11430,
    "Ġbathed": 17865,
    "Ġprocedural": 12029,
    "Ġreached": 4025,
    "Ġaccommod": 14212,
    "ench": 21278,
    "Ġgrate": 12961,
    "scor": 13017,
    "cavity": 26126,
    "since": 5894,
    "duodecimo": 16000,
    "iffe": 21899,
    "Ġardu": 22175,
    "Ġraptures": 13496,
    "Ġprincess": 23222,
    "sideways": 14572,
    "uns": 21867,
    "Ġnearing": 15792,
    "ers": 406,
    "Ġwonder": 2117,
    "Ġcreaking": 14328,
    "may": 3679,
    "Ġdiscoverers": 26036,
    "Ġmermaids": 26170,
    "Ġvices": 14082,
    "Ġresemblance": 7973,
    "Ġstained": 11651,
    "Ġused": 2061,
    "Þ": 159,
    "Ġnantucketers": 9894,
    "Ġupward": 9720,
    "Ġnoses": 18372,
    "ement": 1503,
    "rously": 17654,
    "promote": 24727,
    "dread": 8728,
    "Ġdisenc": 22523,
    "seated": 11671,
    "Ġbouquet": 20682,
    "Ġcarving": 14442,
    "roots": 15640,
    "Ġmoist": 9284,
    "tfordshire": 4811,
    "aulets": 18619,
    "Ġrat": 4354,
    "Ġhusbands": 16642,
    "perplex": 18341,
    "https": 11682,
    "leful": 17842,
    "Ġdifference": 1490,
    "wail": 21124,
    "Ġfris": 23254,
    "Ġvol": 4192,
    "learnt": 23557,
    "consult": 24169,
    "Ġhermits": 22071,
    "Ġgenerates": 3663,
    "Åĵuvre": 25887,
    "impl": 21704,
    "usive": 8189,
    "Ġstars": 6149,
    "Ġhaught": 10252,
    "mat": 2197,
    "Ġbrill": 8549,
    "ortal": 6265,
    "groom": 8739,
    "Ġv": 399,
    "oke": 1859,
    "Ġpersecut": 16952,
    "Ġmost": 1019,
    "Ġtaurus": 21177,
    "Ġlionel": 25286,
    "iless": 10281,
    "Ġharbor": 10026,
    "thousand": 5547,
    "Ġfoe": 7680,
    "Ġpositives": 4318,
    "extreme": 11027,
    "Ġtoward": 17946,
    "jacket": 12290,
    "whose": 6852,
    "ö": 183,
    "Ġline": 1850,
    "mp": 3726,
    "oboam": 9357,
    "Ġcongratulate": 9063,
    "Ġextend": 18691,
    "sleeves": 26109,
    "uts": 8815,
    "rushed": 10584,
    "Ġprotruding": 16658,
    "third": 8167,
    "Ġblazing": 11894,
    "Ġclumsy": 9579,
    "note": 14339,
    "Ġcareful": 2613,
    "situ": 9621,
    "ograph": 4797,
    "prince": 23812,
    "Ġbravest": 23838,
    "Ġeurope": 8061,
    "draught": 12087,
    "Ġenforced": 21935,
    "Ġforbe": 8457,
    "Ġlam": 21546,
    "Ġindu": 5293,
    "Ġstern": 4225,
    "Ġcompetent": 11814,
    "elizabeth": 1986,
    "delay": 16698,
    "Ġtumble": 16879,
    "Ġpawnbroker": 13657,
    "Ġmild": 4149,
    "Ġshuddering": 9051,
    "home": 7341,
    "Ġinsane": 19268,
    "Ġhappier": 10359,
    "ahawk": 23315,
    "ory": 1082,
    "ele": 9114,
    "Ġservices": 11216,
    "Ġsitu": 3496,
    "ckles": 22086,
    "Ġsoaked": 15859,
    "Ġsensitive": 13198,
    "prov": 16421,
    "bel": 3839,
    "Ġeffected": 14360,
    "Ġsubaltern": 22789,
    "Ġmusky": 19380,
    "Ġtwinkle": 12321,
    "Ġcommentaries": 20159,
    "Ġthirdly": 24143,
    "Ġincarnation": 25573,
    "irresistible": 18171,
    "Ġdiscussion": 17194,
    "creation": 14805,
    "Ġband": 5290,
    "800": 17476,
    "Ġcolonial": 22855,
    "penet": 11069,
    "fitters": 24761,
    "Ġjoists": 19231,
    "spoutings": 25001,
    "rels": 6664,
    "Ġ[\"": 19929,
    "jane": 4481,
    "Ġbrisk": 9802,
    "Ġages": 7027,
    "persecutor": 26530,
    "ways": 1441,
    "Ġtistig": 26413,
    "twain": 23699,
    "Ġscanning": 18408,
    "admire": 24943,
    "acceptable": 25184,
    "nin": 17608,
    "Ġgrooves": 16741,
    "Ġtortoise": 16908,
    "hel": 4814,
    "Ġdepos": 11007,
    "Ġdick": 3498,
    "Ġhyp": 3876,
    "evinced": 19925,
    "deli": 15343,
    "Ġsnatch": 14639,
    "Ġvivacity": 14940,
    "question": 5418,
    "Ġsanguinary": 25929,
    "Ġnightmare": 18919,
    "Ġvinc": 14084,
    "Ġautonomous": 10675,
    "looked": 6083,
    "whis": 7897,
    "Ġviolin": 16427,
    "Ġdesperately": 24656,
    "Ġsacr": 7194,
    "infliction": 25924,
    "Ġreducing": 1958,
    "Ġupset": 22150,
    "Ġminuteness": 19138,
    "Ġyawned": 15051,
    "Ġsuperlatively": 26075,
    "Ġtill": 1824,
    "Ġslight": 3120,
    "Ġafloat": 9307,
    "humour": 7499,
    "purse": 20023,
    "Ġjamming": 17264,
    "awful": 23112,
    "Ġsame": 1339,
    "Ġdolph": 12378,
    "Ġglistening": 12363,
    "Ġagreeable": 4550,
    "reigned": 21241,
    "Ġagatha": 6866,
    "entials": 22661,
    "fate": 17539,
    "Ġhesitating": 16947,
    "Ġseal": 10256,
    "Ġfain": 5808,
    "rudence": 7092,
    "Ġmoose": 22428,
    "begging": 22494,
    "ante": 11719,
    "valley": 16213,
    "Ġarriving": 19216,
    "omn": 15679,
    "Ġnails": 12645,
    "Ġdeparture": 6490,
    "Ġgilder": 21610,
    "nett": 16219,
    "Ġsister": 1474,
    "Ġembra": 6579,
    "Ġproximity": 3219,
    "Ġangles": 23587,
    "evidence": 25521,
    "Ġpossessor": 23821,
    "dropped": 12260,
    "Ġdeeply": 4717,
    "Ġloudly": 7312,
    "Ġwrap": 24594,
    "Ġreaction": 15692,
    "Ġbehav": 3540,
    "apse": 14198,
    "Ġrelieve": 8223,
    "Ġtenants": 23545,
    "urches": 12682,
    "Ġsignify": 16494,
    "Ġadvanced": 1446,
    "Ġcoleridge": 18766,
    "Ġ119": 24441,
    "Ġegress": 21620,
    "Ġjabez": 11763,
    "Ġglobu": 23269,
    "Ġ**": 4721,
    "alogue": 25159,
    "resting": 23235,
    "such": 3083,
    "murderer": 13392,
    "ilogue": 21721,
    "Ġdew": 14044,
    "Ġspoken": 4836,
    "hertfordshire": 10935,
    "Ġsentry": 19025,
    "Ġresolved": 3800,
    "Ġdiscove": 16153,
    "Ġintuitions": 17340,
    "Ġdelayed": 9517,
    "yd": 21141,
    "Ġworship": 10366,
    "Ġreleased": 2981,
    "leo": 21362,
    "Ġdr": 2827,
    "Ġexponential": 1058,
    "connected": 1308,
    "lower": 8880,
    "Ġindividuality": 14908,
    "Ġcigars": 12250,
    "Ġlombardy": 26463,
    "Ġangle": 8602,
    "disp": 7976,
    "Ġbower": 15564,
    "caused": 25519,
    "v": 90,
    "Ġshock": 6082,
    "Ġintervened": 25481,
    "Ġclamped": 18432,
    "Ġbeside": 5192,
    "glue": 17556,
    "Ġcompanionship": 14919,
    "ressed": 3025,
    "Ġderivative": 3002,
    "Ġloading": 15872,
    "Ġunlab": 3790,
    "Ġtalker": 23369,
    "Ġcreator": 7257,
    "Ġsordid": 26422,
    "ob": 1419,
    "Ġcompatibility": 2963,
    "rupt": 3210,
    "Ġdescribing": 19253,
    "Ġconsequently": 8059,
    "onel": 3091,
    "Ġrewards": 10847,
    "Ġemph": 14525,
    "extending": 22760,
    "Ġoverflowed": 20261,
    ".âĢĿ": 464,
    "sing": 5138,
    "Ġenglish": 3613,
    "accomp": 10455,
    "otam": 21795,
    "Ġspiracle": 14149,
    "etency": 21579,
    "Ġconcerning": 4070,
    "Ġmarine": 23028,
    "Ġchest": 5185,
    "kn": 5791,
    "ville": 6087,
    "Ġstupendous": 20499,
    "Ġrheum": 18214,
    "Ġeh": 6987,
    "Ġfortun": 4982,
    "Ġanoint": 25537,
    "Ġsaddest": 16662,
    "Ġdisguise": 10045,
    "exc": 5169,
    "Ġregained": 18589,
    "green": 7115,
    "Ġspiced": 22130,
    "ourselves": 9010,
    "remembered": 17350,
    "Ġmout": 17798,
    "Ġbrilliancy": 20105,
    "Ġcoincidences": 26363,
    "oup": 2016,
    "Ġprematurely": 24003,
    "leagued": 26435,
    "Ġaromatic": 25925,
    "perpetually": 20511,
    "Ġtheatre": 21277,
    "Ġ2": 2933,
    "onement": 21255,
    "rmsprop": 4520,
    "Ġago": 3137,
    "Ġlisten": 4673,
    "Ġcannot": 1665,
    "Ġwriters": 13542,
    "liable": 3821,
    "Ġvapor": 8699,
    "dun": 17516,
    "mitting": 17602,
    "Ġplanks": 5563,
    "eg": 17529,
    "meadow": 18679,
    "Ġhandling": 8912,
    "Ġaunts": 21199,
    "ten": 1554,
    "Ġdella": 21437,
    "Ġbowlines": 19321,
    "Ġtrading": 23074,
    "Ġard": 5164,
    "Ġsummoned": 9910,
    "occasional": 19575,
    "Ġcontinuously": 23202,
    "Ġappropriated": 23485,
    "izar": 14042,
    "Ġjabbering": 22290,
    "ington": 21300,
    "Ġbambooz": 26119,
    "Ġpainting": 13140,
    "blown": 25201,
    "Ġsimilarity": 3167,
    "Ġcommit": 18655,
    "Ġcor": 1320,
    "iably": 13737,
    "Ġpurposed": 23550,
    "Ġbold": 5291,
    "Ġelephants": 9863,
    "aunt": 8369,
    "announced": 19758,
    "Ġmagnus": 18957,
    "eth": 621,
    "Ġlazarus": 15028,
    "vill": 10735,
    "urable": 8923,
    "sol": 1792,
    "hering": 12811,
    "Ġmainten": 16110,
    "Ġcareer": 11117,
    "glass": 9908,
    "first": 3936,
    "Ġcrystall": 20225,
    "Ġcorporeal": 17359,
    "repro": 10770,
    "Ġsubsiding": 23432,
    "Ġdiscol": 12950,
    "Ġsepul": 14089,
    "Ġexploded": 15907,
    "Ġsubjects": 7072,
    "ama": 11676,
    "Ġlungless": 24863,
    "Ġendangered": 16302,
    "raged": 9211,
    "hotel": 20048,
    "Ġtry": 3135,
    "ackled": 22418,
    "Ġeasy": 3455,
    "Ġbehave": 23299,
    "sur": 4521,
    "rous": 3752,
    "asingly": 17960,
    "Ġhastily": 5763,
    "Ġextant": 18690,
    "Ġdisgracing": 26255,
    "Ġreported": 11978,
    "âĢĿâĢĶ": 5721,
    "================": 3722,
    "Ġguiding": 19240,
    "Ġworrying": 22924,
    "Ġalleghan": 25795,
    "Ġdeserve": 8308,
    "Ġoffice": 4965,
    "Ġturban": 23615,
    "Ġproficiency": 19191,
    "miserable": 8656,
    "sunlight": 24851,
    "Ġunhinged": 26216,
    "Ġaugment": 8691,
    "Ġsnowy": 9017,
    "Ġh": 290,
    "Ġtwo": 1045,
    "formality": 22213,
    "Ġretained": 7173,
    "Ġcomely": 21845,
    "Ġcombine": 4415,
    "Ġcomprise": 18585,
    "Ġtechni": 1715,
    "Ġ103": 24411,
    "Ġlodger": 24091,
    "quest": 4536,
    "Ġfiery": 6871,
    "erted": 7361,
    "err": 1141,
    "Ġdeportment": 22609,
    "Ġpretext": 22226,
    "Ġdoleful": 18376,
    "described": 18894,
    "attest": 23116,
    "educated": 17259,
    "Ġcannibal": 7773,
    "Ġpersist": 16271,
    "Ġposture": 24164,
    "Ġserviceable": 24718,
    "Ġvanish": 8927,
    "Ġmaker": 15540,
    "Ġticking": 25033,
    "Ġtraffic": 23081,
    "reason": 4414,
    "grass": 23411,
    "izon": 18133,
    "ics": 3260,
    "Ġbowsman": 11253,
    "Ġcomes": 3425,
    "ading": 5091,
    "Ġlizzy": 3546,
    "ibank": 6880,
    "shuff": 18489,
    "weed": 14314,
    "two": 3863,
    "Ġintelligent": 1372,
    "Ġexpress": 2193,
    "Ġparc": 10919,
    "Ġdisputes": 25825,
    "programming": 10062,
    "Ġcrown": 5287,
    "Ġ75": 19611,
    "Ġnarrower": 24354,
    "queen": 12724,
    "produ": 10720,
    "Ġpo": 737,
    "Ġhouse": 1504,
    "ah": 1834,
    "Ġcheapside": 23286,
    "Ġ16": 7926,
    "host": 5867,
    "ortunities": 15938,
    "ailing": 7021,
    "Ġsubstituting": 26326,
    "surface": 10530,
    "netherfield": 9812,
    "Ġfinally": 4666,
    "Ġwrit": 8241,
    "Ġdepartments": 24242,
    "sick": 13783,
    "insurance": 18887,
    "situation": 11436,
    "Ġspire": 18306,
    "Ġglimmering": 25240,
    "Ġabridged": 26540,
    "also": 7850,
    "widows": 25344,
    "Ġunharmed": 15138,
    "Ġautumnal": 19054,
    "Ġfowl": 11329,
    "Ġoysters": 20577,
    "Ġdorm": 4821,
    "Ġconfed": 13097,
    "Ġtending": 17724,
    "Ġminutest": 14559,
    "Ġleads": 12094,
    "Ġdeprived": 8210,
    "Ġrepugnant": 26590,
    "attachment": 13049,
    "abez": 10222,
    "Ġopening": 5045,
    "Ġsquee": 7928,
    "Ġwick": 2005,
    "Ġrhine": 12354,
    "Ġcats": 8979,
    "Ġimpressed": 8198,
    "Ġreadily": 5253,
    "Ġyork": 11664,
    "Ġadaptive": 1369,
    "Ġpotency": 14646,
    "prosperity": 20734,
    "Ġtheir": 644,
    "Ġbugs": 13647,
    "Ġleague": 6538,
    "Ġvelvet": 12396,
    "anxiety": 25155,
    "Ġbu": 3682,
    "chanced": 18809,
    "Ġdefinitions": 22941,
    "Ġrevellers": 21675,
    "fooled": 24419,
    "angular": 11721,
    "Ġannealing": 1552,
    "anx": 8783,
    "Ġelsewhere": 7712,
    "Ġconsequences": 11334,
    "Ġfashion": 4299,
    "ĠĠĠĠĠĠĠĠĠĠĠĠĠ": 22559,
    "Ġjagged": 18402,
    "Ġcontracting": 16009,
    "Ġcellar": 8058,
    "Ġgazed": 6478,
    "Ġwr": 1543,
    "Ġcivil": 4678,
    "Ġaddresses": 3769,
    "Ġchewing": 23283,
    "Ġzoned": 22817,
    "Ġwharf": 9559,
    "Ġexcellence": 11450,
    "Ġneur": 813,
    "deserted": 18959,
    "hib": 15366,
    "Ġembodied": 25848,
    "ag": 377,
    "Ġunde": 11710,
    "Ġstrategies": 1840,
    "Ġinfluence": 5515,
    "Ġalley": 15733,
    "iron": 3441,
    "Ġmaintains": 2147,
    "flying": 13720,
    "folly": 20861,
    "Ġunit": 1848,
    "injury": 25213,
    "Ġdivision": 19442,
    "Ġoverhead": 11768,
    "Ġvelv": 10619,
    "pier": 17635,
    "Ġknave": 11271,
    "Ġinduced": 8670,
    "ħ": 232,
    "icide": 11616,
    "Ġleadenhall": 16628,
    "mency": 18925,
    "pleasanter": 24046,
    "olera": 21823,
    "ulpt": 10884,
    "Ġpermanently": 25473,
    "Ġconfided": 19038,
    "Ġissuing": 16948,
    "Ġprovide": 7749,
    "Ġpleasure": 2699,
    "ben": 4926,
    "Ġwriter": 11943,
    "inkles": 7426,
    "Ġneighbor": 25803,
    "welcomed": 24644,
    "Ġconstable": 19068,
    "Ġ95": 19772,
    "eps": 12787,
    "Ġbowl": 11203,
    "Ġformless": 22825,
    "maged": 15392,
    "Ġpassages": 12967,
    "Ġcrab": 13143,
    "estone": 18363,
    "Ġexcellent": 4240,
    "Ġwer": 12549,
    "ĠâĢĶâĢĶ": 25757,
    "behind": 6779,
    "ackinaw": 22419,
    "reg": 2183,
    "Ġfortitude": 9885,
    "Ġeffects": 7236,
    "ssing": 3811,
    "ß": 160,
    "guard": 12126,
    "Ġborrowed": 17229,
    "Ġloft": 5642,
    "uber": 15444,
    "dispositions": 25011,
    "Ġgover": 2463,
    "Ġsafe": 5103,
    "Ġvexatious": 19780,
    "Ġhumorously": 18778,
    "Ġrefuse": 5739,
    "Ġfoolish": 5979,
    "Ġsymmet": 11745,
    "trick": 19411,
    "Ġnarration": 13503,
    "Ġhark": 8427,
    "Ġpant": 10817,
    "Ġrod": 9279,
    "alizing": 17939,
    "Ġbrotherly": 16528,
    "accents": 19210,
    "000": 2562,
    "Ġpossess": 3204,
    "Ġcorrectly": 9403,
    "clifford": 23155,
    "leather": 13889,
    "Ġconce": 3424,
    "Ġcream": 22721,
    "Ġmace": 21308,
    "professor": 17249,
    "dragging": 16609,
    "æ": 167,
    "Ġlaunched": 14925,
    "Ġharpoons": 5659,
    "fingers": 17369,
    "Ġfring": 11126,
    "cont": 2925,
    "lucifer": 25301,
    "Ġdefines": 1741,
    "iferous": 17291,
    "incredible": 16498,
    "turbaned": 24532,
    "oons": 12496,
    "Ġsquire": 16179,
    "Ġhealed": 21680,
    "geneva": 13729,
    "government": 25406,
    "azed": 9398,
    "Ġapproach": 849,
    "Ġprint": 18970,
    "Ġtigers": 25758,
    "plexy": 18575,
    "Ġlik": 2524,
    "dressing": 11480,
    "Ġberg": 24536,
    "noise": 14327,
    "Ġblinded": 13268,
    "congreg": 25398,
    ".âĢĶ": 4250,
    "Ġsilken": 16380,
    "Ġdes": 1248,
    "dependence": 17167,
    "Ġcurves": 18843,
    "Ġholiest": 18812,
    "Ġpreyed": 18366,
    "Ġpursuers": 13224,
    "furthest": 19840,
    "Ġsuccession": 12099,
    "Ġpunch": 9954,
    "Ġhighway": 14347,
    "Ġbeware": 8827,
    "gled": 10699,
    "Ġbalmoral": 16206,
    "correct": 24483,
    "Ġresolving": 9418,
    "Ġescaping": 13134,
    "ivers": 1983,
    "Ü": 157,
    "Ġslewed": 23383,
    "Ġramadan": 9575,
    "Ġdiet": 13909,
    "Ġnatives": 17950,
    "unexpected": 15775,
    "Ġdiagon": 24740,
    "wearing": 22684,
    "Ġpuzzle": 11304,
    "Ġavocation": 23950,
    "Ġxxv": 19716,
    "Ġfundamentals": 14635,
    "Ġsuggestion": 19706,
    "Ġkeys": 11995,
    "leag": 21364,
    "rd": 17649,
    "bowing": 24454,
    "Ġtropics": 17067,
    "Ġbreaching": 23345,
    "yes": 984,
    "jet": 13741,
    "Ġcuriosity": 2445,
    "Ġst": 333,
    "salesman": 20670,
    "Ġdecanting": 22440,
    "Ġcreases": 22723,
    "Ġed": 2145,
    "Ġwondrously": 24063,
    "twig": 23698,
    "Ġstandard": 14496,
    "Ġcommendation": 13609,
    "Ġruss": 18720,
    "bye": 5949,
    "ren": 548,
    "Ġvinegar": 20098,
    "passing": 14811,
    "Ġdenied": 9000,
    "Ġhagger": 21488,
    "Ġdiffered": 22708,
    "Ġevaporate": 26332,
    "w": 91,
    "Ġunansw": 22055,
    "Ġmaid": 5285,
    "Ġgarn": 13962,
    "opolising": 25676,
    "Ġpresided": 20206,
    "Ġsocietal": 11435,
    "Ġjudgment": 5765,
    "Ġfamiliarity": 16729,
    "asses": 7016,
    "Ġknelt": 12156,
    "pike": 11513,
    "Ġhighest": 3529,
    "pretty": 10621,
    "Ġinsensibly": 20074,
    "Ġviolently": 6456,
    "Ġwield": 21289,
    "relics": 24012,
    "Ġcynicism": 25771,
    "Ġglued": 20587,
    "Ġplane": 11821,
    "Ġfri": 17878,
    "oot": 13764,
    "Ġdecomposes": 5506,
    "Ġunassuming": 20507,
    "Ġfra": 1796,
    "Ġfeels": 6882,
    "Ġsli": 4748,
    "Ġthrob": 21515,
    "ulls": 8837,
    "Ġsimilarly": 24308,
    "nephew": 26397,
    "letter": 6201,
    "conditional": 9078,
    "Ġensigns": 23688,
    "Ġnuptials": 20492,
    "Ġcongratulations": 10580,
    "opatra": 22474,
    "shelf": 20379,
    "Ġboom": 9309,
    "Ġmut": 3582,
    "Ġsequel": 14355,
    "hist": 7130,
    "Ġfrown": 10807,
    "emic": 18180,
    "Ġhandle": 3138,
    "ul": 371,
    "Ġsocial": 7007,
    "Ġdeny": 7489,
    "Ġinitialization": 1251,
    "Ġstrong": 1789,
    "idean": 14262,
    "Û": 156,
    "Ġpresum": 4837,
    "Ġpaid": 5015,
    "Ġfeasts": 25369,
    "Ġsensationalism": 26066,
    "Ġlye": 21548,
    "Ġweeks": 4565,
    "Ġsteadily": 8051,
    "Ġyanke": 18097,
    "Ġyale": 21776,
    "Ġrevealing": 3927,
    "boots": 11125,
    "Ġrome": 12153,
    "Ġembarrassment": 10626,
    "pure": 17626,
    "trad": 21075,
    "Ġdependen": 1828,
    "Ġbulwarks": 5592,
    "Ġprojecting": 9984,
    "oundered": 14164,
    "mopol": 15395,
    "cordiality": 25137,
    "Ġforth": 3465,
    "Ġdescrib": 2722,
    "sullen": 17669,
    "Ġimmured": 24071,
    "Ġunwelcome": 12777,
    "Ġrequ": 804,
    "impat": 11201,
    "Ġflows": 13007,
    "were": 2560,
    "iven": 1235,
    "ô": 181,
    "Ġceler": 15548,
    "pushed": 21022,
    "Ġchestnuts": 24381,
    "ances": 1333,
    "feed": 9292,
    "Ġsunbeam": 23273,
    "Ġheron": 22070,
    "Ġcrushing": 20175,
    "Ġdoubloons": 13433,
    "wide": 10137,
    "Ġpolished": 11181,
    "Ġcarries": 7674,
    "Ġanchors": 12610,
    "Ġnooks": 26011,
    "def": 1452,
    "Ġfashionable": 19543,
    "Ġmallet": 17810,
    "sacrifice": 13491,
    "sue": 2077,
    "etite": 21576,
    "supposing": 24135,
    "Ġlurking": 11288,
    "omorrah": 18017,
    "jeroboam": 25619,
    "Ġlow": 1647,
    "goes": 10426,
    "Ġsupplying": 19797,
    "Ġsoftened": 11101,
    "Ġsummers": 23871,
    "itu": 1225,
    "Ġcleaving": 23179,
    "Ġmilan": 19534,
    "search": 8464,
    "Ġanticipation": 17058,
    "Ġmob": 16015,
    "Ġnapoleons": 25885,
    "folio": 10546,
    "Ġcontent": 5034,
    "cut": 3124,
    "Ġsincerely": 7962,
    "Ġfurious": 10354,
    "rolled": 9059,
    "Ġgerman": 6141,
    "Ġdestroy": 5772,
    "Ġinterpre": 1590,
    "sold": 15425,
    "Ġadvis": 9806,
    "Ġspent": 3967,
    "Ġalb": 14015,
    "lydon": 13988,
    "Ġscenarios": 26542,
    "Ġdaybreak": 18727,
    "Ġundertaken": 18986,
    "rec": 6003,
    "Ġdictionaries": 12338,
    "daw": 17522,
    "Ġpermit": 9748,
    "pond": 21012,
    "Ġdozen": 8185,
    "Ġdies": 11591,
    "Ġnarrowed": 24355,
    "Ġnearest": 8469,
    "uttle": 6247,
    "soles": 18686,
    "Ġ1000": 3118,
    "Ġgrown": 5628,
    "Ġinstantaneously": 23660,
    "final": 19675,
    "Ġcircum": 8257,
    "lances": 15382,
    "Ġgnarled": 25165,
    "Ġpetulance": 24227,
    "Ġscientific": 6858,
    "trust": 21077,
    "ampled": 18883,
    "protection": 19919,
    "dwell": 15340,
    "Ġblan": 18816,
    "Ġdegra": 2591,
    "Ġshipw": 12976,
    "trial": 20349,
    "Ġdelusion": 18974,
    "Ġevaluation": 16588,
    "Ġmisfortune": 5569,
    "Ġostrich": 26430,
    "aphs": 22332,
    "Ġlatterly": 24084,
    "Ġassisted": 11109,
    "Ġgirth": 13135,
    "els": 1766,
    "Ġpalp": 11249,
    "Ġcreditable": 19621,
    "Ġpresumably": 19623,
    "Ġshillings": 15833,
    "Ġregard": 3067,
    "Ġlevel": 5020,
    "Ġjudged": 12081,
    "sher": 5217,
    "atus": 21259,
    "uncle": 8158,
    "Ġsunlight": 13083,
    "Ġself": 1780,
    "Ġtows": 19561,
    "Ġsource": 6805,
    "asets": 2311,
    "insufferable": 21191,
    "invari": 21183,
    "Ġprem": 3428,
    "Ġmanned": 9270,
    "bedded": 13226,
    "Ġwrithing": 11944,
    "Ġmuch": 923,
    "Ġfaint": 5811,
    "lott": 6650,
    "erc": 5904,
    "Ġapologized": 25198,
    "Ġunwilling": 7885,
    "surf": 24212,
    "Ġdispose": 23877,
    "Ġcurved": 18844,
    "Ġhold": 2244,
    "Ġjest": 18398,
    "stalk": 21647,
    "Ġshrugged": 12766,
    "elson": 16372,
    "Ġriot": 14688,
    "Ġsum": 2704,
    "Ġmethinks": 10391,
    "Ġtrotting": 19974,
    "Ġsupers": 18277,
    "whe": 1075,
    "gunwale": 20662,
    "vice": 15448,
    "Ġclutching": 24951,
    "Ġalmost": 1656,
    "Ġexpans": 18622,
    "europe": 20664,
    "Ġaffidavit": 20723,
    "Ġgo": 614,
    "instant": 8651,
    "Ġgen": 5296,
    "Ġunattended": 15841,
    "Ġrepeating": 11212,
    "intment": 4720,
    "ering": 1267,
    "Ġoppressively": 25712,
    "Ġmeasuring": 22879,
    "Ġapplying": 13090,
    "fortnight": 13085,
    "ish": 549,
    "Ġforemost": 12003,
    "Ġcompliment": 5673,
    "Ã¦us": 14816,
    ")": 13,
    "Ġ77": 24263,
    "Ġdestroyed": 5271,
    "ston": 15680,
    "Ġmodesty": 12814,
    "Ġtablets": 13154,
    "fort": 1749,
    "lifeless": 24312,
    "Ġdistingu": 2515,
    "works": 6588,
    "Ġproperties": 3119,
    "Ġanchor": 7368,
    "Ġransacked": 26504,
    "Ġinspirited": 23419,
    "Ġzeal": 9097,
    "suppose": 8644,
    "Ġdiscourage": 3117,
    "ience": 817,
    "remarks": 23186,
    "sil": 5282,
    "Ġprovoking": 16743,
    "summer": 11992,
    "_.": 2212,
    "furniture": 20241,
    "Ġhysterical": 26092,
    "Ġpiping": 23203,
    "Ġwarming": 23556,
    "Ġsand": 6235,
    "res": 2762,
    "Ġrest": 1783,
    "._]]": 5334,
    "Ġfurlong": 18740,
    "Ġelderly": 13494,
    "Ġimperial": 9480,
    "Ġsulkily": 25882,
    "subjects": 19875,
    "ipagos": 22342,
    "Ġlandlessness": 23378,
    "Ġshol": 21992,
    "moored": 22701,
    "adequate": 15202,
    "Ġkate": 15903,
    "Ġfumbled": 17881,
    "derbyshire": 18321,
    "Ġafar": 14291,
    "Ġaccorded": 24088,
    "inable": 11554,
    "rooms": 10432,
    "explain": 1480,
    "coat": 5407,
    "Ġdangerous": 6613,
    "Ġdependent": 14300,
    "Ġcrimin": 6901,
    "ugnance": 12365,
    "Ġpalpable": 15205,
    "Ġseap": 15815,
    "Ġstorm": 4302,
    "Ġtraditions": 11442,
    "Ġsickbed": 24246,
    "amed": 4447,
    "bits": 17488,
    "Ġenough": 1764,
    "Ġearl": 7676,
    "tolerable": 17688,
    "č": 206,
    "Ġlads": 8596,
    "driver": 14920,
    "Ġlithe": 24668,
    "ipelagoes": 13670,
    "Ġservant": 5764,
    "Ġteacup": 16211,
    "Ġhel": 3788,
    "regard": 7972,
    "ears": 20844,
    "ithmetic": 18061,
    "Ġnoise": 1073,
    "Ġtusked": 25426,
    "Ġdespair": 4012,
    "Ġbutt": 14125,
    "Ġproportion": 7281,
    "Ġunfair": 19506,
    "oubted": 5859,
    "Ġassuring": 13061,
    "Ġwapping": 21293,
    "five": 6356,
    "Ġstrongest": 11134,
    "Ġour": 1009,
    "aken": 1868,
    "Ġunhe": 22007,
    "Ġprobably": 4315,
    "counterpart": 26359,
    "obey": 11508,
    "Ġinstantaneous": 14612,
    "Ġsurface": 5119,
    "ernal": 4313,
    "Ġredden": 15691,
    "ough": 472,
    "plenty": 14087,
    "pshire": 21023,
    "Ġmovement": 9967,
    "Ġhulls": 13925,
    "diff": 9113,
    "Ġdecay": 1012,
    "Ġpeeled": 14317,
    "Ġbespeaking": 26310,
    "Ġbeaten": 10528,
    "Ġintroducing": 11974,
    "infant": 19826,
    "Ġcommanded": 6330,
    "disgrace": 16457,
    "Ġpendulous": 25955,
    "Ġaccompany": 9486,
    "Ġspectacles": 12095,
    "engineer": 23145,
    "imming": 9686,
    "Ġsignals": 10585,
    "Ġindies": 22948,
    "Ġtrowsers": 9627,
    "Ġsa": 474,
    "rigging": 20004,
    "Ġheav": 1851,
    "Ġacknowled": 6350,
    "Ġrad": 4962,
    "Ġprodu": 1205,
    "ig": 322,
    "forced": 11029,
    "ium": 4864,
    "Ġcombining": 22834,
    "Ġenemies": 9038,
    "Ġwarehouse": 20415,
    "Ġanswers": 7070,
    "Ġgravesend": 15215,
    "Ġcruise": 12047,
    "Ġsharpen": 13568,
    "Ġtheory": 5798,
    "reated": 10303,
    "turkish": 24533,
    "Ġso": 432,
    "Ġsocially": 22078,
    "althily": 19357,
    "Ġshrunk": 16718,
    "early": 20117,
    "ctu": 5088,
    "ilies": 18056,
    "Ġdegraded": 19225,
    "Ġrepairs": 19083,
    "Ġobeisance": 19757,
    "Ġmounttop": 19976,
    "Ġkilled": 4955,
    "madness": 14881,
    "Ġuncertain": 4069,
    "concerning": 9067,
    "Ġsilent": 3412,
    "Ġblotted": 20216,
    "Ġweeping": 11685,
    "Ġploughed": 22602,
    "Ġconcealing": 23900,
    "Ġwants": 5742,
    "ated": 725,
    "despairing": 25074,
    "Ġcaucus": 17379,
    "Ġcorresponding": 13437,
    "notwithstanding": 22750,
    "Ġsize": 1216,
    "tinted": 17683,
    "Ġ101": 24409,
    "ario": 14247,
    "Ġscholar": 26111,
    "Ġwater": 1948,
    "Ġunsupplied": 22040,
    "snowy": 20282,
    "Ġdownstream": 3777,
    "calcul": 12986,
    "Ġevince": 24293,
    "Ġsable": 15499,
    "Ġpall": 7583,
    "Ġtwentieth": 18659,
    "warrant": 21136,
    "Ġwildness": 14604,
    "£": 101,
    "Ġpresenting": 18988,
    "mosp": 8088,
    "Ġmelt": 21317,
    "Ġpriv": 4186,
    "sim": 6510,
    "Ġdedicated": 19239,
    "Ġbounded": 16626,
    "ĠâĢĺ": 1631,
    "Ġabsorbing": 17128,
    "itals": 17820,
    "bird": 9585,
    "Ġblast": 7445,
    "Ġmeasureless": 14709,
    "Ġfarmhouse": 24984,
    "Ġputting": 5326,
    "Ġrivers": 9442,
    "wling": 11543,
    "iles": 2866,
    "Ġenormous": 5609,
    "Ġrashness": 25460,
    "Ġjumped": 7096,
    "Ġdiscerning": 25002,
    "Ġrecollecting": 17113,
    "miss": 3173,
    "nonsense": 17615,
    "itancy": 21331,
    "Ġdamp": 8263,
    "Ġembell": 14419,
    "Ġfine": 1315,
    "Ġvoy": 2621,
    "Ġweighed": 8710,
    "Ġconnexion": 11453,
    "twelvemonth": 25862,
    "Ġaye": 3355,
    "Ġdeplored": 20503,
    "Ġshine": 12763,
    "bbs": 23691,
    "Ġposs": 1617,
    "Ġperpendicular": 7209,
    "forgot": 11031,
    "Ġgasfitters": 25038,
    "Ġelucidated": 26029,
    "awned": 19458,
    "Ġsluggish": 25890,
    "sufferable": 12174,
    "lier": 20948,
    "followed": 8338,
    "Ġentries": 22742,
    "Ġtreacherous": 13553,
    "Ġwaterproof": 19088,
    "Ġadopted": 15177,
    "Ġastonishment": 4794,
    "Ġdropout": 1556,
    "Ġegotistical": 26191,
    "Ġmasterly": 23991,
    "Ġcate": 4112,
    "eline": 2208,
    "mccarthy": 15394,
    "Ġextinct": 14334,
    "sust": 15421,
    "Ġinstinct": 6574,
    "retrie": 18922,
    "Ġdeceiving": 21835,
    "Ġgrunt": 18735,
    "Ġasia": 11681,
    "whaleman": 23434,
    "Ġfell": 1977,
    "hullo": 17570,
    "Ġcanallers": 13626,
    "Ġsagacity": 16974,
    "Ġextreme": 2516,
    "Ġcrossing": 7253,
    "occasionally": 13520,
    "Ġphilosophy": 7103,
    "Ġguineas": 16267,
    "say": 3986,
    "Ġworse": 4719,
    "Ġcompl": 3759,
    "gies": 13725,
    "Ġimplac": 24874,
    "Ġhugest": 17015,
    "Ġhansom": 13663,
    "dler": 13705,
    "Ġnicely": 8708,
    "Ġcamberwell": 25350,
    "Ġseemed": 1279,
    "Ġtidy": 17093,
    "ssible": 2995,
    "Ġhastening": 19335,
    "Ġast": 2965,
    "shoulder": 16582,
    "Ġcherished": 10590,
    "Ġthrows": 14736,
    "Ġresol": 2670,
    "Ġharrow": 17925,
    "twist": 23700,
    "indispensable": 14209,
    "Ġunidirectional": 3427,
    "Ġmiles": 3806,
    "judging": 24201,
    "Ġsuffusing": 23025,
    "Ġreigned": 13986,
    "Ġhon": 2539,
    "isted": 3301,
    "Ġwaldman": 11344,
    "omen": 4088,
    "Ġrejecting": 17051,
    "inquir": 9535,
    "Ġbordered": 24563,
    "Ġproverb": 12713,
    "Ġthanks": 6707,
    "Ġ550": 19640,
    "utting": 17984,
    "now": 547,
    "uction": 15442,
    "Ġstrangest": 14795,
    "Ġconsiderably": 7714,
    "powder": 17645,
    "Ġsavannah": 17415,
    "crum": 17511,
    "Ġfretfully": 25447,
    "Ġstamp": 7863,
    "Ġlull": 15648,
    "Ġglue": 15671,
    "rah": 8136,
    "cr": 4077,
    "Ġdeliciousness": 24126,
    "ney": 2494,
    "Ġmaking": 1781,
    "buffalo": 20562,
    "Ġjon": 15941,
    "approach": 24833,
    "Ġinstinctively": 13458,
    "poky": 17644,
    "Ġclattered": 22359,
    "Ā": 193,
    "examination": 25478,
    "Ġhateful": 19712,
    "Ġginger": 9210,
    "Ġundone": 24117,
    "Ġamericans": 14742,
    "Ġstumble": 26483,
    "Ġliberal": 12188,
    "Ġcelestial": 10066,
    "allest": 5485,
    "Ġhelps": 9366,
    "Ġwindings": 18909,
    "Ġalan": 10868,
    "Ġunspeakable": 10055,
    "Ġskip": 1845,
    "Ġsingular": 4423,
    "Ġcontradict": 12383,
    "Ġhimself": 1350,
    "severe": 21816,
    "Ġendeavours": 8617,
    "meantime": 9091,
    "Ġjib": 14190,
    "Ġsublimity": 26345,
    "Ġheld": 3585,
    "Ġwrung": 14469,
    "Ġpenetration": 19916,
    "erately": 21272,
    "war": 6802,
    "Ġgamb": 17997,
    "Ġ62": 24365,
    "silly": 24422,
    "sperm": 5203,
    "Ġexample": 5096,
    "Ġimpertin": 6933,
    "Ġjig": 15944,
    "Ġtoken": 2040,
    "Ġhenry": 5197,
    "Ġentrance": 7233,
    "regarding": 15070,
    "Ġevil": 3808,
    "Ġdispersed": 16597,
    "oses": 3948,
    "andam": 10887,
    "Ġdropt": 23675,
    "prehens": 9288,
    "irra": 15782,
    "Ġjogged": 26235,
    "Ġdistension": 22501,
    "Ġleisurely": 24746,
    "Ġgoblet": 25823,
    "Ġdam": 2216,
    "heaving": 21206,
    "Ġconverse": 11842,
    "Ġmid": 2617,
    "Ġprotecting": 24686,
    "Ġharbors": 24901,
    "dying": 10694,
    "Ġrear": 6535,
    "abetical": 15740,
    "erm": 786,
    "emotion": 21925,
    "Ġcasked": 24497,
    "omit": 13973,
    "lighted": 23753,
    "Ġgreater": 3038,
    "Ġmeditation": 16680,
    "consternation": 16912,
    "Ġsample": 3177,
    "Ġfurnace": 19438,
    "Ġassiduous": 26292,
    "inserted": 18886,
    "rations": 10723,
    "Ġtightly": 13533,
    "Ġinex": 6528,
    "Ġregularizer": 2340,
    "rosc": 17954,
    "Ġprocopius": 19730,
    "oil": 7805,
    "Ġstuff": 5717,
    "honey": 20904,
    "gather": 20874,
    "whiskers": 12309,
    "Ġmaelstrom": 19354,
    "zy": 2674,
    "Ġnewly": 9337,
    "Ġmoodily": 19833,
    "Ġpraises": 16730,
    "perhaps": 4124,
    "sat": 4810,
    "Ġconductor": 24004,
    "pole": 9332,
    "Ġinfluenced": 19631,
    "inement": 11556,
    "calculating": 25689,
    "Ġamel": 18510,
    "Ġsunset": 8962,
    "Ġmagnified": 23200,
    "Ġbridal": 14953,
    "Ġbranch": 8331,
    "Ġreefed": 20301,
    "Ġfishermen": 5970,
    "lance": 12479,
    "acetti": 13395,
    "Ġconsecrate": 26489,
    "nights": 16448,
    "decor": 23779,
    "Ġemblematical": 25788,
    "Ġimmens": 9938,
    "Ġrepining": 23358,
    "Ġpartaking": 22694,
    "Ġquill": 12854,
    "elaborate": 21573,
    "Ġcow": 13875,
    "perpet": 14161,
    "Ġdav": 15587,
    "Ġmediocr": 24083,
    "bless": 22309,
    "olets": 21007,
    "ulia": 18148,
    "Ġboundary": 11221,
    "Ġhears": 8138,
    "ubines": 22956,
    "esley": 17919,
    "wick": 5362,
    "idirectional": 2422,
    "Ġshowed": 4495,
    "Ġbr": 1074,
    "slipped": 25529,
    "ander": 6401,
    "Ġreview": 18030,
    "Ġdefects": 12331,
    "Ġpuzzled": 7317,
    "Ġcompressed": 21847,
    "horner": 23616,
    "excited": 13379,
    "luding": 6700,
    "Ġearthly": 7989,
    "improve": 15709,
    "increas": 10454,
    "can": 1231,
    "cain": 15325,
    "Ġqueerest": 16413,
    "Ġponder": 6819,
    "philosophers": 25252,
    "Ġgreedy": 3054,
    "Ġbirds": 5873,
    "ulous": 4449,
    "ü": 189,
    "ographical": 16786,
    "Ġmoves": 14231,
    "conclusive": 25673,
    "watery": 19825,
    "anned": 17839,
    "Ġsmoking": 6429,
    "better": 7119,
    "Ġvocabulary": 4995,
    "Ġalt": 18098,
    "Ġwent": 1537,
    "distrust": 19569,
    "Ġtrousers": 12412,
    "giving": 8738,
    "Ġindisc": 16226,
    "cripp": 20818,
    "Ġvaliantly": 22791,
    "newsp": 23130,
    "Ġfaintest": 24569,
    "Ġ110": 24435,
    "Ġdissatisfied": 14256,
    "Ġdeact": 18138,
    "Ġaround": 3610,
    "[_": 5131,
    "Ġmccarthys": 19661,
    "Ġwriting": 4667,
    "rear": 21231,
    "Ġtwelve": 4963,
    "Ġsem": 1876,
    "```": 25893,
    "Ġunderstand": 835,
    "european": 26371,
    "reflect": 19864,
    "Ġminutes": 3003,
    "Ġadversity": 24303,
    "Ġoperate": 19115,
    "Ġprouder": 18973,
    "kill": 13743,
    "Ġairth": 23317,
    "Ġunhing": 18241,
    "\"": 6,
    "Ġmetropol": 11143,
    "Ġing": 5283,
    "Ġkey": 2102,
    "Ġjudiciously": 23876,
    "Ġfrock": 10489,
    "Ġ133": 24783,
    "Ġballasted": 23977,
    "abri": 6682,
    "stayed": 25290,
    "Ġber": 5698,
    "Ġconsequence": 5542,
    "Ġtrinity": 22345,
    "inno": 10756,
    "Ġintegration": 9867,
    "Ġ0": 1901,
    "jour": 20926,
    "Ġharry": 24571,
    "Ġmystic": 7504,
    "Ġremonstrate": 22793,
    "reporting": 24494,
    "torm": 11529,
    "enormous": 26166,
    "Ġgrievances": 20647,
    "Ġconstant": 6309,
    "Ġprivately": 19522,
    "rowed": 22860,
    "Ġpyth": 21458,
    "Ġgratefully": 20443,
    "placidity": 25988,
    "Ġkindly": 6077,
    "stately": 18021,
    "Ġblew": 9045,
    "Ġcuring": 21342,
    "reck": 9636,
    "Ġterror": 5124,
    "rud": 4193,
    "hval": 20898,
    "Ġpy": 21448,
    "Ġinsignificance": 20456,
    "Ġfat": 3464,
    "Ġcurve": 22966,
    "Ġfraud": 19033,
    "sensible": 20050,
    "Ġreads": 23110,
    "Ġconviction": 6326,
    "balanced": 14555,
    "Ġparade": 18301,
    "Ġdollars": 11454,
    "yond": 2331,
    "plex": 708,
    "Ġdiscoveries": 13357,
    "including": 23589,
    "Ġforeseen": 16442,
    "hur": 6648,
    "nerable": 16275,
    "Ġkissed": 10044,
    "Ġtransfer": 2305,
    "appointment": 24058,
    "Ġrolled": 4429,
    "Ġcoaxing": 18600,
    "Ġloathed": 15873,
    "Ġimages": 1603,
    "Ġpossession": 5589,
    "anation": 5803,
    "chose": 18040,
    "eager": 12457,
    "Ġinvolving": 18754,
    "suited": 22631,
    "Ġplaus": 22596,
    "Ġpent": 17901,
    "pig": 8752,
    "Ġties": 12524,
    "Ġstupidity": 15050,
    "Ġbi": 920,
    "Ġvigilant": 20183,
    "hereditary": 26419,
    "Ġsolutions": 1947,
    "repressed": 21242,
    "Ġdesk": 11904,
    "Ġdead": 2171,
    "Ġlass": 15645,
    "loath": 22506,
    "henry": 16625,
    "Ġamphitheat": 26252,
    "Ġvalid": 1674,
    "Ġsecondary": 23334,
    "rival": 12740,
    "Ġconceals": 23901,
    "Ġowning": 18744,
    "Ġvast": 3299,
    "fing": 13712,
    "idelburgh": 10560,
    "Ġpreserve": 7530,
    "Ġimparts": 18446,
    "Ġlivery": 15995,
    "pot": 10117,
    "Ġoffering": 3009,
    "conceal": 25114,
    "Ġforeman": 23446,
    "Ġmann": 18416,
    "gird": 20878,
    "Ġbuild": 6474,
    "iors": 9125,
    "mmar": 953,
    "Ġjames": 6419,
    "Ġdiadem": 24741,
    "heeded": 13833,
    "Ġtyro": 16994,
    "vision": 5620,
    "Ġoffence": 12942,
    "Ġgle": 7858,
    "Ġrepugn": 23361,
    "Ġskulls": 12957,
    "Ġargosy": 24273,
    "Ġclub": 8873,
    "Ġmoritz": 11903,
    "Ġpanic": 11285,
    "unteered": 26495,
    "kward": 6958,
    "Ġoptimal": 1856,
    "Ġfaded": 10809,
    "Ġdocument": 15018,
    "Ġcautiously": 16977,
    "ĠĠĠĠĠĠĠĠĠĠĠĠĠĠĠĠĠĠĠĠĠĠ": 16225,
    "Ġdirecting": 16298,
    "Ġgrowing": 6750,
    "Ġflor": 8561,
    "leap": 21365,
    "isms": 12577,
    "¥": 103,
    "article": 22392,
    "disposed": 25010,
    "Ġequival": 4783,
    "Ġshrivelled": 19702,
    "thur": 7188,
    "Ġubiqu": 18046,
    "intended": 11065,
    "Ġsquint": 22837,
    "Ġgambler": 26190,
    "Ġdisgu": 8205,
    "Ġstandpoint": 23275,
    "Ġdemeanour": 17336,
    "pennies": 26285,
    "Ġjohn": 5032,
    "wish": 8099,
    "Ġhiss": 15785,
    "removing": 17764,
    "itig": 1328,
    "Ġcripp": 9653,
    "Ġgroves": 16740,
    "james": 15371,
    "ppings": 18176,
    "Ġdyspeps": 16479,
    "tenham": 16319,
    "Ġtugged": 17288,
    "Ġparm": 15875,
    "Ġ200": 19295,
    "Ġjem": 18397,
    "Ġeasterly": 25962,
    "yourselves": 24956,
    "Ġtemper": 957,
    "Ġvigil": 9506,
    "Ġinvade": 19142,
    "pictures": 15089,
    "extent": 22758,
    "wake": 11544,
    "Ġfixedly": 19247,
    "Ġwallowing": 24042,
    "Ġskiff": 16162,
    "Ġmates": 4872,
    "Ġuncontrollable": 25814,
    "Ġblankness": 24610,
    "Ġtended": 21165,
    "Ġcabman": 14606,
    "Ġrelentless": 26277,
    "Ġrudder": 25107,
    "built": 16825,
    "Ġfewer": 16223,
    "rippling": 24714,
    "pard": 9618,
    "Ġglobular": 19009,
    "Ġecstasy": 11629,
    "Ġangular": 19205,
    "Ġpublic": 4333,
    "Ġcool": 5734,
    "Ġimpulses": 19960,
    "Ġenigmatical": 20596,
    "Ġpersever": 10002,
    "holes": 12052,
    "Ġbuckle": 17033,
    "Ġstill": 1157,
    "Ġcaulking": 20292,
    "Ġsynd": 22206,
    "means": 9785,
    "wond": 8767,
    "Ġevangel": 11279,
    "beat": 10985,
    "Ġdisabled": 18561,
    "Ġtatters": 21176,
    "Ġtand": 21159,
    "Ġbulky": 13227,
    "Ġbarred": 9002,
    "extensive": 18703,
    "Ġparacels": 13666,
    "Ġprometheus": 15291,
    "Ġdoubling": 23318,
    "fish": 3516,
    "Ġinviting": 19143,
    "30": 20753,
    "lakeman": 13750,
    "Ġliking": 23590,
    "Ġimbalance": 22171,
    "Ġearned": 19403,
    "vigorous": 25917,
    "Ġpriority": 19761,
    "Ġsatin": 12987,
    "Ġprecipitous": 24835,
    "riend": 1186,
    "discovered": 8324,
    "el": 306,
    "Ġprophesied": 26062,
    "Ġhurrah": 9868,
    "Ġvib": 8164,
    "Ġintegrated": 13530,
    "Ġlowerings": 23649,
    "Ġevening": 2656,
    "Ġflint": 23006,
    "Ġcalf": 16263,
    "igating": 21696,
    "odecimoes": 25318,
    "recur": 4436,
    "Ġrummaged": 16910,
    "bring": 9104,
    ".âĢĻ": 1718,
    "meanwhile": 10609,
    "Ġdevotion": 22715,
    "Ġi": 311,
    "Ġtalks": 23368,
    "Ġshrink": 14803,
    "Ġtash": 13819,
    "amidst": 25652,
    "imate": 4223,
    "Ġchimney": 6497,
    "ellent": 3761,
    "convenient": 12235,
    "icions": 21560,
    "Ġlargest": 6282,
    "Ġsqualidness": 25842,
    "Ġcharcoal": 19006,
    "Ġgrenadier": 21613,
    "Ġrumors": 11320,
    "Ġparsonage": 7123,
    "Ġscaffold": 18409,
    "¢": 100,
    "Ġsings": 15504,
    "Ġunforeseen": 22050,
    "Ġmultipl": 2792,
    "Ġvit": 10245,
    "tch": 9141,
    "interrupt": 8615,
    "Ġjetted": 24431,
    "Ġshaped": 15832,
    "Ġconcern": 2660,
    "Ġtimes": 2302,
    "Ġcautious": 12251,
    "scratch": 26043,
    "Ġstreaked": 19113,
    "estate": 12818,
    "Ġrestrain": 8964,
    "Ġprofounder": 23568,
    "exercise": 17459,
    "Ġrussian": 14350,
    "Ġwhat": 599,
    "Ġhorrors": 10479,
    "Ġjury": 5378,
    "ip": 551,
    "Ġslumbering": 25701,
    "planks": 21951,
    "chemical": 23807,
    "Ġtour": 9147,
    "Ġmaterially": 12189,
    "Ġbat": 10795,
    "Ġbully": 23854,
    "tottenham": 25418,
    "Ġpanting": 11600,
    "Ġsquires": 16180,
    "sprang": 19989,
    "Ġexcursion": 26589,
    "Ġshivering": 10265,
    "Ġlouder": 13467,
    "eye": 6224,
    "bounded": 13438,
    "Ġfolios": 23015,
    "Ġworn": 6445,
    "Ġthoroughly": 8347,
    "Ġprincely": 24148,
    "uncommonly": 25549,
    "Ġobligations": 12089,
    "Ġcurbstone": 26042,
    "Ġnoises": 18373,
    "Ġperuvian": 18453,
    "Ġflight": 6580,
    "striving": 24669,
    "Ġdismally": 20213,
    "cases": 12445,
    "complete": 15034,
    "Ġpilgr": 12178,
    "Ġoper": 2121,
    "Ġcreat": 1440,
    "Ġenormousness": 24515,
    "Ġbrougham": 17870,
    "Ġpl": 743,
    "Ġprosperity": 20256,
    "Ġpope": 11599,
    "Ġconveying": 19713,
    "Ġarist": 14159,
    "Ġdefile": 18823,
    "grained": 20882,
    "west": 10739,
    "ications": 4444,
    "ĠâĢľâĢĻ": 22251,
    "Ġsabbath": 17254,
    "Ġsteamer": 17188,
    "sk": 5521,
    "Ġdeference": 10881,
    "aze": 10074,
    "Ġreturned": 2897,
    "hounds": 20906,
    "autions": 20766,
    "icant": 21559,
    "entropy": 1437,
    "Ġdetail": 634,
    "flood": 19805,
    "cloth": 11935,
    "Ġhours": 2822,
    "Ġoftener": 13564,
    "hend": 13251,
    "Ġdone": 1817,
    "Ġappalled": 22217,
    "Ġducks": 25157,
    "cher": 5786,
    "separ": 9230,
    "companion": 9557,
    "save": 13784,
    "oquent": 12497,
    "Ġtimber": 13348,
    "Ġcollected": 2612,
    "Ġload": 14145,
    "Ġessays": 19743,
    "Ġmusic": 5268,
    "estruct": 22220,
    "Ġpossibility": 7458,
    "kne": 20934,
    "species": 13255,
    "sentiment": 12911,
    "scale": 3535,
    "Ġoccupations": 9457,
    "Ġfollies": 16252,
    "igner": 21698,
    "Ġpassing": 4316,
    "Ġvineyards": 25106,
    "Ġdz": 4756,
    "Ġheated": 21679,
    "weaknesses": 26030,
    "flutterings": 26606,
    "Ġjones": 7203,
    "mortar": 25408,
    "Ġbeheld": 4491,
    "sequently": 14583,
    "ground": 4671,
    "intern": 23735,
    "Ġbordering": 17228,
    "Ġwashes": 21858,
    "uttermost": 24940,
    "Ġthose": 1173,
    "Ġcharitable": 23267,
    "Ġascertain": 9705,
    "fee": 12877,
    "Ġhed": 7387,
    "Ġsimil": 2533,
    "Ġlate": 3379,
    "Ġjungfrau": 15247,
    "Ġcoats": 16074,
    "Ġtopic": 9405,
    "Ġpresentiment": 18989,
    "ifts": 12732,
    "Ġthoroughfares": 26095,
    "horrible": 14601,
    "Ġpromising": 10399,
    "Ġneedless": 19228,
    "Ġcontraction": 16006,
    "Ġbackwater": 18650,
    "Ġremotest": 10051,
    "Ġreverend": 15258,
    "Ġfeelings": 2455,
    "Ġreus": 8821,
    "bad": 12434,
    "ò": 179,
    "ĭ": 238,
    "advancing": 14835,
    "proves": 23392,
    "Ġshirr": 18231,
    "Ġsymmetry": 20364,
    "Ġduring": 872,
    "Ġeager": 3570,
    "Ġburgled": 23656,
    "Ġtruce": 24115,
    "usually": 10284,
    "Ġindomitableness": 26571,
    "itics": 13871,
    "ii": 4017,
    "Ġseren": 7401,
    "gely": 10700,
    "Ġgazes": 24093,
    "Ġowner": 8921,
    "Ġfolks": 14425,
    "Ġprudent": 9184,
    "complained": 25838,
    "Ġnoiselessly": 22861,
    "burgh": 6773,
    "Ġcanaan": 22163,
    "Ġgame": 3627,
    "Ġstopped": 5956,
    "upon": 2725,
    "Ġbland": 11063,
    "hester": 9631,
    "rior": 12739,
    "Ġdisappointment": 6626,
    "-------": 20387,
    "aving": 2407,
    "Ġinvaluable": 10182,
    "ĠcÃ¦sar": 20578,
    "shroud": 20309,
    "maintained": 25020,
    "ĠĠĠĠĠĠĠĠĠĠĠĠĠĠĠĠĠĠĠĠĠĠĠĠĠĠĠĠĠĠĠĠĠĠĠĠĠĠĠĠĠĠĠĠ": 12151,
    "impart": 21706,
    "Ġsensit": 2950,
    "stalls": 26473,
    "Ġconj": 8460,
    "judged": 14830,
    "atig": 13844,
    "Ġvoyagings": 19234,
    "Ġtickets": 17094,
    "fuller": 22483,
    "Ġverdict": 13474,
    "wooden": 24587,
    "Ġslave": 7454,
    "Ġdiscrimin": 2547,
    "Ġincapable": 7423,
    "wall": 10136,
    "Ġbern": 17858,
    "_âĢĶâĢĻ": 13681,
    "Ġfortunes": 12176,
    "Ġincor": 2611,
    "Ġcommonest": 23087,
    "itional": 22471,
    "Ġinvitation": 5189,
    "islands": 21374,
    "Ġpure": 6137,
    "Ġstretching": 10014,
    "Ġtwinkling": 12322,
    "Ġheavenly": 12082,
    "Ġdragon": 14943,
    "ity": 417,
    "deceit": 25556,
    "Ġparaph": 22117,
    "attentions": 13573,
    "probability": 17022,
    "Ġyours": 4126,
    "Ġeconomically": 25288,
    "Ġcomfortably": 16615,
    "monkey": 19169,
    "Ġcoll": 8220,
    "Ġlistener": 16474,
    "Ġechoed": 20422,
    "Ġboldly": 9500,
    "Ġwedding": 4858,
    "Ġfast": 1716,
    "orn": 2243,
    "Ġswaying": 15046,
    "Ġassum": 4066,
    "rians": 21927,
    "brit": 19196,
    "Ġtrustees": 24107,
    "Ġdet": 513,
    "04": 10679,
    "Ġfleetness": 20178,
    "Ġheadlong": 11886,
    "responsible": 25763,
    "Ġlawyer": 10668,
    "Ġheadstrong": 14387,
    "Ġdesponding": 25868,
    "adjust": 21757,
    "ouch": 2781,
    "goodness": 19288,
    "Ġpattering": 18651,
    "dear": 6555,
    "proved": 11985,
    "ely": 624,
    "onian": 17767,
    "acknowledging": 25476,
    "resol": 17760,
    "sole": 6168,
    "------": 12131,
    "chosen": 21692,
    "tles": 10730,
    "Ġdisturbing": 19944,
    "adding": 21756,
    "Ġspectre": 16630,
    "!âĢĻ": 3334,
    "Ġcontrary": 5260,
    "Ġimpertinent": 9077,
    "Ġcompliments": 8632,
    "Ġcarriages": 11097,
    "Ġtheorem": 2327,
    "Ġwholesome": 16003,
    "quake": 11679,
    "nobody": 16134,
    "Ġsashes": 21224,
    "Ġsleeps": 10446,
    "apparent": 11040,
    "beds": 16585,
    "Ġilluminating": 25245,
    "Ġfuriously": 9801,
    "orate": 10800,
    "Ġresolve": 13169,
    "Ġsearching": 13161,
    "hammad": 23261,
    "_.)": 7278,
    "recognised": 15261,
    "etition": 7382,
    "Ġ10": 5249,
    "Ġrubbed": 12953,
    "Ġinferiority": 17115,
    "Ġorders": 5340,
    "betrayed": 24640,
    "Ġmeek": 21809,
    "Ġpity": 4941,
    "Ġintelligently": 3952,
    "iro": 20913,
    "kilt": 4866,
    "Ġwife": 2589,
    "Ġveter": 15809,
    "Ġheads": 3739,
    "pleasing": 14741,
    "Ġexciting": 23311,
    "Ġmasoned": 20250,
    "yl": 7818,
    "Ġwithstand": 10224,
    "Ġfug": 12592,
    "Ġbarrow": 12067,
    "Ġuniversally": 11998,
    "childhood": 16868,
    "Ġimproving": 1210,
    "Ġcocoa": 25482,
    "Ġpaul": 12060,
    "Ġmor": 1247,
    "inian": 21181,
    "Ġroof": 6564,
    "vag": 8764,
    "Ġcenturies": 8622,
    "Ġsquat": 14366,
    "Ġentic": 16144,
    "gate": 12464,
    "Ġsemicirc": 16388,
    "Ġreplay": 5047,
    "Ġrebell": 21666,
    "ees": 13710,
    "ounder": 11742,
    "Ġ18": 3407,
    "iod": 3843,
    "Ġtheories": 13848,
    "silenced": 24423,
    "Ġsaviour": 20712,
    "Ġghosts": 12230,
    "Ġtease": 18801,
    "Ġobstructed": 24677,
    "Ġgrapes": 15214,
    "Ġmerged": 19296,
    "lust": 15378,
    "ign": 1701,
    "Ġmarvellous": 7539,
    "Ġincorporate": 20453,
    "loa": 18536,
    "Ġfavourably": 16363,
    "conce": 8510,
    "paper": 9136,
    "Ġdependencies": 2316,
    "Ġelder": 7223,
    "aws": 8236,
    "relieved": 13274,
    "Ġtrappings": 23080,
    "silence": 8044,
    "Ġcorp": 5574,
    "Ġexploration": 2337,
    "Ġratio": 5066,
    "pshaw": 21027,
    "Ġhauling": 14086,
    "enchanted": 26424,
    "ternatural": 12712,
    "Ġdesol": 6881,
    "Ġvehement": 16200,
    "pursuit": 20339,
    "Ġremembrance": 8317,
    "Ġevident": 6612,
    "farmer": 25899,
    "Ġequality": 16357,
    "Ġmoreover": 6163,
    "Ġjustification": 22963,
    "Ġtakes": 5007,
    "Ġgay": 5535,
    "Ġevidence": 5269,
    "almost": 4943,
    "Ġ120": 16858,
    "Ġdevoutly": 25832,
    "Ġmostly": 7664,
    "Ġlagged": 21555,
    "Ġauger": 21202,
    "romised": 14111,
    "Ġseethe": 21960,
    "gaff": 20881,
    "Ġinattention": 17931,
    "onist": 21249,
    "bodily": 17314,
    "Ġoaths": 13523,
    "suffer": 24333,
    "sighted": 19784,
    "Ġbrut": 18768,
    "Ġlicence": 25096,
    "Ġprocession": 11775,
    "Ġwhether": 2000,
    "clearer": 24067,
    "Ġpill": 7845,
    "Ġcheese": 9376,
    "erring": 11056,
    "Ġreading": 5114,
    "leton": 5148,
    "disappeared": 14570,
    "Ġdeliber": 7268,
    "Ġ36": 14766,
    "Ġcomfortable": 6094,
    "Ġtroop": 24897,
    "Ġmary": 3847,
    "chorus": 19810,
    "Ġ*": 1274,
    "Ġiroqu": 21616,
    "Ġredoubled": 23752,
    "spout": 7922,
    "swept": 19785,
    "moderate": 22859,
    "iscre": 17850,
    "Ġremem": 4314,
    "Ġunmingled": 18263,
    "acked": 10973,
    "Ġequal": 4137,
    "eze": 20846,
    "willing": 6592,
    "Ġpraised": 19552,
    "then": 2054,
    "Ġfagged": 17882,
    "Ġopen": 1549,
    "94": 4803,
    "Ġbarbed": 14834,
    "Ġchecked": 9375,
    "Ġlaugh": 4116,
    "Ġproceed": 3245,
    "Ġcurse": 7667,
    "Ġassociate": 13449,
    "Ġlove": 2055,
    "Ġangelic": 19626,
    "leaves": 12575,
    "point": 6062,
    "itating": 9650,
    "Ġart": 748,
    "Ġcompromised": 22568,
    "Ġimbec": 14156,
    "field": 3071,
    "Ġneatly": 17016,
    "69": 17474,
    "Ġjoppa": 12034,
    "Ġconscience": 6929,
    "agings": 18165,
    "eler": 1572,
    "Ġsofa": 10269,
    "affair": 14655,
    "Ġvitality": 15171,
    "Ġdarkly": 19114,
    "Ġinsince": 23678,
    "wag": 21122,
    "ended": 1835,
    "angu": 571,
    "Ġtradesman": 20071,
    "Ġrefers": 1563,
    "plain": 1356,
    "when": 1591,
    "Ġcoachman": 15000,
    "likewise": 13104,
    "Ġramadans": 25119,
    "Ġdoran": 9179,
    "Ġgreeting": 18963,
    "Ġnuptial": 25782,
    "ogene": 18675,
    "Ġencouraged": 9354,
    "Ġsatirical": 26279,
    "Ġwarsaw": 26167,
    "Ġbody": 2438,
    "Ġsentinel": 26065,
    "Ġimprec": 14217,
    "Ġpoisonous": 24887,
    "Ġforbidden": 17078,
    "Ġspray": 7893,
    "Ġur": 5540,
    "Ù": 154,
    "Ġhalls": 19524,
    "Ġbarricade": 14660,
    "Ġbrahma": 26319,
    "Ġlabelled": 23328,
    "Ġwhichever": 13999,
    "Ġpolynesian": 26026,
    "uplifted": 17695,
    "ashed": 3786,
    "done": 6500,
    "meditated": 19067,
    "Ġindepend": 3667,
    "Ġweak": 5098,
    "Ġinward": 11605,
    "Ġmouldy": 14973,
    "Ġtake": 1578,
    "mystical": 25317,
    "Ġthrobbing": 16898,
    "Ġextravag": 11252,
    "youngest": 19742,
    "Ġmanly": 22321,
    "Ġassistants": 9451,
    "Ġhasty": 10477,
    "Ġcrimes": 8588,
    "Ġundertaking": 8573,
    "Ġprovid": 1008,
    "Ġintens": 7003,
    "trade": 19635,
    "Ġbewitching": 25976,
    "Ġcircumvent": 25064,
    "corners": 17367,
    "Ġplight": 14280,
    "quimaux": 21856,
    "Ġmartha": 16259,
    "Ġ100": 14364,
    "Ġscor": 8190,
    "Ġrenewed": 9537,
    "esting": 7412,
    "Ġunmindful": 22063,
    "Ġroast": 18458,
    "Ġlouisiana": 25076,
    "inating": 9153,
    "hairs": 20903,
    "Ġmansfield": 25938,
    "Ġprofound": 5497,
    "Ġendowed": 18924,
    "magistrate": 19862,
    "rougham": 15991,
    "abilizing": 2929,
    "bulkington": 19924,
    "isite": 15560,
    "Ġsymbol": 7716,
    "Ġwink": 11567,
    "scythes": 26402,
    "masts": 19423,
    "consequ": 18506,
    "cons": 4310,
    "Ġrecre": 22736,
    "Ġcontinental": 19704,
    "Ġstare": 10863,
    "Ġdynam": 3013,
    "Ġstag": 6148,
    "spir": 5738,
    "Ġstoried": 18075,
    "Ġimplore": 24872,
    "Ġspans": 18304,
    "Ġinscrutable": 10672,
    "Ġfiendish": 13326,
    "Ġdictating": 20151,
    "Ġmillion": 14986,
    "Ġorganically": 3014,
    "ooping": 21006,
    "Ġcentrally": 23829,
    "Ġenticing": 22743,
    "aments": 12722,
    "Ġhatch": 7847,
    "Ġice": 3603,
    "eat": 11481,
    "Ġanimated": 7701,
    "Ġhides": 16261,
    "Ġdarker": 13118,
    "rob": 5534,
    "Ġrocked": 12853,
    "Ġpanel": 13371,
    "starbuck": 6018,
    "Ġpromised": 5181,
    "Ġdescription": 7429,
    "Ġblacks": 23386,
    "Ġexcell": 10415,
    "Ġsanely": 24980,
    "Ġtusk": 25425,
    "kins": 7345,
    "police": 10583,
    "Ġfamous": 5255,
    "Ġhumbly": 16196,
    "_;": 6640,
    "readily": 19360,
    "cost": 19185,
    "Ġresponsible": 9887,
    "Ġjoyfully": 19344,
    "steaks": 23958,
    "Ġunjustifiable": 25109,
    "Ġpivot": 13922,
    "batross": 9092,
    "continuing": 24479,
    "arms": 10173,
    "Ġpro": 360,
    "compassion": 12366,
    "Ġrec": 899,
    "revenge": 13841,
    "Ġbond": 21382,
    "Ġsake": 4094,
    "chard": 21684,
    "ile": 520,
    "Ġoutset": 15953,
    "Ġdesolated": 24812,
    "Ġbottomless": 12104,
    "Ġsaturn": 22897,
    "Ġcapt": 1290,
    "Ġdoctor": 5067,
    "conc": 3949,
    "Ġlabors": 23327,
    "Ġmill": 6666,
    "ĠĠĠĠĠĠĠĠĠĠĠĠ": 12897,
    "fierce": 25255,
    "Ġanomalously": 25638,
    "Ġunsc": 22011,
    "bare": 12439,
    "Ġslappin": 18942,
    "Ġextinguish": 14336,
    "anoke": 21359,
    "vicious": 21117,
    "Ġquestionable": 19265,
    "Ġnation": 12644,
    "fav": 6646,
    "Ġunch": 18239,
    "olly": 3225,
    "Ġstirring": 10579,
    "Ġloggerhead": 13656,
    "whereby": 23416,
    "Ġbubbling": 17325,
    "Ġpow": 4637,
    "Ġsighing": 18673,
    "ional": 1084,
    "Ġarithmetic": 18338,
    "Ġentertain": 6053,
    "Ġbale": 7838,
    "Ġowen": 15093,
    "Ġbeef": 6830,
    "Ġse": 402,
    "Ġsaxon": 25468,
    "Ġexperience": 1396,
    "ulsive": 10233,
    "Ġrestraint": 15126,
    "willingly": 11981,
    "Ġshilling": 18228,
    "brew": 11472,
    "oology": 21005,
    "Ġfight": 5366,
    "iated": 5889,
    "Ġnomine": 26456,
    "Ġsurround": 4617,
    "yield": 13808,
    "idav": 18092,
    "Ġgemin": 21607,
    "``": 15305,
    "oried": 10802,
    "voyages": 24855,
    "Ġkilburn": 18351,
    "business": 5610,
    "Ġconfederate": 17353,
    "Ġgeometric": 3218,
    "Ġhosts": 19937,
    "Ġungovernable": 20708,
    "obvious": 9356,
    "Ġpaying": 9937,
    "###": 3830,
    "Ġignorantly": 19494,
    "Ġwind": 1432,
    "Ġprivileges": 25132,
    "ĠĠĠĠĠĠĠĠĠĠĠĠĠĠĠĠĠĠĠĠĠĠĠĠĠĠĠĠĠĠĠĠĠĠĠĠ": 23666,
    "Ġformation": 2947,
    "Ġgomorrah": 21612,
    "Ġperfume": 25665,
    "Ġsprang": 5064,
    "shiver": 16022,
    "Ġexpecting": 10436,
    "Ġenriched": 26499,
    "Ġfattened": 25949,
    "apan": 6860,
    "apparat": 22845,
    "Ġbenediction": 18783,
    "Ġgoin": 18469,
    "cask": 12444,
    "excepting": 19705,
    "glow": 20873,
    "Ġreveal": 11199,
    "breckinridge": 24074,
    "Ġeag": 2971,
    "Ġnewspaper": 12362,
    "Ġlowermost": 23242,
    "ĠĠĠĠĠĠĠĠĠĠĠĠĠĠĠĠĠĠĠĠĠĠĠĠĠĠĠĠ": 9974,
    "Ġargemone": 24274,
    "obviously": 25242,
    "saw": 5893,
    "Ġ99": 10745,
    "Ĝ": 221,
    "Ġsubstant": 14808,
    "id": 338,
    "idate": 21764,
    "mil": 13751,
    "Ġencounters": 19579,
    "Ġvoice": 2189,
    "fixedly": 24929,
    "Ġcoverage": 4289,
    "Ġinfrequent": 3827,
    "infallibly": 26417,
    "disc": 4729,
    "Ġdivinely": 25723,
    "Ġattentive": 9033,
    "bu": 5132,
    "]": 65,
    "bber": 4568,
    "Ġgnashed": 20131,
    "Ġclass": 796,
    "ress": 931,
    "irmed": 9238,
    "Ġdrawer": 13264,
    "bert": 4662,
    "hide": 10703,
    "Ġbattered": 17862,
    "special": 14704,
    "baden": 25615,
    "Ġlegitimate": 20641,
    "entitled": 21565,
    "fatal": 17088,
    "Ġpillows": 24986,
    "Ġpreparing": 8647,
    "mates": 5073,
    "was": 1420,
    "Ġtying": 15472,
    "recklessly": 25269,
    "Ġswarming": 16272,
    "Ġbelong": 3889,
    "deaux": 22145,
    "Ġexpectation": 6904,
    "Ġstack": 21733,
    "Ġvalleys": 14918,
    "Ġoverpowered": 15287,
    "Ġgate": 6825,
    "Ġvicissitudes": 12416,
    "igantic": 5539,
    "Ġsome": 655,
    "ilingly": 21720,
    "Ġmade": 1052,
    "ribed": 7693,
    "level": 2657,
    "ust": 498,
    "Ġinterests": 14569,
    "Ġnarrative": 6215,
    "Ġleaps": 14001,
    "exceed": 7910,
    "Ġgradu": 15830,
    "warmest": 25027,
    "ounix": 14163,
    "Ġplays": 12035,
    "Ġsuppressing": 22998,
    "Ġpanther": 16819,
    "Ġtrim": 15960,
    "Ġix": 12663,
    "tempest": 16959,
    "Ġproducing": 11897,
    "Ġheels": 10849,
    "infor": 2814,
    "Ġnavy": 14915,
    "Ġjacket": 6489,
    "Ġdisasters": 16052,
    "======================================================================": 10067,
    "Ġyarman": 12702,
    "mend": 20965,
    "Ġaffright": 9331,
    "Ġunlocked": 14119,
    "minds": 24232,
    "foreign": 18543,
    "lived": 12484,
    "Ġpassage": 3888,
    "mble": 1407,
    "Ġabominably": 20064,
    "Ġbespe": 19241,
    "uments": 5552,
    "Ġtowers": 16738,
    "Ġclaim": 5106,
    "odecimo": 11443,
    "Ġerected": 12231,
    "illed": 2625,
    "Ġprevail": 13441,
    "Ġpos": 1010,
    "used": 3263,
    "Ġpremeditated": 22231,
    "za": 13809,
    "Ġpleasantly": 14520,
    "Ġmic": 17797,
    "Ġnathan": 21523,
    "prosper": 19100,
    "Ġnightfall": 23127,
    "Ġtraversed": 18892,
    "iquet": 17575,
    "feet": 6568,
    "Ġsquared": 1381,
    "Ġarguments": 8036,
    "Ġanteced": 26177,
    "Ġreception": 9838,
    "Ġlearns": 2646,
    "Ġgrazed": 15831,
    "grateful": 10428,
    "Ġsexes": 25168,
    "Ġaccents": 14210,
    "strangely": 17276,
    "Ġintensified": 17018,
    "taffrail": 15441,
    "uary": 11536,
    "dangerous": 20239,
    "surround": 16758,
    "Ġbene": 2034,
    "Ġtormented": 8674,
    "ose": 717,
    "Ġ41": 24079,
    "Ġwillingly": 8884,
    "Ġexceeded": 14432,
    "art": 589,
    "reflected": 24733,
    "Ġhue": 8428,
    "Ġcomplimented": 14903,
    "Ġhuggins": 24828,
    "Ġproducts": 5198,
    "Ġsunrise": 9372,
    "Ġdiscu": 4364,
    "both": 5785,
    "representativeness": 25272,
    "gress": 2213,
    "Ġardour": 8042,
    "Ġinch": 7849,
    "Ġbuilded": 24719,
    "lung": 17591,
    "ois": 9134,
    "Ġbarbarously": 24819,
    "will": 1969,
    "ommod": 13976,
    "Ġsons": 10766,
    "Ġblacksmith": 6595,
    "ascending": 24707,
    "eteenth": 20156,
    "Ġdefe": 21833,
    "Ġassembl": 20059,
    "Ð": 145,
    "Ġabomin": 8188,
    "Ġmusk": 7495,
    "Ġgrinned": 16857,
    "Ġcombined": 8548,
    "recurrent": 4994,
    "rub": 15897,
    "germ": 15355,
    "indisc": 22370,
    "Ġhop": 1461,
    "oker": 10962,
    "height": 21204,
    "Ġblooming": 17212,
    "change": 6392,
    "Ġimpenet": 14219,
    "Ġbehind": 2809,
    "vult": 21112,
    "diminished": 20838,
    "usage": 12829,
    "Ġsmall": 892,
    "Ġsuccor": 25662,
    "consolatory": 25306,
    "ĠÂ£": 5006,
    "ĠĠĠĠĠĠĠĠĠĠĠĠĠĠĠĠĠĠĠĠĠĠĠ": 18831,
    "Ġdishes": 16048,
    "Ġconfusion": 7273,
    "Ġrelinqu": 12980,
    "Ġlistening": 6318,
    "Ġpoisoned": 24886,
    "Ġneedles": 11183,
    "Ġlength": 2502,
    "Ġflew": 5588,
    "bul": 6951,
    "Ġprehens": 22228,
    "Ġwith": 348,
    "itime": 15545,
    "Ġessential": 7524,
    "Ġstirred": 12215,
    "Ġleaped": 8824,
    "alleled": 14428,
    "Ġitalian": 12407,
    "Ġspringing": 10518,
    "Ġdecember": 15007,
    "rods": 21535,
    "Ġarticles": 7108,
    "increased": 20269,
    "Ġgrecian": 26296,
    "Ġphys": 5653,
    "neighbours": 24881,
    "beaut": 8512,
    "gall": 6359,
    "Ġtransplanted": 22438,
    "outh": 2692,
    "Ġacutely": 14313,
    "urs": 6989,
    "fro": 8732,
    "Ġeve": 13969,
    "complaisance": 24811,
    "Ġhobbling": 25644,
    "Ġinterest": 2248,
    "Ġwh": 328,
    "Ġvenerable": 9093,
    "Ġaffords": 16734,
    "sav": 8096,
    "Ġexperiment": 11917,
    "Ġjug": 12831,
    "Ġflourishing": 25187,
    "Ġindirectly": 8939,
    "Ġhaw": 10251,
    "Ġexquisitely": 20201,
    "Ġaffront": 18787,
    "Ġhierarchical": 1926,
    "completed": 19992,
    "asht": 4086,
    "ized": 1528,
    "itated": 4439,
    "welcome": 10000,
    "Ġagree": 7647,
    "Ġcramped": 23529,
    "ria": 15796,
    "st": 316,
    "Ġclutch": 15053,
    "Ġperceived": 4714,
    "aled": 3946,
    "Ġconfiding": 19039,
    "desc": 1392,
    "Ġlawless": 19433,
    "Ġsolicitude": 10039,
    "Ġdutch": 6327,
    "Ġexhaustion": 14960,
    "robust": 19727,
    "torture": 26151,
    "ours": 3429,
    "gia": 20875,
    "performed": 18342,
    "Ġemerge": 14927,
    "Ġsingers": 23770,
    "ure": 356,
    "Ġintimacy": 8700,
    "Ġappointed": 20101,
    "Ġabaft": 22271,
    "Ġdemocracy": 25458,
    "Ġrelates": 12978,
    "women": 15455,
    "Ġmonstr": 7668,
    "Ġbull": 7839,
    "tier": 12512,
    "Ġcircle": 4977,
    "Ġhardware": 4904,
    "sit": 13779,
    "Ġberm": 21381,
    "Ġremainder": 9857,
    "iner": 2675,
    "Ġsympathise": 16794,
    "Ġstoke": 10395,
    "Ġtemporary": 7980,
    "Ġvibrating": 13537,
    "introduction": 15122,
    "pherd": 13643,
    "Ġshriek": 6637,
    "Ġinvisible": 7327,
    "Ġsecurity": 8977,
    "Ġhartshorn": 26180,
    "Ġconfl": 11136,
    "Ġafresh": 18626,
    "blu": 12438,
    "Ġsettles": 22917,
    "mured": 6960,
    "london": 9609,
    "ogne": 12937,
    "recked": 17762,
    "christian": 17232,
    "mantel": 26394,
    "Ġcuff": 17829,
    "Ġkneeling": 12140,
    "Ġcounterpart": 24721,
    "Ġsherry": 19449,
    "Ġattempt": 3488,
    "Ġimpossibility": 20646,
    "Ġcircus": 19091,
    "Ġhumans": 8929,
    "Ġpreprocess": 22230,
    "Ġsmiled": 5940,
    "Ġfeeling": 3084,
    "Ġboard": 3385,
    "keeping": 8634,
    "Ġrecollected": 8310,
    "Ġeastern": 11628,
    "Ġlighten": 23257,
    "Ġbarber": 23788,
    "$": 8,
    "Ġep": 7385,
    "Ġsheets": 9721,
    "Ġ30": 10511,
    "Ġsurrender": 16449,
    "inition": 11555,
    "Ġsneer": 13446,
    "Ġestab": 6315,
    "Ġpointed": 4773,
    "Ġheaven": 3367,
    "Ġdreamed": 16629,
    "Ġbridegroom": 10604,
    "lemagne": 26436,
    "Ġledger": 19400,
    "similar": 13452,
    "Ġcaliforn": 14430,
    "otted": 14023,
    "Ġverdure": 10612,
    "Ġ42": 16678,
    "Ġshiver": 12764,
    "Ġmutiny": 13258,
    "Ġsignifies": 19202,
    "deav": 2678,
    "Ġporus": 24398,
    "Ġshoe": 14567,
    "enges": 13051,
    "elstrom": 17981,
    "Ġscreening": 25300,
    "distinguish": 19571,
    "Ġrigging": 5601,
    "last": 3805,
    "Ġcourage": 4633,
    "ince": 4340,
    "char": 3504,
    "Ġcountless": 16381,
    "Ġinser": 6820,
    "Ġsubtlety": 24780,
    "Ġspurned": 12794,
    "Ġimplement": 2796,
    "Ġinterrupting": 19556,
    "Ġcurb": 16232,
    "Ġcataract": 23426,
    "Ġclassifies": 11839,
    "Ġbillows": 7503,
    "Ġbrighter": 16186,
    "wild": 8766,
    "tracks": 19637,
    "Ġheroine": 24543,
    "supplemental": 25874,
    "Ġblaze": 16218,
    "Ġrevolve": 19729,
    "ä": 165,
    "won": 7144,
    "Ġlake": 5227,
    "Ġended": 7949,
    "Ġfresher": 23207,
    "Ġsucceeded": 6105,
    "Ġtearing": 14395,
    "ities": 1826,
    "le": 279,
    "ifications": 9728,
    "Ġcharts": 12823,
    "Ġbeh": 1803,
    "Ġforeheads": 23447,
    "Ġjeopardized": 20229,
    "Ġdab": 15585,
    "Ġlibraries": 20613,
    "highest": 20406,
    "Ġkindliness": 23294,
    "Ġshadow": 5596,
    "Ġwhit": 7177,
    "Ġbeak": 18079,
    "Ġtroubling": 26546,
    "Ġze": 8545,
    "Ġgramm": 8170,
    "Ġbrigs": 20321,
    "Ġbell": 4635,
    "Ġcharted": 22247,
    "Ġmab": 12557,
    "Ġbitterness": 8024,
    "verize": 21725,
    "Ġdig": 6135,
    "Ġpolitics": 19223,
    "Ġrequisition": 22644,
    "Ġcalifornia": 20528,
    "Ġvengeance": 5884,
    "conven": 6162,
    "Ġmanxman": 9565,
    "Ġnational": 13941,
    "Ġnourishment": 15191,
    "Ġliberties": 19666,
    "secured": 16938,
    "Ġexpeditions": 24954,
    "read": 3278,
    "ocation": 14626,
    "monster": 8591,
    "Ġlatent": 19654,
    "Ġweight": 657,
    "Ġhero": 5715,
    "tured": 13794,
    "Ġvehemence": 26566,
    "walton": 20248,
    "Ġpuzz": 5533,
    "anelles": 26434,
    "Ġrum": 5923,
    "fol": 4862,
    "Ġconfounded": 16382,
    "--": 1043,
    "Ġkeel": 6444,
    "Ġdoll": 10813,
    "consc": 4840,
    "Ġallegor": 25545,
    "ted": 789,
    "folding": 24927,
    "Ġswore": 10378,
    "Ġtalking": 3861,
    "unconquerable": 21888,
    "halfway": 24311,
    "Ġtapping": 10752,
    "Ġdawn": 6816,
    "tarpaul": 21096,
    "Ġdisplaying": 16966,
    "equ": 6790,
    "sander": 11525,
    "Ġsustained": 13481,
    "uc": 1875,
    "Ġdrive": 5055,
    "Ġspaniards": 25555,
    "nowhere": 18418,
    "Ġsympt": 7012,
    "cks": 3080,
    "Ġdramatic": 4850,
    "wear": 22680,
    "Ġtars": 21163,
    "ash": 1992,
    "Ġemaciated": 20637,
    "ror": 7351,
    "Ġrecurrent": 1805,
    "Ġintim": 6838,
    "Ġtalents": 15044,
    "Ġunfor": 15837,
    "sinking": 17668,
    "ī": 236,
    "Ġdwelling": 7322,
    "Ġdiligence": 17114,
    "Ġhat": 2774,
    "Ġactiv": 833,
    "answ": 15882,
    "bs": 3750,
    "pulled": 25145,
    "Ġviewing": 19263,
    "credit": 12446,
    "Ġmiscellaneous": 17462,
    "Ġruddy": 17125,
    "Ġcan": 469,
    "Ġvestibule": 13536,
    "ichron": 22165,
    "Ġdy": 2392,
    "Ġnote": 4265,
    "Ġnor": 1550,
    "solut": 3366,
    "Ġnaturalists": 10363,
    "Ġenrolled": 21934,
    "Ġlink": 8129,
    "Ġspectrum": 4473,
    "Ġadmired": 7981,
    "ledge": 1326,
    "Ġlowering": 7986,
    "uncommon": 11680,
    "Ġsemi": 11967,
    "let": 2736,
    "Ġthroughout": 8876,
    "Ġneed": 2608,
    "Ġinvisibly": 24817,
    "Ġstalk": 12695,
    "vely": 3870,
    "Ġbestir": 13108,
    "oat": 13763,
    "leness": 4691,
    "Ġted": 13811,
    "voices": 21116,
    "Ġharpooned": 13260,
    "Ġrank": 6258,
    "Ġcub": 8413,
    "ruit": 22184,
    "Ġmarines": 16258,
    "Ġver": 3395,
    "Ġscope": 15948,
    "ifice": 7199,
    "com": 986,
    "exp": 2740,
    "Ġunreserved": 19395,
    "Ġsweetheart": 19393,
    "Ġcrush": 9421,
    "Ġprophe": 13077,
    "reproof": 25432,
    "dimensional": 2349,
    "shipping": 10307,
    "Ġintently": 8168,
    "became": 10514,
    "Ġque": 4161,
    "Ġconstruction": 9384,
    "Ġrecognition": 3087,
    "Ġbingleys": 18995,
    "countless": 24150,
    "Ġrubbing": 9321,
    "jackets": 24895,
    "aintance": 3569,
    "Ġcorpulence": 24509,
    "Ġattentions": 5877,
    "itude": 1417,
    "ling": 735,
    "Ġrocky": 13386,
    "handedness": 24920,
    "Ġminutely": 14560,
    "Ġshops": 21998,
    "Ġcontinues": 18808,
    "Ġregarded": 5762,
    "Ġeul": 21617,
    "injustice": 17737,
    "Ġpremature": 3724,
    "ogr": 18674,
    "Ġcoopman": 25827,
    "olstadt": 7788,
    "beaten": 20314,
    "Ġtoller": 9090,
    "gangway": 20666,
    "Ġburst": 4380,
    "Ġidentity": 2526,
    "Ġrecovery": 11440,
    "arches": 10816,
    "00": 1613,
    "Ġmaiden": 13385,
    "Ġdefence": 11066,
    "Ġcrushed": 9422,
    "ints": 3419,
    "Ġnoticing": 18224,
    "Ġchair": 3661,
    "°": 113,
    "Ġconcisely": 19045,
    "Ġrelationship": 2317,
    "Ġorganize": 8991,
    "Ġener": 10895,
    "Ġsummoning": 23872,
    "Ġapo": 9630,
    "erect": 20847,
    "mathematics": 26304,
    "Ġsaw": 1348,
    "Ġclothes": 4997,
    "...": 24549,
    "Ġbeadle": 26484,
    "Ġsymptom": 13482,
    "Ġsaucer": 20604,
    "Ġgallons": 14817,
    "Ġdeficiencies": 26570,
    "Ġvoids": 25807,
    "Ġdearly": 10401,
    "Ġamput": 16032,
    "Ġrephr": 21676,
    "Ġwhereas": 3858,
    "Ġreceipt": 20354,
    "descending": 16283,
    "istered": 14144,
    "actually": 14294,
    "fulfil": 16035,
    "bod": 12435,
    "Ġgothic": 17999,
    "sincere": 16907,
    "inities": 21184,
    "Ġsurv": 6081,
    "eties": 10837,
    "Ġretrie": 10382,
    "Ġribbed": 16804,
    "awe": 20764,
    "Ġstretch": 6993,
    ")âĢĶâĢľ": 20742,
    "Ġwhim": 13998,
    "varying": 13803,
    "Ġulster": 14997,
    "separated": 20158,
    "Ġits": 706,
    "Ġtoils": 10185,
    "Ġlonged": 6436,
    "Ġdespairing": 14772,
    "scot": 14414,
    "Ġsuitable": 18278,
    "Ġdiamond": 15596,
    "Ġrichest": 26211,
    "Ġknowingly": 18480,
    "atiate": 12545,
    "Ġpolitic": 23620,
    "Ġpear": 11850,
    "lying": 7174,
    "Ġaver": 1285,
    "rs": 7807,
    "Ġwired": 17786,
    "Ġimitation": 22168,
    "hemat": 3129,
    "wedding": 13370,
    "atmosphere": 21263,
    "âĢľ_": 5720,
    "Ġshown": 5159,
    "Ġdidn": 4363,
    "Ġpondicherry": 20489,
    "Ġbehoo": 19037,
    "Ġrepulsive": 14530,
    "contriv": 19292,
    "Ġunconditional": 15842,
    "Ġshow": 3403,
    "machine": 997,
    "Ġchill": 11750,
    "Ġarticulate": 24432,
    "operation": 13500,
    "Ġdism": 9766,
    "Ġslee": 8974,
    "Ġdiabolical": 20341,
    "Ġweig": 7619,
    "Ġasleep": 6836,
    "zed": 8103,
    "remain": 9837,
    "objection": 19914,
    "stories": 18023,
    "possibility": 13360,
    "Ġlegal": 10439,
    "consciously": 19624,
    "Ġfigure": 4209,
    "Ġwitty": 21291,
    "nd": 11502,
    "comm": 7440,
    "Ġcitizens": 25439,
    "Ġlesson": 7276,
    "Ġmajestic": 8639,
    "Ġahab": 1214,
    "Ġwantonly": 22889,
    "aw": 1448,
    "Ġleaves": 5021,
    "meat": 18678,
    "Ġhumiliating": 22881,
    "Ġwavering": 23278,
    "eers": 20842,
    "Ġobserve": 4670,
    "wilful": 25086,
    "darted": 20831,
    "Ġfamily": 1967,
    "Ġyards": 5371,
    "Ġcausing": 16356,
    "Ġmatrim": 11059,
    "Ġdangerously": 23934,
    "Ġhairs": 13229,
    "completely": 12417,
    "Ġindividual": 5744,
    "Ġmetrics": 19073,
    "Ġscound": 12834,
    "Ġsauce": 15888,
    "alvan": 21501,
    "Ġdirty": 9178,
    "Ġclap": 10959,
    "Ġbarque": 23789,
    "Ġtune": 17725,
    "piteous": 21032,
    "Ġthack": 21514,
    "Ġpresuming": 16793,
    "Ġunce": 11709,
    "Ġassociated": 12247,
    "Ġtri": 4813,
    "gradually": 12912,
    "Ġforeseeing": 23449,
    "Ġsacrifice": 9555,
    "Ġsympath": 4861,
    "tout": 21064,
    "believing": 19460,
    "Ġinverted": 12634,
    "theirs": 23601,
    "Ġoar": 6236,
    "Ġelix": 22641,
    "Ġaperture": 26160,
    "season": 14033,
    "Ġobliterated": 17404,
    "Ġreasoner": 14437,
    "cake": 20803,
    "Ġmarbles": 18872,
    "Ġpersevering": 20232,
    "recovered": 19786,
    "opes": 10310,
    "reckoning": 25270,
    "iform": 2198,
    "Ġsurpassed": 25267,
    "Ġpolic": 13160,
    "Ġfootsteps": 16571,
    "date": 17517,
    "Ġdeser": 3890,
    "Ġcombines": 1135,
    "Ġtreatment": 12069,
    "ith": 330,
    "Ġbuckler": 24859,
    "arched": 10815,
    "Ġdisordered": 16053,
    "crat": 24097,
    "balance": 12005,
    "Ġcharmed": 16762,
    "bulk": 19923,
    "Ġdegree": 3703,
    "Ġlocking": 18298,
    "spect": 3232,
    "Ġrattling": 11394,
    "Ġdoc": 7200,
    "Ġhardihood": 23109,
    "Ġriveted": 13617,
    "Ġstages": 14004,
    "please": 8176,
    "ulity": 10885,
    "Ġsurpass": 13582,
    "Ġerred": 21155,
    "century": 20045,
    "befriend": 22489,
    "warp": 17706,
    "Ġreply": 4513,
    "Ġprisoner": 8672,
    "Ġforbidding": 17079,
    "Ġcetus": 19884,
    "Ġsoot": 14131,
    "Ġtorrents": 20054,
    "Ġmustard": 12927,
    "Ġcurv": 3512,
    "Ġsheet": 6262,
    "Ġloo": 22107,
    "Ġoutriders": 26543,
    "ustration": 2260,
    "Ġreverie": 13456,
    "spe": 3560,
    "aying": 15747,
    "Ġnever": 1018,
    "Ġheadache": 22895,
    "Ġfascinating": 17327,
    "line": 1439,
    "ce": 313,
    "Ġdeemed": 7615,
    "Ġital": 10865,
    "setting": 13284,
    "Ġvary": 15805,
    "Ġlanguages": 1568,
    "Ġimproved": 7657,
    "dation": 2615,
    "Ġesteem": 7532,
    "Ġtents": 13817,
    "Ġvii": 13107,
    "âĢĻ": 379,
    "Ġneighb": 14073,
    "ĠĠĠĠĠĠĠĠĠĠĠĠĠĠĠĠĠĠĠĠĠĠĠĠĠĠĠĠĠ": 19698,
    "dishonourable": 26365,
    "Ġrejoicing": 13420,
    "Ġkentuck": 19890,
    "neighbourhood": 10024,
    "Ġjour": 11761,
    "intending": 22932,
    "Ġendeavored": 19302,
    "possessed": 9527,
    "Ġslaugh": 18937,
    "verity": 14000,
    "Ġconvalescence": 23745,
    "Ġdisliked": 12888,
    "turns": 14905,
    "Ġrequiring": 2926,
    "Ġpole": 6433,
    "(": 12,
    "Ġ60": 14874,
    "Ġother": 758,
    "ep": 441,
    "olerable": 7182,
    "ridden": 24362,
    "Ġslightly": 7293,
    "Ġmarrying": 6177,
    "general": 7490,
    "ale": 506,
    "asions": 12648,
    "ferred": 16412,
    "Ġarchitecture": 1102,
    "Ġflattened": 26047,
    "Ġcollateral": 20070,
    "Ġcupidity": 24535,
    "Ġwitnessed": 14843,
    "arity": 1301,
    "Ġyojo": 7611,
    "Ġphyset": 23197,
    "Ġcoil": 11816,
    "anning": 10164,
    "aky": 18411,
    "Ġretiring": 16279,
    "Ġscreaming": 13422,
    "Ġklan": 23662,
    "Ġcaring": 23089,
    "leaning": 10790,
    "Ġpartial": 2129,
    "Ġbelt": 13000,
    "Ġdisgusting": 19893,
    "Ġshoulder": 5848,
    "gi": 17551,
    "Ġ33": 16676,
    "Ġcruising": 6913,
    "stem": 565,
    "islanders": 25442,
    "bbles": 13690,
    "relative": 24010,
    "Ġbigness": 19759,
    "Ġadapted": 11042,
    "Ġneedn": 19227,
    "pop": 17631,
    "Ġjerking": 12243,
    "Ġsupplication": 25491,
    "evening": 7089,
    "Ġasc": 4765,
    "Ġdiligently": 11404,
    "Ġsuccess": 3609,
    "suspended": 15176,
    "Ġincreasing": 8246,
    "Ġprofusion": 23567,
    "Ġcanv": 7009,
    "Ġinadequate": 17936,
    "Ġpenalizing": 13089,
    "jug": 17580,
    "Ġrh": 9243,
    "Ġ1778": 25730,
    "Ġmagnificent": 9841,
    "Ġaudio": 24772,
    "half": 4931,
    "Ġprecip": 7074,
    "Ġpulse": 13113,
    "them": 3021,
    "Ġwhirlp": 16963,
    "Ġrecommence": 16812,
    "pair": 21011,
    "paws": 21028,
    "Ġspurn": 18309,
    "fore": 687,
    "Ġcoburg": 18599,
    "Ġrio": 23889,
    "Ġguitar": 16266,
    "Ġfade": 21405,
    "Ġchiefly": 5766,
    "Ġembarkation": 25123,
    "Ġuniformly": 19147,
    "Ġhoisted": 5959,
    "Ġmain": 808,
    "Ġresponded": 13637,
    "uv": 6229,
    "Ġcallest": 17832,
    "Ġdisobey": 18559,
    "Ġoccupation": 9930,
    "pale": 13771,
    "generations": 23784,
    "apidated": 22333,
    "rive": 9706,
    "txt": 12513,
    "Ġdirest": 22702,
    "Ġnumberless": 16414,
    "whatsoever": 18487,
    "archangel": 18790,
    "ck": 436,
    "Ġlux": 8813,
    "urned": 9305,
    "õ": 182,
    "discern": 14850,
    "befall": 22492,
    "Ġchief": 3383,
    "Ġattacked": 10567,
    "Ġguess": 4903,
    "Ġchanges": 2286,
    "orton": 11754,
    "repugnance": 16864,
    "Ġmitigating": 1618,
    "manif": 14372,
    "saddest": 25527,
    "Ġtutored": 20126,
    "Ġcrucifix": 26079,
    "Ġcachalot": 17834,
    "Ġornamented": 20360,
    "track": 24314,
    "Ġoversight": 22348,
    "Ġgather": 6534,
    "investments": 25532,
    "Ġbloodshot": 23798,
    "Ġcollinses": 19129,
    "Ġstray": 18072,
    "Ġsizes": 1520,
    "lue": 8508,
    "elab": 21567,
    "Ġfervent": 14895,
    "Ġdash": 8121,
    "Ġtasted": 12526,
    "Ġportra": 9008,
    "Ġprecise": 7075,
    "Ġsumm": 3358,
    "Ġriver": 5411,
    "Ġswallow": 8950,
    "embed": 18183,
    "Ġhoarsely": 26302,
    "Ġornam": 15862,
    "Ġstrangled": 24134,
    "revol": 12537,
    "Ġpractice": 2570,
    "Ġscream": 5934,
    "Ġhosea": 17330,
    "ester": 11601,
    "Ġdaylight": 10350,
    "Ġdetestable": 15097,
    "deserts": 25379,
    "erringly": 16210,
    "Ġcleanse": 24527,
    "Ġtrace": 6181,
    "cull": 20808,
    "indef": 17735,
    "Ġnecessitates": 23926,
    "Ġpruning": 18971,
    "Ġprofundity": 20451,
    "Ġfootfalls": 25866,
    "informed": 17736,
    "vint": 21113,
    "Ġconcise": 23321,
    "Ġmaz": 15539,
    "Ġincommod": 25307,
    "ork": 416,
    "Ġgoodness": 6058,
    "pronounce": 25192,
    "Ġplump": 14281,
    "covery": 11170,
    "Ġdropping": 7484,
    "Ġloops": 8852,
    "Ġneighbours": 8302,
    "Ġinitialized": 3950,
    "Ġautoregressive": 3433,
    "ished": 1426,
    "Ġintu": 12760,
    "Ġanyone": 4458,
    "Ġdismay": 11807,
    "zar": 11546,
    "Ġjavel": 17084,
    "Ġaltogether": 4831,
    "casks": 20401,
    "rely": 6123,
    "Ġrepugnance": 19086,
    "Ġhurst": 5582,
    "Ġstormy": 16728,
    "sir": 5001,
    "unching": 18158,
    "Ġcommunication": 1869,
    "Ġattending": 3287,
    "Ġcopies": 24935,
    "un": 373,
    "Ġcorners": 18874,
    "ression": 3406,
    "pleasure": 5977,
    "Ġgovernesses": 25127,
    "conclude": 24065,
    "Ġgaining": 9491,
    "Ġproof": 6153,
    "Ġtimorous": 24225,
    "sig": 2879,
    "Ġmead": 8835,
    "gins": 12466,
    "Ġ156": 20169,
    "guarded": 13293,
    "manner": 6170,
    "Ġburying": 19251,
    "important": 7112,
    "Ġnegro": 6447,
    "âĢľâĢĻ": 10221,
    "Ġsquares": 11168,
    "eray": 21265,
    "speed": 19407,
    "Ġtides": 13820,
    "Ġliable": 14228,
    "or": 282,
    "Ġfearlessness": 19160,
    "Ġsavage": 4013,
    "Ġintrodu": 1924,
    "stead": 10845,
    "Ġspasmodic": 20396,
    "client": 18931,
    "perceived": 8858,
    "Ġbordeaux": 24564,
    "cure": 11473,
    "Ġposted": 16724,
    "hosmer": 25902,
    "fright": 9595,
    "ither": 1546,
    "keepers": 16659,
    "illings": 14142,
    "================================================================": 9989,
    "Ġburn": 3683,
    "orrow": 2920,
    "Ġforced": 4353,
    "Ġebb": 21621,
    "Ġcoils": 9302,
    "talk": 6656,
    "Ġdamning": 19139,
    "screen": 22991,
    "Ġplanning": 14750,
    "ppery": 10891,
    "Ġcosmetic": 23470,
    "unquiet": 21878,
    "Ġpink": 12615,
    "jol": 20924,
    "Ġpurposes": 11167,
    "Ġconsent": 5372,
    "Ġrecord": 5316,
    "Ġplatonian": 25118,
    "sufficient": 6635,
    "Ġfastidious": 14492,
    "Ġremorselessly": 16967,
    "Ġdistur": 5312,
    "dist": 4479,
    "john": 11496,
    "arial": 5532,
    "knowledge": 7479,
    "Ġinquire": 7719,
    "insisted": 23065,
    "Ġabandoned": 8351,
    "Ġeyed": 12666,
    "superior": 9524,
    "Ġcourting": 23289,
    "missing": 13217,
    "_,": 2801,
    "Ġhaul": 11690,
    "Ġunwritten": 22031,
    "pract": 10119,
    "Ġfurrow": 22812,
    "somewhere": 12011,
    "Ġswashing": 23053,
    "Ġmizen": 17258,
    "Ġhunts": 23156,
    "simon": 16973,
    "urities": 18049,
    "turbable": 24531,
    "Ġutensils": 23514,
    "Ġshr": 4228,
    "Ġextravagance": 17279,
    "Ġdeaden": 23459,
    "Ġbegan": 2023,
    "empl": 5724,
    "bery": 9786,
    "bitts": 26122,
    "civil": 7796,
    "Ġwatched": 6297,
    "drowned": 17368,
    "Ġvortex": 26208,
    "Ġmountainous": 16599,
    "Ġgracious": 8846,
    "Ġclicked": 22362,
    "Ġvilla": 14746,
    "hog": 8379,
    "Ġamiss": 18512,
    "Ġinfirm": 19019,
    "Ġcranial": 25592,
    "existence": 16012,
    "fters": 20860,
    "Ġtipt": 21172,
    "fourth": 11327,
    "'t": 3145,
    "Ġturns": 4981,
    "iousness": 4899,
    "Ġthing": 1639,
    "Ġwounded": 8657,
    "Ġexperienced": 6582,
    "silent": 9973,
    "and": 372,
    "deser": 10402,
    "Ġconcentric": 20073,
    "Ġpantaloons": 20295,
    "Ġspermacetti": 19050,
    "Ġdissect": 16051,
    "Ġavailed": 23949,
    "lucas": 15150,
    "frankenstein": 11390,
    "Ġbaleful": 24982,
    "Ġimpelled": 11780,
    "Ġbetake": 22902,
    "Ġmonsie": 11446,
    "Ġheedless": 14902,
    "rably": 21630,
    "Ġpave": 8799,
    "Ġrecently": 11860,
    "Ġimport": 1041,
    "Ġincludes": 2011,
    "mouse": 15391,
    "odious": 21807,
    "Ġprodigy": 19791,
    "Ġflowery": 16230,
    "Ġspilling": 22134,
    "gings": 7550,
    "etics": 21578,
    "oarsman": 25261,
    "conviction": 19963,
    "macy": 18805,
    "Ġmystery": 5509,
    "ops": 5247,
    "Ġtrains": 10946,
    "tor": 15431,
    "where": 2093,
    "ied": 942,
    "Ġmich": 21305,
    "oblig": 16289,
    "Ġgift": 10840,
    "Ġargument": 7098,
    "Ġbutter": 6842,
    "conduct": 11795,
    "Ġpitchpoling": 14910,
    "Ġprivate": 5345,
    "alarm": 15624,
    "intments": 18820,
    "Ġcruel": 5121,
    "peasant": 23108,
    "Ġvir": 7001,
    "Ġemblaz": 16243,
    "Ġhid": 1317,
    "Ġminimizes": 2048,
    "Ġdot": 4820,
    "Ġgenerous": 6271,
    "Ġchurches": 12824,
    "Ġroods": 22403,
    "concl": 12866,
    "Ġledge": 19399,
    "Ġshocks": 16456,
    "active": 16101,
    "cery": 20807,
    "Ġemployment": 8628,
    "Ġwaning": 15532,
    "urbed": 15706,
    "Ġskirt": 18729,
    "bles": 7017,
    "Ġsiberia": 26161,
    "Ġhudson": 15190,
    "Ġconfining": 23305,
    "jury": 15372,
    "Ġsanct": 15062,
    "Ġbeard": 11654,
    "forster": 16155,
    "Ġimaginary": 11185,
    "ug": 1769,
    "happiest": 19331,
    "Ġjourneying": 25564,
    "Ġluxurious": 17310,
    "fears": 18528,
    "their": 2542,
    "attributed": 23117,
    "Ġincites": 22548,
    "hau": 17562,
    "och": 21000,
    "clopÃ¦": 13053,
    "Ġteased": 18802,
    "Ġ66": 24369,
    "Ġes": 8768,
    "Ġemb": 1264,
    "Ġvale": 14081,
    "deemed": 18315,
    "Ġprudential": 17917,
    "stache": 15687,
    "))": 1516,
    "Ġsecond": 1889,
    "wretched": 10741,
    "wes": 17703,
    "Ġtouch": 3397,
    "Ġaddressed": 5262,
    "private": 13581,
    "Ġshocked": 9400,
    "idirection": 2413,
    "quakes": 21853,
    "Ġshowers": 16605,
    "Ġflights": 24753,
    "Ġdetached": 10280,
    "Ġstaying": 8283,
    "Ġroasted": 18461,
    "latin": 25258,
    "reputation": 15514,
    "Ġtresses": 21174,
    "Ġoversampling": 20514,
    "roded": 17955,
    "affording": 23776,
    "far": 5787,
    "Ġlabourers": 23330,
    "stricken": 9884,
    "rifice": 12501,
    "Ġcoarsely": 25828,
    "perils": 22179,
    "Ġappertain": 22215,
    "Ġcou": 5286,
    "Ġmethodically": 23142,
    "Ġtowards": 1727,
    "Ġsands": 14947,
    "Ġsagaciously": 24731,
    "Ġboiling": 8525,
    "offing": 23331,
    "Ġberries": 13406,
    "Ġentr": 14338,
    "ĺ": 251,
    "relapse": 24013,
    "Ġhesitation": 13440,
    "Ġseething": 18203,
    "xim": 1092,
    "Ġvictoria": 14872,
    "umst": 2505,
    "butter": 11783,
    "ker": 5792,
    "ellations": 21941,
    "wrapped": 15208,
    "necessity": 13366,
    "Ġjewels": 12367,
    "Ġconcoct": 19046,
    "ornament": 23488,
    "Ġtesting": 23232,
    "Ġdelivered": 11115,
    "Ġasylum": 13665,
    "Ġbowing": 10475,
    "Ġenveloping": 19733,
    "baboon": 25516,
    "willingness": 24755,
    "Ġdeposed": 16086,
    "Ġimmut": 13296,
    "Ġsundry": 20072,
    "Ġdanes": 25156,
    "Ġalphabetical": 17201,
    "rance": 5993,
    "semble": 1525,
    "caroline": 24149,
    "Ġsplendidly": 25327,
    "colonel": 8284,
    "Ġknowledge": 1445,
    "Ġprick": 14477,
    "inn": 5363,
    "Ġswallowed": 7943,
    "½": 126,
    "hav": 20896,
    "Ġsold": 6002,
    "Ġprot": 3851,
    "Ġoutfits": 22318,
    "Ġinflict": 15001,
    "splice": 17170,
    "Ġundressed": 19512,
    "Ġmothers": 14540,
    "Ġ199": 3011,
    "Ġqualified": 14949,
    "keen": 12779,
    "Ġattends": 19649,
    "ersampling": 18216,
    "exceedingly": 9566,
    "impatient": 13639,
    "Ġcongreg": 8462,
    "olently": 15751,
    "Ġtainted": 21169,
    "Ġbeneath": 3239,
    "Ġseverity": 15818,
    "residual": 19261,
    "jumped": 20245,
    "ribes": 23364,
    "centred": 25017,
    "Ġchaps": 14177,
    "Ġregarding": 13209,
    "Ġswallows": 18882,
    "Ġglobules": 26588,
    "Ġscrutiny": 26017,
    "cock": 12024,
    "estation": 15918,
    "Ġslam": 13055,
    "whom": 8184,
    "ineas": 15820,
    "dee": 11731,
    "Ġintermix": 22576,
    "low": 658,
    "antee": 22094,
    "ĠdÃ¦mon": 7844,
    "Ġwarrior": 24496,
    "Ġearthquake": 14628,
    "quent": 2095,
    "chain": 18039,
    "Ġimposed": 14214,
    "Ġrespons": 2689,
    "Ġtwitch": 22673,
    "Ġhereford": 22874,
    "Ġmediterranean": 12313,
    "Ġmun": 12559,
    "Ġcircumn": 11982,
    "lasting": 8010,
    "fiery": 13580,
    "Ġholds": 7975,
    "summoned": 26591,
    "Ġforcing": 3224,
    "Ġexposed": 8522,
    "Ġviolent": 5117,
    "Ġuniversal": 2234,
    "Ġblaming": 22927,
    "Ġproves": 14037,
    "cra": 6354,
    "gy": 2097,
    "nect": 664,
    "Ġreluct": 14371,
    "Ġinterp": 16069,
    "Ġtex": 15471,
    "dog": 10692,
    "archical": 1925,
    "Ġconsequ": 6254,
    "Ġexcessive": 3895,
    "Ġdreaming": 11222,
    "Ġachieve": 3673,
    "Ġoil": 3375,
    "Ġsmells": 8889,
    "Ġpopularly": 12239,
    "Ġbarely": 16936,
    "Ġsuccour": 20433,
    "Ġsucking": 12782,
    "Ġperish": 8874,
    "Ġimpersonal": 17395,
    "Ġstraining": 11326,
    "Ġdoom": 6417,
    "air": 1003,
    "Ġbennett": 16322,
    "anchor": 13888,
    "Ġstaves": 21740,
    "Ġconquest": 15745,
    "Ġforc": 9227,
    "Ġentreat": 4508,
    "Ġnetworks": 593,
    "Ġprovoked": 13324,
    "ferent": 4197,
    "mical": 9128,
    "Ġpun": 4587,
    "still": 4221,
    "Ġguiltless": 16940,
    "torn": 17682,
    "endeav": 7150,
    "Ġbam": 15563,
    "rown": 2190,
    "Ġbachel": 7158,
    "Ġexpanding": 25238,
    "Ġadvertising": 25389,
    "Ġabilities": 8866,
    "odings": 4399,
    "hitherto": 17283,
    "Ġfools": 14481,
    "Ġumbrell": 13649,
    "Ġedge": 5188,
    "Ġdesiring": 14411,
    "verted": 10217,
    "Ġvari": 832,
    "itled": 7578,
    "Ġgiants": 25960,
    "aceti": 7111,
    "Ġbes": 2664,
    "liking": 22921,
    "hood": 2663,
    "Ġprotection": 9461,
    "Ġdressing": 7090,
    "Ġspool": 24806,
    "Ġmistress": 8611,
    ",)": 9100,
    "Ġbritannica": 24680,
    "Ġindist": 14407,
    "Ġghostliness": 24651,
    "proportions": 22848,
    "kov": 17586,
    "zeal": 16255,
    "Ġlurid": 19680,
    "vously": 23504,
    "lege": 17841,
    "asily": 13945,
    "Ġpencil": 11941,
    "Ġappearing": 9840,
    "Ġapprovingly": 26250,
    "etrics": 21582,
    "Ġuncl": 22013,
    "Ġsufferings": 7514,
    "cleanliness": 25871,
    "quired": 21852,
    "unwilling": 14060,
    "Ġslumber": 13057,
    "Ġantique": 19550,
    "Ġvac": 5025,
    "slack": 16894,
    "Ġbandaged": 16842,
    "Ġtrack": 7450,
    "Ġfaire": 13363,
    "Ġinsurg": 23680,
    "Ġrefreshed": 15290,
    "Ġclassical": 22637,
    "elius": 13286,
    "rifle": 21045,
    "than": 4091,
    "Ġrelease": 19290,
    "Ġimpose": 22379,
    "Ġmechanisms": 1576,
    "Ġproposal": 10018,
    "Ġsustenance": 19932,
    "Ġsalted": 14755,
    "ulated": 6029,
    "hate": 20891,
    "Ġrecurred": 18977,
    "Ġjoist": 19230,
    "Ġpagan": 7117,
    "Ġfatig": 6756,
    "inuating": 16202,
    "Ġfro": 3473,
    "Ġunnatural": 7190,
    "Ġaim": 10145,
    "26": 10072,
    "conda": 18993,
    "refuge": 24734,
    "ositions": 10283,
    "hoisted": 19282,
    "Ġscarce": 8621,
    "desk": 23204,
    "oped": 6046,
    "univers": 15769,
    "Ġthy": 2514,
    "ressing": 8918,
    "Ġschemes": 11130,
    "professional": 20274,
    "Ġrout": 7402,
    "verbally": 25360,
    "Ġangrily": 9406,
    "Ġsubstances": 24165,
    "iteous": 14261,
    "Ġlitter": 19828,
    "Đ": 209,
    "onden": 13843,
    "Ġsplintered": 11417,
    "Ġstream": 5186,
    "Ġreport": 6191,
    "ge": 559,
    "Ġcomment": 9232,
    "gree": 10701,
    "omet": 3075,
    "Ġtouching": 4680,
    "Ġconsented": 11294,
    "sofa": 26146,
    "Ġtipped": 17728,
    "initely": 7569,
    "quely": 10231,
    "Ġsavagely": 26323,
    "Ġauto": 23323,
    "Ġhousekeeper": 7456,
    "eration": 10772,
    "Ġtougher": 21175,
    "tenderly": 20529,
    "Ġexamined": 6334,
    "Ġleyden": 21729,
    "Ġaltering": 18102,
    "##": 2318,
    "rap": 21625,
    "Ġtransmit": 10304,
    "Ġbeaches": 18084,
    "Ġsuspicions": 9478,
    "Ġinsufficient": 9672,
    "Ġtongue": 6347,
    "fool": 9047,
    "endeavour": 17031,
    "Ġspiritual": 9929,
    "lic": 17587,
    "Ġfeast": 10277,
    "Ġalco": 21779,
    "long": 2917,
    "Ġdu": 4584,
    "Ġfrigid": 17352,
    "discovery": 12015,
    "llable": 6879,
    "po": 1138,
    "cially": 3491,
    "Ġbegun": 7243,
    "enc": 7575,
    "view": 5895,
    "Ġgratified": 8021,
    "Ġcommodore": 12393,
    "Ġsubtle": 6716,
    "Ġbarbara": 24818,
    "Ġpaced": 7584,
    "Ġweighty": 16029,
    "quin": 21850,
    "Ġclings": 15970,
    "erde": 21267,
    "Ġshelter": 17008,
    "luck": 5733,
    "aggoo": 5130,
    "Ġunex": 11711,
    "Ġstillness": 12992,
    "Ġrefined": 18706,
    "dron": 17525,
    "suspected": 12370,
    "Ġandes": 12638,
    "beheaded": 22490,
    "cy": 638,
    "Ġfidel": 12593,
    "vital": 17700,
    "Ġfallen": 5967,
    "hurst": 19878,
    "bidden": 19736,
    "money": 8749,
    "needles": 20313,
    "humanity": 24839,
    "joint": 24006,
    "owed": 2270,
    "Ġreconciliation": 25292,
    "Ġswelled": 11087,
    "loved": 14250,
    "Ġforbearance": 12326,
    "Ġsuperglue": 23456,
    "enced": 4297,
    "appe": 2948,
    "Ġjohnson": 18404,
    "Ġhopelessly": 16377,
    "Ġconvert": 11841,
    "Ġbridges": 24682,
    "Ġsupple": 22996,
    "Ġmeanings": 18607,
    "anesc": 21358,
    "oded": 11668,
    "Ġbilliard": 16689,
    "Ġinterval": 4055,
    "Ġloitering": 22113,
    "Ġray": 18642,
    "blazing": 24131,
    "sory": 17659,
    "unreasonable": 18162,
    "Ġmat": 1148,
    "×": 152,
    "ally": 529,
    "Ġqueequeg": 2014,
    "stone": 5089,
    "Ġslu": 13835,
    "Ġfastening": 16355,
    "ented": 4349,
    "Ġgreenwich": 19320,
    "allen": 22193,
    "Ġbery": 13897,
    "Ġsimultaneously": 4312,
    "Ġsprained": 15881,
    "Ġinvader": 23479,
    "hmael": 7342,
    "Ġsam": 7570,
    "Ġdubious": 17382,
    "ĠĠĠĠĠĠĠ": 7633,
    "Ġpurchasing": 19874,
    "iantly": 13738,
    "Ġprow": 6684,
    "prevent": 11793,
    "rudently": 16710,
    "Ġdanced": 7842,
    "Ġobsolete": 26558,
    "Ġferoc": 14896,
    "Ġlandless": 23377,
    "Ġroylott": 7305,
    "commodore": 20624,
    "Ġbeach": 6541,
    "Ġgold": 3281,
    "skinned": 25387,
    "Ġshetland": 22156,
    "Ġpolynes": 16077,
    "politeness": 16906,
    "ys": 3962,
    "hig": 12472,
    "Ġlodges": 19498,
    "Ġpurple": 10433,
    "prow": 15410,
    "Ġvig": 5460,
    "Ġphilosoph": 19650,
    "medi": 2629,
    "Ġimpossible": 3543,
    "Ġmeridian": 25714,
    "Ġbethink": 12377,
    "Ġinfamy": 14502,
    "Ġde": 365,
    "Ġpecks": 18669,
    "izarre": 17388,
    "Ġrob": 1343,
    "Ġsixth": 16558,
    "Ġbeheaded": 11655,
    "Ġthieves": 15633,
    "stiff": 12672,
    "Ġtrait": 23072,
    "Ġderanged": 23172,
    "Ġdejection": 15195,
    "Ġstro": 4595,
    "education": 20300,
    "ism": 4874,
    "Ġlullaby": 20586,
    "Ġexclusiveness": 23924,
    "taste": 10129,
    "Ġdesires": 9456,
    "Ġii": 7384,
    "Ġpluck": 15611,
    "Ġath": 15799,
    "Ġdetermining": 14420,
    "Ġbou": 17852,
    "Ġpettic": 14840,
    "rows": 6442,
    "N": 50,
    "Ġslips": 23164,
    "Ġstumped": 24942,
    "Ġcovers": 18596,
    "Ġafter": 870,
    "n": 82,
    "sorts": 21059,
    "Ġpots": 9427,
    "ets": 1160,
    "Ġvictory": 16653,
    "control": 16542,
    "Ġnarr": 5085,
    "Ġmira": 8406,
    "Ġclubb": 22358,
    "fen": 20849,
    "Ġexpands": 25237,
    "Ĺ": 250,
    "Ġgemini": 26469,
    "Ġy": 341,
    "Ġlessen": 14532,
    "Ġislets": 21798,
    "dipped": 20836,
    "Ġadditionally": 1176,
    "Ġantics": 24178,
    "Ġborder": 10169,
    "Ġcolonel": 3408,
    "distinct": 13334,
    "illing": 8174,
    "Ġstrateg": 1403,
    "intention": 10367,
    "Ġflashing": 13025,
    "Ġlying": 4825,
    "ensions": 14258,
    "Ġforcibly": 10060,
    "Ġsmoked": 10322,
    "isen": 10792,
    "Ġconsists": 11976,
    "rief": 6202,
    "father": 3778,
    "Ġreiterating": 26474,
    "dropout": 3196,
    "Ġpomp": 12619,
    "max": 1684,
    "Ġbeams": 14631,
    "Ġexpiring": 16096,
    "ĠĠĠĠĠĠĠĠĠĠĠĠĠĠĠĠĠĠĠĠĠĠĠĠĠĠ": 13387,
    "Ġdong": 17887,
    "Ġsunwards": 19010,
    "Ġquaker": 10970,
    "Ġclues": 18428,
    "Ġindel": 13001,
    "algorithm": 4074,
    "Ġstudents": 23216,
    "isely": 4487,
    "aded": 3549,
    "Ġ1807": 26083,
    "puted": 8845,
    "Ġextras": 22735,
    "Ġreproof": 24890,
    "Ġappend": 18357,
    "Ġdevil": 3612,
    "answered": 10273,
    "ibule": 13004,
    "Ġexploitation": 2348,
    "Ġincommunicable": 26611,
    "Ġgibraltar": 25787,
    "Ġfuture": 1132,
    "opposing": 24825,
    "Ġminim": 1321,
    "Ġcapsizing": 20087,
    "Ġmoss": 9283,
    "Ġ----": 7145,
    "beating": 22486,
    "A": 37,
    "aging": 2239,
    "quently": 9701,
    "Ġflinging": 13584,
    "atching": 8201,
    "cred": 9107,
    "Ġphrensy": 25124,
    "Ġsuspending": 19243,
    "Ġcrabs": 19173,
    "given": 8376,
    "unched": 10235,
    "Ġdescribe": 2768,
    "why": 2831,
    "scure": 22983,
    "ond": 1161,
    "¾": 127,
    "Ġdaugh": 2293,
    "Ġemerged": 8684,
    "orders": 12872,
    "erns": 8777,
    "Ġbrain": 2089,
    "Ġlogical": 14486,
    "onse": 21248,
    "Ġsallies": 21228,
    "shake": 22447,
    "ompl": 4534,
    "eer": 15346,
    "regularly": 13207,
    "ged": 1513,
    "Ġdreadfully": 7725,
    "³": 116,
    "Ġbrooded": 23101,
    "Ġestimates": 3747,
    "drugg": 20837,
    "asing": 5911,
    "Ġundeniable": 26510,
    "Ġmadly": 16485,
    "Ġagreed": 7028,
    "inclination": 20056,
    "Ġinquisitive": 26317,
    "ills": 1629,
    "Ġhissed": 15786,
    "Ġ-": 1944,
    "Ġcorre": 3891,
    "opence": 18507,
    "Ġprender": 22232,
    "Ġpigs": 19746,
    "Ġsooty": 25815,
    "Ġcondesc": 7181,
    "strongly": 24684,
    "Ġdeeds": 15756,
    "parm": 21013,
    "Ġslide": 10393,
    "Ġmere": 2717,
    "trampled": 26333,
    "detached": 19673,
    "Ġtinkling": 25212,
    "altering": 12637,
    "Ġgrace": 5374,
    "idual": 1557,
    "âĢĶ.": 11753,
    "Ġsupports": 3051,
    "Ġassume": 10515,
    "naturalist": 23472,
    "fron": 24281,
    "Ġtriumphantly": 11286,
    "Ġfrigates": 25707,
    "Ġ56": 24324,
    "moon": 10335,
    "Ġassisting": 13256,
    "rumours": 23897,
    "laugh": 10108,
    "Ġplying": 17911,
    "Ġupwards": 7634,
    "scissors": 20726,
    "Ġdeadly": 5405,
    "Ġstructure": 834,
    "Ġanalogical": 25640,
    "rived": 5373,
    "Ġleft": 1763,
    "Ġacceded": 22373,
    "Ġloos": 15869,
    "Ġpopulous": 16826,
    "Ġthursday": 12641,
    "Ġbrad": 8786,
    "ĠâĢľâĢĶ": 9733,
    "Ġloite": 22108,
    "nostr": 22720,
    "Ġdried": 7367,
    "Ġgrieve": 14706,
    "Ġbridle": 24681,
    "Ġtarquin": 23612,
    "ty": 1002,
    "Ġkin": 15902,
    "Ġblotches": 25314,
    "unc": 15766,
    "Ġtumult": 7114,
    "adler": 21759,
    "Ġcircumst": 2978,
    "Ġmonument": 16237,
    "Ġlend": 17962,
    "Ġtexas": 25922,
    "Ġnevertheless": 5040,
    "Ġdeaths": 14537,
    "Ġferguson": 17469,
    "room": 2178,
    "Ġinterview": 9769,
    "bitterly": 20336,
    "points": 14392,
    "oll": 5456,
    "nns": 1891,
    "Ġsongs": 13419,
    "Ġleviathans": 8281,
    "Ġgain": 4827,
    "Ġacc": 569,
    "catherine": 7127,
    "happened": 9432,
    "Ġcontrive": 16008,
    "Ġdances": 10812,
    "Ġungrateful": 14120,
    "Ġforehead": 5261,
    "aries": 6244,
    "Ġu": 324,
    "Ġtow": 4395,
    "Ġpreparation": 13528,
    "Ġinfant": 11959,
    "Ġdiscussed": 19558,
    "isles": 15561,
    "Ġevenly": 4131,
    "Ġquarrels": 16565,
    "ti": 8389,
    "Ġdrives": 14578,
    "Ġbeats": 21749,
    "obliged": 20630,
    "enit": 17779,
    "yards": 9623,
    "Ġstepmother": 16087,
    "Ġrecovering": 11861,
    "destiny": 16702,
    "cool": 19186,
    "Ġconvincing": 19307,
    "Ġsuited": 12781,
    "Ġmors": 17801,
    "Ġcultiv": 13555,
    "Ġding": 12596,
    "Ġyelled": 9693,
    "Ġensu": 7874,
    "iem": 20916,
    "ouses": 5163,
    "unwholesome": 26497,
    "Ġunable": 4951,
    "abling": 1080,
    "girdling": 26389,
    "comrade": 20623,
    "icism": 13955,
    "Ġconsummation": 17424,
    "Ġperformer": 18756,
    "Ġdisturbance": 15012,
    "Ġsharkish": 24506,
    "Ġmouldings": 24737,
    "grate": 23410,
    "ected": 7872,
    "Ġacquies": 11096,
    "Ġinterposed": 20617,
    "Ġmish": 15535,
    "rennial": 22337,
    "Ġref": 917,
    "Ġemperor": 15157,
    "Ġimitate": 14157,
    "Ġniece": 5712,
    "Ġmizzen": 20288,
    "Ġdut": 2991,
    "este": 15917,
    "Ġpremises": 10487,
    "jephro": 26392,
    "Ġbrimming": 22864,
    "procure": 23395,
    "Ġcontortions": 18476,
    "Ġtraits": 23073,
    "Ġplantation": 11422,
    "Ġstabbing": 20302,
    "Ġspiral": 14584,
    "glings": 23849,
    "asable": 21538,
    "Ġfigures": 8629,
    "Ġconsecut": 18114,
    "pher": 11510,
    "Ġbutterfly": 19909,
    "xi": 17710,
    "imble": 10857,
    "instances": 13318,
    "ù": 186,
    "Ġlead": 3523,
    "accompl": 9880,
    "soc": 5175,
    "Ġdive": 10172,
    "ifting": 6545,
    "Ġrim": 21962,
    "Ġwhir": 6393,
    "Ġpool": 5173,
    "Ġalternative": 19985,
    "capitals": 25080,
    "oved": 5215,
    "protruding": 24816,
    "Ġfreshly": 23984,
    "pick": 17634,
    "Ġhut": 15616,
    "iguous": 18043,
    "Ġtriangular": 14858,
    "grounds": 11150,
    "Ġmodes": 22209,
    "Ġconv": 2973,
    "Ġenquired": 21937,
    "Ġarthur": 7196,
    "Ġpikes": 21475,
    "Ġadvocate": 13675,
    "aunted": 20769,
    "Ġseasons": 9430,
    "Ġinspired": 2519,
    "thickness": 25367,
    "rell": 11562,
    "gunpowder": 25339,
    "ank": 1363,
    "whalers": 17263,
    "Ġporpoise": 7106,
    "preced": 10309,
    "Ġdepression": 21838,
    "excellent": 8043,
    "Ġgrizz": 10352,
    "entric": 11617,
    "order": 1961,
    "Ġtyph": 10007,
    "Ġfiends": 14827,
    "Ġdub": 13908,
    "advice": 12155,
    "Ġmaintained": 12931,
    "Ġcleared": 6074,
    "Ġdefined": 11896,
    "Ġcontinual": 6777,
    "Ġhydraulic": 10063,
    "much": 3705,
    "Ġobject": 1394,
    "Ġthreshold": 2810,
    "cket": 3687,
    "Ġtraitors": 23076,
    "Ġder": 1500,
    "Ġindiam": 22950,
    "Ġphilips": 5410,
    "uarded": 21104,
    "Ġgravely": 7882,
    "sustained": 20567,
    "Ġmirror": 12376,
    "accursed": 20540,
    "ylon": 24975,
    "successively": 24779,
    "Ġjunior": 15098,
    "intim": 22931,
    "Ġbeds": 14551,
    "Ġrans": 21963,
    "Ġcurrent": 13008,
    "Ġmont": 8557,
    "combined": 20319,
    "Ġclearly": 6897,
    "Ġinterruption": 9472,
    "Ġunluck": 8484,
    "Ġforwards": 12700,
    "Ġglories": 16238,
    "fates": 20857,
    "Ġplains": 14623,
    "has": 4016,
    "Ġireland": 17334,
    "eries": 6808,
    "p": 84,
    "Ġpunish": 12157,
    "Ġreconcile": 25291,
    "Ġprotect": 6337,
    "Ġheedfulness": 24522,
    "Ġfilled": 4394,
    "Ġsmallest": 6430,
    "Ġrival": 10485,
    "Ġdistinguishing": 16496,
    "Ġsinking": 7307,
    "yn": 7819,
    "confusion": 13368,
    "erred": 6376,
    "dev": 7632,
    "Ġetern": 7085,
    "Ġdelightfully": 13157,
    "Ġpleasantness": 24139,
    "retirement": 23134,
    "manned": 18763,
    "Ġpestilent": 25777,
    "Ġsuffoc": 18869,
    "Ġmischief": 8540,
    "Ġtroubled": 6615,
    "hideous": 25407,
    "oper": 7347,
    "Ġegg": 8818,
    "footman": 17162,
    "Ġwheeled": 14138,
    "wheeler": 16187,
    "Ġimputed": 12805,
    "Ġcabin": 3305,
    "lamps": 25260,
    "Ġinclination": 6623,
    "Ġmonsieur": 12418,
    "laws": 19806,
    "networks": 2406,
    "violent": 14580,
    "Ġoutbreak": 22314,
    "Ġrambles": 17184,
    "Ġincluding": 2852,
    "Ġmutinous": 23955,
    "acies": 14276,
    "agrad": 2750,
    "reflection": 13454,
    "Ġvacancies": 24345,
    "Ġdiverged": 23593,
    "need": 10982,
    "umbers": 10917,
    "Ġdepicted": 14283,
    "Ġtrembling": 7482,
    "wel": 6117,
    "impressions": 20697,
    "Ġattempts": 10490,
    "Ġforetold": 23450,
    "passenger": 24166,
    "Ġgin": 13960,
    "whispering": 26103,
    "Ġsperm": 1843,
    "Ġreassure": 21669,
    "Ġdiffused": 12066,
    "queens": 22901,
    "quadrille": 20593,
    "Ġvexations": 24609,
    "Ġshipwrecked": 25687,
    "Ġmildness": 9943,
    "ricted": 15419,
    "hot": 8083,
    "Ġensures": 3056,
    "Ġbravely": 23836,
    "Ġappertaining": 26533,
    "seventh": 12711,
    "Ġinnocence": 6477,
    "Ġcurtains": 22970,
    "Ġcollins": 2180,
    "woods": 13418,
    "Ġabundance": 17155,
    "Ġworld": 1599,
    "kings": 17583,
    "Ġwhiteness": 5918,
    "Ġflooring": 23625,
    ">": 34,
    "rote": 4592,
    "bour": 2073,
    "Ġunperceived": 22034,
    "ser": 1425,
    "Ġfrequented": 16584,
    "Ġyielding": 12184,
    "Ġgayer": 24501,
    "impulse": 20644,
    "Ġneglig": 18877,
    "Ġbub": 8117,
    "ggling": 19096,
    "arpo": 1756,
    "ieves": 4008,
    "Ġanimal": 2500,
    "amous": 15758,
    "Ġirre": 7468,
    "Ġbuying": 23993,
    "initions": 21186,
    "measured": 19988,
    "ular": 710,
    "remarkable": 13497,
    "Ġworm": 9162,
    "Ġaffability": 14386,
    "sli": 11521,
    "Ġlocker": 16911,
    "ick": 837,
    "Ġcherub": 23285,
    "Ġratt": 7880,
    "Ġsash": 17754,
    "Ġrevolution": 3307,
    "Ġcome": 1240,
    "Ġsmack": 9299,
    "ython": 1031,
    "be": 671,
    "months": 9071,
    "acid": 11004,
    "Ġdownst": 3559,
    "Ġ23": 13191,
    "Ġpronouncing": 16969,
    "blast": 9587,
    "Ġaf": 781,
    "Ġunsolved": 22030,
    "deep": 1006,
    "Ġdoth": 13907,
    "ĠĠĠĠĠĠĠĠĠĠĠĠĠĠĠĠĠĠĠĠĠĠĠĠĠĠĠĠĠĠĠĠĠĠĠ": 19257,
    "Ġgrim": 7439,
    "Ġheartless": 13071,
    "Ġmournful": 12334,
    "Ġhooped": 23353,
    "lu": 597,
    "Ġtennes": 23547,
    "Ġlee": 4224,
    "Ġunbounded": 18259,
    "Ġsecretary": 19440,
    "script": 11076,
    "mond": 20972,
    "Ġropes": 10748,
    "Ġfaster": 3197,
    "capital": 15087,
    "welt": 12518,
    "because": 4923,
    "dutch": 17218,
    "±": 114,
    "buckets": 26123,
    "Ġavast": 9919,
    "Ġhyster": 16873,
    "cart": 10688,
    "Ġmottled": 20677,
    "Ġrecommending": 24337,
    "Ġdemoniacal": 20555,
    "often": 6165,
    "Ġextracting": 11110,
    "Ġpertur": 12848,
    "Ġperch": 10298,
    "forgotten": 12413,
    "bringing": 17166,
    "ighter": 7967,
    "Ġclang": 15969,
    "ursday": 12274,
    "Ġdisown": 22521,
    "Ġsuper": 2155,
    "created": 12448,
    "Ġsuppose": 2871,
    "Ġamusing": 11798,
    "Ġbison": 21386,
    "Ġscattered": 6857,
    "Ġinterpreted": 1710,
    "20": 20752,
    "uneven": 23684,
    "Ġ27": 8614,
    "Ġsleepy": 8267,
    "Ġvectors": 1773,
    "Ġbro": 1429,
    "stri": 6249,
    "Ġsank": 5076,
    "Ġaven": 10759,
    "Ġassail": 13060,
    "Ġsulphur": 24933,
    "abeth": 907,
    "uvier": 9068,
    "4": 24,
    "Ġstriking": 6088,
    "levi": 7047,
    "unk": 4537,
    "Ġmincing": 18750,
    "Ġcroquet": 9961,
    "racted": 4776,
    "Ġhapless": 15810,
    "ĠĠĠĠĠĠĠĠĠĠĠĠĠĠĠĠĠĠĠĠĠĠĠĠĠĠĠ": 14885,
    "Ġcentral": 7727,
    "Ġmercenary": 17193,
    "embra": 14075,
    "commun": 15033,
    "Ġconstraint": 16514,
    "Ġwash": 9702,
    "Ġgrandfather": 19420,
    "Ġaroused": 15892,
    "Ġminimum": 23035,
    "ivation": 3111,
    "Ġattentively": 9949,
    "Ġpartake": 18670,
    "Ġcreates": 2009,
    "Ġhack": 12753,
    "Ġfeedforward": 2328,
    "Ġfle": 3092,
    "chancing": 22915,
    "Ġgracechurch": 12196,
    "ĠĠĠĠĠĠĠĠĠĠĠĠĠĠĠĠĠĠĠĠĠĠĠĠĠĠĠĠĠĠĠĠĠĠĠĠĠĠ": 16526,
    "Ġfetched": 24567,
    "Ġcostume": 16495,
    "sherlock": 5422,
    "Ġindependently": 4248,
    "Ġirons": 7696,
    "rowing": 7930,
    "aneously": 4061,
    "Ġarrangement": 2661,
    "Ġrelics": 16194,
    "ifference": 5632,
    "Ġgrew": 5182,
    "wrath": 23755,
    "Ġparadigms": 3057,
    "Ġindulgence": 11318,
    "adel": 15726,
    "Q": 53,
    "choose": 23672,
    "Ġon": 353,
    "connection": 18867,
    "calculation": 25688,
    "destroyed": 15259,
    "Ġaccess": 9746,
    "inching": 21188,
    "Ġforgetting": 3436,
    "L": 48,
    "Ġoffices": 14337,
    "Ġplied": 22594,
    "Ġoutput": 930,
    "have": 2059,
    "Ġmenaces": 23104,
    "Ġfron": 14487,
    "ead": 2600,
    "volous": 18581,
    "Ġovertook": 18424,
    "pen": 1204,
    "endeavouring": 15015,
    "Ġcopy": 10163,
    "ised": 1065,
    "âĢĶ_": 3200,
    "Ġsuperst": 7703,
    "privilege": 25263,
    "itute": 9651,
    "Ġpossessed": 5195,
    "Ġtigris": 25759,
    "Ġsymb": 2593,
    "pers": 4337,
    "Ġheaving": 7601,
    "ushing": 5730,
    "principle": 10650,
    "Ġreceived": 2956,
    "lost": 8887,
    "datasets": 11945,
    "Ġantilles": 24179,
    "Ġvision": 1564,
    "sooner": 14774,
    "Ġpunchbowl": 20230,
    "ullied": 23102,
    "Ġsecrecy": 7316,
    "Ġtol": 6675,
    "Ġdeliverance": 15156,
    "ohog": 9844,
    "Ġlawy": 9454,
    "Ġsaluted": 14757,
    "Ġaforethought": 25428,
    "nav": 17612,
    "contr": 12055,
    "Ġfondness": 16780,
    "Ġreturning": 5325,
    "Ġlistened": 4468,
    "Ġfleeting": 19326,
    "<": 32,
    "Ġsails": 5256,
    "Ġclimb": 15078,
    "pent": 3494,
    "Ġstronger": 8578,
    "Ġtendency": 11328,
    "Ġsheaves": 22155,
    "_:": 17478,
    "Ġmechanically": 14397,
    "Ġresuming": 12890,
    "Ġserenely": 13506,
    "ask": 857,
    "Ġweaken": 21918,
    "Ġsulky": 13514,
    "Ġintentionally": 24523,
    "Ġinsist": 9890,
    "Ġpickle": 16722,
    "acet": 5476,
    "leg": 2816,
    "brous": 19197,
    "Ġcollectively": 19966,
    "Ġshoes": 7071,
    "Ġdisregard": 22525,
    "Ó": 148,
    "D": 40,
    "Ġwheel": 9717,
    "alously": 15626,
    "ł": 259,
    "entiful": 10836,
    "Ġagric": 22512,
    "Ġbubbles": 11397,
    "Ġheard": 1399,
    "limin": 8383,
    "squee": 15429,
    "Ġbreakfast": 3978,
    "Ġmariner": 7247,
    "Ġdecreed": 18484,
    "anywhere": 14682,
    "Ġbaronial": 23792,
    "Ġform": 1023,
    "remains": 10398,
    "Ġmult": 1021,
    "Ġpiazza": 26450,
    "Ġbrine": 18769,
    "in": 262,
    "Ġmou": 13854,
    "antic": 1607,
    "Ġoffing": 16141,
    "Ġdiscussing": 5202,
    "Ġargue": 16783,
    "Ġrapidly": 3235,
    "Ġglit": 8558,
    "position": 15412,
    "stationed": 25453,
    "unwillingness": 25802,
    "Ġconnected": 5393,
    "ou": 287,
    "Ġscramble": 24578,
    "¶": 119,
    "Ġs": 265,
    "street": 6495,
    "precious": 12070,
    "Ġglancing": 5399,
    "Ġdexterity": 25294,
    "kes": 3678,
    "Ġinboard": 17932,
    "Ġendured": 6072,
    "Ġagreement": 18542,
    "Ġoutlaws": 22320,
    "Ġtrip": 16788,
    "Ġrucastle": 5176,
    "Ġdiffidence": 14659,
    "Ġstrives": 23694,
    "aire": 10680,
    "aguy": 21907,
    "derick": 22159,
    "Ġhospitality": 13512,
    "ezing": 10573,
    "Ġbawling": 25945,
    "bey": 10313,
    "Ġpang": 15602,
    "Ġrol": 3555,
    "ments": 1401,
    "abomin": 15739,
    "Ġmount": 7362,
    "security": 26206,
    "Ġdark": 2112,
    "Ġraging": 14305,
    "Ġanimation": 11151,
    "Ġcabinets": 23860,
    "pile": 17629,
    "Ġembark": 8560,
    "Ġthom": 21513,
    "Ġchast": 18379,
    "allingly": 22196,
    "fri": 20853,
    "Ġmerited": 23729,
    "Ġarrive": 6908,
    "Ġdreamy": 14702,
    "wondering": 19844,
    "Ġarchy": 14345,
    "sheltered": 25585,
    "Ġunchanged": 22028,
    "acit": 16078,
    "Ġkeeping": 7283,
    "composure": 24032,
    "Ġply": 21450,
    "Ġglitter": 25122,
    "Ġvows": 15806,
    "Ġmeta": 3454,
    "Ġdisappeared": 5645,
    "Ġcollar": 11877,
    "playful": 24357,
    "Ġhowling": 8509,
    "Ġstoper": 14462,
    "Ġnods": 19062,
    "Ġsucked": 14130,
    "Ġrunning": 3954,
    "Ġattachment": 6049,
    "swe": 5995,
    "Ġunprotected": 22064,
    "ignant": 11128,
    "orses": 6051,
    "Ġblanche": 18819,
    "Ġoutlandish": 12835,
    "Ġcontrast": 2119,
    "cri": 17505,
    "somewhat": 11159,
    "Ġfluke": 14673,
    "Ġscales": 4849,
    "Ġunfinished": 19508,
    "uff": 2734,
    "Ġcoronation": 13332,
    "Ġuntrodden": 23521,
    "Ġmonster": 3796,
    "Ġsusp": 2668,
    "Ġinstability": 3816,
    "Ġprobabilities": 4966,
    "Ġcrowd": 6336,
    "conquerable": 17398,
    "Ġnowadays": 18546,
    "stonecraft": 24356,
    "Ġfrancis": 26063,
    "Ġcabs": 23643,
    "Ġmadman": 13150,
    "Ġlabours": 8582,
    "Ġinjustice": 9190,
    "ract": 973,
    "Ġpip": 1562,
    "Ġdiction": 8794,
    "gazed": 15360,
    "Ġhanover": 20584,
    "Ġaccusation": 22375,
    "cific": 10085,
    "Ġmo": 628,
    "Ġincarnate": 20373,
    "Ġplease": 4723,
    "Ġenjoyed": 8007,
    "lections": 4752,
    "Ġbearing": 5298,
    "Ġfretfulness": 25448,
    "Ġexclam": 6757,
    "kington": 11202,
    "Ġprone": 18969,
    "closed": 23152,
    "individual": 18436,
    "bearers": 18524,
    "Ġenem": 4708,
    "Ġmud": 11571,
    "ia": 1257,
    "Ġchronicler": 20228,
    "io": 3804,
    "Ġsavages": 9911,
    "until": 6596,
    "Ġimbued": 17454,
    "quered": 11054,
    "Ġhanding": 16128,
    "Ġkneel": 14806,
    "Ġsignification": 19201,
    "Ġcautiousness": 19865,
    "Ġcompacted": 23508,
    "Ġminimizing": 3467,
    "Ġglimpses": 13431,
    "Ġprovides": 1928,
    "ively": 1355,
    "ights": 8475,
    "Ġpennies": 17270,
    "Ġwealth": 7621,
    "izure": 21831,
    "investigations": 25533,
    "Ġprized": 23219,
    "Ġoutrages": 18415,
    "Ġaverred": 18864,
    "Ġbaltic": 18794,
    "Ġdisposal": 19374,
    "Ġwhistled": 24623,
    "Ġannouncing": 16754,
    "Ġassid": 18944,
    "erxes": 21274,
    "Ġastir": 14640,
    "Ġshortness": 23482,
    "Ġattent": 4361,
    "Ġagile": 22510,
    "Ġsituated": 9447,
    "icherry": 15134,
    "Ġindignation": 8346,
    "copper": 19187,
    "Ġreap": 18026,
    "Ġcastaways": 19426,
    "Ġstage": 7389,
    "l": 80,
    "Ġcut": 2645,
    "dling": 9111,
    "comfortableness": 24525,
    "tled": 3460,
    "Ġtens": 17723,
    "arking": 16123,
    "Ġ68": 24370,
    "Ġbegged": 8230,
    "persuasion": 20042,
    "eronomy": 15523,
    "Ġexercising": 19906,
    "inced": 3338,
    "tack": 12510,
    "oided": 11507,
    "kindred": 24048,
    "Ġfulfil": 9550,
    "Ġgravel": 14101,
    "originally": 24937,
    "Ġanticipated": 13510,
    "Ġconvergence": 972,
    "boone": 23252,
    "Ġgleam": 12306,
    "ph": 925,
    "Ġprophecy": 25706,
    "Ġobtruded": 20721,
    "Ġnonce": 23230,
    "Ġparagra": 15877,
    "perv": 1521,
    "Ġdarted": 4758,
    "Ġdiligent": 25075,
    "Ġimprobable": 9792,
    "Ġscept": 15502,
    "wonderful": 16960,
    "Ġcelebrate": 26357,
    "Ġbursting": 8655,
    "======": 9832,
    "merit": 19281,
    "indeed": 4486,
    "Ġshall": 1144,
    "wh": 509,
    "Ġenchant": 7185,
    "Ġolive": 12562,
    "Ġimpartial": 15218,
    "Ġsuperl": 16445,
    "shook": 19855,
    "Ġsleet": 8975,
    "gh": 3803,
    "Ġmute": 19414,
    "Ġrides": 21968,
    "Ġchairs": 12822,
    "Ġthunder": 4823,
    "hob": 20899,
    "Ġmon": 1249,
    "ahab": 4291,
    "Ġsideways": 6182,
    "Ġdilated": 24704,
    "Ġsteer": 10386,
    "Ġadmeasurements": 26225,
    "Ġknowing": 4456,
    "Ġstupid": 7607,
    "Ġduchess": 4799,
    "Ġhunks": 18935,
    "Ġadored": 18291,
    "Ġxiv": 23406,
    "Ġshed": 8180,
    "Ġemails": 13105,
    "abominable": 20592,
    "scream": 11075,
    "terday": 4705,
    "mighty": 9466,
    "Ġappals": 22216,
    "Ġluxury": 20130,
    "penetrate": 20323,
    "Ġgrant": 11871,
    "Ġamendment": 26024,
    "Ġstores": 18071,
    "Ġlur": 5226,
    "classes": 12133,
    "Ġselfish": 7272,
    "Ġtreble": 16503,
    "captains": 12125,
    "Ġnurtured": 19748,
    "dare": 12451,
    "Ġrucastles": 18722,
    "Ġusefulness": 19406,
    "kicked": 20942,
    "iancy": 13006,
    "necessities": 24306,
    "eping": 5833,
    "Ġottoman": 17377,
    "Ġplaintiffs": 13608,
    "iards": 17574,
    "Ġmisfortunes": 7041,
    "Ġproble": 1107,
    "Ġfulfilment": 20186,
    "Ġtame": 17722,
    "Ġadvised": 16201,
    "metallic": 19879,
    "precaution": 23820,
    "nson": 16085,
    "thing": 1479,
    "ampton": 18144,
    "Ġ69": 19660,
    "Ġminus": 18749,
    "tawn": 21079,
    ",âĢĿâĢĶ": 14220,
    "Ġcaps": 8414,
    "Ġlanterns": 24577,
    "Ġwire": 13851,
    "18": 20750,
    "Ġ{": 21151,
    "Ġivory": 4475,
    "Ġjournal": 15217,
    "Ġcerem": 7077,
    "Ġrobins": 16270,
    "Ġholidays": 22919,
    "eastern": 17533,
    "Ġmoluccas": 25629,
    "Ġpallor": 13515,
    "å": 166,
    "Ġmouthful": 16573,
    "harpoons": 24285,
    "Ġsumatra": 15285,
    "Ġol": 17814,
    "ounding": 22390,
    "osen": 6855,
    "gentlemanlike": 20000,
    "progra": 9394,
    "Ġfalse": 4344,
    "Ġsled": 21217,
    "deprived": 19897,
    "Ġfidget": 15188,
    "activity": 22628,
    "ught": 2754,
    "Ġcarpets": 18901,
    "Ġexpect": 2306,
    "exposure": 19256,
    "emin": 8470,
    "anders": 18152,
    "grandfather": 25009,
    "Ġ$": 21149,
    "bast": 10076,
    "Ġghost": 6142,
    "Ġnight": 1466,
    "Ġloaf": 15870,
    "house": 4079,
    "ould": 428,
    "Ġflask": 3040,
    "becomes": 22493,
    "Ġparameters": 993,
    "rim": 7137,
    "Ġregularly": 7658,
    "ies": 583,
    "Ġtallow": 14776,
    "wretch": 17708,
    "Ġitself": 2523,
    "Ġtoler": 7589,
    "onom": 9158,
    "Ġwomanly": 23549,
    "Ġwept": 7184,
    "Ġcomputes": 4768,
    "unfortunate": 15774,
    "Ġrnns": 2395,
    "Ġfootpath": 19337,
    "Ġhimmale": 18334,
    "Ġtoil": 6531,
    "Ġpurses": 23477,
    "contin": 16541,
    "Ġdenoted": 16564,
    "oubtedly": 6943,
    "Ġsoldiers": 8686,
    "Ė": 215,
    "Ġlowered": 6735,
    "prep": 9758,
    "abst": 21785,
    "Ġmister": 22752,
    "ĠĠĠĠĠĠĠĠĠĠĠĠĠĠĠĠĠĠĠĠĠĠĠĠĠĠĠĠĠĠĠĠĠĠĠĠĠĠĠĠĠĠĠĠĠĠĠĠĠĠĠ": 20037,
    "venth": 9294,
    "unaccountable": 15776,
    "Ġenemy": 5605,
    "iscreet": 20681,
    "Ġeste": 6084,
    "Ġdecanter": 22441,
    "purpose": 10043,
    "eryton": 4096,
    "jewel": 20345,
    "crippled": 26384,
    "delirium": 14783,
    "Ġdoubtful": 19141,
    "hatchway": 25904,
    "Ġnorthward": 13320,
    "te": 994,
    "es": 289,
    "Ġcleans": 18947,
    "Ġcarn": 17821,
    "Ġshades": 9462,
    "igin": 3655,
    "smart": 23904,
    "lee": 11583,
    "Ġlaug": 3626,
    "ignity": 4374,
    "drunk": 24659,
    "jets": 20927,
    "Ġcompass": 4408,
    "Ġconscious": 7743,
    "Ġwhist": 6021,
    "Ġslightest": 6092,
    "Ġarising": 10932,
    "Ġcampaign": 20660,
    "sombre": 23852,
    "Ġabhorrence": 9052,
    "Ġugly": 8715,
    "Ġdrawback": 23987,
    "cul": 1898,
    "Ġbended": 21383,
    "Ġeffusions": 18534,
    "degrees": 22147,
    "Ġundiscovered": 18252,
    "jer": 12478,
    "withstanding": 8945,
    "Ġcassock": 20485,
    "Ġbright": 3213,
    "accident": 11180,
    "Ġpop": 5151,
    "aced": 2408,
    "discoveries": 25385,
    "akened": 7415,
    "mentioning": 24885,
    "Ġfollowing": 4064,
    "Ġrags": 18645,
    "Ġadvantages": 9807,
    "Ġconfine": 14508,
    "Ġinvestig": 10549,
    "Ġdenominated": 15227,
    "Ġwork": 1337,
    "alterable": 13623,
    "Ġcalculating": 9924,
    "Ġmarried": 3409,
    "unsupervised": 10888,
    "finish": 24384,
    "Ġleader": 14701,
    "Ġattempted": 8000,
    "windlass": 16721,
    "lished": 8382,
    "vation": 4744,
    "Ġishmael": 7395,
    "ite": 713,
    "Ġgar": 10838,
    "Ġnumer": 3637,
    "Ġindirect": 18834,
    "title": 17287,
    "orm": 425,
    "ples": 6845,
    "Ġdull": 6384,
    "Ġeagerly": 4990,
    "restoration": 23236,
    "vers": 1324,
    "Ġexponentiating": 3448,
    "Ġwhither": 10214,
    "Ġplowdon": 26447,
    "someone": 14564,
    "Ġstiffly": 15005,
    "Ġbreadth": 10563,
    "Ġzones": 22816,
    "con": 653,
    "frequented": 25900,
    "Ġox": 7153,
    "arse": 7160,
    "Ġcomposure": 7217,
    "Ġra": 809,
    "Ġvalu": 5038,
    "hab": 1079,
    "Ġjulia": 22289,
    "Ġgiver": 21602,
    "Ġperhaps": 1909,
    "arer": 3971,
    "Ġanalog": 12609,
    "Ġlonging": 14296,
    "Ġvener": 8163,
    "morrow": 4572,
    "Ġhelplessly": 20076,
    "Ġscra": 5841,
    "Ġencouragement": 13040,
    "man": 1055,
    "ables": 7890,
    "Ġsow": 17749,
    "Ġprocuring": 16870,
    "Ġpain": 2303,
    "rily": 7622,
    "Ġwarmup": 3924,
    "90": 12430,
    "Ġexecutors": 19532,
    "Ġparch": 11724,
    "Ġvex": 5948,
    "Ġversion": 10630,
    "omeness": 18015,
    "Ġdumplings": 15189,
    "Ġoccupant": 16651,
    "Ġsparing": 22126,
    "Ġgrotes": 19562,
    "Ġapply": 1779,
    "Ġawaiting": 11389,
    "Ġaffinity": 18786,
    "Ġsouthwards": 19632,
    "matic": 4618,
    "Ġmadness": 6601,
    "attacks": 23119,
    "Ġgets": 10839,
    "Ġcertain": 1555,
    "exasper": 22424,
    "lleg": 20950,
    "Ġsog": 22075,
    "Ġadmirably": 16481,
    "gracechurch": 24581,
    "ope": 4127,
    "Ġ121": 24466,
    "Ġascend": 9959,
    "Ġattendant": 11284,
    "pl": 401,
    "Ġoverpowering": 15248,
    "Ġnative": 4640,
    "display": 19154,
    "Ġtypically": 1535,
    "niece": 20994,
    "Ġdate": 7841,
    "Ġseethings": 26503,
    "Ġremembr": 24170,
    "heavenly": 20043,
    "elsewhere": 19867,
    "Ġsuffering": 8946,
    "Ġannals": 17898,
    "Ġfrank": 4419,
    "iscuits": 24666,
    "Ġdau": 21423,
    "bethink": 25744,
    "Ġflesh": 5968,
    "apable": 6422,
    "slow": 7810,
    "Ġalman": 21778,
    "Ġreliance": 14384,
    "Ġsuggests": 12198,
    "Ġpapa": 10656,
    "Ġreluctant": 20523,
    "Ġreplacing": 3451,
    "Ġeagle": 13201,
    "acious": 5562,
    "Ġimposs": 16616,
    "Ġpropose": 9852,
    "intend": 16222,
    "Ġprepar": 7896,
    "Ġfrenchman": 11282,
    "Ġdisconcerted": 18562,
    "atural": 941,
    "Ġshutter": 16670,
    "Ġconse": 21801,
    "Ġlieu": 19563,
    "Ġtheoretic": 23310,
    "Ġdrew": 3537,
    "water": 4868,
    "Ġvaluable": 5608,
    "Ġfuneral": 10282,
    "Ķ": 247,
    "Ġ28": 19294,
    "Ġsmooth": 2780,
    "gerine": 22885,
    "Ġbraz": 19356,
    "ict": 591,
    "Ġcommissioned": 19894,
    "consist": 14815,
    "Ġsubject": 2466,
    "ested": 3481,
    "Ġroots": 11184,
    "icated": 7591,
    "Ġloomed": 12299,
    "Ġmovements": 24359,
    "cob": 10086,
    "undertaking": 23786,
    "Ġsord": 21218,
    "Ġslime": 23159,
    "gunw": 17220,
    "Ġmerry": 5868,
    "Ġperceive": 6699,
    "Ġpastures": 23418,
    "ropout": 1318,
    "Ġskilfully": 20522,
    "Ġbill": 4042,
    "longing": 23724,
    "Ġrules": 1916,
    "loss": 22505,
    "Ġarchangel": 8542,
    "tubs": 15129,
    "Ġreturn": 1709,
    "mole": 22698,
    "Ġdistributions": 1053,
    "Ġhailed": 6407,
    "Ġmr": 661,
    "Ġsoles": 22076,
    "ouraged": 22856,
    "Ġthoughtful": 16190,
    "Ġprofess": 3698,
    "ow": 325,
    "Ġheiress": 20696,
    "Ġscimet": 22300,
    "preserver": 20212,
    "square": 15059,
    "Ġpreceded": 13427,
    "Ġinexhaustible": 16981,
    "Ġhessian": 3548,
    "Ġedged": 23435,
    "elter": 21568,
    "Ġunaccountably": 26515,
    "attentive": 17189,
    "Ġquestions": 3975,
    "Ġhaggard": 17329,
    "Ġcreep": 22722,
    "Ġstudded": 18968,
    "heavily": 24534,
    "coronet": 16863,
    "Ġthickness": 13276,
    "Ġpoetry": 15079,
    "Ġsomewhere": 5384,
    "Ġfinal": 5400,
    "Ġinquired": 7486,
    "bable": 8718,
    "Ġcompar": 4771,
    "bestow": 16929,
    "Ġgales": 12662,
    "Ġcompare": 9301,
    "Ġcommanders": 23866,
    "Ġwatson": 3596,
    "invite": 25088,
    "term": 3758,
    "ologist": 22875,
    "bes": 6641,
    "Ġdoctors": 12149,
    "Ē": 211,
    "notches": 22749,
    "Ġrepeatedly": 9020,
    "grin": 19105,
    "Ġvide": 10250,
    "Ġrepublican": 17411,
    "Ġsag": 6514,
    "wrinkles": 16554,
    "Ġinher": 10179,
    "Ġtobacc": 7852,
    "humored": 19451,
    "ension": 6569,
    "gging": 7697,
    "Ġwaned": 17791,
    "Ġshortly": 6196,
    "ox": 9133,
    "considerably": 13444,
    "Ġbumping": 25280,
    "Ġsolid": 6443,
    "Ġresurrection": 12891,
    "Ġpresented": 5183,
    "Ġirr": 10421,
    "Ġestimable": 23870,
    "Ġstre": 2108,
    "physiogn": 26264,
    "paint": 21017,
    "Ġcomplement": 23708,
    "Ġcart": 11581,
    "Ġmariners": 6067,
    "Ġalders": 21781,
    "within": 6730,
    "chess": 16572,
    "wise": 2577,
    "slee": 17168,
    "Ġtypewritten": 16420,
    "socket": 22726,
    "Ġfing": 3757,
    "growing": 13732,
    "Ġundulating": 19516,
    "Ġfrozen": 9012,
    "Ġfobbing": 26441,
    "tee": 16171,
    "Ġperception": 9749,
    "ther": 482,
    "Ġpeak": 16124,
    "pagan": 17285,
    "Ġanatomical": 15075,
    "scr": 16239,
    "rather": 5430,
    "Ġpress": 5931,
    "Ġoverwhelm": 25050,
    "Ġcompany": 3720,
    "wishing": 21127,
    "frequently": 9978,
    "fitted": 17544,
    "í": 174,
    "fred": 20854,
    "ittingly": 18806,
    "ources": 2790,
    "ered": 1683,
    "doms": 20834,
    "seized": 14034,
    "Ġengra": 7873,
    "Ġadequate": 20307,
    "Ġamid": 4959,
    "pertaining": 22180,
    "s": 87,
    "Ġrepetition": 8972,
    "Ġke": 1156,
    "toes": 22561,
    "Ġfountain": 7365,
    "Ġmuchness": 18708,
    "Ġay": 15490,
    "Ġtarpaul": 17730,
    "peril": 18340,
    "Ġsimply": 7218,
    "Ġamply": 22479,
    "Ġsur": 2182,
    "Ġthin": 4348,
    "Ġsque": 18757,
    "quet": 6835,
    "Ġsecluded": 11991,
    "Ġbourgh": 5069,
    "Ġhost": 7068,
    "Ġthickets": 24021,
    "Ġswain": 18880,
    "volut": 1558,
    "ghan": 19453,
    "Ġpopular": 6216,
    "caterpillar": 26383,
    "Ġpeddling": 24799,
    "comprehend": 14358,
    "Ġsoftness": 18917,
    "Ġscent": 10288,
    "dece": 11732,
    "Ġrecoil": 18692,
    "Ġmonitors": 3157,
    "prudently": 21033,
    "Ġclum": 8872,
    "Ġcommentators": 25229,
    "Ġevid": 3502,
    "Ġcomfort": 3440,
    "death": 6261,
    "Ġenables": 726,
    "Ġfacilitate": 26098,
    "ationally": 15702,
    "Ġvow": 10246,
    "Ġcursed": 6726,
    "archbishop": 22891,
    "Ġswitzerland": 10379,
    "provid": 11148,
    "ateg": 1400,
    "rr": 17650,
    "İ": 241,
    "tot": 10728,
    "iger": 8446,
    "expected": 5780,
    "Ġschool": 5512,
    "Ġblocks": 6321,
    "mons": 17600,
    "zen": 5140,
    "frock": 20119,
    "Ġsor": 4148,
    "weight": 2944,
    "Ġparticular": 2451,
    "Ġcordially": 16836,
    "Ġenduring": 16301,
    "Ġtin": 15462,
    "Ġword": 1054,
    "Ġplunge": 13442,
    "clusion": 16303,
    "au": 776,
    "onic": 7827,
    "Ġintrusted": 21989,
    "acquired": 24296,
    "Ġamounts": 6704,
    "cream": 15330,
    "ons": 709,
    "Ġwhispers": 14699,
    "dar": 20823,
    "timidity": 25753,
    "Ġvomit": 21945,
    "august": 11070,
    "Ġanalyze": 1569,
    "Ġavert": 14424,
    "oftener": 23962,
    "harpoone": 6107,
    "scales": 22989,
    "Ġsure": 1864,
    "Ġbeating": 8144,
    "Ġsurmises": 17056,
    "Ġencl": 16164,
    "Ġbarrel": 23790,
    "Ġgentlemanlike": 12064,
    "Ġconfound": 23303,
    "ias": 6362,
    "wig": 17704,
    "Ġmask": 1865,
    "Ġfling": 9660,
    "Ġdeject": 10880,
    "Ġastonishing": 10501,
    "Ġmissed": 8555,
    "isc": 6239,
    "Ġimpulsively": 24880,
    "Ġconjecture": 9531,
    "Ġdecent": 10977,
    "phantoms": 24679,
    "Ġcongratulatory": 19766,
    "Ġthrone": 12211,
    "Ġfile": 13902,
    "Ġgratify": 19501,
    "Ġpupp": 10820,
    "Ġtapers": 11550,
    "Ġdecrease": 4203,
    "Ġgallied": 19555,
    "Ġpleaded": 16297,
    "freighted": 14891,
    "Ġvaulted": 25167,
    "Ġtest": 1627,
    "conqu": 14244,
    "silver": 19689,
    "sad": 11519,
    "mechan": 11855,
    "Ġrounds": 18884,
    "Ġovertaken": 18425,
    "Ġunostentatious": 22067,
    "Ġunintellig": 22023,
    "Ġpleasantest": 24138,
    "Ġhandkerchief": 8913,
    "Ġ70": 11275,
    "obliv": 23094,
    "Ġcourtship": 24136,
    "uttural": 21586,
    "sized": 15427,
    "Ġgrasp": 4663,
    "py": 17624,
    "Ġterm": 2267,
    "Ġsolomon": 11051,
    "pect": 1253,
    "Ġembatt": 18858,
    "Ġbiography": 22764,
    "poster": 11055,
    "Ġsent": 1777,
    "Ġrights": 10396,
    "Ġherb": 15854,
    "upset": 23014,
    ",âĢĶâĢľ": 10069,
    "Ġengineer": 11973,
    "k": 79,
    "Ġprison": 5403,
    "regular": 3042,
    "Ġrocks": 6863,
    "Ġanew": 11429,
    "orous": 5292,
    "vacancies": 25919,
    "Ġassociates": 24712,
    "Ġlodged": 11250,
    "Ġlothario": 26184,
    "Ġcloth": 9743,
    "Ġresentful": 24631,
    "swells": 26148,
    "contained": 22467,
    "tit": 11526,
    "Ġimag": 2679,
    "Ġgenius": 8045,
    "ople": 2321,
    "Ġrounding": 16274,
    "Ę": 217,
    "Ġejaculation": 20253,
    "doublo": 24660,
    "start": 7599,
    "continually": 11301,
    "Ġrebounds": 25967,
    "Ġsubsc": 22787,
    "Ġvacancy": 9044,
    "Ġisinglass": 21799,
    "cked": 2765,
    "ief": 2047,
    "Ġdisappo": 4504,
    "solute": 16598,
    "Ġcomput": 601,
    "Ġtemple": 7654,
    "Ġfrankenstein": 7095,
    "Ġreferred": 8916,
    "bingleys": 19633,
    "Ġdisrespect": 18553,
    "Ġsimpler": 2049,
    "Ġenvironment": 3837,
    "what": 642,
    "Ġri": 3396,
    "forgetting": 25485,
    "Ġterribly": 10425,
    "ruff": 15899,
    "allows": 15905,
    "gul": 12463,
    "Ġfow": 6133,
    "/`)": 13659,
    "Ġidol": 7467,
    "Ġmarshy": 20217,
    "Ġgang": 9207,
    "Ġlucases": 9009,
    "Ġfer": 5529,
    "handled": 19260,
    "magnitude": 17248,
    "Ġclamorous": 24909,
    "eminent": 25104,
    "Ġoperation": 11997,
    "ı": 242,
    "stopping": 19348,
    "Ġvariously": 18653,
    "higher": 20405,
    "Ġpublicly": 13321,
    "Ġworshipping": 22925,
    "Ġult": 9074,
    "reasonable": 7751,
    "Ġselecting": 16684,
    "Ġinaccessible": 13933,
    "beside": 19876,
    "Ġpreacher": 18369,
    "son": 2330,
    "Ġprep": 4194,
    "ighbour": 3390,
    "christ": 10210,
    "words": 7982,
    "Ġlosing": 10915,
    "nlp": 8750,
    "Ġrattled": 15065,
    "whole": 6085,
    "Ġsamples": 2966,
    "Ġfairer": 20460,
    "Ġnour": 10830,
    "Ġfishes": 11589,
    "Ġreciprocating": 26369,
    "Ġcliffs": 15974,
    "Ġeasiness": 23535,
    "Ġconcent": 8249,
    "aisance": 15073,
    "leave": 7837,
    "Ġdoubtfully": 23478,
    "proud": 9903,
    "Ġoldest": 12970,
    "Ġprelimin": 8860,
    "ositories": 22261,
    "ela": 21566,
    "Ġfringed": 17272,
    "Ġdoct": 4454,
    "Ġalterations": 19870,
    "indifference": 15980,
    "ris": 9137,
    "Ġpark": 5465,
    "Ġspeckled": 14308,
    "Ġunnaturally": 24870,
    "heavy": 10574,
    "reeable": 3611,
    "Ġstout": 6024,
    "erative": 21271,
    "Ġunexpected": 6841,
    "Ġcuba": 25095,
    "kye": 20937,
    "Ġcrippled": 25278,
    "Ġbolts": 16943,
    "eaten": 20343,
    "Ġcru": 2826,
    "icles": 17972,
    "rically": 15416,
    "hid": 13733,
    "Ġrepented": 23360,
    "arnel": 18124,
    "inquire": 16932,
    "Ġhey": 11640,
    "ivery": 17572,
    "Ġfilthy": 13247,
    "Ġdisposition": 5409,
    "nihil": 9849,
    "Ġjet": 5307,
    "Ĵ": 245,
    "contrary": 23727,
    "Ġusual": 3945,
    "nay": 7135,
    "Ġpantry": 20294,
    "Ġdogs": 7741,
    "Ġsubt": 11866,
    "Ġmincer": 14365,
    "Ġcamp": 9164,
    "Ġapproving": 18509,
    "Ġfig": 3623,
    "Ġsophisticated": 1593,
    "Ġ}": 21152,
    "Ġperadventure": 22396,
    "Ġwinding": 8235,
    "Ġtreated": 7080,
    "Ġlany": 21551,
    "pled": 7891,
    "Ġnook": 15926,
    "Ġcent": 3257,
    "Ġlatest": 16822,
    "kindled": 16660,
    "Ġprudence": 13919,
    "represented": 20194,
    "Ġvehemently": 26039,
    "limp": 20951,
    "Ġwooden": 4730,
    "Ġawaited": 17074,
    "Ġcreditor": 24290,
    "Ġprair": 7746,
    "Ġname": 2084,
    "Ġbeauties": 10445,
    "Ġkill": 4453,
    "Ġwhaleman": 4654,
    "Ġnotion": 7881,
    "screwed": 17187,
    "Ġesquimaux": 25150,
    "little": 3354,
    "Ġmorbidness": 20627,
    "Ġabst": 9265,
    "Ġalternately": 15031,
    "ifying": 5235,
    "Ġvariations": 22663,
    "berish": 22716,
    "Ġhatter": 4115,
    "ill": 447,
    "Ġterrors": 6918,
    "Ġmortal": 4681,
    "Ġhalts": 3159,
    "ivering": 7698,
    "Ġdoxology": 22241,
    "oused": 6556,
    "Ġstash": 18070,
    "Ġdivergence": 2731,
    "Ġreject": 7386,
    "ol": 361,
    "charles": 14698,
    "Ġtrifling": 10602,
    "Ġinevitably": 17230,
    "Ġbil": 15562,
    "Ġknitting": 24218,
    "Ġgovernment": 15175,
    "gee": 15975,
    "Ġnaught": 8127,
    "Ġallusions": 10905,
    "Ġampl": 22477,
    "garity": 17554,
    "Ġtraining": 530,
    "È": 137,
    "Ġadagrad": 2909,
    "Ġsees": 8842,
    "Ġrains": 24340,
    "Ġplaguy": 22601,
    "Ġcherry": 16935,
    "creat": 20799,
    "plicable": 10255,
    "substance": 15230,
    "Ġplausible": 26553,
    "gun": 10096,
    "orated": 12588,
    "cious": 6643,
    "jac": 8381,
    "Ġnightgown": 23128,
    "Ġfruitless": 25605,
    "Ġsmoothe": 23658,
    "Ġoriginally": 7304,
    "bitt": 17485,
    "irms": 18166,
    "Ġimplies": 24873,
    "voy": 7143,
    "adders": 24400,
    "Ġeddy": 13122,
    "erable": 1914,
    "kovoko": 20668,
    "jure": 20923,
    "Ġadaptation": 3156,
    "Ġgrass": 5177,
    "cord": 8723,
    "Ġcalling": 5662,
    "Ġplayfulness": 23638,
    "liked": 10508,
    "Ġamongst": 8959,
    "iday": 8829,
    "daring": 20828,
    "Ġconceited": 12088,
    "Ġinfallibly": 10040,
    "Ġcomforter": 20505,
    "ength": 2315,
    "branch": 23577,
    "thinks": 16641,
    "ography": 13361,
    "shot": 2132,
    "separately": 25227,
    "aves": 3598,
    "Ġyoungster": 23177,
    "Ġfirmness": 11236,
    "Ġwatchman": 23668,
    "Ġ7": 4745,
    "Ġupdate": 2465,
    "Ġretarded": 23070,
    "Ġcosy": 13129,
    "Ġcrocod": 19627,
    "Ġmelting": 24288,
    "Ġcontextually": 11953,
    "Ġsle": 2015,
    "Ġbod": 4581,
    "Ġwharves": 13505,
    "Ġcommence": 6167,
    "Ġheadlands": 22894,
    "Ġcombat": 16178,
    "imp": 3034,
    "Ġhappen": 5571,
    "inks": 6869,
    "Ġcheerful": 6621,
    "Ġpeered": 18668,
    "Ġdescended": 7428,
    "wealth": 22685,
    "joke": 20929,
    "dismay": 19152,
    "ces": 578,
    "lab": 3459,
    "Ġadler": 8173,
    "jam": 15370,
    "Ġunaccount": 22024,
    "chair": 5916,
    "á": 162,
    "Ġinherent": 4591,
    "Ġelegance": 11331,
    "accessible": 13638,
    "Ġglove": 14491,
    "ations": 711,
    "cooper": 19188,
    "ralian": 19599,
    "Ġaffecting": 2325,
    "Ġbade": 9171,
    "Ġshabby": 14110,
    "Ġsystems": 802,
    "Ġlunch": 13525,
    "geese": 22364,
    "various": 10397,
    "Ġfitting": 21406,
    "Ġlottery": 19887,
    "oniously": 21256,
    "inting": 9813,
    "Ġready": 3399,
    "Ġdrugg": 17119,
    "riminately": 16483,
    "ution": 4350,
    "Ġdeserted": 8636,
    "narrated": 25621,
    "Ġlulled": 17968,
    "mber": 7803,
    "Ġwax": 10776,
    "diligence": 26110,
    "Ġstreaming": 19672,
    "step": 2458,
    "Ġgreenness": 23766,
    "Ġjuggl": 20436,
    "ohn": 4561,
    "Ġcandidates": 4334,
    "Ġgree": 7595,
    "Ġdreading": 23797,
    "Ġdenny": 9001,
    "Ġpatronage": 17053,
    "writing": 7720,
    "Ġsplit": 7992,
    "pet": 4867,
    "Ġperfectly": 3700,
    "\\": 64,
    "Ġtend": 6120,
    "Ġcusack": 26433,
    "cond": 1666,
    "Ġmedic": 11245,
    "immediate": 20092,
    "Ġexercised": 24803,
    "animals": 24738,
    "Ġslashing": 23168,
    "hung": 8380,
    "Ġmonoman": 7938,
    "speptic": 23943,
    "Ġostens": 25275,
    "liest": 6294,
    "Ġbrightly": 13222,
    "Ġwrenched": 12555,
    "Ġknights": 15148,
    "Ġcondescend": 19953,
    "column": 19328,
    "Ġunfold": 8022,
    "Ġpa": 2992,
    "sme": 17658,
    "!)": 10068,
    "Ġushered": 18359,
    "adequ": 11019,
    "case": 5206,
    "jaws": 20931,
    "Ġundiscernible": 22065,
    "Ġ39": 19488,
    "Ġcounters": 24140,
    "lie": 12480,
    "Ġdefici": 22940,
    "Ġtire": 17720,
    "Ġconceits": 19388,
    "Ġwild": 2602,
    "Ġprime": 10404,
    "Ġthews": 21276,
    "Ġadventurous": 16733,
    "idation": 5022,
    "fre": 5425,
    "orative": 21396,
    "necess": 4896,
    "Ġnovelty": 13462,
    "allowed": 5728,
    "Ġ1828": 25720,
    "another": 5439,
    "nurse": 15207,
    "ample": 1362,
    "Ġingolstadt": 8332,
    "Ġscrolled": 22296,
    "Ġepsom": 19981,
    "Ġunf": 4092,
    "Ġdispositions": 13232,
    "Ġhoneymoon": 25645,
    "body": 2309,
    "Ġpropri": 6738,
    "agitation": 14067,
    "Ġprinces": 23221,
    "ax": 695,
    "Ġsmo": 2705,
    "Ġungod": 22021,
    "Ġlords": 14641,
    "lement": 10166,
    "Ġstratag": 26028,
    "Ġpaddle": 20057,
    "Ġ43": 14768,
    "represent": 9637,
    "profound": 16424,
    "Ġhers": 7888,
    "extric": 22759,
    "Ġbit": 2968,
    "emason": 18182,
    "Ġshallow": 14393,
    "Ġbarbs": 10531,
    "Ġul": 6828,
    "cherish": 24552,
    "Ġ97": 19773,
    "occupied": 12302,
    "Ġbitten": 21388,
    "aff": 3103,
    "Ġfearfulness": 23512,
    "Ġbags": 24537,
    "Ġoutweigh": 22319,
    "Ġsiam": 13837,
    "chron": 21691,
    "Ġlumps": 21553,
    "Ġpoint": 2057,
    "eting": 7169,
    "thankful": 16806,
    "Ġrepenting": 25322,
    "Ġregiment": 6432,
    "above": 8147,
    "Ġwhitting": 18055,
    "Ġoust": 21322,
    "==": 945,
    "ooped": 17623,
    "Ġrelation": 2143,
    "Ġtwice": 4661,
    "Ġconducted": 10502,
    "venor": 16098,
    "Ġmir": 9646,
    "Ġbrowne": 13300,
    "Ġsuspicious": 9479,
    "Ġperilously": 24507,
    "Ġnoah": 10941,
    "achusetts": 20709,
    "Ġren": 3849,
    "Ġhieroglyphic": 25587,
    "multiple": 15106,
    "spring": 7231,
    "Ġintroduces": 3272,
    "Ġmacey": 12560,
    "abond": 15738,
    "Ġvancou": 22872,
    "Ġvindict": 13604,
    "surd": 6934,
    "alcul": 15625,
    "Ġsubstantial": 14809,
    "Ġswimmer": 19457,
    "Ġinfinite": 8576,
    "Ġjoker": 22285,
    "smiled": 16614,
    "sne": 10124,
    "Ġbecoming": 4397,
    "Ġam": 660,
    "Ġpeas": 8533,
    "Ġmiguel": 25766,
    "Ġgap": 21596,
    "Ġcrowds": 14738,
    "Ġscandalous": 24879,
    "anely": 17836,
    "atiously": 15520,
    "Ġsubstitute": 16726,
    "Ġdodging": 19886,
    "Ġinterfere": 11815,
    "finer": 17546,
    "Ġlabor": 10418,
    "readiness": 19361,
    "atch": 675,
    "Ġbuzz": 23994,
    "Ġcir": 21339,
    "Ġsystem": 574,
    "Ġsalut": 10509,
    "Ġdeclaration": 16636,
    "Ġvote": 21944,
    "Ġtuples": 13476,
    "bows": 10081,
    "icity": 2541,
    "Ġnam": 17948,
    "shown": 22446,
    "unch": 14057,
    "arent": 4251,
    "commander": 16987,
    "currents": 23842,
    "staring": 18020,
    "Ġfond": 4755,
    "ved": 869,
    "fo": 5278,
    "spirits": 8054,
    "2": 22,
    "put": 414,
    "Ġcorpora": 26580,
    "Ġphrases": 2799,
    "Ġrefusing": 11028,
    "Ġtwitching": 25683,
    "inqu": 6121,
    "Ġnotwithstanding": 9713,
    "Ġswitching": 23054,
    "Ġexchanging": 18132,
    "Ġdescried": 7918,
    "Ġfeebly": 24877,
    "Ġfreighted": 16321,
    "Ġedition": 16433,
    "Ġis": 347,
    "concerned": 24638,
    "entered": 8814,
    "Ġdestination": 19149,
    "metals": 24766,
    "shark": 14237,
    "Ġfleet": 9431,
    "Ġcoming": 2619,
    "grat": 5052,
    "Ġparallel": 1414,
    "rated": 6227,
    "Ġshortened": 23483,
    "deploy": 22140,
    "Ġorb": 22088,
    "stocks": 23818,
    "Ġ126": 24471,
    "Ġmultiplied": 23689,
    "Ġcele": 9899,
    "Ġpersuaded": 5769,
    "tray": 21076,
    "Ġancestry": 25641,
    "Ġfam": 1586,
    "Ġlat": 5087,
    "Ġformed": 3887,
    "Ġcalls": 6744,
    "damn": 20022,
    "Ġcombination": 22833,
    "Ġcasualty": 20340,
    "Ġedges": 3828,
    "Ġwinchester": 10065,
    "Ġdistance": 3485,
    "Ġservants": 6611,
    "westward": 25424,
    "Ġlobes": 22112,
    "Ġdangers": 12352,
    "Ġcandles": 9907,
    "Ġflourish": 17160,
    "Ġstubbornness": 25380,
    "Ġmarlings": 23031,
    "Ġovercome": 6042,
    "Ġfervently": 25877,
    "q": 85,
    "Ġterrible": 5327,
    "Ġoverboard": 6043,
    "accuracy": 9879,
    "Ġcomfortless": 23910,
    "Ġderbyshire": 6586,
    "Ġwag": 10775,
    "Ġextending": 11023,
    "rolling": 9060,
    "ays": 6683,
    "rings": 10722,
    "crane": 24098,
    "Ġranging": 8478,
    "Ġobscured": 15010,
    "Ġtrade": 2548,
    "Ġunpleasant": 7191,
    "Ġfooting": 14482,
    "Ġspeeding": 23563,
    "cannot": 5745,
    "Ġdoubting": 13099,
    "Ġimaginations": 16517,
    "lig": 3172,
    "edmund": 17945,
    "icuous": 10835,
    "Ġunbecoming": 22061,
    "critters": 14782,
    "Ġlived": 3993,
    "assuming": 22307,
    "otent": 8831,
    "Ġmonoton": 3635,
    "Ġmurderers": 16811,
    "edy": 2864,
    "inted": 2652,
    "Ġworked": 6583,
    "Ġenl": 18188,
    "Ġasked": 2278,
    "ich": 471,
    "chet": 13216,
    "shaw": 6864,
    "Ġshroud": 6483,
    "Ġgiddy": 20495,
    "uteness": 17985,
    "ishop": 9741,
    "Ġtrepidation": 19214,
    "Ġtransitory": 16016,
    "sh": 643,
    "itigated": 23040,
    "Ġmannish": 26237,
    "Ġclinch": 18431,
    "Ġnavigators": 19762,
    "Ġlists": 11165,
    "Ġinland": 11606,
    "consuming": 25674,
    "proportion": 16182,
    "medical": 23339,
    "involuntarily": 20413,
    "Ġleap": 5823,
    "Ġdetested": 14183,
    "hurrying": 14982,
    "tains": 10961,
    "Ġalps": 10869,
    "Ġtreading": 16504,
    "merged": 11192,
    "Ġxxxvi": 24969,
    "Ġincommun": 25308,
    "bular": 15312,
    "play": 5099,
    "Ġtrustworthy": 24106,
    "Ġezekiel": 26192,
    "senses": 25022,
    "Ġundersampling": 19517,
    "slept": 17169,
    "ment": 684,
    "Ġdeliberately": 10624,
    "Ġspout": 3285,
    "Ġbang": 17854,
    "pleasant": 5874,
    "Ġrecalled": 8537,
    "Ġender": 11688,
    "Ġtarpaulin": 26157,
    "Ġthrown": 4639,
    "Ġsubsets": 2346,
    "Ġparacelsus": 15265,
    "sculptured": 26045,
    "Ġrainy": 24341,
    "accusations": 23598,
    "Ġinvolves": 1067,
    "Ġstructures": 2724,
    "rodu": 1818,
    "Ġarrayed": 25664,
    "delivered": 24100,
    "Ġbusied": 19064,
    "india": 22368,
    "Ġfinancial": 23125,
    "Ġdripping": 13146,
    "aim": 2759,
    "firmly": 20279,
    "Ġradiating": 24335,
    "teen": 6370,
    "Ġbreaking": 6310,
    "fr": 4804,
    "Ġsplinter": 23746,
    "olen": 9698,
    "Ġscho": 4435,
    "loose": 11803,
    ".)": 6783,
    "confined": 24332,
    "magn": 10610,
    "tish": 17677,
    "Ġbanking": 19629,
    "Ġmin": 1025,
    "copy": 5133,
    "Ġstep": 752,
    "matters": 14873,
    "Ġbeing": 1163,
    "Ġthreading": 23400,
    "accomplishments": 25326,
    "Ġcritical": 7476,
    "ru": 481,
    "impenetrable": 26196,
    "organ": 15571,
    "key": 5462,
    "vineyard": 25421,
    "Ġvoluntarily": 12138,
    "Ġamerica": 6763,
    "Ġunaffected": 14121,
    "Ġpunishment": 9955,
    "bowl": 14890,
    "Ġinclemency": 22552,
    "Ġburied": 7718,
    "Ġbaff": 10799,
    "Ġinstructing": 3123,
    "Ġdri": 2363,
    "recl": 15509,
    "court": 7512,
    "Ġp": 288,
    "Ġconjure": 17123,
    "fl": 3599,
    "Ġsulk": 15045,
    "medium": 23640,
    "probably": 10019,
    "Ġincredulous": 9986,
    "Ġcott": 3708,
    "wa": 5896,
    "Ġathirst": 20597,
    "Ġsink": 4341,
    "enemy": 15525,
    "name": 6795,
    "Ġmaw": 15537,
    "Ġunsafe": 22038,
    "Ġmississ": 18837,
    "Ġalthough": 4153,
    "Ġhelping": 3270,
    "sac": 7140,
    "nered": 18494,
    "ignation": 11127,
    "Ġcauldron": 25441,
    "Ġgermany": 25785,
    "yp": 1048,
    "Ġstaggering": 20272,
    "Ġproposed": 7460,
    "Ġconvention": 25546,
    "surpr": 5996,
    "bottom": 11425,
    "portuguese": 25413,
    "representation": 20195,
    "ude": 7563,
    "Ġess": 5691,
    "plan": 15812,
    "Ġyet": 1027,
    ".,": 5987,
    "ket": 17582,
    "Ġdaint": 15590,
    "Ġseizing": 7878,
    "Ġinitial": 822,
    "Ġscarlet": 13221,
    "obst": 11930,
    "wishes": 13806,
    "Ġchord": 22242,
    "condem": 16341,
    "least": 8784,
    "Ġfreezing": 23881,
    "Ġtu": 6968,
    "trop": 15435,
    "Ġnewcom": 16220,
    "Ġstat": 1491,
    "ï": 176,
    "Ġscreamed": 9523,
    "Ġwalrus": 14972,
    "Ġfund": 2847,
    "berwell": 22718,
    "arle": 21438,
    "roof": 17953,
    "learned": 8600,
    "Ġmale": 9648,
    "Ġlan": 5820,
    "]]": 5205,
    "Ġlif": 10195,
    "terms": 15748,
    "Ġnarrow": 5086,
    "Ġdischarge": 18556,
    "iluvian": 18060,
    "ural": 503,
    "Ġpurse": 12009,
    "Ġmilliner": 19883,
    "footsteps": 25199,
    "Ġcolossal": 11458,
    "Ġtoo": 1164,
    "Ġdestroyer": 13412,
    "Ġplus": 3886,
    "Ġcurling": 9340,
    "Ġprofession": 6207,
    "Ġincreas": 1693,
    "blister": 24127,
    "Ġid": 1907,
    "foolish": 12345,
    "agne": 21902,
    "kitchen": 17585,
    "write": 14647,
    "captain": 3956,
    "force": 12951,
    "ha": 3983,
    "uded": 6286,
    "Ġstrained": 10218,
    "gates": 20871,
    "rison": 13778,
    "Ġsouthampton": 24307,
    "Ġchalk": 15931,
    "Ġsimon": 5172,
    "Ġflour": 8944,
    "Ġsins": 13836,
    "but": 594,
    "Ġpassers": 18758,
    "Ġrationally": 18213,
    "unwittingly": 25801,
    "desperate": 17351,
    "drawn": 9912,
    "Ġre": 317,
    "Ġalleys": 25978,
    "Ġacting": 10990,
    "Ġconveniently": 20077,
    "consid": 4924,
    "uting": 15657,
    "Ġworshipped": 25691,
    "Ġhig": 755,
    "centre": 17087,
    "la": 10705,
    "Ġassistance": 6333,
    "Ġoutwardly": 24998,
    "Ġnearer": 5301,
    "Ġyear": 3288,
    "Ġsat": 1129,
    "Ġmechanism": 2389,
    "Ġactual": 3736,
    "Ġtransformer": 2640,
    "uttered": 8440,
    "Ġvint": 18194,
    "run": 10721,
    "tranquil": 25870,
    "fered": 5560,
    "ableness": 8148,
    "Ġcanals": 22161,
    "imes": 1299,
    "Ġmanaged": 7905,
    "Ġlieutenant": 15260,
    "Ġsoothing": 8172,
    "Ġcross": 1371,
    "Ġclay": 7019,
    "Ġtreacle": 14596,
    ".}": 20744,
    "Ġbeth": 9657,
    "smooth": 20247,
    "Ġapologizing": 25197,
    "listen": 13513,
    "atherine": 2596,
    "Ġslice": 23158,
    "Ġfleece": 10614,
    "wis": 12516,
    "afterwards": 7485,
    "Ġassur": 6073,
    "oters": 21796,
    "Ġslavery": 16305,
    "Ġerrand": 11083,
    "Ġalex": 15132,
    "Ġprize": 11947,
    "Ġadmiration": 5328,
    ";âĢĻ": 15301,
    "against": 5870,
    "Ġdrown": 6815,
    "Ġharder": 14448,
    "Ġclair": 6269,
    "figure": 13554,
    "legra": 10789,
    "Ġanne": 1529,
    "Ġjumping": 13340,
    "Ġaccordingly": 6619,
    "aswag": 21543,
    "Ġliveliness": 13642,
    "Ġcolourless": 19568,
    "Ġmagg": 18905,
    "Ġreference": 2567,
    "unnatural": 15770,
    "Ġclosed": 4605,
    "Ġpinched": 17035,
    "shudder": 26245,
    "Ġgentlemen": 3641,
    "Ġexpedition": 10634,
    "Ġet": 3580,
    "mic": 12486,
    "Ġgard": 2188,
    "Ġcomputer": 1193,
    "Ġmien": 17808,
    "Ġdeuteronomy": 15757,
    "unable": 14058,
    "pool": 16207,
    "erman": 5108,
    "Ġeloped": 22642,
    "Ġdan": 8792,
    "Ġeyeing": 6460,
    "Ġaccidents": 10295,
    "direction": 17524,
    "weep": 22681,
    "Ġskewer": 19619,
    "showed": 16023,
    "Ġcircumspect": 15083,
    "Ġleaks": 16447,
    "Ġhistory": 4010,
    "Ġenthusiastic": 19964,
    "guilty": 19481,
    "Ġsingled": 23771,
    "Ġrecess": 10846,
    "eded": 9673,
    "Ġgentleman": 3041,
    "Ġrom": 4523,
    "capable": 13700,
    "Ġsuddenly": 2649,
    "mews": 22710,
    "Ġax": 7822,
    "Ġfears": 5729,
    "Ġblasted": 7937,
    "Ġfavour": 3640,
    "might": 4080,
    "Ġunmannerly": 26517,
    "ents": 1895,
    "gro": 10094,
    "Ġopportunities": 19248,
    "Ġfrequencies": 4789,
    "Ġdocumentation": 20553,
    "Ġgentleness": 8709,
    "icken": 6711,
    "Ġshyness": 20305,
    "else": 6533,
    "Ġcoars": 14270,
    "drovand": 24760,
    "Ġheal": 21678,
    "Ġemerg": 13423,
    "Ġvirgin": 7328,
    "present": 1137,
    "Ġacquaintances": 17349,
    "Ġtakings": 20571,
    "utility": 21584,
    "Ġcosmopol": 16454,
    "Ġtomb": 8807,
    "imod": 15707,
    "Ġsurplus": 26303,
    "Ġenig": 15797,
    "Ġbanish": 15567,
    "Ġlecture": 13566,
    "veral": 2354,
    "Ġwritten": 4171,
    "relatively": 24011,
    "performances": 26006,
    "stout": 21642,
    "Ġscreen": 17205,
    "flowing": 14571,
    "patient": 25342,
    "Ġdivided": 8631,
    "Ġdoze": 14174,
    "ura": 1044,
    "Ġarise": 7895,
    "Ġstem": 15719,
    "Ġinfirmity": 26298,
    "Ġunprofitable": 18267,
    "Ġtransformed": 22603,
    "Ġdug": 21428,
    "Ġrefine": 3233,
    "Ġintric": 9245,
    "ĠĠĠĠĠĠĠĠĠĠĠĠĠĠĠĠĠĠĠĠĠĠĠĠĠĠĠĠĠĠĠĠĠĠĠĠĠĠĠĠĠĠĠĠĠĠĠĠ": 7988,
    "ª": 108,
    "Ġinnermost": 12158,
    "conscience": 14859,
    "Ġbeholding": 8668,
    "Ġorthodox": 22092,
    "Ġcold": 3033,
    "ific": 491,
    "Ġmomentous": 16170,
    "Ġaccomplishment": 19664,
    "Ġsleep": 2400,
    "Ġperformance": 1306,
    "Ġacted": 7422,
    "Ġemigrant": 25859,
    "sa": 8756,
    "ignorance": 17161,
    "rier": 9241,
    "Ġentangled": 10343,
    "Ġscal": 1712,
    "Ġadvoc": 12985,
    "Ġindulging": 16904,
    "many": 5250,
    "Ġliterature": 17148,
    "Ġcomplain": 6685,
    "Ġstoutest": 24628,
    "Ġaddition": 1147,
    "Ġlist": 2365,
    "Ġgentle": 1888,
    "Ġsurging": 19133,
    "Ġbeckoning": 20500,
    "Ġshipping": 14103,
    "izers": 18134,
    "Ġpalaces": 24090,
    "Ġnobody": 6158,
    "Ġspar": 10920,
    "Ġfriendly": 9819,
    "Ġsaid": 577,
    "Ġadvisable": 11441,
    "Ġrobbed": 23044,
    "thought": 3852,
    "Ġmeasurement": 19421,
    "Ġtempestuous": 20069,
    "Ġmasked": 3694,
    ".": 18,
    "Ġprofane": 13151,
    "burned": 25079,
    "lin": 9603,
    "Ġexactness": 23603,
    "tossing": 18580,
    "robber": 21534,
    "Ġbeads": 18083,
    "looks": 12016,
    "Ġberyl": 20488,
    "Ġcrawford": 24893,
    "rawling": 21633,
    "emberley": 4174,
    "gradu": 18616,
    "explained": 23137,
    "Ġpenetrated": 13471,
    "roar": 17952,
    "Ġcomforters": 25800,
    "anyone": 16593,
    "Ġwarm": 2427,
    "pped": 1998,
    "Ġcig": 6520,
    "Ġslighted": 16566,
    "Ġguilt": 6179,
    "uled": 11535,
    "Ġtip": 15470,
    "holland": 24040,
    "ats": 4255,
    "Ġamaze": 22480,
    "seek": 8836,
    "Ġpoltroon": 26598,
    "hil": 8378,
    "Ġ104": 24412,
    "Ġruins": 16157,
    "staking": 21645,
    "Ġrav": 14304,
    "Ġgamy": 17998,
    "Ġvishnoo": 12750,
    "Ġintermission": 18593,
    "Ġrevolutions": 23839,
    "Ġadaptively": 4556,
    "Ġought": 3421,
    "Ġasph": 21895,
    "pense": 10368,
    "thro": 12758,
    "Ġgore": 17988,
    "ingale": 21298,
    "load": 12878,
    "etts": 12657,
    "Ġkings": 7197,
    "Ġunpitying": 25660,
    "Ġcommodores": 25374,
    "Ġexhibited": 9543,
    "Ġsailed": 4889,
    "Ġplanting": 16083,
    "abode": 21788,
    "Ġbeech": 18082,
    "Ġcall": 2075,
    "proble": 9393,
    "Ġwashington": 17202,
    "Ġwithout": 1119,
    "soul": 9140,
    "venty": 6427,
    "franch": 24284,
    "savor": 25024,
    "inea": 7624,
    "forty": 9373,
    "Ġcompleted": 8997,
    "Ġlob": 7628,
    "Ġpervading": 20612,
    "matical": 13127,
    "prim": 23808,
    "Ġdisappears": 18560,
    "Ġhead": 1121,
    "Ġdescrying": 18618,
    "Ġflush": 14423,
    "Ġwitt": 17783,
    "accessory": 25499,
    "Ġvind": 10249,
    "named": 9886,
    "unfearing": 21889,
    "Ġtrem": 6659,
    "evidently": 20344,
    "Ġsweetly": 23916,
    "Ġpenal": 1775,
    "Ġdriver": 16473,
    "Ġsnoring": 23739,
    "follows": 24528,
    "anted": 5027,
    "Ġheire": 18036,
    "Ġstories": 10864,
    "did": 3195,
    "Ġnavigation": 9992,
    "bearer": 18521,
    "Ġunconsc": 6552,
    "Ġsummary": 19401,
    "Ġbushes": 16398,
    "organic": 25946,
    "Ġregularity": 22773,
    "Ġreposing": 23359,
    "dually": 3286,
    "Ġrumbling": 18211,
    "ening": 3106,
    "compasses": 19456,
    "Ġunp": 12769,
    "Ġhatchway": 13524,
    "harpooned": 24286,
    "ft": 910,
    "Ġdin": 3624,
    "Ġdumb": 7843,
    "Ġbackbones": 22657,
    "inside": 23063,
    "Ġfruits": 17118,
    "Ġcarelessness": 13074,
    "volutional": 1934,
    "Ġpugn": 21477,
    "Ġcoldly": 14650,
    "Ġsensible": 4976,
    "Ġtravelled": 7771,
    "story": 9212,
    "Ġquoin": 22415,
    "friendly": 13283,
    "Ġspoke": 2751,
    "toller": 20671,
    "Ġcand": 3279,
    "Ġsinks": 19548,
    "hun": 5210,
    "igen": 4829,
    "Ġsleeves": 10660,
    "Ġsharks": 4496,
    "Ġgateway": 24802,
    "Ġincluded": 8930,
    "Ġeloquent": 16108,
    "Ġcreamy": 14329,
    "Ġpike": 12620,
    "circumspect": 26086,
    "<MASK>": 4,
    "atiable": 17774,
    "Ġtranqu": 4604,
    "Ġchin": 4891,
    "mown": 20969,
    "lipped": 16215,
    "Ġisa": 14024,
    "Ġegypt": 9678,
    "Ġoutrageous": 20609,
    "Ġrebellion": 26475,
    "ai": 2528,
    "Ġundoubtedly": 8312,
    "Ġnotice": 4541,
    "reject": 21235,
    "Ġeffusion": 22503,
    "mortals": 25409,
    "Ġcontinuous": 1559,
    "england": 18928,
    "Ġpir": 6818,
    "incess": 15481,
    "umul": 1288,
    "pockets": 16209,
    "Ġcentury": 8290,
    "Ġcolonnades": 26275,
    "Ġaccent": 10293,
    "Ġundaunted": 24119,
    "Ġringbolts": 24196,
    "Ġwishes": 4795,
    "agger": 7871,
    "racting": 10351,
    "Ġcomputational": 1626,
    "Ġthrough": 602,
    "warmly": 25026,
    "Ġlandlady": 10422,
    "recollect": 17223,
    "Ġbenef": 3490,
    "Ġlaure": 16909,
    "Ġreligion": 11414,
    "Ġturner": 7049,
    "ility": 623,
    "Ġmaj": 3929,
    ":âĢĶ": 4431,
    "Ġaint": 17744,
    "him": 1938,
    "Ġfamed": 16324,
    "Ġenchanting": 17039,
    "Ġexempl": 21828,
    "Ġmayhew": 12947,
    "Ġcapst": 8595,
    "Ġboxes": 13373,
    "Ġsires": 21225,
    "Ġcran": 11999,
    "Ĕ": 213,
    "condite": 23246,
    "Ġgems": 9208,
    "Ġhag": 12622,
    "Ġdirection": 1794,
    "warmth": 20051,
    "paid": 15413,
    "ĠĠĠĠĠĠĠĠĠĠĠĠĠĠĠĠ": 1218,
    "Ġsnake": 12059,
    "Ġmagazine": 23097,
    "virtue": 20568,
    "irable": 5776,
    "attering": 7419,
    "Ġprospects": 9958,
    "measure": 10030,
    "plifted": 9709,
    "Ġubiquitous": 26195,
    "Ġwhaler": 7521,
    "Ġhooked": 19079,
    "parad": 16394,
    "short": 6566,
    "Ġrevealed": 6751,
    "uy": 21098,
    "ĠĠĠĠĠĠĠĠĠĠĠĠĠĠĠĠĠ": 22946,
    "Ġcranes": 20381,
    "Ġconsume": 12956,
    "Ġcrews": 8990,
    "Ġvexation": 10586,
    "tr": 3579,
    "ards": 2506,
    "Ġaccumulating": 2726,
    "Ġashes": 7617,
    "Ġbackwoods": 22658,
    "Ġmathematical": 3353,
    "Ġnorris": 23198,
    "Ġmuffled": 10640,
    "Ġsolely": 9909,
    "Ġfanning": 23388,
    "Ġdress": 4023,
    "Ġcedar": 15187,
    "Ġbreathed": 11219,
    "Ġthence": 8881,
    "Ġseated": 4539,
    "Ġcont": 619,
    "orted": 4603,
    "Ġblot": 9811,
    "Ġvirtual": 11238,
    "abern": 21787,
    "traces": 24315,
    "ars": 906,
    "Ġassu": 21894,
    "Ġwhisky": 23931,
    "Ġquantization": 19853,
    "forehead": 8515,
    "Ġoptimization": 1374,
    "Ġconstrued": 26301,
    "Ġpocket": 4898,
    "Ġstall": 12694,
    "Ġosc": 2838,
    "Ġperiod": 4006,
    "Ġpat": 1751,
    "Ġuse": 828,
    "Ġcrozetts": 19628,
    "Ġclimate": 9274,
    "Ġfrolic": 23921,
    "ained": 3065,
    "Ġrepaired": 13106,
    "Ġwhence": 5839,
    "Ġmedicine": 15204,
    "Ġardent": 9969,
    "fact": 6358,
    "Ġclerical": 25568,
    "Ġdense": 8122,
    "Ġwasted": 9703,
    "Ġunprinciple": 18254,
    "Ġpreposter": 12819,
    "Ġlees": 18062,
    "expectant": 24275,
    "Ġmutters": 23953,
    "Ġmasts": 6465,
    "shattered": 22451,
    "beings": 12874,
    "rock": 15638,
    "mont": 19168,
    "Ġinconstant": 21493,
    "are": 639,
    "Ġportcullis": 26603,
    "Ġactually": 5389,
    "signs": 16538,
    "Ġbeau": 9224,
    "Ġsatisfying": 23696,
    "Ġwebster": 20160,
    "Ġquadruped": 17458,
    "Ġperu": 14222,
    "opement": 10311,
    "Ġfifty": 4623,
    "Ġmaids": 19690,
    "ivility": 12786,
    "rents": 5308,
    "Ġwives": 12552,
    "Ġphilosophers": 10551,
    "Ġmargaret": 10376,
    "7": 27,
    "Ġ83": 24459,
    "Ġridges": 16731,
    "Ġmines": 21307,
    "Ġmagnet": 10389,
    "Ġpoetic": 17103,
    "thoughts": 9934,
    "superst": 11324,
    "Ġvalue": 2086,
    "vels": 5432,
    "gardiner": 12289,
    "Ġork": 18284,
    "ieved": 3230,
    "bench": 16803,
    "anguish": 15981,
    "Ġshreds": 12767,
    "patched": 17643,
    "Ġduodecimo": 16767,
    "labours": 16617,
    "Ġunreasonable": 12774,
    "Ġball": 3622,
    "je": 11494,
    "Ġlearned": 2025,
    "Ġassurances": 9999,
    "ifers": 15779,
    "theast": 21745,
    "Ġris": 4886,
    "Ġfacetious": 20582,
    "Ġcontinued": 2927,
    "Ġcried": 1487,
    "Ġaxe": 15061,
    "Ġherd": 7887,
    "Ġj": 532,
    "Ġrokovoko": 22405,
    "Ġerr": 1319,
    "Ġpoultry": 17440,
    "Ġabode": 7899,
    "Ġflowers": 8940,
    "Ġharpoon": 3615,
    "Ġpel": 17902,
    "utterly": 20010,
    "Ġlater": 6016,
    "Ġmaps": 2967,
    "nar": 12491,
    "Ġhospitable": 17060,
    "spass": 18687,
    "arrant": 10474,
    "Ġcommunicate": 10577,
    "Ġgraces": 18225,
    "Ġinestim": 15621,
    "Ġmills": 21310,
    "Ġdemonstrate": 24994,
    "Ġshoals": 13133,
    "ex": 622,
    "suddenly": 6493,
    "Ġquadr": 8199,
    "Ġverbal": 19377,
    "ulled": 14055,
    "took": 6164,
    "Ġvis": 1066,
    "backward": 2688,
    "oin": 17617,
    "staff": 21653,
    "Ġpond": 13915,
    "Ġembarked": 17134,
    "Ġrushing": 7403,
    "Ġabsurdities": 24878,
    "Ġfellow": 2778,
    "phur": 16149,
    "z": 94,
    "verb": 10216,
    "Ġbosom": 6939,
    "presence": 18496,
    "yarn": 15456,
    "Ġopt": 782,
    "english": 2776,
    "thar": 18217,
    "melted": 25206,
    "Ġrevived": 11367,
    "Ġinsurmountable": 16531,
    "clopÃ¦dia": 15255,
    "Ġvictims": 19803,
    "Ġindication": 22949,
    "Ġrejoinder": 24597,
    "urpr": 2287,
    "Ġdirectly": 2105,
    "object": 6884,
    "Ġsutherland": 10148,
    "amongst": 24672,
    "Ġloitered": 26525,
    "Ġslo": 15505,
    "Ġcrib": 21346,
    "breath": 15161,
    "capting": 24038,
    "Ġ51": 24320,
    "Ġknitted": 19588,
    "Ġancestors": 25642,
    "Ġtough": 13814,
    "anim": 6522,
    "assment": 9739,
    "Ġelementary": 24814,
    "Ġscowl": 22297,
    "Ġspeedy": 11171,
    "Ġrede": 13983,
    "stupid": 12673,
    "Ġclearer": 16310,
    "Ġeach": 891,
    "tling": 9142,
    "glo": 8737,
    "ulates": 14054,
    "Ġinvariable": 13455,
    "Ġslouched": 13056,
    "ule": 6800,
    "Ġsympathised": 14861,
    "satisfactory": 16893,
    "Ġlandsmen": 11350,
    "idered": 4551,
    "conveyed": 20519,
    "terbury": 21821,
    "Ġisn": 7865,
    "Ġcommenced": 8531,
    "riors": 18187,
    "Ġaversion": 18865,
    "abash": 18107,
    "Ġslices": 23163,
    "sculpt": 16242,
    "Ġrafters": 22653,
    "Ġgoal": 10301,
    "Ġcounter": 6481,
    "Ġthan": 736,
    "Ġaltered": 7393,
    "Ġsmaller": 1881,
    "Ġpadd": 9669,
    "Ġrefinement": 18707,
    "ignific": 11954,
    "Ġprotested": 9933,
    "tie": 21067,
    "giv": 13721,
    "iously": 2681,
    "Ġnom": 21516,
    "lish": 1951,
    "Ġapologize": 15127,
    "Ġbetrayed": 9561,
    "loaded": 22509,
    "Ġreceiving": 4882,
    "Ġlot": 6678,
    "Ġabide": 14187,
    "heaven": 8052,
    "tick": 17678,
    "Ġpiled": 8424,
    "Ġclock": 9532,
    "Ġfaces": 6008,
    "ell": 397,
    "umpled": 15874,
    "Ġmortar": 19391,
    "Ġfancying": 12110,
    "Ġmeth": 1453,
    "isher": 2882,
    "Ġformal": 2946,
    "^": 66,
    "Ġ32": 19487,
    "Ġwhisper": 6205,
    "honour": 13466,
    "Ġcigaret": 16976,
    "Ġtop": 2472,
    "fired": 20859,
    "amid": 12721,
    "servant": 15035,
    "Ġarrog": 18337,
    "rem": 1522,
    "Ġpurchas": 19873,
    "Ġshy": 10902,
    "Ġhovers": 19078,
    "Ġinmost": 17930,
    "Ġinformed": 6717,
    "sleet": 20148,
    "Ġbristling": 20525,
    "Ġdeficiency": 14402,
    "Ġprecisely": 6466,
    "Ġcarve": 23090,
    "shock": 19854,
    "Ġjaw": 3321,
    "Ġflee": 7079,
    "Ġcontrivances": 12355,
    "Ġesc": 2253,
    "Ġascribe": 16782,
    "isome": 17848,
    "period": 15895,
    "Ġdespatched": 23827,
    "Ġchristians": 13307,
    "wra": 11540,
    "Ġseaport": 20598,
    "Ġamused": 11797,
    "Ġboughs": 20487,
    "Ġunerring": 15845,
    "fashion": 8080,
    "Ġrobes": 16269,
    "Ġrascal": 11698,
    "gallery": 24693,
    "Ġcrosswise": 18885,
    "Ġgratifying": 13304,
    "Ġimpul": 7208,
    "ung": 2749,
    "heredit": 21208,
    "Ġglaciers": 20172,
    "Ġwhilst": 9218,
    "assemblies": 25956,
    "Ġretain": 7862,
    "onsense": 6431,
    "Ġhyena": 24519,
    "Ġunconscious": 9546,
    "Ġhad": 444,
    "Ġliberated": 19665,
    "Ġadvantage": 4317,
    "mped": 16647,
    "Ġmitt": 21306,
    "otics": 10223,
    "Ġproud": 5654,
    "pered": 4200,
    "cele": 21622,
    "Ġaskance": 23148,
    "passed": 8025,
    "Ġshavings": 14109,
    "Ġcoach": 6867,
    "Ġaudacious": 13459,
    "Ġdesc": 771,
    "Ġboomer": 20166,
    "bow": 5424,
    "Ġboneless": 19604,
    "Ġhunt": 6183,
    "Ġexper": 1303,
    "Ġcasts": 19424,
    "atherley": 7220,
    "Ġbountiful": 25944,
    "Ġstooped": 14463,
    "Ġtolerably": 8067,
    "Ġloafer": 18299,
    "Ġaw": 2511,
    "discernible": 20549,
    "Ġinscriptions": 20007,
    "Ġjune": 10287,
    "Ġstately": 9833,
    "omy": 6248,
    "Ġunful": 22008,
    "Ġsubstance": 5510,
    "Ġscrewed": 15119,
    "Ġconfessed": 8008,
    "lit": 9605,
    "finding": 17013,
    "ensation": 22542,
    "achalot": 15861,
    "hs": 8377,
    "Ġpips": 9842,
    "Ġas": 374,
    "giana": 7800,
    "Ġsummarization": 3645,
    "Ġmeadow": 17151,
    "pin": 13766,
    "Ġunsav": 18251,
    "Ġtargets": 4207,
    "history": 15014,
    "Ġmans": 15534,
    "alter": 10826,
    "specific": 10497,
    "board": 3565,
    "Ġbubblingly": 25632,
    "Ġjoes": 19229,
    "zor": 15457,
    "Ġwail": 21285,
    "pil": 15407,
    "whew": 22866,
    "Ġexerted": 15754,
    "Ġcommunity": 19008,
    "Ġdrank": 16535,
    "ener": 560,
    "Ġfought": 12590,
    "hunt": 20902,
    "bal": 2157,
    "ibbald": 18840,
    "Ġtick": 8108,
    "fast": 3070,
    "asional": 17959,
    "justice": 7957,
    "Ġadjust": 2156,
    "_?âĢĿ": 15304,
    "ituted": 13872,
    "Ġspec": 1262,
    "Ġdilatory": 24705,
    "Ġacquitted": 18897,
    "Ġunited": 6840,
    "Ġmonth": 2854,
    "Ġsyn": 15911,
    "Ġwhy": 1762,
    "clerval": 7950,
    "Ġappetites": 20205,
    "Ġall": 421,
    "Ġeas": 2353,
    "Ġwarmest": 16484,
    "ifer": 11683,
    "Ġinferences": 17934,
    "isf": 2437,
    "ler": 3492,
    "spears": 23939,
    "tar": 8097,
    "ety": 3521,
    "decl": 8856,
    "Ġruminated": 24599,
    "rippa": 11340,
    "create": 24159,
    "msman": 9269,
    "Ġramble": 9312,
    "according": 12026,
    "hast": 5357,
    "Ġlima": 10442,
    "lengthwise": 19948,
    "Ġwomen": 4750,
    "Ġstruct": 2785,
    "ryphon": 4166,
    "Ġcrash": 12000,
    "advantages": 11270,
    "asted": 4649,
    "Ġinspect": 5963,
    "Ġinterior": 8894,
    "rann": 21043,
    "Ġrumours": 24598,
    "aned": 5147,
    "Ġrings": 11697,
    "Ġcrawling": 17045,
    "Ġwronged": 24247,
    "Ġsticking": 13426,
    "snap": 24848,
    "Ġpillar": 21470,
    "Ġretired": 6070,
    "Ġpeculiarly": 8286,
    "Ġcocaine": 20720,
    "Ġlightning": 5750,
    "iac": 6225,
    "recol": 10150,
    "cats": 17512,
    "Ġunprepared": 22047,
    "Ġthroat": 7770,
    "attent": 9358,
    "coward": 13699,
    "arb": 1561,
    "Ġquant": 6424,
    "Ġxxxix": 24968,
    "Ġmercy": 8998,
    "ical": 754,
    "Ġextrem": 2476,
    "ĠĠĠĠĠĠĠĠĠĠĠĠĠĠĠĠĠĠĠĠĠĠĠĠĠĠĠĠĠĠĠĠĠĠĠĠĠĠĠĠĠĠĠĠĠĠĠĠĠ": 20036,
    "Ġpraise": 6486,
    "reas": 989,
    "Ġsupernatural": 9872,
    "Ġrevisit": 21667,
    "near": 5842,
    "Ġpads": 21471,
    "Ġhither": 4759,
    "Ġpaddington": 17095,
    "Ġpouch": 21466,
    "Ġclue": 7020,
    "scenes": 16241,
    "Ġdrama": 16326,
    "ouching": 13176,
    "Ġeels": 21619,
    "Ġwrig": 13065,
    "imitably": 21708,
    "Ġstroke": 6936,
    "inforcement": 2835,
    "Ġdrawers": 12103,
    "burst": 10537,
    "Ġshocking": 10435,
    "hundreds": 25073,
    "Ġthroes": 24574,
    "Ġgeneva": 5450,
    "eman": 5636,
    "Ġoutlines": 15955,
    "sincerely": 24584,
    "Ġeating": 8135,
    "Ġmacro": 25939,
    "knight": 20939,
    "Ġkuiperai": 10934,
    "Ġ25": 13193,
    "Ġcampa": 17173,
    "ateness": 15518,
    "rigible": 24931,
    "fire": 6357,
    "Ġcharnel": 22249,
    "Ġsatan": 14389,
    "Ġperiodical": 14771,
    "Ġblows": 5972,
    "Ġtypewriting": 16419,
    "sworn": 24256,
    "Ġ81": 24457,
    "break": 6101,
    "Ġbrimstone": 25686,
    "Ġring": 4451,
    "ends": 6038,
    "following": 10572,
    "Ġagonies": 14251,
    "Ġseparately": 13301,
    "Ġcanvassed": 19933,
    "ent": 305,
    "Ġwretched": 4083,
    "Ġloathsome": 13527,
    "tomb": 21092,
    "says": 13298,
    "Ġaimed": 20249,
[...]
