{
  "metadata": {
    "vocab_size": 26614,
    "algorithm": "BPE",
    "created_at": "2026-06-19 07:04:58",
    "special_tokens": [
      "<PAD>",
      "<SOS>",
      "<EOS>",
      "<UNK>",
      "<MASK>"
    ]
  },
  "vocab": {
    "Ġsow": 17749,
    "cell": 10689,
    "beholding": 16043,
    "Ġcode": 1717,
    "bill": 10079,
    "Ġgenerous": 6273,
    "Ġarm": 2491,
    "Ġproble": 1112,
    "Ġmaketh": 15189,
    "pon": 17625,
    "Ġeff": 665,
    "Ġactively": 18653,
    "Ġmonsieur": 12423,
    "dost": 14535,
    "rank": 21043,
    "Ġextracting": 11099,
    "ental": 7169,
    "Ġapprised": 18359,
    "Ġissued": 10602,
    "conclusions": 25672,
    "Ġinjection": 3464,
    "Ġharvard": 24572,
    "cond": 1664,
    "err": 1140,
    "vig": 15448,
    "Ġslices": 23169,
    "velled": 9879,
    "Ġgrease": 26190,
    "Ġhates": 21489,
    "Ġsalesman": 13670,
    "rian": 10245,
    "voyage": 7787,
    "Ġslaves": 23173,
    "rece": 21236,
    "Ġbowled": 23770,
    "Ġeber": 18005,
    "Ġbenjamin": 26567,
    "head": 1436,
    "Ġaggregate": 25677,
    "athies": 22703,
    "Ġsiam": 13839,
    "hoisted": 19283,
    "Ġcapsizing": 20091,
    "rawling": 21639,
    "ade": 882,
    "Ġclaw": 22351,
    "Ġbroad": 3638,
    "Ġguiding": 19242,
    "Ġslee": 8977,
    "middle": 11312,
    "Ġaccompan": 5513,
    "Ġthose": 1171,
    "iates": 13738,
    "Ġconfirms": 23313,
    "Ġsubstantial": 14811,
    "Ġinsulated": 23678,
    "belongs": 25596,
    "buff": 15320,
    "Ġcarav": 18902,
    "sitting": 8388,
    "Ġoverseeing": 22367,
    "ultaneously": 4190,
    "Ġguessed": 11284,
    "men": 1487,
    "Ġdear": 1540,
    "umberland": 16837,
    "Ġgoney": 14544,
    "Ġcrimson": 16438,
    "Ġeulogy": 26470,
    "Ġbasin": 19849,
    "Ġcannib": 6038,
    "gam": 10098,
    "Ġstatistical": 11107,
    "Ġarrows": 18341,
    "ĠĠĠĠĠĠĠĠĠĠĠĠĠĠĠĠĠĠĠĠĠĠĠĠĠĠĠĠĠĠĠĠĠĠĠĠĠĠĠĠĠ": 19584,
    "Ġdrawing": 3916,
    "shoe": 14968,
    "Ġtoo": 1164,
    "Ġrucastles": 18721,
    "Ġnumerous": 6920,
    "breathing": 25336,
    "quit": 15765,
    "Ġancestry": 25641,
    "Ġtransformed": 22612,
    ".âĢĶâĢľ": 20748,
    "Ġquakers": 22420,
    "outer": 9671,
    "Ġr": 404,
    "Ġspecimens": 18859,
    "Ġshe": 466,
    "bermaid": 20791,
    "Ġradiant": 16809,
    "Ġstyled": 24671,
    "Ġblot": 9815,
    "peasant": 23113,
    "Ġinn": 4588,
    "Ġentertaining": 16926,
    "projecting": 26073,
    "recur": 4433,
    "Ġfresh": 3670,
    "Ġharrow": 17927,
    "Ġreliable": 18777,
    "Ġprocure": 9513,
    "Ġexploit": 19163,
    "slipping": 25529,
    "Ġsickness": 10541,
    "Ġbecomes": 6397,
    "ratulations": 20128,
    "Ġ40": 14770,
    "Ġviolently": 6457,
    "ored": 3894,
    "ato": 17769,
    "Ġdictator": 20155,
    "Ê": 139,
    "Ġdemanded": 8328,
    "sudden": 5316,
    "Ġwoollen": 12106,
    "Ġexplaining": 15963,
    "Ġcharitable": 23271,
    "irm": 3108,
    "avier": 2832,
    "Ġbake": 21384,
    "_,âĢĻ": 12435,
    "echo": 15350,
    "Ġrepul": 16412,
    "Ġfaithful": 9506,
    "Ġcountenances": 11967,
    "Ġunlock": 18243,
    "Ġcatching": 9481,
    "Ġentire": 2557,
    "sea": 4762,
    "Ġarise": 7898,
    "Ġdere": 21838,
    "Ġ67": 19662,
    "Ġknitted": 19591,
    "Ġsplintered": 11420,
    "Ġscandinavian": 26346,
    "Ġantip": 24178,
    "Ġdissuade": 26257,
    "Ġprophes": 16351,
    "flukes": 25206,
    "Ġindividuals": 24544,
    "Ġfrankenstein": 7097,
    "perceived": 8862,
    "Ġunassuming": 20511,
    "Ġcass": 13880,
    "Ġoverjoy": 15974,
    "Ġoccurrences": 11052,
    "drunk": 24659,
    "akeman": 6269,
    "Ġpresented": 5183,
    "Ġlub": 15652,
    "chel": 11209,
    "Ġobsolete": 26558,
    "itoring": 21334,
    "Ġshield": 22003,
    "Ġwear": 6033,
    "Ġlinguistic": 12427,
    "ceiling": 21630,
    "gardiner": 12293,
    "ispens": 8337,
    "Ġscrew": 8871,
    "welt": 12523,
    "ys": 3958,
    "Ġinev": 10184,
    "intense": 22938,
    "Ġfoolish": 5982,
    "Ġwindibank": 7257,
    "Ġunappe": 22022,
    "Ġwork": 1293,
    "drugg": 20839,
    "otam": 21802,
    "Ġsteed": 13042,
    "inch": 10757,
    "ens": 701,
    "Ġlegendary": 20539,
    "rogress": 21539,
    "Ġpretension": 23765,
    "formity": 10281,
    "erval": 4018,
    "Ġintrepid": 11709,
    "Ġmarines": 16263,
    "Ġweeks": 4562,
    "unnatural": 15776,
    "Ġwith": 349,
    "Ġjungfrau": 15250,
    "brim": 23576,
    "pan": 10718,
    "cask": 12449,
    "agues": 8162,
    "falsehood": 25901,
    "Ġquivered": 18467,
    "Ġstrongly": 5657,
    "Ġsettlement": 19838,
    "Ġcha": 6853,
    "laid": 10112,
    "mbl": 5948,
    "Ġspake": 18308,
    "Ġsord": 21221,
    "Ġblubber": 5666,
    "Ġabsence": 4893,
    "Ġdanish": 21434,
    "Ġswallowed": 7945,
    "Ġspending": 10925,
    "Ġdimmed": 24268,
    "Ġintellig": 527,
    "Ġobliging": 13244,
    "Ġ182": 13238,
    "ethics": 8881,
    "however": 4370,
    "Ġroods": 22407,
    "porpoise": 16436,
    "rot": 21535,
    "Ġrecovered": 5481,
    "Ġdrives": 14577,
    "ŀ": 257,
    "Ġmounttop": 19980,
    "utmost": 21591,
    "conjecturing": 20136,
    "cred": 9111,
    "Ġidol": 7467,
    "oky": 8199,
    "Ġbroadened": 23987,
    "queg": 1771,
    "Ġsepar": 3997,
    "Ġredeem": 20502,
    "crowded": 20192,
    "bearance": 22498,
    "lake": 13750,
    "nowadays": 22342,
    "eternal": 17984,
    "Ġwip": 13854,
    "Ġslapped": 23175,
    "Ġvariously": 18652,
    "aments": 12728,
    "Ġattacking": 24463,
    "scrape": 25698,
    "Ġel": 803,
    "av": 738,
    "rennial": 22345,
    "Ġcloudy": 19479,
    "provid": 11151,
    "come": 2376,
    "Ġshipwreck": 20448,
    "Ġvolumes": 14801,
    "hil": 8380,
    "Ġdecline": 9290,
    "Ġconfederate": 17354,
    "Ġstoven": 23179,
    "Ġmounted": 7833,
    "sterdam": 19091,
    "Ġgettest": 23235,
    "Ġjog": 18404,
    "Ġciv": 3308,
    "fters": 20862,
    "Ġboundary": 11224,
    "ills": 1629,
    "Ġsweetest": 13248,
    "Ġcrescent": 16139,
    "thinness": 25810,
    "Ġsabbee": 17256,
    "Ġmantle": 25275,
    "Ġenl": 18189,
    "astic": 1867,
    "Ġwilson": 6632,
    "having": 5211,
    "Ġofficer": 6755,
    "Ġirresolution": 24915,
    "Ġhimmalehs": 26230,
    "Ġdecanter": 22448,
    "Ġkeys": 11998,
    "ro": 301,
    "aces": 2070,
    "discern": 14852,
    "arers": 12132,
    "Ġdeact": 18137,
    "Ġprophet": 7682,
    "otently": 21804,
    "Ġturner": 7051,
    "Ġcases": 3959,
    "Ġdepression": 21844,
    "Ġneeds": 6607,
    "englishman": 23675,
    "Ġgain": 4827,
    "yes": 986,
    "Ġsurpassed": 25268,
    "ario": 14248,
    "Ġap": 5007,
    "Ġhandles": 22698,
    "Ġcranial": 25592,
    "Ġdoc": 7200,
    "Ġmaz": 15545,
    "test": 13793,
    "delay": 16695,
    "wart": 17705,
    "ojo": 7349,
    "browed": 25894,
    "inte": 5144,
    "bore": 13688,
    "Ġcalmer": 23047,
    "tures": 21071,
    "ynolds": 10039,
    "cadence": 26125,
    "Ġfreed": 7267,
    "per": 479,
    "Ġpipes": 9851,
    "prevented": 20376,
    "alization": 732,
    "Ġstubbs": 23301,
    "ensions": 14262,
    "pane": 10123,
    "ivity": 1611,
    "Ġdelineate": 26057,
    "Ġresides": 22544,
    "Ġpist": 12618,
    "Ġfears": 5729,
    "Ġwhims": 12695,
    "Ġtastes": 15479,
    "ern": 749,
    "Ġdesist": 16240,
    "Ġphilosop": 5056,
    "Ġproceeded": 5336,
    "Ġalive": 4395,
    "thirds": 25048,
    "Ġswells": 9830,
    "Ġspat": 2664,
    "the": 334,
    "Ġsuccor": 25662,
    "Ġdiscoloured": 15254,
    "ody": 1481,
    "wives": 15457,
    "Ġdetestation": 17128,
    "icity": 2538,
    "Ġsatire": 22903,
    "Ġwrithing": 11948,
    "Ġdiscernible": 15056,
    "algorithm": 3891,
    "father": 3776,
    "Ġrange": 9715,
    "Ġregularity": 22795,
    "Ġprynne": 25541,
    "Ġmincer": 14367,
    "Ġshan": 9252,
    "Ġloft": 5642,
    "Ġundec": 22023,
    "Ġundesired": 12782,
    "Ġcomplexion": 8213,
    "cur": 3269,
    "Ġcontin": 5382,
    "Ġjavan": 25001,
    "Æ": 135,
    "Ġirritation": 20268,
    "Ġcommunicates": 24545,
    "atisf": 21265,
    "Ġbuild": 6475,
    "ogrand": 26262,
    "udg": 22760,
    "Ġsof": 18276,
    "okers": 18442,
    "abases": 3006,
    "Ġresults": 7308,
    "Ġcoff": 3505,
    "Ġtransparent": 9492,
    "Ġgreat": 896,
    "Ġpreside": 18365,
    "Ġbenevolence": 9530,
    "local": 22514,
    "Ġentrances": 25834,
    "Ġgardener": 19135,
    "Ġrecess": 10849,
    "Ġcabaco": 13168,
    "annica": 24560,
    "down": 3466,
    "Ġdecision": 2675,
    "aye": 3660,
    "dug": 18462,
    "Ġcauses": 2559,
    "Ġthr": 5709,
    "method": 17285,
    "Ġ16": 7928,
    "Ġacting": 10993,
    "ainty": 21791,
    "Ġpursuit": 4732,
    "Ġguitar": 16271,
    "eland": 11623,
    "ruded": 15906,
    "Ġlard": 13948,
    "legra": 10791,
    "replied": 11568,
    "mund": 13759,
    "bulwarks": 12275,
    "pening": 2833,
    "Ġharry": 24570,
    "liking": 22926,
    "Ġicebergs": 23977,
    "Ġwall": 3841,
    "Ġscaled": 2106,
    "eding": 7166,
    "Ġsimilarly": 24308,
    "Ġdemeanour": 17338,
    "distrust": 19572,
    "Ġblotting": 25314,
    "speps": 14337,
    "Ġhooded": 12408,
    "Ġmoderate": 10940,
    "Ġrepair": 11980,
    "Ġobtain": 8918,
    "Ġsaddest": 16663,
    "nowhere": 18418,
    "dilig": 17283,
    "acted": 11012,
    "Ġoccurs": 1857,
    "wheel": 22868,
    "Ġvengeance": 5887,
    "Ġrecourse": 22740,
    "endeavour": 17030,
    "Ġsuppress": 13026,
    "Ġphara": 23205,
    "Ġstupidity": 15050,
    "Ġinherit": 25353,
    "nerable": 16276,
    "oubtedly": 6943,
    "commun": 15034,
    "Ġmischie": 22766,
    "solute": 16598,
    "Ġboy": 3022,
    "Ġcommence": 6169,
    "announced": 19761,
    "Ġnovelist": 24775,
    "Ġsalvation": 14759,
    "Ġseeth": 21964,
    "onist": 21252,
    "declaration": 25176,
    "Ġrecollect": 8311,
    "irium": 8163,
    "Ġduodecimo": 16767,
    "lig": 3173,
    "Ġardent": 9973,
    "Ġtorments": 13395,
    "conv": 7213,
    "Ġclassification": 1091,
    "Ġinches": 5846,
    "Ġtaffrail": 15478,
    "Ġsacrilege": 26229,
    "iamond": 14590,
    "Ġdistantly": 18534,
    "fierce": 25256,
    "Ġdaresay": 14705,
    "Ġdis": 695,
    "uss": 8768,
    "hue": 20900,
    "vices": 21118,
    "gust": 6362,
    "Ġsallow": 12539,
    "lection": 3653,
    "Ġaccorded": 24090,
    "bearers": 18527,
    "pennies": 26287,
    "pped": 1999,
    "Ġepis": 19984,
    "Ġreasoning": 2018,
    "wretch": 17708,
    "Ġparticip": 16134,
    "Ġpedd": 17910,
    "Ġsister": 1477,
    "osh": 18388,
    "rential": 22920,
    "Ġwaiting": 4320,
    "remem": 13069,
    "Ġboneless": 19607,
    "urons": 3130,
    "dued": 7911,
    "remed": 18954,
    "uncle": 8160,
    "ption": 7398,
    "stein": 5505,
    "Ġrelation": 2144,
    "Ġsame": 1339,
    "Ġbounce": 21395,
    "anges": 1675,
    "resentment": 15187,
    "Ġrevelation": 25223,
    "Ġmelancholy": 5605,
    "Ġdevoid": 18682,
    "mises": 20979,
    "touching": 15093,
    "shud": 18493,
    "Ġsand": 6237,
    "Ġsublim": 19969,
    "Ġjunk": 15956,
    "Ġtrivial": 10145,
    "Ġ11": 5319,
    "Ġevenness": 22837,
    "sky": 12513,
    "isive": 10795,
    "Ġgum": 21598,
    "idence": 4299,
    "Ġpronouncing": 16969,
    "Ġdundee": 16997,
    "Ġaxis": 12309,
    "Ġappre": 5165,
    "history": 15015,
    "Ġaccompaniments": 24480,
    "Ġimprudent": 12852,
    "Ġbulk": 5590,
    "truth": 9922,
    "Ġslice": 23164,
    "Ġvacancy": 9047,
    "lour": 15382,
    "Ġsnatching": 10474,
    "Ġuniformly": 19148,
    "enchant": 21285,
    "Ġcanes": 22167,
    "Ġtomahawk": 7539,
    "Ġac": 844,
    "Ġnailing": 21530,
    "circle": 16736,
    "itions": 4144,
    "Ġwarehouse": 20419,
    "stolen": 13978,
    "acters": 9312,
    "Ġalas": 5924,
    "Ġcareless": 11121,
    "Ö": 151,
    "Ġemer": 5961,
    "Ġunfailing": 24110,
    "Ġcommunic": 5751,
    "Ġadmiral": 17306,
    "rossed": 11014,
    "Ġsarat": 21229,
    "Ġeccentric": 13651,
    "fresh": 13393,
    "anting": 6413,
    "reflections": 24733,
    "with": 1297,
    "Ġarsac": 11745,
    "Ġnobleman": 19394,
    "Ġsashes": 21227,
    "Ġcompunction": 18588,
    "positive": 20569,
    "Ġtransf": 22441,
    "Ġlodged": 11253,
    "Ġunite": 9257,
    "Ġexhilar": 19685,
    "Ġequal": 4131,
    "Ġscandal": 9084,
    "Ġmayhew": 12952,
    "Ġgiddy": 20499,
    "Ġraise": 6168,
    "Ġslowly": 3616,
    "Ġpassing": 4312,
    "Ġcontinuously": 23211,
    "Ġtamely": 24981,
    "Ġleaf": 15726,
    "everywhere": 23697,
    "sebastian": 21823,
    "Ġassign": 11112,
    "ode": 1456,
    "heard": 5008,
    "Ġpoetical": 25058,
    "Ġfirmament": 19473,
    "Ġmisgiv": 14346,
    "sc": 1259,
    "neat": 22452,
    "Ġeuroclydon": 15298,
    "viii": 12022,
    "them": 3018,
    "Ġconflag": 20337,
    "mission": 5972,
    "Ġfeminine": 15265,
    "stand": 621,
    "ishing": 1142,
    "Ġtongues": 14864,
    "Ġimmensities": 25331,
    "faces": 13721,
    "ifted": 4491,
    "Ġcontemptuous": 24676,
    "Ġinterpreter": 23216,
    "Ġcontextual": 3742,
    "Ġantiqu": 12147,
    "Ġgamming": 25543,
    "Ġag": 683,
    "quality": 10235,
    "wling": 11547,
    "Ġfinger": 5274,
    "Ġaint": 17744,
    "Ġhumiliating": 22884,
    "Ġcolourless": 19571,
    "Ġneurons": 979,
    "moored": 22707,
    "hoping": 17566,
    "Ġboyhood": 23756,
    "aste": 4599,
    "Ġincalculable": 17461,
    "advanced": 19590,
    "ksome": 10107,
    "Ġspl": 2985,
    "Ġroman": 8324,
    "Ġlegible": 23533,
    "Ġdeceive": 12725,
    "ortment": 22261,
    "Ġoverpowered": 15290,
    "Ġcastors": 23978,
    "Ġdeliber": 7268,
    "Ġtrepidation": 19217,
    "pot": 10120,
    "repugnance": 16864,
    "Ġemployments": 12105,
    "despair": 8345,
    "_âĢĶâĢĻ": 13684,
    "Ù": 154,
    "Ġstartling": 14671,
    "darkness": 9515,
    "Ġindispens": 22959,
    "Ġfreshe": 13071,
    "Ġapprobation": 10987,
    "caus": 11478,
    "Ġtech": 1759,
    "anelles": 26434,
    "inders": 15983,
    "Ġshriek": 6640,
    "Ġflogged": 23626,
    "penetrating": 25491,
    "Ġaverages": 2398,
    "razor": 21640,
    "Ġremoving": 12119,
    "Ġranks": 21976,
    "ashion": 3857,
    "gies": 13727,
    "urches": 12688,
    "laug": 10709,
    "Ġrelating": 2703,
    "establishment": 26113,
    "course": 6106,
    "Ġceases": 19314,
    "forced": 11033,
    "Ġnarrow": 5086,
    "Ġtraveller": 8050,
    "Ġglue": 15677,
    "took": 6166,
    "Ġnoisier": 4622,
    "Ġdashing": 8800,
    "Ġdelights": 14596,
    "rigible": 24931,
    "Ġsmacking": 20167,
    "Ġprospect": 4706,
    "Ġcosine": 2372,
    "palms": 25263,
    "Ġcomplacency": 19450,
    "Ġcreativity": 2706,
    "Ġdrow": 21429,
    "cable": 20798,
    "ased": 1269,
    "riend": 1184,
    "Ġunche": 23430,
    "Ġlumber": 13953,
    "Ġbricks": 13564,
    "dered": 2473,
    "Ġluckily": 16798,
    "thoughtfully": 24047,
    "Ġgrew": 5182,
    "-------": 20391,
    "promote": 24725,
    "ermaid": 14297,
    "Ġcelerity": 17437,
    "ackinaw": 22426,
    "Ġglo": 1710,
    "Ġgrowing": 6752,
    "fifty": 12354,
    "Ġvel": 7186,
    "uts": 8820,
    "Ġslaughter": 20731,
    "Ġcuvier": 9168,
    "moving": 11018,
    "Ġfresher": 23213,
    "imony": 12693,
    "threat": 10902,
    "than": 4084,
    "Ġsenseless": 12081,
    "Ġoakum": 16934,
    "Ġsupre": 10273,
    "levelled": 23645,
    "Ġlamentations": 17075,
    "numer": 15401,
    "Ġaccess": 9750,
    "Ġboasted": 16109,
    "Ġaghast": 16050,
    "Ġbarren": 11208,
    "Ġbranch": 8333,
    "Ġhalting": 16274,
    "Ġ60": 14876,
    "Ġunsolved": 22037,
    "idav": 18094,
    "Ġ(âĢľ": 15998,
    "haustible": 16891,
    "lines": 6959,
    "pire": 9138,
    "Ġcalculated": 4471,
    "magnifying": 25393,
    "Ġwrong": 4723,
    "Ġwilt": 9646,
    "ugl": 23293,
    "Ġthree": 1372,
    "orse": 5807,
    "Ĵ": 245,
    "Ġcircle": 4976,
    "laughed": 20283,
    "Ġwhistled": 24624,
    "Ġinviting": 19144,
    "Ġblocked": 19224,
    "aution": 9390,
    "Ġexistence": 4705,
    "Ġvirtuous": 14757,
    "aved": 5476,
    "conceive": 16033,
    "furniture": 20244,
    "Ġsultanism": 25888,
    "apter": 1192,
    "Ġdecreed": 18484,
    "Ġmetaphys": 16410,
    "Ġgave": 2217,
    "nearly": 8685,
    "Ġconvince": 14642,
    "Ġandes": 12644,
    "Ġinvested": 7279,
    "Ġdeploy": 2881,
    "Ġlearnable": 3993,
    "Ġsustenance": 19936,
    "Ġesteemed": 10591,
    "Ġdrowsy": 26444,
    "Ġorders": 5341,
    "Ġclaws": 15969,
    "Ġshroud": 6484,
    "Ġdigress": 24648,
    "Ġallies": 18234,
    "Ġmusical": 23895,
    "Ġgrounds": 6751,
    "compliment": 11366,
    "Ġdauntless": 26337,
    "Ġimpat": 4452,
    "Ġop": 2601,
    "Ġtawn": 13824,
    "cious": 6646,
    "ouring": 6421,
    "Ġbacked": 12927,
    "Ġasia": 11685,
    "steam": 23962,
    "Ġsupernatural": 9876,
    "Ġfi": 937,
    "conquerable": 17400,
    "Ġcompetition": 14270,
    "Ġconsulting": 13430,
    "Ġont": 18120,
    "Ġnonce": 23236,
    "Ġhumming": 12987,
    "Ġdictionary": 15114,
    "Ġeither": 2602,
    "partly": 14602,
    "Ġprotect": 6339,
    "ravelled": 18016,
    "Ġsammy": 24932,
    "ouraged": 22860,
    "factories": 19845,
    "Ġretained": 7174,
    "Ġwhistles": 24625,
    "](": 11468,
    "figures": 20124,
    "Ġunited": 6840,
    "Ġrefusing": 11027,
    "isturbed": 18297,
    "entiating": 3435,
    "Ġtranque": 14205,
    "Ġseating": 18201,
    "Ġbordering": 17229,
    "icide": 11621,
    "Ġplucked": 15115,
    "Ġfreshet": 25703,
    "Ġinfrequent": 3823,
    "Ġgurglings": 26465,
    "mortals": 25410,
    "Ġrounds": 18885,
    "Ġamuse": 5942,
    "Ġemb": 1203,
    "greek": 25405,
    "Ġwatchful": 16527,
    "Ġlibrary": 6424,
    "Ġxv": 23408,
    "untarily": 6314,
    "natured": 7112,
    "eer": 15349,
    "Ġstooped": 14465,
    "Ġboots": 5945,
    "Ġaz": 9632,
    "Ġenergetic": 15199,
    "Ġadventures": 7749,
    "yours": 7696,
    "Ġsat": 1132,
    "ertion": 12041,
    "Ġconsort": 18723,
    "inition": 11559,
    "laborers": 23918,
    "Ġsavag": 19376,
    "Ġbound": 3516,
    "Ġtrooped": 24899,
    "Ġespecially": 3934,
    "plentiful": 21960,
    "ai": 2525,
    "whalemen": 10433,
    "tan": 4741,
    "charge": 9451,
    "Ġpertur": 12854,
    "fully": 2202,
    "Ġthrusting": 10555,
    "icing": 9203,
    "Ġtweed": 22680,
    "Ġobvious": 4962,
    "blasted": 20191,
    "Ġemig": 14524,
    "ically": 858,
    "Ġyankees": 26202,
    "Ġbaff": 10801,
    "||": 4868,
    "Ġfarthing": 14455,
    "Ġur": 5539,
    "Ġflask": 3040,
    "supportable": 12372,
    "Ġdivided": 8636,
    "sideways": 14571,
    "Ġstrangely": 5677,
    "ulum": 21867,
    "Ġcool": 5735,
    "accept": 8893,
    "Ġsprang": 5064,
    "scuttle": 11913,
    "vert": 15718,
    "Ġmak": 10780,
    "Ġkeels": 11062,
    "Ġcreate": 2092,
    "romed": 10907,
    "counters": 25398,
    "Ġproximity": 3218,
    "Ġoptimal": 1856,
    "separ": 9233,
    "Ġrebellion": 26475,
    "Ġstrengthen": 20702,
    "level": 2654,
    "Ġinherited": 25354,
    "Ġemploys": 19433,
    "pers": 4333,
    "!âĢĻâĢĿ": 16592,
    "Ġfurthermore": 1167,
    "Ġrumours": 24599,
    "Ġauthorities": 11266,
    "Ġeloped": 22649,
    "Ġtherein": 11778,
    "Ġintegral": 25010,
    "shot": 2277,
    "Ġconsecutive": 20704,
    "Ġevolved": 9893,
    "Ġodds": 13331,
    "usion": 3299,
    "Ġviolation": 23407,
    "uniform": 18159,
    "teeth": 10358,
    "Ġhaz": 12758,
    "shell": 16286,
    "Ġbetake": 22909,
    "Ġcollege": 11426,
    "iced": 3899,
    "Ġcoasts": 12166,
    "Ġple": 1471,
    "Ġcheese": 9380,
    "urean": 18124,
    "izard": 10885,
    "Ġmau": 21312,
    "discernible": 20552,
    "fed": 11490,
    "photograph": 16152,
    "chari": 21692,
    "Ġshoved": 23491,
    "prof": 7700,
    "sne": 10127,
    "Ġslo": 15508,
    "Ġcentre": 5122,
    "Ġundone": 24116,
    "ual": 945,
    "Ġoffend": 16147,
    "Ġtokens": 1773,
    "Ġhercules": 14128,
    "Ġabandonment": 25603,
    "Ã¦mon": 7096,
    "ezing": 10576,
    "pent": 3490,
    "susp": 10599,
    "Ġmist": 2876,
    "brown": 15319,
    "together": 3553,
    "Ġkrusenstern": 20715,
    "Ġplayed": 9419,
    "uel": 6967,
    "floor": 14937,
    "isted": 3297,
    "Ġendeavoured": 4917,
    "Ġbattery": 21396,
    "Ġdaybreak": 18726,
    "Ġswallows": 18883,
    "government": 25407,
    "Ġtarn": 21160,
    "draughts": 20390,
    "Ġsweat": 13141,
    "Ġprincipal": 6497,
    "Ġ79": 24265,
    "Ġfishing": 9665,
    "cull": 20810,
    "likewise": 13107,
    "warrant": 21139,
    "tural": 21068,
    ";--": 8070,
    "Ġgrace": 5374,
    "Ġhilarity": 20299,
    "patter": 4481,
    "Ġfarthest": 23119,
    "ilted": 21726,
    "prow": 15413,
    "Ġgrud": 17997,
    "Ġrequirements": 9791,
    "distressed": 24200,
    "afternoon": 13186,
    "Ġlane": 5627,
    "Ġexpert": 18860,
    "Ġexterm": 21833,
    "Ġminim": 1323,
    "Ġing": 5284,
    "Ġslippery": 12169,
    "Ġcoll": 8222,
    "Ġdrugg": 17120,
    "rougham": 15996,
    "Ġrussian": 14352,
    "Ġsermons": 20196,
    "Ġexplanatory": 22208,
    "Ġendeav": 2957,
    "Ġtil": 12527,
    "ribe": 1223,
    "Ġoften": 1955,
    "Ġfixing": 13157,
    "Ġmatrices": 4968,
    "Ġfault": 5702,
    "Ġhoneymoon": 25645,
    "Ġcarry": 4778,
    "lord": 3863,
    "Ġtrains": 10949,
    "Ġreluct": 14373,
    "screen": 23001,
    "Ġleviathans": 8283,
    "Ġp": 289,
    "Ġsch": 13836,
    "fancy": 7337,
    "µ": 118,
    "overfitting": 13103,
    "weep": 22687,
    "Ġsoar": 18277,
    "Ġwol": 15532,
    "oder": 2459,
    "conversations": 24747,
    "Ġpurring": 23476,
    "Ġghostliness": 24651,
    "Ġsocially": 22088,
    "cake": 20805,
    "Ġactor": 16051,
    "Ġtoss": 10187,
    "Ġimprec": 14220,
    "21": 10075,
    "Ġcharlotte": 3888,
    "Ġshooting": 11164,
    "perai": 10278,
    "Ġpinched": 17034,
    "Ġexchanging": 18132,
    "itatingly": 25278,
    "Ġleak": 2162,
    "Ġglared": 13020,
    "Ġalleg": 14018,
    "Ġcond": 3873,
    "breath": 15164,
    "Ġunalterable": 15854,
    "Ġworshipped": 25691,
    "Ġsaying": 3242,
    "Ġopened": 3510,
    "Ġhides": 16266,
    "Ġstranger": 3482,
    "Ġlurks": 11292,
    "Ġstables": 23655,
    "Ġdelicious": 14794,
    "Ġventured": 7501,
    "Ġwitt": 17784,
    "Ġcharming": 6631,
    "Ġaffirmative": 15224,
    "system": 4675,
    "Ġvaluable": 5607,
    "Ġgaol": 19569,
    "Ġgroan": 13326,
    "Ġagonies": 14252,
    "Ġevils": 9023,
    "opard": 9294,
    "Ġrequesting": 24633,
    "Ġcellar": 8060,
    "Ġyes": 2687,
    "fatigue": 20659,
    "riors": 18188,
    "indul": 22374,
    "favour": 9552,
    "heavy": 10577,
    "near": 5843,
    "moved": 9787,
    "Ġmarch": 4078,
    "Ġamounts": 6706,
    "evid": 11487,
    "adam": 15733,
    "âĢ": 294,
    "Ġgardiner": 3237,
    "Ġglassy": 19562,
    "savage": 15077,
    "Ġroasted": 18458,
    "Ġglossy": 15229,
    "##": 2315,
    "orange": 21402,
    "Ġdism": 9770,
    "Ġcircling": 19093,
    "Ġdisconnected": 22529,
    "X": 60,
    "Ġarg": 4765,
    "Ġlogic": 13079,
    "Ġpaddles": 15149,
    "Ġuneasy": 8666,
    "Ġheels": 10852,
    "Ġgateway": 24798,
    "Ġdif": 872,
    "arr": 3045,
    "Ġsanction": 20028,
    "Ġgall": 4348,
    "Ġacquaintances": 17351,
    "¤": 102,
    "Ġagents": 9769,
    "trucks": 25420,
    "Ġadie": 8491,
    "Ġunprejudiced": 18269,
    "Ġthought": 1093,
    "Ġharp": 17925,
    "anxiety": 25159,
    "Ġallegor": 25546,
    "Ġburly": 19251,
    "proves": 23396,
    "Ġpractical": 3164,
    "Ġinteresting": 4322,
    "Ġhunter": 5401,
    "jumped": 20248,
    "Ġcontraction": 16011,
    "Ġconstantinople": 19839,
    "Ġinclosed": 19540,
    "Ġunerring": 15850,
    "stiff": 12677,
    "Ġcarrying": 6074,
    "Ġbet": 1135,
    "Ġensigns": 23687,
    "Ġloading": 15877,
    "thest": 11656,
    "lun": 20947,
    "bitts": 26122,
    "Ġhemisphere": 26478,
    "Ġspit": 22128,
    "prev": 12870,
    "onent": 21250,
    "Ġfist": 21406,
    "Ġlancaster": 26341,
    "sory": 17659,
    "been": 3344,
    "Ġdrinks": 24280,
    "Ġthoroughly": 8349,
    "unnecessary": 21884,
    "Ġunlabeled": 3799,
    "Ġprosper": 10232,
    "Ġdrows": 21438,
    "Ġunmannerly": 26517,
    "mistress": 14906,
    "Ġcheerfulness": 10519,
    "Ġwalrus": 14974,
    "Ġfirm": 3869,
    "itious": 8784,
    "Ġcar": 1418,
    "ipher": 18427,
    "´": 117,
    "Ġpromise": 4196,
    "9": 29,
    "Ġqueen": 3212,
    "Ġwarp": 8114,
    "Ġsports": 18310,
    "indulged": 22379,
    "grounds": 11153,
    "Ġbrotherly": 16528,
    "twenty": 6609,
    "de": 460,
    "omy": 6251,
    "Ġscound": 12835,
    "Ġaccomp": 4712,
    "village": 25423,
    "Ġflounders": 23019,
    "Ġbrist": 14379,
    "Ġsporty": 19891,
    "Ġflow": 1237,
    "Ġsled": 21220,
    "six": 7143,
    "Ġfri": 17879,
    "opolising": 25676,
    "Ġdazzling": 15213,
    "Ġis": 347,
    "Ġoccas": 2701,
    "Ġdeuteronomy": 15763,
    "Ġprudence": 13921,
    "Ġperil": 5556,
    "ication": 976,
    "Ġsaloon": 24065,
    "Ġperth": 7024,
    "Ġviolet": 19090,
    "Ġtaste": 5524,
    "Ġrelief": 6062,
    "Ġporus": 24396,
    "Ġentries": 22744,
    "below": 12124,
    "Ġarchitect": 960,
    "Ġconsequence": 5541,
    "Ġparmacetti": 20606,
    "som": 3290,
    "ö": 183,
    "Ġstart": 3258,
    "Ġinher": 10182,
    "Ġhor": 1662,
    "chains": 9688,
    "Ġshoe": 14567,
    "Ġbrag": 23836,
    "d": 72,
    "examined": 17267,
    "ascertaining": 26460,
    "Ġspr": 4023,
    "Ġphiladelphia": 26604,
    "Ġprevailing": 24673,
    "accessible": 13641,
    "neglected": 25669,
    "fin": 5209,
    "falgar": 26130,
    "Ġ(_": 3736,
    "Ġenem": 4707,
    "Ġcoarse": 14278,
    "Ġdrunkard": 20179,
    "Ġsketch": 16167,
    "apt": 730,
    "Ġjinglers": 26018,
    "etition": 7382,
    "suitable": 18633,
    "Ġvertically": 19382,
    "Ġbecher": 18880,
    "Ġno": 509,
    "ourselves": 9014,
    "an": 278,
    "Ġskylarking": 19489,
    "fab": 13717,
    "Ġrevived": 11370,
    "Ġfruit": 12328,
    "Ġtimes": 2301,
    "women": 15458,
    "Ġspanish": 2829,
    ":--âĢľ": 24548,
    "Ġconsum": 9802,
    "Ġplanks": 5562,
    "Ġbott": 3149,
    "animate": 12580,
    "Ġextant": 18680,
    "ule": 6801,
    "Ġwhitt": 18056,
    "gged": 3777,
    "Ġaffections": 10387,
    "Ġcreative": 9831,
    "Ġ23": 13191,
    "Ġbeam": 2879,
    "Ġdepart": 4654,
    "biting": 20782,
    "Ġegyptians": 25290,
    "ash": 1993,
    "Ġneskye": 21534,
    "water": 4867,
    "preading": 18491,
    "pleasantness": 19772,
    "Ġislands": 6767,
    "Ġquit": 5246,
    "Ġdrink": 4786,
    "Ġenlist": 21940,
    "Ġsnowy": 9021,
    "asting": 12809,
    "Ġdepths": 4323,
    "jump": 10106,
    "Ġnorth": 4316,
    "thirst": 15828,
    "Ġsprout": 24089,
    "Ġalongside": 6313,
    "Ġaccountability": 10440,
    "Ġfow": 6135,
    "Ġjeopardized": 20232,
    "Ġclipping": 2439,
    "ior": 2041,
    "Ġbridges": 24682,
    "damn": 20026,
    "Ġdialogue": 12406,
    "rigging": 20008,
    "Ġdriving": 3615,
    "Ġmysteriously": 24602,
    "Ġensure": 23686,
    "flesh": 13491,
    "Ġlabyrin": 13106,
    "didn": 9010,
    "own": 744,
    "Ġsatisf": 2806,
    "agree": 14068,
    "rict": 8094,
    "Ġaqu": 17742,
    "Ġremove": 7499,
    "Ġrenewing": 19812,
    "ivial": 15862,
    "folding": 24927,
    "light": 3016,
    "umbs": 14690,
    "Ġprovoked": 13327,
    "Ġwebster": 20163,
    "Ġpouch": 21472,
    "Ġstacked": 21747,
    "Ġstaying": 8285,
    "Ġharpooning": 23981,
    "lantern": 17429,
    "warning": 25532,
    "Ġstrive": 23692,
    "puzz": 17640,
    "Ġcelestial": 10070,
    "Ġbushy": 16403,
    "Ġassociates": 24710,
    "Ġlaz": 7378,
    "Ġimagination": 5759,
    "iger": 8448,
    "Ġconnected": 5393,
    "ernally": 22614,
    "Ġbroker": 23104,
    "Ġsumm": 3355,
    "civil": 7798,
    "Ġfingertips": 24019,
    "Ġalco": 21786,
    "Ġcruise": 12051,
    "spanish": 14335,
    "Ġpromontory": 11943,
    "Ġunlim": 18253,
    "arying": 9804,
    "Ġsailed": 4888,
    "ie": 729,
    "Ġassoc": 6403,
    "Ġsimultaneous": 22590,
    "Ġbrahma": 26320,
    "mention": 7214,
    "Ġamazed": 14890,
    "Ġcondemn": 13445,
    "Ġwhaleboats": 18479,
    "Ġgour": 21601,
    "Ġhaggerston": 26452,
    "Ġhut": 15622,
    "untering": 15779,
    "Ġresting": 7963,
    "by": 1156,
    "yond": 2328,
    "Ġlimping": 23545,
    "Ġdropt": 23674,
    "Ġprep": 4188,
    "claim": 9838,
    "regard": 7975,
    "Ġinstituted": 18703,
    "Ġmeasurement": 19425,
    "Ġbrute": 8930,
    "Ġwildest": 16510,
    "nose": 17610,
    "Ġblemish": 19681,
    "Ġfoul": 7160,
    "Ġglued": 20591,
    "Ġthirty": 4942,
    "efficient": 2870,
    "osity": 14186,
    "ral": 4625,
    "Ġmultipl": 2790,
    "Ġschoolmasters": 19722,
    "Ġberg": 24534,
    "Ġwondrously": 24067,
    "keep": 3849,
    "Ġruefully": 17302,
    "Ġdescends": 14288,
    "Ġcronies": 23441,
    "Ġduplicates": 17217,
    "Ġprof": 2460,
    "Ġpurple": 10435,
    "emason": 18183,
    "Ġisles": 8461,
    "Ġwestward": 24387,
    "ital": 4817,
    "Ġinheritance": 25356,
    "Ġviciss": 11294,
    "Ġperseverance": 13599,
    "Ġyounger": 5253,
    "isf": 2433,
    "Ġdepartments": 24243,
    "Ġdreadful": 4919,
    "rese": 15510,
    "omist": 21661,
    "Ġprogeny": 17389,
    "pshaw": 21029,
    "notice": 16150,
    "drop": 15338,
    "achel": 7033,
    "alarmed": 21506,
    "Ġinsane": 19270,
    "Ġclothing": 18423,
    "Ġtowed": 11267,
    "Ġmortal": 4680,
    "arest": 4002,
    "plans": 21956,
    "hecy": 21208,
    "therly": 18346,
    "Ġol": 17815,
    "ined": 1260,
    "Ġhastened": 9007,
    "gay": 11491,
    "Ġheron": 22077,
    "Ġdoings": 18375,
    "iot": 9603,
    "Ġslim": 18938,
    "Ġreliance": 14386,
    "ace": 714,
    "Ġrecommendation": 17025,
    "Ġautoregressive": 3429,
    "rates": 21040,
    "fred": 20856,
    "tender": 14475,
    "Ġemergencies": 17363,
    "Ġcling": 11774,
    ",âĢĻ": 2326,
    "Ġisolation": 17151,
    "Ġrisk": 8040,
    "ana": 15562,
    "cy": 640,
    "Ġresented": 22547,
    "Ġpanther": 16819,
    "Ġjets": 10290,
    "Ġnod": 1889,
    "tro": 15435,
    "amid": 12727,
    "Ġdusty": 14926,
    "Ġglimpses": 13433,
    "Ġmortally": 23919,
    "Ġmurmur": 14589,
    "tum": 11534,
    "Ġsherry": 19453,
    "Ġthreaten": 24372,
    "accordingly": 19215,
    "Ġhammers": 13242,
    "forks": 26387,
    "Ġmonkey": 8228,
    "Ġdisclose": 16159,
    "Ġbes": 2660,
    "Ġfagged": 17883,
    "afflicted": 23779,
    "llable": 6878,
    "Ġnavel": 24575,
    "Ġjane": 1758,
    "Ġrem": 954,
    "commanding": 24750,
    "Ġsufficiently": 8976,
    "Ġspasmodically": 17315,
    "Ġboscombe": 8327,
    "Ġreduce": 7944,
    "lets": 7837,
    "itated": 4436,
    "word": 2487,
    "Ġendow": 23137,
    "Ġstaves": 21744,
    "Ġding": 12602,
    "haz": 17564,
    "Ġdi": 6526,
    "Ġangular": 19208,
    "doctor": 19096,
    "ometer": 19327,
    "Ġconcocted": 26299,
    "Ġperception": 9753,
    "Ġswimming": 5507,
    "Ġinquirers": 24966,
    "Ġbelongs": 8016,
    "supper": 12922,
    "purpose": 10047,
    "tland": 21075,
    "Ġconcre": 16389,
    "kitty": 10108,
    "Ġcharing": 14181,
    "Ġspell": 8859,
    "ieces": 4771,
    "Ġbalmoral": 16209,
    "Ġcumul": 4175,
    "Ġcosmopolitan": 20642,
    "Ġchannels": 26013,
    "exasper": 22433,
    "Ġrags": 18645,
    "ised": 1086,
    "Ġbucket": 8792,
    "resides": 23670,
    "ject": 876,
    "suggested": 17300,
    "Ġthrew": 3972,
    "Ġfuneral": 10286,
    "Ġenticements": 26034,
    "Ġramad": 8531,
    "Ġhangs": 11609,
    "mbling": 3345,
    "Ġtransaction": 22443,
    "Ġsuperseded": 26225,
    "Ġmad": 2424,
    "Ġeagle": 13201,
    "Ġrouse": 15824,
    "Ġpend": 15609,
    "Ġstreaming": 19675,
    "Ġanimals": 8981,
    "Ġshabby": 14112,
    "lott": 6653,
    "commander": 16987,
    "Ġgri": 17989,
    "Ġrepresentations": 1874,
    "itive": 6671,
    "Ġpierced": 12284,
    "Ġbald": 16208,
    "crossed": 16633,
    "Ġeffectually": 16169,
    "ated": 719,
    "gems": 20885,
    "Ġlingo": 24903,
    "agatha": 21912,
    "Ġsufficient": 2004,
    "Ġblossom": 26312,
    "wherefore": 19109,
    "arily": 4122,
    "Ġcontinuing": 14398,
    "Ġcultured": 25158,
    "Ġaggregated": 25678,
    "probable": 17021,
    "Ġcentury": 8292,
    "Ġmeditating": 20045,
    "Ġresistance": 13530,
    "Ġinevitable": 15169,
    "rices": 4556,
    "hunsford": 24384,
    "admiration": 11389,
    "pudding": 17647,
    "gratitude": 16816,
    "Ġaval": 15495,
    "fun": 4011,
    "Ġfebruary": 15916,
    "Ġcannon": 14154,
    "Ġgaunt": 11270,
    "Ġmingled": 12379,
    "Ġvaults": 17154,
    "Ġprov": 4397,
    "onies": 6807,
    "Ġdoctors": 12154,
    "Ġmayhap": 18710,
    "Ġcharted": 22254,
    "Ġner": 1646,
    "Ġdesiring": 14416,
    "Ġinference": 9674,
    "Ġcontrolled": 23252,
    "Ġramadan": 9578,
    "offer": 19061,
    "Ġsteelkilt": 5675,
    "Ġcom": 369,
    "Ġnegatived": 23051,
    "Ġinsurmountable": 16531,
    "befriend": 22496,
    "Ġsaints": 20676,
    "Ġtort": 5904,
    "assured": 10954,
    "Ġfunctional": 3048,
    "degrees": 22154,
    "Ġknot": 7013,
    "year": 11097,
    "ad": 337,
    "Ġbattering": 13902,
    "Ġdocks": 14176,
    "oting": 2744,
    "Ġ12": 5483,
    "ild": 1153,
    "Ġscheming": 23272,
    "Ġtumbled": 13407,
    "versed": 9828,
    "Ġtrait": 23077,
    "Ġindispensable": 11904,
    "Ġrecommend": 7104,
    "ulus": 21868,
    "Ġgamesome": 17290,
    "Ġheadland": 22899,
    "Ġisinglass": 21806,
    "elaborate": 21579,
    "Ġdiffer": 18679,
    "Ġcomple": 2842,
    "Ġdisposed": 7085,
    "Ġarmitage": 23582,
    "Ġfanciful": 24786,
    "Ġup": 463,
    "Ġweapon": 7777,
    "Ġsings": 15507,
    "Ġthickly": 12118,
    "ilege": 22260,
    "beer": 22492,
    "Ġcrocod": 19630,
    "Ġlightning": 5750,
    "Ġout": 543,
    "hate": 20893,
    "Ġflap": 14423,
    "Ġdeceit": 13482,
    "Ġcalm": 3444,
    "Ġgilder": 21616,
    "iscre": 17851,
    "vate": 21111,
    "Ġdanes": 25160,
    "acey": 7650,
    "additional": 20466,
    "merc": 19281,
    "anch": 15563,
    "Ġaccelerating": 1621,
    "kye": 20939,
    "Ġrighted": 23182,
    "fly": 13715,
    "den": 939,
    "Ġnovelty": 13464,
    "Ġsurvey": 13595,
    "Ġsacrificed": 17423,
    "Ġgash": 15674,
    "Ġpretty": 3859,
    "tomorrow": 25914,
    "Ġcompassionate": 24721,
    "Ġmolasses": 25628,
    "Ġunhappy": 5640,
    "author": 9863,
    "Ġcal": 1325,
    "Ġtroubled": 6618,
    "highest": 20410,
    "murderer": 13394,
    "Ġplay": 2623,
    "ositories": 22267,
    "Ġmapp": 2082,
    "Ġcigarette": 20657,
    "me": 864,
    "Ġwhite": 1539,
    "Ġ21": 11201,
    "reas": 990,
    "Ġmiss": 1229,
    "honey": 20906,
    "Ġladder": 8602,
    "Ġtarpaul": 17730,
    "visit": 7756,
    "Ġexcell": 10419,
    "Ġbarbs": 10534,
    "henomenon": 13616,
    "omet": 3075,
    "Ġwilled": 21293,
    "Ġskilfully": 20526,
    "fitting": 1510,
    "Ġranging": 8481,
    "sacred": 17028,
    "violets": 23543,
    "Ġcorrected": 10450,
    "Ġroot": 2651,
    "hibited": 17428,
    "Ġhelpless": 8303,
    "rimsh": 17027,
    "silent": 9977,
    "Ġthrobbing": 16898,
    "icted": 5939,
    "Ġtools": 11612,
    "ledyard": 22388,
    "Ġsecre": 5493,
    "Ġmate": 3707,
    "oper": 7347,
    "really": 6972,
    "Ġdrawled": 23991,
    "irty": 4047,
    "Ġriots": 23894,
    "fugitive": 26131,
    "Ġmottled": 20680,
    "Ġinfinite": 8581,
    "Ġcollections": 22858,
    "Ġwhenever": 5166,
    "Ġinsists": 23676,
    "che": 3171,
    "İ": 241,
    "freely": 16854,
    "phology": 3008,
    "umb": 3401,
    "Ġlivers": 18461,
    "reve": 12542,
    "menced": 23149,
    "Ġgrappling": 25812,
    "Ġconsol": 3814,
    "tic": 8392,
    "ot": 346,
    "fishers": 24928,
    "Ġscenarios": 26542,
    "Ġequinox": 25857,
    "ull": 1432,
    "Ġowing": 6007,
    "Ġfield": 1253,
    "pride": 11212,
    "orily": 15576,
    "quarters": 24948,
    "Ġhang": 9190,
    "Ġchurchyard": 16777,
    "justice": 7959,
    "faced": 8081,
    "imper": 13998,
    "Ġreceiving": 4881,
    "Ġmississ": 18839,
    "Ġancest": 12617,
    "cried": 8729,
    "Ġbesee": 19244,
    "Ġunit": 1849,
    "Ġwarrior": 24494,
    "Ġtask": 1310,
    "Ġtenement": 23549,
    "ville": 6089,
    "Ġperfections": 23609,
    "Ġpri": 5814,
    "flames": 14713,
    "fork": 20858,
    "hullo": 17570,
    "Ġpipeline": 2355,
    "miserable": 8661,
    "Ġestates": 16461,
    "Ġliberty": 7763,
    "Ġmilky": 9950,
    "Ġhyena": 24517,
    "Ġdarts": 16768,
    "Ġpall": 7583,
    "Ġunhinged": 26217,
    "whis": 7900,
    "iantly": 13740,
    "Ġcompens": 14267,
    "Ġradiance": 13372,
    "Ġplacid": 11829,
    "Ġindic": 2889,
    "hess": 4746,
    "Ġislanders": 19504,
    "Ġexplored": 23518,
    "Ġinstinct": 6577,
    "Ġspeed": 2447,
    "audible": 17133,
    "Ġheavenly": 12087,
    "Ġstamping": 20033,
    "Ġmerit": 9430,
    "Ġclear": 1950,
    "mill": 13755,
    "uctive": 17696,
    "Ë": 140,
    "uttermost": 24942,
    "Ġhunts": 23161,
    "aco": 12898,
    "Ġlast": 1123,
    "geese": 22371,
    "Ġwouldn": 6048,
    "Ġachieved": 13167,
    "Ġselects": 4382,
    "Ġherb": 15859,
    "accounted": 16502,
    "ping": 9618,
    "outh": 2686,
    "Ġmasses": 10506,
    "Ġobliter": 14323,
    "hav": 20898,
    "Ġ1991": 3015,
    "Ġvexation": 10589,
    "slouched": 24555,
    "semble": 1525,
    "Ġunscrew": 22044,
    "striking": 13441,
    "cer": 6645,
    "Ġminuteness": 19139,
    "apprehens": 17407,
    "Ġglanced": 5954,
    "ĠĠĠĠĠĠĠĠĠĠĠĠĠĠĠĠĠĠĠĠĠĠĠĠĠĠĠĠĠĠĠĠĠĠĠĠ": 23664,
    "Ġmodest": 15918,
    "Ġsummits": 14683,
    "prit": 19344,
    "transformer": 25017,
    "achines": 1719,
    "where": 2093,
    "Ġreport": 6193,
    "resistible": 10646,
    "Ġtickled": 20059,
    "verse": 9691,
    "Ġwhiskers": 10495,
    "Ġpursu": 3238,
    "Ġrewards": 10850,
    "Ġpartiality": 9401,
    "Ġfulfilment": 20189,
    "Ġvexed": 9997,
    "Ġfallen": 5970,
    "before": 3114,
    "purposes": 25023,
    "Ġsequ": 984,
    "Ġarch": 921,
    "Ġvelvets": 25394,
    "Ğ": 223,
    "memory": 13619,
    "alter": 10828,
    "Ġaloysius": 15741,
    "Ġemphasis": 20538,
    "Ġmowers": 17813,
    "mand": 3893,
    "Ġbitter": 4169,
    "sartain": 25622,
    "boards": 23256,
    "dataset": 23247,
    "Ġev": 4828,
    "summit": 23418,
    "Ġwhir": 6394,
    "spouting": 25004,
    "Ġkne": 4263,
    "Ġshot": 4541,
    "cess": 540,
    "Ġexpired": 18621,
    "Ġinfinity": 23286,
    "Ġmechan": 1148,
    "Ġsne": 6373,
    "Ġsinusoid": 4780,
    "Ġinformation": 1048,
    "Ġasserted": 16949,
    "Ġcontains": 2792,
    "Ġthoughts": 3137,
    "hole": 5585,
    "Ġlurked": 11293,
    "Ġcognitive": 13636,
    "Ġcounsel": 13617,
    "Ġtroops": 24898,
    "oct": 7554,
    "Ġunfair": 19509,
    "ink": 754,
    "Ġantiquities": 25598,
    "onse": 21251,
    "Ġperplexed": 23659,
    "Ġspiritual": 9933,
    "Ġattempts": 10493,
    "haust": 5777,
    "Ġcomput": 605,
    "Ġcommonly": 3263,
    "Ġjug": 12838,
    "Ġnick": 21526,
    "iveness": 2468,
    "Ġputs": 19037,
    "Ġsoles": 22086,
    "Ġeddy": 13547,
    "Ġbath": 9661,
    "Ġfrantically": 23260,
    "Ġprivilege": 11421,
    "aciousness": 18567,
    "Ġbears": 6829,
    "ingly": 2138,
    "odings": 4396,
    "ations": 709,
    "judging": 24202,
    "Ġsplitting": 4380,
    "Ġoverpower": 12846,
    "Ġgesture": 11401,
    "Ġveracity": 23891,
    "Ġmanage": 7641,
    "Ġbub": 8119,
    "flutterings": 26606,
    "cies": 1815,
    "Ġrearing": 12680,
    "Ġrecollections": 10515,
    "stuff": 15690,
    "Ġslashing": 23174,
    "Ġprove": 5232,
    "Ġpity": 4939,
    "Ġdisputing": 25824,
    "Ġwax": 10778,
    "Ġmexico": 15282,
    "Ġcongregated": 20099,
    "Ġcomment": 9235,
    "Ġunprofitable": 18267,
    "Ġdecomposition": 5343,
    "Ġrepresenting": 4057,
    "batch": 1983,
    "Ġrelev": 1711,
    "Ġdro": 2771,
    "oices": 7348,
    "Ġknots": 15009,
    "Ġforge": 8458,
    "Ġsubset": 9873,
    "Ġplanned": 14754,
    "Ġgregarious": 18964,
    "Ġgeese": 7695,
    "Ġresource": 10995,
    "remain": 9841,
    "Ġsatin": 12990,
    "Ġrails": 22656,
    "educ": 10830,
    "stave": 21646,
    "pregn": 18492,
    "Ġinsertion": 26344,
    "Ġscolding": 15202,
    "N": 50,
    "Ġtwist": 11853,
    "Ġtouches": 20572,
    "Ġbreast": 8971,
    "Ġsubordinate": 18722,
    "Ġraving": 16117,
    "sole": 6170,
    "Ġworthy": 7241,
    "pedest": 24822,
    "shunned": 22471,
    "inv": 8403,
    "Ġcompleted": 9000,
    "Ġphaet": 16321,
    "Ġcircumst": 2976,
    "farewell": 12308,
    "Ġinstincts": 16986,
    "physiogn": 26264,
    "corrob": 24483,
    "Ġovertake": 15975,
    "Ġledgers": 23940,
    "Ġascertaining": 17204,
    "Ġappointment": 10649,
    "bordered": 17499,
    "Ġthrusts": 24348,
    "Ġpsalmody": 20587,
    "penet": 11072,
    "Ġartificial": 810,
    "Ġinsights": 13180,
    "slowly": 9092,
    "Ġpiling": 17912,
    "Ġdromedary": 17440,
    "spark": 18688,
    "Ġroses": 11789,
    "Ġrelentless": 26278,
    "Ġslu": 13837,
    "ju": 13742,
    "catch": 17507,
    "Ġpractice": 2583,
    "Ġbehavioral": 11398,
    "Ġlinear": 3430,
    "tps": 11537,
    "Ġlistener": 16476,
    "Ġduties": 6611,
    "Ġmac": 15541,
    "Ġgret": 21604,
    "etuous": 21586,
    "illation": 14142,
    "Ġpersist": 16287,
    "Ç": 136,
    "Ġtraditions": 11445,
    "flaming": 23972,
    "voy": 7145,
    ";âĢĻ": 15304,
    "itate": 6670,
    "rible": 3226,
    "au": 777,
    "Ġ51": 24314,
    "Ġbloodshed": 23802,
    "farmer": 25899,
    "scotland": 20531,
    "Ġfurther": 1056,
    "ority": 8420,
    "Ġbiographical": 22769,
    "Ġpossessions": 23827,
    "Ġneedle": 8276,
    "Ġannounce": 13340,
    "Ġvishnoo": 12756,
    "Ġthack": 21520,
    "ship": 1391,
    "Ġendued": 14078,
    "Ġwronged": 24248,
    "shock": 19856,
    "Ġgod": 1938,
    "maid": 8556,
    "Ġheartless": 13074,
    "Ġprender": 22239,
    "insisted": 23070,
    "Ġbachelors": 24860,
    "ternatural": 12718,
    "na": 13761,
    "Ġund": 4115,
    "Ġungover": 18255,
    "oppressed": 24820,
    "ick": 835,
    "apidated": 22341,
    "Ġturn": 1298,
    "Ġ26": 10472,
    "dry": 13705,
    "fins": 13720,
    "Ġjost": 23632,
    "Ġworking": 5573,
    "Ġonce": 1492,
    "Ġforesaw": 19127,
    "companions": 15024,
    "Ġpassed": 2011,
    "Ġdedu": 5582,
    "Ġchorus": 10948,
    "augment": 18830,
    "rifice": 12506,
    "Ġcolonies": 14376,
    "Ġimple": 1738,
    "Ġphysiognomically": 25612,
    "tracks": 19648,
    "Ġfan": 2037,
    "Ġinvitation": 5188,
    "Ġunallied": 22036,
    "âĢĿ--": 21820,
    "Ġbillow": 14782,
    "Ġpos": 1011,
    "Ġsmell": 7216,
    "ĠâĢĶ": 13812,
    "proved": 11988,
    "Ġjagged": 18407,
    "steering": 16636,
    "teness": 23210,
    "Ġramble": 9316,
    "Ġshow": 3400,
    "Ġdelayed": 9521,
    "Ġcontempl": 6703,
    "deed": 1519,
    "Ġsignals": 10588,
    "Ġluc": 3310,
    "cooper": 19190,
    "Ġclearing": 8241,
    "Ġdestroy": 5772,
    "houn": 20894,
    "dutch": 17219,
    "Ġgone": 2107,
    "Ġsnatches": 16545,
    "Ġstones": 9224,
    "Ġ1000": 3117,
    "Ġstarts": 16583,
    "Ġoutrages": 18415,
    "Ġhuggins": 24825,
    "Ġlexic": 15727,
    "Ġlobes": 22119,
    "Ġlandsmen": 11353,
    "Ġbrighter": 16189,
    "Ġmaids": 19693,
    "Ġdegradation": 2629,
    "very": 500,
    "attering": 7419,
    "Ġmemorable": 16447,
    "Ġvanished": 6874,
    "commission": 22821,
    "none": 6962,
    "Ġoppressively": 25710,
    "Ġenvelope": 7319,
    "bunger": 20404,
    "Ġcompromising": 22578,
    "Ġhalf": 1670,
    "Ġ270": 25133,
    "odecimoes": 25319,
    "anxious": 15111,
    "Ġmisunderstand": 18706,
    "?_âĢĿ": 12318,
    "Ġcaul": 10789,
    "iasm": 8062,
    "Ġjames": 6420,
    "Ġphrenologists": 25608,
    "Ġcompact": 2262,
    "Ġbetween": 790,
    "Ġowes": 20087,
    "encing": 21284,
    "ize": 772,
    "ogy": 22712,
    "Ġdrawings": 14723,
    "Ġaccordance": 19500,
    "iz": 365,
    "promised": 12254,
    "Ġhazard": 20434,
    "ģ": 228,
    "likes": 18814,
    "fr": 4803,
    "Ġreminding": 19799,
    "husband": 8043,
    "Ġhooped": 23358,
    "Ġferrule": 24515,
    "ais": 8072,
    "Ġtypically": 1536,
    "Ġsexes": 25172,
    "kilt": 4865,
    "Ġrisen": 9496,
    "Ġsecondary": 23336,
    "Ġsacrifice": 9558,
    "Ġreciprocating": 26370,
    "Ġface": 1718,
    "idual": 1560,
    "threaten": 25462,
    "Ġmodel": 511,
    "conclusion": 25671,
    "glasses": 11217,
    "ruding": 9727,
    "Ġsquaring": 22843,
    "ylon": 24979,
    "Ġcries": 7155,
    "Ġnewspapers": 17187,
    "Ġzealand": 12352,
    "mankind": 14375,
    "Ġjob": 7017,
    "ceed": 1073,
    "Ġresumed": 11815,
    "Ġcatholic": 20683,
    "wers": 12522,
    "Ġhopeless": 7463,
    "ª": 108,
    "Ġesc": 2253,
    "Ġgur": 21595,
    "cause": 7797,
    "Ġhoky": 17928,
    "Ġalbertus": 25648,
    "Ġforetold": 23451,
    "Ġquart": 11790,
    "Ġimmens": 9942,
    "Ġtranspired": 16784,
    "Ġunmingled": 18263,
    "Ġthoughtfully": 12981,
    "harpooneer": 8693,
    "Ġregiment": 6433,
    "Ġwidest": 24235,
    "Ġdispleasure": 16055,
    "congreg": 25399,
    "Ġrisks": 9967,
    "Ġupset": 22157,
    "Ġdeliberately": 10627,
    "Ġnursed": 16885,
    "Ġ184": 16607,
    "Ġrejected": 12296,
    "utes": 5916,
    "adem": 21761,
    "Ġcyp": 21347,
    "stern": 7863,
    "Ġmagnanim": 14474,
    "pur": 7807,
    "cavity": 26126,
    "Ġindiam": 22958,
    "Ġours": 4610,
    "trans": 5593,
    "Ġhunters": 6302,
    "Ġinadequate": 17938,
    "bath": 13691,
    "Ġsuburban": 17347,
    "Ġlunging": 24993,
    "Ġvine": 8474,
    "blind": 16702,
    "Ġshowers": 16605,
    "isol": 17847,
    "Ġopal": 23627,
    "Ġcrags": 23528,
    "Ġwheeling": 18286,
    "Ġreadability": 2723,
    "Ġsamuel": 10036,
    "Ġaccost": 12849,
    "surprised": 9534,
    "Ġresentment": 7530,
    "Ġchancery": 20717,
    "osure": 5308,
    "image": 9689,
    "Ġcobweb": 22588,
    "play": 5099,
    "Ġstoried": 18074,
    "assumed": 22312,
    "Ġenvied": 19313,
    "Ġsolid": 6444,
    "Ġcrystals": 20229,
    "Ġsincere": 11138,
    "Ġstood": 2549,
    "Ġspend": 5306,
    "Ġfumes": 21421,
    "slee": 17169,
    "Ġarduous": 26531,
    "geneva": 13731,
    "Ġencounters": 19582,
    "Ġbelie": 14409,
    "dire": 15337,
    "Ġnarrowly": 16820,
    "dread": 8733,
    "etite": 21582,
    "Ġwrenched": 12561,
    "Ġpugnacious": 26451,
    "Ġhoof": 23356,
    "comfortableness": 24523,
    "most": 1257,
    "inated": 6805,
    "Ġsolicited": 20039,
    "mistaken": 12213,
    "Ġplains": 14622,
    "Ġinfluenced": 19634,
    "Ġown": 1007,
    "Ġroylott": 7305,
    "Ġpendulous": 25955,
    "nay": 7137,
    "Ġdisgu": 8207,
    "Ġrespective": 16347,
    "gabriel": 15362,
    "voices": 21119,
    "Ġlively": 5449,
    "Ġusual": 3941,
    "Ġpallet": 21484,
    "Ġ64": 24365,
    "iary": 15372,
    "Ġstruggling": 12077,
    "Ġstrangers": 8315,
    "Ġroar": 9755,
    "Ġshoots": 14568,
    "Ġviol": 2072,
    "heim": 17746,
    "Ġtongs": 9964,
    "rab": 7597,
    "Ġgeography": 23374,
    "Ġsunlight": 13087,
    "ores": 2411,
    "principal": 20661,
    "bury": 9110,
    "Ġweighing": 20018,
    "Ġstove": 6735,
    "_": 67,
    "Ġbrack": 23838,
    "hes": 1398,
    "Ġtwig": 11852,
    "wards": 1278,
    "Ġavail": 11228,
    "Ġsolutions": 1948,
    "Ġascent": 19620,
    "Ġtrespass": 23601,
    "...": 24547,
    "Ġattributed": 11838,
    "crooked": 25746,
    "Ġcrucial": 9894,
    "Ġfejee": 18354,
    "Ġnamely": 20691,
    "Ġreclining": 26033,
    "Ġcenturies": 8627,
    "flies": 19426,
    "Ġconsoled": 18114,
    "Ġdoran": 9182,
    "akened": 7415,
    "Ġagitation": 6865,
    "overspreading": 26139,
    "ut": 308,
    "Ġcoleman": 22589,
    "đ": 210,
    "Ġordained": 19447,
    "ĠĠĠĠĠĠĠĠĠĠĠĠĠĠĠĠĠĠĠĠĠĠ": 16229,
    "ittleness": 22380,
    "Ġembarrassment": 10629,
    "Ġfoaming": 18991,
    "Ġpresided": 20209,
    "Ġumb": 11648,
    "respectively": 24698,
    "cus": 3978,
    "dining": 13707,
    "ame": 645,
    "Ġintu": 12766,
    "direful": 25896,
    "Ġtreble": 16504,
    "Ġteaching": 10367,
    "scor": 13022,
    "warmly": 25028,
    "Ġenlarged": 25985,
    "Ġlonged": 6437,
    "iber": 6507,
    "Ġrent": 11641,
    "Ġmult": 1024,
    "Ġenorm": 5304,
    "prepared": 13592,
    "Ġchristianity": 19862,
    "Ġnapoleons": 25885,
    "Ġtraces": 7947,
    "Ġambition": 11434,
    "utility": 21590,
    "several": 5543,
    "Ġextinguished": 10341,
    "Ġcomputes": 4767,
    "Ġprovision": 14826,
    "aguy": 21914,
    "Ġcosmetic": 23472,
    "Ġsem": 1876,
    "_)": 9105,
    "Ġrural": 21971,
    "Ġgloomily": 14802,
    "Ġvirtues": 9939,
    "Ġtomorrow": 21516,
    "Ġhandsom": 11126,
    "Ġbaker": 4695,
    "Ġrecognised": 8998,
    "Ġcruelty": 9972,
    "Ġdeprec": 15761,
    "iate": 6506,
    "Ġfaire": 13366,
    "direction": 17524,
    "entreaties": 26186,
    "Ġrough": 7187,
    "Ġpenalty": 1842,
    "Ġaunt": 3177,
    "whispered": 20036,
    "Ġdevelop": 1637,
    "Ġpell": 21459,
    "deployment": 26527,
    "madness": 14883,
    "Ġserving": 14486,
    "hair": 9125,
    "pinn": 21027,
    "circumst": 5349,
    "noise": 14334,
    "est": 499,
    "Ġwer": 12555,
    "roman": 22008,
    "Ġresurrection": 12897,
    "Ġpain": 2302,
    "Ġwrongfully": 24249,
    "Ġdownst": 3556,
    "Ġrecurrent": 1805,
    "Ġbeech": 18084,
    "W": 59,
    "legged": 10467,
    "Ġridiculous": 10631,
    "Ġbruited": 25773,
    "Ġroof": 6566,
    "peculiar": 6886,
    "Ġmoul": 15547,
    "Ġgentleness": 8714,
    "shish": 11798,
    "Ġascertained": 25297,
    "Ġtraversed": 18892,
    "Ġintroduces": 3268,
    "Ġsharply": 9406,
    "Ġfeels": 6882,
    "Ġaffectionately": 13169,
    "Ġbags": 24535,
    "minutes": 7512,
    "dashed": 12458,
    "undertaking": 23788,
    "Ġindefinitely": 25222,
    "ther": 482,
    "cence": 9591,
    "Ġreminds": 13432,
    "'m": 9585,
    "Ġscar": 3211,
    "Ġveil": 7935,
    "batross": 9096,
    "Ġrudder": 25109,
    "Ġlabrador": 23334,
    "Ġfid": 10805,
    "Ġunion": 6839,
    "Ġaccomplishment": 19667,
    "mannered": 22852,
    "consciousness": 13367,
    "Ġdisappo": 4502,
    "Ġpinch": 15017,
    "ienced": 5685,
    "breaking": 14766,
    "Ġsuspended": 5665,
    "ressed": 3023,
    "Ġcountess": 11966,
    "ricted": 15422,
    "Ġ107": 24413,
    "fluttering": 23975,
    "Ġcalculating": 9928,
    "Ġpunctilious": 26354,
    "Ġattach": 14292,
    "umbled": 8495,
    "Ġadmin": 23554,
    "Ġcre": 889,
    "Ġresigned": 9771,
    "function": 4516,
    "Ġappetites": 20208,
    "Ġgrudge": 20695,
    "Ġhay": 11608,
    "Ġwee": 21922,
    "Ġsport": 6690,
    "Ġdismally": 20216,
    "uttered": 8443,
    "princ": 8625,
    "Ġrepeat": 8001,
    "Ġarsacides": 17295,
    "ach": 435,
    "Ġem": 1924,
    "Ġthom": 21519,
    "Ġethics": 15464,
    "Ġconsecrate": 26489,
    "excuse": 13382,
    "Ü": 157,
    "ope": 4121,
    "ê": 171,
    "lined": 12486,
    "idel": 5301,
    "Ġearnestly": 5981,
    "ĥ": 230,
    "Ġsoot": 14130,
    "among": 6258,
    "Ġdisregard": 22532,
    "Ġhighland": 18713,
    "Ġunappalled": 22069,
    "angular": 11726,
    "lob": 22511,
    "Ġangry": 5498,
    "Ġmetropol": 11147,
    "Ġnast": 15642,
    "Ġconcisely": 19047,
    "Ġcombat": 16201,
    "Ġimmortal": 8019,
    "forbidding": 25838,
    "Ġafresh": 18626,
    "Ġcows": 15556,
    "Ġmention": 2987,
    "Ġstates": 1852,
    "tranquil": 25870,
    "Ġsung": 23275,
    "benevolent": 15235,
    "heed": 15500,
    "Ġpressed": 6044,
    "embers": 21930,
    "Ġleaving": 3903,
    "Ġstead": 5650,
    "ze": 1423,
    "disgust": 23497,
    "Ġrow": 5245,
    "Ġdistorted": 14250,
    "eness": 2290,
    "itled": 7578,
    "effort": 19216,
    "Ġbelshazzar": 16228,
    "Ġstaid": 21739,
    "considered": 9583,
    "Ġcross": 1374,
    "Ġfelony": 18953,
    "luxur": 25822,
    "look": 2261,
    "Ġlucases": 9013,
    "Ġpoker": 13923,
    "Ġgums": 21614,
    "Ġseverity": 15823,
    "Ġprejudices": 13470,
    "Ġworry": 18815,
    "python": 4691,
    "Ġdamps": 23475,
    "Ġdepressed": 10884,
    "Ġnights": 7258,
    "ientiously": 21945,
    "pleas": 3850,
    "Ġpen": 1533,
    "Ġembod": 14406,
    "heartedness": 24824,
    "Ġcondemned": 7780,
    "peace": 13051,
    "Ġpenalizing": 13093,
    "Ġreusable": 13559,
    "ure": 356,
    "Ġgodly": 19081,
    "Ġbusily": 9387,
    "Ġdream": 3535,
    "Ġproprietors": 20188,
    "Ġacknowledges": 24688,
    "brit": 19199,
    "decl": 8860,
    "finally": 9502,
    "Ġcherry": 16935,
    "Ġbreaths": 14858,
    "Ġmagnitudes": 3821,
    "Ġbarrels": 9439,
    "Ġpanegyric": 26449,
    "allet": 11085,
    "Ġbouton": 17869,
    "Ġappertain": 22220,
    "Ġmeanness": 22599,
    "Ġdoubloons": 13435,
    "opportunity": 12277,
    "Ġcreep": 22725,
    "exerc": 16018,
    "adventurous": 25362,
    "Ġestimated": 16594,
    "Ġsitu": 3492,
    "Ġexcitement": 9384,
    "directed": 20407,
    "Ġreprehensible": 15702,
    "Ġspices": 22134,
    "said": 4100,
    "mil": 13753,
    "intments": 18820,
    "ios": 2241,
    "romang": 22009,
    "Ġarts": 11010,
    "Ġcho": 4544,
    "readiness": 19365,
    "belled": 24039,
    "rock": 15644,
    "Ġbrine": 18769,
    "Ġnominally": 17232,
    "Ġaugmentation": 20118,
    "Ġsalutations": 25383,
    "Ġrevol": 5536,
    "Ġimagine": 3922,
    "odiac": 14033,
    "sofa": 26146,
    "Ġquoted": 22419,
    "Ġclim": 8196,
    "Ġpret": 3035,
    "Ġ93": 24592,
    "Ġjuggler": 26367,
    "Ġfastidious": 14493,
    "Ġstall": 12699,
    "odious": 21816,
    "Ġposs": 1619,
    "Ġcalf": 16268,
    "Ġindisp": 18835,
    "Ġexig": 21830,
    "Ġovercame": 9749,
    "Ġprints": 16334,
    "Ġapproximates": 2416,
    "Ġclos": 4546,
    "Ġfasc": 12601,
    "Ġdeal": 3606,
    "mingled": 14714,
    "jane": 4478,
    "Ġtusk": 25426,
    "gaff": 20883,
    "Ġpreposter": 12825,
    "Ġ150": 22829,
    "ote": 4594,
    "Ġsharp": 2412,
    "bourne": 19103,
    "ihood": 20923,
    "Ġdav": 15593,
    "considerably": 13446,
    "Ġemperors": 15161,
    "Ġsi": 21214,
    "Ġbottled": 23797,
    "Ġability": 2764,
    "imson": 12692,
    "Ġcomo": 21858,
    "Ġbeau": 9227,
    "extraordinary": 9098,
    "Ġinterlude": 16076,
    "tubs": 15132,
    "oro": 21397,
    "Ġphotograph": 6304,
    "Ġconvent": 11670,
    "perpendicular": 14160,
    "Ġprecautions": 23728,
    "Ġstowed": 21740,
    "ffy": 18316,
    "Ġflash": 8231,
    "Ġwaist": 6893,
    "Ġsallies": 21231,
    "Ġvessel": 3798,
    "tubes": 25212,
    "Ġstatue": 23152,
    "rods": 21541,
    "getting": 12969,
    "Ġstandpoint": 23282,
    "Ġhands": 1665,
    "Ġwalking": 4321,
    "objections": 19917,
    "Ġcomprehens": 8321,
    "Ġcomposure": 7217,
    "correct": 24481,
    "Ġsympt": 7014,
    "pl": 401,
    "Ġwherever": 8527,
    "Ġaperture": 26160,
    "Ġpirates": 9076,
    "Ġworm": 9165,
    "Ġmajestic": 8644,
    "Ġwondered": 11127,
    "Ġchast": 18380,
    "Ġdetested": 14178,
    "Ġord": 3735,
    "when": 1590,
    "Ġimportant": 1120,
    "Ġparamore": 22126,
    "Ġsneer": 13448,
    "Ġbounded": 16627,
    "total": 17251,
    "Ġmatrimony": 13637,
    "Ġfloat": 12034,
    "lane": 10708,
    "Ġrickety": 26505,
    "Ġdissatisfied": 14257,
    "venerable": 26408,
    "Ġeconomically": 25289,
    "bel": 3834,
    "Ġhearing": 4760,
    "Ġtwo": 1043,
    "Ġcarpenters": 16752,
    "Ġscr": 11763,
    "Ġconciliating": 19050,
    "Ġjove": 9271,
    "Ġunintermitted": 26220,
    "win": 6802,
    "Ġhoarsely": 26302,
    "quarrel": 20017,
    "traces": 24334,
    "Ġexhilarating": 26338,
    "Ġtill": 1825,
    "Ġjoosy": 23633,
    "Ġaccurately": 4683,
    "Ġabraham": 18395,
    "Ġseethings": 26503,
    "ayed": 12715,
    "Ġmultiplied": 23688,
    "Ġlives": 4825,
    "Ġsuppression": 23005,
    "âĢľâĢĻ": 10224,
    "wet": 15454,
    "ower": 1047,
    "easily": 17534,
    "Ġtutored": 20130,
    "Ġsulkily": 25881,
    "ds": 4687,
    "Ġcurbstone": 26043,
    "Ġsoftened": 11105,
    "Ġshr": 4223,
    "Ġpenetrate": 12272,
    "smoke": 17223,
    "examine": 25478,
    "main": 8089,
    "Ġswelled": 11089,
    "Ġjury": 5378,
    "apers": 3478,
    "Ġshrieked": 9551,
    "Ġnour": 10832,
    "asses": 7018,
    "Ġtrials": 16789,
    "Ġbudge": 15166,
    "residual": 19263,
    "icions": 21566,
    "september": 14037,
    "Ġreservo": 16831,
    "attempted": 20176,
    "Ġjackets": 19604,
    "apple": 22845,
    "Ġdangerously": 23939,
    "gee": 15980,
    "dissemble": 23493,
    "Ġheard": 1400,
    "Ġpattern": 1392,
    "less": 929,
    "eenth": 12463,
    "couldn": 23719,
    "looked": 6085,
    "plac": 15819,
    "¦": 104,
    "idually": 21773,
    "Ġerudite": 26352,
    "separation": 25227,
    "thinking": 9017,
    "pencil": 18829,
    "health": 13834,
    "sub": 4657,
    "Ġsubjects": 7074,
    "delivered": 24099,
    "Ġashen": 21903,
    "Ġdetermine": 3243,
    "Ġserves": 4666,
    "Ġblown": 12088,
    "aby": 18108,
    "Ġhiding": 9826,
    "igger": 21704,
    "Ġmixture": 9565,
    "Ġsky": 3968,
    "Ġmunro": 25630,
    "confidential": 25876,
    "Ġunquestion": 18248,
    "Ġopt": 792,
    "Ġtapped": 11556,
    "Ġtransports": 24278,
    "Ġloose": 4646,
    "Ġmal": 5221,
    "Ġdeep": 799,
    "Ġfloated": 7288,
    "Ġnay": 5711,
    "Ġrigged": 16717,
    "Ġevinced": 7102,
    "equally": 19900,
    "Ġimmeas": 18331,
    "confusion": 13371,
    "Ġretire": 10384,
    "Ġdiscoverer": 26035,
    "illa": 12796,
    "Ġlaud": 17969,
    "Ġvicinity": 7315,
    "Ġwit": 3840,
    "Ġpres": 9735,
    "erred": 6377,
    "Ġemm": 18004,
    "Ġbounds": 9921,
    "Ġdiscoveries": 13360,
    "Ġmem": 2166,
    "Ġentropy": 2033,
    "Ġcalifornian": 25852,
    "irt": 3076,
    "Ġmaimed": 21318,
    "atra": 17771,
    "iancy": 13011,
    "pair": 21013,
    "Ġhogshe": 20494,
    "Ġsandwich": 19830,
    "wand": 10740,
    "Ġreach": 4044,
    "Ġkilburn": 18351,
    "Ġwritten": 4164,
    "bul": 6951,
    "ii": 4013,
    "Ġtravell": 5575,
    "Ġpots": 9431,
    "Ġnewcomers": 26041,
    "bbles": 13693,
    "desirable": 23812,
    "Ġexquis": 9701,
    "Ġapologized": 25199,
    "Ġful": 4294,
    "Ġunceasing": 20360,
    "Ġgradu": 15835,
    "Ġleakage": 23459,
    "compan": 7301,
    "Ġbra": 3254,
    "Ġdismantled": 20218,
    "Ġgeomet": 3191,
    "Ġbars": 13898,
    "Ġbump": 9662,
    "Ġtouched": 6003,
    "general": 7489,
    "Ġitaly": 10869,
    "Ġrobinson": 17464,
    "vicious": 21120,
    "Ġinfinitely": 8966,
    "frau": 15091,
    "Ġmob": 16020,
    "Ġ111": 24434,
    "Ġschemes": 11133,
    "charming": 15709,
    "Ġdraws": 19438,
    "Ġsoothed": 10032,
    "par": 1887,
    "ization": 489,
    "elly": 17981,
    "Ġdeportment": 22611,
    "Ġadvertise": 25389,
    "Ġwaiter": 16365,
    "cart": 10692,
    "Ġserm": 9636,
    ".âĢĶ": 4245,
    "Ġprem": 3424,
    "Ġstrained": 10221,
    "Ġpun": 4585,
    "transformers": 8719,
    "Ġheel": 9687,
    "Ġamiable": 4266,
    "Ġprecision": 13188,
    "Ġfiss": 21415,
    "Ġwest": 5219,
    "turns": 14907,
    "Ġsuited": 12790,
    "Ġreturns": 11928,
    "rose": 6016,
    "Ġanne": 1531,
    "Ġstagger": 10594,
    "Ġcorpora": 26580,
    "Ġsighing": 18678,
    "clad": 14460,
    "irectly": 6940,
    "Ġrestored": 7068,
    "Ġcure": 21342,
    "Ġperse": 6274,
    "Ġdeprived": 8211,
    "headed": 4315,
    "loss": 22512,
    "gathered": 13733,
    "nights": 16448,
    "acqu": 4842,
    "Ġempty": 5354,
    "Ġbleeds": 24395,
    "preference": 22456,
    "ĠĠĠĠĠĠĠĠĠĠĠĠĠĠĠĠĠĠĠĠĠĠĠĠĠĠĠĠĠĠĠĠĠĠĠĠĠĠĠĠĠĠĠĠĠĠĠĠĠĠĠĠĠ": 20042,
    "Ġidler": 16406,
    "Ġhues": 21492,
    "Ġdisgrace": 7215,
    "iam": 2507,
    "Ġnothing": 1359,
    "Ġpredomin": 16039,
    "Ġcomfort": 3436,
    "dislike": 23495,
    ".âĢĿ": 464,
    "Ġkin": 15907,
    "Ġplanisphere": 26607,
    "introduction": 15125,
    "Ġbeasts": 10620,
    "Ġdexterity": 25295,
    "Ġclouded": 13291,
    "Ġlonging": 14301,
    "Ġharvest": 13416,
    "Ġsounding": 8266,
    "Ġprecipice": 19943,
    "orting": 9738,
    "Ġdated": 10941,
    "Ġaccident": 5380,
    "compl": 6873,
    "Ġparts": 4161,
    "Ġbecome": 3158,
    "Ġadapted": 11043,
    "woes": 21135,
    "inkle": 22616,
    "ife": 1026,
    "Ġepicurean": 20557,
    "Ġscratching": 20371,
    "Ġlim": 2379,
    "elephant": 12353,
    "Ġhorsham": 10408,
    "aur": 15310,
    "conception": 22476,
    "machines": 8386,
    "Ġundertaking": 8578,
    "Ġdilig": 8351,
    "nt": 923,
    "Ġinst": 913,
    "Ġrepose": 6743,
    "Ġunrival": 22051,
    "becoming": 18522,
    "Ġchronicled": 25329,
    "ials": 11707,
    "calmly": 20141,
    "Ġ18": 3405,
    "otherwise": 7672,
    "philosop": 9570,
    "Ġcatastrophic": 3539,
    "hears": 12536,
    "Ġferocity": 16871,
    "commend": 19995,
    "uing": 17693,
    "Ġheaps": 11644,
    "Ġspace": 1501,
    ".;": 20745,
    "hours": 9127,
    "Ġparm": 15880,
    "foreign": 18543,
    "madam": 24419,
    "Ġtoward": 17948,
    "Ġannealing": 1554,
    "squ": 7810,
    "Ġsummoned": 9914,
    "Ġwrung": 14472,
    "electricity": 26385,
    "Ġneared": 14076,
    "public": 17646,
    "Ġplace": 1652,
    "worse": 14691,
    "deception": 22149,
    "Ġpost": 4269,
    "Ġshifted": 14108,
    "Ġchose": 7413,
    "Ġinfatuated": 20536,
    "Ġassist": 3561,
    "Ġdestructive": 23487,
    "Ġpatchwork": 24141,
    "Ġloo": 22114,
    "biscuit": 17501,
    "uture": 1101,
    "urre": 10858,
    "Ġentitled": 8543,
    "Ġabhorrence": 9055,
    "Ġentic": 16149,
    "Ġheld": 3582,
    "|": 96,
    "Ġdependencies": 2312,
    "Ġrecommending": 24331,
    "doom": 23379,
    "Ġinvaders": 23481,
    "Ġplowdon": 26447,
    "Ġshall": 1141,
    "Ġlain": 17963,
    "Ġmeet": 2804,
    "execution": 20474,
    "Ġpeering": 8538,
    "nearest": 16025,
    "Ġabsolutely": 4857,
    "ied": 941,
    "unhappy": 10240,
    "estone": 18363,
    "umns": 14148,
    "Ġfetched": 24566,
    "Ġimply": 18445,
    "standers": 18472,
    "once": 5906,
    "turkish": 24531,
    "Ġpaper": 4280,
    "Ġicicles": 25265,
    "Ġhook": 6454,
    "Ġunacquainted": 12779,
    "Ġemerg": 13425,
    "Ġbled": 17858,
    "Ġhaught": 10255,
    "Ġdistant": 5387,
    "mo": 862,
    "Ġclubbed": 26546,
    "ider": 21769,
    "Ġadvantages": 9814,
    "Ġraises": 11847,
    "Ġparalle": 1409,
    "allic": 12816,
    "Ġadaptively": 4193,
    "Ġplant": 8903,
    "log": 18537,
    "worshipping": 16610,
    "Ġparliament": 18302,
    "ory": 1079,
    "miseries": 16757,
    "Ġfrequencies": 4788,
    "silver": 19692,
    "how": 1644,
    "Ġsketches": 26271,
    "Ġceremonies": 24836,
    "Ġundoing": 22039,
    "oy": 1019,
    "ficial": 17548,
    "tor": 15434,
    "Ġendeared": 26498,
    "Ġstring": 11830,
    "Ġcuts": 14607,
    "Ġvort": 18193,
    "brain": 13689,
    "wic": 21122,
    "holder": 13283,
    "Ġsteps": 2863,
    "Ġsphere": 15885,
    "wed": 5796,
    "occasionally": 13521,
    "nourished": 26398,
    "skelter": 24488,
    "Ġrestoration": 19030,
    "istol": 6261,
    "Ġstripped": 10466,
    "Ġtexel": 25923,
    "isle": 13893,
    "hack": 20897,
    "Ġfanny": 23393,
    "rin": 10124,
    "bold": 17488,
    "Ġgloried": 22992,
    "Ġqualifications": 24675,
    "Ġhab": 4216,
    "ean": 20841,
    "dut": 10090,
    "itation": 1782,
    "Ġrepairing": 25589,
    "Ġnostrils": 10945,
    "Ġchal": 18378,
    "iceland": 21569,
    "Ġparis": 8180,
    "Ġthre": 2061,
    "Ġfab": 15579,
    "Ġjourneying": 25566,
    "brilliancy": 26077,
    "Ġassu": 21901,
    "Ġchron": 19440,
    "Ġblasphe": 17408,
    "kin": 7133,
    "ridge": 9500,
    "Ġske": 4814,
    "Ġsorely": 17257,
    "Ġcomplete": 4379,
    "Ġoverlapping": 26239,
    "iences": 6957,
    "Ġplaint": 10328,
    "=": 33,
    "eag": 20843,
    "pense": 10371,
    "Ġ28": 19295,
    "ieged": 22582,
    "Ġfr": 1694,
    "mblies": 24609,
    "uncommonly": 25550,
    "Ġere": 3685,
    "Ġstro": 4593,
    "opatra": 22481,
    "Ġaccounting": 14572,
    "Ġdirected": 5578,
    "big": 13687,
    "thereby": 14448,
    "Ġbestowing": 16971,
    "Ġexactly": 2768,
    "Ġalleys": 25978,
    "Ġgasp": 7173,
    "noble": 7925,
    "Ġmrs": 1469,
    "Ġlate": 3376,
    "Ġtranquilly": 12292,
    "Ġfamous": 5256,
    "Ġsquatted": 25842,
    "Ġmut": 3579,
    "Ġunderground": 18984,
    "Ġexpl": 487,
    "instr": 12534,
    "ited": 1750,
    "Ġpettiness": 24230,
    "alty": 17940,
    "base": 20778,
    "irection": 2387,
    "thick": 10263,
    "Ġincorpor": 13166,
    "continually": 11304,
    "Ġhusband": 3618,
    "Ġinscrut": 10037,
    "imate": 4219,
    "Ġdistraction": 22510,
    "hailed": 17565,
    "ena": 11571,
    "Ġconfining": 23310,
    "Ġobjects": 5577,
    "Ġbutt": 14126,
    "Ġanonymous": 26178,
    "Ġabandoned": 8353,
    "oud": 1943,
    "Ġimmediate": 6091,
    "Ġabutted": 22279,
    "dirty": 20835,
    "Ġgood": 1001,
    "Ġdies": 11596,
    "Ġabsent": 7016,
    "Ġcheeks": 5960,
    "bour": 2073,
    "Ġundeserving": 18268,
    "Ġprocession": 11780,
    "Ġextracted": 16290,
    "Ġbrightly": 13226,
    "Ġeye": 2281,
    "Ġentertained": 10001,
    "abated": 14021,
    "Ġshelves": 14998,
    "Ġscoundrel": 13672,
    "africa": 26308,
    "Ġaspired": 25984,
    "inaw": 21185,
    "kine": 15377,
    "athered": 6973,
    "Ġbelieved": 4365,
    "cring": 20812,
    "circumstantial": 24442,
    "Ġthundering": 24291,
    "Ġcetacean": 25878,
    "Ġmadame": 13151,
    "Ġdetail": 635,
    "Ġpronounced": 8352,
    "remember": 7262,
    "Ġdiab": 10614,
    "st": 315,
    "Ġobstinacy": 17422,
    "everlasting": 18771,
    "Ġneed": 2606,
    "tt": 13791,
    "2": 22,
    "Ġlater": 6019,
    "insurance": 18888,
    "Ġlog": 1677,
    "americans": 25044,
    "Ġsound": 2243,
    "Ġtackle": 9516,
    "Ġinclude": 1873,
    "Ġanchored": 17441,
    "Ġemployment": 8633,
    "Ġexcessive": 3890,
    ".}": 20746,
    "Ġbec": 1347,
    "Ġadmires": 19687,
    "Ġfoe": 7681,
    "Ġslanting": 23176,
    "Ġwardrobe": 17226,
    "racing": 21634,
    "itching": 21337,
    "little": 3351,
    "fear": 8516,
    "Ġmaterial": 5178,
    "Ġwrinkled": 7264,
    "ribute": 7227,
    "ard": 465,
    "actions": 8910,
    "properly": 24918,
    "Ġ85": 24458,
    "Ġcorroboration": 26052,
    "Ġjurymen": 16847,
    "Ġrepulses": 26070,
    "Ġfoss": 9853,
    "told": 7812,
    "Ġcapabilities": 4374,
    "Ġalmighty": 18106,
    "Ġxvi": 19105,
    "Ġforeseen": 16441,
    "Ġmercy": 9001,
    "Ġsemblance": 20735,
    "binder": 17500,
    "Ġruthless": 15287,
    "Ġnice": 6678,
    "Ġmarvellous": 7538,
    "Ġadmitting": 19184,
    "eminence": 20101,
    "imprudent": 14651,
    "strils": 10460,
    "Ġtem": 805,
    "Ġlife": 1352,
    "Ġbeyond": 2458,
    "Ġimpatiently": 8339,
    "Ġgordon": 26467,
    "date": 17517,
    "egyptians": 25898,
    "Ġspot": 4151,
    "gazing": 12474,
    "ban": 9587,
    "Ġmaintenance": 17462,
    "Ġdisquis": 22531,
    "only": 3307,
    "Ġgarb": 21606,
    "Ġorganisation": 23584,
    "eon": 8734,
    "spermaceti": 12196,
    "ignomin": 23268,
    "Ġfrigate": 13083,
    "ply": 6367,
    "leag": 21368,
    "urried": 21707,
    "matter": 5136,
    "iety": 2819,
    "Ġav": 3578,
    "Ġdeduction": 14900,
    "Ġbarn": 11590,
    "ugal": 19025,
    "Ġlandless": 23381,
    "Ġchain": 1845,
    "Ġswiss": 18882,
    "sig": 2874,
    "visual": 24223,
    "Ġbent": 5149,
    "Ġhoarse": 14526,
    "Ġexecute": 7505,
    "Ġimpetuously": 20374,
    "Ġghostly": 24650,
    "Ġsparing": 22133,
    "Ġroads": 13289,
    "Ġpath": 2116,
    "inhabited": 13622,
    "Ġdegener": 14049,
    "Ġcaliforn": 14432,
    "Ġrealised": 18980,
    "io": 3801,
    "thence": 23402,
    "Ġblood": 3168,
    "estim": 14170,
    "Ġembraced": 10009,
    "Ġheaded": 11056,
    "lipped": 16219,
    "Ġsweet": 3463,
    "mightily": 24102,
    "osely": 9268,
    "Ġmouth": 3180,
    "Ġdiscoursing": 26267,
    "ken": 2801,
    "can": 1230,
    "Ġmaps": 2965,
    "Ġchuck": 8504,
    "eskye": 21453,
    "Ġattack": 5478,
    "Ġkrus": 18349,
    "Ġunseen": 3521,
    "caroline": 24150,
    "arth": 4439,
    "Ġgro": 4393,
    "chanced": 18795,
    "Ġbumping": 25281,
    "threatened": 25463,
    "Ġpetticoat": 15297,
    "ias": 6364,
    "waters": 11335,
    "Ġunprotected": 22071,
    "Ġpie": 13916,
    "sail": 3600,
    "Ġclerval": 4651,
    "Ġtambourine": 9567,
    "Ġpallidness": 25604,
    "Ġharpoone": 2914,
    "Ġannouncing": 16754,
    "searching": 25105,
    "Ġsafie": 6620,
    "tery": 14038,
    "f": 74,
    "anke": 15564,
    "vess": 7354,
    "mbles": 23091,
    "Ġremind": 6060,
    "isters": 11922,
    "Ġarrogance": 26232,
    "Ġsuspend": 14608,
    "Ġpositive": 2296,
    "Ġstair": 8457,
    "Ġchambermaid": 24304,
    "operation": 13501,
    "dil": 11480,
    "majesty": 26281,
    "Ġsadder": 24054,
    "Ġfolds": 12209,
    "Ġassociate": 13451,
    "Ġorph": 9720,
    "gunwale": 20664,
    "Ġglaciers": 20175,
    "ippi": 20246,
    "Ġsore": 10766,
    "Ġstruct": 2783,
    "Ġtranced": 18426,
    "Ġliked": 5265,
    "ü": 189,
    "strongly": 24684,
    "â": 163,
    "Ġupright": 8496,
    "Ġcreator": 7253,
    "Ġlists": 11168,
    "igen": 4830,
    "painful": 13502,
    "aud": 8524,
    "Ġunharmed": 15141,
    "ipt": 12481,
    "Ġvig": 5460,
    "cheerful": 13577,
    "Ġunlimited": 26223,
    "Ġpenetrating": 17011,
    "lotts": 23828,
    "Ġpratt": 23221,
    "Ġcandour": 14673,
    "Ġremo": 3785,
    "Ġwhatever": 3471,
    "ctic": 8444,
    "Ġwell": 902,
    "Ġremoval": 12120,
    "Ġperchance": 15994,
    "ascended": 24704,
    "bons": 17487,
    "rees": 5436,
    "mediate": 16514,
    "Ġbank": 4876,
    "Ġangels": 11180,
    "Ġhumaneval": 25582,
    "correspond": 13399,
    "fears": 18531,
    "Ġrelevance": 5184,
    "Ġbreaks": 13184,
    "allows": 15910,
    "Ġlux": 8818,
    "incing": 15487,
    "po": 1138,
    "Ġroll": 5381,
    "bres": 11473,
    "mile": 17597,
    "Ġsolve": 4194,
    "utely": 8133,
    "momentum": 4990,
    "Ġabstra": 22275,
    "accursed": 20542,
    "susceptible": 24661,
    "record": 16921,
    "Ġfurnace": 19442,
    "Ġsubaltern": 22793,
    "Ġstrolled": 16770,
    "Ġinglorious": 24422,
    "asher": 15649,
    "Ġconstitutional": 25128,
    "Ġalleghan": 25795,
    "Ġgenerations": 10966,
    "sunlight": 24851,
    "mystic": 25317,
    "Ġsteak": 9833,
    "ppery": 10894,
    "Ġfaintest": 24568,
    "Ġconfident": 11140,
    "eties": 10839,
    "Ġmeaning": 1415,
    "Ġdark": 2114,
    "Ġgasps": 24865,
    "Ġsuccessfully": 19431,
    "Ġstirred": 12220,
    "nihil": 9858,
    "Ġjacket": 6490,
    "Ġpleasantness": 24138,
    "Ġlivel": 11357,
    "til": 17671,
    "Ġtufted": 17014,
    "Ġreiter": 21669,
    "omeness": 18024,
    "Ġfluctu": 5268,
    "Ġassurances": 10003,
    "Ġbehaviour": 4381,
    "Ġhearses": 20062,
    "Ġoutrageous": 20612,
    "ologically": 22873,
    "ren": 549,
    "Ġobliged": 4283,
    "propriety": 14368,
    "olerable": 7183,
    "Ġuncovered": 23433,
    "Ġlays": 15988,
    "Ġfearless": 9878,
    "Ġhair": 3313,
    "Ġthump": 11614,
    "ouses": 5163,
    "Ġdust": 5911,
    "Ġwhittling": 20701,
    "Ġsculpt": 15949,
    "Ġarrest": 7409,
    "ĠĠĠĠĠĠĠĠĠĠĠĠĠĠĠĠĠĠĠĠĠĠĠĠĠĠĠ": 14887,
    "Ġrail": 7225,
    "Ġilliter": 23469,
    "Ġabhor": 5467,
    "embra": 14075,
    "Ġpiled": 8427,
    "uzza": 11272,
    "watson": 12246,
    "Ġunp": 12775,
    "Ġclimates": 25052,
    "Ġdisplayed": 10611,
    "itement": 7836,
    "Ġtwinkled": 14313,
    "Ġsidelong": 11440,
    "sigma": 3003,
    "Ġvenerable": 9097,
    "feeders": 25236,
    "falling": 24359,
    "Ġintended": 5547,
    "rets": 12544,
    "inery": 17733,
    "aded": 3546,
    "travellers": 24337,
    "Ġdefy": 11900,
    "Ġhartshorn": 26181,
    "Ġdeeds": 15762,
    "ificant": 22212,
    "dared": 13704,
    "Ġforbe": 8459,
    "Ġtucked": 12394,
    "Ġ117": 19699,
    "Ġsnuffed": 15074,
    "ontory": 10461,
    "Ġallows": 3231,
    "Ġprosecut": 9702,
    "Ġcaresses": 26059,
    "Ġimbedded": 18333,
    "Ġuninter": 18246,
    "Ġbeloved": 5571,
    "peril": 18337,
    "ollion": 19717,
    "Ġdemi": 25549,
    "Ġconsented": 11297,
    "Ġwhaleman": 4652,
    "Ġwhitney": 11375,
    "forest": 22522,
    "ities": 1827,
    "Ġtied": 7357,
    "Ġoperation": 12000,
    "Ġped": 7846,
    "icious": 7380,
    "tar": 8099,
    "Ġcubs": 20089,
    "Ġheightens": 24155,
    "ect": 381,
    "Ġclustered": 25234,
    "longing": 23727,
    "osa": 22263,
    "meetings": 20380,
    "Ġdaw": 21432,
    "Ġmeekly": 26490,
    "Ġsong": 5905,
    "writhed": 26080,
    "Ġsurvived": 14935,
    "Ġyer": 15737,
    "Ġflights": 24751,
    "Ġfrigates": 25706,
    "Ġskeletons": 16791,
    "Ġconjured": 25101,
    "Ġbashee": 19850,
    "cloud": 11108,
    "Ġdivinely": 25722,
    "Ġalternative": 19989,
    "pool": 16210,
    "battle": 12444,
    "Ġencodings": 4775,
    "Ġbelieve": 2148,
    "Ġrenow": 18029,
    "Ġstrategy": 2367,
    "usations": 15950,
    "Ġchimer": 24603,
    "Ġsway": 7571,
    "skin": 10571,
    "Ġdardanelles": 26443,
    "chie": 21693,
    "sooner": 14779,
    "Ġchips": 14182,
    "Ġnails": 12651,
    "Ġmadam": 5663,
    "mosphere": 10046,
    "Ġstooping": 13064,
    "enes": 5218,
    "irted": 14073,
    "Ġach": 2618,
    "undoubtedly": 13313,
    "orable": 8121,
    "aling": 1035,
    "abled": 12797,
    "Ġsnatch": 14639,
    "umbered": 22121,
    "quered": 11063,
    "nigh": 13764,
    "Ġunusual": 6555,
    "henomena": 20274,
    "Ġstolen": 14008,
    "Ġbewitched": 25975,
    "Ġincreased": 2211,
    "lyph": 10854,
    "boxes": 16888,
    "gener": 3125,
    "Ġdismast": 12891,
    "Ġsorrow": 4626,
    "please": 8178,
    "Ġpaste": 23420,
    "Ġlurk": 13384,
    "Ġfervour": 19740,
    "libr": 22925,
    "Ġclut": 7642,
    "Ġardour": 8044,
    "Ġunreasoning": 15848,
    "Ġinterrupted": 6345,
    "Ġstructural": 2798,
    "Ġfolios": 23024,
    "Ġdishonor": 25601,
    "Ġassembl": 20063,
    "Ġbuildings": 24718,
    "showed": 16032,
    "Ġmurdered": 6465,
    "Ġphr": 2680,
    "Ġpublisher": 24068,
    "Ġcathed": 14548,
    "Ġasse": 8161,
    "Ġsending": 8780,
    "Ġtool": 21514,
    "Ġundulated": 19518,
    "Ġgospel": 18002,
    "ourable": 4966,
    "Ġhyster": 16873,
    "Ġsympathy": 6348,
    "Ġacceler": 1612,
    "Ġgould": 17991,
    "Ġtumb": 21171,
    "Ø": 153,
    "Ġrock": 5311,
    "Ġwherein": 14294,
    "orders": 12877,
    "Ġgratefully": 20447,
    "ather": 739,
    "Ġsummoning": 23876,
    "Ġblush": 14403,
    "inkers": 22617,
    "Ġpresently": 5116,
    "written": 7996,
    "unusually": 15783,
    "Ġrelative": 11885,
    "Ġregularization": 1201,
    "Ġcr": 2152,
    "exe": 11792,
    "Ġperdition": 15995,
    "Ġdeaf": 12724,
    "Ġplush": 18609,
    "Ġbeheld": 4489,
    "Ġsing": 3073,
    "Ġquarter": 3975,
    "prom": 6510,
    "ctors": 21593,
    "air": 1003,
    "penny": 22950,
    "Ġtelescopes": 25690,
    "Ġloop": 14147,
    "parameter": 3084,
    "Ġmistaking": 23720,
    "alogue": 25163,
    "Ġpartaking": 22700,
    "Ġpistols": 17330,
    "clearly": 25196,
    "ÿ": 192,
    "Ġtorn": 6002,
    "Ġindelible": 25694,
    "drink": 10598,
    "Ġanonym": 17898,
    "Ġrendering": 16658,
    "earth": 6503,
    "Ġproceedings": 9910,
    "built": 16825,
    "bearded": 18525,
    "Ġintending": 11708,
    "Ġdiary": 24737,
    "Ġimport": 1058,
    "Ġmurdering": 14812,
    "Ġdocuments": 10026,
    "Ġbowditch": 19324,
    "Ġkeeled": 18805,
    "Ġcoach": 6868,
    "Ġclatter": 22348,
    "Ġbows": 4079,
    "Ġoscillations": 2901,
    "stove": 21649,
    "Ġdelivery": 18975,
    "Ġlow": 1647,
    "Ġengra": 7876,
    "Ġhorribly": 16345,
    "Ġcommerce": 11017,
    "bs": 3775,
    "Ġpredict": 677,
    "Ġbed": 2153,
    "beside": 19878,
    "Ġcocked": 12910,
    "edd": 1191,
    "ears": 20846,
    "Ġdisplay": 6429,
    "ortion": 11760,
    "Ġcoronet": 6346,
    "rous": 3751,
    "Ġgratification": 24097,
    "isance": 17848,
    "ades": 5631,
    "Ġcursed": 6728,
    "Ġaxe": 15064,
    "ti": 8391,
    "Ġprophesy": 26061,
    "Ġhat": 2772,
    "Ġremoved": 5275,
    "mpus": 13758,
    "brevi": 24074,
    "pursue": 24977,
    "precisely": 6917,
    "Ġres": 696,
    "Ġkindness": 4093,
    "distant": 13336,
    "Ġsanguinary": 25929,
    "Ġindec": 13929,
    "ig": 323,
    "pr": 3175,
    "Ġshivered": 14109,
    "plun": 15818,
    "Ġans": 1645,
    "Ġlosing": 10918,
    "Ġvalue": 2086,
    "indebted": 26158,
    "Ġslappin": 18944,
    "Ġnile": 21524,
    "Ġnibbling": 17386,
    "Ġoverflowed": 20264,
    "Ġterrier": 23401,
    "Ġamazing": 9980,
    "ittance": 12848,
    "million": 25751,
    "perils": 22182,
    "ange": 1020,
    "Ġcrests": 25685,
    "Ġcredited": 25157,
    "Ġapproved": 16036,
    "intention": 10370,
    "Ġteacup": 16217,
    "knowledge": 7478,
    "Ġcontinues": 18806,
    "Ġthanked": 9461,
    "Ġsmaller": 1882,
    "Ġalpine": 18107,
    "aky": 18411,
    "Ġacquit": 18898,
    "Ġperfume": 25665,
    "Ġreconcile": 25292,
    "ris": 9140,
    "icacy": 15661,
    "comple": 7441,
    "Ġexisted": 15755,
    "Ġsod": 11564,
    "Ġburke": 19252,
    "Ġnewcastle": 16225,
    "Ġbear": 3658,
    "Ġold": 1057,
    "Ġcleared": 6077,
    "Ġdescending": 8906,
    "hearing": 8405,
    "Ġpretence": 13208,
    "Ġtransom": 22442,
    "longbourn": 9898,
    "rings": 10724,
    "eted": 7592,
    "ë": 172,
    "Ġquestioned": 14619,
    "Ġnation": 12650,
    "hetically": 21210,
    "Ġunseason": 22056,
    "Ġsignification": 19204,
    "ago": 14066,
    "Ġexaggerated": 25650,
    "Ġsteersman": 13043,
    "Ġagreeable": 4549,
    "Ġpiny": 21473,
    "idate": 21771,
    "Ġremorseless": 13452,
    "Ġchall": 10946,
    "Ġinstructing": 3122,
    "suspect": 9543,
    "Ġproved": 4883,
    "Ġdiction": 8799,
    "oric": 21398,
    "Ġliber": 5168,
    "endeav": 7151,
    "ú": 187,
    "Ġdevice": 1929,
    "decan": 22145,
    "Ġey": 8136,
    "Ġsingled": 23773,
    "kish": 20935,
    "Ġparlour": 12323,
    "Ġpurposely": 10446,
    "reinforcement": 7827,
    "Ġgrow": 2860,
    "Ġbarque": 23792,
    "Ġdigesting": 19811,
    "weaknesses": 26030,
    "Ġbedfellows": 23446,
    "Ġanguish": 5583,
    "Ġsullen": 9160,
    "Ġext": 875,
    "sleepy": 24727,
    "Ġtreading": 16505,
    "Ġstarted": 4146,
    "Ġperforming": 7929,
    "called": 6294,
    "Ġhistor": 3389,
    "Ġafore": 10760,
    "Ġcommunication": 1869,
    "showing": 22467,
    "amiable": 14054,
    "Ġcuriosities": 26290,
    "Ġsinister": 8573,
    "Ġbible": 9323,
    "Ġforth": 3459,
    "onsense": 6432,
    "Ġcommendation": 13612,
    "gigantic": 15361,
    "commanders": 16989,
    "_âĢĶâĢĻâĢĿ": 25741,
    "abouts": 9455,
    "Ġbore": 5079,
    "ospit": 22266,
    "Ġsociety": 3976,
    "Ġcrib": 21350,
    "objection": 19916,
    "Ġaccomplished": 7106,
    "isa": 17846,
    "jaws": 20933,
    "Ġmicha": 17812,
    "perquis": 22185,
    "breadth": 20278,
    "Ġcrevice": 22728,
    "Ġearthly": 7991,
    "contrasted": 17307,
    "Ġirre": 7468,
    "Ġrationally": 18213,
    "Ġhypotheses": 4383,
    "fortunes": 6334,
    "Ġmeans": 699,
    "Ġobserved": 3538,
    "measureless": 20237,
    "define": 1527,
    "pleasures": 24049,
    "ivided": 22082,
    "happ": 3104,
    "Ġusages": 15921,
    "port": 10721,
    "Ġservice": 6472,
    "Ġimpotently": 22399,
    "seemingly": 25363,
    "ã": 164,
    "intimate": 22939,
    "Ġflog": 23624,
    "Ġpoisoned": 24886,
    "nothing": 3154,
    "apsed": 6297,
    "Ġantichron": 24182,
    "cept": 558,
    "Ġjunks": 25115,
    "els": 1765,
    "reduced": 15808,
    "gorge": 22336,
    "commotion": 24913,
    "aways": 15312,
    "'s": 2470,
    "Ġsuccess": 3608,
    "Ġdraughts": 20223,
    "Ġflinging": 13587,
    "Ġplentiful": 12914,
    "Ġunwearied": 20604,
    "including": 23591,
    "Ġen": 392,
    "Ġenvelop": 5586,
    "Ġperadventure": 22403,
    "Ġcarcase": 14445,
    "Ġintroduction": 8973,
    "Ġclapping": 14203,
    "ement": 1503,
    "Ġjing": 15952,
    "ucy": 15446,
    "rising": 7557,
    "_).âĢĶ": 8686,
    "Ġheartfelt": 18967,
    "Ġpreviously": 3918,
    "tuning": 1582,
    "Ġclifford": 22357,
    "bler": 11474,
    "Ġintegrated": 13531,
    "grammar": 6436,
    "Ġreminiscences": 26270,
    "breeze": 20564,
    "Ġstayed": 7999,
    "fourths": 25510,
    "Ġloggerhead": 13659,
    "Ġsources": 10150,
    "existence": 16017,
    "Ġdistinguishing": 16497,
    "Ġaggreg": 12886,
    "Ġrates": 1404,
    "Ġskeleton": 5514,
    "ublic": 11229,
    "Ġknock": 9976,
    "Ġferry": 24513,
    "oof": 15407,
    "Ġworn": 6446,
    "Ġwords": 1324,
    "eagerly": 17317,
    "Ġclaims": 13374,
    "regards": 23467,
    "Ġwarriors": 19725,
    "Ġtist": 21164,
    "iguous": 18046,
    "com": 998,
    "Ġrising": 4352,
    "Ġperished": 11787,
    "ints": 3415,
    "Ġencountering": 11271,
    "ifle": 10893,
    "Ġgang": 9210,
    "luckily": 19754,
    "Ġamazement": 7766,
    "Ġshakes": 10906,
    "Ġladyship": 5045,
    "Ġfrench": 4937,
    "Ġeyes": 1333,
    "}": 97,
    "Ġsymph": 22207,
    "dening": 22783,
    "Ġimputed": 12811,
    "Ġmess": 7832,
    "Ġinfluence": 5515,
    "icuous": 10837,
    "Ġlic": 8438,
    "lesome": 12967,
    "Ġbeating": 8146,
    "Ġlady": 1587,
    "uction": 15445,
    "Ġengineering": 3025,
    "probably": 10023,
    "Ġfiend": 4408,
    "ccess": 3183,
    "stars": 18018,
    "alas": 8808,
    "Ġeffusion": 22490,
    "calcul": 12989,
    "Ġcoding": 8117,
    "prove": 11149,
    "Ġforesee": 19125,
    "pret": 7212,
    "Ġproduced": 2451,
    "anesc": 21362,
    "entric": 11622,
    "lemency": 21376,
    "atherine": 2594,
    "attacked": 23124,
    "eringly": 23008,
    "Ġcolonnades": 26276,
    "itzerland": 9998,
    "clair": 18934,
    "Ġafternoon": 6055,
    "otics": 10226,
    "Ġbeckoned": 25793,
    "iza": 6257,
    "Ġflowery": 16235,
    "ileries": 18060,
    "Ġtemperate": 16165,
    "service": 15037,
    "Ġbriony": 9332,
    "Ġpoint": 2058,
    "Ġcarn": 17822,
    "Ġtinker": 15133,
    "Ġanointing": 25540,
    "Ġjogged": 26237,
    "Ġassid": 18946,
    "warp": 17706,
    "ke": 429,
    "rut": 8093,
    "spout": 7926,
    "Ġrepay": 19082,
    "somebody": 14565,
    "Ġfigured": 16644,
    "mell": 20965,
    "Ġearlier": 9090,
    "influ": 9544,
    "Ġuneasily": 24231,
    "Ġdevoting": 22722,
    "chemical": 23810,
    "Ġexasperated": 11414,
    "Ġadviser": 25313,
    "Ġrevolution": 3304,
    "Ġcin": 13876,
    "vap": 13804,
    "osp": 6854,
    "Ġ\"": 6121,
    "iquette": 26132,
    "sixteen": 24853,
    "Ġtransformer": 2634,
    "adventures": 20258,
    "Ġpetty": 19597,
    "theast": 21752,
    "Ġcounty": 9033,
    "matical": 13130,
    "Ġmodels": 756,
    "osis": 18389,
    "Ġshoving": 23490,
    "Ġdisembow": 22541,
    "opes": 10313,
    "astonishment": 10033,
    "Ġjavelins": 26105,
    "Ġmisanthrop": 22765,
    "Ġsprained": 15886,
    "worked": 18994,
    "Ġcruellest": 19660,
    "Ġarisen": 11746,
    "abominable": 20596,
    "Ġlucas": 3831,
    "speptic": 23948,
    "endous": 6850,
    "Ġhowling": 8512,
    "Ġconversation": 3330,
    "followed": 8340,
    "oko": 18441,
    "az": 2183,
    "Ġconvict": 23746,
    "Ġheadsmen": 14733,
    "Ġdisease": 14258,
    "parted": 21017,
    "Ġunmo": 12776,
    "bled": 5469,
    "imprisonment": 23763,
    "approaching": 15012,
    "speed": 19411,
    "coiled": 16487,
    "Ġmerciless": 25247,
    "dipped": 20838,
    "withdrawn": 23033,
    "billiard": 25335,
    "Ġextent": 7656,
    "Ġnapkins": 25165,
    "ĠĠĠĠĠĠĠĠĠĠĠĠĠĠĠĠĠĠĠĠĠĠĠĠĠĠĠĠĠĠ": 24441,
    "Ġ37": 24078,
    "Ġsails": 5257,
    "treated": 21096,
    "Ġinequalities": 26453,
    "Ġcapacity": 10442,
    "hammock": 16356,
    "Ġapprehensiveness": 16877,
    "Ġbr": 1070,
    "Ġlinn": 13954,
    "Ġcompletely": 4859,
    "Ġadaptive": 1355,
    "Ġlulled": 17970,
    "plexy": 18578,
    "Ġmajor": 13292,
    "ches": 2150,
    "orified": 21404,
    "Ġmyth": 18220,
    "Ġme": 350,
    "Ġchink": 15935,
    "improve": 15715,
    "Ġsquad": 22840,
    "usive": 8193,
    "enough": 6810,
    "Ġphil": 3384,
    "Ġpartly": 6715,
    ",_": 11464,
    "Ġenric": 21938,
    "Ġpatients": 24809,
    "Ġseated": 4538,
    "trop": 15438,
    "Ġquench": 22423,
    "Ġdocumentation": 20556,
    "feared": 11806,
    "Ġtypes": 8939,
    "Ġselves": 21224,
    "albatross": 15633,
    "Ġexclusiveness": 23930,
    "search": 8467,
    "output": 4398,
    "anely": 17837,
    "mend": 20967,
    "Ġ122": 24465,
    "shone": 22459,
    "Ġinaudible": 21502,
    "sequently": 14583,
    "placed": 7880,
    "Ġringbolts": 24197,
    "deser": 10481,
    "Ġslime": 23165,
    "old": 801,
    "ders": 8076,
    "Ġsuspicions": 9482,
    "Ġrum": 5926,
    "Ġpalaces": 24092,
    "Ġfriesland": 26442,
    "Ġassailed": 23181,
    "Ġted": 13813,
    "strangers": 20338,
    "innocent": 20288,
    "Ġfast": 1713,
    "Ġdampening": 2897,
    "Ġwriters": 13543,
    "orous": 5294,
    "bye": 5952,
    "Ġwearied": 15796,
    "Ġcheered": 16374,
    "Ġcraven": 16471,
    "Ġrenegades": 26476,
    "Ġcrossing": 7254,
    "Ġmain": 809,
    "loun": 17588,
    "guest": 19484,
    "Ġref": 904,
    "stretched": 10208,
    "uger": 21105,
    "unts": 12734,
    "hurst": 19880,
    "Ġmilk": 6486,
    "Ġburned": 8635,
    "decease": 25558,
    "É": 138,
    "grie": 12473,
    "Ġenergies": 25460,
    "ĠĠĠĠĠĠĠĠĠĠĠĠĠĠĠĠĠĠĠĠĠĠĠĠĠĠĠĠĠ": 19701,
    "cceed": 4139,
    "Ġceaseless": 13489,
    "singular": 12191,
    "Ġfathers": 16299,
    "grandfather": 25011,
    "nur": 11508,
    "Ġimpudence": 26242,
    "Ġthickness": 13278,
    "Ġsling": 21222,
    "Ġprofoundly": 16859,
    "ĠĠĠĠĠĠĠĠĠĠĠĠĠĠĠĠĠĠĠĠĠĠĠĠĠĠĠĠĠĠĠĠ": 2738,
    "Ġrustic": 14966,
    "Ġencirc": 18731,
    "ories": 4752,
    "Ġcreation": 6440,
    "seam": 10876,
    "bouton": 17502,
    "fast": 3070,
    "Ġvolley": 24145,
    "Ġsoil": 9258,
    "chamber": 13627,
    "erative": 21274,
    "Ġsex": 8846,
    "Ġmean": 741,
    "inforcement": 3288,
    "Ġsolemn": 4096,
    "Ġsmiting": 12904,
    "Ġloathed": 15878,
    "held": 3839,
    "itations": 17818,
    "Ġadditionally": 1173,
    "Ġfinite": 2323,
    "Ġnois": 4264,
    "limping": 26393,
    "aint": 2540,
    "Ġunbounded": 18259,
    "ploy": 2046,
    "Ġtren": 17721,
    "Ġacquies": 11100,
    "Ġbehold": 5048,
    "Ġkingdom": 12020,
    "tired": 21074,
    "Ġunfor": 15842,
    "Ġcroquet": 9965,
    "Ġprevention": 16093,
    "Ġstupid": 7604,
    "Ġconquest": 15751,
    "Ġuseful": 3555,
    "Ġwealth": 7621,
    "Ġ500": 24322,
    "onts": 15521,
    "Ġsighs": 22714,
    "Ġtale": 5142,
    "Ġstile": 21736,
    "Ġoverjoyed": 17459,
    "cream": 15332,
    "Ġworkman": 16260,
    "prehensible": 12362,
    "Ġingolstadt": 8334,
    "trivial": 21094,
    "Ġrobust": 1315,
    "itar": 15550,
    "Ġcoquet": 22586,
    "Ġexertions": 13411,
    "slight": 10729,
    "ounds": 4154,
    "Ġwhoever": 10975,
    "relations": 14734,
    "artificial": 968,
    "Ġannotations": 25954,
    "Ġhide": 4587,
    "Ġskrimshander": 22801,
    "Ġdegrad": 2588,
    "jah": 17581,
    "Ġnecessitates": 23932,
    "Ġcataract": 23429,
    "eck": 20845,
    "Ġadmeasure": 18293,
    "saying": 8645,
    "Ġunlocking": 20707,
    "Ġindustry": 18838,
    "upid": 6584,
    "Ġexhib": 6351,
    "elves": 2160,
    "ously": 2490,
    "Ġwarm": 2423,
    "Ġheidelburgh": 11645,
    "Ġcares": 9369,
    "Ġclout": 22347,
    "neurons": 3134,
    "umn": 5836,
    "ours": 3425,
    "Ġscrutiny": 26015,
    "Ġvisibly": 22889,
    "Ġruled": 22788,
    "nue": 15398,
    "Ġvehemence": 26566,
    "Ġherbage": 25996,
    "chairs": 21696,
    "Ġwe": 386,
    "Ġtacit": 21176,
    "Ġyoked": 15738,
    "inc": 2518,
    "Ġanalogy": 25639,
    "mant": 20966,
    "Ġtrembling": 7481,
    "Ġoxford": 11373,
    "Ġeligible": 10673,
    "Ġomnipotent": 13549,
    "droppers": 24757,
    "Ġpraised": 19555,
    "medi": 2627,
    "inates": 21182,
    "Ġwaggish": 25435,
    "Ġarrival": 4730,
    "Ġvers": 7563,
    "bless": 22316,
    "Ġdisquiet": 18552,
    "Ġusing": 721,
    "Ġpreliminaries": 25177,
    "aspect": 10196,
    "fe": 673,
    "Ġturbul": 23613,
    "Ġboom": 9313,
    "Ġcreates": 2010,
    "Ġlass": 15651,
    "Ġcocoa": 25483,
    "Ġreusability": 13560,
    "Ġhind": 9191,
    "Ġvote": 21951,
    "Ġmystery": 5509,
    "Ġdiscomposed": 25580,
    "400": 20756,
    "Ġ13": 6720,
    "mblance": 7323,
    "interesting": 12204,
    "retrie": 18925,
    "birth": 15323,
    "Ġthw": 21518,
    "ethe": 9679,
    "Ġobtruded": 20723,
    "Ġwilful": 10537,
    "spee": 9320,
    "Ġgrap": 11710,
    "Ġhanged": 17926,
    "amongst": 24672,
    "eddling": 11899,
    "ç": 168,
    "Ġreappearance": 21670,
    "Ġmonica": 22990,
    "Ġcott": 3708,
    "Ġguards": 16270,
    "Ġjeroboam": 10603,
    "Ġpay": 3961,
    "fulfil": 16044,
    "Ġchinese": 14184,
    "Ġpaint": 7709,
    "Ġmoles": 22438,
    "Ġsp": 457,
    "ineff": 21984,
    "Ġembrace": 16990,
    "abb": 15742,
    "Ġdesert": 6729,
    "Ġimpulsively": 24880,
    "Ġrejoinder": 24598,
    "Ġsays": 3558,
    "hands": 5969,
    "attended": 8955,
    "Ġobsc": 7041,
    "Ġdinner": 4241,
    "Ġrasc": 21978,
    "ultaneous": 18585,
    "powerful": 24847,
    "Ġflukes": 5267,
    "loud": 11503,
    "Ġprovinc": 16742,
    "Ġanteced": 26177,
    "Ġowe": 8116,
    "Ġcinque": 20488,
    "Ġburst": 4377,
    "around": 12611,
    "Ġaimed": 20252,
    "noticed": 14344,
    "Ġfriendly": 9823,
    "fortunate": 4791,
    "Ġcontinued": 2926,
    "calm": 8937,
    "Ġstamp": 7866,
    "Ġhumbly": 16199,
    "ia": 1258,
    "Ġrecumbent": 22741,
    "Ġfat": 3458,
    "J": 46,
    "creat": 20801,
    "res": 2760,
    "lic": 17587,
    "Ġcalamity": 17350,
    "Ġburtons": 19254,
    "Ġathirst": 20600,
    "Ġmemoirs": 26205,
    "tormented": 13647,
    "Ġtells": 9365,
    "Ġspouts": 7731,
    "Ġsurvive": 9070,
    "Ġtendency": 11331,
    "Ġcirculating": 23375,
    "Ġeffect": 970,
    "Ġdames": 23474,
    "Ġharriet": 24571,
    "rium": 3132,
    "utted": 15664,
    "Ġremains": 4909,
    "Ġgenerative": 5644,
    "Ġenormous": 5608,
    "Ġfashionable": 19546,
    "Ġramsgate": 18648,
    "Ġbolivia": 24667,
    "Ġointment": 21328,
    "Ġgloom": 4199,
    "Ġindoors": 18837,
    "fowl": 17549,
    "Ġcheers": 16371,
    "Ġjustify": 11074,
    "Ġcrust": 21353,
    "Ġxxxvi": 24973,
    "acing": 2716,
    "Ġsagacious": 14972,
    "Ġalb": 14017,
    "riv": 3109,
    "Ġspaulding": 11734,
    "allowance": 16824,
    "Ġdiameter": 19868,
    "Ġlifted": 6986,
    "interred": 23738,
    "Ġremained": 3141,
    "Ġadult": 18289,
    "Ġgrapple": 25811,
    "Ġbrutality": 26277,
    "Ġconsternation": 9862,
    "Ġbus": 1903,
    "Ġseats": 14090,
    "Ġoverbearing": 12847,
    "Ġhollowly": 24524,
    "Ġwarned": 16880,
    "invariably": 26416,
    "Ġwillingness": 24910,
    "Ġadmirals": 20387,
    "apparatus": 26563,
    "acetti": 13397,
    "Ġlxi": 21564,
    "Ġspeaker": 19149,
    "Ġsubord": 22790,
    "Ġstretch": 6994,
    "Ġers": 15462,
    "Ġcompassion": 6488,
    "cannot": 5745,
    "Ġlabelled": 23333,
    "Ġwinter": 5220,
    "Ġfossil": 12389,
    "Ġlowers": 23243,
    "dwell": 15343,
    "Ġkentuckian": 26343,
    "Ġwhales": 1828,
    "Ġturban": 23614,
    "Ġnieces": 8435,
    "clinging": 20823,
    "Ġauger": 21205,
    "Ġhalts": 3159,
    "Ġforged": 12707,
    "Ġmummy": 25768,
    "Ġinvited": 6903,
    "obtained": 23098,
    "Ġlying": 4826,
    "circled": 24188,
    "Ġbol": 6243,
    "Ġview": 2762,
    "Ġcapricious": 20540,
    "Ġindistinct": 17409,
    "enchanted": 26424,
    "address": 14882,
    "Ġsavi": 18325,
    "resses": 16156,
    "Ġbestir": 13111,
    "Ġinconceivable": 17939,
    "eler": 1572,
    "Ġheaths": 25972,
    "Ġvect": 1224,
    "Ġtalents": 15045,
    "Ġalph": 9698,
    "Ġsuccession": 12104,
    "stubb": 6020,
    "Ġsires": 21228,
    "im": 327,
    "Ġwaited": 4907,
    "Ġclair": 6270,
    "Ġtalent": 12299,
    "Ġintolerably": 15832,
    "estic": 4954,
    "tap": 17676,
    "precaution": 23825,
    "Ġconceivable": 16613,
    "Ġvivacity": 14942,
    "acled": 16066,
    "Ġthrone": 12216,
    "Ġtemptations": 24503,
    "Ġconsiderations": 9413,
    "red": 397,
    "Ġreproof": 24890,
    "Ġsorting": 3233,
    "Ġticking": 25035,
    "Ġcruc": 16535,
    "Ġlessen": 14532,
    "tasted": 17687,
    "poled": 22910,
    "Ġridic": 7508,
    "bulkington": 19926,
    "determ": 7107,
    "tried": 13795,
    "Ġgales": 12668,
    "willingly": 11984,
    "vii": 13149,
    "Ġslight": 3119,
    "eman": 5636,
    "Ġgull": 15673,
    "Ġcore": 13879,
    "Ġnoisy": 13320,
    "belief": 13282,
    "Ġlantern": 7118,
    "Ġresounds": 22546,
    "Ġinsight": 16530,
    "Ġwelded": 9574,
    "staff": 21653,
    "hig": 12477,
    "Ġwanted": 4967,
    "Ġblank": 5953,
    "Ġeleventh": 23371,
    "Ġrecur": 1624,
    "precious": 12075,
    "Ġestablished": 9072,
    "Ġusually": 6265,
    "Ġarchipelagoes": 14348,
    "affection": 7487,
    "Ġadjust": 2157,
    "Ġsacred": 10932,
    "Ġagatha": 6866,
    "Ġdisagreeable": 9301,
    "bolt": 25138,
    "common": 4124,
    "Ġbay": 9171,
    "Ġxiii": 25591,
    "flood": 19808,
    "Ġexempl": 21834,
    "Ġsite": 17753,
    "Ġcomposition": 1687,
    "unmistakable": 21899,
    "Ġchristmas": 6924,
    "Ġmanual": 14198,
    "_),": 7127,
    "Ġweak": 5098,
    "Ġsupplication": 25492,
    "Ġseparated": 9467,
    "Ġrepast": 16414,
    "//": 11465,
    "Ġslip": 8957,
    "bb": 2800,
    "Ġstrangeness": 16704,
    "instinct": 19545,
    "Ġseeks": 14304,
    "whew": 22867,
    "Ġmarry": 4414,
    "Ġdispelling": 23882,
    "oriented": 2951,
    "Ġclanging": 18422,
    "circumstance": 7765,
    "Ġcelest": 9903,
    "Ġvex": 5951,
    "Ġplate": 8902,
    "Ġcem": 17824,
    "nment": 20991,
    "Ġanimal": 2497,
    "Ġmuttered": 7088,
    "Ġmake": 1285,
    "owder": 8450,
    "chet": 13218,
    "Ġglory": 6067,
    "Ġlimped": 19182,
    "sing": 5138,
    "Ġencouragement": 13044,
    "Ġeven": 1029,
    "interview": 19299,
    "hotel": 20052,
    "Ġsubur": 12958,
    "Ġmira": 8409,
    "Ġscowl": 22289,
    "Ġabhorred": 9511,
    "Ġfarm": 7841,
    "appetite": 22850,
    "mathemat": 19138,
    "erc": 5907,
    "bered": 4501,
    "unte": 21877,
    "Ġhumility": 12986,
    "Ġetern": 7087,
    "somewhere": 12014,
    "ugging": 23294,
    "Ġunreasonably": 17452,
    "Ġbatch": 890,
    "Ġinnocent": 4920,
    "Ġtranscend": 25667,
    "becomes": 22500,
    "Ġerud": 20057,
    "Ġdisplays": 19858,
    "Ġoarsmen": 7739,
    "Ġdeeper": 2085,
    "Ġredress": 23753,
    "duing": 22415,
    "Ġsaf": 3999,
    "variety": 23189,
    "because": 4922,
    "Ġgetting": 4062,
    "requirements": 24857,
    "Ġbeg": 1283,
    "Ġsubdivisions": 26037,
    "ters": 1573,
    "Ġobscure": 9557,
    "Ġmeantime": 6208,
    "pol": 5895,
    "warmest": 25029,
    "oken": 4304,
    "Ġcontemplation": 11359,
    "Ġharpooneer": 3771,
    "Ġoil": 3372,
    "Ġveins": 8935,
    "Ġhypothe": 4070,
    "Ġtashtego": 4483,
    "althily": 19361,
    "Ġnursery": 19752,
    "Ġunholy": 26219,
    "Ġbressed": 21389,
    "Ġclamorous": 24909,
    "Ġaddressing": 11166,
    "Ġrunning": 3950,
    "Ġbrazier": 26321,
    "Ġutterance": 14765,
    "Ġtyphoons": 20236,
    "Ġdocument": 15019,
    "ckles": 22093,
    "enterprise": 24996,
    "Ġread": 1450,
    "Ġfluctuations": 5516,
    "Ġzigzag": 26273,
    "Ġsimply": 7218,
    "Ġbundles": 26175,
    "eli": 3872,
    "Ġchemistry": 11462,
    "Ġprodig": 6030,
    "Ġtul": 21161,
    "Ġreefed": 20304,
    "Ġninetieth": 25358,
    "Ġexecuted": 9475,
    "Ġirregularly": 25324,
    "Ġpreced": 6042,
    "Ġseveral": 2672,
    "Ġopp": 2695,
    "Ġmade": 1050,
    "Ġfive": 2837,
    "Ġfancying": 12115,
    "splash": 25210,
    "Ġcheer": 4063,
    "vable": 10135,
    "Ġlined": 15653,
    "Ġ1671": 25007,
    "lan": 15379,
    "Ġexpans": 18620,
    "Ġern": 8398,
    "gradually": 12918,
    "Ġbehave": 23304,
    "vour": 17699,
    "explanation": 12360,
    "ilated": 18059,
    "Ġblaze": 16222,
    "Ġpains": 5967,
    "Ġdanced": 7843,
    "Ġmarching": 16696,
    "shavings": 22469,
    "Ġweakened": 16823,
    "Ġinhabited": 12188,
    "ensibility": 22552,
    "Ġlately": 6388,
    "conc": 3946,
    "affairs": 14656,
    "Ġmarched": 18872,
    "lections": 4751,
    "Ġcostume": 16496,
    "Ġnin": 10190,
    "Ġveter": 15814,
    "monograph": 23526,
    "sweet": 8690,
    "necessities": 24306,
    "aster": 1866,
    "skylight": 25623,
    "Ġinserted": 8357,
    "Ġvit": 10248,
    "tiest": 21083,
    "Ġmills": 21313,
    "Ġworth": 4413,
    "Ġpreliminary": 10060,
    "wherever": 13121,
    "hertfordshire": 10938,
    "Ġfancy": 3745,
    "lighted": 23755,
    "Ġspurred": 22142,
    "Ġcubic": 20090,
    "Ġenig": 15802,
    "Ġrevolving": 9986,
    "Ġdiscomp": 11868,
    "Ġmonogra": 22987,
    "Ġtones": 8402,
    "threshold": 21991,
    "Ġrelinquish": 17348,
    "Ġunwillingness": 20034,
    "Ġcompute": 2909,
    "speckled": 23947,
    "Ġprob": 974,
    "Ġtorpor": 25033,
    ",": 16,
    "Ġungenerous": 18266,
    "Ġgreedy": 3053,
    "Ġvillas": 24056,
    "Ġrevel": 9217,
    "Ġbloodthirsty": 26601,
    "Ġmont": 8563,
    "Ġrese": 2084,
    "thread": 15829,
    "Ġwounded": 8662,
    "Ġharpooned": 13262,
    "Ġalbert": 12709,
    "Ġbeards": 21755,
    "Ġcoco": 11003,
    "Ġoverhead": 11776,
    "Ġ110": 24433,
    "ension": 6572,
    "manner": 6172,
    "heads": 4091,
    "henomen": 10497,
    "surprising": 16919,
    "Ġtearing": 14399,
    "ruck": 6848,
    "dually": 3282,
    "Ġperturbed": 20442,
    "Ġunctuousness": 17235,
    "thrasher": 25658,
    "Ġrecovering": 11864,
    "Ġfleeting": 19328,
    "Ġsavory": 23878,
    "Ġlassitude": 20589,
    "Ġeveryday": 22777,
    "Ġchurch": 4710,
    "Ġprair": 7748,
    "Ġarrayed": 25664,
    "Ġproducing": 11903,
    "Ġfoes": 11953,
    "Ġdestroyed": 5272,
    "vision": 5619,
    "Ġjacob": 1898,
    "Ġexam": 3710,
    "Ġviewed": 10464,
    "Ġinventing": 24861,
    "Ġlethargy": 26483,
    "Ġsmite": 22562,
    "ph": 912,
    "Ġdoom": 6418,
    "Ġpry": 11603,
    "Ġfiddle": 25445,
    "appalling": 22848,
    "insufferable": 21194,
    "Ġprinted": 11951,
    "abulary": 4799,
    "gences": 20878,
    "onom": 9161,
    "Ġalt": 18100,
    "Ġunsav": 18251,
    "Ġprophecy": 25705,
    "Ġdreading": 23800,
    "Ġstained": 11654,
    "Ġsubterraneous": 20267,
    "Ġsuggest": 5417,
    "Ġexpon": 969,
    "fingers": 17371,
    "Ġcurrent": 13014,
    "Ġhyp": 3871,
    "Ġenchanted": 9083,
    "94": 4802,
    "ention": 856,
    "Ġwidow": 8667,
    "Ġaffront": 18788,
    "constellation": 24608,
    "Ġsprings": 16686,
    "Ġjohnson": 18409,
    "button": 10968,
    "Ġswash": 23058,
    "Ġumbrella": 15267,
    "ou": 287,
    "mense": 4779,
    "Ġmended": 21315,
    "Ġplaces": 5390,
    "Ġimpending": 22393,
    "Ġinsepar": 17935,
    "Ġenc": 967,
    "Ġadieu": 10054,
    "Ġtakings": 20574,
    "Ġnet": 3624,
    "parm": 21015,
    "Ġjerk": 16950,
    "Ġmarbank": 23042,
    "waiting": 12223,
    "Ġpeev": 22696,
    "Ġmeanly": 12912,
    "Ġlunacy": 20030,
    "Ġbrave": 6331,
    "Ġtransported": 11281,
    "Ġeaglet": 19305,
    "Ġlatitudes": 9499,
    "thomas": 18219,
    "Ġhelen": 16656,
    "ilty": 6395,
    "Ġheaving": 7601,
    "Ġrenowned": 26194,
    "Ġshivering": 10268,
    "Ġsymbol": 7718,
    "Ġaccur": 3966,
    "Ġmisgivings": 15293,
    "Ġelevating": 19730,
    "tern": 4221,
    "listener": 24930,
    "neural": 3066,
    "Ġmirror": 12380,
    "wam": 10138,
    "Ġsignifies": 19205,
    "ptic": 21933,
    "Ġdefe": 21839,
    "aust": 15311,
    "Ġsob": 12787,
    "stript": 21654,
    "Ġstammered": 26200,
    "igner": 21705,
    "disagreeable": 11165,
    "Ġceremony": 8362,
    "Ġautonomous": 10678,
    "Ġprevailed": 7779,
    "storied": 18023,
    "Ġmassachusetts": 24025,
    "Ġdecisions": 6704,
    "Ġassisted": 11113,
    "rug": 18344,
    "Ġoverhanging": 22368,
    "lutions": 20951,
    "Ġtolerable": 6949,
    "rapidly": 15245,
    "Ġvain": 3627,
    "Ġsgd": 3129,
    "Ġtowers": 16738,
    "Ġgpus": 3731,
    "Ġnarr": 5085,
    "Ġlanguage": 651,
    "Ġzones": 22822,
    "acked": 10976,
    "occupied": 12306,
    "Ġsqueeze": 10042,
    "Ġdelicately": 24124,
    "denial": 18717,
    "Ġnote": 4260,
    "Ġapply": 1778,
    "Ġubiqu": 18048,
    "Ġindignant": 12242,
    "Ġmany": 1108,
    "Ġblunt": 11896,
    "Ġwounds": 17791,
    "floated": 24643,
    "Ġscenery": 11458,
    "Ġlucky": 7760,
    "Ġclue": 7021,
    "engineer": 23151,
    "Ġgoblets": 20521,
    "Ġvial": 10251,
    "Ġdistrust": 8206,
    "nd": 11506,
    "human": 7090,
    "Ġimpo": 3439,
    "Ġpint": 17911,
    "Ġjac": 1897,
    "leman": 21370,
    "!âĢĻ": 3332,
    "Ġminded": 23233,
    "Ġinscrutable": 10675,
    "owers": 12687,
    "ĠĠĠĠĠĠĠĠĠĠĠĠĠĠĠĠĠĠĠĠĠĠĠĠĠĠĠĠĠĠĠĠĠĠĠ": 19259,
    "Ô": 149,
    "Ġsufferings": 7513,
    "Ġvictim": 6100,
    "Ġthieves": 15639,
    "Ġnewly": 9341,
    "lower": 8883,
    "Ġdearest": 5457,
    "Ġalgorithms": 867,
    "urities": 18051,
    "Ġresid": 22542,
    "studies": 25170,
    "hand": 2758,
    "Ġrelated": 3714,
    "Ġfinancier": 26583,
    "Ġreason": 1366,
    "Ġtedious": 15269,
    "Ġintermix": 25826,
    "Ġadroop": 26001,
    "Ġadoption": 24950,
    "Ġon": 351,
    "Ġtype": 2022,
    "investments": 25533,
    "Ġcave": 10787,
    "ester": 11601,
    "Ġadjusted": 23458,
    "coal": 12026,
    "Ġexploding": 2109,
    "ustomed": 6101,
    "Ġfol": 1288,
    "Ġamours": 22485,
    "Ġ]": 15461,
    "Ġbuckler": 24859,
    "glanced": 19368,
    "itud": 2935,
    "lotte": 3331,
    "Ġwast": 21864,
    "Ġforce": 5092,
    "Ġling": 7377,
    "Ġaccurate": 13299,
    "yn": 7820,
    "Ġfob": 21412,
    "Ġreel": 9216,
    "Ġstalls": 25647,
    "mantel": 26394,
    "omnipotent": 25966,
    "horr": 14599,
    "Ġfads": 21419,
    "Ġattaining": 15806,
    "Ġglasses": 9478,
    "rants": 13779,
    "Ġwhis": 3502,
    "om": 316,
    "superst": 11327,
    "Ġejaculated": 15171,
    "Ġscarcely": 4006,
    "divers": 15344,
    "Ġpulverize": 23395,
    "Ġgravity": 9251,
    "advance": 12159,
    "lied": 6508,
    "Ġfloating": 6606,
    "Ġsatisfaction": 5667,
    "ak": 538,
    "retreat": 23142,
    "Ġegg": 8823,
    "Ġlungless": 24863,
    "Ġthickets": 24026,
    "ded": 2757,
    "oc": 2835,
    "Ġpeaks": 16131,
    "Ġlacey": 10200,
    "Ġbattle": 5910,
    "Ġragged": 11848,
    "Ġ50": 24313,
    "seat": 18126,
    "mortal": 10115,
    "sounded": 12269,
    "urable": 8927,
    "fishery": 10035,
    "Ġchasing": 11757,
    "Ġregard": 3067,
    "reasoning": 9479,
    "Ġtransient": 18481,
    "Ġgreenhorn": 23769,
    "Ġanat": 8125,
    "ē": 212,
    "queequeg": 4331,
    "Ġdictating": 20154,
    "breckinridge": 24075,
    "Ġemigrant": 25859,
    "wing": 2517,
    "endless": 22230,
    "turned": 7306,
    "borough": 20786,
    "Ġbasics": 13449,
    "Ġmeasured": 9807,
    "Ġbegg": 16256,
    "Ġbison": 21390,
    "Ġglorious": 11078,
    "Ġmidday": 23634,
    "sam": 21053,
    "Ġplatform": 17132,
    "ried": 926,
    "Ġastir": 14640,
    "mouthful": 25209,
    "Ġglances": 10375,
    "Ġhessian": 3545,
    "osy": 11761,
    "Ġdreaming": 11225,
    "chat": 21689,
    "Ġpivot": 13924,
    "Ġknowing": 4453,
    "goodbye": 12058,
    "fac": 17541,
    "Ġsentinel": 26065,
    "needles": 20313,
    "nurtured": 25525,
    "respond": 12547,
    "gno": 13728,
    "umbrance": 22122,
    "Ġolfactories": 26171,
    "Ġbe": 336,
    "ois": 9137,
    "Ġlandau": 16422,
    "Ġcreeping": 18684,
    "resent": 10771,
    "pyramid": 21031,
    "effectually": 25131,
    "crucible": 24842,
    "gris": 8261,
    "Ġsuperflu": 14554,
    "Ġanomalously": 25638,
    "Ġunique": 12781,
    "Ġhanding": 16133,
    "minutely": 19595,
    "Ġmichael": 20681,
    "punct": 20194,
    "Ġcreatures": 4133,
    "Ġroyals": 19534,
    "Ġmaintainable": 12937,
    "Ġsanctified": 25882,
    "Ġproject": 5545,
    "Ġhaze": 18196,
    "Ġashes": 7617,
    "asol": 21543,
    "temper": 10007,
    "sleet": 20151,
    "flowing": 14546,
    "Ġrepine": 16413,
    "Ġtweezers": 26556,
    "dashing": 20837,
    "âĢĶ(": 15941,
    "Ġpiratical": 24797,
    "specimen": 26605,
    "Ġprodu": 1206,
    "racts": 14349,
    "adv": 4534,
    "Ġtrem": 6662,
    "Ġexal": 10879,
    "Ġhorror": 3772,
    "getic": 12968,
    "ivery": 17572,
    "upright": 23022,
    "deserts": 25382,
    "Ġschoolmaster": 16862,
    "Ġdanger": 3517,
    "Ġdying": 2139,
    "Ġstreams": 12195,
    "Ġcouch": 12574,
    "Ġneighbours": 8304,
    "Ġcrimin": 6901,
    "doubtless": 17002,
    "licted": 20957,
    "Ġeasily": 3889,
    "Ġadmiring": 16481,
    "Ġsystemat": 18439,
    "Ġhumour": 7933,
    "okes": 9280,
    "Ġelab": 22646,
    "Ġlieuten": 13328,
    "Ġvacuous": 24342,
    "Ġsurging": 19134,
    "Ġcrying": 10788,
    "adventure": 17234,
    "Ġsli": 4747,
    "Ġcoils": 9306,
    "tables": 19759,
    "nostril": 26559,
    "con": 653,
    "stra": 4043,
    "ofs": 11833,
    "Ġdescrying": 18618,
    "drove": 16993,
    "umpled": 15879,
    "dles": 11483,
    "Ġbunger": 9999,
    "Ġissu": 6255,
    "ij": 7803,
    "Ġshapeless": 24522,
    "Ġmartha": 16264,
    "Ġsurprised": 3829,
    "Ġblended": 16221,
    "Ġjourneys": 19477,
    "Ġusher": 22226,
    "gold": 9123,
    "Ġsemicirc": 16392,
    "Ġmoccas": 22440,
    "Ġfortresses": 23622,
    "Ġvary": 15810,
    "Ġcontaining": 2231,
    "Ġcongenial": 12413,
    "onged": 18410,
    "Ġenigmatical": 20599,
    "Ġtransfer": 2209,
    "anite": 17838,
    "Ġrenewed": 9541,
    "Ġrece": 11640,
    "Ġlou": 6822,
    ".": 18,
    "akes": 2218,
    "Ġrelease": 19291,
    "Ġdaint": 15596,
    "Ġmanif": 8874,
    "Ġric": 18209,
    "occupation": 15059,
    "Ġdizzy": 21435,
    "Ġreducing": 1957,
    "Ġimmemorial": 10513,
    "onomy": 12550,
    "Ġoaken": 13866,
    "small": 6473,
    "worm": 15455,
    "Ġhawsers": 26502,
    "Ġclosed": 4602,
    "Ġscrupled": 25051,
    "bey": 10316,
    "======": 9836,
    "coil": 23559,
    "Ġapprovingly": 26251,
    "evidence": 25522,
    "Ġtarts": 10755,
    "floating": 12230,
    "steel": 8300,
    "uttering": 12665,
    "Ġevenings": 18756,
    "owders": 18049,
    "Ġsafer": 22174,
    "gravel": 22623,
    "Ġrecesses": 17261,
    "Ġtoller": 9094,
    "market": 16839,
    "Ġan": 286,
    "Ġfainted": 8796,
    "Ġenables": 726,
    "Ġcarpet": 9360,
    "Ġlawy": 9457,
    "Ġknows": 4156,
    "Ġbid": 6133,
    "riptions": 14796,
    "atigable": 15272,
    "Ġwhereof": 16105,
    "Ġtubs": 11372,
    "Ġbountiful": 25944,
    "Ġconflict": 17274,
    "Ġnegative": 1466,
    "Ġhebrew": 13989,
    "Ġmassac": 14738,
    "Ġcall": 2075,
    "ifice": 7198,
    "Ġcalms": 23046,
    "Ġminimax": 5860,
    "Ġcrystal": 17215,
    "Ġuseless": 7039,
    "Ġelder": 7224,
    "Ġtroop": 24897,
    "Ġparamount": 15881,
    "Ġseries": 7062,
    "hest": 3368,
    "Ġcant": 17825,
    "Ġdom": 2826,
    "Ġvengeful": 14891,
    "Ġsupplying": 19800,
    "Ġyield": 5093,
    "Ġimparted": 15992,
    "frame": 17115,
    "grate": 23413,
    "Ġexceptional": 19373,
    "Ġcruis": 14623,
    "Ġrepresentation": 14408,
    "archical": 1926,
    "Ġashore": 5352,
    "Ġyears": 1892,
    "Ġpossession": 5588,
    "ath": 861,
    "Ġblue": 3451,
    "arrange": 23767,
    "Ġlabyrinth": 13681,
    "Ġwondrous": 4734,
    "Ġhorizontal": 7784,
    "itely": 5365,
    "ilst": 8145,
    "Ġimpertinent": 9080,
    "since": 5897,
    "mers": 9613,
    "Ġtopmost": 14587,
    "Ġporthole": 24397,
    "Ġer": 8106,
    "Ġtheatre": 21280,
    "kshire": 13747,
    "opement": 10314,
    "dam": 7799,
    "disciple": 16778,
    "brushing": 20789,
    "exceedingly": 9569,
    "rative": 17652,
    "§": 105,
    "Ġsobs": 14133,
    "lads": 20956,
    "Ġtell": 1470,
    "Ġisolated": 13561,
    "arrant": 10476,
    "Ġmargin": 11923,
    "Ġchronicler": 20231,
    "Ġcondescending": 24868,
    "Ġfulf": 6773,
    "rifle": 21048,
    "Ġre": 317,
    "âĢĶâĢĶâĢĿ": 15942,
    "Ġuser": 15920,
    "sets": 17660,
    "Ġwillow": 18533,
    "Ġuncork": 23431,
    "Ġmeanings": 18607,
    "Ġgreenland": 5761,
    "Ġtough": 13816,
    "inqu": 6123,
    "Ġacutely": 14315,
    "Ġiroquois": 26472,
    "Ġharpooneers": 4731,
    "thole": 21990,
    "Ġdirty": 9181,
    "ppered": 15794,
    "Ġrmsprop": 3354,
    "gage": 13725,
    "Ġobsequious": 17405,
    "Ġ87": 19712,
    "Ġbarbary": 24217,
    "la": 10707,
    "urements": 18125,
    "nin": 17608,
    "Ġdrawling": 19439,
    "Ġoutlaws": 22327,
    "arising": 17896,
    "ri": 391,
    "Ġmichigan": 26426,
    "Ġexploitation": 2346,
    "Ġpallid": 12301,
    "amaz": 21848,
    "Ġafrican": 20139,
    "ernsey": 8905,
    "Ġferoc": 14903,
    "listened": 15044,
    "Ġnotwithstanding": 9717,
    "Ġbitten": 21392,
    "Ġstrife": 18613,
    "Ġimpregn": 26022,
    "Ġpromised": 5181,
    "Ġbeaut": 2393,
    "cod": 12446,
    "Ġprecisely": 6467,
    "Ġgoose": 5940,
    "_,âĢĻâĢĿ": 20403,
    "Ġ0": 1902,
    "rested": 13076,
    "Ġdynam": 3595,
    "Ġgeneralization": 985,
    "Ġmacro": 25939,
    "ims": 7177,
    "anced": 1345,
    "Ġdiscrimin": 2544,
    "dar": 20825,
    "ensation": 22550,
    "jumping": 20247,
    "Ġlistening": 6320,
    "Ġ77": 24264,
    "non": 9614,
    "vicinity": 20482,
    "ending": 1990,
    "Ġparagra": 15882,
    "ĕ": 214,
    "aside": 10194,
    "heavily": 24532,
    "ium": 4863,
    "Ġinvariably": 8065,
    "Ġbefore": 811,
    "Ġaccusation": 22384,
    "rary": 4573,
    "Ġ71": 24260,
    "Ġactions": 6280,
    "Ġphaeton": 17465,
    "Ġwrapped": 8343,
    "Ġbenefit": 8294,
    "valley": 16214,
    "unwholesome": 26497,
    "Ġnaked": 8128,
    "Ġfiendish": 13329,
    "sper": 4431,
    "Ġreposing": 23364,
    "night": 2170,
    "Ġcareful": 2610,
    "excellent": 8045,
    "Ġconsent": 5372,
    "length": 7136,
    "antly": 1989,
    "ok": 574,
    "obliged": 20633,
    "unbounded": 21889,
    "Ġsummit": 7732,
    "fellow": 6793,
    "Ġholland": 10368,
    "Ġcoffee": 6761,
    "Ġmatters": 4973,
    "Ġfact": 1724,
    "Ġardu": 22188,
    "opening": 10315,
    "Ġomens": 21330,
    "consideration": 14956,
    "Ġpope": 11605,
    "reds": 12751,
    "Ġshows": 8485,
    "Ġoh": 2177,
    "Ġturk": 6605,
    "against": 5872,
    "asburgh": 15650,
    "dz": 4738,
    "Ġheeds": 24518,
    "Ġbelief": 5857,
    "Ġslang": 23163,
    "rus": 5932,
    "Ġpoltro": 23620,
    "af": 2375,
    "Ġtearless": 24784,
    "Ġcamberwell": 25351,
    "consider": 6350,
    "Ġburton": 23653,
    "Ġgreen": 3052,
    "opol": 12874,
    "lead": 10168,
    "custom": 15334,
    "Ġvines": 12754,
    "Ġdepth": 2437,
    "Ġendeavours": 8622,
    "inspector": 13648,
    "Ġancient": 5443,
    "Ġtemper": 956,
    "Ġdisregarded": 22534,
    "Ġsuspic": 4466,
    "Ġbrim": 12978,
    "following": 10575,
    "anoke": 21363,
    "Ġbackpropagation": 1263,
    "Ġplump": 14283,
    "made": 4807,
    "K": 47,
    "Ġswept": 7979,
    "shine": 9292,
    "Ġpicking": 11261,
    "Ġpasseng": 12973,
    "Ġtransmit": 10307,
    "Ġalert": 18103,
    "angs": 5835,
    "Ġsixth": 16560,
    "Ġbrilliancy": 20109,
    "Ġrapidity": 11103,
    "Ġlee": 4220,
    "Ġsell": 7826,
    "Ġgabriel": 7596,
    "Ġdominant": 12398,
    "Ġwrites": 23204,
    "Ġdischarge": 18556,
    "Ġdesperation": 19820,
    "Ġchoke": 22253,
    "ersed": 10262,
    "Ġconverts": 2805,
    "Ġtombed": 25164,
    "Ġremembering": 14610,
    "Ġmust": 842,
    "earthly": 24722,
    "Ġsunset": 8965,
    "Ġmetropolis": 17275,
    "Ġgunw": 6214,
    "quently": 9705,
    "wherein": 19108,
    "ch": 321,
    "Ġexclamation": 8703,
    "Ġoughts": 23903,
    "Ġbeggars": 20631,
    "Ġapp": 495,
    "Ġconvolutions": 21811,
    "enborough": 21287,
    "Ġluff": 15656,
    "Ġstraightway": 9020,
    "shriek": 20522,
    "derbyshire": 18320,
    "Ġconveys": 16855,
    "Ġmildness": 9947,
    "Ġmanned": 9274,
    "Ġvict": 3761,
    "Ġcigaret": 16976,
    "Ġ75": 19614,
    "valu": 1653,
    "sensibility": 25025,
    "Ġdemoniacal": 20558,
    "paddington": 20480,
    "Ġscenari": 22291,
    "Ġrides": 21975,
    "pidation": 18893,
    "Ġolive": 12568,
    "Ġdeduce": 8338,
    "cock": 12027,
    "Ġbeach": 6543,
    "bbings": 19277,
    "Ġreser": 5170,
    "Ġelderly": 13495,
    "Ġflirting": 16253,
    "Ġcredulous": 17145,
    "Ġfinal": 5400,
    "book": 4667,
    "Ġminiatures": 20323,
    "Ġplainpal": 19278,
    "Ġlangsdorff": 15278,
    "Ġmourn": 8708,
    "ellent": 3760,
    "Ġrom": 4522,
    "rarely": 21637,
    "ival": 4224,
    "icilian": 20693,
    "Ġharris": 13928,
    "Ġreynolds": 10212,
    "Ġconvulsively": 25715,
    "Ġlistened": 4465,
    "Ġhast": 3151,
    "Ġdecrease": 4198,
    "crowning": 25748,
    "ister": 1295,
    "Ġsubdued": 11032,
    "Ġintact": 21993,
    "hammad": 23265,
    "Ġfrankness": 16746,
    "Ġcompasses": 11269,
    "Ġpolluted": 25593,
    "avern": 24790,
    "Ġguess": 4902,
    "Ġmajority": 13293,
    "Ġconquer": 14028,
    "swallow": 24258,
    "Ġalways": 1695,
    "ier": 1136,
    "Ġworked": 6585,
    "dimens": 2316,
    "cain": 15327,
    "Ġuntidy": 23523,
    "Ġsplit": 7994,
    "Ġsouthwards": 19635,
    "Ġlamps": 14792,
    "hearth": 15501,
    "Ġutility": 23514,
    "Ġkindling": 19033,
    "Ġnobly": 22245,
    "Ġsymp": 4499,
    "Ġcaptive": 14428,
    "Ġsciences": 15947,
    "stupid": 12678,
    "Ġdiscre": 2415,
    "Ġhurt": 7702,
    "Ġphilosopher": 12186,
    "Ġfreely": 7058,
    "Ġstarting": 7730,
    "Ġhousings": 21496,
    "iscreet": 20684,
    "Ġsomnam": 23011,
    "Ġsilence": 3267,
    "Ġaglow": 22518,
    "Ġremain": 1872,
    "capitals": 25082,
    "Ġstern": 4184,
    "agonies": 21913,
    "_.": 2212,
    "jud": 4477,
    "enesis": 24386,
    "Ġmonstr": 7669,
    "felix": 10656,
    "ently": 1618,
    "Ġandrew": 21510,
    "Ġpreprocess": 22237,
    "historian": 25734,
    "Ġburden": 8612,
    "Ġrevive": 13480,
    "spond": 5566,
    "vint": 21116,
    "Ġemblem": 20500,
    "Ġstubborn": 10416,
    "Ġhosmer": 6775,
    "Ġdeference": 10883,
    "Ġhammered": 13241,
    "Ġnervousness": 23557,
    "extinguish": 22775,
    "Ġwarmup": 3920,
    "99": 1895,
    "frequented": 25900,
    "retaining": 21247,
    "Ï": 144,
    "ribution": 14308,
    "covering": 15335,
    "Ġnoiseless": 10359,
    "strate": 12676,
    "Ġlaws": 8004,
    "Ġshape": 5639,
    "Ġpyramids": 15116,
    "thickness": 25368,
    "Ġengine": 1920,
    "Ġgene": 15675,
    "Ġoffic": 3187,
    "encounter": 20394,
    "Ġpagan": 7119,
    "characteristic": 24685,
    "Ġbouquet": 20685,
    "Ġpenal": 1774,
    "Ġabominably": 20068,
    "certainly": 5340,
    "Ġoccupy": 14732,
    "Ġmish": 15540,
    "lev": 1234,
    "ourney": 3550,
    "ts": 959,
    "Ġhush": 13212,
    "Ġoutlines": 15960,
    "Ġfumbling": 21420,
    "Ġpeleg": 3738,
    "Ġparadise": 11196,
    "het": 5435,
    "Ġmanxman": 9568,
    "conve": 14244,
    "eds": 6531,
    "jonah": 11499,
    "Ġrudeness": 17125,
    "Ġpaus": 4296,
    "Ġslope": 14462,
    "Ġrises": 9716,
    "Ġfaith": 5351,
    "Ġseven": 4539,
    "years": 6883,
    "Ġverily": 16603,
    "Ġmutter": 23956,
    "Ġunequal": 14843,
    "Ġdiscussed": 19561,
    "inced": 3336,
    "Ġaway": 1241,
    "azore": 23463,
    "alled": 5913,
    "Ġnaval": 16899,
    "Ġdisappearance": 9300,
    "Ġterrify": 19363,
    "as": 302,
    "rugg": 15905,
    "ter": 359,
    "quietly": 10595,
    "Ġdistrusted": 13542,
    "pervading": 18959,
    "tashtego": 9625,
    "Ġrefrained": 14340,
    "Ġrivals": 20273,
    "þ": 191,
    "Ġcompliance": 12117,
    "rubbed": 22194,
    "Ġperf": 12853,
    "H": 44,
    "Ġminut": 2203,
    "Ġfertile": 20585,
    "reng": 4000,
    "allest": 5485,
    "Ġankles": 17900,
    "Ġcrater": 16437,
    "organ": 15577,
    "Ġtiles": 17726,
    "uff": 2729,
    "itted": 2440,
    "'t": 3144,
    "Ġcommod": 10336,
    "Ġnorthward": 13323,
    "Ġquiver": 16005,
    "Ġneedles": 11186,
    "zeal": 16294,
    "Ġ76": 24263,
    "Ġslumbers": 18943,
    "Ġyoungster": 23183,
    "Ġgoblet": 25823,
    "ma": 1150,
    "Ġbat": 10797,
    "asily": 13947,
    "Ġwharf": 9562,
    "Ġballarat": 14720,
    "Ġcontent": 5033,
    "tailed": 17685,
    "Ġwaking": 11573,
    "Ġridges": 16731,
    "Ġsupplement": 23007,
    "acit": 16065,
    "Ġcracked": 8598,
    "mariners": 19550,
    "Ġtwice": 4659,
    "ered": 1683,
    "side": 2300,
    "Ġcivilly": 19605,
    "ascal": 10195,
    "commodore": 20627,
    "ientious": 11694,
    "Ġmemory": 2275,
    "Ġsmoke": 4715,
    "hall": 8086,
    "foam": 24416,
    "tipt": 25085,
    "Ġmemories": 14556,
    "Ġimpatient": 5602,
    "crimson": 24087,
    "Ġdiversity": 25285,
    "ouement": 21451,
    "Ġslack": 8958,
    "Ġnic": 7376,
    "levi": 7049,
    "magistrate": 19864,
    "Ġunsh": 14116,
    "mured": 6960,
    "ullo": 12732,
    "Ġunwinding": 22064,
    "frank": 7759,
    "buncle": 13694,
    "Ġfondness": 16780,
    "Ġbuoyed": 20043,
    "Ġimpose": 22391,
    "Ġpreface": 18367,
    "mitted": 5213,
    "800": 17477,
    "elements": 25204,
    "dia": 2137,
    "yset": 21147,
    "Ġebony": 18010,
    "Ġstrings": 11832,
    "Ġoutbreak": 22321,
    "Ġinterval": 4051,
    "Ġhorses": 6386,
    "Ġfundamental": 3013,
    "ript": 4149,
    "cracy": 24690,
    "Ġsensibility": 14512,
    "Ġformerly": 7493,
    "Ġruined": 12956,
    "nest": 10116,
    "Ġpeculiarity": 12935,
    "ib": 1233,
    "Ġimproves": 22759,
    "ription": 5676,
    "Ġmachines": 1777,
    "marry": 13325,
    "Ġcheever": 23288,
    "Ġtou": 15468,
    "ellative": 21949,
    "Ġflavor": 16255,
    "Ġcaroline": 7255,
    "Ġceasing": 23758,
    "Ġpurposes": 11170,
    "grim": 19107,
    "autions": 20768,
    "Ġspans": 18304,
    "Ġdelightfully": 13159,
    "Ġ6": 5141,
    "Ġensued": 11396,
    "hering": 12817,
    "driver": 14922,
    "Ġv": 399,
    "Ġsubtile": 20382,
    "Ġremedy": 18724,
    "Ġpenn": 11114,
    "Ġdreamt": 23941,
    "daring": 20830,
    "Ġproceeds": 12080,
    "Ġfit": 3684,
    "Ġpag": 6013,
    "protested": 13475,
    "Ġnortheast": 23208,
    "Ġbustle": 17228,
    "obvious": 9361,
    "Ġborrowed": 17230,
    "Ġprograms": 7239,
    "Ġdrawn": 4273,
    "fixed": 7548,
    "inguish": 9400,
    "Ġblasphemer": 26116,
    "Ġdusting": 24597,
    "Ġplacing": 8904,
    "blue": 13695,
    "amb": 5723,
    "augh": 1784,
    "movable": 14325,
    "Ġcried": 1488,
    "ara": 12609,
    "Ġreck": 6539,
    "burg": 16773,
    "]": 65,
    "neighboring": 20619,
    "Ġhateful": 19715,
    "Ġbraced": 16580,
    "Ġprincess": 23225,
    "Ġsized": 11565,
    "scy": 21057,
    "Ġoccasional": 7289,
    "Ġmechanisms": 1576,
    "first": 3932,
    "Ġchanged": 5242,
    "awakened": 14454,
    "Ġacquirement": 19256,
    "Ġmaj": 3925,
    "draul": 9446,
    "Ġferule": 24514,
    "Ġpalace": 16689,
    "Ġdecided": 5471,
    "Ġjelly": 22304,
    "Ġtumult": 7116,
    "begins": 18528,
    "enderby": 25216,
    "winter": 10742,
    "Ġpian": 13918,
    "Ġsche": 1702,
    "_.âĢĻâĢĿ": 17480,
    "Ġsigned": 11179,
    "Ġplan": 3880,
    "Ġbefallen": 12345,
    "tale": 10130,
    "Ġnur": 5710,
    "Ġhud": 10824,
    "Ġbeer": 10222,
    "germans": 20567,
    "Ġrace": 5848,
    "Ġidiotic": 25588,
    "gue": 12470,
    "Ġwhelm": 25998,
    "Ġtiara": 26415,
    "Ń": 260,
    "leading": 15565,
    "cet": 15326,
    "daughters": 13467,
    "Ġevil": 3805,
    "Ġphysiology": 25333,
    "Ġprovoking": 16743,
    "Ġagile": 22517,
    "Ġpent": 17904,
    "ouch": 2779,
    "å": 166,
    "Ġwhispers": 14701,
    "Ġimplore": 24872,
    "etian": 13960,
    "france": 24282,
    "mate": 5359,
    "Ġcocks": 18594,
    "ook": 21005,
    "Ġbenef": 3485,
    "Ġinspiring": 19113,
    "Ġexe": 3992,
    "Ġvigilant": 20186,
    "Ġjago": 22303,
    "Ġspleen": 26421,
    "Ġsurrender": 16449,
    "Ġorgan": 2501,
    "ckled": 9260,
    "Ġindifferent": 6176,
    "exertion": 16019,
    "Ġinsincere": 26599,
    "Ġintervals": 5597,
    "Ġwarmth": 6905,
    "Ġrele": 2921,
    "pequod": 7054,
    "Ġbachelor": 7788,
    "lamp": 9611,
    "vedale": 22715,
    "Ġtaller": 16687,
    "get": 1023,
    "Ġcigars": 12255,
    "Ġchancing": 22252,
    "Ġimplement": 2807,
    "Ġinvoluntary": 18748,
    "glimmer": 26322,
    "Ġrequired": 7223,
    "Ġconcernment": 23623,
    "Ġunb": 10909,
    "adel": 15732,
    "Ġaversion": 18867,
    "Ġcocoan": 20318,
    "Ġresolve": 13171,
    "Ġvult": 12755,
    "onym": 14649,
    "balls": 12307,
    "ed": 293,
    "performed": 18339,
    "Ġcause": 2408,
    "pp": 384,
    "Ġbequest": 21757,
    "Ġback": 824,
    "Ġeaves": 15679,
    "Ġsentin": 16377,
    "Ġstate": 1812,
    "Ġnoblest": 13243,
    "Ġmelted": 19623,
    "Ġaspire": 21904,
    "Ġcovent": 16078,
    "Ġpitching": 16611,
    "Ġextracts": 9359,
    "atered": 22011,
    "Ġax": 7823,
    "difference": 13709,
    "Ġchoked": 9267,
    "Ġcorrect": 2429,
    "Ġvii": 13110,
    "Ġkate": 15908,
    "magnet": 14971,
    "barbar": 20240,
    "body": 2306,
    "Ġovercome": 6046,
    "unconquerable": 21895,
    "neighbour": 7211,
    "rubber": 12815,
    "answ": 15887,
    "Ġunfeeling": 14120,
    "<SOS>": 1,
    "ror": 7351,
    "Ġbam": 15569,
    "Ġsheet": 6264,
    "Ġsill": 10767,
    "Ġhouse": 1504,
    "Ġpaintings": 15058,
    "andish": 18155,
    "Ġgeneric": 18443,
    "Ġmoluccas": 25629,
    "Ġcomp": 725,
    "{": 95,
    "Ġcontracting": 16014,
    "Ġunde": 11715,
    "access": 11182,
    "Ġsteel": 3887,
    "Ġpens": 21463,
    "Ġchinks": 22255,
    "Ġserious": 4319,
    "Ġreality": 7059,
    "solut": 3363,
    "oug": 432,
    "pread": 7418,
    "._": 3219,
    "instead": 14814,
    "Ġspears": 12926,
    "mmed": 7916,
    "cription": 20819,
    "Ġswell": 8952,
    "Ġhearers": 15706,
    "Ġirrad": 19094,
    "Ġspoon": 22138,
    "asht": 4080,
    "Ġoverlook": 10962,
    "Ġtub": 7147,
    "Ġpostscript": 14809,
    "Ġgrey": 4509,
    "Ġabusive": 22277,
    "sided": 17664,
    "Ġartic": 5315,
    "trade": 19646,
    "Ġdexter": 9704,
    "Ġreinforcement": 3604,
    "atmospheric": 17776,
    "\"],": 26120,
    "Ġthinkings": 22813,
    "Ġtinkling": 25213,
    "Ġinfl": 6894,
    "Ġdint": 15594,
    "Ġfac": 6382,
    "Ġvice": 6550,
    "anqu": 4106,
    "Ġdutch": 6329,
    "Ġbroadway": 23986,
    "interval": 7992,
    "Ġinvincible": 23480,
    "Ġeloquent": 16114,
    "Ġmeant": 3547,
    "strikes": 24670,
    "Ġbeatrix": 24205,
    "pred": 2802,
    "Ġdri": 2362,
    "Ġmustering": 18661,
    "Ġcetace": 14989,
    "Ġgrowl": 16539,
    "Ġunconsciously": 10008,
    "idated": 11663,
    "Ġgases": 21605,
    "Ġcrosses": 23065,
    "Ġappropri": 2227,
    "Ġcarted": 21352,
    "ads": 5718,
    "extending": 22774,
    "Ġprisoner": 8677,
    "Ġhaughty": 11451,
    "Ġmast": 2904,
    "wide": 10140,
    "Ġpliny": 11828,
    "erring": 11058,
    "Ġaccumulating": 2721,
    "Ġpurest": 14940,
    "condemned": 26060,
    "Ġprofound": 5497,
    "Ġdelusion": 18974,
    "Ġsallied": 12540,
    "Ġcrawled": 17043,
    "Ġmartyr": 26361,
    "Ġstrongest": 11137,
    "dron": 17525,
    "time": 3147,
    "ue": 1177,
    "Ġweig": 7619,
    ".*": 7331,
    "ulence": 15769,
    "Ġtasks": 1791,
    "boscombe": 26121,
    "illating": 22111,
    "breast": 11247,
    "Ġpopulation": 16827,
    "scence": 14420,
    "hark": 15367,
    "Ġsystematically": 3945,
    "umps": 6319,
    "Ġpitches": 23904,
    "Ġpiazza": 26450,
    "Ġmans": 15539,
    "Ġrings": 11702,
    "Ġengaged": 3427,
    "Ġanno": 9670,
    "Ġinaccessible": 13935,
    "wall": 10139,
    "proble": 9397,
    "Ġh": 290,
    "Ġcolours": 12976,
    "Ġdecent": 10980,
    "Ġlifting": 10199,
    "Ġinvisibly": 24813,
    "Ġsullenly": 17173,
    "Ġhindoo": 17176,
    "Ġpanted": 21475,
    "got": 6955,
    "onsible": 22566,
    "skirted": 24487,
    "admon": 21764,
    "Ġboun": 21382,
    "Ġsaturn": 22904,
    "Ġcomforter": 20509,
    "harpoon": 9494,
    "Ġagreeing": 20021,
    "Ġspiral": 14584,
    "swift": 14853,
    "returning": 12208,
    "delighted": 10565,
    "Ġdrifting": 19280,
    "ooping": 21008,
    "atiate": 12551,
    "Ġdozing": 22247,
    "ascribed": 24706,
    "Ġchildren": 3767,
    "Ġbrigandish": 25488,
    "icular": 2025,
    "itiousness": 21336,
    "Ġesquimaux": 25154,
    "Ġcachalot": 17835,
    "their": 2539,
    "tooth": 18580,
    "behind": 6780,
    "Ġ90": 24589,
    "easy": 9595,
    "become": 14247,
    "acy": 3953,
    "Ġluxuries": 25167,
    "Ġinclemency": 22560,
    "ernity": 18612,
    "Ġtunnels": 24621,
    "Ġeh": 6988,
    "Ġreign": 13986,
    "Ġcomstock": 21862,
    "Ġemboldened": 22949,
    "Ġvoice": 2191,
    "Ġporpoises": 13383,
    "!--": 10680,
    "Ġpers": 1399,
    "Ġuntrodden": 23522,
    "Ġfaces": 6011,
    "national": 20999,
    "Ġgrie": 3580,
    "dragged": 16608,
    "Ġtechnical": 17192,
    "Ġbelieves": 14410,
    "ably": 1848,
    "meditated": 19071,
    "Ġdespaired": 14669,
    "Ġprosperous": 15173,
    "Ġavailed": 23954,
    "Ġhills": 6528,
    "Ġsimulation": 2752,
    "Ġsitting": 3602,
    "Ġark": 10279,
    "Ġpilot": 5987,
    "Ġemotion": 7691,
    "unwho": 21881,
    "Ġquaff": 22418,
    "Ġcomprehended": 11296,
    "Ġeigen": 4880,
    "Ġworshipping": 22930,
    "Ġmccauley": 26427,
    "Ġscru": 8192,
    "Ġeyford": 10644,
    "answers": 22144,
    "Ġshoes": 7073,
    "Ġgrip": 11630,
    "Ġgems": 9211,
    "opic": 22480,
    "Ġlanguages": 1569,
    "Ġtrowsers": 9630,
    "ariously": 18530,
    "abode": 21795,
    "irable": 5776,
    "Ġawait": 17072,
    "Ġconstrained": 19241,
    "huzza": 20914,
    "favourite": 15145,
    "wick": 5363,
    "Ġtigers": 25758,
    "Ġwent": 1538,
    "Ġasylum": 13668,
    "Ġnever": 1021,
    "Ġmansfield": 25938,
    "Ġorigin": 4116,
    "Ġposture": 24165,
    "widely": 25344,
    "Ġlining": 13952,
    "inian": 21184,
    "rushed": 10587,
    "resist": 8277,
    "Ġthousand": 2781,
    "poke": 18798,
    "Ġmarvelled": 18874,
    "Ġsequentially": 4913,
    "Ġdefici": 22946,
    "gus": 13726,
    "Ġsavannah": 17417,
    "Ġthistle": 21920,
    "spirits": 8056,
    "Ġquicker": 16508,
    "thanking": 24324,
    "Ġhackney": 20435,
    "inkling": 16092,
    "Ġbrass": 11050,
    "enemy": 15529,
    "burn": 8372,
    "rove": 21536,
    "Ġrepublican": 17413,
    "Ġpang": 15608,
    "engagement": 14459,
    "Ġpeak": 16129,
    "Ġmultitudinous": 26274,
    "settled": 10509,
    "Ġrepute": 18036,
    "Ġvirtual": 11241,
    "bottom": 11428,
    "Ġascribe": 16782,
    "reclining": 20576,
    "/(": 2983,
    "shows": 22462,
    "promising": 24724,
    "Ġcleaving": 23185,
    "Ġreside": 22543,
    "Ġthroat": 7772,
    "console": 22475,
    "maul": 11892,
    "xi": 17710,
    "Ġdist": 679,
    "ball": 7794,
    "elag": 12661,
    "Ã¦st": 24176,
    "gan": 2198,
    "dient": 442,
    "lace": 13749,
    "drifting": 19826,
    "tips": 13797,
    "Ġwhistle": 9069,
    "Ġholds": 7977,
    "Ġreliability": 22881,
    "Ġgolden": 5337,
    "ĠâĢľ_": 6698,
    "verize": 21732,
    "aneous": 7240,
    "Ġwilling": 7421,
    "Ġcrozetts": 19631,
    "erity": 21269,
    "Ġbeth": 9660,
    "Ġang": 2509,
    "Ġbrick": 8929,
    "Ġmappings": 2149,
    "Ġcomposedly": 25186,
    "Ġgor": 9209,
    "ik": 17571,
    "Ġphilosophical": 26335,
    "rowed": 22861,
    "forever": 22523,
    "iards": 17574,
    "Ġsavor": 23877,
    "forming": 15919,
    "Ġchiefly": 5766,
    "singing": 24361,
    "Ġrh": 9247,
    "Ġcomputational": 1627,
    "Ġhopeful": 19036,
    "Ġdeserves": 13290,
    "Ġalarm": 4045,
    "Ġbanished": 10619,
    "Ġnotions": 14100,
    "Ġbedside": 19124,
    "concl": 12872,
    "Ġboundless": 10498,
    "Ġirregular": 9868,
    "Ġedward": 19152,
    "Ġpadd": 9672,
    "Ġgathered": 8445,
    "mess": 13754,
    "onted": 11570,
    "formation": 22224,
    "obedience": 17411,
    "#": 7,
    "Ġrussia": 26268,
    "Ġgrizz": 10355,
    "Ġlivid": 14990,
    "Ġfinest": 10395,
    "axed": 8892,
    "Ġpleases": 16301,
    "Ġentreaties": 9038,
    "Ġmaster": 3681,
    "Ġoverthrown": 18431,
    "sell": 13782,
    "Ġconsistent": 14528,
    "runs": 25416,
    "Ġspont": 22135,
    "half": 4930,
    "Ġoffspring": 16148,
    "Ġpast": 2099,
    "establish": 17394,
    "Ġacknowled": 6352,
    "unaccountable": 15782,
    "horn": 8087,
    "strade": 5065,
    "Ġconsequ": 6256,
    "Ġafraid": 3527,
    "downward": 16619,
    "volutions": 16325,
    "ittingly": 18804,
    "Ġrefreshed": 15292,
    "Ġfamiliarity": 16729,
    "rew": 3649,
    "Ġsurvivors": 25731,
    "industrious": 26240,
    "Ġsimplest": 16336,
    "Ġanalyzing": 18822,
    "Ġmurmuring": 23580,
    "Ġembellish": 25847,
    "Ġrun": 2353,
    "mews": 22709,
    "ifix": 21907,
    "Ġscriptures": 26236,
    "Ġdiscrimination": 23606,
    "trowsers": 17691,
    "burning": 25080,
    "Ġluckless": 16797,
    "Ġaff": 1118,
    "ache": 8520,
    "Ġdev": 886,
    "Ġwantest": 18790,
    "Ġunbending": 25465,
    "Ġpul": 2042,
    "lik": 3914,
    "Ġgenerator": 3381,
    "Ġconsume": 12960,
    "Ġimm": 3963,
    "ble": 541,
    "batim": 25018,
    "gely": 10702,
    "rious": 11692,
    "lers": 10109,
    "cour": 4475,
    "Ġhospital": 15040,
    "odd": 21815,
    "paus": 13774,
    "Ġimmensity": 25330,
    "Ġunsafe": 22045,
    "Ġdiverted": 14592,
    "Ġpropriety": 10013,
    "pipe": 8701,
    "support": 9472,
    "Ġmuseum": 15273,
    "Ġextending": 11022,
    "mon": 2307,
    "pleasure": 5980,
    "pled": 7894,
    "Ġsimil": 2530,
    "Ġensuring": 11193,
    "typewritten": 26038,
    "Ġincline": 18570,
    "Ġwhaler": 7520,
    "affected": 10478,
    "Ġquantity": 6948,
    "iter": 4388,
    "Ġtrade": 2545,
    "ignified": 14490,
    "spoutings": 25005,
    "Ġtails": 9904,
    "wise": 2572,
    "Ġnature": 2537,
    "bering": 18698,
    "ulties": 12907,
    "Ġworms": 25217,
    "Ġpersonal": 7479,
    "Ġquito": 24406,
    "Ġvol": 4186,
    "mem": 10711,
    "Ġdecreas": 1648,
    "omin": 4702,
    "Ġtoiled": 12645,
    "Ġtailed": 21170,
    "Ġellenborough": 26154,
    "Ġdocile": 19961,
    "Ġsuits": 22092,
    "entered": 8819,
    "/`)": 13662,
    "too": 4504,
    "Ġire": 12672,
    "dropping": 14983,
    "ox": 9136,
    "Ġdeceitfulness": 25733,
    "Ġbacks": 8532,
    "Ġbodies": 8033,
    "Ġgracefully": 13392,
    "Ġprior": 11320,
    "Ġoutlandish": 12841,
    "Ġrambles": 17185,
    "Ġfurious": 10357,
    "Ġerie": 20056,
    "thrill": 25656,
    "sprit": 11384,
    "Ġjoyfully": 19348,
    "Ġknocking": 10562,
    "Ġconfined": 7465,
    "jour": 20928,
    "Ġplank": 7035,
    "illar": 5101,
    "Ġrefuse": 5739,
    "Ġdelicate": 6481,
    "insula": 23069,
    "Ġwander": 9034,
    "Ġrested": 9382,
    "Ġprovides": 1930,
    "Ġcove": 22584,
    "Ġpays": 13297,
    "pha": 22755,
    "Ġagonizing": 17239,
    "summoned": 26591,
    "saturday": 14859,
    "Ġadds": 1807,
    "Ġarrog": 18342,
    "ant": 439,
    "Ġvineyarder": 25606,
    "Ġmason": 10160,
    "bal": 2158,
    "Ġchry": 22250,
    "Ġmournfully": 20119,
    "Ġmorose": 18844,
    "inks": 6869,
    "Ġissuing": 16948,
    "Ġparticular": 2448,
    "Ġshells": 20366,
    "amed": 4444,
    "dishonourable": 26366,
    "Ġryder": 10261,
    "overcoat": 19054,
    "Ġthanks": 6709,
    "Ġattractive": 25121,
    "Ġunthink": 18247,
    "manif": 14374,
    "Ġmus": 3395,
    "Ġloathing": 15071,
    "Ġoutermost": 22323,
    "Ġbetrayed": 9564,
    "egypt": 15351,
    "french": 9122,
    "Ġstrength": 4256,
    "Ġwre": 5077,
    "Ġcraft": 4373,
    "robustness": 26339,
    "Ġsta": 18064,
    "Ġinconvenient": 20012,
    "Ġsurviv": 13436,
    "Ġencompassed": 15255,
    "Ġtum": 5692,
    "Ġclusters": 25233,
    "Ġwaxed": 21299,
    "Ġoldest": 12975,
    "eyes": 5684,
    "ulations": 6031,
    "Ġpropri": 6740,
    "Ġeffectively": 2646,
    "Ġcabinet": 23863,
    "pale": 13772,
    "joining": 19448,
    "Ġflat": 8229,
    "Ġvolition": 14799,
    "erve": 12552,
    "farintosh": 24551,
    "Ġcapacious": 19177,
    "Ġbespeaking": 26310,
    "Ġtar": 2561,
    "admitted": 18093,
    "above": 8149,
    "Ġpaw": 12623,
    "Ġauxiliary": 26418,
    "philosophers": 25253,
    "Ġyale": 21783,
    "Ġ39": 19492,
    "mown": 20971,
    "Ġcoars": 14275,
    "Ġflattered": 10377,
    "oried": 10804,
    "bent": 15313,
    "bles": 7019,
    "Ġwedding": 4815,
    "Ġmining": 22833,
    "Ġlionel": 25287,
    "anatory": 21365,
    "rence": 5554,
    "Ġtrading": 23081,
    "maintained": 25022,
    "Ġdisabled": 18561,
    "Ġnaturally": 2467,
    "imprudence": 16558,
    "asant": 17960,
    "summer": 11995,
    "Ġpetulance": 24228,
    "Ġarray": 12813,
    "ged": 1513,
    "various": 10400,
    "Ġserenity": 10031,
    "arab": 21444,
    "parable": 16399,
    "Ġscramble": 24577,
    "py": 17624,
    "Ġtapping": 10754,
    "Ġtusked": 25427,
    "asons": 6017,
    "Ġmealy": 18119,
    "databases": 3024,
    "aggoo": 5130,
    "folly": 20863,
    "Ġlivelong": 25512,
    "[_": 5131,
    "you": 1005,
    "Ġmonitors": 3157,
    "mastod": 23976,
    "emy": 14074,
    "Ġgerm": 13965,
    "Ġwestern": 10657,
    "iners": 4935,
    "incredible": 16499,
    "Ġhaven": 8476,
    "flying": 13722,
    "sloop": 26145,
    "deepest": 22832,
    "Ġspoilt": 24803,
    "oward": 6023,
    "Ġrect": 18027,
    "Ġdams": 16456,
    "Ġmamma": 10051,
    "7": 27,
    "odhead": 18122,
    "k": 79,
    "puzzling": 26143,
    "Ġhushed": 13926,
    "Ġsupreme": 13609,
    "secured": 16938,
    "dan": 17515,
    "cigar": 26124,
    "name": 6796,
    "pour": 17630,
    "Ġregarded": 5762,
    "ouder": 17901,
    "Ġcharley": 19006,
    "murder": 10567,
    "miniature": 16765,
    "Ġinvader": 23479,
    "mming": 1170,
    "Ġsplendour": 20226,
    "Ġindomit": 22960,
    "into": 3680,
    "Ġstole": 7954,
    "È": 137,
    "Ġfire": 2331,
    "Ġdistrict": 10320,
    "Ġevalu": 2816,
    "Ġreputation": 11642,
    "Ġfiery": 6871,
    "Ġcorroborated": 26053,
    "aware": 16298,
    "soc": 5175,
    "Ġillum": 9403,
    "Ġstun": 11652,
    "adopt": 25545,
    "pronouncing": 25194,
    "Ġobscured": 15011,
    "Ġvaliantly": 22804,
    "Ġworsted": 19997,
    "Ġegot": 18009,
    "Ġboth": 1657,
    "Ġsparkled": 13463,
    "ank": 1365,
    "Ġloving": 8177,
    "Ġcompanionship": 14921,
    "crop": 20799,
    "Ġbreakers": 12057,
    "accepting": 20137,
    "Ġmincing": 18753,
    "Ġhorizont": 6937,
    "incom": 21183,
    "Ġ1950": 11361,
    "Ġnewcom": 16224,
    "medium": 23640,
    "Ġpuzz": 5532,
    "Ġburgled": 23654,
    "Ġwatches": 11084,
    "Ġaffecting": 2322,
    "Ġbreathe": 9015,
    "affect": 13213,
    "Ġundulating": 19519,
    "icken": 6713,
    "Ġtotally": 9474,
    "Ġdoctor": 5067,
    "agrad": 2746,
    "Ġaffectation": 14442,
    "itchen": 7789,
    "ateness": 15522,
    "Ġmeryton": 4434,
    "Ġdispatched": 23883,
    "Ġobligation": 13245,
    "Ġdu": 4582,
    "ableness": 8150,
    "Ġdiabol": 11455,
    "esteem": 26008,
    "ositions": 10285,
    "Ġresemblance": 7971,
    "Ġsight": 2113,
    "ibles": 18786,
    "Ġmeta": 3462,
    "Ġexamine": 7736,
    "ctu": 5088,
    "yonder": 21146,
    "igating": 21703,
    "Ġepoch": 26471,
    "riving": 21935,
    "prevailed": 17346,
    "ud": 917,
    "Ġunceasingly": 20361,
    "Ġinspect": 5966,
    "fairly": 17220,
    "Ġpainting": 13142,
    "embarr": 17293,
    "Ġlive": 2734,
    "Ġatom": 18192,
    "Ġamused": 11802,
    "urmountable": 15281,
    "Ġcalmly": 7735,
    "Ġdestro": 3721,
    "Ġnam": 17950,
    "ideas": 18584,
    "comp": 3815,
    "Ġkramm": 26234,
    "Ġshared": 10266,
    "ĠĠĠĠĠĠĠĠĠĠĠĠĠĠĠĠĠĠĠĠĠĠĠĠĠĠĠĠĠĠĠĠĠĠĠĠĠĠĠĠĠĠĠĠ": 12156,
    "Ġsangu": 15506,
    "deacon": 22151,
    "december": 25559,
    "antique": 18288,
    "Ġperilously": 24502,
    "sius": 13789,
    "Ġresulting": 24199,
    "Ġprojects": 9514,
    "hypothe": 25905,
    "posture": 16927,
    "else": 6535,
    "Ġnon": 1626,
    "Ġtack": 5620,
    "Ġfunny": 7638,
    "Ġwallowing": 24046,
    "Ġendowed": 18924,
    "garden": 15026,
    "Ġbier": 22767,
    "loom": 18538,
    "Ġcounterpane": 11345,
    "avast": 8901,
    "Ġloved": 4597,
    "Ġplanning": 14753,
    "Ġgiver": 21608,
    "Ġdens": 21427,
    "biqu": 17498,
    "Ġsulk": 15046,
    "originally": 24939,
    "inary": 3273,
    "Ġvernal": 23890,
    "Ġclaimed": 14202,
    "Ġensue": 18190,
    "Ġsnoring": 23741,
    "Ġconspicuous": 13605,
    "fail": 17540,
    "azing": 7706,
    "Ġheiress": 20699,
    "epend": 3315,
    "absolute": 17123,
    "Ġstow": 21734,
    "Ġspectre": 16631,
    "uplifted": 17695,
    "Ġsteer": 10389,
    "Ġeternities": 19945,
    "Ġsickening": 19606,
    "Ġminima": 3460,
    "friendship": 24051,
    "ult": 724,
    "antial": 8490,
    "Ġedition": 16457,
    "Ġl": 303,
    "richard": 17287,
    "Ġunwell": 22021,
    "Ġdisagree": 22536,
    "turbaned": 24530,
    "Ġcrockery": 24301,
    ")(": 2982,
    "Ġinitial": 823,
    "Ġinstrument": 7120,
    "Ġtrampled": 20330,
    "Ġideal": 13123,
    "ided": 2784,
    "Ġunattended": 15846,
    "attent": 9363,
    "Ġparsee": 6414,
    "Ġbridle": 24681,
    "proportion": 16183,
    "leap": 21369,
    "Ġdisengaged": 12892,
    "Ġrevered": 23735,
    "Ġearly": 2079,
    "Ġconnectivity": 3667,
    "Ġredness": 19312,
    "sleeve": 26108,
    "18": 20752,
    "Ġelegance": 11334,
    "Ġdeadly": 5405,
    "Ġstretched": 5922,
    "star": 12674,
    "Ġworsh": 13002,
    "Ġpretensions": 16559,
    "Ġawaken": 23587,
    "Ġslam": 13060,
    "Ġdownward": 10334,
    "Ġins": 2780,
    "Ġmasking": 2418,
    "mid": 5616,
    "securer": 25602,
    "Ġprosecution": 12384,
    "Ġaverage": 3138,
    "Ġimpossible": 3540,
    "Ġhenry": 5197,
    "Ġfemin": 13437,
    "th": 408,
    "trad": 21077,
    "shorn": 22463,
    "Ġcream": 22724,
    "icle": 10836,
    "Ġratt": 7883,
    "Ġintentions": 10610,
    "ales": 3317,
    "incess": 15484,
    "Ġgovern": 10452,
    "ids": 21767,
    "ĠĠĠĠĠĠĠĠĠĠĠĠĠĠĠĠĠĠĠĠĠĠĠĠĠĠĠĠĠĠĠĠĠ": 12045,
    "Ġspouting": 9442,
    "Ġtyros": 26101,
    "Ġoverboard": 6047,
    "hs": 8379,
    "japan": 15376,
    "Ġname": 2083,
    "Ġadoration": 18290,
    "Ġcolon": 18765,
    "Ġvoices": 7878,
    "osoever": 17344,
    "possession": 12224,
    "Ġrhyme": 21982,
    "Ġwane": 21290,
    "progress": 11989,
    "Ġjoists": 19234,
    "Ġdons": 17889,
    "Ġgemin": 21613,
    "Ġbusks": 23342,
    "Ġmantelpiece": 15209,
    "whereby": 23419,
    "Ġwines": 21289,
    "Ġanimation": 11154,
    "sculpt": 16249,
    "flutter": 23973,
    "ve": 322,
    "Ġpopularly": 12244,
    "Ġdispirited": 23884,
    "Ġreverber": 19870,
    "es": 288,
    "Ġprofited": 19193,
    "Ġribs": 7103,
    "Ġslain": 8956,
    "examination": 25479,
    "Ġclink": 22349,
    "strange": 6088,
    "Ġfootman": 8289,
    "hip": 8745,
    "dra": 3412,
    "Ġclutches": 20020,
    "Ġruins": 16161,
    "Ġantichronical": 26609,
    "winds": 10524,
    "Ġspirits": 3697,
    "Ġaug": 6236,
    "Ġepicures": 25879,
    "Ġincapable": 7423,
    "difficulty": 12392,
    "Ġchina": 8041,
    "ucket": 2483,
    "Ġagitated": 7648,
    "ì": 173,
    "Ġredu": 1353,
    "Ġfront": 3448,
    "Ġauthoritative": 19563,
    "idation": 5021,
    "Ġexpress": 2195,
    "sies": 21056,
    "adoes": 11662,
    "away": 4623,
    "rabbit": 20593,
    "por": 2151,
    "purp": 8092,
    "Ġbrooded": 23106,
    "oh": 1577,
    "Ġwhirled": 14961,
    "Ġsustaining": 25334,
    "Ġrusty": 14965,
    "ĠĠĠĠĠĠĠĠĠĠĠĠĠĠĠĠ": 1220,
    "Ġq": 1082,
    "Ġsigns": 2441,
    "Ġpotential": 3617,
    "Ġcastaways": 19430,
    "ises": 3654,
    "Ġbits": 11591,
    "Ġprincip": 5599,
    "high": 6652,
    "Ġconfid": 7688,
    "Ġrepresented": 8941,
    "Ġimportance": 4899,
    "engines": 18929,
    "Ġhazarded": 25654,
    "Ġperennial": 22697,
    "Ġcorner": 4367,
    "Ġidentifies": 12016,
    "Ġwearisome": 19797,
    "Ġnuts": 17953,
    "Ġheightened": 8653,
    "Ġplu": 8803,
    "Ġinno": 1420,
    "Ġestablishment": 13581,
    "Ġbaronial": 23795,
    "Ġtistig": 26413,
    "lynes": 15707,
    "Ġcontroverted": 23253,
    "Ġsakes": 18326,
    "eked": 16404,
    "Ġdang": 9177,
    "Ġimagenet": 19247,
    ".,": 5990,
    "Ġqueens": 16703,
    "Ġdiscovering": 13359,
    "Ġbefall": 8833,
    "Ġimbalanced": 18334,
    "Ġdup": 21430,
    "Ġattested": 22632,
    "Ġsin": 1514,
    "painting": 17045,
    "Ġsmoking": 6430,
    "Ġcaps": 8417,
    "Ġviews": 7290,
    "Ġchiswick": 25561,
    "Ġostentatiously": 20471,
    "Ġcalifornia": 20532,
    "Ġcopse": 17066,
    "....": 11318,
    "eneva": 5118,
    "ators": 7830,
    "Ġbugs": 13650,
    "Ġlovely": 4709,
    "Ġcoincid": 20319,
    "bony": 15321,
    "Ġpe": 851,
    "Ġilluminate": 17193,
    "alously": 15632,
    "Ġrattler": 24999,
    "Ġfritters": 23258,
    "Ġsmoked": 10326,
    "Ġshar": 9253,
    "Ġflush": 14425,
    "acute": 22549,
    "Ġintrusted": 21996,
    "Ġoffences": 18691,
    "Ġscruple": 25050,
    "Ġendured": 6075,
    "Ġavoid": 5199,
    "portuguese": 25414,
    "Ġdisposing": 19377,
    "Ġchurned": 18385,
    "Ġamount": 8514,
    "pitch": 13300,
    "Ġbankrupt": 16796,
    "+": 15,
    "Ġdispel": 16596,
    "Ġunaccount": 22031,
    "Ġheadway": 18792,
    "arabian": 26446,
    "pping": 1426,
    "Ġbills": 17861,
    "Ġserve": 9371,
    "belong": 12125,
    "Ġreward": 6146,
    "penn": 18828,
    "Ġsog": 22085,
    "Ġlimbs": 5968,
    "gins": 12471,
    "Ġspeckled": 14310,
    "Ġyard": 5923,
    "olerably": 11675,
    "Ġmomentary": 11037,
    "Ġstrateg": 1354,
    "Ġcadiz": 17326,
    "Ġbulls": 23860,
    "Ġletter": 2197,
    "Ġveget": 11888,
    "ave": 981,
    "Ġrover": 18454,
    "Ġunctuous": 10269,
    "Ġtreatment": 12074,
    "edding": 4363,
    "brad": 20781,
    "kles": 17584,
    "sensations": 20053,
    "Ġtorment": 8678,
    "Ġloomed": 12303,
    "Ġinvesting": 19643,
    "Ġhorr": 3190,
    "Ġhypothesis": 14785,
    "Ġstroll": 13354,
    "drab": 23901,
    "Ġcolumb": 22857,
    "entions": 17976,
    "uns": 21874,
    "Ġsoftmax": 1688,
    "Ġmig": 13857,
    "Ġeffort": 8203,
    "Ġrio": 23893,
    "oblivious": 26582,
    "Ġprodigy": 19794,
    "Ġs": 265,
    "Ġmouths": 7491,
    "Ġpresents": 8246,
    "Ġxxxi": 24970,
    "congratulations": 20281,
    "atha": 6574,
    "Ġlessons": 7693,
    "ĭ": 238,
    "after": 2898,
    "telescope": 26562,
    "Ġobjecting": 18896,
    "ego": 4033,
    "Ġpush": 9187,
    "Ġsque": 18759,
    "Ġcanallers": 13629,
    "Ġsuddenness": 23384,
    "alizing": 17941,
    "ays": 6685,
    "Ġsurtout": 23466,
    "Ġdisliked": 12894,
    "Ġcentaurs": 23835,
    "ome": 535,
    "bene": 6114,
    "same": 5362,
    "tempt": 21081,
    "ocations": 23709,
    "ß": 160,
    "Ġinnovative": 1615,
    "Ġlatent": 19657,
    "strom": 15686,
    "Ġstrove": 9960,
    "Ġwood": 2291,
    "onstr": 12549,
    "sighted": 19787,
    "Ġresources": 2941,
    "daggoo": 13708,
    "Ġsepulchre": 20561,
    "Ġseparation": 11248,
    "Ġtoler": 7589,
    "Ġmead": 8839,
    "Ġcurb": 16238,
    "Ġbathe": 25444,
    "plex": 712,
    "affectionate": 24921,
    "mysteries": 26050,
    "Ġtribes": 20483,
    "Ġowners": 7664,
    "Ġglades": 19374,
    "Ġsubsisted": 19118,
    "Ġpanic": 11288,
    "Ġsubsequently": 16163,
    "civility": 17513,
    "idge": 14015,
    "Ġadam": 2128,
    "dham": 20831,
    "Ġparac": 12798,
    "Ġbegins": 7244,
    "dle": 3305,
    "Ġlabor": 10420,
    "Ġamid": 4957,
    "agos": 21908,
    "someone": 14564,
    "Ġimposs": 16616,
    "fel": 8738,
    "Ġself": 1780,
    "ignantly": 23267,
    "Ġjoky": 18406,
    "season": 14035,
    "Ġboard": 3382,
    "Ġbackwoods": 22664,
    "ĝ": 222,
    "Ġbl": 1188,
    "Ġlobsters": 13517,
    "Ġpregn": 22236,
    "Ġsmooth": 2778,
    "Ġoctavo": 15165,
    "Ġorange": 8489,
    "Ġmississippi": 20726,
    "Ġdisguise": 10049,
    "Ġperishing": 22402,
    "Ġoutlined": 22324,
    "Ġpavement": 9580,
    "appl": 9329,
    "famous": 16916,
    "begged": 18523,
    "Ġgard": 2190,
    "Ġother": 761,
    "Ġfavourable": 7960,
    "Ġasks": 5115,
    "Ġmajest": 24063,
    "Ġori": 8411,
    "Ġreckless": 13459,
    "Ġinstant": 2702,
    "wl": 17702,
    "Ġrapid": 1439,
    "carefully": 13370,
    "Ġhypocr": 19474,
    "aking": 978,
    "blast": 9590,
    "Ġroanoke": 22410,
    "Ġ66": 24367,
    "ordinary": 4404,
    "hurried": 11355,
    "ivened": 22970,
    "disappointment": 11427,
    "third": 8169,
    "Ġhipp": 21495,
    "Ġdays": 2078,
    "Ġbeliefs": 24581,
    "ouching": 13178,
    "Ġhap": 18195,
    "itory": 12570,
    "people": 7678,
    "Ġdisown": 22528,
    "squee": 15432,
    "Ġrake": 18643,
    "Ġimpl": 7195,
    "Ġapologize": 15130,
    "wooden": 24588,
    "Ġvir": 7002,
    "Ġawkward": 7075,
    "Ġamb": 9295,
    "Ġ101": 24407,
    "Ġfight": 5366,
    "neck": 14235,
    "aceti": 7113,
    "ousand": 2427,
    "Ġgag": 21596,
    "irwin": 8471,
    "Ġcomfits": 21863,
    "oves": 15405,
    "Ġmethinks": 10393,
    "Ġstr": 757,
    "Ġwriter": 11947,
    "Ġgouldings": 26188,
    "Ġmutable": 23957,
    "Ġaddresses": 3768,
    "Ġquee": 1980,
    "Ġappl": 1739,
    "Ġmanilla": 15962,
    "case": 5206,
    "crews": 15043,
    "Ġrim": 21969,
    "Ġcompiled": 22575,
    "recover": 24623,
    "Ġsinners": 18951,
    "eu": 17530,
    "Ġdress": 4019,
    "morland": 24154,
    "iments": 4943,
    "Ġdramat": 23219,
    "departed": 24792,
    "ĉ": 202,
    "Ď": 207,
    "orate": 10802,
    "Ġpauper": 26179,
    "Ġclock": 9536,
    "Ġbuoyancy": 20044,
    "Ġdoubling": 23324,
    "Ġfine": 1317,
    "Ġconversations": 9428,
    "Ġwis": 3727,
    "ufact": 10735,
    "leads": 21372,
    "Ġdriver": 16475,
    "Ġbenefited": 19400,
    "Ġcastaway": 16641,
    "bourine": 9399,
    "overhearing": 19055,
    "Ġrolls": 8335,
    "Ġstochastic": 3265,
    "Ġplaguy": 22607,
    "Ġdir": 21424,
    "Ġhappen": 5570,
    "idirectional": 2419,
    "Ġslender": 11942,
    "Ġreluctant": 20527,
    "Ġbiting": 17862,
    "Ġdoubts": 8584,
    "Ġser": 1672,
    "pressed": 6590,
    "Ġstrugg": 3216,
    "Ġunlikely": 10910,
    "Ġuncompromised": 20605,
    "Ġwearer": 21926,
    "Ġfoundations": 11075,
    "cocks": 23561,
    "Ġbrilliantly": 25123,
    "Ġlicensing": 20095,
    "stick": 15687,
    "Ġextremities": 19197,
    "Ġswearing": 16466,
    "o": 83,
    "Ġshaggy": 13572,
    "Ġimmemorially": 25384,
    "Ġsneezes": 24696,
    "Ġga": 4442,
    "Ġecho": 12669,
    "abil": 2008,
    "Ġdirection": 1795,
    "Ġbeggar": 9352,
    "lect": 1222,
    "Ġparlor": 13540,
    "Ġpatagon": 14496,
    "Ġphysiognomical": 25611,
    "Ġampl": 22484,
    "Ġteased": 18809,
    "woman": 5901,
    "raise": 18013,
    "holes": 12056,
    "honest": 17003,
    "Ġdestination": 19150,
    "used": 3259,
    "Ġsize": 1218,
    "Ġpanthe": 19655,
    "lengths": 24846,
    "Ġpyramid": 8806,
    "offered": 14517,
    "_--": 20763,
    "Ġequally": 5258,
    "v": 90,
    "Ġ49": 24082,
    "Ġpowder": 11277,
    "thes": 7391,
    "rifled": 21049,
    "Ġmitig": 1334,
    "Ġstepmother": 16091,
    "eled": 2357,
    "Ġthreshold": 2809,
    "useful": 16503,
    "Ġann": 4486,
    "Ġintention": 5638,
    "aven": 8210,
    "Ġeddying": 17117,
    "Ġhovers": 19079,
    "Ġpatagonia": 25856,
    "Ġilluminating": 25246,
    "Ġrobbery": 11910,
    "ners": 3270,
    "Ġincorporated": 25709,
    "Ġwager": 17793,
    "Ġ45": 14772,
    "tles": 10732,
    "Ġdesignated": 19523,
    "Ġlouisa": 13546,
    "iss": 2178,
    "gentleman": 7518,
    "Ġdiscrete": 2476,
    "Ġtoy": 15637,
    "Ġperfidious": 25666,
    "elevating": 20408,
    "Ġshould": 863,
    "gh": 3800,
    "Ġeel": 18003,
    "arboard": 7266,
    "Ġequality": 16364,
    "uck": 1231,
    "skinned": 25388,
    "Ġcontinental": 19707,
    "Ġharness": 17929,
    "sails": 7497,
    "Ġhardest": 18913,
    "humanity": 24839,
    "Ġparacels": 13669,
    "corrupt": 14896,
    "Ġconsidering": 4613,
    "Ġtasselled": 25921,
    "Ġunduly": 25994,
    "whence": 23217,
    "ĠĠĠĠĠĠĠĠĠĠĠĠĠĠĠĠĠĠĠĠĠĠĠĠĠĠĠĠĠĠĠĠĠĠĠĠĠĠĠĠĠĠĠĠĠĠĠĠ": 7990,
    "ca": 20794,
    "hunted": 16832,
    "Ġcleans": 18949,
    "Ġgallant": 8659,
    "ifers": 15785,
    "Ġinflex": 20636,
    "Ġstirring": 10582,
    "fordshire": 4674,
    "Ġsternly": 16709,
    "Ġaright": 11743,
    "Ġmalignant": 14879,
    "Ġcritical": 7474,
    "Ġdeath": 2044,
    "Ġthroes": 24573,
    "cloth": 11939,
    "Ġtheore": 1832,
    "Ġirreduc": 5491,
    "Ġbond": 21386,
    "Ġreveal": 11202,
    "Ġassisting": 13258,
    "59": 17474,
    "Ġhard": 1444,
    "5": 25,
    "onsensical": 18576,
    "Ġcascade": 20583,
    "jug": 17580,
    "Ġpriests": 15041,
    "tered": 2230,
    "poky": 17644,
    "ampl": 21846,
    "benefact": 24641,
    "foolish": 12349,
    "idirection": 2409,
    "Ġintricacies": 15140,
    "Ġspermaceti": 8970,
    "Ġconception": 10322,
    "Ġezekiel": 26193,
    "prairies": 20568,
    "part": 2571,
    "Ġsomehow": 4841,
    "Á": 130,
    "insensibility": 23072,
    "Ġdrawers": 12108,
    "Ġbeck": 14010,
    "continuing": 24477,
    "prophecy": 22839,
    "Ġdenoted": 16566,
    "culous": 11142,
    "Ġhval": 21490,
    "Ġwhel": 15869,
    "Ġbigger": 19763,
    "casks": 20405,
    "jur": 17578,
    "Ġties": 12531,
    "Ġfeedforward": 2325,
    "Ġgodfre": 14529,
    "Ġmes": 17797,
    "leness": 4690,
    "Ġbegan": 2024,
    "Ġgamy": 18000,
    "Ġfragmentary": 25855,
    "ushing": 5731,
    "Ġworried": 22928,
    "Ġexter": 7397,
    "became": 10517,
    "sulphur": 25909,
    "Ġabund": 8868,
    "Ġrecogn": 2737,
    "uneasiness": 23685,
    "arts": 6565,
    "knowing": 10439,
    "Ġbridge": 8350,
    "Ġbil": 15568,
    "Ġpince": 21474,
    "nants": 17613,
    "Ġforeign": 9875,
    "oled": 17619,
    "ohnson": 16329,
    "Ġoverdone": 22366,
    "Ġclass": 780,
    "Ġpeeping": 16130,
    "anyth": 5438,
    "Ġsituations": 10494,
    "Ġtendinous": 16931,
    "friendly": 13285,
    "ships": 5486,
    "Ġgi": 15669,
    "Ġconstitutes": 13554,
    "yourself": 6744,
    "iner": 2670,
    "Ġscraping": 13417,
    "idelburgh": 10564,
    "Ġben": 1111,
    "Ġhadn": 9722,
    "Ġtruck": 19513,
    "iable": 3334,
    "Ġtong": 4869,
    "Ġresc": 4503,
    "Ġlestrade": 5826,
    "Ġare": 526,
    "range": 3491,
    "Ġjunior": 15101,
    "instances": 13321,
    "Ġinscriptions": 20011,
    "Ġmechanically": 14397,
    "ched": 1546,
    "Ġdied": 4107,
    "Ġmental": 21321,
    "Ġair": 1837,
    "Ġreturn": 1707,
    "Ġbrood": 23103,
    "Ġswitzerland": 10382,
    "Ġsocks": 14132,
    "Ġrotterdam": 25476,
    "Ġpoet": 8209,
    "oses": 3944,
    "torm": 11533,
    "Ġupstairs": 5837,
    "gast": 20872,
    "try": 7813,
    "Ġfixedly": 19249,
    "Ġcurves": 18848,
    "Ġincommun": 25309,
    "Ġrank": 6260,
    "Ġcomputation": 966,
    "bble": 17485,
    "excitement": 19671,
    "terday": 4704,
    "Ġtrib": 13820,
    "rack": 18012,
    "hap": 17559,
    "Ġdeveloped": 16341,
    "bun": 12440,
    "Ġlumps": 21559,
    "Ġdeem": 18135,
    "Ġaffectionate": 5584,
    "Ġinclu": 1103,
    "magn": 10613,
    "Ġlifts": 25359,
    "Ġtorch": 25032,
    "Ġsurveying": 25326,
    "Ġcorpor": 23044,
    "Ġkettle": 26233,
    "scream": 11079,
    "Ġtiller": 8968,
    "irs": 14072,
    "Ġrecurring": 23234,
    "Ġprison": 5403,
    "iver": 2051,
    "obviously": 25243,
    "Ġalmanac": 26485,
    "Ġsustained": 13483,
    "hoisting": 23718,
    "Ġquitting": 7646,
    "Ġexist": 9234,
    "iffe": 21906,
    "ske": 13783,
    "Ġbandages": 24425,
    "Ġgained": 4532,
    "Ġannihilation": 15167,
    "77": 15302,
    "morning": 4858,
    "Ġliterature": 17149,
    "stirring": 20428,
    "Ġramadans": 25122,
    "grampus": 18617,
    "Ġpierce": 17035,
    "Ġhabitual": 24788,
    "Ġanxiety": 5408,
    "Ġprotection": 9464,
    "imin": 1770,
    "Ġstarboard": 7605,
    "Ġimplac": 24874,
    "urious": 21706,
    "surface": 10533,
    "Ġhyperborean": 26340,
    "Ġbeliever": 25849,
    "Ġarriving": 19219,
    "Ġunobstructed": 18264,
    "Ġturns": 4980,
    "Ġcloudless": 16669,
    "hardly": 6492,
    "Ġneglected": 10380,
    "fen": 20851,
    "Ġcoherent": 3262,
    "Ġberyl": 20492,
    "Ġrode": 16000,
    "Ġassizes": 11111,
    "ux": 7814,
    "Ġarom": 15494,
    "peculiarities": 13472,
    "Ġdancing": 5703,
    "hill": 15364,
    "Ġsou": 1888,
    "Ġfootfall": 14661,
    "Ġjudge": 5502,
    "trust": 21080,
    "Ġcensus": 15098,
    "Ġsynthe": 26007,
    "Ġcynicism": 25771,
    "ĠâĢľâĢĶ": 9737,
    "forty": 9376,
    "Ġtossed": 5816,
    "passing": 14813,
    "iving": 1721,
    "values": 4972,
    "Ġobtru": 18672,
    "Ġinsipid": 26313,
    "ckinridge": 11722,
    "Ġgallop": 19557,
    "Ġholy": 6593,
    "whaleman": 23437,
    "Ġencounter": 6630,
    "gave": 7801,
    "Ġrecalled": 8541,
    "Ġmun": 12565,
    "uncomfortable": 18162,
    "Ġdownstairs": 11226,
    "Ġanybody": 5314,
    "Ġsle": 2014,
    "uated": 10134,
    "Ġenglishman": 11231,
    "inglass": 21304,
    "Ġglare": 13019,
    "Ġjenny": 20164,
    "ergy": 2360,
    "arranged": 19320,
    "ond": 1160,
    "Ġradiating": 24329,
    "waves": 10744,
    "parlour": 16400,
    "bu": 5132,
    "Ġcontracted": 12863,
    "Ĥ": 229,
    "Ġhideous": 5985,
    "owl": 12686,
    "object": 6884,
    "Ġapparatus": 24908,
    "Ġevap": 19625,
    "Ġextras": 22718,
    "Ġsuff": 1303,
    "ogue": 9789,
    "Ġfaultless": 24538,
    "Ġwash": 9706,
    "Ġcontest": 18474,
    "Ġmagical": 23101,
    "Ġrejoicing": 13422,
    "composed": 14742,
    "stolidity": 21660,
    "Ġencamp": 22802,
    "Ġtwisting": 18657,
    "Ġcasket": 19726,
    "impul": 16557,
    "Ġkneeling": 12145,
    "opposing": 24821,
    "control": 16544,
    "sequ": 2400,
    "ination": 2917,
    "horse": 8610,
    "Ġsummons": 13233,
    "beards": 22495,
    "visitor": 15060,
    "Ġapple": 14168,
    "building": 17310,
    "masculine": 24385,
    "Ġcomprehend": 6495,
    "Ġpublic": 4329,
    "children": 9058,
    "Ġfolio": 11921,
    "Ġmalady": 24390,
    "opp": 6963,
    "Ġsneeze": 24697,
    "Ġslabs": 13063,
    "Ġton": 15466,
    "Ġhump": 5855,
    "sign": 8389,
    "al": 292,
    "Ġrevealed": 6753,
    "Ġscholar": 26111,
    "Ġstepped": 7053,
    "Ġforbearing": 25100,
    "Ġeas": 2351,
    "ateral": 19379,
    "Ġsurpassing": 20470,
    "Ġindignantly": 16939,
    "Ġsom": 1277,
    "teen": 6371,
    "Ġhappiest": 11884,
    "Ġineff": 12637,
    "ĠâĢĶâĢĶ": 25757,
    "conceivable": 17131,
    "rib": 1947,
    "Ġpaths": 2567,
    "Ġreligious": 25124,
    "ulent": 21866,
    "commanded": 16988,
    "many": 5250,
    "Ġmature": 17800,
    "seized": 14036,
    "Ġoutcast": 18414,
    "Ġclattered": 22353,
    "Ġsixpence": 19318,
    "Ġprovincial": 20651,
    "fi": 12464,
    "Ġunavailing": 26216,
    "iag": 20917,
    "Ġresuming": 12896,
    "Ġherring": 14127,
    "Ġdreamed": 16630,
    "Ġsmart": 11818,
    "Ġforc": 9230,
    "Ġromish": 19586,
    "Ġper": 589,
    "Ġbrace": 11213,
    "Ġspoke": 2748,
    "Ġencaps": 12963,
    "hanging": 10103,
    "Ġnoon": 6561,
    "Ġapplicable": 19022,
    "maj": 18802,
    "ć": 200,
    "Ġnecessary": 4469,
    "Ġbilliard": 16688,
    "umbling": 6613,
    "twilight": 23701,
    "atter": 659,
    "Ġservox": 23872,
    "Ġdumbly": 24989,
    "Ġcoachman": 15000,
    "unhes": 21879,
    "Ġenjoined": 18191,
    "Ġadvoc": 12996,
    "hatchet": 24818,
    "ck": 436,
    "Ġcased": 21348,
    "Ġexhaustion": 14962,
    "Ġplunder": 22605,
    "combination": 25487,
    "lanterns": 17430,
    "Ġcollateral": 20074,
    "Ġlabors": 23332,
    "Ġbask": 8118,
    "Ġcomplex": 750,
    "Ġdiabolical": 20344,
    "Ġwhim": 14000,
    "Ġspine": 7407,
    "te": 995,
    "msprop": 2622,
    "seated": 11673,
    "ward": 705,
    "Ġrebell": 21672,
    "Ġhedge": 8365,
    "Ġill": 2193,
    "Ġeats": 15680,
    "Ġdawned": 14995,
    "Ġmid": 2613,
    "bus": 5355,
    "Ġturbid": 23612,
    "Ġindulged": 13418,
    "farm": 15353,
    "except": 5383,
    "mother": 5480,
    "wer": 8397,
    "tube": 20413,
    "omit": 13979,
    "Ġpostpone": 17308,
    "¿": 128,
    "vex": 21701,
    "alions": 21504,
    "Ġoppose": 16519,
    "Ġstrasburgh": 18614,
    "Ġsilvery": 13097,
    "Ġwhitened": 24867,
    "Ġinterpreted": 1708,
    "Ġinsupportable": 13933,
    "yesterday": 10356,
    "Ġattorney": 18625,
    "Ġeffaced": 18515,
    "owards": 4592,
    "wretched": 10743,
    "Ġcorresponds": 19823,
    "important": 7114,
    "Ġsentiments": 7962,
    "similar": 13454,
    "Ġyojo": 7611,
    "Ġape": 21198,
    "Ġcanada": 22169,
    "lips": 13751,
    "affrail": 11207,
    "aphs": 22340,
    "Ġ10": 5249,
    "Ġvon": 14082,
    "permission": 15899,
    "ellation": 12753,
    "Ġauto": 23315,
    "meat": 18673,
    "Ġassert": 7122,
    "Ġcompanies": 14558,
    "Ġscorch": 20069,
    "Ġhol": 1181,
    "include": 23590,
    "Ġtiar": 21169,
    "Ġindign": 6175,
    "plunging": 25987,
    "mered": 8219,
    "Ġterms": 2560,
    "bergen": 14342,
    "Ġfootmarks": 19338,
    "narrow": 11510,
    "Ġuncomp": 15844,
    "contr": 12059,
    "Ġadored": 18291,
    "Ġsank": 5076,
    "itche": 7579,
    "Ġmorocc": 22977,
    "Ġlavenza": 17972,
    "pits": 15414,
    "Ġverdure": 10615,
    "Ġsweetheart": 19397,
    "Ġstoop": 16313,
    "dearest": 11738,
    "Ġcomely": 21859,
    "Ġtablet": 19206,
    "Ġembarks": 22948,
    "shore": 10309,
    "Ġfel": 1518,
    "machine": 997,
    "Ġroyal": 5601,
    "Ġtobacco": 8368,
    "wn": 722,
    "Ġmending": 17805,
    "Ġpremises": 10490,
    "osures": 22264,
    "Ġtit": 8401,
    "punctual": 26356,
    "grown": 10102,
    "Ġalteration": 9549,
    "Ġmanoir": 22335,
    "contin": 16543,
    "Ġ120": 16858,
    "airing": 16179,
    "Ġspo": 6846,
    "seeing": 7080,
    "rubbery": 17343,
    "describe": 1515,
    "suspected": 12374,
    "Ġinclination": 6626,
    "Ġundiscernible": 22072,
    "Ġpence": 17906,
    "impossible": 8828,
    "Ġlug": 15655,
    "Ġshadow": 5595,
    "Ġplague": 11827,
    "Ġdoub": 1838,
    "ivance": 22079,
    "Ġoysters": 20581,
    "Ġalman": 21785,
    "Ġangles": 23589,
    "ise": 707,
    "Ġunfrequent": 24108,
    "compasses": 19460,
    "Ġportcull": 23865,
    "Ġazores": 20195,
    "imitably": 21714,
    "involuntarily": 20417,
    "irmed": 9242,
    "Ġairs": 14511,
    "Ġdoubly": 16388,
    "Ġencamped": 22803,
    "Ġadmission": 23556,
    "Ġhospitable": 17058,
    "crawling": 16958,
    "Ġstories": 10867,
    "!âĢĶ": 2454,
    "Ġprocedural": 12032,
    "bennet": 5353,
    "Ġbremen": 23348,
    "Ġscaramouch": 23830,
    "Ġche": 1764,
    "Ġflame": 7448,
    "Ġcrutch": 23445,
    "Ġcrippled": 25279,
    "Ġchamois": 16800,
    "Ġanoints": 25539,
    "distinction": 19573,
    "Ġrashly": 20307,
    "Ġremorse": 6442,
    "nx": 17607,
    "Ġoccasions": 7989,
    "Ġinnocence": 6478,
    "ll": 1139,
    "warm": 8103,
    "onness": 21256,
    "Ġsea": 1209,
    "self": 618,
    "monkey": 19171,
    "Ġonset": 12714,
    "Ġfeasts": 25370,
    "shut": 10983,
    "Ġsigmoid": 2463,
    "Ġ2": 2933,
    "shrouded": 26362,
    "Ġfoot": 3162,
    "ments": 1401,
    "morn": 20977,
    "Ġdandy": 17893,
    "Ġjung": 12839,
    "Ġtropic": 17063,
    "Ġconcer": 23325,
    "allers": 22201,
    "gown": 9599,
    "Ġetc": 7086,
    "Ġ*/": 10376,
    "Ġascending": 14855,
    "Ġtears": 4228,
    "Ġinjustice": 9193,
    "Ġhissing": 15793,
    "Ġtrophy": 20009,
    "tawn": 21082,
    "Ġprime": 10406,
    "det": 5207,
    "Ġend": 1475,
    "timidity": 25753,
    "Ġforbid": 7867,
    "tottenham": 25419,
    "Ġentreated": 9954,
    "ann": 5803,
    "Ġconcoct": 19048,
    "bitt": 17486,
    "Ġpleasing": 6192,
    "glance": 16587,
    "ĠĠĠĠĠ": 3524,
    "georgiana": 26020,
    "Ġsple": 21217,
    "remes": 21239,
    "grin": 19106,
    "Ġselling": 21226,
    "Ġsacrific": 15018,
    "Ġincrease": 9372,
    "Ġreplenished": 13638,
    "social": 11025,
    "least": 8789,
    "Ġadmiration": 5329,
    "Ġwigwam": 11430,
    "Ġabomination": 22282,
    "aching": 5832,
    "locked": 7679,
    "aboard": 21798,
    "meas": 7434,
    "illed": 2621,
    "Ġmum": 13859,
    "Ġconceive": 8463,
    "moreover": 12971,
    "nuee": 17431,
    "Ġingrat": 16840,
    "exposure": 19258,
    "Ġrans": 21970,
    "sold": 15428,
    "Ġeverybody": 4507,
    "Ġcivil": 4677,
    "Ġinsect": 12639,
    "Ġprone": 18968,
    "ator": 1923,
    "pronounce": 25193,
    "Ġsculpture": 26016,
    "Ġay": 15493,
    "Ġdifference": 1490,
    "crane": 24086,
    "precedented": 15176,
    "Ġsweeping": 8988,
    "gladness": 25195,
    "Ġwarmest": 16485,
    "Ġchosen": 7201,
    "Ġearthquake": 14627,
    "Ġtreatise": 19347,
    "hereafter": 19218,
    "Ġillust": 8264,
    "Ġneglecting": 25009,
    "Ġlaunched": 14927,
    "ckery": 22094,
    "Ġshin": 18227,
    "dimly": 15348,
    "Ġimmaculate": 19488,
    "deal": 12802,
    "Ġenthusiasm": 8066,
    "Ġsmothered": 20721,
    "Ġrecurred": 18977,
    "Ġsatiated": 22905,
    "lonely": 20958,
    "Ġchas": 18379,
    "acle": 4714,
    "Ġpillar": 21476,
    "oil": 7806,
    "Ġsplashed": 23749,
    "Ġlull": 15654,
    "Ġwonderful": 4560,
    "Ġadmeasurements": 26226,
    "Ġearnest": 3928,
    "Ġencouraged": 9358,
    "Ġstruggled": 9908,
    "Ġheaved": 9386,
    "unted": 6999,
    "Ġprettier": 23766,
    "Ġabound": 8867,
    "spikes": 10344,
    "Ġreserved": 7515,
    "Ġtreacherous": 13556,
    "altogether": 12642,
    "Ġris": 4885,
    "Ġxii": 11992,
    "med": 1911,
    "Ġpursue": 6316,
    "Ġbust": 10170,
    "Ġthousands": 6750,
    "Ġcultivation": 17146,
    "Ġgrieved": 8299,
    "bows": 10084,
    "feeder": 12363,
    "brother": 7093,
    "Ġinnermost": 12163,
    "Ă": 195,
    "Ġjuicy": 25371,
    "Ġmotive": 6093,
    "Ġrogue": 22408,
    "otions": 7181,
    "user": 5105,
    "beauty": 20106,
    "ouri": 21450,
    "))": 1516,
    "ature": 520,
    "Ġgans": 5822,
    "Ġsoliloqu": 11887,
    "Ġtenderly": 11316,
    "Ġbart": 17857,
    "Ġpeaceful": 9458,
    "oga": 22711,
    "Ġknitting": 24219,
    "Ġbundle": 13427,
    "Ġterr": 3272,
    "Ġclasping": 20211,
    "Ġrelics": 16197,
    "Ġterrors": 6918,
    "Ġliar": 22412,
    "Ġassuredly": 14823,
    "apparat": 22849,
    "Ġlament": 7858,
    "Ġstud": 1610,
    "Ġgrasped": 8035,
    "Ġweights": 898,
    "Ġten": 2385,
    "ondon": 2704,
    "Ġgratifying": 13307,
    "Ġlikeness": 11181,
    "Ġremorselessly": 16967,
    "Ġspray": 7896,
    "ľ": 255,
    "Ġsearched": 15822,
    "Ġlie": 4403,
    "walls": 25346,
    "retired": 11938,
    "Ġperfect": 2554,
    "Ġjoys": 13222,
    "Ġbiological": 1935,
    "iquet": 17575,
    "Ġtwitching": 25683,
    "Ġmultiplicity": 19276,
    "Ġhourly": 23306,
    "Ġscaling": 3629,
    "Ġpaul": 12064,
    "countryman": 24639,
    "Ġlimit": 10445,
    "Ġtenants": 23548,
    "hangs": 15370,
    "Ġfrankly": 16745,
    "Ġendeavour": 4676,
    "bet": 6111,
    "Ġpreceding": 7528,
    "Ġbamboo": 17438,
    "Ġadvent": 4353,
    "Ġtrappings": 23085,
    "lim": 9609,
    "Ġbuying": 23998,
    "Ġperemptory": 25740,
    "Ġhatter": 4108,
    "salesman": 20673,
    "Ġmathematical": 3350,
    "anations": 12579,
    "mosp": 8090,
    "thine": 15827,
    "dington": 12068,
    "Ġulster": 14997,
    "Ġy": 341,
    "Ġwithdra": 6399,
    "âĢĻ": 378,
    "Ġtroublesome": 24004,
    "lovel": 22515,
    "Ġunexampled": 20362,
    "Ġcompress": 21860,
    "Ġtranqu": 4603,
    "ical": 752,
    "sphere": 22734,
    "Ġpatches": 4234,
    "ĠâĢĶâĢľ_": 17718,
    "ocris": 23710,
    "Ġtemple": 7654,
    "Ġwrinkles": 8575,
    "Ġtwin": 12930,
    "Ġkn": 4543,
    "Ä": 133,
    "Ġchilled": 18382,
    "Ġsleek": 23386,
    "aloud": 17942,
    "venor": 16100,
    "Ġexhaust": 6400,
    "Ġremote": 8923,
    "Ġpurchase": 12262,
    "perseus": 26005,
    "urpation": 16304,
    "Ġreads": 23115,
    "Ġcovers": 18593,
    "Ġfeasible": 22215,
    "Ġpointing": 5661,
    "aloons": 20013,
    "gratulation": 24347,
    "vag": 8769,
    "ocean": 12403,
    "necess": 4895,
    "devouring": 24952,
    "Ġack": 5621,
    "dro": 6647,
    "Ġgnashed": 20135,
    "Ġfix": 2506,
    "eric": 3468,
    "downstairs": 23922,
    "Ġarmchair": 8272,
    "Ġsaves": 18324,
    "Ġsatir": 18793,
    "Ġlizard": 12657,
    "child": 5537,
    "kindness": 10508,
    "ille": 9222,
    "rations": 10725,
    "victim": 25531,
    "indifferent": 14209,
    "witted": 17707,
    "Ġpassive": 22844,
    "Ġdriven": 6200,
    "Ġintentionally": 24521,
    "qualities": 25045,
    "Ġdedication": 2915,
    "ivility": 12786,
    "Ġscrews": 25178,
    "prior": 21034,
    "Ġharbors": 24901,
    "auley": 22624,
    "Ġdiddled": 22670,
    "Ġsequences": 1751,
    "Ġcolossal": 11461,
    "Ġczar": 12577,
    "meaning": 2911,
    "Ġhorrible": 4904,
    "bots": 10085,
    "Ġmetallic": 19075,
    "sales": 17667,
    "Ġthorough": 6247,
    "Ġlands": 6596,
    "Ġwrecks": 16818,
    "hook": 12055,
    "Ġsubmitted": 11873,
    "Ġpalm": 10516,
    "enjoy": 10776,
    "eral": 9162,
    "Ġprefer": 6417,
    "Ġcontext": 1727,
    "kinder": 24845,
    "ributed": 8216,
    "Ġindependent": 9019,
    "Ġtooks": 23330,
    "mount": 9132,
    "Ġsouls": 6310,
    "Ġeventually": 8621,
    "Ġcupidity": 24533,
    "rodden": 21538,
    "if": 376,
    "suited": 22644,
    "Ġsymmetry": 20368,
    "Ġchains": 8252,
    "Ġfidgeted": 25889,
    "Ġemperor": 15160,
    "collect": 16564,
    "Ġcreditors": 20132,
    "Ġcomprehensiveness": 25074,
    "ust": 493,
    "elope": 14461,
    "fo": 5279,
    "Ġmyst": 4048,
    "Ġcausing": 16360,
    "Ġarising": 10935,
    "impl": 21710,
    "Ġgrenadier": 21619,
    "ulls": 8842,
    "Ġrelates": 12982,
    "Ġsyntax": 958,
    "Ġsickly": 16774,
    "substance": 15233,
    "safe": 10057,
    "fleece": 19950,
    "Ġleaning": 5228,
    "Ġoblong": 14322,
    "10": 17473,
    "niece": 20996,
    "particular": 5757,
    "Ġdungeon": 16996,
    "Ġcompos": 22574,
    "cure": 11476,
    "Ġoffices": 14338,
    "Ġvalleys": 14920,
    "Ġwould": 652,
    "endurable": 22232,
    "Ġfitted": 6245,
    "Ġasc": 4764,
    "seek": 8841,
    "Ġswitching": 23060,
    "Ġineffect": 13931,
    "ration": 2005,
    "apprec": 22847,
    "diss": 17523,
    "Ġrelinqu": 12984,
    "Ġsenior": 17172,
    "Ġsimultaneously": 4308,
    "Ġturing": 7566,
    "clothes": 9060,
    "Ġvulture": 17340,
    "dissatisfied": 26612,
    "aring": 1479,
    "eries": 6809,
    "was": 1422,
    "description": 11095,
    "Ġfing": 3756,
    "Ġapo": 9633,
    "Ġimpulses": 19964,
    "Ġeasy": 3449,
    "Ġrascally": 26506,
    "Ġheire": 18038,
    "marest": 20981,
    "Ġlouis": 8358,
    "ract": 932,
    "Ġjail": 22298,
    "Ġlung": 7168,
    "Ġclosing": 11775,
    "iterranean": 15553,
    "hester": 9634,
    "lue": 8511,
    "Ġloc": 10916,
    "Ġconceits": 19392,
    "benevol": 12229,
    "metic": 14985,
    "Ġclung": 10959,
    "rad": 2155,
    "Ġhideousness": 16915,
    "Ġaddison": 14233,
    "Ġflock": 21414,
    "Ġfarther": 5957,
    "mistakable": 20654,
    "creature": 5347,
    "other": 1314,
    "Ġsnarled": 25714,
    "eight": 9594,
    "mush": 20978,
    "Ġforgiven": 24030,
    "lucas": 15153,
    "Ġsilently": 6895,
    "snapping": 24849,
    "Ġdependent": 14300,
    "Ġnew": 1195,
    "Ġincorrupt": 19236,
    "Ġstiggs": 25792,
    "ogene": 18676,
    "mitting": 20974,
    "Ġscre": 9740,
    "Ġcan": 469,
    "Ġhimself": 1350,
    "hol": 3837,
    "valued": 2853,
    "homely": 25617,
    "germ": 15358,
    "riers": 18187,
    "Ġprey": 6416,
    "Ġthither": 6821,
    "Ġalle": 11668,
    "Ġblasphemy": 26115,
    "Ġpikes": 21481,
    "Ġexecut": 4244,
    "ese": 4440,
    "arm": 1357,
    "Ġanecdote": 26355,
    "0": 20,
    "nal": 1901,
    "Ġintrude": 25990,
    "Ġcharacters": 9374,
    "consuming": 25674,
    "society": 9975,
    "Ġaffright": 9335,
    "Ġentertainment": 12225,
    "war": 6803,
    "Ġsince": 1798,
    "mmar": 951,
    "cst": 10087,
    "ique": 8747,
    "Ġmemo": 18118,
    "pine": 13770,
    "Ġpersecutor": 26096,
    "Ġwedged": 24935,
    "Ġbravely": 23841,
    "Ġsleeping": 6321,
    "Ġfath": 7364,
    "Ġcautiousness": 19867,
    "icates": 11620,
    "blo": 6355,
    "contrivance": 26316,
    "bec": 4050,
    "Ġballasted": 23982,
    "Ġglobu": 23273,
    "troubled": 17111,
    "intellig": 5321,
    "phew": 6369,
    "Ġdinnertime": 16719,
    "Ġheaped": 18039,
    "Ġwrecked": 9969,
    "Ġdefend": 9343,
    "Ġstubb": 1788,
    "Ġchoking": 15937,
    "save": 13786,
    "Ġpedro": 15066,
    "fth": 20857,
    "wife": 8102,
    "Ġidly": 16405,
    "Ġunce": 11714,
    "Ġplausible": 26553,
    "model": 4965,
    "journey": 8749,
    "Ġinsult": 6749,
    "nial": 20985,
    "Ġcottage": 4733,
    "Ġchocks": 13347,
    "impression": 15714,
    "Ġheroes": 10579,
    "Ġsalutation": 12399,
    "Ġbird": 3755,
    "comes": 5394,
    "Ġenvy": 13205,
    "Ġade": 22105,
    "Ġinhabitants": 7524,
    "ressing": 8922,
    "mistake": 24527,
    "comprehens": 16176,
    "Ġwaterproof": 19089,
    "Ġearl": 7677,
    "ray": 2436,
    "intercourse": 14638,
    "poling": 12222,
    "ause": 1313,
    "Ġefforts": 11804,
    "estation": 15923,
    "Ġdam": 2215,
    "Ġdisadvantage": 12893,
    "somehow": 12013,
    "firmly": 20282,
    "Ġelect": 10844,
    "Ġpitied": 14692,
    "Ġpool": 5173,
    "Ġresume": 18565,
    "ane": 1176,
    "Ġforest": 9874,
    "atives": 2236,
    "Ġray": 18642,
    "Ġmildly": 9032,
    "causing": 25519,
    "Ġreplied": 2264,
    "beries": 22748,
    "misfortunes": 16756,
    "Ġcou": 5288,
    "wheeling": 22869,
    "Ġsignificance": 13281,
    "Ġregardless": 19325,
    "connected": 1309,
    "ittarius": 22381,
    "angel": 5726,
    "vel": 2384,
    "achalot": 15866,
    "anean": 7443,
    "Ġproductions": 22951,
    "Ġintelligent": 1445,
    "persecutor": 26529,
    "Ġmart": 10781,
    "Ġvisible": 4776,
    "Ġtre": 2535,
    "Ġbend": 9173,
    "sa": 8761,
    "Ġproves": 14040,
    "acter": 2505,
    "Ġbambooz": 26119,
    "Ġverify": 12090,
    "activity": 22635,
    "Ġdig": 6137,
    "Ġstrangest": 14797,
    "Ġpo": 737,
    "endure": 22229,
    "Ġmorris": 18845,
    "Ġlurch": 21558,
    "Ġchurning": 15940,
    "Ġart": 759,
    "perpetually": 20514,
    "Ġthey": 575,
    "Ġafter": 871,
    "ĠâĢĶ_": 3455,
    "Ġxlix": 25860,
    "Ġthrough": 602,
    "Ġparaphrasing": 26526,
    "âĢĿ;": 11672,
    "urbed": 15712,
    "Ġobservations": 13555,
    "Ġsmiling": 5475,
    "asingly": 17962,
    "obscure": 23100,
    "Ġperpetually": 17069,
    "Ġberm": 21385,
    "r": 86,
    "adagrad": 9694,
    "Ġparsonage": 7125,
    "Ġventure": 7741,
    "Ġfairly": 6327,
    "seventh": 12717,
    "Ġracket": 22657,
    "significant": 25084,
    "ind": 568,
    "Ġvap": 6837,
    "Ġcountry": 2531,
    "entle": 1737,
    "Ã¦us": 14818,
    "Ġinconven": 7587,
    "À": 129,
    "Ġfainting": 16897,
    "Ġdirect": 1473,
    "gr": 2087,
    "eping": 5834,
    "shaven": 18497,
    "token": 21084,
    "Ġvale": 14083,
    "fort": 1748,
    "tarpaulins": 26405,
    "Ġreeling": 18034,
    "Ġbeautifully": 13268,
    "Ġmiller": 19884,
    "Ġdazed": 15599,
    "alice": 3207,
    "Ġaccents": 14211,
    "Ġcarve": 23095,
    "Ġtechn": 9378,
    "Ġmethod": 1476,
    "Ġdraught": 9847,
    "smallest": 23914,
    "Ġlocking": 18298,
    "Ġscenes": 5730,
    "ards": 2503,
    "Ġnewcomer": 26040,
    "hus": 5072,
    "ici": 8442,
    "Ġuncommon": 5025,
    "Ġsleep": 2399,
    "usages": 22294,
    "Ġshudderings": 25201,
    "Ġsquid": 11880,
    "Ġvancouver": 26565,
    "Ġconfines": 23309,
    "happen": 19332,
    "Ġdespite": 19355,
    "forecastle": 10992,
    "but": 592,
    "erringly": 16213,
    "Ġpaddled": 20203,
    "Ġscreams": 24604,
    "ĠĠĠĠĠĠĠĠĠĠĠĠĠĠĠĠĠĠĠĠĠĠĠĠĠĠĠĠĠĠĠĠĠĠĠĠĠĠĠĠĠĠĠĠĠ": 9955,
    "Ġgruff": 21617,
    "Ġdecoding": 3081,
    "Ġopulent": 23630,
    "Ġmeditations": 25015,
    "ifications": 9732,
    "prehend": 14236,
    "kill": 13745,
    "Ġbreezes": 14870,
    "Ġtake": 1578,
    "Ġnecess": 3473,
    "Ġexotic": 21835,
    "Ġsnap": 11203,
    "icult": 3341,
    "Ġsecrecy": 7316,
    "alcul": 15631,
    "gyric": 19110,
    "!": 5,
    "inlaid": 21192,
    "Ġshag": 9254,
    "Ġcell": 6239,
    "Ġproficiency": 19194,
    "Ġbuttoned": 25369,
    "Ġpenetration": 19918,
    "abound": 15743,
    "acceptable": 25184,
    "Ġnovelties": 24776,
    "wrath": 23757,
    "unched": 10238,
    "rolling": 9063,
    "olstad": 7612,
    "omited": 21664,
    "pivot": 21032,
    "ĠĠĠĠĠĠĠĠĠĠĠĠĠĠĠĠĠĠĠĠĠĠĠĠĠĠĠĠĠĠĠĠĠĠĠĠĠĠĠĠĠĠĠĠĠĠĠĠĠ": 20040,
    "sought": 15429,
    "uther": 8821,
    "Ġinch": 7851,
    "sequent": 6831,
    "Ġmarvels": 11086,
    "Ġtrades": 8233,
    "Ġtidings": 11399,
    "abst": 21792,
    "nephew": 26397,
    "ots": 3293,
    "cordiality": 25140,
    "Ġstared": 8456,
    "stationed": 25454,
    "Ġtruth": 3320,
    "vanished": 15063,
    "Ġswamp": 14437,
    "Ġqualities": 7533,
    "separately": 25228,
    "Ġprudent": 9188,
    "Ġreproachfully": 25252,
    "ra": 314,
    "Ġor": 437,
    "Ġnods": 19063,
    "reputable": 15519,
    "Ġkeen": 4611,
    "gracious": 11834,
    "miles": 10714,
    "á": 162,
    "Ġposted": 16724,
    "Ġcrowder": 19458,
    "Ġpoisonous": 24887,
    "Ġsymptoms": 8709,
    "69": 17475,
    "Ġbene": 2034,
    "Ġasiatics": 20433,
    "Ġimpulsive": 19965,
    "/*": 10074,
    "?âĢĿ": 700,
    "especially": 3569,
    "Ġfailing": 12140,
    "ripp": 6406,
    "ras": 21038,
    "wealth": 22691,
    "Ġmistake": 6205,
    "athom": 12941,
    "Ġwinding": 8237,
    "chief": 4642,
    "avoiding": 25237,
    "Ġjumped": 7098,
    "Ġdaintiest": 25953,
    "Ġstuffed": 13410,
    "invincible": 25091,
    "Ġdetestable": 15100,
    "Ġedd": 8399,
    "hyp": 15368,
    "Ġprinc": 4197,
    "Ġembarkation": 25125,
    "Ġincredulity": 11313,
    "Ġugly": 8720,
    "Ġprodigiously": 14933,
    "hastened": 16845,
    "asp": 3340,
    "Ġpuffed": 14978,
    "Ġdel": 1617,
    "lin": 9606,
    "onder": 3779,
    "Ġblessing": 11265,
    "Ġprecip": 7076,
    "Ġaccidentally": 9508,
    "Ġabsor": 8507,
    "white": 4600,
    "rod": 10833,
    "eng": 1489,
    "rep": 5525,
    "up": 1284,
    "Ġcountryside": 23597,
    "gun": 10099,
    "roots": 15646,
    "Ġodorous": 19568,
    "gradient": 2273,
    "Ġincantation": 26258,
    "onde": 21253,
    "Ġvillagers": 19476,
    "cup": 10694,
    "Ġchairs": 12829,
    "Ġboa": 22639,
    "comfortable": 7320,
    "unks": 15778,
    "Ġencourages": 2063,
    "Ġcorn": 9353,
    "Ġtroubles": 19441,
    "ordered": 8794,
    "Ġshiny": 14107,
    "Ġbuffaloes": 25218,
    "Ġbul": 3292,
    "Ġoffended": 7042,
    "Ġfishermen": 5973,
    "iply": 22361,
    "quakes": 21854,
    "athan": 2959,
    "Ġgiant": 13969,
    "Ġbenches": 18782,
    "Ġaffection": 2637,
    "Ġbeadle": 26484,
    "Ġcommis": 22674,
    "Ġworrying": 22929,
    "asleep": 21547,
    "remarked": 12290,
    "Ġmonosy": 18852,
    "superiority": 20187,
    "belais": 24041,
    "Ġblast": 7445,
    "Ġfishers": 19356,
    "Ġechoed": 20426,
    "Ġsuper": 2156,
    "Ġequals": 4726,
    "Ġmerchantmen": 19861,
    "etw": 406,
    "Ġderick": 9368,
    "Ġaltitude": 26203,
    "bed": 3487,
    "osque": 22265,
    "Ġfitly": 24001,
    "Ġreco": 9794,
    "Ġboat": 1279,
    "Ġunlocked": 14121,
    "Ġbulb": 23857,
    "Ġrely": 8825,
    "baby": 25516,
    "Ġglided": 7447,
    "tem": 6370,
    "Ġimpertinence": 11368,
    "Ġerected": 12236,
    "Ġlasted": 11055,
    "pick": 17634,
    "page": 13773,
    "spell": 22733,
    "Ġhen": 3500,
    "concluded": 11244,
    "Ġunob": 22019,
    "Ġpredicts": 2593,
    "Ġcommonplaces": 16289,
    "Ġforwarded": 19046,
    "Ġpier": 7163,
    "figured": 20125,
    "Ġsickle": 24246,
    "Ġdeployment": 11198,
    "distinct": 13337,
    "Ġbackgammon": 22666,
    "low": 649,
    "Ġcapst": 8600,
    "Ġswallow": 8953,
    "Ġenvironment": 4207,
    "Ġpronounce": 16968,
    "tallied": 21091,
    "frankenstein": 11393,
    "perv": 1567,
    "regulated": 23468,
    "acet": 5474,
    "icit": 3377,
    "mercenary": 26315,
    "Ġholder": 6726,
    "Ġflapped": 23017,
    "ifully": 13185,
    "Ġhaunts": 18198,
    "ĠâĢĺ": 1631,
    "recked": 17762,
    "raved": 18014,
    "Ļ": 252,
    "Ġcontr": 1914,
    "lydia": 6826,
    "Ġdefine": 9818,
    "Ġoccupation": 9934,
    "grat": 5051,
    "spring": 7231,
    "gether": 1595,
    "Ġconver": 806,
    "breat": 10081,
    "Ġjudgment": 5765,
    "Ġinjuring": 24269,
    "kl": 4864,
    "Ġcaptured": 7245,
    "Ġdropout": 1559,
    "discharging": 26305,
    "Ġushered": 18360,
    "Ġwhispering": 14946,
    "ari": 672,
    "Ġawful": 6201,
    "redit": 3874,
    "resh": 8406,
    "Ġcaval": 25769,
    "Ġtwelve": 4961,
    "pit": 3981,
    "Ġcellars": 24665,
    "xic": 9148,
    "Ġlinen": 12409,
    "Ġleviathan": 3287,
    "Ġrabbit": 4286,
    "!_âĢĿ": 11378,
    "kept": 11720,
    "Ġbrandy": 11051,
    "goose": 19102,
    "Ġsought": 5009,
    "Ġroared": 7025,
    "springs": 24911,
    "Ġdeeps": 16110,
    "Ġtalking": 3856,
    "fleet": 15014,
    "pattern": 4565,
    "Ġsteadfastly": 10654,
    "Ġsemantics": 2896,
    "kerchief": 7525,
    "Ġuncontrollable": 25814,
    "Ġsheltered": 19912,
    "intolerable": 22940,
    "posted": 24636,
    "Ġpages": 15611,
    "Ġlove": 2056,
    "Ġcompacted": 23509,
    "Ġblinding": 14729,
    "butter": 11788,
    "Ġgeneral": 1861,
    "Ġbashaw": 25633,
    "estations": 22228,
    "Ġink": 8807,
    "stricken": 9887,
    "Ġfountains": 13503,
    "Ġbluff": 16517,
    "://": 11467,
    "Ġcrisis": 13128,
    "ignominious": 26587,
    "help": 1480,
    "Ġwad": 13852,
    "Ġtorm": 5434,
    "conditional": 9081,
    "Ġnurtured": 19751,
    "Ġfathom": 17047,
    "Ġinvestig": 10552,
    "commer": 22820,
    "regularly": 13209,
    "Ġperceptible": 18452,
    "Ġgap": 21602,
    "effect": 8608,
    "Ġanim": 2115,
    "Ġguide": 3215,
    "esty": 4303,
    "Ġstress": 18068,
    "amp": 2604,
    "Ġnotorious": 18223,
    "Ġribbons": 24323,
    "Ġdescended": 7428,
    "Ĩ": 233,
    "fights": 20866,
    "Ġernest": 8721,
    "Ġbackward": 7655,
    "Ġgrasp": 4661,
    "Ġsab": 10764,
    "Ġchristians": 13310,
    "Ġlost": 2633,
    "ste": 3581,
    "Ġjonas": 20611,
    "Ġhiss": 15791,
    "Ġstave": 11653,
    "Ġpork": 21460,
    "Ġpreyed": 18366,
    "Ġcyl": 15560,
    "edged": 15634,
    "inordinate": 21196,
    "Ġfinanc": 23130,
    "cook": 8271,
    "Ġexped": 7651,
    "fishing": 20860,
    "steak": 14709,
    "Ġswish": 23056,
    "Â": 131,
    "Ġchanging": 11756,
    "outward": 22166,
    "shells": 26055,
    "Ġward": 10158,
    "Ġgreeted": 23215,
    "astonished": 15033,
    "Ġgeological": 14533,
    "taining": 7206,
    "scenes": 16248,
    "unct": 18156,
    "Ġdenominated": 15230,
    "ighbour": 3387,
    "Ġsnows": 14727,
    "Ġoccasionally": 5589,
    "Ġchamounix": 14865,
    "Ġaltered": 7393,
    "terr": 8155,
    "Ġdrenched": 12606,
    "Ġpap": 8802,
    "Ġrestrict": 16379,
    "awed": 10394,
    "unearthly": 19274,
    "illes": 12697,
    "Ġgunwales": 12243,
    "Ġleading": 7297,
    "Ġunderstood": 5655,
    "ee": 1661,
    "Ġchristian": 6480,
    "Ġdespairing": 14775,
    "Ġurged": 6782,
    "Ġcompetent": 11819,
    "Ġgratify": 19505,
    "Ġbuckets": 17033,
    "known": 3565,
    "roads": 17959,
    "Ġtruly": 4795,
    "Ġcleansed": 26294,
    "co": 2431,
    "Ġcondem": 6340,
    "complete": 15035,
    "Ġloops": 8856,
    "Ġimpressive": 14999,
    "Ġdiscu": 4360,
    "Ġlizz": 21560,
    "Ġleaves": 5020,
    "Ġnailed": 10192,
    "Ġkicked": 10584,
    "actorily": 25576,
    "icated": 7591,
    "Ġfossils": 20224,
    "Ġspir": 2426,
    "Ġvoyager": 16512,
    "cery": 20809,
    "batt": 20779,
    "Ġneat": 7000,
    "dock": 16421,
    "mind": 4624,
    "Ġwight": 12556,
    "Ġrefer": 18693,
    "utting": 17986,
    "Ġrepressed": 21671,
    "abiding": 21797,
    "Ġwhe": 438,
    "Ġsecure": 4911,
    "Ġbarbarous": 13477,
    "oul": 4698,
    "Ġyawn": 7610,
    "gling": 10100,
    "eded": 9676,
    "ryphon": 4159,
    "Ġshed": 8182,
    "Ġazure": 12376,
    "removing": 17764,
    "Ġknob": 24405,
    "Ġexamples": 2603,
    "Ġindecision": 25781,
    "Ġ/*": 10142,
    "Ġslow": 2378,
    "!âĢĿ": 846,
    "wear": 22686,
    "remaining": 20222,
    "Ġprevent": 755,
    "Ġunav": 18240,
    "hors": 9601,
    "Ġpear": 11854,
    "Ġhissed": 15792,
    "rote": 4590,
    "Ġinfall": 7961,
    "Ġprop": 1681,
    "Ġhurricane": 16433,
    "Ġspecksnyder": 17404,
    "Ġseethe": 21967,
    "Ġexceptionable": 25504,
    "brimmed": 14588,
    "haut": 20903,
    "ura": 1049,
    "Ġseriously": 7063,
    "Ġviolence": 5965,
    "Ġbigness": 19762,
    "responsible": 25763,
    "phil": 7927,
    "impenet": 18055,
    "Ġdestiny": 8986,
    "Ġrage": 5110,
    "oughed": 22090,
    "sombre": 23856,
    "thus": 5158,
    "Ġcomprehension": 15088,
    "Ġdestabilizing": 5052,
    "Ġembra": 6580,
    "Ġsucked": 14137,
    "Ġwink": 11572,
    "skeleton": 17377,
    "Ġforbear": 17122,
    "Ĭ": 237,
    "Ġsaved": 6692,
    "Ġbeheaded": 11658,
    "gossip": 23406,
    "Ġprize": 11950,
    "Ġbottle": 7490,
    "alk": 1152,
    "Ġencoura": 1368,
    "hitherto": 17284,
    "Ġwaste": 9237,
    "heaven": 8054,
    "Ġcyn": 13887,
    "straw": 24096,
    "Ġchest": 5185,
    "Ġcup": 5697,
    "Ġparcels": 25466,
    "Ġabundance": 17156,
    "innocence": 15185,
    "shazz": 14243,
    "Ġsolved": 8934,
    "script": 11080,
    "Ġobjections": 8569,
    "possessed": 9531,
    "sherlock": 5422,
    "Ġdemanding": 16805,
    "Ġosc": 2836,
    "fow": 20854,
    "Ġinconstant": 21499,
    "aston": 7408,
    "Ġagrees": 22520,
    "Ġtension": 13825,
    "oard": 4808,
    "tling": 9145,
    "Ġprognostics": 20560,
    "Ġprinciples": 10014,
    "Ġtruest": 16700,
    "Ġintimate": 6551,
    "Ġmanager": 11772,
    "cushion": 20822,
    "Ġelated": 18634,
    "Ġaux": 21201,
    "stead": 10848,
    "leviathan": 7786,
    "hib": 15369,
    "curiosity": 8628,
    "Ġactivity": 7922,
    "direct": 12459,
    "supernatural": 19781,
    "fastened": 19326,
    "<UNK>": 3,
    "remark": 7261,
    "Ġdowry": 20687,
    "ada": 14012,
    "Ġinvaluable": 10185,
    "ography": 13364,
    "Ġjacobian": 2894,
    "affording": 23778,
    "supers": 22645,
    "named": 9906,
    "pens": 17632,
    "Ġaddress": 2270,
    "accuracy": 9882,
    "Ġcontained": 7680,
    "fts": 18700,
    "Ġtra": 1384,
    "00": 1613,
    "Ġgreatest": 4089,
    "given": 8378,
    "darker": 24511,
    "Ġfavourites": 16645,
    "Ġpearl": 20379,
    "Ġsecurity": 8980,
    "Ġeternity": 12281,
    "cc": 472,
    "Ġcooked": 13270,
    "aculate": 16067,
    "rier": 9245,
    "Ġoutset": 15958,
    "Ġpropagating": 20635,
    "Ġdistributing": 22682,
    "alike": 17944,
    "Ġrome": 12158,
    "vanity": 24978,
    "verity": 14002,
    "Ġdeclined": 9924,
    "robust": 19729,
    "Ġsteady": 4847,
    "vocation": 25086,
    "Ġgryphon": 4297,
    "Ġlatterly": 24083,
    "note": 14343,
    "feelings": 5674,
    "Ġrecital": 16145,
    "behold": 12880,
    "Ġdecap": 16023,
    "Ġwing": 6668,
    "jep": 20927,
    "Ġcock": 11002,
    "concerning": 9067,
    "Ġowner": 8925,
    "Ġuniform": 2226,
    "elab": 21573,
    "Ġfulfil": 9554,
    "gings": 7549,
    "Ġmeridian": 25712,
    "Ġrue": 11869,
    "Ġpertaining": 18451,
    "abroad": 18110,
    "ually": 2770,
    "pole": 9336,
    "hast": 5358,
    "Ġadvised": 16216,
    "finished": 10557,
    "descending": 16284,
    "Ġropes": 10750,
    "roses": 17958,
    "Ġdepicted": 14285,
    "crier": 20821,
    "Ġcharnel": 22256,
    "cu": 10086,
    "Ġenjoyment": 7300,
    "Ġrainbows": 19650,
    "Ġreeled": 13987,
    "entitled": 21571,
    "Ġah": 5075,
    "Ġconversing": 14633,
    "Ġmorbidness": 20630,
    "Ġrecom": 4552,
    "Ġcivility": 4787,
    "Ġstationary": 19696,
    "Ġrossum": 3012,
    "Ġsuperhuman": 23453,
    "Ġrespecting": 14484,
    "leviathans": 19940,
    "hogs": 20084,
    "Ġburglar": 17355,
    "anywhere": 14682,
    "ishly": 14200,
    "supervised": 1934,
    "54": 15301,
    "carb": 20811,
    "Ġgrind": 18735,
    "Ġrolling": 5977,
    "america": 17096,
    "Ġconsisted": 10421,
    "Ġdreaded": 8290,
    "has": 4012,
    "myst": 9825,
    "Ġbrigs": 20324,
    "Ġdifficulties": 11227,
    "Ġuttered": 7280,
    "wled": 15456,
    "Ġbennett": 16328,
    "atching": 8205,
    "something": 4282,
    "_,": 2799,
    "_.âĢĶ": 23473,
    "Ġess": 5691,
    "Ġupwards": 7634,
    "Ġrealise": 16339,
    "cheeks": 23809,
    "Ġhonourable": 10458,
    "desired": 9008,
    "Ġconcussion": 26300,
    "Ġlonger": 3359,
    "iece": 3227,
    "Ġstrike": 4855,
    "Ġprophesied": 26062,
    "Ġpersisting": 18897,
    "semic": 21824,
    "princip": 17137,
    "Ġdough": 8423,
    "Ġfleecy": 17023,
    "Ġpoltroon": 26598,
    "Ġhears": 8140,
    "Ġdistur": 5313,
    "Ġclasped": 17207,
    "Ġdangerous": 6615,
    "Ġdivined": 19445,
    "alid": 13936,
    "inclined": 10642,
    "Ġaugment": 8696,
    "ute": 4640,
    "Ġtrusty": 24103,
    "Ġsubt": 11870,
    "Ġpink": 12621,
    "Ġdread": 3163,
    "Ġweapons": 10596,
    "Ġsurround": 4615,
    "Ġtalked": 4417,
    "cas": 20795,
    "iment": 2817,
    "Ġfowler": 16937,
    "Ġhalyards": 21497,
    "Ġleaping": 8342,
    "adm": 7609,
    "Ġmentioned": 4326,
    "Ġdisinclination": 22540,
    "Ġintently": 8170,
    "Ġyouth": 4258,
    "sculptured": 26046,
    "Ġlocket": 22117,
    "Ġcompre": 4445,
    "Ġclergy": 7643,
    "Ġlayer": 1013,
    "bre": 3977,
    "Ġcripple": 11442,
    "Ġcomical": 11682,
    "heum": 17747,
    "mushroom": 26395,
    "ume": 4835,
    "ibly": 2996,
    "Ġburial": 16521,
    "Ġconditions": 8308,
    "Ġdid": 834,
    "unbe": 21876,
    "uits": 21106,
    "Ġnose": 4399,
    "Ġconfound": 23308,
    "distinctive": 25725,
    "ĠarchÃ¦": 22771,
    "Ġethiopian": 26613,
    "measured": 19992,
    "Ġdishon": 12233,
    "Ġbinding": 20421,
    "lascar": 20961,
    "wes": 17703,
    "Ġdisappoint": 24206,
    "Ġteasing": 11893,
    "Ġscept": 15505,
    "Ġmediterranean": 12317,
    "stranger": 9886,
    "nings": 9134,
    "Ġlamb": 8817,
    "Ġcushion": 17834,
    "Ġfatally": 19396,
    "Ġsettled": 3741,
    "Ġstrung": 22620,
    "Ġdance": 4438,
    "dec": 3112,
    "Ġneighb": 14077,
    "Ġdormouse": 4924,
    "Ġbullion": 24987,
    "Ġreeds": 15699,
    "plish": 18200,
    "Ġcontemplative": 19894,
    "zor": 15460,
    "Ġvarieties": 14311,
    "imental": 16534,
    "Ġcollinses": 19130,
    "Ġrole": 15999,
    "favourable": 12266,
    "boys": 13361,
    "Ġversion": 10632,
    "Ġjollity": 25567,
    "ante": 11724,
    "decor": 23781,
    "Ġwomanly": 23552,
    "Ġ=": 1072,
    "extinguished": 16155,
    "Ġencourage": 10383,
    "Ķ": 247,
    "arpo": 1756,
    "bowed": 10687,
    "Ġ**": 4720,
    "Ġdeserving": 14755,
    "based": 2962,
    "Ġmethodology": 2442,
    "pitchpoling": 25724,
    "Ġsent": 1776,
    "iom": 20916,
    "Ġindebted": 8712,
    "duodecimo": 16004,
    "Ġalexander": 17425,
    "Ġdaily": 5989,
    "Ġexhausted": 8698,
    "Ġcarries": 7675,
    "tail": 8766,
    "Ġepo": 21622,
    "Ġcompliments": 8637,
    "abilities": 3235,
    "Ġautonom": 10417,
    "eur": 7545,
    "Ġglimmer": 15143,
    "Ġmaddened": 17244,
    "Ġapplied": 6188,
    "harmony": 25750,
    "Ġlightness": 23262,
    "Ġensures": 3055,
    "Ġinclement": 22558,
    "t": 88,
    "rudent": 6483,
    "Ġgross": 11628,
    "ources": 2788,
    "Ġenslaved": 26314,
    "Ġelimin": 16111,
    "Ġcucumber": 21358,
    "Ġunrel": 14696,
    "omp": 2472,
    "Ġacquire": 2722,
    "Ġfrom": 434,
    "Ġheed": 5630,
    "take": 4574,
    "ilar": 10218,
    "sympathy": 20544,
    "Ġdependence": 18628,
    "Ġaccuse": 14212,
    "Ġbounty": 26437,
    "Ġcreases": 22726,
    "Ġsystem": 570,
    "ccas": 15888,
    "Ġwarmed": 12025,
    "Ġunconcerned": 20512,
    "Ġengravings": 15069,
    "Ġlengthwise": 10454,
    "accustomed": 13158,
    "Ġload": 14146,
    "throwing": 11706,
    "Ġcot": 13878,
    "pe": 1437,
    "undant": 14793,
    "Ġconcrete": 20638,
    "Ġclean": 5652,
    "papers": 12504,
    "Ġinquiring": 9002,
    "rate": 2420,
    "Ġwalked": 3140,
    "Ġutil": 4670,
    "okingly": 22385,
    "Ġenergy": 2550,
    "osition": 1375,
    "Ġopinions": 9418,
    "Ġhooks": 14969,
    "Ġunex": 11716,
    "tea": 18740,
    "Ġlawless": 19437,
    "Ġmissionary": 25696,
    "private": 13584,
    "Ġwestmorland": 24388,
    "kee": 18273,
    "Ġafghan": 22633,
    "Ġcolumbus": 26564,
    "Ġlustre": 15136,
    "ulty": 22572,
    "Ġpacific": 5153,
    "Ġhearken": 21688,
    "Ġembarr": 7446,
    "Ġunful": 22015,
    "Ġbrook": 13050,
    "adding": 21765,
    "Ġnetherfield": 3929,
    "Ġnlp": 3061,
    "amped": 12035,
    "riot": 18186,
    "icha": 11741,
    "upt": 13799,
    "ish": 550,
    "Ġtyro": 16994,
    "Ġcombing": 22885,
    "Ġcit": 10785,
    "Ġrefine": 2887,
    "Ġteeth": 4163,
    "Ġwidth": 16772,
    "fell": 6953,
    "Ġwat": 1287,
    "antage": 3877,
    "Ġvarious": 3507,
    "cabinet": 25079,
    "Ġpythag": 26448,
    "Ġsometimes": 2169,
    "Ġconsid": 1814,
    "Ġmir": 9649,
    "Ġsincerity": 13680,
    "Ġenabling": 1077,
    "vius": 23541,
    "Ġplutarch": 22606,
    "Ġtrip": 16788,
    "Ġpron": 6452,
    "plings": 11698,
    "prepar": 22457,
    "tent": 21066,
    "pshire": 21025,
    "Ġrefuge": 8542,
    "Ġastern": 6092,
    "Ġbearded": 15730,
    "Ġundergone": 18985,
    "era": 13848,
    "ignorant": 13565,
    "aphys": 15203,
    "opened": 7915,
    "Ġwond": 3937,
    "sequence": 2856,
    "mean": 6439,
    "Ġdistinguish": 2725,
    "her": 488,
    "omon": 10210,
    "Ġpropos": 7064,
    "Ġmeal": 9700,
    "histicated": 20902,
    "greater": 13252,
    "Ġstack": 21737,
    "ener": 557,
    "Ġanger": 5442,
    "Ġlottery": 19889,
    "Ġcomparable": 24279,
    ";âĢĿâĢĶ": 20761,
    "ctor": 13961,
    "Ġvestibule": 13537,
    "persecut": 22184,
    "Ġhurrying": 11996,
    "idious": 11664,
    "insupportable": 21195,
    "Ġtent": 15469,
    "Ġconjoined": 21810,
    "Ġslumber": 13062,
    "Ġflattened": 26047,
    "Ġgreater": 3038,
    "Ġlightened": 23263,
    "Ġcreditable": 19624,
    "Ġpolite": 9885,
    "tempestuous": 26097,
    "!âĢĶâĢĻ": 23566,
    "Ġentertain": 6056,
    "lilies": 20962,
    "ceased": 21629,
    "Ġuse": 818,
    "Ġcocoanuts": 26363,
    "forster": 16170,
    "Ġexpectantly": 23525,
    "weary": 22689,
    "Ġimmediately": 3365,
    "utions": 1890,
    "Ġdisd": 7032,
    "from": 1992,
    "Ġgeorgia": 23888,
    "Ġident": 2240,
    "Ġplying": 17915,
    "Ġcircumspect": 15086,
    "Ġgrazed": 15836,
    "Ġjoined": 4561,
    "Ġofficial": 7083,
    "cano": 18840,
    "Ġcharity": 8866,
    "Ġnorm": 764,
    "Ġgrapnels": 25552,
    "secre": 18128,
    "sens": 8097,
    "commendation": 26350,
    "coffin": 10665,
    "Ġbulkington": 14677,
    "charitable": 23935,
    "Ġdictionaries": 12342,
    "Ġspeech": 4608,
    "Ġtipped": 17728,
    "clump": 23158,
    "Ġlanterns": 24576,
    "Ġmythologies": 26214,
    "advice": 12160,
    "capt": 3835,
    "Ġstalk": 12700,
    "Ġshuttle": 12129,
    "Ġjudged": 12086,
    "Ġhardy": 8570,
    "Ġserpents": 13078,
    "Ġlittle": 866,
    "kings": 17583,
    "iah": 14418,
    "quadr": 15767,
    "ar": 285,
    "Ġtus": 10751,
    "Ġhonorable": 16876,
    "mospheric": 17090,
    "orn": 2244,
    "Ġrelu": 1046,
    "Ġensemble": 1608,
    "Ġbishop": 13903,
    "Ġglimmered": 20173,
    "example": 16016,
    "shoes": 14242,
    "Ġcustom": 5078,
    "Ġclient": 5555,
    "shaped": 10312,
    "treacle": 25151,
    "uracy": 1065,
    "Ġenrolled": 21941,
    "Ġgoug": 17992,
    "Ġobserv": 8590,
    "antarctic": 22103,
    "verb": 10219,
    "Ġconsummation": 17426,
    "Ġcongratulatory": 19769,
    "âĢĿ": 354,
    "musical": 25341,
    "Ġcalam": 13036,
    "Ġroundabout": 23064,
    "Ġcities": 17828,
    "amore": 21847,
    "elizabeth": 1987,
    "sings": 4248,
    "Ġbut": 424,
    "Ġspile": 22131,
    "Ġawe": 7148,
    "Ġevangel": 11282,
    "Ġladies": 3193,
    "belated": 24040,
    "Ġdressing": 7092,
    "Ġincisive": 18571,
    "ropes": 7905,
    "weight": 2944,
    "Ġoutstanding": 22320,
    "sutherland": 21064,
    "Ġpa": 2990,
    "satisfied": 10581,
    "Ġconsequent": 18112,
    "slow": 7811,
    "Ġtargets": 4202,
    "readers": 23850,
    "Ġoak": 6130,
    "Ġtheoretically": 3563,
    "Ġball": 3621,
    "Ġsoo": 15863,
    "sof": 17657,
    "Ġbreathless": 12172,
    "Ġinexplicable": 12259,
    "declare": 25174,
    "Ġelopement": 10332,
    "Ġnarration": 13504,
    "bowing": 24452,
    "Ġinfants": 16369,
    "Ġbreeding": 14522,
    "Ġgarnery": 17388,
    "Ġunresting": 25554,
    "Ġancles": 21449,
    "Ġvor": 15809,
    "Ġpeels": 22694,
    "ituted": 13874,
    "conda": 18992,
    "atement": 17773,
    "create": 24160,
    "Ġbaggy": 24536,
    "Ġfixed": 2684,
    "Ġdep": 745,
    "Ġverses": 17062,
    "prep": 9761,
    "Ġspong": 15884,
    "Ġposition": 1954,
    "Ġliquid": 22413,
    "Ġarrange": 3120,
    "Ġrecol": 4027,
    "Ġlingering": 11381,
    "ceiving": 3901,
    "hog": 8381,
    "Ġadventure": 5983,
    "Ġinexpress": 12638,
    "div": 8077,
    "Ġsights": 7472,
    "rooms": 10434,
    "Ġenthus": 7232,
    "rints": 12505,
    "whims": 22243,
    "cont": 2924,
    "Ġplans": 7920,
    "Ġwires": 21297,
    "Ġsits": 10770,
    "prisoner": 20545,
    "oak": 21004,
    "avenza": 17103,
    "swe": 5998,
    "another": 5439,
    "Ġbedroom": 7277,
    "Ġmonstrous": 7791,
    "Ġunw": 7005,
    "Ġarabian": 9093,
    "pall": 17628,
    "Ġominous": 12426,
    "Ġinquir": 4239,
    "bears": 22494,
    "oid": 3126,
    "Ġalacrity": 15740,
    "Ġconcealed": 7495,
    "Ġtin": 15465,
    "Ġpardon": 5727,
    "atherley": 7220,
    "thought": 3847,
    "masterly": 24528,
    "Ġnightgown": 23134,
    "Ġauthentic": 20537,
    "Ġreturned": 2893,
    "Ġdews": 21842,
    "yp": 1045,
    "Ġenhance": 2797,
    "gledy": 25404,
    "Ġpersisted": 13045,
    "entimes": 12659,
    "Ġplot": 14281,
    "fs": 17535,
    "Ġgardens": 16452,
    "Ġsickbed": 24247,
    "cleanliness": 25871,
    "Ġsighed": 10340,
    ",*": 17472,
    "smith": 5669,
    "Ġbolt": 11336,
    "Ġfin": 1462,
    "Ġshaped": 15837,
    "icient": 773,
    "Ġimprobable": 9798,
    "Ġerecting": 24652,
    "ouble": 2661,
    "Ġflor": 8566,
    "Ġunabated": 15855,
    "beheaded": 22497,
    "arcy": 1276,
    "Ġassemblage": 26353,
    "Ġtom": 15636,
    "Ġpunchbowl": 20233,
    "Ġinward": 11610,
    "Ġdodging": 19888,
    "scales": 22999,
    "anks": 3915,
    "pip": 6657,
    "rs": 7808,
    "Ġcuring": 21346,
    "Ġenjoy": 3759,
    "azine": 19131,
    "Ġsemi": 11970,
    "clusion": 16308,
    "Ġminutest": 14560,
    "Ġsusp": 2663,
    "abashed": 21796,
    "Ġinjuries": 11279,
    "Ġlead": 3520,
    "even": 3836,
    "Ġthoroughfares": 26095,
    "Ġconviction": 6328,
    "Ġconsec": 21809,
    "Ġterra": 13118,
    "itates": 13870,
    "instrument": 15240,
    "anyone": 16593,
    "Ġcring": 15555,
    "Ġbubbling": 17327,
    "kward": 6958,
    "Ġmbpp": 21324,
    "rush": 7012,
    "acknowledge": 18468,
    "Ġcorp": 5574,
    "Ġsporting": 16999,
    "Ġextinct": 14327,
    "danced": 20829,
    "delights": 19703,
    "Ġcoldness": 23760,
    "Ġglancing": 5399,
    "umst": 2502,
    "ahawk": 23321,
    "ĠĊ": 12526,
    "Ġhelm": 5276,
    "Ġdebar": 24272,
    "Ġformation": 2947,
    "Ġsuperficial": 23456,
    "topic": 10530,
    "Ġverte": 9444,
    "ivering": 7699,
    "ithing": 11651,
    "Ġsecretary": 19444,
    "sledge": 21059,
    "relics": 24017,
    "arranging": 19319,
    "Ġcryst": 9920,
    "Ġsheeted": 19833,
    "next": 5894,
    "Ġwont": 9854,
    "acc": 2532,
    "Ġprocess": 567,
    "Ġrecently": 11863,
    "cut": 3123,
    "Ġflora": 11418,
    "Ġdiscernment": 15055,
    "shirt": 22464,
    "slide": 24554,
    "Ġbrooks": 25700,
    "Ġsounds": 5190,
    "Ġpest": 13914,
    "itect": 955,
    "Ġmoral": 6581,
    "Ġreader": 11936,
    "Ġgiving": 4081,
    "Ġjoints": 12037,
    "Ġvexatious": 19783,
    "Ġwester": 25156,
    "Ġplight": 14282,
    "Ġshepherd": 14153,
    "Ġthrowing": 6337,
    "shad": 10984,
    "grow": 10101,
    "Ġbabel": 24424,
    "Ġpossessing": 16576,
    "atible": 17772,
    "Ġprivate": 5346,
    "Ġphyseter": 26586,
    "Ġetext": 23952,
    "Ġswiftness": 9930,
    "Ġbill": 4038,
    "strangely": 17277,
    "arle": 21443,
    "Ġcapt": 1291,
    "Ġneighbourhood": 5126,
    "Ġchronicle": 20230,
    "Ġnantucketers": 9896,
    "rowing": 7932,
    "Ġplayful": 19238,
    "Ġthroughout": 8880,
    "izz": 7615,
    "pips": 21021,
    "Ġcleaned": 23186,
    "atively": 2694,
    "Ġtexas": 25922,
    "Ġsinew": 25432,
    "car": 4210,
    "Ġstepfather": 7221,
    "Ġpitched": 9447,
    "aft": 9586,
    "Ġpartial": 2130,
    "Ġlashes": 17968,
    "Ġphilist": 16601,
    "Ġgoest": 22427,
    "Ġranges": 2884,
    "Ġdistracted": 11807,
    "Ġishmael": 7395,
    "Ġclump": 15968,
    "orts": 2553,
    "Ġmates": 4871,
    "Ġdived": 9180,
    "ns": 758,
    "Ġretention": 23074,
    "Ġred": 3005,
    "Ġ179": 19756,
    "oters": 21803,
    "Ġdefendants": 15142,
    "infernal": 24662,
    "Ġirritated": 17242,
    "Ġyoung": 1507,
    "Ġfooted": 23798,
    "Ġpattered": 19018,
    "Ġobliterated": 17406,
    "medical": 23346,
    "Ġdecorated": 22449,
    "Ġsolomon": 11054,
    "rupt": 3209,
    "clifford": 23160,
    "Ġtenth": 13827,
    "ott": 1871,
    "Ġindulging": 16904,
    "matters": 14875,
    "eers": 20844,
    "Ġdoted": 21436,
    "Ġstifle": 18075,
    "Ġevenly": 4125,
    "Ġphantom": 8711,
    "Ġoffered": 5817,
    "Ġthankful": 14740,
    "Ġallegro": 25794,
    "inations": 7567,
    "Ġsupers": 18281,
    "iage": 17573,
    "Ġthrills": 24540,
    "Ġbulky": 13230,
    "Ġamaze": 22487,
    "Ġintrepidity": 25551,
    "illustration": 2283,
    "carpenter": 11429,
    "Ġstumped": 24944,
    "Ġreleased": 2979,
    "Ġpotency": 14646,
    "Ġconfessed": 8010,
    "Ġstill": 1155,
    "nuts": 15400,
    "Ġjealous": 9471,
    "onstrate": 17768,
    "scale": 3532,
    "Ġbritish": 11339,
    "ordingly": 18518,
    "pt": 389,
    "Ġattitude": 8907,
    "harrow": 20909,
    "Ġinstructions": 11197,
    "lance": 12484,
    "Ġabstract": 17182,
    "oided": 11511,
    "Ġpersevering": 20235,
    "weave": 22688,
    "Ġtresses": 21177,
    "Ġpsychology": 11450,
    "exper": 8882,
    "orial": 8419,
    "Ġentr": 14341,
    "rusted": 16507,
    "Ġincessant": 15099,
    "assist": 11770,
    "ither": 1547,
    "splice": 17171,
    "Ġtackles": 8052,
    "Ġstruggle": 3675,
    "chest": 11210,
    "immediately": 10052,
    "scornful": 26575,
    "<PAD>": 0,
    "shelf": 20383,
    "admire": 24945,
    "Ġgre": 1583,
    "Ġcontain": 1552,
    "Ġswerve": 14438,
    "sheltered": 25585,
    "ushion": 14721,
    "4": 24,
    "c": 71,
    "thro": 12764,
    "Ġmind": 1622,
    "rop": 539,
    "Ġabating": 22271,
    "Ġrosy": 18457,
    "ĠâĢľ": 516,
    "onement": 21258,
    "Ġsly": 9635,
    "Ġtwopence": 18659,
    "Ġatonement": 21946,
    "Ġdodge": 19887,
    "Ġscarce": 8626,
    "nant": 17609,
    "Ġtrotting": 19978,
    "closing": 23159,
    "Ġclassical": 22630,
    "Ġhints": 8432,
    "Ġincognit": 22559,
    "Ġrepenting": 25323,
    "Ġroarings": 25302,
    "scotch": 25851,
    "ernal": 4309,
    "Ġnovel": 6697,
    "Ġinflu": 4908,
    "igned": 5656,
    "Ġcomrade": 11683,
    "Ġbraved": 23840,
    "Ġinvolves": 1054,
    "Ġankers": 21448,
    "Ġvari": 832,
    "subjects": 19877,
    "Ġjamming": 17265,
    "imble": 10860,
    "ancholy": 5070,
    "fav": 6649,
    "Ġhabitation": 14804,
    "Ġsample": 3178,
    "Ġdissembling": 26255,
    "brÃ¦": 11177,
    "collinses": 19924,
    "fee": 12882,
    "Ġadler": 8175,
    "ckets": 6843,
    "glow": 20875,
    "irms": 18170,
    "Ġgem": 21597,
    "ifer": 11687,
    "Ġdoing": 3661,
    "Ġhyper": 19741,
    "Ġcoloured": 11047,
    "Ġplayfulness": 23638,
    "described": 18895,
    "Ġ109": 24414,
    "believe": 8305,
    "southern": 20411,
    "Ġbreath": 4790,
    "representation": 20198,
    "Ġruddy": 17126,
    "appro": 7046,
    "Ġinde": 7371,
    "Ġsinusoidal": 4800,
    "Ġflorida": 20660,
    "Ġtornado": 24622,
    "Ġmitt": 21309,
    "Ġblanche": 18819,
    "Ġdepended": 9780,
    "scru": 16247,
    "adru": 15734,
    "Ġsubproblems": 12959,
    "Ġmusty": 22683,
    "Ġmace": 21311,
    "Ġravines": 25832,
    "Ġdesperate": 7778,
    "Ġimperfectly": 25726,
    "Ġcurved": 18849,
    "Ġjoke": 8872,
    "Ġsteeply": 23725,
    "Ġdistingu": 2512,
    "Ġsyn": 15911,
    "shiver": 16031,
    "Ġfitness": 24002,
    "Ġwhirl": 13450,
    "Ġcomrades": 9236,
    "Ġtrying": 4838,
    "cle": 3954,
    "Ġsnaky": 23743,
    "Ġleaned": 7608,
    "Ġrescue": 13344,
    "stri": 6250,
    "ified": 3225,
    "Ġelijah": 9103,
    "Ġseam": 3907,
    "Ġhairy": 23867,
    "ighted": 8479,
    "Ġconsolidation": 5060,
    "Ġforcibly": 10064,
    "Ġcollectively": 19970,
    "Ġaffl": 14387,
    "iously": 2676,
    "mped": 16648,
    "Ġsn": 2953,
    "Ġcracking": 14573,
    "lucases": 20212,
    "impressed": 12694,
    "confirm": 16807,
    "Ġebb": 21625,
    "Ġshutter": 16671,
    "Ġdecaying": 2248,
    "fine": 10093,
    "Ġpurchases": 24754,
    "Ġalighted": 18105,
    "injustice": 17737,
    "paid": 15416,
    "Ġwickham": 2205,
    "Ġmediocr": 24139,
    "Ġcattle": 12575,
    "Ġscale": 1549,
    "hic": 3247,
    "ringle": 21042,
    "urity": 8144,
    "prosperity": 20736,
    "Ġgloomy": 7504,
    "iverer": 11719,
    "Ġdelighted": 5499,
    "Ġdusk": 12329,
    "aired": 8370,
    "Ġjen": 9270,
    "appears": 12062,
    "Ġlaw": 3655,
    "Ġsigma": 1542,
    "Ġsuns": 23276,
    "Ġcontinually": 5040,
    "chors": 11646,
    "Ġgoring": 21607,
    "bitious": 16670,
    "Ġimplements": 2485,
    "Ġshades": 9465,
    "Ġpharaoh": 26585,
    "proud": 9907,
    "Ġbackwater": 18650,
    "proper": 7471,
    "wrote": 11549,
    "icles": 17974,
    "Ġcapstan": 9102,
    "Ġproposal": 10022,
    "Ġrobert": 10972,
    "inserted": 18887,
    "ĠâĢľâĢĺ": 8506,
    "thy": 2938,
    "carte": 25401,
    "Ġcopy": 10166,
    "lost": 8891,
    "**": 4685,
    "apering": 8042,
    "osop": 4401,
    "Ġinspirited": 23422,
    "Ġpass": 1040,
    "ected": 7875,
    "Ġlazily": 11382,
    "Ġminiature": 11042,
    "Ġhold": 2245,
    "Ġlength": 2499,
    "Ġlodging": 24094,
    "Ġunderstanding": 1790,
    "widows": 25345,
    "Ġresponsible": 9889,
    "Ġ53": 19637,
    "Ġoutline": 15957,
    "Ġsurpr": 2548,
    "Ġdrawer": 13267,
    "orient": 2878,
    "Ġperplexity": 2755,
    "scot": 14419,
    "Ġinterested": 6459,
    "Ġsmall": 893,
    "Ġhosea": 17332,
    "Ġdub": 13910,
    "Ġsurest": 19057,
    "Ġork": 18284,
    "tempered": 13447,
    "Ġmournful": 12338,
    "Ġcane": 10929,
    "Ġsewing": 21965,
    "Ġwhine": 21718,
    "Ġnearer": 5303,
    "reproach": 15188,
    "proachable": 23400,
    "ifferent": 4259,
    "pull": 6797,
    "Ġexper": 1275,
    "andam": 10890,
    "dorff": 15239,
    "Ġbenevol": 5964,
    "Ġrecollection": 6623,
    "iastic": 12482,
    "Ġemble": 13972,
    "Ġmaled": 21316,
    "Ġmothers": 14540,
    "bra": 6221,
    "Ġsafe": 5103,
    "Ġfleece": 10617,
    "Ġsprung": 11250,
    "Ġmoderately": 22218,
    "rix": 1574,
    "measure": 10034,
    "Ġpostp": 12146,
    "izarre": 17390,
    "Ġpossessor": 23826,
    "headsman": 16697,
    "Ġeclips": 20698,
    "impetuous": 23764,
    "Ġgidd": 25783,
    "Ġrude": 7234,
    "Ġleisure": 6541,
    "luck": 5733,
    "y": 93,
    "dismal": 23498,
    "trees": 10733,
    "Ġlabel": 14514,
    "Ġbaw": 15572,
    "Ġhire": 21488,
    "Ġchatting": 24745,
    "Ġseizing": 7881,
    "Ġidle": 8254,
    "Ġgallows": 12148,
    "Ġcrucifix": 26079,
    "congenial": 25400,
    "Ġpromising": 10402,
    "a": 69,
    "Ġinterm": 14272,
    "ui": 9147,
    "lop": 20949,
    "Ġwonderland": 23426,
    "hement": 13833,
    "Ġarabic": 24982,
[...]
