{
  "metadata": {
    "vocab_size": 26616,
    "algorithm": "BPE",
    "created_at": "2026-07-27 05:48:25",
    "special_tokens": [
      "<PAD>",
      "<SOS>",
      "<EOS>",
      "<UNK>",
      "<MASK>"
    ]
  },
  "vocab": {
    "Ġtattered": 21174,
    "utions": 1888,
    "where": 2092,
    "Ġwine": 6811,
    "Ġmodeling": 2096,
    "ily": 1032,
    "Ġagile": 22517,
    "ryphon": 4163,
    "Ġjost": 23632,
    "Ġswept": 7978,
    "Ġfled": 6673,
    "Ġspurred": 22143,
    "Ġvictory": 16656,
    "Ġunansw": 22062,
    "Ġgilt": 21609,
    "whalebone": 19120,
    "inquir": 9539,
    "ĠĠĠĠĠĠĠĠĠĠ": 18580,
    "Ġunheeded": 18265,
    "fortune": 4975,
    "gypt": 8261,
    "Ġmaj": 3927,
    "Ġscud": 14193,
    "hil": 8379,
    "Ġinvests": 14871,
    "Ġroughs": 19960,
    "tot": 10730,
    "Ġclergy": 7643,
    "itate": 6670,
    "Ġwhereon": 16106,
    "Ġreads": 23116,
    "rosc": 17957,
    "Ġimply": 18445,
    "Ġpassionately": 16766,
    "ivot": 11722,
    "Ġcontrad": 9758,
    "Ġdisappearing": 22537,
    "Ġremarked": 3697,
    "Ġfarewell": 9523,
    "Ġslain": 8956,
    "Ġli": 602,
    "Ġbedfellow": 16442,
    "Ġinvite": 14565,
    "Ġenig": 15804,
    "forgetting": 25486,
    "falling": 24361,
    "Ġwithdra": 6399,
    "morn": 20978,
    "based": 2957,
    "Ġunceasingly": 20362,
    "Ġheads": 3742,
    "Ġanat": 8124,
    "Ġxxxix": 24971,
    "Ġspoon": 22139,
    "Ġscaffold": 18402,
    "saw": 5895,
    "Ġdart": 4585,
    "Ġwhether": 1999,
    "nearest": 16031,
    "Ġridges": 16733,
    "Ġapproximates": 2418,
    "Ġcorroborated": 26054,
    "Ġuntil": 2668,
    "Ġcircling": 19094,
    "gentlemanlike": 20005,
    "sof": 17659,
    "upt": 13801,
    "Ġprendergast": 26539,
    "emptied": 23637,
    "Ġsheltered": 19913,
    "twill": 21077,
    "Ġindefinite": 17179,
    "Ġreusability": 13562,
    "Ġoffic": 3186,
    "Ġignorant": 5344,
    "moments": 19415,
    "Ġcomfortless": 23916,
    "Ġprediction": 2209,
    "Ġexposure": 16104,
    "access": 11182,
    "reserve": 17767,
    "want": 8770,
    "Ġdrop": 4344,
    "Ġmissing": 6177,
    "ced": 695,
    "Ġunfelt": 24112,
    "impenetrable": 26198,
    "ifford": 15789,
    "Ġdogs": 7742,
    "Ġmoving": 1678,
    "Ġxxxvi": 24972,
    "Ġflying": 5413,
    "compassion": 12372,
    "Ġfour": 2214,
    "Ġforgery": 25978,
    "destro": 13314,
    "Ġsavesoul": 26229,
    "Ġunsavory": 20709,
    "lands": 8241,
    "Ġetc": 7086,
    "Ġcoat": 4553,
    "Ġpains": 5966,
    "perpetually": 20516,
    "crews": 15045,
    "sne": 10127,
    "slipped": 25530,
    "Ġyelled": 9697,
    "Ġexpensive": 12923,
    "Ġvestige": 20066,
    "blu": 12444,
    "Ġnupt": 13946,
    "Ġarisen": 11747,
    "Ġsandwic": 24665,
    "n": 82,
    "Ġrecover": 9794,
    "Ġsize": 1218,
    "Ġgenerator": 3385,
    "aky": 18412,
    "real": 10152,
    "Ġresc": 4505,
    "Ġoughts": 23904,
    "Ġnuptials": 20497,
    "Ġsister": 1475,
    "quarters": 24949,
    "Ġlou": 6822,
    "oug": 431,
    "Ġsuppress": 13029,
    "brevi": 24076,
    "Ġunforeseen": 22057,
    "Ġshare": 1657,
    "1": 21,
    "Ġscot": 5643,
    "Ġaforethought": 25429,
    "silenced": 24423,
    "Ġsufferer": 16263,
    "Ġcrad": 21352,
    "ĠĠĠĠĠĠĠĠĠĠĠĠĠĠĠĠĠĠĠĠĠĠĠĠĠĠĠĠĠĠĠĠĠĠĠĠĠĠĠĠĠĠĠĠĠĠĠĠĠĠĠ": 20042,
    "stationed": 25454,
    "Ġnewton": 3535,
    "Ġbaby": 6639,
    "Ġbale": 7838,
    "Ġoriginal": 6104,
    "Ġpel": 17904,
    "Ġinoffensive": 21501,
    "Ġspotted": 12143,
    "eric": 3474,
    "Ġwaved": 9647,
    "Ġpeninsula": 23198,
    "Ġdru": 8423,
    "prior": 21035,
    "rate": 2422,
    "ensibility": 22552,
    "Ġpugnacious": 26453,
    "Ġsensibly": 14516,
    "Ġanalyze": 1653,
    "species": 13262,
    "Ġprop": 1681,
    "Ġjagged": 18408,
    "Ġpitiable": 9917,
    "cept": 553,
    "Ġtyphoon": 12393,
    "dling": 15343,
    "Ġ181": 23899,
    "kine": 15379,
    "skirted": 24489,
    "Ġcoaxing": 18597,
    "Ġ150": 22829,
    "Ġwhistle": 9068,
    "eting": 7170,
    "Ġdefinition": 14408,
    "Ġfrankenstein": 7097,
    "Ġbarrens": 25502,
    "Ġvote": 21949,
    "Ġpilgrim": 25600,
    "aws": 8237,
    "Ġxii": 11995,
    "olidity": 18135,
    "Ġerroneous": 17412,
    "considering": 12179,
    "Ġwolfish": 25936,
    "Ġbressed": 21390,
    "Ġanticipation": 17058,
    "solute": 16600,
    "lydia": 6826,
    "Ġirre": 7468,
    "Ġcoral": 11926,
    "wheeler": 16193,
    "Ġsickening": 19607,
    "ler": 3494,
    "aker": 3665,
    "chain": 18042,
    "Ġspout": 3283,
    "Ġcav": 13883,
    "Ġfortun": 4982,
    "Ġanticipatingly": 26103,
    "Ġinstinct": 6576,
    "Ġmisanthrop": 22760,
    "Ġindirectly": 8942,
    "Ġslu": 13839,
    "ivorous": 22083,
    "Ġpunch": 9958,
    "Ġaskance": 23153,
    "bildad": 9589,
    "connection": 18869,
    "prow": 15415,
    "Ġpostscript": 14811,
    "deliberated": 26119,
    "Ġaltar": 9231,
    "warning": 25532,
    "Ġoce": 3031,
    "Ġembatt": 18840,
    "Ġjava": 12316,
    "Ġmutually": 23960,
    "Ġagreeably": 24955,
    "Ġcutting": 4983,
    "Ġdiligent": 25078,
    "Ġalbino": 20506,
    "exceedingly": 9569,
    "follows": 24528,
    "Ġpermission": 9282,
    "Ġtossings": 25357,
    "Ġitem": 12706,
    "Ġcosmopolitan": 20643,
    "Ġinterior": 8899,
    "ulity": 10888,
    "Ġcolt": 11045,
    "Ġchild": 2259,
    "Ġlav": 13952,
    "Ġvillagers": 19477,
    "Ġoccasion": 3245,
    "threshold": 21991,
    "Ġlonged": 6437,
    "countless": 24153,
    "Ġfor": 340,
    "Ġmantel": 11441,
    "ig": 323,
    "Ġrotterdam": 25476,
    "Ġinclude": 1873,
    "Ġkidn": 20208,
    "Ġcould": 703,
    "Ġasyl": 12739,
    "wit": 7817,
    "Ġacqu": 1419,
    "w": 91,
    "smug": 23911,
    "Ġtrivial": 10145,
    "Ġsurp": 9637,
    "Ġon": 350,
    "Ġdenomin": 12072,
    "crowning": 25749,
    "inence": 15485,
    "forbidding": 25838,
    "Ġringbolts": 24199,
    "macy": 18803,
    "Ġrobert": 10972,
    "Ġthief": 11613,
    "Ġjar": 15955,
    "omin": 4704,
    "unlike": 18159,
    "conjectures": 25181,
    "Ġcheever": 23285,
    "Ġpallidness": 25605,
    "true": 2585,
    "Ġfemale": 8345,
    "Ġaccomp": 4714,
    "arrang": 14654,
    "Ġtus": 10751,
    "Ġobservation": 6599,
    "allions": 22202,
    "Ġdone": 1818,
    "itiously": 13874,
    "wel": 6119,
    "Ġswallow": 8953,
    "Ġbearded": 15732,
    "Ġpollard": 20389,
    "orting": 9738,
    "Ġdoc": 7200,
    "cures": 20807,
    "indust": 18436,
    "Ġclenched": 14207,
    "tps": 11537,
    "seems": 10877,
    "uled": 11539,
    "acceler": 23600,
    "Ġreaders": 18916,
    "inferiors": 25347,
    "Ġhermits": 22078,
    "Ġphant": 7057,
    "Ġdecks": 6900,
    "ould": 428,
    "borean": 25744,
    "Ġjustice": 5111,
    "Ġdisengaged": 12894,
    "Ġfully": 6344,
    "parad": 16392,
    "Ġsubsiding": 23436,
    "Ġfluffy": 19367,
    "Ġugl": 12687,
    "Ġplacing": 8904,
    "Ġomniscient": 20089,
    "collecting": 26082,
    "Ġcanted": 17833,
    "Ġodor": 12154,
    "Ġcharmingly": 24224,
    "perquisites": 26533,
    "Ġmccarthys": 19665,
    "flatter": 23970,
    "appalling": 22847,
    "Ġsteals": 23087,
    "Ġhyena": 24519,
    "Ġodds": 13334,
    "lesome": 12970,
    "front": 12175,
    "Ġvoracity": 25987,
    "pierced": 26142,
    "Ġhold": 2243,
    "Ġdramatic": 4852,
    "print": 23814,
    "Ġsnatch": 14641,
    "dwell": 15345,
    "Ġscrew": 8871,
    "Ġdeftly": 26495,
    "Ġpatagonian": 20538,
    "ashing": 4826,
    "Ġmatrimony": 13639,
    "Ġoutcast": 18415,
    "promontory": 24727,
    "Ġjobs": 24833,
    "Ġinnocence": 6478,
    "expect": 4770,
    "anity": 9657,
    "ohn": 4560,
    "similar": 13457,
    "Ġphilipp": 23887,
    "Ġknight": 9730,
    "Ġoverflow": 10295,
    "Ġphenomenon": 17917,
    "Ġantichron": 24184,
    "Ġpapered": 20134,
    "Ġwhite": 1536,
    "Ġrespect": 1670,
    "Ġgrated": 22809,
    "Ġsuspecting": 14913,
    "Ġstoutly": 16926,
    "Ġcopy": 10166,
    "destined": 24116,
    "Ġpredicted": 2043,
    "ulged": 12735,
    "treacle": 25151,
    "Ġagitation": 6865,
    "Ġchis": 11754,
    "Ġsimil": 2529,
    "Ġdrew": 3539,
    "Ġtimely": 19597,
    "Ġhasten": 10480,
    "kerchief": 7525,
    "Ġcarted": 21353,
    "hom": 12478,
    "Ġlearn": 365,
    "luent": 16001,
    "shrouded": 26363,
    "vi": 2375,
    "dashing": 20838,
    "Ġcapering": 21357,
    "Ġdisappointed": 7099,
    "arrived": 12614,
    "Ġsociable": 19407,
    "Ġhatchet": 16532,
    "Ġessential": 7523,
    "Ġrelinqu": 12988,
    "Ġjetted": 24431,
    "Ġpigs": 19750,
    "Ġoperated": 14548,
    "Ġdisgraceful": 15022,
    "slanting": 24558,
    "Ġiroqu": 21627,
    "replied": 11568,
    "Ġwealthy": 18181,
    "Ġharmony": 16816,
    "Ġsix": 3045,
    "Ġconcentric": 20078,
    "shoulder": 16586,
    "oko": 18441,
    "Ġdotted": 16794,
    "Ġpossibly": 4512,
    "Ġtheatre": 21281,
    "bted": 7794,
    "trimmed": 23952,
    "tuesday": 17692,
    "draughts": 20391,
    "scra": 13027,
    "vous": 2251,
    "Ġspeckled": 14312,
    "Ġpolitely": 8996,
    "spond": 5567,
    "sensations": 20054,
    "Ġdescended": 7428,
    "Ġgraze": 18227,
    "angle": 22108,
    "ox": 9136,
    "fore": 686,
    "Ġeffectively": 2692,
    "enges": 13059,
    "Ġports": 10820,
    "Ġsupplied": 8946,
    "Ġinfer": 7684,
    "Ġbashful": 20423,
    "fo": 5279,
    "Ġgarnery": 17390,
    "Ġdoubloon": 6945,
    "Ġrepl": 1590,
    "Ġcaulk": 25441,
    "doub": 6225,
    "legged": 10468,
    "driven": 19774,
    "Ġvisibly": 22838,
    "effect": 8607,
    "ientiously": 21936,
    "athan": 2953,
    "confl": 22475,
    "Ġturtle": 4205,
    "keepers": 16662,
    "ceiving": 3904,
    "Ġallies": 18235,
    "Ġfugitive": 17330,
    "Ġcountenances": 11969,
    "Ġsequ": 983,
    "Ġmanned": 9274,
    "piling": 15419,
    "Ġsmite": 22562,
    "proportions": 22851,
    "ribe": 1223,
    "aggoo": 5130,
    "Ġfurled": 22817,
    "Ġabsent": 7016,
    "gunwale": 20665,
    "Ġlinn": 13956,
    "Ġden": 3107,
    "Ġexcluded": 16388,
    "Ġsubsided": 14551,
    "Ġconfess": 3767,
    "Ġdromedary": 17442,
    "reliable": 21243,
    "Ġenemy": 5605,
    "extinguish": 22765,
    "Ġvexations": 24610,
    "Ġflurry": 18862,
    "say": 3984,
    "fed": 11490,
    "cats": 17514,
    "Ġjeopardized": 20233,
    "conditionally": 24835,
    "Ġunaware": 22063,
    "Ġcommissioned": 19897,
    "Ġoily": 13867,
    "partiality": 13164,
    "Ġattachment": 6051,
    "Ġhoarsely": 26303,
    "trifling": 19417,
    "Ġsire": 15505,
    "Ġrossum": 3010,
    "Ġoat": 21326,
    "arpaul": 14537,
    "inement": 11560,
    "stand": 629,
    "Ġcaus": 1725,
    "Ġshutting": 14762,
    "Ġirreparable": 20002,
    "Ġdemig": 20359,
    "oak": 21005,
    "Ġlottery": 19890,
    "Ġlounging": 10025,
    "Ġmutiny": 13265,
    "Ġmuseum": 15275,
    "idirectional": 2421,
    "Ġmeadow": 17154,
    "iving": 1726,
    "usal": 7639,
    "Ġattendant": 11287,
    "gems": 20886,
    "Ġmasterless": 23998,
    "Ġorganically": 3009,
    "Ġargue": 16785,
    "Ġsensational": 16395,
    "espe": 3502,
    "itation": 1780,
    "Ġconsisting": 8974,
    "Ġcontracting": 16016,
    "Ġintelligently": 3890,
    "Ġverte": 9445,
    "Ġcoverage": 4288,
    "Ġedd": 8398,
    "Ġcrippled": 25279,
    "Ġfreshly": 23990,
    "Ġerskine": 17435,
    "enthus": 17980,
    "reasonable": 7752,
    "Ġsurv": 6082,
    "Ġsitt": 21220,
    "uated": 10134,
    "igning": 12686,
    "Ġscrutiny": 26016,
    "ingly": 2135,
    "sixteen": 24854,
    "Ġconstruction": 9388,
    "Ġphantom": 8710,
    "Ġparametric": 2396,
    "Ġobtruded": 20724,
    "inities": 21188,
    "wanted": 10745,
    "Ġlobsters": 13520,
    "Ġbelike": 18832,
    "Ġresembles": 25970,
    "otam": 21802,
    "conject": 8884,
    "Ġglobe": 6077,
    "Ġheadache": 22902,
    "Ġfinishing": 23129,
    "lied": 6508,
    "Ġtropic": 17065,
    "Ġtechnical": 17194,
    "Ġlime": 13951,
    "ĠĠĠĠĠĠĠĠĠĠĠĠĠĠĠĠĠĠĠĠĠĠ": 16231,
    "Ġelements": 2667,
    "rous": 3753,
    "ingle": 1039,
    "Ġassiduous": 26294,
    "Ġinscriptions": 20012,
    "Ġopportunity": 4787,
    "Ġcharacteristically": 23693,
    "Ġsurpassed": 25268,
    "ked": 5616,
    "Ġlurid": 19684,
    "azed": 9402,
    "Ġrank": 6260,
    "Ġlord": 2963,
    "Ġquick": 2581,
    "Ġbells": 19604,
    "ceptible": 10959,
    "Ġcaught": 3732,
    "ars": 905,
    "folly": 20864,
    "âĢĶâĢľ": 2968,
    "Ġstaple": 26200,
    "Ġresolutely": 14611,
    "Ġvarying": 15815,
    "Ġplant": 8903,
    "Ġblame": 6447,
    "Ġportion": 7492,
    "man": 1057,
    "Ġdepose": 22592,
    "reng": 4002,
    "Ġplunge": 13447,
    "Ġearlier": 9090,
    "atmosphere": 21267,
    "tips": 13799,
    "judge": 13341,
    "Ġstrings": 11833,
    "Ġenlar": 15805,
    "Ġattent": 4360,
    "Ġslippery": 12171,
    "arp": 2026,
    "Ġanchor": 7368,
    "Ġstraightened": 12113,
    "elephant": 12355,
    "ĩ": 234,
    "mark": 5282,
    "Ġrelative": 11887,
    "Ġdispatched": 23884,
    "Ġhabitual": 24789,
    "Ġdad": 12605,
    "biting": 20783,
    "iors": 9128,
    "Ġantichronical": 26611,
    "treas": 17681,
    "Ġledgers": 23941,
    "Ġsimultaneous": 22595,
    "soled": 14332,
    "Ġquito": 24408,
    "Ġbade": 9174,
    "ants": 1388,
    "st": 316,
    "Ġsphere": 15888,
    "Ġmounted": 7832,
    "Ġimbedded": 18334,
    "prises": 23816,
    "enemy": 15531,
    "Ġattacks": 12209,
    "Ġresided": 11815,
    "Ġgayer": 24501,
    "lamp": 9611,
    "sheets": 14444,
    "Ġdisembow": 22541,
    "rudence": 7094,
    "immense": 18055,
    "added": 11662,
    "Ġtemporal": 2612,
    "throwing": 11707,
    "shake": 22449,
    "Ġlucky": 7759,
    "Ġsnail": 19302,
    "quet": 6835,
    "Ġsalutations": 25383,
    "Ġfarm": 7840,
    "Ġhaunt": 18198,
    "Ġdelineate": 26058,
    "Ġunqualified": 22065,
    "monkey": 19172,
    "ge": 559,
    "Ġtrousers": 12419,
    "vishnoo": 21122,
    "Ġlaughs": 24118,
    "conclude": 24069,
    "thence": 23401,
    "Ġspades": 12801,
    "Ġchalk": 15938,
    "*": 14,
    "Ġbandaged": 16844,
    "spouter": 22730,
    "perfect": 7635,
    "Ġprove": 5231,
    "Ġsuspic": 4469,
    "Ġwheelbarrow": 17207,
    "whilst": 18372,
    "eprints": 12797,
    "Ġinvisible": 7327,
    "impossible": 8828,
    "Ġsuperflu": 14556,
    "tol": 17674,
    "Ġrace": 5848,
    "Ġfairer": 20465,
    "whiskers": 12315,
    "impud": 23762,
    "ook": 21006,
    "somewhat": 11162,
    "Ġgardens": 16454,
    "ravelled": 18017,
    "Ġthimble": 15642,
    "Ġjamming": 17267,
    "confused": 19642,
    "Ġattentive": 9036,
    "ounds": 4158,
    "Ġreciprocating": 26371,
    "Ġsustain": 10020,
    "Ġcoefficient": 2882,
    "Ġpretension": 23766,
    "pred": 2801,
    "Ġexperience": 1394,
    "Ġunhappy": 5640,
    "ring": 1752,
    "Ġarid": 22180,
    "Ġwhiff": 21721,
    "isles": 15569,
    "atically": 2535,
    "wants": 21133,
    "cong": 10691,
    "umphed": 23518,
    "affectionate": 24922,
    "Ġresume": 18566,
    "Ġdick": 3500,
    "pale": 13775,
    "Ġought": 3424,
    "Ġbene": 2031,
    "Ġstim": 18066,
    "Ġplaying": 6909,
    "Ġunsafe": 22045,
    "stricken": 9887,
    "Ġinsufferable": 13934,
    "une": 2785,
    "Ġbarricade": 14662,
    "Ġaltered": 7393,
    "Ġcurrent": 13016,
    "Ġ30": 10514,
    "Ġstup": 14008,
    "Ġstern": 4223,
    "itely": 5365,
    "Ġstayed": 7998,
    "orily": 15578,
    "ctor": 13963,
    "Ġund": 4120,
    "Ġdepression": 21844,
    "ony": 3030,
    "Ġmorsel": 20680,
    "Ġword": 1055,
    "Ġimprudently": 22391,
    "Ġrabbit": 4289,
    "Ġdistorted": 14252,
    "Ġbriskly": 25312,
    "forster": 16168,
    "cheeks": 23809,
    "Ġmortal": 4683,
    "Ġboone": 11844,
    "Ġtruth": 3321,
    "Ġ199": 3006,
    ".âĢĻ": 1720,
    "ivance": 22079,
    "bee": 16042,
    "Ġshirt": 8853,
    "Ġcongregated": 20100,
    "Ġsy": 491,
    "Ġarticle": 9505,
    "beheld": 11805,
    "itting": 1148,
    "Ġsensible": 4976,
    "Ġexpon": 966,
    "Ġoccasions": 7988,
    "Ġfirmest": 16667,
    "Ġfasting": 16360,
    "ians": 2359,
    "chari": 21692,
    "ard": 465,
    "dia": 2134,
    "Ġunfrequent": 24111,
    "miniature": 16767,
    "$": 8,
    "Ġbridal": 14957,
    "Ġsurvivor": 17366,
    "Ġdawn": 6817,
    "Ġpleasant": 4171,
    "Ġknighthood": 25298,
    "Ġvariations": 22669,
    "Ġgrazed": 15838,
    "meas": 7434,
    "Ġscales": 4851,
    "threw": 21988,
    "Ġrake": 18644,
    "Ġquaff": 22418,
    "Ġutterance": 14766,
    "Ġvineyarder": 25607,
    "Ġregrets": 18601,
    "Ġpark": 5465,
    "kshire": 13749,
    "Ġflea": 23775,
    "ailing": 7023,
    "apped": 5395,
    "iquet": 17577,
    "transom": 19738,
    "Ġarsacides": 17297,
    "infidel": 24664,
    "from": 1990,
    "Ġdocumentation": 20557,
    "Ġstratag": 26029,
    "cloth": 11941,
    "Ġstarts": 16585,
    "Ġnecess": 3479,
    "Ġbaron": 19336,
    "himself": 3971,
    "call": 8726,
    "Ġprodigy": 19795,
    "one": 615,
    "ensions": 14262,
    "hauteur": 26393,
    "Ġdance": 4441,
    "E": 41,
    "resent": 10771,
    "Ġrevellers": 21681,
    "Ġwhosoever": 21722,
    "Ġhundredth": 16522,
    "Ġincreases": 3796,
    "rese": 15512,
    "Ġstri": 2802,
    "somers": 19371,
    "Ġpositives": 4317,
    "Ġcrests": 25686,
    "Ġsnar": 13204,
    "Ġmagnetic": 17243,
    "Ġsentiment": 6591,
    "Ġmes": 17798,
    "Ġinfamy": 14503,
    "Ġvows": 15813,
    "Ġrespectability": 14487,
    "Ġtransp": 4771,
    "Ġturtles": 19223,
    "================": 3724,
    "Ġjeopardy": 13600,
    "brown": 15321,
    "threat": 10902,
    "Ġsubmission": 22793,
    "Ġintently": 8169,
    "bounded": 13443,
    "Ġsecure": 4913,
    "Ġvariously": 18653,
    "Ġrestrained": 16376,
    "una": 21873,
    "Ġclutched": 13522,
    "enial": 17782,
    "stir": 12678,
    "du": 604,
    "Ġchair": 3664,
    "colnett": 19332,
    "tu": 12516,
    "alter": 10828,
    "Ġlad": 2365,
    "induce": 22378,
    "Ġbes": 2659,
    "Ġdisquis": 22531,
    "uzza": 11272,
    "Ġcomplexion": 8211,
    "Ġchowder": 10283,
    "Ġentreated": 9954,
    "lonely": 20959,
    "Ġscents": 22291,
    "hunsford": 24386,
    "Ġdrifted": 14627,
    "Ġextremity": 8991,
    "cet": 15328,
    "aution": 9390,
    "twelvemonth": 25863,
    "Ġstubbornness": 25380,
    "urp": 1472,
    "Ġcoals": 16078,
    "Ġfortitude": 9888,
    "Ġrow": 5246,
    "Ġargosy": 24276,
    "shipping": 10310,
    "Ġfullest": 14817,
    "Ġbase": 5013,
    "thrown": 8483,
    "Ġguar": 23049,
    "guarded": 13299,
    "Ġrifts": 21979,
    "Ġtremendous": 8353,
    "ayed": 12717,
    "Ġgans": 5822,
    "crooked": 25747,
    "Ġholy": 6593,
    "ential": 824,
    "announcement": 24563,
    "Ġhers": 7889,
    "Ġsuspect": 5758,
    "vag": 8768,
    "urry": 13996,
    "Ġen": 393,
    "Ġstated": 9692,
    "ises": 3656,
    "Ġbroods": 23106,
    "iar": 2378,
    "Ġlamented": 24994,
    "mount": 9132,
    "Ġdistributes": 4197,
    "Ġgroaned": 11268,
    "Ġsaddest": 16665,
    "Ġtraps": 23083,
    "recollection": 25349,
    "Ġcrash": 12006,
    "Ġweedy": 15798,
    "magn": 10613,
    "Ġbubb": 12589,
    "boscombe": 26122,
    "Ġsubdiv": 16164,
    "Ġicebergs": 23978,
    "Ġimprudent": 12853,
    "Ġmainmast": 9782,
    "Ġtreatment": 12076,
    "hos": 15367,
    "terogene": 21829,
    "Ġmartyr": 26362,
    "Ġ97": 19777,
    "Ġrecklessness": 24744,
    "Ġenigmatical": 20600,
    "ineas": 15827,
    "isen": 10794,
    "Ġtemperature": 1004,
    "iate": 6506,
    "disappo": 8987,
    "Ġdiscourse": 9801,
    "difference": 13711,
    "Ġabsorbed": 12335,
    "Ġalms": 21784,
    "Ġgallantry": 15107,
    "Ġimmersed": 19488,
    "liber": 18815,
    "Ġtons": 11552,
    "uns": 21874,
    "Ġsignificance": 13285,
    "Ġgruff": 21617,
    "Ġbefall": 8833,
    "Ġdispersed": 16599,
    "Ġsauntering": 18327,
    "protruding": 24813,
    "Ġmost": 1019,
    "gged": 3778,
    "Ġsulkily": 25882,
    "ourage": 2450,
    "Ġclubb": 22356,
    "Ġreflections": 5948,
    "urring": 21708,
    "ining": 3219,
    "Ġsentence": 6189,
    "Ġdeployment": 11203,
    "view": 5897,
    "opement": 10314,
    "Ġadvers": 4888,
    "Ġforgotten": 5679,
    "Ġwidest": 24237,
    "duty": 20242,
    "nuee": 17433,
    "Ġhamp": 12635,
    "Ġexplore": 15913,
    "them": 3018,
    "Ġconfusion": 7273,
    "Ġaustral": 12177,
    "Ġdoes": 942,
    "disagreeable": 11165,
    "loved": 14253,
    "Ġcontrive": 16015,
    "exp": 2738,
    "veil": 18045,
    "precipitance": 25868,
    "Ġinterference": 8898,
    "Ġtransparent": 9492,
    "Ġbricks": 13566,
    "Ġholidays": 22925,
    "endured": 22224,
    "Ġsources": 10150,
    "Ġarguing": 25471,
    "Ġbutts": 15841,
    "bred": 11471,
    "pag": 11513,
    "height": 21208,
    "turbaned": 24532,
    "rodden": 21538,
    "introduction": 15127,
    "assured": 10954,
    "Ġowing": 6006,
    "inished": 17736,
    "Ġcompletely": 4861,
    "alogies": 25162,
    "Ġpra": 4346,
    "elius": 13292,
    "Ġpathways": 11155,
    "Ġshortness": 23483,
    "ptember": 10895,
    "_),": 7127,
    "Ġwhistled": 24624,
    "Ġfisher": 3220,
    "cess": 541,
    "convalescence": 24885,
    "blast": 9590,
    "Ġinnermost": 12165,
    "unciation": 25983,
    "ries": 3356,
    "Ġforeseen": 16443,
    "Ġeternity": 12283,
    "Ġexplanation": 6694,
    "charge": 9452,
    "izing": 1069,
    "Ġsurgeon": 8984,
    "Ġinstruments": 12228,
    "Ġenh": 3282,
    "Ġbaronial": 23795,
    "northern": 23669,
    "Ġmadman": 13155,
    "white": 4602,
    "ful": 677,
    "Ġdesperately": 24657,
    "Ġdip": 13910,
    "_.": 2212,
    "Ġhammered": 13246,
    "Ġperceiving": 8879,
    "Ġstatistical": 11106,
    "abst": 21792,
    "Ġgovernor": 16493,
    "Ġlur": 5226,
    "Ġnobleman": 19395,
    "Ġprinciple": 6771,
    "Ġmac": 15543,
    "itchen": 7788,
    "Ġasks": 5115,
    "Ġsurely": 6309,
    "Ġlogical": 14489,
    "Ġimmeas": 18332,
    "Ġstalls": 25648,
    "Ġwaldman": 11347,
    "89": 20761,
    "Ġpew": 9318,
    "emotions": 15802,
    "Ġgeomet": 3190,
    "Ġreproof": 24891,
    "hooked": 23717,
    "Ġsulphur": 24934,
    "Ġcocoan": 20319,
    "Ġsubject": 2463,
    "Ġsuffocated": 20730,
    "Ġmovable": 22437,
    "thole": 21990,
    "Ġdeformed": 14050,
    "Ġsanctioned": 26352,
    "Ġoutrage": 15963,
    "Ġliber": 5168,
    "Ġtoad": 21513,
    "univers": 15777,
    "romang": 22009,
    "Ġsubfield": 11873,
    "Ġlongbourn": 3511,
    "Ġquickly": 4242,
    "Ġconvul": 13207,
    "Ġgriff": 22811,
    "dred": 2524,
    "Ġoverjoy": 15977,
    "Ġbounty": 26439,
    "Ġaccountability": 10440,
    "whispered": 20037,
    "Ġclubs": 25180,
    "Ġingen": 9052,
    "Ġascendency": 20235,
    "Ġprevious": 2088,
    "eds": 6531,
    "doubtful": 24790,
    "Ġ122": 24467,
    "sunlight": 24852,
    "Ġweighed": 8714,
    "Ġnorthumbria": 24174,
    "Ġinfancy": 10411,
    "Ġreddening": 25971,
    "ome": 535,
    "arb": 1562,
    "Ġrelated": 3716,
    "likeness": 19481,
    "Ġviolent": 5117,
    "Ġprejudiced": 24806,
    "Ġcasc": 15561,
    "Ġreiterating": 26476,
    "Ġtorment": 8677,
    "thern": 4953,
    "oked": 4308,
    "commission": 22808,
    "Ġcloudless": 16671,
    "ream": 2710,
    "Ġforgetfulness": 14608,
    "can": 1232,
    "Ġdelightfully": 13162,
    "Ġepaulets": 24906,
    "anced": 1317,
    "distance": 12157,
    "Ġslink": 23166,
    "steelkilt": 10050,
    "ectual": 21919,
    "unching": 18161,
    "sense": 11526,
    "Ġtwitch": 22679,
    "Ġillustrative": 25069,
    "Ġcoll": 8222,
    "Ġworried": 22929,
    "vessel": 11379,
    "silver": 19693,
    "Ġemails": 13111,
    "ricade": 13043,
    "Ġfore": 2153,
    "bal": 2157,
    "che": 3170,
    "Ġgomorrah": 21618,
    "Ġbrightened": 23831,
    "Ġveins": 8935,
    "Ġbringing": 5871,
    "Ġfinanc": 23132,
    "parlour": 16394,
    "Ġcath": 17828,
    "Ġobsolete": 26560,
    "Ġfring": 11129,
    "Ġsmells": 8894,
    "âĢľâĢĺ": 1484,
    "misrepresented": 24214,
    "uzz": 4523,
    "urn": 777,
    "Ġpoetry": 15084,
    "Ġfishers": 19357,
    "commend": 19996,
    "scream": 11078,
    "Ġcoolly": 9775,
    "aloes": 21505,
    "Ġsigning": 22713,
    "Ġwrecked": 9969,
    "Ġvindictive": 20473,
    "Ġgrecian": 26297,
    "Ġaffording": 14824,
    "Ġ90": 24589,
    "Ġwent": 1535,
    "swear": 16920,
    "Ġcum": 21345,
    "Ġvowed": 14087,
    "Ġsog": 22088,
    "Ġassembl": 20064,
    "Ġconsumm": 15158,
    "Ġabide": 14190,
    "Ġadvancement": 24475,
    "sent": 759,
    "Ġnimble": 21531,
    "several": 5544,
    "Ġautumn": 14506,
    "Ġinterven": 11000,
    "Ġrepining": 23361,
    "disappearing": 23504,
    "village": 25423,
    "Ġdangers": 12358,
    "train": 2033,
    "Ġlit": 6248,
    "Ġdiab": 10614,
    "hamed": 6307,
    "ted": 791,
    "Ġcrowded": 8012,
    "Ġjet": 5309,
    "Ġ131": 24781,
    "Ġharbors": 24902,
    "Ġlapl": 19780,
    "Ġflitting": 13031,
    "truck": 15445,
    "Ġbest": 1974,
    "friend": 3862,
    "Ġenlivened": 26209,
    "Ġobligation": 13250,
    "Ġclustered": 25234,
    "loat": 8890,
    "Ġhulls": 13929,
    "Ġprocedures": 9415,
    "along": 6014,
    "Ġquite": 1741,
    "Ġinflict": 15003,
    "unwilling": 14064,
    "Ġapproxim": 1219,
    "chie": 21693,
    "tling": 9145,
    "dispute": 23501,
    "plish": 18209,
    "gences": 20879,
    "rane": 17655,
    "Ă": 195,
    "Ġrevolution": 3306,
    "Ġfool": 4236,
    "Ġdumb": 7843,
    "oysius": 14368,
    "Ġbeware": 8832,
    "mediterranean": 16409,
    "Ġnailed": 10192,
    "blooded": 20026,
    "ior": 2038,
    "miserably": 24213,
    "mur": 5428,
    "Ġmonogra": 22985,
    "darted": 20834,
    "xter": 9149,
    "Ġaffectionate": 5585,
    "Ġflames": 7940,
    "Ġbuilding": 8063,
    "Ġslumbering": 25702,
    "aft": 9586,
    "Ġsorrowful": 10539,
    "Ġreneg": 21678,
    "unable": 14062,
    "Ġenlarged": 25986,
    "Ġbathed": 17867,
    "Ġkeenest": 12166,
    "Ġimpious": 15992,
    "nants": 17615,
    "beside": 19879,
    "Ġcreatures": 4139,
    "intment": 4721,
    "ization": 486,
    "Ġtreacherous": 13558,
    "popular": 26141,
    "straw": 24099,
    "Ġburke": 19253,
    "Ġevangel": 11282,
    "izings": 14054,
    "Ġtides": 13824,
    "Ġdesperation": 19821,
    "Ġca": 21342,
    "Ġmuscle": 14691,
    "Ġchuckled": 10650,
    "Ġspl": 2982,
    "Ġembellished": 25850,
    "Ġdistribution": 2018,
    "Ġindications": 14634,
    "Ġcondition": 6765,
    "attered": 4019,
    "Ġabsolute": 6766,
    "Ġgiving": 4087,
    "Ġaudio": 24771,
    "Ġcapture": 3388,
    "Ġabandonment": 25604,
    "Ġchapters": 10475,
    "Ġcalculus": 23986,
    "Ġallowing": 2175,
    "unfort": 21880,
    "various": 10400,
    "Ġpadded": 25039,
    "resentment": 15189,
    "twist": 23703,
    "boots": 11128,
    "Ġmarrying": 6179,
    "consp": 18503,
    "Ġequalled": 13317,
    "studies": 25170,
    "retion": 9365,
    "âĢĻ!âĢĿ": 18170,
    "Ġscr": 11765,
    "Ġsplin": 8622,
    "Ġcet": 6672,
    "religion": 20578,
    "Ġtougher": 21179,
    "Ġabund": 8868,
    "Ġtwit": 12934,
    "Ġsounds": 5190,
    "teous": 16178,
    "Ġworshipper": 25693,
    "kill": 13747,
    "ates": 518,
    "Ġber": 5698,
    "Ġparticular": 2448,
    "glimmer": 26323,
    "ager": 6548,
    "Ġinstrument": 7120,
    "Ġcontributes": 15254,
    "Ġconsternation": 9862,
    "Ġextinguish": 14338,
    "Ġaccidents": 10298,
    "etieth": 21587,
    "piled": 21017,
    "mai": 22914,
    "cream": 15334,
    "Ġfarthing": 14457,
    "running": 6798,
    "Ġstrasburgh": 18615,
    "Ġcommended": 18657,
    "kilt": 4867,
    "Ġshook": 4467,
    "Ġdrag": 6186,
    "garn": 20872,
    "Ġrain": 5005,
    "Ġhartshorn": 26182,
    "Ġmeat": 8152,
    "Ġquill": 12862,
    "rod": 10833,
    "maj": 18802,
    "derness": 11741,
    "Ġidiotic": 25589,
    "Ġdispleasure": 16057,
    "stranded": 19228,
    "Ġneatly": 17018,
    "Ġmors": 17803,
    "Ġmagical": 23102,
    "entering": 17979,
    "Ġcabin": 3304,
    "cooper": 19191,
    "Ġobst": 6285,
    "Ġproduces": 2093,
    "Ġsmoke": 4716,
    "Ġconfederate": 17356,
    "property": 20003,
    "hon": 6794,
    "successfully": 14994,
    "Ġthinner": 24185,
    "Ġacted": 7422,
    "straight": 9943,
    "Ġprivacy": 19527,
    "Ġgrapnels": 25552,
    "Ġwedge": 24935,
    "Ġspeakest": 23487,
    "Ë": 140,
    "deav": 2674,
    "Ġwish": 2098,
    "Ġmart": 10781,
    "dried": 20829,
    "Ġphrase": 11189,
    "Ġunbecoming": 22068,
    "Ġspasmodically": 17317,
    "Ġwears": 10243,
    "Ġdisgusting": 19896,
    "itzerland": 9998,
    "arking": 16130,
    "deserving": 17248,
    "Ġexcitement": 9383,
    "Ġactivations": 2720,
    "Ġextracting": 11113,
    "Ġensuring": 11193,
    "fac": 17543,
    "nuts": 15402,
    "Ġschol": 17380,
    "Ġdeeds": 15764,
    "dreaded": 25141,
    "Ġmotives": 7486,
    "cy": 643,
    "Ġchilled": 18383,
    "Ġeasily": 3892,
    "visited": 13352,
    "Ġresource": 10995,
    "Ġstaid": 21739,
    "Ġdreams": 7496,
    "rior": 12747,
    "Ġmajesty": 5201,
    "miss": 3173,
    "Ġbluff": 16521,
    "moored": 22709,
    "occ": 4483,
    "Ġrecesses": 17263,
    "Ġbehaved": 13259,
    "Ġdiscovery": 5412,
    "geese": 22371,
    "Ġrob": 1282,
    "penetrate": 20327,
    "Ġfrenz": 25447,
    "baggage": 24927,
    "Ġharpoon": 3619,
    "Ġcast": 3608,
    "Ġacquiring": 2767,
    "Ġgallop": 19558,
    "Ġservices": 11219,
    "arat": 9183,
    "Ġcomplex": 741,
    "Ġmillar": 13864,
    "Ġabsor": 8507,
    "Ġgreenness": 23769,
    "_,âĢĻâĢĿ": 20404,
    "inferior": 12398,
    "ms": 538,
    "frost": 15110,
    "Ġidol": 7467,
    "Ġbesee": 19245,
    "Ġfaintly": 14918,
    "mr": 1900,
    "Ġincurable": 22557,
    "securer": 25603,
    "corrupt": 14898,
    "fourth": 11330,
    "Ġpy": 21453,
    "seem": 10230,
    "Ġmorals": 22980,
    "anct": 21361,
    "seaman": 25458,
    "ilder": 15718,
    "dar": 20826,
    "Ġtrial": 6637,
    "prodig": 16430,
    "dece": 11738,
    "Ġhonorable": 16878,
    "Ġferocity": 16868,
    "stranger": 9886,
    "hundred": 8331,
    "Ġsurve": 9877,
    "Ġprevented": 5943,
    "supers": 22653,
    "wantonly": 25153,
    "Ġmumbling": 11577,
    "ortunities": 15945,
    "Ġkey": 2102,
    "Ġsaluted": 14761,
    "sli": 11525,
    "attain": 21264,
    "ength": 2311,
    "lings": 8749,
    "Ġassume": 10518,
    "Ġaberde": 22281,
    "apolog": 22336,
    "Ġinsignific": 13184,
    "Ġsupp": 1263,
    "Ġcorporeal": 17363,
    "Ġenvirons": 13201,
    "lac": 17591,
    "Ġdenying": 14660,
    "Ġlivelihood": 24773,
    "context": 3409,
    "Ġbleeds": 24397,
    "Ġmilk": 6486,
    "pots": 11516,
    "Ġpain": 2301,
    "protest": 24812,
    "atter": 656,
    "shone": 22447,
    "Ġregretted": 13404,
    "Ġlevi": 3035,
    "Ġsustenance": 19937,
    "libra": 22928,
    "Ġsashes": 21228,
    "hercules": 22208,
    "Ġtrifled": 24675,
    "Ġskills": 1839,
    "ulia": 18151,
    "ithmetic": 18064,
    "Ġdrops": 9035,
    "inkling": 16095,
    "Ġwretch": 6379,
    "Ġstress": 18069,
    "Ġottoman": 17381,
    "carpenter": 11429,
    "Ġbouton": 17870,
    "unalterable": 21890,
    "Ġpubl": 3940,
    "Ġmystical": 12137,
    "achalot": 15868,
    "uge": 4017,
    "Ġconclude": 8583,
    "console": 22477,
    "Ġbrawny": 13617,
    "glass": 9912,
    "Ġvomit": 21950,
    "Ġar": 479,
    "Ġgallant": 8658,
    "Ġmultitude": 9328,
    "Ġmonster": 3794,
    "Ġsentences": 2683,
    "Ġsucc": 12789,
    "Ġdimin": 3871,
    "aging": 2237,
    "¤": 102,
    "Ġembedding": 2104,
    "Ġrepose": 6743,
    "direct": 12461,
    "variance": 2654,
    "Ġpencils": 23197,
    "Ġaided": 17747,
    "Ġheat": 5453,
    "Ġmaketh": 15191,
    "Ġholland": 10368,
    "Ġstings": 21738,
    "Ġscattered": 6856,
    "Ġmarvel": 23040,
    "ometer": 19328,
    "kicked": 20945,
    "Ġlies": 5297,
    "Ġaglow": 22518,
    "increase": 20271,
    "Ġtahit": 10756,
    "urean": 18125,
    "Ġweighing": 20019,
    "Ġgrain": 15836,
    "Ġexord": 21831,
    "Ġinvincible": 23481,
    "whips": 22242,
    "viating": 14581,
    "Ġerud": 20058,
    "Ġav": 3585,
    "Ġlighting": 13087,
    "Ġmor": 1248,
    "Ġstoop": 16314,
    "faces": 13723,
    "ained": 3066,
    "Ġnatives": 17953,
    "aco": 12911,
    "Ġsleek": 23385,
    "shortly": 12263,
    "Ġemerge": 14931,
    "Ġimpro": 921,
    "Ġtale": 5142,
    "brilliancy": 26078,
    "lording": 24053,
    "Ġswarming": 16277,
    "rop": 540,
    "amusement": 15286,
    "brim": 23577,
    "Ġint": 409,
    "Ġembellish": 25849,
    "mes": 1198,
    "Ġpreternatural": 12828,
    "riot": 18184,
    "Ġhelter": 24028,
    "Ġroof": 6566,
    "Ġhook": 6454,
    "Ġdominion": 16519,
    "collins": 6916,
    "Ġlanguages": 1565,
    "Ġsenior": 17174,
    "jet": 13745,
    "Ġcooped": 22585,
    "Ġspray": 7894,
    "Ġcherish": 10592,
    "natural": 2326,
    "Ď": 207,
    "accept": 8901,
    "Ġinstant": 2705,
    "Ġabound": 8867,
    "Ġfut": 15580,
    "lott": 6653,
    "occupation": 15059,
    "Ġundertake": 14482,
    "Ġjune": 10291,
    "accident": 11183,
    "Ġuninjured": 22060,
    "Ġconcerning": 4070,
    "Ġenormousness": 24515,
    "arched": 10817,
    "pow": 10719,
    "Ġazores": 20196,
    "Ġtempered": 12927,
    "ruck": 6848,
    "splash": 25210,
    "virtue": 20572,
    "Ġbrightest": 13230,
    "Ġcompat": 2935,
    "ppered": 15796,
    "term": 3759,
    "attle": 4465,
    "smile": 23909,
    "Ġinsignificance": 20460,
    "Ġweap": 6157,
    "acqu": 4844,
    "mechanical": 25579,
    "Ġclad": 12845,
    "iss": 2177,
    "Ġelephants": 9867,
    "Ġdu": 4584,
    "Ġatrocious": 21947,
    "Ġdig": 6137,
    "Ġinsulated": 23682,
    "Ġstrove": 9960,
    "greeting": 24554,
    "Ġberg": 24536,
    "Ġhappens": 2188,
    "irited": 15792,
    "Ġgenerally": 4159,
    "conviction": 19968,
    "Ġdon": 1610,
    "Ġgre": 1580,
    "Ġveget": 11890,
    "Ġlowermost": 23243,
    "aks": 8509,
    "Ġstorm": 4301,
    "Ġtechnique": 2611,
    "Ġrespectful": 16349,
    "Ġabruptly": 15154,
    "propriety": 14375,
    "Ġfish": 2711,
    "Ġthirteen": 15278,
    "absurd": 21799,
    "idated": 11664,
    "Ġloftiest": 16876,
    "Ġtum": 5692,
    "terns": 21826,
    "byshire": 6174,
    "Ġflight": 6582,
    "Ġenriched": 26501,
    "Ġsun": 1721,
    "formity": 10281,
    "seized": 14038,
    "Ġthirst": 7590,
    "Ġnumberless": 16419,
    "etimes": 1987,
    "persecut": 22193,
    "Ġdashing": 8800,
    "Ġastr": 15498,
    "Ġmouthfuls": 20648,
    "Ġcous": 3441,
    "savagery": 25026,
    "Ġdisaster": 12892,
    "Ġtyphoons": 20237,
    "Ġwide": 4109,
    "extracts": 22766,
    "Ġwhirl": 13453,
    "Ġbob": 22639,
    "Ġgryphon": 4300,
    "Ġdolphin": 17315,
    "solid": 16381,
    "Ġwished": 3731,
    "Ġpurely": 12236,
    "Ġfeels": 6882,
    "Ġhemis": 21687,
    "Ġlake": 5227,
    "plans": 21962,
    "Ġbinding": 20422,
    "Ġunwaning": 24830,
    "Ġrap": 14307,
    "directed": 20408,
    "Ġskies": 8924,
    "Ġleast": 2063,
    "Ġhurst": 5582,
    "Ġpresuming": 16795,
    "purpose": 10047,
    "setting": 13290,
    "Ġcame": 1300,
    "offered": 14519,
    "Ġexplaining": 15965,
    "Ġaccommodate": 20520,
    "Ġoccupies": 24011,
    "Ġunobserved": 18253,
    "Ġgrass": 5177,
    "rece": 21237,
    "ous": 477,
    "Ġklan": 23664,
    "ifling": 15788,
    "apping": 5853,
    "gust": 6362,
    "Ġrejo": 5917,
    "Ġlingered": 13508,
    "ermost": 7430,
    "Ġirene": 8445,
    "Ġhats": 14621,
    "Ã¦mon": 7096,
    "nial": 20986,
    "Ġlines": 4533,
    "Ġformula": 2863,
    "Ġabsence": 4895,
    "prep": 9762,
    "assistant": 25568,
    "ethics": 8881,
    "ains": 5094,
    "itig": 1331,
    "Ġfixing": 13160,
    "Ġintuitions": 17344,
    "Ġbam": 15571,
    "unquiet": 21885,
    "Ġloth": 17968,
    "frank": 7758,
    "ontory": 10461,
    "ument": 5240,
    "rooms": 10434,
    "Ġaux": 21202,
    "ssip": 14083,
    "Ġdeclining": 23967,
    "Ġin": 291,
    "Ġsoaked": 15867,
    "Ġvoyage": 3056,
    "Ġbars": 13900,
    "Ġplainer": 23706,
    "pardonable": 17220,
    "Ġharness": 17930,
    "find": 6954,
    "Ġabstracted": 17185,
    "Ġtails": 9905,
    "Ġinquirers": 24965,
    "ĠĠĠĠĠĠĠĠĠĠĠĠĠĠĠĠĠĠĠĠĠĠĠĠĠĠĠĠĠĠĠ": 19703,
    "Ġchamois": 16802,
    "quer": 11683,
    "Ġcopies": 24938,
    "Ġpacing": 8427,
    "Ġwid": 4634,
    "uble": 21105,
    "Ġdamn": 11160,
    "Ġendeavors": 16548,
    "Ġjudging": 16597,
    "Ġde": 363,
    "Ġworkmen": 23035,
    "Ġvia": 2383,
    "Ġunctuous": 10270,
    "Ġcome": 1241,
    "vast": 10738,
    "Ġ104": 24412,
    "isation": 13896,
    "erated": 21274,
    "Ġisles": 8461,
    "scale": 3537,
    "oub": 1633,
    "Ġramadans": 25122,
    "Ġcrate": 19121,
    "æ": 167,
    "introduce": 25187,
    "general": 7489,
    "hs": 8378,
    "somewhere": 12017,
    "Ġresuming": 12898,
    "shows": 22450,
    "Ġpeeled": 14321,
    "Ġwave": 7576,
    "Ġlost": 2635,
    "Ġmagistrate": 8234,
    "Ġrationally": 18214,
    "Ġsprout": 24091,
    "mitting": 20975,
    "Ġhistorically": 19381,
    "Ġmothers": 14542,
    "Ġwearily": 18180,
    "mort": 10712,
    "iceland": 21569,
    "Ġteneriffe": 26416,
    "holding": 7739,
    "everything": 6326,
    "Ġdirty": 9181,
    "Ġwilliam": 3485,
    "calculating": 25690,
    "Ġwhole": 1662,
    "Ġapprobation": 10987,
    "Ġenabled": 9299,
    "Ġwelfare": 12564,
    "immortal": 21713,
    "Ġrheumatic": 20707,
    "ð": 177,
    "succeed": 10332,
    "Ġbrazen": 23842,
    "Ġrocking": 10971,
    "constellation": 24608,
    "Ġfell": 1977,
    "Ġlabours": 8585,
    "Ġfloat": 12036,
    "priv": 9622,
    "Ġworsted": 19998,
    "unctuous": 21886,
    "Ġcapable": 5054,
    "Ġgor": 9209,
    "independ": 15987,
    "Ġties": 12532,
    "Ġsuns": 23277,
    "Ġirresolute": 24917,
    "Ġsockets": 22092,
    "Ġstrangeness": 16706,
    "Ġcaroline": 7255,
    "Ġgo": 613,
    "moreover": 12974,
    "Ġhas": 823,
    "Ġinitials": 11016,
    "Ġfaithfulness": 24446,
    "Ġslang": 23162,
    "Ġnearing": 15800,
    "Ġextract": 1514,
    "Ġbit": 2961,
    "honorable": 19903,
    "Ġgangway": 20161,
    "Ġairth": 23321,
    "Ġab": 528,
    "paus": 13776,
    "untary": 9870,
    "Ġlakes": 8131,
    "Ġdeal": 3610,
    "sively": 13789,
    "Ġeyes": 1334,
    "Ġducks": 25161,
    "Ġben": 1109,
    "Ġoffered": 5817,
    "Ġdimensions": 16574,
    "Ġunjust": 8486,
    "Ġmidday": 23634,
    "Ġtasselled": 25922,
    "inating": 9156,
    "Ġcountry": 2530,
    "Ġsoda": 25535,
    "Ġbible": 9322,
    "Ġod": 4438,
    "Ġprint": 18969,
    "aze": 10078,
    "Ġhandsom": 11126,
    "Ġbanished": 10619,
    "Ġnatur": 17337,
    "cour": 4478,
    "Ġbowed": 6244,
    "iron": 3611,
    "Ġfinal": 5400,
    "path": 10121,
    "nin": 17610,
    "ean": 20842,
    "vulgar": 25919,
    "Ġpear": 11856,
    "isc": 6241,
    "ď": 208,
    "Ġcompetent": 11820,
    "Ġnuptial": 25783,
    "Ġabutted": 22279,
    "Ġminutes": 2997,
    "paying": 25412,
    "Ġlandscape": 12421,
    "Ġmund": 21321,
    "Ġprofessional": 7299,
    ",âĢĿâĢĶ": 14217,
    "atious": 10154,
    "Ġcraw": 7282,
    "Ġwooing": 19437,
    "Ġfollies": 16260,
    "Ġbag": 5699,
    "Ġiceland": 15150,
    "vocation": 25087,
    "Ġpertur": 12856,
    "ref": 6516,
    "Ġcorpor": 23044,
    "coal": 12029,
    "Ġrepresentations": 1874,
    "Ġdownstairs": 11226,
    "Ġestates": 16463,
    "orm": 425,
    "Ġprofit": 14587,
    "some": 2234,
    "angels": 22110,
    "putable": 10903,
    "ceed": 1076,
    "oboam": 9361,
    "Ġsupplies": 20329,
    "natured": 7112,
    "mpus": 13760,
    "vapor": 25756,
    "lake": 13752,
    "Ġshirr": 18232,
    "Ġcatholic": 20684,
    "uously": 7353,
    "Ġtrance": 12844,
    "Ġtravelling": 11309,
    "Ġworld": 1593,
    "self": 617,
    "Ġghostly": 24651,
    "contempt": 13192,
    "dat": 1665,
    "Ġimprudence": 10300,
    "Ġinsufficient": 9675,
    "Ġchanges": 2285,
    "Ġrowing": 10303,
    "Ġenthr": 22746,
    "threatened": 25463,
    "Ġampl": 22480,
    "dial": 20827,
    "Ġsteal": 16287,
    "Ġvagu": 13593,
    "Ġbird": 3757,
    "Ġnative": 4642,
    "Ġcheat": 19023,
    "Ġperth": 7024,
    "club": 26382,
    "slackened": 26095,
    "Ġfashioned": 13325,
    "Ġtalker": 23372,
    "Ġpledge": 11603,
    "aders": 21762,
    "snow": 10726,
    "uous": 4146,
    "Í": 142,
    "Ġexper": 1305,
    "Ġdistant": 5387,
    "Ġerection": 24004,
    "izard": 10885,
    "all": 485,
    "yset": 21148,
    "Ġclutch": 15056,
    "bedroom": 14701,
    "enger": 10775,
    "Ġforked": 11667,
    "Ġsharing": 3480,
    "ĠĠĠĠĠĠĠĠĠĠĠĠĠĠĠĠĠĠĠĠĠĠĠĠĠĠĠĠĠĠĠĠĠĠĠĠĠ": 14617,
    "Ġforc": 9230,
    "Ġinvestment": 24332,
    "Ġmightier": 18731,
    "Ġfeasible": 22212,
    "Ġreproofs": 24893,
    "Ġafghan": 22632,
    "Ġtep": 21164,
    "Ġfriesland": 26444,
    "Ġlong": 795,
    "Ġspermaceti": 8970,
    "Ġencomp": 12968,
    "Ġscarce": 8625,
    "iod": 3840,
    "Ġthought": 1095,
    "Ġprodigious": 8057,
    "Ġtrifling": 10605,
    "Ġoutput": 929,
    "Ġgorge": 13570,
    "¨": 106,
    "Ġdressing": 7092,
    "Ġbrahma": 26321,
    "Ġdeject": 10882,
    "hab": 1078,
    "alice": 3207,
    "beware": 16044,
    "Ġraving": 16118,
    "disinterested": 23503,
    "Ġsufferable": 16262,
    "own": 748,
    "Ġcucumber": 21359,
    "Ġsneer": 13451,
    "Ġsto": 1498,
    "Ġpreserved": 9265,
    "Ġphysical": 7522,
    "dripping": 16907,
    "cerem": 15683,
    "ord": 666,
    "Ġavalanche": 17436,
    "Ġapp": 500,
    "Ġwhirlp": 16965,
    "nameless": 19905,
    "Ġactiv": 832,
    "street": 6496,
    "tipt": 25086,
    "Ġcalculating": 9928,
    "cop": 20803,
    "Ġforever": 14555,
    "mus": 10113,
    "marks": 7346,
    "erce": 6128,
    "Ġadieus": 25113,
    "arding": 22161,
    "iple": 4807,
    "worn": 13809,
    "figured": 20126,
    "//": 11465,
    "Ġretirement": 25379,
    "Ġfretfully": 25448,
    "Ġbidding": 9540,
    "meryton": 10114,
    "Ġra": 811,
    "zors": 21150,
    "Ġsupplement": 23005,
    "Ġmeant": 3553,
    "fooled": 24419,
    "Ġbachelors": 24861,
    "Ġbefallen": 12347,
    "haired": 14769,
    "Ġdomestic": 6910,
    "Ġdebated": 9043,
    "yp": 1045,
    "Ġremot": 8546,
    "Ġleisure": 6541,
    "hastily": 19705,
    "harrow": 20910,
    "arth": 4442,
    "walks": 19724,
    "Ġbodies": 8032,
    "Ġhurtling": 24960,
    "oking": 4606,
    "Ġobservant": 20113,
    "Ġchaff": 18384,
    "Ġsmiting": 12903,
    "Ġmaterial": 5178,
    "Ġslates": 11108,
    "lux": 14229,
    "travel": 24337,
    "Ġbright": 3212,
    "Ġforge": 8458,
    "ractions": 11636,
    "Ġbrass": 11049,
    "Ġthigh": 10189,
    "stun": 18021,
    "Ġconfronted": 23311,
    "Ġactionable": 24560,
    "Ġupon": 720,
    "gun": 10099,
    "sigma": 2999,
    "Ġastern": 6091,
    "Ġalliance": 18236,
    "Ġprocure": 9513,
    "Ġnarwhales": 24903,
    "×": 152,
    "Ġcredulous": 17147,
    "_âĢĶâĢĻ": 13686,
    "barbs": 20240,
    "Ġparted": 5930,
    "ı": 242,
    "Ġexhale": 24402,
    "Ġdecay": 1012,
    "min": 4571,
    "Ġnewspapers": 17189,
    "º": 123,
    "Ġpurchas": 19876,
    "Ġlunatic": 24993,
    "iful": 2880,
    "Ġpreliminary": 10060,
    "Ġmum": 13861,
    "Ġtales": 10144,
    "Ġhowled": 12860,
    "Ġbeliever": 25847,
    "Ġcra": 2330,
    "Ġjerk": 16952,
    "Ġbehavior": 8002,
    "commence": 19995,
    "hand": 2758,
    "herself": 4891,
    "Ġfreshets": 25705,
    "Ġmercy": 9001,
    "Ġelect": 10844,
    "ming": 3603,
    "Ġnewfound": 22935,
    "Ġevinced": 7102,
    "Ġcomprehended": 11296,
    "Ġhiss": 15793,
    "Ġhelpless": 8302,
    "Ġfoundations": 11075,
    "Ġtiller": 8968,
    "fs": 17537,
    "Ġveter": 15816,
    "enge": 21283,
    "Ġabject": 18392,
    "Ġhelplessness": 25074,
    "olently": 15762,
    "yesterday": 10356,
    "alth": 3254,
    "declaration": 25176,
    "iners": 4937,
    "Ġsed": 10763,
    "Ġded": 2508,
    "Ġduke": 7756,
    "Ġloomed": 12305,
    "Ġdiligently": 11407,
    "covery": 11173,
    "Ġsoftened": 11104,
    "urious": 21706,
    "Ġwilled": 21294,
    "Ġingolstadt": 8333,
    "jumping": 20248,
    "Ġprophetic": 20023,
    "ductive": 23939,
    "eastern": 17535,
    "arer": 3968,
    "Ġnautical": 17389,
    "Ġgreatest": 4094,
    "Ġseamen": 5063,
    "looks": 12022,
    "Ġarts": 11010,
    "establish": 17396,
    "Ġcovent": 16077,
    "kles": 17586,
    "asters": 8435,
    "bed": 3493,
    "concerned": 24639,
    "however": 4373,
    "fre": 5425,
    "Ġcoronet": 6346,
    "ective": 18177,
    "Ġsuccour": 20438,
    "Ġimmens": 9942,
    "Ġmarine": 23038,
    "Ġgood": 1001,
    "Ġfeigned": 22211,
    "rear": 21235,
    "Ġbitt": 10798,
    "Ġtoken": 2037,
    "Ġrig": 4226,
    "farmer": 25900,
    "onsible": 22566,
    "Ġchimney": 6498,
    "Ġkentuckian": 26344,
    "mme": 22504,
    "amount": 10886,
    "Ġobsequ": 14323,
    "Ġhates": 21489,
    "Ġscrut": 15951,
    "Ġglory": 6066,
    "Ġflip": 11916,
    "rock": 15646,
    "Ġcharcoal": 19009,
    "Ġcompetition": 14270,
    "gate": 12471,
    "Ġascended": 8669,
    "Ġprime": 10406,
    "Ġepit": 18009,
    "Ġharb": 7370,
    "Ġpickle": 16724,
    "Ġthreatened": 8330,
    "Ġ94": 17719,
    "Ġclimate": 9278,
    "Ġgamesome": 17292,
    "coburg": 13602,
    "if": 376,
    "Ġasking": 5651,
    "Ġawhile": 13833,
    "Ġold": 1061,
    "Ġglided": 7447,
    "theless": 4261,
    "blending": 24131,
    "Ġwhither": 10217,
    "Ġlibr": 16006,
    "Ġoldest": 12979,
    "zed": 8104,
    "birds": 15148,
    "bber": 4568,
    "mistake": 24529,
    "Ġkrem": 9729,
    "pursue": 24976,
    "Ġostrich": 26432,
    "Ġchanced": 8187,
    "Ġadequate": 20311,
    "ilations": 21725,
    "Ġfilled": 4394,
    "Ġnephew": 6405,
    "Ġexpiration": 22628,
    "reject": 21239,
    "ici": 8441,
    "Ġticking": 25036,
    "overcoat": 19055,
    "Ġscant": 22289,
    "Ġtestified": 16336,
    "Ġbattered": 17864,
    "Ġmitigating": 1614,
    "Ġfar": 1451,
    "itatingly": 25278,
    "Ġsheets": 9725,
    "balanced": 14557,
    "Ġreser": 5170,
    "ñ": 178,
    "polar": 24584,
    "tossed": 10999,
    "Ġinner": 9673,
    "Ġtheology": 21279,
    "Ġrespective": 16348,
    "Ġobliterated": 17408,
    "Ġcable": 11583,
    "constantly": 24607,
    "Ġcries": 7155,
    "Ġsav": 3359,
    "asleep": 21547,
    "Ġgratifying": 13310,
    "thunder": 10265,
    "Ġejac": 10206,
    "listen": 13517,
    "Ġpublicly": 13327,
    "Ġevaluate": 3123,
    "Ġapple": 14171,
    "Ġinvent": 7165,
    "Ġtyph": 10011,
    "Ġendless": 7055,
    "Ġmalady": 24392,
    "Ġsaid": 576,
    "Ġsouth": 4910,
    "Ġdardanelles": 26445,
    "Ġaffinity": 18787,
    "Ġbrim": 12982,
    "wrote": 11549,
    "Ġvol": 4191,
    "Ġhog": 13927,
    "Ġgleam": 12312,
    "Ġshone": 7404,
    "elling": 5831,
    "Ġtechn": 9376,
    "Ġclaimed": 14205,
    "Ġtame": 17724,
    "iarity": 8747,
    "Ġergo": 25032,
    "unwho": 21881,
    "Ġpronounced": 8351,
    "Ġidentical": 10436,
    "istry": 22113,
    "Ġglare": 13022,
    "Ġhunt": 6185,
    "pennies": 26287,
    "Ġpieces": 7369,
    "Ġindifference": 6727,
    "Ġunallied": 22036,
    "Ġboards": 14303,
    "xology": 21144,
    "ster": 1953,
    "uries": 6149,
    "Ġbasement": 24701,
    "Ġresist": 7916,
    "Ġhoof": 23354,
    "down": 3472,
    "olen": 9703,
    "Ġsettee": 22923,
    "Ġstartled": 7084,
    "otle": 21801,
    "Ġadjusting": 3417,
    "Ġruins": 16163,
    "Ġunalterable": 15857,
    "sometimes": 5973,
    "Ġbrought": 2514,
    "proof": 16427,
    "Ġconjugal": 25104,
    "Ġdanes": 25160,
    "Ġain": 6970,
    "parted": 21018,
    "grant": 10429,
    "waistcoat": 17364,
    "Ġanxious": 4516,
    "delirium": 14787,
    "Ġfreshness": 23991,
    "Ġlun": 7856,
    "apparent": 11043,
    "Ġhealthy": 10853,
    "Ġalco": 21786,
    "Ġconceivable": 16615,
    "Ġhosts": 19942,
    "Ġequin": 14498,
    "Ġpia": 21466,
    "Ġadmire": 5264,
    "Ġpresently": 5116,
    "Ġdread": 3162,
    "Ġessentials": 20006,
    "Ġprogramming": 1184,
    "Ġkill": 4453,
    "ulus": 21868,
    "Ġsocietal": 11438,
    "Ġmonuments": 22987,
    "Ġfatigue": 8701,
    "Ġwhelmed": 26000,
    "Ġcollar": 11883,
    "family": 7324,
    "Ġvolcano": 24150,
    "Ġscrawled": 24581,
    "rect": 1594,
    "Ġplease": 4724,
    "Ġdecanting": 22461,
    "trunk": 23951,
    "Ġdiscoverer": 26036,
    "Ġafraid": 3532,
    "jur": 17580,
    "eers": 20845,
    "Ġwarmly": 8990,
    "Ġcurved": 18848,
    "Ġsmallest": 6431,
    "cely": 3578,
    "ography": 13367,
    "Ġferry": 24498,
    "Ġcaress": 16343,
    "Ġenters": 11027,
    "Ġane": 9184,
    "Ġwhere": 786,
    "principal": 20662,
    "Ġobjections": 8568,
    "nns": 1892,
    "Ġhypocritical": 20740,
    "Ġhoisting": 9865,
    "Ġwindward": 6885,
    "Ġparson": 6689,
    "Ġharder": 14452,
    "remained": 8573,
    "Ġconclusions": 10556,
    "Ġimplements": 2484,
    "acey": 7650,
    "inity": 5693,
    "Ġxx": 5492,
    "Ġdescried": 7919,
    "Ġtechniques": 2865,
    "Ġlung": 7168,
    "Ġretreating": 19802,
    "Ġmortar": 19396,
    "Ġmovements": 24359,
    "keep": 3851,
    "Ġcrooked": 11283,
    "Ġdisconnected": 22529,
    "Ġexpressions": 7706,
    "Ġgaunt": 11270,
    "cook": 8270,
    "Ġislands": 6767,
    "cular": 15331,
    "turn": 4292,
    "Ġwhy": 1758,
    "Ġscheming": 23272,
    "Ġupstairs": 5837,
    "Ġbeings": 2488,
    "tree": 11536,
    "grieved": 17320,
    "Ġcran": 12005,
    "disappeared": 14572,
    "Ġbuildings": 24719,
    "vard": 21113,
    "fulness": 4310,
    "backed": 9869,
    "Ġstrives": 23697,
    "sed": 4178,
    "Ġtea": 5042,
    "Ġsaloon": 24065,
    "Ġbranches": 6777,
    "Ġallowance": 14392,
    "trained": 4240,
    "Ġforce": 5092,
    "Ġswandam": 11090,
    "Ġbathing": 20202,
    "Ġpeaceful": 9459,
    "rapid": 12675,
    "Ġdivined": 19446,
    "Ġunde": 11716,
    "Ġsc": 532,
    "Ġrifle": 18213,
    "spike": 16143,
    "fem": 17539,
    "Ġsnow": 3708,
    "feit": 16047,
    "enthusiastic": 20695,
    "Ġintimate": 6551,
    "Ġmeasurement": 19426,
    "oct": 7554,
    "Ġinvari": 6530,
    "beries": 22748,
    "cked": 2763,
    "į": 240,
    "Ġvisitor": 5331,
    "Ġbidden": 24647,
    "prob": 7071,
    "Ġchronicled": 25329,
    "Ġbitterly": 8315,
    "Ġapothe": 12379,
    "tum": 11534,
    "fool": 9050,
    "Ġmishap": 20579,
    "Ġhoriz": 4727,
    "punctual": 26357,
    "governed": 25406,
    "Ġindulgence": 11321,
    "anybody": 12087,
    "Ġbarrowful": 25596,
    "either": 6792,
    "Ġshifting": 12773,
    "endeav": 7151,
    "clothed": 19741,
    "carries": 19530,
    "alescence": 15929,
    "ascending": 24706,
    "Ġdisciple": 22785,
    "Ġoverthrown": 18432,
    "dham": 20832,
    "rated": 6229,
    "Ġstamp": 7864,
    "fect": 2298,
    "Ġpistols": 17332,
    "Ġcountenance": 3970,
    "Ġcannibals": 10590,
    "wouldn": 23538,
    "Ġluxury": 20135,
    "ons": 709,
    "Ġassistants": 9455,
    "imagination": 13484,
    "Ġaffability": 14390,
    "Ġenable": 685,
    "mmet": 10990,
    "ommod": 13980,
    "Ġwelcome": 5604,
    "ces": 577,
    "Ġtermination": 16464,
    "Ġmemorable": 16449,
    "Ġidle": 8253,
    "separately": 25228,
    "Ġmethodology": 2356,
    "Ġcolour": 4460,
    "Ġimag": 2675,
    "Ġseethings": 26505,
    "motives": 26138,
    "Ġopinion": 3142,
    "mortar": 25409,
    "Ġmonosy": 18853,
    "evinced": 19928,
    "Ġchink": 15937,
    "onstr": 12551,
    "Ġharpoone": 2908,
    "Ġhair": 3315,
    "project": 16428,
    "Ġtorm": 5434,
    "Ġhurried": 4033,
    "lotts": 23828,
    "unch": 14061,
    "riors": 18186,
    "web": 18665,
    "ets": 1157,
    "acy": 3955,
    "ĠĠĠĠĠĠĠĠĠĠĠĠĠĠĠĠĠĠĠ": 22953,
    "Ġinclud": 1510,
    "Ġwoollen": 12108,
    "Ġbalancing": 2430,
    "Ġweaving": 12745,
    "Ġstill": 1153,
    "owal": 13999,
    "expressive": 24307,
    "ville": 6088,
    "Ġvii": 13113,
    "Ġfrozen": 9016,
    "Ġpatronage": 17054,
    "fluttering": 23976,
    "Ġsenate": 25215,
    "Ġutmost": 5496,
    "Ġinsulted": 14995,
    "orns": 12597,
    "Ġprick": 14479,
    "Ġsideways": 6183,
    "Ġcaptains": 7457,
    "Ġperdition": 15997,
    "Ġskill": 6872,
    "elab": 21573,
    "Ġnoteworthy": 24165,
    "imitably": 21714,
    "Ġvault": 8845,
    "died": 11482,
    "ingham": 21303,
    "Ġpurchase": 12264,
    "abhorred": 17339,
    "Ġimmense": 4952,
    "enari": 21284,
    "Ġfeather": 8863,
    "Ġremark": 2145,
    "Ġmomentum": 1598,
    "Ġire": 12674,
    "kl": 4866,
    "Ġwaited": 4912,
    "al": 292,
    "hro": 20893,
    "ically": 852,
    "Ġflashed": 11917,
    "Ġtimorous": 24228,
    "Ġinve": 17931,
    "ĠĠĠĠĠĠĠĠĠĠĠĠĠĠĠĠĠĠĠĠĠĠĠĠĠĠĠĠĠĠĠĠĠĠĠĠĠĠĠĠĠĠĠĠĠĠĠĠĠĠĠĠĠĠĠĠĠĠĠĠ": 19262,
    "dev": 7632,
    "vings": 9754,
    "Ġheron": 22077,
    "Ġplunging": 14955,
    "Ġmans": 15541,
    "Ġpreacher": 18370,
    "Ġimprecations": 25821,
    "Ġfanc": 6745,
    "hes": 1396,
    "§": 105,
    "Ġpenalties": 10414,
    "Ġvaluable": 5608,
    "Ġtroubled": 6618,
    "embarrassed": 20667,
    "Ġthey": 575,
    "Ġformal": 2939,
    "mph": 20974,
    "Ġreel": 9216,
    "bearings": 25372,
    "Ġprograms": 7239,
    "algorithm": 3953,
    "Ġsettle": 6295,
    "Ġunmannerly": 26519,
    "Ġbulk": 5591,
    "bpp": 20774,
    "Ġforgiveness": 16659,
    "Ġhelmeted": 19691,
    "Ġnavies": 16902,
    "Ġworker": 23034,
    "Ġgrunt": 18738,
    "ashes": 6017,
    "reinforcement": 7826,
    "Ġreasonable": 7254,
    "Ġprecipitate": 19945,
    "Ġdil": 6384,
    "Ġflush": 14427,
    "Ġmanipulated": 25179,
    "pend": 6368,
    "alling": 6038,
    "Ġchips": 14184,
    "_.,": 14564,
    "Ġjohnson": 18410,
    ";âĢĿâĢĶ": 20762,
    "Ġticklish": 25037,
    "olets": 21010,
    "Ġest": 2265,
    "Ġannoyed": 17202,
    "Ġforging": 18096,
    "leep": 4636,
    "Ġfoot": 3161,
    "Ġrun": 2354,
    "herds": 22207,
    "Ġunh": 9256,
    "Ġforlorn": 14018,
    "itled": 7578,
    "Ġaustrian": 24302,
    "Ġproduced": 2451,
    "Ġisa": 14028,
    "Ġ1807": 26084,
    "Ġpatiently": 19920,
    "txt": 12520,
    "Ġinconstant": 21499,
    "meetings": 20381,
    "Ġbox": 5109,
    "Ġphaeton": 17467,
    "grow": 10101,
    "advance": 12161,
    "Ġjewels": 12373,
    "gs": 7338,
    "Ġown": 1007,
    "Ġgoing": 2065,
    "Ġcamp": 9167,
    "Ġbumpkin": 20203,
    "below": 12126,
    "Ġpreservative": 24630,
    "Ġuniform": 2226,
    "Ġagain": 813,
    "Ġhardly": 2433,
    "Ġvacancy": 9047,
    "Ġcheering": 11135,
    "Ġrome": 12160,
    "Ġoffending": 22742,
    "Ġabandoned": 8352,
    "Ġtranque": 14202,
    "displeasure": 23497,
    "4": 24,
    "blacksmith": 17003,
    "Ġcoleman": 22589,
    "Ġdol": 9667,
    "ensive": 6281,
    "usiveness": 22287,
    "ourselves": 9014,
    "Ġinf": 1755,
    "Ġlanterns": 24578,
    "](": 11468,
    "ornament": 23490,
    "deacon": 22151,
    "ifle": 10893,
    "exposure": 19259,
    "Ġdecrease": 4202,
    "erranean": 9337,
    "Ġrevelations": 25224,
    "Ġborn": 5224,
    "Ġweights": 897,
    "Ġxxxi": 24969,
    "promote": 24726,
    "forward": 2187,
    "Ġdict": 9178,
    "Ġkrempe": 10672,
    "crop": 20800,
    "Ġexpression": 4514,
    "ugal": 19024,
    "lodged": 25908,
    "!": 5,
    "win": 6802,
    "ckled": 9260,
    "mbly": 9790,
    "increased": 20273,
    "Ġbalances": 2339,
    "================================": 5671,
    "Ġsatiated": 22905,
    "Ġadmir": 12026,
    "Ġ177": 13416,
    "test": 13795,
    "Ġcornelius": 13577,
    "onden": 13847,
    "mies": 20970,
    "Ġcollectively": 19971,
    "Ġscrutin": 26015,
    "Ġflail": 23010,
    "Ġrans": 21970,
    "Ġloite": 22115,
    "flask": 12104,
    "quarrel": 20018,
    "Ġhuzza": 12638,
    "Ġmachine": 793,
    "Ġdecently": 22460,
    "ha": 3981,
    "Ġpor": 5225,
    "Ġunce": 11715,
    "Ġunfav": 14790,
    "Ġbland": 11066,
    "ö": 183,
    "Ġabraham": 18396,
    "ui": 9147,
    "adru": 15736,
    "dan": 17517,
    "Ġshrieks": 12204,
    "lect": 1222,
    "Ġmotion": 4565,
    "hence": 16627,
    "avering": 24792,
    "ratches": 20128,
    "Ġsculpt": 15952,
    "Ġprophe": 13083,
    "Ġreaching": 7303,
    "Ġpump": 12626,
    "bolt": 25138,
    "contact": 23729,
    "Ġjonas": 20612,
    "sloop": 26146,
    "Ġmake": 1284,
    "21": 10075,
    "Ġexpectation": 6904,
    "ield": 2409,
    "Ġsets": 8778,
    "skull": 24488,
    "Ġskil": 14355,
    "happy": 4424,
    "extending": 22764,
    "ikes": 8087,
    "orters": 21404,
    "Ġformations": 18750,
    "Ġurged": 6782,
    "orph": 21402,
    "band": 3060,
    "Ġmile": 7152,
    "appetite": 22849,
    "Ġannual": 14835,
    "Ġsow": 17751,
    "smiles": 14695,
    "Ġcommanders": 23870,
    "onings": 21255,
    "desper": 13223,
    "haust": 5777,
    "Ġanxiety": 5408,
    "batch": 1982,
    "del": 4077,
    "strikes": 24671,
    "Ġyon": 9696,
    "Ġusages": 15922,
    "Ġexecution": 6927,
    "Ġunlimited": 26224,
    "Ġspar": 10924,
    "Ġphotograph": 6304,
    "dman": 10091,
    "Ġstuck": 9223,
    "mer": 2832,
    "possessed": 9531,
    "Ġstripping": 23698,
    "Ġaghast": 16052,
    "ullo": 12734,
    "Ġhailed": 6408,
    "apology": 22337,
    "ignified": 14492,
    "uber": 15449,
    "Ġthirdly": 24146,
    "Ġcalculates": 13270,
    "Ġaston": 3703,
    "Ġsledge": 8111,
    "Ġfire": 2331,
    "Ġmission": 13011,
    "ladies": 9532,
    "remembrance": 25703,
    "beam": 16043,
    "Ġreplenished": 13640,
    "contempl": 13193,
    "Ġgrappling": 25813,
    "urned": 9309,
    "Ġworse": 4720,
    "Ġdamning": 19141,
    "Ġwakeful": 24269,
    "Ġsemblance": 20736,
    "Ġsuffer": 4723,
    "Ġward": 10158,
    "Ġstarvation": 19794,
    "lads": 20957,
    "Ġadmitted": 8989,
    "Ġlightnings": 16357,
    "Ġporter": 15616,
    "Ġpursue": 6316,
    "Ġrelationship": 2313,
    "ĠÂ£": 5006,
    "Ġarmada": 23582,
    "Ġpredictions": 1456,
    "Ġprotection": 9465,
    "ivery": 17574,
    "Ġ0": 1902,
    "Ġoverwrites": 5033,
    "?_âĢĿ": 12320,
    "sciss": 18859,
    "Ġemergencies": 17365,
    "ó": 180,
    "makers": 20984,
    "Ġtandem": 26413,
    "Ġsharper": 17182,
    "Ġreplaced": 13076,
    "Ġfrown": 10809,
    "depend": 9115,
    "Ġhyper": 19742,
    "Ġborrowed": 17232,
    "cott": 8074,
    "ssible": 2989,
    "Ġderision": 16313,
    "Ġoccasional": 7289,
    "Ġholiday": 13003,
    "ede": 21509,
    "Ġbreath": 4792,
    "Ġadver": 5641,
    "Ġbourgh": 5069,
    "possess": 5985,
    "Ġthick": 3783,
    "Ġchivalry": 25820,
    "Ġfills": 12599,
    "Ġsteward": 6586,
    "rote": 4592,
    "Ġwreat": 15535,
    "Ġcursory": 18850,
    "Ġfreedom": 9085,
    "Ġcocksure": 26260,
    "usually": 10287,
    "Ġblasted": 7937,
    "super": 5945,
    "ateg": 1348,
    "Ġoperation": 12003,
    "treat": 12518,
    "isely": 4487,
    "contains": 16036,
    "Ġdozen": 8186,
    "Ġspecialized": 3921,
    "Ġcritic": 19123,
    "rule": 15901,
    "Ġfamily": 1966,
    "Ġolfactories": 26172,
    "summer": 11998,
    "Ġcasualty": 20344,
    "Ġrocks": 6863,
    "Ġmenaced": 16297,
    "Ġsee": 801,
    "Ġalmanac": 26487,
    "Ġdes": 1249,
    "flu": 9120,
    "eyed": 11489,
    "preserver": 20216,
    "Ġillustrate": 25068,
    "Ġinexperienced": 26101,
    "move": 11858,
    "Ġoffices": 14340,
    "Ġcoff": 3510,
    "dragging": 16611,
    "atively": 2697,
    "uming": 8494,
    "Ġsprang": 5064,
    "Ġselfishness": 12293,
    "Ġqual": 6276,
    "Ġcalam": 13039,
    "Ġassailed": 23180,
    "sighted": 19788,
    "Ġangelic": 19630,
    "Ġhill": 5626,
    "Ġawait": 17074,
    "Ġcompacted": 23510,
    "swallowed": 14856,
    "Ġpredestinated": 18517,
    "Ġchristians": 13313,
    "racted": 4777,
    "Ġcurls": 22974,
    "apparently": 15208,
    "oding": 1462,
    "Ġpalace": 16691,
    "Ġvenerable": 9097,
    "Ġdisdain": 8360,
    "Ġhart": 17924,
    "Ġview": 2762,
    "duodecimo": 16007,
    "male": 15392,
    "contain": 18501,
    "Ġmemoirs": 26207,
    "iscre": 17852,
    "Ġgrammar": 1065,
    "Ġnice": 6678,
    "Ġenhancement": 23875,
    "darkness": 9515,
    "genteel": 19952,
    "Ġperfume": 25666,
    "Ġoblivion": 26032,
    "Ġfl": 1278,
    "Ġproperties": 3118,
    "Ġdrooping": 9423,
    "knot": 13748,
    "rimin": 2423,
    "Ġenric": 21939,
    "sheet": 16289,
    "Ġwill": 680,
    "sadly": 25527,
    "Ġsensitivity": 3070,
    "O": 51,
    "Ġfacilitate": 26099,
    "Ġsevered": 18204,
    "Ġvine": 8474,
    "Ġbowsman": 11256,
    "Ġesq": 15112,
    "Ġriotous": 20547,
    "ĸ": 249,
    "Ġblinding": 14731,
    "desolate": 25717,
    "Ġapproach": 866,
    "ivable": 10912,
    "Ġclasses": 4056,
    "alty": 17941,
    "silly": 24422,
    "izzy": 3095,
    "nav": 17612,
    "Ġinconvenience": 9566,
    "ob": 1422,
    "level": 2652,
    "Ġeloquent": 16115,
    "Ġpace": 9185,
    "Ġoptim": 785,
    "Ġcomparison": 7101,
    "Ġslop": 23165,
    "mblance": 7323,
    "Ġmazes": 25941,
    "worthy": 7733,
    "answering": 26004,
    "Ġmeanest": 12915,
    "Ġbriefly": 11369,
    "beef": 18524,
    "Ġwarmer": 19187,
    "Ġbeauty": 3770,
    "cceed": 4144,
    "Ġpagoda": 19791,
    "Ġconflict": 17276,
    "Ġconfusing": 23310,
    "Ġcaved": 21356,
    ":--": 5784,
    "Ġhindrance": 25221,
    "Ġstraps": 19312,
    "Ġform": 1022,
    "Ġmarching": 16698,
    "Ġmant": 9650,
    "crated": 16685,
    "bank": 10082,
    "Ġstud": 1600,
    "Ġbanking": 19633,
    "ĠĠĠĠĠĠĠĠĠĠĠĠĠĠĠĠĠĠĠĠĠĠĠĠĠĠĠĠĠĠĠĠĠĠĠĠĠĠĠĠĠĠĠ": 12159,
    "Ġtransparency": 10679,
    "Ġpikes": 21480,
    "Ġshoes": 7073,
    "Ġsatire": 22903,
    "Ġgout": 21599,
    "uer": 21103,
    "Ġmillion": 14990,
    "Ġcharacteristics": 8613,
    "Ġprefer": 6417,
    "ipl": 20920,
    "Ġsepulchral": 25893,
    "Ġaccustomed": 6861,
    "Ġxlix": 25861,
    "Ġending": 18924,
    "freely": 16856,
    "Ġdews": 21842,
    "Ġmanxman": 9568,
    "Ġrecumbent": 22741,
    "reserved": 13846,
    "Ġfright": 3797,
    "Ġadro": 15872,
    "ared": 771,
    "irs": 14074,
    "Ġfiercely": 12957,
    "Ġgable": 15672,
    "ick": 835,
    "Ĩ": 233,
    "mitted": 5213,
    "Ġflutter": 16251,
    "Ġreach": 4048,
    "Ġgale": 5823,
    "turkish": 24533,
    "falgar": 26131,
    "instruct": 19545,
    "ipotence": 22363,
    "Ġskull": 6290,
    "generative": 4330,
    "Ġreveren": 13199,
    "affections": 17359,
    "undant": 14794,
    "ut": 308,
    "Ġpeas": 8536,
    "phant": 6289,
    "Ġconjoined": 21810,
    "Ġunwell": 22021,
    "Ġsalvation": 14760,
    "infor": 3016,
    "Ġcorporeally": 25729,
    "Ġsom": 1273,
    "Ġbrooks": 25701,
    "Ġthrowing": 6337,
    "Ġbanners": 24859,
    "Ġdelicate": 6481,
    "Ġwip": 13856,
    "Ġchorus": 10948,
    "meanwhile": 10612,
    "honor": 19902,
    "Ġreappeared": 21668,
    "Ġunderstood": 5655,
    "Ġimmaculate": 19489,
    "Ġwhispered": 5338,
    "Ġjapanese": 10635,
    "orts": 2555,
    "Ġdrunk": 9427,
    "Ġepidemic": 20698,
    "combe": 7660,
    "ire": 492,
    "ordingly": 18519,
    "Ġovertook": 18430,
    "quick": 6401,
    "Ġlangu": 574,
    "Ġimbecile": 17395,
    "ination": 2910,
    "<PAD>": 0,
    "Ġabode": 7900,
    "Ġunfathomable": 20551,
    "comed": 8547,
    "Ġhull": 5446,
    "using": 5468,
    "opatra": 22487,
    "Ġtomorrow": 21516,
    "icial": 12660,
    "imag": 6991,
    "wondrous": 12342,
    "Ġdined": 9179,
    "abbering": 21800,
    "Ġniece": 5712,
    "cherries": 19759,
    "bour": 2072,
    "deepest": 22830,
    "Ġindu": 5295,
    "Ġspiteful": 19525,
    "Ġpint": 17909,
    "Ġ1778": 25730,
    "his": 1414,
    "separation": 25227,
    "Ġopposed": 11190,
    "unities": 15776,
    "letons": 14615,
    "Ġstorms": 11264,
    "Ġmemory": 2274,
    "Ġimper": 4500,
    "Ġinform": 998,
    "Ġgathered": 8444,
    "Ġenhance": 3353,
    "Ġwilderness": 14843,
    "strom": 15689,
    "Ġembodiment": 20531,
    "Ġfervently": 25878,
    "Ġann": 4488,
    "Ġmalignant": 14881,
    "twain": 23702,
    "at": 268,
    "agings": 18168,
    "Ġreeds": 15701,
    "Ġagree": 7647,
    "ishmael": 18422,
    "Ġsaturn": 22904,
    "Ġwalrus": 14976,
    "Ġsli": 4749,
    "Ġodorous": 19569,
    "Ġcarelessly": 11122,
    "adr": 6995,
    "negro": 18496,
    "Ġexecutioner": 12276,
    "Ġentrapped": 26264,
    "hester": 9634,
    "Ġtig": 13816,
    "Ġclaims": 13377,
    "Ġprofited": 19193,
    "Ġrestricted": 19030,
    "Ġdidst": 11853,
    "Ġsystematic": 5245,
    "pacific": 17643,
    "Ġconsiderably": 7715,
    "Ġsparkling": 11358,
    "dled": 9114,
    "stupid": 12681,
    "urance": 10859,
    "Ġmonkey": 8227,
    "ison": 3075,
    "Ġfalling": 6915,
    "Ġenl": 18190,
    "Ġunrestrained": 25555,
    "Ġrestrictions": 20638,
    "iles": 2859,
    "Ġbuoyancy": 20045,
    "parameter": 3008,
    "Ġindicates": 3193,
    "Ġsimpleton": 16339,
    "Ġaslant": 21905,
    "Ġflew": 5588,
    "Ġenorm": 5304,
    "Ġspear": 9317,
    "Ġancles": 21449,
    "Ġtw": 841,
    "Ġvig": 5460,
    "Ġpersonified": 19180,
    "Ġmoods": 14954,
    "inform": 10146,
    "Ġpeaceable": 14726,
    "Ġlose": 5028,
    "Ġsoles": 22089,
    "Ġinjunctions": 24272,
    "Ġuseless": 7039,
    "swed": 24256,
    "Ġexplanations": 15915,
    "Ĝ": 221,
    "nowled": 5470,
    "Ġmowers": 17814,
    "Ġpenetrate": 12274,
    "Ġsust": 7008,
    "Ġdusk": 12331,
    "breast": 11247,
    "Ġencountering": 11271,
    "Ġcarr": 23094,
    "Ġkid": 9728,
    "Ġcandour": 14675,
    "Ġnaturalists": 10364,
    "Ġtears": 4232,
    "Ġcoopers": 20525,
    "opposition": 24820,
    "Ġsteady": 4849,
    "Ġfob": 21412,
    "Ġcontaining": 2231,
    "Ġshrine": 19534,
    "limbs": 20194,
    "etah": 12666,
    "Ġflights": 24752,
    "Ġamused": 11803,
    "Ġbehavioral": 11398,
    "Ġrepresents": 4903,
    "masculine": 24387,
    "Ġlowering": 7987,
    "Ġforesight": 13131,
    "Ġballarat": 14722,
    "Ġrepetition": 8975,
    "poises": 11893,
    "cadence": 26126,
    "iters": 21332,
    "Ġinch": 7850,
    "Ġcomprise": 18586,
    "bird": 9588,
    "emed": 3383,
    "Ġrestoration": 19029,
    "Ġshops": 22005,
    "Ġro": 600,
    "ullen": 8235,
    "Ġsquaring": 22842,
    "Ġmoot": 22434,
    "Ġsw": 1355,
    "Ġretreat": 6071,
    "eddling": 11904,
    "Ġsmitten": 12904,
    "Ġcommanding": 16592,
    "ĠâĢĻ": 3044,
    "Ġinteractions": 12908,
    "Ġreader": 11938,
    "Ġdifficult": 3574,
    "Ġstation": 5299,
    ",âĢĶ": 3169,
    "Ġroundabout": 23064,
    "Ġascribed": 14858,
    "us": 531,
    "Ġemma": 20697,
    "Ġmovement": 9971,
    "Ġafore": 10760,
    "Ġtallest": 15478,
    "backpropagation": 11990,
    "Ġweather": 3996,
    "Ġimpulse": 10027,
    "Ġmultipl": 2790,
    "Ġtrip": 16790,
    "Ġfergus": 16869,
    "liberal": 26283,
    "Ġcens": 8414,
    "imson": 12694,
    "Ġtech": 1745,
    "Ġchanged": 5243,
    "Ġtastes": 15481,
    "Ġtraces": 7946,
    "teness": 23207,
    "Ġbolivia": 24668,
    "Ġtrap": 7672,
    "Ġcheck": 7271,
    "Ġcommotion": 9783,
    "Ġlullaby": 20591,
    "Ġyourself": 2592,
    "Ġmanifold": 13564,
    "Ġcrater": 16439,
    "Ġslopes": 18943,
    "remarkable": 13501,
    "mured": 6960,
    "hur": 6651,
    "Ġexe": 3994,
    "Ġsimplest": 16338,
    "Ġunflinching": 26514,
    "Ġnation": 12652,
    "Ġdisregarded": 22534,
    "Ġgodson": 23359,
    "jee": 17581,
    "Ġworlds": 11951,
    "Ġclosed": 4605,
    "Ġdetermines": 2368,
    "Ġshame": 6411,
    "drovand": 24759,
    "Ġhandling": 8916,
    "adays": 14016,
    "spears": 23945,
    "elaborate": 21579,
    "Ġsecretary": 19445,
    "stee": 21654,
    "undoubtedly": 13316,
    "Ġclattering": 22359,
    "Ġcan": 474,
    "Ġjabez": 11770,
    "Ġjudgment": 5765,
    "conf": 4957,
    "bbing": 6325,
    "Ġjiff": 22300,
    "Ġdecaying": 2247,
    "Ġpowder": 11277,
    "adventures": 20259,
    "Ġbuilded": 24718,
    "construction": 19781,
    "initions": 21190,
    "Ġmedicine": 15210,
    "Ġsoph": 1627,
    "low": 652,
    "Ġwaggish": 25435,
    "Ġinexhaustible": 16983,
    "Ġsphynx": 20714,
    "Ġappar": 7411,
    "Ġhumbled": 16201,
    "Ġbumping": 25281,
    "Ġperplexity": 2755,
    "wick": 5363,
    "step": 2455,
    "sad": 11523,
    "occup": 7753,
    "Ġbra": 3253,
    "Ġlooking": 2472,
    "arab": 21444,
    "Ġzig": 18745,
    "danish": 20835,
    "Ġdesolation": 12273,
    "ibles": 18786,
    "peaceful": 20450,
    "annica": 24562,
    "Ġpromoting": 3160,
    "inion": 2873,
    "achusetts": 20712,
    "opotam": 22489,
    "Ġexploring": 4305,
    "Ġprior": 11320,
    "ographical": 16788,
    "Ġunrecord": 16623,
    "Ġtyrant": 24766,
    "Ġdepth": 2438,
    "oman": 2017,
    "Ġexcuses": 19046,
    "Ġmary": 3844,
    "chancing": 22924,
    "Ġdangerously": 23940,
    "Ġ55": 24319,
    "Ġconcluded": 5658,
    "Ġsodden": 25536,
    "form": 493,
    "Ġstam": 18068,
    "germans": 20568,
    "Ġdiffidence": 14661,
    "Ġpermanent": 13635,
    "Ġrepel": 23360,
    "Ġcripp": 9656,
    "Ġapex": 24342,
    "Ġrucastles": 18722,
    "Ġdownst": 3562,
    "define": 1525,
    "Ġface": 1723,
    "Ġglove": 14494,
    "Ġcru": 2822,
    "Ġjoyous": 14666,
    "Ġdisregard": 22532,
    "eridge": 15530,
    "hullo": 17572,
    "Ġbasket": 9575,
    "Ġaction": 5797,
    "gered": 9279,
    "Ġbubble": 13538,
    "Ġmish": 15542,
    "pull": 6797,
    "Ġeaster": 15680,
    "Ġmysteries": 11324,
    "Ġtomb": 8812,
    "Ġtre": 2534,
    "look": 2260,
    "Ġouthouse": 22318,
    "leo": 21367,
    "2": 22,
    "beh": 5472,
    "Ġintric": 9249,
    "Ġcombines": 1155,
    "Ġlandsman": 11352,
    "Ġlogits": 3454,
    "Ġtruly": 4797,
    "hinting": 17571,
    "aways": 15314,
    "ado": 11661,
    "george": 26020,
    "onian": 17769,
    "Ġunrelieved": 20548,
    "calm": 8937,
    "Ġdisappearance": 9300,
    "Ġcomplied": 14737,
    "betrayed": 24641,
    "globe": 25145,
    "Ġcork": 12574,
    "Ġindolent": 13010,
    "Ġnoblest": 13248,
    "_).": 5888,
    "Ġbumpkins": 25282,
    "ground": 4673,
    "Ġlingu": 11617,
    "Ġrepeated": 3832,
    "Ġcontrasting": 11156,
    "bation": 9106,
    "Ġhighlands": 22775,
    "five": 6358,
    "Ġname": 2082,
    "children": 9058,
    "Ġgeneralization": 984,
    "Ġpod": 15609,
    "Ġwandered": 6930,
    "Ġhoney": 12637,
    "spect": 3231,
    "Ġsmo": 2702,
    "rights": 23677,
    "Ġbashaw": 25634,
    "Ġnosegay": 24195,
    "g": 75,
    "agne": 21909,
    "Ġbalm": 22906,
    "anche": 10790,
    "Ġbulldog": 23861,
    "bular": 15317,
    "Ġlater": 6018,
    "Ġcliffs": 15976,
    "laughing": 15183,
    "Ġbeaks": 21759,
    "Ġintersect": 22580,
    "locked": 7678,
    "objections": 19918,
    "condite": 23247,
    "Ġnods": 19064,
    "Ġseething": 18202,
    "collect": 16566,
    "tering": 3807,
    "Ġblocked": 19225,
    "Ġamerican": 5061,
    "Ġwhittling": 20702,
    "Ġordin": 16653,
    "Ġowe": 8115,
    "Ġpastures": 23422,
    "investigations": 25534,
    "Ġany": 688,
    "affording": 23779,
    "Ġinsects": 25647,
    "run": 10723,
    "Ġundisturbed": 19522,
    "Ġentries": 22744,
    "Ġfries": 21418,
    "gener": 3126,
    "Ġheaviest": 23327,
    "ame": 646,
    "Ġfossils": 20225,
    "Ġhump": 5855,
    "Ġspecial": 2103,
    "Ġtwenty": 3949,
    "Ġnod": 1887,
    "Ġwrath": 16322,
    "Ġtempted": 9059,
    "Ġadmirers": 19689,
    "Ġparaph": 22124,
    "Ġency": 21938,
    "Ġdelicious": 14796,
    "ubl": 3598,
    "ensities": 22551,
    "Ġpostmark": 16727,
    "Ġgoverness": 8605,
    "Ġcelebrated": 13598,
    "Ġtreasures": 17048,
    "Ġyawn": 7610,
    "nals": 16403,
    "clergyman": 20731,
    "Ġoutskirts": 17460,
    "Ġcottage": 4735,
    "missed": 11211,
    "Ġappearances": 10453,
    "peculiarity": 23113,
    "lege": 17843,
    "Ġreveries": 11349,
    "Ġremo": 3786,
    "congratulations": 20282,
    "Ġstacked": 21747,
    "Ġarab": 7823,
    "Ġexpressing": 12013,
    "Ġscreen": 17208,
    "ements": 11109,
    "cond": 1663,
    "Ġguardians": 14946,
    "Ġ107": 24415,
    "Ġnoisy": 13323,
    "pur": 7806,
    "Ġillustrious": 17110,
    "jabez": 20935,
    "customary": 25896,
    "Ġtr": 550,
    "Ġtire": 17722,
    "Ġprogress": 5023,
    "cull": 20811,
    "inguished": 6600,
    "Ġhorrible": 4906,
    "itted": 2441,
    "ternatural": 12720,
    "Ġquietly": 4566,
    "Ġhabitations": 24788,
    "Ġlandowner": 23382,
    "Ġfitting": 21411,
    "Ġgir": 2255,
    "obey": 11512,
    "Ġgrieved": 8298,
    "englishman": 23679,
    "Ġrefinement": 18710,
    "Ġfurniture": 6477,
    "suff": 4961,
    "Ġplank": 7035,
    "steaks": 23964,
    "Ġroughly": 17041,
    "must": 3581,
    "Ġdescent": 988,
    "Ġnav": 5819,
    "Ġindiscriminately": 20630,
    "Ġsherry": 19454,
    "Ġlaid": 3941,
    "salis": 25150,
    "Ġquicker": 16510,
    "aim": 2756,
    "Ġexhaled": 19685,
    "Ġbell": 4637,
    "Ġdesc": 772,
    "elizabeth": 1986,
    "belongs": 25597,
    "Ġorbs": 22096,
    "Ġspokes": 18314,
    "Ġegg": 8823,
    "Ġarchly": 22787,
    "Ġantics": 24181,
    "Ġcommitting": 22676,
    "estim": 14172,
    "lee": 11588,
    "aling": 1035,
    "Ġrounds": 18886,
    "Ġoriental": 9100,
    "Ġcrav": 19175,
    "Ġstar": 6024,
    "Ġimmensity": 25330,
    "Ġofficio": 23818,
    "Ġwrithed": 17107,
    "Ġcategor": 4141,
    "Ġhig": 754,
    "Ġadmit": 7711,
    "Ġreproachfully": 25252,
    "Ġindign": 6175,
    "izabeth": 907,
    "Ġchronicle": 20231,
    "pleasant": 5876,
    "approve": 19940,
    "Ġcurios": 18849,
    "fortunate": 4793,
    "ppers": 7618,
    "apside": 22965,
    "Ġgardiner": 3237,
    "Ġassumed": 9468,
    "Ġwonder": 2117,
    "abling": 1079,
    "grasping": 20642,
    "Ġvanishing": 1344,
    "Ġseer": 21956,
    "shunned": 22459,
    "Ġanecd": 20157,
    "Ġcarbuncle": 14448,
    "Ġunsur": 22026,
    "opportunity": 12279,
    "Ġbeam": 2877,
    "fortnight": 13092,
    "Ġbreaking": 6312,
    "Ġfeelings": 2452,
    "Ġfanatic": 23393,
    "Ġindefatigable": 17180,
    "Ġsupre": 10272,
    "Ġbears": 6829,
    "Ġpunctilious": 26355,
    "Ġfastened": 7067,
    "apering": 8041,
    "wor": 3421,
    "Ġhandsomest": 20337,
    "Ġpeeping": 16132,
    "âĢĶ": 517,
    "Ġdeadly": 5405,
    "dogs": 25403,
    "Ġable": 3081,
    "Ġchase": 3945,
    "Ġgasfitters": 25041,
    "Ġcarpets": 18904,
    "ly": 319,
    "Ġbidirectional": 3756,
    "Ġpitiful": 13245,
    "adv": 4536,
    "Ġchildhood": 13142,
    "Ġencounter": 6630,
    "Ġmight": 962,
    "iot": 9603,
    "forget": 11034,
    "hat": 6956,
    "Ġvertu": 23893,
    "ww": 10739,
    "uine": 13802,
    "Ġbreed": 19075,
    "thoroughly": 26510,
    "Ġbud": 10171,
    "pocket": 9812,
    "Ġunsocial": 18260,
    "puzz": 17642,
    "Ġovercame": 9749,
    "answer": 11732,
    "ifying": 5235,
    "scr": 16246,
    "ither": 1547,
    "Ġglimpses": 13436,
    "aul": 6354,
    "sea": 4764,
    "Ġrushed": 4089,
    "Ġfishy": 16527,
    "ernation": 8212,
    "Ġexquis": 9702,
    "Ġsuspicious": 9483,
    "etency": 21585,
    "Ġcake": 12575,
    "Ġadd": 630,
    "Ġt": 261,
    "script": 11079,
    "Ġdid": 834,
    "rical": 11521,
    "baboon": 25517,
    "Ġeavesdroppers": 25964,
    "Ġle": 333,
    "Ġcannibal": 7774,
    "plumed": 21965,
    "Ġgust": 21600,
    "Ġgravel": 14105,
    "Ġmiz": 10779,
    "ernity": 18616,
    "carbuncle": 26384,
    "squeezing": 25914,
    "Ġdue": 3845,
    "ached": 2319,
    "Ġrebellion": 26477,
    "lesc": 11041,
    "others": 7670,
    "Ġcandidates": 4333,
    "Ġuncompromised": 20606,
    "Ġmelting": 24290,
    "Ġvultures": 25654,
    "Ġbleak": 10561,
    "goes": 10428,
    "Ġtantamount": 25626,
    "Ġregardless": 19326,
    "tle": 2410,
    "Ġdeclare": 6617,
    "Ē": 211,
    "Ġslit": 13062,
    "Ġlordly": 23745,
    "Ġcurse": 7667,
    "Ġtart": 12533,
    "Ġcongen": 10875,
    "Ġinhabited": 12190,
    "Ġere": 3687,
    "Ġdestabilizing": 5053,
    "Ġsquatted": 25843,
    "Ġink": 8807,
    "Ġjapan": 7640,
    "itarian": 21340,
    "Ġbernard": 20687,
    "Ġhero": 5715,
    "Ġdistribut": 842,
    "Ġmadly": 16488,
    "Ġretarded": 23075,
    "volous": 18606,
    "tahit": 17694,
    "Ġpolynesian": 26027,
    "Ġspouted": 14677,
    "Ġencircling": 26273,
    "Ġcharger": 19007,
    "Ġ28": 19296,
    "Ġcrest": 12946,
    "awake": 14455,
    "Ġfry": 17881,
    "Ġtwisting": 18659,
    "Ġdetermined": 2221,
    "Ġraft": 16120,
    "Ġtearing": 14400,
    "uzzle": 19586,
    "Ġjurymen": 16849,
    "Ġinaudible": 21502,
    "relig": 15516,
    "pivot": 21033,
    "stars": 18022,
    "Ġthroughout": 8880,
    "Ġconsists": 11982,
    "Ġagricultural": 26552,
    "Ġsurf": 19133,
    "Ġcaptivating": 26050,
    "arabian": 26448,
    "vocabulary": 25088,
    "Ġdepresses": 25798,
    "Ġseize": 8166,
    "thickness": 25368,
    "collected": 13217,
    "manner": 6172,
    "Ġmortals": 9919,
    "Ġcorner": 4370,
    "Ġstarbuck": 2193,
    "usoid": 4768,
    "queg": 1769,
    "concl": 12874,
    "Ġcoherent": 3261,
    "ĕ": 214,
    "hens": 3937,
    "Ġsoaring": 22090,
    "pretend": 24883,
    "ricity": 23066,
    "Ġcrowding": 13284,
    "float": 19808,
    "Ġlaudanum": 20693,
    "opol": 12876,
    "Ġquestioned": 14622,
    "ologist": 22867,
    "Ġdesperate": 7777,
    "spade": 10341,
    "Ġjoining": 13168,
    "Ġtube": 15005,
    "Ġemotions": 8972,
    "beheaded": 22496,
    "Ġmedit": 8025,
    "provid": 11151,
    "Ġinstigated": 18699,
    "Ġpooh": 18605,
    "0": 20,
    "Ġfollowed": 1794,
    "cork": 20798,
    "Ġease": 5629,
    "Ġheav": 1850,
    "ileries": 18061,
    "Ġeveryone": 8921,
    "Ġsearched": 15821,
    "pigs": 17143,
    "Ġbenediction": 18785,
    "Ġstole": 7953,
    "Ġmutable": 23958,
    "Ġ128": 24473,
    "Ġhedge": 8364,
    "oof": 15409,
    "Ġunfl": 22024,
    "Ġeuroclydon": 15300,
    "part": 2573,
    "Ġpresc": 15930,
    "Ġbarb": 4530,
    "ened": 1385,
    "cart": 10692,
    "solemn": 19820,
    "Ġacknowledges": 24689,
    "Ġprom": 1526,
    "Ġdoleful": 18378,
    "Ġcomput": 599,
    "Ġminuteness": 19140,
    "commanding": 24751,
    "Ġcorrectly": 9407,
    "london": 9612,
    "mole": 22706,
    "Ġmice": 13862,
    "made": 4809,
    "ounded": 9751,
    "Ġgets": 10841,
    "Ġgills": 17995,
    "Ġsunset": 8965,
    "Ġprudence": 13923,
    "Ġflukes": 5267,
    "omon": 10209,
    "Ġchanging": 11757,
    "Ġleft": 1759,
    "Ġout": 543,
    "Ġterror": 5123,
    "amp": 2604,
    "Ġbearing": 5300,
    "Ġsituations": 10494,
    "apidated": 22340,
    "superstitious": 17283,
    "Ġcorpora": 26582,
    "Ġamours": 22481,
    "Ġopium": 8997,
    "Ġwouldst": 18500,
    "Ġgreat": 895,
    "Ġepid": 18007,
    "happiest": 19334,
    "whar": 15932,
    "Ġafric": 8909,
    "Ġminim": 1324,
    "Ġactuated": 18546,
    "Ġvagueness": 25738,
    "Ġbet": 1132,
    "Ġconveys": 16857,
    "ren": 549,
    "Ġbugs": 13652,
    ".âĢĻâĢĿ": 6741,
    "Ġreaction": 15700,
    "Ġprovide": 7750,
    "Ġjew": 9470,
    "oline": 6834,
    "dressing": 11484,
    "ult": 723,
    "Ġliberties": 19670,
    "Ġgull": 15675,
    "Ġpelt": 15615,
    "¹": 122,
    "Ġprofess": 3700,
    "Ġglassy": 19563,
    "Ġindef": 9192,
    "Ġmult": 1021,
    "Ġsixteen": 8283,
    "Ġsinister": 8572,
    "Ġsleet": 8978,
    "ceptibly": 22350,
    "Ġcomprehensive": 15091,
    "Ġhollow": 5648,
    "none": 6962,
    "Ġsighed": 10340,
    "urches": 12688,
    "merit": 19283,
    "Ġrecalled": 8540,
    "izes": 885,
    "Ġseventy": 7878,
    "Ġschedules": 3391,
    "Ġparamet": 608,
    "Ġalps": 10872,
    "Ġpovelson": 26554,
    "horrible": 14602,
    "nosed": 20994,
    "Ġglobules": 26590,
    "amet": 582,
    "Ġsou": 1886,
    "Ġopen": 1550,
    "Ġprized": 23219,
    "roy": 7854,
    "Ġlandsmen": 11353,
    "Ġreckoning": 14982,
    "ify": 1494,
    "elihood": 4622,
    "Ġthickly": 12120,
    "apologizing": 26546,
    "quadr": 15769,
    "sper": 4434,
    "Ġsquat": 14370,
    "Ġeul": 21621,
    "Ġexceed": 1343,
    "Ġassertions": 19950,
    "poss": 4779,
    "Ġinherent": 4591,
    "Ġbraz": 19361,
    "encounter": 20395,
    "Ġhearing": 4762,
    "Ġlearned": 2023,
    "Ġcorruption": 15229,
    "published": 26143,
    "Ġvariance": 1167,
    "Ġnumber": 1981,
    "Ġhesitated": 10005,
    "illation": 14144,
    "Ġglobal": 2370,
    "Ġ25": 13196,
    "Ġrenowned": 26195,
    "Ġprejudices": 13473,
    "Ġstrain": 6025,
    "Ġwelded": 9574,
    "transformers": 8718,
    "servants": 15040,
    "Ġdarted": 4759,
    "Ġuttermost": 19491,
    "consequ": 18505,
    "Ġdeliber": 7268,
    "Ġdazz": 11597,
    "Ġintense": 6159,
    "Ġpaying": 9941,
    "Ġborders": 15577,
    "Ġdromed": 15602,
    "Ġjoists": 19235,
    "pinn": 21028,
    "Ġwallet": 21301,
    "abetical": 15748,
    "Ġspectrum": 4473,
    "Ġprairies": 20024,
    "Ġstubbs": 23297,
    "tables": 19760,
    "monster": 8595,
    "Ġdirt": 15599,
    "Ġused": 2058,
    "swaying": 25911,
    "Ġpunish": 12164,
    "arken": 18668,
    "Ġcostly": 23586,
    "Ġcondescension": 10621,
    "distrust": 19573,
    "etting": 21583,
    "ied": 941,
    "Ġchanc": 18385,
    "tim": 13794,
    "Ġpence": 17905,
    "Ġeastern": 11632,
    "Ġbeaver": 18088,
    "Ġabomination": 22282,
    "Ġfalse": 4343,
    "Ġze": 8548,
    "whatsoever": 18494,
    "fishing": 20861,
    "Ġwires": 21298,
    "Ġbid": 6133,
    "eded": 9676,
    "Ġvoids": 25808,
    "Ġtradeoff": 2657,
    "Ġmoist": 9288,
    "Ġindelible": 25695,
    "character": 6333,
    "Ġconcert": 11971,
    "Ġpierce": 17037,
    "accounted": 16504,
    "Ġrestraint": 15131,
    "icide": 11621,
    "deserted": 19344,
    "actor": 11841,
    "Ġhousehold": 8571,
    "ess": 414,
    "glancing": 11216,
    "Ġshrubbery": 18233,
    "Ġdiscreet": 16485,
    "covenant": 23564,
    "istically": 14146,
    "Ġtrinity": 22348,
    "Ġconfounded": 16387,
    "resolution": 17768,
    "Ġdiscoursing": 26268,
    "problem": 25244,
    "Ġincorporated": 25710,
    "nd": 11506,
    "Ġcrimson": 16440,
    "Ġmoulton": 17438,
    "Ġforbidding": 17080,
    ";âĢĿ": 7791,
    "Ġdepart": 4658,
    "conditional": 9081,
    "Ġlays": 15990,
    "Ġsupport": 6730,
    "Ġvener": 8164,
    "moving": 11019,
    "Ġreced": 15697,
    "Ġungod": 22028,
    "ents": 1896,
    "olerably": 11676,
    "arranging": 19320,
    "âĢľâĢĻ": 10224,
    "entitled": 21571,
    "ken": 2800,
    "unvarying": 21891,
    "Ġcrusad": 23708,
    "Ġbehaviors": 13260,
    "ulating": 10889,
    "Ġfoam": 6891,
    "Ġserviceable": 24717,
    "belong": 12127,
    "!)": 10072,
    "Ġwars": 17787,
    "cell": 10689,
    "ums": 10275,
    "Ġscrib": 22292,
    "inexplicable": 25810,
    "Ġswiss": 18882,
    "more": 1033,
    "Ġopened": 3515,
    "Ġfist": 21407,
    "Ġevidently": 6760,
    "Ġbless": 4342,
    "Ġtreating": 4284,
    "daugh": 6789,
    "Ġgrasping": 12170,
    "chronicle": 26482,
    "Ġextremities": 19197,
    "Ġworm": 9165,
    "Ġlbs": 11618,
    "Ġincivility": 18575,
    "Ġsinned": 18953,
    "bearance": 22497,
    "heric": 15916,
    "Ġarmies": 16495,
    "Ġbrown": 6300,
    "Ġtepid": 26414,
    "aust": 15313,
    "considerable": 10551,
    "Ġbarnacled": 25537,
    "abouts": 9456,
    "Ġresearches": 13136,
    ".âĢĶâĢľ": 20749,
    "ogy": 22699,
    "Ġspam": 7631,
    "Ġbring": 3326,
    "Ġreadiness": 13055,
    "atible": 17774,
    "animated": 14978,
    "victim": 25531,
    "Ġribbed": 16806,
    "scent": 13026,
    "Ġacquiescence": 20333,
    "andam": 10890,
    "phants": 9323,
    "ooped": 17625,
    "Ġkramm": 26235,
    "ev": 6952,
    "resemblance": 25934,
    "Ġunassuming": 20512,
    "Ġfossiliferous": 25610,
    "iloquent": 21729,
    "Ġcares": 9369,
    "Ġwilfully": 16768,
    "pertaining": 22192,
    "Ġpoet": 8210,
    "ouement": 21451,
    "Ġqueerest": 16418,
    "Ġgun": 4703,
    "Ġdirect": 1471,
    "Ġconveniences": 19815,
    "Ġflame": 7448,
    "Ġgradients": 611,
    "Ġcherub": 23288,
    "eer": 15351,
    "tstone": 21087,
    "cushion": 20823,
    "Ġuntidy": 23524,
    "Ġperry": 22400,
    "Ġmalice": 7153,
    "Ġwis": 3730,
    "Ġenslaved": 26315,
    "Ġesc": 2252,
    "Ġcommunic": 5751,
    "interval": 7991,
    "Ġplainpalais": 20739,
    "Ġaudacious": 13464,
    "Ġrighteous": 18948,
    "dipped": 20839,
    "consequence": 9766,
    "aloud": 17943,
    "Ġsymptoms": 8708,
    "air": 1003,
    "Ġfull": 2178,
    "Ġpract": 1811,
    "Ġsweetness": 9450,
    "Ġshiver": 12772,
    "Ġcountless": 16386,
    "histicated": 20903,
    "xic": 9148,
    "Ġadaptive": 1283,
    "courageous": 26128,
    "when": 1586,
    "traversed": 19650,
    "Ġunfulfilled": 26511,
    "youn": 5690,
    "Ġi": 312,
    "wood": 5899,
    "skelter": 24490,
    "edily": 17946,
    "Ġfine": 1318,
    "Ġlustre": 15138,
    "Ġpuzzled": 7317,
    "billows": 20239,
    "Ġarrowy": 25470,
    "Ġcircumst": 2973,
    "Ġbottom": 3676,
    "Ġrepeating": 11215,
    "Ġsuggestive": 11299,
    "ations": 711,
    "ultaneous": 18585,
    "Ġvirginia": 13503,
    "Ġpell": 21458,
    "Ġpersonages": 23544,
    "Ġalive": 4398,
    "disappointed": 25192,
    "stripped": 16947,
    "Ġpuffing": 12259,
    "Ġwatching": 4856,
    "taught": 17686,
    "Ġmisled": 22757,
    "Ġcarriage": 3950,
    "Ġbids": 24646,
    "Ġhellish": 10553,
    "Ġtimidly": 11340,
    "Ġrece": 11641,
    "Ġcust": 11585,
    "Ġcabman": 14607,
    "Ġfloated": 7288,
    "Ġsociet": 9453,
    "Ġvapory": 17008,
    "Ġcontention": 22430,
    "Ġthine": 7374,
    "Ġprematurely": 24009,
    "supposed": 13320,
    "Ġpill": 7846,
    "Ġpresented": 5183,
    "Ġcommunicate": 10580,
    "Ġtrumpet": 9576,
    "fired": 20862,
    "Ġwor": 1189,
    "Ġshamefully": 24715,
    "Ġfluke": 14676,
    "Ġbutton": 10269,
    "Ġquitting": 7646,
    "Ġmathemat": 3201,
    "ilight": 12698,
    "Ġconsum": 9802,
    "Ġcrossing": 7252,
    "Ġseem": 912,
    "ulation": 5458,
    "irwin": 8471,
    "Ġsub": 950,
    "Ġquoted": 22419,
    "Ġaback": 22270,
    "tempted": 26405,
    "contriv": 19294,
    "Ġincarnation": 25574,
    "riend": 1186,
    "Ġgazette": 19504,
    "Ġdedicated": 19209,
    "Ġflickering": 23017,
    "akness": 14197,
    "Ġneutral": 12746,
    "deed": 1519,
    "Ġvis": 1034,
    "aps": 1229,
    "Ġmysticetus": 24923,
    "Ġlull": 15656,
    "Ġoblig": 3449,
    "Ġgemin": 21613,
    "tons": 7559,
    "Ġobjective": 3766,
    "Ġchopping": 24222,
    "Ġlevels": 12703,
    "formality": 22218,
    "string": 15691,
    "Ġpossibility": 7458,
    "manned": 18764,
    "Ġrenewed": 9541,
    "ef": 5134,
    "Ġpretended": 19316,
    "scoured": 22996,
    "Ġpred": 664,
    "older": 15761,
    "oice": 1381,
    "Ġscor": 8191,
    "Ġsheaves": 22162,
    "becoming": 18520,
    "Ġrealised": 18981,
    "osal": 11763,
    "ersman": 11706,
    "Ġcorrupt": 11927,
    "Ġbackbone": 22663,
    "Ġtradesmen": 17106,
    "reporting": 24494,
    "Ġhelping": 3266,
    "Ġphara": 23202,
    "ye": 1405,
    "Ġundoing": 22039,
    "Ħ": 231,
    "Ġembeddings": 2094,
    "shorn": 22451,
    "Ġnonce": 23236,
    "Ġrejoicing": 13425,
    "Ġ86": 24461,
    "unfearing": 21896,
    "Ġnewcomer": 26041,
    "ise": 708,
    "Ġconcocted": 26300,
    "Ġmodest": 15923,
    "mers": 9613,
    "Ġpreserving": 19799,
    "Ġportra": 9012,
    "books": 8667,
    "actions": 8910,
    "Ġarched": 10934,
    "cask": 12451,
    "Ġspoutings": 14678,
    "away": 4627,
    "Ġstupidity": 15052,
    "Ġdents": 13914,
    "Ġstaircase": 20099,
    "pets": 17638,
    "cl": 1492,
    "Ġdescribe": 2766,
    "Ġsafety": 6341,
    "grave": 16099,
    "houn": 20895,
    "Ġcreaking": 14330,
    "Ġverd": 6919,
    "eel": 11486,
    "Ġreconc": 9686,
    "Ġflourishing": 25188,
    "Ġwoes": 23989,
    "eter": 11624,
    "Ġache": 18664,
    "Ġends": 8238,
    "Ġcarpent": 4464,
    "Ġshrunk": 16720,
    "Ġformless": 22831,
    "Ġcastor": 19430,
    "Ġans": 1644,
    "Ġobed": 8538,
    "Ġfires": 16475,
    "Ġcombing": 22856,
    "Ġbirds": 5875,
    "urous": 10215,
    "Ġvivacious": 19818,
    "Ġdream": 3540,
    "Ġloveliest": 20264,
    "Ġregarding": 13214,
    "Ġprobable": 5570,
    "Ġungenerous": 18270,
    "Ġexpl": 487,
    "Ġbegrim": 23018,
    "clay": 18933,
    "Ġtransactions": 18482,
    "Ġqualified": 14953,
    "Ġdirecting": 16304,
    "Ġsilken": 16385,
    "ials": 11710,
    "Ġdreamy": 14706,
    "Ġorganizations": 12318,
    "Ġwhoever": 10975,
    "relieved": 13281,
    "Ġ180": 16608,
    "Ġbelief": 5857,
    "shaven": 18488,
    "bol": 8721,
    "Ġjav": 7902,
    "Ġ11": 5319,
    "qualified": 17099,
    "Ġentertaining": 16928,
    "Ġpredefined": 20719,
    "Ġcrisp": 12007,
    "Ġcedars": 20295,
    "holloa": 19467,
    "Ġlovel": 10274,
    "themselves": 6542,
    "ative": 738,
    "grampus": 18618,
    "Ġattaining": 15808,
    "arial": 5532,
    "iloqu": 11651,
    "Ġmysteriously": 24602,
    "Ġsending": 8779,
    "pol": 5894,
    "atiously": 15526,
    "Ġberths": 20118,
    "Ġpromise": 4200,
    "kish": 20936,
    "breaths": 25337,
    "Ġunited": 6841,
    "Ġfootfall": 14663,
    "Ġbestir": 13114,
    "Ġrecord": 5317,
    "Ġentangled": 10346,
    "Ġbloss": 19258,
    "Ġfretfulness": 25449,
    "Ġruskin": 25809,
    "ghan": 19458,
    "wishes": 13810,
    "Ġspiritual": 9933,
    "Ġswe": 2288,
    "rift": 11522,
    "Ġproducing": 11903,
    "Ġfooted": 23798,
    "Ġoblong": 14324,
    "boy": 4739,
    "Ġgur": 21595,
    "okingly": 22385,
    "Ġpliny": 11829,
    "Ġreligious": 25124,
    "Ġvalues": 2650,
    "Ġrolls": 8334,
    "Ġdoll": 10815,
    "Ġfreighted": 16328,
    "Ġtenderness": 12220,
    "Ġignor": 4012,
    "Ġerrone": 14433,
    "qu": 369,
    "Ġsu": 432,
    "Ġsitu": 3498,
    "aret": 7417,
    "Ġhundreds": 4328,
    "Ġherbage": 25997,
    "Ġislets": 21805,
    "adier": 18092,
    "professional": 20278,
    "loath": 22513,
    "Ġstep": 752,
    "Ġthrusts": 24350,
    "bitter": 11242,
    "evidence": 25522,
    "ogene": 18672,
    "Ġcynical": 25771,
    "Ġsprained": 15889,
    "information": 12397,
    "personal": 24966,
    "!âĢĻ": 3334,
    "Ġfashionable": 19547,
    "Ġbold": 5293,
    "thousand": 5547,
    "ires": 6039,
    "ications": 4444,
    "Ġincomp": 12902,
    "Ġjacobians": 2891,
    "Ġstead": 5650,
    "Ġnasty": 17446,
    "anqu": 4111,
    "neighbouring": 19967,
    "rank": 21044,
    "overhearing": 19056,
    "Ġnames": 4532,
    "active": 16108,
    "Ġinarticulate": 21503,
    "ineering": 21985,
    "Ġcorpus": 13037,
    "Ġpalp": 11251,
    "Ġcurvature": 3577,
    "Ġparade": 18302,
    "Ġpartly": 6715,
    "ges": 2871,
    "Ġyarman": 12710,
    "Ġshrill": 12146,
    "Ġencode": 4364,
    "teak": 22820,
    "Ġhugest": 17017,
    "Ġlarge": 1067,
    "hypothe": 25906,
    "ofs": 11834,
    "Ġcluster": 13575,
    "arius": 14251,
    "missionary": 24616,
    "Ġshoved": 23492,
    "Ġhopeful": 19034,
    "Ġsay": 932,
    "Ġposterity": 17405,
    "Ġwasting": 12733,
    "Ġquebec": 24135,
    "Ġmoonlight": 9961,
    "depth": 12805,
    "ij": 7802,
    "Ġclump": 15974,
    "Ġdifferences": 18713,
    "Ġinadequate": 17939,
    "ol": 362,
    "bec": 4054,
    "private": 13586,
    "Ġmaker": 15548,
    "Ġhomeward": 9394,
    "Ġholmes": 1309,
    "arm": 1356,
    "ll": 1136,
    "Ġinvolving": 18773,
    "Ġgenerously": 22398,
    "Ġaccompany": 9490,
    "Ġintimately": 24801,
    "Ġparameters": 994,
    "Ġimpassable": 20615,
    "Ġalb": 14019,
    "Ġdab": 15593,
    "Ġstrides": 22620,
    "Ġstag": 6150,
    "inarticulate": 21198,
    "Ġbigness": 19763,
    "Ġwarning": 9061,
    "Ġfactory": 23280,
    "Ġclass": 789,
    "Ġgush": 10205,
    "feelings": 5674,
    "Ġplays": 12041,
    "Ġgrounds": 6751,
    "Ġbreathing": 9449,
    "clean": 14763,
    "Ġoxen": 19954,
    "intolerable": 22941,
    "desire": 14664,
    "tend": 17676,
    "Ġaval": 15497,
    "Ġdiscol": 12958,
    "Ġspilled": 10927,
    "Ġdistricts": 20266,
    "diss": 17525,
    "ade": 881,
    "Ġinte": 2064,
    "twenty": 6609,
    "meat": 18677,
    "Ġretiring": 16284,
    "Ġsayest": 22776,
    "Ġjumping": 13346,
    "vity": 7815,
    "Ġpeculiar": 3152,
    "Ġtuileries": 24824,
    "Ġinflicted": 11367,
    "Ġhaste": 9006,
    "Ġeconomically": 25289,
    "dropped": 12267,
    "¸": 121,
    "ely": 620,
    "Ġpenetrated": 13476,
    "Ġstig": 14005,
    "Ġrover": 18456,
    "Ġmccarthy": 5145,
    "Ġwhal": 5454,
    "chose": 18043,
    "adagrad": 9694,
    "Ġfoe": 7680,
    "Ġtents": 13821,
    "conc": 3947,
    "naturally": 14575,
    "Ġmethodic": 23119,
    "Ġpalmed": 24094,
    "Ġbol": 6243,
    "Ġeffective": 1247,
    "manifested": 20529,
    "Ġeffeminacy": 20720,
    "Ġscarcely": 4009,
    "mud": 20973,
    "avast": 8893,
    "Ġlearnt": 7615,
    "Ġbegrimed": 26580,
    "Ġaz": 9632,
    "Ġdeeper": 2083,
    "Ġacc": 570,
    "inquire": 16934,
    "Ġlion": 9678,
    "justified": 19004,
    "Ġcheap": 13094,
    "Ġdebt": 12172,
    "Ġmask": 1865,
    "Ġdebar": 24274,
    "ward": 706,
    "Ġrider": 24188,
    "ives": 1409,
    "Ġfever": 6560,
    "Ġpit": 3425,
    "def": 1453,
    "ordinary": 4407,
    "headers": 23112,
    "Ġcontented": 9759,
    "princip": 17139,
    "Ġdiminished": 16668,
    "Ġthro": 5818,
    "Ġstring": 11831,
    "Ġsank": 5076,
    "nour": 20990,
    "Ġrelevant": 1863,
    "mp": 3729,
    "Ġexagger": 12724,
    "crossing": 19414,
    "Ġamazement": 7765,
    "Ġfresher": 23210,
    "Ġconstant": 6311,
    "Ġimperson": 14222,
    "Ġhatter": 4113,
    "Ġtowering": 16741,
    "liter": 11504,
    "erman": 5108,
    "talk": 6659,
    "Ġquaint": 18466,
    "Ġsomehow": 4843,
    "Ġtaffrail": 15480,
    "Ġcaution": 11348,
    "aught": 2681,
    "machines": 8385,
    "Ġtranspired": 16786,
    "bold": 17490,
    "bitterly": 20340,
    "trick": 19416,
    "Ġintolerable": 8484,
    "back": 2016,
    "Ġtumultuous": 10618,
    "intments": 18822,
    "Ġincarn": 11818,
    "Ġclinch": 18426,
    "icity": 2538,
    "Ġretort": 23073,
    "tales": 17688,
    "Ġworrying": 22930,
    "Ġvolume": 6770,
    "tanh": 5204,
    "Ġunequal": 14845,
    "Ġdiabolically": 25514,
    "bacc": 7795,
    "blubber": 15240,
    "Ġconfl": 11139,
    "Ġhing": 11607,
    "Ġstranger": 3488,
    "Ġnegative": 1464,
    "Ġblushed": 13007,
    "Ġinstantaneous": 14613,
    "already": 6981,
    "Ġmuzzle": 21324,
    "Ġforesaw": 19128,
    "third": 8168,
    "Ġris": 4887,
    "Ġkneel": 14810,
    "Ġeffectual": 18734,
    "ĠâĢĶ_": 3462,
    "Ġconstrained": 19242,
    "Ġconceits": 19393,
    "Ġwhen": 514,
    "na": 13763,
    "Ġsins": 13840,
    "clerval": 7951,
    "mercenary": 26316,
    "Ġrepugnant": 26592,
    "Ġmadam": 5663,
    "Ġresign": 18565,
    "residence": 19265,
    "Ġclose": 3037,
    "unteered": 26497,
    "Ġknave": 11274,
    "Ġkingdom": 12023,
    "Ġkilburn": 18352,
    "Ġtranqu": 4604,
    "Ġdrugg": 17122,
    "Ġcharles": 11962,
    "pattern": 4626,
    "Ġparl": 8178,
    "Ġselecting": 16683,
    "Ġble": 5223,
    "Ġdesisted": 22983,
    "ensing": 12901,
    "Ġobedient": 20108,
    "jour": 20929,
    "Ġvery": 637,
    "Ġwronged": 24250,
    "pha": 22778,
    "Ġpurses": 23478,
    "Ġtheoretic": 23314,
    "Ġenumerating": 15248,
    "chard": 21690,
    "Ġpoliceman": 15262,
    "Ġjesty": 18406,
    "bert": 4664,
    "Ġencourage": 10383,
    "shook": 19858,
    "Ġfluid": 11214,
    "Ġinjured": 9042,
    "Ġinsane": 19271,
    "Ġfound": 1246,
    "rance": 5995,
    "teenth": 11878,
    "Ġnations": 8814,
    "waves": 10742,
    "Ġproble": 1110,
    "ply": 6367,
    "Ġpowerful": 1587,
    "mmar": 952,
    "canonical": 22968,
    "Ġupdating": 2691,
    "Ġsaving": 15892,
    "verty": 8454,
    "ouch": 2779,
    "pict": 8386,
    "atic": 4018,
    "resist": 8276,
    "shold": 2773,
    "shudder": 26247,
    "Ġmoose": 22435,
    "Ġshakespeare": 20310,
    "limp": 20954,
    "temper": 10007,
    "Ġtag": 15472,
    "proportion": 16187,
    "return": 5489,
    "eringly": 23006,
    "Ġfem": 6136,
    "stopping": 19353,
    "Ġtarpaul": 17732,
    "Ġresidual": 1679,
    "Ġspake": 18309,
    "Ġmagg": 18907,
    "Ġconven": 6153,
    "Ġreferred": 8920,
    "hoist": 23715,
    "hyena": 24255,
    "forgotten": 12420,
    "Ġlodged": 11252,
    "Ġread": 1448,
    "Ġor": 437,
    "Ġcopying": 17069,
    "Ġentertainment": 12227,
    "Ġguard": 6180,
    "ky": 4518,
    "inisc": 15492,
    "glit": 23852,
    "ief": 2044,
    "dam": 7798,
    "Ġmasts": 6466,
    "Ġrifled": 21980,
    "obvious": 9360,
    "igators": 18048,
    "Ġfif": 4218,
    "Ġexamination": 8005,
    "conced": 22474,
    "ase": 1156,
    "evade": 24817,
    "cra": 6356,
    "Ġmaimed": 21319,
    "Ġ59": 24323,
    "Ġpleasure": 2696,
    "Ġduodecimo": 16769,
    "hateful": 20911,
    "Ġwoods": 5406,
    "bra": 6221,
    "mission": 5971,
    "Ġliquid": 22413,
    "Ġdeficient": 18827,
    "pus": 3420,
    "Ġsuicide": 12792,
    "Ġhe": 318,
    "Ġrag": 18642,
    "Ġcinque": 20489,
    "odings": 4399,
    "Ġblow": 3377,
    "ucket": 2482,
    "secured": 16940,
    "Ġfates": 15583,
    "Ġrequirements": 9797,
    "Ġmix": 7577,
    "buncle": 13696,
    "Ġserenity": 10031,
    "Ġsoothe": 7405,
    "fights": 20867,
    "Ġrealise": 16341,
    "Ġincorporate": 20457,
    "sharp": 10309,
    "Ġaffecting": 2321,
    "indeed": 4486,
    "Ġphren": 8575,
    "sweeping": 24619,
    "accidents": 19215,
    "com": 975,
    "Ġtufted": 17016,
    "Ġdistrusting": 25056,
    "skylight": 25624,
    "Ġsternly": 16717,
    "Ġhopes": 4235,
    "Ġameric": 3854,
    "Ġincarnate": 20378,
    "Ġconduct": 3735,
    "đ": 210,
    "loops": 12888,
    "igate": 8827,
    "Ġconcepts": 4550,
    "youngest": 19746,
    "Ġfringe": 17274,
    "unted": 6999,
    "bitts": 26123,
    "will": 1968,
    "Ġfunny": 7638,
    "==": 944,
    "prepare": 20215,
    "Ġdecomposition": 5343,
    "Ġcommissionaire": 17002,
    "sets": 17662,
    "Ġsooner": 5573,
    "nings": 9134,
    "intend": 16229,
    "Ġ182": 13243,
    "lighter": 20961,
    "Ġcuts": 14609,
    "instantly": 7506,
    "disputed": 23502,
    "Ġwickedness": 9529,
    "Ġstyle": 6946,
    "Ġaugmentation": 20119,
    "ý": 190,
    "cry": 12450,
    "brit": 19199,
    "Ġdiscovers": 4427,
    "cturn": 17989,
    "Ġpaternal": 16384,
    "esty": 4306,
    "sweep": 24618,
    "elf": 564,
    "Ġboxes": 13378,
    "Ġpost": 4273,
    "Ġforbearing": 25101,
    "Ġenergy": 2552,
    "langu": 4808,
    "bout": 20775,
    "aneous": 7240,
    "Ġass": 1502,
    "plexion": 14264,
    "U": 57,
    "Ġminima": 3467,
    "lives": 12490,
    "press": 1732,
    "Ġmcc": 21309,
    "blazing": 24134,
    "Ġunluckily": 20105,
    "Ġsugg": 4498,
    "Ġrussian": 14353,
    "Ġbespe": 19244,
    "Ġrom": 4524,
    "buckets": 26124,
    "rodu": 1819,
    "Ġserpents": 13081,
    "Ġminor": 12973,
    "Ġsplinters": 15106,
    "ilst": 8144,
    "Ġbreaks": 13187,
    "withstand": 23029,
    "Ġknowingly": 18483,
    "network": 1891,
    "Ġbillow": 14783,
    "te": 996,
    "etween": 775,
    "ach": 435,
    "Ġairs": 14512,
    "Ġzoology": 22824,
    "Ġarrest": 7409,
    "Ġstabbed": 25457,
    "Ġdrawings": 14725,
    "Ġdetaining": 25819,
    "Ġruin": 6057,
    "Ġshameful": 19854,
    "Ġrelations": 5854,
    "Ġyielding": 12191,
    "Ġensue": 18191,
    "scotch": 25852,
    "Ġrewarded": 14943,
    "Ġimbued": 17458,
    "Ġano": 11599,
    "Ġacknowledge": 13406,
    "company": 9464,
    "leagues": 21376,
    "comfortableness": 24525,
    "Ġwheeled": 14141,
    "Ġprivileged": 20116,
    "Ġconceals": 23907,
    "machine": 968,
    "Ġuntimely": 16470,
    "ĠĠĠĠĠĠĠĠĠĠĠĠĠĠĠĠĠĠĠĠĠĠĠĠĠĠĠĠĠ": 19702,
    "Ġpeculiarity": 12938,
    "insanity": 23071,
    "Ġvaulted": 25171,
    "Ġscra": 5842,
    "Ġmabel": 17327,
    "Ġsolic": 7933,
    "Ġscowl": 22294,
    "Ġmiserably": 12952,
    "59": 17476,
    "Ġinvolves": 1139,
    "Ġsty": 6253,
    "fab": 13719,
    "Ġconversation": 3332,
    "Ġwalker": 23313,
    "adequ": 11022,
    "Ġsof": 18282,
    "marked": 9051,
    "Ġproving": 15757,
    "ascertaining": 26462,
    "Ġsunwards": 19017,
    "Ġweave": 21925,
    "´": 117,
    "ę": 218,
    "Ġair": 1835,
    "Ġattic": 16100,
    "Ġsuggestions": 24453,
    "Ġsteamer": 17191,
    "Ġcourses": 10413,
    "Ġmy": 411,
    "Ġhearken": 21688,
    "Ġ80": 24456,
    "Ġprofile": 16491,
    "tes": 11531,
    "Ġmartial": 20294,
    "Ġcousins": 9918,
    "Ġdiabolical": 20345,
    "Ġstiff": 6993,
    "Ġbiscuit": 12594,
    "disgust": 23498,
    "operations": 19978,
    "been": 3346,
    "relative": 24016,
    "Ġoutstanding": 22320,
    "forbearance": 22798,
    "Ġender": 11695,
    "Ġsalutation": 12401,
    "acca": 23599,
    "ë": 172,
    "Ġcontinues": 18807,
    "Ġfurnish": 9022,
    "igned": 5656,
    "Ġcomputations": 16002,
    "anthrop": 17385,
    "Ġcontentment": 14873,
    "Ġstupid": 7604,
    "Ġapprehensions": 13408,
    "Ġheeded": 13407,
    "Ġformerly": 7493,
    "Ġdire": 867,
    "brain": 13691,
    "ather": 742,
    "Ġgentlemanly": 19318,
    "Ġsomething": 1795,
    "crawling": 16960,
    "mistaken": 12215,
    "mediate": 16516,
    "Ġcreat": 1408,
    "Ġperplexed": 23663,
    "iracle": 11245,
    "Ġno": 510,
    "Ġassisted": 11112,
    "Ġabatement": 22280,
    "ureau": 10229,
    "Ġevident": 6615,
    "Ġinboard": 17935,
    "Ġangular": 19210,
    "handled": 19263,
    "Ġmetropolitan": 17278,
    "Ġcontemptible": 16955,
    "Ġanyways": 22524,
    "agation": 1258,
    "Ġwe": 388,
    "riage": 2123,
    "Ġphaet": 16323,
    "pass": 4291,
    "Ġrandomly": 1921,
    "unmistakable": 21899,
    "Ġinexorable": 12260,
    "warmth": 20056,
    "Ġsemicircular": 26069,
    "Ġyoung": 1504,
    "calling": 12454,
    "Ġparliament": 18303,
    "Ġavail": 11228,
    "Ġhumaneval": 25583,
    "ades": 5631,
    "gloomy": 25147,
    "coward": 13704,
    "occupations": 24967,
    "Ġshudder": 9053,
    "Ġobstructed": 24678,
    "Ġbargain": 23794,
    "Ġcorrespondence": 10597,
    "Ġmutinous": 23961,
    "Ġexpeditions": 24957,
    "Ġxxi": 24476,
    "Ġdisgust": 6707,
    "Ġdiscours": 18718,
    "thee": 9693,
    "Ġbolt": 11336,
    "Ġhairy": 23867,
    "speckled": 23948,
    "apse": 14201,
    "icilian": 20694,
    "Ġreally": 2160,
    "Ġdeemed": 7613,
    "Ġglancing": 5399,
    "treasures": 26153,
    "Ġpropos": 7063,
    "Ġcommunicative": 24548,
    "Ġpines": 12622,
    "iforn": 14067,
    "ige": 12685,
    "Ġresounds": 22546,
    "Ġpause": 5707,
    "Ġslides": 18941,
    "Ġhier": 1894,
    "Ġby": 383,
    "Ġstages": 14007,
    "Ġvibrated": 25048,
    "Ġmead": 8840,
    "Ġimpunity": 14220,
    "Ġinequal": 21500,
    "Ġhorizontally": 17014,
    "Ġartfully": 22614,
    "Ġavenues": 25430,
    "obstructed": 15230,
    "Ġsake": 4093,
    "Ġfang": 21406,
    "Ġrock": 5311,
    "itives": 17821,
    "Ġsympathies": 14864,
    "Ġsaintsbury": 26374,
    "Ġrephrased": 26479,
    "Ġkicking": 16903,
    "Ġvaguely": 17369,
    "Ġworkflow": 2309,
    "Ġpink": 12623,
    "Ġabundance": 17158,
    "Ĳ": 243,
    "Ġlik": 2520,
    "Ġperceptibly": 25822,
    "operation": 13504,
    "arthly": 8030,
    "Ġsurvived": 14937,
    "Ġsighs": 22714,
    "mens": 20971,
    "Ġwrapt": 24596,
    "Ġfrenzy": 13626,
    "Ġbec": 1347,
    "Ġbottled": 23797,
    "Ġsteeply": 23725,
    "carefully": 13373,
    "Ġletter": 2196,
    "Ġcommunicates": 24547,
    "Ġthreshold": 2808,
    "Ġasph": 21902,
    "tural": 21069,
    "Ġobjects": 5578,
    "Ġnovelties": 24777,
    "Ġeigen": 4882,
    "uff": 2732,
    "between": 5071,
    "tha": 15828,
    "simon": 16975,
    "Ġwalking": 4323,
    "Ġeffaced": 18529,
    "Ġmultimodal": 18749,
    "Ġsoar": 18283,
    "heard": 5009,
    "Ġmultiplicity": 19277,
    "changing": 10856,
    "Ġindignity": 18835,
    "Ġpuzzling": 14901,
    "Ġasked": 2277,
    "Ġhardihood": 23115,
    "Ġbarrels": 9439,
    "Ġdra": 1589,
    "Ġengland": 3857,
    "Ġthrusting": 10555,
    "ience": 826,
    "avers": 17483,
    "Ġsavi": 18325,
    "conjecture": 15126,
    "author": 9863,
    "Ġstiffly": 15007,
    "Ġengraved": 17082,
    "Ġlowest": 11124,
    "Ġpawn": 12068,
    "Ġshaster": 22002,
    "Ġ35": 24079,
    "Ġdiamond": 15604,
    "og": 858,
    "Ġrainy": 24341,
    "Ġdress": 4021,
    "Ġrainbows": 19651,
    "Ġintermission": 18590,
    "uarded": 21108,
    "Ġgive": 1714,
    "seldom": 13790,
    "interested": 9509,
    "learned": 8600,
    "Ġconstitutional": 25128,
    "Ġmoderation": 12823,
    "Ġcolonies": 14378,
    "ocations": 23709,
    "still": 4220,
    "ancies": 11587,
    "Ġloomings": 24952,
    "blo": 6355,
    "ú": 187,
    "Ġhead": 1121,
    "gle": 20871,
    "Ġinsatiate": 19272,
    "rates": 21041,
    "Ġhorseman": 19610,
    "Ġaven": 10761,
    "ansion": 10923,
    "Ġgramm": 8171,
    "isol": 17848,
    "icuous": 10837,
    "numerous": 17434,
    "Ġbuzz": 24000,
    "Ġsurprised": 3831,
    "smart": 23910,
    "Ġsuav": 22086,
    "compasses": 19461,
    "Ġpopular": 6218,
    "Ġmarvellous": 7538,
    "plicable": 10259,
    "Ġparc": 10922,
    "Ġrebounds": 25968,
    "befriend": 22495,
    "fight": 17540,
    "Ġhushed": 13928,
    "Ġamong": 1669,
    "Ġqu": 605,
    "Ġcauldron": 25442,
    "athies": 22705,
    "prevailed": 17348,
    "Ġtormenting": 15108,
    "Ġcrackling": 24961,
    "Ġimperilled": 19581,
    "Ġcolumbus": 26566,
    "Ġcollateral": 20075,
    "Ġcus": 21346,
    "âĢľ_": 5720,
    "Ġsluggishly": 25892,
    "icle": 10836,
    "Ġclassifies": 11842,
    "Ġdiminishing": 4210,
    "Ġhelped": 7459,
    "erness": 6435,
    "atical": 10773,
    "Ġincessant": 15101,
    "Ġannihilated": 20255,
    "affair": 14657,
    "avish": 22549,
    "jeroboam": 25620,
    "Ġwages": 13857,
    "Ġtrump": 8195,
    "tashtego": 9625,
    "Ġentertained": 10001,
    "inkle": 22617,
    "Ġwhis": 3507,
    "Ġgiants": 25961,
    "Ġvicissitudes": 12423,
    "bottom": 11428,
    "Ġanywhere": 8519,
    "Ġuneasily": 24233,
    "Ġright": 1503,
    "Ġrattling": 11397,
    "Ġbeget": 9228,
    "Ġseeth": 21957,
    "announce": 24561,
    "gam": 10098,
    "Ġtrout": 22346,
    "conceal": 25117,
    "immed": 9220,
    "iverer": 11720,
    "iour": 4039,
    "bat": 8072,
    "Ġsplendour": 20227,
    "urmount": 13998,
    "Ġemergency": 25731,
    "Ġindisposed": 26289,
    "Ġbandages": 24427,
    "intentions": 22942,
    "Ġproposition": 23250,
    "Ġgrief": 4620,
    "Ê": 139,
    "mccarthy": 15398,
    "gently": 13732,
    "Ġstairs": 5541,
    "fears": 18532,
    "Ġbos": 4876,
    "Ġsuit": 5725,
    "Ġloafer": 18300,
    "Ġbrush": 17866,
    "Ġconfeder": 25708,
    "Ġ95": 19776,
    "Ġfishes": 11594,
    "tro": 15437,
    "wol": 21125,
    "oot": 13768,
    "Ġrepair": 11983,
    "Ġyou": 366,
    "Ġwinged": 16997,
    "Ġhempen": 13554,
    "iating": 3205,
    "Ġcombinations": 22859,
    "Ġutensils": 23516,
    "surpr": 5998,
    "Ġfedallah": 6110,
    "arranged": 19321,
    "Ġrefreshing": 20267,
    "Ġlieu": 19567,
    "Ġcatching": 9481,
    "slow": 7810,
    "Ġcosmopol": 16456,
    "Ç": 136,
    "ago": 14068,
    "!âĢĶâĢĻ": 23567,
    "Ġdiscoverers": 26037,
    "encoun": 12302,
    "Ġdelayed": 9521,
    "Ġembarr": 7446,
    "drugg": 20840,
    "Ġeighty": 19479,
    "elevating": 20409,
    "oided": 11511,
    "Ġbeatrix": 24207,
    "Ġadapt": 970,
    "Ġkeys": 12001,
    "Ġwil": 4580,
    "imate": 4222,
    "Ġfunctions": 1339,
    "Ġstrangled": 24136,
    "mem": 10711,
    "Ġfringed": 17275,
    "Ġpausing": 8656,
    "Ġours": 4612,
    "era": 13850,
    "Ġobvious": 4964,
    "Ġjoyfully": 19349,
    "Ġpiping": 23234,
    "Ġoxford": 11373,
    ".]": 15302,
    "Ġancestry": 25642,
    "bone": 5612,
    "Ġappet": 9734,
    "Ġcondem": 6340,
    "Ġrefuge": 8544,
    "ai": 2523,
    "Ġgrandeur": 8631,
    "ards": 2502,
    "Ġuniverse": 14128,
    "pig": 8756,
    "large": 6628,
    "Ġbond": 21387,
    "answered": 10276,
    "expressing": 16803,
    "Ġtranslation": 3087,
    "gazed": 15365,
    "ructure": 762,
    "shaped": 10311,
    "ething": 1597,
    "Ġmilky": 9950,
    "Ġgiven": 1626,
    "orand": 21400,
    "Ġspans": 18305,
    "Ġverge": 23890,
    "Ġautom": 3390,
    "rength": 4102,
    "ĠĠĠĠĠĠĠĠĠĠĠĠĠĠĠĠĠĠĠĠĠĠĠĠĠĠĠĠĠĠĠĠĠĠĠĠĠĠĠĠĠĠĠĠĠĠĠĠ": 7989,
    "bbles": 13695,
    "Ġlurk": 13387,
    "Ġadmeasurements": 26227,
    "Ġguernsey": 9354,
    "Ġhatchways": 24990,
    "Ġcontemplation": 11359,
    "correspond": 13402,
    "Ġtakings": 20575,
    "Ġ132": 19898,
    "Ġreefed": 20305,
    "omical": 9683,
    "Ġyes": 2689,
    "leather": 13893,
    "races": 21633,
    "Ġresolves": 23652,
    "Ġmoul": 15549,
    "Ġlifetime": 13606,
    "Ġconvolutions": 21811,
    "Ġkirwin": 8499,
    "right": 2769,
    "Ġhush": 13215,
    "Ġexists": 14044,
    "bel": 3836,
    "peculiar": 6886,
    "Ġrenow": 18030,
    "Ġgaze": 6932,
    "Ġconvolutional": 2163,
    "Ġeigenvalues": 4998,
    "arily": 4127,
    "Ġostr": 21328,
    "circumstances": 8047,
    "Ġdivergence": 2728,
    "Ġliveliness": 13647,
    "lev": 1235,
    "Ġdomain": 3368,
    "Ġhighway": 14349,
    "Ġlamp": 4115,
    "aneously": 4061,
    "Ġinde": 7371,
    "Ġwaxed": 21300,
    "why": 2828,
    "Ġeverybody": 4509,
    "ollen": 11300,
    "grad": 2567,
    "Ġaright": 11744,
    "Ġimaginary": 11188,
    "Ġcurled": 8226,
    "ors": 854,
    "Ġantarctic": 19555,
    "plings": 11701,
    "mountains": 15184,
    "Ġrailway": 15023,
    "unforeseen": 21892,
    "wharf": 20609,
    "forty": 9377,
    "Ġmeanwhile": 5736,
    "prop": 1049,
    "Ġnobly": 22245,
    "soon": 4028,
    "Ġcomfor": 14055,
    "Ġtranslations": 12056,
    "Ġtreble": 16506,
    "Ġdimly": 9491,
    "turner": 19544,
    "Ġspecific": 2001,
    "called": 6294,
    "Ġwand": 4341,
    "Ġforged": 12709,
    "sip": 10727,
    "ginger": 13167,
    "Ġmonica": 22988,
    "ompl": 4535,
    "illed": 2622,
    "Ġspitzbergen": 15291,
    "Ġleathern": 15053,
    "doublo": 24661,
    "Ġchinks": 22255,
    "Ġimpat": 4455,
    "favouring": 24761,
    "kindled": 16663,
    "Ġchains": 8251,
    "Ġbacked": 12931,
    "Ġspind": 18308,
    "Ġassented": 17341,
    "Ġinsists": 23680,
    "Ġknock": 9976,
    "Ġpalpable": 15209,
    "Ġprosecution": 12385,
    "scuttle": 11914,
    "Ġresembling": 4099,
    "ancial": 21365,
    "position": 15417,
    "aples": 20770,
    "station": 10846,
    "including": 23592,
    "distinction": 19574,
    "extensive": 18704,
    "beneath": 9538,
    "Ġhonourable": 10458,
    "Ġsubaltern": 22794,
    "aug": 1213,
    "Ġwin": 9644,
    "Ġcourting": 23292,
    "Ġpublic": 4332,
    "Ġcalculate": 13269,
    "\\": 64,
    "Ġireland": 17338,
    "Ġstore": 8455,
    "Ġcontain": 1552,
    "listened": 15046,
    "due": 22414,
    "commencement": 26350,
    "Ġmeth": 1428,
    "Ġoverflowed": 20265,
    "Ġlikened": 16502,
    "ogr": 18671,
    "objection": 19917,
    "Ġbod": 4581,
    "Ġlifted": 6986,
    "İ": 241,
    "arter": 17895,
    "interrupted": 11419,
    "Ġsag": 6515,
    "Ġmaintaining": 1506,
    "Ġapproaching": 6286,
    "Ġdestroyer": 13417,
    "mblies": 24609,
    "Ġvines": 12754,
    "Ġchamp": 18382,
    "astrous": 15891,
    "Ġselects": 4385,
    "alk": 1150,
    "Ġsurround": 4617,
    "Ġhaving": 1879,
    "Ġeyelids": 26108,
    "Ġapplicable": 19006,
    "Ġfordham": 21780,
    "Ġsparkled": 13466,
    "Ġhasn": 12930,
    "Ġappetites": 20209,
    "Ġdow": 17888,
    "Ġrattler": 24998,
    "Ġastronomy": 25927,
    "fur": 6357,
    "hairs": 20906,
    "Ġlarboard": 11011,
    "Ġapprovingly": 26254,
    "Ġhumans": 8933,
    "ni": 1717,
    "Ġclut": 7642,
    "izar": 14053,
    "Ġstudious": 23223,
    "Ġelapsed": 7653,
    "ott": 1871,
    "Ġeternities": 19946,
    "Ġelse": 2478,
    "su": 810,
    "azine": 19132,
    "Ġtho": 21517,
    "Ġphrensy": 25127,
    "Ġeaglet": 19307,
    "Ġdeclaration": 16639,
    "sitting": 8387,
    "Ġdefe": 21839,
    "Ġhelper": 24029,
    "Ġpott": 21470,
    "Ġconvulsive": 19309,
    "Ġsweeping": 8988,
    "uding": 16153,
    "Ġpil": 5014,
    "Ġglobu": 23274,
    "istrate": 7406,
    "Ġrev": 6989,
    "Ġcongratulatory": 19770,
    "Ġ96": 24593,
    "consciously": 19628,
    "Ġloops": 8856,
    "Ġmocking": 24006,
    "Ġplatonian": 25121,
    "Ġpave": 8804,
    "Ġangles": 23590,
    "Ġlicence": 25099,
    "united": 14063,
    "Ġboun": 21383,
    "Ġteacher": 22921,
    "Ġphysiogn": 12392,
    "Ġinsens": 8277,
    "uling": 2256,
    "urs": 6990,
    "sac": 7142,
    "Ġcomprising": 16073,
    "fork": 20859,
    "observation": 17272,
    "Ġscar": 3210,
    "Ġcreamy": 14331,
    "Ġdoubtfully": 23479,
    "Ġultimately": 17167,
    "scythes": 26404,
    "ildad": 3534,
    "Ġprognost": 15285,
    "ediction": 17947,
    "Ġheaded": 11056,
    "Ġgallied": 19559,
    "Ġresounded": 22548,
    "eldom": 4413,
    "ils": 3181,
    "indef": 17737,
    "ificant": 22213,
    "Ġavowed": 16636,
    "Ġunion": 6840,
    "Ġoppressive": 20458,
    "Ġsafely": 9028,
    "gained": 20883,
    "Ġbur": 2699,
    "Ġyesterday": 5333,
    "nostril": 26561,
    "Ġvirtues": 9939,
    "sterdam": 19091,
    "alot": 15631,
    "iancy": 13014,
    "Ġcocked": 12909,
    "reas": 989,
    "Ġcare": 1638,
    "Ġbenefited": 19401,
    "capt": 3837,
    "astron": 22168,
    "Ġknights": 15153,
    "Ġenquired": 21945,
    "Ġhammers": 13247,
    "Ġbaked": 21389,
    "Ġskiff": 16169,
    "ograph": 4798,
    "pshaw": 21030,
    "tawny": 26406,
    "Ġcontingency": 26246,
    "conjecturing": 20137,
    "while": 2932,
    "Ġdisown": 22528,
    "Ġ{": 21155,
    "welcomed": 24645,
    "Ġchemistry": 11462,
    "Ġencouragement": 13047,
    "Ġalarmed": 6923,
    "Ġexempl": 21834,
    "rest": 1632,
    "geneva": 13733,
    "Ġinn": 4590,
    "Ġvinegar": 20103,
    "Ġknocking": 10562,
    "judges": 19576,
    "isp": 5528,
    "Ġfren": 10807,
    "anded": 5924,
    "Ġcompress": 21848,
    "fth": 20858,
    "Ġdemand": 4947,
    "Ġstruggled": 9908,
    "ud": 913,
    "Ġleaps": 14011,
    "Ġadvocate": 13680,
    "appeared": 4282,
    "bermaid": 20792,
    "ny": 4016,
    "Ġquiet": 3259,
    "Ġhooded": 12410,
    "fortunes": 6334,
    "murderers": 25728,
    "Ġarmy": 11745,
    "orrow": 2912,
    "Ġdepress": 14049,
    "Ġclassify": 1636,
    ",--âĢľ": 19198,
    "izarre": 17392,
    "uity": 12522,
    "anting": 6413,
    "above": 8148,
    "disposition": 10045,
    "gracious": 11835,
    "pounds": 21027,
    "Ġmischief": 8543,
    "Ġinquiry": 6485,
    "smith": 5669,
    "Ġexperiences": 13035,
    "hurt": 19880,
    "Ġunresting": 25554,
    "Ġreporting": 24658,
    "sy": 2731,
    "Ġevenly": 4131,
    "Ġthunders": 15643,
    "Ġunguarded": 15856,
    "Ġconstitutes": 13556,
    "Ġwander": 9034,
    "awed": 10394,
    "Ġsoftly": 7948,
    "practised": 20250,
    "Ġpartake": 18674,
    "Ġleaning": 5228,
    "Ġnormalizes": 1862,
    "Ġcalendar": 18878,
    "oss": 10118,
    "Ġrapid": 1441,
    "Ġwallow": 19469,
    "Ġarsacidean": 20368,
    "Ġneglected": 10380,
    "Ġbristol": 14383,
    "Ġcommenting": 25229,
    "Ġjupiter": 17459,
    "Ġsymp": 4501,
    "receive": 12547,
    "Ġbracelets": 25503,
    "Ġbroke": 5323,
    "_âĢĿ": 20763,
    "Ġprophet": 7681,
    "Ġramadan": 9578,
    "hav": 20899,
    "Ġwreaths": 25938,
    "floating": 12232,
    "Ġcontextually": 11959,
    "struck": 7862,
    "Ġaid": 6124,
    "rising": 7557,
    "lances": 15387,
    "87": 20759,
    "soever": 11862,
    "knife": 6942,
    "Ġcrimes": 8591,
    "adem": 21761,
    "Ġunsupplied": 22047,
    "offic": 7466,
    "âĢĿâĢĶ": 5721,
    "Ġheed": 5630,
    "involved": 25627,
    "Ġpouring": 12629,
    "Ġse": 401,
    "lat": 9607,
    "Ġordering": 18998,
    "Ġunexpectedly": 19912,
    "bur": 4688,
    "Ġ71": 24262,
    "alcul": 15633,
    "Ġsure": 1864,
    "'(": 2977,
    "noise": 14329,
    "Ġinterpret": 5490,
    "Ġundiscernible": 22072,
    "idays": 21774,
    "discovering": 24254,
    "88": 20760,
    "clear": 9027,
    "Ġlogger": 11958,
    "Ġpossessions": 23827,
    "arming": 8954,
    "Ġsheepfold": 25467,
    "Ġ121": 24466,
    "Ġaffright": 9335,
    "quaker": 15768,
    "Ġcle": 1508,
    "Ġdeliciousness": 24129,
    "county": 25397,
    "Ġgrudge": 20696,
    "Ġsinks": 19552,
    "Ġenjoying": 11236,
    "snap": 24849,
    "cd": 15326,
    "Ġsilver": 7464,
    "round": 3371,
    "Ġrudeness": 17127,
    "speaking": 12103,
    "Ġmirror": 12382,
    "Ġhandsome": 4907,
    "raltar": 24236,
    "Ġgrows": 4985,
    "Ġsend": 4108,
    "Ġslugg": 15272,
    "Ġwondrously": 24067,
    "Ġcontext": 1696,
    "Ġdoubts": 8582,
    "Ġdusting": 24597,
    "read": 3275,
    "Ġwings": 9166,
    "cc": 470,
    "Ġrick": 21974,
    "Ġincorpor": 13169,
    "Ġdisappointing": 19582,
    "Ġtransformers": 1122,
    "Ġconvivial": 16550,
    "Ġther": 17780,
    "Ġstrengthen": 20703,
    "preference": 22471,
    "Ġchest": 5185,
    "Ġalteration": 9549,
    "Ġsmut": 22561,
    "Ġfrankly": 16747,
    "inde": 17733,
    "Ġgraces": 18226,
    "Ġlearning": 387,
    "Ġbree": 5012,
    "Ġsnaky": 23743,
    "Ġinstances": 5568,
    "Ġsymbols": 2795,
    "Ġvelv": 10622,
    "Ġphilosophy": 7105,
    "Ġgrapes": 15219,
    "Ġcitations": 25438,
    "lemency": 21377,
    "tolerable": 17690,
    "Ġlooked": 1803,
    "tasted": 17689,
    "Ġotherwise": 4659,
    "Ġbenefit": 8293,
    "Ġgranite": 22813,
    "ually": 2770,
    "eenth": 12465,
    "commodore": 20628,
    "hauled": 20671,
    "Ġquakers": 22420,
    "Ġflesh": 5970,
    "Ġbowditch": 19325,
    "Ġquaker": 10973,
    "Ġheartily": 6890,
    "heredit": 21212,
    "henry": 16628,
    "scor": 13025,
    "ans": 457,
    "Ġegot": 18010,
    "Ġunfold": 8022,
    "cies": 1815,
    "pping": 1426,
    "classes": 12140,
    "Ġlectures": 17181,
    "Ġawkwardness": 13491,
    "Ġutterly": 6102,
    "Ġcatches": 23429,
    "Ġlurked": 11293,
    "angles": 18296,
    "Ġcoding": 8116,
    "Ġomitted": 12569,
    "||": 4870,
    "division": 20052,
    "Ġfeedforward": 2324,
    "Ġallurements": 22011,
    "Ġpe": 851,
    "Ġvalued": 12187,
    "Ġital": 10868,
    "Ġsea": 1209,
    "Ġtake": 1575,
    "Ġprefers": 20517,
    "Ġabout": 634,
    "Ġfierce": 7437,
    "requirements": 24858,
    "Ġprovocation": 24194,
    "Ġanother": 1738,
    "civil": 7797,
    "isome": 17850,
    "Ġvenge": 5420,
    "Ġproportionably": 19974,
    "grammar": 6436,
    "agery": 21911,
    "confidence": 16810,
    "resolved": 9642,
    "Ġyoke": 18098,
    "Ġcell": 6239,
    "Ġfrederick": 15592,
    "Ġcentaurs": 23835,
    "Ġclassification": 1092,
    "substance": 15235,
    "Ġrumpled": 24601,
    "Ġimpenitent": 26550,
    "Ġdetail": 636,
    "Ġsleep": 2401,
    "evident": 25521,
    "reg": 2184,
    "pid": 1387,
    "Ġrival": 10488,
    "commanded": 16990,
    "damn": 20027,
    "Ġbroad": 3642,
    "Ġunjustifiable": 25112,
    "Ġscolded": 25473,
    "Ġdisp": 3361,
    "fat": 8079,
    "Ġabundantly": 17159,
    "Ġrespecting": 14486,
    "dition": 15342,
    "mont": 19171,
    "con": 654,
    "Ġdefined": 11902,
    "hangs": 15372,
    "Ġlofty": 6219,
    "trouble": 8296,
    "ides": 2162,
    "attributed": 23125,
    "Ġsubstit": 19543,
    "Ġtor": 8106,
    "nam": 3015,
    "Ġjungfrau": 15252,
    "Ġobey": 9522,
    "Ġpreviously": 3920,
    "gather": 20877,
    "Ġdevil": 3616,
    "Ġtogether": 1877,
    "repe": 8780,
    "wreat": 21130,
    "send": 15427,
    "Ġreasoned": 23092,
    "ots": 3295,
    "Ġproceeding": 9909,
    "Ġprobably": 4314,
    "Ġbakers": 17868,
    "Ġinsomuch": 23685,
    "Ġphil": 3389,
    "Ġrese": 2224,
    "Ġstarlight": 24627,
    "Ġdaughters": 4421,
    "Ġcurving": 16240,
    "Ġaccommod": 14215,
    "Ġgoug": 17993,
    "Ġsleeve": 20143,
    "Ġbrick": 8928,
    "Ġdissip": 10994,
    "Ġdelirium": 10407,
    "Ġpon": 10178,
    "Ġenemies": 9041,
    "Ġimpenit": 22393,
    "Ġsecrets": 9057,
    "dden": 1805,
    "Ġmeasured": 9807,
    "smeer": 26148,
    "Ġadam": 2126,
    "erately": 21276,
    "Ġanimals": 8981,
    "increasing": 20272,
    "iny": 4294,
    "sword": 10728,
    "served": 5043,
    "Ġprogra": 1143,
    "Ġresumed": 11816,
    "Ġbrute": 8929,
    "eff": 2532,
    "Ġexig": 21830,
    "Ġamusing": 11804,
    "Ġslumber": 13065,
    "Ġdevoutly": 25834,
    "dry": 13707,
    "Ġmott": 17805,
    "ivory": 10271,
    "taffrail": 15446,
    "Ġfee": 7198,
    "Ġvertically": 19383,
    "Ġappropriated": 23486,
    "Ġconsist": 1936,
    "den": 938,
    "Ġvoluntary": 14802,
    "Ġfiendish": 13332,
    "Ġdistrict": 10321,
    "Ġgetting": 4067,
    "vicinity": 20483,
    "Ġlet": 1111,
    "Ġ&": 6514,
    "Ġterrific": 6756,
    "Ġswerve": 14440,
    "Ġowen": 15098,
    "Ġlips": 3991,
    "msprop": 2623,
    "Ġarve": 15898,
    "worm": 15457,
    "Ġtore": 6532,
    "owders": 18053,
    "Ġclaws": 15975,
    "Ġhaze": 18197,
    "Ġsunbeam": 23279,
    "visitor": 15060,
    "Ġpunchbowl": 20234,
    "Ġverify": 12092,
    "Ġpostponed": 20393,
    "Ġexultation": 15175,
    "pens": 17634,
    "Ġdistressing": 12223,
    "Ġgibe": 25960,
    "ixed": 4853,
    "Ġtemper": 955,
    "Ġoutrageous": 20613,
    "unaffected": 21887,
    "Ġsavannah": 17419,
    "rawling": 21639,
    "Ġdiscuss": 9477,
    "Ġcover": 3560,
    "flesh": 13494,
    "Ġawaited": 17075,
    "fort": 1749,
    "Ġtoil": 6533,
    "Ġadmission": 23558,
    "Ġinscrutable": 10675,
    "itching": 21338,
    "waste": 21137,
    "abiding": 21797,
    "doubt": 6783,
    "Ġstudied": 11117,
    "Ġground": 2845,
    "edding": 4368,
    "Ġproduct": 3536,
    "Ġseparating": 16684,
    "prudently": 21037,
    "Ġremoved": 5275,
    "Ġcashier": 20201,
    "Ŀ": 256,
    "comrade": 18736,
    "Ġforb": 11666,
    "Ġdiction": 8799,
    "came": 4570,
    "ute": 4644,
    "school": 10058,
    "Ġglued": 20592,
    "Ġviii": 16417,
    "Ġtablets": 13159,
    "Ġhumility": 12990,
    "Ġbankrupt": 16798,
    "Ġagric": 22519,
    "Ġsorts": 6887,
    "Ġanticipating": 17059,
    "Ġdare": 3547,
    "performed": 18346,
    "Ġtarquin": 23612,
    "Ġsinful": 18951,
    "forgive": 18728,
    "Ġspatial": 2730,
    "Ġstrip": 9424,
    "Ġeasiness": 23539,
    "Ġbesides": 3516,
    "Ġfol": 1287,
    "elop": 1544,
    "Ġbash": 12591,
    "Ġaerial": 21201,
    "gaff": 20884,
    "Ġlegit": 16476,
    "sych": 9890,
    "Ġbracing": 16583,
    "conversation": 7124,
    "Ġlingering": 11381,
    "felicity": 25143,
    "Ġrepresented": 8941,
    "Ġbaggy": 24538,
    "Ġcollins": 2181,
    "Ġextreme": 2513,
    "Ġfaint": 5812,
    "Ġsolely": 9913,
    "it": 276,
    "Ġvicious": 24403,
    "gia": 20878,
    "Ġuninhabited": 22055,
    "ange": 1017,
    "hatherley": 17570,
    "Ġconv": 2966,
    "holes": 12058,
    "achel": 7034,
    "assed": 6422,
    "ues": 2079,
    "Ġgallons": 14821,
    "Ġladies": 3192,
    "Ġsabbee": 17258,
    "Ġbroken": 3452,
    "Ġlima": 10444,
    "Ġforbe": 8459,
    "sec": 6154,
    "Ġhovered": 12636,
    "summon": 23418,
    "Ġwolves": 25935,
    "crazy": 24692,
    "assuming": 22314,
    "ald": 15630,
    "Ġdared": 5440,
    "morland": 24156,
    "wretch": 17710,
    "Ġweal": 21924,
    "understood": 13220,
    "Ġperusal": 14226,
    "Ġalleg": 14020,
    "Ġhouses": 6140,
    "Ġdismissed": 12897,
    "uce": 11538,
    "Ġsacri": 18328,
    "aye": 3662,
    "makes": 10713,
    "Ġbeef": 6830,
    "Ġrecess": 10849,
    "Ġfail": 4150,
    "ivided": 22082,
    "recl": 15514,
    "Ġdeliverer": 11954,
    "Ġstock": 7455,
    "Ġrigged": 16719,
    "Ġshifted": 14110,
    "Ġblunder": 18820,
    "Ġprob": 969,
    "allah": 5839,
    "Ġscuttle": 7414,
    "Ġ275": 20114,
    "Ġwigwam": 11430,
    "Ġcausal": 3415,
    "Ġtradesman": 20076,
    "talking": 10010,
    "Ġdebts": 8036,
    "Ġdeem": 18136,
    "Ġscrews": 25178,
    "bulkington": 19927,
    "Ġuneasiness": 9487,
    "poor": 6062,
    "Ġsocial": 7009,
    "Ġbaltic": 18795,
    "ustom": 3790,
    "Ġrest": 1781,
    "Ġcin": 13878,
    "absent": 21793,
    "Ġspurned": 12802,
    "Ġdam": 2215,
    "iance": 5280,
    "Ġdefend": 9343,
    "Ġcontradict": 12389,
    "ication": 972,
    "Ġambergris": 8709,
    "Ġranks": 21976,
    "aimed": 3952,
    "agonies": 21913,
    "inu": 1114,
    "till": 6966,
    "Ġminut": 2203,
    "est": 502,
    "oped": 6048,
    "umbers": 10920,
    "Ġbuff": 9175,
    "Ġmeek": 21816,
    ",*": 17474,
    "Ġgrandfather": 19425,
    "rucastle": 22186,
    "crier": 20822,
    "Ġpattered": 19035,
    "Ġgips": 10843,
    "ld": 385,
    "Ġnightfall": 23135,
    "Ġpork": 21459,
    "Ġcent": 3252,
    "Ġelixir": 26557,
    "Ġdubious": 17386,
    "Ġsepul": 14092,
    "intense": 22939,
    "Ġrelev": 1716,
    "Ġcompliance": 12119,
    "Ġcongratulations": 10583,
    "Ġut": 2278,
    "Ġremain": 1872,
    "icting": 12857,
    "gaze": 17559,
    "Ġmatches": 14398,
    "tube": 20414,
    "Ġgreas": 17994,
    "Ġsecurity": 8980,
    "Ġspoil": 17009,
    "Ġmyst": 4052,
    "Ġinhabitant": 19758,
    "Ġconverts": 2804,
    "Ġinfl": 6892,
    "frisco": 16789,
    "Ġboscombe": 8326,
    "Ġprince": 18971,
    "Ġdreadfully": 7726,
    "Ġspur": 18304,
    "Ġdears": 18139,
    "Ġpassage": 3885,
    "Ġilluminated": 20178,
    "nay": 7137,
    "Ġfork": 15737,
    "Ġliked": 5265,
    "Ġabhorred": 9511,
    "Ġinvestigated": 25387,
    "Ġlonely": 6823,
    "Ġpostpone": 17310,
    "Ġliberally": 16832,
    "erc": 5906,
    "Ġmurky": 19204,
    "ampton": 18148,
    "octial": 20008,
    "Ġbudge": 15168,
    "irresist": 21916,
    "circ": 4388,
    "ois": 9137,
    "Ġrely": 8825,
    "Ġener": 10898,
    "âĢĶ.": 11759,
    "Ġsmote": 18578,
    "ered": 1683,
    "Ġunsc": 22018,
    "fi": 12466,
    "chorus": 19814,
    "Ġnoble": 3444,
    "Ġlumps": 21559,
    "Ġcounteracted": 19864,
    "Ġshadow": 5596,
    "Ġbreadth": 10566,
    "Ġindies": 22954,
    "Ġpart": 860,
    "Ļ": 252,
    "Ġearnest": 3930,
    "Ġemerg": 13428,
    "Ġignominy": 15089,
    "Ġloads": 22118,
    "Ġgoodly": 22825,
    "Ġhaggerston": 26454,
    "listener": 24931,
    "Ġhumble": 8554,
    "Ġhoars": 19079,
    "Ġancient": 5443,
    "Ġmurdering": 14814,
    "Ġmargin": 11925,
    "eight": 9594,
    "Ġassizes": 11110,
    "pening": 2831,
    "omb": 10208,
    "po": 1135,
    "wr": 3029,
    "Ġaverages": 2400,
    "Ġmem": 2165,
    "Ġwhispers": 14703,
    "shining": 18486,
    "Ġrallied": 14098,
    "ruded": 15904,
    "Ġbuttoned": 25369,
    "chel": 11209,
    "erne": 21272,
    "Ġflooring": 23625,
    "Ġelusive": 22647,
    "venge": 4660,
    "Ġpunctually": 17141,
    "maid": 8555,
    "Ġlaz": 7378,
    "Ġthrees": 23402,
    "according": 12032,
    "longer": 8616,
    "haven": 20914,
    "fastened": 19327,
    "Ġdisappo": 4504,
    "Ġamput": 16038,
    "Ġcleaving": 23184,
    "Ġcorroboration": 26053,
    "Ġfaculties": 14961,
    "invincible": 25092,
    "Ġsaws": 23052,
    "antucket": 2643,
    "hetic": 12208,
    "Ġfruits": 17121,
    "precise": 19354,
    "iled": 1763,
    "chapter": 1403,
    "Ġsecluded": 11997,
    "Ġoft": 9197,
    "Ġfurrow": 22818,
    "Ġconcent": 8250,
    "Ġtorrid": 25035,
    "Ġcomment": 9235,
    "Ġapproved": 16040,
    "emason": 18189,
    "Ġreceiving": 4883,
    "Ġdolph": 12384,
    "Ġunappalled": 22069,
    "Ġadmon": 15873,
    "Ġindec": 13931,
    "Ġhysterics": 26094,
    "Ġglist": 9348,
    "Ġmogul": 12867,
    "Ġvers": 7563,
    "Ġcogn": 11005,
    "Ġnumbers": 2886,
    "Ġsought": 5010,
    "generations": 23787,
    "pondicherry": 26402,
    "Ġdistrust": 8205,
    "Ġsenor": 20153,
    "Ġelbow": 12925,
    "Ġpresto": 22234,
    "Ġexperiments": 23036,
    "Ġfirm": 3870,
    "sway": 15428,
    "Ġtypically": 1534,
    "Ġboasting": 19939,
    "Ġconsequ": 6256,
    "Ġrescued": 24209,
    "Ġfetch": 7770,
    "Ġundeserving": 18272,
    "heim": 17748,
    "Ġcho": 4546,
    "Ġsong": 5904,
    "Ġsuburban": 17349,
    "Ġintegration": 9871,
    "Ġmissed": 8560,
    "Ġdoubled": 19640,
    "Ġrisks": 9967,
    "empt": 2617,
    "Ġcrown": 5289,
    "sleeve": 26109,
    "Ġdefiance": 11070,
    "Ġnoses": 18374,
    "Ġemaciated": 20641,
    "Ġtrained": 8505,
    "://": 11467,
    "playing": 19660,
    "branch": 23580,
    "Ġheadlong": 11892,
    "Ġcocain": 18595,
    "solution": 14688,
    "Ġsympathetic": 17362,
    "lower": 8883,
    "Ġcruisings": 25865,
    "Ġdescription": 7429,
    "icate": 9204,
    "Ġpipeline": 2391,
    "weakness": 16129,
    "vember": 10857,
    "Ġprojects": 9514,
    "prospect": 23397,
    "Ġfanning": 23391,
    "Ġlinear": 3437,
    "Ġinterest": 2248,
    "cri": 17508,
    "entary": 21570,
    "Ġcelerity": 17439,
    "algorithms": 8295,
    "Ġstomach": 11656,
    "Ġtasted": 12534,
    "despairing": 25077,
    "Ġworshipped": 25692,
    "Ġacts": 2293,
    "mered": 8218,
    "Ġpotency": 14647,
    "Ġcash": 9655,
    "Ġinvention": 19956,
    "mutually": 26137,
    "Ġcobbler": 25831,
    "wered": 2690,
    "Ġthinkings": 22815,
    "Ġwarp": 8113,
    "Ġstops": 3165,
    "omited": 21644,
    "asburgh": 15652,
    "helmsman": 24289,
    "Ġwishes": 4796,
    "Ġunrel": 14698,
    "atigable": 15274,
    "Ġrealising": 18983,
    "horse": 8609,
    ";--": 8069,
    "Ġcuba": 25098,
    "ountain": 2915,
    "gree": 10703,
    "Ġmantelpiece": 15211,
    "Ġglass": 4369,
    "renew": 24450,
    "cement": 2824,
    "Ġphysi": 9991,
    "Ġshaggy": 13574,
    "exceeded": 25002,
    "cod": 12448,
    "storm": 9685,
    "83": 13684,
    "Ġnewsp": 9342,
    "animation": 16981,
    "Ġimpudence": 26243,
    "Ġtrough": 15968,
    "Ġenem": 4709,
    "myst": 9825,
    "distressed": 24202,
    "Ġatlantic": 7001,
    "remember": 7262,
    "inridge": 11563,
    "boilers": 26298,
    "rebell": 17765,
    "sorts": 21063,
    "invested": 17120,
    "Ġansw": 2204,
    "Ġthinks": 6171,
    "Ġcircum": 8258,
    "Ġcapacious": 19178,
    "Ġprovidence": 18747,
    "Ġministers": 22836,
    "Ġnear": 1719,
    "gre": 5788,
    "Ġflee": 7081,
    "Ġboundless": 10498,
    "Ġslackened": 15130,
    "voy": 7145,
    "edy": 2857,
    "antial": 8490,
    "Ġtallow": 14782,
    "dually": 3284,
    "french": 9122,
    "Ġ72": 19614,
    "Ġide": 2122,
    "Ġtall": 4040,
    "Ġshoving": 23491,
    "rudential": 16711,
    "800": 17479,
    "Ġgratefully": 20448,
    "Ġaboard": 6699,
    "indulged": 22379,
    "comparison": 25842,
    "Ġdisposing": 19378,
    "Ġindulging": 16906,
    "Ġcompiled": 22575,
    "Ġvariety": 8533,
    "Ġhope": 1789,
    "Ġsnorting": 23742,
    "yth": 982,
    "inting": 9817,
    "Ġuncontrollable": 25815,
    "Ġwhales": 1828,
    "intended": 11068,
    "15": 12434,
    "sp": 893,
    "Ġleyden": 21751,
    "Ġsits": 10770,
    "rubbery": 17345,
    "Ġsombre": 18861,
    "Ġlookest": 22718,
    "Ġzone": 14365,
    "Ġinhospit": 25453,
    "Ġaddition": 1144,
    "Ġguardianship": 17423,
    "Ġsuperfluous": 17417,
    "Ġowes": 20088,
    "Ġmethodically": 23120,
    "week": 12936,
    "Ġconcussion": 26301,
    "sperm": 5203,
    "crow": 9593,
    "Ġclin": 14204,
    "gg": 1995,
    "arpo": 1754,
    "Ġweigh": 10896,
    "Ġoftener": 13569,
    "Ï": 144,
    "Ġphotography": 24684,
    "Ġstrangest": 14799,
    "eks": 4729,
    "support": 9472,
    "Ġimprisonment": 22392,
    "Ġblackest": 19100,
    "perse": 15905,
    "australian": 20564,
    "Ġlatitudes": 9499,
    "Ġbelt": 13008,
    "soo": 18683,
    "calculation": 25689,
    "rec": 6005,
    "rose": 6015,
    "Ġbrandy": 11050,
    "Ġheaths": 25973,
    "Ġpiled": 8426,
    "Ġedged": 23489,
    "Ġfathoms": 9086,
    "ect": 381,
    "momentum": 4991,
    "Ġdistinctly": 7311,
    "task": 13796,
    "Ġbonds": 17871,
    "ighted": 8479,
    "ourse": 8873,
    "Ġgreen": 3054,
    "Ġinquis": 19306,
    "strade": 5065,
    "gorith": 552,
    "õ": 182,
    "Ġjournal": 15222,
    "elev": 12463,
    "nson": 16093,
    "Ġnorthern": 7265,
    "Ġseldom": 4631,
    "Ġfattened": 25950,
    "Ġmachinery": 20488,
    "shop": 14239,
    "Ġsquad": 22839,
    "Ġpertaining": 18452,
    "Ġshri": 5375,
    "Ġparr": 22123,
    "Ġclubbed": 26549,
    "Ġpenn": 11114,
    "alive": 10829,
    "nowadays": 22342,
    "Ġdepicted": 14279,
    "Ġplants": 22605,
    "Ġreaped": 18032,
    "brow": 15319,
    "Ġfoolish": 5981,
    "Ġtaking": 3248,
    "Ġmanipulation": 10661,
    "Ġjuggler": 26368,
    "ounted": 5030,
    "Ġgoodge": 22826,
    "Ġvort": 18194,
    "province": 26073,
    "Ġdiffusion": 23784,
    "Ġantilles": 24182,
    "Ġenveloped": 12213,
    "Ġbottle": 7490,
    "Ġinterview": 9773,
    "ark": 849,
    "kinson": 10029,
    "Ġsymmetrical": 20370,
    "Ġworsh": 13005,
    "Ġfowl": 11332,
    "Ġdoubloons": 13438,
    "rusion": 11325,
    "Ġsquires": 16185,
    "vered": 4831,
    "Ġscent": 10288,
    "Ġanvil": 11600,
    "Ġquitted": 5312,
    "Ġgazes": 24098,
    "od": 351,
    "Ġtraining": 529,
    "pos": 15414,
    "things": 6034,
    "sir": 5001,
    "Ġfortifications": 23622,
    "anguish": 15985,
    "rown": 2191,
    "emic": 18187,
    "Ġdeer": 12725,
    "iluvian": 18063,
    "brill": 16494,
    "wer": 8396,
    "spending": 18687,
    "Ġlightness": 23262,
    "block": 11472,
    "Ġowest": 25094,
    "irements": 22216,
    "Ġurging": 24505,
    "investments": 25533,
    "Ġfrost": 6097,
    "Ġpartial": 2128,
    "Ġsquall": 7045,
    "Ġprophesy": 26062,
    "Ġfootmarks": 19339,
    "contrasted": 17309,
    "erie": 21273,
    "Ġleviathanic": 12085,
    "bable": 8722,
    "Ġpersuas": 23950,
    "hopper": 23716,
    "Ġassociations": 14966,
    "diligence": 26111,
    "Ġanalogical": 25641,
    "Ġpanic": 11288,
    "osely": 9268,
    "irectly": 6940,
    "ĳ": 244,
    "umes": 10919,
    "Ġsnake": 12065,
    "Ġeff": 672,
    "Ġmel": 4818,
    "Ġautumnal": 19033,
    "tranquil": 25871,
    "Ġtransf": 22441,
    "Ġshad": 3850,
    "Ġmrs": 1467,
    "Ġupbraiding": 26228,
    "clusion": 16309,
    "Ġfare": 5810,
    "Ġpeeling": 22695,
    "Ġcurrents": 13019,
    "swift": 14855,
    "Ġrates": 1404,
    "Ġclever": 7056,
    "Ġcrowned": 16843,
    "Ġ----": 7146,
    "bloom": 24690,
    "Ġstory": 2899,
    "Ġchurning": 15942,
    "Ġcharm": 4547,
    "Ġhed": 7387,
    "ouri": 21450,
    "Ġspies": 22133,
    "Ġterr": 3273,
    "ackled": 22428,
    "Ġsanguine": 25929,
    "Ġg": 310,
    "eches": 8078,
    "Ġclean": 5652,
    "cruet": 17028,
    "rather": 5430,
    "Ġperfection": 19221,
    "Ġintrospective": 20603,
    "Ġlawy": 9458,
    "continued": 8679,
    "nearer": 22468,
    "Ġlively": 5449,
    "mira": 20981,
    "cery": 20810,
    "Ġdivinely": 25723,
    "Ġsalary": 13298,
    "Ġglow": 7171,
    "âĢĶ_": 3199,
    "iff": 3907,
    "Ġpleas": 1905,
    "vicious": 21121,
    "eastward": 15133,
    "Ġmotioned": 19595,
    "Ġtwo": 1043,
    "Ġwedding": 4817,
    "fle": 7130,
    "an": 278,
    "Ġmultiplied": 23692,
    "Ġfeared": 5932,
    "Ġburg": 23656,
    "Ġfallen": 5969,
    "Ġvanished": 6874,
    "Ġthrone": 12218,
    "anim": 6523,
    "pra": 15411,
    "carriage": 9949,
    "Ġfain": 5809,
    "Ġchick": 22251,
    "Ġinterests": 14571,
    "Ġprotruding": 16661,
    "attempt": 9363,
    "Ġsharkish": 24506,
    "Ġsummers": 23876,
    "original": 9088,
    "Ġdeclines": 23966,
    "Ġsailor": 3538,
    "subjects": 19878,
    "sprinkling": 24913,
    "Ġattack": 5478,
    "ù": 186,
    "Ġwarmest": 16487,
    "Ġnour": 10832,
    "Ġunaccountable": 7887,
    "osed": 1961,
    "Ġbushes": 16404,
    "Ġbravest": 23843,
    "itory": 12572,
    "flour": 23969,
    "Ġimped": 18444,
    "alf": 4640,
    "Ġ116": 24440,
    "Ġclue": 7022,
    "wled": 15458,
    "uteness": 17988,
    "everlasting": 18772,
    "admitted": 18094,
    ")(": 2979,
    "hawk": 7123,
    "Ġdespite": 19356,
    "ourable": 4967,
    "Ġxxiv": 24477,
    "quickness": 19853,
    "Ġfurther": 1060,
    "Ġaries": 21200,
    "Ġdisadvantages": 18559,
    "ck": 436,
    "Ġmechanical": 7938,
    "Ġimaginations": 16520,
    "Ġhatch": 7848,
    "Ġconnection": 5479,
    "impotence": 23763,
    "crucible": 24843,
    "Ġsubterraneous": 20268,
    "Ġalche": 21787,
    "kindred": 24052,
    "experienced": 15125,
    "Ġassociation": 24710,
    "swells": 26149,
    "footed": 19692,
    "Ġdrown": 6816,
    "ancing": 1757,
    "perils": 22191,
    "Ġgums": 21614,
    "Ġpens": 21462,
    "shoes": 14242,
    "Ġhospitable": 17060,
    "Ġshoals": 13138,
    "ezing": 10576,
    "Ġorph": 9720,
    "Ġperils": 6275,
    "Ġacres": 14316,
    "jub": 20931,
    "spanish": 14333,
    "imper": 14000,
    "Ġpropontis": 17468,
    "Ġtweezers": 26558,
    "Ġclouds": 5775,
    "Ġcobb": 14276,
    "thoughts": 9938,
    "invariably": 26418,
    "Ġkentuck": 19893,
    "Ġsubs": 2129,
    "Ġchag": 15936,
    "cupboards": 25402,
    "Ġduration": 20356,
    "Ġrambling": 18645,
    "Ġforefinger": 16444,
    "ryder": 18637,
    "attention": 2110,
    "Ġintelligible": 15946,
    "which": 1709,
    "meet": 11860,
    "susp": 10599,
    "chooses": 23676,
    "Ġperform": 1036,
    "Ġlucerne": 23866,
    "Ġprizes": 13078,
    "Ġmisfortunes": 7043,
    "ancy": 4393,
    "Ġguest": 7249,
    "Ġdolphins": 20399,
    "Ġunsupp": 22025,
    "Ġprize": 11952,
    "reproach": 15190,
    "Ġcensure": 15099,
    "foam": 24418,
    "uted": 7593,
    "Ġlethar": 21750,
    "Ġcred": 8785,
    "inlaid": 21193,
    "Ġsavor": 23878,
    "Ġsuite": 18279,
    "Ġintertw": 18589,
    "claims": 25320,
    "Ġweld": 8112,
    "asible": 21545,
    "Ġobliquely": 12366,
    "ĠĠĠĠĠĠĠĠĠĠĠĠĠ": 22567,
    "ĠâĢľâĢĻ": 22258,
    "Ġreality": 7059,
    "joice": 9605,
    "umbered": 22121,
    "Ġwond": 3939,
    "iform": 2200,
    "lucases": 20213,
    "Ġtreacle": 14597,
    "Ġspoils": 24805,
    "Ġhab": 4219,
    "owl": 12689,
    "Ġtet": 21160,
    "Ġcele": 9903,
    "Ġemer": 5960,
    "Ġnorthwards": 19549,
    "Ġhissing": 15795,
    ".âĢĿ": 464,
    "Ġjer": 6268,
    "pane": 10123,
    "Ġjavel": 17085,
    "Ġgovern": 10452,
    "way": 764,
    "Ġspong": 15887,
    "Ġchristian": 6480,
    "Ġeating": 8136,
    "Ġmerit": 9430,
    "bears": 22493,
    "Ġthom": 21519,
    "Ġexaggerated": 25651,
    "Ġvariants": 1792,
    "ò": 179,
    "Ġstraining": 11329,
    "thank": 4950,
    "Ġsinusoidal": 4802,
    "scho": 8763,
    "Ġextrem": 2473,
    "goin": 23404,
    "ħ": 232,
    "alleging": 23027,
    "Ġhen": 3505,
    "Ġcorresponds": 19824,
    "superst": 11327,
    "gird": 20881,
    "Ġshadows": 8013,
    "Ġcents": 17830,
    "Ġsummons": 13237,
    "plain": 1359,
    "Ġprocessing": 882,
    "awn": 3835,
    "Ġmurmur": 14591,
    "Ġhopelessly": 16379,
    "ene": 2170,
    "Ġsort": 1505,
    "Ġwipe": 25765,
    "mean": 6439,
    "Ġbooks": 4677,
    "cooks": 25070,
    "Ġforbade": 15218,
    "marching": 25753,
    "Ġassembly": 10645,
    "Ġharvard": 24574,
    "Ġinherited": 25354,
    "Ġhavoc": 15818,
    "Ġju": 10289,
    "eed": 20843,
    "istence": 2528,
    "Ġissue": 2308,
    "Ġexalted": 12416,
    "oqu": 7555,
    "Ġofficially": 24839,
    "Ġbarrel": 23793,
    "resting": 23237,
    "chase": 11648,
    "stem": 572,
    "Ġunimportant": 22034,
    "Ġrespectable": 6738,
    "Ġconviction": 6328,
    "Ġsorry": 4211,
    "ortions": 10950,
    "ica": 10201,
    "slight": 10729,
    "âĢĶ.âĢĿ": 22259,
    "ifully": 13188,
    "Ġsabbath": 17257,
    "please": 8177,
    "Ġcove": 22584,
    "Ġinjury": 10543,
    "Ġpolished": 11184,
    "Ġinsert": 19907,
    "Ġclay": 7021,
    "shabbily": 26248,
    "dig": 4930,
    "Ġfund": 2842,
    "Ġwhaleman": 4656,
    "Ġamounted": 18511,
    "Ġregent": 18598,
    "german": 11494,
    "Ġleave": 2456,
    "Ġloud": 4702,
    "itical": 5802,
    "Ġpar": 456,
    "dy": 4076,
    "lest": 5290,
    "Ġsigmoid": 2461,
    "harpoons": 24287,
    "verdict": 21733,
    "Ġjo": 2607,
    "Ġmaty": 22912,
    "Ġdoth": 13911,
    "Ġscientific": 6857,
    "Ġirrevoc": 15041,
    "prove": 11149,
    "toes": 22569,
    "display": 19158,
    "Ġiii": 7861,
    "alongside": 19792,
    "Ġbloody": 9892,
    "Ġkeel": 6445,
    "Ġcontradicted": 20214,
    "hair": 9125,
    "city": 15330,
    "Ġmales": 17807,
    "Ġabed": 22269,
    "Ġrelation": 2141,
    "vill": 10737,
    "Ġrepresenting": 4062,
    "Ġagency": 11810,
    "osop": 4404,
    "dissatisfied": 26614,
    "Ġheave": 7600,
    "Ġstared": 8456,
    "lin": 9606,
    "empty": 23636,
    "Ġbald": 16210,
    "andering": 21871,
    "Ġjerked": 19835,
    "Ġunworthy": 11719,
    "ing": 273,
    "ighb": 10425,
    "Ġcream": 22720,
    "rowing": 7931,
    "leviathans": 19941,
    "Ġprolong": 6832,
    "Ġlaurel": 20656,
    "Ġvolcanoes": 24149,
    "Ġdischarge": 18557,
    "Ġuns": 15842,
    "inary": 3274,
    "Ġbern": 17860,
    "affection": 7487,
    "k": 79,
    "pressed": 6590,
    "Ġconnexion": 11456,
    "tied": 21073,
    "Ġencourages": 2059,
    "itions": 4149,
    "Ġlogic": 13082,
    "Ġmassacre": 20550,
    "Ġringing": 13336,
    "ibule": 13012,
    "comput": 1915,
    "Ġplunder": 22609,
    "earnest": 12403,
    "Ġvictim": 6099,
    "Ġbeside": 5192,
    "Ġazure": 12378,
    "Ġchapel": 9526,
    "many": 5251,
    "Ġezekiel": 26194,
    "chers": 11319,
    "Ġfrosted": 19806,
    "Ġinterfere": 11821,
    "ari": 671,
    "Ġgriev": 16637,
    "nal": 1901,
    "Ġindul": 5858,
    "Ġmixed": 6975,
    "ought": 829,
    "Ġbal": 1129,
    "isher": 2875,
    "grateful": 10430,
    "Ġsickness": 10541,
    "Ġoriginally": 7304,
    "Ġmonday": 6129,
    "quiet": 6156,
    "Ġresentful": 24632,
    "Ġfancying": 12117,
    "Ġvalidation": 2357,
    "degrad": 22147,
    "Ġmisconduct": 22759,
    "remes": 21240,
    "lessness": 5318,
    "Ġspectacle": 10499,
    "usive": 8190,
    "jets": 20930,
    "Ġanomaly": 25637,
    "Ġs": 265,
    "ack": 614,
    "Ġcongregation": 12333,
    "recovered": 19790,
    "Ġsummer": 4791,
    "utional": 17986,
    "lean": 21368,
    "Ġche": 1761,
    "Ġmould": 6520,
    "Ġobviously": 16812,
    "D": 40,
    "ĠâĢĶâĢľ_": 17720,
    "fering": 17544,
    "Ġmarried": 3413,
    "rested": 13079,
    "Ġimpregnable": 26024,
    "Ġgaping": 13972,
    "nature": 5360,
    "Ġoil": 3376,
    "dashed": 12460,
    "allingly": 22203,
    "imaux": 21715,
    "Ġ2": 2925,
    "ested": 3482,
    "Ġresting": 7962,
    "Ġtremble": 6906,
    "tale": 10130,
    "Ġearnestness": 12130,
    "Ġaccusations": 22381,
    "Ġgracefully": 13395,
    "Ġwall": 3843,
    "asons": 6016,
    "Ġassoc": 6403,
    "Ġtartar": 17325,
    "Ġactive": 7915,
    "Ġconciliating": 19051,
    "mal": 6795,
    "Ġdair": 17891,
    "Ġknowing": 4456,
    "what": 644,
    "l": 80,
    "Ġinterrupt": 4359,
    "unaccountable": 15784,
    "Ġdeacon": 18143,
    "Ġships": 3715,
    "Ġswears": 16467,
    "Ġnight": 1465,
    "kingly": 20941,
    "Ġunspeakably": 25173,
    "Ġunwarrantable": 26346,
    "Ġimpo": 3446,
    "Ġjeer": 24125,
    "Ġtoller": 9094,
    "Ġwindibank": 7257,
    "Ġgeological": 14534,
    "igin": 3658,
    "hollow": 24043,
    "balls": 12309,
    "Ġprogrammed": 11059,
    "Ġperilously": 24507,
    "Ġpretend": 7722,
    "Ġbrilliantly": 25123,
    "Ġentreat": 4508,
    "denial": 18717,
    "Ġknitting": 24221,
    "sought": 15431,
    "gold": 9123,
    "Ġbough": 13897,
    "else": 6535,
    "yrin": 12527,
    "exped": 16528,
    "ak": 537,
    "star": 12677,
    "allowing": 24358,
    "sprang": 19994,
    "Ġcasualties": 25513,
    "althily": 19362,
    "Ġsaturday": 6453,
    "onical": 21256,
    "Ġcompens": 14267,
    "sch": 21053,
    "Ġchoking": 15939,
    "imens": 1747,
    "cer": 6645,
    "drawing": 10489,
    "Ġjaw": 3320,
    "Ġhonoured": 9884,
    "rived": 5373,
    "6": 26,
    "fine": 10093,
    "Ġoutward": 7904,
    "Ġwondering": 7971,
    "Ġunavailing": 26217,
    "Ġshouldn": 14328,
    "Ġperchance": 15996,
    "Ġpolicy": 10459,
    "tell": 1378,
    "tornadoes": 26154,
    "Ġunche": 23431,
    "carb": 20812,
    "acquired": 24298,
    "Ä": 133,
    "Ġadduced": 26526,
    "Ġske": 4816,
    "orange": 21403,
    "Ġfortnight": 6202,
    "Ġcoasts": 12168,
    "Ġcomplete": 4382,
    "Ġindeed": 1680,
    "Ġattained": 14081,
    "lifted": 15390,
    "amiable": 14057,
    "comp": 3817,
    "Ġdictionary": 15116,
    "fanc": 20866,
    "conceive": 16035,
    "Ġmir": 9649,
    "pulous": 15420,
    "Ġbeh": 1802,
    "Ġbanquet": 15244,
    "accustomed": 13161,
    "bellies": 19977,
    "Ġpercept": 14225,
    "ension": 6571,
    "Ġsemantics": 2892,
    "prodigious": 17469,
    "Ġhorrid": 7999,
    "Ġep": 7384,
    "lessly": 4555,
    "acon": 10684,
    "clopÃ¦dia": 15260,
    "stream": 15692,
    "landed": 18957,
    "Ġinsipid": 26314,
    "paid": 15418,
    "Ġroyals": 19535,
    "Ġclaw": 22355,
    "code": 15332,
    "scene": 14423,
    "Ġtresses": 21178,
    "Ġdeclares": 16994,
    "elfth": 22373,
    "lacings": 26135,
    "Ġlongest": 18630,
    "onents": 8781,
    "Ġimpress": 6862,
    "Ġpanting": 11605,
    "Ġdeliberation": 19972,
    "lashed": 20956,
    "gish": 20875,
    "Ġpurplish": 19142,
    "inqu": 6123,
    "quitted": 21861,
    "Ġhides": 16268,
    "Ġlecture": 13571,
    "jacket": 12296,
    "Ġdisplaying": 16968,
    "und": 4119,
    "Ġconfidence": 6592,
    "Ġseams": 12129,
    "Ġawkward": 7075,
    "Ġafterwards": 3533,
    "confined": 24328,
    "Ġpoets": 11825,
    "achment": 5464,
    "moid": 2449,
    "icular": 2022,
    "Ġundressed": 19516,
    "icult": 3343,
    "emporary": 15803,
    "Ġsharp": 2415,
    "Ġjup": 15957,
    "Ġbreckinridge": 14523,
    "Ġhalls": 19528,
    "Ġlulled": 17971,
    "expected": 5780,
    "Ġdishon": 12235,
    "Ġemployer": 19435,
    "Ġfloundering": 16254,
    "elastic": 17983,
    "cannibals": 25585,
    "pop": 17633,
    "Ġsem": 1876,
    "Ġet": 3584,
    "few": 8204,
    "swept": 19789,
    "Ġbreathes": 13252,
    "Ġreverie": 13461,
    "Ġmonths": 3459,
    "Ġsample": 3177,
    "Ġaugment": 8695,
    "uit": 8393,
    "Ġalley": 15741,
    "were": 2558,
    "Ġcalcul": 3640,
    "Ġcreature": 2384,
    "restraint": 18980,
    "irregular": 21915,
    "rospect": 11615,
    "Ġskilfully": 20527,
    "Ġtest": 1604,
    "Ġtwisted": 7228,
    "Ġumbrella": 15269,
    "Ġboth": 1655,
    "permitted": 18347,
    "Ġextinct": 14336,
    "Ġsingers": 23773,
    "Ġsilently": 6894,
    "Ġreigned": 13990,
    "iteous": 14265,
    "acet": 5476,
    "Ġcolder": 22860,
    "Ġpsych": 10179,
    "cor": 5520,
    "Ġdisco": 3433,
    "Ġaccur": 3322,
    "Ġoy": 15551,
    "intu": 22936,
    "Ġspiracle": 14152,
    "eluded": 21578,
    "Ġcity": 4529,
    "Ġwriggling": 15261,
    "Ġtouching": 4682,
    "pleasantness": 19773,
    "board": 3568,
    "Ġrubbing": 9324,
    "patched": 17645,
    "button": 10968,
    "daylight": 19057,
    "Ġunlike": 7006,
    "Ã¦": 4337,
    "Ġintact": 21993,
    "Ġcloth": 9746,
    "estab": 14173,
    "Ġdairy": 20689,
    "exceed": 7911,
    "Ġalpine": 18108,
    "ishment": 3508,
    "Ġrecommended": 8671,
    "Ġshallow": 14397,
    "Ġtra": 1382,
    "Ġsketches": 26272,
    "ript": 4154,
    "Ġwidows": 24239,
    "baked": 20781,
    "Ġinduce": 7763,
    "Ġsine": 10765,
    "Ġcapricious": 20541,
    "bushes": 24447,
    "Ġmurderers": 16813,
    "Ġconstit": 8586,
    "Ġdoubly": 16389,
    "Ġabated": 18391,
    "Ġgoethe": 22426,
    "Ġfascinating": 17331,
    "Ġirregularity": 25325,
    "Ġunfathom": 14791,
    "Ġbarely": 16938,
    "ham": 1702,
    "horror": 13163,
    "Ġreadability": 2725,
    "Ġimposed": 14218,
    "Ġdock": 15935,
    "anations": 12581,
    "Ġbehaves": 23302,
    ".,": 5989,
    "Ġleaf": 15728,
    "Ġcount": 1816,
    "Ġabstra": 22275,
    "upid": 6583,
    "Ġfounded": 8561,
    "Ġproflig": 23569,
    "metallic": 19882,
    "Ġslam": 13063,
    "Ġassembled": 9239,
    "Ġmouse": 4695,
    "Ġguilty": 7250,
    "Ġgaped": 13970,
    "ouse": 1192,
    "Ġtouched": 6002,
    "Ġcontents": 7210,
    "Ġshut": 3942,
    "Ġunlucky": 10053,
    "Ġdependen": 1829,
    "Ġcognitive": 13638,
    "hammered": 19005,
    "Ġunav": 18244,
    "rip": 9244,
    "Ġproceeds": 12082,
    "ron": 5216,
    "Ġpitching": 16613,
    "Ġstretching": 10018,
    "Ġindependent": 9019,
    "unting": 21878,
    "Ġpugn": 21482,
    "Ġspeeches": 22661,
    "Ġvenom": 24241,
    "Ġwisest": 11234,
    "Ġexplicit": 3592,
    "sche": 13024,
    "Ġgold": 3278,
    "hamlet": 23264,
    "hound": 20897,
    "Ġentirely": 3438,
    "Ġkeeps": 8267,
    "arbuck": 2024,
    "Ġtashtego": 4485,
    "icions": 21566,
    "spr": 7435,
    "Ġnocturnal": 20717,
    "Ġrevol": 5537,
    "Ġmerely": 3771,
    "convers": 6569,
    "Ġmildness": 9947,
    "repressed": 21246,
    "Ġadvert": 10574,
    "Ġgreatly": 5851,
    "Ġcascade": 20584,
    "Ġdial": 10812,
    "Ġforest": 9874,
    "Ġloitering": 22120,
    "ergy": 2361,
    "Ġrespond": 11178,
    "Ġdevice": 1929,
    "lyph": 10854,
    "Ġliberal": 12195,
    "c": 71,
    "Ġfootpaths": 26319,
    "fear": 8516,
    "Ġdisposal": 19379,
    "something": 4285,
    "Ġglances": 10375,
    "Ġlouisiana": 25079,
    "Ġreciproc": 20625,
    "Ġprovision": 14828,
    "Ġprivate": 5346,
    "Ġheroes": 10579,
    "nailed": 20998,
    "ulgences": 21869,
    "Ġpaths": 2569,
    "satisfaction": 9995,
    "breakfast": 8691,
    "leagued": 26437,
    "cordiality": 25140,
    "aving": 2407,
    "ĉ": 202,
    "ports": 13777,
    "Ġpunctil": 20117,
    "smo": 10128,
    "Ġmarry": 4417,
    "Ġpa": 3001,
    "Ġresponses": 23653,
    "Ġpay": 3963,
    "Ġfreezing": 23886,
    "Ġinsince": 23681,
    "Ġunw": 7005,
    "Ġimpending": 22389,
    "Ġrepent": 9866,
    "ter": 359,
    "hereafter": 19219,
    "ention": 855,
    "Ġtram": 11092,
    "Ġashes": 7617,
    "Ġfan": 2034,
    "Ġattendance": 12186,
    "Ġnursery": 19753,
    "Ġthoroughly": 8348,
    "Ġideas": 5494,
    "throt": 25660,
    "Ġmoth": 17804,
    "Ġengagement": 5397,
    "Ġmaid": 5287,
    "phr": 18714,
    "Ġincredulity": 11313,
    "ructed": 7031,
    "Ġciv": 3310,
    "ball": 7793,
    "Ġmonth": 2847,
    "oves": 15408,
    "Ġnib": 13943,
    "Ġconcentrate": 25066,
    "neighb": 16032,
    "pier": 17637,
    "Ġbully": 23858,
    "desirable": 23812,
    "osition": 1373,
    "completed": 19997,
    "ć": 200,
    "Ġpicturesqueness": 24480,
    "Ġexciting": 23315,
    "Ġmechanisms": 1573,
    "resembled": 21249,
    "Ġlargest": 6284,
    "Ġcabaco": 13171,
    "itance": 13871,
    "Ġdiet": 13913,
    "Ġmainly": 22650,
    "Ġcampa": 17176,
    "origin": 7582,
    "Ġapartment": 6636,
    "Ġslight": 3119,
    "Ġexcuse": 5863,
    "outs": 7010,
    "ittingly": 18804,
    "gathered": 13735,
    "ateral": 19380,
    "Ġgabriel": 7596,
    "Ġnur": 5710,
    "Ġgid": 13965,
    "Ġrobe": 18458,
    "widows": 25345,
    "Ġemail": 19076,
    "uiperai": 10666,
    "Ġexquisitely": 20205,
    "discredit": 24253,
    "making": 2572,
    "aset": 10834,
    "remorse": 14469,
    "enter": 7858,
    "Ġgore": 17991,
    "Ġromantic": 8031,
    "Ġsuavely": 26525,
    "Ġtraced": 10386,
    "Ġowed": 10782,
    "Ġwritten": 4169,
    "Ġguineas": 16274,
    "counter": 20281,
    "Ġstudded": 18973,
    "scept": 21056,
    "Ġprecaution": 11198,
    "shell": 16290,
    "Ġdeputation": 21843,
    "Ġantique": 19554,
    "coun": 10690,
    "Ġpossessor": 23826,
    "Ġmann": 18417,
    "Ġado": 7627,
    "Ġcommission": 6714,
    "Ġdri": 2364,
    "Ġjust": 1240,
    "acid": 11008,
    "Ò": 147,
    "illum": 15874,
    "chemical": 23810,
    "Ġpurch": 6601,
    "Ġbeque": 18083,
    "Ġplayful": 19239,
    "Ġdemanding": 16807,
    "Ġunbelief": 22053,
    "fierce": 25256,
    "Ġsentimental": 24753,
    "fates": 20860,
    "ĠĠĠĠ": 460,
    "Ġwreak": 16819,
    "_,âĢĻ": 12437,
    "Ġderanged": 23177,
    "Ġapples": 22226,
    "Ġcomparing": 14268,
    "Ġmississippi": 20727,
    "Ġlow": 1646,
    "Ġdy": 2632,
    "Ġjoin": 4855,
    "Ġdistinguished": 8273,
    "Ġscenery": 11458,
    "fam": 5990,
    "rail": 10207,
    "thumb": 18219,
    "Ġturner": 7051,
    "custom": 15336,
    "ditch": 17530,
    "thine": 15829,
    "sal": 8761,
    "Ġrequisition": 22648,
    "Ġsobbing": 14138,
    "Ġrustling": 24714,
    "Ġallegro": 25795,
    "Ġcrumbs": 19124,
    "Ġdescend": 7427,
    "Ġrout": 7402,
    "Ġrapidly": 3263,
    "Ġeuropean": 20049,
    "Ġcomm": 838,
    "vig": 15450,
    "nesday": 8706,
    "Ġschooner": 16749,
    "door": 6195,
    "friendly": 13289,
    "Ġqualities": 7533,
    "Ġhaunts": 18199,
    "Ġvertical": 16606,
    "irksome": 18175,
    "Ġaloysius": 15743,
    "Ġcrowds": 14742,
    "Ġunnaturally": 24871,
    "chosen": 21698,
    "fortun": 3541,
    "¦": 104,
    "caroline": 24152,
    "met": 6655,
    "Ġshouting": 10525,
    "Ġminute": 4279,
    "Ġruns": 8598,
    "Ġdisobedience": 22539,
    "Ġindelicacy": 25696,
    "Ġlittle": 868,
    "ump": 2283,
    "Ġactual": 3739,
    "Ġauthentic": 20537,
    "Ġbeats": 21756,
    "Ġseeing": 2883,
    "Ġaffidav": 18789,
    "Ġimpaling": 22388,
    "Ġflirt": 14426,
    "Ġ75": 19615,
    "supposing": 24137,
    "Ġconflagration": 26366,
    "Ġoverpower": 12848,
    "Ġbehaviour": 4384,
    "ugn": 9380,
    "inioned": 19288,
    "broad": 8646,
    "pin": 13770,
    "atig": 13848,
    "Ġdesper": 6178,
    "Ġincumbent": 16067,
    "Ġvaults": 17156,
    "latin": 25259,
    "mates": 5073,
    "Ġentr": 14341,
    "illity": 18297,
    "Ġlive": 2736,
    "Ġexotic": 21835,
    "rocket": 13947,
    "Ġif": 697,
    "Ġallegor": 25546,
    "Ġnecessitated": 23932,
    "Ġsupervised": 3226,
    "ittance": 12851,
    "Ġphantoms": 13490,
    "Ġlaud": 17970,
    "yourselves": 24959,
    "Ġbarbs": 10534,
    "Ġletting": 10365,
    "proves": 23395,
    "Ġship": 1093,
    "Ġlain": 17964,
    "up": 1281,
    "Ġhesitation": 13445,
    "intervals": 10640,
    "Ġtroop": 24898,
    "mm": 676,
    "ĠĠĠĠĠĠĠĠĠĠĠĠĠĠĠĠĠĠĠĠĠĠĠĠĠĠĠĠĠĠĠĠĠĠĠĠ": 23668,
    "Ġsi": 21215,
    "Ġbrazier": 26322,
    "ahead": 12438,
    "Ġaccumulation": 2694,
    "Ġresiding": 16066,
    "scy": 21058,
    "is": 280,
    "hung": 8381,
    "pped": 1997,
    "Ġincom": 9772,
    "~": 98,
    "igen": 4832,
    "ital": 4819,
    "Ġthence": 8885,
    "Ġ54": 24318,
    "icable": 6389,
    "Ġscuff": 15948,
    "Ġgazed": 6479,
    "Ġcommendation": 13614,
    "Ġtransplanted": 22445,
    "Ġcarn": 17823,
    "Ġwhiting": 10861,
    "adie": 18091,
    "Ġceiling": 7997,
    "fee": 12885,
    "Ġuneasy": 8665,
    "Ġchased": 8865,
    "charles": 14702,
    "vener": 21114,
    "Ġhaught": 10255,
    "across": 10327,
    "ras": 21039,
    "Ġasia": 11686,
    "berries": 22750,
    "Ġspan": 11733,
    "anely": 17838,
    "Ġ1991": 3013,
    "ā": 194,
    "Ġresponsiveness": 2895,
    "(_": 7540,
    "obviously": 25243,
    "Ġinterpreter": 23213,
    "Ġpennies": 17273,
    "wart": 17707,
    "Ġbulkington": 14679,
    "Ġpetulance": 24230,
    "Ġcompunction": 18588,
    "Ġrobins": 16258,
    "osity": 14188,
    "Ġshelf": 12272,
    "Ġdinners": 23985,
    "emorial": 10246,
    "farewell": 12310,
    "Ġmistress": 8615,
    "Ġrecip": 16146,
    "Ġproved": 4885,
    "Ġobeying": 13418,
    "Ġgain": 4829,
    "court": 7511,
    "Ġhave": 446,
    "Ġbrains": 2628,
    "Ġblew": 9048,
    "owner": 18613,
    "Ġscreening": 25301,
    "Ġherself": 1564,
    "Ġanalyzing": 18808,
    "Ġstraw": 9432,
    "Ġsilence": 3267,
    "Ġdealer": 23980,
    "fere": 10991,
    "Ġperceptible": 18453,
    "Ġmassachusetts": 24025,
    "mental": 16053,
    "Ġslaugh": 18940,
    "valley": 16218,
    "weaving": 18667,
    "qual": 8157,
    "Ġsentry": 19028,
    "eag": 20844,
    "Ġdelic": 4136,
    "sence": 3308,
    "itten": 3445,
    "Ġcivilised": 24247,
    "Ġstre": 2108,
    "±": 114,
    "Ġhuman": 1319,
    "Ġcarelessness": 13080,
    "Ġaccurate": 13236,
    "suppose": 8648,
    "Ġid": 1907,
    "memory": 13621,
    "umer": 9261,
    "Ġcoincidences": 26365,
    "icated": 7591,
    "bingley": 4928,
    "Ġunspeakable": 10059,
    "Ġcultivation": 17148,
    "Ġarr": 1799,
    "Ġlandlessness": 23381,
    "Ġgrope": 17997,
    "Ġfrancis": 26064,
    "free": 8739,
    "Ġdissuade": 26258,
    "Ġrealities": 18982,
    "Ġremarkable": 4916,
    "Ġcuring": 21347,
    "Ġtragic": 15259,
    "Ġdistances": 22508,
    "Ġpremium": 23908,
    "inuating": 16207,
    "Ġtren": 17723,
    "yn": 7819,
    "Ġrele": 2914,
    "suspicions": 25392,
    "pleas": 3852,
    "Ġdreaming": 11225,
    "sh": 640,
    "const": 5940,
    "Ġintrospect": 15833,
    "sleepy": 24728,
    "Ġdodge": 19888,
    "flowing": 14552,
    "Ġskirt": 18730,
    "Ġoptimal": 1856,
    "athans": 7433,
    "reme": 2424,
    "Ġdigesting": 19812,
    "Ġfict": 21408,
    "hmael": 7342,
    "pour": 17632,
    "rages": 15686,
    "Ġboarding": 12091,
    "luyt": 18455,
    "Ġjerking": 12250,
    "rus": 5931,
    "Ġnoises": 18375,
    "necessity": 13372,
    "Ġgunwales": 12245,
    "Ġowner": 8925,
    "Ġspool": 24803,
    "waiter": 24587,
    "Ġthreats": 13381,
    "Ġagainst": 1697,
    "Ġfierc": 18712,
    "uced": 13803,
    "Ġbrit": 6291,
    "aloons": 20014,
    "Ġimproved": 7657,
    "hist": 7132,
    "Ġsovere": 9259,
    "Ġlucases": 9013,
    "Ġpurpose": 2709,
    "Ġexhibit": 14959,
    "hospit": 25904,
    "ification": 1005,
    "Ĭ": 237,
    "Ġcombine": 4415,
    "Ġtemple": 7654,
    "Ġsubt": 11872,
    "Ġanguish": 5584,
    "urred": 8450,
    "Ġutility": 23515,
    "Ġelbows": 18634,
    "Ġ106": 24414,
    "rannical": 26403,
    "interests": 19711,
    "wh": 508,
    "coil": 23561,
    "Ġpointing": 5661,
    "Ġideal": 13125,
    "finish": 24384,
    "Ġgreenwich": 19323,
    "Ġburied": 7719,
    "Ġhopkins": 23134,
    "Ġinestimable": 17445,
    "pet": 4868,
    "imperturbable": 25791,
    "Ġaccosted": 13676,
    "Ġarter": 22181,
    "commanders": 16991,
    "because": 4924,
    "Ġevol": 2814,
    "om": 315,
    "Ġcorp": 5575,
    "Ġunconcern": 14121,
    "Ġlighted": 7065,
    "mantel": 26396,
    "to": 714,
    "Ġdedu": 5583,
    "Ġwithal": 18116,
    "injustice": 17739,
    "Ġuniversity": 13126,
    "Ġshipw": 12984,
    "Ġdestiny": 8986,
    "Ġincidents": 9303,
    "Ġwan": 15532,
    "grasp": 16434,
    "Ġoverwhelm": 25055,
    "Ġzeros": 3327,
    "Ġidentity": 2521,
    "Ġsurface": 5119,
    "Ġchisel": 20371,
    "Ġspr": 4025,
    "studied": 17152,
    "work": 1666,
    "hood": 2658,
    "Ġgerm": 13967,
    "Ġimpart": 11784,
    "Ġ77": 24266,
    "Ġconfinement": 19043,
    "Ġinclusive": 24166,
    "Ġfarmhouse": 24987,
    "striking": 13444,
    "Ġbulls": 23860,
    "Ġundulations": 19518,
    "Ġpoised": 22597,
    "jer": 12485,
    "Ġdot": 4822,
    "sincere": 16909,
    "Ġexhaustion": 14964,
    "compl": 6873,
    "seat": 18128,
    "haps": 1672,
    "Ġdamps": 23476,
    "Ġcuriously": 13017,
    "ushing": 5730,
    "Ġuninterrupted": 22050,
    "Ġdelivery": 18976,
    "Ġobscure": 9557,
    "Ġgoes": 3853,
    "nostr": 22719,
    "gangway": 20670,
    "Ġbadge": 16682,
    "Ġd": 284,
    "alyards": 18800,
    "Ġshowed": 4495,
    "Ġcommonly": 3262,
    "Ġbaleful": 24985,
    "etrics": 21588,
    "Ġsuggested": 8321,
    "Ġknot": 7013,
    "Ġhearties": 18966,
    "hotel": 20053,
    "stump": 21656,
    "Ġsash": 17756,
    "col": 3103,
    "Ġparting": 9787,
    "Ġbrew": 23345,
    "rely": 6125,
    "ignity": 4374,
    "ernally": 22622,
    "whaling": 7899,
    "Ġneck": 4886,
    "ipper": 13743,
    "hole": 5586,
    "Ġrelics": 16200,
    "itative": 13873,
    "Ġelev": 5536,
    "imly": 12692,
    "tese": 21086,
    "alt": 12643,
    "distinct": 13340,
    "Ġcabinets": 23864,
    "Ġbask": 8117,
    "compliments": 24807,
    "Ġdisk": 22526,
    "Ġadler": 8174,
    "Ġdefect": 8557,
    "newsp": 23138,
    "Ġfri": 17880,
    "sol": 1790,
    "retired": 11940,
    "human": 7090,
    "cription": 20820,
    "ancho": 4938,
    "stubb": 6019,
    "Ġincalculable": 17463,
    "Ġbiases": 2398,
    "Ġimperfect": 13344,
    "Ġshouts": 19540,
    "recognised": 15266,
    "Ġdiabolism": 25515,
    "Ġ76": 24265,
    "ims": 7177,
    "Ġbagging": 24539,
    "Ġtanning": 17731,
    "Ġknees": 6928,
    "Ġlust": 9200,
    "Ġblaming": 22933,
    "raint": 18318,
    "persuade": 13536,
    "Ġamph": 18509,
    "reckoning": 25271,
    "Ġfrequently": 4681,
    "Ġe": 311,
    "Ġsa": 473,
    "Ġgentlemen": 3645,
    "Ġcirculation": 16420,
    "ivering": 7698,
    "dom": 6224,
    "iferous": 17294,
    "Ġsigma": 1539,
    "Ġplainpal": 19279,
    "Ġrendered": 5773,
    "lant": 20949,
    "Ġdreadful": 4921,
    "Ġdisturb": 7109,
    "removed": 15520,
    "Ġimage": 3408,
    "Ġbigger": 19764,
    "Ġillinois": 19138,
    "length": 7136,
    "ierce": 14394,
    "inese": 12884,
    "footsteps": 25200,
    "arrant": 10476,
    "Ġpapers": 4022,
    "Ġfainting": 16899,
    "longing": 23727,
    "Ġtrappers": 23084,
    "Ġwhich": 504,
    "Ġrushing": 7403,
    "bound": 6222,
    "Ġbrushed": 15576,
    "grained": 20885,
    "Ġstealing": 18894,
    "weed": 14318,
    "Ġgeneralize": 3101,
    "Ġrequire": 909,
    "Ġmournful": 12340,
    "Ġfulfil": 9554,
    "ror": 7351,
    "uvian": 12247,
    "ool": 17620,
    "indifferent": 14211,
    ".;": 20746,
    "despond": 19803,
    "Ġsavage": 4011,
    "Ġstaves": 21742,
    "dreadful": 11423,
    "actory": 8911,
    "Ġventing": 19496,
    "ilities": 6992,
    "Ġinitial": 821,
    "Ġsmiled": 5942,
    "Ġfloats": 9416,
    "Ġknocked": 9503,
    "prejud": 11800,
    "returns": 23143,
    "Ġscreaming": 13427,
    "flo": 6116,
    "tone": 8766,
    "Ġwonders": 7500,
    "terdam": 18132,
    "discharging": 26306,
    "before": 3114,
    "lur": 13750,
    "Ġwrenching": 17326,
    "69": 17477,
    "Ġtrusting": 24107,
    "Ġdidn": 4362,
    "Ġplaned": 24058,
    "Ġhints": 8431,
    "thro": 12766,
    "infallibly": 26419,
    "Ġitems": 9695,
    "Ġdisorder": 16056,
    "Ġtenderest": 23553,
    "Ġcapric": 14578,
    "ivened": 22970,
    "Ġcritics": 23444,
    "Ġrenewing": 19813,
    "commander": 16989,
    "volut": 1559,
    "la": 10707,
    "interred": 23738,
    "Ġmonotonically": 3834,
    "Ġcirclings": 26433,
    "Ġverily": 16605,
    "Ġstrictest": 17043,
    "simultaneously": 19866,
    "Ġchaise": 9079,
    "valued": 2851,
    "Ġdived": 9180,
    "Ġjacobian": 2890,
    "Ġfragmentary": 25856,
    "ast": 472,
    "Ġapr": 12537,
    "Ġflank": 8229,
    "ã": 164,
    "prim": 23813,
    "poled": 22909,
    "also": 7851,
    "ington": 21304,
    "hall": 8085,
    "Ġprotecting": 24687,
    "Ġreasoning": 2133,
    "Ġdesertion": 24786,
    "least": 8789,
    "Ġendured": 6074,
    "Ġexcursion": 26591,
    "chop": 21691,
    "ild": 1151,
    "Ġneighbouring": 12123,
    "isure": 6242,
    "Ġheh": 21683,
    "final": 19679,
    "Ġglim": 9347,
    "Ġlxi": 21564,
    "Ġheeds": 24520,
    "apparatus": 26565,
    "ass": 539,
    "Ġmorass": 22979,
    "Ġsecured": 6747,
    "Ġrogue": 22409,
    "Ġreplacing": 3453,
    "Ġcling": 11775,
    "daughter": 8354,
    "Ġexile": 12722,
    "quietly": 10595,
    "Ġpul": 2039,
    "Ġisolated": 13563,
    "Ġsickle": 24248,
    "everybody": 8614,
    "Ġperv": 15995,
    "Ġincreasingly": 9373,
    "Ġcarried": 3695,
    "Ġintercepted": 25828,
    "Ġvessel": 3799,
    "Ġswords": 19899,
    "Ġdismast": 12893,
    "Ġvariation": 22668,
    "Ġroots": 11187,
    "aping": 8194,
    "Ġisol": 8838,
    "Ġxxx": 7767,
    "brink": 23578,
    "Ġshipwreck": 20449,
    "guilt": 24072,
    "Ġmemb": 14033,
    "Ġcheer": 4068,
    "Ġgour": 21601,
    "franch": 24286,
    "Ġwindsor": 16889,
    "Ġempt": 5051,
    "humorously": 24023,
    "Ġterrors": 6918,
    "Ġbound": 3521,
    "Ġfleet": 9435,
    "disaster": 23495,
    "Ġwaned": 17793,
    "Ġplayed": 9419,
    "str": 2577,
    "Ġdraws": 19439,
    "Ġenduring": 16306,
    "remembered": 17354,
    "Ġlighten": 23261,
    "dataset": 23248,
    "Ġdevoted": 6575,
    "lingering": 18603,
    "being": 3915,
    "they": 1878,
    "Ġconve": 5455,
    "Ġworshipping": 22931,
    "dient": 442,
    "sen": 21052,
    "Ġresidence": 8207,
    "Ġwherefore": 8527,
    "Ġsufficient": 2002,
    "murmured": 24455,
    "Ġapologized": 25199,
    "Ġsheeted": 19834,
    "Ġcleat": 18949,
    "arity": 1302,
    "Ġprices": 15617,
    "ople": 2317,
    "ugnance": 12371,
    "Ġunt": 2292,
    "Ġtrading": 23081,
    "Ġescorted": 23508,
    "inj": 9154,
    "together": 3559,
    "Ġdisordered": 16060,
    "Ġdiffered": 22716,
    "Ġdemonstrate": 24997,
    "twice": 14623,
    "mature": 20969,
    "Ġfuel": 13907,
    "mou": 10710,
    "Ġirreducible": 5519,
    "addition": 13388,
    "Ġusefulness": 19411,
    "Ġscrupled": 25052,
    "Ġcompanion": 3646,
    "Ġfidelity": 15245,
    "Ġfrantic": 7957,
    "inkers": 22618,
    "Ġvague": 6407,
    "Ġchoicest": 24223,
    "Ġbridegroom": 10607,
    "ences": 1262,
    "Ġdefile": 18826,
    "bear": 10318,
    "preced": 10312,
    "Ġsensitiveness": 23736,
    "lab": 3460,
    "willingness": 24754,
    "raged": 9214,
    "kers": 7134,
    "Ġfin": 1460,
    "Ġsquint": 22840,
    "Ġplanet": 14753,
    "anch": 15565,
    "sooner": 14780,
    "Ġeast": 5370,
    "Ġhappening": 14386,
    "Ġhorseback": 14853,
    "quee": 4132,
    "rudently": 16712,
    "aying": 15755,
    "violets": 23547,
    "Ġlandlord": 5581,
    "Ġinvesting": 19644,
    "Ġtopmost": 14589,
    "evid": 11487,
    "Ġhands": 1664,
    "Ġmons": 10159,
    "Ġfoundering": 21422,
    "folio": 10549,
    "Ġah": 5075,
    "Ġloading": 15879,
    "Ġcompasses": 11269,
    "Ġspectator": 19409,
    "rap": 21631,
    "eyeing": 14949,
    "Ġsliding": 9366,
    "Ġprim": 8244,
    "Ġdiverted": 14594,
    "yl": 7818,
    "hidden": 17374,
    "Ġmad": 2426,
    "Ġcause": 2411,
    "opinion": 10986,
    "Ġbasics": 13452,
    "crew": 7544,
    "isions": 6132,
    "disappointment": 11427,
    "Ġfrigid": 17355,
    "ĠâĢĶ": 13814,
    "Ġspont": 22136,
    "athed": 7828,
    "herent": 2526,
    "tier": 12519,
    "underneath": 23790,
    "penn": 18829,
    "Ġce": 3032,
    "him": 1941,
    "Ġmarking": 16472,
    "Ġcontributed": 16014,
    "opes": 10313,
    "Ġinexpress": 12640,
    "Ġdais": 24372,
    "Ġindirect": 18837,
    "rium": 3133,
    "inous": 8776,
    "carried": 16713,
    "Ġembarrassed": 11386,
    "tedious": 22636,
    "Ġwhalebone": 10979,
    "Ġcrosswise": 18887,
    "Ġstop": 2499,
    "Ġingenious": 12352,
    "Ġinspecting": 24614,
    "remaining": 20223,
    "Ġathe": 17743,
    "Ġconcoct": 19049,
    "Ġinflex": 20637,
    "Ġcourtship": 24138,
    "Ġdetestable": 15102,
    "Ġturks": 14600,
    "Ġutter": 3974,
    "Ġproclaim": 18133,
    "ersed": 10262,
    "Ġdoor": 1740,
    "Ġengage": 9338,
    "Ġspade": 9262,
    "Ġclutches": 20021,
    "search": 8467,
    "oquence": 11388,
    "Ġhaggard": 17333,
    "Ġmanagement": 8193,
    "Ġnapkins": 25165,
    "Ġgrotesque": 26331,
    "Ġthunder": 4825,
    "Ġits": 707,
    "Ĥ": 229,
    "Ġthreads": 13122,
    "Ġheavier": 13107,
    "anxiety": 25159,
    "doesn": 19823,
    "without": 4848,
    "now": 548,
    "outre": 18321,
    "pregn": 18499,
    "Ġsqueezing": 25009,
    "Ġcrack": 7710,
    "iously": 2677,
    "Ġsweatings": 25709,
    "Ġensure": 23690,
    "Ġspeak": 2229,
    "aternity": 21268,
    "appear": 13202,
    ".--": 20748,
    "roll": 9199,
    "Ġband": 5292,
    "Ġdissect": 16058,
    "Ġhonour": 3923,
    "Ġepicures": 25880,
    "didst": 19352,
    "Â£": 4813,
    "94": 4804,
    "sheep": 23089,
    "dish": 12457,
    "til": 17673,
    "Ġ108": 19687,
    "Ġtrying": 4840,
    "perhaps": 4123,
    "Ġconsid": 1813,
    "theories": 18081,
    "Ġprodu": 1206,
    "Ġmonomaniac": 9571,
    ".*": 7331,
    "Ġliterary": 25166,
    "stirring": 20429,
    "mbles": 23091,
    "erm": 788,
    "oga": 22698,
    "mile": 17599,
    "Ġshrinking": 14808,
    "Ġpatagon": 14509,
    "bib": 17494,
    "smoke": 17225,
    "Ġsmoked": 10325,
    "Ġsibbald": 21233,
    "Ġsignification": 19205,
    "innocent": 20289,
    "Ġgladstone": 23871,
    "Ġendure": 5957,
    "Ġresides": 22544,
    "Ġprovides": 1930,
    "?âĢĶ": 3471,
    "antically": 22100,
    "Ġmalacca": 24393,
    "Ġexceeded": 14436,
    "orial": 8418,
    "Ġdefray": 22944,
    "Ġ101": 24409,
    "Ġchildren": 3768,
    "match": 15394,
    "uneasy": 23688,
    "Ġceremonies": 24837,
    "Ġrevered": 23735,
    "Ġpredef": 18516,
    "deformity": 22150,
    "castle": 3351,
    "jac": 8382,
    "shirt": 22452,
    "Ġgrown": 5628,
    "sharks": 14241,
    "Ġsuperst": 7704,
    "Ġflap": 14425,
    "Ġimmemorially": 25384,
    "reply": 19725,
    "help": 1478,
    "necessarily": 19634,
    "lu": 597,
    "Ġbushy": 16405,
    "Ġgnawed": 25168,
    "Ġstabilizing": 3659,
    "Ġced": 10786,
    "decoder": 3647,
    "Ġinspiring": 19114,
    "Ġabominably": 20069,
    "Ġhunter": 5401,
    "Ġjury": 5378,
    "000": 2560,
    "Ġchests": 19674,
    "Ġbeards": 21755,
    "larger": 24205,
    "Ġharbor": 10030,
    "eline": 2381,
    "Ġpractises": 23304,
    "Ġlink": 8130,
    "umed": 6556,
    "Ġshrieked": 9551,
    "irm": 3108,
    "Ġpool": 5173,
    "Ġwillingness": 24911,
    "Ġboldness": 24428,
    "writ": 16555,
    "Ġmutters": 23959,
    "Ġcaulking": 20296,
    "Ġimplac": 24875,
    "gown": 9599,
    "soundest": 24796,
    "Ġnavigators": 19766,
    "Ġfelt": 1746,
    "sub": 4661,
    "Ġburnt": 9931,
    "request": 21244,
    "Ġshutter": 16673,
    "\"]": 17473,
    "Ġcontent": 5034,
    "Ġyouthful": 16725,
    "Ġflannel": 26579,
    "tom": 15439,
    "ium": 4865,
    "overcome": 19054,
    "Ġscalable": 1566,
    "training": 2515,
    "Ġglance": 4234,
    "Ġur": 5540,
    "icacy": 15663,
    "Ġmoses": 21318,
    "Ġconstrued": 26302,
    "Ġtwitching": 25684,
    "Ġnicely": 8712,
    "Ġbloodshot": 23801,
    "inder": 9155,
    "gr": 2085,
    "Ġringle": 18211,
    "cig": 17506,
    "Ġsurtout": 23467,
    "cain": 15329,
    "opius": 18514,
    "Ġmod": 496,
    "duck": 22416,
    "Ġbrag": 23836,
    "ger": 1107,
    "Ġeffusion": 22503,
    "importance": 9992,
    "Ġsle": 2012,
    "Ġexclaim": 11223,
    "Ġpredecess": 18518,
    "Ġradney": 6776,
    "Ġhire": 21488,
    "Ġdelineations": 26059,
    "Ġsplendidly": 25328,
    "knowing": 10439,
    "life": 4933,
    "Ġwooded": 23521,
    "Ġcraggy": 23532,
    "Ġbeat": 4490,
    "Ġpresent": 1641,
    "cousin": 10655,
    "Ġcordial": 16837,
    "Ġasylum": 13670,
    "Ġtraffic": 23086,
    "shadow": 20315,
    "Ġwired": 17788,
    "pulled": 25148,
    "Ġsteed": 13045,
    "Ġwithdraw": 16966,
    "Ġspoken": 4838,
    "reed": 6374,
    "Ġpupp": 10822,
    "Ġqueequeg": 2011,
    "brad": 20782,
    "sust": 15426,
    "Ġprocess": 566,
    "square": 15062,
    "Ġautoregressive": 3436,
    "superior": 9528,
    "icating": 15660,
    "Ġslashing": 23173,
    "Ġsunlight": 13090,
    "grown": 10102,
    "wed": 5796,
    "Ġcigaret": 16978,
    "Ġwinking": 17795,
    "Ġscandinavian": 26347,
    "Ġsuited": 12790,
    "Ġrevolve": 19733,
    "Ġbone": 4696,
    "Ġpatter": 833,
    "behaviour": 11303,
    "Ġpersisting": 18898,
    "extremely": 26265,
    "âĢĺ": 940,
    "Ġtu": 6969,
    "Ġhereafter": 9333,
    "civility": 17515,
    "Ġnodes": 1967,
    "tap": 17678,
    "Ġundec": 22023,
    "Ġrind": 21973,
    "Ġunsolved": 22037,
    "urer": 18124,
    "Ġtransom": 22442,
    "Ġcarve": 23096,
    "voice": 7816,
    "benefit": 24643,
    "Ġne": 389,
    "Ġboat": 1275,
    "purp": 8091,
    "Ġeducation": 5128,
    "Ġsolicit": 22891,
    "fatig": 17090,
    "Ġunra": 18241,
    "orses": 6053,
    "Ġrules": 1919,
    "Ġkindness": 4098,
    "stays": 15694,
    "Ġripples": 25506,
    "impressed": 12696,
    "dinah": 20084,
    "Ġdaggoo": 5441,
    "Ġleghorn": 13150,
    "Ġdarkness": 4278,
    "Ġroad": 3880,
    "Ġpumping": 25644,
    "Ġbetrayed": 9564,
    "Ġwoodcock": 19165,
    "400": 20757,
    "winds": 10524,
    "Ġstirred": 12222,
    "iday": 8834,
    "Ġcommentators": 25230,
    "perpendicular": 14167,
    "Ġselves": 21225,
    "sailed": 17668,
    "track": 24335,
    "overfitting": 13106,
    "grace": 5847,
    "Ġmeals": 12716,
    "sort": 6799,
    "Ġhither": 4760,
    "Ġeldest": 6573,
    "irra": 15790,
    "Ġbenchmarks": 15024,
    "Ġcrab": 13148,
    "tastes": 21099,
    "Ġdemon": 7869,
    "avenue": 25059,
    "arthur": 14833,
    "ch": 321,
    "Ġapparatus": 24909,
    "Ġcargo": 16294,
    "Ġgoverned": 23573,
    "Ġbub": 8118,
    "Ġcapacity": 10442,
    "Ġslightly": 7293,
    "meaning": 2905,
    "Ġearthquake": 14630,
    "crowd": 25255,
    "Ġbehind": 2807,
    "Ġsuffoc": 18871,
    "Ġprogram": 12998,
    "Ġprivileges": 25135,
    "Ġecon": 9680,
    "Ġlanyard": 26463,
    "Ġviolence": 5964,
    "Ġvigil": 9510,
    "dron": 17527,
    "twelve": 14624,
    "Ġscale": 1549,
    "Ġmargaret": 10379,
    "kind": 3863,
    "eon": 8733,
    "Ġconsolidation": 5060,
    "bergen": 14342,
    "tout": 21068,
    "Ġrelish": 14387,
    "contrad": 19293,
    "cowardly": 25750,
    "Ġpainfully": 13146,
    "Ġevening": 2651,
    "Ġvalidate": 3099,
    "Ġequivalent": 4803,
    "10": 17475,
    "Ġexcavating": 23318,
    "Ġtower": 8319,
    "Ġsworn": 14438,
    "mill": 13757,
    "Ġhath": 12633,
    "repugnance": 16866,
    "incl": 8110,
    "Ġaversion": 18867,
    "Ġcoarsely": 25830,
    "Ġnarrower": 24354,
    "Ġjackets": 19605,
    "Ġreliable": 18778,
    "Ġferocious": 17422,
    "Ġfaintness": 24571,
    "boxes": 16890,
    "Ġinfamous": 16368,
    "case": 5206,
    "Ġbuttons": 12777,
    "Ġprocession": 11781,
    "Ġbetween": 792,
    "Ġdisconsolate": 20721,
    "Ġconveniently": 20082,
    "Ġgrip": 11630,
    "icken": 6713,
    "Ġconting": 18473,
    "Ġnaturally": 2465,
    "Ġshield": 22003,
    "bons": 17489,
    "impenet": 18056,
    "onious": 15522,
    "appalled": 18762,
    "Ġexceedingly": 4614,
    "Ġmonoton": 3639,
    "retaining": 21248,
    "Ġacquaintances": 17353,
    "redible": 15809,
    "Ġattracted": 8908,
    "ite": 713,
    "Ġfrighted": 24032,
    "Ġfreemason": 23211,
    "Ġthy": 2511,
    "Ġdep": 733,
    "Ġconsent": 5372,
    "Ġirritated": 17244,
    "Ġdollar": 25284,
    "Ġarchbishop": 18719,
    "?--": 15307,
    "bringing": 17169,
    "Ġdistinction": 8889,
    "acle": 4717,
    "Ġextras": 22734,
    "Ġwhereupon": 14299,
    "Ġattempted": 8001,
    "Ġgigantic": 5916,
    "Ġinterchange": 16076,
    "Ġplanisphere": 26609,
    "bes": 6644,
    "Ġcurly": 18846,
    "Ġemploy": 3618,
    "Ġhermit": 15862,
    "nevertheless": 8286,
    "Ġmin": 1025,
    "Ġpest": 13916,
    "derick": 22166,
    "Ġimparted": 15994,
    "Ġprotesting": 14744,
    "Ġspots": 11734,
    "Ġhyperborean": 26341,
    "advice": 12162,
    "noo": 9791,
    "Ġsheer": 14153,
    "Ġtorpor": 25034,
    "Ġshells": 20367,
    "grate": 23414,
    "eldest": 22803,
    "valu": 1701,
    "Ġgn": 8822,
    "Ġoverlooked": 15979,
    "Ġpry": 11602,
    "attentions": 13578,
    "Ġparis": 8179,
    "Ġcoldly": 14652,
    "ised": 1105,
    "perch": 18343,
    "Ġswallowed": 7944,
    "aggra": 21910,
    "ptic": 21922,
    "Ġnorton": 12654,
    "Ġapparelled": 20440,
    "ipt": 12483,
    "place": 4155,
    "Ġfrosty": 14938,
    "Ġmerryweather": 9525,
    "supplemental": 25875,
    "inev": 21983,
    "Ġbraw": 23837,
    "Ġflourish": 17163,
    "watching": 16932,
    "brows": 17499,
    "Ġpots": 9431,
    "whis": 7898,
    "Ġgpus": 3734,
    "Ġdis": 694,
    "Ķ": 247,
    "Ġsteam": 9356,
    "Ġvicinity": 7315,
    "oblivious": 26584,
    "Ġarch": 947,
    "Ġevangelists": 20342,
    "Ġmapple": 11152,
    "ifies": 6688,
    "ckery": 22094,
    "Ġwrung": 14472,
    "Ġunquestionable": 26223,
    "Ġbackstays": 22666,
    "Ġalexander": 17427,
    "cocks": 23563,
    "Ġprofuse": 23568,
    "ope": 4126,
    "idge": 14017,
    "Ġmosses": 20166,
    "binary": 20786,
    "Ġper": 589,
    "Ġknown": 1642,
    "Ġceler": 15556,
    "Ġargued": 13633,
    "ract": 979,
    "idirection": 2412,
    "Ġ125": 24470,
    "este": 15926,
    "misery": 13348,
    "indirectly": 18438,
    "wife": 8101,
    "degree": 12806,
    "Ġkink": 22197,
    "abounding": 25980,
    "Ġflow": 1239,
    "Ġfantastic": 10062,
    "Ġtiny": 11555,
    "Ġbower": 15572,
    "ats": 4254,
    "Ġthen": 665,
    "Ġparlor": 13543,
    "charming": 15711,
    "Ġartful": 22613,
    "Ġwalk": 1826,
    "Ġthrust": 5084,
    "Ġkn": 4545,
    "ĠĠĠĠĠĠĠĠĠĠĠĠĠĠĠĠĠĠĠĠĠĠĠĠĠĠĠĠĠĠĠĠĠĠĠĠĠĠĠĠ": 4515,
    "mathemat": 19139,
    "Ġvictims": 19807,
    "Ĉ": 201,
    "Ġcaval": 25770,
    "hess": 4748,
    "Ġcircumstances": 3926,
    "clump": 23158,
    "Ġabused": 22273,
    "Ġexult": 10232,
    "tre": 8764,
    "offer": 19062,
    "vessels": 10628,
    "--------": 14785,
    "vice": 15453,
    "Ġaccost": 12850,
    "Ġattached": 5392,
    "Ġadventurous": 16735,
    "Ġcow": 13879,
    "Ġwag": 10777,
    "jaw": 13746,
    "Ġgovernment": 15180,
    "oil": 7805,
    "Ġsounded": 8594,
    "lies": 15385,
    "Ġsig": 869,
    "att": 1457,
    "Ġleatherhead": 20017,
    "Ġpathetic": 19036,
    "clever": 20816,
    "Ġsegment": 12762,
    "Ġdeterminate": 23007,
    "Ġvoice": 2190,
    "doms": 20837,
    "Ġconscience": 6929,
    "Ġframework": 1910,
    "Ġcomputers": 2644,
    "Ġcasting": 12105,
    "yet": 3754,
    "Ġ117": 19700,
    "'d": 12431,
    "continuance": 19721,
    "Ġrespons": 2685,
    "Ġpuzzle": 11307,
    "Ġdownright": 16123,
    "fishers": 24929,
    "reflection": 13459,
    "included": 19211,
    "Ġadjust": 2156,
    "Ġbellies": 13360,
    "Ġdivin": 13278,
    "Ġinducement": 16845,
    "retirement": 23145,
    "Ġindulge": 10585,
    "Ġyoungest": 7954,
    "establishment": 26114,
    "Ġgrat": 4058,
    "Ġwashed": 15770,
    "ifers": 15787,
    "ip": 555,
    "musical": 25341,
    "lift": 15388,
    "Ġbills": 17862,
    "Ġwashes": 21865,
    "ruct": 687,
    "Ġpersecutor": 26097,
    "Ġcolourless": 19572,
    "Ġrevolving": 9986,
    "represent": 9640,
    "Ġlabyrinth": 13683,
    "symp": 14614,
    "Ġguards": 16272,
    "Ġmamma": 10051,
    "conve": 14246,
    "Ġlace": 13953,
    "Ġfaltering": 17886,
    ").": 1269,
    "sledge": 21060,
    "malicious": 19904,
    "Ġplaymate": 23639,
    "olic": 14045,
    "lection": 3655,
    "Ġlionel": 25287,
    "Ġwhirlpool": 20657,
    "painting": 17047,
    "convinced": 10625,
    "Ġtimber": 13354,
    "Ġtension": 13827,
    "owards": 4594,
    "Ġtotally": 9474,
    "settled": 10509,
    "Ġmark": 2329,
    "Ġleaking": 21749,
    "Ġre": 317,
    "bran": 23576,
    "ordered": 8794,
    "Ġlimit": 10445,
    "Ġrains": 24340,
    "Ġloathed": 15880,
    "Ġminiatures": 20324,
    "rations": 10725,
    "Ġbegins": 7244,
    "hyp": 15370,
    "Ġlistening": 6320,
    "Ġinvestigations": 17249,
    "Ġdocile": 19962,
    "largely": 19577,
    "Ġmustard": 12935,
    "Ġthousands": 6750,
    "odes": 18120,
    "Ġtalked": 4420,
    "Ġcommunications": 16359,
    "Ġwho": 612,
    "itic": 11581,
    "Ġgreeting": 18963,
    "ogrand": 26263,
    "Ġfearfulness": 23514,
    "cious": 6646,
    "Ġenraptured": 26502,
    "amplified": 26496,
    "flutter": 23974,
    "Ġstars": 6151,
    "Ġpawnbroker": 13662,
    "Ġrevelry": 15140,
    "Ġcharts": 12832,
    "luckily": 19755,
    "Ġservox": 23872,
    "Ġhugh": 15006,
    "rougham": 15998,
    "Ġdispositions": 13238,
    "lested": 14886,
    "Ġaffection": 2639,
    "achus": 18284,
    "ens": 701,
    "ensical": 18570,
    "aved": 5474,
    "girl": 12322,
    "Ġtackles": 8051,
    "Ġ235": 25712,
    "Ġcetace": 14991,
    "fted": 9121,
    "seventy": 10878,
    "Ġinclemency": 22560,
    "Ġglanced": 5953,
    "Ġemblematical": 25789,
    "arian": 10319,
    "deserts": 25382,
    "Ġvale": 14085,
    "staking": 21651,
    "Ġplace": 1651,
    "consequential": 26251,
    "Ġluxurious": 17314,
    "Ġcapabilities": 4377,
    "Ġraptures": 13500,
    "Ġcorrection": 5062,
    "Ġu": 324,
    "Ġtests": 8960,
    "Ġcock": 11002,
    "Ġfriends": 2653,
    "Ġstoke": 10398,
    "Ġcetacean": 25879,
    "Ġdavis": 25953,
    "Ġintelligent": 1411,
    "Ġcontriv": 9285,
    "profess": 10637,
    "scrape": 25699,
    "shriek": 20523,
    "Ġcentre": 5122,
    "neys": 23584,
    "Ġstability": 1363,
    "Ġnin": 10190,
    "Ġaccompl": 5167,
    "Ġlike": 668,
    "bowsprit": 16855,
    "Ġlack": 17966,
    "aviour": 10996,
    "Ġskirts": 14356,
    "Ġagencies": 18542,
    "Ġincommunicable": 26613,
    "Ġcovering": 13261,
    "Ġmotive": 6092,
    "queness": 18150,
    "Ġdoub": 1836,
    "Ġkicks": 19771,
    "founded": 16715,
    "Ġmaybe": 12953,
    "complet": 11385,
    "asily": 13949,
    "Ġmacro": 25940,
    "Ġexerc": 6833,
    "chains": 9688,
    "Ġthousand": 2781,
    "Ġlove": 2052,
    "Ġbroker": 23105,
    "Ġbarque": 23792,
    "ad": 337,
    "Ġconnex": 10668,
    "midnight": 14905,
    "##": 2314,
    "Ġsnuffed": 15076,
    "Ġsomnam": 23008,
    "Ġcurric": 22975,
    "Ġstat": 1489,
    "Ġho": 1933,
    "Ġ36": 14770,
    "stooped": 23824,
    "Ġimpetuously": 20375,
    "Ġsebastian": 11700,
    "dening": 22781,
    "Ġentrances": 25836,
    "Ġprivately": 19526,
    "ķ": 248,
    "Ġwhitened": 24868,
    "Ġdies": 11596,
    "committed": 18735,
    "Ġmira": 8408,
    "Ġmundane": 26431,
    "dislike": 23496,
    "Ġworst": 7444,
    "ace": 718,
    "Ġundo": 15846,
    "cas": 20796,
    "dered": 2471,
    "ribut": 814,
    "Ġacquaint": 13050,
    "Ġcarrying": 6073,
    "Ġhelp": 1640,
    "inea": 7624,
    "Ġburglar": 17357,
    "Ġunfor": 15845,
    "Ġafresh": 18628,
    "Ġteach": 8556,
    "Ġavocation": 23956,
    "Ġprolonged": 8358,
    "scratch": 26045,
    "concerns": 24070,
    "insensibility": 23072,
    "Ġpressing": 9264,
    "ologies": 18768,
    "Ġreckoned": 24743,
    "Ġthirty": 4944,
    "Ġelemental": 19921,
    "disciple": 16780,
    "Ġrelinquish": 17350,
    "Ġmemorand": 23461,
    "oop": 10717,
    "Ġsnatches": 16546,
    "Ġhighland": 18711,
    "pits": 15416,
    "Ġinconven": 7587,
    "Ġuppermost": 15282,
    "Ġaffronted": 22895,
    "Ġcelestial": 10070,
    "Ġwilson": 6632,
    "Ġentered": 2844,
    "iom": 20917,
    "augh": 1782,
    "afflicted": 23780,
    "owers": 12690,
    "Ġbuckets": 17035,
    "Ġdependent": 14292,
    "Ġimplies": 24874,
    "Ġtransportation": 13646,
    "Ġaband": 6563,
    "Ġshudderings": 25201,
    "Ġsusp": 2663,
    "calcul": 12992,
    "Ġtalks": 23371,
    "Ġcounsel": 13619,
    "Ġproper": 1377,
    "Ġmusty": 22683,
    "understand": 1130,
    "gradient": 2273,
    "paint": 21020,
    "Ġgallon": 24187,
    "Ġachieved": 13170,
    "Ġunforgiving": 25996,
    "arr": 3046,
    "Ġengaging": 9339,
    "Ġsmelling": 16071,
    "Ġappeals": 16320,
    "Ġda": 5150,
    "Ġbite": 10799,
    "oud": 1943,
    "Ġsolitudes": 22890,
    "Ġwearing": 12744,
    "charmed": 21699,
    "Ġpersecut": 16954,
    "Ġunclasp": 26513,
    "iments": 4945,
    "Ġpersevering": 20236,
    "weave": 22688,
    "Ġinfrequent": 3825,
    "âĢĿ": 354,
    "Ġcachalot": 17836,
    "Ġpeter": 10538,
    "Ġexploitation": 2347,
    "resnet": 4071,
    "Ġarising": 10935,
    "Ġensu": 7875,
    "Ġtinted": 13825,
    "Ġsheep": 10928,
    "mant": 20967,
    "make": 5793,
    "dering": 5307,
    "abri": 6684,
    "tut": 15438,
    "Ġtrees": 4204,
    "hitherto": 17286,
    "Ġhooked": 19081,
    "assembled": 21548,
    "ting": 1333,
    "Ġspare": 5102,
    "Ġimitation": 22175,
    "Ġdilatory": 24704,
    "Ġcounted": 12144,
    "icts": 22404,
    "Ġtelling": 5747,
    "Ġabilities": 8870,
    "action": 3728,
    "trans": 5594,
    "Ġresolute": 19247,
    "Ġpaddock": 25040,
    "Ġmeas": 1098,
    "Ġnoisier": 4625,
    "riv": 3109,
    "Ġclerks": 17298,
    "illa": 12798,
    "Ġstockings": 20000,
    "Ġshowing": 7732,
    "Ġsword": 6734,
    "Ġworkman": 16264,
    "Ġbeau": 9227,
    "joke": 20932,
    "Ġvalley": 5852,
    "Ġconjunction": 25103,
    "Ġsuperiors": 23456,
    "discern": 14854,
    "buff": 15322,
    "Ġvouch": 15814,
    "Ġimplicated": 24876,
    "Ġlascar": 9202,
    "Ġeasiest": 23540,
    "Ġpurse": 12015,
    "Ġdeliriously": 23231,
    "Ġchip": 12830,
    "Ġmarch": 4084,
    "racts": 14363,
    "Ġcetology": 10012,
    "ife": 1023,
    "Ġarray": 12814,
    "stern": 8446,
    "Ġreasons": 6021,
    "Ġrobustness": 18884,
    "Ġprescribed": 26011,
    "Ġtennessee": 26598,
    "Ġsolemnity": 9944,
    "pal": 9619,
    "itaries": 21339,
    "bing": 7792,
    "Ġginger": 9213,
    "Ġlot": 6680,
    "Ġpacked": 9983,
    "Ġapproached": 5844,
    "ax": 693,
    "Ġfront": 3455,
    "Ġcompl": 3760,
    "Ġemm": 18005,
    "Ġspecies": 5112,
    "Ġrever": 6538,
    "Ġclatter": 22352,
    "philosophers": 25253,
    "Ġrubbed": 12960,
    "Ġsatir": 18794,
    "Ġsealed": 15820,
    "irt": 3077,
    "Ġlosing": 10918,
    "Ġempire": 11147,
    "abez": 10225,
    "Ġpetersburgh": 24231,
    "of": 767,
    "Ġelectric": 15198,
    "eskye": 21487,
    "Ġunrest": 11718,
    "Ġfeeling": 3084,
    "Ġtenants": 23550,
    "mosphere": 10046,
    "anean": 7443,
    "keenest": 25662,
    "cstasy": 11447,
    "Ġrigger": 19533,
    "Ġimpersonal": 17399,
    "venant": 22630,
    "Ġnom": 21522,
    "surf": 24215,
    "Ġglowed": 24865,
    "Ġstraight": 3704,
    "prehensible": 12364,
    "Ġfitted": 6245,
    "¢": 100,
    "Ġpron": 6452,
    "Ġoutside": 5554,
    "Ġlick": 21553,
    "<MASK>": 4,
    "adjust": 21763,
    "Ġmines": 21311,
    "Ġpangs": 15620,
    "Ġexpanded": 14295,
    "Ġtwist": 11855,
    "Ġundaunted": 24121,
    "Ě": 219,
    "Ġware": 12559,
    "Ġbrooded": 23107,
    "Ġclearing": 8240,
    "sleepers": 24729,
    "Ġaft": 5737,
    "gratulation": 24349,
    "Ġshrew": 22004,
    "bury": 9110,
    "getic": 12971,
    "č": 206,
    "gins": 12473,
    "ourney": 3556,
    "Ġapprehension": 7115,
    "frequently": 9982,
    "Ġtuck": 10143,
    "Ġincluding": 2849,
    "torm": 11533,
    "Ġhated": 7585,
    "Ġcelebrate": 26359,
    "regarding": 15075,
    "ional": 1085,
    "culiar": 2819,
    "Ġbackwater": 18651,
    "Ġlodgings": 8312,
    "maltese": 24794,
    "Ġstains": 21745,
    "phia": 22780,
    "Ġsoothing": 8173,
    "Ġlandau": 16423,
    "Ġpres": 9735,
    "Ġspecimens": 18860,
    "bantering": 25254,
    "hour": 7340,
    "iop": 20921,
    "Ġscraps": 16904,
    "Ġargemone": 24277,
    "auley": 22624,
    "sherlock": 5422,
    "Ġrisen": 9496,
    "Ġsubstantiated": 25876,
    "Ġgaiety": 16751,
    "mod": 1053,
    "Ġsporty": 19892,
    "mathematics": 26305,
    "Ġagent": 6279,
    "Ġobli": 9319,
    "etition": 7382,
    "Ġdominic": 25381,
    "Ġincessantly": 11413,
    "Ġshrugged": 12774,
    "Ġdiscomp": 11870,
    "young": 7321,
    "cannot": 5745,
    "Ġdaresay": 14707,
    "Ġcovers": 18593,
    "iastic": 12484,
    "etts": 12665,
    "Ġbrill": 8551,
    "Ġoverlook": 10963,
    "Ġflies": 13030,
    "Ġservice": 6472,
    "Ġsprain": 18306,
    "Ġgratification": 24100,
    "loa": 18537,
    "figure": 13559,
    "Ġimpl": 7195,
    "Ġholder": 6726,
    "Ġscholar": 26112,
    "Ġlate": 3380,
    "ourably": 14380,
    "Ġcam": 10164,
    "injured": 15136,
    "Ġfairest": 20466,
    "Ġfragments": 19014,
    "Ġparcels": 25466,
    "Ġhemisphere": 26480,
    "Ġladyship": 5046,
    "Ġmag": 1431,
    "Ġkings": 7197,
    "Ġtickets": 17095,
    "repeating": 20132,
    "Ġsweetly": 23922,
    "Ġclinched": 17397,
    "Ġarranged": 9880,
    "Ġobserved": 3543,
    "hurriedly": 25511,
    "Ġdeity": 18137,
    "arest": 4005,
    "Ġgoble": 14232,
    "Ġray": 18643,
    "officer": 17055,
    "Ġtrans": 631,
    "arboard": 7266,
    "Ġbachelor": 7787,
    "clings": 23155,
    "Ġdesmarest": 22984,
    "edded": 8558,
    "Ġfortune": 4241,
    "Ġoppose": 16523,
    "hint": 12480,
    "Ġknowledge": 1447,
    "scans": 22992,
    "cottage": 9572,
    "date": 17519,
    "Ġhummed": 18779,
    "Ġundersampling": 19521,
    "Ġdisputes": 25826,
    "Ġdreamt": 23942,
    "Ġespecially": 3936,
    "ickory": 22672,
    "Ġwaste": 9237,
    "ricane": 16282,
    "**": 4687,
    "Ġfamilies": 8027,
    "Ġblan": 18818,
    "Ġcomposition": 1687,
    "Ġ45": 14773,
    "Ġzodiac": 16179,
    "Ġcertain": 1556,
    "Ġreconciled": 13591,
    "Ġmerid": 13197,
    "sin": 21051,
    "pagans": 25526,
    "Ġfocused": 16345,
    "Ġoctavo": 15167,
    "Ġinstructed": 19286,
    "Ġaisle": 21204,
    "glorious": 19370,
    "Ġwhirling": 12253,
    "Ġgaily": 16750,
    "³": 116,
    "Ġconsummation": 17428,
    "Ġthoughts": 3138,
    "Ġfil": 3476,
    "Ġvisited": 5949,
    "message": 17375,
    "omination": 21645,
    "pered": 4199,
    "Ġgrenadier": 21619,
    "Ġdefendants": 15144,
    "Ġframed": 19013,
    "fier": 9596,
    "Ġfuller": 11158,
    "Ġswaths": 23061,
    "Ġdetermination": 9822,
    "Ġsoon": 1228,
    "quired": 21859,
    "µ": 118,
    "lengths": 24847,
    "Ġpepper": 9784,
    "Ġrational": 8482,
    "cating": 20804,
    "Ġprevention": 16098,
    "Ġcharged": 9856,
    "Ġovertake": 15978,
    "ider": 21769,
    "avoiding": 25237,
    "acknowled": 10977,
    "Ġtalk": 1969,
    "Ġcardboard": 19982,
    "Ġendeared": 26500,
    "Ġmincer": 14369,
    "weary": 22689,
    "Ġinsight": 16533,
    "ieves": 4006,
    "Ġforwarded": 19047,
    "wickham": 5885,
    "ingu": 2119,
    "Ġrigging": 5601,
    "Ġomn": 8411,
    "Ġsus": 18278,
    "Ġstroke": 6936,
    "Ġpresum": 4839,
    "clouds": 25497,
    "Ġungovernable": 20711,
    "Ġcreativity": 2972,
    "autumn": 23343,
    "Ġsur": 2183,
    "._]]": 5335,
    "acency": 12913,
    "Ġhare": 5157,
    "broken": 8020,
    "nett": 16226,
    "Ġcontained": 7679,
    "flung": 16641,
    "ank": 1365,
    "Ġvinc": 14088,
    "Ġelder": 7223,
    "Ġcomple": 2839,
    "ascal": 10195,
    "Ġglue": 15679,
    "ice": 587,
    "Ġparalle": 1410,
    "Ġencoura": 1366,
    "Ġinspector": 6499,
    "Ġdelivered": 11118,
    "rossed": 11014,
    "Ġconf": 1820,
    "Ġgib": 13968,
    "Ġparsee": 6414,
    "scotland": 20532,
    "Ġincognit": 22559,
    "Ġassociates": 24711,
    "Ġfloor": 4378,
    "hurried": 11355,
    "izers": 18145,
    "Ġstandard": 14499,
    "great": 3519,
    "amb": 5723,
    "Ġdestroy": 5772,
    "Ġdollars": 11457,
    "Ġmanners": 3791,
    "Ġdarling": 12609,
    "humored": 19456,
    "cloudless": 20335,
    "Ġclearer": 16316,
    "Ġdemi": 25549,
    "robust": 19731,
    "Ġstate": 1810,
    "Ġwildest": 16512,
    "Ġpiratical": 24798,
    "Ġannounce": 13343,
    "iverse": 13120,
    "Ġmingling": 20200,
    "Ġadie": 8491,
    "Ġremonstr": 16166,
    "Ġpatriot": 23299,
    "Ġvessels": 6757,
    "ahawk": 23319,
    "ike": 5000,
    "Ġanoints": 25539,
    "Ġlest": 6396,
    "Ġexpand": 9310,
    "Ġrejection": 19987,
    "Ġpenetrating": 17013,
    "Ġmustering": 18663,
    "deploy": 22146,
    "Ġamounts": 6706,
    "Ġhusband": 3623,
    "Ġdamned": 13135,
    "Ġcontest": 18474,
    "Ġcloset": 19594,
    "garet": 9600,
    "res": 2760,
    "grandfather": 25012,
    "gris": 8260,
    "believe": 8304,
    "Ġdynamically": 4567,
    "Ġextensive": 12948,
    "Ġincrust": 22555,
    "Ġj": 533,
    "Ġcomprehending": 24445,
    "Ġshriek": 6640,
    "Ġpair": 5706,
    "destiny": 16701,
    "quered": 11063,
    "Ġ99": 10747,
    "buffalo": 20566,
    "Ġlap": 8438,
    "Ġimplicate": 24877,
    "ascended": 24705,
    "Ġcommodores": 25375,
    "developed": 15268,
    "Ġshares": 23246,
    "upset": 23020,
    "Ġhookah": 16972,
    "pth": 2382,
    "crimson": 24089,
    "Ġtowards": 1730,
    "quarried": 24948,
    "Ġcomponents": 8897,
    "Ġexploding": 2109,
    "Ġbeheaded": 11659,
    "compar": 14359,
    "decl": 8860,
    "plentiful": 21966,
    "appointment": 24062,
    "Ġpl": 745,
    "Ġeye": 2280,
    "fred": 20857,
    "eled": 2358,
    "thouse": 21986,
    "Ġpriv": 4185,
    "voyages": 24856,
    "Ġear": 1424,
    "ratulations": 20129,
    "Ġdro": 2771,
    "Ġenchanted": 9083,
    "Ġsleepers": 13153,
    "Ġpath": 2114,
    "Ġcolossal": 11461,
    "Ġdeploy": 2967,
    "speed": 19412,
    "Ġallusions": 10908,
    "Ġconscientious": 16729,
    "Ġcompan": 2174,
    "ivial": 15864,
    "ribution": 14310,
    "dared": 13706,
    "Ġskeletons": 16793,
    "Ġperfectly": 3702,
    "Ġgratify": 19506,
    "Ġthereby": 7644,
    "Ġtide": 6661,
    "Ġdenote": 19335,
    "apple": 22844,
    "Ġaccept": 4410,
    "Ġpom": 21454,
    "Ġovertaken": 18431,
    "iety": 2817,
    "Ġdrawers": 12110,
    "Ġhabitation": 14806,
    "Ġbarbaric": 10017,
    "Ġdumplings": 15194,
    "Ġloc": 10916,
    "Ġdiscrete": 2474,
    "Ġmorning": 1748,
    "Ġtumb": 21172,
    "Ġstubborn": 10418,
    "Ġcasts": 19429,
    "Ġenchanting": 17040,
    "understanding": 1149,
    "Ġcompression": 18147,
    "Ġherb": 15861,
    "Ġsubset": 9873,
    "coff": 9112,
    "poles": 16213,
    "Ġsensation": 6895,
    "verize": 21732,
    "closing": 23159,
    "joy": 3337,
    "Ġprecipices": 12282,
    "sinking": 17670,
    "ht": 375,
    "perplex": 18345,
    "activity": 22634,
    "Ġloft": 5642,
    "Ġestimable": 23874,
    "Ġhonestly": 19975,
    "Ġbachel": 7159,
    "Ġsalt": 8017,
    "ato": 17771,
    "Ġinsure": 13182,
    "Ġpropri": 6740,
    "Ġopinions": 9418,
    "hue": 20901,
    "Ġblazing": 11900,
    "istical": 8492,
    "seam": 10876,
    "Ġspark": 6691,
    "Ġsolitary": 5856,
    "slack": 16896,
    "Ġtortured": 14927,
    "Ġdiscussing": 5202,
    "Ġabaft": 22278,
    "Ġautomation": 13240,
    "Ġted": 13815,
    "Ġcumul": 4181,
    "lover": 18540,
    "Ġconfine": 14511,
    "Ġunrival": 22051,
    "Ġmarble": 7669,
    "postp": 24635,
    "Ġrecognise": 12044,
    "Ġoccurrences": 11051,
    "charm": 13993,
    "gloom": 17142,
    "Ġ[_": 15465,
    "Ġtempest": 8213,
    "minded": 9040,
    "Ġmich": 21308,
    "ignation": 11130,
    "Ġexercising": 19909,
    "Ġinter": 727,
    "searching": 25106,
    "Ġrepublican": 17415,
    "historical": 20469,
    "ccarthy": 4889,
    "assertion": 22315,
    "ging": 2599,
    "Ġcautious": 12258,
    "tery": 14040,
    "Ġask": 1491,
    "umberland": 16839,
    "Ġchurches": 12833,
    "Ġopulent": 23630,
    "Ġerrand": 11087,
    "Ġdented": 17893,
    "dare": 12458,
    "common": 4130,
    "Ġenglishmen": 19433,
    "Ġdisguise": 10049,
    "ggling": 19098,
    "rised": 10126,
    "Ġunremitting": 26219,
    "Ġrecom": 4554,
    "Ġisle": 8837,
    "oniously": 21260,
    "houses": 9602,
    "Ġelevate": 24502,
    "Ġlay": 584,
    "Ġsurest": 19058,
    "Ġassistance": 6335,
    "Ġign": 8294,
    "Ġval": 967,
    "gpt": 5356,
    "Ġserves": 4670,
    "Ġlim": 2380,
    "Ġlingo": 24904,
    "Ġvill": 3876,
    "Ġ44": 16681,
    "Ġyarn": 10870,
    "Ġcellar": 8059,
    "Ġalarming": 14784,
    "Ġstave": 11654,
    "Ġsupply": 6068,
    "Ġconject": 6028,
    "aments": 12730,
    "Ġgait": 13335,
    "Ġeu": 6391,
    "Ġapril": 13666,
    "Ġequinox": 25857,
    "Ġreminiscences": 26271,
    "sens": 8097,
    "Ġdeduce": 8337,
    "Ã¦st": 24178,
    "noon": 5037,
    "devil": 7895,
    "Ġalman": 21785,
    "Ġtribute": 15479,
    "favourite": 15147,
    "Ġepis": 19985,
    "Ġtransformer": 2636,
    "cases": 12452,
    "Ġsymph": 22215,
    "Ġshoal": 12020,
    "Ġsab": 10764,
    "Ġtheirs": 7026,
    "tremble": 17144,
    "Ġleaving": 3906,
    "ety": 3523,
    "lace": 13751,
    "Ġfolly": 7941,
    "Ġpassive": 22843,
    "mason": 17604,
    "ancient": 9658,
    "Ġslavish": 23176,
    "tures": 21072,
    "Ġjets": 10290,
    "Ġart": 747,
    "Ġconvincing": 19310,
    "Ġtool": 21514,
    "Ġvacancies": 24345,
    "Ġbrilliancy": 20110,
    "Ġjoker": 22302,
    "ilingly": 21727,
    "Ġglistened": 20175,
    "vert": 15720,
    "Ġregarded": 5762,
    "rob": 5534,
    "Ġtasks": 1788,
    "Ġhell": 5019,
    "Ġunwillingly": 15854,
    "Ġsuperiority": 14619,
    "sutherland": 21065,
    "Ġchann": 15940,
    "Ġfresh": 3672,
    "Ġsweep": 8266,
    "Ġphilosophers": 10554,
    "Ġnurtured": 19752,
    "Ġsympathise": 16796,
    "Ġstirring": 10582,
    "Ġitaly": 10869,
    "roc": 9677,
    "empl": 5724,
    "aren": 10077,
    "Ġcrushing": 20179,
    "Ġinterrupted": 6345,
    "Ġindulged": 13421,
    "Ġdi": 6526,
    "Ġforgiven": 24030,
    "Ġmilitia": 13322,
    "Ġhost": 7070,
    "Ġunf": 4091,
    "beyond": 8886,
    "Ġafrica": 12349,
    "Ġwarbling": 26169,
    "Ġfooting": 14485,
    "Ġexpected": 3698,
    "Ġlub": 15654,
    "Ġchina": 8040,
    "Ġscheme": 7066,
    "robotics": 11308,
    "Ġdifficulty": 5770,
    "shortened": 24747,
    "Ġcapst": 8599,
    "Ġpal": 4043,
    "Ġpurposes": 11170,
    "accountable": 7111,
    "concern": 6101,
    "anges": 1675,
    "Ġdeprec": 15763,
    "Ġimpass": 15991,
    "urements": 18126,
    "Ġmannish": 26239,
    "arrow": 4182,
    "Ġsagacity": 16976,
    "Ġvehement": 16206,
    "Ġisolation": 17153,
    "Ġwaterproof": 19090,
    "dles": 11483,
    "utting": 17987,
    "Ġmushroom": 13242,
    "Ġpreced": 6041,
    "Ġstem": 15724,
    "Ġsuggestion": 19710,
    "inkled": 5477,
    "Ġsail": 1674,
    "Ġenglish": 3617,
    "Ġeighteen": 11240,
    "Ġdilig": 8350,
    "arded": 5029,
    "Ġpromptly": 23820,
    "Ġuniversally": 12004,
    "Ġcontextual": 3744,
    "instrument": 15242,
    "Ġprofundities": 20456,
    "Ġhom": 9189,
    "Ġfrivolous": 26177,
    "acc": 2531,
    "consciousness": 13370,
    "unworthy": 18164,
    "shout": 22446,
    "Ġprows": 19891,
    "Ġrecorded": 11295,
    "Ġassist": 3567,
    "Ġcau": 13884,
    "Ġabstained": 25232,
    "Ġfelicity": 7260,
    "Ġsatan": 14393,
    "Ġmere": 2714,
    "Ġfrocks": 23926,
    "Ġgathering": 14981,
    "Ġfinding": 3264,
    "Ġsharks": 4496,
    "Ġpresence": 5031,
    "Ġneighbourhood": 5126,
    "unconquerable": 21895,
    "Ġfaultless": 24540,
    "Ġcrust": 21354,
    "baby": 25516,
    "Ġsurmise": 12299,
    "Ġneedlessly": 23631,
    "Ġaddressing": 11166,
    "Ġdisrespect": 18554,
    "meth": 11505,
    "painful": 13505,
    "Ġbeating": 8145,
    "prick": 19346,
    "encies": 4082,
    "subsided": 25832,
    "Ġtelegra": 11896,
    "Ġhanged": 17927,
    "Ġpreach": 14175,
    "peleg": 16298,
    "ide": 722,
    "Ġphilosop": 5057,
    "Ġemptied": 24347,
    "Ġrefresh": 10349,
    "see": 3049,
    "Ġpardon": 5727,
    "Ġhilarity": 20300,
    "Ġisinglass": 21806,
    "Ġassail": 13068,
    "Ġinno": 1402,
    "Ġsucked": 14133,
    "Ġball": 3626,
    "Ġsnapping": 19303,
    "Ġsleeper": 8604,
    "Ġsignificant": 8637,
    "Ġaccumulating": 2723,
    "Ġsupers": 18280,
    "expound": 23665,
    "asc": 6387,
    "write": 14649,
    "Ġhazarded": 25655,
    "Ġlikelihood": 16503,
    "Ġaccumul": 1412,
    "Ġbespeaking": 26311,
    "derbyshire": 18322,
    "phil": 7925,
    "ided": 2784,
    "Ġassigned": 16315,
    "ishnoo": 10958,
    "impul": 16558,
    "Ġrevolved": 9987,
    "ationally": 15710,
    "Ġneighb": 14077,
    "Ġportcullis": 26605,
    "favour": 9552,
    "Ġbiography": 22768,
    "Ġfogs": 25283,
    "Ġsupercil": 23455,
    "orney": 17875,
    "Ġwhitewashed": 14471,
    "Ġvincent": 15287,
    "ksome": 10107,
    "Ġgeneral": 1861,
    "Ġcosmetic": 23473,
    "freighted": 14895,
    "anged": 3591,
    "Ġumb": 11649,
    "Ġpea": 14320,
    "promised": 12256,
    "ulated": 6031,
    "tallow": 21088,
    "Ġreigning": 15706,
    "Ġroving": 22407,
    "umbling": 6614,
    "involuntarily": 20418,
    "distinctive": 25726,
    "Ġwhoa": 22424,
    "Ġdrugged": 12607,
    "Ġspy": 22128,
    "Ġox": 7154,
    "Ġdining": 6978,
    "Ġgermans": 25785,
    "Ġkitchen": 8498,
    "Ġalfred": 21790,
    "Ġcandid": 4100,
    "Ġhideous": 5984,
    "Ġsneering": 24696,
    "Ġcreeping": 18682,
    "Ġdemean": 12728,
    "Ġapology": 8328,
    "Ġaddressed": 5263,
    "opening": 10315,
    "Ġfamil": 4320,
    "aper": 4999,
    "Ġsigned": 11179,
    "Ġburying": 19254,
    "counterpart": 26361,
    "Ġcoast": 4657,
    "ight": 403,
    "objects": 13474,
    "walton": 20252,
    "Ġburgled": 23658,
    "tears": 11040,
    "Ġcopied": 20011,
    "Ġoriginate": 24123,
    "Ġaverage": 3139,
    "elder": 21575,
    "Ġhuggins": 24826,
    "bowl": 14894,
    "Ġepic": 15032,
    "oat": 13767,
    "Ġprosecuted": 25294,
    "Ġfight": 5366,
    "Ġastonishment": 4795,
    "Ġfevers": 22210,
    "chors": 11647,
    "wherefore": 19110,
    "Ġsqualid": 14371,
    "foreseen": 14256,
    "ateness": 15524,
    "Ġensued": 11396,
    "Ġjavan": 25000,
    "mering": 12495,
    "Ġheavily": 6742,
    "atory": 6127,
    "ella": 12757,
    "irations": 18173,
    "shavings": 22457,
    "Ġcovariate": 2350,
    "Ġascribe": 16784,
    "Ġvisible": 4778,
    "Åĵuvre": 25888,
    "Ġcups": 16884,
    "ynolds": 10039,
    "Ġintruder": 25992,
    "Ġgrapp": 14104,
    "Ġbeasts": 10620,
    "Ġglacier": 11435,
    "Ġhues": 21492,
    "Ġpatches": 4238,
    "Ġsuch": 794,
    "ertips": 23641,
    "Ġcondense": 21812,
    "ember": 1957,
    "Ġfamiliarly": 11305,
    "Ġroaring": 10970,
    "devoted": 20020,
    "ĠarchÃ¦": 22788,
    "inordinate": 21197,
    "Ġhosea": 17334,
    "Ġerrors": 2595,
    "Ġexec": 19495,
    "Ġtying": 15477,
    "feels": 22507,
    "Ġsnoo": 21231,
    "Ġowners": 7663,
    "Ġcaptiv": 16261,
    "Ġsleeping": 6321,
    "Ġcost": 2503,
    "Ġcondescending": 24869,
    "ue": 1180,
    "akin": 11771,
    "Ġtreachery": 15105,
    "au": 778,
    "Ġ(": 594,
    "learn": 2363,
    "Ġpow": 4639,
    "vously": 23506,
    "Ġhastily": 5763,
    "buried": 14852,
    "Ġinterruptions": 24189,
    "itically": 21333,
    "Ġreconsidered": 21676,
    "Ġproced": 2579,
    "gentleness": 24845,
    "Ġafford": 4365,
    "ampl": 21852,
    "Ġalternative": 19990,
    "Ġstarted": 4151,
    "clinging": 20824,
    "======": 9836,
    "ios": 2198,
    "Ġpenalty": 1841,
    "Ġblasphemy": 26116,
    "Ġcooper": 16080,
    "bonnet": 25743,
    "Ġnurse": 9520,
    "leeward": 15214,
    "Ġheadsman": 13279,
    "Ġlaughed": 5059,
    "Ġuntamed": 19166,
    "puzzling": 26144,
    "rendering": 22344,
    "Ġeleven": 9392,
    "overed": 2852,
    "inative": 15488,
    "ispiece": 19728,
    "ays": 6685,
    "Ġtut": 8774,
    "centre": 17088,
    "idled": 21772,
    "murdered": 12207,
    "Ġfatal": 5873,
    "Ġsucceeded": 6107,
    "nantucket": 7804,
    "Ġfielding": 16236,
    "Ġthreading": 23403,
    "Ġwisely": 13277,
    "wall": 10139,
    "ieth": 10706,
    "privilege": 25264,
    "Ġnamely": 20692,
    "spirits": 8055,
    "Ġcows": 15558,
    "Ġtedious": 15271,
    "Ġslid": 7952,
    "title": 17290,
    "Ġsentin": 16375,
    "-------": 20392,
    "pen": 1205,
    "Ġgirls": 4280,
    "drunk": 24660,
    "Ġplied": 22604,
    "jaws": 20934,
    "Ġlapse": 17123,
    "\":": 9584,
    "Ġarms": 3966,
    "Ġcaring": 23095,
    "cket": 3689,
    "publ": 17640,
    "fixedly": 24930,
    "wrinkles": 16557,
    "berwell": 22749,
    "apothe": 22338,
    "Ġanalog": 12617,
    "ufact": 10735,
    "oc": 2833,
    "Ġseclusion": 18207,
    "Ġshoulder": 5849,
    "Ġpretext": 22233,
    "gone": 6505,
    "cursed": 23846,
    "Ġprinc": 4201,
    "Ġgranting": 18739,
    "Ġincisive": 18573,
    "Ġclothe": 4713,
    "Ġadvertise": 25389,
    "toss": 22571,
    "Ġpalsy": 25779,
    "Ġdrags": 16943,
    "Ġcommodore": 12399,
    "Ġinscrut": 10037,
    "Ġsant": 21217,
    "Ġdivert": 23595,
    "Ġshrimp": 24160,
    "held": 3841,
    "albatross": 15635,
    "isle": 13895,
    "tles": 10732,
    "isbury": 21380,
    "Ġfift": 6383,
    "Ġpiercing": 13497,
    "movement": 25578,
    "Ġconjecture": 9535,
    "Ġusage": 9733,
    "Ġsuperficial": 23457,
    "Ġended": 7950,
    "han": 12477,
    "Ġgene": 15677,
    "smote": 23913,
    "repaid": 24491,
    "Ġaggregate": 25678,
    "Ġexc": 1832,
    "exerc": 16020,
    "incredible": 16501,
    "copper": 19190,
    "wrong": 13210,
    "Ġmig": 13859,
    "cure": 11476,
    "Ġshipping": 14107,
    "Ġbrotherly": 16531,
    "Ġbarren": 11208,
    "strang": 11185,
    "japan": 15378,
    "Ġcurious": 3363,
    "preser": 9763,
    "Ġherring": 14129,
    "ilogue": 21728,
    "Ġgay": 5535,
    "Ġfingertips": 24020,
    "Ġbrutality": 26278,
    "Ġfinally": 4668,
    "iture": 5696,
    "thither": 21987,
    "Ġgrasshopper": 24380,
    "Ġwaist": 6899,
    "rit": 21038,
    "Ġaut": 1785,
    "Ġmaterially": 12196,
    "avail": 18568,
    "Ġrolling": 5976,
    "Ġ109": 24416,
    "Ġsudden": 1998,
    "Ġexposed": 8525,
    "exercise": 17462,
    "Ġwards": 17791,
    "american": 11402,
    "Ġdrunkard": 20180,
    "Ġrephr": 21682,
    "Ġshining": 8172,
    "Ġmr": 659,
    "incing": 15489,
    "water": 4869,
    "cur": 3270,
    "Ġoversight": 22366,
    "cock": 12030,
    "Ġmak": 10780,
    "satisfy": 16894,
    "Ġcadiz": 17328,
    "Ġgrec": 18961,
[...]
