{
  "metadata": {
    "vocab_size": 26616,
    "algorithm": "BPE",
    "created_at": "2026-04-27 05:22:21",
    "special_tokens": [
      "<PAD>",
      "<SOS>",
      "<EOS>",
      "<UNK>",
      "<MASK>"
    ]
  },
  "vocab": {
    "Ġhav": 12759,
    "abern": 21794,
    "Ġallegro": 25795,
    "ike": 5000,
    "aited": 12439,
    "Ġberry": 19749,
    "Ġshop": 9255,
    "Ġloved": 4601,
    "ean": 20842,
    "abilizing": 2927,
    "Ġcocoanuts": 26364,
    "ñ": 178,
    "conject": 8883,
    "Ġweakened": 16825,
    "Ġdrinks": 24282,
    "Ġrepublican": 17415,
    "Ġdeserted": 8640,
    "presum": 12873,
    "esteem": 26009,
    "Ġfrosty": 14938,
    "Ġuniversal": 2235,
    "bulwarks": 12277,
    "doom": 23380,
    "Ġfluffy": 19367,
    "Ġsteal": 16287,
    "seldom": 13790,
    "ins": 1377,
    "Ġbod": 4583,
    "Ġincidents": 9302,
    "Ġcage": 17827,
    "Ġinsular": 19270,
    "possessed": 9531,
    "Ġvigour": 24462,
    "Ġbodies": 8032,
    "Ġbankrupt": 16798,
    "Ġissu": 6254,
    "Ġhatchways": 24990,
    "Ġ/*": 10142,
    "Ġjelly": 22304,
    "Ġdelightful": 6321,
    "Ġboy": 3025,
    "Ġsiamese": 20486,
    "Ġannals": 17900,
    "Ġgroans": 14827,
    "Ġprudent": 9188,
    "Ġrevers": 21667,
    "ack": 615,
    "Ġanalogical": 25641,
    "arse": 7160,
    "Ġmartyr": 26362,
    "avering": 24792,
    "arman": 11598,
    "Ġwords": 1322,
    "Ġfather": 1451,
    "Ġtaken": 2527,
    "ĠĠĠĠĠĠĠĠĠĠĠĠĠĠĠĠĠĠĠĠĠĠĠĠĠĠĠĠĠĠĠĠĠĠĠĠĠĠĠ": 19261,
    "mber": 7803,
    "val": 1182,
    "atics": 15526,
    "Ġhal": 1360,
    "Ġmakes": 3653,
    "sicilian": 21066,
    "avern": 24791,
    "vered": 4832,
    "Ġpersecut": 16954,
    "Ġcrabs": 19176,
    "hawks": 24695,
    "luent": 16000,
    "rador": 19129,
    "drawn": 9916,
    "narwhale": 17321,
    "?_âĢĿ": 12320,
    "Ġ108": 19687,
    "Ġsparing": 22133,
    "Ġpractice": 2892,
    "Ġdavis": 25953,
    "heav": 5694,
    "Ġsnapped": 9900,
    "Ġwil": 4582,
    "Ġopenness": 18959,
    "Ġapply": 1776,
    "Ġkidnapping": 26358,
    "atively": 2695,
    "ho": 2855,
    "reputation": 15518,
    "Ġafar": 14297,
    "during": 6787,
    "Ġsta": 18068,
    "Ġhackluyt": 25656,
    "Ġsleeve": 20143,
    "Ġtend": 6121,
    "carefully": 13373,
    "Ġsouthwards": 19636,
    "distinguish": 19575,
    "Ġvelocity": 10623,
    "Ġcompare": 9305,
    "Ġreporting": 24658,
    "test": 13795,
    "ised": 1065,
    "sm": 3436,
    "terrible": 8467,
    "Ġleisurely": 24745,
    "Ġindians": 14413,
    "clut": 23154,
    "Ġexpl": 487,
    "susp": 10599,
    "Ġgreenland": 5761,
    "deceiving": 22148,
    "Ġconsideration": 5191,
    "Ġsignific": 3830,
    "Ġmaintainable": 12940,
    "strip": 19833,
    "Ġproposals": 10616,
    "Ġjumped": 7097,
    "Ġregression": 4411,
    "Ġhumbled": 16200,
    "ensive": 6280,
    "raise": 18014,
    "Ġsatisfied": 4171,
    "desc": 1394,
    "Ġubiqu": 18049,
    "ach": 435,
    "ivil": 6411,
    "/`)": 13664,
    "gings": 7548,
    "enjoyments": 25434,
    "Ġnavigation": 9996,
    "Ġdominant": 12400,
    "Ġwilt": 9646,
    "Ġmutinous": 23961,
    "Ġtok": 1244,
    "finish": 24384,
    "imson": 12694,
    "rosc": 17957,
    "orm": 425,
    "Ġastr": 15497,
    "Ġordained": 19448,
    "ute": 4644,
    "Ġgouldings": 26189,
    "rim": 7138,
    "Ġwarp": 8113,
    "thereby": 14450,
    "Ġmagnanim": 14475,
    "ificent": 8184,
    "Ġdramat": 23220,
    "Ġoften": 1954,
    "Ġcabinet": 23864,
    "shri": 14236,
    "Ġcrisp": 12007,
    "Ġdom": 2822,
    "we": 847,
    "Ġincompetent": 25680,
    "Ġverbal": 19382,
    "Ġtrucks": 19515,
    "Ġskirt": 18731,
    "Ġunrem": 18245,
    "Ġfoe": 7679,
    "Ġmatrix": 1604,
    "continued": 8679,
    "Ġ45": 14773,
    "Ġinequal": 21500,
    "Ġdeliberation": 19972,
    "Ġcringed": 25943,
    "details": 19678,
    "Ġsuperior": 2752,
    "ders": 8075,
    "Ġcomprising": 16075,
    "omit": 13977,
    "Ġdecomposition": 5343,
    "dred": 2526,
    "amous": 15765,
    "Ġpoured": 8805,
    "Ġ38": 24082,
    "Ġimplements": 2487,
    "Ġappro": 665,
    "acter": 2507,
    "Ġ80": 24456,
    "Ġhandful": 9785,
    "Ġforgiveness": 16659,
    "till": 6965,
    "Ġkin": 15908,
    "youngest": 19746,
    "shr": 10981,
    "slow": 7810,
    "Ġattraction": 18622,
    "Ġwaters": 3596,
    "Ġtrousers": 12419,
    "Ġmuttering": 10502,
    "elab": 21573,
    "Ġswelling": 11929,
    "opposing": 24822,
    "Ġshakespeare": 20310,
    "Ġforgot": 4685,
    "Ġpaling": 21465,
    "Ġhereditarily": 25225,
    "Ġdisquis": 22531,
    "Ġdelights": 14598,
    "stop": 11638,
    "Ġsimplest": 16337,
    "ushing": 5731,
    "Ġbreak": 2866,
    "Ġpound": 12621,
    "Ġfullest": 14817,
    "Ġcombinations": 22840,
    "arious": 10319,
    "Ġsprung": 11250,
    "Ġwhose": 2008,
    "Ġlifts": 25359,
    "Ġbelshazzar": 16229,
    "Ġthird": 4186,
    "Ġbury": 12046,
    "Ġloggerhead": 13661,
    "Ġwatson": 3597,
    "moby": 8538,
    "Ġchopping": 24222,
    "untary": 9870,
    "jackets": 24896,
    "aneously": 4060,
    "Ġodor": 12154,
    "Ġwilfully": 16768,
    "Ġgentlemen": 3642,
    "perai": 10279,
    "Ġbohemian": 17136,
    "compared": 24037,
    "handled": 19263,
    "Ġmiserably": 12953,
    "Ġop": 2602,
    "Ġger": 21594,
    "spanish": 14337,
    "Ġinequalities": 26455,
    "Ġsam": 7568,
    "Ġimmens": 9942,
    "Ġcre": 889,
    "Ġillustrations": 17109,
    "Ġprematurely": 24009,
    "crippled": 26386,
    "iny": 4294,
    "prejudiced": 17300,
    "Ġexcuse": 5862,
    "Ġspell": 8859,
    "Ġkl": 2736,
    "Ġacceded": 22383,
    "Ġhighlands": 22778,
    "Ġvigorous": 10569,
    "Ġstoried": 18078,
    "Ġfired": 16158,
    "Ġcreditors": 20133,
    "uture": 1046,
    "Ġsculpture": 26017,
    "Ġintimidated": 24802,
    "saddest": 25528,
    "Ġchecked": 9379,
    "joice": 9605,
    "Ġunfailing": 24113,
    "Ġepisode": 26349,
    "Ġemaciated": 20641,
    "Ġsolely": 9913,
    "Ġdyspeps": 16488,
    "Ġsubstantiated": 25876,
    "sub": 4661,
    "dec": 3115,
    "nut": 12499,
    "Ġanxiously": 8290,
    "playful": 24357,
    "committed": 18746,
    "ckinridge": 11723,
    "unting": 21878,
    "Ġdetermine": 3246,
    "itancy": 21336,
    "Ġtides": 13824,
    "material": 13134,
    "Ġstolen": 14011,
    "Ġdiscovered": 4414,
    "Ġshuddering": 9054,
    "Ġtilted": 20416,
    "Ġruinous": 24634,
    "Ġgrace": 5374,
    "grie": 12475,
    "Ġdistant": 5387,
    "Ġmiraculous": 13551,
    "Ġensued": 11396,
    "Ġslighted": 16569,
    "Ġvolley": 24147,
    "ricane": 16282,
    "Ġburied": 7718,
    "ibank": 6879,
    "Ġattaining": 15807,
    "Ġrus": 14096,
    "Ġblotted": 20220,
    "Ġsherry": 19454,
    "declare": 25174,
    "masters": 16836,
    "appin": 18759,
    "Ġglaciers": 20176,
    "au": 780,
    "happening": 16566,
    "secre": 18130,
    "Ġcottagers": 6761,
    "Ġcucumber": 21359,
    "Ġaz": 9632,
    "ivering": 7697,
    "Ġsighs": 22712,
    "felix": 10656,
    "Ġgetting": 4066,
    "excited": 13384,
    "Ġextinguish": 14333,
    "Ġrecede": 25969,
    "Ġnoses": 18374,
    "Ġemble": 13974,
    "Ġmissing": 6176,
    "Ġincredulous": 9990,
    "Ġclassifies": 11844,
    "Ġarrive": 6906,
    "twas": 15440,
    "deepest": 22841,
    "aboard": 21798,
    "Ġsacrificed": 17425,
    "Ġamb": 9295,
    "Ġfame": 21409,
    "Ġejaculated": 15173,
    "lady": 4435,
    "Ġsubdued": 11035,
    "herfield": 3630,
    "Ġcuba": 25098,
    "eline": 2202,
    "mel": 9130,
    "Ġvillanous": 24059,
    "Ġbraces": 14672,
    "mystic": 25317,
    "Ġblessed": 6930,
    "Ġgn": 8822,
    "Ġsung": 23275,
    "Ġpulpit": 7469,
    "Ġcontinuation": 22921,
    ";âĢĻ": 15306,
    "daring": 20831,
    "unnatural": 15777,
    "uble": 21105,
    "Ġguide": 3218,
    "Ġresting": 7962,
    "Ġhungry": 10535,
    "larger": 24205,
    "Ġhymn": 24518,
    "Ġdisconsol": 18557,
    "Ġguilt": 6180,
    "Ġbehaviors": 13259,
    "Ġquivers": 22417,
    "Ġsense": 3251,
    "squee": 15433,
    "cest": 12449,
    "Ġtoils": 10188,
    "Ġclutch": 15056,
    "bestow": 16931,
    "umber": 5241,
    "Ġpreser": 6041,
    "pretty": 10624,
    "misfortunes": 16758,
    "Ġcaptains": 7456,
    "Ġsteep": 2889,
    "uge": 4018,
    "hetically": 21211,
    "Ġunex": 11717,
    "Ġconstru": 19069,
    "dar": 20826,
    "Ġpore": 21461,
    "Ġwedding": 4817,
    "Ġsince": 1795,
    "Ġparamore": 22126,
    "Ġimproper": 22763,
    "Ġstream": 5186,
    "Ġii": 7384,
    "Ġfrighten": 13283,
    "jo": 3752,
    "Ġcoopers": 20525,
    "Ġextinguished": 10342,
    "Ġgoest": 22425,
    "Ġsoc": 3527,
    "fright": 9598,
    "stad": 7597,
    "Ġrapturously": 24889,
    "Ġdeterminate": 23007,
    "ruit": 22191,
    "irt": 3080,
    "Ġmetallic": 19074,
    "nursery": 26401,
    "Ġjerked": 19835,
    "Ġincrust": 22555,
    "vain": 15450,
    "announced": 19762,
    "eck": 20846,
    "Ġsche": 1703,
    "Ġforest": 9874,
    "Ġraiment": 22654,
    "humour": 7497,
    "Ġfeather": 8863,
    "Ġchrist": 4073,
    "station": 10846,
    "hollow": 24044,
    "Ġ20": 8617,
    "attempted": 20177,
    "Ġjaws": 5593,
    "lying": 7174,
    "Ġadmission": 23557,
    "Ġuncertain": 4068,
    "sank": 17664,
    "Ġhopeless": 7461,
    "Ġproportionably": 19974,
    "hung": 8381,
    "Ġextremity": 8991,
    "traversed": 19650,
    "politeness": 16908,
    "Ġplow": 21462,
    "harpooned": 24288,
    "ober": 15409,
    "Ġmeetings": 16534,
    "Ġrelent": 18776,
    "snow": 10726,
    "Ġenveloping": 19737,
    "Ġdimmed": 24270,
    "sun": 7140,
    "melancholy": 12357,
    "Ġpossess": 3207,
    "Ġoutside": 5554,
    "www": 17254,
    "Ġbirch": 26175,
    "mer": 2831,
    "Ġbuckle": 17034,
    "Ġgovernment": 15180,
    "powerful": 24848,
    "Ġmould": 6519,
    "miraculous": 26398,
    "wand": 10740,
    "attention": 2109,
    "Ġvarying": 15814,
    "Ġconcre": 16387,
    "Ġmajestic": 8643,
    "uction": 15446,
    "ter": 359,
    "james": 15376,
    "Ġsubst": 4274,
    "Ġenglishmen": 19433,
    "Ġscolding": 15204,
    "Ġquestioned": 14622,
    "Ġresults": 7307,
    "Ġpatron": 7464,
    "Ġpastures": 23423,
    "Ġfrivolous": 26177,
    "Ġstains": 21748,
    "Ġexcluded": 16385,
    "Ġaware": 5756,
    "Ġclin": 14207,
    "Ġcoin": 9774,
    "Ġrejoined": 14930,
    "ĠĠĠĠĠ": 3528,
    "Ġdoublo": 6078,
    "Ġlaure": 16911,
    "Ġlaw": 3656,
    "glorious": 19370,
    "Ġnames": 4535,
    "land": 1531,
    "akeman": 6268,
    "inf": 6233,
    "Ġimped": 18449,
    "Ġhilarity": 20300,
    "lengthwise": 19953,
    "Ġchips": 14184,
    "Ġfetching": 16898,
    "Ġwalton": 14975,
    "urg": 8142,
    "Ġscrutin": 26015,
    "Ġfam": 1587,
    "Ġperception": 9753,
    "Ġleft": 1760,
    "Ġacquisition": 18901,
    "coburg": 13602,
    "Ġbalances": 2340,
    "some": 2237,
    "allingly": 22203,
    "esu": 17903,
    "Ġdisgra": 18549,
    "Ġelbowed": 16114,
    "Ġcompares": 20169,
    "Ġscor": 8190,
    "iant": 5427,
    "Ġintricacies": 15142,
    "Ġflor": 8564,
    "Ġdecide": 9289,
    "smiles": 14695,
    "Ġfrozen": 9016,
    "Ġblinded": 13275,
    "Ġcommanded": 6331,
    "Ġroused": 7623,
    "merit": 19284,
    "ret": 1475,
    "isbury": 21380,
    "Ġkeenly": 9488,
    "ĭ": 238,
    "Ġseals": 11701,
    "enge": 21283,
    "someone": 14566,
    "Ġcrocod": 19631,
    "kill": 13747,
    "Ġapologize": 15132,
    "Ġleaf": 15721,
    "movable": 14327,
    "Ġpredicting": 2413,
    "Ġox": 7153,
    "Ġdesignated": 19524,
    "arking": 16129,
    "involved": 25627,
    "ð": 177,
    "Ġsplend": 9901,
    "Ġstrung": 22621,
    "Ġspouts": 7729,
    "Ġanxiety": 5408,
    "Ġimages": 1599,
    "honor": 19902,
    "Ġdeploy": 2672,
    "Ġdays": 2076,
    "Ġaffections": 10387,
    "Ġlifelessly": 23051,
    "Ġutter": 3975,
    "Ġnobler": 14178,
    "Ġreaders": 18916,
    "Ġtest": 1578,
    "Ġdispatched": 23884,
    "Ġaffirm": 11891,
    "Ġsurp": 9637,
    "Ġcolonies": 14378,
    "heim": 17748,
    "Ġrot": 10969,
    "Ġdes": 1249,
    "Ġcordage": 19681,
    "pshaw": 21030,
    "Ġadorn": 12797,
    "forgetting": 25486,
    "Ġambition": 11434,
    "oldened": 22641,
    "Ġspong": 15885,
    "Ġreser": 5170,
    "Ġentities": 11868,
    "rich": 11520,
    "Ġbarrier": 16571,
    "Ġsustained": 13486,
    "Ġinflu": 4910,
    "performed": 18343,
    "Ġconstable": 19068,
    "Ġantiquity": 15234,
    "Ġdoxology": 22248,
    "bb": 2798,
    "Ġaccess": 9750,
    "Ġwhenever": 5166,
    "Ġemergency": 25731,
    "Ġscant": 22284,
    "Ġsufferable": 16259,
    "Ġbronze": 22871,
    "Ġunusual": 6554,
    "Ġmischief": 8544,
    "Ġpyth": 21464,
    "Ġgpus": 3734,
    "Ġexecut": 4248,
    "Ġanguish": 5584,
    "Ġplunder": 22609,
    "iliating": 12700,
    "Ġwrung": 14473,
    "whaling": 7899,
    "Ġroods": 22408,
    "arb": 1565,
    "Ġsord": 21222,
    "Ġindifference": 6726,
    "Ġor": 437,
    "dor": 12456,
    "ours": 3427,
    "night": 2168,
    "Ġeffectively": 2886,
    "Ġgame": 3628,
    "Ġenrolled": 21941,
    "Ġthirst": 7589,
    "Ġrepaid": 19084,
    "Ġexclusiveness": 23931,
    "Ġgallery": 10527,
    "affrail": 11207,
    "fitzwilliam": 11354,
    "Ġneeded": 7717,
    "snapping": 24850,
    "Ġletting": 10364,
    "Ġregained": 18589,
    "Ġdistrustful": 25057,
    "uerus": 26408,
    "worm": 15456,
    "Ġsheets": 9725,
    "Ġrabb": 4163,
    "Ġremarked": 3698,
    "a": 69,
    "Ġconv": 2973,
    "glad": 9011,
    "aurs": 20771,
    "Ġlikewise": 5386,
    "setting": 13290,
    "lets": 7836,
    "Ġ1890": 23900,
    "urch": 3993,
    "usages": 22294,
    "exhibited": 18478,
    "Ġsteepest": 3092,
    "Ġamendment": 26025,
    "Ĺ": 250,
    "orns": 12597,
    "Ġhearken": 21688,
    "Ġsuppressed": 11915,
    "Ġetext": 23953,
    "Ġgrenadier": 21619,
    "nt": 921,
    "cork": 20798,
    "ete": 9206,
    "Ġpictured": 16625,
    "Ġswallow": 8953,
    "Ġbuckets": 17035,
    "Ġ102": 24410,
    "Ġsofas": 26226,
    "calculation": 25689,
    "Ġraft": 16120,
    "Ġbabies": 19695,
    "Ġfeelings": 2454,
    "expected": 5780,
    "Ġcolt": 11045,
    "ously": 2492,
    "Ġtower": 8319,
    "Ġpleas": 1903,
    "Ġpractical": 3167,
    "Ġoutwardly": 25001,
    "Ġviv": 6157,
    "ore": 418,
    "exerc": 16019,
    "kl": 4866,
    "Ġpowerful": 1608,
    "Ġsoliloquized": 17305,
    "Ġprotectors": 9073,
    "Ġwhiting": 10861,
    "ethics": 8881,
    "regularly": 13212,
    "Ġthrusts": 24350,
    "musical": 25341,
    "Ġpartner": 6715,
    "Ġgro": 4398,
    "ivory": 10273,
    "Ġbattle": 5908,
    "Ġhesitated": 10005,
    "Ġphyseter": 26588,
    "ontory": 10461,
    "Ġnearest": 8472,
    "Ġcopestone": 24939,
    "Ġphilosop": 5057,
    "Ġinconveniences": 24942,
    "rier": 9245,
    "Ġcosmopolitan": 20643,
    "Ġinvaluable": 10185,
    "Ġverd": 6918,
    "lips": 13753,
    "wickham": 5884,
    "acon": 10684,
    "said": 4103,
    "voy": 7144,
    "jolly": 20933,
    "sailed": 17668,
    "avers": 17483,
    "Ġways": 5396,
    "Ġarchipelagoes": 14348,
    "thing": 1479,
    "Ġrede": 13987,
    "fashioned": 9573,
    "moreover": 12974,
    "athom": 12944,
    "rule": 15904,
    "Ġpiazza": 26452,
    "wh": 508,
    "building": 17312,
    "Ġintermediate": 18594,
    "Ġclasses": 4055,
    "answered": 10276,
    "ials": 11710,
    "Ġskirting": 22800,
    "Ġsupers": 18278,
    "Ġanne": 1529,
    "Ġfilling": 13412,
    "proves": 23397,
    "Ġestab": 6316,
    "ces": 579,
    "erc": 5905,
    "Ġchoke": 22253,
    "Ġwh": 328,
    "Ġgrunt": 18736,
    "neville": 22464,
    "Ġwow": 15532,
    "Ġlurked": 11293,
    "guard": 12133,
    "inhab": 10759,
    "sip": 10727,
    "chose": 18043,
    "Ġfretfully": 25448,
    "acknowledging": 25477,
    "ather": 741,
    "Ġgemin": 21613,
    "ĠcÃ¦sar": 20583,
    "Ġn": 300,
    "iliation": 10862,
    "mured": 6959,
    "Ġadie": 8490,
    "Ġpunctil": 20117,
    "cape": 13701,
    "Ġsigmoid": 2465,
    "counter": 20281,
    "chairs": 21696,
    "Ġaccompanied": 6780,
    "Ġlarge": 1068,
    "Ġzoology": 22822,
    "ics": 3257,
    "Ġevinced": 7101,
    "Ġover": 553,
    "Ġsuperhuman": 23455,
    "how": 1647,
    "ray": 2438,
    "Ġbrushed": 15575,
    "Ġafric": 8909,
    "Ġsangu": 15507,
    "Ġbland": 11066,
    "izzy": 3099,
    "Ġtwine": 14314,
    "Ġafore": 10760,
    "opatra": 22481,
    "Ġpersisted": 13041,
    "Ġglance": 4233,
    "Ġcollectively": 19971,
    "Ġcream": 22728,
    "onah": 3338,
    "province": 26073,
    "Ġthrusting": 10555,
    "Ġlonging": 14302,
    "Ġmuzzle": 21324,
    "ling": 737,
    "name": 6795,
    "Ġparaph": 22124,
    "Ġwished": 3731,
    "answers": 22144,
    "Ġintegration": 9871,
    "disposed": 25013,
    "stood": 4115,
    "Ġinfluence": 5515,
    "Ġresolve": 13174,
    "Ġinterpre": 1590,
    "Ġhollowly": 24526,
    "writhed": 26081,
    "anchor": 13892,
    "Ġdevouring": 11862,
    "separ": 9233,
    "Ġuncontrollable": 25815,
    "Y": 61,
    "Ġsn": 2952,
    "Ġkirwin": 8498,
    "Ġmumbling": 11577,
    "Ġempty": 5354,
    "Ġhigh": 932,
    "Ġearned": 19408,
    "kept": 11721,
    "jury": 15377,
    "rebell": 17765,
    "abiding": 21797,
    "Ġcum": 21345,
    "propagation": 1261,
    "elfare": 11781,
    "account": 5330,
    "Ġbrow": 3988,
    "establishment": 26114,
    "Ġexploded": 15913,
    "Ġneighbourhood": 5126,
    "erringly": 16215,
    "pity": 17629,
    "orses": 6052,
    "Ġevenness": 22836,
    "Ġcler": 11776,
    "Ġshaster": 22002,
    "Ġbought": 8417,
    "Ġinferior": 8366,
    "Ġaccusation": 22385,
    "compasses": 19461,
    "shuff": 18487,
    "arness": 11674,
    "Ġfirm": 3873,
    "report": 13403,
    "itory": 12572,
    "Ġrocks": 6862,
    "conjectures": 25181,
    "Ġiroqu": 21627,
    "Ġabundantly": 17159,
    "dist": 4483,
    "Ġmortifying": 13249,
    "Ġleaves": 5021,
    "Ġrod": 9283,
    "Ġstables": 23657,
    "Ġpatagonian": 20538,
    "intention": 10370,
    "Ġbusier": 23341,
    "Ġmerchant": 6467,
    "Ġhog": 13927,
    "Ġcoils": 9306,
    "Ġ(âĢľ": 15999,
    "Ġod": 4441,
    "Ġcaution": 11348,
    "Ġsunwards": 19012,
    "Ġlysander": 13143,
    "hyme": 19612,
    "Ì": 141,
    "accepted": 20139,
    "Ġexhilarating": 26339,
    "Ġfools": 14484,
    "Ġemerge": 14931,
    "Ġtor": 8106,
    "Ġforg": 3789,
    "Ġmaj": 3928,
    "ct": 309,
    "Ġwhither": 10217,
    "Ġmodern": 3230,
    "Ġdisturbing": 19949,
    "onents": 8781,
    "Ġpal": 4042,
    "Ġsplintered": 11420,
    "Ġkate": 15909,
    "roses": 17959,
    "Ġacquaintances": 17353,
    "totally": 25418,
    "Ġhusband": 3620,
    "Ġwrists": 11115,
    "Ġdrank": 16537,
    "Ġentertaining": 16928,
    "ithmetic": 18064,
    "Ġlobsters": 13520,
    "scream": 11078,
    "hob": 20902,
    "'s": 2472,
    "plete": 10921,
    "any": 3339,
    "Ġamaz": 5385,
    "Ġbrah": 19360,
    "worship": 19390,
    "Ġbelieved": 4367,
    "Ġgleam": 12312,
    "Ġvide": 10253,
    "Ġrevellers": 21681,
    "Ġendeavouring": 8035,
    "Ġdishonor": 25602,
    "Ġdisagree": 22536,
    "Ġterr": 3274,
    "Ġgratified": 8021,
    "Ġquicker": 16510,
    "Ġlabor": 10420,
    "down": 3471,
    "errand": 22914,
    "Ġ133": 24782,
    "Ġapt": 9158,
    "irth": 5634,
    "Ġdivers": 9668,
    "Ġhearse": 10422,
    "Ġpatagonia": 25859,
    "Ġcollins": 2180,
    "Ġspitz": 14151,
    "Ġplush": 18611,
    "Ġdeserves": 13294,
    "Ġtracks": 18891,
    "Ġvincent": 15287,
    "Ġhint": 5016,
    "skull": 24488,
    "Ġroylott": 7304,
    "gam": 10098,
    "Ġfixed": 2685,
    "hig": 12479,
    "Ġserpent": 6738,
    "Ġmajor": 13296,
    "ded": 2756,
    "arer": 3969,
    "sius": 13791,
    "Ġgesture": 11401,
    "Ġref": 901,
    "Ġcoun": 4177,
    "letters": 13178,
    "Ġunalterable": 15855,
    "Ġgrasping": 12170,
    "lid": 20947,
    "slipped": 25530,
    "ectual": 21917,
    "humoured": 11239,
    "Ġbeads": 18086,
    "killed": 15380,
    "Ġliving": 3067,
    "Ġtra": 1383,
    "Ġformerly": 7492,
    "bishop": 13698,
    "abomin": 15746,
    "º": 123,
    "Ġastern": 6090,
    "bergen": 14330,
    "dutch": 17221,
    "cru": 7127,
    "Ġsc": 529,
    "overlooked": 23325,
    "Ġmember": 8588,
    "Ġsprout": 24092,
    "child": 5538,
    "ture": 7557,
    "anning": 10167,
    "achines": 1722,
    "Ġslope": 14464,
    "ridge": 9500,
    "asons": 6015,
    "Ġambitious": 18514,
    "chambers": 25455,
    "Ġimproves": 22764,
    "Ġoffic": 3190,
    "bres": 11473,
    "Ġcurious": 3361,
    "alcul": 15632,
    "Ġrobe": 18459,
    "Ġegg": 8823,
    "Ġge": 1978,
    "Ġsimil": 2530,
    "Ġinquiry": 6484,
    "assin": 22309,
    "Ġfled": 6672,
    "Ġplaited": 14287,
    "Ġdenying": 14660,
    "Ġdauntless": 26338,
    "Ġnin": 10190,
    "Ġescaped": 6459,
    "barn": 17485,
    "Ġline": 1848,
    "plun": 15819,
    "brave": 19826,
    "know": 2319,
    "Ġcontrols": 1730,
    "baden": 25616,
    "Ġunchanging": 22047,
    "Ġdearest": 5456,
    "Ġpage": 6978,
    "Ġsyntax": 960,
    "rict": 8093,
    "lighter": 20961,
    "Ġdied": 4110,
    "serv": 7450,
    "Ġeaten": 14848,
    "Ġvanish": 8931,
    "spr": 7434,
    "Ġimmured": 24075,
    "Ġdif": 871,
    "Ġcloset": 19594,
    "dig": 4930,
    "ser": 1425,
    "Ġeclipsed": 26378,
    "bale": 20776,
    "Ġclusters": 25233,
    "bru": 12443,
    "anth": 13890,
    "Ġtreatise": 19348,
    "Ġsl": 1496,
    "Ġlacepede": 20498,
    "lyph": 10854,
    "Ġintegrity": 12317,
    "Ġarchitect": 950,
    "cil": 8724,
    "don": 3545,
    "Ġhanded": 8217,
    "grant": 10429,
    "Ġfacetious": 20587,
    "Ġwaits": 23281,
    "Ġspouted": 14677,
    "Ġfunere": 22263,
    "Ġjoy": 3187,
    "Ġconceivable": 16615,
    "Ġtowers": 16740,
    "Ġoccasionally": 5590,
    "Ġxxxii": 24973,
    "Ġcasualty": 20344,
    "leaving": 10793,
    "Ġperhaps": 1908,
    "Ġoverjoy": 15966,
    "included": 19211,
    "Ġemm": 18005,
    "Q": 53,
    "Ġimplore": 24873,
    "cro": 13700,
    "ets": 1158,
    "Ġinjunction": 19620,
    "Ġaccidental": 16850,
    "enes": 5218,
    "Ġunscrew": 22042,
    "Ġoccas": 2702,
    "Ġdates": 6694,
    "vices": 21119,
    "Ġinsc": 7585,
    "Ġfiendish": 13332,
    "ciousness": 20819,
    "Ġtub": 7146,
    "rot": 21535,
    "Ġinstruction": 14349,
    "Ġferry": 24498,
    "Ġunerring": 15851,
    "little": 3352,
    "ellig": 521,
    "ellation": 12754,
    "appears": 12064,
    "Ġemblaz": 16236,
    "Ġdiabolism": 25515,
    "Ġhedge": 8364,
    "punishment": 15149,
    "Ġchronicled": 25329,
    "ect": 380,
    "Ġexercising": 19909,
    "unts": 12736,
    "Ġcrumpled": 16441,
    "Ġmagnificence": 20635,
    "plac": 15820,
    "Ġsanctified": 25883,
    "Ġart": 748,
    "ividually": 22092,
    "Ġgasfitters": 25041,
    "tish": 17679,
    "harpooneers": 8693,
    "Ġannealing": 1554,
    "Ġsuspecting": 14913,
    "Ġnich": 21523,
    "Ġmeasure": 3594,
    "aments": 12730,
    "Ġcapt": 1290,
    "!_âĢĿ": 11378,
    "mingled": 14716,
    "ty": 1002,
    "Ġtendons": 19811,
    "Ġveins": 8935,
    "Ġblanched": 26284,
    "rest": 1632,
    "hus": 5072,
    "became": 10517,
    "Ġshells": 20367,
    "osures": 22265,
    "founded": 16715,
    "Ġvit": 10248,
    "Ġdislike": 6048,
    "Ġfing": 3758,
    "Ġsend": 4106,
    "rossed": 11014,
    "Ġmechanical": 7937,
    "philosophy": 13584,
    "infer": 10147,
    "Ġsuspense": 9421,
    "brothers": 17026,
    "annica": 24562,
    "accidents": 19215,
    "Ġvindictive": 20473,
    "whenever": 11885,
    "Ġoutlast": 22317,
    "Ġknelt": 12163,
    "slouched": 24557,
    "Ġprior": 11320,
    "fifty": 12356,
    "Ġanybody": 5314,
    "sw": 4742,
    "abhorred": 17339,
    "bedded": 12447,
    "engines": 18930,
    "Ġwoke": 21292,
    "Ġadversary": 12178,
    "Ġanimation": 11154,
    "Ġgour": 21601,
    "cour": 4482,
    "voc": 8394,
    "Ġcaval": 25770,
    "ugging": 23292,
    "discredit": 24253,
    "raid": 3281,
    "Ġhump": 5854,
    "Ġslaves": 23173,
    "actorily": 25577,
    "Ġmythologies": 26215,
    "Ġinitialization": 1251,
    "Ġoblig": 3445,
    "Ġmaled": 21317,
    "Ġdropt": 23676,
    "regular": 3045,
    "Ġrealism": 18984,
    "Ġcrater": 16439,
    "begging": 22500,
    "Ġedward": 19153,
    "Ġpe": 850,
    "inburgh": 15493,
    "Ġsobbed": 14139,
    "Ġconversations": 9428,
    "Ġenthus": 7231,
    "Ġcure": 21343,
    "Ġinstantaneous": 14613,
    "Ġprovoking": 16745,
    "sentimental": 25682,
    "Ġunfit": 14789,
    "Ġmayhew": 12955,
    "gin": 4931,
    "Ġcoherent": 3263,
    "Ġattract": 11836,
    "Ġtrack": 7449,
    "Ġchilly": 25563,
    "omics": 21646,
    "acceptable": 25184,
    "Ġbull": 7839,
    "fab": 13719,
    "apology": 22338,
    "Ġathirst": 20601,
    "scotch": 25852,
    "Ġfloated": 7287,
    "Ġpall": 7582,
    "chard": 21690,
    "Ġgirl": 3090,
    "inex": 14095,
    "urer": 18124,
    "Ġconclusions": 10556,
    "blister": 24129,
    "Ġcountryside": 23598,
    "consolatory": 25307,
    "Ġglowing": 12287,
    "mathematics": 26305,
    "Ġfads": 21419,
    "Ġbrand": 16190,
    "Ġcanall": 10930,
    "Ġlaughs": 24118,
    "âĢĶâĢĻâĢĿ": 20067,
    "bloom": 24690,
    "Ġcustomary": 8673,
    "Ġenthr": 22750,
    "odes": 18122,
    "stalk": 21653,
    "Ġamongst": 8962,
    "urmountable": 15283,
    "loa": 18534,
    "Ġjane": 1757,
    "Ġsketches": 26272,
    "treasures": 26153,
    "sens": 8096,
    "Ġstrangely": 5677,
    "Ġrueful": 25582,
    "Ġtranquillize": 24756,
    "conducted": 25573,
    "northern": 23667,
    "Ġcrisis": 13130,
    "Ġsurrounding": 12167,
    "Ġoaks": 16935,
    "Ġbl": 1191,
    "Ġcripple": 11442,
    "oko": 18441,
    "_;": 6642,
    "Ġagrees": 22520,
    "Ġinterposed": 20622,
    "billows": 20239,
    "fears": 18530,
    "Ġcolleague": 17162,
    "anche": 10790,
    "Ġundertaken": 18988,
    "Ġstories": 10867,
    "rane": 17655,
    "Ġnatural": 1133,
    "ion": 296,
    "Ġeulogy": 26472,
    "smoking": 23914,
    "Ġevangel": 11282,
    "aret": 7416,
    "Ġunforgiving": 25996,
    "Ġdrawing": 3919,
    "blast": 9590,
    "coil": 23561,
    "terror": 18131,
    "Ġ500": 24324,
    "Ġheath": 15706,
    "inspect": 11561,
    "Ġrespite": 13158,
    "Ġbroken": 3448,
    "estone": 18365,
    "Ġdescription": 7428,
    "Ġcondition": 6764,
    "Ġinflamed": 13477,
    "Ġtreatment": 12076,
    "Ġmud": 11576,
    "suffer": 24329,
    "Ġlakeman": 6986,
    "Ġzoned": 22821,
    "Ġincommunicable": 26613,
    "Ġantiqu": 12149,
    "scattered": 22998,
    "Ġcontinual": 6777,
    "Ġadmirer": 16840,
    "perv": 1520,
    "ilib": 4116,
    "igen": 4831,
    "Ġscud": 14193,
    "Ġtass": 15473,
    "produced": 25415,
    "Ġelixir": 26557,
    "Ġflatt": 16249,
    "weep": 22687,
    "thed": 8831,
    "Ġencl": 16170,
    "wretched": 10743,
    "Ġweigh": 10896,
    "Ġhandled": 12942,
    "Ġencamped": 22804,
    "Ġdespatched": 23833,
    "Ġimpulsive": 19966,
    "arbuck": 2024,
    "ittingly": 18808,
    "Ġtorrents": 20059,
    "Ġharpooneer": 3772,
    "soc": 5175,
    "Ġlake": 5227,
    "Ġornament": 11724,
    "Ġown": 1006,
    "Ġblunder": 18820,
    "furthest": 19844,
    "noo": 9794,
    "Ġbrings": 11884,
    "Ġsherlock": 3895,
    "Ġtum": 5692,
    "Ġlaurel": 20656,
    "================": 3725,
    "Ġretreating": 19802,
    "Ġforth": 3462,
    "Ġentit": 22747,
    "Ġstructural": 2796,
    "Ġreached": 4024,
    "chester": 23809,
    "Ġnocturn": 18376,
    "Ġcompass": 4410,
    "fortun": 3540,
    "gard": 7338,
    "Ġwhirlpool": 20657,
    "Ġarctic": 12815,
    "Ġmar": 1309,
    "engineer": 23151,
    "influ": 9544,
    "flies": 19427,
    "fed": 11490,
    "Ġmathematics": 12078,
    "pregn": 18499,
    "Ġsaxon": 25469,
    "Ġdestabilizing": 5053,
    "Ġrighted": 23182,
    "Ġguardian": 14945,
    "rey": 12543,
    "Ġsubord": 22792,
    "Ġforked": 11667,
    "surprising": 16921,
    "painful": 13505,
    "miles": 10714,
    "Į": 239,
    "Ġlip": 6533,
    "blunder": 24131,
    "Ġhatty": 19267,
    "arpening": 21446,
    "byter": 16216,
    "Ġcontinent": 14891,
    "Ġhim": 475,
    "Ġroanoke": 22411,
    "gerine": 22891,
    "Ġcatch": 4443,
    "Ġoptimizer": 5035,
    "Ġalexander": 17427,
    "Ġindependent": 9019,
    "Ġunprotected": 22069,
    "ý": 190,
    "Ġreceives": 20357,
    "ogne": 12945,
    "Ġdefinitions": 22947,
    "Ġcedar": 15192,
    "belled": 24040,
    "opÃ¦": 12877,
    "Ġmagnet": 10392,
    "Ġconcerned": 5332,
    "breat": 10081,
    "Ġdarling": 12609,
    "Ġexpands": 25238,
    "proud": 9907,
    "next": 5892,
    "._": 3222,
    "Ġimproving": 1211,
    "Ġunlikely": 10910,
    "³": 116,
    "Ġabsence": 4895,
    "Ġgentlemanly": 19318,
    "Ġhints": 8431,
    "Ġstated": 9692,
    "stun": 18021,
    "gia": 20878,
    "ounced": 4954,
    "Ġdisregarded": 22534,
    "darted": 20834,
    "Ġalarmed": 6922,
    "Ġimposing": 11787,
    "Ġdismally": 20217,
    "Ġallen": 5160,
    "original": 9088,
    "Ġsisterly": 16307,
    "Ġundue": 25994,
    "ated": 728,
    "Ġleast": 2062,
    "Ġtechnique": 2288,
    "Ġfurthest": 22817,
    "Ġmelted": 19624,
    "Ġbay": 9171,
    "Ġtrance": 12847,
    "matical": 13133,
    "provid": 11151,
    "waving": 21134,
    "Ġdru": 8423,
    "Ġalternative": 19990,
    "pursuit": 20343,
    "Ġcrosses": 23065,
    "Ġadvancement": 24475,
    "oot": 13768,
    "lungs": 26136,
    "person": 7745,
    "rece": 21237,
    "het": 5435,
    "Ġtoken": 2037,
    "Ġusing": 716,
    "Ġinvoked": 19146,
    "Ġdecaying": 2249,
    "Ġwad": 13854,
    "Ġscornful": 24999,
    "Ġbiting": 17863,
    "Ġjustice": 5111,
    "Ġanything": 2186,
    "englishman": 23677,
    "Ġrelative": 11887,
    "ologies": 18774,
    "accur": 14595,
    "izing": 1070,
    "Ġpreference": 9736,
    "Ġburg": 23654,
    "atlantic": 15527,
    "speps": 14339,
    "calabash": 22898,
    "flesh": 13494,
    "chor": 6147,
    "Ġcologne": 12980,
    "untarily": 6313,
    "Ġbeen": 626,
    "Ġnortheast": 23205,
    "x": 92,
    "Ġfeeds": 16437,
    "Ġreproofs": 24893,
    "Ġadvert": 10574,
    "games": 20882,
    "Ġdistressing": 12223,
    "sur": 4525,
    "composed": 14743,
    "particulars": 11317,
    "Ġpassions": 7930,
    "Ġtwig": 11854,
    "Ġsoliloqu": 11889,
    "Ġjavan": 25000,
    "Ġanointing": 25540,
    "Ġheathenish": 13620,
    "zed": 8104,
    "nets": 9135,
    "Ġdiameter": 19869,
    "Ġmouthful": 16576,
    "abeth": 907,
    "changing": 10856,
    "Ġcomfor": 14055,
    "moments": 19415,
    "harpo": 4806,
    "Ġendowed": 18925,
    "Ġwhoa": 22424,
    "Ġscuttle": 7413,
    "Ġdiscerned": 25006,
    "Ġgaieties": 24198,
    "Ġeddies": 25089,
    "harrow": 20910,
    "Ġconfession": 11238,
    "ceed": 1078,
    "Ġapproximates": 2416,
    "Ġreminiscences": 26271,
    "jumped": 20249,
    "Ġstrikes": 13185,
    "Ġcreature": 2383,
    "problems": 11436,
    "Ġhipp": 21495,
    "Ġelbows": 18634,
    "Ġrelish": 14387,
    "actor": 11841,
    "watch": 6119,
    "rible": 3229,
    "hy": 4741,
    "Ġladyship": 5046,
    "ress": 931,
    "Ġveiled": 16204,
    "asable": 21544,
    "Ġtool": 21514,
    "avenza": 17105,
    "Ġexcuses": 19042,
    "Ġhose": 12632,
    "Ġgroups": 3721,
    "awe": 20767,
    "Ġcounterpane": 11345,
    "Ġlevers": 18067,
    "Ġcontextually": 11962,
    "Ġlandowner": 23384,
    "Ġdistance": 3485,
    "Ġclamped": 18433,
    "Ġconfirmation": 17213,
    "Ġrestoration": 19026,
    "Ġprodu": 1206,
    "storm": 9685,
    "Ġdisguise": 10049,
    "Ġdexter": 9703,
    "Ġfriendship": 7245,
    "Ġprimal": 17108,
    "disgraceful": 26077,
    "Ġtranspointed": 22468,
    "xology": 21144,
    "Ġcruis": 14626,
    "Ġgossip": 18471,
    "Ġsurmount": 20004,
    "Ġneighbors": 25807,
    "les": 1015,
    "Ġtepid": 26414,
    "rs": 7807,
    "Ġpistols": 17332,
    "patient": 25343,
    "Ġdeaf": 12726,
    "poor": 6061,
    "py": 17626,
    "Ġgale": 5823,
    "Ġnoise": 1072,
    "Ġrecurrent": 1803,
    "Ġobeisance": 19761,
    "@": 36,
    "Ġpy": 21454,
    "Ġbizarre": 17873,
    "Ġincumbent": 16069,
    "Ġanticipation": 17058,
    "smile": 23909,
    "Ġhissing": 15794,
    "Ġdevoted": 6574,
    "Ġsheer": 14153,
    "âĢĶâĢľ_": 13208,
    "vely": 3869,
    ")âĢĶ": 20744,
    "Ġmonarchs": 25851,
    "Ġspam": 7630,
    "estate": 12826,
    "ã": 164,
    "rendering": 22344,
    "Ġpositively": 13036,
    "Ġgreenness": 23770,
    "Ġsandwich": 19831,
    "adow": 18090,
    "Ġerecting": 24653,
    "fill": 15354,
    "Ġimpenit": 22401,
    "Ã¦us": 14820,
    "Ġstage": 7388,
    "Ġpsychology": 11450,
    "lives": 12490,
    "ospel": 17012,
    "Ġpeered": 18669,
    "Ġfranc": 16355,
    "menced": 23149,
    "Ġnewfound": 22935,
    "Ġdecomposes": 5506,
    "Ġinscriptions": 20012,
    "Ġartistic": 18613,
    "Ġpatted": 16389,
    "Ġransacked": 26507,
    "Ġparallelization": 3430,
    "Ġdisturbed": 8675,
    "Ġunallied": 22034,
    "tasted": 17689,
    "Ġswim": 3822,
    "Ġadvoc": 13002,
    "caroline": 24152,
    "Ġtru": 4105,
    "Ġvacancies": 24345,
    "ousings": 18331,
    "blame": 14796,
    "Ġsuperglue": 23459,
    "Ġsuperlatively": 26076,
    "æ": 167,
    "solut": 3364,
    "displayed": 20738,
    "source": 11528,
    "puzzling": 26144,
    "Ġmoses": 21318,
    "xter": 9149,
    "Ġfrenz": 25447,
    "him": 1939,
    "Ġrender": 8305,
    "bing": 7791,
    "Ġopinions": 9418,
    "Ġceler": 15555,
    "Ġstruggling": 12079,
    "Ġsplendidly": 25328,
    "Ġdemi": 25549,
    "enjoy": 10776,
    "Ġindifferent": 6175,
    "zwilliam": 5074,
    "Ġfi": 937,
    "Ġblanket": 8343,
    "Ġbroad": 3639,
    "ility": 623,
    "Ġ57": 24321,
    "benevolently": 25601,
    "Ġlucerne": 23867,
    "emporary": 15800,
    "Ġeasterly": 25963,
    "Ġbeck": 14012,
    "Ġinterrupt": 4359,
    "Ġentering": 6286,
    "Ġabode": 7900,
    "Ġly": 2270,
    "Ġviolation": 23409,
    "Ġconvincing": 19310,
    "Ġliable": 14231,
    "Ġ31": 12135,
    "sebastian": 21824,
    "conviction": 19968,
    "headed": 4318,
    "Ġeloquent": 16115,
    "bes": 6643,
    "loveliness": 26551,
    "Ġtrouble": 3692,
    "Ġdepth": 2439,
    "Ġbutcher": 18272,
    "Ġgravel": 14105,
    "Ġjamming": 17267,
    "Ġoriginally": 7303,
    "prot": 6898,
    "Ġtalker": 23374,
    "pursu": 11394,
    "terrors": 25044,
    "allowance": 16826,
    "Ġmasoned": 20254,
    "Ġlug": 15656,
    "load": 12886,
    "Ġunaware": 22061,
    "sustained": 20571,
    "Ġcasket": 19727,
    "henomena": 20275,
    "Ġemail": 19076,
    "Ġapparent": 5466,
    "Ġunmingled": 18264,
    "Ġoverhanging": 22354,
    "Ġtravellers": 11310,
    "Ġ73": 24263,
    "Ġobjection": 6586,
    "_).âĢĶ": 8685,
    "itten": 3441,
    "Ġsplitting": 4384,
    "Ġinconceivable": 17940,
    "Ġfaultless": 24540,
    "unpardonable": 21894,
    "leeward": 15214,
    "emorial": 10244,
    "Ġallures": 22010,
    "Ġafterwards": 3532,
    "Ġcot": 13880,
    "Ġsty": 6252,
    "ran": 11518,
    "Ġearthquake": 14630,
    "å": 166,
    "Ġyes": 2688,
    "aspect": 10196,
    "net": 1195,
    "Ġencircling": 26273,
    "Ġconcernment": 23646,
    "Ġpantheistic": 26337,
    "Ġhappiness": 2947,
    "ause": 1312,
    "Ġlustrous": 20159,
    "Ġappetite": 12388,
    "Ġmarvels": 11085,
    "Ġfluctuating": 24417,
    "Ġnarrower": 24354,
    "entary": 21570,
    "Ġmaketh": 15191,
    "Ġshelf": 12272,
    "aside": 10194,
    "delightful": 12201,
    "Ġtobacco": 8367,
    "Ġrepaired": 13112,
    "Ġsubtlety": 24779,
    "Ġanswering": 7476,
    "Ġquarrels": 16568,
    "iles": 2858,
    "Ġbreaching": 23350,
    "Ġunconsciously": 10008,
    "Ġsacr": 7193,
    "Ġair": 1834,
    "Ġcrucial": 9896,
    "Ġbordeaux": 24565,
    "Ġdeep": 796,
    "Ġcontr": 1913,
    "midnight": 14905,
    "uary": 11540,
    "mind": 4628,
    "Ġri": 3395,
    "ogn": 2464,
    "Ġpauper": 26180,
    "her": 488,
    "Ġbat": 10797,
    "orphans": 26442,
    "Ġattractions": 12921,
    "Ġremonstrate": 22798,
    "Ġ88": 19714,
    "Ġanecd": 20157,
    "ria": 15801,
    "prospect": 23399,
    "hip": 8744,
    "Ġintent": 6409,
    "yn": 7819,
    "features": 14803,
    "Ġstabbing": 20306,
    "Ġdante": 21441,
    "Ġidolator": 20001,
    "Ġtistig": 26415,
    "tr": 3580,
    "Ġtapering": 8775,
    "din": 8374,
    "crack": 19843,
    "getic": 12971,
    "Ġhuzza": 12638,
    "Ġgordon": 26469,
    "Ġcasting": 12105,
    "Ġcachalot": 17836,
    "Ġpossible": 2585,
    "Ġmoritz": 11910,
    "Ġfragrant": 13098,
    "Ġwerter": 15243,
    "ckles": 22093,
    "Ġfossil": 12391,
    "Ġsp": 457,
    "Ġnoticed": 5549,
    "Ġkept": 3347,
    "Ġdishes": 16054,
    "Ġobjections": 8567,
    "Ġevap": 19626,
    "Ġintervened": 25482,
    "attentive": 17192,
    "disposition": 10045,
    "Ġabreast": 18395,
    "Ġdare": 3546,
    "Ġsigma": 1541,
    "Ġisinglass": 21806,
    "Ġconcern": 2655,
    "refuge": 24733,
    "uzzle": 19586,
    "Ġbackbones": 22664,
    "Ġvoice": 2190,
    "hanging": 10103,
    "Ġcorrupt": 11927,
    "Ġpursuers": 13231,
    "Ġdischarged": 15224,
    "Ġprey": 6415,
    "Ġxli": 14544,
    "stream": 15691,
    "Ġforeshadowing": 26594,
    "Ġobserving": 6080,
    "este": 15925,
    "Ġadditionally": 1177,
    "Ġmalignity": 10559,
    "iom": 20917,
    "Ġsaith": 14158,
    "Ġdiscipl": 22788,
    "geons": 15983,
    "Ġexpressive": 8985,
    "ably": 1845,
    "threshold": 21991,
    "Ġeaster": 15679,
    "Ġcubic": 20091,
    "Ġfreemason": 23212,
    "pede": 19932,
    "Ġcal": 1323,
    "december": 25559,
    "Ġprofusion": 23570,
    "atches": 13849,
    "Ġloomed": 12305,
    "uarded": 21108,
    "ople": 2320,
    "conduct": 11801,
    "all": 486,
    "Ġstre": 2107,
    "peddling": 21034,
    "Ġjacobians": 2894,
    "dwelling": 20567,
    "rying": 3189,
    "silenced": 24423,
    "Ġmight": 964,
    "spirited": 19756,
    "darkness": 9515,
    "Ġmornings": 16241,
    "Ġboxes": 13378,
    "ois": 9137,
    "Ġc": 277,
    "Ġgarn": 13966,
    "Ġcheck": 7270,
    "Ġorders": 5341,
    "Ġcriminals": 19924,
    "gratification": 24348,
    "arrested": 15605,
    "Ġplaced": 3444,
    "Ġgener": 598,
    "bent": 15315,
    "bunger": 20405,
    "Ġbenignity": 18783,
    "iline": 21724,
    "gates": 20874,
    "Ġmon": 1250,
    "Ġcollinses": 19131,
    "Ġpreserve": 7528,
    "Ġinvent": 7164,
    "hibited": 17430,
    "Ġcircumnavigation": 20403,
    "alive": 10829,
    "shrouded": 26363,
    "Ġpassing": 4315,
    "shop": 14238,
    "gainst": 25144,
    "plex": 696,
    "Ġrelated": 3717,
    "Ġindelible": 25695,
    "aloud": 17943,
    "infidel": 24664,
    "farmer": 25900,
    "Ġindignity": 18835,
    "streamed": 25967,
    "tps": 11537,
    "asant": 17961,
    "deaux": 22152,
    "vens": 21115,
    "quid": 18149,
    "Ġmichael": 20682,
    "Ġunsh": 14118,
    "Ġexponentially": 1443,
    "Ġthoughtless": 16196,
    "Ġbrute": 8930,
    "Ġphrases": 2795,
    "Ġbidirectional": 3756,
    "Ġregulations": 18590,
    "Ġhans": 12631,
    "<PAD>": 0,
    "telling": 14442,
    "Ġprices": 15616,
    "Ġunwell": 22019,
    "irations": 18173,
    "Ġsymptoms": 8708,
    "Ġserm": 9636,
    "Ġforms": 6397,
    "Ġconscience": 6928,
    "ource": 5244,
    "Ġdwell": 5813,
    "Ġsenate": 25215,
    "Ġtunnel": 14933,
    "Ġconsiderable": 4007,
    "Ġalike": 8147,
    "bacc": 7794,
    "Ġobserv": 8589,
    "purposes": 25024,
    "Ġpantaloons": 20299,
    "Ġspire": 18307,
    "contrast": 25595,
    "Ġoutlandish": 12843,
    "Ġthomas": 17950,
    "scy": 21058,
    "frost": 15110,
    "Ġdarted": 4759,
    "Ġrustling": 24714,
    "foundered": 20869,
    "dles": 11483,
    "ly": 319,
    "Ġneighb": 14079,
    "fur": 6356,
    "Ġwholesome": 16009,
    "hammered": 19005,
    "taste": 10132,
    "Ġcomprises": 22577,
    "Ġappo": 8500,
    "Ġtackles": 8051,
    "Ġgreatness": 12949,
    "Ġrealise": 16340,
    "cheeked": 19342,
    "Ġjoyous": 14666,
    "Ġreasonably": 11095,
    "Ġassented": 17341,
    "thank": 4950,
    "ribute": 7225,
    "Ġwick": 2005,
    "ners": 3272,
    "leisure": 21374,
    "ingle": 1036,
    "erect": 20850,
    "ruin": 22190,
    "Ġgroan": 13329,
    "aving": 2404,
    "Ġfrankly": 16747,
    "Ġpicking": 11261,
    "Ġrol": 3556,
    "Ġlisten": 4675,
    "turn": 4292,
    "Ġlowerings": 23649,
    "Ġhope": 1788,
    "ings": 631,
    "tailed": 17687,
    "engaged": 7451,
    "Ġspiracle": 14152,
    "Ġnash": 5820,
    "Ġlinks": 13958,
    "Ġlivelong": 25512,
    "Ġreappeared": 21668,
    "homely": 25618,
    "Ġphaeton": 17467,
    "Ġdeigned": 18140,
    "Ġcranes": 20386,
    "Ġsing": 3077,
    "vo": 11542,
    "Ġtimidity": 24688,
    "Ġwhere": 785,
    "Ġdeadly": 5405,
    "Ġfanciful": 24787,
    "Ġfejee": 18354,
    "Ġvill": 3880,
    "Ġweld": 8112,
    "Ġunwarrantable": 26346,
    "covenant": 23564,
    "solitary": 14507,
    "Ġprogramming": 1185,
    "Ġdispleased": 18555,
    "Ġdejected": 20307,
    "Ġ43": 14772,
    "Ġvindictiveness": 25739,
    "Ġoffers": 12952,
    "ckery": 22094,
    "Ġunexpected": 6840,
    "Ġencountering": 11271,
    "unken": 10239,
    "Ġconsider": 2568,
    "Ġxxxiv": 24970,
    "Ġpronounced": 8351,
    "woof": 21142,
    "Ġslippers": 19618,
    "Ġassuring": 13069,
    "Ġproc": 5545,
    "Ġmending": 17806,
    "Ġunremitting": 26219,
    "countenance": 6924,
    "Ġdisreputable": 22538,
    "Ġintrospective": 20603,
    "Ġ235": 25712,
    "Ġfirmness": 11240,
    "driver": 14924,
    "Ġcaliforn": 14434,
    "Ġparties": 7039,
    "ulating": 10889,
    "Ġtur": 2563,
    "Ġexpectation": 6903,
    "Ġvortex": 26210,
    "Ġourselves": 5127,
    "Ġblew": 9048,
    "assemblies": 25957,
    "avings": 12027,
    "Ġbelfry": 26440,
    "Ġskil": 14355,
    "Ġstores": 18074,
    "Ġlucky": 7758,
    "Ġlimits": 3453,
    "Ġelij": 8912,
    "Ġmaze": 23834,
    "Ġbustle": 17230,
    "hyp": 15370,
    "bid": 5611,
    "Ġdivine": 6920,
    "iment": 2813,
    "Ø": 153,
    "commodore": 20628,
    "Ġchina": 8040,
    "bulk": 19926,
    "Ġconse": 21808,
    "Ġmonsieur": 12425,
    "depths": 25664,
    "Ġscrolled": 22288,
    "azore": 23464,
    "\\": 64,
    "Ġspots": 11733,
    "crews": 15045,
    "Ġfraud": 19028,
    "scissors": 20729,
    "Ġcupboard": 16885,
    "Ġtwelfth": 22681,
    "Ġhumiliating": 22887,
    "Ġdent": 13909,
    "Ġesteemed": 10591,
    "Ġdut": 2991,
    "Ġheroes": 10579,
    "Ġacting": 10993,
    "Ġvalu": 5039,
    "Ġchaps": 14182,
    "Ġblooming": 17215,
    "end": 495,
    "ifer": 11688,
    "Ġtwice": 4663,
    "Ġdum": 10813,
    "Ġamphitheat": 26253,
    "iloqu": 11651,
    "Ġtarred": 23611,
    "Ġreproach": 9559,
    "Ġmysterious": 7526,
    "Ġawaken": 23588,
    "historian": 25735,
    "Ġbeautiful": 3673,
    "itics": 13875,
    "Ġbreezes": 14872,
    "!_âĢĶ": 19976,
    "Ġdiabol": 11455,
    "Ġchalk": 15937,
    "ounce": 6558,
    "collinses": 19925,
    "Ġmonarch": 14419,
    "ĠĠĠĠĠĠĠĠĠĠĠĠĠĠĠĠĠĠĠĠĠĠĠĠĠĠĠĠĠĠĠĠĠĠĠĠĠĠĠĠĠĠĠĠĠĠĠĠĠĠĠĠĠ": 20043,
    "Ġanoint": 25538,
    "Ġsexes": 25172,
    "Ġspace": 1499,
    "Ġbison": 21391,
    "saw": 5894,
    "Ġmerchants": 23735,
    "Ġacquiring": 2766,
    "notches": 22753,
    "church": 8140,
    "Ġstake": 14007,
    "Ġbrit": 6290,
    "Ġseclusion": 18209,
    "inished": 17736,
    "pointing": 12229,
    ",)": 9104,
    "Ġexclamation": 8702,
    "Ġsoil": 9258,
    "Ġpersist": 16275,
    "Ĝ": 221,
    "rously": 17656,
    "Ġpraise": 6486,
    "Ġsucked": 14133,
    "Ġvapors": 19910,
    "Ġparticular": 2450,
    "Ġsinging": 7723,
    "arling": 10816,
    "Ġscepticism": 25928,
    "Ġpaltry": 16693,
    "pudding": 17649,
    "Ġweig": 7618,
    "Ġfragments": 19030,
    "queg": 1769,
    "garet": 9600,
    "learnt": 23559,
    "Ġpist": 12620,
    "blow": 9107,
    "Ġhat": 2771,
    "Ġjoyful": 13226,
    "Ġbes": 2660,
    "Ġvivacious": 19818,
    "Ġcabinets": 23865,
    "Ġmodel": 514,
    "Ġmagnificent": 9845,
    "Ġplaus": 22606,
    "Ġdiscriminator": 3392,
    "Ġcrimson": 16440,
    "according": 12032,
    "ilight": 12698,
    "Ġfortnight": 6201,
    "vicinity": 20483,
    "favourable": 12268,
    "saturday": 14861,
    "Ġassur": 6074,
    "Ġtwentieth": 18660,
    "Ġbuoyed": 20044,
    "Ġentranced": 25836,
    "Ġimparted": 15996,
    "Ġsooty": 25816,
    "early": 20122,
    "Ġabating": 22271,
    "Ġbewildered": 15217,
    "puzz": 17642,
    "Ġsixth": 16561,
    "quired": 21859,
    "Ġpoetic": 17104,
    "Ġdeclares": 16994,
    "Ġsociet": 9452,
    "balls": 12309,
    "Ġsavory": 23879,
    "wilful": 25152,
    "lances": 15387,
    "regulated": 23469,
    "iably": 13741,
    "âĢĻ": 378,
    "umps": 6318,
    "Ġprefer": 6416,
    "Ġoat": 21326,
    "posture": 16929,
    "Ġapplications": 4785,
    "Ġmoonshine": 19600,
    "Ġponderous": 8355,
    "permitted": 18344,
    "mistak": 16880,
    "Ġembedding": 2103,
    "Ġlung": 7167,
    "Ġsmacking": 20168,
    "Ġhonour": 3924,
    "Ġtallow": 14782,
    "Ġgable": 15671,
    "Ġtattooing": 15030,
    "ius": 5789,
    "Ġarg": 4767,
    "pride": 11212,
    "Ġerected": 12238,
    "prep": 9762,
    "Ġcyn": 13889,
    "ada": 14014,
    "orter": 4256,
    "âĢĶâĢĻ": 8188,
    "Ġbracing": 16582,
    "perceive": 12816,
    "Ġforgetting": 3435,
    "Ġdischarge": 18556,
    "contr": 12061,
    "Ġlima": 10444,
    "sixteen": 24854,
    "Ġenjoy": 3761,
    "unnecessary": 21884,
    "Ġthackeray": 26457,
    "Ġpart": 859,
    "Ġcabaco": 13171,
    "Ġmagician": 25061,
    "Ġattached": 5392,
    "Ġrhine": 12360,
    "Ġclear": 1948,
    "Ġborrow": 10173,
    "Ġbabel": 24426,
    "Ġworshipping": 22931,
    "reshold": 21242,
    "Ġtalk": 1969,
    "windibank": 24164,
    "grinder": 23418,
    "collected": 13217,
    "bingley": 4928,
    "Ġlose": 5028,
    "niest": 18974,
    "Ġneedles": 11186,
    "Ġthickest": 16657,
    "Ġwol": 15533,
    "Ġscalding": 16317,
    "Ġprograms": 7238,
    "Ġparm": 15881,
    "summoned": 26593,
    "ential": 825,
    "ald": 15629,
    "Ġhoney": 12637,
    "Ġbuilded": 24718,
    "Ġaccidentally": 9508,
    "Ġlabyrinth": 13683,
    "Ġtrue": 1336,
    "lac": 17591,
    "Ġhopkins": 23132,
    "Ġopen": 1550,
    "Ġcertainty": 6735,
    "cannot": 5745,
    "Ġrichest": 26213,
    "Ġvig": 5460,
    "ĠĠĠĠĠĠĠĠĠĠĠĠĠĠĠĠĠĠĠĠĠĠĠĠĠĠĠĠĠĠĠ": 19703,
    "crop": 20800,
    "Ġgestic": 21611,
    "nihil": 9851,
    "Ġseverest": 14094,
    "Ġexperiments": 23022,
    "Ġvii": 13113,
    "precipitance": 25868,
    "Ġdropped": 4473,
    "morrow": 4574,
    "Ġeasiness": 23539,
    "Ġimprudent": 12855,
    "Ġjungfrau": 15252,
    "buncle": 13696,
    "_âĢĶâĢĻâĢĿ": 25742,
    "Ġtimely": 19597,
    "Ġconversed": 13192,
    "Ġfishery": 4174,
    "asingly": 17963,
    "Ġobeyed": 12221,
    "Ġlaug": 3627,
    "Ġluxuries": 25167,
    "creatures": 7516,
    "Ġaunt": 3180,
    "Ġquakers": 22420,
    "rints": 12507,
    "Ġclosed": 4607,
    "already": 6980,
    "Ġemphasis": 20539,
    "Ġwis": 3730,
    "Ġsquare": 2395,
    "touched": 15442,
    "Ġyonder": 7391,
    "Ġfavourites": 16647,
    "Ġpropri": 6739,
    "Ġvindication": 25365,
    "Ġdisappo": 4508,
    "taining": 7205,
    "derick": 22166,
    "Ġnations": 8814,
    "queens": 22899,
    "ce": 313,
    "widely": 25344,
    "Ġrule": 1534,
    "Ġmines": 21311,
    "Ġprogeny": 17391,
    "Ġinde": 7370,
    "Ġfee": 7197,
    "iscreet": 20685,
    "apparently": 15208,
    "Ġinjurious": 24273,
    "cats": 17514,
    "Ġdoll": 10815,
    "Ġfig": 3624,
    "Ġ{": 21155,
    "oubled": 23648,
    "Ġcathedral": 17416,
    "Ġgu": 1325,
    "Ġdiscuss": 9477,
    "Ġdub": 13912,
    "Ġdissembling": 26256,
    "Ġunrestrained": 25555,
    "ressed": 3026,
    "Ġ77": 24266,
    "Ġdisorder": 16055,
    "Ġdisappointment": 6628,
    "Ġquite": 1740,
    "Ġfug": 12600,
    "Ġavenues": 25430,
    "Ġchewing": 23287,
    "Ġrivals": 20274,
    "promote": 24726,
    "Ġoccupied": 5273,
    "uracy": 1102,
    "alarms": 21508,
    "pot": 10120,
    "ivility": 12794,
    "Ġclearing": 8240,
    "sleepy": 24728,
    "rael": 21632,
    "Ġerect": 6144,
    "Ġvaluable": 5608,
    "Ġcontemplate": 19894,
    "Ġfre": 1571,
    "Ġdong": 17889,
    "Ġcor": 1320,
    "handed": 7481,
    "backward": 2683,
    "Ġresemblance": 7973,
    "Ġcrony": 23441,
    "stre": 5451,
    "Ġdisposition": 5409,
    "imens": 1746,
    "Ġventil": 8019,
    "Ġapo": 9633,
    "Ġstock": 7454,
    "Ġchrysalis": 26540,
    "Ġprevailed": 7777,
    "Ġgrievous": 13265,
    "conclusive": 25674,
    "Ġgodfrey": 15297,
    "Ġquieted": 23846,
    "ivorous": 22091,
    "dinner": 11408,
    "az": 2181,
    "Ġremorseless": 13455,
    "Ġchallenge": 25472,
    "post": 6062,
    "Ġmetaphysical": 26070,
    "control": 16545,
    "lot": 3210,
    "etrics": 21588,
    "Ġidiot": 11976,
    "Ġtouched": 6001,
    "urry": 13996,
    "Ġkings": 7196,
    "Ġexult": 10232,
    "Ġstacks": 18080,
    "Ġju": 10289,
    "useness": 22296,
    "Ġvisual": 5741,
    "Ġappearances": 10453,
    "erne": 21272,
    "Ġdream": 3539,
    "Ġearning": 23944,
    "Ġunquestionable": 26223,
    "ortunities": 15945,
    "Ġbrawn": 10484,
    "shire": 3024,
    "define": 1526,
    "Ġamber": 7027,
    "mmar": 955,
    "order": 1958,
    "Ġwear": 6031,
    "Ġchambers": 16801,
    "Ġwrithing": 11950,
    "Ġleatherhead": 20017,
    "Ġinterconnected": 1335,
    "Ġcomputing": 2222,
    "stones": 11639,
    "quarrel": 20018,
    "undant": 14794,
    "Ġdews": 21841,
    "crew": 7543,
    "whales": 5187,
    "Ġdrag": 6185,
    "itiously": 13874,
    "Ġsits": 10770,
    "surf": 24215,
    "Ġunparalleled": 15857,
    "Ġthink": 986,
    "Ġwaif": 9378,
    "Ġsash": 17756,
    "doc": 23379,
    "Ġlevelled": 11286,
    "Ġvideos": 13610,
    "iac": 6226,
    "itching": 21338,
    "cd": 15326,
    "Ġ56": 24320,
    "Ġcontained": 7678,
    "Ġestablish": 9546,
    "Ġvision": 1562,
    "Ġinserted": 8356,
    "stoke": 18025,
    "clopÃ¦dia": 15260,
    "desol": 13222,
    "Ġamidst": 9497,
    "Ġmun": 12567,
    "Ġdeed": 7868,
    "Ġflutter": 16250,
    "Ġmeanly": 12914,
    "Ġinconvenience": 9566,
    "splash": 25210,
    "Ġgossiping": 26245,
    "itic": 11581,
    "Ġnaught": 8128,
    "Ġwip": 13856,
    "represent": 9640,
    "Ġhindoo": 17178,
    "Ġscuffle": 20611,
    "Ġclank": 15977,
    "Ġrejoicing": 13425,
    "many": 5251,
    "Ġpleased": 4064,
    "Ġenvironment": 3864,
    "Ġplan": 3884,
    "Ġmainland": 22652,
    "Ġslaughter": 20732,
    "thousand": 5547,
    "Ġshepherd": 14155,
    "ondency": 15273,
    "Ġagatha": 6865,
    "Ġseventh": 18207,
    "compan": 7300,
    "Ġfootsteps": 16574,
    "Ġcitations": 25438,
    "Ġarbit": 4652,
    "Ġearthly": 7990,
    "uguese": 20734,
    "cases": 12452,
    "Ġsetting": 7047,
    "Ġrapt": 7224,
    "Ġbill": 4041,
    "Ġonly": 788,
    "Ġmappings": 2147,
    "Ġcared": 8787,
    "Ġportions": 19372,
    "Ġpremises": 10490,
    "Ġlvi": 21556,
    "Ġauthorized": 16737,
    "Ġtackle": 9516,
    "Ġgemini": 26471,
    "Ġdaniel": 15115,
    "Ġstronger": 8581,
    "Ġfight": 5366,
    "Ġattacking": 24465,
    "extent": 22768,
    "Ġxx": 5492,
    "Ġexercise": 8359,
    "ject": 875,
    "perquis": 22189,
    "typewritten": 26039,
    "epend": 3315,
    "modern": 1171,
    "Ġafghan": 22632,
    "aps": 1229,
    "scratch": 26045,
    "[": 63,
    "Ġcalves": 13040,
    "Ġtour": 9150,
    "Ġbesee": 19245,
    "queer": 10365,
    "savagery": 25028,
    "ured": 1656,
    "Ġbrimming": 22870,
    "Ġcelerity": 17439,
    "utely": 8132,
    "Ġtoe": 13939,
    "Ġcaps": 8416,
    "Ġlouder": 13472,
    "inguished": 6599,
    "Ġpreluding": 18369,
    "companies": 24895,
    "Ġstraits": 7994,
    "Ġpowdered": 24240,
    "cst": 10087,
    "Ġunspeakably": 25173,
    "magnificent": 20277,
    "writer": 14650,
    "Ġbeh": 1801,
    "Ġexperiment": 11922,
    "Ġsocietal": 11438,
    "Ġ$": 21153,
    "Ġdesolate": 10016,
    "idly": 12705,
    "Ġpursue": 6315,
    "Ġaccount": 2321,
    "Ġseam": 3910,
    "for": 951,
    "lessly": 4558,
    "Ġlapl": 19780,
    "Ġcylinders": 25944,
    "Ġforce": 5092,
    "honour": 13471,
    "owe": 15713,
    "Ġgases": 21605,
    "Ġcoat": 4556,
    "gaz": 20880,
    "Ġferocity": 16868,
    "Ġindies": 22954,
    "carpet": 25203,
    "Ġspile": 22131,
    "Ġsupposing": 6730,
    "itates": 13872,
    "Ġglowed": 24865,
    "adventures": 20259,
    "Ġthings": 1961,
    "Ġerad": 25031,
    "sugg": 11846,
    "ail": 565,
    "rusion": 11325,
    "Ġconfirms": 23311,
    "lotts": 23829,
    "Ġbranch": 8332,
    "Ġdrowning": 19906,
    "arrange": 23769,
    "Ġbig": 5806,
    "Ġincorrupt": 19237,
    "Ġcommunicating": 16891,
    "Ġaccepted": 7750,
    "ival": 4227,
    "Ġsped": 22129,
    "Ġgrown": 5628,
    "ended": 1833,
    "Ġoutline": 15958,
    "ledge": 1326,
    "Ġtoilings": 24741,
    "ming": 3601,
    "Ġtimber": 13354,
    "Ġbrandy": 11051,
    "Ġmeal": 9700,
    "lig": 3176,
    "Ġafford": 4365,
    "isition": 11589,
    "kinder": 24846,
    "Ġheat": 5453,
    "Ġcheetah": 14504,
    "wer": 8396,
    "tempered": 13450,
    "Ġpermitting": 22394,
    "thodox": 21992,
    "G": 43,
    "Ġringed": 16752,
    "Ġwitnesses": 9489,
    "obedience": 17413,
    "Ġrooted": 13173,
    "throw": 14101,
    "cavity": 26127,
    "Ġphilipses": 24452,
    "attached": 11939,
    "library": 13004,
    "Ġcreases": 22730,
    "Ġmountains": 4429,
    "aw": 1448,
    "Ġhappily": 9334,
    "investigations": 25534,
    "Ġtenderly": 11316,
    "iogn": 20923,
    "jammed": 25907,
    "Ġpaddock": 25040,
    "Ġreasoner": 14444,
    "Ġinexper": 16982,
    "utmost": 21591,
    "Ġguest": 7248,
    "skill": 24487,
    "conditionally": 24835,
    "actions": 8910,
    "ernally": 22622,
    "Ġgenerator": 3383,
    "²": 115,
    "Ġimagine": 3925,
    "Ġjames": 6419,
    "unbe": 21876,
    "istle": 15874,
    "Ġimmemorial": 10513,
    "Ġdivision": 19447,
    "en": 271,
    "Ġhairy": 23868,
    "Ġcover": 3558,
    "Ġbanqu": 12593,
    "ene": 2169,
    "utral": 12668,
    "Ġthoroughfare": 16946,
    "Ġcovariate": 2350,
    "peaceful": 20450,
    "Ġoun": 13866,
    "hero": 21207,
    "iates": 13740,
    "brother": 7092,
    "Ġbreeds": 23351,
    "itary": 4752,
    "Ġserves": 4670,
    "Ġcourtesy": 9948,
    "Ġvices": 14086,
    "quely": 10234,
    "Ġhalls": 19528,
    "bon": 13688,
    "uv": 6230,
    "necessarily": 19634,
    "Ġpalace": 16691,
    "Ġsanely": 24983,
    "species": 13261,
    "Ġhates": 21489,
    "Ġnecks": 18189,
    "Ġqu": 606,
    "Ġvict": 3763,
    "Ġcasually": 25096,
    "purp": 8091,
    "Ġexisted": 15757,
    "care": 4929,
    "gate": 12471,
    "Ġrailway": 15023,
    "ocations": 23710,
    "ĠlinnÃ¦us": 15279,
    "Ġhoky": 17929,
    "Ġwindward": 6884,
    "produce": 20285,
    "Ġsatiated": 22905,
    "Ġowing": 6005,
    "knife": 6941,
    "Ġgrotes": 19566,
    "Ġromantic": 8031,
    "Ġoversampling": 20519,
    "crowded": 20193,
    "Ġprotect": 6338,
    "Ġfergus": 16869,
    "Ġgrego": 18963,
    "ux": 7813,
    "Ġnephew": 6405,
    "Ġencoun": 4514,
    "Ġdeliberately": 10627,
    "Ġeuroclydon": 15300,
    "Ġpron": 6451,
    "Ġwaving": 8578,
    "im": 327,
    "derbyshire": 18322,
    "wers": 12524,
    "Ġsophisticated": 1612,
    "explanation": 12362,
    "Ġmidday": 23634,
    "athies": 22703,
    "Ġexcell": 10419,
    "pretending": 17042,
    "ote": 4598,
    "Ġharder": 14452,
    "determine": 19947,
    "Ġhugh": 15006,
    "afforded": 25866,
    "sust": 15426,
    "Ġtoo": 1165,
    "Ġagric": 22519,
    "Ġpresum": 4839,
    "Ġsolved": 8934,
    "lished": 8383,
    "avoid": 9308,
    "Ġclimbing": 20073,
    "Ġscheme": 7065,
    "Ġfleets": 23777,
    "Ġringleader": 26214,
    "Ġlad": 2364,
    "Ġbearded": 15731,
    "Ġclues": 18429,
    "Ġhunters": 6301,
    "Ġfrance": 7681,
    "blown": 25202,
    "fields": 14655,
    "bered": 4507,
    "Ġcranial": 25593,
    "rug": 18346,
    "ands": 21870,
    "Ġdoubloon": 6944,
    "Ġbegins": 7243,
    "Ġcontentment": 14873,
    "Ġloop": 14149,
    "Ġparr": 22123,
    "oblivious": 26584,
    "Ġcombing": 22837,
    "very": 500,
    "Ġbrawny": 13617,
    "Ġfished": 21413,
    "Ġaccompl": 5167,
    "Ġcannon": 14156,
    "uncommon": 11685,
    "Ġmassa": 19457,
    "Ġtin": 15466,
    "Ġjudged": 12088,
    "Ġhavoc": 15817,
    "Ġflail": 23010,
    "Ġarches": 14163,
    "Ġhelen": 16658,
    "arpaul": 14538,
    "Ġvenetian": 14850,
    "Ġmisunderstood": 18707,
    "Ġrepeat": 8000,
    "leading": 15566,
    "Ġby": 383,
    "Ġdeposition": 18603,
    "Ġes": 8773,
    "Ġcaresses": 26060,
    "Ġerrors": 2596,
    "Ġasiatics": 20434,
    "Ġaisle": 21204,
    "Ġsympathetic": 17362,
    "inquiries": 13581,
    "orrah": 17877,
    "Ġfishes": 11594,
    "Ġpr": 1598,
    "iscre": 17852,
    "Ġsolve": 4196,
    "erred": 6376,
    "Ġosc": 2833,
    "Ġevenly": 4128,
    "Ġmach": 13860,
    "Ġeste": 6084,
    "Ġpagoda": 19791,
    "Ġcigarette": 20658,
    "tubs": 15134,
    "Ġsmelling": 16073,
    "Ġjapanese": 10635,
    "whether": 5320,
    "machines": 8385,
    "Ġmask": 1864,
    "affording": 23780,
    "//": 11465,
    "Ġpadded": 25039,
    "Ġstruggle": 3676,
    "Ġmitig": 1333,
    "Ġassemblage": 26354,
    "Ġreveren": 13201,
    "Ġjustify": 11074,
    "Ġrusty": 14967,
    "Ġstrip": 9424,
    "Ġdirest": 22710,
    "mit": 4934,
    "thence": 23403,
    "Ġconsist": 1933,
    "Ġtawny": 20485,
    "Ġ37": 24081,
    "Ġgoney": 14547,
    "suitableness": 26262,
    "enchant": 21286,
    "Ġpallor": 13519,
    "Ġsurvivor": 17366,
    "Ġplu": 8803,
    "Ġspirit": 3726,
    "Ġende": 21936,
    "Ġuttered": 7279,
    "ignity": 4375,
    "Ġimbued": 17458,
    "vings": 9754,
    "cream": 15334,
    "masts": 19428,
    "Ġdelicious": 14795,
    "Ġpeak": 16130,
    "Ġboats": 2636,
    "Ġsect": 17753,
    "osa": 22264,
    "Ġattracted": 8908,
    "Ġencomp": 12968,
    "Ġdisturbance": 15015,
    "Ġfounded": 8560,
    "Ġdisgracing": 26257,
    "angle": 22108,
    "Ġdebts": 8036,
    "Ġblacksmiths": 19875,
    "Ġlasted": 11056,
    "Ġmounttop": 19981,
    "Ġleaped": 8829,
    "ibles": 18788,
    "Ġane": 9184,
    "Ġsales": 12812,
    "Ġtwisted": 7227,
    "Ġclenched": 14210,
    "Ġsparkled": 13466,
    "Ġticking": 25036,
    "Ġspeedily": 7711,
    "urning": 12922,
    "aceti": 7112,
    "whaleman": 23439,
    "Ġdisobedience": 22539,
    "thinness": 25811,
    "Ġmass": 3781,
    "Ġgenerous": 6274,
    "Ġdisappearance": 9300,
    "turner": 19544,
    "Ġsadness": 13291,
    "Ġgritted": 22808,
    "Ġcandid": 4098,
    "Ġbutts": 15859,
    "Ġparcels": 25466,
    "Ġprecise": 7076,
    "friends": 8306,
    "unities": 15775,
    "edged": 15635,
    "Ġfishy": 16526,
    "turkish": 24533,
    "Ġspeaks": 11161,
    "Ġquadrille": 13544,
    "Ġupbraiding": 26228,
    "rived": 5373,
    "ġ": 226,
    "Ġvibration": 17100,
    "Ġsake": 4091,
    "Ġgift": 10842,
    "attent": 9362,
    "Ġpigs": 19750,
    "lie": 12487,
    "Ġdrugged": 12607,
    "Ġsperm": 1841,
    "Ġbol": 6242,
    "Ġoftener": 13569,
    "torture": 26152,
    "Ġinsight": 16532,
    "Ġlighted": 7064,
    "iting": 2158,
    "Ġchace": 14181,
    "road": 6678,
    "there": 1423,
    "direction": 17526,
    "hate": 20894,
    "Ġquitted": 5312,
    "tru": 10731,
    "Ġwounding": 19589,
    "lemag": 21375,
    "ienced": 5685,
    "Ġthrees": 23404,
    "bub": 15320,
    "Ġthree": 1370,
    "Ġpoul": 15617,
    "scru": 16246,
    "Ġcanoe": 9726,
    "which": 1706,
    "Ġunce": 11715,
    "Ġobservable": 25129,
    "counters": 25398,
    "sky": 12515,
    "Ġsavoury": 23880,
    "rodu": 1818,
    "venant": 22630,
    "Ġbravely": 23842,
    "Ġcomfort": 3439,
    "Ġdash": 8122,
    "verest": 13994,
    "Ġshabby": 14114,
    "Ġunob": 22017,
    "Ġtrinity": 22358,
    "Ġclinch": 18432,
    "Ġflask": 3042,
    "ah": 1832,
    "Ġhind": 9191,
    "Ġharpo": 1942,
    "wling": 11547,
    "Ġpol": 2576,
    "Ġpers": 1352,
    "Ġpump": 12626,
    "Ġcastle": 14720,
    "opening": 10315,
    "weigh": 18666,
    "Ġmelt": 21320,
    "ional": 1086,
    "Ġevolve": 3005,
    "Ġdeclines": 23966,
    "ikes": 8087,
    "bearings": 25372,
    "Ġaim": 10148,
    "Ġaltitude": 26204,
    "Ġexhib": 6350,
    "Ġfrantic": 7957,
    "Ġhowled": 12859,
    "Ġnod": 1886,
    "haps": 1672,
    "Ġinscrut": 10037,
    "Ġmisled": 22758,
    "hum": 3779,
    "igner": 21704,
    "brink": 23578,
    "Ġdim": 4758,
    "Ġrepairing": 25590,
    "§": 105,
    "Ġlbs": 11618,
    "irksome": 18175,
    "Ġentreated": 9954,
    "Ġbetween": 791,
    "collecting": 26082,
    "proper": 7470,
    "ubines": 22962,
    "hereafter": 19219,
    "aits": 20768,
    "Ġquery": 2481,
    "Ġindefinitely": 25222,
    "Ġfancy": 3747,
    "forming": 15924,
    "type": 16177,
    "Ġlewis": 15723,
    "nature": 5360,
    "Ġheaviest": 23327,
    "Ġliver": 14230,
    "unerative": 21900,
    "guilty": 19486,
    "bar": 7540,
    "Ġsheepfold": 25467,
    "Ġfoes": 11956,
    "Ġshades": 9466,
    "Ġrestore": 9383,
    "glit": 23853,
    "Ġhove": 17925,
    "Ġderick": 9368,
    "Ġforebodings": 17307,
    "appropri": 22848,
    "Ġbreaches": 14522,
    "frank": 7757,
    "Ġanalyze": 1586,
    "Ġguards": 16272,
    "ctu": 5088,
    "ification": 1027,
    "retch": 4372,
    "Ġcrate": 19121,
    "Ġegress": 21624,
    "walls": 25346,
    "Ġapparatus": 24909,
    "Ġsurvived": 14937,
    "Ġindicate": 23725,
    "io": 3804,
    "Ġcoals": 16082,
    "civilities": 24974,
    "Ġbears": 6828,
    "eddling": 11905,
    "joining": 19449,
    "console": 22477,
    "Ġentailed": 11030,
    "Ġnooks": 26012,
    "iluvian": 18063,
    "iard": 9604,
    "Ġfrigate": 13086,
    "st": 316,
    "consum": 12875,
    "lantern": 17431,
    "combined": 20323,
    "comes": 5394,
    "Ġvestige": 20066,
    "representation": 20199,
    "oun": 482,
    "jee": 17581,
    "gracechurch": 24582,
    "Ġsmith": 16071,
    "Ġ117": 19700,
    "possibility": 13366,
    "Ġeyed": 12672,
    "understanding": 1167,
    "Ġton": 15467,
    "aud": 8523,
    "Ġrole": 16002,
    "Ġwr": 1543,
    "Ġprodigy": 19795,
    "bourgh": 19105,
    "Ġrates": 1405,
    "disguise": 26307,
    "Ġcod": 8413,
    "taught": 17686,
    "Ġbumpkin": 20203,
    "Ġlessened": 19089,
    "ache": 8519,
    "Ġboomer": 20170,
    "Ġstrides": 22620,
    "Ġirreduc": 5491,
    "trial": 20353,
    "consc": 4842,
    "ishnoo": 10957,
    "allowing": 24358,
    "Ġconvent": 11671,
    "Ġcommendation": 13614,
    "Ġdinner": 4244,
    "Ġtransp": 4771,
    "Ġintellectual": 11403,
    "Ġscales": 4851,
    "Ġinterm": 14274,
    "Ġsodden": 25536,
    "expression": 10550,
    "Ġentra": 18700,
    "open": 7026,
    "Ġsiberia": 26162,
    "Ġcaptured": 7244,
    "Ġ182": 13241,
    "Ġnugent": 26459,
    "Ġdoes": 943,
    "Ġfors": 21775,
    "Ġsust": 7007,
    "adamite": 20596,
    "lings": 8749,
    "Ġunimaginable": 15250,
    "Ġsallied": 12542,
    "ru": 484,
    "Ġsuperl": 16446,
    "Ġbubbling": 17329,
    "13": 20752,
    "Ġflurry": 18862,
    "Ġfund": 2841,
    "Ġabated": 18391,
    "Ġcomo": 21846,
    "Ġtimorous": 24228,
    "Ġvariety": 8532,
    "Ġit": 339,
    "Ġcorporeally": 25729,
    "Ġshower": 11714,
    "Ġcatches": 23430,
    "Ġservant": 5764,
    "Ġcheat": 19020,
    "Ġoverdone": 22352,
    "Ġcastors": 23979,
    "Ġjohn": 5032,
    "Ġberkshire": 16886,
    "Ġtwisting": 18659,
    "zening": 21151,
    "Ġbesides": 3515,
    "forget": 11033,
    "Ġunt": 2294,
    "atter": 655,
    "violence": 16480,
    "mot": 17598,
    "Ġatone": 15806,
    "Ġgrowl": 16540,
    "arctic": 12615,
    "]": 65,
    "presently": 9810,
    "apse": 14201,
    "Ġestimate": 19376,
    "Ġguardsmen": 20633,
    "attendants": 25496,
    "Ġavail": 11228,
    "Ġtren": 17723,
    "uneasiness": 23687,
    "mou": 10710,
    "corner": 13401,
    "Ġknowledge": 1445,
    "Ġenables": 726,
    "Ġbells": 19604,
    "ignified": 14492,
    "ceptive": 15974,
    "jar": 17579,
    "single": 10129,
    "atig": 13848,
    "Ġtell": 1467,
    "avenue": 25060,
    "Ġflowing": 14414,
    "Ġvancouver": 26567,
    "agrad": 2746,
    "ckets": 6842,
    "strugg": 21665,
    "liness": 8750,
    "Ġcomposure": 7216,
    "umn": 5836,
    "Ġbacks": 8530,
    "ppers": 7617,
    "repaid": 24491,
    "uther": 8821,
    "Ġacross": 1327,
    "Ġspur": 18304,
    "vast": 10738,
    "es": 288,
    "Ġpropagating": 20636,
    "Ġheedfully": 24521,
    "Ġintelligible": 15944,
    "Ġmoby": 3666,
    "Ġbrains": 2629,
    "ruded": 15907,
    "ink": 755,
    "dangerous": 20243,
    "Ġconvolutions": 21811,
    "born": 7542,
    "Ġafrica": 12349,
    "ackled": 22428,
    "Ġgrowled": 19286,
    "Ġafter": 870,
    "Ġshol": 21999,
    "Ġdreary": 10410,
    "Ġroof": 6565,
    "Ġstubborn": 10416,
    "Ġlongitudes": 22636,
    "leton": 5148,
    "ationally": 15709,
    "quarter": 11390,
    "ars": 906,
    "Ġalleghan": 25796,
    "Ġdesire": 3719,
    "lemency": 21377,
    "warmest": 25030,
    "tempted": 26405,
    "sleep": 6511,
    "instruct": 19545,
    "Ġtigers": 25759,
    "aswag": 21549,
    "Ġignited": 25072,
    "Ġirish": 14536,
    "diligence": 26111,
    "use": 2534,
    "gird": 20881,
    "Ġprinces": 23225,
    "Ġprescribed": 26011,
    "Ġhyper": 19742,
    "Ġobvious": 4964,
    "Ġmarling": 23035,
    "Ġcorpore": 13405,
    "outside": 12809,
    "Ġcamberwell": 25351,
    "til": 17673,
    "Ġsher": 3764,
    "cold": 9592,
    "Ġfettered": 24569,
    "Ġchronicler": 20232,
    "wander": 17711,
    "Ġbreathing": 9448,
    "Ġcitizens": 25440,
    "Ġportraits": 20145,
    "resses": 16155,
    "Ġenvironmental": 24052,
    "gryphon": 15362,
    "Ġutensils": 23518,
    "anke": 15565,
    "missing": 13224,
    "gration": 9124,
    "Ġhempen": 13554,
    "Ġintroduces": 3270,
    "Ġcoast": 4657,
    "Ġdesiring": 14418,
    "soo": 18688,
    "Ġcontribut": 12864,
    "Ġcheating": 16370,
    "justified": 19004,
    "Ġfruit": 12330,
    "Ġvineyards": 25109,
    "Ġrow": 5246,
    "Ġthomson": 26456,
    "Ġascertained": 25297,
    "Ġaqu": 17744,
    "lement": 10169,
    "Ġconcent": 8250,
    "Ġhang": 9190,
    "Ġmischie": 22762,
    "Ġdid": 836,
    "Ġchief": 3382,
    "Ġseizing": 7879,
    "Ġped": 7845,
    "Ġexasperate": 20101,
    "Ġaffected": 5577,
    "Ġpatients": 24810,
    "ophisticated": 22482,
    "oided": 11511,
    "aded": 3550,
    "Ġapex": 24342,
    "Ġninetieth": 25358,
    "Ġended": 7950,
    "Ġblasphemy": 26116,
    "Ġconsistence": 23359,
    "Ġchose": 7412,
    "Ġnowhere": 12891,
    "Ġdaboll": 25951,
    "gypt": 8261,
    "Ġaccomplice": 24376,
    "success": 6711,
    "Ġrumors": 11323,
    "als": 2040,
    "Ġdeserving": 14756,
    "pre": 648,
    "itty": 3555,
    "Ď": 207,
    "Ġjo": 2608,
    "Ġround": 1369,
    "Ô": 149,
    "Ġslipping": 13365,
    "iced": 3902,
    "Ġpliny": 11829,
    "Ġexcurs": 23316,
    "Ġsine": 10765,
    "Ġplay": 2625,
    "Ġbid": 6132,
    "Ġmocking": 24006,
    "Ġoutlaws": 22327,
    "chancing": 22920,
    "Ġlecture": 13571,
    "cap": 8373,
    "Ġbriefly": 11369,
    "Ġgle": 7859,
    "Ġclustered": 25234,
    "lived": 12491,
    "immediate": 20097,
    "Ġmonoman": 7939,
    "Ġdeck": 2139,
    "architect": 22894,
    "Ġsaves": 18325,
    "¢": 100,
    "latter": 15386,
    "disreputable": 23507,
    "Ġgiving": 4085,
    "Ġhorizont": 6936,
    "Ġfulfil": 9554,
    "Ġbewit": 15732,
    "Ġrobbed": 23040,
    "etian": 13962,
    "Ġrevisit": 21673,
    "Ġtu": 6968,
    "Ġmasonry": 13603,
    "Ġseal": 10259,
    "companions": 15026,
    "edily": 17946,
    "Ġcell": 6238,
    "appl": 9329,
    "Ġtrim": 15971,
    "Ġreigns": 21674,
    "Ġinward": 11610,
    "Ġbaby": 6638,
    "Ġbeds": 14554,
    "mrs": 3746,
    "Ġxviii": 23413,
    "Ġwhole": 1664,
    "neither": 9761,
    "Ġpetersburgh": 24231,
    "Ġphrase": 11190,
    "Ġregularizer": 2339,
    "Ġmast": 2902,
    "Ġstone": 4647,
    "enhall": 13853,
    "devil": 7895,
    "Ġwaiting": 4323,
    "Ġlinn": 13956,
    "warp": 17708,
    "Ġbeasts": 10620,
    "Ġcordial": 16837,
    "lashed": 20956,
    "ulled": 14059,
    "Ġmargaret": 10379,
    "butter": 11789,
    "revolver": 25628,
    "Ġinsulted": 14995,
    "killer": 20479,
    "Ġpray": 3901,
    "pread": 7417,
    "settled": 10509,
    "Ġ64": 24367,
    "cup": 10694,
    "Ġaries": 21200,
    "Ġdefault": 3041,
    "flinging": 20870,
    "ench": 21282,
    "stays": 15693,
    "meas": 7433,
    "Ġceremony": 8361,
    "Ġhost": 7069,
    "obtained": 23099,
    "Ġlingo": 24904,
    "Ġdrop": 4344,
    "iteness": 4394,
    "imprudence": 16559,
    "Ġbride": 6292,
    "Ġcruises": 23705,
    "Ġdey": 11677,
    "ashions": 16421,
    "Ġascribe": 16784,
    "Ġtacit": 21177,
    "Ġoperate": 19117,
    "Ġmanifested": 17160,
    "Ġobsc": 7040,
    "Ġbrewed": 23349,
    "marks": 7345,
    "Ġnav": 5819,
    "erns": 8782,
    "Ġg": 310,
    "crat": 24088,
    "terns": 21826,
    "bohem": 19002,
    "Ġconsecrate": 26491,
    "atural": 936,
    "Ġglobe": 6076,
    "Ġtweezers": 26558,
    "Ġcontract": 18476,
    "coff": 9112,
    "liberal": 26283,
    "quadr": 15768,
    "Ġreddening": 25971,
    "fourths": 25510,
    "Ġundoing": 22037,
    "alt": 12643,
    "Ġbro": 1429,
    "ispensable": 9099,
    "Ġcircum": 8258,
    "Ġchristmas": 6923,
    "icherry": 15139,
    "ills": 1628,
    "worth": 8630,
    "add": 5229,
    "Ġsurvey": 13597,
    "Ġknight": 9730,
    "Ġretained": 7173,
    "cig": 17506,
    "Ġimpact": 10301,
    "Ġdissuade": 26258,
    "Ġcomrade": 11681,
    "Ġwrench": 12562,
    "Ġgarnery": 17390,
    "Ġeditions": 19154,
    "Ġhunsford": 6302,
    "erately": 21276,
    "Ġcourage": 4635,
    "Ġreigning": 15705,
    "Ġpicturesqueness": 24480,
    "secured": 16940,
    "Ġunwound": 24829,
    "Ġcontinuously": 23209,
    "Ġje": 4122,
    "Ġpave": 8804,
    "nephew": 26399,
    "Ġappearing": 9844,
    "Ġsurpass": 13587,
    "ploy": 1965,
    "Ġgouge": 26190,
    "insult": 16283,
    "preservation": 25306,
    "la": 10707,
    "Ġhateful": 19716,
    "Ġbuttoned": 25369,
    "questions": 16762,
    "lesc": 11040,
    "Ġplump": 14286,
    "recollected": 25348,
    "Ġextreme": 2515,
    "Ġmuhammad": 26170,
    "Ġdrops": 9035,
    "Ġbeneath": 3239,
    "Ġbowels": 9433,
    "waters": 11335,
    "unless": 9238,
    "Ġrendered": 5773,
    "unhesitatingly": 26498,
    "effect": 8607,
    "Ġcalhoun": 23046,
    "Ġacknowled": 6351,
    "Ġlass": 15652,
    "Ġkentuck": 19893,
    "hoped": 20912,
    "Ġtoday": 12648,
    "Ġbending": 12590,
    "Ġyore": 21782,
    "Ġincivility": 18575,
    "Ġeast": 5370,
    "filled": 9597,
    "Ġsqualid": 14371,
    "Ġvillages": 14751,
    "Ġfro": 3474,
    "Ġdesol": 6880,
    "alescence": 15928,
    "avail": 18607,
    "hatches": 19930,
    "Ġpolicy": 10459,
    "Ġrails": 22655,
    "Ġpetticoat": 15299,
    "Ġunsophisticated": 25993,
    "Ġstru": 2170,
    "Ġchapters": 10475,
    "Ġevangelical": 25507,
    "Ġhuman": 1316,
    "Ġpicturesque": 14897,
    "woman": 5899,
    "Ġvary": 15811,
    "inferior": 12398,
    "glim": 19368,
    "mercenary": 26316,
    "Ġwallow": 19469,
    "inian": 21185,
    "Ġunearthly": 9039,
    "venison": 22631,
    "Ġmulti": 1043,
    "withstand": 23028,
    "Ġanswerable": 23474,
    "Ġcorroborated": 26055,
    "Ġstung": 21745,
    "rubbery": 17345,
    "Ġpromises": 10403,
    "Ġilleg": 21626,
    "insurance": 18889,
    "itating": 9653,
    "Ġburning": 5977,
    "Ġvapor": 8703,
    "conversation": 7123,
    "old": 797,
    "Ġy": 341,
    "dro": 6646,
    "Ġimaginary": 11189,
    "thrasher": 25659,
    "Ġportcull": 23866,
    "fellow": 6792,
    "Ġo": 275,
    "Ġtempestuous": 20074,
    "meadow": 18680,
    "Ġindestruct": 22961,
    "Ġconscious": 7743,
    "Ġhow": 596,
    "endeavour": 17032,
    "examined": 17269,
    "Ġqualities": 7532,
    "Ġdropout": 1558,
    "Ġgoes": 3854,
    "appear": 13202,
    "Ġtugged": 17291,
    "54": 15303,
    "Ġadjusting": 3413,
    "moored": 22707,
    "Ġrough": 7186,
    "protection": 19922,
    "Ġwhal": 5454,
    "record": 16923,
    "anywhere": 14684,
    "Ġshot": 4546,
    "venerable": 26410,
    "imagine": 19934,
    "mody": 16189,
    "cart": 10692,
    "Ġpreternatural": 12828,
    "thickness": 25368,
    "sander": 11529,
    "istrate": 7405,
    "Ġaberdeen": 26543,
    "proved": 11991,
    "Ġabused": 22273,
    "Ġtemper": 958,
    "hors": 9601,
    "excitement": 19672,
    "astes": 11743,
    "Ġoppressively": 25711,
    "Ġsacrific": 15020,
    "awn": 3836,
    "Ġsanct": 15065,
    "Ġcommunic": 5751,
    "Ġcarcase": 14447,
    "ļ": 253,
    "fear": 8515,
    "Ġmissionary": 25697,
    "enough": 6809,
    "Ġbidden": 24647,
    "Ġdoctor": 5067,
    "Ġprospect": 4707,
    "Ġexhibiting": 19841,
    "Ġgrie": 3584,
    "itories": 15553,
    "Ġdup": 21430,
    "ictions": 14228,
    "?âĢĶ": 3470,
    "erie": 21274,
    "surprise": 9533,
    "Ġarmitage": 23583,
    "Ġpaced": 7583,
    "qualified": 17099,
    "missionary": 24616,
    "Ġpeninsula": 23199,
    "oct": 7553,
    "ensed": 10998,
    "Ġaccomp": 4714,
    "altering": 12645,
    "Ġcharted": 22254,
    "gor": 546,
    "idence": 4302,
    "Ġpurch": 6600,
    "Ġcracks": 12024,
    "Ġjig": 15955,
    "i": 77,
    "Ġchurned": 18386,
    "Ġislanders": 19505,
    "Ġcyp": 21348,
    "Ġparticulars": 5754,
    "clopÃ¦": 13061,
    "Ġpondicherry": 20494,
    "Ġpulverize": 23396,
    "Ġpanther": 16821,
    ";âĢĶ": 3751,
    "Ġknowest": 12868,
    "Ġtrusted": 10520,
    "Ġreservo": 16833,
    "Ġwhilst": 9221,
    "oice": 1382,
    "Ġmalignant": 14881,
    "rushing": 10021,
    "sand": 21055,
    "holes": 12058,
    "intelligence": 5883,
    "Ġunsub": 22025,
    "yet": 3754,
    "horror": 13163,
    "Ġreve": 2935,
    "Ġplacid": 11830,
    "Ġinvol": 1064,
    "Ġperceptibly": 25821,
    "ane": 1179,
    "Ġsank": 5076,
    "Ġlaugh": 4112,
    "Ġdiverged": 23596,
    "Ġtumble": 16881,
    "mistake": 24529,
    "Ġcard": 7362,
    "Ġconfirm": 9859,
    "Ġfelt": 1745,
    "Ġsy": 491,
    "Ġrushing": 7402,
    "aping": 8194,
    "Ġsteel": 3891,
    "draught": 12095,
    "Ġmoul": 15548,
    "Ġoverall": 4358,
    "Ġsinking": 7306,
    "sterdam": 19091,
    "Ġviolin": 16432,
    "presume": 25671,
    "Ġdab": 15592,
    "Ġallowance": 14392,
    "Ġgourmand": 26468,
    "Ġcord": 5222,
    "response": 25763,
    "iness": 1279,
    "Ġmir": 9649,
    "Ġsouthampton": 24309,
    "Ġdefinition": 14407,
    "landlord": 9843,
    "puted": 8850,
    "Ġimpreg": 15995,
    "Ġcomplete": 4383,
    "condescended": 26250,
    "Ġduplicates": 17219,
    "Ġdiscreet": 16484,
    "ide": 721,
    "Ġlat": 5087,
    "Ġtarshish": 12033,
    "Ġvisits": 8223,
    "Ġhummed": 18779,
    "africa": 26309,
    "Ġpent": 17905,
    "isl": 21378,
    "Ġcondescending": 24869,
    "Ġinevitably": 17233,
    "ques": 2839,
    "Ġtrout": 22356,
    "Ġexecute": 7504,
    "Ġmo": 628,
    "principle": 10653,
    "Ġpained": 19169,
    "Ġundoubtedly": 8313,
    "evidence": 25522,
    "Ġjoined": 4566,
    "resemblance": 25934,
    "Ġgor": 9209,
    "Ġroughs": 19960,
    "chers": 11319,
    "Ġupset": 22157,
    "Ġordering": 18998,
    "Ġregretted": 13404,
    "Ġcarve": 23096,
    "]]": 5205,
    "Ġtricks": 13488,
    "Ġtemptations": 24508,
    "Ġnur": 5710,
    "cain": 15329,
    "Ġcompos": 22574,
    "illustration": 2283,
    "Ġfolded": 7767,
    "Ġsteps": 2860,
    "Ġcivility": 4789,
    "Ġpassengers": 13679,
    "Ġfru": 8421,
    "she": 1398,
    "Ġpuzz": 5533,
    "Ġwiping": 25766,
    "Ġrheum": 18215,
    "city": 15330,
    "converse": 22479,
    "Ġconcl": 5095,
    "Ġfleeting": 19329,
    "Ġindolence": 16232,
    "Ġeach": 892,
    "pshire": 21026,
    "Ġjago": 22303,
    "Ġmidst": 7986,
    "introdu": 8940,
    "illuminated": 17456,
    "Ġpalmed": 24094,
    "window": 7742,
    "hued": 20913,
    "`": 68,
    "bene": 6113,
    "Ġinns": 17932,
    "Ġvast": 3297,
    "Ġgovernments": 20270,
    "cham": 10855,
    "ander": 6401,
    "Ġbehavior": 8002,
    "flow": 2377,
    "Ġelevated": 7317,
    "ittered": 18440,
    "maritime": 24176,
    "Ġshocking": 10437,
    "imin": 1768,
    "easy": 9595,
    "handkerchief": 14620,
    "Ġnewcom": 16225,
    "significant": 25085,
    "Ġwrecks": 16820,
    "Ġmartin": 25437,
    "roylott": 20030,
    "ĠĠĠĠĠĠĠĠĠĠĠĠĠĠĠĠĠĠĠĠĠĠĠĠĠĠĠĠĠĠĠĠĠĠĠĠĠĠĠĠĠĠ": 24212,
    "kingly": 20941,
    "Ġemper": 9864,
    "Ġdrunken": 12054,
    "before": 3117,
    "Ġdried": 7366,
    "arted": 2204,
    "uttering": 12667,
    "Ġclings": 15976,
    "Ġdiffused": 12073,
    "Ġdepos": 11006,
    "Ġaffection": 2638,
    "Ġsimplicity": 2926,
    "Ġsens": 1852,
    "Ġprevailing": 24674,
    "Ġlids": 12280,
    "Ġleaning": 5228,
    "Ġadding": 2401,
    "Ġlife": 1350,
    "Ġsurface": 5119,
    "loat": 8890,
    "Ġinducement": 16845,
    "isen": 10794,
    "ommod": 13980,
    "Ġtahitian": 25428,
    "Ġindependence": 12109,
    "wrinkles": 16557,
    "Ġlamb": 8817,
    "reflect": 19867,
    "vision": 5620,
    "reast": 17760,
    "Ġsuck": 15863,
    "Ġintruder": 25992,
    "Ġdistribut": 842,
    "ensical": 18570,
    "ample": 1362,
    "ient": 394,
    "Ġint": 409,
    "toed": 18580,
    "dden": 1804,
    "Ġtremble": 6905,
    "Ġadapts": 3818,
    "Ġbefall": 8833,
    "Ġjavel": 17085,
    "Ġhampshire": 15246,
    "rannical": 26403,
    "Ġstaircase": 20099,
    "Ġdaft": 19666,
    "yrin": 12527,
    "calling": 12454,
    "Ġconj": 8462,
    "entire": 6823,
    "east": 9118,
    "Ġcordon": 24394,
    "discovering": 24254,
    "ributed": 8215,
    "somewhere": 12017,
    "Ġthin": 4347,
    "Ġinert": 15626,
    "Ġjan": 11766,
    "Ġeag": 2971,
    "Ġguess": 4904,
    "entered": 8819,
    "quee": 4129,
    ")âĢĶâĢľ": 20745,
    "Ġsweating": 16465,
    "Ġjavelin": 26105,
    "Ġprovides": 1929,
    "Ġdepartments": 24245,
    "Ġprim": 8244,
    "Ġgodlike": 23360,
    "Ġpoignant": 22600,
    "Ġunde": 11716,
    "minutely": 19596,
    "Ġappal": 18361,
    "replied": 11568,
    "Ġrendering": 16660,
    "Ġelaborate": 18635,
    "Ġappar": 7410,
    "Ġenough": 1761,
    "dost": 14537,
    "mir": 20965,
    "Ġsprained": 15887,
    "Ġorgans": 15869,
    "unreasonable": 18165,
    "look": 2263,
    "Ġ87": 19713,
    "Ġplough": 18610,
    "Ġrider": 24188,
    "Ġjolly": 6857,
    "Ġmost": 1019,
    "Ġfear": 2277,
    "Ġaccumul": 1411,
    "Ġinvariable": 13460,
    "Ġbruited": 25774,
    "Ġshrieking": 24757,
    "ge": 562,
    "Ġswells": 9830,
    "Ġnind": 17952,
    "alarm": 15631,
    "00": 1611,
    "Ġclad": 12848,
    "Ġnaval": 16901,
    "yingly": 23063,
    "deed": 1519,
    "tstone": 21087,
    "Ġhansom": 13668,
    "Ġdefe": 21838,
    "artificial": 965,
    "ons": 710,
    "Ġbuying": 23999,
    "weekly": 25685,
    "Ġsulphur": 24934,
    "Ġcommotion": 9783,
    "Ġresort": 18564,
    "Ġmeanwhile": 5736,
    "illating": 22111,
    "Ġcreativity": 3265,
    "Ġstings": 21741,
    "surround": 16760,
    "oward": 6021,
    "Ġprominence": 18957,
    "peace": 13054,
    "Ġwebster": 20164,
    "painting": 17047,
    "Ġthereof": 22372,
    "itt": 571,
    "friendship": 24053,
    "Ġpost": 4273,
    "Ġour": 1008,
    "Ġpeering": 8536,
    "Ġstaggers": 24654,
    "Ġbun": 6007,
    "Ġ14": 9326,
    "ellect": 7380,
    "Ġsnugly": 17112,
    "nor": 2741,
    "Ġsporty": 19892,
    "Ġlistener": 16477,
    "death": 6262,
    "cles": 8729,
    "Ġcorroded": 18877,
    "Ġwashington": 17205,
    "conceal": 25117,
    "begin": 8887,
    "happen": 19333,
    "Ġdistinguished": 8273,
    "Ġafrican": 20140,
    "course": 6105,
    "characteristic": 24686,
    "Ġstraighten": 24007,
    "Ġsimpleton": 16338,
    "olence": 10233,
    "Ġconverts": 2803,
    "Ġpumping": 25644,
    "grammar": 6435,
    "Ġsubstantial": 14813,
    "Ġcurrents": 13019,
    "Ġdemeanour": 17340,
    "Ġheadland": 22900,
    "sword": 10728,
    "af": 2375,
    "ocratic": 17247,
    "Ġbow": 3065,
    "Ġtoes": 10831,
    "ressing": 8922,
    "Ġcured": 21350,
    "anted": 5027,
    "attentions": 13578,
    "gra": 770,
    "unavoid": 14065,
    "silver": 19693,
    "corrupt": 14898,
    "Ġlove": 2052,
    "Ġpatronage": 17054,
    "Ġdirection": 1791,
    "gledy": 25404,
    "Ġdeposited": 25485,
    "contact": 23730,
    "branch": 23580,
    "br": 2480,
    "Ġextend": 18685,
    "rabb": 15684,
    "Ġrhone": 25231,
    "Ġjudgment": 5765,
    "Ġmiriam": 25274,
    "hend": 13257,
    "Ġdiscu": 4363,
    "Ġrock": 5311,
    "oir": 21004,
    "covered": 11479,
    "Ġrivers": 9445,
    "Ġprocesses": 3633,
    "Ġancestry": 25642,
    "grace": 5847,
    "Ġliveliness": 13647,
    "400": 20757,
    "izens": 18146,
    "Ġingrat": 16842,
    "Ġjagged": 18408,
    "Ġspires": 11734,
    "ime": 625,
    "Ġbressed": 21390,
    "ating": 664,
    "atible": 17774,
    "tures": 21072,
    "Ġexaggerate": 25650,
    "Ġintrepid": 11709,
    "Ġpunishment": 9959,
    "Ġweapons": 10596,
    "Ġpulled": 5660,
    "iliary": 21730,
    "sig": 2872,
    "Ġharry": 24572,
    "anxiety": 25159,
    "Ġdiffered": 22714,
    "speptic": 23949,
    "Ġgardener": 19136,
    "âĢĿ": 353,
    "ted": 790,
    "Ġuntoward": 19167,
    "mankind": 14377,
    "Ġgrapnels": 25552,
    "Ġrepeated": 3833,
    "ibly": 2998,
    "Ġscream": 5935,
    "Ġwindigate": 18912,
    "Ġantagon": 19553,
    "Ġdz": 4757,
    "Ġmysticetus": 24923,
    "Ġfinal": 5400,
    "acute": 22549,
    "ulity": 10888,
    "arled": 21445,
    "Ġxii": 11995,
    "Ġvesu": 21953,
    "Ġuplifted": 11650,
    "Ġhiding": 9826,
    "damp": 15347,
    "amidst": 25653,
    "Ġrationally": 18214,
    "Ġadvertising": 25390,
    "Ġlim": 2380,
    "Ġcondu": 18115,
    "found": 4214,
    "Ġhissed": 15793,
    "Ġprivileged": 20116,
    "Ġcrystall": 20229,
    "Ġmultiplication": 2869,
    "Ġenvirons": 13188,
    "captains": 12132,
    "Ġpeaked": 2296,
    "rowsers": 8698,
    "Ġflying": 5413,
    "err": 1142,
    "Ġeighteen": 11241,
    "Ġimpertinence": 11368,
    "thunder": 10265,
    "Ġcells": 13888,
    "plexy": 18568,
    "Ġke": 1154,
    "Ġchili": 25562,
    "brad": 20782,
    "village": 25423,
    "unwillingly": 21888,
    "tired": 21075,
    "Ġclaw": 22364,
    "Þ": 159,
    "Ġtram": 11093,
    "Ġtasselled": 25922,
    "Ġshall": 1144,
    "hedge": 22502,
    "Ġtuileries": 24824,
    "tri": 11532,
    "Ġsnapping": 19303,
    "Ġinmost": 17933,
    "uplifted": 17697,
    "ĠâĢľâĢĻ": 22258,
    "excepting": 19709,
    "otions": 7180,
    "descend": 23089,
    "Ġravine": 18647,
    "iquet": 17577,
    "Ġcomes": 3423,
    "ver": 331,
    "Ġscents": 22286,
    "hundreds": 25076,
    "Ġunique": 12783,
    "n": 82,
    "Ġjealously": 24126,
    "Ġlooking": 2476,
    "Ġatrocious": 21947,
    "enstein": 5800,
    "reve": 12544,
    "parm": 21016,
    "ibule": 13012,
    "Ġdevoured": 16139,
    "derment": 22165,
    "hill": 15366,
    "Ġoccasion": 3247,
    "dragged": 16610,
    "Ġstochastic": 3267,
    "perplex": 18342,
    "Ġbequest": 21757,
    "Ġappears": 5402,
    "Ġexcited": 5580,
    "trifling": 19417,
    "Ġvine": 8473,
    "Ġfairness": 9897,
    "Ġbeach": 6542,
    "Ġcurb": 16238,
    "Ġcentre": 5123,
    "gentlemen": 9507,
    "Ġhides": 16268,
    "Ġlengthened": 25959,
    "Ġdick": 3499,
    "Ġcasual": 11411,
    "Ġsting": 10863,
    "Ġalas": 5922,
    "verb": 10219,
    "ical": 753,
    "Ġunsur": 22024,
    "Ġclinched": 17397,
    "acey": 7649,
    "Ġwaterproof": 19090,
    "Ġdispelling": 23883,
    "classification": 4388,
    "Ġwel": 4529,
    "Ġright": 1504,
    "shudder": 26247,
    "Ġlucy": 17972,
    "responsible": 25764,
    "Ġgard": 2189,
    "Ġfeasible": 22212,
    "achable": 14140,
    "č": 206,
    "inde": 17733,
    "Ġrefrain": 12950,
    "Ġgigantic": 5915,
    "Ġexplain": 545,
    "civilized": 17076,
    "Ġbang": 17856,
    "Ġdep": 734,
    "searching": 25106,
    "Ġdesp": 3217,
    "Ġallured": 14116,
    "Ġladen": 19179,
    "beg": 22490,
    "Ġgratifying": 13310,
    "Ġoptimize": 1544,
    "increas": 10456,
    "canoes": 16233,
    "Ġarbitrary": 4737,
    "Ġparticip": 16135,
    "secur": 18129,
    "aggo": 5097,
    "Ġsincerely": 7963,
    "Ġembarks": 22969,
    "Ġsnake": 12065,
    "Ġunnear": 22030,
    "Ġstayed": 7998,
    "isted": 3299,
    "emph": 21930,
    "Ġgreeted": 23216,
    "Ġfeathers": 15123,
    "Ġarched": 10934,
    "tawny": 26406,
    "despairing": 25077,
    "Ġsufficient": 2003,
    "antee": 22101,
    "/": 19,
    "Ġclothe": 4713,
    "Ġeyeing": 6460,
    "Ġphase": 14474,
    "Ġmons": 10159,
    "Ġincurable": 22557,
    "Ġprehensile": 26536,
    "Ġapproximation": 2341,
    "Ġargument": 7099,
    "ouble": 2661,
    "bra": 6220,
    "<UNK>": 3,
    "Ġformal": 2944,
    "Ġlord": 2970,
    "Ġhatchet": 16531,
    "Ġdecided": 5471,
    "Ġoscill": 2854,
    "ingu": 2119,
    "carries": 19530,
    "Ġhindrance": 25221,
    "Ġschedules": 3387,
    "Ġfevers": 22210,
    "Ġthat": 335,
    "Ġhereabouts": 12983,
    "upon": 2722,
    "hold": 3982,
    "Ġmant": 9650,
    "ominy": 13981,
    "Ġeel": 18004,
    "Ġvariously": 18654,
    "ignant": 11131,
    "Ġcommonplace": 11098,
    "Ġpolitic": 23620,
    "Ġbuttons": 12786,
    "Ġfly": 3872,
    "endured": 22220,
    "Ġpence": 17907,
    "Ġopera": 23429,
    "Ġarchitectures": 2912,
    "ppo": 18178,
    "Ġwit": 3843,
    "Ġcurv": 3513,
    "reflected": 24732,
    "knowledge": 7477,
    "Ġblameless": 19861,
    "Ġinfamous": 16368,
    "Ġbenef": 3490,
    "ancial": 21365,
    "wolf": 26411,
    "dri": 5888,
    "Ġsurve": 9877,
    "declined": 25175,
    "Ġbedfellows": 23448,
    "Ġvoyager": 16514,
    "Ġkne": 4267,
    "Ġsharpen": 13573,
    "Ġspoils": 24805,
    "Ġexecution": 6926,
    "Ġkicks": 19771,
    "Ġsings": 15508,
    "Ġgryphon": 4300,
    "circled": 24190,
    "Ġpeeled": 14321,
    "soundest": 24796,
    "Ġcapacious": 19178,
    "Ġanalyzing": 18801,
    "usage": 12838,
    "sil": 5283,
    "Ġinitial": 822,
    "run": 10723,
    "favour": 9552,
    "Ġclimate": 9278,
    "Ġplanisp": 24062,
    "Ġfears": 5729,
    "Ġoblivion": 26032,
    "Ġbroker": 23105,
    "Ġpersons": 6181,
    "wish": 8100,
    "intimate": 22940,
    "Ġadmeasure": 18294,
    "erial": 4633,
    "Ġwakes": 11575,
    "Ġwre": 5077,
    "Ġemploy": 3615,
    "Ġgentleness": 8713,
    "Ġsod": 11564,
    "Ġwarehouse": 20420,
    "Ġtantamount": 25626,
    "Ġhunch": 18937,
    "Ġunspeakable": 10059,
    "gu": 3958,
    ":âĢĶ": 4434,
    "Ġjacob": 1896,
    "Ġindel": 13009,
    "Ġglens": 18856,
    "Ġah": 5075,
    "Ġstrateg": 1365,
    "dragging": 16611,
    "Ġabiding": 22274,
    "Ġjewel": 9945,
    "dry": 13707,
    "Ġcubs": 20090,
    "Ġcerem": 7078,
    "inders": 15984,
    "fthand": 26388,
    "pool": 16211,
    "drifting": 19827,
    "Ġfist": 21407,
    "ofs": 11834,
    "Ġmislead": 22759,
    "Ġkissed": 10048,
    "magnetic": 20555,
    "pronouncing": 25194,
    "Ġbawling": 25946,
    "Ġshare": 1659,
    "Ġreadily": 5254,
    "hester": 9634,
    "elijah": 19476,
    "Ġshapes": 14112,
    "Ġbelow": 4062,
    "Ġhandfuls": 17212,
    "Ġstructures": 2721,
    "Ġbare": 6133,
    "known": 3569,
    "Ġsinister": 8571,
    "mond": 20976,
    "Ġdisconcerted": 18562,
    "bun": 12442,
    "Ġmexic": 14034,
    "Ġaustrian": 24302,
    "Ġexposes": 22627,
    "cock": 12030,
    "Ē": 211,
    "Ġcorrob": 16269,
    "Ġmelting": 24290,
    "Ġmales": 17807,
    "importance": 9992,
    "usions": 6160,
    "Ġexpanding": 25239,
    "Ġ35": 24080,
    "creation": 14809,
    "Ġwards": 17791,
    "extrem": 18710,
    "100": 11466,
    "Ġturner": 7050,
    "miseries": 16759,
    "vengeance": 13361,
    "aled": 3945,
    "ting": 1331,
    "spond": 5567,
    "creature": 5347,
    "Ġnerves": 2626,
    "Ġcensure": 15099,
    "Ġperth": 7023,
    "Ġhanged": 17927,
    "west": 10741,
    "½": 126,
    "amuse": 14056,
    "rade": 9682,
    "Ġevalu": 3280,
    "Ġdesperado": 19822,
    "paradise": 20640,
    "Ġcrushing": 20179,
    "sensible": 20055,
    "Ġbegone": 11920,
    "ides": 2162,
    "Ġessays": 19747,
    "Ġpoisonous": 24888,
    "Ġansw": 2207,
    "Ġreplacing": 3449,
    "sooner": 14780,
    "Ġnautical": 17389,
    "ference": 1880,
    "Ġthistle": 21920,
    "Ġentangled": 10348,
    "iracle": 11246,
    "fate": 17541,
    "Ġdaunt": 19667,
    "20": 20755,
    "Ġlogger": 11958,
    "positive": 20570,
    "Ġball": 3623,
    "itation": 1779,
    "Ġlany": 21557,
    "Ġxi": 16433,
    "tray": 21080,
    "Ġshout": 4265,
    "Ġprofound": 5497,
    "nostril": 26561,
    "Ġsweetheart": 19398,
    "Ġimmersed": 19488,
    "vere": 4884,
    "Ġdisliked": 12896,
    "ferent": 4194,
    "sea": 4764,
    "looked": 6083,
    "Ġhumped": 19772,
    "Ġ270": 25133,
    "Ġcabal": 23643,
    "older": 15763,
    "itance": 13871,
    "north": 14618,
    "Ġexotic": 21835,
    "Ġencourage": 10383,
    "Ġsixty": 7722,
    "stars": 18022,
    "dance": 17521,
    "Ġmates": 4873,
    "Ġfruits": 17121,
    "Ġexpressly": 16454,
    "Ġfundamentals": 14637,
    "Ġburgl": 13177,
    "Ġpromptly": 23821,
    "Ġbroom": 18908,
    "inced": 3337,
    "Ġshadows": 8013,
    "Ġdisengaged": 12894,
    "Ġflapp": 23011,
    "Ġmingling": 20200,
    "Ġthrew": 3974,
    "Ġconcoct": 19045,
    "Ġswan": 23052,
    "Ġbarb": 4533,
    "okingly": 22382,
    "Ġsporting": 17001,
    "consuming": 25675,
    "Ġresid": 22542,
    "ppery": 10894,
    "Ġinexplicable": 12261,
    "inery": 17735,
    "Ġsocial": 7008,
    "Ġlanc": 19767,
    "Ġdeceitful": 25733,
    "Ġunh": 9256,
    "Ġinstincts": 16988,
    "stayed": 25291,
    "Ġsuggestion": 19710,
    "ichron": 22172,
    "Ġmerciless": 25247,
    "aver": 6785,
    "fts": 18701,
    "decor": 23783,
    "likely": 9026,
    "Ġsister": 1474,
    "ustration": 2260,
    "icate": 9204,
    "Ġproposed": 7459,
    "por": 2149,
    "Ġawhile": 13833,
    "myst": 9825,
    "Ġdependence": 18620,
    "Ġcherub": 23289,
    "Ġinterchange": 16080,
    "sequently": 14585,
    "Ġwrongfully": 24251,
    "oted": 4599,
    "Ġspecksnyder": 17406,
    "wled": 15457,
    "ators": 7829,
    "ield": 2405,
    "hic": 3249,
    "Ġexulting": 20261,
    "Ġliked": 5265,
    "Ġfath": 7363,
    "Ġflood": 7715,
    "Ġcompanionship": 14923,
    "Ġglasses": 9478,
    "Ġcalcul": 3637,
    "Ġassaults": 15160,
    "ements": 11110,
    "door": 6194,
    "Ġpalp": 11252,
    "Ġquit": 5247,
    "capting": 24043,
    "Ġbecomes": 6396,
    "Ġberries": 13411,
    "Ġcompact": 2264,
    "Ġpouring": 12629,
    "Ġnegro": 6447,
    "Ġryder": 10261,
    "Ġloops": 8856,
    "Ġdiggings": 24650,
    "Ġcryst": 9920,
    "milk": 20480,
    "Ġdu": 4586,
    "Ġcont": 620,
    "Ġterti": 14540,
    "screw": 9350,
    "Ġgust": 21600,
    "exper": 8882,
    "Ġ34": 16679,
    "Ġimpute": 18334,
    "Ġ126": 24471,
    "animal": 16980,
    "Ġoverwrites": 5033,
    "inement": 11560,
    "Ġtomahawk": 7538,
    "Ġneurons": 978,
    "Ġinfinity": 23284,
    "Ġoverjoyed": 17461,
    "Ġpredicted": 2043,
    "pencil": 18830,
    "Ġbuoyancy": 20045,
    "Ġponies": 21479,
    "Ġunhappily": 18263,
    "Ġrecursive": 4783,
    "ys": 3961,
    "almost": 4943,
    "Ġregrets": 18591,
    "Ġpresented": 5183,
    "factories": 19846,
    "Ġcoll": 8221,
    "suspect": 9543,
    "Ġ95": 19776,
    "Ġaut": 1800,
    "Ġalbino": 20506,
    "Ġlashed": 9201,
    "Ġpresentiment": 18990,
    "leo": 21367,
    "ap": 547,
    "Ġbroadway": 23987,
    "gallantry": 15061,
    "Ġserve": 9372,
    "Ġruff": 14352,
    "ties": 2758,
    "wind": 4253,
    "uncle": 8159,
    "satisfactory": 16895,
    "ashed": 3786,
    "Ġdisregard": 22532,
    "Ġpasses": 2679,
    "arance": 4699,
    "in": 262,
    "ribution": 14309,
    "wearing": 22690,
    "Ġloveliness": 13612,
    "Ġto": 297,
    "Ġceasing": 23760,
    "odecimo": 11446,
    "Ġrespectability": 14487,
    "Ġdavy": 25952,
    "Ġpredef": 18515,
    "Ġtinted": 13825,
    "/*": 10074,
    "Ġsweetly": 23922,
    "Ġtransparen": 10544,
    "Ġincantation": 26259,
    "holland": 24045,
    "Ġcompanions": 5866,
    "ouring": 6420,
    "Ġmira": 8408,
    "Ġingen": 9052,
    "Ġgaiters": 20464,
    "behaved": 24463,
    "Ġplacing": 8904,
    "Ġoutput": 930,
    "Ġpencil": 11947,
    "Ġretort": 23073,
    "Ġfit": 3686,
    "Ġdeuteronomy": 15762,
    "promise": 12255,
    "remaining": 20223,
    "Ġincline": 18572,
    "Ġplead": 14458,
    "Ġallusion": 7625,
    "Ġjunks": 25116,
    "inj": 9154,
    "Ġwildness": 14605,
    "har": 20892,
    "Ġlingering": 11381,
    "Ġfailed": 6673,
    "Ġstanding": 3001,
    "Ġappare": 12825,
    "model": 4418,
    "rifle": 21049,
    "Ġtremendous": 8353,
    "Ġcontrasting": 11156,
    "princip": 17139,
    "Ġsauntering": 18328,
    "Ġenveloped": 12213,
    "Ġmedic": 11258,
    "Ġstatue": 23152,
    "Ġdiligence": 17115,
    "ury": 3312,
    "Ġsuggested": 8321,
    "Ġalex": 15137,
    "Ġaloud": 6253,
    "Ġklux": 22199,
    "ention": 852,
    "Ġsmells": 8894,
    "Ġwatchful": 16529,
    "deav": 2674,
    "Ġnorton": 12654,
    "Ġsurrounded": 5879,
    "ĠĠĠĠĠĠĠĠĠĠĠĠĠĠĠĠĠĠĠĠĠĠĠĠĠĠĠĠĠĠĠĠĠĠĠ": 19260,
    "Ġhomeward": 9395,
    "Ġletter": 2198,
    "¤": 102,
    "Ġsuspicion": 6212,
    "Ġwalrus": 14976,
    "knives": 14916,
    "appro": 7045,
    "circumstantial": 24444,
    "Ġsleek": 23387,
    "ial": 411,
    "power": 7137,
    "Ġdanes": 25160,
    "Ġbuzz": 24000,
    "Ġcities": 17829,
    "iety": 2815,
    "laws": 19810,
    "Ġcontrolled": 23253,
    "salesman": 20674,
    "Ġmerited": 23733,
    "Ġhumble": 8553,
    "thole": 21990,
    "othed": 16513,
    "Ġmasterly": 23997,
    "ilent": 21723,
    "Č": 205,
    "inching": 21192,
    "successively": 24778,
    "prise": 7726,
    "rolled": 9062,
    "ck": 436,
    "Ġluggage": 25958,
    "utional": 17986,
    "Ġvastly": 23863,
    "Ġpaus": 4299,
    "ref": 6515,
    "passed": 8026,
    "ensation": 22550,
    "hither": 11495,
    "andes": 18154,
    "Ġdescrying": 18617,
    "Ġfolks": 14429,
    "fil": 12467,
    "omp": 2474,
    "rance": 5994,
    "Ġstretching": 10018,
    "acquainted": 7312,
    "Ġnoah": 10944,
    "Ġsplinters": 15106,
    "Ġalongside": 6312,
    "beheaded": 22496,
    "Ġbowled": 23772,
    "Ġcigar": 9548,
    "Ġoverhear": 15970,
    "father": 3777,
    "schoolmaster": 15165,
    "Ġmarch": 4082,
    "Ġvoluntary": 14801,
    "iosity": 2307,
    "Ġoptim": 777,
    "nay": 7136,
    "adopt": 25545,
    "Ġslaughtered": 26586,
    "Ġmansfield": 25939,
    "Ġcruellest": 19661,
    "greater": 13256,
    "Ġdevices": 2943,
    "Ġexordium": 26494,
    "Ġjobs": 24833,
    "oors": 17622,
    "Ġgone": 2106,
    "iro": 20916,
    "Ġungracious": 18259,
    "served": 5043,
    "Ġrazor": 22657,
    "every": 2808,
    "Ġmeanness": 22603,
    "proachable": 23401,
    "Ġenterprise": 8645,
    "Ġbloodthirst": 23804,
    "Ġmuffled": 10643,
    "Ġsmite": 22562,
    "Ġitem": 12706,
    "Ġclout": 22360,
    "dict": 15341,
    "justice": 7958,
    "Ġpredictions": 1455,
    "Ġenormousness": 24515,
    "Ġabundant": 17157,
    "hue": 20900,
    "Ġintimacy": 8704,
    "Ġcham": 4893,
    "Ġcrosswise": 18887,
    "hand": 2757,
    "Ġdenial": 13218,
    "Ġbunch": 11328,
    "Ġparameters": 995,
    "Ġevaporate": 26334,
    "itical": 5802,
    "Ġconversing": 14635,
    "Ġreturn": 1708,
    "Ġmu": 17797,
    "contrasted": 17309,
    "Ġthis": 382,
    "Ġproceeded": 5336,
    "Ġsimul": 1806,
    "Ġisolation": 17153,
    "excellent": 8044,
    "Ġancles": 21449,
    "Ġbelie": 14410,
    "Ġenabling": 1082,
    "ones": 2742,
    "uctive": 17698,
    "Ġinventing": 24862,
    "Ġapparently": 6778,
    "Ġcoward": 7155,
    "thest": 11657,
    "Ġcomplaints": 12269,
    "Ġregret": 5562,
    "Ġearnestly": 5979,
    "trained": 4239,
    "eryton": 4093,
    "Ġerror": 1765,
    "Ġforeign": 9875,
    "Ġrelev": 1713,
    "Ġnumerous": 6919,
    "allest": 5485,
    "bed": 3492,
    "bet": 6110,
    "Ġsunday": 7269,
    "Ġedd": 8398,
    "Ġinstrument": 7119,
    "Ġconcealing": 23906,
    "Ġnormalization": 1241,
    "Ġhy": 5625,
    "society": 9975,
    "Ġgazette": 19504,
    "idav": 18095,
    "itchen": 7787,
    "Ġeither": 2603,
    "Ġbrighton": 6470,
    "Ġplainpal": 19279,
    "smoke": 17225,
    "ske": 13785,
    "Ġisle": 8837,
    "Ġpoised": 22597,
    "Ġfortunately": 12184,
    "Ġflogged": 23626,
    "willingly": 11987,
    "Ġlizzie": 26464,
    "horizon": 23617,
    "clouds": 25497,
    "Ġrepe": 3282,
    "interval": 7991,
    "Ġfavour": 3641,
    "opposite": 19931,
    "Ġlingered": 13508,
    "mal": 6794,
    "Ġjob": 7016,
    "Ġspain": 15884,
    "Ġjeopardy": 13600,
    "Ġswap": 23053,
    "comm": 7439,
    "Ġape": 21199,
    "bit": 3933,
    "Ġprivile": 8649,
    "apple": 22847,
    "Ġclothing": 18431,
    "arrow": 4179,
    "Ġautonomous": 10678,
    "Ġlow": 1650,
    "Ġwid": 4634,
    "Ġbeech": 18085,
    "bons": 17489,
    "Ġconsum": 9802,
    "urged": 18050,
    "inu": 1116,
    "Ġrespond": 11178,
    "Ġshutters": 9940,
    "Ġimpaling": 22396,
    "Ġfluke": 14676,
    "Ġbashee": 19851,
    "ĠĠĠĠĠĠĠĠĠĠĠĠĠĠĠĠĠĠĠĠĠĠ": 16230,
    "Ġfries": 21418,
    "Ġloading": 15878,
    "elter": 21574,
    "Ġharriet": 24573,
    "Ġtahiti": 13623,
    "invariably": 26418,
    "Ġcordially": 16838,
    "Ġnineveh": 13393,
    "Ġforthwith": 16620,
    "Ġsavages": 9915,
    "exclaimed": 11794,
    "levelled": 23645,
    "Ġoppress": 13176,
    "ampling": 12731,
    "caps": 20809,
    "difficult": 10061,
    "Ġincred": 5646,
    "comed": 8547,
    "Ġwhisper": 6206,
    "jer": 12485,
    "Ġtapers": 11554,
    "Ġheard": 1400,
    "Ġexpression": 4518,
    "Ġband": 5292,
    "scuttle": 11914,
    "cut": 3126,
    "tottenham": 25419,
    "Ġseeming": 8543,
    "Ġmyster": 5926,
    "Ġpenalty": 1839,
    "title": 17290,
    "rrh": 26145,
    "Ġexpenses": 11839,
    "nights": 16449,
    "Ġlavenza": 17973,
    "'": 11,
    "Ġrenowned": 26195,
    "Ġcynicism": 25772,
    "Ġempt": 5051,
    "chair": 5917,
    "Ġflower": 16234,
    "rice": 13780,
    "Ġunresting": 25554,
    "Ġdigesting": 19812,
    "Ġ-": 1944,
    "comprehend": 14367,
    "Ġinstrum": 6055,
    "Ġcetacea": 20556,
    "ivance": 22087,
    "Ġdecision": 2676,
    "arus": 13915,
    "Ġeternally": 11371,
    "Ġcurvature": 3574,
    "Ġsuffered": 5649,
    "Ġbil": 15569,
    "young": 7320,
    "animate": 12582,
    "vulgar": 25919,
    "Ġparaphrasing": 26528,
    "Ġsne": 6372,
    "Ġbestowed": 6594,
    "iet": 1773,
    "etieth": 21587,
    "Ġocc": 888,
    "Ġauthorities": 11266,
    "Ġrequire": 914,
    "Ġadapt": 1013,
    "ureau": 10229,
    "Ġpursuits": 12081,
    "published": 26143,
    "Ġattentions": 5878,
    "whispering": 26104,
    "intosh": 22943,
    "Ġgifted": 17999,
    "Ġbaboon": 19696,
    "verity": 14004,
    "Ġquiet": 3261,
    "itu": 1227,
    "Ġpropriety": 10013,
    "Ġopenshaw": 7955,
    "Ġbulkhead": 24511,
    "Ġretrie": 10385,
    "appearance": 5334,
    "engine": 18929,
    "Ġcelebrate": 26359,
    "Ġaverted": 16256,
    "Ġarsac": 11746,
    "Ġchildish": 13141,
    "fo": 5279,
    "Ġsmokes": 22564,
    "Ġapril": 13666,
    "Ġdumb": 7843,
    "impressed": 12696,
    "barbs": 20240,
    "lake": 13752,
    "Ġmercifully": 20181,
    "ugnance": 12371,
    "Ġrealities": 18982,
    "Ġcontempl": 6702,
    "Ġprofessors": 14728,
    "Ġarrangements": 16517,
    "fier": 9596,
    "Ġspangled": 22139,
    "oric": 21399,
    "Ġoutlined": 22324,
    "Ġyield": 5093,
    "address": 14884,
    "Ġbolivia": 24668,
    "Ġlounging": 10025,
    "Ġspans": 18305,
    "Ġembalmed": 13660,
    "Ġintended": 5548,
    "Ġlifting": 10199,
    "Ġseat": 4949,
    "Ġfugitives": 25635,
    "grandfather": 25012,
    "Ġric": 18210,
    "Ġflexible": 23778,
    "ouse": 1193,
    "Ġmcc": 21309,
    "Ġfashionable": 19547,
    "Ġgenealogies": 25962,
    "Ġvariance": 1169,
    "Ġalternate": 19989,
    "Ġyell": 21781,
    "function": 4013,
    "cloud": 11108,
    "Ġgeneration": 2197,
    "Ġlust": 9200,
    "Ġexcess": 3343,
    "Ġhaven": 8475,
    "Ġconfident": 11140,
    "Ġborrowed": 17232,
    "field": 3075,
    "t": 88,
    "Ġwhiteness": 5919,
    "Ġforcibly": 10064,
    "entions": 17977,
    "Ġdestination": 19151,
    "Ġmiscell": 16152,
    "Ġundersampling": 19521,
    "Ġmagistrate": 8234,
    "Ġengraved": 17082,
    "Ġshivered": 14111,
    "Ġclassify": 1663,
    "Ġeye": 2281,
    "Ġwill": 677,
    "Ġknitting": 24221,
    "anks": 3918,
    "Ġoppressed": 11192,
    "Ġmusket": 12300,
    "Ġender": 11694,
    "ark": 848,
    "res": 2759,
    "Ġcheerfulness": 10519,
    "Ġrequires": 1040,
    "89": 20761,
    "Ġalleg": 14020,
    "twice": 14623,
    "Ġramble": 9316,
    "proceeding": 20144,
    ",âĢĶ": 3173,
    "Ġrifts": 21982,
    "Ġminuteness": 19140,
    "Ġsustain": 10020,
    "aration": 12612,
    "hotel": 20053,
    "Ġhumor": 11053,
    "soul": 9143,
    "Ġthroughout": 8880,
    "Ġfriendly": 9823,
    "Ġports": 10820,
    "Ġweight": 656,
    "Ġpuffed": 14980,
    "Ġheroine": 24543,
    "generations": 23788,
    "Ġcirc": 1985,
    "avoiding": 25237,
    "Ġcheek": 8580,
    "Ġbaltic": 18796,
    "Ġcasks": 7520,
    "Ġoldest": 12978,
    "uch": 877,
    "Ġdeduce": 8337,
    "Ġsuspend": 14610,
    "Ġjanuary": 13657,
    "Ġpecks": 18670,
    "Ġweather": 3996,
    "black": 6768,
    "Ġfleet": 9435,
    "Ġcowardice": 17033,
    "Ġresol": 2665,
    "great": 3518,
    "Ġtalent": 12301,
    "Ġlagged": 21561,
    "Ġoblivious": 26033,
    "Ġstiffness": 24828,
    "Ġimbecile": 17395,
    "rix": 1574,
    "Ġformed": 3886,
    "Ġhelmeted": 19691,
    "Ġsettling": 11064,
    "levi": 7048,
    "Ġdarkened": 16436,
    "onical": 21256,
    "Ġkindling": 19032,
    "dick": 11481,
    "youth": 11879,
    "icates": 11620,
    "Ġminor": 12973,
    "Ġparade": 18302,
    "diversity": 25898,
    "ively": 1330,
    "Ġcontingency": 26246,
    "Ġaccents": 14213,
    "Ġsaturday": 6452,
    "traces": 24336,
    "ingale": 21302,
    "Ġtuning": 3076,
    "aug": 1214,
    "Ġcounteracted": 19864,
    "Ġye": 900,
    "Ġeagerly": 4990,
    "Ġsupreme": 13611,
    "Ġrecognise": 12044,
    "000": 2559,
    "dropout": 3200,
    "Ġvehicles": 10662,
    "Ġvisitors": 7985,
    "Ġholds": 7976,
    "Ġprow": 6685,
    "Ġunsavory": 20709,
    "Ġsoaked": 15865,
    "Ġtouches": 20573,
    "Ġfilial": 16622,
    "Ġfulfilled": 11364,
    "Ġvivid": 8058,
    "respect": 6374,
    "clothed": 19741,
    "Ġmillion": 14990,
    "sighted": 19788,
    "Ġsword": 6733,
    "oky": 8198,
    "Ġgraceful": 11298,
    "Ġapologizing": 25198,
    "clear": 9027,
    "Ġquarters": 8623,
    "Ġpurposed": 23554,
    "beautiful": 10651,
    "Ġthro": 5818,
    "unhes": 21879,
    "Ġinit": 816,
    "Ġmummy": 25769,
    "Ġjava": 12316,
    "Ġmaker": 15547,
    "Ġinnovative": 1630,
    "Ġdivinely": 25723,
    "farintosh": 24553,
    "Ġquaff": 22418,
    "Ġload": 14148,
    "Ġshipwreck": 20449,
    "Ġperemptory": 25741,
    "Ġhosts": 19942,
    "Ġdistracted": 11807,
    "arken": 18668,
    "Ġsour": 21219,
    "Ġperchance": 15991,
    "Ġpoint": 2054,
    "Ġhouses": 6139,
    "uger": 21106,
    "Ġaided": 17747,
    "ira": 3959,
    "usations": 15951,
    "Ġchaplain": 19914,
    "jub": 20931,
    "Ġexcessive": 3894,
    "kles": 17586,
    "Ġtrampling": 25493,
    "Ġscandinavian": 26347,
    "ways": 1440,
    "Ġuntutored": 19168,
    "Ġsuspected": 9065,
    "Ġamaze": 22487,
    "manifested": 20529,
    "ny": 4017,
    "turbaned": 24532,
    "opence": 18508,
    "Ġaright": 11744,
    "gage": 13726,
    "ufact": 10735,
    "Ġfifth": 11259,
    "delights": 19704,
    "adler": 21766,
    "Ġvehemently": 26040,
    "Ġpassages": 12975,
    "Ġpleasure": 2694,
    "?_": 8070,
    "Ġstudying": 9853,
    "south": 8762,
    "Ġflashes": 11919,
    "Ġcoffins": 13255,
    "Ġdecipher": 22445,
    "Ġadm": 2400,
    "acting": 22633,
    "Ġvivacity": 14944,
    "reason": 4416,
    "outer": 9671,
    "Ġu": 324,
    "ogene": 18675,
    "Ġmortification": 12099,
    "Ġstammered": 26201,
    "Ġupward": 9724,
    "lydon": 13992,
    "wa": 5897,
    "Ġmonths": 3455,
    "Ġprogra": 1146,
    "ples": 6844,
    "inent": 9631,
    "Ġfoss": 9854,
    "Ġinduce": 7762,
    "Ġlegitimate": 20644,
    "Ġlimit": 10445,
    "tossed": 10999,
    "Ġknot": 7012,
    "Ġswarm": 23055,
    "aim": 2755,
    "rons": 21042,
    "Ġrelevant": 1862,
    "Ġade": 22105,
    ":âĢĶâĢĺ": 24196,
    "A": 37,
    "Ġsolace": 16203,
    "Ġvile": 8474,
    "caves": 20818,
    "agues": 8161,
    "wrong": 13210,
    "book": 4671,
    "Ġampl": 22484,
    "rods": 21541,
    "perpendicular": 14165,
    "ighter": 7968,
    "abs": 11670,
    "usion": 3301,
    "Ġrapidity": 11102,
    "ense": 2050,
    "Ġabominably": 20069,
    "Ġrepose": 6742,
    "Ġhappens": 2188,
    "Ġbitter": 4172,
    "sledge": 21060,
    "Ġengaging": 9339,
    "anct": 21361,
    "neighbouring": 19967,
    "Ġremoter": 20109,
    "protected": 19923,
    "Ġlifetime": 13606,
    "isms": 12585,
    "Ġincl": 4271,
    "Ġurgent": 16871,
    "stock": 13227,
    "Ġassum": 4065,
    "Ġmystery": 5509,
    "ool": 17620,
    "superior": 9528,
    "eliest": 14749,
    "behind": 6779,
    "Ġnet": 3626,
    "othic": 16219,
    "parable": 16393,
    "apprehension": 26115,
    "Ġkindled": 19031,
    "Ġdisordered": 16059,
    "wed": 5796,
    "Ġdemon": 7869,
    "Ġessence": 13409,
    "Ġharmless": 9968,
    "Ġmum": 13861,
    "pire": 9138,
    "geese": 22371,
    "Ġoutsk": 15960,
    "Ġwouldn": 6046,
    "Ġfuel": 13907,
    "Ġhaw": 10254,
    "Ġxxiv": 24477,
    "Ġtranquilly": 12294,
    "Ġfeasts": 25370,
    "Ġshadowed": 24049,
    "squall": 13525,
    "Ġperceiving": 8879,
    "voices": 21120,
    "Ġtexel": 25924,
    "shold": 2772,
    "Ġextracts": 9366,
    "Ġsubmit": 11874,
    "Ġlimbs": 5966,
    "cular": 15331,
    "Ġsign": 2496,
    "ilty": 6394,
    "Ġpinch": 15019,
    "Ġperplex": 2716,
    "requent": 3651,
    "iable": 3335,
    "delivered": 24102,
    "Ġissuing": 16950,
    "Ġcrescentic": 20624,
    "gentleman": 7517,
    "lucky": 24545,
    "or": 282,
    "inous": 8776,
    "Ġswiss": 18883,
    "Ġsatir": 18795,
    "Ġlashes": 17969,
    "Ġunhinged": 26218,
    "Ġobliging": 13247,
    "Ġinvoking": 19147,
    "Ġattention": 1170,
    "Ġtorm": 5434,
    "Ġwilled": 21294,
    "Ġtold": 2184,
    "fast": 3074,
    "Ġgreas": 17994,
    "calculating": 25690,
    "Ġblackness": 9396,
    "Ġscarlet": 13228,
    "Ġcommis": 22674,
    "Ġbespeaking": 26311,
    "ą": 198,
    "Ġwelcome": 5604,
    "Ġexhaust": 6399,
    "Ġturbulence": 26599,
    "Ġolive": 12570,
    "Ġmanipulated": 25179,
    "Ġwithal": 18112,
    "Ġinanimate": 13936,
    "Ġendeavours": 8621,
    "Ġpile": 8425,
    "Ġmaintenance": 17464,
    "Ġfountain": 7364,
    "Ġindepend": 3669,
    "acrity": 14264,
    "principal": 20662,
    "Ġundaunted": 24121,
    "Ġabstract": 17184,
    "Ġvolcanoes": 24148,
    "Ġresigned": 9771,
    "adequate": 15207,
    "unwittingly": 25802,
    "ordinate": 12881,
    "utch": 21589,
    "Ġvertical": 16606,
    "stirring": 20429,
    "Ġglorious": 11077,
    "Ġhurt": 7700,
    "facts": 19845,
    "Ġmilitary": 11260,
    "Ġcorrected": 10450,
    "ude": 7561,
    "terogene": 21829,
    "Ġtalked": 4423,
    "Ġsquaring": 22845,
    "Ġspectators": 19410,
    "Ġshark": 5550,
    "shorn": 22451,
    "row": 1069,
    "Ġcommencement": 12243,
    "Ġdisagreeable": 9301,
    "plutarch": 21961,
    "Ġbox": 5109,
    "Ġwolfish": 25936,
    "Ġhorseman": 19610,
    "Ġdorm": 4823,
    "Ġstead": 5650,
    "provided": 13641,
    "Ġstifle": 18079,
    "Ġsecurely": 16804,
    "kindled": 16663,
    "Ġcaravan": 26292,
    "Ġgasped": 11374,
    "Ġdesigned": 7740,
    "Ġunav": 18241,
    "smith": 5669,
    "Ġunpitying": 25661,
    "anish": 2615,
    "Ġnightmare": 18921,
    "ards": 2505,
    "neurons": 3137,
    "ineer": 11703,
    "impe": 21711,
    "begged": 18521,
    "Ġcaptivating": 26050,
    "ols": 2410,
    "Ġsafe": 5103,
    "Ġthreaten": 24374,
    "Ġdons": 17890,
    "fav": 6648,
    "Ġinsufferable": 13934,
    "opposition": 24820,
    "Ġinflex": 20637,
    "Ġamusing": 11804,
    "Ġpatentee": 25587,
    "Ġingenious": 12352,
    "Ġsupport": 6729,
    "Ġshriek": 6639,
    "Ġmetaphys": 16409,
    "prosper": 19102,
    "related": 24015,
    "as": 302,
    "Ġhen": 3504,
    "Ġinsinuating": 19273,
    "Ġoarsmen": 7737,
    "Ġspring": 4120,
    "otograph": 5827,
    "Ġducks": 25161,
    "etent": 10202,
    "tempt": 21082,
    "inforcement": 2914,
    "Ġthom": 21519,
    "Ġlofty": 6218,
    "keeper": 5597,
    "unusual": 21883,
    "Ġchance": 3318,
    "mortal": 10115,
    "Ġcoffee": 6760,
    "unsupervised": 10891,
    "Ġcheeks": 5958,
    "Ġtransition": 14244,
    "xi": 17712,
    "cket": 3689,
    "Ġdisplay": 6428,
    "boat": 3362,
    "Ġdead": 2171,
    "Ġp": 289,
    "Ġstormy": 16730,
    "Ġarticulate": 24432,
    "Ġxavier": 2852,
    "boone": 23256,
    "pip": 6656,
    "Ġexact": 2541,
    "ston": 15687,
    "ourable": 4967,
    "Ġpresence": 5031,
    "Ġpresent": 1645,
    "Ġtiller": 8968,
    "ď": 208,
    "Ġdeposed": 16085,
    "Ġwhite": 1538,
    "Ġpeep": 6869,
    "itor": 12571,
    "gaff": 20884,
    "guinea": 16675,
    "ithing": 11652,
    "ipl": 20920,
    "Ġforgo": 21777,
    "Ġhyperborean": 26341,
    "dman": 10091,
    "Ġmaterially": 12196,
    "Ġdramatic": 4852,
    "verse": 9691,
    "Ġamelia": 26252,
    "Ġconciliating": 19047,
    "artic": 14217,
    "Ġpopulation": 16829,
    "Ġamuse": 5940,
    "mbles": 23092,
    "opius": 18509,
    "Ġunmanufactured": 20437,
    "Ġbleached": 24396,
    "Ġassent": 12738,
    "withdrawn": 23029,
    "Ġsilent": 3412,
    "Ġquarrel": 7291,
    "..": 5783,
    "Ġinspirited": 23424,
    "uts": 8820,
    "Ġgros": 14826,
    "Ġeducated": 16787,
    "Ġ93": 24592,
    "Ġdeadliest": 14558,
    "bye": 5950,
    "uses": 11765,
    "cous": 8725,
    "Ġrotation": 25475,
    "Ġbrist": 14381,
    "shore": 10307,
    "ildad": 3533,
    "gazed": 15365,
    "Ġsurpassed": 25268,
    "Ġpasseng": 12976,
    "readiness": 19366,
    "Ġhammer": 6094,
    "Ġbite": 10799,
    "Ġguidance": 9420,
    "Ġhoofs": 14529,
    "Ġgovern": 10452,
    "Ġmultimodal": 18749,
    "gus": 13728,
    "frantic": 24285,
    "Ġhighest": 3530,
    "umnal": 18301,
    "Ġ44": 16681,
    "Ġfer": 5529,
    "beating": 22492,
    "uced": 13803,
    "Ġpedd": 17912,
    "Ġsagacity": 16976,
    "Ġrobert": 10972,
    "Ġfloor": 4379,
    "Ġshortened": 23486,
    "ilations": 21725,
    "histicated": 20903,
    "Ġcondense": 21812,
    "Ġspin": 7629,
    "officer": 17055,
    "Ġinduced": 8674,
    "elf": 564,
    "Ġworshippers": 25694,
    "humorously": 24023,
    "Ġwhip": 8453,
    "shook": 19858,
    "Ġremembered": 5277,
    "Ġlascar": 9202,
    "Åĵuvre": 25888,
    "Ġhover": 15624,
    "Ġmusic": 5269,
    "soon": 4029,
    "Ġpoisoned": 24887,
    "ivided": 22090,
    "pips": 21022,
    "Ġcemet": 20683,
    "Ġ94": 17719,
    "Ġsprinkled": 19500,
    "Ġmotives": 7485,
    "Ġglacier": 11435,
    "Ġminima": 3465,
    "Ġsevere": 6032,
    "Ġ85": 24460,
    "Ġtorrent": 17093,
    "urns": 10216,
    "¯": 112,
    "Ġdispute": 16060,
    "itan": 10162,
    "Ġexhilar": 19686,
    "hertfordshire": 10938,
    "Ġapprehens": 5682,
    "oubted": 5860,
    "senses": 25025,
    "Ġthames": 13941,
    "itely": 5365,
    "asper": 7855,
    "pleasantness": 19773,
    "Ġuninjured": 22058,
    "Ġsulky": 13518,
    "Ġweighed": 8714,
    "Ġhistories": 14689,
    "Ġmeantime": 6207,
    "Ġwhereas": 3856,
    "osal": 11763,
    "ppa": 10242,
    "at": 268,
    "Ġ181": 23899,
    "atching": 8202,
    "Ġsmallest": 6430,
    "Ġdrunkard": 20180,
    "Ġmagnitudes": 3824,
    "dia": 2135,
    "idean": 14268,
    "Ġimpress": 6861,
    "Ġpiny": 21473,
    "Ġobsolete": 26560,
    "Ġgir": 2257,
    "Ġabandon": 12262,
    "Ġtint": 13820,
    "Ġcreations": 18686,
    "contracting": 19296,
    "hurrying": 14986,
    "turbable": 24531,
    "Ġprofundity": 20455,
    "Ġapparel": 20439,
    "icked": 10335,
    "Ġpitch": 5767,
    "Ġsuffering": 8949,
    "furnished": 20244,
    "Ġnext": 2140,
    "Ġeasily": 3893,
    "Ġcentrally": 23835,
    "Ġinve": 17931,
    "beneath": 9538,
    "Ġchal": 18379,
    "Ġintelligent": 1384,
    "Ġobedient": 20108,
    "fins": 13722,
    "mar": 4335,
    "nevertheless": 8286,
    "Ġsideways": 6183,
    "Ġforeheads": 23450,
    "Ġseas": 3081,
    "Ġkeels": 11063,
    "Ġbrink": 18772,
    "Ġceremonious": 24838,
    "Ġentreaty": 10532,
    "Ġpaw": 12625,
    "mangled": 20983,
    "crown": 13702,
    "ffy": 18318,
    "general": 7488,
    "vate": 21112,
    "spir": 5738,
    "Ġboth": 1657,
    "Ġorph": 9720,
    "Ġdromedary": 17442,
    "Ġferocious": 17422,
    "İ": 241,
    "Ġprized": 23223,
    "hecy": 21209,
    "Ġwhy": 1759,
    "atered": 22076,
    "Ġtranslates": 12055,
    "Ġbrilliantly": 25123,
    "asserted": 22313,
    "kine": 15379,
    "Ġwashed": 15769,
    "Ġzigzag": 26274,
    "Ġcapsized": 20093,
    "Ġworking": 5575,
    "ven": 782,
    "Ġpacifics": 24373,
    "Ġnoticing": 18225,
    "Ġhistory": 4008,
    "need": 10985,
    "Ġcommenced": 8533,
    "irectly": 6939,
    "Ġcrowded": 8012,
    "myster": 16267,
    "unsuitable": 21897,
    "orum": 12595,
    "Ġaugust": 10600,
    "nowled": 5470,
    "Ġciv": 3309,
    "thanked": 24327,
    "nowadays": 22342,
    "Ġequally": 5258,
    "scorn": 22994,
    "Ġfascinated": 25636,
    "culous": 11142,
    "forbearance": 22791,
    "Ġleathern": 15052,
    "Ġscra": 5841,
    "Ġsay": 934,
    "Ġlately": 6387,
    "Ġhailed": 6407,
    "Ġdistribution": 2018,
    "Ġwert": 12561,
    "haw": 6362,
    "Ġtraining": 531,
    "Ġadvise": 7936,
    "Ġdodging": 19889,
    "Ġmighty": 4230,
    "Ġfainter": 14917,
    "Ġannihil": 10177,
    "Ġfalsehood": 10526,
    "Ġdollars": 11457,
    "Ġdoubling": 23321,
    "Ġwhereupon": 14299,
    "Ġbreckinridge": 14524,
    "gar": 5615,
    "Ġhinted": 6012,
    "Ġirreducible": 5519,
    "Ġfocused": 16345,
    "ources": 2787,
    "Ġlordly": 23747,
    "bred": 11471,
    "Ġworst": 7443,
    "Ġadaptively": 4006,
    "Ġgems": 9211,
    "\":": 9584,
    "Ġwears": 10243,
    "tack": 12517,
    "Ġsurprised": 3832,
    "Ġslept": 8259,
    "ibid": 18842,
    "0": 20,
    "Ġdescribes": 3124,
    "height": 21208,
    "Ġcuriosity": 2444,
    "flakes": 23971,
    "asted": 4651,
    "Ġovercame": 9746,
    "suit": 18636,
    "Ġappet": 9734,
    "miss": 3177,
    "Ġinexhaustible": 16983,
    "kov": 17588,
    "ooped": 17625,
    "Ġillum": 9403,
    "Ġhamper": 19392,
    "Ġear": 1422,
    "ubl": 3595,
    "Ġbrad": 8791,
    "Ġadhes": 22107,
    "Ġlam": 21552,
    "uten": 11625,
    "Ġbreathlessly": 24283,
    "Ġhandling": 8916,
    "ibbald": 18843,
    "isation": 13896,
    "specul": 23946,
    "carried": 16713,
    "insist": 23067,
    "Ġlawyer": 10671,
    "Ġburying": 19254,
    "Ġravines": 25833,
    "vapor": 25756,
    "Ġstoutest": 24629,
    "ittance": 12850,
    "Ġobscure": 9557,
    "pulled": 25148,
    "Ġwhereon": 16105,
    "yours": 7694,
    "ogrand": 26263,
    "Ġdepend": 774,
    "asters": 8435,
    "Ġreproached": 24892,
    "Ġinsurance": 23682,
    "Ġlatin": 16823,
    "p": 84,
    "Ġannesley": 19580,
    "Ġoakshott": 12234,
    "pract": 10122,
    "Ġslender": 11944,
    "Ġloud": 4702,
    "Ġfaced": 10810,
    "Ġimproved": 7656,
    "pled": 7892,
    "Ġdis": 693,
    "Ġmarching": 16698,
    "apprehens": 17409,
    "Ġecstasy": 11633,
    "Ġwhale": 627,
    "hailed": 17567,
    "iability": 20922,
    "Ġreflected": 2911,
    "Ġdeclaring": 19423,
    "sli": 11525,
    "Ġdaugh": 2293,
    "Ġdrily": 23542,
    "Ġcastor": 19430,
    "dam": 7797,
    "Ġmeryton": 4440,
    "Ġscrape": 14921,
    "Ġignorance": 6620,
    "ego": 4036,
    "Ġmes": 17798,
    "Ġrepugn": 23366,
    "benefact": 24642,
    "Ġdeficiency": 14406,
    "Ġembra": 6579,
    "Ġabuse": 18393,
    "ar": 285,
    "Ġuntrodden": 23525,
    "rain": 461,
    "osition": 1373,
    "Ġforbidden": 17079,
    "Ġ116": 24440,
    "put": 414,
    "Ġanat": 8124,
    "Ġsignal": 5945,
    "oid": 3129,
    "Ġlancaster": 26342,
    "Ġgretna": 26470,
    "Ġafresh": 18629,
    "Ġ32": 19492,
    "Ġinflict": 15003,
    "Ġquadrant": 11406,
    "Ġaffronted": 22896,
    "Ġlinguistic": 12429,
    "Ġprevention": 16095,
    "Ġsan": 7824,
    "illity": 18297,
    "Ġunfathom": 14791,
    "Ġcompetent": 11820,
    "Ġheaped": 18040,
    "Ġautomation": 13251,
    "Ġharsh": 9524,
    "xes": 21143,
    "calmly": 20142,
    "Ġinquiring": 9002,
    "Ġcane": 10929,
    "Ġut": 2279,
    "Ġfootpath": 19340,
    "Ġimposed": 14222,
    "python": 4693,
    "oons": 12503,
    "Ġloath": 7891,
    "Ġalbatross": 10873,
    "Ġslides": 18941,
    "Ġbathing": 20202,
    "irect": 5553,
    "umbrance": 22122,
    "matter": 5136,
    "metallic": 19882,
    "Ġcanoes": 12810,
    "soup": 21061,
    "Ġmemorable": 16431,
    "Ġdownstream": 3775,
    "oper": 7346,
    "Ġgrat": 4057,
    "iam": 2509,
    "difference": 13711,
    "Ġreview": 18033,
    "iction": 4269,
    "Ġdrawling": 19440,
    "Ġdiana": 21439,
    "Ġperfidious": 25667,
    "Ġdecay": 1011,
    "ĳ": 244,
    "Ġshone": 7403,
    "osp": 6853,
    "amped": 12037,
    "Ġmortal": 4683,
    "hush": 20908,
    "ing": 273,
    "Ġneither": 3688,
    "Ġfloat": 12036,
    "prints": 23816,
    "Ġsmothe": 18576,
    "Ġquito": 24408,
    "Ġoverflow": 10294,
    "hat": 6955,
    "Ġpines": 12622,
    "Ġphysiology": 25333,
    "Ġblandly": 20326,
    "Ġtrif": 6269,
    "roar": 17955,
    "directly": 13712,
    "Ġdriving": 3617,
    "Ġenjoyment": 7299,
    "Ġtomorrow": 21516,
    "Ġleviathan": 3290,
    "Ġneed": 2607,
    "Ġant": 4345,
    "attempts": 17193,
    "gence": 876,
    "Ġlivid": 14992,
    "bber": 4570,
    "Ġinstructed": 19287,
    "glue": 17558,
    "ond": 1159,
    "ĠâĢľâĢĺ_": 25114,
    "Ġtempered": 12928,
    "uel": 6966,
    "Ġthemselves": 3252,
    "Ġparc": 10922,
    "rebellum": 26166,
    "Ġexpand": 9310,
    "Ġconstantly": 11977,
    "tled": 3457,
    "Ġautomatically": 3677,
    "Ġraging": 14308,
    "Ġquar": 3116,
    "Ġhard": 1442,
    "fixed": 7547,
    "bling": 10685,
    "Ġtree": 5285,
    "Ġaltered": 7392,
    "Ġtempor": 2366,
    "Ġboast": 7035,
    "Ġoars": 3899,
    "Ġcommunications": 16358,
    "help": 1477,
    "Ġfriday": 14490,
    "Ġprotection": 9465,
    "Ġactions": 6279,
    "Ġaback": 22270,
    "Ġheap": 12683,
    "Ġassuming": 16694,
    "Ġcandidate": 16700,
    "Ġguard": 6179,
    "Ġspaulding": 11735,
    "ructive": 18563,
    "Ġbetray": 7441,
    "quarried": 24948,
    "ik": 17573,
    "Ġvers": 7562,
    "angible": 22109,
    "Ġash": 4834,
    "icket": 22671,
    "Ġflowers": 8943,
    "Ġglimmering": 25241,
    "idate": 21771,
    "Ġbetake": 22909,
    "Ġundertone": 23242,
    "ived": 1533,
    "Ġhome": 2027,
    "then": 2051,
    "mock": 5174,
    "oves": 15406,
    "ineff": 21970,
    "Ġfeedback": 23436,
    "prophecy": 22855,
    "Ġperish": 8878,
    "Ġcastles": 16642,
    "Ġsets": 8778,
    "Ġjewels": 12373,
    "whar": 15931,
    "Ġtusks": 17256,
    "Ġamateur": 22489,
    "71": 20758,
    "complained": 25840,
    "Ġindiam": 22956,
    "omas": 12676,
    "Ġsympathies": 14864,
    "Ġflattened": 26048,
    "penetrating": 25491,
    "parlour": 16394,
    "reception": 15517,
    "Ġdeficient": 18826,
    "desolation": 20462,
    "collect": 16565,
    "į": 240,
    "Ġinfirm": 19019,
    "Ġhumph": 22886,
    "Ġconfinement": 19039,
    "Ġte": 1140,
    "last": 3805,
    "Ġpatchwork": 24143,
    "Ġinfluences": 14868,
    "Ġpeev": 22696,
    "iss": 2176,
    "Ġtidy": 17094,
    "conclusions": 25673,
    "thro": 12766,
    "Ġcomputer": 1161,
    "remain": 9841,
    "Ġtester": 21175,
    "aching": 5832,
    "Ġlong": 793,
    "Ġat": 395,
    "mccarthy": 15398,
    "ience": 819,
    "instr": 12536,
    "Ġavailed": 23955,
    "Ġdeployment": 11188,
    "Ġnarrowed": 24355,
    "Ġinternal": 2248,
    "Ġattends": 19653,
    "Ġprone": 18969,
    "Ġlocks": 11728,
    "dream": 8731,
    "Ġteeth": 4166,
    "h": 76,
    "message": 17375,
    "cerem": 15682,
    "Ġstarboard": 7607,
    "Ġspear": 9317,
    "unw": 14060,
    "rating": 7808,
    "Ġcorpulence": 24509,
    "Ġgang": 9210,
    "whence": 23218,
    "stretching": 20502,
    "Ġskylarking": 19490,
    "Ġattendance": 12186,
    "onsense": 6431,
    "bul": 6950,
    "ieged": 22584,
    "shaw": 6863,
    "Ġquivering": 12863,
    "Ġcataract": 23431,
    "Ġplumber": 16089,
    "vineyard": 25422,
    "Ġdisasters": 16058,
    "Ġsi": 21215,
    "Ġinseparable": 20691,
    "igating": 21702,
    "Ġseemed": 1277,
    "fashion": 8081,
    "Ġgore": 17991,
    "Ġimmut": 13302,
    "lers": 10109,
    "irted": 14075,
    "Ġdomestic": 6912,
    "Ġdow": 17888,
    "meant": 7921,
    "Ġgnashed": 20136,
    "salis": 25150,
    "practised": 20250,
    "Ġaltogether": 4833,
    "Ġforb": 11666,
    "Ġexclude": 19041,
    "Ġpurport": 14583,
    "Ġdesperate": 7776,
    "proportion": 16187,
    "Ġgardeners": 12125,
    "Ġintrusted": 21996,
    "Ġsuit": 5725,
    "Ġproud": 5654,
    "ulpt": 10887,
    "shed": 8095,
    "affections": 17359,
    "Ġventing": 19496,
    "Ġturing": 7565,
    "Ġrachel": 11851,
    "Ġinevitable": 15171,
    "Ġhardened": 14453,
    "Ġliterary": 25166,
    "Ġyou": 367,
    "Ġyoke": 18098,
    "Ġlend": 17965,
    "Ġdressed": 5081,
    "ryphon": 4162,
    "towns": 24855,
    "neath": 12870,
    "riumph": 4920,
    "Ġprevious": 2088,
    "Ġcolours": 12979,
    "Ġshow": 3402,
    "arts": 6564,
    "Ġunaccountably": 26517,
    "Ġtimbers": 14842,
    "Ġcorrid": 9827,
    "undertaking": 23790,
    "Ġslabs": 13066,
    "glancing": 11216,
    "poison": 14395,
    "Ġgums": 21614,
    "Ġavowal": 19418,
    "Ġrambles": 17187,
    "Ġflash": 8230,
    "Ġextraction": 11254,
    "Ġfabric": 25948,
    "Ġeddystone": 25736,
    "ipping": 2209,
    "Ġpharaoh": 26587,
    "Ġlaws": 8003,
    "Ġheavier": 13106,
    "Ġcobbler": 25831,
    "Ġguiltless": 16942,
    "Ġtraged": 9355,
    "Ġawful": 6200,
    "breadth": 20279,
    "Ġreptile": 15281,
    "ially": 9250,
    "apparatus": 26565,
    "Ġsagacious": 14974,
    "Ġchoking": 15938,
    "each": 7334,
    "Ġmoran": 9345,
    "Ġfiddle": 25445,
    "Ġlurks": 11292,
    "iod": 3841,
    "Ġpermission": 9282,
    "ature": 518,
    "Ġclams": 19992,
    "Ġpure": 6138,
    "Ġpraised": 19556,
    "ispiece": 19728,
    "âĢĶâĢĺ": 7014,
    "Ġwaist": 6891,
    "Ġuncles": 23434,
    "Ġobtruded": 20724,
    "Ġgowns": 25360,
    "Ġdamning": 19141,
    "hauled": 20671,
    "Ġpatches": 4238,
    "Ġ105": 24413,
    "Ġkrusenstern": 26379,
    "iating": 3209,
    "poises": 11893,
    "Ġdamn": 11160,
    "Ġsweatings": 25709,
    "Ġterrier": 23402,
    "Ġenjoyments": 24021,
    "Ġconver": 805,
    "Ġsympathised": 14865,
    "Ġrelentless": 26279,
    "bled": 5469,
    "evid": 11487,
    "Ġhaze": 18197,
    "caused": 25520,
    "Ġglut": 18855,
    "Ġexploration": 2336,
    "Ġhideousness": 16917,
    "Ġadvantage": 4316,
    "Ġdocuments": 10026,
    "osure": 5308,
    "Ġagon": 10323,
    "Ġdumplings": 15194,
    "Ġobsequ": 14323,
    "omorrah": 18020,
    "ere": 6789,
    "Ġobjects": 5578,
    "oth": 1186,
    "Ġferoc": 14900,
    "immediately": 10052,
    "Ġusual": 3944,
    "draw": 23903,
    "ustry": 18360,
    "Ġchivalrous": 20518,
    "Ġstairs": 5541,
    "Ġlandlady": 10424,
    "objects": 13474,
    "ity": 417,
    "stolen": 13985,
    "accident": 11183,
    "pherd": 13648,
    "Ġgospel": 18003,
    "hmael": 7341,
    "Ġmin": 1024,
    "Ġbehind": 2805,
    "Ġthese": 820,
    "Ġswerve": 14440,
    "mannered": 22856,
    "Ġsugg": 4502,
    "Ġreflect": 6575,
    "Ġfif": 4217,
    "precision": 4331,
    "Ġsa": 474,
    "Ġderives": 16312,
    "agement": 4187,
    "inations": 7566,
    "Ġowes": 20088,
    "Ġfading": 15588,
    "Ġintellig": 523,
    "stir": 12678,
    "Ġincom": 9772,
    "Ġinterlude": 16079,
    "monkey": 19172,
    "Ġshowed": 4499,
    "win": 6801,
    "Ġadventure": 5981,
    "fol": 4863,
    "Ġantichron": 24184,
    "Ġeager": 3571,
    "Ġrestless": 10415,
    "redible": 15808,
    "Ġlit": 6247,
    "Ġnumbers": 2888,
    "Ġgam": 11627,
    "olently": 15764,
    "aneous": 7239,
    "handedness": 24921,
    "immed": 9220,
    "Ġsanctioned": 26352,
    "Ġcanvas": 7783,
    "Ġmoth": 17804,
    "Ġpeaking": 22693,
    "app": 1039,
    "Ġcertain": 1557,
    "woods": 13423,
    "Ġjacket": 6489,
    "Ġfamiliarity": 16731,
    "Ġmastery": 23996,
    "iron": 3463,
    "Ġcreditable": 19625,
    "Ġdank": 21431,
    "tallied": 21092,
    "ain": 343,
    "ruction": 4357,
    "Ġket": 18348,
    "Ġcontemporary": 16016,
    "andy": 8158,
    "Ġromish": 19587,
    "impatient": 13644,
    "Ġcapture": 3385,
    "nne": 20991,
    "ower": 1056,
    "complied": 19915,
    "conspicuous": 26249,
    "Ġsinful": 18951,
    "Ġconstraint": 16515,
    "Ġlanterns": 24578,
    "Ġentertain": 6054,
    "clouded": 20334,
    "Ġdears": 18138,
    "Ġaccept": 4412,
    "real": 10152,
    "elect": 20848,
    "Ġdire": 866,
    "Ġcus": 21346,
    "attachment": 13057,
    "lemagne": 26438,
    "Ġhon": 2536,
    "Ġlanyard": 26463,
    "Ġmill": 6668,
    "Ġimpropri": 14223,
    "rades": 8592,
    "Ġmississ": 18840,
    "elius": 13292,
    "Ġdestructive": 23490,
    "Ġstopping": 2749,
    "Ġlimp": 19182,
    "Ġmoon": 4610,
    "j": 78,
    "Ġtells": 9364,
    "Ġjoyfully": 19349,
    "Ġloose": 4650,
    "Ġ69": 19664,
    "Ġwomen": 4751,
    "Ġseeks": 14304,
    "Ġcrucifix": 26080,
    "abri": 6683,
    "Ġflows": 13015,
    "uing": 17695,
    "consciously": 19628,
    "Ġsequ": 983,
    "achel": 7032,
    "Ġnon": 1625,
    "tiness": 21074,
    "Ġof": 298,
    "Ġstands": 5259,
    "Ġdiscourse": 9801,
    "dil": 11480,
    "Ġgre": 1584,
    "Ġwith": 348,
    "ignation": 11130,
    "oce": 10716,
    "finally": 9502,
    "Ġunw": 7004,
    "Ġpopularly": 12246,
    "Ġescorted": 23510,
    "everybody": 8614,
    "Ġattitude": 8907,
    "85": 13685,
    "Ġproperty": 6450,
    "mitting": 20975,
    "fred": 20857,
    "pid": 1397,
    "brew": 11475,
    "fordshire": 4678,
    "Ġsweetest": 13252,
    "Ġbitterly": 8315,
    "thirst": 15829,
    "Ġliterally": 15120,
    "Ġundeserving": 18269,
    "Ġcousin": 3707,
    "fulfilment": 26026,
    "Ġblind": 3718,
    "prairies": 20569,
    "inc": 2520,
    "Ġtraced": 10386,
    "Ġel": 799,
    "shirt": 22452,
    "Ġours": 4614,
    "ÿ": 192,
    "Ġinverted": 12642,
    "itement": 7835,
    "Ġgaff": 17996,
    "Ġclosely": 6488,
    "Ġbranded": 14382,
    "Ġconsecutive": 20705,
    "lorn": 12492,
    "Ġexe": 3994,
    "Ġlearn": 365,
    "oquence": 11388,
    "fitters": 24760,
    "Ġaforethought": 25429,
    "stall": 21649,
    "gentlemanlike": 20005,
    "Ġstubbs": 23298,
    "col": 3106,
    "Ġimminent": 11247,
    "attacks": 23125,
    "Ġprincip": 5600,
    "Ġforcing": 3226,
    "olstadt": 7788,
    "Ġdazzling": 15215,
    "Ġfurther": 1057,
    "Ġearth": 2847,
    "Ġpolitics": 19227,
    "Ġornam": 15868,
    "rous": 3753,
    "Ġpostpone": 17310,
    "Ġverily": 16605,
    "affold": 16564,
    "chery": 24551,
    "ippers": 17578,
    "iffs": 9025,
    "conscientious": 19629,
    "confess": 12180,
    "Ġtus": 10751,
    "Ġjudging": 16597,
    "Ġstartling": 14673,
    "requ": 7148,
    "ishness": 22346,
    "bolts": 11422,
    "Ġagitates": 22521,
    "Ġbump": 9662,
    "Ġenergy": 2550,
    "Ġgenerative": 5644,
    "pattern": 4481,
    "abular": 4763,
    "Ġmethodology": 2419,
    "acted": 11012,
    "Ġethics": 15465,
    "Ġsuperstition": 15057,
    "Ġswears": 16466,
    "Ġnaturally": 2469,
    "ist": 449,
    "Ġcatherine": 2810,
    "Ġeat": 4645,
    "Ġadmitting": 19185,
    "died": 11482,
    "Ġslates": 11109,
    "Ġvigilant": 20187,
    "Ġmuster": 16126,
    "standers": 18480,
    "Ġfisherman": 12080,
    "Ġtransported": 11281,
    "Ġresumed": 11816,
    "perpet": 14164,
    "Ġconsid": 1813,
    "Ġgorgeous": 20470,
    "iza": 6256,
    "Ġpassion": 4559,
    "Ġwheel": 9721,
    "Ġberyl": 20493,
    "althily": 19362,
    "uity": 12522,
    "Ġphara": 23202,
    "ry": 806,
    "letons": 14615,
    "ington": 21304,
    "Ġimpulsively": 24881,
    "beauty": 20107,
    "gloomy": 25147,
    "Ġtranscend": 25670,
    "lightning": 16554,
    "rev": 17758,
    "Ġmess": 7831,
    "inform": 10146,
    "Ġpitied": 14694,
    "moment": 3579,
    "scot": 14421,
    "Ġsavi": 18326,
    "ifiable": 18166,
    "weaknesses": 26031,
    "Ġreading": 5114,
    "Ġtroops": 24899,
    "Ġpurse": 12015,
    "score": 18858,
    "ickering": 22673,
    "conjecturing": 20137,
    "Ġselling": 21227,
    "Ġwhirling": 12253,
    "swinging": 25913,
    "Ġexempt": 21832,
    "Ġswaths": 23059,
    "aint": 2540,
    "Ġthreatened": 8330,
    "restored": 18979,
    "voyages": 24856,
    "alions": 21504,
    "zza": 24170,
    "Ġdarkly": 19116,
    "possesses": 24617,
    "atically": 2564,
    "ife": 1023,
    "inite": 6002,
    "ellent": 3762,
    "Ġimper": 4504,
    "Ġquebec": 24134,
    "Ġdefray": 22944,
    "Ġwherein": 14298,
    "Ġflee": 7080,
    "wic": 21123,
    ":--âĢľ": 24550,
    "orily": 15577,
    "Ġvenge": 5420,
    "Ġappellation": 22230,
    "Ġabide": 14190,
    "upright": 23019,
    "Ġyoun": 1408,
    "Ġruins": 16162,
    "Ġ131": 24781,
    "superstitious": 17283,
    "Ġhaunts": 18199,
    "Ġoblige": 10491,
    "Ġmediocrity": 26610,
    "Ġnation": 12652,
    "Ġovercome": 6043,
    "ety": 3522,
    "Ġfrowning": 13627,
    "Ġfossils": 20225,
    "Ġskiff": 16168,
    "Ġjub": 22299,
    "ccess": 3186,
    "Ġconference": 15751,
    "Ġtorment": 8677,
    "besides": 8699,
    "fishermen": 17062,
    "Ġretrogress": 23076,
    "Ġgaz": 4044,
    "lion": 20946,
    "Ġthrone": 12218,
    "Ę": 217,
    "eous": 13715,
    "Ġfert": 15586,
    "Ġapologized": 25199,
    "helped": 18927,
    "Ġdemoniac": 15068,
    "Ġimputable": 22177,
    "Ġrolls": 8334,
    "Ġoccur": 1085,
    "Ġdowry": 20688,
    "Ġattorney": 18623,
    "kes": 3680,
    "Ġawed": 23587,
    "baron": 24926,
    "Ġdetain": 14176,
    "etah": 12666,
    "Ġknitted": 19592,
    "Ġrolling": 5975,
    "gather": 20877,
    "Ġmills": 21314,
    "Ġmbpp": 21325,
    "Ġfrankenstein": 7096,
    "Ġworth": 4419,
    "cries": 17513,
    "Ġrandomly": 1921,
    "ĠĠĠĠĠĠĠĠĠĠĠĠĠĠĠĠĠ": 22952,
    "Ġshipmates": 6721,
    "contin": 16544,
    "Ġcur": 1246,
    "Ġvancou": 22880,
    "Ġsagaciously": 24730,
    "intelligent": 16846,
    "Ġ123": 24468,
    "Ġbery": 13901,
    "bert": 4664,
    "Ġmaintained": 12939,
    "slide": 24556,
    "Ġwelded": 9574,
    "Ġfainting": 16899,
    "lant": 20949,
    "Ġnature": 2537,
    "Ġdeceived": 6545,
    "Ġglobu": 23274,
    "pra": 15410,
    "claps": 23156,
    "Ġspars": 3812,
    "Ġreefed": 20305,
    "gabriel": 15364,
    "staking": 21651,
    "Ġspoutings": 14678,
    "ourage": 2452,
    "ob": 1420,
    "ede": 21509,
    "conceive": 16033,
    "develop": 13521,
    "Ġacquaintance": 4132,
    "Ġadded": 2717,
    "Ġloses": 15877,
    "Ġvehem": 22892,
    "Ġimpulse": 10027,
    "orrowed": 19292,
    "whom": 8185,
    "Ġreverie": 13461,
    "shoe": 14970,
    "Ġpollard": 20389,
    "perils": 22186,
    "Ġvisions": 12981,
    "Ġcausal": 3411,
    "Ġseasonable": 24406,
    "oran": 8793,
    "terdam": 18132,
    "Ġsprain": 18306,
    "Ġbringing": 5870,
    "Ġengineer": 11979,
    "Ġlibr": 16005,
    "Ġexcel": 3568,
    "Ġpreparing": 8651,
    "Ġdwelling": 7321,
    "Ġspeeding": 23566,
    "Ġcomfortably": 16617,
    "itch": 10163,
    "utting": 17987,
    "Ġuntimely": 16469,
    "Ġdecidedly": 9512,
    "frozen": 25142,
    "Ġexercised": 24800,
    "ocity": 8278,
    "Ġentreating": 24210,
    "shaken": 16026,
    "ruff": 15905,
    "Ġmeditating": 20046,
    "rub": 15903,
    "Ġgord": 21603,
    "Ġexpanse": 14296,
    "Ġmowers": 17814,
    "Ġlabeled": 3720,
    "adoes": 11663,
    "Ġgave": 2220,
    "Ġparents": 6753,
    "Ġstarlight": 24627,
    "jug": 17582,
    "Ġextent": 7655,
    "Ġpassage": 3887,
    "Ġrandom": 1589,
    "Ġcapric": 14577,
    "Ġmounting": 19980,
    "Ġmorning": 1748,
    "Ġendued": 14080,
    "Ġprofessional": 7298,
    "Ġelbow": 12925,
    "Ġchicha": 15940,
    "Ġmari": 6813,
    "ascended": 24705,
    "Ġfrock": 10492,
    "offered": 14520,
    "nigh": 13766,
    "burgh": 6773,
    "Ġzones": 22820,
    "Ġappalling": 8501,
    "intellig": 5321,
    "Ġmax": 2006,
    "Ġhappened": 3715,
    "Ġtranslation": 3091,
    "Ġwhirl": 13453,
    "Ġtreats": 19347,
    "fif": 9119,
    "Ġpark": 5465,
    "Ġinjustice": 9193,
    "Ġsem": 1875,
    "Ġstability": 1361,
    "expectant": 24278,
    "croquet": 25748,
    "drew": 7333,
    "superiority": 20188,
    "attoo": 6807,
    "wouldn": 23538,
    "Ġscorn": 7901,
    "thern": 4953,
    "Ġderbyshire": 6587,
    "Ġnovels": 15933,
    "```": 25894,
    "Ġwallowing": 24047,
    "Ġperiod": 4003,
    "piling": 15418,
    "Ġwaiter": 16363,
    "Ġunqualified": 22063,
    "proceeded": 25191,
    "Ġdisembow": 22541,
    "Ġexpense": 7651,
    "Ġconstables": 19070,
    "Ġleading": 7296,
    "herent": 2528,
    "ograph": 4798,
    "Ġsaid": 577,
    "generosity": 23789,
    "presumption": 20445,
    "Ġrelating": 2704,
    "tomahawk": 25916,
    "Ġcritical": 7473,
    "Ġbreakers": 12059,
    "Ġwhitney": 11375,
    "Ġonto": 14031,
    "Ġparameter": 878,
    "Ġkicking": 16903,
    "Ġcetacean": 25879,
    "Ġhistorically": 19381,
    "Ġfuller": 11158,
    "declared": 15122,
    "Ġalph": 9698,
    "Ġless": 1938,
    "Ġthousandth": 23684,
    "Ġcloth": 9747,
    "Ġminim": 1321,
    "Ġportent": 12086,
    "Ġlevi": 3037,
    "dening": 22784,
    "arial": 5532,
    "Ġwet": 6518,
    "âĢĶâĢľ": 2974,
    "Ġmaybe": 12954,
    "Ġdefici": 22946,
    "Ġmourning": 13482,
    "Ġcustom": 5078,
    "ocation": 14628,
    "Ġsmack": 9303,
    "Ġpeeped": 10015,
    "Ġdecreases": 3410,
    "--âĢĺ": 22853,
    "Û": 156,
    "melted": 25207,
    "market": 16841,
    "Ġstyled": 24672,
    "Ġreigned": 13990,
    "diver": 20833,
    "urned": 9309,
    "Ġfow": 6134,
    "Ġforging": 18096,
    "Ġalter": 6543,
    "peculiar": 6885,
    "Ġbul": 3294,
    "Ġfamine": 16332,
    "Ġstudies": 7956,
    "Ġloc": 10916,
    "Ġincul": 22554,
    "sterns": 23371,
    "Ġstun": 11653,
    "istics": 1629,
    "hampshire": 23267,
    "Ġruth": 14097,
    "network": 1914,
    "Ġannoyance": 20664,
    "Ġanew": 11432,
    "ription": 5676,
    "_âĢĿ": 20763,
    "alling": 6037,
    "Ġobliter": 14325,
    "Ġbrew": 23347,
    "Ġsailed": 4890,
    "produ": 10722,
    "outs": 7009,
    "ained": 3069,
    "Ġcut": 2640,
    "Ġhabits": 6925,
    "Ġminute": 4279,
    "Ġincludes": 2011,
    "ggy": 13118,
    "netherfield": 9816,
    "Ġeurope": 8062,
    "Ġcreatures": 4136,
    "Ġprosper": 10231,
    "Ġposted": 16726,
    "Ġdug": 21433,
    "jol": 20927,
    "frock": 20124,
    "Ġmany": 1103,
    "Ġturning": 3327,
    "Ġcontemplation": 11359,
    "Ġcompromising": 22578,
    "outre": 18321,
    "Ġmovable": 22437,
    "affa": 23779,
    "Ġnowadays": 18546,
    "Ġorganization": 7984,
    "Ġdistributions": 1052,
    "Ġloite": 22115,
    "ships": 5486,
    "Ġnobody": 6159,
    "resting": 23236,
    "Ġgeneric": 18455,
    "Ġfeels": 6881,
    "Ġpursued": 6329,
    "Ġinsp": 2100,
    "Ġscho": 4438,
    "resolutions": 26165,
    "longer": 8616,
    "iner": 2670,
    "Ġhorizontal": 7782,
    "isters": 11923,
    "Ġimm": 3966,
    "Ġneur": 811,
    "Ġlivelihood": 24773,
    "Ġfound": 1245,
    "rised": 10126,
    "Ġboldly": 9504,
    "Ġdisposing": 19378,
    "Ġbowsman": 11256,
    "cab": 7332,
    "Ġdecency": 18482,
    "striking": 13444,
    "Ġrecess": 10849,
    "Ġgoose": 5938,
    "snowy": 20286,
    "Ġsuffusing": 23032,
    "Ġlicense": 20094,
    "Ġaudits": 24769,
    "Ġtore": 6531,
    "placed": 7878,
    "Ġ1807": 26084,
    "sequ": 2399,
    "Ġuneasy": 8665,
    "Ġslightly": 7292,
    "âĢĶ": 519,
    "Ġconsiderations": 9413,
    "velled": 9879,
    "Ġaddition": 1147,
    "write": 14649,
    "Ġmarshy": 20221,
    "þ": 191,
    "aren": 10077,
    "Ġpredomin": 16039,
    "Ġguiding": 19243,
    "Ġsheltered": 19913,
    "Ġdescried": 7919,
    "Ġgri": 17990,
    "woes": 21136,
    "Ġripple": 25505,
    "Ġintensely": 17019,
    "Ġrose": 3443,
    "Ġdesirable": 8944,
    "Ġwondered": 11127,
    "Ġbitterness": 8024,
    "Ġtrod": 15029,
    "vid": 915,
    "Ġsisters": 3640,
    "useless": 14596,
    "fresh": 13396,
    "Ġanonym": 17899,
    "Ġcommunicates": 24547,
    "bolt": 25138,
    "scarcely": 12390,
    "ğ": 224,
    "Ġembell": 14416,
    "ra": 314,
    "Ġcontributes": 15254,
    "footsteps": 25200,
    "colour": 9906,
    "answering": 26005,
    "Ġphantom": 8710,
    "Ġgurg": 15677,
    "Ġlirra": 21563,
    "appalling": 22850,
    "Ġtattoo": 7358,
    "mass": 12494,
    "you": 1005,
    "aut": 1910,
    "Ġdrink": 4788,
    "Ġrue": 11871,
    "cating": 20804,
    "quished": 21858,
    "Ġreb": 15695,
    "Ġperplexity": 2754,
    "heart": 4528,
    "Ġlocking": 18299,
    "Ġvalley": 5851,
    "Ġassembl": 20064,
    "Ġscoundrel": 13674,
    "coffin": 10665,
    "Ġemph": 14527,
    "Ġnone": 3225,
    "flutterings": 26608,
    "Ġbenefactor": 14700,
    "bour": 2071,
    "Ġweaver": 11691,
    "Ġenvy": 13187,
    "orte": 14187,
    "Ġsanity": 24982,
    "Ġconsort": 18726,
    "teeth": 10358,
    "Ġcontinuing": 14400,
    "Ġsaving": 15891,
    "Ġoily": 13867,
    "Ġpoetical": 25059,
    "ravelled": 18017,
    "Ġwhit": 7177,
    "Ġfrenchman": 11285,
    "Ġunfavourable": 17420,
    "alescing": 23869,
    "insulting": 26056,
    "joy": 3336,
    "cowardly": 25750,
    "meantime": 9095,
    "Ġsidel": 9638,
    "Ġmug": 21315,
    "tical": 10131,
    "Ġevolved": 9895,
    "clo": 5613,
    "Ġicy": 10749,
    "algorithm": 4247,
    "allow": 5104,
    "osop": 4406,
    "Ġabilities": 8870,
    "Ġgleaming": 24996,
    "glasses": 11217,
    "execution": 20475,
    "fes": 20853,
    "chet": 13221,
    "precedented": 15178,
    "however": 4374,
    "balanced": 14557,
    "Ġplumage": 17301,
    "Ġorbs": 22096,
    "Ġdistress": 5845,
    "Ġentrances": 25835,
    "line": 1439,
    "icular": 2022,
    "Ġconquer": 14030,
    "keepers": 16662,
    "Ġb": 281,
    "lue": 8510,
    "read": 3276,
    "Ġsit": 4216,
    "stud": 8824,
    "Ġtyp": 1130,
    "okers": 18442,
    "Ġnewcastle": 16226,
    "Ġrelieved": 7665,
    "ened": 1387,
    "ually": 2769,
    "Ġentity": 10347,
    "disc": 4730,
    "discovered": 8325,
    "Ġheron": 22077,
    "rawling": 21639,
    "Ġdemoniacal": 20559,
    "Ġcalculates": 13269,
    "Ġfugitive": 17330,
    "Ġhereby": 10361,
    "sacred": 17030,
    "Ġused": 2058,
    "fainting": 20476,
    "Ġplanted": 9777,
    "cheered": 23808,
    "Ġdescribing": 19256,
    "Ġdinnertime": 16721,
    "Ġconceived": 8150,
    "Ġdoctrine": 24200,
    "idel": 5301,
    "Ġhide": 4591,
    "ament": 2440,
    "romised": 14115,
    "Ġsensitivity": 3073,
    "Ġreadiness": 13055,
    "Ġivory": 4478,
    "comrade": 18747,
    "Ġfarmhouse": 24987,
    "Ġchestnut": 19675,
    "until": 6597,
    "Ġassail": 13068,
    "Ġtakings": 20575,
    "Ġgrieved": 8297,
    "Ġris": 4887,
    "Ġsaintly": 25932,
    "terrific": 25043,
    "Ġsquatted": 25843,
    "Ġencoding": 4775,
    "Ġblank": 5951,
    "coun": 10690,
    "Ġstreaming": 19676,
    "Ġfibres": 12956,
    "ceiling": 21630,
    "rowed": 22866,
    "Ġdusk": 12331,
    "warn": 11545,
    "agree": 14070,
    "Ġdiscovers": 4430,
    "ures": 838,
    "Ġrecollected": 8311,
    "Ġwitt": 17785,
    "Ġsupply": 6067,
    "Ġdisco": 3428,
    "Ġotherwise": 4659,
    "Ġthickly": 12120,
    "elling": 5831,
    "reporting": 24494,
    "ither": 1547,
    "Ġfant": 9176,
    "Ġsacred": 10932,
    "Ġvehement": 16205,
    "Ġstep": 751,
    "fly": 13717,
    "alley": 23025,
    "Ġcontributed": 16013,
    "Ġapologies": 25197,
    "Ġleviathans": 8282,
    "Ġregions": 10327,
    "breast": 11248,
    "Ġodorous": 19569,
    "biqu": 17500,
    "Ġringing": 13336,
    "Ġattain": 12752,
    "Ġsalad": 19482,
    "Ġovertake": 15967,
    "Ġruthless": 15289,
    "jected": 22717,
    "Ġsurprising": 14599,
    "Ġprocured": 8680,
    "onsensical": 18578,
    "Ġpathetic": 19054,
    "forth": 9325,
    "Ġbreat": 3460,
    "Ġgenteel": 19984,
    "afterwards": 7483,
    "Ġlodgings": 8312,
    "Ġgazes": 24098,
    "Ġmathematical": 3351,
    "acing": 2718,
    "mentioned": 10626,
    "Ġdowncast": 18652,
    "Ġsched": 2337,
    "Ġbecause": 2212,
    "Ġascent": 19621,
    "Ġramadan": 9578,
    "Ġhuggins": 24826,
    "Ġpressure": 13426,
    "msgate": 18413,
    "Ġprincely": 24151,
    "Ġuninterrupted": 22048,
    "Ġerudite": 26353,
    "appetite": 22852,
    "Ġbriskly": 25312,
    "Ġ120": 16860,
    "Ġdig": 6136,
    "Ġroses": 11790,
    "Ġpersuading": 19413,
    "Ġalteration": 9549,
    "Ġalternating": 15033,
    "Ġuttermost": 19491,
    "Ġchaise": 9079,
    "Ġsafety": 6340,
    "Ġado": 7626,
    "point": 6063,
    "remental": 21250,
    "Ġgoblets": 20522,
    "Ġdiscernment": 15072,
    "arcy": 1272,
    "Ġdespite": 19356,
    "Ġbales": 21392,
    "Ġarriving": 19220,
    "Ġsailing": 5324,
    "helmsman": 24289,
    "Ġamused": 11803,
    "Ġcompasses": 11269,
    "Ġlethar": 21735,
    "moil": 22706,
    "crossed": 16635,
    "Ġshelves": 15000,
    "Ġunpleasing": 22057,
    "Ġmuse": 13863,
    "Ġcoquet": 22588,
    "Ġconducted": 10505,
    "Ġfacial": 10608,
    "caught": 8730,
    "Ġsnatches": 16546,
    "awing": 18917,
    "Ġties": 12533,
    "Ġjoint": 12038,
    "Ġdespise": 14668,
    "Ġif": 697,
    "Ġbradstreet": 9579,
    "stealthily": 23965,
    "Ġthread": 14541,
    "Ġstricken": 9779,
    "sto": 3202,
    "hurst": 19881,
    "izarre": 17392,
    "Ġjoints": 12039,
    "Ġwarden": 17227,
    "Ġeffects": 7235,
    "abashed": 21796,
    "romed": 10907,
    "rily": 7621,
    "Ġjoyously": 19350,
    "Ġovertook": 18424,
    "prof": 7698,
    "leg": 2811,
    "ors": 854,
    "unaccountable": 15783,
    "Ġwhites": 21720,
    "Ġpoor": 1707,
    "Ġcompression": 18147,
    "Ġbraced": 16581,
    "quar": 7615,
    "castles": 14638,
    "Ġpipeline": 2213,
    "acks": 11792,
    "Ġthousands": 6749,
    "onted": 11570,
    "Ġwhat": 600,
    "Ġimpressions": 9556,
    "your": 1984,
    "Ġsw": 1353,
    "Ġseethe": 21967,
    "etymology": 14704,
    "mosp": 8089,
    "bad": 12440,
    "Ġlandau": 16423,
    "Ġspite": 4155,
    "oury": 22308,
    "hated": 17563,
    "Ġoutrageous": 20613,
    "Ġminut": 2206,
    "Ġpref": 14174,
    "Ġpiqu": 21480,
    "Ġmature": 17801,
    "Ġdashing": 8800,
    "Ġrazors": 22659,
    "Ġreserves": 19673,
    "Ġsitt": 21220,
    "Ġbarrow": 12074,
    "anely": 17838,
    "endure": 22218,
    "Ġtopsails": 19197,
    "Ġknee": 7094,
    "Ġasylum": 13670,
    "Ġflat": 8228,
    "birth": 15325,
    "Ġschol": 17380,
    "Ġess": 5691,
    "Ġrome": 12160,
    "Ġfield": 1242,
    "Ġgathering": 14981,
    "mblings": 19783,
    "Ġaspect": 3100,
    "Ġanim": 2112,
    "Ġbone": 4696,
    "Ġ(`": 12857,
    "away": 4627,
    "Ġtablet": 19208,
    "Ġcig": 6520,
    "zes": 11551,
    "anum": 17837,
    "Ġfrankness": 16748,
    "rep": 5525,
    "breaths": 25337,
    "Ġendangered": 16306,
    "Ġcosy": 13135,
    "Ġtravelling": 11309,
    "oved": 5215,
    "task": 13796,
    "shell": 16290,
    "safe": 10057,
    "Ġspecially": 12002,
    "Ġetern": 7086,
    "Ġcolony": 18765,
    "Ġtumbled": 13410,
    "deceit": 25557,
    "Ġbottles": 16572,
    "Ġdetermines": 2367,
    "Ġformless": 22830,
    "Ġdemanded": 8327,
    "Ġmerit": 9430,
    "Ġfagged": 17884,
    "Ġmantelpiece": 15211,
    "Ġbenevolence": 9530,
    "Ġmilliner": 19886,
    "Ġbubblingly": 25633,
    "Ġstumbling": 21749,
    "bear": 10317,
    "Ġstumble": 26485,
    "fluke": 25205,
    "countless": 24153,
    "Ġemployment": 8632,
    "passion": 11262,
    "Ġoutfits": 22325,
    "orough": 5700,
    "Ġcoupled": 16853,
    "finding": 17015,
    "aloft": 8811,
    "Ġcompelled": 14271,
    "surd": 6933,
    "Ġstir": 5826,
    "------": 12138,
    "Ġlaborious": 13107,
    "Ġstrike": 4857,
    "inger": 6812,
    "inioned": 19289,
    "Ġcharity": 8866,
    "fuller": 22504,
    "Ġfortunes": 12183,
    "Ġliberties": 19670,
    "Ġmonsters": 11076,
    "Ġclasped": 17209,
    "weaving": 18667,
    "Ġtastes": 15480,
    "anation": 5804,
    "clothes": 9060,
    "hammer": 14491,
    "Ġcheering": 11135,
    "ĠĠĠĠĠĠĠĠĠĠĠĠĠĠĠĠĠĠĠĠĠĠĠĠĠĠĠĠĠĠĠĠĠĠĠĠĠĠĠĠĠĠĠĠĠĠĠ": 16757,
    "quest": 4540,
    "Ġslo": 15509,
    "Ġlearned": 2023,
    "Ġcastaways": 19431,
    "Ġbritannica": 24681,
    "reluct": 26164,
    "Ġmembrane": 20507,
    "Ġwealth": 7620,
    "fs": 17537,
    "icirc": 15660,
    "training": 2517,
    "leaves": 12583,
    "Ġdanger": 3521,
    "pul": 8757,
    "izes": 885,
    "Ġpossessed": 5195,
    "ice": 591,
    "Ġflu": 3278,
    "mathemat": 19139,
    "Ġearliest": 9833,
    "Ġdesires": 9460,
    "Ġoxen": 19954,
    "ccarthy": 4889,
    "Ġgerman": 6142,
    "Ġax": 7822,
    "shott": 11798,
    "Ġquies": 18465,
    "Ġparsonage": 7124,
    "Ġsqueezed": 20039,
    "Ġstain": 18070,
    "Ġinvis": 6901,
    "Ġcontact": 9284,
    "Ġtall": 4039,
    "Ġbelong": 3888,
    "gay": 11491,
    "Ġpossessor": 23827,
    "reed": 6373,
    "pton": 15796,
    "======================================================================": 10071,
    "Ġfoundling": 22973,
    "Ġlips": 3991,
    "Ġdirections": 1970,
    "ountain": 2921,
    "Ġprevented": 5942,
    "loud": 11503,
    "Ġdined": 9179,
    "Ġcasement": 25095,
    "Ġsuffocated": 20730,
    "lamps": 25261,
    "Ġmaddened": 17246,
    "blubber": 15240,
    "Ġpurchase": 12264,
    "Ġberths": 20118,
    "Ġinsolent": 13604,
    "enthus": 17980,
    "Ġarticles": 7109,
    "Ġasc": 4766,
    "mystical": 25318,
    "Ġpreaching": 15930,
    "Ġtropic": 17065,
    "Ġlob": 7627,
    "Ġwhitewashed": 14472,
    "Ġoverflowed": 20265,
    "Ġnewspaper": 12368,
    "Ġtried": 3649,
    "Ġstowing": 18077,
    "fowl": 17551,
    "ils": 3185,
    "Ġwant": 1118,
    "rimsh": 17029,
    "Ġhammock": 5768,
    "satisfied": 10581,
    "Ġlists": 11168,
    "Ġmanipulation": 10661,
    "flight": 15356,
    "Ġachieves": 4380,
    "pr": 3178,
    "Ġemblazonings": 26043,
    "sole": 6169,
    "sion": 8094,
    "Ġplaintiffs": 13613,
    "bureau": 20791,
    "Ġvoid": 14089,
    "azz": 8262,
    "Ġmaty": 22915,
    "Ġgrate": 12969,
    "severe": 21823,
    "Ġdrowsiness": 26447,
    "Ġnails": 12653,
    "Ġcupidity": 24535,
    "Ġdromed": 15601,
    "danger": 10092,
    "Ġindication": 22955,
    "ascertain": 21546,
    "relapse": 24019,
    "ieces": 4773,
    "girl": 12322,
    "Ġunfathomable": 20551,
    "Ġalong": 1979,
    "ruck": 6847,
    "Ġunconscious": 9550,
    "ulated": 6030,
    "Ġsatisfaction": 5667,
    "goldsmith": 20150,
    "Ġanalogy": 25640,
    "etween": 775,
    "Ġswore": 10381,
    "fen": 20852,
    "Ġcrane": 23440,
    "Ġblaming": 22933,
    "iqu": 7802,
    "mph": 20974,
    "Ġshoreless": 24297,
    "Ġyour": 634,
    "Ġspeed": 2449,
    "play": 5099,
    "pervised": 1535,
    "blasted": 20192,
    "island": 10796,
    "Ġnimble": 21531,
    "Ġvenom": 24241,
    "ems": 5236,
    "Ġrevolutions": 23845,
    "Ġfling": 9663,
    "uded": 6287,
    "Ġparl": 8178,
    "Ġcro": 4874,
    "Ġdamp": 8264,
    "vishnoo": 21122,
    "Ġstaring": 8830,
    "Ġwasted": 9707,
    "adjust": 21763,
    "gallery": 24694,
    "Ġdecanter": 22443,
    "Ġhushed": 13928,
    "Ġcomplet": 4425,
    "Ġsplashed": 23751,
    "Ġpul": 2039,
    "onom": 9161,
    "rel": 3755,
    "happy": 4427,
    "neying": 22462,
    "Ġannotations": 25955,
    "Ġkilled": 4955,
    "Ġfavoring": 2344,
    "Ġcop": 7579,
    "Ġbolt": 11336,
    "Ġwhir": 6393,
    "Ġdemig": 20359,
    "imperturbable": 25791,
    "na": 13763,
    "Ġslang": 23163,
    "Ġshirt": 8853,
    "acetti": 13400,
    "downward": 16621,
    "Ġwreck": 7313,
    "Ġvirtuous": 14758,
    "arch": 1107,
    "Ġdisapprobation": 16062,
    "Ġbeque": 18083,
    "Ġtrustees": 24109,
    "Ġ1839": 20463,
    "ostent": 16848,
    "Ġagain": 812,
    "think": 3609,
    "Ġaid": 6123,
    "Ġmod": 498,
    "ozy": 17624,
    "Ġknocked": 9503,
    "bowl": 14894,
    "Ġirregularly": 25324,
    "itheat": 21341,
    "Ġshrill": 12146,
    "Ġreports": 19086,
    "gall": 6360,
    "Ġalco": 21786,
    "Ġchoked": 9267,
    "Ġconquest": 15752,
    "uled": 11539,
    "unciation": 25983,
    "Ġartic": 5315,
    "Ġdistressed": 8516,
    "Ġrepute": 18037,
    "connection": 18870,
    "Ġinvention": 19956,
    "oars": 9617,
    "Ġshears": 18320,
    "Ġhospitable": 17060,
    "Ġnearly": 3363,
    "Ġtail": 3093,
    "Ġconfronted": 23310,
    "Ġelevates": 24503,
    "Ġhousemaid": 14468,
    "Ġhop": 1460,
    "suppose": 8648,
    "ations": 711,
    "Ġcareer": 11120,
    "Ġposit": 1303,
    "Ġstrolled": 16772,
    "ese": 4446,
    "paying": 25412,
    "iful": 2880,
    "Ġmerchantmen": 19862,
    "Ġuncommonly": 7759,
    "event": 8077,
    "shrugged": 22454,
    "progra": 9398,
    "Ġwrinkles": 8573,
    "Ġcash": 9655,
    "Ġdevelopment": 7059,
    "Ġspectre": 16633,
    "Ġfac": 6381,
    "Ġgeorgia": 23889,
    "abil": 2007,
    "Ġcountrymen": 23597,
    "ctions": 954,
    "Ġspread": 5161,
    "Ġimpenitent": 26550,
    "Ġfaint": 5812,
    "Ġensl": 19276,
    "Ġ27": 8618,
    "repairing": 24495,
    "Ġdiabolically": 25514,
    "Ġnocturnal": 20717,
    "Ġrelief": 6060,
    "Ġegyptian": 13590,
    "ract": 987,
    "Ġcompute": 2908,
    "Ġinside": 5448,
    "Ġbead": 21754,
    "pans": 13773,
    "Ġchanged": 5243,
    "growing": 13736,
    "Ġwestern": 10657,
    "lucas": 15155,
    "twig": 23699,
    "Ġrestrain": 8967,
    "Ġadd": 629,
    "Ġgaunt": 11270,
    "actory": 8911,
    "Ġworker": 23060,
    "Ġenlarged": 25986,
    "glass": 9912,
    "Ġsacrilege": 26230,
    "Ġcircumspect": 15088,
    "Ġmaddening": 17245,
    "unwilling": 14064,
    "Ġrefreshing": 20267,
    "ns": 750,
    "vari": 1516,
    "Ġrigger": 19533,
    "inquir": 9539,
    "tell": 1379,
    "Ġintimately": 24801,
    "Ġjoppa": 12040,
    "pag": 11513,
    "Ġkick": 5838,
    "Ġasph": 21902,
    "Ġcustoms": 19655,
    "Ġwhist": 6022,
    "Ġheightens": 24157,
    "Ġvictor": 5125,
    "softened": 20413,
    "cus": 3980,
    "À": 129,
    "Ġapprovingly": 26255,
    "Ġrequest": 6051,
    "Ġrepresenting": 4061,
    "Ġuniform": 2228,
    "Ġfattened": 25950,
    "Ġdiab": 10614,
    "Ġphilosophers": 10554,
    "Ġadversarial": 5607,
    "Ġwight": 12558,
    "ounders": 22389,
    "Ġcamel": 25350,
    "respectively": 24699,
    "Ġventure": 7739,
    "Ġlive": 2735,
    "c": 71,
    "Ġaye": 3353,
    "Ġshrouds": 11346,
    "Ġmightier": 18732,
    "coal": 12029,
    "Ġix": 12673,
    "Ġerskine": 17435,
    "Ġcould": 704,
    "Ġbamboo": 17440,
    "ullo": 12734,
    "Ġfreshly": 23990,
    "ivial": 15866,
    "ĠĠĠĠĠĠĠĠĠĠ": 18579,
    "Ġlion": 9678,
    "ateg": 1363,
    "Ġterrify": 19364,
    "expedition": 26079,
    "Ġens": 2786,
    "ir": 379,
    "Ġsoap": 14135,
    "Ġscuff": 15946,
    "Ġpettiness": 24232,
    "Ġpicture": 4858,
    "ay": 354,
    "Ġbenches": 18782,
    "Ġvulture": 17342,
    "deadly": 17101,
    "deep": 1032,
    "headsman": 16699,
    "churning": 21700,
    "surprised": 9534,
    "erable": 1915,
    "ited": 1750,
    "Ġ2": 2931,
    "swiss": 24258,
    "Ġlighter": 12658,
    "iminished": 19023,
    "sized": 15431,
    "akin": 11771,
    "Ġefforts": 11809,
    "Ġconsecut": 18117,
    "Ġcontaining": 2233,
    "Ġhusbands": 16645,
    "eers": 20845,
    "see": 3050,
    "Ġfashioned": 13325,
    "Ġauthor": 4376,
    "plans": 21956,
    "Ġdisappoint": 24208,
    "sh": 640,
    "opy": 4460,
    "step": 2457,
    "disinterested": 23505,
    "icing": 9203,
    "Ġwell": 902,
    "Ġstopped": 5957,
    "Ġkeen": 4615,
    "Ġnuptial": 25783,
    "elag": 12663,
    "Ġelusive": 22647,
    "calm": 8937,
    "Ġeffectually": 16172,
    "igned": 5656,
    "Ġath": 15805,
    "iration": 4542,
    "Ġunderstand": 834,
    "Ġworshipper": 25693,
    "but": 592,
    "Ġprecision": 13193,
    "Ġdivulged": 16651,
    "Ġdescends": 14289,
    "Ġfiner": 13058,
    "ever": 1079,
    "Ġrest": 1780,
    "Ġgratitude": 5599,
    "eding": 7165,
    "Ġquote": 18467,
    "ow": 326,
    "Ġbree": 5012,
    "Ġpushed": 5910,
    "Ġidentify": 12018,
    "Ġabatement": 22280,
    "enges": 13059,
    "sails": 7496,
    "Ġfronted": 23260,
    "gressive": 2753,
    "Ġpondered": 15170,
    "Ġrecip": 16144,
    "Ġchronicle": 20231,
    "Ġvan": 1089,
    "Ġhack": 12761,
    "supp": 4161,
    "Ġnameless": 7699,
    "Ġdau": 21428,
    "Ġmoderation": 12824,
    "â": 163,
    "Ġtransformers": 1135,
    "skin": 10571,
    "gaining": 20127,
    "Ġcreat": 1449,
    "Ġcontinued": 2925,
    "Ġindistinctly": 26118,
    "tling": 9145,
    "Ġcoloss": 11047,
    "Ġadoption": 24951,
    "farm": 15355,
    "Ġrespective": 16348,
    "Ġproducing": 11903,
    "warrior": 24797,
    "inev": 21969,
    "Ġlaughing": 5339,
    "Ġprevail": 13446,
    "Ġautumnal": 19035,
    "Ġseparated": 9467,
    "Ġharvest": 13419,
    "Ġpinched": 17036,
    "Ġsinners": 18952,
    "Ġnut": 12651,
    "baned": 17498,
    "Ġsmaller": 1881,
    "Ġseemingly": 9321,
    "alogue": 25163,
    "w": 91,
    "wall": 10139,
    "simp": 17667,
    "Ġcreep": 22729,
    "Ġgree": 7594,
    "Ġquarrelling": 13502,
    "eland": 11623,
    "uzza": 11272,
    "Ġroast": 18458,
    "ox": 9136,
    "Ġalmanac": 26487,
    "Ġprepar": 7897,
    "Ġliberally": 16832,
    "Ġsinks": 19552,
    "Ġchamp": 18382,
    "Ġrokovoko": 22410,
    "detached": 19677,
    "consequ": 18505,
    "Ġreconciliation": 25293,
    "Ġethere": 23954,
    "Ġarve": 15897,
    "sister": 5139,
    "Ġscotch": 12214,
    "uber": 15448,
    "Ġsplice": 19311,
    "Ġshag": 9254,
    "Ġalgorith": 560,
    "Ġaroused": 15898,
    "rat": 8759,
    "squ": 7809,
    "Ġ63": 24366,
    "usiveness": 22297,
    "Ġwidespread": 20678,
    "operations": 19978,
    "Ġxerxes": 23414,
    "Ġimagination": 5759,
    "omuch": 21643,
    "Ġreinforcement": 3154,
    "Ġunbending": 25465,
    "Ġturks": 14600,
    "Ġsuppress": 13029,
    "Ġpuzzling": 14901,
    "convenient": 12242,
    "occasion": 7753,
    "sail": 3603,
    "Ġshook": 4470,
    "Ġuninter": 18247,
    "itia": 11582,
    "speckled": 23948,
    "mental": 16052,
    "Ġmajest": 24065,
    "kye": 20940,
    "ampled": 18885,
    "Ġ59": 24323,
    "Ġrash": 10900,
    "Ġdiffident": 23786,
    "Ġheadlong": 11892,
    "studied": 17152,
    "movement": 25578,
    "Ġemergencies": 17365,
    "Ġventilator": 8717,
    "Ġdignified": 15602,
    "Ġofficial": 7082,
    "Ġhorns": 11125,
    "Ġseasoned": 24405,
    "Ġeleven": 9393,
    "allers": 22201,
    "Ġflourished": 15129,
    "rally": 17653,
    "Ġtennes": 23551,
    "Ġmortified": 14697,
    "Ġlurking": 11291,
    "harb": 9126,
    "fishers": 24929,
    "Ġbounding": 19403,
    "y": 93,
    "Ġmotive": 6091,
    "itives": 17821,
    "rapt": 13976,
    "friendly": 13289,
    "Ġobjective": 3766,
    "rene": 5379,
    "Ġconsumed": 10352,
    "Ġvilla": 14750,
    "offer": 19060,
    "Ġsubstituting": 26328,
    "Ġhostile": 19943,
    "Ġamerican": 5061,
    "Ġmarked": 4621,
    "can": 1231,
    "omely": 21642,
    "Ġshortly": 6197,
    "Ġbrilliancy": 20110,
    "Ã¦st": 24178,
    "Ġnatures": 16508,
    "Ġbagging": 24539,
    "Ġcanal": 8182,
    "Ġcoding": 8116,
    "Ġquiescent": 26244,
    "ga": 17552,
    "Ġrequirements": 9797,
    "Ġclouded": 13295,
    "Ġrustic": 14968,
    "Ġbreaths": 14860,
    "ghan": 19458,
    "Ġtrumpet": 9576,
    "lose": 12887,
    "Ġcumul": 4178,
    "Ġjoist": 19234,
    "comfortable": 7319,
    "Ġclang": 15975,
    "Ġzealand": 12354,
    "Ġpretensions": 16560,
    "Ġactor": 16053,
    "ladder": 19787,
    "Ġtwins": 16124,
    "Ġendeared": 26500,
    "hall": 8085,
    "husband": 8042,
    "eaten": 20347,
    "Ġadopted": 15182,
    "Ġworshipped": 25692,
    "glances": 23856,
    "threadbare": 25990,
    "Ġinjuries": 11279,
    "hau": 17564,
    "earnest": 12403,
    "Ġbeware": 8832,
    "Ġsyllables": 25299,
    "Ġcheap": 13093,
    "Ġrings": 11704,
    "Ġcontrived": 10306,
    "Ġdeeper": 2082,
    "ment": 687,
    "Ġvoids": 25808,
    "Ġsix": 3047,
    "Ġaloft": 4303,
    "Ġenters": 11028,
    "Ġrecently": 11866,
    "composure": 24038,
    "acquaintance": 6937,
    "Ġmurky": 19205,
    "confirmed": 19643,
    "Ġdownright": 16122,
    "Ġxliv": 23412,
    "Ġfidgeted": 25890,
    "Ġsympathising": 24299,
    "Ġdetermination": 9822,
    "Ġmexico": 15284,
    "Ġsoft": 1458,
    "Ġloads": 22118,
    "Ġflapped": 23014,
    "Ġfarm": 7840,
    "Ġgag": 21596,
    "Ġattended": 5391,
    "uits": 21107,
    "Ľ": 254,
    "udg": 22773,
    "Ġprogressive": 5024,
    "Ġwhel": 15870,
    "recol": 10153,
    "Ġclassification": 1110,
    "Ġrat": 4353,
    "pped": 1998,
    "when": 1591,
    "Ġdesmarest": 22984,
    "listen": 13517,
    "rush": 7011,
    "Ġfelix": 4850,
    "seek": 8841,
    "ieving": 7033,
    "yond": 2330,
    "greg": 6649,
    "Ġhunter": 5401,
    "eag": 20844,
    "Ġconfused": 7964,
    "Ġfluctu": 5268,
    "Ġfind": 1457,
    "Ġdisgusting": 19896,
    "Ġterrified": 14674,
    "Ġblast": 7444,
    "itable": 5437,
    "secondly": 16986,
    "Ġmoustache": 20487,
    "aby": 18109,
    "ography": 13367,
    "prodigious": 17469,
    "Ġsolemnity": 9944,
    "risonment": 17378,
    "Ġeyel": 17097,
    "50": 6784,
    "Ġimmense": 4952,
    "Ġadvocate": 13680,
    "gh": 3803,
    "Ġascertaining": 17206,
    "rative": 17654,
    "ravity": 21638,
    "diss": 17525,
    "condite": 23250,
    "Ġsaloon": 24067,
    "Ġmadman": 13155,
    "Ġfanc": 6744,
    "frau": 15093,
    "listener": 24931,
    "Ġevaluation": 16587,
    "Ġquarter": 3977,
    "Ġhooked": 19081,
    "ă": 196,
    "Ġcomprise": 18585,
    "Ġoakum": 16936,
    "Ġstrove": 9960,
    "Ġprec": 2922,
    "Ġdreaminess": 23943,
    "enterprise": 24995,
    "Ġsway": 7570,
    "project": 16428,
    "happened": 9436,
    "continually": 11304,
    "Ġmainten": 16117,
    "judged": 14834,
    "presence": 18497,
    "vial": 17699,
    "Ġboxed": 24360,
    "Ġrequesting": 24633,
    "Ġgathered": 8444,
    "counterpart": 26361,
    "Ġliberal": 12195,
    "Ġschoolboys": 24481,
    "wat": 6232,
    "Ġaveraging": 2417,
    "itage": 17818,
    "Ġunheeded": 18262,
    "Ġgenerates": 3665,
    "ls": 1289,
    "Ġneskye": 21534,
    "Ġfreshet": 25704,
    "Ġwaifing": 25244,
    "59": 17476,
    "Ġfootfall": 14663,
    "Ġcircumference": 13548,
    "Ġunaccountable": 7887,
    "aset": 10834,
    "Ġhum": 1098,
    "magnifying": 25393,
    "oftener": 23968,
    "transform": 8050,
    "stating": 21650,
    "Ġstretched": 5920,
    "itate": 6669,
    "Ġfreely": 7057,
    "Ġvainly": 9927,
    "Ġcher": 6130,
    "Ġretirement": 25379,
    "ilities": 6991,
    "Ġpreliminaries": 25177,
    "bo": 1690,
    "Ġwindpipe": 23109,
    "Ġruskin": 25810,
    "Ġimpenetrable": 17401,
    "Ġply": 21456,
    "Ġpredict": 668,
    "Ġirreproachable": 24918,
    "ken": 2799,
    "duct": 3508,
    "complete": 15037,
    "Ġsuper": 2155,
    "blo": 6354,
    "Ġmanage": 7640,
    "Ġactivity": 7920,
    "spass": 18690,
    "han": 12477,
    "Ġtelegram": 15227,
    "Ġincommod": 25308,
    "Ġcharnel": 22256,
    "reject": 21239,
    "lic": 17589,
    "Ġslanting": 23176,
    "Ġhorizon": 6634,
    "Ġsighing": 18677,
    "Ġwalk": 1825,
    "Ġrussia": 26269,
    "asked": 8915,
    "Ġsum": 2699,
    "disapprobation": 19159,
    "Ġintervene": 25481,
    "Ġhooded": 12410,
    "comfortably": 16877,
    "Ġsuperstitious": 13523,
    "Ġspeaking": 4028,
    "Ġinvestigation": 9045,
    "Ġinterrupting": 19560,
    "Ġsquires": 16185,
    "Ġattempting": 14699,
    "Ġsteamer": 17191,
    "Ġmoles": 22436,
    "Ġextinction": 14332,
    "Ġmanhood": 22330,
    "Ġwilds": 16511,
    "infliction": 25925,
    "ength": 2314,
    "Ġdusky": 13553,
    "Ġrise": 5637,
    "Ġadjusted": 23460,
    "Ġcontour": 18475,
    "Ġcontent": 5034,
    "keel": 14131,
    "ired": 1444,
    "visited": 13352,
    "Ġconflagration": 26366,
    "Ġreaction": 15699,
    "Ġcurve": 22974,
    "Ġcareful": 2611,
    "Ġancho": 15607,
    "Ġghastly": 10063,
    "Ġkind": 1784,
    "haul": 14768,
    "Ġchagrin": 20610,
    "Ġheav": 1849,
    "Ġenv": 2825,
    "Ġcourtiers": 24138,
    "Ġhandsomest": 20337,
    "ogy": 22709,
    "Ġloadstone": 25817,
    "Ġarose": 7359,
    "Ġexhibition": 14960,
    "Ġnavigators": 19766,
    "Ġpretension": 23767,
    "ĉ": 202,
    "Ġdifficulties": 11227,
    "painter": 24897,
    "degrees": 22154,
    "Ġdefiance": 11070,
    "apparent": 11043,
    "Ġmildly": 9032,
    "Ġheel": 9687,
    "indulged": 22379,
    "dee": 11737,
    "Ġhan": 15622,
    "Ġimpertin": 6932,
    "rent": 1173,
    "liest": 6295,
    "Ġwinc": 9645,
    "stranger": 9886,
    "inces": 13831,
    "harmony": 25751,
    "qu": 369,
    "Ġbishop": 13905,
    "part": 2573,
    "Ġaltar": 9231,
    "mpt": 6655,
    "Ġstealing": 18894,
    "estab": 14173,
    "independ": 15985,
    "Ġsettee": 22924,
    "Ġlatterly": 24086,
    "Ġfountains": 13506,
    "Ġflush": 14427,
    "Ġtherein": 11780,
    "Ġdi": 6525,
    "Ġchild": 2261,
    "linging": 16086,
    "anter": 9169,
    "Ġblazing": 11900,
    "ert": 2631,
    "ogra": 4575,
    "Ġassertion": 13493,
    "Ġslaught": 23171,
    "Ġbathe": 25444,
    "Ġsteward": 6585,
    "roused": 16655,
    "united": 14063,
    "injustice": 17739,
    "Ġprecipices": 12282,
    "Ġmahogany": 20581,
    "Ġohio": 19130,
    "Ġsubterranean": 13615,
    "Ġpeddling": 21485,
    "Ġbath": 9661,
    "Ġuntidy": 23526,
    "Ġgipsies": 12412,
    "Ġpronouncing": 16971,
    "ous": 476,
    "Ġfidget": 15193,
    "Ġwalking": 4324,
    "Ġrecognised": 8998,
    "infl": 15490,
    "Ġdetective": 14408,
    "Ġmirror": 12382,
    "Ġshrouded": 14972,
    "Ġheh": 21683,
    "Ġmalice": 7152,
    "Ġtwelvemonth": 12182,
    "Ġtenth": 13829,
    "Ġforbidding": 17080,
    "Ġswings": 11089,
    "Ġprynne": 25541,
    "Ġfatigue": 8701,
    "lit": 9608,
    "Ġsevent": 18203,
    "Ġinstability": 3815,
    "Ġaugmented": 15109,
    "Ġcounties": 23305,
    "Ġsullen": 9160,
    "Ġsynthe": 26008,
    "Ġhudson": 15195,
    "Ġhaz": 12760,
    "with": 1295,
    "sme": 17660,
    "onet": 12550,
    "jam": 15375,
    "Ġtambourine": 9567,
    "distrust": 19573,
    "coat": 5407,
    "Ġtophet": 23575,
    "zas": 17714,
    "Ġagreed": 7029,
    "Ġglitter": 25126,
    "Ġsurplus": 26304,
    "Ġreassure": 21675,
    "Ġmanaging": 22329,
    "Ġvehemence": 26568,
    "Ġdiving": 12606,
    "Ġcopper": 7424,
    "trivial": 21095,
    "Ġplatform": 17134,
    "Ġmundane": 26431,
    "Ġhunts": 23162,
    "Ġresentful": 24632,
    "Ġreceived": 2954,
    "Ġimagenet": 19248,
    "atoes": 17777,
    "Ġtrophy": 20010,
    "Ġlac": 17967,
    "sought": 15430,
    "Ġinhab": 5083,
    "Ġghostliness": 24652,
    "ŀ": 257,
    "Ġforster": 5230,
    "doubtful": 24790,
    "scap": 22993,
    "30": 20756,
    "ladies": 9532,
    "Ġnarration": 13507,
    "Ġfastidious": 14494,
    "sworn": 24259,
    "tub": 9146,
    "Ġchancing": 22252,
    "Ġpret": 3038,
    "Ġshave": 22000,
    "destroyed": 15264,
    "Ġallude": 12776,
    "Ġspeckled": 14312,
    "Ġdaint": 15597,
    "Ġunthinkingly": 26222,
    "Ġjourney": 3882,
    "such": 3086,
    "Ġsomewhere": 5384,
    "Ġconstraints": 2740,
    "otted": 14027,
    "Ġtim": 4580,
    "spirits": 8055,
    "Ġpersu": 3564,
    "cottage": 9572,
    "Ġseconds": 16397,
    "Ġinterp": 16078,
    "cturn": 17989,
    "Ġhogshe": 20495,
    "pictures": 15094,
    "Ġuncounted": 19118,
    "Ġlab": 1869,
    "rigged": 17063,
    "Ġwarmth": 6904,
    "Ġhotel": 8654,
    "Ġtrusty": 24106,
    "ict": 589,
    "Ġpreliminary": 10060,
    "Ġprovinces": 24193,
    "vocation": 25087,
    "izure": 21845,
    "recover": 24623,
    "Ġcomrades": 9236,
    "transferred": 24514,
    "Ġinland": 11611,
    "Ġclay": 7020,
    "Ġstamping": 20034,
    "Ġapproving": 18518,
    "Ġpublicly": 13327,
    "Ġcoincidences": 26365,
    "Ġdistinguishing": 16499,
    "Ġungod": 22026,
    "generous": 16570,
    "ection": 4948,
    "Ġfift": 6382,
    "Ġbible": 9322,
    "Ġwond": 3940,
    "Ġdoor": 1739,
    "Ġsorrows": 13359,
    "Ġthanking": 18605,
    "Ġcups": 16884,
    "repugnance": 16866,
    "Ġsignals": 10588,
    "Ġsprang": 5064,
    "Ġunclasp": 26513,
    "Ġsound": 2244,
    "persecut": 22188,
    "Ġfits": 8795,
    "ignomin": 23269,
    "Ġfeature": 742,
    "Ġdearly": 10404,
    "Ġclattering": 22368,
    "Ġrepented": 23365,
    "Ġrenewed": 9541,
    "Ġmonster": 3795,
    "Ġseventeen": 26212,
    "Ġkn": 4548,
    "aution": 9390,
    "Ġworse": 4720,
    "ribes": 23369,
    "Ġinfluenced": 19635,
    "Ġjour": 11768,
    "Ġbiscuit": 12594,
    "Ġpag": 6011,
    "trem": 17683,
    "Ġbanks": 6814,
    "Ġloftiest": 16876,
    "paused": 17377,
    "max": 1685,
    "Ġetc": 7085,
    "Ġlinked": 15081,
    "deserving": 17248,
    "Ġwarrior": 24496,
    "alloyed": 22205,
    "Ġultimate": 12353,
    "glimmer": 26323,
    "tashtego": 9625,
    "Ġdetermining": 14424,
    "Ġcomforted": 19394,
    "idable": 8146,
    "Ġang": 2511,
    "ular": 709,
    "Ġdawned": 14997,
    "Ġtusk": 25426,
    "Ġfood": 5080,
    "lur": 13750,
    "ung": 2745,
    "commod": 16180,
    "Ġa": 263,
    "Ġcaulk": 25441,
    "girls": 12323,
    "ĠĠĠĠĠĠĠĠĠĠĠĠĠĠĠĠĠĠĠĠĠĠĠĠĠĠĠĠĠĠĠĠĠĠĠĠĠĠĠĠĠĠĠĠ": 12158,
    "Ġbigger": 19764,
    "Ġbrig": 11049,
    "olog": 1084,
    "liked": 10511,
    "apothecary": 26547,
    "Ġscare": 18397,
    "Ġemperors": 15163,
    "if": 376,
    "Ġsoup": 7068,
    "Ġoozy": 21330,
    "ued": 7560,
    "Ġrecklessly": 16985,
    "Ġlaying": 7908,
    "Ġweariness": 19797,
    "Ġinterests": 14571,
    "Ġsurmises": 17056,
    "Ġturnkeys": 23031,
    "Ġedinburgh": 16458,
    "expectations": 24279,
    "Ġorchard": 22098,
    "ks": 3148,
    "pedest": 24823,
    "Ġmanufactured": 22334,
    "eminent": 25107,
    "Ġhebrew": 13991,
    "Ġspectator": 19409,
    "Ġleaking": 21734,
    "Ġrattler": 24998,
    "Ġsubmerged": 11876,
    "gems": 20886,
    "Ġmountain": 3373,
    "escaped": 14232,
    "Ġfav": 1754,
    "Ġheadstrong": 14391,
    "aling": 1033,
    "Ġbelted": 22951,
    "convul": 24884,
    "Ġyankees": 26203,
    "Ġwretchedly": 19509,
    "Ġfairy": 14629,
    "Ġeconomy": 17203,
    "Ġallow": 1126,
    "Ġl": 303,
    "their": 2539,
    "machine": 970,
    "Ġtails": 9905,
    "Ġrefined": 18696,
    "Ġapprehensions": 13408,
    "Ġsupposed": 4560,
    "ary": 988,
    "Ġramad": 8529,
    "Ġregent": 18588,
    "Ġsympat": 13345,
    "apply": 18760,
    "Ġviol": 2070,
    "Ġrecre": 22741,
    "expectation": 14859,
    "Ġsaf": 4001,
    "mund": 13761,
    "intu": 22936,
    "unct": 18157,
    "Ġflatter": 9351,
    "values": 4974,
    "pretend": 24883,
    "ousness": 10277,
    "Ġunceasingly": 20362,
    "Ġhandkerchief": 8917,
    "ferences": 10329,
    "Ġsolicitude": 10043,
    "Ġpawn": 12067,
    "stately": 18024,
    "----âĢĻ": 24101,
    "whip": 22241,
    "Ġstr": 759,
    "ong": 537,
    "gging": 7696,
    "borough": 20787,
    "Ġrestored": 7067,
    "famous": 16918,
    "Ġfunny": 7637,
    "number": 10117,
    "Ġtheatre": 21281,
    "culiarity": 11143,
    "Ġ86": 24461,
    "Ġattested": 22625,
    "Ġunostentatious": 22071,
    "leather": 13893,
    "arabian": 26448,
    "Ġexposed": 8524,
    "embra": 14077,
    "pitchpoling": 25725,
    "beaut": 8514,
    "Ġaddison": 14235,
    "Ġrevolut": 3258,
    "âĢľâĢĻ": 10224,
    "cott": 8074,
    "Ġbennett": 16328,
    "lay": 5891,
    "Ġcoolly": 9775,
    "Ġfocuses": 8653,
    "Ġardu": 22182,
    "Ġvoluntarily": 12145,
    "Ġsphere": 15886,
    "Ġdue": 3846,
    "Ġbrim": 12982,
    "gins": 12473,
    "uneven": 23685,
    "Ġmanxman": 9568,
    "Ġpigeon": 9519,
    "Ġhoe": 23354,
    "Ġwait": 4908,
    "Ġdiscussing": 5202,
    "eridge": 15529,
    "Ġassizes": 11111,
    "strikes": 24671,
    "Ġsoph": 1609,
    "Ġdragging": 14478,
    "riptions": 14797,
    "Ġwind": 1432,
    "Ġcanes": 22167,
    "stained": 21658,
    "Ġdames": 23477,
    "Ġcister": 13885,
    "harbor": 13568,
    "amiable": 14057,
    "Ġfigure": 4206,
    "Ġrestricted": 19027,
    "Ġunerringly": 18266,
    "Ġmasked": 3697,
    "Ġtown": 2456,
    "Ġtoilet": 13940,
    "distinguished": 10529,
    "Ġmccarthys": 19665,
    "tomb": 21096,
    "exposure": 19259,
    "yset": 21148,
    "Ġcapst": 8599,
    "social": 11025,
    "Ġlosing": 10918,
    "Ġpeculiarity": 12938,
    "angs": 5835,
    "Ġblessings": 24179,
    "Ġwishes": 4796,
    "Ġposterity": 17405,
    "lost": 8891,
    "ook": 21006,
    "ĠĠĠĠĠĠĠ": 7631,
    "pillar": 5619,
    "Ġfunctions": 1337,
    "impregn": 21717,
    "Ġrambling": 18644,
    "Ġsundry": 20077,
    "%": 9,
    "Ġbaff": 10801,
    "Ġantique": 19554,
    "Ġgrieve": 14710,
    "canonical": 22966,
    "Ġgas": 8133,
    "Ġassociation": 24710,
    "Ġwa": 1753,
    "Ġfrancisco": 26065,
    "Ġstriking": 6088,
    "Ġrussian": 14353,
    "Ġexhibited": 9547,
    "Ġoverpowered": 15292,
    "Ġcarpet": 9359,
    "Ġbaling": 17861,
    "Ġstrives": 23695,
    "Ġcentury": 8291,
    "copyright": 5278,
    "Ġfancied": 7325,
    "Ġbast": 21382,
    "Ġsearch": 2590,
    "breckinridge": 24078,
    "contempl": 13195,
    "fine": 10093,
    "Ġfundamental": 3017,
    "Ġscound": 12837,
    "Ġ127": 24472,
    "proceed": 8979,
    "Ġtrailing": 23082,
    "gaze": 17559,
    "explanations": 25235,
    "slanting": 24558,
    "Ġmoving": 1678,
    "Ġability": 2763,
    "Ġprick": 14480,
    "Ġagent": 6278,
    "sen": 21052,
    "Ġrather": 1493,
    "Ġlawy": 9457,
    "Ġever": 1183,
    "Ġtexas": 25923,
    "Ġleech": 24158,
    "Ġthankful": 14741,
    "now": 548,
    "Ġlump": 21555,
    "freely": 16856,
    "circ": 4389,
    "Ġlightness": 23263,
    "Ġannum": 24206,
    "Ġepic": 15032,
    "Ġlargely": 14288,
    "Ġwithhold": 18114,
    "discoloured": 23502,
    "Ġvolition": 14800,
    "Ġbespe": 19244,
    "enc": 7573,
    "Ġdeath": 2041,
    "Ġordinarily": 20651,
    "Ġword": 1053,
    "Ġtalents": 15047,
    "ryder": 18639,
    "ipper": 13743,
    "Ġsab": 10764,
    "Ġtarquin": 23612,
    "Ġacknowledges": 24689,
    ")(": 2984,
    "!âĢĿ": 846,
    "Ġcynical": 25771,
    "minute": 11276,
    "Ġnephews": 24713,
    "Ġuproar": 22159,
    "folding": 24928,
    "Ġvestibule": 13540,
    "Ġexped": 7650,
    "Ġdem": 11676,
    "yards": 9626,
    "Ġgum": 21598,
    "Ġyours": 4123,
    "Ġlucifers": 16590,
    "Ġholiday": 13003,
    "rets": 12546,
    "Ġunreasoning": 15849,
    "Ġstra": 2994,
    "ropri": 2179,
    "Ġcommence": 6168,
    "Ġtossings": 25357,
    "Ġdissu": 18550,
    "Ġesquimaux": 25154,
    "Ġrounds": 18886,
    "fates": 20860,
    "Ġhearts": 4972,
    "seals": 21822,
    "took": 6165,
    "Ġstops": 3169,
    "Ġsir": 1570,
    "Ġbows": 4083,
    "failed": 20865,
    "emone": 21929,
    "Ġroar": 9756,
    "tossing": 18582,
    "hur": 6650,
    "Ġdenoted": 16567,
    "Ġextras": 22727,
    "penny": 22948,
    "meanwhile": 10612,
    "lied": 6507,
    "Ġlovel": 10274,
    "Ġboneless": 19608,
    "Ġmistress": 8615,
    "Ġestim": 3349,
    "Ġgaol": 19570,
    "Ġtract": 21168,
    "honorable": 19903,
    "Ġkitchen": 8497,
    "Ġriots": 23895,
    "Ġuns": 15840,
    "ahit": 9385,
    "ortal": 6266,
    "Ġcour": 1767,
    "|": 96,
    "Ġmarks": 6747,
    "sprinkling": 24913,
    "Ġsubur": 12962,
    "Ġmalicious": 10560,
    "rained": 5162,
    "clad": 14462,
    "Ġsaws": 23050,
    "Ġmetrics": 19075,
    "Ġaband": 6562,
    "Ġattained": 14081,
    "Ġmisanthrop": 22761,
    "confid": 14870,
    "Ġfasting": 16359,
    "Ġoverwhel": 8195,
    "Ġinestimable": 17445,
    "Ġspect": 3553,
    "idered": 4555,
    "affairs": 14658,
    "Ġaccosted": 13676,
    "Ġtoil": 6532,
    "Ġagonized": 25373,
    "Ġdetailed": 12829,
    "Ġclutched": 13522,
    "vi": 2374,
    "Ġlounged": 19957,
    "Ġfinest": 10395,
    "Ġbracelets": 25503,
    "Ġelastic": 4361,
    "aimed": 3954,
    "Ġshortness": 23485,
    "seamen": 13630,
    "Ġbrutality": 26278,
    "raltar": 24236,
    "Ġverge": 23890,
    "unbidden": 21898,
    "skirted": 24489,
    "Ġrelates": 12986,
    "grown": 10102,
    "Ġarrang": 2471,
    "Ġposture": 24167,
    "Ġanswer": 2598,
    "Ġstatements": 7515,
    "bud": 10686,
    "english": 2773,
    "ado": 11661,
    "Ġmanual": 14200,
    "Ġced": 10786,
    "Ġtake": 1579,
    "malicious": 19904,
    "Ġpot": 2993,
    "Ġpine": 8801,
    "Ġmiller": 19885,
    "Ġboldness": 24428,
    "Ġcollecting": 12290,
    "eman": 5636,
    "idled": 21772,
    "Ġ177": 13416,
    "Ġinclusive": 24166,
    "Ġfree": 3376,
    "Ġexeget": 24087,
    "Ġ76": 24265,
    "airing": 16178,
    "gument": 20887,
    "pistol": 17644,
    "Ġgabriel": 7595,
    "Ġleaned": 7604,
    "Ġtrop": 7564,
    "ougher": 18280,
    "smitten": 23912,
    "fair": 10095,
    "bringing": 17169,
    "Ġcalmed": 16271,
    "vent": 683,
    "Ġperch": 10299,
    "Ġusefulness": 19411,
    "Ġcondensed": 24057,
    "univers": 15776,
    "ises": 3655,
    "culine": 19065,
    "Ġinterrupted": 6344,
    "properly": 24919,
    "historical": 20469,
    "himself": 3972,
    "Ġeels": 21623,
    "sir": 5001,
    "causing": 25519,
    "Ġassumptions": 5517,
    "Ġreckoning": 14982,
    "Ġaustral": 12177,
    "Ġasking": 5651,
    "leagues": 21376,
    "Ġmagn": 1555,
    "Ġposs": 1617,
    "Ġseats": 14092,
    "era": 13850,
    "prisoner": 20546,
    "eray": 21269,
    "ı": 242,
    "ogr": 18674,
    "practical": 17224,
    "Ġmisconduct": 22760,
    "Ġopportunity": 4787,
    "Ġyojo": 7610,
    "Ġconvul": 13207,
    "Ġlabyrin": 13108,
    "Ġajar": 21205,
    "inting": 9817,
    "Ġinhabit": 5782,
    "Ġprodigies": 19796,
    "Ġmediocr": 24141,
    "Ġambergris": 8709,
    "Ġdraughts": 20224,
    "Ġar": 478,
    "Ġeloped": 22646,
    "Ġwhaler": 7519,
    "Ġdive": 10175,
    "Ġjustinian": 22972,
    "Ġsayest": 22782,
    "sence": 3307,
    "emper": 18183,
    "Ġrig": 4225,
    "Ġevils": 9023,
    "Ġage": 3898,
    "Ġbachelor": 7786,
    "Ġrights": 10399,
    "Ġicelandic": 25887,
    "Ġmatrices": 4969,
    "Ġwinter": 5220,
    "Ġinconsiderable": 21498,
    "Ġembarrassment": 10629,
    "insensibility": 23072,
    "Ġreach": 4047,
    "Ġtravelled": 7771,
    "violent": 14581,
    "Ġparacelsus": 15270,
    "Ġrely": 8825,
    "Ġqueer": 4480,
    "Ġexhaled": 19685,
    "Ġamazement": 7764,
    "ĠĠĠĠĠĠĠĠĠĠĠĠĠĠĠĠĠĠĠĠĠĠĠĠĠĠĠĠĠĠĠĠĠĠĠĠĠĠ": 16528,
    "poster": 11058,
    "Ġsteered": 11094,
    "Ġgradients": 611,
    "Ġjun": 8507,
    "Ġencirc": 18733,
    "Ġpugn": 21483,
    "Ġembarr": 7445,
    "Ġlazarus": 15031,
    "Ġmodified": 14169,
    "Ġalmost": 1658,
    "Ġkeeping": 7282,
    "Ġpitching": 16613,
    "erm": 787,
    "Ġbarbaric": 10017,
    "vanity": 24977,
    "Ġwedded": 15539,
    "Ġlasting": 18793,
    "nailed": 20998,
    "Ġbunger": 9999,
    "Ġbright": 3216,
    "Ġsurviv": 13439,
    "vice": 15452,
    "Ġgaping": 13972,
    "els": 1763,
    "anity": 9657,
    "moderate": 22864,
    "led": 581,
    "Ġinvited": 6902,
    "kindness": 10508,
    "isles": 15568,
    "Ġboundary": 11224,
    "atever": 3082,
    "Ġgamy": 18001,
    "Ġpriority": 19765,
    "Ġunreasonably": 17454,
    "âĢĿâĢĶ": 5721,
    "spring": 7230,
    "ected": 7873,
    "running": 6797,
    "Ġcontemptible": 16955,
    "Ġviii": 16417,
    "rougham": 15997,
    "antages": 7191,
    "Ġtraveller": 8049,
    "Ġmeditate": 16709,
    "Ġstart": 3259,
    "Ġper": 587,
    "Ġunf": 4089,
    "odiac": 14035,
    "fedallah": 25523,
    "Ġconceal": 5974,
    "Ġdampening": 2896,
    "Ġenigmatical": 20600,
    "Ġsav": 3357,
    "Ġmontan": 22986,
    "conveyed": 20524,
    "Ġlegendary": 20540,
    "Ġinsatiable": 19274,
    "withstanding": 8948,
    "gravel": 22623,
    "Ġegyptians": 25290,
    "Ġboa": 22637,
    "amples": 1822,
    "yramid": 8368,
    "Ġassaulted": 25321,
    "Ġhooks": 14971,
    "Ġgloom": 4201,
    "Ġoutright": 18414,
    "insufficient": 15492,
    "wrath": 23759,
    "forbidding": 25838,
    "Ġmeeting": 5193,
    "Ġencourages": 2059,
    "expound": 23663,
    "rely": 6124,
    "summon": 23419,
    "Ġiteratively": 3062,
    "Ġpleasing": 6191,
    "Ġup": 463,
    "bath": 13693,
    "Ġstable": 2698,
    "nest": 10116,
    "Ġblinding": 14731,
    "Ġplaint": 10328,
    "Ġhabitations": 24788,
    "Ġaddressed": 5263,
    "Ġbulky": 13233,
    "compassion": 12372,
    "Ġdiscoloured": 15256,
    "Ġcommunicated": 9064,
    "ĠĠĠĠĠĠĠĠĠĠĠĠĠĠĠĠĠĠĠĠĠĠĠĠĠĠĠĠĠĠĠĠĠĠĠĠĠĠĠĠĠĠĠĠĠ": 9955,
    "nobody": 16146,
    "Ġtemperate": 16167,
    "Ġaxe": 15064,
    "Ġfolios": 23021,
    "twilight": 23702,
    "Ġ0": 1900,
    "Ġpartaking": 22700,
    "Ġappear": 2486,
    "Ġheartfelt": 18968,
    "page": 13774,
    "Ġacqu": 1417,
    "Ġ99": 10747,
    "Ġbiggest": 24567,
    "Ġsucceeded": 6106,
    "Ġwalked": 3143,
    "fanc": 20866,
    "lled": 10110,
    "Ġpublic": 4332,
    "Ġupbra": 22158,
    "information": 12397,
    "Ġparticularly": 5056,
    "Ġsheep": 10928,
    "Ġnum": 1345,
    "oglyph": 11019,
    "stretched": 10210,
    "Ġyard": 5921,
    "Ġdemonstrate": 24997,
    "Ġchristianity": 19863,
    "Ġrejoinder": 24598,
    "Ġfitzwilliam": 5771,
    "Ġcourtship": 24137,
    "Ġperilously": 24507,
    "Ġred": 3008,
    "cried": 8728,
    "impart": 21712,
    "illar": 5101,
    "commotion": 24914,
    "Ġhammered": 13244,
    "Ġplat": 8522,
    "Ġworldly": 16334,
    "Ġiroquois": 26474,
    "Ġgaining": 9495,
    "Ġforeman": 23449,
    "Ġmapple": 11152,
    "Ġconfessed": 8009,
    "Ġbeliefs": 24583,
    "oices": 7347,
    "follows": 24528,
    "ij": 7801,
    "Ġwings": 9166,
    "Ġphant": 7056,
    "Ġben": 1106,
    "Ġtortured": 14927,
    "Ġtrifled": 24675,
    "Ġhypocritical": 20740,
    "key": 5462,
    "Ġmaritime": 23039,
    "onze": 21258,
    "Ġaccur": 3693,
    "Ġfile": 13906,
    "Ġlistless": 16478,
    "ilst": 8144,
    "Ġriveted": 13622,
    "marriage": 7744,
    "glings": 23854,
    "Ġdoubt": 2225,
    "Ġrev": 6988,
    "Ġcandle": 8292,
    "Ġincisive": 18573,
    "Ġscandalous": 24880,
    "doub": 6224,
    "ases": 1523,
    "C": 39,
    "zek": 16261,
    "Ġtypewritten": 16425,
    "atters": 18506,
    "cooper": 19192,
    "Ġlate": 3378,
    "Ġdeal": 3608,
    "Ġirrad": 19095,
    "stri": 6250,
    "Ġstrangers": 8314,
    "Ġniagara": 26460,
    "Ġbeckoning": 20505,
    "Ġpregnant": 26537,
    "archical": 1926,
    "iverer": 11720,
    "Ġrally": 21975,
    "ith": 330,
    "ggling": 19098,
    "Ġcolumbus": 26566,
    "ercial": 21277,
    "Ġcosmopol": 16455,
    "Ġsurf": 19133,
    "Ġlulled": 17971,
    "Ġflaw": 23013,
    "Ġh": 290,
    "dismay": 19156,
    "Ġbye": 12743,
    "attered": 4020,
    "Ġforwarded": 19043,
    "Ġthence": 8885,
    "Ġshaved": 22006,
    "cks": 3083,
    "Ġattending": 3286,
    "antique": 18289,
    "Ġasse": 8160,
    "Ġcocks": 18597,
    "quet": 6834,
    "Ġspecialized": 3922,
    "existence": 16018,
    "Ġunless": 4090,
    "haut": 20904,
    "stra": 4046,
    "Ġpriv": 4182,
    "Ġrecl": 16143,
    "tor": 15435,
    "masterly": 24530,
    "nur": 11508,
    "plain": 1357,
    "Ġcheerfully": 12139,
    "Ġpermanent": 13635,
    "oon": 6365,
    "Ġpuffing": 12259,
    "Ġbritish": 11339,
    "Ġdegener": 14050,
    "fle": 7129,
    "rib": 1945,
    "Ġcontinuous": 1563,
    "Ġstrat": 16096,
    "Ġdolphins": 20399,
    "Ġaffrighted": 13576,
    "Ġnewfoundland": 26571,
    "Ġbrooding": 18909,
    "Ġexcept": 3313,
    "Ġexam": 3713,
    "Ġhut": 15623,
    "eskye": 21453,
    "affect": 13216,
    "roman": 22008,
    "Ġking": 2304,
    "Ġinvitation": 5188,
    "Ġstatement": 5255,
    "nical": 20993,
    "Ġpains": 5965,
    "Ġstagger": 10594,
    "Ġseized": 4835,
    "Ġinsane": 19271,
    "data": 2199,
    "Ġforbear": 17124,
    "ats": 4254,
    "utter": 7593,
    "ĕ": 214,
    "Ġimbalance": 22178,
    "lonely": 20959,
    "imitably": 21714,
    "Ġselected": 9714,
    "Ġrefer": 18694,
    "pens": 17634,
    "Ġobser": 2068,
    "oughed": 22081,
    "concerns": 24072,
    "Ġclean": 5652,
    "Ġsays": 3562,
    "racing": 21634,
    "Ġtalks": 23373,
    "Ġtranquill": 6632,
    "Ġwedged": 24936,
    "ener": 568,
    "health": 13836,
    "Ġdevoid": 18681,
    "Ġsigh": 10339,
    "Ġbarrel": 23794,
    "Ġcate": 4108,
    "Ġtendinous": 16933,
    "Ġungenerous": 18267,
    "Ġfixedly": 19250,
    "Ġstig": 14006,
    "Ġclutches": 20021,
    "pain": 7349,
    "Ġyelled": 9697,
    "jeroboam": 25620,
    "Ġshoe": 14569,
    "Ġethiop": 26156,
    "Ġbundles": 26176,
    "Ġtingling": 15096,
    "Ġreliably": 22883,
    "Ġsharks": 4500,
    "ssible": 2995,
    "Ġbohem": 8528,
    "Ġspitzbergen": 15291,
    "Ġsave": 4052,
    "Ġlabors": 23330,
    "Ġworthy": 7240,
    "imes": 1299,
    "Ġtie": 10752,
    "specimen": 26607,
    "beheld": 11805,
    "Ġresearches": 13132,
    "somers": 19371,
    "Ġsavagely": 26325,
    "carp": 9113,
    "ying": 1367,
    "lan": 15381,
    "Ġaint": 17746,
    "Ġain": 6969,
    "onse": 21252,
    "Ġlost": 2634,
    "Ġwise": 6811,
    "Ġvagabond": 20206,
    "inary": 3275,
    "Ġrallied": 14099,
    "Ġobligations": 12097,
    "Ġtumbling": 13828,
    "Ġresolved": 3799,
    "nant": 17611,
    "oy": 999,
    "Ġoccupations": 9461,
    "mun": 20964,
    "Ġsubstant": 14812,
    "Ġopposition": 16523,
    "Ġcondem": 6339,
    "smooth": 20251,
    "Ġfamil": 4321,
    "ĠĠĠĠĠĠĠĠĠĠĠĠĠĠĠĠĠĠĠĠĠĠĠĠĠĠĠĠĠĠĠĠ": 2738,
    "Ġoutrid": 22319,
    "opard": 9294,
    "Ġcheese": 9380,
    "safety": 20352,
    "tarpaul": 21100,
    "ĠâĢĶ_": 3458,
    "Ġgardiners": 11159,
    "Ġphrenologists": 25609,
    "á": 162,
    "Ġdismember": 20218,
    "Ġthre": 2057,
    "Ġindisposed": 26289,
    "isticated": 1607,
    "----âĢĿ": 13311,
    "leep": 4636,
    "ursday": 12281,
    "bildad": 9589,
    "Ġscaffold": 18401,
    "Ġumbrell": 13654,
    "alously": 15633,
    "forest": 22522,
    "teringly": 21827,
    "Ġbark": 10800,
    "enced": 4296,
    "Ġinhabitants": 7523,
    "Ġcolon": 18764,
    "mr": 1898,
    "Ġaf": 784,
    "sneezes": 11448,
    "Ġoverpower": 12845,
    "87": 20759,
    "Ġsadder": 24056,
    "Ġcrest": 12947,
    "Ġinfidel": 13092,
    "Ġsubset": 9873,
    "elihood": 4624,
    "allows": 15911,
    "Ġflank": 8229,
    "kers": 7133,
    "Ġsuch": 792,
    "Ġsubstance": 5510,
    "Ġpride": 3825,
    "complexion": 14368,
    "pan": 10718,
    "Ġbandages": 24427,
    "hast": 5358,
    "itled": 7577,
    "Ġdesisted": 22983,
    "Ġeasier": 11167,
    "unfort": 21880,
    "Ġgross": 11628,
    "Ġeffeminacy": 20720,
    "arrived": 12614,
    "mill": 13757,
    "Ġimplement": 3043,
    "Ġzeros": 3325,
    "ross": 807,
    "Ġoctober": 17229,
    "tea": 18741,
    "Ġbewitched": 25976,
    "Ġdepicted": 14281,
    "anged": 3588,
    "Ġupper": 5090,
    "Ġspoke": 2747,
    "Ġqualified": 14953,
    "Ġsimultaneous": 22595,
    "Ġelect": 10844,
    "Ġenrapt": 21943,
    "Ġexploitation": 2347,
    "Ġregulate": 22580,
    "Ġunc": 2124,
    "Ġconject": 6027,
    "Ġpassive": 22846,
    "Ġellenborough": 26155,
    "icult": 3342,
    "Ġdraw": 3672,
    "Ġprovince": 24192,
    "mature": 20969,
    "bone": 5612,
    "Ġunnatural": 7189,
    "Ġloves": 10917,
    "Ġcanallers": 13631,
    "maul": 11896,
    "Ġstruck": 3390,
    "Ġcoaxing": 18600,
    "Ġdisp": 3359,
    "leader": 25352,
    "Ġrainy": 24341,
    "Ġeyelids": 26108,
    "stirred": 20428,
    "Ġmurderers": 16813,
    "dr": 6222,
    "Ġmere": 2714,
    "Ġreside": 22543,
    "Ġfollows": 7672,
    "Ġequals": 4728,
    "Ġpopulous": 16828,
    "horrible": 14602,
    "Ġtops": 14588,
    "Ġundiscernible": 22070,
    "Ġluckless": 16799,
    "fairly": 17222,
    "Ġcrushed": 9426,
    "Ġmodeling": 2095,
    "engthen": 14460,
    "volous": 18601,
    "arks": 2842,
    "Ġkitty": 3911,
    "match": 15394,
    "Ġprocession": 11779,
    "Ġaccelerating": 1619,
    "aries": 6245,
    "Ġenriched": 26501,
    "Ġcongratulate": 9066,
    "Ġsamuel": 10036,
    "Ġveracity": 23892,
    "Ġwrath": 16321,
    "Ġtranquo": 14846,
    "Ġcontinues": 18811,
    "Ġvelvet": 12402,
    "Ġmonsie": 11449,
    "Ġfrontispiece": 23917,
    "Ġquestion": 2776,
    "Ġstepping": 9357,
    "Ġpalpit": 16692,
    "Ġthrobbing": 16900,
    "spade": 10343,
    "icher": 9205,
    "hears": 12538,
    "Ġrecesses": 17263,
    "Ġpath": 2113,
    "Ġsimpl": 1580,
    "Ġfasten": 11134,
    "chase": 11648,
    "Ġintim": 6837,
    "Ġirreparable": 20002,
    "imental": 16535,
    "Ġstroke": 6935,
    "Ġwire": 13855,
    "furn": 10094,
    "âĢĶ_": 3204,
    "))": 1515,
    "Ġemployments": 12107,
    "Ġease": 5629,
    "immortal": 21713,
    "Ġconsent": 5372,
    "sartain": 25623,
    "Ġencapsulate": 13678,
    "ilburn": 18062,
    "Ġunmolested": 15249,
    "Ġsecuring": 11996,
    "rippa": 11343,
    "Ġhorn": 6186,
    "Ġgushed": 21610,
    "Ġliveliest": 24774,
    "larking": 17596,
    "Ġtreading": 16507,
    "familiar": 19786,
    "Ġilluminated": 20178,
    "Ġwhelmed": 26000,
    "Ġdella": 21442,
    "Ġsevered": 18206,
    "Ġincessantly": 11413,
    "Ġformality": 22831,
    "Ġshoulders": 5566,
    "Ġbounds": 9921,
    "Ġenslaved": 26315,
    "elements": 25204,
    "Ġcrazed": 19177,
    "Ġskipper": 22801,
    "ú": 187,
    "Ġmaintains": 2144,
    "extreme": 11031,
    "Ġcasc": 15560,
    "Ġharness": 17930,
    "thyself": 19300,
    "script": 11079,
    "conve": 14246,
    "Ġhastily": 5763,
    "dwell": 15345,
    "om": 315,
    "Ġpants": 21468,
    "âĢĶ.": 11759,
    "Ġpast": 2098,
    "Ġconvention": 25547,
    "Ġdesired": 4666,
    "Ġsuspects": 16892,
    "invite": 25091,
    "endurable": 22221,
    "Ġsuffers": 2977,
    "Ġfour": 2217,
    "band": 3063,
    "persons": 24177,
    "Ġunnearable": 26518,
    "sometimes": 5972,
    "reference": 13843,
    "Ġcontinents": 16851,
    "bal": 2157,
    "Ġprovoke": 14829,
    "Ġmans": 15540,
    "crowd": 25255,
    "observing": 25495,
    "Ġsgd": 3132,
    "slo": 17658,
    "yea": 23091,
    "umul": 1288,
    "Ġinterruptions": 24189,
    "new": 1465,
    "Ġunpardonable": 22064,
    "Ġdeclining": 23967,
    "gigantic": 15363,
    "Ġplying": 17916,
    "Ġaver": 1284,
    "Ġwaste": 9237,
    "thar": 18218,
    "inion": 2873,
    "followed": 8339,
    "Ġborne": 6352,
    "Ġescort": 23509,
    "Ġoverwhelming": 17103,
    "ultaneously": 4193,
    "Ġpunchbowl": 20234,
    "Ġpostscript": 14811,
    "brated": 12031,
    "Ġindividuality": 14912,
    "emb": 11692,
    "Ġpositions": 2055,
    "Ġuniversally": 12004,
    "Ġtire": 17722,
    "Ġdrawled": 23992,
    "Ġdummy": 25450,
    "dued": 7909,
    "Ġrespectable": 6737,
    "Ġaverred": 18866,
    "Ġcatastrop": 3348,
    "ff": 462,
    "Ġed": 2243,
    "Ġtriumph": 5143,
    "given": 8377,
    "Ġwreath": 25937,
    "Ġfire": 2333,
    "ome": 536,
    "Ġtelescopes": 25691,
    "Ġmerely": 3771,
    ",âĢĿ": 580,
    "arrant": 10476,
    "apparat": 22851,
    "Ġscheming": 23273,
    "Ġsocket": 12793,
    "Ġrecollect": 8310,
    "Ġmanufact": 22332,
    "Ġmeasurement": 19426,
    "Ġrigged": 16719,
    "Ġab": 528,
    "Ġunbounded": 18260,
    "dearest": 11739,
    "act": 786,
    "urn": 779,
    "Ġmistifying": 23722,
    "Ġcongeal": 25981,
    "itting": 1151,
    "atmosphere": 21267,
    "Ġkrusen": 20716,
    "Ġsuperficial": 23458,
    "Ġendeav": 2957,
    "residence": 19265,
    "Ġassistants": 9454,
    "Ġpreviously": 3921,
    "Ġadduced": 26526,
    "detective": 24383,
    "countenances": 24154,
    "Ġimpul": 7208,
    "Ġjournal": 15222,
    "catch": 17509,
    "Ġremoval": 12122,
    "stonecraft": 24356,
    "Ç": 136,
    "Ġretains": 20033,
    "Ġattributed": 11837,
    "natural": 2191,
    "Ġinstituted": 18703,
    "tural": 21069,
    "Ġrevolver": 14903,
    "Ġident": 2242,
    "Ġneck": 4886,
    "Ġseventy": 7880,
    "Ġflowed": 10374,
    "Ġoverl": 18423,
    "Ġconducting": 16652,
    "Ġbohemia": 10652,
    "braces": 24659,
    "Ġbuild": 6474,
    "Ġprecious": 5760,
    "Ġrainbows": 19651,
    "Ġgrow": 2857,
    "relig": 15515,
    "waste": 21137,
    "sing": 5138,
    "earthquakes": 24724,
    "Ġener": 10898,
    "Ġawe": 7147,
    "secure": 12240,
    "Ġtime": 689,
    "deck": 4503,
    "fanning": 20868,
    "Ġinsights": 13183,
    "Ġtype": 2019,
    "Ġpens": 21463,
    "Ġfaintly": 14918,
    "Ġvictims": 19807,
    "granting": 23417,
    "Ġrap": 14306,
    "Ġwat": 1285,
    "divided": 25021,
    "class": 4095,
    "Ġillustrate": 25068,
    "Ġimprobable": 9798,
    "Ġimmeasurable": 26232,
    "Ġinvaders": 23484,
    "sounding": 24795,
    "garnished": 26390,
    "consequence": 9766,
    "Ġgans": 5822,
    "unction": 10237,
    "Ġguineas": 16274,
    "Ġcap": 2362,
    "Ġmoulded": 16977,
    "Ġopenly": 8575,
    "Ġdangerously": 23940,
    "Ġhasty": 10479,
    "mble": 1407,
    "Ġmanifold": 13564,
    "Ġflourish": 17163,
    "goes": 10428,
    "Ġhyena": 24519,
    "Ġmoonlight": 9961,
    "strade": 5065,
    "othe": 2613,
    "smart": 23910,
    "Ġedged": 23491,
    "Ġoccurred": 4464,
    "Ġilluminating": 25246,
    "Ġasp": 15785,
    "Ġtwinkling": 12328,
    "Ġcheever": 23286,
    "Ġcuvier": 9168,
    "Ġkindred": 16378,
    "Ġhowl": 12858,
    "accessible": 13643,
    "Ġenable": 685,
    "Ġdiscernible": 15073,
    "Ġhams": 16614,
    "Ġbumpkins": 25282,
    "ineering": 21971,
    "richard": 17289,
    "Ġleyden": 21736,
    "Ġreef": 10851,
    "Ġmingled": 12381,
    "Ġhilariously": 25451,
    "acknowledged": 15206,
    "Ġdrive": 5055,
    "Ġhapless": 15816,
    "Ġcolonel": 3408,
    "forbid": 14354,
    "apologizing": 26546,
    "Ġrejoice": 10211,
    "Ġcaut": 6521,
    "Ġconstructed": 9389,
    "Ġhues": 21492,
    "Ġmab": 12565,
    "Ġopposing": 12045,
    "future": 13720,
    "Ġtottenham": 24144,
    "Ġprodigious": 8057,
    "irably": 13300,
    "ksome": 10107,
    "Ġbreath": 4792,
    "Ġenjoys": 19453,
    "Ġrepeating": 11215,
    "mies": 20970,
    "Ġrope": 4338,
    "Ġwaning": 15537,
    "Ġdefer": 18824,
    "Ġacquit": 18899,
    "perceived": 8862,
    "arm": 1356,
    "agne": 21909,
    "Ġsolitudes": 22889,
    "consist": 14819,
    "pleasing": 14745,
    "Ġverdant": 15004,
    "Ġtongues": 14866,
    "Ġhidden": 1375,
    "Ġvaults": 17156,
    "prejud": 11800,
    "kindly": 14747,
    "Ġproving": 15756,
    "others": 7669,
    "elly": 17982,
    "Ġstair": 8457,
    "Ġspleen": 26423,
    "Ġunsafe": 22043,
    "limbs": 20194,
    "Ġunsuccessful": 18258,
    "Ġlast": 1123,
    "Ġsubjected": 23574,
    "orne": 17874,
    "cy": 649,
    "piteous": 21036,
    "shoes": 14241,
    "Ġmiserable": 3634,
    "Ġfle": 3095,
    "Ġforlorn": 14018,
    "beholding": 16044,
    "rity": 13779,
    "Ġ*/": 10376,
    "Ġumb": 11649,
    "Ġshoulder": 5849,
    "Ġcontention": 22430,
    "Ġreeled": 13989,
    "Ġmutineer": 19421,
    "Ġ115": 24439,
    "Ġsickly": 16776,
    "Ġpreparation": 13532,
    "Ġcant": 17826,
    "Ġnibbling": 17388,
    "fth": 20858,
    "Ġnets": 21527,
    "Ġrelation": 2142,
    "encoun": 12302,
    "Ġtresses": 21178,
    "Ġwinged": 16997,
    "Ġloft": 5642,
    "through": 4025,
    "Ġargu": 10936,
    "Ġvaliant": 9803,
    "assisted": 22311,
    "Ġhold": 2246,
    "Ġconsolidation": 5060,
    "Ġdictionaries": 12344,
    "Ġfearing": 12820,
    "olly": 3227,
    "Ġcombine": 4417,
    "alleging": 23026,
    "Ġinsect": 12641,
    "earn": 10698,
    "Ġdutch": 6328,
    "Ġconjunction": 25103,
    "Ġgoethe": 22426,
    "Ġguar": 23047,
    "false": 15358,
    "Ġrenewing": 19813,
    "Ġitaly": 10869,
    "somehow": 12016,
    "Ġsumatra": 15290,
    "Ġhails": 21954,
    "Ġmem": 2067,
    "shone": 22447,
    "isely": 4491,
    "computer": 2093,
    "ouses": 5163,
    "Ġpreface": 18368,
    "Ġinserting": 19908,
    "lev": 1234,
    "ground": 4673,
    "Ġbegat": 18864,
    "ims": 7176,
    "bits": 17491,
    "Ġsteersman": 13047,
    "thick": 10263,
    "cc": 473,
    "being": 3915,
    "Ġunfav": 14790,
    "Ġadmin": 23555,
    "Ġcarn": 17823,
    "preserve": 25304,
    "bery": 9790,
    "ĠâĢĻ": 3046,
    "brow": 15319,
    "Ġhundreds": 4328,
    "Ġambiguous": 20167,
    "Ġdomain": 3644,
    "Ġredu": 1351,
    "Ġkeeled": 18809,
    "Ġelasticity": 19561,
    "cen": 17505,
    "Ġcarpets": 18904,
    "Ġconsidered": 4613,
    "france": 24284,
    "etime": 12664,
    "Ġdesert": 6728,
    "acid": 10996,
    "Ġexpanded": 14295,
    "Ġentry": 11029,
    "Ġswelled": 11090,
    "tipt": 25086,
    "Ġtimidly": 11340,
    "Ġinclosed": 19541,
    "Ġret": 1380,
    "visit": 7754,
    "luxur": 25823,
    "uc": 1874,
    "Ġcultivation": 17148,
    "Ġavert": 14428,
    "Ġpass": 1037,
    "fered": 5560,
    "Ġdeliberate": 15025,
    "itted": 2442,
    "Ġluxury": 20135,
    "output": 4403,
    "rians": 21934,
    "Ġsent": 1774,
    "humiliation": 24024,
    "Ġpel": 17906,
    "&": 10,
    "carriage": 9949,
    "customary": 25896,
    "maged": 15397,
    "Ġbenefit": 8293,
    "fin": 5209,
    "Ġheaving": 7600,
    "unctuous": 21886,
    "Ġpushing": 10821,
    "andering": 21871,
    "eastern": 17535,
    "Ġveteran": 17453,
    "Ġbethinking": 25280,
    "Ġpreserved": 9265,
    "thither": 21987,
    "tail": 8765,
    "Ġpince": 21474,
    "Ġcompared": 2230,
    "Ġmagg": 18907,
    "Ġhole": 6079,
    "Ġprying": 15613,
    "clever": 20815,
    "give": 4690,
    "hess": 4748,
    "Ġfemin": 13440,
    "Ġclimes": 12849,
    "god": 4864,
    "Ġtuples": 13481,
    "finer": 17548,
    "Ġdeceitfulness": 25734,
    "Ġdeer": 12725,
    "who": 2447,
    "indignation": 18439,
    "Ġhurling": 19112,
    "days": 7687,
    "Ġsituated": 9450,
    "Ġvoyages": 6907,
    "Ġrebounds": 25968,
    "despatched": 19804,
    "hind": 20896,
    "Ġperforms": 11881,
    "Ġbelonging": 8308,
    "zers": 21149,
    "gers": 8376,
    "official": 24915,
    "whalemen": 10433,
    "Ġaunts": 21203,
    "Ġpagan": 7118,
    "Ġrare": 7037,
    "qual": 8157,
    "Ġstupendous": 20504,
    "Ġconcentrate": 25066,
    "including": 23592,
    "Ġnarwhale": 12297,
    "neg": 12869,
    "hardly": 6491,
    "Ġworm": 9165,
    "lorious": 17594,
    "happ": 3107,
    "hee": 10762,
    "ply": 6366,
    "Ġblade": 11897,
    "total": 17253,
    "Ġcows": 15557,
    "Ġfo": 1654,
    "used": 3260,
    "Ġclicked": 22369,
    "Ġstarting": 7728,
    "Ġinstead": 2788,
    "Ġbeside": 5192,
    "rably": 21636,
    "Ġspoken": 4838,
    "Ġadequately": 15202,
    "Ġstraightened": 12113,
    "Ġdrawings": 14725,
    "scr": 16245,
    "Ġhealth": 3905,
    "apped": 5395,
    "Ġparametric": 2394,
    "completed": 19997,
    "disappointed": 25192,
    "Ġluff": 15657,
    "Ġcursory": 18850,
    "world": 5058,
    "berg": 11863,
    "Ġbore": 5079,
    "Ġmurderous": 8316,
    "Ġenraptured": 26502,
    "pense": 10371,
    "Ġcrunched": 19122,
    "Ġcannibals": 10590,
    "Ġengine": 1920,
    "Ġdoubtfully": 23481,
    "Ġsnap": 11203,
    "Ġconsc": 4275,
    "Ġpipe": 4320,
    "Ġdair": 17891,
    "forks": 26389,
    "Ġcircles": 7967,
    "Ġincidentally": 16956,
    "Ġdominion": 16538,
    "Ġadam": 2126,
    "mess": 13756,
    "Ġembracing": 14983,
    "Ġcreated": 2706,
    "Ġreplying": 19584,
    "Ġyarn": 10870,
    "Ġherein": 16194,
    "itably": 10784,
    "Ġvillains": 14752,
    "ribbed": 16416,
    "Ġirons": 7695,
    "Ġswamp": 14439,
    "Ġenumer": 12750,
    "Ġenduring": 16305,
    "Ġshapeless": 24524,
    "Ġ[": 6967,
    "Ġ&": 6513,
    "ees": 13714,
    "Ġcords": 14882,
    "Ġaltern": 7393,
    "wl": 17704,
    "Ġaccustomed": 6860,
    "encountered": 20396,
    "chance": 6826,
    "Ġneighbouring": 12123,
    "Ġbumping": 25281,
    "Ġ39": 19493,
    "Ġ19": 6720,
    "Ġexcessively": 9443,
    "Ġstarbuck": 2194,
    "ering": 1264,
    "Ġbusks": 23342,
    "Ġfet": 5808,
    "Ġspeaker": 19150,
    "lights": 13209,
    "kovoko": 20672,
    "count": 4213,
    "Ġdecanting": 22442,
    "Ġhumming": 12991,
    "Ġvilest": 20104,
    "Ġextrem": 2477,
    "cursed": 23847,
    "around": 12613,
    "Ġbreathes": 13250,
    "continu": 5501,
    "Ġgangway": 20161,
    "u": 89,
    "eyed": 11489,
    "Ġeasiest": 23540,
    "Ġrun": 2354,
    "Ġcried": 1485,
    "lu": 595,
    "Ġtimes": 2302,
    "ely": 624,
    "Ġupp": 13995,
    "final": 19679,
    "prehend": 14245,
    "Ġscold": 10952,
    "Ġtougher": 21179,
    "âĢĻâĢĶ": 12741,
    "Ġbench": 7237,
    "Ġlessen": 14534,
    "Ġgnarled": 25169,
    "Ġsecured": 6746,
    "Ġknew": 2053,
    "Ġarrows": 18337,
    "Ġreferred": 8920,
    "glo": 8741,
    "truck": 15444,
    "Ġwhitt": 18057,
    "uous": 4144,
    "entreaties": 26187,
    "\",": 10681,
    "object": 6883,
    "Ġveritable": 19384,
    "imate": 4221,
    "increasing": 20272,
    "Ġjapan": 7639,
    "Ġensuring": 11194,
    "Ġripe": 13239,
    "Ġthee": 2622,
    "Ġcetus": 19887,
    "Ġrevolved": 9987,
    "solute": 16600,
    "Ġingenuity": 17166,
    "Ġturk": 6604,
    "Ġdoleful": 18378,
    "Ġsprings": 16688,
    "Ġlashings": 25100,
    "Ġslashing": 23174,
    "Ġmeanings": 18609,
    "transom": 19738,
    "Ġreluctant": 20528,
    "concerned": 24639,
    "Ġpreceded": 13432,
    "Ġtranced": 18428,
    "company": 9464,
    "oes": 4436,
    "s": 87,
    "Ġcrystals": 20230,
    "Ġcatholic": 20684,
    "Í": 142,
    "Ġencoder": 3635,
    "lies": 15385,
    "ony": 3032,
    "folio": 10549,
    "Ġbewil": 11660,
    "orated": 12596,
    "Ġscore": 9741,
    "Ġwithered": 19468,
    "ouement": 21451,
    "Ġintelligence": 559,
    "earthly": 24723,
    "dering": 5307,
    "Ġvineyard": 12334,
    "cav": 17510,
    "request": 21244,
    "Ġvigilance": 12375,
    "Ġobstin": 14956,
    "advantage": 8662,
    "Ġhinge": 25542,
    "Ġfootmarks": 19339,
    "topp": 22570,
    "Ġtestimony": 14477,
    "Ġstumped": 24945,
    "mas": 5212,
    "Ġubiquitous": 26197,
    "Ġwarn": 5695,
    "waist": 13422,
    "Ġsuccessfully": 19432,
    "!--": 10680,
    "Ġornaments": 17455,
    "twist": 23701,
    "dashed": 12460,
    "Ġevidence": 5270,
    "Ġeverything": 3158,
    "Ġgeneralize": 3104,
    "leaned": 21372,
    "Ġchival": 14185,
    "Ġdistingu": 2514,
    "accuracy": 9882,
    "Ġchis": 11754,
    "Ġ1869": 19387,
    "quiet": 6155,
    "Ġboughs": 20492,
    "Ġsed": 10763,
    "Ġunreserved": 19400,
    "Ġanger": 5442,
    "Ġlucases": 9013,
    "Ġriv": 10748,
    "Ġmute": 19419,
    "hot": 8084,
    "Ġrelied": 16198,
    "pitching": 24079,
    "Ġruled": 22789,
    "Ġupright": 8495,
    "impenet": 18056,
    "Ġlunch": 13529,
    "Ġsitting": 3605,
    "shark": 14239,
    "Ġterribly": 10427,
    "sleeve": 26109,
    "Ġluxuriant": 20398,
    "grampus": 18619,
    "indirectly": 18438,
    "seemed": 4304,
    "onts": 15522,
    "Ġsperma": 19048,
    "across": 10325,
    "disp": 7977,
    "Ġhed": 7386,
    "Ġreduced": 11928,
    "Ġnat": 12650,
    "veral": 2353,
    "fearfully": 25119,
    "roqu": 21537,
    "Ġlayer": 1010,
    "contemplated": 20461,
    "Ġbruised": 25773,
    "Ġeight": 3903,
    "itiousness": 21337,
    "Ġunit": 1846,
    "Ġpatroness": 13513,
    "Ġvarieties": 14313,
    "Ġrain": 5005,
    "ras": 21039,
    "Ġdisposal": 19379,
    "Ġrubbed": 12960,
    "arches": 10818,
    "Ġpleadings": 25854,
    "Ġhonestly": 19975,
    "shazzar": 15293,
    "Ġlandsc": 11148,
    "Ġsupplement": 23005,
    "Ġwitnessing": 19601,
    "Ġswords": 19899,
    "Ġroofs": 16987,
    "itoring": 21335,
    "john": 11500,
    "verize": 21732,
    "iltrated": 19308,
    "Ġforbe": 8459,
    "jewel": 20349,
    "Ġannoyed": 17202,
    "ourers": 21452,
    "narrow": 11510,
    "Ġpreprocess": 22237,
    "arpo": 1755,
    "agings": 18168,
    "Ġheeded": 13407,
    "Ġfounder": 17885,
    "rasing": 21048,
    "Ġlocal": 1200,
    "inarticulate": 21198,
    "mast": 3602,
    "Ġsize": 1218,
    "'re": 12432,
    "cloth": 11941,
    "ashion": 3860,
    "Ġattics": 22624,
    "Ġsur": 2182,
    "Ġapart": 4747,
    "Ġprotracted": 19472,
    "Ġlowering": 7987,
    "envelope": 17784,
    "Ġrelinqu": 12988,
    "Ġmay": 923,
    "Ġdoth": 13911,
    "Ġgraph": 10904,
    "useful": 16505,
    "Ġdiver": 2529,
    "Ġdatasets": 2388,
    "grained": 20885,
    "Ġspiteful": 19525,
    "grieved": 17320,
    "Ġpearl": 20380,
    "tender": 14476,
    "Ġentrance": 7232,
    "Ġmeddling": 21323,
    "Ġdexterity": 25295,
    "consternation": 16914,
    "Ġappropriated": 23488,
    "Ġcolle": 8926,
    "reply": 19725,
    "thrust": 10264,
    "method": 17287,
    "Ġblu": 2686,
    "swell": 17665,
    "isome": 17850,
    "Ġnotorious": 18224,
    "hearty": 14837,
    "ving": 593,
    "Ġpry": 11603,
    "resp": 13842,
    "Ġundivided": 24122,
    "destruction": 11257,
    "Ġscolded": 25473,
    "progression": 20385,
    "Ġfish": 2710,
    "Ġdimension": 3242,
    "Ġhoarse": 14528,
    "Ġspade": 9262,
    "_": 67,
    "mology": 12496,
    "albatross": 15634,
    "Ġconvolutional": 2164,
    "medium": 23640,
    "Ġtapped": 11556,
    "ette": 15663,
    "rie": 2785,
    "shabbily": 26248,
    "Ġstack": 21740,
    "somewhat": 11162,
    "Ġportra": 9012,
    "Ġgibberish": 25787,
    "Ġarranging": 11176,
    "holloa": 19467,
    "ribly": 8255,
    "Ġreiter": 21669,
    "Ġwallet": 21301,
    "is": 280,
    "Ġmonth": 2846,
    "Ġsystemat": 18443,
    "Ġintercourse": 11001,
    "Ġphys": 5653,
    "Ġcovered": 5171,
    "went": 6512,
    "Ġsarat": 21230,
    "childhood": 16870,
    "Ġgreat": 895,
    "Ġsteer": 10389,
    "Ġnic": 7375,
    "Ġadmires": 19688,
    "03": 20750,
    "Ġmuch": 922,
    "Ġexacted": 23605,
    "Ġbacked": 12931,
    "Ġlengthwise": 10454,
    "Ġcombat": 16182,
    ";": 31,
    "didn": 9010,
    "Ġskulls": 12965,
    "Ġstro": 4597,
    "Ġcontro": 1687,
    "Ġ79": 24267,
    "onies": 6806,
    "Ġhaste": 9006,
    "Ġic": 9628,
    "furthermore": 20007,
    "namely": 23647,
    "Ġpartially": 13127,
    "contrivance": 26317,
    "fering": 17544,
    "yd": 21145,
    "spike": 16142,
    "Ġlowers": 23245,
    "Ġcontented": 9759,
    "Ġquill": 12862,
    "Ġplum": 11826,
    "lovel": 22514,
    "Ġtired": 9152,
    "Ġamph": 18511,
    "Ġfierc": 18715,
    "Ġraved": 22653,
    "Ġlatitudes": 9499,
    "gently": 13732,
    "Ġextinct": 14331,
    "retaining": 21248,
    "Ġunden": 22015,
    "Ġmaking": 1778,
    "greeting": 24554,
    "sleeves": 26110,
    "Ġdirty": 9181,
    "Ġfrom": 433,
    "Ġcharming": 6630,
    "Ġbaw": 15573,
    "Ġinsisted": 12050,
    "Ġsymmetry": 20369,
    "Ġfriendless": 23027,
    "Ġandromeda": 21511,
    "september": 14039,
    "rr": 17652,
    "learning": 2619,
    "del": 4076,
    "mile": 17599,
    "Ġunrivalled": 26521,
    "pile": 17631,
    "prow": 15414,
    "Ġpout": 17908,
    "ourney": 3554,
    "jah": 17583,
    "Ġcursed": 6727,
    "bl": 4141,
    "Ġconsoled": 18118,
    "dropped": 12267,
    "Ġread": 1447,
    "Ġlogits": 3450,
    "Ġhom": 9189,
    "gree": 10703,
    "Ġrudimental": 25111,
    "Ġfaith": 5351,
    "enched": 10157,
    "Ġshares": 23249,
    "ilder": 15717,
    "Ġfourteen": 12014,
    "pate": 21012,
    "Ġbag": 5699,
    "Ġmirth": 15549,
    "Ġfallen": 5968,
    "Ġgallons": 14821,
    "://": 11467,
    "Ġstoke": 10398,
    "Ġmeals": 12716,
    "Ġcontest": 18474,
    "Ġbuckskin": 19955,
    "ansion": 10927,
    "dham": 20832,
    "Ġstowed": 21743,
    "Ġresidual": 1679,
    "pursued": 17284,
    "Ġstride": 22619,
    "ricity": 23066,
    "ores": 2411,
    "Ġexamination": 8005,
    "scor": 13025,
    "ivia": 22088,
    "Ġcopse": 17068,
    "Ġsemantics": 2895,
    "Ġdock": 15934,
    "Ġmasts": 6465,
    "Ġpenetrating": 17013,
    "must": 3578,
    "Ġwives": 12560,
    "Ġshoots": 14570,
    "Ġwhether": 2000,
    "Ġseveral": 2673,
[...]
