{
  "metadata": {
    "vocab_size": 26614,
    "algorithm": "BPE",
    "created_at": "2026-07-24 05:18:59",
    "special_tokens": [
      "<PAD>",
      "<SOS>",
      "<EOS>",
      "<UNK>",
      "<MASK>"
    ]
  },
  "vocab": {
    "Ġtrying": 4838,
    "Ġconfessor": 24019,
    "Ġv": 399,
    "Ġshreds": 12766,
    "fer": 1922,
    "riors": 18183,
    "chants": 21690,
    "Ġchair": 3665,
    "penet": 11069,
    "Ġanything": 2186,
    "Ġspout": 3286,
    "Ġdistingu": 2515,
    "Ġdyspeps": 16494,
    "Ġastronomy": 25927,
    "Ġ119": 24441,
    "itching": 21333,
    "Ġflights": 24754,
    "rates": 21037,
    "Ġelements": 2664,
    "bling": 10077,
    "correspond": 13396,
    "oat": 13762,
    "unhappy": 10236,
    "felicity": 25141,
    "hunt": 20902,
    "Ġgallantry": 15101,
    "cor": 5520,
    "Ġcomputer": 1211,
    "Ġfeast": 10276,
    "induce": 22372,
    "meditated": 19067,
    "Ġgin": 13959,
    "Ġtash": 13818,
    "Ġneglig": 18877,
    "Ġcart": 11581,
    "Ġrestoration": 19029,
    "))": 1517,
    "Ġarmitage": 23581,
    "beating": 22487,
    "Ġisrael": 21801,
    "ounded": 9746,
    "Ġfrancisco": 26065,
    "owner": 18611,
    "Ġsubord": 22787,
    "irresistible": 18171,
    "Ġcove": 22580,
    "Ġignorant": 5343,
    "provoke": 26072,
    "Ġfrock": 10488,
    "Ġunostentatious": 22066,
    "iger": 8445,
    "Ġticklish": 25035,
    "Ġugl": 12678,
    "unusually": 15776,
    "Ġrelu": 1045,
    "diff": 9112,
    "sheltered": 25586,
    "Ġlighted": 7063,
    "Ġcells": 13883,
    "too": 4506,
    "Ġstruggled": 9903,
    "Ġpent": 17901,
    "devil": 7896,
    "Ġribbed": 16803,
    "earnest": 12396,
    "Ġlain": 17961,
    "prodig": 16424,
    "itement": 7836,
    "Ġreducing": 1960,
    "Ġliter": 8810,
    "Ġsubordinate": 18722,
    "passage": 11260,
    "resnet": 4070,
    "endeavoured": 12277,
    "Ġalleys": 25979,
    "Ġwindlass": 7256,
    "Ġheedfully": 24521,
    "oth": 1185,
    "Ġpersonality": 16475,
    "Ġgirth": 13134,
    "Ġhesitating": 16946,
    "Ġdeepest": 8213,
    "Ġfeeds": 16431,
    "Ġmemo": 18117,
    "Ġstartling": 14669,
    "Ġerected": 12230,
    "qualities": 25044,
    "Ġperil": 5556,
    "Ġcurios": 18855,
    "guilty": 19481,
    "Ġsymbol": 7717,
    "smote": 23908,
    "oon": 6364,
    "Ġane": 9180,
    "Ġscuttle": 7414,
    "Ġdem": 11672,
    "eff": 2535,
    "Ġthree": 1371,
    "Ġnation": 12643,
    "Ġcontinues": 18809,
    "Ġplaintiffs": 13607,
    "presently": 9805,
    "Ġendure": 5956,
    "Ġket": 18347,
    "Ġmustering": 18662,
    "ostentatious": 20651,
    "Ġnon": 1626,
    "Ġrevived": 11367,
    "Ġteacher": 22897,
    "Ġmisconduct": 22760,
    "dismay": 19152,
    "irty": 4050,
    "entering": 17976,
    "Ġhind": 9187,
    "Ġundulating": 19516,
    "Ġhatchet": 16528,
    "disc": 4729,
    "Ġgn": 8816,
    "Ġcreator": 7254,
    "Ġdispositions": 13230,
    "Ġlust": 9196,
    "Ġbelf": 21379,
    "snow": 10723,
    "Ġesteemed": 10587,
    "Ġimmutable": 17356,
    "Ġmermaid": 17813,
    "gover": 10701,
    "Ġ1869": 19382,
    "Ġliberated": 19665,
    "Ġtransl": 2832,
    "Ġoccurring": 2794,
    "oir": 21001,
    "Ġshin": 18227,
    "sentence": 2941,
    "Ġdent": 13904,
    "rab": 7596,
    "atmospheric": 17775,
    "Ġrepetition": 8971,
    "Ġilliterate": 26594,
    "oftener": 23964,
    "pon": 17624,
    "attached": 11932,
    "formality": 22218,
    "Ġcas": 8410,
    "manif": 14371,
    "division": 20047,
    "hangs": 15366,
    "Ġguest": 7249,
    "fly": 13712,
    "iations": 11493,
    "chose": 18040,
    ".": 18,
    "oil": 7806,
    "Ġnotes": 7189,
    "ometer": 19325,
    "Ġhostile": 19938,
    "Ġparacelsus": 15264,
    "Ġaloof": 21783,
    "sat": 4810,
    "Ġbacked": 12920,
    "everything": 6324,
    "concluded": 11242,
    "fast": 3074,
    "Z": 62,
    "Ġglobe": 6077,
    "Ġsulphur": 24934,
    "Ġmuff": 8114,
    "ardy": 22154,
    "Ġsanct": 15063,
    "Ġdiscipline": 26561,
    "Ġ120": 16857,
    "finds": 19926,
    "Ġherd": 7889,
    "Ġmightier": 18730,
    "Ġwisdom": 11233,
    "Ġjeopardy": 13594,
    "Ġguilt": 6179,
    "Ġwas": 371,
    "Ġassurances": 9998,
    "Ġpump": 12617,
    "linen": 25258,
    "amouch": 21843,
    "Ġdelayed": 9516,
    "olog": 1107,
    "reasoning": 9474,
    "offended": 16393,
    "wled": 15452,
    "smeer": 26148,
    "Ġsne": 6372,
    "forced": 11030,
    "Ġciv": 3311,
    "Ġlower": 2660,
    "Ġag": 683,
    "Ġinhabit": 5782,
    "Ġdecision": 2675,
    "Ġ18": 3407,
    "prec": 3204,
    "Ġhints": 8429,
    "Ġwoll": 21292,
    "Ġtasks": 1790,
    "Ġfort": 2578,
    "Ġmay": 925,
    "Ġeating": 8136,
    "Ġmines": 21307,
    "Ġtens": 17722,
    "Ġ110": 24435,
    "centre": 17086,
    "Ġeffectually": 16164,
    "Ġpropag": 16345,
    "Ġloves": 10914,
    "Ġrepaid": 19080,
    "Ġshaped": 15831,
    "Ġstrike": 4855,
    "Ġalgorithms": 864,
    "alvan": 21502,
    "Ġegotistical": 26192,
    "Ġwield": 21289,
    "Ġelephant": 8256,
    "Ġsure": 1865,
    "aw": 1448,
    "crossing": 19409,
    "Ġprecip": 7074,
    "aps": 1230,
    "ittarius": 22375,
    "Ġmidway": 14603,
    "Ġmince": 22829,
    "÷": 184,
    "Ġ32": 19487,
    "bub": 15314,
    "ical": 753,
    "Ġrealism": 18984,
    "Ġrelaxed": 12980,
    "Ġnarwhale": 12290,
    "illity": 18297,
    "Ġpaunch": 23748,
    "shapes": 22462,
    "Ġthoughtful": 16189,
    "Ġheave": 7599,
    "Ġrecept": 1525,
    "pped": 1999,
    "Ġbunch": 11325,
    "furn": 10090,
    "Ġproposed": 7460,
    "ppery": 10891,
    "etite": 21577,
    "indirect": 22370,
    "coff": 9107,
    "ĠcÃ¦": 15551,
    "Ġrestraint": 15125,
    "Ġcler": 11767,
    "Ġchildish": 13135,
    "Ġjoist": 19231,
    "Ġactively": 18653,
    "Ġupbra": 22151,
    "Ġabrid": 22270,
    "Ġregarded": 5762,
    "Ġamid": 4959,
    ",âĢĶ": 3173,
    "Ġborne": 6351,
    "Ġclasses": 4055,
    "Ġwides": 17788,
    "Ġhanging": 5447,
    "Ġdreamt": 23937,
    "Ġstrength": 4259,
    "azz": 8262,
    "one": 616,
    "Ġincl": 4270,
    "Ġdiscre": 2415,
    "Ġtorrents": 20054,
    "Ġtol": 6675,
    "Ġ[_": 15459,
    "Ġcould": 703,
    "Ġsizes": 1521,
    "Ġkindest": 23294,
    "Ġlays": 15982,
    "Ġentire": 2560,
    "Ġgreenness": 23767,
    "gins": 12465,
    "twice": 14619,
    "we": 848,
    "Ġbad": 3989,
    "Ġpalms": 8642,
    "Ġlaurel": 20653,
    "Ġbracing": 16579,
    "resembling": 25933,
    "Ġaudience": 24770,
    "northern": 23664,
    "Ġrazor": 22645,
    "Ġbaby": 6636,
    "Ġmessage": 13521,
    "Ġstare": 10863,
    "slave": 16894,
    "ppings": 18176,
    "sh": 649,
    "reception": 15512,
    "oysius": 14365,
    "ca": 20792,
    "sword": 10725,
    "Ġplace": 1656,
    "Ġcombines": 1169,
    "Ġ235": 25714,
    "secur": 18125,
    "Ġimp": 586,
    "Ġeagerly": 4990,
    "erately": 21272,
    "Ġtruthful": 23866,
    "extinguished": 16149,
    "yield": 13807,
    "unavoidable": 17388,
    "Ġconcentric": 20073,
    "legged": 10464,
    "Ġskrimshander": 22799,
    "pt": 388,
    "rench": 3969,
    "ĠĠĠĠĠĠĠĠĠĠĠĠĠĠĠĠĠĠĠĠĠĠĠĠĠĠĠ": 14884,
    "Ġgenerations": 10963,
    "attent": 9357,
    "equ": 6790,
    "Ġprofuse": 23565,
    "ean": 20839,
    "Ġforces": 12698,
    "Ġtangled": 13825,
    "oid": 3129,
    "blazing": 24132,
    "verdict": 21727,
    "ica": 10197,
    "favouring": 24763,
    "Ġinvolve": 11042,
    "Ġisle": 8831,
    "Ġincom": 9767,
    "Ġinsisted": 12043,
    "Ġdescrib": 2719,
    "Ġamply": 22481,
    "Ġprecisely": 6466,
    "robber": 21535,
    "Ġmaintained": 12930,
    "Ġhimself": 1354,
    "Ġpertaining": 18451,
    "Ġaddition": 1149,
    "sal": 8757,
    "ispiece": 19724,
    "liament": 16215,
    "last": 3806,
    "_.,": 14561,
    "abled": 12790,
    "Ġmundane": 26429,
    "Ġfuel": 13902,
    "accomp": 10454,
    "Ġgodson": 23358,
    "Ġduplicate": 17214,
    "Ġoppressive": 20454,
    "prehend": 14234,
    "Ġarrives": 23607,
    "Ġguardians": 14941,
    "Ġsincer": 13062,
    "Ġimpediments": 26241,
    "passing": 14810,
    "Ġwharf": 9558,
    "Ġcreases": 22723,
    "Ġfleeting": 19326,
    "Ġmannish": 26238,
    "Ġburnt": 9926,
    "udg": 22756,
    "princip": 17135,
    "Ġbarbed": 14833,
    "Ġsample": 3180,
    "Ġincorruption": 26310,
    "Ġmystery": 5509,
    "entiful": 10835,
    "ivia": 22082,
    "accurately": 25862,
    "Ġfeet": 2260,
    "Ġpile": 8423,
    "Ġrhone": 25231,
    "wherever": 13116,
    "useful": 16501,
    "Ġturk": 6603,
    "Ġloftiest": 16873,
    "Ġpoll": 12026,
    "Ġasiatic": 20428,
    "immedi": 8449,
    "whalemen": 10430,
    "ship": 1391,
    "Ġworsted": 19993,
    "Ġto": 297,
    "Ġconsist": 1935,
    "Ġmummy": 25769,
    "finish": 24384,
    "shame": 16022,
    "Ġvestibule": 13535,
    "Ġvest": 8163,
    "ific": 491,
    "Ġswore": 10377,
    "dut": 10086,
    "Ġcondescending": 24869,
    "Ġends": 8238,
    "«": 109,
    "e": 73,
    "proves": 23393,
    "Ġespecially": 3938,
    "Ġnodded": 11966,
    "Ġswallowed": 7944,
    "Ġbore": 5079,
    "comfortableness": 24525,
    "Ġnicely": 8707,
    "Ġasks": 5115,
    "Ġunhappily": 18259,
    "Ġinfall": 7960,
    "Ġintercept": 14267,
    "Ġobstinate": 11335,
    "Ġmortifying": 13243,
    "Ġgratifying": 13303,
    "Ġbreath": 4791,
    "uzz": 4524,
    "Ġrenow": 18027,
    ";": 31,
    "seaman": 25458,
    "Ġtooth": 9191,
    "Ġoccur": 1082,
    "Ġweighed": 8709,
    "Ġoutriders": 26543,
    "progression": 20380,
    "bound": 6220,
    "grounds": 11150,
    "Ġtechnical": 17190,
    "ping": 9614,
    "Ġtresses": 21174,
    "Ġmetropol": 11144,
    "ikes": 8087,
    "Ġenglishman": 11228,
    "itary": 4751,
    "Ġpassenger": 14368,
    "Ġconstantinople": 19836,
    "Ġtoilette": 20491,
    "moral": 14800,
    "Ġscatter": 18397,
    "Ġhark": 8427,
    "Ġrending": 19465,
    "Ġexecution": 6927,
    "Ġcaptain": 1604,
    "Ġheroism": 24544,
    "Ġfeat": 10936,
    "Ġke": 1157,
    "cies": 1815,
    "Ġparsee": 6413,
    "hos": 15361,
    "irth": 5634,
    "Ĺ": 250,
    "Ġsiam": 13836,
    "Ġcher": 6129,
    "Ġbelfry": 26438,
    "ě": 220,
    "Ġpat": 1760,
    "Ġforecastle": 5495,
    "odhead": 18120,
    "Ġfundament": 2929,
    "Ġexcess": 3344,
    "Ġbal": 1136,
    "ittered": 18439,
    "icirc": 15652,
    "unpardonable": 21888,
    "Ġporch": 19679,
    "Ġmovements": 24359,
    "Ġseventh": 18204,
    "hounds": 20906,
    "Ġscold": 10949,
    "Ġinferred": 14500,
    "inct": 3296,
    "0": 20,
    "Ġhissed": 15785,
    "advancing": 14834,
    "Ġyoungster": 23177,
    "Ġunfolded": 10637,
    "aits": 20765,
    "dear": 6555,
    "Ġwarden": 17223,
    "Ġfrancis": 26064,
    "fair": 10091,
    "Ġshaft": 18229,
    "Ġmargaret": 10375,
    "represented": 20194,
    "andering": 21865,
    "Ġstrangers": 8314,
    "Ġunseason": 22048,
    "Ġbumping": 25281,
    "Ġgarden": 3829,
    "superstitiousness": 25509,
    "elves": 2159,
    "Ġnoisy": 13316,
    "ization": 486,
    "Ġwidow": 8661,
    "Ġinanimate": 13931,
    "pieces": 8754,
    "Ġstrives": 23692,
    "Ġproportion": 7281,
    "Ġpiling": 17908,
    "broad": 8641,
    "ames": 2955,
    "Ġheard": 1400,
    "Ġfished": 21409,
    "Ġsunday": 7270,
    "ordinary": 4406,
    "Ġaccounts": 7207,
    "Ġdeception": 18139,
    "Ġcoasts": 12160,
    "Ġmariner": 7247,
    "zors": 21146,
    "Ġspouts": 7730,
    "Ġunconcerned": 20508,
    "Ġinterchange": 16068,
    "Ġstrip": 9419,
    "Ġoh": 2176,
    "gn": 8082,
    "ops": 5246,
    "Ġroused": 7623,
    "Ġcalf": 16263,
    "Ġlucases": 9008,
    "Ġevaluate": 2741,
    "Ġphiladel": 23884,
    "Ġdreamed": 16628,
    "Ġembattled": 26290,
    "brandy": 19199,
    "Ġcauses": 2562,
    "Ġsubjected": 23571,
    "Ġinfluenced": 19631,
    "culiar": 2822,
    "Ġboon": 22636,
    "fatig": 17088,
    "Ġgeography": 23371,
    "Ġindelicacy": 25696,
    "hemat": 3131,
    "Ġgipsies": 12405,
    "Ġrevel": 9213,
    "Ġtenderly": 11313,
    "heartedness": 24828,
    "Ġreputed": 18035,
    "ery": 1269,
    "Ġvoice": 2191,
    "Ġconvolutions": 21805,
    "written": 7995,
    "delightful": 12193,
    "Ġexists": 14039,
    "cus": 3981,
    "Ġdream": 3537,
    "meantime": 9090,
    "Ġdro": 2773,
    "where": 2091,
    "Ġassistant": 7298,
    "spoke": 11022,
    "iver": 2048,
    "Ġrefill": 18693,
    "Ġfruitless": 25606,
    "motives": 26138,
    "hed": 669,
    "resol": 17759,
    "dis": 2252,
    "inquiry": 15140,
    "Ġshipping": 14102,
    "Ġdoings": 18376,
    "forty": 9372,
    "cousins": 20116,
    "Ġinvestigations": 17245,
    "eon": 8728,
    "Ġpanted": 21470,
    "Ġwalks": 8965,
    "Ġwhispering": 14943,
    "Ġsloop": 25931,
    "Ġwillow": 18530,
    "Ġstaying": 8284,
    "Ġfist": 21402,
    "agues": 8161,
    "doubted": 17525,
    "Ġscanning": 18399,
    "Ġmilan": 19534,
    "Ġpurring": 23475,
    "Ġtarshish": 12025,
    "Ġoptimize": 1567,
    "Ġcalms": 23042,
    "Ġupward": 9719,
    "garious": 17557,
    "Ġmonths": 3456,
    "Ġatmosphere": 10896,
    "Ġgrinning": 9052,
    "Ġtick": 8109,
    "Ġvial": 10247,
    "Ġholy": 6591,
    "Ġinterrupt": 4359,
    "flour": 23965,
    "Ġdelightful": 6320,
    "Ġcasts": 19424,
    "Ġmilliner": 19883,
    "Åĵuv": 15180,
    "Ġvalues": 2650,
    "Ġhappens": 2188,
    "Ġagreement": 18539,
    "Ġwh": 328,
    "ifled": 14061,
    "Ġaval": 15491,
    "Ġcircumnavigation": 20398,
    "readily": 19360,
    "Ġcasually": 25094,
    "comed": 8543,
    "Ġcrept": 11020,
    "Ġmodes": 22223,
    "oop": 10714,
    "Ġadequate": 20307,
    "Ġdeer": 12716,
    "Ġempire": 11143,
    "Ġrejoined": 14925,
    "Ġgardiners": 11156,
    "unreasonable": 18162,
    "Ġseething": 18201,
    "Ġpulverize": 23392,
    "Ġlearn": 364,
    "neighbourhood": 10023,
    "vinegar": 25421,
    "Ġapple": 14165,
    "Ġmechanis": 1243,
    "Ġplaguy": 22605,
    "Ġexclaim": 11220,
    "Ġbrides": 22864,
    "ably": 1847,
    "Ġcrawling": 17044,
    "Ġdesires": 9455,
    "iries": 18167,
    "won": 7144,
    "sought": 15425,
    "Ġwires": 21294,
    "Ġharris": 13925,
    "Ġmbpp": 21320,
    "draughts": 20386,
    "proceed": 8975,
    "Ġhearsed": 25040,
    "lings": 8745,
    "speech": 10665,
    "button": 10965,
    "erve": 12545,
    "whom": 8185,
    "establish": 17391,
    "Ġcal": 1326,
    "actory": 8906,
    "Ġcountenance": 3972,
    "Ġcultiv": 13554,
    "Ġpurchased": 12257,
    "near": 5842,
    "third": 8168,
    "Ġunra": 18234,
    "ately": 1701,
    "Ġassisting": 13255,
    "Ġpausing": 8651,
    "ally": 530,
    "Ġscar": 3215,
    "Ġtet": 21156,
    "Ġcontortions": 18476,
    "Á": 130,
    "Ġneatly": 17015,
    "Ġnet": 3629,
    "Ġpacifics": 24373,
    "Ġsailed": 4888,
    "ingly": 2135,
    "ilities": 6991,
    "Ġoccas": 2703,
    "lynes": 15700,
    "osoever": 17341,
    "Ġtho": 21512,
    "suffer": 24333,
    "Ġnostrils": 10942,
    "oked": 4307,
    "Ġstability": 1365,
    "Ġloving": 8176,
    "Ġprofile": 16486,
    "ratulations": 20124,
    "solute": 16597,
    "finger": 10092,
    "È": 137,
    "Ġtasted": 12525,
    "Ġbreathing": 9443,
    "Ġfrontispiece": 23912,
    "Ġbursting": 8654,
    "Ġthimble": 15633,
    "farintosh": 24553,
    "humorously": 24020,
    "Ġfaces": 6009,
    "Ġintuitions": 17339,
    "wra": 11540,
    "Ġsyllables": 25299,
    "Ġforeshadowing": 26592,
    "Ġhow": 598,
    "Ġpresence": 5031,
    "oney": 3050,
    "starbuck": 6019,
    "Ġpassionate": 11272,
    "anch": 15556,
    "iform": 2200,
    "ining": 3224,
    "Ġsickle": 24245,
    "movable": 14322,
    "others": 7670,
    "Ġquote": 18466,
    "adam": 15726,
    "Ġpretended": 19313,
    "hammad": 23262,
    "Ġimmensely": 13593,
    "Ġintellig": 526,
    "tailed": 17684,
    "Ġalterations": 19870,
    "Ġdairy": 20685,
    "jane": 4481,
    "Ġleads": 12093,
    "Ġflaming": 8562,
    "Ġtriumphal": 24371,
    "Ġstamped": 13525,
    "Ġcomprises": 22570,
    "rayed": 23562,
    "Ġwherefore": 8523,
    "Ġdiff": 3118,
    "Ġrepresentations": 1876,
    "typewritten": 26039,
    "jets": 20927,
    "Ġimmeas": 18332,
    "Ġcomplete": 4381,
    "warmly": 25027,
    "Ġowest": 25092,
    "Ġdiab": 10610,
    "Ġbouton": 17868,
    "addressing": 24401,
    "reach": 17756,
    "une": 2788,
    "retreat": 23133,
    "Ġfel": 1519,
    "Ġpagans": 16921,
    "cooper": 19188,
    "Ġdistrict": 10316,
    "Ġmud": 11571,
    "Ġgardens": 16451,
    "Ġfumbled": 17881,
    "Ġingolstadt": 8333,
    "Ġrelent": 18773,
    "Ġimmemorially": 25384,
    "ordinate": 12871,
    "Ġsupple": 22998,
    "Ġmagician": 25059,
    "Ġferoc": 14900,
    "Ġunwaning": 25171,
    "ouses": 5163,
    "ft": 911,
    "conven": 6162,
    "Ġ91": 24591,
    "Ġroylott": 7305,
    "structure": 2386,
    "Ġtun": 5999,
    "neurons": 3137,
    "labour": 23913,
    "morn": 20975,
    "Ġwarming": 23557,
    "Ġinterruptions": 24186,
    "iable": 3336,
    "aneously": 4060,
    "Ġvibration": 17098,
    "Ġpasseng": 12967,
    "broken": 8021,
    "inforcement": 3092,
    "Ġapproximation": 2341,
    "intending": 22934,
    "educ": 10827,
    "Ġsoft": 1460,
    "Ġprinces": 23220,
    "Ġovertaken": 18429,
    "freighted": 14890,
    "Ġopp": 2696,
    "Ġard": 5164,
    "Ġunwarrant": 20132,
    "Ġhval": 21485,
    "sherlock": 5422,
    "------": 12130,
    "Ġentreaties": 9034,
    "Ġtreachery": 15099,
    "revealed": 20414,
    "iety": 2820,
    "iors": 9124,
    "Ġtraversed": 18893,
    "shells": 26057,
    "Ġcredited": 25154,
    "Ġadmir": 12018,
    "cruise": 24842,
    "Ġgould": 17989,
    "Ġdissu": 18550,
    "Ġturing": 7566,
    "Ġdecorum": 16018,
    "Ġcelebrate": 26358,
    "Ġwithheld": 18114,
    "arrant": 10473,
    "merc": 19280,
    "Ġrequisition": 22632,
    "umbling": 6758,
    "Ġdefined": 11895,
    "Ġminima": 3464,
    "Ġadvancing": 6879,
    "Ġimprudence": 10296,
    "Ġdeserted": 8635,
    "Ġwan": 15525,
    "Ġfierceness": 26266,
    "Ġoarsman": 8636,
    "its": 1151,
    "shad": 10981,
    "Ġwow": 15526,
    "Ġsubsiding": 23433,
    "Ġskirts": 14351,
    "Ġstretched": 5920,
    "deeply": 16180,
    "Ġparameter": 867,
    "sleep": 6511,
    "Ġmusket": 12293,
    "Ġoverwhelm": 25053,
    "urre": 10855,
    "seas": 14031,
    "move": 11851,
    "Ġsplintered": 11417,
    "Ġfiery": 6871,
    "Ġoarsmen": 7738,
    "Ġvehem": 22891,
    "Ġsettled": 3745,
    "Ġreturns": 11923,
    "Ġdrove": 4984,
    "Ġgangway": 20157,
    "Ġrevisit": 21668,
    "apable": 6422,
    "Ġsplinters": 15100,
    "Ġjacobians": 2896,
    "Ġbowditch": 19322,
    "urry": 13992,
    "Ġcolonel": 3408,
    "eminently": 25106,
    "Ġmel": 4816,
    "urons": 3133,
    "mped": 16646,
    "Ġcomputational": 1627,
    "itancy": 21331,
    "sively": 13784,
    "projecting": 26074,
    "peasant": 23109,
    "Ġrapt": 7225,
    "Ġhatches": 12041,
    "Ġdefilements": 26285,
    "Ġroasted": 18458,
    "ball": 7793,
    "Ġbutt": 14124,
    "Ġsingers": 23771,
    "Ġanticipation": 17056,
    "Ġcolouring": 16750,
    "iliar": 15710,
    "ned": 3492,
    "Ġoy": 15542,
    "acceptance": 25186,
    "Ġdismember": 20214,
    "atters": 18508,
    "thar": 18217,
    "aract": 17894,
    "Ġgardiner": 3240,
    "Ġsuperficial": 23456,
    "Ġrec": 904,
    "Ġtiller": 8964,
    "Ġsitt": 21216,
    "Ġsult": 10766,
    "jected": 22710,
    "Ġdescribed": 6606,
    "way": 764,
    "Ġdistinctions": 18532,
    "infor": 3061,
    "Ġparaphrasing": 26526,
    "Ġcontent": 5034,
    "Ġdisdain": 8360,
    "Ġgrace": 5374,
    "mbles": 23087,
    "Ġdemeanour": 17335,
    "Ġemblematical": 25789,
    "Ġbidirectional": 3759,
    "Ġtwilight": 16118,
    "ety": 3520,
    "Ġlikewise": 5386,
    "Ġlingo": 24904,
    "whatever": 6694,
    "Ġrequirements": 9786,
    "Ġvibrating": 13536,
    "Ġviolation": 23405,
    "Ġlibrary": 6423,
    "Ġfi": 926,
    "Ġott": 13864,
    "Ġinfidel": 13086,
    "Ġtoken": 2038,
    "Ġsmiling": 5474,
    "Ġbressed": 21385,
    "Ġcomforter": 20505,
    "Ġdreamy": 14701,
    "Ġcopying": 17067,
    "gravel": 22618,
    "oppressed": 24825,
    "Ġaloft": 4302,
    "asions": 12647,
    "Ġactivations": 2720,
    "Ġemma": 20693,
    "Ġillinois": 19136,
    "Ġconsummation": 17423,
    "Ġadro": 15864,
    "Ġscattered": 6856,
    "silver": 19689,
    "meetings": 20376,
    "representing": 25272,
    "Ġtranquo": 14841,
    "Ġbewit": 15724,
    "aurus": 20559,
    "Ġleviathan": 3292,
    "Ġkink": 22191,
    "Ġcommencement": 12235,
    "swell": 17662,
    "Ġsucc": 12781,
    "london": 9608,
    "square": 15060,
    "Ġopposition": 16519,
    "imitably": 21709,
    "Ġgenerally": 4159,
    "sme": 17657,
    "effect": 8602,
    "ľ": 255,
    "Ġhyperborean": 26340,
    "create": 24159,
    "ojo": 7349,
    "Ġwashington": 17201,
    "Ġamuse": 5940,
    "sufficient": 6635,
    "letons": 14611,
    "bab": 11467,
    "Ġdiffidence": 14658,
    "Ġfarthest": 23115,
    "ago": 14063,
    "Ġinstituted": 18703,
    "Ġspectacles": 12094,
    "Ġdistinct": 4609,
    "94": 4803,
    "Ġlogic": 13075,
    "oriously": 17874,
    "Ġprotection": 9460,
    "Ġgruff": 21612,
    "cet": 15323,
    "Ġeasiness": 23536,
    "countless": 24150,
    "illings": 14143,
    "exerc": 16012,
    "Ġfelony": 18951,
    "Ġshipmate": 8927,
    "Ġtorn": 6000,
    "Ġconstrued": 26302,
    "Ġsnoring": 23739,
    "lemency": 21372,
    "Ġbiases": 2396,
    "unmistakable": 21893,
    "lovely": 16043,
    "Ġsell": 7826,
    "Ġsummer": 4790,
    "Ġsung": 23272,
    "Ġwood": 2291,
    "Ġquaff": 22412,
    "Ġensures": 3056,
    "Ġtertiary": 15292,
    "fi": 12458,
    "Ġsuperior": 2754,
    "Ġtattoo": 7359,
    "ff": 463,
    "Ġlumps": 21554,
    "Ġphilosoph": 19650,
    "Ġvari": 832,
    "Ġwretchedness": 9025,
    "Ġjago": 22297,
    "shuff": 18494,
    "Ġpreyed": 18366,
    "Ġaspire": 21898,
    "char": 3503,
    "scap": 22982,
    "Ġexplanation": 6692,
    "Ġeve": 13968,
    "Ġculprit": 26173,
    "Ġindist": 14406,
    "Ġriveted": 13616,
    "Ġmount": 7362,
    "Ġtruly": 4796,
    "Ġinspired": 2520,
    "ser": 1426,
    "broke": 14774,
    "Ġsatin": 12985,
    "scattered": 22987,
    "allowed": 5728,
    "Ġpip": 1640,
    "hard": 4690,
    "Ġdriven": 6198,
    "them": 3021,
    "Ġboarding": 12083,
    "quired": 21847,
    "Ġacknowledged": 7534,
    "Ġsport": 6688,
    "Ġtract": 21164,
    "Ġplay": 2626,
    "Ġoffensive": 18699,
    "Ġmercy": 8997,
    "Ġrolled": 4428,
    "Ġdemonstrate": 24997,
    "Ġboughs": 20487,
    "sleepy": 24730,
    "Ġdur": 11590,
    "ample": 1366,
    "killing": 20941,
    "Ġdeclines": 23962,
    "shud": 18493,
    "Ġascend": 9958,
    "uously": 7353,
    "Ġgoverness": 8599,
    "Ġpestilent": 25778,
    "Ġundeniable": 26510,
    "Ġminiature": 11039,
    "joined": 13273,
    "apers": 3482,
    "Ġaskance": 23147,
    "Ġdiverse": 19208,
    "Ġheap": 12674,
    "Ġattention": 1181,
    "Ġconce": 3423,
    "Ġnapoleons": 25886,
    "Ġfurniture": 6476,
    "someone": 14563,
    "Ġadmirably": 16479,
    "hess": 4747,
    "Ġshudderings": 25201,
    "Ġdelineate": 26058,
    "Ġfunctions": 1342,
    "pun": 9616,
    "slouched": 24557,
    "Ġsmaller": 1884,
    "heric": 15908,
    "Ġfresher": 23208,
    "esu": 17918,
    "Ġsort": 1509,
    "Ġjustine": 4970,
    "Ġsly": 9631,
    "helping": 23137,
    "gered": 9274,
    "til": 17670,
    "reduced": 15802,
    "irst": 879,
    "!âĢĻ": 3334,
    "circumamb": 26088,
    "itation": 1783,
    "hester": 9630,
    "Ġsurgeon": 8980,
    "Ò": 147,
    "Ġclients": 19730,
    "Ġproposals": 10612,
    "Ġattendant": 11284,
    "Ġforebodings": 17302,
    "Ġunfortunate": 5376,
    "Ġglimpses": 13430,
    "Ġinhale": 20299,
    "Ġpatches": 4237,
    "ival": 4227,
    "yramid": 8368,
    "Ġwidth": 16771,
    "max": 1686,
    "Ġvernal": 23887,
    "Ġexquisitely": 20201,
    "ince": 4338,
    "thinks": 16640,
    "chan": 1182,
    "Ġfoundling": 22967,
    "guest": 19480,
    "Ġabutted": 22273,
    "nikin": 23210,
    "Ġapparently": 6778,
    "Ġnorm": 763,
    "Ġexe": 3996,
    "Ġdegra": 2589,
    "Ġpleases": 16295,
    "Ġmillions": 11353,
    "ampling": 12722,
    "Ġlooking": 2473,
    "Ġbaleen": 10035,
    "Ġhitting": 21486,
    "possess": 5984,
    "Ġfingertips": 24017,
    "chie": 21688,
    "scho": 8759,
    "Ġwedge": 24069,
    "ackled": 22418,
    "Ġplanets": 24056,
    "Ġmisfortune": 5568,
    "stra": 4046,
    "vering": 15712,
    "iration": 4540,
    "ications": 4444,
    "Ġpie": 13913,
    "Ġpromptly": 23816,
    "Ġstochastic": 3269,
    "Ġreligious": 25122,
    "jeroboam": 25620,
    "Ġperfection": 19217,
    "Ġaboriginal": 14187,
    "Ġanguish": 5583,
    "Ġpossessed": 5195,
    "Ġshameful": 19851,
    "Ġunwelcome": 12775,
    "Ġblacks": 23387,
    "_:": 17477,
    "Ġphysiology": 25333,
    "ermost": 7430,
    "Ġdisconsol": 18557,
    "app": 1039,
    "Ġsamples": 2964,
    "iftings": 23224,
    "withstand": 23027,
    "Ġplunder": 22603,
    "Ġdisappoint": 24205,
    "dutch": 17217,
    "Ġburying": 19251,
    "boots": 11125,
    "moderate": 22849,
    "Ġrepelled": 19083,
    "Ġvaults": 17152,
    "peculiar": 6886,
    "event": 8077,
    "Ġcarrying": 6072,
    "turned": 7306,
    "Ġmarshy": 20217,
    "mbly": 9793,
    "Ġheadlands": 22899,
    "Ġleader": 14700,
    "sooner": 14773,
    "side": 2301,
    "Ġprocession": 11775,
    "advanced": 19587,
    "Ġminutes": 3003,
    "Ġconsiderably": 7715,
    "Ġapproved": 16029,
    "Ġconfined": 7465,
    "Ġbrow": 3990,
    "Ġendeavors": 16545,
    "Ġasylum": 13664,
    "Ġfrogs": 23921,
    "quadrille": 20593,
    "Ġeluded": 12918,
    "luck": 5733,
    "redit": 3879,
    "you": 1007,
    "Ġsperma": 19050,
    "ĠĠĠĠĠĠĠĠĠĠĠĠĠĠĠĠĠĠĠĠĠĠĠĠĠĠĠĠĠĠĠĠĠĠĠĠĠĠĠĠĠĠĠĠĠĠ": 9951,
    "whenever": 11878,
    "Ġsur": 2183,
    "roy": 7854,
    "Ġinterference": 8892,
    "Ġteaches": 18793,
    "Ġtemporarily": 11166,
    "blu": 12437,
    "ortions": 10947,
    "Ġprem": 3427,
    "abode": 21789,
    "Ġconfidence": 6590,
    "Ġslips": 23164,
    "Ġasking": 5651,
    "suggested": 17297,
    "ckles": 22087,
    "Ġcases": 3963,
    "understanding": 1124,
    "her": 488,
    "Ġhorr": 3192,
    "Ġdelay": 5748,
    "adem": 21755,
    "inquir": 9534,
    "ti": 8389,
    "Ġsenate": 25215,
    "Ġsecre": 5493,
    "winter": 10739,
    "Ġfluffy": 19362,
    "Ġequinoctial": 20531,
    "Ġwearied": 15789,
    "Ġhonor": 5664,
    "governed": 25406,
    "Ġtypes": 8935,
    "Ġcounteracted": 19861,
    "dispositions": 25012,
    "Ġdisown": 22522,
    "command": 6576,
    "ĠâĢľâĢĶ": 9732,
    "wes": 17702,
    "Ġmemoirs": 26206,
    "ouching": 13177,
    "Ġvaried": 11845,
    "Ġexpatiate": 18624,
    "saving": 21058,
    "Ġabiding": 22268,
    "Ġfeeling": 3087,
    "surpr": 5997,
    "Ġreceived": 2953,
    "Ġhun": 1499,
    "Ġhundreds": 4327,
    "Ġbeast": 7179,
    "Ġdomin": 10465,
    "âĢĶâĢĻâĢĿ": 20062,
    "Ġsplashing": 16549,
    "Ġgas": 8133,
    "Ġcarpet": 9354,
    "charming": 15702,
    "Ġdepicting": 22588,
    "cat": 15322,
    "Ġswash": 23054,
    "Ġgener": 585,
    "ack": 610,
    "ascending": 24708,
    "Ġunfolding": 17085,
    "Ġdusky": 13547,
    "swinging": 25913,
    "like": 1886,
    "moment": 3579,
    "Ġoccasion": 3248,
    "Ġworkmen": 23021,
    "ns": 758,
    "chop": 21686,
    "founded": 16713,
    "Ġpowers": 5419,
    "Ġrover": 18454,
    "Ġpowerful": 1406,
    "principal": 20659,
    "secured": 16937,
    "Ġappet": 9728,
    "Ġcircumvent": 25065,
    "Ġtown": 2454,
    "niest": 18961,
    "resc": 21237,
    "Ġcrime": 4616,
    "Ġentertainment": 12219,
    "obli": 23093,
    "Ġabandon": 12254,
    "Ġpermanently": 25474,
    "Ġoften": 1958,
    "dirty": 20833,
    "Ġbid": 6131,
    "Ġberth": 8678,
    "Ġthundering": 24291,
    "playing": 19656,
    "keys": 15857,
    "iii": 14772,
    "Ġwherever": 8522,
    "Ġlip": 6532,
    "Ġpadd": 9668,
    "ought": 830,
    "strate": 12669,
    "astes": 11736,
    "Ġch": 512,
    "Ġentrance": 7233,
    "ĠĠĠĠĠĠĠĠĠĠĠĠĠĠĠĠĠĠĠĠĠĠĠĠĠĠĠĠĠĠĠĠĠĠĠĠĠĠĠ": 19259,
    "illes": 12690,
    "<MASK>": 4,
    "Ġcumul": 4179,
    "foot": 9045,
    "Ġengraving": 17079,
    "erne": 21268,
    "Ġcelestial": 10065,
    "ud": 915,
    "approve": 19935,
    "once": 5904,
    "Ġstep": 752,
    "frock": 20119,
    "ional": 1083,
    "Ġsentiment": 6589,
    "Ġtemper": 956,
    "Ġrange": 9710,
    "Ġstag": 6148,
    "Ġadapts": 3820,
    "Ġpoetical": 25057,
    "occupations": 24967,
    "Ġthanking": 18603,
    "entreaties": 26186,
    "unct": 18154,
    "etency": 21580,
    "neath": 12862,
    "Ġarose": 7360,
    "Ġundersampling": 19517,
    "Ġspoutings": 14674,
    "ificial": 613,
    "faces": 13718,
    "pherd": 13642,
    "Ġbehooves": 20732,
    "Ġjustinian": 22966,
    "eline": 2435,
    "monkey": 19169,
    "Ġsignificantly": 4518,
    "Ġconsists": 11974,
    "Ġbarn": 11585,
    "Ġfeature": 745,
    "smallest": 23910,
    "Ġbronze": 22866,
    "Ġschoolboys": 24481,
    "Ġtend": 6120,
    "Ġappro": 656,
    "Ġbu": 3686,
    "Ġbundles": 26176,
    "Ġparametric": 2394,
    "ak": 538,
    "inese": 12875,
    "Ġriver": 5411,
    "shore": 10305,
    "rimsh": 17026,
    "search": 8463,
    "Ġmisgiv": 14343,
    "Ġbed": 2144,
    "Ġevenly": 4131,
    "base": 20776,
    "Ġprometheus": 15290,
    "Ġsumatra": 15284,
    "rods": 21536,
    "Ġancient": 5443,
    "confirmation": 26090,
    "4": 24,
    "iogn": 20920,
    "Ġneg": 1333,
    "Ġintent": 6409,
    "Ġwis": 3732,
    "Ġaver": 1285,
    "Ġopposed": 11187,
    "Ġdescending": 8901,
    "pan": 10715,
    "doesn": 19819,
    "confirmed": 19644,
    "Ġdestroyer": 13411,
    "dinner": 11405,
    "Ġabilities": 8865,
    "Ġdisgra": 18549,
    "leap": 21365,
    "Ġgifted": 17996,
    "Ġpsalmody": 20583,
    "Ġalabama": 14017,
    "Ġlevi": 3036,
    "Ġoccasional": 7289,
    "Ġdistributions": 1051,
    "Ġdesigns": 13008,
    "Ġrather": 1496,
    "monsters": 19170,
    "Ġsnar": 13198,
    "opatra": 22476,
    "Ġelsewhere": 7713,
    "Ġblow": 3376,
    "Ġdiscours": 18718,
    "Ġbrand": 16184,
    "Ġrendering": 16656,
    "Ġringed": 16749,
    "Ġcurvature": 3574,
    "aside": 10190,
    "Ġswear": 6461,
    "Ġstick": 6026,
    "Ġsabbath": 17253,
    "etieth": 21582,
    "Ġdost": 7636,
    "occupied": 12301,
    "Ġannesley": 19576,
    "Ġjames": 6419,
    "Ġunique": 12773,
    "Ġgam": 11622,
    "elect": 20845,
    "ispens": 8336,
    "often": 6165,
    "Ġcrossed": 6069,
    "Ġstrainings": 24629,
    "Ġreversed": 15693,
    "Ġmomentous": 16169,
    "flask": 12096,
    ",âĢĶâĢľ": 10068,
    "Ġsquad": 22835,
    "Ġholiest": 18812,
    "Ġgranting": 18737,
    "Ġadler": 8174,
    "Ġbuttons": 12777,
    "Ġhellaswag": 24343,
    "Ġthence": 8880,
    "Ġreduces": 2343,
    "Ġrope": 4337,
    "Ġchurned": 18385,
    "captain": 3955,
    "Ġuntoward": 19164,
    "Ġpermitted": 9276,
    "claim": 9833,
    "Ġfists": 15579,
    "and": 372,
    "imen": 12682,
    "Ġinstrument": 7118,
    "Ġdefile": 18823,
    "Ġperceptible": 18452,
    "Ġmadness": 6601,
    "Ġautomation": 13239,
    "Ġfurled": 22813,
    "tol": 17671,
    "Ġfrighten": 13276,
    "Ġexaggerated": 25651,
    "arer": 3970,
    "Ġdry": 5624,
    "Ġwhisker": 23933,
    "ocean": 12398,
    "Ġcorpulence": 24506,
    "Ġwisest": 11232,
    "Ġforwards": 12699,
    "flight": 15350,
    "Ġstooping": 13058,
    "bearer": 18518,
    "piece": 6655,
    "um": 454,
    "circle": 16735,
    "greeting": 24554,
    "Ġminut": 2203,
    "Ġrafters": 22646,
    "assertion": 22309,
    "atre": 17769,
    "Ġliquid": 22407,
    "nowadays": 22336,
    "opy": 4457,
    "places": 7880,
    "ompl": 4536,
    "person": 7746,
    "below": 12118,
    "Ġtweed": 22675,
    "Ġpl": 743,
    "Ġalready": 2713,
    "Ġbegone": 11914,
    "Ġdefect": 8553,
    "Ġabout": 632,
    "Ġworthless": 19564,
    "Ġgrounds": 6749,
    "residual": 19262,
    "Ġweaving": 12736,
    "Ġtugged": 17287,
    "octavo": 11384,
    "toed": 18577,
    "Ġcubs": 20085,
    "Ġsimple": 1622,
    "Ġgrand": 3594,
    "ple": 456,
    "Ġscal": 1562,
    "Ġflamingo": 15098,
    "Ġactual": 3741,
    "Ġchasing": 11751,
    "Ġgid": 13960,
    "Ġsurtout": 23465,
    "Ġsquee": 7929,
    "Ġpresentation": 14479,
    "table": 5795,
    "Ġsundering": 23274,
    "Ġsling": 21219,
    "Ġclams": 19987,
    "Ġassum": 4065,
    "Ġmislead": 22759,
    "Ġstopped": 5957,
    "Ġsho": 2245,
    "Ġcommercial": 22672,
    "Ġheadache": 22900,
    "Ġportraits": 20141,
    "discovery": 12013,
    "Ġbordeaux": 24564,
    "Ġexagger": 12715,
    "Ġfaithful": 9501,
    "Ġdrawled": 23989,
    "Ġremoved": 5274,
    "Ġgemini": 26469,
    "money": 8749,
    "Ġeyebrows": 23514,
    "Ġhoe": 23351,
    "Ġlionel": 25287,
    "Ġfuss": 13903,
    "Ġabhorred": 9506,
    "crane": 24098,
    "Ġdata": 518,
    "Ġbedroom": 7277,
    "sequent": 6831,
    "assuming": 22308,
    "stands": 22425,
    "Ġcabinet": 23860,
    "Ġtwisted": 7228,
    "crop": 20797,
    "covery": 11170,
    "avast": 8895,
    "Ġmacro": 25940,
    "Ġatom": 18192,
    "Ġshelter": 17007,
    "Ġsurp": 9633,
    "Ġexactly": 2769,
    "acqu": 4842,
    "Ġpitiless": 19386,
    "Ġaries": 21196,
    "Ġsuperstitious": 13518,
    "Ġunscrew": 22036,
    "ir": 378,
    "Ġclanking": 20610,
    "Ġoutrage": 15955,
    "Ġshivering": 10264,
    "Ġblinds": 8007,
    "Ġanyone": 4458,
    "Ġstride": 22612,
    "Ġsufferings": 7513,
    "Ġpresenting": 18988,
    "comb": 11034,
    "scenes": 16238,
    "Ġhumbly": 16195,
    "Ġvivacity": 14939,
    "ri": 390,
    "Ġspear": 9312,
    "Ġtaste": 5524,
    "wheeling": 22869,
    "Ġcasting": 12097,
    "icest": 21562,
    "Ġfury": 7662,
    "Ġbeasts": 10616,
    "Ġpresume": 8038,
    "insanity": 23066,
    "erie": 21270,
    "Ġjudiciously": 23877,
    "igh": 2029,
    "Ġclean": 5652,
    "zes": 11547,
    "Ġjudged": 12080,
    "Ġlandlady": 10421,
    "Ġallusion": 7625,
    "arming": 8950,
    "Ġstately": 9832,
    "Ġzer": 1095,
    "Ġhails": 21948,
    "Ġstreat": 15717,
    "tone": 8762,
    "Ġalternating": 15029,
    "Ġkilburn": 18351,
    "Ġtoil": 6531,
    "nav": 17610,
    "cottagers": 20046,
    "Ġtreas": 7358,
    "Ġazure": 12371,
    "Ġposition": 1957,
    "Ġsom": 1275,
    "ruding": 9722,
    "Ġexposing": 11830,
    "Ġcredit": 4818,
    "Ġsul": 7570,
    "Ġinstantly": 3593,
    "arnel": 18127,
    "Þ": 159,
    "Ġdiversity": 25285,
    "rendered": 22337,
    "rippa": 11340,
    "atherley": 7220,
    "restraint": 18980,
    "ighb": 10422,
    "Ġimprisonment": 22389,
    "Ġveneration": 25045,
    "Ġassistance": 6333,
    "itically": 21328,
    "Ġnursing": 12211,
    "expectation": 14854,
    "landish": 11939,
    "Ġtinker": 15129,
    "Ġhumanity": 6731,
    "lifted": 15384,
    "Ġrespecting": 14482,
    "Ġlikes": 9406,
    "Ġduty": 4071,
    "two": 3862,
    "Ġj": 533,
    "ford": 2824,
    "Ġnapole": 15113,
    "ruded": 15896,
    "deli": 15342,
    "thrill": 25657,
    "pleasures": 24046,
    "Ġanother": 1739,
    "Ġtangles": 25762,
    "anks": 3919,
    "Ġche": 1764,
    "Ġacquire": 2724,
    "Ġboiling": 8524,
    "Ġnonsensical": 21527,
    "Ġlucy": 17969,
    "drove": 16992,
    "Ġchatting": 24748,
    "display": 19154,
    "Ġgeneva": 5450,
    "Ġbattle": 5908,
    "Ġcomforters": 25801,
    "ously": 2492,
    "Ġincidents": 9297,
    "Ă": 195,
    "Ġbearded": 15723,
    "Ġmusic": 5268,
    "Ġknow": 631,
    "Ġfaintest": 24569,
    "sham": 9759,
    "Ġadditionally": 1176,
    "Ġshapeless": 24524,
    "Ġprocure": 9508,
    "Ġscott": 22279,
    "21": 10070,
    "Ġsearching": 13160,
    "Ġchain": 1844,
    "Ġmoccas": 22434,
    "pagan": 17284,
    "walton": 20248,
    "Ġsenses": 8252,
    "de": 460,
    "Ġtrifles": 16950,
    "minutely": 19592,
    "º": 123,
    "Ġmoist": 9283,
    "Ġblinded": 13268,
    "allies": 14164,
    "Ġembeddings": 2249,
    "oniously": 21256,
    "Ġslee": 8973,
    "nels": 12492,
    "Ġforeseen": 16441,
    "Ġneedn": 19228,
    "Ġorb": 22089,
    "Ġdel": 1616,
    "Ġnotice": 4543,
    "Ġtoe": 13934,
    "Ġwronged": 24247,
    "deception": 22143,
    "Ġdescend": 7427,
    "Ġcaprice": 14576,
    "Ġparcel": 15197,
    "uries": 6147,
    "Ġcobweb": 22584,
    "Ġdictated": 25219,
    "Ġremembered": 5276,
    "admirably": 24945,
    "ap": 546,
    "Ġnomin": 10189,
    "Ġcolony": 18765,
    "Ġradney": 6775,
    "Ġepsom": 19981,
    "around": 12604,
    "Ġtreble": 16502,
    "Ġoverflow": 10291,
    "Ġmargin": 11918,
    "dimly": 15344,
    "Ġunful": 22007,
    "Ġ43": 14767,
    "Ġcoding": 8116,
    "Ġliberality": 24377,
    "Ġcaterpillar": 5864,
    "glim": 19363,
    "igns": 8446,
    "Ġtire": 17719,
    "Ġfitzwilliam": 5771,
    "Ġsnatches": 16543,
    "liking": 22923,
    "Ġandromeda": 21506,
    "month": 6463,
    "Ġbestowed": 6593,
    "Ġprior": 11317,
    "Ġmeditation": 16679,
    "Ġcontemptuous": 24677,
    "Ġintimacy": 8699,
    "queg": 1771,
    "ourers": 21448,
    "Ġmeasurement": 19421,
    "Ġshaken": 10263,
    "istan": 22105,
    "sufficiently": 14979,
    "Ġwoke": 21288,
    "Ġnash": 5819,
    "Ġjackson": 24240,
    "Ġbetokened": 18799,
    "anatory": 21361,
    "friendly": 13282,
    "Ġringle": 18210,
    "Ġreeds": 15692,
    "Ġdan": 8791,
    "Ġtides": 13819,
    "Ġbump": 9658,
    "Ġveracity": 23888,
    "Ġpremium": 23903,
    "Ġunnecessary": 8850,
    "Ġspars": 3813,
    "Ġemph": 14524,
    "Ġhumaneval": 25583,
    "Ġsacrificed": 17420,
    "fins": 13717,
    "Ġtoy": 15630,
    "Ġfrequencies": 4789,
    "Ġabatement": 22274,
    "Ġliber": 5168,
    "eastward": 15127,
    "ny": 4016,
    "thirds": 25047,
    "Ġmechanically": 14400,
    "Ġdial": 10809,
    "speeches": 25240,
    "seems": 10874,
    "sisters": 13374,
    "Ġadjac": 18292,
    "Ġpossesses": 19350,
    "Ġincess": 8430,
    "Ġaband": 6561,
    "Ġexcuse": 5861,
    "Ġspouted": 14673,
    "Ġstunsail": 25544,
    "Ġphilosop": 5057,
    "Ġclassifies": 11829,
    "Ġflexible": 23775,
    "claimed": 9834,
    "remote": 23189,
    "preced": 10304,
    "Ġineffectual": 17382,
    "relative": 24013,
    "Ġmental": 21318,
    "quohog": 21850,
    "Ġreposing": 23361,
    "Ġamusements": 16912,
    "ples": 6845,
    "uber": 15443,
    "Ġtissu": 25921,
    "Ġobliging": 13241,
    "ulpt": 10884,
    "Ġnaturalist": 22895,
    "orified": 21400,
    "ott": 1872,
    "Ġpossessor": 23822,
    "Ġcomprehended": 11293,
    "Ġleaps": 14006,
    "power": 7136,
    "Ġestimated": 16593,
    "Ġscor": 8190,
    "Ġprot": 3850,
    "riot": 18181,
    "Ġmerged": 19296,
    "Ġmortals": 9914,
    "itatingly": 25278,
    "Ġmantel": 11438,
    "Ġoverpow": 14206,
    "Ġsecond": 1892,
    "Ġamongst": 8958,
    "aggra": 21904,
    "Ġprocedure": 2811,
    "rior": 12738,
    "Ġtrad": 9826,
    "Ġclout": 22341,
    "Ġenclosure": 20622,
    "Ġacts": 2294,
    "cher": 5786,
    "Ġdiscernment": 15053,
    "ribs": 23365,
    "Ġol": 17814,
    "Ġoutside": 5553,
    "Ġclock": 9531,
    "Ġbutterfly": 19909,
    "Ġusefulness": 19406,
    "described": 18895,
    "Ġbelly": 10368,
    "Ġamerica": 6763,
    "bber": 4568,
    "Ġcontinental": 19704,
    "ina": 21178,
    "continu": 5501,
    "remarked": 12285,
    "Ġsale": 14153,
    "iss": 2177,
    "Ġxxxvi": 24972,
    "stad": 7597,
    "Ġgriff": 22805,
    ".âĢĻâĢĿ": 6739,
    "Ġbrisk": 9801,
    "Ġclaim": 5106,
    "Ġsmile": 4271,
    "eked": 16399,
    "Ġdireful": 11016,
    "eluded": 21573,
    "pitchpoling": 25726,
    "promising": 24727,
    "ree": 874,
    "thr": 12756,
    "Ġbask": 8117,
    "Ġoutright": 18413,
    "Ġdiligence": 17113,
    "Ġrefine": 2819,
    "Ġdesirous": 8941,
    "fron": 24281,
    "Ġdiscreet": 16480,
    "Ġmason": 10156,
    "Ġparson": 6687,
    "boast": 23252,
    "Ġpolluted": 25594,
    "Ġboscombe": 8326,
    "stone": 5089,
    "Ġquakers": 22414,
    "rive": 9705,
    "fine": 10089,
    "Ġtreacher": 8603,
    "Ġhunted": 7453,
    "fin": 5209,
    "Ġfrankly": 16744,
    "strangers": 20335,
    "Ġpull": 5152,
    "Ġgems": 9207,
    "Ġseparating": 16684,
    "tery": 14035,
    "connections": 14426,
    "Ġdiffusion": 23782,
    "Ġrind": 21970,
    "Ġirreparable": 19997,
    "plac": 15817,
    "Ġanomaly": 25637,
    "Ġbonnet": 10654,
    "Ġundergone": 18986,
    "Ġhappily": 9329,
    "Ġmiguel": 25767,
    "shop": 14237,
    "ribut": 818,
    "Ġretirement": 25379,
    "Ġxi": 16427,
    "dles": 11479,
    "Ġcurves": 18853,
    "Ġimperial": 9479,
    "irregular": 21909,
    "appeared": 4281,
    "Ġrefuge": 8536,
    "Ġpained": 19166,
    "iguous": 18044,
    "Ġheav": 1852,
    "Ġrank": 6258,
    "Ġdisliked": 12887,
    "rarely": 21632,
    "Ġsullen": 9156,
    "recurring": 24194,
    "Ġlowerings": 23646,
    "Ġcrater": 16437,
    "ù": 186,
    "clear": 9022,
    "fem": 17536,
    "Ġvigil": 9505,
    "Ġkind": 1787,
    "jug": 17579,
    "Ġdisobedience": 22533,
    "Ġartist": 12908,
    "unctions": 18155,
    "Ġhumour": 7932,
    "enges": 13050,
    "Ġaltitude": 26203,
    "Ġbus": 1904,
    "Ġobli": 9314,
    "Ġmeant": 3549,
    "Ġcynical": 25771,
    "Ġcetology": 10007,
    "Ġhandsomer": 20332,
    "Ġarmies": 16490,
    "Ġhip": 17920,
    "Ġexercised": 24804,
    "Ġunfathom": 14786,
    "Ġtheorem": 2325,
    "pict": 8385,
    "Ġulster": 14996,
    "Ġsimilar": 4917,
    "Ġgestures": 13534,
    "Ġbent": 5149,
    "Ġegot": 18007,
    "Ġidleness": 11142,
    "Ġabusive": 22271,
    "Ġstript": 23691,
    "Ġparty": 3510,
    "Ġresignation": 18566,
    "Ġexertion": 8054,
    "Ġbolt": 11333,
    "Ġshower": 11707,
    "announced": 19758,
    "mistak": 16877,
    "Ġinstances": 5567,
    "Ġcapting": 23022,
    "Ġpeevish": 26557,
    "Ġgood": 1000,
    "anque": 13886,
    "Ġsocially": 22076,
    "widely": 25344,
    "althily": 19357,
    "Ġenjoyed": 8008,
    "tains": 10961,
    "Ġrect": 18025,
    "?_": 8070,
    "ricane": 16276,
    "Ġclasping": 20208,
    "Ġepic": 15028,
    "Ġspectator": 19404,
    "oughed": 22080,
    "Ġlab": 1871,
    "orph": 21397,
    "Ġingenuity": 17162,
    "Ġfearing": 12811,
    "Ġtoss": 10183,
    "buncle": 13690,
    "Ġprepar": 7898,
    "Ġinclu": 1099,
    "settle": 16660,
    "Ġdespondence": 25870,
    "Ġcast": 3607,
    "Ġdomineering": 23706,
    "overs": 17620,
    "Ġporter": 15607,
    "Ġroads": 13286,
    "hel": 4814,
    "destroyed": 15258,
    "disinterested": 23500,
    "Ġtelescopes": 25691,
    "Ġemerged": 8683,
    "Ġalexander": 17422,
    "Ġjonah": 3481,
    "Ġsore": 10763,
    "Ġcomical": 11678,
    "crimin": 17507,
    "Ġstrateg": 1323,
    "Ġuniversally": 11996,
    "ustration": 2261,
    "Ġwouldst": 18499,
    "Ġabased": 22266,
    "Ġapparel": 20434,
    "discoveries": 25386,
    "Ġsolomon": 11051,
    "Ġshipmates": 6720,
    "Ġdome": 15585,
    "Ġsqueezing": 25007,
    "Ġcharted": 22248,
    "Ġexercising": 19906,
    "abulary": 4800,
    "enjoy": 10773,
    "apply": 18759,
    "Ġjustice": 5111,
    "Ġplainpal": 19277,
    "Ġcompares": 20165,
    "kick": 20935,
    "ancy": 4392,
    "copper": 19187,
    "engagement": 14456,
    "iony": 9190,
    "ullied": 23103,
    "blame": 14792,
    "Ġomit": 17815,
    "yonder": 21143,
    "limping": 26393,
    "Ġnourishment": 15190,
    "Ġeconomical": 25288,
    "Ġhealthy": 10850,
    "Ġbreckinridge": 14522,
    "pointing": 12221,
    "Ġunimportant": 22026,
    "subsided": 25831,
    "Ġunerringly": 18262,
    "Ġarea": 14185,
    "trade": 19635,
    "attacks": 23121,
    "Ġfern": 21405,
    "total": 17249,
    "Ġlevel": 5020,
    "occurred": 13335,
    "Ġempires": 19073,
    "Ġjogged": 26237,
    "Ġcircular": 13108,
    "Ġeas": 2352,
    "exper": 8876,
    "shed": 8095,
    "necessary": 5882,
    "bohemia": 20730,
    "Ġcerem": 7077,
    "Ġgrind": 18735,
    "Ġgrapp": 14099,
    "Ġstraighten": 24004,
    "untarily": 6312,
    "tall": 17672,
    "mile": 17596,
    "Ġphrase": 11186,
    "need": 10978,
    "Ġseer": 21950,
    "Ġbackground": 18649,
    "Ġusually": 6263,
    "Ġneat": 6999,
    "wonders": 17142,
    "strils": 10457,
    "avers": 17479,
    "tawn": 21079,
    "Ġprepare": 8645,
    "hurrying": 14981,
    "oding": 1463,
    "Ġquohog": 10971,
    "Ġdiscrete": 2475,
    "Ġineffect": 13928,
    "cles": 8724,
    "Ġoffic": 3189,
    "Ġuttered": 7280,
    "Ġvillages": 14746,
    "Ġcons": 954,
    "Ġrussia": 26268,
    "Ġanyways": 22518,
    "ru": 480,
    "Ġstains": 21739,
    "Ġfulf": 6772,
    "icking": 8909,
    "Ġrecovered": 5481,
    "Ġprognost": 15279,
    "Ġ{": 21151,
    "idered": 4553,
    "Ġbraz": 19356,
    "occup": 7753,
    "promote": 24728,
    "ĠĠĠĠĠĠĠĠĠĠĠĠĠĠĠĠĠĠĠĠĠĠĠĠĠĠĠĠĠĠĠĠĠĠĠĠĠĠĠĠ": 4515,
    "Ġkuiperai": 10934,
    "Ġprincely": 24148,
    "ige": 12676,
    "Ġcompromised": 22569,
    "Ġships": 3718,
    "Ġkeeping": 7283,
    "Ġdownwards": 8528,
    "Ġwent": 1537,
    "avenza": 17103,
    "ksome": 10103,
    "Ġrachel": 11841,
    "Ġforgetfulness": 14605,
    "amp": 2605,
    "Ġdens": 21423,
    "eliest": 14744,
    "Ġfundamentals": 14634,
    "Ġgrope": 17994,
    "Ġchristianity": 19860,
    "Ġpreser": 6041,
    "Ġbolted": 12241,
    "Ġdedu": 5582,
    "rodden": 21533,
    "Ġdefence": 11066,
    "Ġcrown": 5287,
    "Ġsurplus": 26304,
    "Ġrust": 6408,
    "Ġspaulding": 11728,
    "Ġplight": 14280,
    "Ġlord": 2968,
    "eter": 11619,
    "Ġsulkily": 25883,
    "avish": 22595,
    "Ġspecialized": 3923,
    "Ġappeared": 2778,
    "everywhere": 23695,
    "Ġzigzag": 26273,
    "ger": 1106,
    "Ġnames": 4533,
    "summoned": 26591,
    "Ġfootfalls": 25867,
    "Ġmonotonous": 13261,
    "Ġperplex": 2716,
    "poverty": 22908,
    "Ġamph": 18511,
    "miseries": 16756,
    "Ġlink": 8130,
    "Ġtravell": 5575,
    "Ġforetold": 23451,
    "nals": 16396,
    "Ġjoky": 18406,
    "Ġhereabouts": 12974,
    "july": 20473,
    "lass": 5993,
    "Ġjura": 14191,
    "rubbery": 17340,
    "Ġchink": 15929,
    "Ġhookah": 16969,
    "Ġlakeman": 6986,
    "Ġdurst": 20351,
    "Ġviciously": 24404,
    "Ġdub": 13907,
    "Ġagatha": 6866,
    "ateful": 5927,
    "Ġwooing": 19432,
    "seem": 10226,
    "Ġtranquil": 7310,
    "Ġhistory": 4009,
    "Ġblunder": 18818,
    "fitzwilliam": 11351,
    "gone": 6504,
    "Ġmole": 11788,
    "Ġcontinuously": 23204,
    "practical": 17220,
    "perfect": 7634,
    "Ġperformer": 18755,
    "Ġceases": 19312,
    "Ġinj": 4760,
    "Ġindec": 13926,
    "ch": 321,
    "Ġ(`": 12848,
    "glory": 23851,
    "Ġpages": 15604,
    "alty": 17938,
    "Ġexhibited": 9542,
    "ounced": 4954,
    "Ġtossings": 25357,
    "Ġawful": 6199,
    "Ġfinger": 5273,
    "rann": 21043,
    "Ġodor": 12146,
    "ant": 439,
    "desk": 23205,
    "Ġglance": 4233,
    "bad": 12433,
    "assembled": 21543,
    "Ġinterposed": 20617,
    "cup": 10689,
    "mency": 18925,
    "Ġhorses": 6385,
    "member": 20974,
    "Ġterrify": 19359,
    "bony": 15317,
    "Ġconsistence": 23356,
    ">": 34,
    "than": 4089,
    "Ġpianoforte": 15271,
    "bastian": 10672,
    "Ġlessen": 14531,
    "Ġtig": 13811,
    "deficient": 23116,
    "Ġtemple": 7653,
    "Ġwoods": 5406,
    "notice": 16146,
    "Ġsigned": 11176,
    "cheap": 23804,
    "Ġinco": 14258,
    "Ġbodiless": 24226,
    "estruct": 22225,
    "Ġexpedition": 10632,
    "exertion": 16013,
    "adoes": 11658,
    "conve": 14242,
    "Ġremind": 6058,
    "cent": 8073,
    "bod": 12434,
    "contempl": 13189,
    "deacon": 22145,
    "Ġdipped": 15591,
    "perceived": 8857,
    "verty": 8451,
    "Ġtu": 6968,
    "Ġreliance": 14383,
    "Ġmapp": 2081,
    "ia": 1257,
    "autumn": 23343,
    "weight": 2942,
    "Ġsales": 12803,
    "Ġwhirlwinds": 20463,
    "carte": 25401,
    "Ġpainfully": 13140,
    "age": 505,
    "Ġarter": 22175,
    "appointment": 24059,
    "next": 5892,
    "Ġeddies": 23437,
    "ster": 1963,
    "Ġmemb": 14027,
    "Ġgreeting": 18964,
    "putting": 14098,
    "Ġobed": 8534,
    "Ġpetrified": 19595,
    "distinct": 13333,
    "Ġreflected": 2911,
    "Ī": 235,
    "Ġcitations": 25438,
    "shipmates": 11925,
    "begged": 18517,
    "Ġvictoria": 14871,
    "acknowledge": 18468,
    "diligence": 26111,
    "Ġweather": 3998,
    "Ġvillagers": 19472,
    "Ġfell": 1979,
    "careful": 14864,
    "iosity": 2382,
    "izers": 18142,
    "Ġcomprehen": 5349,
    "olera": 21831,
    "Ġhelplessness": 25072,
    "Ġschemes": 11130,
    "Ġcharges": 23267,
    "Ġdivert": 23593,
    "heavily": 24534,
    "Ġjelly": 22298,
    "istics": 1631,
    "Ġeverything": 3158,
    "Ġassembl": 20059,
    "Ġchr": 3692,
    "hit": 20888,
    "Ġchivalrous": 20513,
    "situ": 9620,
    "Ġweap": 6155,
    "etent": 10198,
    "ĠĠĠĠĠĠĠĠĠĠĠĠĠ": 22560,
    "Ġconven": 6151,
    "trying": 15436,
    "Ġintru": 15824,
    "peleg": 16291,
    "Ġunfair": 19506,
    "Ġafghan": 22628,
    "Ġvult": 12748,
    "Ġcarpent": 4464,
    "Ġrags": 18638,
    "bos": 17482,
    "absolut": 8457,
    "abases": 3008,
    "Ġapprehension": 7113,
    "Ġlagged": 21556,
    "urean": 18122,
    "grinder": 23414,
    "Ġearnestness": 12122,
    "Ġaway": 1246,
    "ag": 377,
    "Ġcaliforn": 14429,
    "Ġbattered": 17862,
    "Ġdissatisfied": 14255,
    "tin": 6116,
    "Ġhumming": 12982,
    "Ġspangled": 22133,
    "aders": 21756,
    "Ġplease": 4723,
    "Ġwax": 10775,
    "Ġuncont": 14113,
    "Ġinestimable": 17440,
    "Ġblessings": 24176,
    "Ġinsult": 6747,
    "iature": 8741,
    "Ġresponsiveness": 2900,
    "Ġcordial": 16834,
    "Ġlobsters": 13515,
    "Ġhempen": 13548,
    "Ġlondon": 2842,
    "Ġvit": 10244,
    "Ġextremity": 8987,
    "Ġarrant": 23299,
    "Ġdesp": 3218,
    "gment": 4389,
    "Ġyale": 21777,
    "mutually": 26137,
    "Ġbuckets": 17033,
    "breath": 15160,
    "?âĢĿâĢĶ": 12891,
    "Ġsharpen": 13567,
    "Ġscream": 5935,
    "Ġforeman": 23447,
    "Ġguard": 6178,
    "racing": 21629,
    "Ġconveyed": 8335,
    "sensibility": 25024,
    "obed": 14444,
    "Ġoppress": 13170,
    "nament": 11505,
    "phew": 6368,
    "Ġfugitive": 17325,
    "databases": 3027,
    "Ġmadman": 13149,
    "Ġreinforcement": 3355,
    "rust": 2580,
    "Ġshunned": 17291,
    "Ġdressing": 7090,
    "Ġbran": 5250,
    "Ġdisplaying": 16965,
    "incident": 14590,
    "<PAD>": 0,
    "Ġpitch": 5767,
    "Ġrevelry": 15134,
    "Ġselection": 18202,
    "ears": 20844,
    "Ġwalton": 14970,
    "Ġslanting": 23170,
    "Ġbur": 2697,
    "hump": 12474,
    "cherries": 19755,
    "chancing": 22920,
    "ky": 4520,
    "promise": 12247,
    "51": 12428,
    "rent": 1170,
    "Ġcovers": 18596,
    "Ġ(âĢľ": 15992,
    "Ġswung": 6449,
    "Ġgleam": 12305,
    "Ġmeekly": 26490,
    "Ġknocking": 10558,
    "Ġlungless": 24864,
    "Ġnoticing": 18224,
    "dashing": 20835,
    "Ġmajest": 24060,
    "Ġdefer": 18822,
    "Ġmet": 1949,
    "Ġformless": 22826,
    "cu": 10082,
    "Ġask": 1494,
    "Ġalle": 11664,
    "fight": 17537,
    "Ġimpulsively": 24881,
    "Ġhumped": 19768,
    "whaling": 7900,
    "tes": 11527,
    "Ġglim": 9341,
    "Ġhos": 4942,
    "Ġostrich": 26430,
    "cim": 8718,
    "Ġheire": 18036,
    "Ġribbons": 24329,
    "detective": 24383,
    "Ġuneasiness": 9482,
    "Ġjavelin": 26105,
    "phr": 18687,
    "Ġstudy": 1775,
    "Ġwalrus": 14971,
    "mingled": 14711,
    "aver": 6785,
    "istol": 6259,
    "lydia": 6826,
    "uling": 2259,
    "neither": 9755,
    "conjectures": 25181,
    "Ġpuffing": 12251,
    "Ġpreaching": 15923,
    "Ġembraces": 19871,
    "involuntarily": 20413,
    "Ġclut": 7641,
    "Ġnobler": 14172,
    "Ġmediocr": 24083,
    "Ġmastery": 23993,
    "Ġdrooping": 9418,
    "Ġpersonified": 19177,
    "Ġtraining": 529,
    "Ġburgl": 13171,
    "gish": 20872,
    "Ġsurmount": 19999,
    "Ġbloodthirsty": 26601,
    "Ġexploit": 19161,
    "Ġsolemnisation": 24113,
    "neighb": 16020,
    "arbuck": 2025,
    "alluring": 18352,
    "acled": 16079,
    "ature": 520,
    "alice": 3211,
    "Ġwish": 2098,
    "disp": 7977,
    "retch": 4370,
    "Ġconfederate": 17352,
    "protruding": 24817,
    "gh": 3804,
    "bench": 16802,
    "olerable": 7182,
    "Ġdetermine": 3246,
    "Ġbund": 17863,
    "Ġcocaine": 20720,
    "Ġgen": 5296,
    "m": 81,
    "Ġsnarl": 25716,
    "Ġdeceived": 6544,
    "Ġabruptly": 15148,
    "Ġknife": 7309,
    "existence": 16011,
    "Ġminded": 23231,
    "._]]": 5334,
    "Ġtarn": 21157,
    "Ġobst": 6284,
    "cab": 7333,
    "Ġsixty": 7723,
    "Ġcran": 11997,
    "Ġstig": 14000,
    "fol": 4862,
    "Ġadmired": 7982,
    "ices": 2137,
    "Ġmonument": 16234,
    "Ġreader": 11931,
    "nets": 9131,
    "pennies": 26286,
    "sign": 8387,
    "Ġnois": 4267,
    "Ġsteadily": 8052,
    "affording": 23777,
    "ental": 7168,
    "Ġmanilla": 15956,
    "Ġapplicable": 19011,
    "metallic": 19879,
    "Ġindestruct": 22957,
    "didst": 19347,
    "Ġcle": 1512,
    "Ġcensus": 15094,
    "gg": 1997,
    "Ġimpudence": 26242,
    "Ġreplied": 2266,
    "Ġwhitened": 24868,
    "Ġdeline": 16330,
    "Ġweedy": 15788,
    "Ġdepend": 774,
    "Ġflung": 8561,
    "erative": 21271,
    "Ġcompetition": 14265,
    "sy": 2837,
    "Ġbene": 2032,
    "Ġsluggishly": 25892,
    "acc": 2534,
    "Ġsaxe": 13626,
    "uttural": 21587,
    "bpp": 20771,
    "Ġbitterly": 8315,
    "Ġambition": 11431,
    "Ġshetland": 22157,
    "Ġcensured": 25095,
    "semicirc": 26491,
    "floor": 14934,
    "Ġfanning": 23389,
    "Ġtherefore": 2240,
    "intment": 4720,
    "Ġexpl": 487,
    "Ġbrass": 11047,
    "Ġsandwiched": 26610,
    "ĠĠĠĠĠĠĠĠĠĠĠĠĠĠĠĠĠĠĠĠĠĠĠĠ": 5321,
    "ans": 458,
    "ideas": 18581,
    "Ġpeeping": 16124,
    "Ġbeacon": 21754,
    "Ġours": 4612,
    "Ġvanish": 8925,
    "Ġmaids": 19690,
    "Ġdispleasure": 16049,
    "Ġdoubts": 8578,
    "Ġregent": 18591,
    "Ġsulk": 15044,
    "relics": 24015,
    "Ġbambooz": 26120,
    "Ġquiet": 3263,
    "Ġsuccour": 20433,
    "disgrace": 16457,
    "already": 6980,
    "at": 268,
    "Ġsaid": 578,
    "Ġkneel": 14805,
    "noise": 14339,
    "Ġsubmerged": 11869,
    "Ġere": 3689,
    "Ġshade": 6550,
    "Ġseizure": 21955,
    "arthur": 14828,
    "aan": 20763,
    "Ġclaps": 22344,
    "unknown": 10889,
    "osop": 4403,
    "attacked": 23120,
    "oring": 1861,
    "ricity": 23061,
    "Ġstiffness": 24831,
    "Ġerred": 21155,
    "etition": 7382,
    "Ġprograms": 7239,
    "Ġreliability": 22878,
    "Ġoccupied": 5272,
    "pip": 6654,
    "Ġthrust": 5084,
    "glance": 16586,
    "gris": 8260,
    "Ġflames": 7940,
    "itional": 22472,
    "**": 4686,
    "rible": 3230,
    "ounts": 4651,
    "Ġimpious": 15984,
    "calabash": 22896,
    "case": 5206,
    "igan": 21697,
    "sutherland": 21061,
    "Ġpopulous": 16825,
    "Ġrecorded": 11292,
    "Ġdetestable": 15096,
    "modern": 1142,
    "art": 591,
    "Ġbiting": 17861,
    "Ġborrow": 10169,
    "divided": 25019,
    "Ġungovernable": 20708,
    "Ġtallest": 15472,
    "Ġhangs": 11604,
    "!": 5,
    "initions": 21186,
    "bare": 12438,
    "ribbed": 16410,
    "vishnoo": 21118,
    "Ġhurriedly": 11249,
    "Ġcandidates": 4332,
    "byshire": 6172,
    "Ġdistracted": 11800,
    "Ġprophes": 16346,
    "minute": 11273,
    "school": 10053,
    "Ġpay": 3965,
    "iter": 4390,
    "gained": 20880,
    "Ġexhilarating": 26338,
    "Ġarduous": 26529,
    "Ġkl": 2736,
    "Ġquar": 3116,
    "Ġstoutly": 16923,
    "Ġfulfilled": 11361,
    "Ġprop": 1683,
    "factories": 19842,
    "Ġhaunts": 18198,
    "roylott": 20025,
    "Ġiroquois": 26472,
    "Ġrandomly": 1920,
    "Ġappointed": 20101,
    "Ġwitty": 21291,
    "Ġintrude": 25991,
    "Ġdocuments": 10021,
    "Ġtor": 8106,
    "pens": 17631,
    "Ġmoul": 15540,
    "Ġglimmered": 20170,
    "osa": 22258,
    "Ġshrouded": 14967,
    "ď": 208,
    "Ġire": 12665,
    "horses": 17566,
    "waving": 21130,
    "Ġpleadings": 25853,
    "ioneer": 15628,
    "magnitude": 17247,
    "embarrassed": 20595,
    "Ġpaints": 23522,
    "Ġcolonies": 14373,
    "ravelled": 18014,
    "hatred": 24822,
    "gus": 13723,
    "Ġdrags": 16940,
    "Ġquito": 24408,
    "Ġpuzz": 5532,
    "Ġ80": 24456,
    "Ġsk": 962,
    "ellations": 21942,
    "Ġeleg": 6192,
    "Ġheated": 21680,
    "Ġaccompanied": 6780,
    "hav": 20896,
    "Ġphilosopher": 12180,
    "Ġfortunate": 6214,
    "Ġbil": 15561,
    "Ġcritics": 23444,
    "Ġpel": 17902,
    "whilst": 18371,
    "Ġcollege": 11423,
    "Ġoblivious": 26033,
    "Ġresources": 2939,
    "ieged": 22576,
    "Ġdrawers": 12102,
    "romising": 18233,
    "Ġcranes": 20381,
    "Ġgans": 5821,
    "Ġindomitableness": 26571,
    "carb": 20809,
    ".âĢĿ": 464,
    "telling": 14437,
    "hopeless": 16916,
    "gunw": 17219,
    "Ġchapters": 10472,
    "Ġmourn": 8702,
    "V": 58,
    "again": 3400,
    "black": 6768,
    "ifiable": 18163,
    "Ġslippery": 12163,
    "cherish": 24552,
    "lo": 679,
    "invite": 25089,
    "Ġsensationalism": 26067,
    "Ġtradesmen": 17104,
    "Ġsooner": 5572,
    "Ġmend": 8405,
    "ullen": 8235,
    "Ġfleshy": 24616,
    "ub": 1227,
    "Ġsemicircle": 26068,
    "Ġgnashed": 20131,
    "ly": 319,
    "izar": 14048,
    "marest": 20979,
    "Ġcollect": 7237,
    "Ġfreckled": 18960,
    "Ġtruest": 16702,
    "Ġbroods": 23101,
    "robotics": 11305,
    "Ġtout": 17718,
    "Ġrigged": 16716,
    "Ġreasoner": 14439,
    "Ġhus": 3096,
    "mand": 3897,
    "medical": 23341,
    "Ġruns": 8593,
    "Ġminiatures": 20320,
    "Ġbarque": 23790,
    "Ġwaste": 9232,
    "ared": 771,
    "apology": 22331,
    "eyes": 5684,
    "Ġmanip": 8870,
    "ums": 10271,
    "Ġshape": 5639,
    "Ġdemean": 12719,
    "Ġdeserts": 10506,
    "Ġshakespeare": 20306,
    "Ġshoot": 11160,
    "Ġdistributing": 22677,
    "Ġreminisc": 18725,
    "Ġnapkins": 25162,
    "Ġshout": 4264,
    "harbors": 20147,
    "Ġsince": 1798,
    "might": 4079,
    "Ġwondrous": 4735,
    "Ġforce": 5092,
    "Ġthrob": 21516,
    "Ġunlab": 3792,
    "Ġglens": 18847,
    "unken": 10235,
    "Ġshed": 8181,
    "Ġwaters": 3597,
    "Ġbequeathed": 20700,
    "Ġtrim": 15965,
    "Ġbowsman": 11254,
    "Ġhelps": 9366,
    "mmed": 7915,
    "Ġlinen": 12404,
    "time": 3149,
    "Ġfacetious": 20582,
    "Ġmari": 6813,
    "Ġwore": 6377,
    "Ġpacket": 14891,
    "Ġfaded": 10808,
    "Ġsuspicious": 9478,
    "Ġviewed": 10461,
    "Ġmariners": 6068,
    "Ġjewell": 19519,
    "frequent": 15351,
    "Ġunrest": 11711,
    "č": 206,
    "Ġmeanings": 18608,
    "Ġcongratulated": 19765,
    "cur": 3273,
    "Ġinmates": 15619,
    "Ġintimidated": 24806,
    "Ġphrensy": 25125,
    "Ġintelligently": 3769,
    "Ġbarber": 23789,
    "loose": 11801,
    "bert": 4662,
    "Ġdecreasing": 2442,
    "Ġsting": 10860,
    "devils": 20031,
    "Ġadvertising": 25390,
    "Ġrequisite": 18629,
    "Ġnavy": 14914,
    "Ġexcel": 3566,
    "presumption": 20440,
    "Ġmalays": 19676,
    "orange": 21398,
    "uth": 3020,
    "Ġbiographical": 22765,
    "Ġrenegades": 26476,
    "misrepresented": 24211,
    "Ġdepressed": 10881,
    "Ġrecollections": 10511,
    "aston": 7408,
    "Ġgoring": 21602,
    "Ġelud": 22649,
    "Ġinnocent": 4921,
    "Ġdears": 18136,
    "difference": 13706,
    "continuing": 24479,
    "happy": 4423,
    "Ġretreated": 13431,
    "Ġpropensity": 18996,
    "epilogue": 22101,
    "Ġordinarily": 20648,
    "Ġpunct": 8659,
    "ely": 625,
    "Ġarticulate": 24432,
    "Ġentirely": 3435,
    "Ġinstantaneously": 23657,
    "Ġfid": 10802,
    "devouring": 24951,
    "Ġabuse": 18392,
    "Ġappal": 18356,
    "Ġpikes": 21476,
    "Ġgrotes": 19562,
    "mary": 8748,
    "Ġgrown": 5628,
    "Ġashore": 5351,
    "Ġdisturbed": 8670,
    "iveness": 2467,
    "enjoyments": 25434,
    "ĠĠĠĠĠĠĠĠĠĠĠĠĠĠĠĠĠĠĠĠĠĠĠĠĠĠĠĠĠĠĠĠĠĠĠĠĠĠĠĠĠĠĠĠĠ": 9950,
    "Ġhides": 16261,
    "Ġvill": 3881,
    "Ġassociates": 24713,
    "urpation": 16298,
    "Ġweal": 21917,
    "fights": 20864,
    "Ġlot": 6678,
    "bruary": 15233,
    "Ġjem": 18402,
    "Ġresource": 10992,
    "Ġsuns": 23273,
    "--âĢľ": 12968,
    "Ġswept": 7978,
    "desired": 8955,
    "Ġcircle": 4977,
    "Ġstood": 2551,
    "Ġcruelly": 13373,
    "cod": 12440,
    "Ġcourtiers": 24137,
    "Ġalphabetical": 17200,
    "Ġeverybody": 4509,
    "unwilling": 14059,
    "Ġequals": 4727,
    "Ġinterior": 8893,
    "Ġcontracted": 12856,
    "Ġinhabited": 12182,
    "Ġmem": 2068,
    "Ġseverest": 14088,
    "Ġsupernatural": 9871,
    "Ġmornings": 16232,
    "Ġbroken": 3449,
    "Ġvertically": 19378,
    "Ġdinner": 4244,
    "Ġwad": 13849,
    "hated": 17560,
    "dishon": 20402,
    "happ": 3107,
    "Ġtransaction": 22437,
    "Ġtypewriter": 19097,
    "Ġunclasp": 26511,
    "pret": 7212,
    "Ġravines": 25832,
    "Ġflap": 14420,
    "Ġinev": 10180,
    "Ġpeaking": 22688,
    "sided": 17663,
    "Ġhospitable": 17058,
    "woods": 13417,
    "õ": 182,
    "formity": 10277,
    "entitled": 21566,
    "Ġeccentric": 13647,
    "Ġreconciled": 13585,
    "Ġevalu": 2671,
    "Ġlivery": 15996,
    "blood": 7780,
    "monster": 8590,
    "rations": 10722,
    "ribes": 23366,
    "ply": 6366,
    "Ġindependently": 4246,
    "Ġup": 462,
    "entered": 8813,
    "Ġcrocod": 19627,
    "accompl": 9878,
    "Ġproportions": 16466,
    "Ġboarders": 16599,
    "irts": 9236,
    "vigorous": 25918,
    "Ġspeed": 2446,
    "onsense": 6431,
    "Ġoutlaws": 22321,
    "Ġbruised": 25773,
    "Ġatone": 15799,
    "ar": 285,
    "Ġgregarious": 18965,
    "Ġcreditable": 19621,
    "Ġdefection": 22941,
    "Ġnobody": 6158,
    "Ġrepeat": 8000,
    "Ġcolds": 23758,
    "foam": 24418,
    "value": 18798,
    "elled": 3994,
    "Ġjuggl": 20436,
    "ordingly": 18515,
    "Ġuntrodden": 23520,
    "Ġmeetings": 16531,
    "lightened": 12062,
    "twist": 23698,
    "Ġheaths": 25973,
    "Ġrequest": 6051,
    "bouton": 17500,
    "Ġblasted": 7937,
    "Ġphrenolog": 12331,
    "Ġnoting": 18221,
    "Ġdummy": 25450,
    "Ġconstraints": 2740,
    "Ġimmensity": 25330,
    "Ġdetermines": 2366,
    "aurs": 20768,
    "Ġcatastrophe": 10482,
    "Ġbowels": 9428,
    "Ġlifting": 10195,
    "Ġungrateful": 14118,
    "Ġluxur": 12338,
    "impress": 18051,
    "rical": 11517,
    "stones": 11633,
    "pede": 19843,
    "Ġsher": 3767,
    "Ġbeheaded": 11654,
    "body": 2308,
    "Ġrepublic": 14530,
    "Ġtransform": 749,
    "ousings": 18330,
    "away": 4625,
    "Ġafternoon": 6053,
    "collecting": 26082,
    "Ġconfining": 23306,
    "Ġslip": 8953,
    "Ġadam": 2127,
    "Ġsouls": 6308,
    "plied": 10254,
    "inence": 15479,
    "Ġarr": 1801,
    "Ġperceived": 4714,
    "Ġpoison": 7219,
    "Ġqualities": 7533,
    "Ġretrogress": 23071,
    "Ġdevil": 3614,
    "Ġdeliverance": 15155,
    "Ġoozy": 21325,
    "Ġinstrum": 6055,
    "Ġcircumspect": 15082,
    "ropy": 1102,
    "Ġhamper": 19387,
    "Ġspectrum": 4473,
    "Ġpaused": 5416,
    "agony": 14067,
    "Ġornaments": 17450,
    "Ġstoven": 23173,
    "ern": 747,
    "Ġ38": 24078,
    "Ġauthorities": 11263,
    "Ġdisembow": 22535,
    "intments": 18820,
    "xter": 9145,
    "jump": 10102,
    "Ġforever": 14553,
    "wal": 10132,
    "Ġmagic": 8233,
    "Ġdanced": 7843,
    "loom": 18535,
    "Ġram": 11011,
    "declare": 25174,
    "Ġsmelling": 16063,
    "Ġknelt": 12155,
    "prison": 14661,
    "nor": 2742,
    "sold": 15424,
    "Ġthing": 1641,
    "Ġboomer": 20166,
    "Ġdancing": 5703,
    "Ġomens": 21326,
    "Ġmahogany": 20576,
    "Ġinducement": 16842,
    "australian": 20560,
    "Ġinconceivable": 17937,
    "Ġobjects": 5577,
    "Ġdriving": 3618,
    "Ġpeep": 6870,
    "methodically": 20663,
    "Ġderivative": 3001,
    "Ġrenewing": 19809,
    "Ġinstead": 2792,
    "Ġinterrupted": 6343,
    "Ġsoundings": 13131,
    "signs": 16538,
    "Ġexclamation": 8697,
    "âĢĶâĢĶâĢĿ": 15936,
    "Ġhammer": 6094,
    "Ġlizzie": 26462,
    "Ġcha": 6853,
    "Ġsuperglue": 23457,
    "flag": 14709,
    "servants": 15036,
    "Ġrepay": 19079,
    "Ġgloried": 22979,
    "ois": 9133,
    "tt": 13788,
    "Ġadoption": 24949,
    "Ġshutters": 9935,
    "vitiated": 25755,
    "cadence": 26126,
    "aton": 21257,
    "Ġdesperate": 7777,
    "hab": 1077,
    "Ġwife": 2587,
    "Ġshrink": 14802,
    "Ġvalue": 2084,
    "Ġblocked": 19222,
    "Ġmysteriously": 24603,
    "prises": 23812,
    "fortun": 3538,
    "posture": 16926,
    "Ġchuckled": 10646,
    "Ġslides": 18938,
    "Ġbowed": 6242,
    "Ġseems": 2482,
    "Ġcontest": 18473,
    "Ġtranced": 18426,
    "ellow": 3880,
    "oun": 483,
    "they": 1881,
    "Ġtriumphantly": 11286,
    "combined": 20319,
    "Ġ95": 19772,
    "Ġfloundering": 16249,
    "Ġmonkey": 8226,
    "melancholy": 12350,
    "Ġscowl": 22283,
    "Ġcircumst": 2976,
    "Ġferule": 24516,
    "Ġwarb": 17787,
    "Ġignoble": 19397,
    "Ġleast": 2063,
    "ocation": 14624,
    "Ġpreparations": 12307,
    "allowance": 16823,
    "loss": 22505,
    "Ġcurric": 22992,
    "Ġusurpation": 18361,
    "Ġlingu": 11612,
    "rabb": 15676,
    "keeping": 8633,
    "surf": 24212,
    "hill": 15360,
    "Ġaverage": 3141,
    "pping": 1425,
    "Ġindex": 17048,
    "apidated": 22334,
    "Ġcrimes": 8587,
    "Ġmould": 6519,
    "Ġclad": 12835,
    "atives": 2237,
    "Ġdi": 6525,
    "Ġbread": 5404,
    "Ġvic": 5236,
    "Ġwhiteness": 5919,
    "vate": 21108,
    "Ġreligions": 20106,
    "apan": 6860,
    "Ġsap": 18323,
    "Ġdear": 1539,
    "Ġdella": 21438,
    "Ġsensibly": 14512,
    "window": 7743,
    "mayhew": 23992,
    "Ġpaces": 13917,
    "Ġphilips": 5410,
    "disposition": 10040,
    "wond": 8767,
    "joke": 20929,
    "Ġelijah": 9098,
    "Ġevent": 2952,
    "Ġdeclared": 5594,
    "unaccountable": 15775,
    "just": 1700,
    "Ġstumped": 24943,
    "Ġinstigated": 18704,
    "Ġdisplayed": 10607,
    "Ġaround": 3612,
    "Ġcandidate": 16700,
    "Ġdash": 8122,
    "woof": 21138,
    "Ġtum": 5692,
    "wrath": 23756,
    "Ġhousemaid": 14463,
    "Ġrattler": 24998,
    "Ġperilous": 7769,
    "ĠĠĠĠĠĠĠĠĠĠĠĠĠĠĠĠĠĠĠĠĠĠĠĠĠĠĠĠĠĠĠĠĠ": 12039,
    "Ġscenari": 22285,
    "borean": 25744,
    "des": 1569,
    "Ġhedgehogs": 25395,
    "Ġdamned": 13130,
    "obser": 11099,
    "Ġinconsiderable": 21493,
    "gast": 20870,
    "Ġsynthe": 26008,
    "Ġsolved": 8930,
    "Ġphysiognomically": 25613,
    "ieces": 4772,
    "Ġbiggest": 24566,
    "carry": 19525,
    "icting": 12852,
    "maj": 18805,
    "raised": 15675,
    "tisement": 6767,
    "Ġpaid": 5015,
    "Ġdarkened": 16430,
    "Ġmercenary": 17192,
    "Ġconstable": 19068,
    "Ġsqu": 1036,
    "Ġoverall": 4357,
    "Ġastonished": 7087,
    "Ġwhenever": 5166,
    "hark": 15363,
    "Ġreview": 18030,
    "Ġexposure": 16093,
    "uts": 8814,
    "Ġted": 13810,
    "Ġrespects": 7269,
    "Ġunwritten": 22030,
    "feren": 767,
    "ality": 2513,
    "Ġus": 496,
    "Ġnlp": 3063,
    "norm": 20984,
    "peaceful": 20445,
    "Ġworried": 22925,
    "Ġranges": 2886,
    "Ġjan": 11759,
    "weather": 7229,
    "Ġmisfortunes": 7041,
    "drab": 23896,
    "Ġmonster": 3797,
    "number": 10113,
    "wam": 10134,
    "Ġinconstant": 21494,
    "depth": 12796,
    "mon": 2309,
    "Ġtrough": 15966,
    "Ġphant": 7055,
    "forth": 9320,
    "remorse": 14465,
    "Ġfrightened": 5341,
    "uesday": 8586,
    "Ġsubstant": 14807,
    "persuaded": 15071,
    "Č": 205,
    "Ġswells": 9825,
    "Ġsuspended": 5665,
    "Ġreceptive": 1565,
    "vig": 15444,
    "colnett": 19329,
    "Ġlod": 4043,
    "Ġrelentless": 26278,
    "Ġve": 1109,
    "Ġincant": 18568,
    "Ġwebster": 20160,
    "nurtured": 25525,
    "Ġvillain": 8634,
    "Ġalbino": 20501,
    "Ġsleeps": 10445,
    "Ġconsol": 3818,
    "impenetrable": 26197,
    "liter": 11500,
    "iles": 2863,
    "Ġabstraction": 26539,
    "Ġexhibit": 14954,
    "Ġmethodic": 23182,
    "loops": 12879,
    "ifle": 10890,
    "cary": 10688,
    "marrying": 19546,
    "borough": 20784,
    "stud": 8818,
    "Ġsine": 10762,
    "Ġclosest": 16762,
    "Ġmeasuring": 22879,
    "Ġcheating": 16367,
    "Ġtags": 20570,
    "Ġ57": 24325,
    "Ġartfully": 22611,
    "Ġvows": 15805,
    "arned": 21819,
    "victim": 25531,
    "Ġforc": 9226,
    "chard": 21685,
    "daughter": 8354,
    "maul": 11889,
    "nal": 1902,
    "Ġbowsprit": 16559,
    "Ġmat": 1150,
    "Ġgrating": 14353,
    "Ġlicense": 20089,
    "Ġberg": 24536,
    "sculptured": 26045,
    "Ġsl": 1500,
    "Ġofficio": 23814,
    "superst": 11324,
    "Ġleaped": 8824,
    "icle": 10833,
    "Ġsleeve": 20139,
    "cked": 2763,
    "Ġhearties": 18967,
    "Ġtopic": 9404,
    "Ġoblig": 3446,
    "Ġtexture": 19159,
    "soled": 14328,
    "Ġwashed": 15764,
    "Ġnimble": 21526,
    "aze": 10073,
    "Ġmoth": 17802,
    "Ġdormouse": 4925,
    "ignantly": 23264,
    "acted": 11009,
    "ashes": 6016,
    "Ġelectric": 15192,
    "invest": 11558,
    "Ġrecital": 16143,
    "unw": 14055,
    "besides": 8694,
    "Ġgnarled": 25166,
    "Ġvaliant": 9798,
    "Ġsuspicion": 6211,
    "Ġportable": 19368,
    "Ġoutstretched": 14194,
    "arrival": 15596,
    "Ġfrozen": 9011,
    "Ġfools": 14480,
    "Ġinquirer": 24964,
    "Ġspas": 10921,
    "sprinkling": 24913,
    "Ġpoverty": 9302,
    "chance": 6827,
    "Ġstaircase": 20094,
    "Ġbabies": 19691,
    "Ġbells": 19600,
    "Ġdowry": 20684,
    "actorily": 25577,
    "Ġexpedite": 24954,
    "Ġinform": 998,
    "Ġinflexibly": 26371,
    "Ġtrinity": 22354,
    "Ġurgent": 16866,
    "histor": 13489,
    "Ġnantucket": 2841,
    "Ġcore": 13876,
    "Ġbarbs": 10530,
    "Ġgracechurch": 12195,
    "sche": 13011,
    "Ġfootpaths": 26319,
    "Ġcul": 17822,
    "Ġaunts": 21199,
    "arity": 1302,
    "Ġcaptive": 14425,
    "Ġcuba": 25096,
    "murderers": 25729,
    "Ġli": 601,
    "prof": 7699,
    "Ġother": 759,
    "Ġdispersed": 16596,
    "Ġthump": 11609,
    "Ġevap": 19622,
    "Ġbeauties": 10444,
    "Ġjoined": 4564,
    "Ġconfusion": 7273,
    "Ġdexterously": 25296,
    "Ġuncompromised": 20602,
    "slipping": 25529,
    "remind": 23187,
    "Ġdecoyed": 18486,
    "Ġgrimesby": 11456,
    "Ġshocks": 16456,
    "Ġboisterously": 25683,
    "Ġinsp": 2101,
    "Ġcomplexity": 1695,
    "Ġdrawback": 23990,
    "Ġsleepless": 14581,
    "idence": 4301,
    "Ġskeleton": 5514,
    "Ġhoof": 23353,
    "devilish": 17081,
    "Ġdoors": 6418,
    "Ġmetaphys": 16409,
    "Ġresume": 18565,
    "Ġforced": 4351,
    "Ġemblaz": 16242,
    "Ġnone": 3226,
    "Ġindiam": 22952,
    "abounding": 25980,
    "Ġimmovable": 15889,
    "Ġseparation": 11247,
    "ted": 791,
    "Ġhumane": 11881,
    "Ġbeheading": 21752,
    "|": 96,
    "Ġannealing": 1555,
    "Ġfold": 5530,
    "ve": 322,
    "Ġfairy": 14626,
    "Ġlion": 9674,
    "Ġdecomp": 3814,
    "perquis": 22188,
    "Ġdod": 6672,
    "Ġwoes": 23986,
    "Ġjoyously": 19345,
    "Ġcharitable": 23268,
    "ga": 17549,
    "Ġmate": 3712,
    "Ġdock": 15927,
    "Ġconnex": 10664,
    "acup": 14277,
    "justine": 7683,
    "artificial": 1016,
    "Ġyouthful": 16722,
    "ellect": 7381,
    "Ġwast": 21862,
    "ped": 6365,
    "Ġerudite": 26351,
    "tor": 15430,
    "#": 7,
    "Ġlazarus": 15027,
    "Ġradiant": 16808,
    "Ġboundary": 11221,
    "idual": 1561,
    "uring": 821,
    "Ġillustrations": 17107,
    "Ġchil": 11748,
    "Ġagitates": 22514,
    "arpo": 1755,
    "faith": 15023,
    "Ġcoiled": 11817,
    "Ġgl": 1255,
    "Ġvoy": 2620,
    "dÃ¦mon": 17526,
    "Ġcommodores": 25375,
    "ignor": 8960,
    "Ġpresented": 5183,
    "farm": 15349,
    "urged": 18048,
    "exagger": 22428,
    "Ġought": 3420,
    "Ġbadly": 12128,
    "Ġappend": 18357,
    "Ġmixture": 9561,
    "doctor": 19095,
    "Ġbitten": 21388,
    "Ġboasted": 16103,
    "Ġnuptials": 20492,
    "Ġfert": 15578,
    "ĠmanÅĵuv": 18417,
    "commanded": 16987,
    "Ġgazed": 6478,
    "mmet": 10987,
    "Ġinex": 6528,
    "Ġshot": 4544,
    "reproach": 15184,
    "Ġconvinced": 4207,
    "Ġsundry": 20072,
    "affairs": 14655,
    "Ġcomputation": 966,
    "Ġ132": 19895,
    "Ġshuddering": 9050,
    "august": 11070,
    "Ġabsorbed": 12328,
    "ribution": 14305,
    "cock": 12022,
    "binary": 20783,
    "industrious": 26240,
    "alions": 21499,
    "Ġre": 317,
    "Ġeasier": 11164,
    "Ġpleasant": 4171,
    "gabriel": 15358,
    "igations": 18043,
    "Ġconsort": 18723,
    "Ġgravel": 14100,
    "Ġinnoc": 3798,
    "sounded": 12263,
    "Ġcobb": 14270,
    "regularly": 13206,
    "Ġwhich": 503,
    "Ġconcealment": 16913,
    "Ġprevailing": 24674,
    "Ġmary": 3846,
    "acetti": 13394,
    "Ġupdates": 1299,
    "Ġamounted": 18513,
    "Ġheels": 10849,
    "Ġhistor": 3392,
    "Ġpicked": 6341,
    "gul": 12462,
    "Ġtomorrow": 21511,
    "behold": 12873,
    "Ġiter": 2954,
    "Ġbrigandish": 25488,
    "Ġenters": 11025,
    "Ġcash": 9651,
    "ners": 3274,
    "Ġspar": 10920,
    "delay": 16697,
    "Ġprince": 18972,
    "Ġobser": 2069,
    "author": 9858,
    "Ġstandards": 19016,
    "Ġ62": 24365,
    "Ġhermit": 15854,
    "Ġdeem": 18133,
    "Ġapprove": 12867,
    "memory": 13615,
    "ention": 857,
    "Ġbridge": 8349,
    "Ġinexorable": 12252,
    "Ġlasting": 18794,
    "Ġflattering": 13025,
    "Ġashen": 21897,
    "Ġbloodthirst": 23801,
    "Ġshar": 9248,
    "Ġdifferent": 1428,
    "Ġdread": 3166,
    "proceeding": 20140,
    "Ġtogether": 1880,
    "uendoes": 26407,
    "Ġhab": 4219,
    "Ġknots": 15007,
    "Ġanyhow": 14253,
    "Ġmalignant": 14876,
    "Ġdiabolically": 25514,
    "umblings": 23928,
    "Ġyourself": 2593,
    "Ġemails": 13104,
    "Ġgarb": 21601,
    "Ġfangs": 12593,
    "Ā": 193,
    "Ġpiece": 5367,
    "Ġwalled": 15532,
    "male": 15386,
    "Ġhardened": 14448,
    "Ġ13": 6718,
    "Ġingenious": 12345,
    "Ġautom": 3432,
    "Ġexample": 5096,
    "Ġcaves": 15550,
    "ortunities": 15937,
    "terrible": 8464,
    "Ġsummar": 3525,
    "Ġballasted": 23980,
    "withdrawn": 23028,
    "smiled": 16613,
    "Ġcorrespondence": 10593,
    "ladies": 9527,
    "itheat": 21336,
    "social": 11021,
    "ula": 2828,
    "Ġpermanent": 13629,
    "wonderful": 16959,
    "Ġagrippa": 11803,
    "Ġdangerous": 6612,
    "approb": 11041,
    "visit": 7755,
    "Ġallegor": 25546,
    "Ġunob": 22011,
    "Ġrogue": 22402,
    "town": 7142,
    "Ġpious": 11596,
    "Ġmoney": 3419,
    "s": 87,
    "Ġencode": 4364,
    "icilian": 20690,
    "fiery": 13579,
    "Ġmu": 17795,
    "Ġevol": 2816,
    "ont": 2622,
    "Ġiv": 4045,
    "Ġmasonry": 13597,
    "hinting": 17568,
    "Ġpantheistic": 26336,
    "covering": 15332,
    "dozen": 23377,
    "hospit": 25904,
    "sir": 5001,
    "Ġamusement": 8056,
    "Ġgiant": 13966,
    "Ġalms": 21778,
    "Ġrepute": 18034,
    "Ġincredulous": 9985,
    "orative": 21396,
    "dington": 11898,
    "Ġadequately": 15196,
    "Ġancestors": 25643,
    "Ġ17": 5740,
    "Ġbuffalo": 11428,
    "aneous": 7240,
    "Ġwhitewashed": 14467,
    "rew": 3652,
    "Ġspeaker": 19148,
    "insensibility": 23067,
    "dually": 3287,
    "azing": 7705,
    "Ġmethods": 3163,
    "Ġpenalties": 10411,
    "Ġtaffrail": 15474,
    "thought": 3851,
    "Ġpint": 17907,
    "Ġcracks": 12016,
    "Ġstalls": 25648,
    "Ġlanguage": 648,
    "Ġhomeward": 9390,
    "diminished": 20838,
    "Ġfeelings": 2451,
    "Ġfoot": 3165,
    "fainting": 20471,
    "Ġplate": 8897,
    "Ġ55": 24323,
    "Ġlayers": 819,
    "Ġsays": 3560,
    "Ġger": 21589,
    "Ġstole": 7953,
    "strade": 5065,
    "Ġvehemence": 26566,
    "Ġ39": 19488,
    "71": 20755,
    "Ġconfounded": 16381,
    "Ġflesh": 5969,
    "Ġphenomena": 21481,
    "Ġpraised": 19552,
    "ishes": 6523,
    "Ġfrowning": 13621,
    "====": 1483,
    "Ġspake": 18308,
    "Ġtwig": 11847,
    "Ġconspicuous": 13601,
    "Ġlofty": 6217,
    "Ġinstruments": 12220,
    "Ġabaft": 22272,
    "magistrate": 19862,
    "Ġdip": 13905,
    "Ġmightiest": 12957,
    "Ġjeroboam": 10599,
    "Ġcyn": 13884,
    "Ġweeping": 11684,
    "Ġanaly": 1152,
    "Ġwhirlp": 16962,
    "Ġgaping": 13967,
    "Ġhier": 1895,
    "occasionally": 13519,
    "Ġcombat": 16183,
    "pha": 22728,
    "Ġdense": 8123,
    "Ġcontrast": 2119,
    "Ġach": 2621,
    "Ġproof": 6153,
    "opard": 9289,
    "Ġlin": 10832,
    "unquiet": 21879,
    "Ġgaze": 6932,
    "Ġunimag": 12770,
    "ities": 1827,
    "Ġhardy": 8564,
    "Ġfit": 3688,
    "isson": 23461,
    "boards": 23254,
    "Ġidolator": 19996,
    "Ġspeedy": 11171,
    "Ġsignific": 3831,
    "kind": 3867,
    "Ġflirt": 14421,
    "roused": 16651,
    "Ġaston": 3706,
    "Ġnovember": 11746,
    "ruck": 6848,
    "P": 52,
    "Ġengagements": 9976,
    "Ġwane": 21287,
    "Ġobliv": 16130,
    "appropri": 22841,
    "Ġidol": 7467,
    "Ġfasting": 16353,
    "keeper": 5596,
    "!_âĢĿ": 11375,
    "Ġearl": 7676,
    "precaution": 23821,
    "Ġdangling": 17173,
    "amid": 12720,
    "prodigious": 17465,
    "magn": 10609,
    "Ġsoot": 14127,
    "france": 24282,
    "preference": 22451,
    "Ġindividual": 5744,
    "say": 3985,
    "Ġnarration": 13502,
    "Ġbloom": 9885,
    "Ġtrespass": 23600,
    "Ġmystical": 12129,
    "Ġplentiful": 12907,
    "sigma": 3005,
    "Ġrelev": 1716,
    "bbles": 13689,
    "Ġbloody": 9886,
    "Ġtorrent": 17091,
    "Ġsuppress": 13020,
    "Ġcascade": 20579,
    "Ď": 207,
    "Ġsacr": 7194,
    "Ġaux": 21198,
    "Ġremo": 3789,
    "Ġmart": 10778,
    "Ġunicorn": 22053,
    "Ġxv": 23406,
    "Ġhyster": 16872,
    "Ġexpress": 2195,
    "Ġgap": 21597,
    "legs": 13182,
    "making": 2572,
    "Ġmin": 1026,
    "Ġimplicit": 19956,
    ",*": 17470,
    "Ġgallery": 10523,
    "mmar": 953,
    "oof": 15403,
    "Ġimposs": 16615,
    "Ġcabaco": 13165,
    "Ġrotterdam": 25476,
    "thorough": 21983,
    "tomb": 21092,
    "Ġlucky": 7759,
    "Ġforwarded": 19043,
    "Ġloathsome": 13526,
    "Ġreach": 4047,
    "Ġoverheard": 11771,
    "Ġmeta": 3567,
    "Ġpoker": 13920,
    "Ġhomely": 25220,
    "utter": 7593,
    "Ġfrequently": 4680,
    "Ġcraft": 4375,
    "ulatory": 15763,
    "Ġtreating": 4283,
    "Ġeyford": 10640,
    "mens": 20968,
    "Ġtoilet": 13935,
    "Ġwantonly": 22894,
    "visitor": 15058,
    "endeav": 7150,
    "Ġflint": 23010,
    "Ġaxe": 15062,
    "Ġflorid": 17134,
    "Ġhorrors": 10478,
    "Ġexchange": 15750,
    "Ġrecumbent": 22744,
    "Ġconscious": 7744,
    "Ġblackstone": 23388,
    "Ġmeadows": 11421,
    "04": 10678,
    "ving": 593,
    "Ġharness": 17927,
    "uled": 11535,
    "seized": 14033,
    "Ġoutbreak": 22315,
    "nostr": 22749,
    "Ġgets": 10838,
    "Ġtradeoff": 2656,
    "national": 20997,
    "Ġengra": 7875,
    "Ġsympt": 7012,
    "Ġgame": 3631,
    "ada": 14009,
    "Ġsociety": 3979,
    "dra": 3414,
    "Ġprotect": 6337,
    "Ġetern": 7085,
    "Ġcontro": 1688,
    "Ġisolation": 17149,
    "Ġstone": 4645,
    "Ġspiracle": 14148,
    "inable": 11554,
    "feared": 11799,
    "Ġpoisoned": 24887,
    "Ġimprecate": 20516,
    "Ġchronicler": 20228,
    "witness": 10033,
    "Ġconjunction": 25101,
    "Ġsunda": 13542,
    "Ġspeckled": 14307,
    "oup": 2015,
    "Ġgrego": 18963,
    "Ġframe": 1849,
    "Ġwill": 677,
    "Ġassent": 12729,
    "Ġpass": 1038,
    "waiting": 12217,
    "Ġarab": 7824,
    "Ġalmighty": 18104,
    "Ġamazement": 7765,
    "Ġwriting": 4668,
    "Ġrelevance": 5184,
    "Ġswarm": 23053,
    "gentleness": 24845,
    "Ġcabinets": 23861,
    "Ġdarting": 7757,
    "ev": 6952,
    "mpus": 13755,
    "Ġcollecting": 12283,
    "Ġhonour": 3925,
    "Ġsmothe": 18573,
    "Ġhate": 5445,
    "tottenham": 25419,
    "Ġmal": 5221,
    "igated": 15703,
    "anish": 2617,
    "reen": 21230,
    "Ġlightly": 13081,
    "agree": 14065,
    "Ġquicker": 16506,
    "Ġfigured": 16642,
    "approaching": 15010,
    "Ġpresuming": 16792,
    "wretched": 10740,
    "Ġcompatibility": 2961,
    "Ġintim": 6838,
    "Ġcountless": 16380,
    "self": 617,
    "Ġbiological": 1934,
    "composure": 24034,
    "Ġprom": 1528,
    "Ġlevels": 12694,
    "Ġdeep": 803,
    "screen": 22988,
    "Ġgest": 8134,
    "Ġrecogn": 2776,
    "ernation": 8211,
    "Ġfinal": 5400,
    "Ġskewer": 19619,
    "Ġolfactories": 26172,
    "ulnerable": 18150,
    "Ġverdict": 13473,
    "por": 2152,
    "Ġperceiving": 8874,
    "Ġproclaim": 18130,
    "trick": 19411,
    "allic": 12809,
    "Ġdang": 9173,
    "Ġgoin": 18470,
    "Ġclenched": 14202,
    "Ġinclude": 1875,
    "Ġarising": 10932,
    "Ġborrowed": 17228,
    "Ġtorch": 25031,
    "nes": 6961,
    "Ġtransition": 14232,
    "common": 4130,
    "Ġresuming": 12889,
    "Ġweapon": 7776,
    "Ġfatigue": 8696,
    "inates": 21179,
    "queer": 10360,
    "Ġbowled": 23769,
    "Ġsupers": 18279,
    "Ġethere": 23950,
    "Ġliable": 14227,
    "...": 24549,
    "Ġtalking": 3860,
    "diver": 20830,
    "Ġdoub": 1836,
    "onents": 8776,
    "Ġdesert": 6726,
    "Ġexclamations": 11360,
    "Ġdri": 2362,
    "Ġlongest": 18630,
    "Ġoverjoy": 15968,
    "Ġmeridian": 25715,
    "Ġca": 21337,
    "Ġmansfield": 25939,
    "fifty": 12349,
    "Ġwrists": 11111,
    "wedged": 24338,
    "Ġemb": 1263,
    "Ġclinched": 17392,
    "Ġindulging": 16903,
    "ushes": 22289,
    "Ġroaring": 10967,
    "Ġstepfather": 7222,
    "Ġcity": 4530,
    "ĠĠĠĠĠĠĠĠĠĠĠĠĠĠĠĠĠĠĠĠĠĠĠĠĠĠĠĠĠĠĠ": 19699,
    "Ġgem": 21592,
    "den": 940,
    "Ġfreed": 7267,
    "Ġnaught": 8128,
    "Ġpainting": 13139,
    "Ġalb": 14014,
    "Ġstrangely": 5677,
    "Ġbravery": 23835,
    "lins": 2026,
    "Ġscan": 22277,
    "Ġkiller": 19567,
    "Ġremotest": 10050,
    "Ġgrimly": 17051,
    "ience": 810,
    "sense": 11522,
    "linked": 17592,
    "Ġdre": 1745,
    "Ġhogshe": 20490,
    "lust": 15377,
    "Ġdevout": 14324,
    "Ġfunction": 590,
    "Ġlovel": 10270,
    "tar": 8098,
    "Ġsheath": 14150,
    "Ġtries": 9149,
    "conda": 18993,
    "Ġgobern": 22423,
    "Ġarrival": 4731,
    "Ġbrick": 8923,
    "Ġdom": 2827,
    "remembered": 17349,
    "Ġhandsomest": 20333,
    "Ġexalted": 12409,
    "Ġcomment": 9231,
    "Ġgrant": 11870,
    "Ġaugmented": 15103,
    "Ġheredit": 9215,
    "maybe": 23991,
    "Ġembod": 14417,
    "Ġhabitations": 24790,
    "taller": 26151,
    "Ġequin": 14494,
    "erness": 6434,
    "Ġbackbone": 22653,
    "itude": 1419,
    "Ġidentified": 19150,
    "Ġfab": 15572,
    "Ġcontrived": 10302,
    "Ġcitadel": 25439,
    "Ġnapoleon": 20556,
    "osen": 6855,
    "Ġcanall": 10927,
    "lorious": 17591,
    ":--": 5784,
    "Ġwallowed": 24042,
    "Ġpenal": 1774,
    "civilities": 24974,
    "ĭ": 238,
    "Ġcucumber": 21354,
    "ating": 664,
    "Ġspence": 22124,
    "Ġdepends": 1054,
    "Ġextinct": 14334,
    "Ġevid": 3500,
    "Ġ156": 20169,
    "acceptable": 25185,
    "Ġsoil": 9253,
    "term": 3762,
    "igms": 3047,
    "bree": 15312,
    "Ġsage": 17751,
    "alogies": 25159,
    "icating": 15651,
    "Ġhorrify": 23817,
    "Ġfollow": 1397,
    "hering": 12810,
    "Ġthoughtlessness": 16191,
    "Ġ16": 7927,
    "ö": 183,
    "Ġpunctual": 17136,
    "Ġcollar": 11876,
    "inkle": 22616,
    "Ġ52": 24321,
    "Ġpeev": 22691,
    "score": 18849,
    "7": 27,
    "Ġtended": 21165,
    "Ġsiamese": 20481,
    "Ġdesign": 4134,
    "struck": 7863,
    "Ġrising": 4354,
    "Ġnay": 5711,
    "exercise": 17458,
    "Ġhammock": 5768,
    "Ġanew": 11429,
    "opp": 6963,
    "Ġjog": 18404,
    "sne": 10123,
    "Ġexcepting": 14679,
    "Ġassign": 11108,
    "Ġjokes": 18408,
    "Ġvict": 3766,
    "endure": 22219,
    "Ġcurtain": 14416,
    "unearthly": 19273,
    "recked": 17761,
    "Ġexordium": 26492,
    "approbation": 11457,
    "Ġdashed": 6010,
    "Ġwrung": 14468,
    "dilig": 17281,
    "Ġcarelessness": 13073,
    "Ġindistinctly": 26118,
    "Ġwarmed": 12020,
    "Ġutensils": 23513,
    "Ġduplicates": 17215,
    "Ġmanage": 7640,
    "Ġsilence": 3271,
    "Ġtransparent": 9487,
    "Ġmothers": 14539,
    "Ġfunere": 22257,
    "Ġbrawn": 10480,
    "Ġtough": 13813,
    "Ġdomains": 6614,
    "ctor": 13958,
    "Ġexplained": 5936,
    "Ġopine": 19227,
    "Ġtroop": 24898,
    "address": 14879,
    "Ġravine": 18640,
    "horr": 14598,
    "Ġhelp": 1643,
    "Ġwhipping": 21714,
    "Ġenriched": 26499,
    "Ġdependen": 1829,
    "Ġbristles": 25844,
    "Ġpurposes": 11167,
    "Ġsuicide": 12784,
    "isa": 17845,
    "Ġinland": 11606,
    "Ġvapors": 19907,
    "Ġglances": 10371,
    "Ġalps": 10869,
    "Ġlet": 1112,
    "Ġsn": 2951,
    "Ġbeating": 8145,
    "pe": 1437,
    "Ġforged": 12700,
    "shadows": 25480,
    "bout": 20772,
    "Ġadmeasurements": 26226,
    "Ġdefray": 22940,
    "real": 10148,
    "dressing": 11480,
    "Ġconfide": 13096,
    "Ġsanta": 26420,
    "Ġvor": 15803,
    "Ġpretending": 19314,
    "andy": 8158,
    "Ġeligible": 10669,
    "Ġanim": 2114,
    "ì": 173,
    "linearity": 1653,
    "Ġcontinued": 2924,
    "Ġdow": 17886,
    "Ġbirch": 26175,
    "Ġcautious": 12250,
    "kempt": 20940,
    "Ġcoff": 3507,
    "Ġenvironment": 3623,
    "Ġdifficulty": 5770,
    "erect": 20847,
    "Ġbroiled": 18908,
    "uteronomy": 15660,
    "bury": 9105,
    "Ġsnapping": 19300,
    "Ġupdating": 2690,
    "Ġrefreshing": 20263,
    "Ë": 140,
    "Ġserved": 8247,
    "Ġad": 442,
    "eg": 17528,
    "Ġmoods": 14949,
    "30": 20753,
    "Ġexcitement": 9379,
    "Ġtalents": 15043,
    "Ġdemand": 4947,
    "Ġidiotic": 25589,
    "infant": 19826,
    "Ġhospitality": 13511,
    "dig": 4929,
    "garnished": 26388,
    "enthusiastic": 20691,
    "Ġfun": 523,
    "Ġlaughed": 5059,
    "5": 25,
    "Ġpreventing": 882,
    "Ġattorney": 18626,
    "omitted": 18023,
    "rant": 11515,
    "£": 101,
    "Ġabsence": 4894,
    "shall": 4550,
    "Ġgift": 10839,
    "Ġallowance": 14388,
    "Ġwhoa": 22420,
    "Ġburly": 19249,
    "close": 9984,
    "Ġsteeple": 19287,
    "Ġfriendly": 9818,
    "Ġlothario": 26185,
    "Ġforget": 2634,
    "Ġhero": 5715,
    "Ġimpregn": 26023,
    "further": 7535,
    "Ġaid": 6122,
    "Ġaust": 4871,
    "Ġstartled": 7082,
    "ulsive": 10232,
    "Ġplaited": 14282,
    "Ġoversight": 22356,
    "Ġswandam": 11088,
    "mount": 9128,
    "Ġbasic": 24702,
    "Ġregularly": 7657,
    "Ġfind": 1458,
    "Ġ74": 24261,
    "brim": 23574,
    "Ġbritish": 11336,
    "Ġhurts": 19111,
    "intended": 11065,
    "Ġmyster": 5926,
    "Ġmasking": 2418,
    "rict": 8093,
    "embow": 21929,
    "Ġacceptance": 14825,
    "Ġswallow": 8949,
    "Ġgayer": 24498,
    "woman": 5899,
    "Ġtobacc": 7853,
    "invincible": 25090,
    "Ġtrustworthy": 24106,
    "Ġexpired": 18622,
    "Ġtinkling": 25213,
    "redible": 15801,
    "convul": 24884,
    "showing": 22461,
    "Ġoccasionally": 5589,
    "Ġharpooning": 23978,
    "sound": 6799,
    "fright": 9594,
    "\",": 10677,
    "Ġpartial": 2129,
    "Ġkin": 15901,
    "Ġpequod": 2322,
    "england": 18928,
    "Ġrucastles": 18721,
    "Ġinsert": 19904,
    "Ġdesirable": 8940,
    "Ġjaws": 5592,
    "Ġ182": 13234,
    "catherine": 7127,
    "Ġstumble": 26482,
    "Ġattachment": 6050,
    "Ġmanxman": 9564,
    "Ġhunch": 18934,
    "Ġequatorial": 13507,
    "Ġgiven": 1629,
    "caterpillar": 26383,
    "Ġ11": 5318,
    "Ġrudimental": 25109,
    "Ġcleaving": 23179,
    "itu": 1228,
    "Ġhowl": 12850,
    "Ġdivers": 9664,
    "Ġheeded": 13401,
    "Ġgovernesses": 25128,
    "Ġhaul": 11689,
    "Ġundoubted": 19513,
    "rence": 5554,
    "hear": 10145,
    "Ġinconsist": 17935,
    "Ġscrape": 14916,
    "varying": 13802,
    "icions": 21561,
    "fanning": 20865,
    "favourite": 15141,
    "Ġ116": 24440,
    "employed": 17260,
    "Ġdundee": 16996,
    "walk": 5523,
    "Ġarabian": 9088,
    "Ġhurried": 4032,
    "Ġfrosty": 14933,
    "Ġplanting": 16083,
    "Ġsanguinary": 25930,
    "Ġcin": 13873,
    "Ġapparatus": 24909,
    "Ġbery": 13896,
    "Ġsaf": 4003,
    "makes": 10710,
    "Ġcompute": 2908,
    "Ġprows": 19888,
    "thinness": 25811,
    "Ġgilded": 17443,
    "Ġconsummate": 25311,
    "lott": 6650,
    "-": 17,
    "Ġcaus": 1726,
    "Ġfearlessness": 19160,
    "mus": 10109,
    "ā": 194,
    "Ġaltogether": 4831,
    "Ġbelieved": 4367,
    "fac": 17540,
    "ootiful": 17371,
    "/(": 2984,
    "ricted": 15418,
    "reply": 19721,
    "Ġescorted": 23505,
    "Ġdin": 3628,
    "towns": 24855,
    "Ġsentimental": 24755,
    "Ġguitar": 16266,
    "Ġcharacteristically": 23688,
    "Ġeffective": 1249,
    "Ġwithal": 18113,
    "safety": 20348,
    "Ġwatery": 6296,
    "Ġgroans": 14822,
    "Ġowl": 20082,
    "Ġinnocently": 24028,
    "mere": 11852,
    "Ġoblique": 20168,
    "wish": 8100,
    "Ġgidd": 25784,
    "islanders": 25443,
    "inging": 5907,
    "Ġcemeteries": 26376,
    "Ġcalls": 6744,
    "Ġmout": 17798,
    "Ġoccurrence": 14380,
    "Ġdew": 14041,
    "Ġpia": 21462,
    "Ġcomprise": 18583,
    "Ġever": 1180,
    "Ġfav": 1754,
    "Ġincognit": 22552,
    "Ġname": 2082,
    "Ġ15": 9322,
    "Ġarrayed": 25665,
    "sec": 6152,
    "Ġphilipses": 24452,
    "Ġinvests": 14866,
    "asse": 15641,
    "Ġspouting": 9437,
    "cross": 3576,
    "bular": 15311,
    "imper": 13995,
    "Ġdiscontented": 16056,
    "Ġthey": 575,
    "Ġcod": 8411,
    "irra": 15781,
    "Ġlandless": 23378,
    "Ġtranque": 14203,
    "Ġai": 3130,
    "Ġlack": 17963,
    "mons": 17599,
    "Ġharp": 17923,
    "Ġdistressed": 8513,
    "Ġbuilded": 24720,
    "Ġpiping": 23241,
    "be": 668,
    "feels": 22500,
    "Ġpauper": 26180,
    "Ġstring": 11824,
    "Ġparish": 8852,
    "glancing": 11213,
    "Ġcausal": 3411,
    "Ġlabyrinth": 13677,
    "Ġwhosoever": 21717,
    "arabian": 26446,
    "Ġcaved": 21351,
    "perfectly": 9084,
    "Ġromish": 19583,
    "Ġloungers": 24863,
    "detached": 19673,
    "wishing": 21127,
    "Ġpresum": 4837,
    "pacific": 17640,
    "Ġgentlemanly": 19315,
    "Ġmemories": 14540,
    "ee": 1662,
    "hills": 13734,
    "elijah": 19471,
    "Ġemotions": 8968,
    "mind": 4626,
    "chors": 11642,
    "Ġlaboratory": 13610,
    "Ġcompelled": 14264,
    "iltrated": 19305,
    "Ġground": 2849,
    "wer": 8394,
    "Ġbegrimed": 26578,
    "received": 9637,
    "Ġpam": 21452,
    "reve": 12535,
    "Ġsoothing": 8173,
    "histicated": 20900,
    "Ġsuperseded": 26225,
    "Ġsharkish": 24503,
    "Ġconfirmed": 11138,
    "ghost": 20886,
    "Ġthickly": 12112,
    "Ġfolds": 12203,
    "Ġterrors": 6918,
    "laughing": 15177,
    "Ġbecome": 3161,
    "Ġdelivered": 11115,
    "igantic": 5538,
    "Ġneither": 3690,
    "Ġwrites": 23197,
    "guarded": 13292,
    "Ġvacancy": 9043,
    "Ġpromise": 4200,
    "Ġretiring": 16278,
    "Ġpurposely": 10443,
    "achus": 18283,
    "stationed": 25454,
    "thence": 23399,
    "Ġeighty": 19474,
    "eyeing": 14944,
    "Ġtarget": 2823,
    "Ġstud": 1609,
    "Ġpemberley": 4588,
    "misfortunes": 16755,
    "owe": 15704,
    "Ġoppressively": 25713,
    "Ġsporty": 19889,
    "drown": 13702,
    "Ġrider": 24185,
    "Ġcrosswise": 18887,
    "asting": 12802,
    "Ġbritannica": 24681,
    "Ġvol": 4190,
    "!_âĢĶ": 19971,
    "Ġfleetness": 20178,
    "Ġdefiance": 11067,
    "loat": 8885,
    "Ġsymptoms": 8703,
    "Ġrich": 2995,
    "Ġproject": 5545,
    "hip": 8740,
    "Ġsupplies": 20325,
    "Ġthemselves": 3254,
    "Ġcommentators": 25230,
    "Ġmic": 17797,
    "imodal": 17445,
    "Ġturtles": 19220,
    "Ġrule": 1534,
    "fulfil": 16030,
    "hunters": 16832,
    "Ġoffing": 16138,
    "Ġamend": 16033,
    "Ġhalls": 19524,
    "Ġsteersman": 13038,
    "Ġassuming": 16692,
    "recursion": 13326,
    "Ġexist": 9230,
    "Ġevenness": 22832,
    "Ġmaintains": 2147,
    "Ġhunts": 23156,
    "Ġlaughter": 9026,
    "rusted": 16505,
    "unless": 9233,
    "tide": 11531,
    "alleled": 14427,
    "Ġneared": 14071,
    "Ġtattooing": 15026,
    "Ġquivering": 12854,
    "phantoms": 24680,
    "ercial": 21273,
    "Ġy": 341,
    "Ġsuff": 1303,
    "Ġblasphemer": 26117,
    "umb": 3479,
    "Ġguardianship": 17418,
    "Ġlaborers": 19057,
    "Ġhindrance": 25221,
    "Ġplans": 7919,
    "Ġwhirling": 12245,
    "mant": 20964,
    "sofa": 26147,
    "grees": 20885,
    "Ġsave": 4052,
    "Ġbrush": 17864,
    "Ġcontaining": 2232,
    "Ġannihil": 10173,
    "elfare": 11773,
    "Ġhard": 1442,
    "inte": 5144,
    "Ġsen": 9155,
    "Ġavoided": 13256,
    "Ġcapable": 5054,
    "Ġwithered": 19463,
    "Ġplying": 17911,
    "mistakable": 20652,
    "authority": 13589,
    "nobody": 16145,
    "Ġpecks": 18669,
    "Ġnineveh": 13387,
    "Ġefficiently": 3697,
    "prev": 12863,
    "Ġfamous": 5255,
    "inkled": 5477,
    "ore": 418,
    "firm": 10697,
    "Ġcir": 21339,
    "natural": 2328,
    "Ġobsole": 22696,
    "somerset": 26323,
    "ause": 1312,
    "arians": 18523,
    "Ġprofundity": 20451,
    "Ġglu": 15664,
    "Ġinspecting": 24615,
    "Ġeffeminacy": 20717,
    "Ġrecognition": 3145,
    "Ġeffect": 978,
    "extra": 8219,
    "Ġspare": 5102,
    "Ġross": 2765,
    "Ġdevoted": 6573,
    "Ġconcluding": 9855,
    "Ġpleasantly": 14519,
    "antarctic": 22097,
    "Ġarc": 14157,
    "resolutions": 26165,
    "Ġsolutions": 1951,
    "Ġun": 422,
    "Ġvultures": 25654,
    "Ġwon": 1667,
    "doubt": 6782,
    "considered": 9579,
    "lance": 12478,
    "Ġorlop": 22091,
    "pro": 2049,
    "Ġseethings": 26503,
    "Ġdownstream": 3779,
    "Ġembrace": 16989,
    "Ġlaug": 3630,
    "Ġdespondency": 16576,
    "Ġderived": 8239,
    "articulate": 17396,
    "Ġhood": 10822,
    "linging": 16076,
    "ortment": 22255,
    "Ġwanderings": 20142,
    "Ġblasts": 19994,
    "Ġshowers": 16604,
    "enances": 10152,
    "dissemble": 23491,
    "Ġenticements": 26035,
    "Ġhorner": 8957,
    "isation": 13891,
    "Ġsweeter": 23916,
    "encing": 21281,
    "Ġnieces": 8432,
    "Ġensue": 18190,
    "Ġvariety": 8529,
    "Ġscepticism": 25928,
    "Ġtailed": 21167,
    "Ġvocation": 10524,
    "Ġdecapitated": 20614,
    "star": 12667,
    "herald": 22203,
    "hum": 3782,
    "Ġinserted": 8356,
    "Ġfrantic": 7957,
    "has": 4014,
    "Ġcompanions": 5865,
    "ib": 1236,
    "Ġsplash": 16548,
    "azine": 19130,
    "Ġassembled": 9234,
    "Ġstain": 18064,
    "Ġscaffold": 18400,
    "before": 3117,
    "slack": 16893,
    "ield": 2407,
    "keepers": 16658,
    "Ġemploys": 19429,
    "Ġexamined": 6334,
    "Ġbaling": 17859,
    "forbearance": 22795,
    "Ġstiggs": 25793,
    "Ġdecorated": 22443,
    "Ġ131": 24783,
    "Ġtattooed": 11377,
    "figures": 20120,
    "fam": 5989,
    "Ġinvective": 26182,
    "Ġincrease": 9368,
    "Ġstrolled": 16769,
    "Ġincumbent": 16059,
    "Ġfling": 9659,
    "Ġpreserving": 19795,
    "activation": 3233,
    "Ġimitation": 22169,
    "Ġmachines": 1778,
    "Ġluc": 3313,
    "Ġstolen": 14005,
    "Ġregion": 2273,
    "Ġdisregard": 22526,
    "ellest": 21572,
    "Ġsperm": 1843,
    "Ġcherub": 23288,
    "Ġgreenland": 5761,
    "taught": 17683,
    "grief": 13729,
    "Ġlengths": 19205,
    "Ġcountryside": 23596,
    "Ġencapsulate": 13672,
    "Ġantilles": 24179,
    "lotts": 23824,
    "Ġhal": 1364,
    "hurriedly": 25511,
    "Ġfamine": 16325,
    "Ġfreezing": 23882,
    "Ġsane": 21220,
    "Ġquarto": 17294,
    "Ġfrenz": 25447,
    "Ġvisual": 5741,
    "mense": 4780,
    "Ġhoot": 19074,
    "Ġguided": 10459,
    "Ġwhelmed": 26000,
    "independent": 26022,
    "Ġinflu": 4909,
    "Ġballs": 9013,
    "apering": 8041,
    "Ġabove": 2938,
    "Ġopenness": 18956,
    "rously": 17653,
    "Ġexciting": 23312,
    "abby": 14019,
    "persu": 8028,
    "Ġread": 1447,
    "Ġgenius": 8046,
    "tack": 12509,
    "Ġgladstone": 23868,
    "hog": 8379,
    "inces": 13826,
    "Ġsof": 18273,
    "licted": 20955,
    "unity": 4153,
    "Ġsummoning": 23873,
    "Ġwrite": 3824,
    "K": 47,
    "Ġpet": 4586,
    "Ġpotency": 14645,
    "rule": 15893,
    "Ġjumped": 7096,
    "Ġdiana": 21435,
    "piled": 21014,
    "esc": 614,
    "Ġriots": 23891,
    "pth": 2379,
    "observed": 7675,
    "instrument": 15236,
    "Ġeffusions": 18541,
    "Ġexerc": 6833,
    "Ġefforts": 11804,
    "Ġregret": 5560,
    "Ġgabriel": 7595,
    "Ġeurope": 8062,
    "commanders": 16988,
    "mushroom": 26395,
    "Ġshine": 12762,
    "Ġspine": 7407,
    "Ġundiscovered": 18249,
    "Ġtrance": 12837,
    "Ġnarrower": 24354,
    "Ġhurtling": 24960,
    "ient": 393,
    "Ġstocks": 23174,
    "relations": 14731,
    "Ġimproved": 7656,
    "Ġconjectured": 9995,
    "Ġoverwhel": 8197,
    "Ġresponsible": 9884,
    "Ġpossible": 2584,
    "Ġabstra": 22269,
    "prise": 7727,
    "Ġinfants": 16361,
    "brevi": 24073,
    "slee": 17167,
    "Ġunwilling": 7886,
    "Ġreserves": 19669,
    "Ġparent": 14644,
    "Ġjoint": 12031,
    "Ġfarmhouse": 24987,
    "deadly": 17099,
    "Ġdisput": 14254,
    "comrade": 20623,
    "Ġwhereupon": 14294,
    "Ġtransformers": 1128,
    "absolute": 17121,
    "Ġcautiousness": 19865,
    "draw": 23897,
    "constant": 11323,
    "en": 271,
    "traced": 19636,
    "Ġhumbled": 16194,
    "ss": 396,
    "Ġlawyers": 25249,
    "respectively": 24701,
    "Ġclumsy": 9578,
    "gather": 20874,
    "Ġjolly": 6858,
    "Ġmoustache": 20482,
    "Ġbigot": 24565,
    "Ġtoes": 10828,
    "bishop": 13692,
    "akness": 14193,
    "rasing": 21044,
    "Ġprized": 23218,
    "steering": 16634,
    "catch": 17505,
    "Ġready": 3399,
    "jacket": 12289,
    "sailed": 17665,
    "Ġplunged": 8691,
    "itoring": 21330,
    "Ġlance": 4879,
    "Ġwaving": 8574,
    "ĕ": 214,
    "Ġargemone": 24274,
    "Ġbefore": 813,
    "Ġsoliloquized": 17300,
    "Ġsloping": 11936,
    "Ġdispirited": 23881,
    "philosophers": 25253,
    "Ġstrictest": 17041,
    "Ġashes": 7616,
    "Ġexecutors": 19532,
    "Ġwight": 12549,
    "Ġrole": 15993,
    "Ġblunt": 11891,
    "Ġproper": 1378,
    "Ġimmort": 19482,
    "mortal": 10111,
    "can": 1233,
    "Ġdeemed": 7612,
    "liness": 8746,
    "Ġcounting": 13093,
    "phren": 22730,
    "book": 4670,
    "Ġeluc": 16109,
    "uits": 21103,
    "Ġuncivilized": 25499,
    "Ġidle": 8253,
    "Ġmaker": 15539,
    "Ġassumptions": 5517,
    "Ġcode": 1723,
    "peace": 13045,
    "germ": 15354,
    "Ġ1991": 3018,
    "Ġoaken": 13863,
    "nurse": 15206,
    "Ġparcels": 25466,
    "prepar": 22450,
    "Ġbreeze": 5681,
    "consist": 14814,
    "fitters": 24762,
    "Ġ2026": 12332,
    "Ġtragic": 15253,
    "Ġply": 21451,
    "itaries": 21334,
    "Ġpopulation": 16826,
    "Ġparad": 2845,
    "Ġlasted": 11053,
    "inating": 9152,
    "Ġapprehended": 26092,
    "Ġcrews": 8989,
    "dressed": 10694,
    "Ġpurest": 14937,
    "inking": 6709,
    "antly": 1990,
    "stat": 21636,
    "Ġcovent": 16071,
    "Ġintroduces": 3272,
    "Ġdav": 15586,
    "uniform": 18157,
    "Ġfeathers": 15117,
    "unbounded": 21883,
    "condite": 23247,
    "storm": 9679,
    "Ġvortex": 26209,
    "Ġstile": 21730,
    "Ġano": 11594,
    "Ġpoland": 23617,
    "Ġviv": 6156,
    "Ġmealy": 18118,
    "Ġgenerous": 6271,
    "Ġanomalous": 25638,
    "Ġshow": 3403,
    "Ġquest": 2002,
    "rol": 5713,
    "Ġadmiration": 5328,
    "Ġconvers": 2909,
    "Ġinvited": 6903,
    "Ġbestow": 6455,
    "Ġyell": 21775,
    "Ġshowing": 7732,
    "belief": 13279,
    "Ġgladly": 14680,
    "Ġcircumnav": 12423,
    "qualified": 17097,
    "beam": 16035,
    "Ġepoch": 26471,
    "exasper": 22427,
    "dripping": 16904,
    "image": 9684,
    "sul": 15419,
    "Ġan": 286,
    "Ġmccarthy": 5145,
    "Ġbushy": 16398,
    "portent": 25413,
    "Ġtren": 17720,
    "built": 16824,
    "Ġtransparen": 10540,
    "Ġperishing": 22395,
    "Ġidentity": 2525,
    "Ġblacksmith": 6595,
    "Ġunworth": 22032,
    "itigated": 23046,
    "crown": 13696,
    "Ġgrin": 5482,
    "Ġspouter": 12794,
    "wards": 1276,
    "dict": 15337,
    "Ġclum": 8871,
    "mosphere": 10041,
    "ipotent": 10959,
    "Ġwhilst": 9217,
    "oso": 12826,
    "Ġhoped": 5488,
    "Ġanon": 9665,
    "Ġpian": 13915,
    "transferred": 24511,
    "Ġderivatives": 2369,
    "mechanically": 17298,
    "Ġincarnation": 25574,
    "sect": 8153,
    "Ĳ": 243,
    "Ġsums": 2905,
    "Ġaccusations": 22378,
    "Ġspiritual": 9928,
    "geon": 6270,
    "ensed": 10994,
    "Ġforbidden": 17077,
    "Ġsolid": 6443,
    "Ġchorus": 10945,
    "necess": 4896,
    "Ġlearning": 387,
    "cru": 7126,
    "Ġsubset": 9868,
    "chief": 4644,
    "Ġplatform": 17130,
    "Ġrely": 8819,
    "otently": 21798,
    "Ġinfinite": 8575,
    "Ġcanaller": 25468,
    "omist": 21656,
    "Ġregulations": 18593,
    "Ġlistening": 6318,
    "sadly": 25527,
    "girls": 12316,
    "Ġbake": 21380,
    "deliver": 19503,
    "mouse": 15390,
    "Ġcoats": 16073,
    "Ġsubterranean": 13609,
    "Ġgenerative": 5644,
    "sight": 5995,
    "Ġcupboard": 16882,
    "Ġimpenet": 14219,
    "Ġsculpt": 15943,
    "Ġbaron": 19333,
    "Ġcrad": 21348,
    "Ġfestoon": 20293,
    "Ġmurmur": 14588,
    "Ġwat": 1286,
    "representation": 20195,
    "nnight": 20992,
    "rie": 2789,
    "Ġparts": 4166,
    "composed": 14738,
    "Ġilleg": 21621,
    "Ġkitchen": 8494,
    "Ġardour": 8043,
    "Ġdante": 21437,
    "battle": 12439,
    "ingale": 21298,
    "Ġgaily": 16747,
    "ippi": 20243,
    "Ġhatter": 4113,
    "ĠĠĠĠĠĠĠĠĠĠĠĠĠĠĠĠĠĠĠĠĠĠĠĠĠĠĠĠĠĠĠĠĠĠĠĠĠĠĠĠĠĠĠĠĠĠĠĠĠĠĠ": 20037,
    "Ġnibbling": 17383,
    "Ġprofane": 13150,
    "Ġsalesman": 13666,
    "beautiful": 10647,
    "Ġreceipt": 20354,
    "thanking": 24330,
    "Ġimpenitent": 26548,
    "Ġpermit": 9747,
    "Ġmoonlight": 9956,
    "represent": 9636,
    "Ġencl": 16163,
    "atiable": 17773,
    "ivility": 12785,
    "Ġshowed": 4495,
    "Ġsou": 1888,
    "Ġexclaimed": 4683,
    "erial": 4631,
    "estations": 22226,
    "derick": 22160,
    "Ġcro": 4873,
    "Ġsunken": 14492,
    "Ġended": 7950,
    "itate": 6667,
    "Ġacross": 1331,
    "Ġmoody": 8201,
    "istle": 15866,
    "Ġtruth": 3322,
    "gaz": 20877,
    "naturalist": 23526,
    "shoes": 14240,
    "Ġasi": 12728,
    "Ġwrist": 8243,
    "Ġwid": 4632,
    "building": 17307,
    "Ġfunny": 7637,
    "Ġpursuing": 9436,
    "Ġtackle": 9511,
    "leading": 15558,
    "Ġnodding": 23335,
    "Ġdedicated": 19200,
    "Ġspasmodic": 20396,
    "Ġphiladelphia": 26604,
    "Ġcritically": 23445,
    "Ġinsomuch": 23680,
    "cra": 6354,
    "wich": 11542,
    "Ġconnection": 5479,
    "1775": 26378,
    "Ġslaughtered": 26584,
    "Ġspy": 22121,
    "Ġstir": 5823,
    "Ġstriking": 6089,
    "Ġpalp": 11250,
    "Ġvaulted": 25168,
    "itting": 1154,
    "class": 4096,
    "vulgar": 25919,
    "Ġlessons": 7692,
    "Ġresent": 6049,
    "tales": 17685,
    "Ġsil": 1799,
    "Ġlaure": 16908,
    "Ġdeposition": 18601,
    "dem": 10690,
    "Ġbowing": 10474,
    "Ġsolely": 9908,
    "Ġrecommence": 16811,
    "Ġbeg": 1282,
    "Ġinsignificance": 20456,
    "Ġrinal": 21978,
    "Ġ134": 24785,
    "Ġallusions": 10908,
    "housekeeping": 24102,
    "shrugged": 22460,
    "Ġflaw": 23011,
    "Ġpursuit": 4733,
    "Ġdiminish": 14743,
    "threat": 10899,
    "Ġpoorly": 9853,
    "Ġaccommodate": 20515,
    "Ġoverlapping": 26239,
    "Ġdisputes": 25826,
    "ove": 1744,
    "pents": 11511,
    "Ġmerited": 23730,
    "Ġjug": 12831,
    "Ġtuileries": 24827,
    "Ġunderwent": 23238,
    "Ġavailed": 23951,
    "Ġdint": 15587,
    "Ġpurple": 10432,
    "Ġwords": 1325,
    "Ġevermore": 18810,
    "horrors": 20540,
    "xim": 1093,
    "Ġvirt": 3910,
    "Ġpreposter": 12818,
    "Ġvouch": 15806,
    "Ġdisquis": 22525,
    "Ġgarments": 15191,
    "Ġinward": 11605,
    "orns": 12588,
    "activity": 22630,
    "Ġdictionary": 15110,
    "extraordinary": 9093,
    "Ġconflag": 20334,
    "Ġgermans": 25785,
    "cursed": 23842,
    ":": 30,
    "becomes": 22494,
    "Ġbring": 3326,
    "Ġrecl": 16141,
    "tremendous": 20672,
    "Ġseventy": 7879,
    "zing": 7821,
    "opence": 18506,
    "Ġjoker": 22296,
    "Ġsomeone": 6703,
    "Ġshyness": 20305,
    "Ġlim": 2378,
    "Ġcomp": 724,
    "Ġblueprints": 13169,
    "bowsprit": 16852,
    "health": 13831,
    "Ġrash": 10897,
    "Ġprominence": 18953,
    "Ġprofund": 13151,
    "âĢĻ,": 14070,
    "Ġhan": 15614,
    "he": 264,
    "Ġhiding": 9821,
    "Ġpop": 5151,
    "Ġacquiesced": 25494,
    "Ġswell": 8948,
    "Ġscrewed": 15118,
    "ispensable": 9094,
    "Ġabundantly": 17155,
    "Ġungracious": 18255,
    "liked": 10507,
    "Ġremorseless": 13449,
    "Ġoutrid": 22313,
    "Ġmen": 1435,
    "Ġrival": 10484,
    "Ġpeaked": 2295,
    "Ġjer": 6266,
    "Ġadmits": 23553,
    "Ġpout": 17904,
    "Ġfusion": 21413,
    "Ġconceited": 12087,
    "islands": 21374,
    "Ġlob": 7627,
    "larger": 24202,
    "rified": 15417,
    "announce": 24560,
    "Ġcuriosity": 2518,
    "Ġcrippled": 25279,
    "affold": 16561,
    "ureau": 10225,
    "Ġelimin": 16108,
    "Ġtug": 11549,
    "wedding": 13369,
    "Ġhurrah": 9867,
    "Ġasyl": 12730,
    "Ġproduct": 3533,
    "Ġdoted": 21432,
    "rights": 23672,
    "Ġrobots": 11078,
    "phon": 4129,
    "subjects": 19875,
    "ella": 12745,
    "Ġdisse": 18548,
    "acle": 4716,
    "ps": 4574,
    "pense": 10367,
    "leman": 21366,
    "Ġhalyards": 21492,
    "Ġsand": 6235,
    "horizon": 23615,
    "impetuous": 23763,
    "Ġprudential": 17917,
    "Ġprivate": 5345,
    "Ġrepining": 23360,
    "william": 4562,
    "appetite": 22845,
    "Ġ22": 8279,
    "ilt": 2970,
    "Ġarsac": 11739,
    "Ġvicious": 24403,
    "Ġdevils": 7230,
    "bethink": 25745,
    "sleeping": 13452,
    "iven": 1238,
    "Ġdissipate": 13631,
    "Ġterritories": 23844,
    "Ġvincent": 15281,
    "Ġeliminating": 20618,
    "op": 659,
    "Ġcor": 1322,
    "Ġinadequate": 17936,
    "Ġnut": 12642,
    "necessities": 24306,
    "Ġpathetic": 19022,
    "Ġcoleman": 22585,
    "headsman": 16699,
    "Ġdaugh": 2292,
    "Ġensigns": 23686,
    "well": 1692,
    "rief": 6202,
    "Ġembellish": 25850,
    "stays": 15684,
    "sticking": 21652,
    "ropri": 2180,
    "Ġma": 3255,
    "Ġhazarded": 25655,
    "supplemental": 25875,
    "Ġcontemplate": 19891,
    "ogy": 22712,
    "Ġstruggle": 3678,
    "arb": 1566,
    "Ġcoffins": 13248,
    "Ġvarieties": 14308,
    "elt": 4116,
    "oforte": 14285,
    "Ġretreat": 6070,
    "Ġspies": 22126,
    "ager": 6546,
    "osh": 18388,
    "ackinaw": 22419,
    "Ġmoran": 9339,
    "Ġdemi": 25549,
    "arying": 9799,
    "treat": 12510,
    "Ġsalisbury": 24063,
    "somebody": 14564,
    "Ġimperfectly": 25728,
    "guessed": 25873,
    "Ġunstructured": 3006,
    "Ġmisery": 3817,
    "Ġrecur": 1623,
    "Ġda": 5150,
    "loaded": 22509,
    "Ġkey": 2102,
    "build": 12184,
    "searching": 25104,
    "Ġdevotion": 22716,
    "ok": 572,
    "behaviour": 11300,
    "find": 6954,
    "iscreet": 20681,
    "Ġscenes": 5730,
    "Ġpubl": 3942,
    "Ġthoroughly": 8348,
    "Ġconsuming": 22791,
    "Ġexempl": 21828,
    "resembled": 21245,
    "marked": 9047,
    "oa": 9611,
    "Ġsimilitude": 19209,
    "arrested": 15597,
    "geor": 15975,
    "âĢĶâĢĺ_": 24832,
    "returns": 23134,
    "Ġhandspike": 22694,
    "visited": 13345,
    "charitable": 23931,
    "Ġchecking": 23287,
    "Ġconve": 5455,
    "Ġunjustly": 17125,
    "mild": 15389,
    "Ġconstant": 6309,
    "Ġoccupations": 9456,
    "avo": 8516,
    "stuff": 15683,
    "ights": 8473,
    "icular": 2023,
    "Ġrum": 5924,
    "Ġ56": 24324,
    "Ġverdure": 10611,
    "Ġsweetheart": 19393,
    "study": 15115,
    "Ġimagined": 8605,
    "Ġsilent": 3412,
    "hroom": 12473,
    "Ġprofanely": 23569,
    "Ġbas": 6380,
    "Ġgenteel": 19979,
    "Ġskies": 8919,
    "Ġprosperity": 20256,
    "Ġcommentaries": 20159,
    "Ġmanual": 14196,
    "Ġquadr": 8200,
    "Ġput": 1800,
    "resemblance": 25934,
    "Ġcorpora": 26580,
    "Ġresting": 7962,
    "Ġmouth": 3182,
    "displayed": 20735,
    "tinted": 17682,
    "Ġaccepted": 7751,
    "circumspect": 26087,
    "hastening": 24448,
    "usion": 3304,
    "Ġroyal": 5601,
    "gans": 11488,
    "Ġcape": 5146,
    "inn": 5363,
    "Ġwhirled": 14958,
    "urous": 10211,
    "Ġillum": 9398,
    "tranqu": 14704,
    "orily": 15569,
    "Ġchamber": 6213,
    "bus": 5354,
    "Ġpacific": 5153,
    "Ġvintage": 26210,
    "Ġinjure": 16780,
    "Ġposit": 1305,
    "Ġslay": 16303,
    "Ġsuggestions": 24453,
    "Ġvariants": 1793,
    "Ġdungeon": 16995,
    "angular": 11720,
    "vari": 1518,
    "Ü": 157,
    "Ġtoad": 21508,
    "Ġtwins": 16117,
    "inc": 2522,
    "goodness": 19288,
    "clothes": 9056,
    "Ġheaviest": 23326,
    "gradient": 2275,
    "Ġtearless": 24787,
    "Ġrate": 1064,
    "Ġsunshine": 14493,
    "Ġconveys": 16854,
    "hello": 13361,
    "Ġencounters": 19579,
    "Ġkidnapping": 26357,
    "Ġhull": 5446,
    "midnight": 14898,
    "Ġevidently": 6759,
    "penn": 18826,
    "Ġsubterraneous": 20264,
    "Ġque": 4160,
    "Ġrealised": 18981,
    "Ġjustified": 11901,
    "waters": 11332,
    "hours": 9123,
    "Ġinoffensive": 21496,
    "Ġlamentations": 17075,
    "Ġpeg": 22687,
    "Ġ54": 24322,
    "gor": 547,
    "Ġwould": 651,
    "Ġpuzzling": 14894,
    "Ġsimplest": 16331,
    "Ġtantalizing": 20412,
    "upid": 6581,
    "Ġagreeable": 4552,
    "Ġprecautions": 23726,
    "Ġholiday": 12994,
    "omically": 13978,
    "attain": 21260,
    "Ġnar": 7375,
    "iously": 2676,
    "Ġphysiognomical": 25612,
    "Ġconsecrated": 26488,
    "expression": 10546,
    "Ġsights": 7472,
    "Ġfurlongs": 20722,
    "Ġnodes": 1970,
    "Ġbordered": 24563,
    "Ġrepresent": 1210,
    "iny": 4293,
    "Ġtahiti": 13617,
    "former": 11745,
    "Ġlamb": 8811,
    "papers": 12498,
    "Ġarist": 14158,
    "Ġbob": 22635,
    "Ġmerchant": 6467,
    "housekeeper": 24101,
    "Ġcompletion": 12144,
    "ias": 6362,
    "Ġchast": 18380,
    "tured": 13793,
    "Ġsurveying": 25326,
    "Ġcuriously": 13016,
    "Ġpeak": 16123,
    "Ġbaboon": 19692,
    "uerus": 26406,
    "Ġsoldier": 16919,
    "omely": 21657,
    "Ġpaternal": 16365,
    "Ġxxx": 7767,
    "ishing": 1146,
    "Ġobscured": 15009,
    "lined": 12480,
    "Ġbelieving": 8225,
    "ck": 436,
    "Ġaudacity": 19881,
    "ittle": 814,
    "pow": 10716,
    "Ġsect": 17750,
    "Ġlaws": 8003,
    "Ġhieroglyphic": 25588,
    "Ġcorn": 9348,
    "lan": 15375,
    "Ġdishes": 16047,
    "Ġhabitation": 14801,
    "pton": 15790,
    "treated": 21093,
    "Ġbosom": 6939,
    "Ġgrotesque": 26330,
    "Ġeleventh": 23368,
    "Ġdeterm": 1270,
    "Ġunassuming": 20507,
    "Ġtornado": 24623,
    "Â·": 21148,
    "hung": 8380,
    "Ġranks": 21973,
    "Ġscrutin": 26015,
    "Ġfrost": 6096,
    "drifting": 19823,
    "abling": 1078,
    "ency": 3872,
    "Ġrallied": 14094,
    "mur": 5428,
    "ulged": 12725,
    "Ġchill": 11749,
    "Ġasp": 15777,
    "favour": 9547,
    "emic": 18184,
    "Ġcompensated": 17399,
    "Ġrue": 11864,
    "difficult": 10056,
    "Ġpettic": 14839,
    "Ġdischarged": 15218,
    "ide": 722,
    "Ġdespised": 14665,
    "stood": 4117,
    "uble": 21101,
    "ŀ": 257,
    "Ġdistillation": 16042,
    "Ġharpooneer": 3776,
    "Ġsix": 3045,
    "worship": 19385,
    "Ġstreaked": 19113,
    "Ġsuspecting": 14908,
    "¢": 100,
    "Ġknotted": 17018,
    "Ġdimmed": 24267,
    "first": 3936,
    "Ġfinishing": 23123,
    "prairies": 20565,
    "scoured": 22985,
    "jure": 20923,
    "succeed": 10327,
    "Ġdaintiest": 25954,
    "Ġdubious": 17381,
    "strikes": 24671,
    "Ġdra": 1594,
    "ifford": 15780,
    "Ġjava": 12309,
    "Ġbackward": 7654,
    "Ġelbowed": 16110,
    "Ġworshipper": 25693,
    "Ġincident": 6280,
    "emph": 21926,
    "Ġdebated": 9039,
    "Ġassid": 18944,
    "Ġpod": 15600,
    "pointed": 9806,
    "ody": 1480,
    "interesting": 12198,
    "Ġchick": 22245,
    "ross": 809,
    "million": 25752,
    "ix": 1802,
    "gue": 12464,
    "beside": 19876,
    "Ġhates": 21484,
    "Ġgloss": 11954,
    "Ġsinusoid": 4781,
    "hat": 6956,
    "Ġrep": 1938,
    "Ġxxv": 19716,
    "Ġbolivia": 24668,
    "Ġherbage": 25997,
    "sell": 13779,
    "Ġcarpenters": 16751,
    "Ġabrupt": 9734,
    "pers": 4335,
    "anche": 10787,
    "nay": 7135,
    "Ġcretan": 22724,
    "ograph": 4797,
    "Ġt": 261,
    "Ġscra": 5840,
    "countenance": 6925,
    "Ġrespect": 1671,
    "waist": 13416,
    "po": 1141,
    "staff": 21648,
    "Ġaveraging": 2417,
    "despair": 8344,
    "Ġlouder": 13466,
    "get": 1022,
    "Ġoverthrown": 18430,
    "Ġrighteous": 18945,
    "roses": 17956,
    "Ġhousings": 21491,
    "ii": 4015,
    "Ġpositional": 2597,
    "Ġmorocco": 26573,
    "Ġsavagely": 26324,
    "Ġemper": 9859,
    "frame": 17115,
    "Ġadoration": 18290,
    "jol": 20924,
    "nantucketer": 24975,
    "ructive": 18543,
    "cele": 21623,
    "Ġwonderful": 4563,
    "ixed": 4851,
    "sch": 21049,
    "Ġpopularly": 12238,
    "Ġclassification": 1087,
    "Ġharsh": 9519,
    "Ġdrunken": 12047,
    "Ġaccord": 4026,
    "Ġsombre": 18859,
    "ing": 273,
    "entiating": 3439,
    "Ġeyeing": 6460,
    "listener": 24931,
    "amaz": 21842,
    "Ġmorbid": 16231,
    "ruin": 22178,
    "Ġdat": 495,
    "Ġburn": 3687,
    "Ġforms": 6397,
    "Ġpaved": 17910,
    "Ġbenches": 18781,
    "Ġcand": 3279,
    "Ġperception": 9748,
    "legra": 10788,
    "Ġnature": 2539,
    "Ġincreasing": 8248,
    "Ġbottles": 16569,
    "amount": 10883,
    "Ġforemost": 12001,
    "Ġmitig": 1337,
    "Ġaugust": 10596,
    "aws": 8237,
    "tips": 13794,
    "Ġglue": 15670,
    "Ġendurance": 23142,
    "Ġsangu": 15502,
    "Ġheinous": 18038,
    "putation": 7624,
    "Ġtreacherous": 13552,
    "Ġtones": 8399,
    "Ġzoned": 22819,
    "contempt": 13188,
    "Ġener": 10895,
    "innocent": 20285,
    "Ġspec": 1262,
    "Ġemperors": 15157,
    "atement": 17772,
    "ages": 828,
    "Ġsufferer": 16257,
    "Ġtartar": 17320,
    "paralleled": 14516,
    "Ġphyseter": 26586,
    "Ġinestim": 15620,
    "Ġtroubles": 19437,
    "Ġpearl": 20375,
    "Ġhealth": 3906,
    "Ġrepresents": 4902,
    "itz": 6006,
    "Ġlifts": 25359,
    "ward": 705,
    "Ġtiles": 17725,
    "Ġswelling": 11922,
    "Ġsoaring": 22075,
    "Ġbeale": 12695,
    "Ġbuoyant": 13530,
    "unt": 2043,
    "Ġwall": 3845,
    "Ġalbertus": 25649,
    "Ġho": 1932,
    "Ġfoul": 7159,
    "Ġrecklessly": 16982,
    "Ġtophet": 23572,
    "Ġacquiesce": 20328,
    "Ġimbedded": 18334,
    "Ġchord": 22243,
    "rudential": 16709,
    "dle": 3250,
    "Ġdances": 10811,
    "corner": 13395,
    "Ġembed": 1446,
    "Ġtass": 15467,
    "phys": 18688,
    "elaborate": 21574,
    "Ġsacred": 10929,
    "voc": 8393,
    "unsupervised": 10888,
    "ult": 723,
    "arrangement": 17413,
    "Ġupp": 13990,
    "signed": 21060,
    "stump": 21645,
    "Ġpipes": 9848,
    "bantering": 25254,
    "Ġdesisted": 22972,
    "Ġedinburgh": 16434,
    "ivot": 11715,
    "Ġslender": 11937,
    "Ġsympat": 13338,
    "Ġbacking": 16113,
    "Ġquitted": 5311,
    "Ġverte": 9439,
    "Ġthereof": 22366,
    "Ġmock": 3695,
    "Ġaffliction": 25845,
    "lying": 7174,
    "reflection": 13453,
    "tland": 21072,
    "Ġesteem": 7531,
    "Ġreasoned": 23084,
    "Ġrelics": 16193,
    "Ġshy": 10902,
    "Ġweaken": 21919,
    "itic": 11576,
    "odious": 21813,
    "ascar": 8434,
    "Ġreck": 6537,
    "Ġdisappointing": 19578,
    "Ġnoteworthy": 24162,
    "Ġarchly": 22772,
    "chiefly": 14844,
    "Ġbeckoned": 25794,
    "Ġpanel": 13370,
    "Ġrout": 7402,
    "lections": 4752,
    "tuesday": 17689,
    "Ġcontemplated": 13462,
    "pay": 10717,
    "Ġgeneralize": 3104,
    "ourse": 8868,
    "Ġhere": 1090,
    "itters": 10780,
    "Ġembodied": 25849,
    "Ġafore": 10757,
    "âĢĶâĢľ": 2972,
    "Ġcarter": 18900,
    "ulating": 10886,
    "of": 768,
    "Ġacqu": 1418,
    "Ġvirtues": 9934,
    "Ġpavement": 9576,
    "Ġampl": 22479,
    "mathemat": 19137,
    "Ġdesire": 3721,
    "Ġfathoms": 9082,
    "withstanding": 8944,
    "skinned": 25388,
    "Ġadd": 630,
    "Ġfor": 340,
    "Ġlucas": 3835,
    "Ġwelcome": 5603,
    "Ġphaeton": 17463,
    "Ġcylinders": 25944,
    "shows": 22456,
    "Ġsexes": 25169,
    "Ġpaw": 12616,
    "Ġexceeded": 14431,
    "Ġfairness": 9892,
    "airing": 16174,
    "Ġforeb": 12000,
    "gracious": 11828,
    "du": 604,
    "Ġhearts": 4972,
    "cheon": 23803,
    "Ġcaresses": 26060,
    "supers": 22640,
    "olerably": 11671,
    "Ġbright": 3217,
    "Ġembedding": 2104,
    "Ġpenny": 16310,
    "Ġremorselessly": 16966,
    "Ġundertake": 14478,
    "utional": 17983,
    "Ġimmense": 4952,
    "inquire": 16931,
    "application": 12360,
    "Ġfritters": 23256,
    "¶": 119,
    "isis": 12575,
    "Ġnuptial": 25783,
    "Ġelevate": 24499,
    "Ġwholesome": 16002,
    "Ġupdate": 2463,
    "quest": 4538,
    "cottage": 9568,
    "Ġilluminated": 20174,
    "Ġatlantic": 7000,
    "Ġinjurious": 24270,
    "Ġdishonoured": 20389,
    "firmly": 20279,
    "Ġdegener": 14046,
    "laying": 19771,
    "ificent": 8184,
    "Ġsatisfy": 6911,
    "Ġengaging": 9334,
    "Ġcheek": 8576,
    "Ġphantom": 8705,
    "Ġdownright": 16115,
    "Ġslacked": 25189,
    "holes": 12051,
    "Ġleatherhead": 20012,
    "Ġframed": 19018,
    "ww": 10736,
    "Ġproviding": 1363,
    "agement": 4189,
    "knell": 24555,
    "Ġwoman": 2385,
    "Ġblazing": 11893,
    "clouds": 25497,
    "Ġmember": 8584,
    "Ġ166": 25005,
    "Ġjewelled": 20182,
    "Ġperman": 10964,
    "shutters": 20312,
    "Ġmessages": 24984,
    "Ġagrees": 22513,
    "Ġstiffly": 15004,
    "fal": 17535,
    "Ġskilful": 25838,
    "plain": 1360,
    "aked": 2016,
    "istry": 22106,
    "hastened": 16844,
    "Ġenjoyment": 7300,
    "Ġpresentiment": 18989,
    "bond": 17488,
    "Ġroanoke": 22404,
    "almost": 4943,
    "âĢĻ!âĢĿ": 18173,
    "Ġlurch": 21553,
    "henomena": 20271,
    "windows": 19533,
    "Ġbig": 5805,
    "Ġscru": 8191,
    "Ġchann": 15932,
    "Ġferry": 24515,
    "sample": 12503,
    "parm": 21013,
    "Ġwiser": 14728,
    "Ġcolle": 8922,
    "T": 56,
    "coburg": 13596,
    "feature": 4128,
    "Ġineffable": 17330,
    "Ġjerked": 19831,
    "Ġcar": 1420,
    "Ġaffect": 1385,
    "Ġbutton": 10266,
    "despond": 19799,
    "Ġwatch": 2744,
    "Ġbarrow": 12066,
    "explained": 23139,
    "Ġsubstances": 24165,
    "Ġroods": 22401,
    "fool": 9046,
    "Ġsinful": 18948,
    "Ġmultiplicity": 19275,
    "Ġfrigid": 17351,
    "expectant": 24275,
    "Ġexcl": 3475,
    "Ġequival": 4784,
    "Ġunsounded": 15846,
    "Ġexchanged": 10877,
    "Ġsermons": 20193,
    "Ĕ": 213,
    "ç": 168,
    "Ġvir": 7001,
    "impe": 21706,
    "rospect": 11610,
    "nihil": 9841,
    "Ġward": 10154,
    "Ġsource": 6805,
    "Ġem": 1925,
    "Ġshelf": 12264,
    "gging": 7697,
    "fat": 8079,
    "swimming": 24258,
    "Ġinput": 609,
    "Ġwandered": 6930,
    "Ġdramat": 23215,
    "malicious": 19901,
    "Ġpatients": 24814,
    "Ġdescribes": 3124,
    "Ġquery": 2480,
    "ur": 326,
    "Ġrobberies": 23004,
    "named": 9887,
    "Ġleading": 7297,
    "Ġvexatious": 19780,
    "Ġcotton": 17377,
    "unned": 21876,
    "circumstance": 7764,
    "Ġoriginally": 7304,
    "Ġjurymen": 16846,
    "Ġlabours": 8581,
    "Ġconversing": 14632,
    "Ġdesc": 765,
    "aby": 18106,
    "Ġmanaging": 22323,
    "Ġparl": 8177,
    "Ġbureau": 11588,
    "Ġpagan": 7117,
    "gave": 7800,
    "fug": 17542,
    "Ġchilled": 18382,
    "atches": 13844,
    "Ê": 139,
    "Ġcured": 21345,
    "robe": 15638,
    "uity": 12514,
    "watson": 12240,
    "Ġsubstantial": 14808,
    "keel": 14133,
    "missed": 11207,
    "ornamented": 26595,
    "convalescence": 24885,
    "full": 7419,
    "inst": 4294,
    "Ġduly": 13348,
    "scru": 16237,
    "ffic": 22153,
    "es": 289,
    "Ġstars": 6149,
    "caroline": 24149,
    "Ġdart": 4585,
    "rings": 10721,
    "Ġindirectly": 8938,
    "Ġrobinson": 17462,
    "Ġcountries": 13094,
    "horse": 8604,
    "Ġtoma": 7373,
    "Ġapt": 9154,
    "ust": 494,
    "valued": 2854,
    "Ġworshippers": 25694,
    "Ġerroneous": 17407,
    "Ġrevered": 23733,
    "Ġdetection": 3266,
    "bler": 11471,
    "Ġhastening": 19335,
    "oundered": 14163,
    "Ġcultured": 25155,
    "Ġdrawn": 4275,
    "Ġgreatly": 5849,
    "oided": 11507,
    "uncle": 8159,
    "commendation": 26349,
    "pool": 16207,
    "lamp": 9607,
    "functions": 11229,
    "uy": 21098,
    "Ġassu": 21895,
    "Ġgirl": 3089,
    "windlass": 16720,
    "Ġcalled": 1975,
    "Ġalleg": 14015,
    "Ġmiraculous": 13545,
    "Ġsoph": 1459,
    "Ġcushion": 17833,
    "Ġfaithfully": 14885,
    "Ġdemo": 10878,
    "Ġsayest": 22778,
    "Ċ": 203,
    "mounting": 25208,
    "Ġkinds": 14504,
    "lant": 20946,
    "Ġchilly": 25563,
    "?âĢĶ": 3468,
    "Ġsimilarity": 3170,
    "Ġministers": 22831,
    "Ġhuzza": 12629,
    "Ġinterpre": 1591,
    "Ġdupl": 9952,
    "performances": 26007,
    "Ġforgotten": 5679,
    "Ġsecure": 4912,
    "Ġturbulence": 26597,
    "thrasher": 25659,
    "Ġargu": 10933,
    "inclined": 10638,
    "remes": 21236,
    "Ġquoin": 22416,
    "Ġpeculiar": 3156,
    "Ġhelmet": 19686,
    "Ġprevailed": 7778,
    ".]": 15296,
    "Ġgrapple": 25812,
    "wall": 10135,
    "with": 1296,
    "Ġtremble": 6906,
    "Ġceler": 15547,
    "sters": 6391,
    "Ġwire": 13850,
    "ienced": 5685,
    "Ġproport": 2297,
    "Ġrummaged": 16909,
    "Ġconsequent": 18110,
    "protected": 19920,
    "given": 8377,
    "better": 7119,
    "Ġcrew": 2497,
    "terdam": 18129,
    "Ġlizz": 21555,
    "Ġliterally": 15114,
    "Ġaerial": 21197,
    "Ġdelusion": 18975,
    "bulkington": 19924,
    "Ġbrutality": 26277,
    "isl": 21373,
    "means": 9783,
    "harbor": 13562,
    "Ġmanhandle": 22327,
    "Ġsustaining": 25334,
    "Ġmurderous": 8316,
    "Ġghost": 6142,
    "Ġstructured": 2974,
    "Ġreconciliation": 25293,
    "kindled": 16659,
    "lips": 13748,
    "Ġbaked": 21384,
    "Ġinjunction": 19616,
    "eck": 20843,
    "Ġwr": 1544,
    "ulance": 15762,
    "Ġdamp": 8264,
    "Ġreckoned": 24745,
    "Ġamel": 18510,
    "courage": 17508,
    "Ġsit": 4217,
    "Ġabsorb": 25113,
    "Ġlambton": 10656,
    "Ġretire": 10380,
    "Ġfrayed": 23278,
    "Ġmagnet": 10388,
    "Ġpo": 738,
    "consider": 6348,
    "Ġspring": 4122,
    "Ġearnest": 3932,
    "Ġexpiration": 22622,
    "aren": 10072,
    "Ġwont": 9850,
    "achment": 5464,
    "itives": 17819,
    "Ġinterpretation": 19715,
    "Ġfits": 8789,
    "Ġmildly": 9028,
    "serpent": 16289,
    "consequ": 18504,
    "Ġinjury": 10539,
    "Ġcens": 8412,
    "Ġgulf": 10634,
    "screw": 9344,
    "ary": 989,
    "Ġpor": 5225,
    "rmsprop": 4522,
    "nder": 20986,
    "sharks": 14239,
    "Ġwreat": 15528,
    "Ġdreaded": 8289,
    "pulling": 25147,
    "ptember": 10893,
    "Ġrav": 14302,
    "halfway": 24311,
    "Ġbulge": 23856,
    "Ġreplete": 15694,
    "Ġginger": 9209,
    "Ġdesperation": 19817,
    "medi": 2628,
    "Ġhasty": 10476,
    "iation": 7343,
    "aths": 22697,
    "Ġconcern": 2585,
    "enari": 21280,
    "Ġcoefficient": 2887,
    "Ġmagn": 1556,
    "chase": 11643,
    "Ġcompanionship": 14918,
    "Ġslate": 11935,
    "Ġfood": 5080,
    "Ġminus": 18749,
    "Ġknock": 9971,
    "intercourse": 14637,
    "Ġdealer": 23976,
    "required": 17029,
    "Ġcoat": 4554,
    "aloons": 20009,
    "Ġits": 706,
    "bird": 9584,
    "Ġfleet": 9430,
    "notches": 22752,
    "Ġlav": 13948,
    "uel": 6966,
    "stige": 21653,
    "Ġboxes": 13372,
    "Ġdivide": 12107,
    "Ġ>": 21150,
    "Ġthin": 4346,
    "Ġwatson": 3598,
    "Ġtrain": 514,
    "Ġdisconcerted": 18562,
    "Ġextravagance": 17278,
    "Ġannot": 15598,
    "spirit": 11312,
    "Ġincomplete": 17207,
    "eronomy": 15522,
    "machine": 995,
    "batross": 9091,
    "Ġdied": 4112,
    "Ġchained": 16385,
    "xes": 21139,
    "Ġbarrowful": 25596,
    "Ġcat": 2122,
    "Ġfortresses": 23621,
    "Ġwished": 3733,
    "ty": 1002,
    "Ġdiscriminator": 3393,
    "Ġscrutiny": 26016,
    "Ġend": 1486,
    "levi": 7047,
    "Ġpau": 17906,
    "Ġcrazed": 19174,
    "Ġspots": 11726,
    "Ġconject": 6027,
    "Ġhunt": 6183,
    "Ġshift": 2282,
    "Ġcrucifix": 26080,
    "Ġsplitting": 4382,
    "glit": 23849,
    "icial": 12651,
    "Ġbalances": 2340,
    "Ġpronouncing": 16968,
    "Ġreveal": 11198,
    "sister": 5139,
    "Ġpatter": 840,
    "ivance": 22081,
    "Ġvices": 14081,
    "multiple": 15105,
    "Ġprefer": 6416,
    "america": 17096,
    "parad": 16387,
    "Ġconsternation": 9857,
    "aggo": 5097,
    "Ġsaintsbury": 26373,
    "Ġwasting": 12726,
    "Ġrooted": 13167,
    "Ġfiles": 21412,
    "earthly": 24725,
    "Ġsunbeam": 23275,
    "leful": 17842,
    "Ġresearches": 13117,
    "Ġserve": 9367,
    "quely": 10230,
    "Ġpipeline": 2452,
    "ĠĠĠĠĠ": 3526,
    "Ġrollicking": 24451,
    "Ġtub": 7146,
    "Ġenigmatical": 20596,
    "Ġdriver": 16472,
    "Ġcoloured": 11044,
    "Ġhelpless": 8302,
    "Ġ64": 24367,
    "az": 2182,
    "runs": 25416,
    "Ġknowing": 4456,
    "================================": 5671,
    "Ġpropriet": 9548,
    "Ġdearly": 10400,
    "volutional": 1936,
    "Ġwindpipe": 23104,
    "nne": 20988,
    "Ġrod": 9278,
    "Ġspell": 8854,
    "jour": 20926,
    "Ġpolic": 13159,
    "Ġsocket": 12779,
    "ralian": 19599,
    "Ġaverages": 2397,
    "Ġagon": 10319,
    "Ġgover": 2461,
    "Ġprocesses": 3636,
    "ouement": 21447,
    "Ġfrankenstein": 7095,
    "Ġaccompanying": 11303,
    "tube": 20409,
    "dun": 17515,
    "ased": 1267,
    "Ġgouldings": 26188,
    "proof": 16421,
    "Ġcoin": 9769,
    "Ġdemands": 19642,
    "Ġabsurd": 7202,
    "ingu": 2120,
    "Ġdarkness": 4277,
    "Ġwing": 6665,
    "Ġsweetly": 23917,
    "leep": 4634,
    "finished": 10553,
    "Ġple": 1472,
    "Ġhereditary": 10663,
    "uc": 1878,
    "shoulders": 16583,
    "Ġunderstand": 829,
    "Ġsign": 2496,
    "Ġunanswerable": 26521,
    "convinced": 10621,
    "Ġinno": 1467,
    "attoo": 6807,
    "Ġequal": 4137,
    "Ġdoom": 6417,
    "Ġpreprocess": 22231,
    "decease": 25558,
    "trad": 21075,
    "ence": 394,
    "Ġeaster": 15671,
    "silent": 9972,
    "Ġbehavior": 8002,
    "trimmed": 23948,
    "Ġchase": 3947,
    "Ġobserving": 6081,
    "deliberated": 26119,
    "began": 6426,
    "Ġlabels": 3291,
    "Ġindependence": 12101,
    "Ġrespectful": 16343,
    "confess": 12172,
    "val": 1137,
    "Ġforfeit": 21773,
    "Ġdilatory": 24706,
    "ohn": 4561,
    "Ġleap": 5824,
    "taining": 7206,
    "probably": 10018,
    "dignity": 15343,
    "Ġflowery": 16230,
    "counters": 25398,
    "influence": 13576,
    "Ġturn": 1297,
    "numbers": 17615,
    "ieves": 4007,
    "pine": 13767,
    "Ġapprovingly": 26251,
    "ignorant": 13561,
    "Ġresponded": 13636,
    "poison": 14391,
    "Ġgouge": 26189,
    "Ġdiscussion": 17193,
    "impul": 16555,
    "Ġtemptations": 24505,
    "if": 376,
    "Ġdispleased": 18555,
    "Ġcalves": 13031,
    "Ġcomputing": 2219,
    "Ġunsupp": 22017,
    "Ġmark": 2331,
    "Ġper": 588,
    "wide": 10136,
    "Ġ48": 24080,
    "conclude": 24066,
    "envelope": 17782,
    "iqu": 7803,
    "farmer": 25900,
    "Ġcordiality": 24395,
    "ored": 3898,
    "Ġth": 299,
    "Ġsamuel": 10031,
    "Ġspotted": 12135,
    "Ġcondescend": 19953,
    "iers": 5991,
    "isc": 6239,
    "Ġhoisted": 5960,
    "Ġbubb": 12580,
    "ĳ": 244,
    "Ġhot": 4257,
    "Ġdetail": 634,
    "Ġyankees": 26202,
    "Ġunconditional": 15841,
    "anded": 5923,
    "Ġmontan": 22975,
    "disciple": 16777,
    "Ġmother": 2066,
    "bag": 7542,
    "Ġepicurean": 20554,
    "Ġstun": 11648,
    "Ġunnaturally": 24871,
    "âĢľâĢĺ": 1485,
    "Ġarrangements": 16513,
    "Ġmorass": 22968,
    "fear": 8512,
    "Ġchocks": 13343,
    "Ġcompetent": 11813,
    "illed": 2624,
    "Ġwhereof": 16099,
    "beries": 22718,
    "unexpected": 15774,
    "Ġlanguid": 14212,
    "drink": 10594,
    "Ġfortunately": 12176,
    "testing": 12513,
    "Ġmonomania": 17084,
    "Ġnever": 1020,
    "Ġbuilding": 8063,
    "rollable": 13943,
    "Ġfaultless": 24540,
    "Ġpluck": 15610,
    "Ġcooked": 13267,
    "Ġpartly": 6713,
    "Ġcheer": 4067,
    "oblig": 16288,
    "Ġresounded": 22542,
    "Ġtraitors": 23076,
    "Ġstout": 6025,
    "Ġhosmer": 6774,
    "Ġman": 544,
    "lord": 3868,
    "spades": 14330,
    "Ġsplit": 7993,
    "huzza": 20912,
    "ĠĠĠĠĠĠĠĠĠĠĠĠĠĠĠĠĠĠĠĠĠĠĠĠĠĠĠĠĠĠĠĠĠĠĠĠĠ": 14613,
    "ß": 160,
    "Ġbruited": 25774,
    "ignified": 14489,
    "Ġassault": 9835,
    "vill": 10734,
    "listen": 13512,
    "light": 3019,
    "Ġmarling": 23035,
    "Ġbecoming": 4396,
    "Ġcased": 21344,
    "Ġomitted": 12560,
    "measured": 19988,
    "Ġwil": 4580,
    "ber": 884,
    "ah": 1833,
    "iloquent": 21723,
    "Ġsled": 21217,
    "Ġelias": 18643,
    "aping": 8194,
    "Ġpall": 7582,
    "O": 51,
    "Ġbr": 1072,
    "Ġaven": 10758,
    "ancho": 4938,
    "Ġcedars": 20291,
    "Ġtrouble": 3694,
    "forgotten": 12413,
    "boxes": 16887,
    "Ġcharing": 14179,
    "effectually": 25129,
    "shining": 18495,
    "Ġshock": 6083,
    "Ġinheriting": 25355,
    "Ġajar": 21201,
    "Ġsinks": 19548,
    "Ġobjecting": 18896,
    "Ġunprecedented": 15851,
    "prom": 6509,
    "Ġkiss": 8183,
    "Ġconvulsive": 19306,
    "Ġheads": 3744,
    "upset": 23018,
    "Ġnice": 6676,
    "Ġtopsails": 19192,
    "Ġdetached": 10278,
    "Ġscarcely": 4010,
    "onel": 3094,
    "Ġcontract": 18475,
    "deploy": 22141,
    "Ġshops": 21999,
    "cause": 7796,
    "ta": 13787,
    "Ġqualifications": 24676,
    "urmountable": 15277,
    "Ġdecreed": 18484,
    "avating": 18606,
    "Ġplanned": 14750,
    "umber": 5240,
    "Ġnurtured": 19748,
    "Ġimagine": 3926,
    "Ġpreacher": 18369,
    "Ġsoliloqu": 11882,
    "friends": 8306,
    "Ġlandscape": 12414,
    "recovered": 19786,
    "Ġwriter": 11942,
    "Ġgained": 4535,
    "İ": 241,
    "Ġconflagration": 26365,
    "loun": 17587,
    "Ġkeepers": 23538,
    "lanterns": 17427,
    "times": 8099,
    "Ġcastaway": 16639,
    "hor": 2571,
    "Ġam": 661,
    "whip": 22235,
    "ooped": 17622,
    "Ġexpectation": 6904,
    "Ġsternly": 16708,
    "Ġhooped": 23355,
    "Ġblo": 2734,
    "Ġobliterated": 17403,
    "Ġfrosts": 19801,
    "Ġcocoan": 20315,
    "dan": 17514,
    "Ġunlike": 7004,
    "Ġbarrier": 16568,
    "Ġdrunkard": 20176,
    "Ġbalancing": 2429,
    "Ġunbending": 25465,
    "Ġjud": 3360,
    "Ġheavenly": 12081,
    "Ġ93": 24593,
    "cord": 8722,
    "slanting": 24558,
    "Ġwo": 3654,
    "gossip": 23403,
    "speaks": 19718,
    "Ġpand": 21453,
    "Ġbasis": 16960,
    "Ġwilfully": 16765,
    "flinging": 20867,
    "Ġthickets": 24023,
    "Ġcomrades": 9553,
    "Ġet": 3581,
    "Ġsecuring": 11988,
    "Ġgrammar": 1063,
    "Ġconsequence": 5541,
    "Ġpudding": 17913,
    "Ġtar": 2564,
    "Ġquickly": 4241,
    "Ġbowlines": 19321,
    "Ġfow": 6133,
    "Ġexploded": 15906,
    "Ġunmingled": 18260,
    "Ġunfit": 14784,
    "tle": 2408,
    "Ġtaken": 2529,
    "Ġpick": 4256,
    "Ġvengeful": 14888,
    "tom": 15433,
    "Ġsusp": 2661,
    "Ġdespise": 14664,
    "Ġrepaired": 13105,
    "Ġbesides": 3513,
    "Ġvivacious": 19814,
    "Ġspeech": 4610,
    "Ġpreparing": 8646,
    "Ġgave": 2217,
    "Ġaccount": 2320,
    "ortunity": 4402,
    "seam": 10873,
    "Ġatt": 781,
    "Ġcocoa": 25483,
    "Ġinterview": 9768,
    "contemplated": 20457,
    "Ġhellish": 10549,
    "Ġsustained": 13480,
    "Ġmodesty": 12815,
    "cop": 20800,
    "Ġentailed": 11027,
    "Ġendeavours": 8616,
    "observation": 17268,
    "Ġrail": 7224,
    "lyph": 10851,
    "Ġembellished": 25851,
    "Ġgliding": 8558,
    "Ġstruggling": 12071,
    "omed": 13977,
    "Ġembodiment": 20527,
    "traces": 24315,
    "Ġrouse": 15819,
    "arts": 6563,
    "lever": 2934,
    "mut": 17594,
    "Ł": 258,
    "Ġmitt": 21306,
    "Ġmeryton": 4437,
    "bul": 6951,
    "room": 2179,
    "Ġgoest": 22421,
    "Ġdisinterested": 16054,
    "Ġslighter": 18939,
    "Ġconsequ": 6254,
    "Ġdespairing": 14771,
    "Ġglowing": 12279,
    "Ġimplement": 3071,
    "itiousness": 21332,
    "give": 4689,
    "Ġimplicate": 24877,
    "Ġdair": 17889,
    "Ġicicles": 25265,
    "onde": 21250,
    "Ġobserver": 11985,
    "receiving": 12539,
    "Ġprophe": 13076,
    "expected": 5780,
    "Ġscuffle": 20607,
    "Ġtell": 1471,
    "âĢ": 294,
    "eager": 12456,
    "Ġhuggins": 24829,
    "Ġbud": 10167,
    "cases": 12444,
    "Ġtwenty": 3951,
    "Ġdisconsolate": 20718,
    "Ġcount": 1816,
    "Ġbun": 6007,
    "Ġdepths": 4325,
    "tort": 17674,
    "nails": 17613,
    "Ġcrescent": 16133,
    "Ġforbear": 17120,
    "Ġwired": 17786,
    "Ġpathways": 11152,
    "Ġascertaining": 17202,
    "Ġimparted": 15986,
    "whisper": 17082,
    "Ġpott": 21466,
    "ede": 21504,
    "Ġhorizontally": 17011,
    "Ġentangled": 10344,
    "whispering": 26104,
    "process": 11147,
    "ic": 304,
    "Ġfacing": 10170,
    "Ġterti": 14537,
    "Ġaverse": 11080,
    "Ġaccomp": 4713,
    "killer": 20474,
    "Ġphaet": 16315,
    "Ġglobu": 23270,
    "Ġinquired": 7485,
    "Ġoptimal": 1857,
    "Ġramadan": 9574,
    "Ġmuster": 16119,
    "Ġgo": 615,
    "Ġincompetent": 25680,
    "Ġunconquerable": 22059,
    "Ġcy": 13872,
    "Ġeighteen": 11238,
    "baron": 24926,
    "Ġopposite": 5120,
    "Ġunrestrained": 25555,
    "Ġloud": 4701,
    "gether": 1597,
    "Ġsaxon": 25469,
    "wor": 3417,
    "rigged": 17061,
    "Ġdictionaries": 12337,
    "Ġnoiseless": 10355,
    "ô": 181,
    "Ġpractises": 23321,
    "nings": 9130,
    "Ġmuttered": 7086,
    "Ġlearns": 2642,
    "fishermen": 17060,
    "Ġsavannah": 17414,
    "Ġneed": 2607,
    "Ġathirst": 20597,
    "large": 6625,
    "Ġstanders": 19015,
    "Ġdebar": 24271,
    "Ġunpardonable": 22058,
    "heading": 5487,
    "Ġabsurdly": 19958,
    "Ġliv": 6679,
    "atum": 21258,
    "ÿ": 192,
    "summer": 11990,
    "Ġinfallible": 15068,
    "orrah": 17875,
    "Ġpyramids": 15112,
    "Ġinvisibly": 24818,
    "setting": 13283,
    "inf": 6232,
    "ui": 9143,
    "Ġpeaks": 16125,
    "Ġunnear": 22024,
    "direct": 12453,
    "tattoo": 21086,
    "Ġdefine": 9813,
    "sen": 21048,
    "Ġboasting": 19934,
    "Ġillustrious": 17108,
    "Ġtastes": 15475,
    "Ġblock": 2575,
    "compassion": 12365,
    "were": 2558,
    "ounted": 5030,
    "splash": 25210,
    "Ġand": 295,
    "Ġtrappers": 23079,
    "Ġfeasts": 25370,
    "battering": 20785,
    "Ġlists": 11165,
    "Ġaccomplished": 7104,
    "Ġcurve": 22990,
    "would": 2351,
    "Ġreconsidered": 21671,
    "izer": 2030,
    "wondered": 17028,
    "Ġmartial": 20290,
    "Ġagile": 22510,
    "Ġbraced": 16578,
    "shattered": 22459,
    "Ġsufferable": 16256,
    "ableness": 8149,
    "bows": 10080,
    "Ġlate": 3379,
    "Ġporus": 24398,
    "ugues": 19025,
    "Ġglimmering": 25241,
    "Ġcertainly": 2498,
    "terbury": 21822,
    "ten": 1558,
    "Ġunseasonable": 26520,
    "mast": 3603,
    "understand": 1101,
    "Ġsupervised": 3154,
    "Ġsheets": 9720,
    "Ġfries": 21414,
    "Ġsupplying": 19797,
    "Ġwithhold": 18115,
    "Ġfrenzy": 13620,
    "Ġstriding": 16086,
    "Ġvect": 1224,
    "Ġselecting": 16683,
    "Ġrecol": 4029,
    "peter": 24298,
    "Ġanalog": 12608,
    "Ġyoked": 15731,
    "Ġbreadth": 10562,
    "Ġcleaning": 23178,
    "deepest": 22847,
    "Ġwail": 21285,
    "Ġsheaves": 22156,
    "hus": 5072,
    "Ġregression": 4408,
    "mot": 17595,
    "floated": 24644,
    "Ġfrequent": 3290,
    "Ġfly": 3873,
    "Ġclamped": 18425,
    "byter": 16212,
    "recogn": 13423,
    "aciousness": 18607,
    "Ġinvisible": 7327,
    "urpr": 2287,
    "Ġmexico": 15278,
    "Ġwaterward": 23367,
    "Ġsunset": 8961,
    "herent": 2530,
    "range": 3494,
    "Ġcitizens": 25440,
    "Ġsadly": 7302,
    "Ġspool": 24807,
    "wherefore": 19108,
    "Ġoccurs": 1858,
    "boil": 18999,
    "whales": 5187,
    "Ġbison": 21386,
    "Ġlent": 21545,
    "Ġmill": 6666,
    "borrowed": 20791,
    "Ġclearly": 6897,
    "drive": 8681,
    "augh": 1785,
    "Ġadmirer": 16837,
    "Ġtransports": 24277,
    "ipelagoes": 13669,
    "Ġab": 528,
    "Ġpromoting": 3164,
    "bale": 20773,
    "Ġpun": 4587,
    "Ġstake": 14001,
    "Ġindividuals": 24546,
    "Ġrent": 11637,
    "ĠvertebrÃ¦": 11434,
    "Ġevident": 6611,
    "Ġmaintenance": 17460,
    "irably": 13293,
    "afforded": 25866,
    "Ġgolden": 5336,
    "Ġdigging": 14936,
    "Ġbri": 21376,
    "Ġutterance": 14761,
    "Ġpointed": 4773,
    "Ġchart": 10944,
    "regret": 16449,
    "Ġperilously": 24504,
    "Ġindulge": 10581,
    "intellect": 18821,
    "Ġpricking": 23219,
    "^": 66,
    "Ġpenetrating": 17010,
    "Ġarctic": 12806,
    "Ġroot": 2649,
    "Ġcontinu": 1166,
    "hurst": 19878,
    "ignorance": 17160,
    "Ġreflecting": 24752,
    "Ġoccasioned": 13224,
    "Ġrose": 3444,
    "ohnson": 16323,
    "Ġdisastrous": 16057,
    "Ġcringed": 25943,
    "Ġwanted": 4968,
    "Ġrestored": 7066,
    "Ġrelative": 11880,
    "Ġnamely": 20688,
    "gged": 3781,
    "Ġbehind": 2809,
    "Ġdrow": 21425,
    "Ġantip": 24177,
    "Ġplata": 25118,
    "ourage": 2449,
    "Ġdiligent": 25076,
    "Ġcivil": 4679,
    "Ġinquest": 16546,
    "Ġrattled": 15066,
    "Ġweaver": 11685,
    "scorched": 25698,
    "Ġboun": 21378,
    "Ġelevating": 19727,
    "Ġreiterating": 26474,
    "Ġtoward": 17946,
    "Ġparticularly": 5056,
    "Ġabundant": 17153,
    "oblivious": 26582,
    "sloop": 26146,
    "ourable": 4967,
    "Ġshouting": 10521,
    "Ġwarmly": 8986,
    "clopÃ¦": 13052,
    "Ġnews": 3822,
    "Ġenumer": 12741,
    "Ġfeasible": 22206,
    "Ġiterate": 13199,
    "cham": 10852,
    "Ġxii": 11987,
    "ators": 7830,
    "ket": 17581,
    "Ġhackney": 20431,
    "beneath": 9533,
    "riage": 2124,
    "Ġproportional": 2526,
    "rift": 11518,
    "Ġshoving": 23488,
    "Ġvul": 10246,
    "Ġwriggling": 15255,
    "Ġscores": 2715,
    "recur": 4436,
    "Ġmistress": 8610,
    "Ġflog": 23623,
    "coast": 10448,
    "ability": 716,
    "glass": 9907,
    "Ġobservable": 25127,
    "Ġwildness": 14602,
    "Ġcook": 3716,
    "Ġwines": 21286,
    "lod": 15376,
    "sciss": 18850,
    "Ġoverboard": 6045,
    "arcy": 1274,
    "boat": 3364,
    "Ġrenowned": 26194,
    "Ġmour": 6973,
    "oton": 3608,
    "mor": 4216,
    "wants": 21129,
    "Ġnormalizing": 1822,
    "becoming": 18516,
    "Ġendued": 14075,
    "steps": 9403,
    "Ġinseparable": 20687,
    "Ġarrows": 18336,
    "kingly": 20938,
    "critters": 14781,
    "hunsford": 24386,
    "Ġhes": 6250,
    "Ġscene": 3101,
    "Ġloadstone": 25817,
    "Ġimputation": 22170,
    "Ġshark": 5549,
    "Ġl": 303,
    "Ġchurning": 15934,
    "clifford": 23154,
    "breaking": 14762,
    "Ġminutely": 14560,
    "irmed": 9237,
    "Ġhairy": 23864,
    "Ġrebell": 21667,
    "Ġindividuality": 14907,
    "Ġlard": 13945,
    "back": 2017,
    "Ġimaginative": 19246,
    "Ġmounted": 7833,
    "Ġloveliness": 13606,
    "Ġcoal": 18595,
    "Ġjeopard": 9941,
    "nigh": 13761,
    "Ġprolong": 6832,
    "Ġfamiliarity": 16728,
    "Ġwonders": 7500,
    "Ġmig": 13854,
    "Ġflourished": 15123,
    "Ġopinion": 3144,
    "loa": 18533,
    "Ġexperienced": 6583,
    "by": 1159,
    "ĸ": 249,
    "ep": 445,
    "arking": 16122,
    "wed": 5003,
    "Ġtempor": 2365,
    "----âĢĻ": 24096,
    "Ġprofoundly": 16858,
    "safe": 10052,
    "Ġwealthy": 18178,
    "Ġalchemists": 26487,
    "Ġimperilled": 19577,
    "Ġtimbers": 14837,
    "cob": 10085,
    "Ġcot": 13875,
    "Ġsecurity": 8976,
    "stre": 5451,
    "Ġtowers": 16737,
    "Ġhome": 2028,
    "emed": 3382,
    "Ġchambermaid": 24304,
    "Ġanimation": 11151,
    "ded": 2420,
    "rey": 12534,
    "Ġvolcanoes": 24146,
    "Ġsudden": 2000,
    "Ġdams": 16454,
    "Ġwapping": 21293,
    "Ġglided": 7446,
    "Ġlarboard": 11008,
    "Ġevening": 2651,
    "Ġtomahawk": 7539,
    "Ġmicrosc": 20675,
    "ientific": 6547,
    "glances": 23852,
    "Ġgent": 7383,
    "pervised": 1557,
    "ney": 2494,
    "hears": 12529,
    "Ġpleaded": 16296,
    "angel": 5726,
    "Ġoffers": 12943,
    "Ġrespectability": 14483,
    "Ġregal": 16069,
    "Ġterrible": 5327,
    "sometimes": 5972,
    "shorn": 22457,
    "weeks": 14314,
    "ather": 740,
    "Ġthen": 665,
    "Ô": 149,
    "ribe": 1223,
    "cious": 6643,
    "ob": 1421,
    "Ġretarded": 23070,
    "thirty": 12758,
    "Ġyields": 19655,
    "Ġimpact": 10295,
    "Ġchuck": 8500,
    "ouncement": 11742,
    "considerably": 13443,
    "Ġtossing": 8126,
    "Ġintu": 12759,
    "Ġrevenge": 5452,
    "ments": 1401,
    "lection": 3656,
    "gence": 877,
    "Ġputs": 19035,
    "Ġcausing": 16355,
    "Ġinclination": 6623,
    "Ġcontracting": 16008,
    "Ġstamp": 7865,
    "reliable": 21239,
    "unsuitable": 21891,
    "Ġsurpassing": 20466,
    "Ġblending": 14397,
    "Ġpublicly": 13320,
    "Ġimpetuous": 25571,
    "che": 3174,
    "Ġbounded": 16625,
    "Ġoperation": 11995,
    "Ġparameters": 994,
    "Ġsobbing": 14131,
    "Ġdetected": 18839,
    "Ġsche": 1707,
    "Ġfortune": 4240,
    "bers": 2570,
    "Ġwhisky": 23932,
    "Ġhedgehog": 10643,
    "Ġhouses": 6138,
    "Ġfru": 8419,
    "Ġleakage": 23459,
    "Ġobtain": 8913,
    "hee": 10759,
    "Ġdecaying": 2247,
    "Ġwhipcord": 20093,
    "Ġgush": 10201,
    "Ġseconds": 16395,
    "Ġmenaces": 23105,
    "Ġfumes": 21417,
    "fish": 3515,
    "Ġcondition": 6764,
    "Ġundecided": 22044,
    "genteel": 19947,
    "ist": 447,
    "wit": 7818,
    "icate": 9200,
    "Ġswitzerland": 10378,
    "plun": 15816,
    "Ġexcite": 11963,
    "uten": 11620,
    "Ġoverbearing": 12839,
    "Ġwrapt": 24597,
    "Ġescape": 2646,
    "Ġobsequious": 17402,
    "Ġverbal": 19377,
    "illar": 5101,
    "tical": 10127,
    "Ġsanity": 24982,
    "ulation": 5458,
    "Ġdecap": 16017,
    "clouded": 20330,
    "Ġcommons": 22670,
    "Ġremedy": 18724,
    "Ġprovincial": 20649,
    "Ġleaves": 5021,
    "Ġsensations": 5259,
    "Ġstruggles": 16577,
    "abashed": 21790,
    "Ġtight": 8108,
    "Ġzeros": 3327,
    "occurrences": 26332,
    "Ġgames": 11624,
    "ominy": 13980,
    "Ġholder": 6724,
    "eness": 2290,
    "Ġwhence": 5839,
    "Ġaccomplishment": 19664,
    "Ġarchitectures": 2912,
    "Ã¦mon": 7094,
    "Ġdevoid": 18680,
    "Ĝ": 221,
    "Ġdignity": 5704,
    "ees": 13709,
    "Ġmun": 12558,
    "Ġexempt": 21826,
    "Ġhenceforth": 19646,
    "Ġunaccount": 22023,
    "laborers": 23914,
    "uberance": 25917,
    "iscient": 17851,
    "Ġreaped": 18029,
    "sli": 11521,
    "conducted": 25573,
    "ists": 4002,
    "Ġadvantage": 4315,
    "Ġindispens": 22953,
    "appe": 2946,
    "Ġsails": 5256,
    "Ġhandsomely": 25498,
    "tallied": 21088,
    "Ġresurrection": 12890,
    "Ġdragged": 6889,
    "confl": 22467,
    "solution": 14685,
    "Ġgifts": 21610,
    "ieve": 1661,
    "Ġrumours": 24600,
    "Ġrenew": 6145,
    "Ġcorre": 3891,
    "Ġcrystals": 20226,
    "Ġguessed": 11281,
    "Ġyea": 8915,
    "Ġcorrid": 9822,
    "rers": 14716,
    "Ġ76": 24262,
    "dare": 12450,
    "Ġhighway": 14346,
    "Ġstupid": 7603,
    "queness": 18146,
    "Ġbusy": 6189,
    "Ġsliding": 9361,
    "iteous": 14259,
    "Ġabandoned": 8352,
    "apparent": 11040,
    "Ġunhe": 22006,
    "ensibility": 22545,
    "cstasy": 11444,
    "invested": 17116,
    "Ġoceans": 7996,
    "Ġsurvive": 9066,
    "Ġanno": 9666,
    "Ġwave": 7575,
    "ugal": 19024,
    "daring": 20828,
    "Ġcurious": 3363,
    "remarks": 23188,
    "Ġpioneer": 17916,
    "Ġchest": 5185,
    "ened": 1387,
    "Ġaims": 15494,
    "Ġreplay": 5047,
    "ium": 4864,
    "Ġtruce": 24115,
    "dial": 20824,
    "swept": 19785,
    "Ġwhalers": 8048,
    "ighted": 8474,
    "Ġconcerning": 4069,
    "backpropagation": 11982,
    "plenty": 14089,
    "Ġstam": 18065,
    "Ġanom": 12607,
    "Ġunfitted": 24108,
    "Ġflukes": 5266,
    "Ġclatter": 22342,
    "Ġpronounce": 16967,
    "Ġsociet": 9447,
    "Ġrights": 10395,
    "Ġpatroness": 13508,
    "mantel": 26394,
    "Ġsu": 431,
    "rices": 4559,
    "Ġpuppy": 12402,
    "Ġadv": 1148,
    "lantern": 17426,
    "Ġneeded": 7718,
    "Ġenglish": 3615,
    "Ġcommission": 6712,
    "inctions": 17731,
    "pard": 9617,
    "Ġarabic": 24981,
    "Ġcontention": 22424,
    "overlooked": 23325,
    "Ġelementary": 24815,
    "Ġapoplexy": 25266,
    "Ġcompiled": 22568,
    "Ġreneg": 21673,
    "Ġ]": 15457,
    "Ġinhuman": 13927,
    "Ġreporting": 24658,
    "fulness": 4309,
    "Ġacquainted": 5179,
    "vanity": 24977,
    "repent": 15511,
    "ones": 2743,
    "Ġconsidered": 4611,
    "Ġungodly": 26513,
    "Ġimmersed": 19483,
    "because": 4923,
    "Ġostentatiously": 20467,
    "Ġmimic": 3146,
    "isance": 17847,
    "idays": 21768,
    "Ġhed": 7387,
    "Ġdrag": 6184,
    "Ġlamented": 24994,
    "Ġbulkington": 14676,
    "uction": 15441,
    "Ġfri": 17878,
    "Ġlowly": 11120,
    "throne": 25658,
    "Ġvib": 8165,
    "ppered": 15787,
    "Ġtore": 6530,
    "plainly": 11089,
    "Ġhurt": 7701,
    "Ġpovels": 22593,
    "Ġanimating": 23423,
    "Ġintervening": 17266,
    "Ġbumpkin": 20199,
    "Ġ108": 19683,
    "Ġentertained": 9996,
    "uncomfortable": 18160,
    "Ġyellowish": 24430,
    "Ġpike": 12619,
    "mistake": 24529,
    "forster": 16160,
    "Ġexplore": 15905,
    "dee": 11730,
    "Ġcirc": 1987,
    "mental": 16045,
    "Ġinconsistency": 26183,
    "ensity": 11810,
    "weed": 14313,
    "hopes": 15367,
    "Ġeaten": 14843,
    "latter": 15380,
    "Ġglut": 18846,
    "inquiries": 13575,
    "Ġsheltered": 19910,
    "Ġinduced": 8669,
    "Ġlvi": 21551,
    "Ġanimate": 23422,
    "Ġnovelty": 13461,
    "Ġcrabs": 19173,
    "isco": 12577,
    "resolution": 17765,
    "Ġsandwic": 24665,
    "featured": 24125,
    "datasets": 11956,
    "Ġmelting": 24288,
    "Ġalluding": 18269,
    "Ġnug": 21523,
    "Ġfondly": 19615,
    "Ġglorious": 11074,
    "scream": 11075,
    "Ġtiresome": 26157,
    "Ġexplanatory": 22200,
    "virtue": 20568,
    "Ġaffecting": 2323,
    "omp": 2471,
    "Ġantichronical": 26609,
    "earn": 10695,
    "Ġhudson": 15189,
    "Ġbarrens": 25502,
    "immediate": 20092,
    "Ġverse": 16601,
    "Ġpocket": 4898,
    "which": 1710,
    "Ġthirty": 4944,
    "Ġseek": 4507,
    "fortunately": 9448,
    "Ġpoul": 15609,
    "moor": 22700,
    "pumps": 21026,
    "Ġjunior": 15097,
    "Ġcollected": 2610,
    "plicable": 10255,
    "Ġcoburg": 18599,
    "Ġexplanations": 15907,
    "knowledge": 7478,
    "Ġinnocence": 6477,
    "Ġchina": 8040,
    "turning": 8317,
    "Ġsilly": 7686,
    "Ġfanned": 19099,
    "Ġknitted": 19588,
    "Ġbackbones": 22654,
    "Ġmorbidness": 20627,
    "Ġsinusoidal": 4801,
    "changed": 7175,
    "hate": 20891,
    ",)": 9099,
    "Ġemerge": 14926,
    "Ġsecurely": 16801,
    "forehead": 8514,
    "extent": 22766,
    "beyond": 8881,
    "threadbare": 25990,
    "salesman": 20670,
    "gled": 10698,
    "degree": 12797,
    "Ġreproofs": 24893,
    "Ġfleecy": 17022,
    "Ġkick": 5837,
    "Ġattempted": 8001,
    "exceed": 7912,
    "Ġchalk": 15930,
    "Ġfireside": 23531,
    "ront": 15416,
    "Ġcau": 13879,
    "gun": 10095,
    "beh": 5472,
    "Ġvehicles": 10658,
    "swear": 16917,
    "Ġrel": 1096,
    "ipher": 18432,
    "local": 22507,
    "Ġnails": 12644,
    "Ġmockery": 12104,
    "hardly": 6491,
    "Ġwa": 1753,
    "Ġjinglers": 26019,
    "ensation": 22543,
    "Ġadorned": 15245,
    "Ġmagnetic": 17239,
    "Ġbaptized": 25775,
    "Ġungenerous": 18263,
    "Ġbearing": 5298,
    "garity": 17553,
    "Ġcemet": 20679,
    "Ġpursued": 6328,
    "grandfather": 25010,
    "deceit": 25557,
    "Ġeaves": 15672,
    "Ġdistrust": 8204,
    "Ġsneezes": 24699,
    "Ġaspired": 25985,
    "Ġpaling": 21460,
    "Ġhoky": 17926,
    "Ġsharp": 2413,
    "attention": 2111,
    "unwittingly": 25802,
    "Ġstraits": 7994,
    "scure": 22980,
    "Ġconsecutive": 20701,
    "Ġembalmed": 13654,
    "mansion": 20982,
    "12": 20748,
    "Ġscarce": 8620,
    "ised": 1071,
    "Ġserm": 9632,
    "Ġtraged": 9350,
    "Ġsoapstone": 20509,
    "Ġgradual": 20600,
    "Ġding": 12595,
    "Ġvoyage": 3055,
    "days": 7688,
    "sander": 11525,
    "Ġpawnbroker": 13656,
    "Ġgazes": 24093,
    "pattern": 4519,
    "Ġgrie": 3584,
    "Ġye": 899,
    "Ġfaults": 12209,
    "Ġdistant": 5387,
    "jolly": 20930,
    "Ġshoal": 12012,
    "Ġturned": 2133,
    "Ġforward": 1837,
    "Ġbracelets": 25503,
    "vision": 5619,
    "Ġdismantled": 20215,
    "Ġvery": 635,
    "Ġbacks": 8527,
    "dist": 4479,
    "Ġhealthful": 24058,
    "Ġobeyed": 12213,
    "Ġerror": 1767,
    "Ġastonishment": 4794,
    "Ġshake": 6034,
    "ulence": 15761,
    "Ġ12": 5483,
    "Ġtandem": 26411,
    "rying": 3188,
    "noo": 9791,
    "soundest": 24798,
    "Ġpier": 7162,
    "Ġsee": 805,
    "ĠĠĠĠĠĠĠĠĠĠĠĠĠĠĠĠĠĠĠĠĠĠĠĠĠ": 24442,
    "Ġconsult": 6057,
    "Ġvoluntarily": 12137,
    "actor": 11835,
    "C": 39,
    "Ġflood": 7716,
    "Ġkindling": 19032,
    "Ġcarried": 3698,
    "Ġcollection": 8222,
    "Ġvoyagings": 19235,
    "Ġpeter": 10534,
    "Ġpantry": 20294,
    "Ġnocturnal": 20714,
    "Ġsimultaneously": 4310,
    "Ġnooks": 26012,
    "Ġjub": 22293,
    "idge": 14012,
    "osp": 6854,
    "exc": 5169,
    "rest": 1633,
    "Ġsplashed": 23747,
    "Ġprejud": 6851,
    "astrous": 15882,
    "Ġthreading": 23401,
    "scuttle": 11906,
    "x": 92,
    "pread": 7418,
    "dire": 15334,
    "house": 4078,
    "Ġrefresh": 10341,
    "flies": 19422,
    "ents": 1897,
    "Ġjacob": 1899,
    "rederick": 14078,
    "Ġpatagon": 14502,
    "Ġsummit": 7731,
    "(_": 7540,
    "Ġirresistible": 13110,
    "iour": 4038,
    "Ġplaned": 24055,
    "Ġeach": 893,
    "Ġpatted": 16363,
    "wanted": 10742,
    "confidential": 25877,
    "Ġlub": 15645,
    "Ġpoltro": 23619,
    "Ġsalt": 8017,
    "instantly": 7506,
    "Ġwhaleboats": 18479,
    "Ġbits": 11586,
    "Ġcheerless": 16693,
    "Ġvanishing": 1347,
    "cream": 15329,
    "Ġglassy": 19559,
    "Ġsuperhuman": 23453,
    "oned": 4630,
    "helm": 12168,
    "Ġsheep": 10925,
    "arial": 5531,
    "Ġoverjoyed": 17456,
    "Ġvariously": 18652,
    "terns": 21820,
    "ile": 521,
    "angles": 18295,
    "neat": 22446,
    "Ġunfavourable": 17415,
    "Ġenchant": 7185,
    "irium": 8162,
    "rily": 7621,
    "aph": 10953,
    "Ġsaratoga": 26423,
    "Ġperiods": 13301,
    "Ġoars": 3900,
    "Ġthursday": 12640,
    "Ġindividually": 22956,
    "Ġlist": 2364,
    "Ġgrowth": 14628,
    "Ġeight": 3904,
    "Ġdissembling": 26255,
    "hig": 12471,
    "Ġfreely": 7056,
    "librarian": 26568,
    "Ġhabitu": 19527,
    "Ġignominy": 15083,
    "Ġgoverning": 2797,
    "Ġlung": 7167,
    "Ġcategorization": 12133,
    "Ġconf": 1820,
    "Ġfounded": 8555,
    "ailed": 3249,
    "Ġquart": 11784,
    "Ġtowing": 9192,
    "Ġspectre": 16629,
    "Ġstrait": 23749,
    "Ġunremitting": 26218,
    "Ġstripped": 10463,
    "thur": 7188,
    "ours": 3428,
    "ounder": 11741,
    "Ġgod": 1937,
    "Ġfrank": 4418,
    "ere": 6789,
    "Ġeveryday": 22774,
    "Ġroll": 5381,
    "Ġpostp": 12140,
    "arily": 4127,
    "active": 16100,
    "Ġrevealed": 6751,
    "magnifying": 25393,
    "Ġclang": 15959,
    "seventh": 12710,
    "Ġineff": 12630,
    "Ġmanagement": 8193,
    "Ġdeclining": 23963,
    "Ġhairs": 13228,
    "Ġ67": 19659,
    "carp": 9108,
    "Ġbespeaking": 26311,
    "Ġeffects": 7236,
    "mund": 13756,
    "exact": 7911,
    "Ġdiffers": 23781,
    "Ġdisappeared": 5645,
    "recognised": 15260,
    "Ġmenacing": 23106,
    "Ġtolerable": 6949,
    "ung": 2746,
    "Ġmaximizing": 3172,
    "Ġvaliantly": 22802,
    "Ġalice": 1484,
    "Ġdives": 17890,
    "cooks": 25068,
    "iv": 433,
    "Ġfame": 21404,
    "Ġsple": 21214,
    "Ġdescried": 7920,
    "came": 4570,
    "coil": 23558,
    "dramatic": 19383,
    "mult": 8747,
    "Ġsuper": 2155,
    "torm": 11529,
    "pleas": 3854,
    "_.âĢĿ": 5886,
    "Ġbrittle": 22863,
    "Ġmonica": 22977,
    "penetrating": 25491,
    "Ġcant": 17824,
    "Ġlances": 6984,
    "Ġearthy": 23712,
    "Ġturks": 14597,
    "Ġimplies": 24874,
    "Ġsuggested": 8321,
    "Ġconfine": 14509,
    "aret": 7417,
    "burgh": 6773,
    "Ġglittering": 10051,
    "Ġtak": 15468,
    "×": 152,
    "warn": 11541,
    "Ġfoolscap": 24158,
    "Ġdeck": 2138,
    "Ġunh": 9251,
    "Ġsleeves": 10659,
    "waves": 10741,
    "com": 983,
    "Ġwarriors": 19722,
    "leaned": 21367,
    "Ġwrit": 8242,
    "Ġcruelty": 9967,
    "Ġpositions": 2056,
    "garn": 20869,
    "Ġbirds": 5873,
    "repro": 10769,
    "Ġinitialized": 3950,
    "Ġdiamond": 15595,
    "delighted": 10561,
    "mercenary": 26316,
    "ckinridge": 11716,
    "Ġreferred": 8914,
    "anous": 21357,
    "Ġfacility": 19849,
    "Ġcask": 5527,
    "perils": 22185,
    "Ġwatchman": 23665,
    "Ġfevers": 22204,
    "games": 20879,
    "Ġfourth": 7707,
    "Ġtinged": 20081,
    "Ġauthentic": 20534,
    "houses": 9598,
    "heat": 15495,
    "ms": 540,
    "Ġoust": 21322,
    "Ġcommunicated": 9060,
    "Ġslipping": 13358,
    "Ġworld": 1598,
    "tee": 16170,
    "laid": 10108,
    "Ġlose": 5028,
    "Ġrejoiced": 8682,
    "Ġenjoyments": 24018,
    "Ġscrib": 22281,
    "Ġcables": 15554,
    "Ġmouldy": 14972,
    "impropriety": 21711,
    "Ġdood": 22240,
    "relu": 17758,
    "pipe": 8695,
    "rents": 5308,
    "whar": 15924,
    "Ġinduce": 7763,
    "ember": 1959,
    "Ġwhal": 5454,
    "Ġtid": 8107,
    "igating": 21698,
    "Ġmonosyllable": 20725,
    "Ġbrandy": 11048,
    "Ġrisen": 9491,
    "Ġherb": 15853,
    "Ġspan": 11725,
    "fill": 15348,
    "Ġcompared": 2228,
    ":âĢĶâĢĺ": 24193,
    "discovering": 24251,
    "Ġline": 1851,
    "Ġresented": 22541,
    "uch": 878,
    "Ġfee": 7198,
    "Ġattacking": 24465,
    "Ġunreasonably": 17449,
    "Ġrepositories": 23364,
    "oga": 22711,
    "Ġunconsc": 6552,
    "ident": 3381,
    "distraction": 24200,
    "rop": 539,
    "voice": 7817,
    "Ġcompress": 21854,
    "ellative": 21943,
    "ual": 947,
    "Ġlikened": 16498,
    "Ġdisrespect": 18553,
    "o": 83,
    "xi": 17709,
    "Ġtrumpet": 9572,
    "Ġoutweigh": 22320,
    "atever": 3082,
    "plendent": 21962,
    "Ġczar": 12570,
    "Ġfervently": 25878,
    "Ġdeadliest": 14556,
    "Ġ_": 841,
    "scr": 16236,
    "Ġheight": 4221,
    "Ġheartless": 13070,
    "opposite": 19928,
    "cturn": 17986,
    "Ġimpunity": 14216,
    "Ġprinciples": 10009,
    "ginger": 13161,
    "Ġgirdled": 19157,
    "Ġpostscript": 14806,
    "Ġlength": 2501,
    "obey": 11508,
    "terrific": 25041,
    "Ġsensation": 6896,
    "Ġsatur": 1931,
    "protested": 13472,
    "Ġsex": 8840,
    "ictions": 14225,
    "ants": 1390,
    "hoisted": 19282,
    "quality": 10231,
    "spin": 22732,
    "Ġscarlet": 13220,
    "Ġremove": 7499,
    "Ġankles": 17899,
    "Ġcorpse": 6638,
    "Ġsnugness": 20075,
    "Ġhad": 443,
    "Ġst": 332,
    "impulse": 20644,
    "Ġabreast": 18394,
    "ferred": 16403,
    "Ġunderstood": 5655,
    "Ġentry": 11026,
    "pence": 15407,
    "hen": 3517,
    "Ġformer": 3325,
    "Ġopulence": 23628,
    "vast": 10735,
    "absolutely": 10644,
    "osed": 1964,
    "Ġrapid": 1414,
    "yielded": 25757,
    "Ġagony": 5388,
    "Ġdishonor": 25602,
    "sympathy": 20541,
    "Ġproprietors": 20185,
    "sm": 3437,
    "Ġroving": 22400,
    "Ġconfirming": 25322,
    "Ġtack": 5620,
    "Ġpencils": 23194,
    "Ġfe": 489,
    "itchen": 7788,
    "ĝ": 222,
    "Ġpest": 13911,
    "Ġstructural": 2800,
    "poster": 11055,
    "somers": 19366,
    "Ġconviction": 6326,
    "Ġabhorrence": 9051,
    "schoolmaster": 15159,
    "Ġsnodhead": 19301,
    "Ġbefallen": 12340,
    "Ġkettle": 26233,
    "rigging": 20004,
    "Ġimperfect": 13337,
    "irs": 14068,
    "iday": 8828,
    "Ġoffices": 14337,
    "Ġwheeling": 18286,
    "Ġbeckoning": 20500,
    "inated": 6804,
    "Ġstarts": 16581,
    "ceptive": 15973,
    "Ġjac": 1898,
    "Ġfollowing": 4063,
    "alization": 733,
    "J": 46,
    "Ġhappened": 3717,
    "Ġjo": 2608,
    "frozen": 25140,
    "Ġgills": 17992,
    "apothe": 22332,
    "Ġstrata": 26028,
    "Ġdistributed": 18661,
    "Ġnoblest": 13240,
    "Ġpair": 5706,
    "Ġphrenologically": 20392,
    "Ġfastened": 7065,
    "Ġblack": 2033,
    "evid": 11483,
    "rrh": 26145,
    "Ġostr": 21323,
    "sticks": 25965,
    "Ġoughts": 23899,
    "immediately": 10047,
    "Ġmeas": 1097,
    "Ġwhole": 1665,
    "sincerely": 24586,
    "Ġsevere": 6032,
    "caps": 20806,
    "rom": 420,
    "Ġhaggard": 17328,
    "Ġceleb": 20224,
    "Ġchanged": 5242,
    "Ġbehalf": 14508,
    "Ġsevered": 18203,
    "hors": 9597,
    "Ġautomatically": 3622,
    "Ġmythologies": 26214,
    "thrusting": 20258,
    "unfearing": 21890,
    "young": 7321,
    "Ġnephews": 24714,
    "tra": 4934,
    "Ġwor": 1189,
    "Ġunforgiving": 25996,
    "Đ": 209,
    "important": 7112,
    "Ġinsanity": 12044,
    "Ġvindictiveness": 25739,
    "anging": 3550,
    "chanced": 18811,
    "prophet": 16176,
    "Ġdramatic": 4850,
    "Ġlanyard": 26461,
    "Ġmaintaining": 1510,
    "rudent": 6482,
    "Ġsporting": 16998,
    "Ġmum": 13856,
    "Ġscales": 4849,
    "Ġsmallest": 6430,
    "Ġexpans": 18621,
    "Ġcleaned": 23180,
    "Ġdespair": 4011,
    "Ġmamm": 25091,
    "Ġhauled": 11691,
    "Ġguide": 3219,
    "Ġmeanest": 12906,
    "accept": 8896,
    "steady": 14707,
    "board": 3564,
    "Ġbart": 17857,
    "Ġdocile": 19957,
    "agon": 7872,
    "Ġpointing": 5661,
    "Ġcunning": 6238,
    "Ġnetwork": 451,
    "Ġrepresented": 8937,
    "Ġtongs": 9959,
    "aded": 3548,
    "Ġtested": 23227,
    "ĠâĢĶ": 13809,
    "Ġbutter": 6842,
    "Ġearnestly": 5979,
    "Ġseren": 7401,
    "Ġwhirlpool": 20654,
    "Ġfobbing": 26441,
    "Ġhercules": 14126,
    "Ġasse": 8160,
    "Ġdeg": 3284,
    "ount": 1113,
    "Ġlees": 18075,
    "Ġclos": 4549,
    "Ġgreater": 3039,
    "Ġstories": 10864,
    "Ġcrisis": 13125,
    "Ġcreates": 2010,
    "Ġpalmed": 24089,
    "Ġjib": 14192,
    "Ġcrest": 12937,
    "on": 267,
    "Ġaspects": 4175,
    "ning": 950,
    "Ġoblige": 10487,
    "mid": 5616,
    "Ġfo": 1654,
    "Ġspeak": 2229,
    "Ġ20": 8612,
    "Ġgriev": 16633,
    "Ġdoctor": 5067,
    "Ġnearly": 3365,
    "Ġdegree": 3708,
    "Ġbabes": 24425,
    "Ġemm": 18002,
    "Ġdollars": 11454,
    "Ġlabour": 7274,
    "Ġnegatived": 23047,
    "Ġcompos": 22567,
    "Ġvesu": 21947,
    "mag": 6508,
    "Ġrigger": 19529,
    "Ġilluminate": 17191,
    "Ġdelicate": 6480,
    "Ġguinea": 8946,
    "stamp": 21646,
    "late": 11497,
    "Ġeverlasting": 9335,
    "Ġbehaves": 23301,
    "Ġsilk": 11960,
    "Ġthus": 2036,
    "Ġtarred": 23609,
    "Ġthan": 737,
    "balanced": 14555,
    "blog": 19838,
    "Ġneighbours": 8303,
    "few": 8203,
    "Ġbride": 6291,
    "Ġcaval": 25770,
    "hol": 3841,
    "Ġlou": 6822,
    "Ġsystem": 576,
    "brance": 7284,
    "separation": 25227,
    "dar": 20823,
    "Ġskulls": 12956,
    "Ġpreceded": 13426,
    "Ġepisode": 26347,
    "mir": 20962,
    "Ġbagging": 24539,
    "tting": 17679,
    "tubs": 15128,
    "all": 485,
    "Ġschools": 9475,
    "Ġgourmand": 26466,
    "Ġmerryweather": 9520,
    "Ġembarrassed": 11383,
    "Ġadmeasure": 18293,
    "concerns": 24583,
    "Ġdenny": 9000,
    "Ġsire": 15499,
    "Ġupset": 22150,
    "decided": 13213,
    "Ġarmy": 11738,
    "Ġconcert": 11964,
    "leader": 25352,
    "Ġcrawled": 17043,
    "Ġhonestly": 19970,
    "Ġenc": 967,
    "Ġgreyish": 24208,
    "Ġknees": 6928,
    "Ġsimilarly": 24308,
    "otograph": 5826,
    "Ġcister": 13880,
    "intimate": 22936,
    "Ġcommissionaire": 16999,
    "txt": 12512,
    "Ġthrill": 24541,
    "knows": 19171,
    "hole": 5586,
    "Ġpolynes": 16077,
    "Ġbank": 4877,
    "Ġimpatient": 5602,
    "Ġtransom": 22436,
    "emotion": 21928,
    "Ġyojo": 7610,
    "Ġsleeping": 6319,
    "Ġsupposing": 6729,
    "whereby": 23417,
    "or": 282,
    "Ġremoving": 12113,
    "Ġfurious": 10352,
    "fluke": 25205,
    "ians": 2358,
    "Ġeffected": 14352,
    "Ġgraph": 10901,
    "Ġpuzzled": 7317,
    "Ġeavesdroppers": 25964,
    "anation": 5803,
    "Ġstove": 6733,
    "anting": 6412,
    "Ġaltar": 9227,
    "Ġver": 3395,
    "Ġmeanwhile": 5736,
    "Ġbeside": 5192,
    "Ġcircumference": 13543,
    "smart": 23905,
    "Ą": 197,
    "ran": 11514,
    "Ġardu": 22176,
    "Ġimbib": 22173,
    "Ġplague": 11821,
    "Ġsuccessfully": 19427,
    "included": 19207,
    "recollection": 25349,
    "Ġportion": 7492,
    "edged": 15627,
    "Ġmeasured": 9802,
    "backward": 2682,
    "Ġrio": 23890,
    "tered": 2230,
    "Ġdominant": 12393,
    ",": 16,
    "Ġtransmit": 10303,
    "Ġsick": 4693,
    "Ġornament": 11717,
    "Ġrelish": 14382,
    "ationally": 15701,
    "Ġshook": 4467,
    "rap": 21626,
    "Ġprivacy": 19523,
    "Ġevince": 24293,
    "Ġyork": 11663,
    "ckets": 6843,
    "Ġsickness": 10537,
    "Ġindustry": 18836,
    "Ġdenying": 14657,
    "Ġtimid": 6345,
    "attracted": 13047,
    "urs": 6989,
    "ishe": 13889,
    "Ġmisgivings": 15289,
    "Ġinvis": 6902,
    "Ġunsolved": 22029,
    "Ġadorn": 12786,
    "Ġcomput": 606,
    "Ġwilt": 9642,
    "Ġindistinct": 17406,
    "Ġbutcher": 18271,
    "Ġundo": 15837,
    "Ġgeneralization": 986,
    "quered": 11052,
    "Ġbravely": 23837,
    "Ġcake": 12566,
    "leaning": 10789,
    "Ġwrench": 12553,
    "Ġpatagonian": 20533,
    "Ġsequence": 1978,
    "Ġrepeated": 3834,
    "Ġrap": 14301,
    "Ġpropont": 16347,
    "Ġfacial": 10604,
    "Ġarbitrary": 4736,
    "Ġwol": 15527,
    "asis": 12646,
    "Ġcetus": 19884,
    "holloa": 19462,
    "Ġportcullis": 26603,
    "Ġhindoo": 17174,
    "Ġconstitutional": 25126,
    "anxiety": 25156,
    "Ġspaces": 3114,
    "indef": 17734,
    "Ġcring": 15548,
    "rain": 461,
    "iards": 17573,
    "Ġkirwin": 8495,
    "Ġzodiac": 16172,
    "moon": 10334,
    "inting": 9812,
    "cannibal": 15222,
    "Ġprim": 8244,
    "buffalo": 20562,
    "hue": 20898,
    "impression": 15707,
    "Ġlye": 21549,
    "und": 4119,
    "open": 7025,
    "Ġwidely": 8033,
    "Ġmarrying": 6177,
    "fields": 14652,
    "unable": 14057,
    "manners": 16182,
    "Ġrewarding": 13435,
    "59": 17472,
    "Ġbaggy": 24538,
    "Ġtinge": 25088,
    "sust": 15420,
    "ils": 3184,
    "ectual": 21913,
    "Ġcate": 4110,
    "onds": 12992,
    "Ġcommitting": 22671,
    "though": 2117,
    "Ġreprehensible": 15695,
    "Ġchapter": 2958,
    "soldiers": 25912,
    "concern": 5875,
    "Ġwrenching": 17321,
    "lege": 17841,
    "Ġantagonist": 26329,
    "interrupt": 8614,
    "Ġicebergs": 23974,
    "uish": 5431,
    "Ġmaria": 7124,
    "Ġcommended": 18655,
    "Ġfewer": 16226,
    "Ġoriginated": 24122,
    "Ġleaders": 16626,
    "Ġconceal": 5974,
    "ĠĠĠĠĠĠĠĠĠĠĠĠĠĠĠĠ": 1218,
    "physiogn": 26263,
    "Ġhagger": 21489,
    "Ġindoors": 18835,
    "urrection": 12406,
    "Ġmischie": 22762,
    "Ġrefres": 14332,
    "akened": 7415,
    "Ġconvalescence": 23745,
    "Ġcontribute": 12857,
    "Ġtrust": 4080,
    "Ġmasterless": 23995,
    "held": 3843,
    "tural": 21065,
    "Ġrecognised": 8994,
    "pray": 5429,
    "Ġrecent": 7436,
    "mes": 1196,
    "anely": 17836,
    "Ġobjections": 8563,
    "Ġbooks": 4676,
    "strang": 11182,
    "Ġpoising": 22592,
    "Ġchewed": 16370,
    "different": 6501,
    "exclaimed": 11787,
    "Ġhandsome": 4906,
    "Ġdefinition": 14402,
    "thine": 15821,
    "renched": 7908,
    "arent": 4249,
    "Ġbedford": 7473,
    "Ġbrooded": 23102,
    "Ġraging": 14303,
    "Ġdraughts": 20220,
    "drawn": 9911,
    "Ġrewards": 10847,
    "invariably": 26416,
    "Ġhaving": 1882,
    "Ġantagon": 19549,
    "Ġexistence": 4707,
    "Ġaccounting": 14571,
    "Ġnerves": 2627,
    "Ġpraying": 19553,
    "Ġdoing": 3664,
    "infliction": 25925,
    "sterdam": 19090,
    "Ġcolleague": 17158,
    "Ġtunnel": 14928,
    ".)": 6783,
    "Ġflurry": 18860,
    "Ġshaded": 14103,
    "50": 6784,
    "Ġlargely": 14284,
    "awned": 19458,
    "gammon": 20242,
    "Ġpunchbowl": 20230,
    "Ġfatigued": 13463,
    "Ġinterval": 4054,
    "an": 278,
    "Ġfishing": 9661,
    "dataset": 23271,
    "Ġalike": 8147,
    "Ġsaving": 15883,
    "Ġapproving": 18505,
    "Ġhearty": 9844,
    "Ġhelplessly": 20076,
    "Ġembracing": 14978,
    "Ġgeometric": 3221,
    "Ġsuperst": 7704,
    "Ġcoiling": 12901,
    "Ġparamount": 15875,
    "Ġpetulance": 24227,
    "Ġbuoyancy": 20040,
    "Ġserv": 3331,
    "Ġreminds": 13429,
    "Ġdisappo": 4504,
    "Ġworshipped": 25692,
    "Ġprosper": 10227,
    "Ġsucceeding": 16760,
    "Ġtalks": 23369,
    "uced": 13798,
    "standard": 22426,
    "Ġmilky": 9945,
    "Ġenable": 684,
    "Ġphysi": 9986,
    "Ġmounttop": 19976,
    "urred": 8448,
    "_).âĢĶ": 8680,
    "Ġfacts": 2288,
    "Ġgracefully": 13389,
    "Ġfragmentary": 25857,
    "Ġwoodlands": 23519,
    "Ġmagazine": 23098,
    "pos": 15408,
    "Ġjustification": 22965,
    "Ġremain": 1874,
    "Ġscand": 7203,
    "Ġcommander": 8623,
    "Ġstaid": 21733,
    "icles": 17972,
    "chel": 11205,
    "Ġpardon": 5727,
    "Ġfaint": 5811,
    "Ġalleviated": 26204,
    "poky": 17643,
    "Ġwages": 13852,
    "vius": 23541,
    "advance": 12153,
    "rue": 1132,
    "ribute": 7227,
    "sim": 6510,
    "relatively": 24014,
    "eel": 11482,
    "Ġ1890": 23894,
    "Ġdisadvantage": 12886,
    "Ġtropics": 17065,
    "Ġfet": 5807,
    "Ġconcl": 5095,
    "hatches": 19927,
    "Ġnoted": 15827,
    "Ġmanhat": 22325,
    "Ġaffinity": 18786,
    "ulate": 5233,
    "Ġcursed": 6727,
    "Ġgoverned": 23570,
    "Ġtangle": 25761,
    "quickness": 19850,
    "Ġgamy": 17998,
    "poises": 11888,
    "Ġ50": 24319,
    "iction": 4268,
    "acrity": 14278,
    "Ġmor": 1250,
    "Ġflashes": 11913,
    "scarcely": 12383,
    "murder": 10563,
    "Ġgrowl": 16537,
    "accursed": 20539,
    "Ġwhalemen": 3915,
    "orum": 12586,
    "scheme": 15252,
    "omuch": 21658,
    "Ġwalls": 6762,
    "fierce": 25256,
    "main": 8088,
    "Ġhorns": 11122,
    "anoke": 21359,
    "hr": 20887,
    "Ġrejoice": 10207,
    "Ġaimed": 20249,
    "Ġgaieties": 24195,
    "Ġtools": 11607,
    "iac": 6225,
    "Ġaint": 17743,
    "inav": 15481,
    "Ġwrithed": 17105,
    "Ġgroom": 13964,
    "Ġrenewed": 9536,
    "Ġhereby": 10357,
    "Ġthackeray": 26455,
    "Ġlaw": 3658,
    "isle": 13890,
    "advice": 12154,
    "Ġintruder": 25992,
    "oub": 1634,
    "devoted": 20015,
    "Ġstuff": 5717,
    "Ġcoaxing": 18600,
    "Ġadjusting": 3413,
    "!âĢĿâĢĶ": 8531,
    "Ù": 154,
    "Ġinconvenient": 20008,
    "Ġboyhood": 23755,
    "Ġheroes": 10575,
    "Ġvillainous": 25132,
    "Ġsum": 2700,
    "Ġcompany": 3725,
    "Ġpoetic": 17102,
    "rawling": 21634,
    "iliary": 21724,
    "Ġfeared": 5931,
    "Ġspectacle": 10495,
    "Ġcolours": 12970,
    "Ġadvocate": 13674,
    "Ġweb": 9238,
    "Ġhill": 5626,
    "ilations": 21720,
    "Ġbreathless": 12166,
    "league": 17844,
    "Ġtendency": 11328,
    "pilot": 25909,
    "Ġbaleful": 24985,
    "Ġdam": 2215,
    "savage": 15073,
    "Ġtwitch": 22674,
    "nson": 16090,
    "companion": 9556,
    "msman": 9268,
    "Ġserviceable": 24719,
    "Ġthreaten": 24374,
    "Ġcous": 3438,
    "lives": 12482,
    "knight": 20939,
    ".*": 7331,
    "kinson": 10024,
    "Ġpartners": 11850,
    "Ġbrix": 12579,
    "imperturbable": 25791,
    "acked": 10972,
    "fabulous": 20472,
    "tarpaulins": 26405,
    "Ġmushroom": 13233,
    "Ġork": 18284,
    "blind": 16704,
    "odecimo": 11443,
    "Ġviolin": 16426,
    "blast": 9586,
    "Ġtempt": 5564,
    "Ġastr": 15492,
    "resp": 13837,
    "Ġdegraded": 19226,
    "Ġsaves": 18324,
    "Ġsensitivity": 3073,
    "compared": 24033,
    "Ġcarriage": 3952,
    "Ġfundamental": 3015,
    "Ġnearest": 8468,
    "vap": 13801,
    "Ġambergris": 8704,
    "Ġacquisition": 18899,
    "Ġhorseback": 14848,
    "prosper": 19100,
    "Ġbeings": 2491,
    "daggoo": 13705,
    "le": 279,
    "Ġscratching": 20367,
    "out": 467,
    "Ġricher": 12755,
    "vag": 8764,
    "meas": 7434,
    "Ġcan": 471,
    "Ã": 132,
    "Ġuttermost": 19486,
    "Ġsnatch": 14638,
    "lipped": 16214,
    "Ġdiscu": 4363,
    "Ġspont": 22129,
    "mathematics": 26305,
    "column": 19328,
    "Ġdeduction": 14897,
    "Ġiii": 7861,
    "gir": 8083,
    "conviction": 19963,
    "cripp": 20818,
    "im": 327,
    "Ġdepressions": 25799,
    "Ġlawyer": 10667,
    "vi": 2373,
    "Ġtraveller": 8049,
    "Ġappertain": 22212,
    "Ġsolemn": 4101,
    "although": 8804,
    "Ġtuples": 13475,
    "Ġroar": 9750,
    "Ġflavor": 16250,
    "Ġelephants": 9862,
    "cheeked": 19339,
    "Ġbarb": 4531,
    "Ġoverlooked": 15970,
    "including": 23590,
    "Ġ184": 16606,
    "_)âĢĶ": 20143,
    "azed": 9397,
    "Ġstanding": 3000,
    "Ġoun": 13861,
    "origin": 7581,
    "Ġthrilling": 19747,
    "kily": 20936,
    "Ġfabulous": 25949,
    "Ġcleans": 18947,
    "Ġhumiliating": 22881,
    "Ġpublisher": 24065,
    "ignity": 4373,
    "Ġredress": 23751,
    "conf": 4957,
    "zz": 4292,
    "Ġdoes": 944,
    "Ġdesperado": 19818,
    "Ġinsinuating": 19271,
    "Ġencirc": 18731,
    "Ġcloud": 3914,
    "Ġencoun": 4510,
    "Ġcommenting": 25229,
    "Ġparading": 23710,
    "Ġgaff": 17993,
    "Ġskil": 14350,
    "Ġblended": 16216,
    "cask": 12443,
    "barn": 17481,
    "Ġdank": 21427,
    "Ġcreative": 9828,
    "stein": 5505,
    "accessory": 25500,
    "Ġhers": 7890,
    "Ġdisabled": 18561,
    "Ġcarpets": 18902,
    "Ġrain": 5005,
    "Ġembark": 8559,
    "Ġdiabolical": 20341,
    "Ġbend": 9169,
    "Ġdr": 2826,
    "writer": 14647,
    "banish": 20781,
    ")âĢĶâĢľ": 20742,
    "Ġtouches": 20569,
    "Ġ126": 24471,
    "Ġgothic": 17999,
    "Ġupper": 5090,
    "volutions": 16320,
    "Ġclub": 8872,
    "velope": 17700,
    "Ġhopeful": 19033,
    "Ġin": 291,
    "exception": 9974,
    "wretch": 17707,
    "aunted": 20769,
    "solid": 16378,
    "Ġcorrectly": 9402,
    "tering": 3810,
    "nephew": 26397,
    "racts": 14360,
    "og": 876,
    "Ġhom": 9185,
    "apparatus": 26563,
    "no": 906,
    "Ġclaimed": 14200,
    "Ġconcept": 680,
    "knew": 9125,
    "iverse": 13113,
    "alescing": 23865,
    "Ġmagg": 18905,
    "Ġheidelburgh": 11641,
    "Ġlady": 1589,
    "tree": 11532,
    "oc": 2836,
    "Ġvainly": 9922,
    "errand": 22909,
    "Ġhollowly": 24526,
    "Ġadaptive": 1340,
    "shown": 22454,
    "Ġforeign": 9870,
    "Ġconsec": 21803,
    "throwing": 11700,
    "Ġinsular": 19268,
    "Ġshame": 6410,
    "rosings": 15640,
    "agitation": 14066,
    "leather": 13888,
    "Ġlament": 7857,
    "Ġgrecian": 26297,
    "Ġstretch": 6993,
    "Ġaf": 782,
    "Ġblessing": 11262,
    "Ġwhatsoever": 18460,
    "Ġcomrade": 12280,
    "vib": 21114,
    "Ġsettee": 22919,
    "Ġstory": 2904,
    "Ġyoungest": 7954,
    "retrie": 18922,
    "Ġwipe": 25765,
    "Ġclasp": 9742,
    "octial": 20003,
    "coffin": 10661,
    "Ġoxford": 11370,
    "etween": 775,
    "Ĵ": 245,
    "Ġfill": 5701,
    "Ġlearnedly": 23385,
    "Ġspit": 22122,
    "veh": 12675,
    "Ġholidays": 22921,
    "Ġdestiny": 8982,
    "astern": 8580,
    "Ġprivilege": 11418,
    "Ġfrigate": 13079,
    "reas": 990,
    "Ġrecently": 11859,
    "Ġvibrated": 25046,
    "Ġblew": 9044,
    "teenth": 11871,
    "urements": 18123,
    "Ġtransparency": 10675,
    "cares": 24309,
    "Ġdying": 2136,
    "Ġhand": 858,
    ";âĢĶ": 3753,
    "Ġfathers": 16293,
    "expressed": 9040,
    "Ġextravag": 11253,
    "Ġorthodox": 22093,
    "Ġassuring": 13060,
    "Ġaccelerate": 23225,
    "Ġdissolved": 18554,
    "hook": 12050,
    "ubl": 3596,
    "Ġparched": 11724,
    "Ġlying": 4826,
    "Ġfarthing": 14452,
    "Ġwhelm": 25999,
    "whether": 5319,
    "churning": 21695,
    "such": 3086,
    "Ġcentral": 7728,
    "derest": 18314,
    "Ġunqualified": 22057,
    "Ġtoll": 7852,
    "Ġoffences": 18698,
    "client": 18931,
    "Ġdistribut": 843,
    "orious": 6008,
    "ched": 1548,
    "Ġendeavoured": 4918,
    "Ġengland": 3859,
    "Ġlocks": 11721,
    "acknowledged": 15200,
    "rating": 7809,
    "Ġglossy": 15225,
    "Ġdismast": 12884,
    "Ġsallies": 21228,
    "topic": 10526,
    "Ġcontributed": 16006,
    "fearfully": 25117,
    "Ġded": 2479,
    "Ġsequences": 1751,
    "Ġfaced": 10807,
    "Ġfast": 1717,
    "icit": 3380,
    "enes": 5218,
    "distrustful": 26331,
    "Ġplayfully": 19238,
    "Ġcorroded": 18875,
    "Ġspokes": 18313,
    "Ġgrosvenor": 17416,
    "ari": 670,
    "Ġcopy": 10162,
    "dried": 20826,
    "laz": 15383,
    "spirits": 8055,
    "night": 2169,
    "Ġinvite": 14562,
    "Ġentr": 14338,
    "ilogue": 21722,
    "computer": 1947,
    "Ġdisreputable": 22532,
    "Ġimpet": 11776,
    "war": 6802,
    "Ġdestruction": 6600,
    "Ġartic": 5314,
    "Ġvis": 1080,
    "Ġbrowne": 13299,
    "Ġsteadfastly": 10650,
    "Ġblindly": 12106,
    "Ġcave": 10784,
    "Ġcalculates": 13263,
    "vapor": 25756,
    "notwithstanding": 22753,
    "Ġspanish": 2830,
    "Ġlistener": 16473,
    "Ġimputable": 22171,
    "caught": 8725,
    "Ġado": 7626,
    "company": 9459,
    "Ġsprawling": 22137,
    "Ġlash": 8438,
    "ipt": 12475,
    "ame": 644,
    "Ġfrenchman": 11282,
    "§": 105,
    "raham": 18013,
    "auley": 22620,
    "Ġdraw": 3674,
    "Ġpresc": 15922,
    "inities": 21184,
    "Ġpredecess": 18527,
    "Ġswing": 13033,
    "Ġcondescended": 19954,
    "Ġdiscourage": 3119,
    "Ġairy": 23317,
    "Ġbre": 1913,
    "oters": 21797,
    "nervous": 16275,
    "Ġadieu": 10049,
    "pounds": 21024,
    "Ġwhere": 785,
    "Ġmagnificence": 20631,
    "bon": 13682,
    "Ġengagement": 5397,
    "Ġviolates": 3168,
    "Ġorganisation": 23583,
    "Ġvii": 13106,
    "pans": 13768,
    "Ġprynne": 25541,
    "Ġ----": 7145,
    "Ġcarpenter": 4685,
    "erval": 4020,
    "acit": 16078,
    "Ġcontrols": 1733,
    "Ġcad": 12564,
    "antee": 22095,
    "Ġce": 3033,
    "Ġender": 11687,
    "Ġsteering": 10386,
    "00": 1613,
    "Ġstraightway": 9015,
    "Ġbone": 4695,
    "Ġsy": 490,
    "Ġthomson": 26454,
    "Ġshouldn": 14323,
    "text": 1976,
    "charmed": 21694,
    "mass": 12486,
    "Ġpane": 21461,
    "Ġsurely": 6307,
    "Ġwelcomed": 9480,
    "Ġchannels": 26014,
    "fishers": 24929,
    "Ġvaluable": 5607,
    "Ġbandaged": 16841,
    "Ġmagnitudes": 3825,
    "antediluvian": 24346,
    "Ġcowardice": 17031,
    "Ġteased": 18792,
    "meditation": 19066,
    "knives": 14911,
    "emptied": 23636,
    "dost": 14534,
    "Ġgambler": 26191,
    "Ġinstance": 2545,
    "Ġeditions": 19120,
    "Ġtokens": 1773,
    "cannibals": 25585,
    "contents": 12055,
    "Ġcoffee": 6760,
    "Ġfiend": 4410,
    "Ġdecoding": 3085,
    "connect": 1292,
    "Ġexploitation": 2347,
    "assured": 10951,
    "Ġcoral": 11919,
    "rear": 21231,
    "south": 8758,
    "nursery": 26399,
    "Ġbree": 5012,
    "personal": 24966,
    "glorious": 19365,
    "Ġconsistent": 14527,
    "gang": 17552,
    "Ġresolutely": 14608,
    "Ġlights": 8959,
    "counter": 20277,
    "Ġmenaced": 16290,
    "smith": 5669,
    "Ġtahitian": 25428,
    "cloth": 11934,
    "Ġcommonly": 3267,
    "bene": 6112,
    "Ġincalculable": 17459,
    "Ġexpenses": 11831,
    "Ġstead": 5650,
    "office": 16392,
    "Ġcombining": 22859,
    "flesh": 13488,
    "Ġstubbornness": 25381,
    "Ġpersons": 6180,
    "Ġcolumn": 9326,
    ")(": 2983,
    "Ġirresolute": 24917,
    "Ġeigenvalues": 4998,
    "mselves": 2864,
    "Ġdefe": 21833,
    "Ġbuild": 6474,
    "icacy": 15654,
    "Ġheavily": 6740,
    "©": 107,
    "Ġof": 298,
    "striving": 24670,
    "Ġdestro": 3726,
    "Ġconsideration": 5191,
    "Ġcompliment": 5673,
    "grew": 17554,
    "calm": 8933,
    "Ġpr": 1600,
    "Ġinstruction": 14342,
    "ge": 559,
    "omas": 12672,
    "Ġpacked": 9978,
    "omy": 6249,
    "Ġextraction": 11252,
    "re": 266,
    "stairs": 5155,
    "aped": 3768,
    "Ġbellies": 13353,
    "riving": 21924,
    "Ġstruck": 3391,
    "Ġjail": 22292,
    "buff": 15316,
    "Ġworlds": 11944,
    "private": 13580,
    "Ġlicensing": 20091,
    "extrem": 18708,
    "Ġroarings": 25302,
    "Ġtrades": 8232,
    "mits": 13754,
    "Ġfetching": 16895,
    "Ġscratches": 22284,
    "Ġexcell": 10416,
    "echo": 15346,
    "Ġperiodical": 14770,
    "corrupt": 14893,
    "hur": 6648,
    "egypt": 15347,
    "Ġmarchant": 14783,
    "Ġdanger": 3519,
    "Ġgenealogies": 25962,
    "kered": 18276,
    "who": 2444,
    "Ġumbrella": 15263,
    "Ġclient": 5555,
    "Ġbumpkins": 25282,
    "ctors": 21588,
    "Ġdesolated": 24813,
    "Ġtrait": 23072,
    "rod": 10830,
    "each": 7335,
    "Ġsame": 1343,
    "Ġunobserved": 18246,
    "geons": 15976,
    "ank": 1367,
    "Ġsticking": 13425,
    "¹": 122,
    "earliest": 20118,
    "Ġdagger": 21436,
    "pra": 15405,
    "Ġfibres": 12947,
    "Ġsympathised": 14860,
    "Ġburton": 23652,
    "Ġwhites": 21715,
    "Ġfemales": 14935,
    "Ġdistricts": 20262,
    "Ġcomplaint": 24777,
    "olds": 9309,
    "Ġinsufferable": 13929,
    "Ġimple": 1804,
    "armed": 7251,
    "umul": 1288,
    "Ġgurglings": 26465,
    "pron": 9004,
    "Ġliking": 23591,
    "al": 292,
    "Ġblood": 3171,
    "Ġvishnoo": 12749,
    "Ġcultivation": 17144,
    "Ġwedged": 24070,
    "Ġcontradictory": 20395,
    "achalot": 15860,
    "ories": 4753,
    "Ġverily": 16602,
    "Ġpyramid": 8800,
    "Ġassured": 4371,
    "whale": 2140,
    "Ġinserting": 19905,
    "Ġmanner": 2196,
    "Ġoutdone": 22316,
    "Ġevaluation": 16514,
    "tomahawk": 25916,
    "infer": 10143,
    "Ġserene": 8167,
    "Ġpol": 2576,
    "Ġtem": 806,
    "Ġdispel": 16595,
    "avenue": 25058,
    "Ġhandles": 22693,
    "Ġincantation": 26258,
    "trowsers": 17690,
    "Ġfootfall": 14660,
    "foreign": 18544,
    "Ġsomehow": 4841,
    "osures": 22259,
    "luxur": 25823,
    "Ġconsequences": 11334,
    "aulding": 11338,
    "ela": 21567,
    "Ġendeavored": 19302,
    "Ġreb": 15687,
    "Ġbelongs": 8015,
    "heedful": 20572,
    "Ġmasters": 11573,
    "Ġfavourable": 7959,
    "Ġreaders": 18914,
    "âĢľâĢĻ": 10220,
    "Ġrocks": 6863,
    "Ġfacet": 15581,
    "Ġupbraid": 18317,
    "nantucket": 7805,
    "Ġblind": 3720,
    "Ġtwice": 4661,
    "values": 4973,
    "liest": 6294,
    "Ġstrict": 7221,
    "Ġchoice": 2167,
    "Ġcardboard": 19977,
    "Ġacute": 16120,
    "damp": 15341,
    "tempestuous": 26098,
    "Ġamelia": 26252,
    "Ġlikelihood": 16499,
    "derness": 11734,
    "Ġwilliam": 3483,
    "Ġsecret": 3724,
    "Ġfearfully": 23510,
    "Ġsibbald": 21229,
    "Ġbeard": 11653,
    "Ġfinanc": 23126,
    "injured": 15130,
    "fall": 5135,
    "Ġbrightly": 13221,
    "Ġweltering": 19584,
    "ineff": 21964,
    "Ġcetacea": 20552,
    "Ġwound": 4528,
    "ributed": 8215,
    "Ġaffected": 5576,
    "limin": 8383,
    "Ġexplicit": 3589,
    "Ġjew": 9466,
    "Ġstrive": 23690,
    "inative": 15482,
    "hunted": 16831,
    "inv": 8400,
    "Ġprovid": 1009,
    "Ġpal": 4042,
    "Ġcrowds": 14737,
    "Ġexperiments": 23031,
    "Ġnorthumbria": 24171,
    "utted": 15657,
    "vex": 21696,
    "Ġcompacted": 23507,
    "Ġanticip": 7507,
    "Ġworse": 4719,
    "Ġgun": 4702,
    "cl": 1495,
    "el": 306,
    "Ġobligations": 12088,
    "entreat": 17975,
    "Ġlesson": 7276,
    "Ġcorrection": 5062,
    "Ġbrilliant": 11413,
    "Ġprogen": 14037,
    "addressed": 13383,
    "Ġoppressed": 11188,
    "hem": 6663,
    "oice": 1383,
    "Ġentered": 2848,
    "presbyterian": 26369,
    "sey": 5542,
    "Ġdesper": 6176,
    "Ġlanc": 19763,
    "imely": 13996,
    "Ġcheshire": 13088,
    "ineer": 11696,
    "ign": 1705,
    "bitt": 17484,
    "humor": 19450,
    "ials": 11703,
    "departure": 15232,
    "Ġgetting": 4066,
    "Ġhugest": 17014,
    "Ġnot": 412,
    "erably": 7573,
    "circumstantial": 24444,
    "Ġvineyard": 12327,
    "bly": 6110,
    "ucket": 2484,
    "onet": 12541,
    "Ġpurchas": 19873,
    "Ġdressed": 5081,
    "formal": 14166,
    "Ġmanager": 11766,
    "Ġcab": 2633,
    "weigh": 18665,
    "served": 5043,
    "Ġcherish": 10588,
    "Ġunsupplied": 22039,
    "Ġdone": 1818,
    "brad": 20780,
    "Ġsymmet": 11744,
    "Ġcanal": 8182,
    "ĠĠĠĠĠĠĠĠĠĠĠĠĠĠĠĠĠĠĠĠĠĠĠĠĠĠĠĠĠĠĠĠĠĠĠĠĠĠĠĠĠĠĠĠĠĠĠ": 16754,
    "ilty": 6394,
    "Ġjapanese": 10631,
    "Ġhoarsely": 26303,
    "ý": 190,
    "Ġcoinc": 11000,
    "Ġassaulted": 25321,
    "Ġsord": 21218,
    "report": 13397,
    "âĢĿ--": 21811,
    "Ġpeaceable": 14721,
    "jabez": 20932,
    "Ġnumerical": 4245,
    "lucifer": 25303,
    "produced": 25415,
    "Ġdull": 6384,
    "Ġplatonian": 25119,
    "aution": 9385,
    "ithmetic": 18061,
    "ographical": 16785,
    "abiding": 21791,
    "Ġbulwarks": 5591,
    "Ġmincer": 14362,
    "trem": 17680,
    "tese": 21082,
    "Ġetext": 23949,
    "Ġalmost": 1659,
    "Ġalex": 15131,
    "il": 329,
    "increased": 20269,
    "ĠâĢĶâĢľ_": 17717,
    "deserving": 17240,
    "Ġwhel": 15863,
    "Ġquick": 2581,
    "Ġeduc": 4785,
    "Ġruled": 22785,
    "Ġbury": 12038,
    "_.": 2212,
    "musket": 25342,
    "years": 6883,
    "kles": 17583,
    "esting": 7412,
    "Ġheadland": 22898,
    "speps": 14331,
    "Ġnonce": 23234,
    "Ġdeliciousness": 24127,
    "depths": 25664,
    "morning": 4859,
    "Ġx": 2072,
    "accusations": 23599,
    "prolong": 23394,
    "Ġexplaining": 15957,
    "](": 11465,
    "istically": 14140,
    "Ġdeferred": 18825,
    "Ġceaseless": 13486,
    "sacrifice": 13490,
    "Ġmac": 15535,
    "Ġorphans": 20203,
    "ħ": 232,
    "Ġacquired": 13040,
    "Ġhunger": 8565,
    "Ġpos": 1011,
    "Ġdab": 15584,
    "itous": 13865,
    "landlord": 9838,
    "cheer": 9435,
    "warrant": 21136,
    "singing": 24363,
    "Ġreveries": 11346,
    "features": 14790,
    "Ġrows": 10560,
    "Ġbenjam": 22892,
    "Ġleadenhall": 16627,
    "âĢĶ.": 11752,
    "abetical": 15739,
    "upon": 2722,
    "Ġpine": 8795,
    "Ġsurmises": 17054,
    "Ġspeeches": 22661,
    "Ġcame": 1300,
    "ickering": 22668,
    "Ġcalculating": 9923,
    "þ": 191,
    "Ġomin": 11575,
    "own": 744,
    "ilent": 21718,
    "rians": 21923,
    "exam": 10975,
    "Ġpassing": 4314,
    "Ġshifted": 14105,
    "ape": 1905,
    "plifted": 9709,
    "Ġstop": 2502,
    "Ġexpanse": 14290,
    "superstitious": 17279,
    "Ġbir": 17853,
    "ended": 1834,
    "rem": 1523,
    "Ġdeductions": 19731,
    "Ġcomplexion": 8212,
    "nearer": 22448,
    "Ġdirty": 9177,
    "reed": 6373,
    "Ġimpl": 7195,
    "Ġsweetness": 9444,
    "slept": 17168,
    "Ġsuggestive": 11296,
    "bit": 3934,
    "Ġripple": 25505,
    "else": 6533,
    "Ġsable": 15498,
    "Ġimpreg": 15985,
    "mises": 20977,
    "Ġmisanthrop": 22761,
    "inserted": 18888,
    "Ġbath": 9657,
    "Ġexile": 12713,
    "icated": 7590,
    "Ġlined": 15646,
    "mas": 5212,
    "niece": 20994,
    "Ġsighed": 10336,
    "game": 11489,
    "boo": 16348,
    "rer": 3625,
    "ell": 398,
    "quarried": 24946,
    "ldog": 21915,
    "dragging": 16608,
    "sank": 17661,
    "Ġeleven": 9388,
    ",âĢĻâĢĶ": 23525,
    "Ġfest": 10803,
    "metals": 24767,
    "spout": 7924,
    "begging": 22495,
    "lighted": 23754,
    "converse": 22471,
    "utch": 21584,
    "Ġwal": 6517,
    "swift": 14850,
    "Ġlandlord": 5580,
    "Ġpostmark": 16724,
    "Ġguests": 12284,
    "nelson": 25621,
    "Ġadvis": 9808,
    "\"": 6,
    "Ġhalting": 16272,
    "Ġcrystal": 17213,
    "Ġburgled": 23653,
    "drawing": 10485,
    "green": 7115,
    "Ġperplexed": 23658,
    "Ġtwopence": 18660,
    "Ġgodlike": 23357,
    "Ġ90": 24590,
    "Ġbrew": 23344,
    "cules": 12388,
    "ulled": 14054,
    "Ġaccounted": 10293,
    "Ġresolved": 3801,
    "Ġencoder": 3638,
    "Ġgrinned": 16856,
    "Ġsettle": 6293,
    "Ġwaned": 17791,
    "Ġsmall": 894,
    "Ġconsecrate": 26489,
    "Ġdetained": 18375,
    "Ġfidelity": 15239,
    "Ġstagger": 10590,
    "Ġhay": 11603,
    "rely": 6123,
    "Ġfoolish": 5980,
    "Ġbos": 4875,
    "Ġbye": 12734,
    "log": 18534,
    "Ġfarm": 7841,
    "helmsman": 24287,
    "Ġconsent": 5372,
    "Ġpelt": 15606,
    "Ġunreserved": 19395,
    "Ġchag": 15928,
    "Ġmutineer": 19416,
    "Ġcheat": 19023,
    "Ġawe": 7147,
    "Ġincommod": 25308,
    "Ġferocity": 16870,
    "Ġhunks": 18935,
    "Ġbegins": 7244,
    "Ġyawned": 15050,
    "mira": 20978,
    "ascertain": 21541,
    "Ġentreaty": 10528,
    "Ġbreeding": 14521,
    "poling": 12216,
    "lot": 3210,
    "ech": 4388,
    "Ġsympathise": 16793,
    "needle": 20309,
    "rised": 10122,
    "erranean": 9332,
    "Ġservices": 11216,
    "Ġterrified": 14670,
    "Ġmarine": 23034,
    "Ġstays": 16560,
    "urious": 21701,
    "Ġcogn": 11001,
    "Ġsupremacy": 20259,
    "our": 534,
    "oquence": 11385,
    "iving": 1727,
    "Ġbelie": 14404,
    "Ġmainly": 22659,
    "arers": 12126,
    "onom": 9157,
    "aus": 1503,
    "Ġstump": 7602,
    "Ġjur": 12830,
    "Ġdeployment": 11209,
    "Ġdo": 511,
    "conceivable": 17129,
    "delights": 19700,
    "Ġpulse": 13112,
    "Ġhidden": 1375,
    "Ġservant": 5764,
    "Ġgrowing": 6750,
    "miserable": 8655,
    "Ġlan": 5820,
    "Ġdaft": 19662,
    "rece": 21233,
    "mix": 20973,
    "Ġperforming": 7928,
    "causes": 20342,
    "Ġ&": 6513,
    "Ġconcentration": 25063,
    "Ġbattering": 13899,
    "Ġrefusing": 11023,
    "Ġvint": 18194,
    "ibule": 13003,
    "onged": 18410,
    "ush": 3635,
    "Ġhired": 10176,
    "weave": 22683,
    "Ġsummons": 13229,
    "consp": 18502,
    "Ġsatir": 18796,
    "Ġmonogram": 26574,
    "Ġeldest": 6571,
    "Ġknowledge": 1445,
    "stretch": 13974,
    "big": 13683,
    "Ġcachalot": 17834,
    "itated": 4439,
    "Ġintegr": 7969,
    "Ġtigris": 25760,
    "influ": 9539,
    "Ġgul": 7860,
    "Ġshells": 20362,
    "Ġn": 300,
    "measure": 10029,
    "Ġasser": 6257,
    "downward": 16618,
    "estab": 14169,
    "instant": 8650,
    "Ġrescued": 24206,
    "Ġhardly": 2431,
    "Ġplant": 8898,
    "Ġcocoanuts": 26363,
    "within": 6730,
    "Ġ63": 24366,
    "Ġforeseeing": 23450,
    "Ġmechan": 1198,
    "being": 3916,
    "Ġbeautiful": 3675,
    "Ġhue": 8428,
    "Ġcaring": 23090,
    "avering": 24794,
    "Ġforbade": 15212,
    "Ġindications": 14631,
    "Ġthinkings": 22811,
    "Ġprofound": 5497,
    "club": 26380,
    "reputation": 15513,
    "petulance": 24299,
    "infl": 15485,
    "Ġstacked": 21741,
    "Ġshone": 7404,
    "promised": 12248,
    "ro": 301,
    "Ġshilling": 18228,
    "Ġrejoicing": 13419,
    "Ġshrieking": 24759,
    "Ġconsc": 4274,
    "Ġcolder": 22851,
    "rals": 21041,
    "brÃ¦": 11174,
    "Ġcircles": 7967,
    "Ġqueens": 16705,
    "Ġaddress": 2272,
    "harpooned": 24286,
    "Ġharpoons": 5659,
    "perpetually": 20511,
    "Ġopens": 23627,
    "Ġensuring": 11190,
    "execut": 13653,
    "Ġheaped": 18037,
    "Ġostent": 13582,
    "rises": 17654,
    "Ġoftener": 13563,
    "Ġrambles": 17183,
    "Ġsuperfluous": 17412,
    "Ġtawn": 13821,
    "vard": 21109,
    "Ġtails": 9900,
    "Ġdepartments": 24242,
    "Ġdepose": 22587,
    "Ġtremendous": 8353,
    "orn": 2243,
    "derbyshire": 18321,
    "Ġcompanies": 14557,
    "Ġlandowner": 23380,
    "Ġvexed": 9992,
    "Ġcaution": 11345,
    "feed": 9291,
    "Ġillustrative": 25067,
    "Ġmyself": 1454,
    "arth": 4442,
    "Ġdepending": 14286,
    "Ġensuing": 12306,
    "od": 355,
    "Ġpap": 8796,
    "Ġcomra": 7183,
    "unlike": 18156,
    "reflected": 24734,
    "Ġcutting": 4983,
    "Ġdeaden": 23460,
    "nose": 17609,
    "creatures": 7517,
    "Ġmurky": 19201,
    "Ġinterment": 22572,
    "Ġsp": 457,
    "belated": 24037,
    "Ġpersecutor": 26097,
    "Ġincorpor": 13163,
    "Ġunconscious": 9545,
    "Ġassume": 10514,
    "persuade": 13531,
    "atra": 17770,
    "dy": 3865,
    "ateg": 1319,
    "Ġuttering": 16460,
    "doc": 23375,
    "Ġinsufficient": 9671,
    "Ġfilters": 3930,
    "uses": 11758,
    "Ġcomparative": 10541,
    "ane": 1178,
    "Ġadie": 8487,
    "Ġknives": 14835,
    "Ġlens": 8437,
    "Ġsimulation": 2752,
    "Ġspikes": 22134,
    "Ġmermaids": 26171,
    "Ġcalmer": 23043,
    "bourne": 19102,
    "inex": 14090,
    "Ġlingered": 13503,
    "ratches": 20123,
    "Ġbustle": 17226,
    "Ġfishery": 4176,
    "Ġcrusad": 23703,
    "Ġexpensive": 12913,
    "Ġwarned": 16879,
    "tum": 11530,
    "Ġsteeply": 23723,
    "Ġbrothers": 13175,
    "Ġridic": 7508,
    "itar": 15543,
    "Ġmoss": 9282,
    "ity": 417,
    "Ġharvest": 13413,
    "generous": 16567,
    "Ġinvoluntary": 18762,
    "Ġbrim": 12972,
    "miniature": 16764,
    "Ġjoin": 4853,
    "adie": 18088,
    "favourable": 12260,
    "eze": 20846,
    "Ġdeified": 18137,
    "pure": 17625,
    "Ġpertur": 12847,
    "stiff": 12670,
    "Ġfoundering": 21418,
    "lucky": 24545,
    "igation": 5918,
    "Ġrelief": 6060,
    "Ġentering": 6286,
    "urns": 10212,
    "Ġwild": 2601,
    "tables": 19756,
    ".âĢĶâĢľ": 20746,
    "knife": 6942,
    "rowing": 7931,
    "aying": 15745,
    "Ġfret": 10805,
    "aul": 6352,
    "ppo": 18175,
    "ruff": 15894,
    "ration": 2005,
    "Ġmidst": 7986,
    "judge": 13334,
    "aker": 3666,
    "Ġwhichever": 13998,
    "Ġprender": 22233,
    "Ġdigress": 24649,
    "Ġimpelled": 11779,
    "Ġpropontis": 17464,
    "Ġverge": 23886,
    "Ġmechanisms": 1578,
    "disgu": 19153,
    "Ġser": 1674,
    "Ġfashioned": 13318,
    "Ġagricultural": 26550,
    "Ġabstracted": 17181,
    "Ġexulting": 20257,
    "Ġemer": 5959,
    "Ġrespectfully": 18994,
    "Ġdepicted": 14273,
    "Ġorganization": 7984,
    "okened": 15981,
    "Ġjup": 15949,
    "Ġswamp": 14434,
    "tumult": 12420,
    "ittingly": 18807,
    "Ġprehensile": 26534,
    "Ġretreating": 19798,
    "sicilian": 21062,
    "pidation": 18884,
    "Ġconcussion": 26301,
    "Ġbespe": 19241,
    "Ġsinging": 7724,
    "thereby": 14445,
    "prudently": 21033,
    "wick": 5362,
    "Ġsinew": 25432,
    "Ġbusiness": 2233,
    "project": 16422,
    "ascended": 24707,
    "pencil": 18827,
    "Ġchurches": 12824,
    "Ġaisle": 21200,
    "Ġcorrespondent": 19821,
    "Ġtablets": 13153,
    "Ġdisappearing": 22531,
    "Ġapothe": 12372,
    "oward": 6021,
    "Ġnor": 1553,
    "Ġnathan": 21524,
    "unvarying": 21885,
    "Ġfedallah": 6108,
    "oves": 15401,
    "ana": 15555,
    "Ġwest": 5219,
    ".âĢĻ": 1720,
    "distinction": 19570,
    "canst": 22960,
    "Ġaffidavit": 20723,
    "chamber": 13623,
    "ishment": 3505,
    "Ġnine": 5369,
    "emporary": 15794,
    "sales": 17666,
    "Ġbreathes": 13244,
    "dies": 15336,
    "Ġfields": 2142,
    "ever": 1076,
    "Ġanecd": 20153,
    "otions": 7180,
    "Ġalgorithm": 773,
    "Ġjoys": 13217,
    "glimmer": 26322,
    "Ġminds": 6303,
    "preading": 18491,
    "acles": 8518,
    "Ġtro": 7356,
    "Ġquies": 18464,
    "igner": 21700,
    "affect": 13210,
    "nep": 20985,
    "Ġsocial": 7006,
    "Ġjulia": 22300,
    "Ġtrop": 7565,
    "ringle": 21039,
    "Ġpivot": 13921,
    "Ġshows": 8481,
    "Ġfabric": 25948,
    "using": 5468,
    "Ġneurons": 979,
    "Ġlat": 5087,
    "Ġvers": 7563,
    "Ġhire": 21483,
    "sugg": 11838,
    "Ġhalloa": 13314,
    "marry": 13321,
    "Ġneglecting": 25008,
    "Ġ111": 24436,
    ":âĢĶ": 4430,
    "discoloured": 23497,
    "Ġpromising": 10398,
    "Ġclubbed": 26546,
    "Ġvulture": 17337,
    "Ġcomplement": 23709,
    "tier": 12511,
    "Ġmachinations": 25768,
    "uned": 21869,
    "Ġnote": 4263,
    "ilburn": 18059,
    "Ġclaws": 15963,
    "oe": 7552,
    "ssible": 2994,
    "Ġporpoises": 13380,
    "Ġdated": 10937,
    "Ġtrapped": 23075,
    "Ġpredictions": 1455,
    "antic": 1605,
    "Ġkentuckian": 26343,
    "Ġlieu": 19563,
    "independ": 15978,
    "also": 7851,
    "Ġfeather": 8858,
    "Ġdevouring": 11855,
    "Ġpale": 4532,
    "Ġwindward": 6885,
    "å": 166,
    "snapping": 24850,
    "Ġmonday": 6127,
    "istered": 14141,
    "jo": 3755,
    "Ġconverse": 11844,
    "Ġmilitia": 13315,
    "dishonourable": 26366,
    "ccess": 3185,
    "Ġkn": 4546,
    "Ġdistraction": 22503,
    "whiskers": 12308,
    "Ġvigilant": 20183,
    "Ġemergency": 25732,
    "Ġdisco": 3429,
    "inea": 7622,
    "hideous": 25408,
    "escript": 18469,
    "several": 5543,
    "Ġfavours": 23281,
    "Ġspl": 2986,
    "turns": 14904,
    "Ġalthough": 4152,
    "Ġplanted": 9772,
    "dark": 5613,
    "Ġetc": 7084,
    "Ġaghast": 16044,
    "Ġrowing": 10299,
    "twenty": 6607,
    "elstrom": 17981,
    "zetts": 17713,
    "Ġfrequ": 3330,
    "div": 8076,
    "Ġcapacious": 19175,
    "Ġins": 2783,
    "Ġobservations": 13551,
    "Ġjudge": 5502,
    "Ġpreferred": 14964,
    "Ġmischief": 8540,
    "Ġmonsters": 11073,
    "bons": 17485,
    "Ġreceiving": 4882,
    "Ġsize": 1216,
    "Ġrightly": 13061,
    "Ġsteadfast": 8677,
    "Ġcreaking": 14326,
    "Ġmur": 2490,
    "I": 45,
    "Ġsedentary": 25431,
    "Ġstatements": 7516,
    "Ġaffectionate": 5584,
    "S": 55,
    "Ġmediterranean": 12312,
    "Ġminority": 18752,
    "Ġupbraiding": 26227,
    "Ġfem": 6134,
    "context": 3405,
    "Ġalmanac": 26485,
    "<UNK>": 3,
    "Ġmogul": 12858,
    "Ġjeopardized": 20229,
    "Ġworsh": 12996,
    "Ġhelmsman": 10503,
    "Ġshoes": 7071,
    "angle": 22102,
    "Ġaccordingly": 6619,
    "hack": 20895,
    "acters": 9307,
    "onse": 21248,
    "Ġacre": 22679,
    "Ġnantucketers": 9893,
    "prow": 15409,
    "arle": 21439,
    "nowled": 5470,
    "Ġonto": 14026,
    "Ġbusily": 9382,
    "vous": 2253,
    "Ġexact": 2543,
    "iforn": 14062,
    "Ġindians": 14407,
    "ced": 697,
    "Ġmanifested": 17156,
    "lab": 3457,
    "sum": 2086,
    "Ġmethodically": 23183,
    "exceeded": 25002,
    "ips": 2592,
    "pered": 4199,
    "phere": 21018,
    "Ġingrat": 16839,
    "anean": 7443,
    "quarrel": 20013,
    "rowed": 22861,
    "Ġcounterbalance": 24723,
    "Ġday": 957,
    "Ġprovoked": 13323,
    "Ġ128": 24473,
    "Ġcomprehend": 6494,
    "Ġlinn": 13951,
    "Ġrescue": 13340,
    "Ġcouldn": 7648,
    "Ġlacey": 10196,
    "george": 26020,
    "Ġcrane": 23439,
    "Ġocean": 3307,
    "Ġoldest": 12969,
    "isles": 15560,
    "ances": 1338,
    "à": 161,
    "loveliness": 26549,
    "oder": 2458,
    "Ġrepulsive": 14529,
    "pierced": 26142,
    "Ġhimmalehs": 26230,
    "Ġwarn": 5695,
    "Ġunfeeling": 14116,
    "Ġvacantly": 16814,
    "Ġthack": 21515,
    "aky": 18411,
    "Ġengage": 9333,
    "ner": 1372,
    "Ġaye": 3354,
    "Ġsentence": 6187,
    "Ġpon": 10174,
    "ks": 3148,
    "Ġmany": 1105,
    "Ġlived": 3992,
    "agra": 14064,
    "Ġhardware": 4904,
    "Ġdreaming": 11222,
    "Ġpenn": 11110,
    "Ġconcernment": 23622,
    "gunwale": 20662,
    "Ġintertw": 18588,
    "Ġauthors": 10415,
    "ef": 5134,
    "Ġsteal": 16281,
    "doors": 19094,
    "igin": 3659,
    "rupt": 3213,
    "Ġvestige": 20061,
    "Ġdivine": 6921,
    "liable": 3821,
    "atter": 660,
    "Ġslippers": 19614,
    "Ġmechanical": 7938,
    "Ġbashee": 19848,
    "obscure": 23096,
    "Ġxiv": 23407,
    "Ġkramm": 26234,
    "girdling": 26389,
    "Ġloops": 8851,
    "Ġdivergence": 2728,
    "Ġtechn": 9364,
    "Ġgentleness": 8708,
    "lesson": 22775,
    "Ġimpress": 6862,
    "fury": 17546,
    "Ġraft": 16106,
    "Ġprevented": 5942,
    "Ġfollowed": 1795,
    "scales": 22986,
    "Ã¦": 4336,
    "left": 6975,
    "Ġfair": 2840,
    "Ġbands": 14882,
    "Ġextend": 18697,
    "Ġcit": 10782,
    "wore": 21123,
    "luckily": 19751,
    "ime": 626,
    "Ġcelebrated": 13592,
    "Ġshears": 18319,
    "Ġworks": 5857,
    "Ġmaternal": 11058,
    "Ġrepublican": 17410,
    "Ġfierce": 7437,
    "Ġincivility": 18572,
    "eat": 11481,
    "Ġmeat": 8152,
    "Ġintercourse": 10997,
    "Ġconfeder": 25709,
    "Ġentropy": 2031,
    "Ġsledge": 8111,
    "seamen": 13624,
    "Ġtubs": 11369,
    "Ġrom": 4525,
    "Ġpugn": 21478,
    "Ġcoarsely": 25829,
    "Y": 61,
    "Ġcomplaints": 12261,
    "additional": 20462,
    "Ġrag": 18634,
    "),": 1348,
    "Ġrealise": 16334,
    "Ġmetropolitan": 17274,
    "anum": 17835,
    "adieu": 26201,
    ".âĢĶ": 4248,
    "court": 7511,
    "frankly": 20020,
    "Ġextinguish": 14336,
    "Ġhysterics": 26094,
    "Ġlids": 12272,
    "Ġcalmly": 7734,
    "Ġox": 7153,
    "attended": 8951,
    "Ġtougher": 21175,
    "Ġpad": 8125,
    "Ġack": 5621,
    "Ġdoc": 7200,
    "://": 11464,
    "Ġslices": 23163,
    "Ġbrougham": 17870,
    "Ġstops": 3169,
    "Ġsalut": 10508,
    "aboard": 21792,
    "Ġalpine": 18105,
    "Ġwooden": 4730,
    "without": 4846,
    "aching": 5831,
    "slight": 10726,
    "curiosity": 8622,
    "Ġperfect": 2556,
    "Ġfinite": 2324,
    "mill": 13752,
    "Ġchisel": 20366,
    "Ġcurb": 16240,
    "omet": 3079,
    "Ġcongregation": 12326,
    "Ġmaddening": 17242,
    "Ġchemical": 10409,
    "Ġscript": 18398,
    "Ġfishers": 19352,
    "Ġjealousy": 13574,
    "Ġcalifornian": 25852,
    "Ġpool": 5173,
    "Ġsigh": 10335,
    "Ġinputs": 844,
    "Ġrevolver": 14896,
    "Ġpeddler": 24801,
    "Ġmodest": 15917,
    "solitude": 23297,
    "Ġark": 10274,
    "Ġcatastrop": 3349,
    "Ġvector": 1974,
    "uctive": 17695,
    "Ġimpropriety": 17393,
    "Ġseized": 4833,
    "Ġemploy": 3616,
    "rooms": 10431,
    "Ġspong": 15878,
    "pain": 7350,
    "Ġplanisp": 24057,
    "Ġvinc": 14083,
    "Ġimpat": 4455,
    "Ġinert": 15618,
    "Ġcomstock": 21856,
    "ortion": 11754,
    "Ġbeaufort": 13566,
    "Ġweakness": 9965,
    "abst": 21786,
    "Ġishmael": 7395,
    "their": 2541,
    "Ġdestructive": 23486,
    "ara": 12602,
    "happiest": 19331,
    "onely": 6516,
    "Ġkindliness": 23295,
    "voyages": 24856,
    "Ġdeveloped": 16336,
    "Ġcoco": 10999,
    "Ġrevolution": 3308,
    "Ġhailed": 6407,
    "passed": 8026,
    "Ġrestore": 9378,
    "Ġcatholic": 20680,
    "Ġcorrupt": 11920,
    "Ġlandsmen": 11350,
    "Ġsacri": 18328,
    "Ġblasp": 14398,
    "Ġap": 5008,
    "Ġphysiogn": 12385,
    "Ġtheir": 643,
    "Ġ99": 10744,
    "Ġstiff": 6992,
    "Ġoath": 7834,
    "Ġslates": 11105,
    "anger": 2173,
    "aware": 16292,
    "Ġmizen": 17257,
    "Ġdisposing": 19373,
    "forest": 22516,
    "Ġmississ": 18837,
    "Ġfaltering": 17884,
    "Ġnest": 10187,
    "Ġclosely": 6488,
    "usation": 18401,
    "apothecary": 26545,
    "rebellum": 26166,
    "itime": 15544,
    "Ġcalam": 13030,
    "rocious": 21537,
    "Ġinvolving": 18761,
    "rum": 3416,
    "occasional": 19575,
    "elements": 25204,
    "Ġindeed": 1682,
    "japan": 15372,
    "Ġcurtains": 22994,
    "fooled": 24419,
    "Ġbeach": 6541,
    "amidst": 25653,
    "Ġstum": 21729,
    "inferiors": 25347,
    "Ġconflict": 17272,
    "Ġsegment": 12753,
    "Ġlegisl": 23534,
    "Ġrecollecting": 17112,
    "Ġling": 7377,
    "Ġagitated": 7647,
    "Ġneskye": 21529,
    "Ġworms": 25217,
    "Ġ33": 16675,
    "Ġinvari": 6529,
    "interrupted": 11416,
    "Ġtrials": 16788,
    "Ġninety": 13599,
    "guess": 14759,
    "Ġattained": 14076,
    "Ġheal": 21679,
    "Ġadmon": 15865,
    "Ġembarks": 22996,
    "ario": 14246,
    "press": 1732,
    "Ġresidual": 1681,
    "remain": 9836,
    "Ġjabez": 11763,
    "Ġfull": 2178,
    "Ġinterven": 10996,
    "iting": 2158,
    "Ġsaleve": 17389,
    "Ġpriv": 4183,
    "finally": 9497,
    "Ġscorching": 20066,
    "Ġlic": 8435,
    "rable": 11630,
    "unts": 12727,
    "accur": 14592,
    "Ġelbow": 12917,
    "streets": 13393,
    "Ġdearer": 14047,
    "Ġpeople": 2544,
    "Ġinmost": 17930,
    "umn": 5835,
    "rub": 15892,
    "Ġaccused": 8506,
    "Ġshrunk": 16717,
    "ut": 308,
    "Ġblast": 7445,
    "sc": 1258,
    "lodged": 25908,
    "sincere": 16906,
    "wont": 21131,
    "Ġextinguished": 10342,
    "anced": 1318,
    "Ġbathe": 25444,
    "refusal": 24737,
    "Ġraises": 11839,
    "Ġservox": 23869,
    "Ġcatching": 9476,
    "Ġsympathising": 24297,
    "Ġsturgeon": 20590,
    "oard": 4809,
    "Ġty": 6657,
    "Ġintellect": 8170,
    "Ġdeft": 21834,
    "Ġgreedily": 18966,
    "headers": 23107,
    "Ġgallon": 24184,
    "Ġhaughty": 11448,
    "till": 6965,
    "entimes": 12652,
    "pause": 12497,
    "investments": 25533,
    "ĥ": 230,
    "ĠĠĠĠĠĠĠĠĠĠĠĠĠĠĠĠĠĠĠĠĠĠĠĠĠĠĠĠĠĠĠĠĠĠĠĠĠĠĠĠĠĠĠĠĠĠĠĠ": 7989,
    "Ġadagrad": 2906,
    "Ġpertin": 18450,
    "Ġpainful": 6462,
    "Ġdivinely": 25724,
    "Ġintrodu": 1926,
    "Ġplaint": 10324,
    "year": 11094,
    "Ġwindigate": 18910,
    "gage": 13721,
    "ensions": 14257,
    "kward": 6958,
    "blow": 9102,
    "Ġpoltroon": 26598,
    "cement": 2882,
    "Ġsorting": 3236,
    "reserve": 17764,
    "Ġrese": 2108,
    "Ġmacy": 19353,
    "arr": 3046,
    "Ġfile": 13901,
    "Ġsalad": 19477,
    "etrics": 21583,
    "Ġmar": 1310,
    "weaknesses": 26031,
    "suspended": 15175,
    "ands": 21864,
    "commend": 19991,
    "made": 4808,
    "Ġbanquet": 15238,
    "olidity": 18132,
    "painting": 17045,
    "Ġele": 1966,
    "Ġslighted": 16566,
    "cords": 25137,
    "Ġhebrew": 13986,
    "Ġinvolves": 1088,
    "Ġebb": 21620,
    "Ġexplain": 545,
    "Ġabandonment": 25604,
    "Ġcoolness": 16885,
    "Ø": 153,
    "plague": 21957,
    "entrance": 12653,
    "Ġmouthfuls": 20645,
    "Ġarrest": 7409,
    "Ġgreeted": 23211,
    "Ġodious": 12147,
    "Ġleaks": 16446,
    "Ġmorcar": 13007,
    "mo": 862,
    "Ġbriskly": 25312,
    "irect": 5552,
    "Ġcursory": 18856,
    "Ġmute": 19414,
    "cription": 20817,
    "Ġnantucketer": 6914,
    "Ġacted": 7422,
    "Ġannals": 17898,
    "outh": 2687,
    "Ġfountain": 7365,
    "Ġasiatics": 20429,
    "aintance": 3569,
    "Ġoffice": 4965,
    "Ġcontrol": 13077,
    "oved": 5215,
    "Ġconfinement": 19039,
    "raction": 8138,
    "fl": 3601,
    "Ġrepugnance": 19084,
    "mountains": 15178,
    "lake": 13747,
    "Ġnaut": 13939,
    "fowl": 17548,
    "Ġtrusting": 24105,
    "Ġsinners": 18949,
    "Ġfoster": 18991,
    "Ġproductions": 22945,
    "Ġfriend": 1295,
    "Ġphrenologists": 25609,
    "Ġtimber": 13347,
    "Ġbrains": 2630,
    "wic": 21119,
    "Ġpallid": 12296,
    "Ġblocks": 6321,
    "Ġminuteness": 19138,
    "Ġfetched": 24567,
    "Ġwithdraw": 16963,
    "Ġenvelop": 5585,
    "Ġenvelopes": 24507,
    "Ġartificial": 797,
    "Ġcouns": 10519,
    "Ġprovinces": 24190,
    "Ġworry": 18815,
    "upright": 23017,
    "Ġpenetrate": 12266,
    "isbury": 21375,
    "raltar": 24233,
    "Ġenglishmen": 19428,
    "Ġnap": 8807,
    "fourth": 11327,
    "Ġsets": 8773,
    "Ġclipping": 2439,
    "Ġopportunities": 19248,
    "Ġsailors": 4276,
    "Ġagonies": 14250,
    "Ġrob": 1268,
    "object": 6884,
    "eler": 1574,
    "pockets": 16209,
    "Ġcanst": 8856,
    "Ġpasture": 14543,
    "snatched": 24851,
    "Ġmapple": 11149,
    "atiate": 12544,
    "Ġdeceive": 12718,
    "Ġcontin": 5382,
    "Ġmumbling": 11572,
    "Ġmodeling": 2095,
    "que": 1108,
    "aired": 8369,
    "Ġmiscell": 16148,
    "Ġbegat": 18862,
    "fe": 676,
    "Ġmanufact": 22326,
    "Ġomniscient": 20084,
    "idav": 18092,
    "Ġadvoc": 12990,
    "Ġmak": 10777,
[...]
