{
  "metadata": {
    "vocab_size": 26614,
    "algorithm": "BPE",
    "created_at": "2026-08-24 03:00:13",
    "special_tokens": [
      "<PAD>",
      "<SOS>",
      "<EOS>",
      "<UNK>",
      "<MASK>"
    ]
  },
  "vocab": {
    "Ġbasket": 9572,
    "Ġdried": 7367,
    "Ġbrown": 6298,
    "phantoms": 24679,
    "according": 12026,
    "tubs": 15129,
    "ried": 925,
    "Ġtrembled": 8701,
    "Ġdesperate": 7776,
    "Ġchat": 6560,
    "Ġdeer": 12718,
    "Ġsubmitted": 11869,
    "constant": 11324,
    "Ġtrifling": 10602,
    "Ġnantucketers": 9893,
    "Ġlegend": 14575,
    "Ġannoy": 17198,
    "Ġrally": 21968,
    "und": 4119,
    "Ġadaptation": 3153,
    "oregressive": 3424,
    "Ġintervening": 17267,
    "patter": 4626,
    "dut": 10087,
    "Ġappals": 22217,
    "snap": 24848,
    "Ġbeating": 8144,
    "Ġhearth": 11980,
    "Ġcharitable": 23267,
    "copy": 5133,
    "vand": 21107,
    "Ġapologies": 25196,
    "Ġridge": 14818,
    "his": 1412,
    "ø": 185,
    "ries": 3353,
    "Ġventure": 7739,
    "Ġwires": 21294,
    "historian": 25735,
    "Ġdevouring": 11858,
    "Ġfashioned": 13318,
    "ondon": 2707,
    "olerably": 11672,
    "Ġviol": 2073,
    "Ġhardly": 2430,
    "Ġ92": 24590,
    "Ġactually": 5389,
    "ription": 5676,
    "bacc": 7794,
    "Ġplausible": 26553,
    "abern": 21787,
    "roded": 17955,
    "Ġsaleve": 17390,
    "eluded": 21572,
    "heaving": 21206,
    "Ġremainder": 9857,
    "Ġlinn": 13952,
    "promised": 12249,
    "Ġhanding": 16129,
    "poss": 4778,
    "Ġvishnoo": 12751,
    "'": 11,
    "Ġprev": 6264,
    "runs": 25415,
    "Ġqueer": 4477,
    "aug": 1212,
    "Ġapology": 8327,
    "asional": 17959,
    "Ġcausal": 3409,
    "Ġstrangely": 5677,
    "Â": 131,
    "Ġpresent": 1643,
    "Ġcounting": 13094,
    "Ġreproofs": 24892,
    "emph": 21925,
    "waters": 11333,
    "Ġrecovered": 5481,
    "hol": 3836,
    "Ġresearches": 13130,
    "Ġsweat": 13138,
    "Ġingratitude": 17468,
    "Ġtelegram": 15222,
    "lie": 12480,
    "Ġdeclining": 23961,
    "oth": 1183,
    "Ġgourmand": 26466,
    "Ġefficiently": 3764,
    "Ġspeedily": 7711,
    "Ġwall": 3840,
    "Ġcarving": 14442,
    "kindness": 10505,
    "wandering": 20283,
    "uled": 11536,
    "Ġjoist": 19231,
    "Ġornaments": 17451,
    "Ġthickets": 24020,
    "turtle": 12209,
    "Ġdisinclination": 22533,
    "Ġcongratulations": 10580,
    "ounder": 11742,
    "Ġcrocod": 19627,
    "lock": 1471,
    "cats": 17512,
    "sea": 4763,
    "impatience": 25500,
    "Ġdisorder": 16049,
    "Ġrefrained": 14343,
    "fier": 9593,
    "Ġbas": 6380,
    "Ġinnermost": 12158,
    "inc": 2519,
    "Ġfinny": 23125,
    "mund": 13757,
    "Ġwilt": 9643,
    "rect": 1598,
    "Ġtroubling": 26546,
    "Ġunc": 2124,
    "lengthwise": 19948,
    "Ġz": 999,
    "Ġsore": 10764,
    "Ġconsole": 8150,
    "Ġbison": 21386,
    "Ġexciting": 23312,
    "Ġoverfitting": 1547,
    "Ġbohem": 8526,
    "idelburgh": 10560,
    "Ġpall": 7582,
    "anite": 17837,
    "Ġaccompl": 5167,
    "disaster": 23491,
    "scept": 21052,
    "miniature": 16765,
    "Ġdisease": 14257,
    "Ġgoverness": 8601,
    "Ġconjectures": 16925,
    "Ġubiqu": 18043,
    "speaking": 12096,
    "Ġrisk": 8038,
    "remonstr": 23187,
    "itigated": 23042,
    "Ġconditions": 8305,
    "Ġpartake": 18673,
    "ł": 259,
    "nose": 17610,
    "Ġeloped": 22642,
    "Ġnorms": 3666,
    "dishon": 20402,
    "investigations": 25533,
    "Ġwarned": 16880,
    "Ġsecondary": 23334,
    "Ġrestoration": 19026,
    "Ġrhyme": 21978,
    "Ġwealthy": 18178,
    "Ġpasseng": 12968,
    "Ġnavies": 16900,
    "Ġexploded": 15908,
    "Ġtightly": 13532,
    "Ġstore": 8453,
    "Ġchosen": 7201,
    "Ġweek": 2825,
    "Ġcomplexity": 1696,
    "Ġskirting": 22794,
    "Ġpursuit": 4732,
    "Ġloungers": 24862,
    "Ġlists": 11166,
    "resides": 23670,
    "Ġdelicate": 6480,
    "gives": 15356,
    "Ġsize": 1217,
    "Ġtyp": 1131,
    "inite": 6001,
    "Ġoptimization": 1404,
    "Ġblotting": 25313,
    "union": 15768,
    "ina": 21178,
    "Ġsailing": 5323,
    "wonders": 17143,
    "bar": 7541,
    "Ġfe": 490,
    "Ġenig": 15798,
    "Ġfaults": 12210,
    "cring": 20810,
    "recurrent": 4994,
    "Ġpitiless": 19386,
    "Ġasi": 12730,
    "Ġbeen": 626,
    "Ġinterruptions": 24186,
    "Ġaccommodate": 20515,
    "moran": 24152,
    "Ġbanking": 19629,
    "Ġtests": 8956,
    "Ġrafters": 22653,
    "Ġfaithful": 9502,
    "Ġsanction": 20024,
    "Ġgaieties": 24195,
    "Ġtreating": 4283,
    "hearse": 17748,
    "Ġmerrily": 23729,
    "lucas": 15150,
    "maker": 12490,
    "Ġconducted": 10502,
    "Ġsacr": 7194,
    "pol": 5892,
    "emporary": 15795,
    "weary": 22683,
    "Ġpythag": 26448,
    "Ġdesk": 11904,
    "aking": 975,
    "Ġgardiners": 11157,
    "Ġmember": 8585,
    "call": 8722,
    "Ġtransferred": 16479,
    "mble": 1406,
    "set": 3864,
    "Ġcommunicates": 24547,
    "Ġscept": 15503,
    "Ġflounders": 23007,
    "Ġunexampled": 20358,
    "Ġsupremacy": 20259,
    "Ġlaure": 16909,
    "Ġmitigates": 3048,
    "Ġbrains": 2630,
    "reluct": 26163,
    "Ġwears": 10240,
    "Ġvisibly": 22875,
    "dying": 10694,
    "Ġmidnight": 5265,
    "_.âĢĶ": 23471,
    "Ġjourneying": 25565,
    "erne": 21268,
    "Ġsickness": 10538,
    "Ġpillows": 24986,
    "Ġrich": 2990,
    "fiend": 13659,
    "culiar": 2819,
    "Ġrapidity": 11103,
    "Ġsufferer": 16258,
    "Ġdromed": 15595,
    "Ġ132": 19895,
    "Ġbare": 6132,
    "Ġclank": 15966,
    "Ġeffaced": 18528,
    "ality": 2511,
    "uting": 15658,
    "magnificent": 20273,
    "Ġstables": 23656,
    "Ġcannib": 6035,
    "acks": 11786,
    "Ġblast": 7445,
    "Ġyell": 21781,
    "oric": 21394,
    "Ġcoincidence": 25483,
    "Ġtorture": 9064,
    "Ġtooks": 23325,
    "rich": 11517,
    "iquet": 17575,
    "Ġrelics": 16194,
    "Ġ19": 6719,
    "Ġinfirmity": 26298,
    "precise": 19349,
    "sounded": 12264,
    "Ġtrans": 631,
    "iful": 2880,
    "hatches": 19927,
    "empt": 2619,
    "laug": 10707,
    "Ġglitter": 25122,
    "Ġpeterson": 9482,
    "Ġtexas": 25922,
    "dress": 17520,
    "elzebub": 26464,
    "sius": 13787,
    "Ġdouble": 4940,
    "Ġgryphon": 4300,
    "wont": 21131,
    "Ġhelps": 9366,
    "Ġcabs": 23642,
    "Ġcommonplaces": 16288,
    "Ġexclam": 6757,
    "onstr": 12543,
    "Ġpleasure": 2696,
    "Ġmistaken": 4986,
    "abashed": 21789,
    "Ġprotested": 9933,
    "hopeless": 16917,
    "Ġclump": 15967,
    "Ġspo": 6846,
    "Ġextravagance": 17279,
    "horizon": 23617,
    "Ġyears": 1892,
    "ai": 2524,
    "Ġbald": 16206,
    "tw": 2811,
    "Ġgoing": 2068,
    "Ġscript": 18398,
    "Ġrepentance": 15159,
    "Ġcanvas": 7783,
    "ights": 8475,
    "Ġbarrow": 12067,
    "Ġmicrosc": 20675,
    "leisure": 21369,
    "unnecessary": 21877,
    "Ġxxxiv": 24967,
    "Ġclergy": 7642,
    "Ġslates": 11106,
    "Ġsecrets": 9054,
    "whalemen": 10431,
    "adru": 15729,
    "Ġdegra": 2589,
    "Ġtepid": 26412,
    "Ġmajestic": 8639,
    "Ġgard": 2186,
    "onds": 12992,
    "Ġdrifting": 19278,
    "ele": 9114,
    "Ġcrimson": 16441,
    "Ġath": 15800,
    "Ġoutrageous": 20609,
    "ually": 2771,
    "unmistakable": 21892,
    "Ġlargely": 14284,
    "Ġrepose": 6741,
    "Ġrobbed": 22988,
    "Ġdong": 17887,
    "Ġsagittarius": 24732,
    "Ġjava": 12310,
    "Ġforests": 13590,
    "Ġsentiments": 7960,
    "scent": 13013,
    "ician": 21562,
    "unavoid": 14061,
    "hered": 5623,
    "olly": 3223,
    "Ġwrapping": 19774,
    "<EOS>": 2,
    "Ġmillar": 13860,
    "Ġautumnal": 19030,
    "Ġsharpen": 13567,
    "ä": 165,
    "Ġmitt": 21306,
    "oup": 2015,
    "Ġdrama": 16328,
    "principle": 10650,
    "Ġsupposed": 4556,
    "Ċ": 203,
    "Ġclosely": 6488,
    "================================": 5671,
    "Ġaddu": 22098,
    "Ġcasks": 7521,
    "ung": 2746,
    "Ġcomforter": 20505,
    "Ġsecretary": 19440,
    "Ġheaviest": 23324,
    "Ġblessings": 24176,
    "length": 7134,
    "ulia": 18148,
    "ize": 772,
    "Ġig": 3500,
    "Ġgums": 21608,
    "screen": 22986,
    "backs": 9390,
    "Ġimpossibility": 20646,
    "Ġrewarded": 14939,
    "save": 13784,
    "Ġworm": 9162,
    "hed": 669,
    "invol": 12527,
    "Ġscience": 1546,
    "stache": 15688,
    "Ġhastening": 19335,
    "rs": 7807,
    "Ġfrank": 4418,
    "ignified": 14490,
    "hangs": 15367,
    "Ġjac": 1898,
    "final": 19675,
    "Ġdepress": 14045,
    "omely": 21636,
    "Ġlowers": 23238,
    "unnatural": 15771,
    "agos": 21901,
    "ility": 623,
    "Ġtalk": 1968,
    "Ġinstigated": 18698,
    "Ġiii": 7860,
    "Ġmysteriously": 24601,
    "supernatural": 19778,
    "Ġenable": 685,
    "Ġstunsail": 25543,
    "Ġfugitive": 17326,
    "ipelag": 12842,
    "Ġjulia": 22299,
    "Ġtransportation": 13640,
    "Ġestablish": 9542,
    "Ġstupid": 7606,
    "Ġinterrupt": 4359,
    "Ġlearned": 2024,
    "reng": 4004,
    "Ġhawaiian": 25366,
    "madly": 24420,
    "Ġsealed": 15817,
    "Ġactuated": 18545,
    "ullen": 8234,
    "ents": 1897,
    "Ġjoes": 19230,
    "Ġstatement": 5254,
    "reputable": 15517,
    "Ġsul": 7570,
    "Ġblacksmiths": 19872,
    "bethinking": 25745,
    "Ġhomeless": 23385,
    "Ġpattered": 19021,
    "Ġyounger": 5252,
    "itically": 21328,
    "88": 20757,
    "Ġtallest": 15474,
    "Ġinvective": 26181,
    "hosmer": 25902,
    "Ġappears": 5402,
    "inconsiderable": 21190,
    "Ġalarming": 14779,
    "handled": 19260,
    "Ġfatigue": 8697,
    "Ġarmy": 11739,
    "Ġprotruding": 16658,
    "Ġalman": 21775,
    "Ġaccountability": 10438,
    "Ġabund": 8864,
    "Ġtransport": 11278,
    "Ġcruise": 12047,
    "Ġexceeding": 1583,
    "Ġappointment": 10646,
    "thou": 4708,
    "Ġmidst": 7985,
    "nants": 17613,
    "Ġdeceive": 12720,
    "Ġgenerating": 12849,
    "mand": 3893,
    "Ġcompanionship": 14919,
    "Ġ131": 24782,
    "larking": 17594,
    "Ġkidn": 20204,
    "Ġropes": 10748,
    "poise": 6171,
    "a": 69,
    "amaz": 21841,
    "ception": 6562,
    "Ġfoolish": 5979,
    "lowering": 16031,
    "soles": 18687,
    "Ġundertaking": 8573,
    "Ġfeedforward": 2323,
    "horn": 8085,
    "host": 5867,
    "grey": 14911,
    "Ġunbounded": 18259,
    "nur": 11505,
    "Ġrecall": 3853,
    "Ġbeseeching": 26311,
    "elson": 16370,
    "ling": 736,
    "Ġreceived": 2951,
    "iel": 11493,
    "urpation": 16300,
    "Ġacceler": 1610,
    "Ġresnet": 5473,
    "================================================================": 9989,
    "Ġchallenge": 25471,
    "Ġbeliefs": 24582,
    "varying": 13803,
    "Ġscrupled": 25049,
    "Ġportent": 12079,
    "fect": 2296,
    "Ġmuse": 13859,
    "Ġstar": 6022,
    "iate": 6505,
    "mystical": 25317,
    "precedented": 15173,
    "Ġsnows": 14725,
    "Ġphysiogn": 12386,
    "rep": 5525,
    "Ġpossibility": 7458,
    "Ġcontemplative": 19892,
    "Ġpreliminaries": 25176,
    "Ġpikes": 21475,
    "Ġalleged": 17290,
    "Ġpostscript": 14807,
    "Ġcreative": 9829,
    "³": 116,
    "Ġbacks": 8528,
    "habit": 16188,
    "Ġphysiognomical": 25611,
    "cottage": 9569,
    "Ġminute": 4278,
    "Ġremains": 4910,
    "warp": 17706,
    "Ġharpoons": 5659,
    "become": 14246,
    "Ġsickly": 16774,
    "speech": 10666,
    "Ġscrib": 22280,
    "Ġlob": 7627,
    "ache": 8518,
    "itheat": 21336,
    "Ġemblazonings": 26045,
    "Ġfelt": 1745,
    "Ġgroans": 14823,
    "Ġremembr": 24170,
    "Ġcriminal": 7537,
    "fri": 20853,
    "Ġbanish": 15568,
    "erde": 21267,
    "always": 5708,
    "Ġoctober": 17226,
    "circumst": 5348,
    "paws": 21028,
    "Ġirresistible": 13110,
    "Ġyoun": 1408,
    "Ġswimming": 5507,
    "heavy": 10574,
    "Ġlinked": 15076,
    "Ġopportunity": 4786,
    "lo": 680,
    "Ġinevitably": 17230,
    "Ġgrope": 17994,
    "eh": 13709,
    "Ġplaintiffs": 13607,
    "Ġcome": 1240,
    "Ġsculpt": 15945,
    "Ġost": 9649,
    "iance": 5279,
    "desper": 13066,
    "pips": 21019,
    "Ġbecher": 18879,
    "Ġmeditative": 25014,
    "Ġfearlessness": 19160,
    "immense": 18052,
    "Ġhated": 7584,
    "kles": 17584,
    "Ġpy": 21448,
    "ipl": 20917,
    "complete": 15034,
    "acrity": 14279,
    "Ġfunction": 600,
    "Ġworry": 18815,
    "beginning": 13559,
    "Ġmummy": 25768,
    "accents": 19209,
    "sworn": 24256,
    "mitting": 17602,
    "Ġroughs": 19955,
    "Ġpeleg": 3737,
    "Ġeffusion": 22497,
    "hid": 13733,
    "Ġdiscomp": 11864,
    "Ġplay": 2626,
    "Ġplaid": 22601,
    "vocation": 25084,
    "aits": 20765,
    "ertion": 12037,
    "Ġjohn": 5032,
    "Ġbust": 10167,
    "Ġprovince": 24189,
    "Ġevangelist": 20337,
    "allest": 5485,
    "Ġreferences": 21671,
    "Ġproducts": 5198,
    "Ġkilling": 13330,
    "mme": 22498,
    "legra": 10789,
    "shadows": 25479,
    "Ġ----": 7145,
    "youth": 11873,
    "Ġqu": 606,
    "uine": 13798,
    "loath": 22506,
    "Ġbrim": 12972,
    "Ġsnarl": 25715,
    "Ġunderstand": 834,
    "Ġitself": 2520,
    "Ġpeninsula": 23193,
    "Ġcenturies": 8622,
    "Ġstalls": 25647,
    "Ġprivileges": 25132,
    "Ġraises": 11843,
    "Ġsat": 1132,
    "Ġlink": 8129,
    "Ġspikes": 22134,
    "Ġglorious": 11075,
    "Ġoffensive": 18694,
    "gement": 13727,
    "stirring": 20424,
    "tic": 8390,
    "Ġembracing": 14979,
    "modesty": 22850,
    "punct": 20191,
    "Ġlucifers": 16588,
    "Ġsodden": 25535,
    "Ġdearly": 10401,
    "itudes": 3012,
    "ari": 670,
    "Ġcompact": 2258,
    "Ġkeener": 22912,
    "Ġadrift": 11720,
    "autions": 20766,
    "Ġprometheus": 15291,
    "Ġnews": 3817,
    "hastening": 24448,
    "sudden": 5315,
    "Ġopportunities": 19248,
    "Ġstaff": 14006,
    "Ġglassy": 19559,
    "Ġweights": 897,
    "erpillar": 5797,
    "Ġnoiselessly": 22858,
    "village": 25422,
    "Ġloaded": 8490,
    "Ġspoutings": 14675,
    "pth": 2377,
    "ains": 5094,
    "Ġcrumb": 16440,
    "analy": 17838,
    "Ġoutset": 15954,
    "Ġpurport": 14581,
    "á": 162,
    "Ġsable": 15500,
    "iamond": 14590,
    "Ġwhaler": 7520,
    "Ġpail": 15605,
    "Ġlod": 4043,
    "Ġgrosvenor": 17417,
    "neat": 22445,
    "he": 264,
    "Ġtribe": 10751,
    "ĠĠĠĠĠĠĠĠĠĠĠĠĠĠĠĠĠĠĠĠĠĠĠĠĠĠĠĠĠĠĠĠĠĠĠĠĠĠĠĠĠĠĠĠĠĠĠĠĠĠĠĠĠĠĠĠĠĠĠĠ": 19259,
    "Ġmoulton": 17434,
    "Ġpane": 21460,
    "Ġstroke": 6936,
    "wives": 15455,
    "Ġreligious": 25121,
    "heedful": 20572,
    "taller": 26150,
    "round": 3367,
    "Ġtimidly": 11338,
    "Ġtout": 17719,
    "miss": 3171,
    "P": 52,
    "forecastle": 10990,
    "Ġgenteel": 19979,
    "gging": 7696,
    "Ġmiracle": 15092,
    "Ġmutters": 23953,
    "Ġtiny": 11552,
    "hammer": 14489,
    "Ġmolasses": 25628,
    "ushing": 5731,
    "resistible": 10643,
    "iest": 4037,
    "father": 3775,
    "Ġbreach": 11972,
    "Ġgale": 5822,
    "Ġmaw": 15538,
    "Ġhomeward": 9391,
    "Ġgeneric": 18453,
    "guest": 19480,
    "Ġtoss": 10184,
    "confused": 19643,
    "Ġacquirement": 19254,
    "iousness": 4899,
    "ieves": 4007,
    "onah": 3337,
    "Ġpolar": 9410,
    "Ġshepherd": 14152,
    "erce": 6126,
    "Ġmemo": 18119,
    "Ġenthus": 7232,
    "Ġundo": 15839,
    "Ġpeeped": 10011,
    "Ġanimating": 23422,
    "cle": 3956,
    "Ġprecipices": 12275,
    "Ġentities": 11862,
    "Ġpitied": 14691,
    "supervised": 1927,
    "Ġbrix": 12581,
    "Ġantics": 24178,
    "Ġcame": 1301,
    "Ġounce": 15271,
    "jammed": 25906,
    "Ġframework": 2026,
    "Ġscolding": 15199,
    "ible": 1115,
    "lived": 12484,
    "Ġsemantic": 1958,
    "wing": 2518,
    "rap": 21625,
    "abby": 14020,
    "ils": 3179,
    "Ġlaud": 17967,
    "Ġsoda": 25534,
    "Ġweap": 6155,
    "garet": 9597,
    "Ġlabourers": 23330,
    "izing": 1069,
    "8": 28,
    "gard": 7339,
    "Ġpatronage": 17053,
    "quet": 6835,
    "Ġderived": 8238,
    "enes": 5218,
    "els": 1763,
    "Ġpetulance": 24227,
    "Ġbowls": 23768,
    "tranquil": 25870,
    "Ġembell": 14418,
    "Ġcontributed": 16008,
    "Ġresponsiveness": 2896,
    "Ġarctic": 12809,
    "Ġideal": 13118,
    "Ġbud": 10168,
    "Ġhairs": 13228,
    "ode": 1454,
    "Ġescape": 2647,
    "Ġthread": 14539,
    "Ġinsensibly": 20074,
    "Ġbrawny": 13611,
    "Ġcollege": 11424,
    "abhorred": 17335,
    "Ġpersuading": 19408,
    "aan": 20763,
    "Ġinfant": 11958,
    "bull": 13689,
    "information": 12391,
    "cred": 9107,
    "rier": 9241,
    "Ġrevel": 9214,
    "Ġmuskets": 17056,
    "Ġrallied": 14095,
    "meat": 18678,
    "Ġpartial": 2128,
    "Ġreigned": 13986,
    "Ġblacks": 23386,
    "Ġavenues": 25429,
    "oundering": 11744,
    "Ġorgies": 18285,
    "Ġcomforted": 19389,
    "bohemia": 20730,
    "inaw": 21182,
    "dun": 17516,
    "onder": 3778,
    "Ġsketch": 16163,
    "Ġrainy": 24341,
    "Ġhundred": 2695,
    "oker": 10963,
    "ves": 697,
    "Ġclimes": 12839,
    "¤": 102,
    "Ġbible": 9319,
    "Ġpiling": 17908,
    "Ġwoollen": 12101,
    "Ġbulldog": 23857,
    "isk": 9167,
    "Ġsturgeon": 20590,
    "Ġwhence": 5839,
    "died": 10693,
    "Ġthigh": 10186,
    "Ġabsor": 8504,
    "Ġorbs": 22087,
    "ity": 417,
    "umbria": 23928,
    "extracts": 22768,
    "Ġdrives": 14578,
    "Ġintercourse": 10998,
    "Ġrobust": 1325,
    "Ġtorments": 13392,
    "Ġprincip": 5600,
    "Ġimpregnable": 26023,
    "Ġfeel": 1258,
    "courageous": 26127,
    "additional": 20462,
    "eight": 9591,
    "Ġrefuge": 8540,
    "Ġfem": 6134,
    "bare": 12439,
    "Ġslumbering": 25701,
    "aternity": 21264,
    "Ġexploitation": 2343,
    "udding": 11863,
    "Ġvac": 5025,
    "Ġcontrad": 9754,
    "Ġtomb": 8807,
    "Ġindefatigable": 17177,
    "Ġrubbing": 9320,
    "uture": 1060,
    "Ġexploit": 19161,
    "grounds": 11151,
    "Ġfa": 4819,
    "Ġensu": 7874,
    "convolutional": 4958,
    "Ġintegral": 25008,
    "etween": 773,
    "duck": 22409,
    "towns": 24854,
    "Ġcringed": 25942,
    "Ġarrow": 10931,
    "skeleton": 17375,
    "keeper": 5597,
    "occurrences": 26331,
    "quis": 7869,
    "Ġsnatching": 10472,
    "Ġcrad": 21348,
    "Ġ114": 24438,
    "Ġshared": 10263,
    "alvan": 21501,
    "Ġwheelbarrow": 17204,
    "Ġliv": 6679,
    "Ġmists": 14630,
    "Ġseasonable": 24406,
    "Ġimprecate": 20516,
    "Ġendeav": 2953,
    "Ġgull": 15668,
    "Ġloaf": 15871,
    "thar": 18217,
    "Ġardently": 9497,
    "Ġomen": 11575,
    "Ġeyelids": 26107,
    "Ġlassitude": 20585,
    "Ġwidower": 24235,
    "Ġshar": 9249,
    "Ġrebell": 21666,
    "w": 91,
    "Ġloathing": 15066,
    "effectually": 25128,
    "emin": 8469,
    "Ġdiscount": 22778,
    "Ġspeaker": 19148,
    "Ġcabal": 23643,
    "elopement": 23191,
    "Ġmanx": 7904,
    "recollect": 17223,
    "anyth": 5438,
    "Ġappar": 7411,
    "reproach": 15185,
    "Ġenlightened": 12744,
    "Ġtalking": 3855,
    "Ġfooting": 14482,
    "Ġreverber": 19868,
    "surprise": 9529,
    "engagements": 25853,
    "say": 3985,
    "Ġminimizes": 2047,
    "Ġsharper": 17179,
    "Ġwhirled": 14959,
    "Ġscream": 5934,
    "Ġprocedures": 9411,
    "Ġwitnesses": 9485,
    "Ġrephr": 21676,
    "vious": 1783,
    "as": 302,
    "disappearing": 23500,
    "Ġgladstone": 23867,
    "Ġtremble": 6907,
    "ous": 476,
    "wholly": 10941,
    "medi": 2628,
    "Ġ8": 5433,
    "prolong": 23393,
    "Ġtight": 8107,
    "Ġwedded": 16674,
    "comfortably": 16875,
    "alous": 7372,
    "Ġ\"": 6119,
    "fif": 9116,
    "Ġnamely": 20688,
    "likely": 9022,
    "indifferent": 14208,
    "fears": 18531,
    "gain": 8736,
    "Ġcreatures": 4138,
    "alterable": 13622,
    "perplex": 18344,
    "Ġsuns": 23271,
    "Ġeddying": 16435,
    "ayed": 12710,
    "Ġupwards": 7633,
    "Ġdefinition": 14403,
    "Ġheaths": 25972,
    "Ġinvincible": 23478,
    "Ġinstructing": 3118,
    "enances": 10153,
    "Ġtrag": 13035,
    "Ġlasted": 11053,
    "Ġderivative": 2996,
    "oward": 6020,
    "Ġausten": 5880,
    "vess": 7354,
    "complaisance": 24811,
    "Ġauthentic": 20534,
    "Ġnetherfield": 3929,
    "opement": 10311,
    "Ġlevels": 12694,
    "seeing": 7078,
    "board": 3564,
    "Ġoaken": 13864,
    "Ġross": 2765,
    "Ġfolios": 23017,
    "ontory": 10460,
    "Ġpiratical": 24801,
    "Ġgroups": 3718,
    "Ġparsee": 6413,
    "Ġabruptly": 15149,
    "prehens": 9288,
    "Ġblinded": 13268,
    "hint": 12473,
    "Ġmethodology": 2242,
    "Ġpole": 6433,
    "onial": 11566,
    "âĢĶâĢľ_": 13202,
    "elijah": 19471,
    "Ġtruthful": 23865,
    "weigh": 18665,
    "Ġdarting": 7756,
    "Ġone": 568,
    "Ġdaughter": 2867,
    "Ġremorselessly": 16967,
    "Ġaf": 783,
    "Ġexec": 19491,
    "etical": 13957,
    "Ġprocedural": 12029,
    "icial": 12653,
    "Ġeyel": 17096,
    "Ġplanting": 16085,
    "promontory": 24728,
    "record": 16921,
    "Ġ94": 17717,
    "Ġethics": 15462,
    "Ġoblique": 20168,
    "Ġbottled": 23793,
    "Ġmarlingspike": 26579,
    "Ġ1950": 11359,
    "Ġfullest": 14813,
    "rees": 5436,
    "instant": 8651,
    "Ġbind": 12580,
    "far": 5787,
    "ader": 14011,
    "Ġveracity": 23887,
    "iled": 1764,
    "Ġhypotheses": 4385,
    "Ġcrimes": 8588,
    "Ġportions": 19367,
    "Ġoverlooked": 15972,
    "Ġsuperstition": 15054,
    "Ġtools": 11608,
    "Ġvoy": 2620,
    "list": 7551,
    "plans": 21949,
    "involved": 25626,
    "Ġgid": 13961,
    "Ġadvanced": 1473,
    "Ġmoss": 9283,
    "concerted": 16671,
    "drunk": 24659,
    "Ġspark": 6689,
    "Ġtoil": 6531,
    "Ġsuperficial": 23455,
    "Ġappalled": 22218,
    "Ġtahiti": 13617,
    "create": 24159,
    "wretched": 10741,
    "lying": 7174,
    "rey": 12535,
    "science": 11906,
    "ifted": 4493,
    "Ġeffemin": 18530,
    "Ġdistended": 16043,
    "ĠĠĠĠĠĠĠĠĠĠĠĠĠĠĠĠĠĠĠĠĠĠĠĠĠĠĠĠĠĠĠĠĠĠĠĠĠĠĠĠĠĠĠĠĠĠĠĠĠĠĠĠĠ": 20038,
    "Ġpad": 8124,
    "Ġconject": 6026,
    "Ġbarber": 23787,
    "Ġlounged": 19952,
    "Ġangel": 4852,
    "retch": 4370,
    "finds": 19926,
    "Ġbushes": 16400,
    "Ġmurdering": 14810,
    "Ġvoices": 7875,
    "learnt": 23543,
    "properly": 24918,
    "solely": 19815,
    "vishnoo": 21118,
    "Ġbowled": 23767,
    "itude": 1419,
    "cet": 15324,
    "mons": 17600,
    "Ġconfines": 23305,
    "Ġoftener": 13563,
    "leaving": 10791,
    "Ġunwearied": 20601,
    "Ġthese": 820,
    "Ġparis": 8178,
    "Ġslink": 23160,
    "Ġexperienced": 6582,
    "Ġclasped": 17206,
    "Ġexhaled": 19681,
    "whaleman": 23434,
    "Ġwigwam": 11428,
    "Ġnathan": 21523,
    "Ġum": 10211,
    "Ġboone": 11838,
    "searching": 25103,
    "Ġstubbornness": 25380,
    "Ġbuckskin": 19950,
    "falsehood": 25901,
    "Ġwronged": 24247,
    "ol": 361,
    "Ġdeep": 812,
    "hammad": 23261,
    "Ġinfluences": 14864,
    "Ġvalues": 2651,
    "inkles": 7426,
    "Ġlog": 1676,
    "Ġmasoned": 20250,
    "Ġchild": 2256,
    "Ġstanzas": 21744,
    "somerset": 26322,
    "vour": 17699,
    "ĠĠĠĠĠĠĠĠĠĠĠĠĠĠĠĠĠĠĠĠĠĠĠĠĠĠĠĠĠĠĠĠĠĠĠĠĠĠĠĠĠĠĠĠĠĠĠĠ": 7988,
    "Ġhurst": 5582,
    "Ġexamples": 2605,
    "Ġsystemat": 18442,
    "suspicions": 25391,
    "Ġsail": 1673,
    "Ġindecision": 25781,
    "box": 5749,
    "Ġbarbaric": 10013,
    "Ġsnatched": 10471,
    "Ġwounding": 19585,
    "izens": 18143,
    "ti": 8389,
    "Ġuncont": 14115,
    "Ġupd": 947,
    "tooth": 18579,
    "Ġholds": 7975,
    "Ġdodge": 19885,
    "Ġsum": 2701,
    "Ġdocumentation": 20553,
    "Ġimped": 18443,
    "Ġmagnetic": 17240,
    "guessed": 25872,
    "thank": 4950,
    "hob": 20899,
    "ness": 853,
    "Ġscarce": 8621,
    "Ġscan": 22276,
    "Ġposted": 16724,
    "Ġvillages": 14747,
    "Ġlee": 4220,
    "Ġinjurious": 24270,
    "Ġarmies": 16492,
    "Ġbrooded": 23102,
    "including": 23589,
    "Ġscholar": 26111,
    "Ġduty": 4071,
    "Ġmarch": 4083,
    "hess": 4747,
    "Ġravine": 18647,
    "Ġgraces": 18225,
    "Ġprognost": 15280,
    "icions": 21560,
    "Ġaffrighted": 13570,
    "ove": 1743,
    "Ġconcoct": 19047,
    "Ġlirra": 21557,
    "enary": 12548,
    "fisher": 7547,
    "Ġunconquerable": 22060,
    "Ġsleep": 2396,
    "Ġelegance": 11332,
    "Ġlights": 8960,
    "ob": 1421,
    "Ġ28": 19294,
    "Ġinstinctively": 13457,
    "Ġwednesday": 9024,
    "Ġbrooks": 25700,
    "oury": 22301,
    "indirect": 22369,
    "moonlight": 25375,
    "stein": 5505,
    "Ġdent": 13905,
    "Ġaff": 1117,
    "Ġshocks": 16457,
    "Ġmail": 17800,
    "quality": 10232,
    "Ġvernal": 23886,
    "boilers": 26297,
    "grate": 23410,
    "asmuch": 10194,
    "ouncement": 11743,
    "Ġmarvel": 23031,
    "Ġvent": 3999,
    "andam": 10888,
    "Ġstur": 15718,
    "Ġbegg": 16251,
    "ailing": 7021,
    "Ġwarped": 25035,
    "Ġdespondency": 16577,
    "Ġannihil": 10174,
    "Ġdiggings": 24649,
    "pall": 17628,
    "irited": 15785,
    "Ġaghast": 16046,
    "Ġaccomplice": 24376,
    "Ġincommod": 25307,
    "Ġlingo": 24903,
    "yourselves": 24956,
    "Ġamateur": 22482,
    "ĠĠĠĠĠĠĠĠĠĠĠĠĠĠĠĠĠĠĠ": 22947,
    "Ġintensity": 10015,
    "Ġvision": 1629,
    "Ġunwe": 15837,
    "Ġarr": 1799,
    "Ġeconomy": 17200,
    "storm": 9681,
    "lover": 18539,
    "henry": 16625,
    "compasses": 19456,
    "Ġpeels": 22688,
    "Ġembellish": 25849,
    "hated": 17561,
    "Ġdeception": 18139,
    "Ġassent": 12731,
    "thoughtfully": 24041,
    "um": 454,
    "Ġscott": 22278,
    "Ġover": 555,
    "Ġpurses": 23475,
    "Ġsmell": 7216,
    "drawn": 9912,
    "Ġvenetian": 14846,
    "prow": 15411,
    "Ġunfathom": 14788,
    "ensities": 22543,
    "blazing": 24132,
    "Ġbenignity": 18781,
    "Ġenhancement": 23827,
    "cater": 20814,
    "Ġsurmise": 12293,
    "Ġbringing": 5869,
    "bounded": 13437,
    "followed": 8338,
    "Ġheroes": 10576,
    "Ġglimmer": 15140,
    "mblings": 19779,
    "Ġnarrating": 24351,
    "Ġpreservative": 24629,
    "tically": 3392,
    "Ġjun": 8505,
    "romeda": 17262,
    "Ġtaking": 3249,
    "Ġschool": 5512,
    "unwilling": 14060,
    "Ġvoluntary": 14798,
    "accepted": 20135,
    "Ġmoody": 8200,
    "Ġices": 21153,
    "Ġrelapses": 26278,
    "Ġcontinent": 14887,
    "Ġconfirm": 9855,
    "english": 2775,
    "Ġcivilised": 24244,
    "irious": 15784,
    "Ġsloping": 11937,
    "Ġpitchpoling": 14910,
    "separ": 9230,
    "Ġentr": 14338,
    "Ġforbe": 8457,
    "Ġoh": 2172,
    "civilized": 17075,
    "Ġbenevol": 5961,
    "Ġflitting": 13018,
    "arying": 9800,
    "tery": 14036,
    "grim": 19106,
    "Ġstarbuck": 2190,
    "Ġlou": 6822,
    "Ġheal": 21678,
    "Ġpyramids": 15113,
    "Ġrosy": 18457,
    "Ġtwig": 11848,
    "Ġhans": 12624,
    "idity": 8830,
    "Ġcirculation": 16415,
    "Ġaccurate": 13259,
    "pret": 7212,
    "Ġbroadened": 23982,
    "imate": 4219,
    "Ġnonsense": 6982,
    "Ġplaced": 3444,
    "Ġlandsmen": 11351,
    "Ġdurst": 20351,
    "Ġmason": 10157,
    "Ġbrighter": 16186,
    "Ġcard": 7363,
    "Ġdespairing": 14773,
    "Ġchronic": 9928,
    "Ġreminiscences": 26269,
    "Ġrises": 9712,
    "Ġdank": 21426,
    "Ġspout": 3281,
    "Ġmarvels": 11084,
    "even": 3835,
    "Ġphrenologically": 20392,
    "isp": 5528,
    "Ġcongratulatory": 19766,
    "Ġhob": 12627,
    "Ġroared": 7023,
    "tables": 19756,
    "Ġpower": 1219,
    "bed": 3289,
    "Ġinsight": 16530,
    "Ġcliffs": 15969,
    "Ġuneasily": 24230,
    "Ġcourtiers": 24137,
    "Ġmoot": 22427,
    "inde": 17731,
    "coff": 9108,
    "wished": 13804,
    "sa": 8756,
    "uneasy": 23684,
    "etwork": 441,
    "quired": 21852,
    "Ġhoisting": 9861,
    "Ġfeat": 10937,
    "Ġcaulking": 20292,
    "boast": 23251,
    "Ġbackward": 7654,
    "Ġrespectively": 23246,
    "\"": 6,
    "Ġequival": 4784,
    "Ġturn": 1299,
    "Ġthreat": 5154,
    "Ġpostpone": 17306,
    "import": 5668,
    "Ġdragged": 6889,
    "Ġalpine": 18101,
    "enemy": 15526,
    "Ġrokovoko": 22402,
    "Ġ41": 24079,
    "Ġripe": 13233,
    "king": 3056,
    "forward": 2184,
    "provoke": 26071,
    "Ġshrunk": 16718,
    "Ġconcent": 8249,
    "anish": 2617,
    "Ġworshipped": 25691,
    "ĠĠĠ": 2115,
    "Ġdeprived": 8208,
    "Ġcontinuously": 23205,
    "Ġjourneys": 19473,
    "Ġguess": 4903,
    "Ġtitle": 11408,
    "Ġineffectual": 17383,
    "Ġtablet": 19203,
    "Ġpleasanter": 19067,
    "Ġswallows": 18882,
    "despatched": 19800,
    "take": 4575,
    "irst": 880,
    "Ġcapacious": 19175,
    "droppers": 24759,
    "reigned": 21241,
    "column": 19328,
    "forced": 11031,
    "Ġbumping": 25280,
    "Ġmus": 3396,
    "cherries": 19755,
    "deed": 1519,
    "Ġbubblingly": 25632,
    "acetty": 24464,
    "Ġcircumspect": 15083,
    "Ġlearnedly": 23384,
    "Ġmexic": 14031,
    "Ġrepublican": 17411,
    "opy": 4456,
    "Ġpillar": 21470,
    "Ġoffered": 5816,
    "Ġauthent": 14506,
    "Ġfulfil": 9550,
    "Ġsubsided": 14550,
    "Ġblemish": 19678,
    "niece": 20994,
    "resembled": 21245,
    "tumult": 12421,
    "Ġtrib": 13818,
    "Ġstim": 18066,
    "Ġsitting": 3606,
    "ĠĠĠĠĠĠĠĠĠĠĠĠĠĠĠĠĠĠĠĠĠĠĠĠĠĠĠĠĠĠĠĠĠĠĠĠĠĠĠĠĠĠĠĠ": 12151,
    "mark": 5281,
    "ering": 1264,
    "Ġreus": 8821,
    "belong": 12120,
    "Ġ87": 19709,
    "Ġformed": 3883,
    "clothes": 9057,
    "archical": 1925,
    "Ġdavis": 25952,
    "note": 14339,
    "Ġattained": 14077,
    "Ġacquiescence": 20329,
    "Ġloggerhead": 13655,
    "mpus": 13756,
    "Ġimpact": 10296,
    "Ġcrocodile": 20739,
    "âĢĿ--": 21813,
    "Ġdumb": 7843,
    "incess": 15482,
    "atherine": 2595,
    "cad": 17504,
    "Ġendow": 23140,
    "Ġrelation": 2140,
    "mediterranean": 16403,
    "Ġdenying": 14658,
    "Ġregular": 948,
    "which": 1710,
    "surprising": 16919,
    "Ġcamp": 9164,
    "Ġbathing": 20198,
    "Ġenglishman": 11229,
    "mention": 7215,
    "`": 68,
    "small": 6472,
    "Ġmorphology": 3008,
    "Ġkick": 5837,
    "Ġbefall": 8828,
    "instrument": 15237,
    "beries": 22715,
    "lections": 4752,
    "hertfordshire": 10936,
    "winding": 16720,
    "Ġmalicious": 10557,
    "Ġut": 2275,
    "Ġimbalanced": 18335,
    "reckoning": 25270,
    "Ġweighted": 2091,
    "Ġabhorrence": 9052,
    "Ġpore": 21455,
    "Ġincorporated": 25711,
    "Ġeduc": 4785,
    "possessed": 9527,
    "Ġlandlord": 5581,
    "nam": 3015,
    "Ġheaped": 18037,
    "urred": 8449,
    "Ġlaws": 8002,
    "Ġcalifornian": 25851,
    "shaken": 16024,
    "Ġpencils": 23192,
    "sterns": 23366,
    "morland": 24153,
    "barbaric": 26358,
    "Ġdissembling": 26254,
    "isure": 6240,
    "Ġsocietal": 11436,
    "damn": 20022,
    "Ġtiresome": 26156,
    "Ġculprit": 26172,
    "Ġrepast": 16410,
    "Ġmiseries": 10346,
    "companions": 15023,
    "Ġtear": 6723,
    "Ġadd": 629,
    "Ġlingering": 11379,
    "elter": 21568,
    "Ġhardship": 18913,
    "Ġregularity": 22782,
    "Ġperceiving": 8875,
    "Ġlawn": 7379,
    "Ġsunda": 13542,
    "µ": 118,
    "Ġbrisk": 9802,
    "Ġmicha": 17811,
    "Ġcetacea": 20552,
    "distinguish": 19571,
    "Ġnightfall": 23129,
    "Ġsigning": 22705,
    "prove": 11147,
    "Ġeasiest": 23536,
    "vable": 10132,
    "Ġbridal": 14953,
    "crowded": 20189,
    "Ġexpired": 18624,
    "endure": 22222,
    "Ġmagistrate": 8233,
    "wife": 8100,
    "Ġisles": 8459,
    "occupied": 12302,
    "Ġnotion": 7881,
    "Ġinstinct": 6574,
    "ferred": 16416,
    "Ġcarter": 18900,
    "iqu": 7802,
    "Ġjoking": 12835,
    "Ġwriters": 13541,
    "Ġmil": 4254,
    "bishop": 13693,
    "Ġnewfoundland": 26569,
    "od": 351,
    "Ġblasted": 7937,
    "Ġrefine": 3199,
    "Ġbracelets": 25502,
    "chairs": 21690,
    "Ġdeliver": 9845,
    "Ġgoverning": 2795,
    "Ġhospitals": 24923,
    "requirements": 24857,
    "Ġflames": 7939,
    "Ġproportionably": 19969,
    "ahawk": 23316,
    "Ġsoup": 7067,
    "Ġsaturation": 2064,
    "sartain": 25622,
    "Ġblows": 5972,
    "Ġfootfalls": 25866,
    "Ġterrified": 14671,
    "around": 12606,
    "Ġvast": 3296,
    "Ġhav": 12752,
    "Ġsin": 1512,
    "restoration": 23231,
    "Ġtoll": 7851,
    "Ġbenediction": 18783,
    "Ġdumplings": 15189,
    "Ġcleansed": 26293,
    "abriel": 6950,
    "Ġbet": 1134,
    "Ġfrost": 6095,
    "Ġaust": 4871,
    "enesis": 24388,
    "Ġtenderest": 23549,
    "Ġrevealing": 3923,
    "ograph": 4797,
    "ating": 664,
    "Ġpretending": 19314,
    "asingly": 17960,
    "Ġcongrat": 5827,
    "Ġtroublesome": 23999,
    "Ġsympathising": 24297,
    "Ġstowed": 21736,
    "Ġhighlands": 22772,
    "appe": 2944,
    "Ġframe": 1935,
    "bery": 9787,
    "favourite": 15142,
    "Ġadequate": 20307,
    "Ġox": 7153,
    "Ġdenoted": 16565,
    "reck": 9636,
    "Ġmental": 21318,
    "Ġouthouse": 22312,
    "Ġgrimesby": 11457,
    "Ġassurance": 7774,
    "Ġter": 2052,
    "top": 4484,
    "Ġtumbled": 13404,
    "done": 6500,
    "Ĉ": 201,
    "Ġeternity": 12276,
    "metal": 24765,
    "att": 1457,
    "Ġexerted": 15755,
    "Ġrelentless": 26277,
    "Ġuttering": 16461,
    "ĠdÃ¦mon": 7844,
    "madam": 24421,
    "Ġsultanism": 25888,
    "Ġattended": 5391,
    "¼": 125,
    "20": 20752,
    "Ġborrow": 10170,
    "Ġblushed": 12998,
    "Ġbarn": 11586,
    "suppose": 8644,
    "pos": 15410,
    "Ġconjugal": 25101,
    "Ġdoublo": 6078,
    "âĢĿâĢĶ": 5721,
    "conjectures": 25180,
    "Ġdrops": 9032,
    "Ġaccompanied": 6780,
    "Ġboot": 11837,
    "Ġzer": 1093,
    "relation": 19445,
    "Ġdeterminate": 22998,
    "Ġwaking": 11569,
    "Ġsolitary": 5854,
    "cod": 12441,
    "Ġaccusations": 22376,
    "Ġreposing": 23359,
    "thyself": 19297,
    "wrath": 23754,
    "ometer": 19325,
    "aying": 15748,
    "Ġformless": 22825,
    "Ġcracking": 14574,
    "Ġpastures": 23418,
    "unbounded": 21882,
    "Ġnoses": 18373,
    "Ġdeserts": 10507,
    "Ġbedfellow": 16437,
    "disgust": 23494,
    "understanding": 1182,
    "Ġgrapes": 15214,
    "Ġvanished": 6874,
    "invest": 11559,
    "Ġbrush": 17864,
    "shipmates": 11926,
    "Ġaval": 15493,
    "Ġseizing": 7878,
    "Ġunho": 18245,
    "Ġsettle": 6293,
    "Ġfet": 5807,
    "5": 25,
    "Ġbackstays": 22660,
    "Ġfiss": 21410,
    "ison": 3071,
    "Ġargemone": 24274,
    "forbidding": 25837,
    "rance": 5993,
    "pulous": 15416,
    "Ġstingy": 25455,
    "Ġslabs": 13057,
    "Ġarising": 10933,
    "Ġworking": 5575,
    "Ġkeeping": 7283,
    "Ġjapan": 7639,
    "Ġperiodical": 14772,
    "Ġcharted": 22247,
    "Ġchrysalis": 26538,
    "Ġloath": 7890,
    "Ġinserted": 8355,
    "_)": 9101,
    "cain": 15325,
    "pennies": 26285,
    "Ġped": 6817,
    "Ġanalog": 12610,
    "fth": 20855,
    "illings": 14142,
    "Ġarsacides": 17293,
    "Ġexertion": 8053,
    "Ġartfully": 22609,
    "riend": 1184,
    "naturedly": 24840,
    "Ġsorrowful": 10536,
    "Ġmess": 7831,
    "comp": 3815,
    "ational": 5716,
    "high": 6649,
    "step": 2456,
    "Ġasp": 15779,
    "Ġbordered": 24563,
    "asp": 3340,
    "Ġrelent": 18773,
    "Ġremorseless": 13449,
    "Ġcurled": 8230,
    "Ġcork": 12566,
    "Ġwholesome": 16004,
    "Ġacted": 7422,
    "band": 3055,
    "Ġprovocation": 24191,
    "Ġupward": 9720,
    "Ġtreated": 7080,
    "assin": 22302,
    "Ġslaughtered": 26584,
    "Ġships": 3713,
    "Ġsavage": 4012,
    "drive": 8682,
    "Ġagreement": 18542,
    "Ġcolumb": 22854,
    "Ġhoary": 23352,
    "wond": 8767,
    "Ġseparate": 5778,
    "fordshire": 4676,
    "Ġrays": 10330,
    "Ġbutter": 6842,
    "Ġdefici": 22940,
    "Ġmeth": 1401,
    "Ġever": 1179,
    "Ġg": 310,
    "bearer": 18518,
    "reason": 4413,
    "Ġsunwards": 19011,
    "Ġconceal": 5973,
    "Ġcontortions": 18476,
    "Ġpropensity": 18996,
    "Ġporthole": 24399,
    "Ġabandon": 12255,
    "Ġdreamy": 14702,
    "Ġrash": 10898,
    "ant": 439,
    "Ġarrows": 18338,
    "Ġhandle": 3132,
    "rice": 13776,
    "Ġpagoda": 19787,
    "Ġdives": 17890,
    "inexplicable": 25808,
    "Ġplanets": 24053,
    "Ġchopping": 24219,
    "Ġpaw": 12618,
    "apter": 1192,
    "Ġpencil": 11941,
    "ploy": 2055,
    "12": 20748,
    "Ġinstrum": 6054,
    "Ġagreeable": 4550,
    "Ġdepartments": 24242,
    "Ġinquire": 7719,
    "Ġmincing": 18750,
    "Ġpettiness": 24229,
    "complied": 19912,
    "elled": 3994,
    "ula": 2824,
    "Ġinvolve": 11043,
    "lers": 10106,
    "Ġstammered": 26199,
    "Ġrichest": 26211,
    "Ġslipped": 6492,
    "Ġweighty": 16030,
    "Ġpolitic": 23620,
    "Ġirrad": 19093,
    "Ġtuples": 13475,
    "Ġpondicherry": 20489,
    "Ġmadness": 6601,
    "Ġhelen": 16655,
    "achusetts": 20709,
    "Ġjudges": 14685,
    "pulled": 25145,
    "tide": 11532,
    "Ê": 139,
    "Ġgrove": 12144,
    "Ġnought": 21519,
    "Ġcannibal": 7773,
    "Ġhumming": 12982,
    "Ġsprout": 24088,
    "br": 2477,
    "Ġeldest": 6571,
    "Ġcub": 8413,
    "Ġgowns": 25359,
    "Ġratio": 5066,
    "Ġordered": 5832,
    "Ġgrudge": 20692,
    "Ġhum": 1098,
    "Ġclimbing": 20068,
    "Ġgrapple": 25811,
    "anation": 5803,
    "richard": 17286,
    "Ġshouts": 19536,
    "pread": 7419,
    "Ġireland": 17334,
    "speptic": 23943,
    "separation": 25226,
    "Ġsanta": 26420,
    "ough": 472,
    "uy": 21098,
    "Ġreadability": 2725,
    "Ġretired": 6070,
    "indisc": 22370,
    "Ġhead": 1125,
    "Ġdimin": 3870,
    "afric": 19178,
    "suited": 22636,
    "gay": 11488,
    "rain": 462,
    "encoura": 15048,
    "iac": 6225,
    "Ġmidway": 14604,
    "says": 13297,
    "Ġcommons": 22669,
    "Ġcontrived": 10303,
    "Ġpeaceful": 9455,
    "swallow": 24257,
    "Ġresearch": 3287,
    "Ġpromised": 5181,
    "Ġexquis": 9699,
    "lungs": 26135,
    "justice": 7957,
    "exception": 9975,
    "consideration": 14954,
    "Ġwhosoever": 21716,
    "Ġsubstit": 19539,
    "Ġassisting": 13255,
    "Ġforgot": 4683,
    "Ġunstructured": 3002,
    "ublic": 11227,
    "ipotence": 22361,
    "reserve": 17765,
    "Ġcleat": 18946,
    "bildad": 9586,
    "ardy": 22153,
    "Ġundue": 25993,
    "osc": 18387,
    "x": 92,
    "Ġnight": 1465,
    "Ġroofs": 16985,
    "ource": 5243,
    "Ġdesmarest": 22971,
    "partly": 14602,
    "Ġpursuers": 13223,
    "ippers": 17576,
    "Ġtrace": 6180,
    "Ġensuing": 12307,
    "Ġwonderland": 23423,
    "Ġforward": 1838,
    "Ġeste": 6084,
    "adel": 15727,
    "Ġperformer": 18754,
    "raid": 3278,
    "Ġheld": 3585,
    "Ġescaping": 13133,
    "Ġtrunk": 7205,
    "opatra": 22474,
    "ŀ": 257,
    "Ġbewitching": 25976,
    "Ġbargain": 23790,
    "Ġiron": 3234,
    "creation": 14805,
    "pull": 6796,
    "Ġwages": 13853,
    "Ġalan": 10868,
    "Ġsmite": 22554,
    "deserts": 25379,
    "glorious": 19365,
    "Ġergo": 25029,
    "Ġmarble": 7668,
    "Ġplump": 14282,
    "Ġwits": 15531,
    "acup": 14278,
    "Ġneg": 1334,
    "listened": 15043,
    "ĠĠĠĠĠĠĠĠĠĠĠĠĠĠĠĠĠĠĠĠĠĠĠĠĠĠĠĠĠĠĠĠĠĠĠĠĠĠĠ": 19258,
    "Ġfaith": 5350,
    "harpoone": 6107,
    "tor": 15432,
    "Ġfanned": 19099,
    "_.)": 7278,
    "Ġcertainty": 6734,
    "vice": 15449,
    "hval": 20897,
    "reliable": 21239,
    "rin": 10121,
    "civility": 17513,
    "notice": 16146,
    "Ġcompare": 9301,
    "Ġeyed": 12665,
    "Ġenforced": 21935,
    "making": 2572,
    "Ġclutches": 20016,
    "Ġgrows": 4985,
    "stool": 23816,
    "Ġsherlock": 3892,
    "Ġhoney": 12630,
    "Ġgleaming": 24993,
    "Ġnoiseless": 10356,
    "depth": 12798,
    "utter": 7593,
    "Ġcraft": 4375,
    "Ġperf": 12847,
    "Ġpresume": 8037,
    "towards": 5002,
    "Ġfascinating": 17327,
    "Ġdefined": 11896,
    "Ġslighted": 16567,
    "Ġtheatre": 21277,
    "Ġattention": 1172,
    "Ġocean": 3303,
    "decan": 22139,
    "who": 2444,
    "Ġbenefits": 4286,
    "Ġfacts": 2284,
    "Ġnerve": 16339,
    "Ġowen": 15093,
    "stationed": 25453,
    "Ġalter": 6542,
    "Ġtierce": 15478,
    "charm": 13989,
    "Ġsucked": 14137,
    "Ġdiscovered": 4411,
    "Ġciv": 3307,
    "Ġtower": 8318,
    "bast": 10076,
    "Ġdriving": 3618,
    "loose": 11803,
    "Ġintensely": 17017,
    "Ġreader": 11932,
    "mortals": 25409,
    "amid": 12722,
    "Ġcondemn": 13442,
    "-": 17,
    "Ġcourtship": 24136,
    "Ġaven": 10759,
    "Ġpretend": 7721,
    "vitality": 20477,
    "Ġfanciful": 24788,
    "Ġplains": 14623,
    "gallantry": 15058,
    "catherine": 7127,
    "Ġlowerings": 23648,
    "Ġsigmoid": 2462,
    "leton": 5148,
    "sleep": 6511,
    "somebody": 14564,
    "Ġbolivia": 24667,
    "Ġenvironment": 4014,
    "Ġadmired": 7981,
    "Ġsheepfold": 25466,
    "seemingly": 25362,
    "Ġnights": 7258,
    "Ġmariners": 6067,
    "ologist": 22845,
    "Ġinj": 4760,
    "Ġomniscient": 20084,
    "Ġacres": 14312,
    "desponding": 26341,
    "pitch": 13296,
    "Ġworsh": 12996,
    "particular": 5757,
    "Ġchinese": 14183,
    "Ġsingular": 4422,
    "estation": 15919,
    "Ġpian": 13916,
    "Ġlodged": 11252,
    "anity": 9654,
    "Ġexclaim": 11221,
    "vous": 2247,
    "Ġundoing": 22032,
    "Ġstrain": 6023,
    "Ġdreaming": 11223,
    "vil": 2732,
    "Ġdislike": 6047,
    "ingu": 2119,
    "Ġhebrew": 13987,
    "tacit": 21097,
    "Ġtremendous": 8352,
    "Ġenl": 18188,
    "extinguished": 16151,
    "design": 18957,
    "Ġvort": 18193,
    "Ġwholly": 4445,
    "Ġdwell": 5812,
    "Ġmemory": 2271,
    "about": 3586,
    "âĢĻâĢĶ": 12734,
    "Ġnext": 2138,
    "Ġcircumstance": 4987,
    "Ġsquid": 11876,
    "Ġproceeded": 5335,
    "Ġsouth": 4911,
    "plings": 11693,
    "Ġrefused": 6715,
    "mit": 4933,
    "Ġdrugg": 17119,
    "Ġmarking": 16468,
    "ifer": 11683,
    "Ġengagement": 5397,
    "Ġracket": 22651,
    "fac": 17541,
    "Ġextract": 1500,
    "iour": 4038,
    "Ġbeget": 9225,
    "omin": 4702,
    "Ġstockings": 19995,
    "playing": 19656,
    "articulate": 17397,
    "ĠĠĠĠĠĠĠĠĠĠĠĠĠĠĠĠĠĠĠĠĠĠĠĠĠĠĠĠĠĠĠĠĠĠĠĠĠ": 14614,
    "repeat": 25151,
    "Ġdiffidence": 14659,
    "Ġparaph": 22117,
    "Ġstrange": 2269,
    "ellig": 523,
    "Ġoutside": 5554,
    "Ġwalrus": 14972,
    "Ġcelest": 9900,
    "somewhat": 11160,
    "Ġconsequence": 5542,
    "Ġcandidate": 16701,
    ".": 18,
    "snatched": 24850,
    "Ġeastern": 11628,
    "chapter": 1402,
    "mology": 12489,
    "Ġfirst": 938,
    "Ġnative": 4640,
    "Ġcells": 13884,
    "Ġspectre": 16630,
    "bergen": 14326,
    "irium": 8161,
    "Ġcapric": 14576,
    "extrem": 18710,
    "Ã": 132,
    "oided": 11508,
    "Ġattacked": 10567,
    "Ġtwo": 1041,
    "Ġcondescended": 19954,
    "Ġfiends": 14827,
    "Ġexpense": 7651,
    "coat": 5407,
    "Ġperusal": 14223,
    "âĢľ": 344,
    "Ġseethings": 26503,
    "Ġinmost": 17930,
    "furnish": 25338,
    "Ġswitching": 23054,
    "ced": 691,
    "directly": 13708,
    "Ġscale": 1554,
    "Ġmorbid": 16233,
    "Ġlabels": 3286,
    "Ġweeks": 4563,
    "harpooned": 24286,
    "bye": 5949,
    "gledy": 25403,
    "Ġclams": 19987,
    "Ġlucases": 9009,
    "gall": 6359,
    "Ġthreatening": 16828,
    "Ġrepugnant": 26590,
    "Ġsuit": 5725,
    "Ġsluggishly": 25891,
    "seaman": 25457,
    "Ġstrang": 4161,
    "Ġwat": 1287,
    ".,": 5987,
    "Ġbolt": 11334,
    "Ġaid": 6122,
    "Ġxlix": 25860,
    "Ġsan": 7824,
    "fil": 12460,
    "Ġpil": 5014,
    "Ġincapable": 7423,
    "Ġknot": 7011,
    "Ġconscious": 7743,
    "Ġdoctrine": 24197,
    "Ġfake": 5810,
    "Ġcircum": 8257,
    "mat": 2195,
    "Ġhails": 21947,
    "Ġsplin": 8618,
    "representing": 25271,
    "Ġsmothered": 20719,
    "Ġimpious": 15986,
    "Ġobeyed": 12214,
    "minutes": 7512,
    "Ġviii": 16412,
    "Ġequin": 14495,
    "Ġcin": 13874,
    "inates": 21179,
    "Ġpoky": 21476,
    "blog": 19838,
    "arily": 4127,
    "Ġ85": 24460,
    "tarpaul": 21096,
    "Ġsuspecting": 14909,
    "refuge": 24734,
    "Ġcompassionate": 24723,
    "aco": 12904,
    "Ġglasses": 9474,
    "advanced": 19587,
    "Ġcream": 22718,
    "uncont": 15772,
    "Ġassisted": 11111,
    "Ĩ": 233,
    "Ġcand": 3275,
    "sentiment": 12912,
    "led": 581,
    "finally": 9498,
    "handle": 11190,
    "Ġjura": 14192,
    "Ġturned": 2132,
    "Ġbeams": 14631,
    "alling": 6036,
    "otic": 15743,
    "Ġowned": 11874,
    "Ġstands": 5258,
    "thesize": 24906,
    "Ġcollateral": 20070,
    "igated": 15705,
    "Ġslippery": 12164,
    "Ġwherein": 14294,
    "Ġfearfully": 23509,
    "Ġneglect": 7941,
    "Ġjerking": 12243,
    "Ġ23": 13190,
    "Ġclutch": 15053,
    "Ġmons": 10156,
    "thest": 11653,
    "characteristic": 24685,
    "Ġmade": 1046,
    "Ġmortar": 19391,
    "Ġshudderings": 25200,
    "same": 5361,
    "ingly": 2134,
    "Ġsnugly": 17111,
    "Ġlent": 21544,
    "Ġhealed": 21680,
    "sleepers": 24730,
    "Ġfetched": 24567,
    "Ġhusbands": 16642,
    "ues": 2081,
    "Ġfreer": 23208,
    "Ġstudents": 23236,
    "Ġstrolled": 16770,
    "Ġviolently": 6456,
    "Ġen": 392,
    "Ġquaint": 18465,
    "unw": 14056,
    "Ġlory": 12650,
    "Ġpirate": 14996,
    "sn": 7138,
    "eprints": 12790,
    "Ġdictated": 25218,
    "Ġaffliction": 25844,
    "Ġtheology": 21275,
    "W": 59,
    "Ġfift": 6382,
    "Ġtons": 11549,
    "des": 1569,
    "deficient": 23116,
    "confirmed": 19644,
    "Ġstra": 2988,
    "distinctive": 25726,
    "Ġpurpose": 2709,
    "anel": 21355,
    "Ġclubb": 22348,
    "Ġcases": 3962,
    "Ġknow": 632,
    "irably": 13293,
    "concerns": 24064,
    "stands": 22432,
    "det": 5207,
    "Ġmau": 21309,
    "arranged": 19318,
    "Ġadmirers": 19685,
    "pieces": 8754,
    "gazed": 15360,
    "mouthed": 12398,
    "Ġvacantly": 16815,
    "ager": 6546,
    "Ġmalay": 24391,
    "broke": 14776,
    "Ġwomen": 4750,
    "Ġbush": 23335,
    "Ġdiamond": 15597,
    "iline": 21718,
    "Ġirons": 7695,
    "ĠĠĠĠĠĠĠĠĠĠĠĠĠĠĠĠĠĠĠĠĠĠĠĠĠĠĠĠĠĠĠĠĠĠĠĠĠĠĠĠ": 4515,
    "Ġpap": 8797,
    "Ġconvul": 13201,
    "Ġusefulness": 19406,
    "Ł": 258,
    "Ġmou": 13854,
    "Ġadvancing": 6878,
    "Ġtriumph": 5143,
    "Ġpsych": 10176,
    "admire": 24943,
    "Ġsandwic": 24664,
    "Ġdisturbed": 8671,
    "Ġpreparation": 13527,
    "Ġlect": 9220,
    "Ġmocking": 24000,
    "Ġoct": 10158,
    "dare": 12451,
    "Ġavailed": 23949,
    "Ġheroines": 19750,
    "Ġstone": 4645,
    "Ġhabitu": 19527,
    "brought": 7285,
    "Ġthousandth": 23682,
    "Ġphil": 3384,
    "Ġspotted": 12136,
    "Ġbid": 6131,
    "ĠĠĠĠĠĠĠĠĠĠĠĠĠĠĠĠĠĠĠĠĠĠĠĠĠĠĠĠĠĠĠĠĠĠĠĠĠĠĠĠĠĠĠĠĠĠĠĠĠĠĠ": 20037,
    "Ġherbage": 25996,
    "Ġdupl": 9953,
    "Ġessence": 13403,
    "Ġscud": 14190,
    "Ġactual": 3736,
    "asc": 6386,
    "Â£": 4812,
    "adventurous": 25361,
    "Ġregarded": 5762,
    "Ġhad": 444,
    "cast": 2927,
    "Ġwhenever": 5166,
    "brink": 23575,
    "Ġdeified": 18137,
    "Ġfailure": 13312,
    "Ġrazors": 22654,
    "weep": 22681,
    "Ġseer": 21956,
    "Ġextraordinary": 5414,
    "ation": 320,
    "Ġsuspense": 9417,
    "Ġvapors": 19907,
    "Ġperplex": 2716,
    "Ġgem": 21591,
    "Ġreproof": 24890,
    "icket": 22665,
    "linen": 25257,
    "Ġwoeful": 19618,
    "befall": 22492,
    "Ġrecords": 12193,
    "footed": 19688,
    "Ġthe": 270,
    "Ġgliding": 8559,
    "Ġlacepede": 20493,
    "Ġduke": 7755,
    "driver": 14920,
    "âĢľ_": 5720,
    "rison": 13778,
    "murder": 10564,
    "wered": 2691,
    "18": 20750,
    "Ġdestructive": 23485,
    "Ġstanders": 19014,
    "Ġve": 1107,
    "Ġhigher": 1822,
    "Ġfitted": 6243,
    "Ġstirred": 12215,
    "Ġmagnus": 18956,
    "Ġundulated": 19515,
    "Ġcetology": 10008,
    "Ġhypocr": 19470,
    "Ġyawning": 12298,
    "Ġunivers": 2125,
    "consist": 14815,
    "offensive": 16396,
    "Ġsentences": 2684,
    "Ġwatchman": 23667,
    "Ġamiable": 4269,
    "wicked": 24449,
    "Ġquest": 2002,
    "gus": 13724,
    "Ġurgent": 16869,
    "Ġexcused": 23313,
    "Ġfris": 23254,
    "adamite": 20591,
    "stepfather": 19189,
    "Ġunctuousness": 17234,
    "hs": 8377,
    "ada": 14010,
    "Ġwatched": 6297,
    "Ġbad": 3989,
    "Ġmanagement": 8192,
    "jour": 20926,
    "Ġanomalous": 25637,
    "Ġastonishment": 4794,
    "Ġbough": 13893,
    "althy": 8431,
    "voy": 7143,
    "quent": 2095,
    ".âĢĶâĢľ": 20746,
    "Ġcarve": 23089,
    "duchess": 18463,
    "hetic": 12201,
    "Ġrecompense": 14837,
    "amy": 8467,
    "histicated": 20900,
    "ined": 1257,
    "Ġartistic": 18612,
    "leaning": 10790,
    "Ġdraws": 19434,
    "Ġstealing": 18892,
    "Ġmacy": 19353,
    "usually": 10285,
    "Ġsoo": 15859,
    "gely": 10700,
    "appears": 12058,
    "aiian": 23591,
    "tenderly": 20529,
    "kne": 20934,
    "Ġreclining": 26033,
    "avings": 12021,
    "Ġresign": 18564,
    "Ġmutinous": 23955,
    "94": 4803,
    "Ġtipped": 17728,
    "Ġnorthward": 13319,
    "isely": 4487,
    "especially": 3572,
    "Ġmult": 1024,
    "Ġdeserving": 14752,
    "indebted": 26158,
    "precision": 4331,
    "ĥ": 230,
    "Ġinser": 6820,
    "Ġreveren": 13195,
    "quered": 11056,
    "exposure": 19256,
    "Ġflashes": 11914,
    "Ġrollicking": 24451,
    "Ġgovernments": 20266,
    "Ġwapping": 21293,
    "etus": 21575,
    "Ġdegraded": 19225,
    "Ġamusement": 8055,
    "Ġremedy": 18724,
    "pinn": 21025,
    "Ġcastle": 14716,
    "Ġstren": 15721,
    "bern": 20774,
    "dish": 12450,
    "pounds": 21024,
    "Ġfurnaces": 24002,
    "Ġdeft": 21833,
    "Ġcompressed": 21847,
    "ichron": 22158,
    "isation": 13892,
    "Ġexception": 11216,
    "Ġretreating": 19798,
    "saddest": 25527,
    "viv": 17698,
    "subject": 6631,
    "Í": 142,
    "intolerable": 22935,
    "Ġfleetness": 20178,
    "Ġaids": 12226,
    "evident": 25520,
    "Ġregularization": 1185,
    "message": 17371,
    "Ġvoc": 4449,
    "tical": 10128,
    "trying": 15438,
    "plac": 15815,
    "Ġire": 12667,
    "Ġabilities": 8866,
    "Ġ76": 24262,
    "Ġexpiring": 16097,
    "asses": 7016,
    "haz": 17564,
    "Ġmouldy": 14973,
    "Ġtreacher": 8604,
    "smug": 23905,
    "introduction": 15122,
    "Ġhypothesis": 14781,
    "happiest": 19331,
    "Ġburnt": 9927,
    "Ġgangs": 21606,
    "Ġfatig": 6756,
    "Ġfluctu": 5267,
    "oured": 2673,
    "considerably": 13443,
    "Ġfumbled": 17881,
    "Ġpleasantly": 14520,
    "Ġseap": 15816,
    "Ġdive": 10172,
    "Ġsqualid": 14367,
    "Ġportly": 14678,
    "ĠĠĠĠĠĠĠĠ": 712,
    "Ġsepulchre": 20558,
    "Ġreef": 10849,
    "Ġcoiled": 11818,
    "Ġbrimming": 22861,
    "Ġraptures": 13495,
    "oundered": 14162,
    "berg": 11856,
    "Ġdignity": 5704,
    "Ġrecre": 22736,
    "Ġadroop": 26001,
    "settle": 16661,
    "Ġskilfully": 20522,
    "Ġcritically": 23444,
    "Ġreplenished": 13634,
    "Ġsighing": 18676,
    "Ġtwink": 8215,
    "Ġthine": 7374,
    "Ġramsgate": 18648,
    "entreaties": 26185,
    "Ġstamped": 13525,
    "Ġsusp": 2664,
    "Ġdrooping": 9419,
    "composed": 14739,
    "bond": 17489,
    "Ġconverts": 2805,
    "Ġvoyager": 16512,
    "Ġpotent": 12062,
    "Ġworshippers": 25693,
    "Ġpolluted": 25593,
    "plete": 10919,
    "Ġpitches": 23899,
    "Ġkindred": 16377,
    "card": 11475,
    "bene": 6112,
    "Ġdifferences": 18714,
    "Ġhunks": 18935,
    "bey": 10313,
    "pul": 8753,
    "ction": 505,
    "Ġprender": 22232,
    "Ġexchanging": 18132,
    "Ġsegmentation": 17339,
    "Ġorder": 1687,
    "Ġinspire": 11994,
    "passed": 8025,
    "Ġsorts": 6887,
    "Ġgrim": 7439,
    "Ġwaldman": 11345,
    "00": 1611,
    "Ġlarger": 1400,
    "known": 3567,
    "peter": 24298,
    "Ġbreezes": 14868,
    "expectations": 24276,
    "Ġdeposit": 17268,
    "craft": 12244,
    "enari": 21280,
    "preservation": 25305,
    "Ġincorruption": 26309,
    "filled": 9594,
    "Ġarrangements": 16516,
    "vengeance": 13354,
    "Ġlightly": 13081,
    "Ġlungs": 8361,
    "400": 20754,
    "Ġbrows": 13298,
    "ilogue": 21721,
    "Ġbishop": 13901,
    "uteronomy": 15662,
    "iquette": 26132,
    "emason": 18185,
    "mr": 1901,
    "Ġtested": 23197,
    "Ġriotous": 20543,
    "Ġequal": 4136,
    "Ġunanswerable": 26521,
    "Ġbitterly": 8314,
    "Ġabhorred": 9507,
    "Ġfossiliferous": 25609,
    "Ġestim": 3348,
    "imes": 1302,
    "Ġcaterpillar": 5864,
    "Ġhurrying": 11993,
    "ray": 2435,
    "Ġwrist": 8242,
    "Ġthrilling": 19747,
    "Ġrudder": 25107,
    "Ġforge": 8456,
    "stript": 21654,
    "Ġpotency": 14646,
    "Ġgrounded": 23709,
    "oughed": 22083,
    "put": 414,
    "Ġuns": 15835,
    "fire": 6357,
    "Ġwhitting": 18055,
    "Ġgreeks": 20011,
    "raint": 18317,
    "distinction": 19570,
    "Ġcosmopol": 16455,
    "Ġassociates": 24712,
    "igate": 8822,
    "Ġloosed": 22109,
    "Ġprelimin": 8860,
    "Ġappe": 1543,
    "ellow": 3875,
    "Ġimpaling": 22383,
    "Ġingen": 9049,
    "Ġcoroner": 7510,
    "genteel": 19947,
    "Ġcrawling": 17045,
    "Ġwithered": 19463,
    "Ġhamper": 19387,
    "wheeling": 22865,
    "Ġchaps": 14179,
    "Ġguessed": 11282,
    "Ġdescribing": 19253,
    "numerous": 17430,
    "remed": 18952,
    "Ġlulled": 17968,
    "Ġcompletion": 12145,
    "\":": 9581,
    "swift": 14851,
    "Ġpersonified": 19177,
    "indifference": 15981,
    "cus": 3981,
    "Ġdigesting": 19808,
    "ighbour": 3388,
    "Ġvocation": 10525,
    "Ġwitt": 17783,
    "dimly": 15345,
    "sombre": 23852,
    "perceive": 12810,
    "Ġdismally": 20213,
    "Ġtopsails": 19192,
    "estab": 14170,
    "Ġilluminated": 20174,
    "thick": 10260,
    "Ġfed": 5530,
    "Ġgardiner": 3237,
    "Ġdecomposes": 5506,
    "Ġobligations": 12089,
    "shoals": 24717,
    "Ġprop": 1683,
    "ems": 5235,
    "Ġfocused": 16340,
    "Ġperformed": 8546,
    "Ġwatery": 6296,
    "Ġlook": 881,
    "Ġcheerfulness": 10516,
    "Ġ37": 24077,
    "six": 7141,
    "Ġconfided": 19039,
    "Ġbounce": 21391,
    "ied": 942,
    "calcul": 12985,
    "ļ": 253,
    "Ġlaughed": 5059,
    "Ġoblivious": 26032,
    "uced": 13799,
    "Ġph": 1553,
    "Ġforwards": 12701,
    "win": 6801,
    "lege": 17841,
    "ickering": 22667,
    "Ġannihilation": 15164,
    "devils": 20031,
    "Ġconstrained": 19239,
    "commotion": 24913,
    "Ġvalley": 5850,
    "Ġsympathetic": 17358,
    "izings": 14050,
    "Ġcreamy": 14328,
    "Ġbabies": 19691,
    "Ġconceals": 23901,
    "Ġabed": 22262,
    "arness": 11670,
    "ieving": 7031,
    "Ġpanthe": 19652,
    "fully": 2199,
    "mechan": 11855,
    "angry": 18294,
    "Ġdemands": 19642,
    "Ġerskine": 17431,
    "rudently": 16710,
    "Ġclicked": 22352,
    "Ġgun": 4701,
    "Ġinstituted": 18697,
    "Ġconversations": 9424,
    "Ġencouraging": 2259,
    "Ġsemicircular": 26068,
    "Ġcrouching": 23442,
    "och": 21000,
    "Ġbrack": 23833,
    "Ġpreserving": 19795,
    "odious": 21807,
    "Ġbeneath": 3236,
    "idol": 21763,
    "Ġsmoothe": 23657,
    "Ġspies": 22126,
    "Ġreplied": 2260,
    "amused": 21843,
    "crum": 17511,
    "Ġwandered": 6930,
    "Ġhue": 8428,
    "Ġperilous": 7768,
    "itives": 17819,
    "ov": 15400,
    "Ġbefell": 14009,
    "gaze": 17557,
    "hotel": 20048,
    "Ġins": 2781,
    "entrance": 12655,
    "poises": 11887,
    "Ġcakes": 13883,
    "computer": 1989,
    "sters": 6391,
    "took": 6164,
    "Ġabrupt": 9735,
    "Ġbeauties": 10445,
    "Ġskylarking": 19485,
    "Ġdesisted": 22970,
    "Ġforced": 4352,
    "Ġgo": 613,
    "Ġde": 364,
    "professor": 17249,
    "Ġsimul": 1808,
    "Ġbir": 17853,
    "Ġstilly": 25974,
    "corrid": 24484,
    "rest": 1631,
    "Ġsoften": 23122,
    "una": 21866,
    "caus": 11476,
    "account": 5329,
    "Ġcommunicative": 24548,
    "ants": 1389,
    "Ġscarcely": 4010,
    "mits": 13755,
    "Ġoblige": 10488,
    "Ġwarbling": 26168,
    "Ġmice": 13858,
    "thirst": 15824,
    "Ġsemi": 11967,
    "Ġmosses": 20162,
    "carb": 20809,
    "quaker": 15761,
    "Ġbequest": 21750,
    "ap": 548,
    "rather": 5430,
    "igh": 2030,
    "animals": 24738,
    "Ġmaledictions": 26428,
    "Ġwakeful": 24266,
    "complacency": 19913,
    "Ġwidth": 16772,
    "quiet": 6154,
    "Ġpoetic": 17103,
    "thee": 9689,
    "Ġweedy": 15790,
    "Ġtolland": 24988,
    "sprang": 19989,
    "Ġrain": 5005,
    "neighboring": 20615,
    "Ġsponge": 26004,
    "Ġformerly": 7493,
    "_âĢĶ": 11467,
    "nx": 17607,
    "Ġignoble": 19397,
    "Ġmapp": 2083,
    "Ġtechn": 9368,
    "Ġnook": 15927,
    "cont": 2920,
    "ixed": 4851,
    "Ġtemper": 957,
    "Ġacknowledged": 7534,
    "cat": 15323,
    "Ġpink": 12616,
    "Ġslipping": 13358,
    "view": 5895,
    "alt": 12636,
    "Ġcrash": 12000,
    "Ġconsuming": 22789,
    "Ġembra": 6579,
    "Ġutility": 23511,
    "Ġwarrior": 24496,
    "Ġmaelstrom": 19354,
    "Ġstrung": 22615,
    "Ġhaggerston": 26452,
    "insupportable": 21192,
    "Ġarranging": 11174,
    "Ġwhipcord": 20093,
    "Ġadvis": 9806,
    "Ġhabitations": 24789,
    "fav": 6646,
    "topic": 10527,
    "three": 5238,
    "Ġmantelpiece": 15206,
    "shot": 2177,
    "Ġintroduction": 8970,
    "Ġsoliloqu": 11883,
    "Ġrefinement": 18704,
    "safie": 20347,
    "Ġscratch": 25564,
    "nowhere": 18418,
    "Ġbarbary": 24216,
    "Ī": 235,
    "antly": 1987,
    "Ġdoubloons": 13432,
    "oug": 433,
    "Ġfrom": 435,
    "Ġtold": 2182,
    "Ġferocity": 16866,
    "Ġseaman": 8638,
    "Ġacquainted": 5179,
    "hidden": 17370,
    "def": 1452,
    "Ġdestruction": 6600,
    "aming": 5828,
    "Ġvacuous": 24344,
    "Ġkrus": 18349,
    "Ġalpha": 13586,
    "Ġwra": 5905,
    "Ġflower": 16230,
    "Ġdelivered": 11115,
    "Ġswayed": 15047,
    "Ġtide": 6658,
    "Ġpatroness": 13508,
    "Ġimpetus": 25569,
    "Ġpat": 1768,
    "Ġroughly": 17040,
    "rested": 13072,
    "athies": 22699,
    "Ġpoverty": 9303,
    "nut": 12492,
    "orified": 21400,
    "prodigious": 17466,
    "imperturbable": 25790,
    "gan": 2194,
    "Ġdistraction": 22503,
    "magn": 10610,
    "wich": 11543,
    "Ġpaunch": 23746,
    "Ġaught": 8772,
    "Ġbulk": 5591,
    "sake": 13782,
    "Ġclerical": 25568,
    "concluding": 19479,
    "Ġadaptive": 1294,
    "Ġlaughs": 24117,
    "idered": 4551,
    "Ġcomprehension": 15085,
    "ige": 12679,
    "tomb": 21092,
    "Ġretention": 23068,
    "continually": 11302,
    "veral": 2349,
    "slipping": 25528,
    "Ġrank": 6258,
    "Ġinsignificance": 20456,
    "noticed": 14340,
    "ylon": 24975,
    "Ġconclude": 8580,
    "Ġupbraid": 18318,
    "Ġsnail": 19299,
    "Ġintimacy": 8700,
    "Ġpacifics": 24373,
    "Ġchristianity": 19860,
    "Ġremain": 1874,
    "ians": 2355,
    "Ġsneering": 24697,
    "ĩ": 234,
    "Ġfaculties": 14957,
    "Ġvineyarder": 25606,
    "fallen": 19658,
    "Ġcomforts": 14693,
    "Ġremem": 4313,
    "solemn": 19816,
    "medium": 23640,
    "overhearing": 19054,
    "Ġlack": 17963,
    "Ġhorn": 6185,
    "izzy": 3091,
    "Ġaltitude": 26201,
    "Ġlivelihood": 24774,
    "newsp": 23132,
    "Ġumbrella": 15264,
    "Ġencoun": 4510,
    "Ġprodig": 6027,
    "Ġsaving": 15886,
    "Ġheadsmen": 14731,
    "onel": 3086,
    "Ġfoss": 9849,
    "intimate": 22934,
    "Ġattempting": 14696,
    "bos": 17483,
    "Ġmyself": 1455,
    "ert": 2632,
    "Ġmajesty": 5201,
    "Ġbrain": 2089,
    "Ġwisely": 13270,
    "Ġxliv": 23407,
    "Ġswim": 3818,
    "Ġpresto": 22227,
    "rential": 22916,
    "injury": 25213,
    "Ġfurlongs": 20722,
    "Ġlocks": 11722,
    "omb": 10205,
    "Ġceremony": 8360,
    "Ġfowler": 16937,
    "Ġinsignificant": 20455,
    "gi": 17551,
    "Ġpiteous": 17915,
    "ha": 3982,
    "chronicle": 26480,
    "Ġdays": 2079,
    "Ġflickering": 23008,
    "Ġhurled": 10429,
    "Ġcontemplate": 19891,
    "Ġrapture": 13494,
    "Ġbellies": 13353,
    "persons": 24174,
    "Ġpeculiarity": 12931,
    "nment": 20989,
    "teak": 22812,
    "inence": 15481,
    "Ġreeds": 15694,
    "Ġelder": 7223,
    "jewell": 25523,
    "Ġoptim": 789,
    "Ġornament": 11717,
    "coloured": 7291,
    "Ġdespondence": 25869,
    "Ġstructural": 2798,
    "Ġscriptures": 26235,
    "Ġpondered": 15165,
    "warmest": 25027,
    "Ġpudding": 17913,
    "bedded": 13225,
    "Ġpuzzled": 7317,
    "satisfactory": 16893,
    "knew": 9126,
    "pop": 17631,
    "Ġneeded": 7717,
    "class": 4097,
    "Ġ21": 11199,
    "Ġparacelsus": 15265,
    "Ġsublime": 8065,
    "inced": 3336,
    "preserver": 20212,
    "Ġshadowed": 24042,
    "Ġbaggy": 24538,
    "Ġstarvation": 19790,
    "eness": 2286,
    "Ġhellish": 10550,
    "Ġbehind": 2807,
    "retreat": 23133,
    "Ġtiar": 21166,
    "Ġmichaelmas": 26374,
    "Ġdiscoverer": 26035,
    "Ġordinarily": 20648,
    "Ġinfirm": 19017,
    "whispered": 20032,
    "possibly": 10543,
    "Ġharpooning": 23976,
    "ural": 504,
    "Ġfashion": 4298,
    "Ġlicense": 20089,
    "Ġhaz": 12753,
    "Ġclutching": 24951,
    "Ġreusability": 13556,
    "Ġexasper": 8466,
    "Ġnominally": 17231,
    "Ġpulverize": 23391,
    "Ġdisappears": 18560,
    "Ġsoar": 18277,
    "Ġhogshead": 26367,
    "asper": 7854,
    "ohnson": 16325,
    "Ġlarge": 1064,
    "Ğ": 223,
    "Ġpurposed": 23551,
    "cutting": 23782,
    "isticated": 1537,
    "Ġnupt": 13942,
    "Ġfast": 1717,
    "worn": 13805,
    "know": 2315,
    "Ġpostmark": 16725,
    "alescing": 23864,
    "Ġalgorith": 550,
    "Ġbewildered": 15212,
    "Ġwooded": 23517,
    "Ġglimpse": 6944,
    "Ġthenceforth": 25182,
    "Ġsympathise": 16794,
    "circ": 4387,
    "Ġdazed": 15594,
    "Ġpond": 13915,
    "mediate": 16513,
    "ieged": 22575,
    "Ġthre": 2061,
    "stones": 11635,
    "Ġaltern": 7393,
    "dwelt": 23869,
    "grew": 17555,
    "Ġrigging": 5601,
    "reserved": 13842,
    "Ġsqualls": 17020,
    "returned": 7765,
    "Ġpull": 5152,
    "Ġquakers": 22413,
    "Ġmagician": 25058,
    "closing": 23153,
    "Ġstation": 5297,
    "Ġbottomless": 12104,
    "Ġlet": 1113,
    "ipping": 2203,
    "impress": 18051,
    "è": 169,
    "Ġbursting": 8655,
    "condescended": 26248,
    "Ġplying": 17911,
    "inisc": 15488,
    "Ġbeau": 9224,
    "Ġpeeling": 22689,
    "Ġnoisy": 13316,
    "ales": 3315,
    "Ġrattler": 24995,
    "Ġlest": 6395,
    "Ġjam": 10951,
    "Ġcocaine": 20720,
    "disappo": 8984,
    "wantonly": 25149,
    "Ġpe": 852,
    "Ġubiquitous": 26195,
    "girdling": 26389,
    "confid": 14866,
    "Ġjudiciously": 23876,
    "soldiers": 25911,
    "erman": 5108,
    "kill": 13743,
    "atching": 8201,
    "iam": 2508,
    "machines": 8384,
    "Ġbeginning": 4243,
    "ution": 4349,
    "soundest": 24797,
    "Ġimprecations": 25820,
    "ham": 1703,
    "berwell": 22716,
    "Ġcl": 554,
    "cture": 15663,
    "Ġcopying": 17068,
    "Ġlesson": 7276,
    "Ġhanover": 20584,
    "Ġgib": 13964,
    "Ġsubmerged": 11870,
    "Ġtrivial": 10142,
    "Ġfrancisco": 26064,
    "Ġamb": 9291,
    "Ġcivility": 4788,
    "Ġteaching": 10364,
    "Ġop": 2602,
    "Ġfancies": 10424,
    ",âĢĻ": 2324,
    "inder": 9152,
    "Ġworks": 5858,
    "clusion": 16304,
    "attended": 8952,
    "pursued": 17281,
    "Ġaerial": 21197,
    "Ġvolume": 6769,
    "Ġclanking": 20610,
    "Ġhuggins": 24828,
    "tt": 13789,
    "Ġmachine": 793,
    "Ġmatrimony": 13633,
    "Ġgi": 15664,
    "Ġstability": 1364,
    "Ġdefy": 11895,
    "Ġscandal": 9081,
    "Ġabsurdly": 19958,
    "continue": 16861,
    "Ġpersisted": 13039,
    "Ġdaylight": 10350,
    "Ġaunts": 21199,
    "Ġbruised": 25772,
    "Ġplain": 2816,
    "Ġnervously": 19183,
    "Ġtrick": 7018,
    "whatsoever": 18489,
    "Ġcommerce": 11015,
    "Ġbeholding": 8668,
    "Ġbell": 4635,
    "Ġcalmed": 16265,
    "Ġtour": 9147,
    "Ġmoran": 9340,
    "Ġcrowding": 13277,
    "gentlemen": 9503,
    "respectively": 24700,
    "Ġcornelius": 13571,
    "adie": 18088,
    "Ġeaglet": 19304,
    "Ġsteward": 6584,
    "lonely": 20956,
    "Ġgained": 4533,
    "police": 10583,
    "sal": 8757,
    "Ġanimation": 11152,
    "adventures": 20255,
    "Ġaccommod": 14212,
    "Ġmexico": 15279,
    "Ġcautiously": 16977,
    "rolled": 9059,
    "Ġbilliard": 16689,
    "upon": 2722,
    "dled": 9110,
    "Ġpale": 4530,
    "Ġdread": 3160,
    "Ġpraises": 16730,
    "fail": 17540,
    "architect": 22892,
    "main": 8087,
    "Ġinexpress": 12633,
    "rivial": 9433,
    "Ġcor": 1322,
    "Ġliber": 5168,
    "erest": 10697,
    "breaths": 25336,
    "Ġincor": 2610,
    "sloop": 26145,
    "Ġneck": 4885,
    "anted": 5027,
    "Ġremained": 3136,
    "Ġbubbles": 11398,
    "Ġmassive": 9931,
    "strils": 10459,
    "Ġdoubly": 16385,
    "Ġbenefit": 8292,
    "Ġsult": 10767,
    "ivot": 11716,
    "Ġexquisitely": 20201,
    "Ġcombines": 1194,
    "Ġmalady": 24392,
    "Ġsebastian": 11696,
    "Ġthreatened": 8329,
    "veil": 18042,
    "nights": 16449,
    "part": 2573,
    "skirted": 24489,
    "Ġspasmodic": 20396,
    "asons": 6014,
    "contrast": 25594,
    "Ġpoint": 2058,
    "ogy": 22693,
    "Ġwhimsical": 20426,
    "Ġdisaster": 12885,
    "Ġpassages": 12967,
    "tering": 3805,
    "Ġcolon": 18765,
    "Ġabridged": 26540,
    "Ġ124": 24469,
    "Ġreality": 7057,
    "Ġdejected": 20303,
    "Ġseverity": 15819,
    "Ġappetite": 12382,
    "loveliness": 26549,
    "romed": 10905,
    "Ġcharity": 8862,
    "Ġmeaning": 1417,
    "argue": 21442,
    "cnns": 3622,
    "×": 152,
    "repent": 15513,
    "Ġwelded": 9571,
    "hedge": 22496,
    "Ġflavor": 16250,
    "Ġconcern": 2657,
    "Ġothers": 2583,
    "magnitude": 17248,
    "Ġphren": 8571,
    "terdam": 18129,
    "_âĢĶâĢĻâĢĿ": 25741,
    "Ġunre": 3477,
    "Ġdependent": 14288,
    "Ġeyeing": 6460,
    "itating": 9650,
    "Ġembrace": 16990,
    "less": 928,
    "Ġcap": 2358,
    "Ġbroke": 5322,
    "presence": 18498,
    "Ġinheriting": 25354,
    "Ġtrusty": 24105,
    "Ġaccordance": 19496,
    "flesh": 13488,
    "sent": 760,
    "Ġveget": 11884,
    "Ġcoldly": 14650,
    "iting": 2155,
    "Ġq": 1084,
    "Ġthief": 11609,
    "Ġcreature": 2380,
    "Ġexplain": 546,
    "Ġwishing": 7830,
    "Ġdomineering": 23594,
    "Ġ24": 13191,
    "Ġladen": 19176,
    "nd": 11503,
    "loa": 18536,
    "Ġlodgings": 8311,
    "Ġsuite": 18281,
    "Ġimperial": 9480,
    "Ġinteractions": 12901,
    "ogany": 18672,
    "eze": 20846,
    "orate": 10800,
    "lop": 20947,
    "ougher": 18279,
    "Ġraven": 16114,
    "Ġsleeper": 8600,
    "Ġobtain": 8914,
    "Ġepicurean": 20554,
    "Ġmcc": 21305,
    "lucases": 20209,
    "ely": 622,
    "Ġresidence": 8206,
    "Ġcomprise": 18583,
    "Ġindiscreet": 22953,
    "frantic": 24283,
    "conception": 22469,
    "sky": 12508,
    "Ġwheeling": 18286,
    "Ġstructures": 2721,
    "Ġcage": 17825,
    "display": 19154,
    "rever": 21234,
    "Ġinsist": 9889,
    "seen": 2878,
    "Ġdisinclined": 22526,
    "Ġbriskly": 25311,
    "Ġpassive": 22836,
    "Ġshock": 6082,
    "Ġallowed": 4059,
    "ð": 177,
    "investments": 25532,
    "rine": 21036,
    "Ġindia": 10370,
    "'re": 12426,
    "Ġforgetfulness": 14606,
    "england": 18928,
    "Ġmechanis": 1209,
    "Ġembraces": 19871,
    "Ġtack": 5621,
    "erns": 8777,
    "azing": 7704,
    "uble": 21101,
    "illation": 14141,
    "summon": 23414,
    "Ġbamboo": 17436,
    "Ġkeepers": 23537,
    "Ġ36": 14767,
    "itates": 13868,
    "Ġthanked": 9458,
    "Ġsallow": 12533,
    "idy": 21761,
    "Ġsheets": 9721,
    "========": 2309,
    "passage": 11261,
    "akes": 2214,
    "illum": 15868,
    "alter": 10826,
    "isc": 6239,
    "Ġsunshine": 14494,
    "Ġreminded": 9998,
    "ii": 4016,
    "church": 8139,
    "lanter": 15386,
    "Ġhumped": 19768,
    "gloomy": 25144,
    "Ġbut": 424,
    "Ġvictor": 5125,
    "Ġwithstand": 10225,
    "Ġexposed": 8522,
    "Ġtantamount": 25625,
    "Ġadult": 18289,
    "msman": 9266,
    "benevolent": 15232,
    "Ġbourgh": 5069,
    "Ġmich": 21304,
    "fulness": 4310,
    "Ġhovered": 12629,
    "Ġpersecut": 16952,
    "Ġdropped": 4469,
    "illed": 2624,
    "Ġalarmed": 6923,
    "Ġdisco": 3429,
    "omas": 12669,
    "rict": 8092,
    "Ġesq": 15107,
    "uc": 1877,
    "Ġillustrative": 25066,
    "Ġpleasures": 11143,
    "whalers": 17263,
    "borean": 25743,
    "Ġclosing": 11770,
    "Ġany": 687,
    "Ġ133": 24783,
    "Ġanybody": 5313,
    "dwelling": 20563,
    "ribbed": 16411,
    "aggoo": 5130,
    "Ġpreceded": 13426,
    "ogr": 18670,
    "Ġanimated": 7701,
    "tr": 3579,
    "Ġfreshe": 13067,
    "Ġreputed": 18035,
    "Ġthreaten": 24374,
    "ß": 160,
    "Ġdevotees": 25376,
    "agon": 7870,
    "oded": 11668,
    "Ġcrowds": 14738,
    "pun": 9617,
    "Ġcamberwell": 25350,
    "Ġsaucer": 20604,
    "landlord": 9839,
    "Ġconfusing": 23307,
    "Ġfought": 12591,
    "Ġoccupant": 16651,
    "Ġforest": 9870,
    "Ġsouls": 6308,
    "inate": 6233,
    "whatever": 6694,
    "Ġexploring": 4305,
    "sy": 2758,
    "Ġsir": 1572,
    "Ġwel": 4525,
    "propriety": 14373,
    "Ġrounding": 16274,
    "shr": 10980,
    "Ġgathers": 24743,
    "Ġrepositories": 23362,
    "doubted": 17526,
    "Ġkicking": 16901,
    "Ġgag": 21590,
    "Ġmaritime": 23034,
    "Ġeleven": 9389,
    "Ġxvi": 19104,
    "Ġpersonages": 23539,
    "extric": 22765,
    "nowledge": 10289,
    "Ġyork": 11665,
    "Ġbrink": 18770,
    "fic": 20851,
    "bingley": 4927,
    "Ġendued": 14076,
    "Ġstat": 1491,
    "Ġsoftly": 7947,
    "progression": 20380,
    "pointed": 9809,
    "Ġunintelligible": 26514,
    "Ġloo": 22107,
    "enormous": 26166,
    "rush": 7010,
    "Ġroyal": 5602,
    "Ġnation": 12645,
    "Ġprow": 6684,
    "octavo": 11385,
    "Ġnotes": 7189,
    "Ġmotioned": 19591,
    "pause": 12498,
    "Ġ22": 8278,
    "ifferent": 4262,
    "Ġdefilements": 26284,
    "Ġdevelop": 1679,
    "t": 88,
    "Ġduplicate": 17215,
    "Ġofficer": 6753,
    "Ġsophisticated": 1545,
    "outh": 2689,
    "trans": 5594,
    "Ġpaddled": 20200,
    "Ġforming": 7042,
    "Ġslopes": 18940,
    "Ġshield": 21996,
    "Ġcloudy": 19475,
    "Ġbullion": 24983,
    "tuesday": 17690,
    "Ġinternal": 2240,
    "landed": 18954,
    "Ġghostly": 24650,
    "Ġburst": 4379,
    "Ġunmingled": 18263,
    "Ġpierced": 12279,
    "tish": 17677,
    "Ġinsure": 13176,
    "Ġinsists": 23676,
    "Ġsurveying": 25325,
    "Ġexpensive": 12916,
    "Ġtopmost": 14587,
    "Ġaccumulation": 2694,
    "Ġache": 18663,
    "Ġseventh": 18206,
    "riors": 18182,
    "writing": 7720,
    "Ġsi": 21211,
    "broad": 8642,
    "Ġmitig": 1338,
    "Ġgramm": 8170,
    "Ġuncompromised": 20602,
    "Ġemac": 16406,
    "opportunity": 12272,
    "Ġsod": 11561,
    "Ġmumbled": 17807,
    "Ġinvaders": 23479,
    "Ġjud": 3357,
    "Ġseasons": 9430,
    "oton": 3608,
    "Ġprotectors": 9070,
    "iscuit": 10598,
    "fig": 8734,
    "Ġcooped": 22578,
    "Ġfew": 1213,
    "Ġashes": 7616,
    "Ġmoby": 3665,
    "Ġanswer": 2598,
    "Ġinfatuation": 25856,
    "feet": 6568,
    "Ġhopeful": 19031,
    "Ġschoolboys": 24481,
    "Ġminut": 2200,
    "Ġirreparable": 19997,
    "usable": 22286,
    "Ġgetting": 4066,
    "Ġoxford": 11371,
    "circumspect": 26086,
    "mentioning": 24885,
    "hopes": 15368,
    "oh": 1580,
    "Ġinde": 7371,
    "doub": 6223,
    "hib": 15366,
    "Ġtutored": 20126,
    "andy": 8157,
    "sympathy": 20541,
    "Ġhappily": 9330,
    "Ġcorrect": 2428,
    "iogn": 20920,
    "Ġunconscious": 9546,
    "hy": 4740,
    "Ġsworn": 14434,
    "antages": 7192,
    "crimin": 17508,
    "harpo": 4805,
    "T": 56,
    "Ġsport": 6688,
    "oubtedly": 6943,
    "eliest": 14745,
    "Ġinspection": 14544,
    "Ġfood": 5080,
    "fee": 12877,
    "Ġmarching": 16699,
    "Ġmum": 13857,
    "Ġcommend": 10334,
    "flukes": 25205,
    "Ġscreaming": 13421,
    "axen": 22518,
    "Ġtrophy": 20005,
    "Ġswung": 6449,
    "Ġansw": 2201,
    "racing": 21628,
    "inferences": 17739,
    "anting": 6412,
    "Ġhungry": 10532,
    "lected": 1635,
    "trop": 15436,
    "dick": 11479,
    "Ġspleen": 26421,
    "Ġnervousness": 23555,
    "lording": 24047,
    "Ġtremor": 24768,
    "pus": 3414,
    "intervals": 10637,
    "Ġmurderous": 8315,
    "cream": 15330,
    "august": 11071,
    "Ġemb": 1263,
    "Ġthere": 563,
    "âĢĶ": 518,
    "crawling": 16958,
    "Ġsubst": 4273,
    "eer": 15346,
    "Ġphilosoph": 19650,
    "ww": 10737,
    "Ġcorresponding": 13436,
    "visitors": 13346,
    "Ġcautiousness": 19865,
    "Ġkneel": 14806,
    "Ġcaged": 21350,
    "Ġcommunion": 19008,
    "Ġpursuing": 9437,
    "clerval": 7950,
    "Ġidentity": 2522,
    "ulged": 12728,
    "Ġbuttoned": 25368,
    "algorithm": 4474,
    "Ġcongenial": 12409,
    "hurried": 11353,
    "Ġkindly": 6077,
    "Ġcompanions": 5865,
    "correct": 24483,
    "Ġmbpp": 21320,
    "osh": 18388,
    "Ġtor": 8105,
    "holding": 7738,
    "Ġsurpr": 2550,
    "Ġgenerations": 10965,
    "Ġsly": 9632,
    "Ġcaring": 23088,
    "Ġreally": 2157,
    "Ġsaturday": 6452,
    "Ġoverl": 18427,
    "absence": 12706,
    "Ġmax": 2007,
    "ractions": 11632,
    "Ġimpetuously": 20370,
    "Ġlighten": 23257,
    "Ġunexpected": 6841,
    "halfway": 24311,
    "Ġdad": 12598,
    "Ġsmart": 11813,
    "Ġcredit": 4818,
    "scornful": 26575,
    "Ġfelicity": 7260,
    "source": 11525,
    "Ġeff": 673,
    "Ġsoon": 1228,
    "Ġears": 4489,
    "Ġtickets": 17094,
    "bres": 11471,
    "Ġworker": 23044,
    "Ġconstitutional": 25125,
    "Ġoars": 3896,
    "bal": 2154,
    "Ġproportional": 2523,
    "Ġsupplying": 19797,
    "Ġsaintly": 25931,
    "conclude": 24063,
    "flask": 12097,
    "Ġaffecting": 2320,
    "Ġvessel": 3797,
    "bowed": 10683,
    "Ġscrews": 25177,
    "Ġcoll": 8220,
    "althily": 19357,
    "Ġcapture": 3383,
    "com": 997,
    "Ġrambled": 20167,
    "Ġcottage": 4733,
    "civilities": 24971,
    "ilations": 21719,
    "Ġsecret": 3719,
    "Ġprejud": 6851,
    "Ġwarmly": 8987,
    "Ġhate": 5445,
    "perquisites": 26531,
    "Ġuntrodden": 23519,
    "ense": 2053,
    "Ġbarbarously": 24819,
    "Ġabutted": 22272,
    "Ġwaiter": 16359,
    "wal": 10133,
    "Ġfacilitate": 26098,
    "Ġsadly": 7302,
    "hind": 20893,
    "Ġchanced": 8186,
    "Ġbeards": 21748,
    "pt": 388,
    "Ġcompression": 18145,
    "uous": 4145,
    "Ġknob": 24407,
    "Ġanoints": 25538,
    "Ġstre": 2108,
    "ouses": 5163,
    "oting": 2745,
    "Ġsupers": 18282,
    "dr": 6221,
    "Ġthomas": 17947,
    "Ġstraggling": 23748,
    "inkers": 22612,
    "Ġmeals": 12709,
    "cock": 12024,
    "Ġroll": 5381,
    "presently": 9808,
    "Ġexpansion": 22624,
    "Ġdiscoveries": 13356,
    "Ġfishermen": 5970,
    "Ġquietly": 4565,
    ",âĢĶ": 3168,
    "icates": 11616,
    "other": 1315,
    "Ġawe": 7147,
    "sell": 13780,
    "elev": 12456,
    "Ġcheshire": 13087,
    "raham": 18013,
    "Ġsituation": 4072,
    "couldn": 23715,
    "Ġwoke": 21288,
    "Ġcloudless": 16668,
    "poison": 14391,
    "Ġbarbed": 14834,
    "Ġdismasted": 15250,
    "Ġimmovable": 15891,
    "Ġaboriginal": 14188,
    "msprop": 2625,
    "devil": 7894,
    "skill": 24487,
    "Ġhowl": 12853,
    "Ġale": 9154,
    "one": 614,
    "Ġunjustifiable": 25109,
    "neighbouring": 19962,
    "Ġinvention": 19951,
    "soul": 9140,
    "Ġnooks": 26011,
    "elfare": 11775,
    "Ġomnipotent": 13546,
    "Ġroads": 13286,
    "Ġunjustly": 17126,
    "pon": 17625,
    "sufferable": 12174,
    "Ġprepar": 7896,
    "Ġdevelopment": 7061,
    "rubbery": 17341,
    "ect": 381,
    "tremble": 17141,
    "Ġblunt": 11892,
    "Ġendurance": 23142,
    "Ġyards": 5371,
    "Ġwretched": 4082,
    "Ġreceive": 4703,
    "Ġabode": 7899,
    "Ġagatha": 6866,
    "script": 11077,
    "Ġconcerning": 4069,
    "rock": 15639,
    "illing": 8174,
    "Ġassuredly": 14821,
    "Ġtry": 3129,
    "Ġtoiling": 15633,
    "ig": 324,
    "Ġcynicism": 25771,
    "Ġobviously": 16810,
    "Ġreced": 15690,
    "hilar": 25081,
    "Ġtotal": 4993,
    "ulity": 10886,
    "Ġign": 8293,
    "Ġcontinue": 5398,
    "Ġrelating": 2706,
    "âĢĿ)": 21811,
    "Ġexerc": 6834,
    "Ġjuggler": 26366,
    "aract": 17894,
    "thrust": 10261,
    "Ġdoubted": 7964,
    "Ġcetace": 14987,
    "Ġstreaked": 19113,
    "ander": 6401,
    "Ġpaintings": 15055,
    "Ġnowadays": 18546,
    "devilish": 17082,
    "Ġattic": 16094,
    "raising": 21629,
    "Ġunluckily": 20100,
    "Ġweakened": 16823,
    "Ġvertical": 16604,
    "Ġtone": 4040,
    "overfitting": 13099,
    "refusal": 24736,
    "aton": 21257,
    "uncle": 8158,
    "ogn": 2544,
    "Ġtraitors": 23075,
    "som": 3291,
    "Ġinsupportable": 13931,
    "iality": 8843,
    "Ġfilled": 4393,
    "Ġlearning": 386,
    "Ġledger": 19400,
    "Ġparallel": 1416,
    "inform": 10143,
    "Ġ[\"": 19929,
    "scream": 11076,
    "vity": 7815,
    "Ġjoint": 12032,
    "Ġlawyers": 25248,
    "Ġafore": 10758,
    "Ġstaying": 8283,
    "Ġincurable": 22549,
    "Ġcontinuous": 1565,
    "Ġsaves": 18324,
    "Ġendeavouring": 8034,
    "Ġparading": 23708,
    "Ġripples": 25505,
    "istically": 14143,
    "mens": 20968,
    "better": 7119,
    "Ġindelible": 25694,
    "Ġborder": 10169,
    "Ġsumm": 3355,
    "Ġhorror": 3772,
    "Ġrevolved": 9983,
    "Ġuniversity": 13119,
    "Ġluck": 4880,
    "Ġincommun": 25308,
    "Ġtube": 15003,
    "Ġyojo": 7610,
    "Ġnobler": 14175,
    "ree": 874,
    "Ġentangled": 10343,
    "amples": 1824,
    "ö": 183,
    "Ġrushes": 20506,
    "Ġfeelingly": 22987,
    "seemed": 4304,
    "ure": 356,
    "Ġupdating": 2692,
    "Ġtant": 12522,
    "Ġger": 21588,
    "cruise": 24841,
    "transformers": 8714,
    "fashioned": 9570,
    "Ġbond": 21382,
    "Ġgree": 7594,
    "overspreading": 26139,
    "Ġsoapstone": 20509,
    "Ġconnivance": 25225,
    "Ġabandoned": 8351,
    "asol": 21537,
    "Ġrobins": 16243,
    "Ġmarshalled": 25315,
    "reclining": 20573,
    "vering": 15714,
    "surely": 10569,
    "resentment": 15184,
    "G": 43,
    "umbent": 12093,
    "hies": 17560,
    "Ġfaced": 10808,
    "Ġfelix": 4848,
    "Ġstag": 6148,
    "asis": 12648,
    "ges": 2871,
    "Ġcontent": 5034,
    "protest": 24815,
    "Ġribs": 7101,
    "reve": 12536,
    "Ġdependence": 18619,
    "Ġzeros": 3323,
    "Ġexcellence": 11451,
    "Ġemboldened": 22996,
    "Ġware": 12551,
    "dataset": 23244,
    "Ġendeavored": 19302,
    "approb": 11042,
    "Ġtolerable": 6949,
    "wishing": 21127,
    "dan": 17515,
    "Ġunbroken": 18250,
    "oled": 17619,
    "Ġtarn": 21157,
    "Ġcraven": 16469,
    "Ġartic": 5314,
    "reated": 10302,
    "Ġcommunicated": 9061,
    "Ġmanifested": 17157,
    "Ġregulate": 22584,
    "Ã¦": 4337,
    "Ġroy": 4226,
    "Ġapplications": 4783,
    "tese": 21082,
    "Ġgaining": 9491,
    "inioned": 19285,
    "haired": 14766,
    "Ġhereafter": 9329,
    "Ġworld": 1597,
    "Ġthorough": 6245,
    "Ġsk": 961,
    "Ġleft": 1760,
    "rd": 17649,
    "Ġundergone": 18984,
    "Ġgrown": 5628,
    "Ġwhisky": 23931,
    "september": 14035,
    "Ġevent": 2950,
    "Ġenormity": 19694,
    "Ġimpud": 18445,
    "Ġchests": 19670,
    "rift": 11519,
    "Ġyale": 21783,
    "bred": 11469,
    "Ġcleaned": 23179,
    "Ġbusied": 19066,
    "uity": 12515,
    "Ġdig": 6135,
    "Ġsolitudes": 22883,
    "Ġconstrued": 26301,
    "wall": 10136,
    "orders": 12872,
    "saved": 15431,
    "captain": 3954,
    "weaving": 18666,
    "Ġcounterpane": 11343,
    "Ġsunken": 14493,
    "Ġactivations": 2720,
    "special": 14704,
    "isl": 21373,
    "Ġide": 2122,
    "Ġcontemporary": 16011,
    "Ġlunch": 13524,
    "ribution": 14302,
    "Ġargue": 16783,
    "Ġuniform": 2221,
    "Ġsnatch": 14639,
    "Ġanyways": 22517,
    "Ġpervers": 11781,
    "6": 26,
    "inferiors": 25346,
    "chester": 23804,
    "Ġpurplish": 19140,
    "months": 9071,
    "ficial": 17548,
    "Ġusher": 22208,
    "Ġpickle": 16722,
    "Ġrept": 13982,
    "Ġmet": 1896,
    "ounts": 4651,
    "ulations": 6028,
    "Ġrom": 4523,
    "Ġtul": 21158,
    "thus": 5158,
    "Ġcul": 17822,
    "Ġdry": 5624,
    "Ġbaleen": 10036,
    "Ġconsummation": 17424,
    "Ġnursery": 19749,
    "Ġjest": 18404,
    "Ġperpet": 7644,
    "Ġtallow": 14777,
    "Ġbroadway": 23981,
    "adding": 21756,
    "Ġcasting": 12098,
    "Ġshivered": 14107,
    "Ġmutiny": 13257,
    "Ġconnect": 798,
    "Ġwherefore": 8524,
    "ont": 2622,
    "Ġencomp": 12959,
    "oquence": 11386,
    "beating": 22486,
    "Ġgamb": 17997,
    "brad": 20780,
    "estate": 12819,
    "uzza": 11270,
    "Ġ64": 24367,
    "Ġunaffected": 14121,
    "tent": 21063,
    "Ġsluggish": 25890,
    "hap": 17559,
    "Ġpilgr": 12178,
    "Ġoce": 3027,
    "Ġimmens": 9938,
    "Ġwantest": 18789,
    "ifts": 12733,
    "securing": 19812,
    "Ġshelves": 14998,
    "Ġusing": 695,
    "Ġgothic": 17999,
    "Ġsavor": 23873,
    "Ġ97": 19773,
    "upwards": 18857,
    "Ġigniting": 25070,
    "Ġsaville": 15888,
    "avail": 18605,
    "visits": 24223,
    "Ġgodson": 23356,
    "Ġchamois": 16800,
    "iriously": 18171,
    "Ġarbit": 4650,
    "venerable": 26408,
    "Ġgoug": 17990,
    "hurst": 19878,
    "Ġlibrary": 6423,
    "cher": 5786,
    "Ġpalmed": 24090,
    "ultaneous": 18582,
    "sto": 3195,
    "handedness": 24920,
    "utterly": 20010,
    "Ġhorns": 11123,
    "continu": 5501,
    "Ġgirdle": 19156,
    "Ġwhither": 10214,
    "Ġsubsequently": 16159,
    "Ġprefers": 20512,
    "rapidly": 15242,
    "magistrate": 19862,
    "stump": 21650,
    "contin": 16541,
    "Ġimpressed": 8198,
    "Ġvariants": 1792,
    "Ġlegal": 10439,
    "Ġmartyr": 26360,
    "Ġavowal": 19413,
    "Ġresid": 22535,
    "Ġrestricted": 19027,
    "bub": 15315,
    "Ġreflections": 5945,
    "Ġnoteworthy": 24162,
    "ulled": 14055,
    "Ġmanly": 22322,
    "anoke": 21359,
    "Ġconcuss": 19048,
    "Ġhem": 8445,
    "oy": 1019,
    "imagination": 13478,
    "Ġthough": 993,
    "aye": 3660,
    "unaccountable": 15777,
    "Ġreappearance": 21664,
    "Ġarched": 10932,
    "guilt": 24067,
    "midnight": 14901,
    "Ġill": 2189,
    "Ġlayers": 817,
    "Ġnotice": 4541,
    "tem": 6369,
    "Ġevince": 24293,
    "Ġentranced": 25833,
    "riage": 2123,
    "Ġattributed": 11832,
    "aky": 18412,
    "Ġdri": 2359,
    "Ġ(âĢľ": 15994,
    "Ġconnected": 5393,
    "susp": 10596,
    "bohem": 19001,
    "Ġindebted": 8707,
    "Ġwhisker": 23932,
    "relations": 14732,
    "Ġfurthest": 22811,
    "Ġchamp": 18381,
    "Ġdeity": 18134,
    "Ġchecked": 9375,
    "Ġnigh": 4878,
    "Ġvirtual": 11240,
    "Ġshipmates": 6720,
    "execut": 13653,
    "Ġpallet": 21478,
    "longer": 8612,
    "written": 7994,
    "Ġwilliam": 3482,
    "Ġpoison": 7219,
    "look": 2257,
    "Ġusually": 6263,
    "Ġrefreshing": 20263,
    "Ġsynthe": 26007,
    "Ġentreat": 4508,
    "biting": 20779,
    "Ġmarriage": 3185,
    "Ġallurements": 22004,
    "Ġcrackling": 24958,
    "hawk": 7121,
    "Ġomit": 17815,
    "Ġhilarity": 20296,
    "Ġslanting": 23169,
    "pencil": 18827,
    "Ġenthusiastic": 19964,
    "planks": 21951,
    "ras": 21035,
    "Ġwintry": 17433,
    "asht": 4085,
    "Ġoscill": 2854,
    "apped": 5395,
    "Ġreduce": 7942,
    "Ġslung": 23165,
    "we": 848,
    "Ġlomb": 21556,
    "Ġgrated": 22801,
    "Ġjavelins": 26105,
    "Ġmisled": 22755,
    "Ġdivined": 19441,
    "ilege": 22253,
    "Ġtech": 1681,
    "Ġinterpretation": 19715,
    "yarn": 15457,
    "Ġnoise": 1072,
    "cano": 18839,
    "vener": 21110,
    "osely": 9264,
    "Ġmultipl": 2791,
    "Ġteasing": 11889,
    "foundation": 16714,
    "Ġpedest": 14995,
    "Ġcoolly": 9771,
    "instinctively": 26327,
    "Ġleatherhead": 20012,
    "looking": 4034,
    "Ġperforms": 11875,
    "Ġclock": 9532,
    "Ġattracted": 8904,
    "aboard": 21791,
    "perils": 22184,
    "oper": 7347,
    "Ġfoaming": 18991,
    "entering": 17976,
    "spass": 18689,
    "vously": 23502,
    "Ġnostrils": 10943,
    "ľ": 255,
    "haven": 20911,
    "Ġmodern": 3226,
    "Ġprovidence": 18745,
    "forster": 16165,
    "Ġniagara": 26458,
    "Ġsupplies": 20325,
    "Ġell": 17715,
    "frau": 15088,
    "Ġinjection": 3467,
    "Ġcapable": 5054,
    "Ġgarb": 21600,
    "Ġcellars": 24665,
    "Ġage": 3895,
    "Ġcure": 21338,
    "hurry": 24763,
    "Ġaccompaniments": 24482,
    "Ġslip": 8954,
    "ffic": 22148,
    "Ġjournal": 15217,
    "ms": 532,
    "Ġdistressed": 8514,
    "origin": 7581,
    "Ġfervent": 14895,
    "Ġoccas": 2704,
    "true": 2586,
    "operation": 13499,
    "becoming": 18516,
    "Ġnimble": 21525,
    "unned": 21875,
    "sculpt": 16241,
    "Ġjudgment": 5765,
    "Ġretribution": 16280,
    "Ġinhabit": 5782,
    "Ġwalked": 3135,
    "Ġprows": 19888,
    "Ġtwisted": 7228,
    "Ġinterment": 22571,
    "adequ": 11020,
    "Ġcaps": 8414,
    "Ġno": 511,
    "Ġsurvived": 14933,
    "Ġjoyfully": 19344,
    "Ġrede": 13983,
    "Ġpl": 745,
    "Ġrelieve": 8222,
    "Ġastonished": 7087,
    "desperate": 17351,
    "Ġthankful": 14737,
    "Ġland": 1998,
    "lleg": 20950,
    "Ġwallowing": 24040,
    "Ġcities": 17827,
    "--------": 14780,
    "Ġconsolation": 6208,
    "Ġreleased": 2975,
    "Ġsurtout": 23464,
    "Ġresult": 4458,
    "ĠĠĠĠĠĠĠĠĠĠĠĠĠĠĠĠĠĠĠĠĠĠĠĠĠĠĠĠĠĠĠĠĠĠĠĠĠĠĠĠĠĠĠ": 12152,
    "Ġpurporting": 19181,
    "Ġriveted": 13616,
    "bert": 4662,
    "intelligence": 5882,
    "ugn": 9377,
    "Ġ(": 594,
    "Ġhandspike": 22695,
    "indul": 22367,
    "surf": 24212,
    "aulets": 18620,
    "fainting": 20471,
    "Ġprobability": 1126,
    "Ġla": 5912,
    "wood": 5897,
    "aloft": 8806,
    "Ġdecap": 16019,
    "Ġcontemplated": 13462,
    "Ġregent": 18597,
    "aging": 2233,
    "Ġyielded": 14871,
    "Ġnautical": 17385,
    "Ġcherub": 23284,
    "Ġaddition": 1145,
    "absolutely": 10645,
    "Ġket": 18347,
    "Ġinterested": 6458,
    "Ġlecture": 13565,
    "Ġwars": 17785,
    "Ġcircumspection": 25884,
    "inside": 23062,
    "Ġaut": 1786,
    "Ġswimmer": 19457,
    "actory": 8907,
    "accomplished": 17211,
    "agra": 14065,
    "Ġthoughtless": 16191,
    "Ġserv": 3328,
    "brÃ¦": 11175,
    "Ġeverywhere": 9794,
    "Ġexamining": 8005,
    "cent": 8072,
    "Ġcubic": 20086,
    "Ġchances": 9262,
    "verb": 10216,
    "Ġexert": 5722,
    "Ġsavesoul": 26227,
    "õ": 182,
    "tumultuous": 20397,
    "ourney": 3552,
    "Ġtomorrow": 21510,
    "Ġassur": 6073,
    "mospheric": 17091,
    "fortunately": 9449,
    "Ġhed": 7387,
    "Ġmace": 21308,
    "Ġinvulnerable": 19146,
    "Ġforc": 9227,
    "aud": 8521,
    "off": 1886,
    "Ġsex": 8841,
    "several": 5544,
    "shish": 11791,
    "Ġcauses": 2561,
    "Ġregularizer": 2335,
    "obvious": 9356,
    "infliction": 25924,
    "Ġdoub": 1837,
    "Ġredness": 19311,
    "Ġhandwriting": 14318,
    "stir": 12671,
    "Ġhealthful": 24055,
    "sex": 12711,
    "Ġwelcome": 5604,
    "Ġfrightened": 5341,
    "Ġgame": 3629,
    "ternatural": 12713,
    "books": 8663,
    "Ġhatches": 12043,
    "Ġpractice": 2667,
    "oil": 7805,
    "v": 90,
    "Ġcargo": 16289,
    "Ġloomed": 12299,
    "sized": 15428,
    "unching": 18158,
    "Ġdisplaying": 16966,
    "Ġconjectured": 9996,
    "Ġcalled": 1971,
    "desire": 14474,
    "Ġuntil": 2669,
    "Ġraw": 3319,
    "Ġredundant": 16550,
    "Ġshown": 5159,
    "Ġbradstreet": 9576,
    "Ġreach": 4047,
    "seam": 10874,
    "Ġtechni": 1726,
    "·": 120,
    "Ġlive": 2735,
    "Ġawfulness": 23586,
    "Ġdelicacy": 6340,
    "antage": 3877,
    "Ġmeditation": 16680,
    "places": 7876,
    "Ġguards": 16266,
    "Ġsquint": 22833,
    "Ġintermission": 18587,
    "meryton": 10111,
    ",âĢĶâĢĺ": 23800,
    "Ġmiserable": 3635,
    "lydia": 6826,
    "Ġunpleasing": 22052,
    "bweb": 20790,
    "plenty": 14087,
    "unction": 10234,
    "splash": 25209,
    "takes": 21074,
    "Ġtester": 21171,
    "Ġwed": 3961,
    "jub": 20928,
    "Ġnavel": 24576,
    "Ġdiminishing": 4207,
    "stay": 9680,
    "sprinkling": 24912,
    "Ġrespected": 11951,
    "ĠĠĠĠĠĠĠĠĠĠĠĠĠĠĠĠĠĠĠĠĠĠĠĠĠĠĠĠĠĠĠĠĠ": 12040,
    "Ġadversity": 24303,
    "Ġneedle": 8274,
    "Ġczar": 12572,
    "Ñ": 146,
    "Ġcompetent": 11814,
    "Ġuniformly": 19147,
    "Ġsorry": 4208,
    "Ġobserv": 8586,
    "Ġtottenham": 24142,
    "Ġjonas": 20608,
    "Ġcalcul": 3638,
    "Ġavocation": 23950,
    "clings": 23149,
    "black": 6768,
    "heaven": 8052,
    "Ġable": 3077,
    "Ġslaugh": 18937,
    "les": 1015,
    "Ġcursed": 6729,
    "Ġbelonging": 8306,
    "gpt": 5355,
    "Ġarchitectures": 2909,
    "Ġdit": 21418,
    "Ġinclined": 6622,
    "Ġenvironmental": 24086,
    "Ġsus": 18280,
    "composure": 24031,
    "Ġhesitation": 13439,
    "ir": 379,
    "Ġrudimental": 25108,
    "Ġdistributions": 1049,
    "Ġcadiz": 17324,
    "Ġserious": 4322,
    "past": 8089,
    ";âĢĿâĢĶ": 20759,
    "Ġfavourably": 16361,
    "Ġreliably": 22872,
    "Ġpermission": 9278,
    "prot": 6899,
    "Ġinsol": 10180,
    "Ġwoods": 5406,
    "imprudence": 16556,
    "reputation": 15515,
    "visual": 24222,
    "satisfy": 16892,
    "Ġcompute": 2905,
    "Ġsupplied": 8943,
    "Ġsent": 1775,
    ").âĢĿ": 20740,
    "Ġanchor": 7368,
    "Ġcrest": 12938,
    "Ġstumbling": 21742,
    "Ġlies": 5295,
    "Ġslay": 16305,
    "Ġdan": 8792,
    "alions": 21498,
    "Ġtunes": 24619,
    "Ġcoding": 8115,
    "marks": 7346,
    "izabeth": 906,
    "halloa": 17090,
    "owards": 4593,
    "Ġtrees": 4201,
    "Ġprize": 11946,
    "Ġknighthood": 25297,
    "gentleness": 24844,
    "kindled": 16660,
    "Ġringbolts": 24196,
    "Ġwhe": 438,
    "Ġforces": 12700,
    "pp": 384,
    "nant": 17609,
    "Ġloos": 15870,
    "formed": 2554,
    "thumb": 18218,
    "Ġmetrics": 19064,
    "ties": 2759,
    "Ġamends": 14245,
    "Ġeyes": 1337,
    "Ġmediocrity": 26608,
    "opened": 7912,
    "Ġdiscernment": 15067,
    "Ġshare": 1658,
    "Ġcheese": 9376,
    "Ġfairy": 14627,
    "women": 15456,
    "Ġsubterr": 10348,
    "conve": 14243,
    "Ġboundary": 11222,
    "ses": 3024,
    "elope": 14467,
    "Ġfre": 1573,
    "odhead": 18118,
    "Ġupstairs": 5836,
    "Ġdreadfully": 7725,
    "Ġstarlight": 24626,
    "correspond": 13396,
    "Ġriverside": 25247,
    "satisf": 5781,
    "Ġmors": 17801,
    "ills": 1627,
    "Ø": 153,
    "hatred": 24821,
    "wearing": 22684,
    "Ġerud": 20053,
    "author": 9859,
    "atives": 2230,
    "Ġfrigates": 25707,
    "unpardonable": 21887,
    "tiger": 13796,
    "arial": 5532,
    "find": 6954,
    "Ġrecede": 25968,
    "ĠĠĠĠĠĠĠĠĠĠĠĠĠĠĠĠĠĠĠĠĠĠĠĠĠĠĠĠĠĠĠĠĠĠĠĠĠĠĠĠĠĠĠĠĠ": 9951,
    "Ġhappiest": 11880,
    "stove": 21649,
    "Ġtore": 6530,
    "Ġmate": 3707,
    "Ġbremen": 23343,
    "Ġambition": 11432,
    "spoke": 11024,
    "Ġoversight": 22355,
    "A": 37,
    "modern": 1171,
    "Ġmal": 5221,
    "athered": 6972,
    "Đ": 209,
    "violence": 16477,
    "Ġforged": 12702,
    "Ġcredited": 25153,
    "Ġinsolence": 20252,
    "Ġid": 1909,
    "Ġplaguy": 22605,
    "Ġconvention": 25546,
    "private": 13580,
    "Ġfob": 21407,
    "Ġfelony": 18951,
    "Ġpossession": 5589,
    "ickory": 22666,
    "Ġprophecy": 25706,
    "Ġstreamed": 14546,
    "Ġmutable": 23952,
    "moderate": 22851,
    "Ġdiab": 10611,
    "because": 4923,
    "Ġtowing": 9193,
    "Ġhor": 1661,
    "apan": 6860,
    "Ġcrib": 21346,
    "Ġinhale": 20299,
    "fresh": 13390,
    "prejud": 11794,
    "feather": 16042,
    "Ġgladly": 14681,
    "Ġye": 899,
    "Ġunlo": 22009,
    "heed": 15498,
    "Ġbestow": 6455,
    "apt": 717,
    "flakes": 23965,
    "Ġslope": 14459,
    "kward": 6958,
    "Ġlothario": 26184,
    "Ġ1820": 25718,
    "Ġcongratulated": 19765,
    "Ġarticulate": 24432,
    "mistak": 16878,
    "pour": 17630,
    "Ġedged": 23435,
    "!âĢĶâĢĻ": 23564,
    "oniously": 21256,
    "Ġcrucial": 9891,
    "astrop": 3314,
    "significant": 25082,
    "Ġdeclaration": 16636,
    "day": 1859,
    "Ġradiating": 24335,
    "Ġinaudible": 21496,
    "Ġgrowled": 19282,
    "Ġ184": 16607,
    "Ġoutskirts": 17456,
    "confidential": 25876,
    "Ġbitten": 21388,
    "iring": 1709,
    "Ġitems": 9691,
    "increas": 10454,
    "Ġuniverse": 14123,
    "Ġsensibly": 14515,
    "Ġwidespread": 20674,
    "Ġpenn": 11112,
    "Ġproclaim": 18130,
    "grateful": 10428,
    "wandered": 20284,
    "yours": 7694,
    "harbor": 13562,
    "Ġacquaintance": 4134,
    "establishment": 26113,
    "explanation": 12356,
    "Ġfronted": 25854,
    "stately": 18021,
    "friendly": 13282,
    "trucks": 25419,
    "analysis": 26173,
    "Ġtows": 19561,
    "Ġcabaco": 13165,
    "Ġpagans": 16922,
    "Ġsanely": 24980,
    "exact": 7909,
    "Ġfurn": 3709,
    "Ġgenerally": 4158,
    "agrad": 2747,
    "ermost": 7430,
    "Ġencourag": 1391,
    "Ġnantucket": 2836,
    "Ġdirest": 22704,
    "reen": 21230,
    "Ġbrah": 19355,
    "Ġawaiting": 11390,
    "Ġslack": 8955,
    "ands": 21863,
    "spe": 3559,
    "Ġfits": 8790,
    "Ġcruisings": 25864,
    "eur": 7545,
    "Ġuntimely": 16466,
    "Ġdeparture": 6490,
    "Ġmerryweather": 9521,
    "oring": 1861,
    "quadr": 15762,
    "Ġimagenet": 19245,
    "Ġanimals": 8978,
    "road": 6677,
    "ophisticated": 22475,
    "Ġmates": 4872,
    "Ġharpoon": 3617,
    "Ġmaxim": 3081,
    "Ġconsoling": 19455,
    "Ġgrin": 5482,
    "Ġworthless": 19564,
    "Ġmournfully": 20115,
    "again": 3398,
    "Ġhackney": 20431,
    "inois": 17738,
    "Ġkentuckian": 26342,
    "Ġnodes": 1966,
    "Ġupheld": 22149,
    "Ġrecurring": 23227,
    "Ġcoffin": 4427,
    "Ġindulge": 10582,
    "malicious": 19901,
    "Ġsphy": 18311,
    "iar": 2374,
    "tempted": 26403,
    "omical": 9679,
    "Ġdoors": 6418,
    "Ġcorpusants": 13676,
    "ression": 3404,
    "Ġcollins": 2178,
    "Ġfitly": 23996,
    "ouble": 2662,
    "Ġdived": 9177,
    "Ġcare": 1637,
    "until": 6596,
    "thankful": 16806,
    "itche": 7578,
    "Ġboarding": 12084,
    "Ġadequ": 10913,
    "Ġspeculations": 22990,
    "Ġexpans": 18623,
    "wild": 8766,
    "Ġengaging": 9335,
    "ĠĠĠĠĠĠĠĠĠĠĠĠĠĠĠĠĠĠĠĠĠĠĠĠĠĠĠĠĠĠĠĠĠĠĠĠĠĠĠĠĠĠ": 24209,
    "Ġtenderly": 11314,
    "estations": 22221,
    "ively": 1305,
    "fill": 15349,
    "Ġinqu": 2963,
    "faces": 13719,
    "cheeked": 19339,
    "ciousness": 20816,
    "Ġamazing": 9976,
    "Ġvigour": 24462,
    "disciple": 16778,
    "itia": 11578,
    "Ġassailed": 23174,
    "Ġrealised": 18979,
    "convers": 6567,
    "ryder": 18638,
    "Ġbade": 9171,
    "âĢĺ": 940,
    "Ġsurmis": 23462,
    "Ġinns": 17929,
    "Ġdecent": 10978,
    "Ġassert": 7120,
    "writhed": 26080,
    "abb": 15737,
    "Ġlanterns": 24577,
    "Ġharmless": 9964,
    "Ġemployment": 8628,
    "Ġstart": 3258,
    "Ġberg": 24536,
    "Ġur": 5539,
    "Ġbottles": 16570,
    "last": 3801,
    "expect": 4769,
    "rud": 4189,
    "swinging": 25912,
    "Ġinv": 2219,
    "Ġcomplain": 6685,
    "Ġintention": 5638,
    "incible": 16497,
    "Ġcurving": 16253,
    "Ġseize": 8165,
    "venor": 16099,
    "Ġheaving": 7600,
    "Ġwatson": 3598,
    "process": 11148,
    "Ġstranger": 3485,
    "Ġpharaoh": 26585,
    "Ġgraceful": 11296,
    "Ġknights": 15148,
    "iciency": 9574,
    "Ġpremature": 3724,
    "pertaining": 22185,
    "Ġphyseter": 26586,
    "Ġtradesman": 20071,
    "Ġinvolved": 8923,
    "ivorous": 22081,
    "Ġreward": 6144,
    "Ġbapt": 13895,
    "Ġtrusting": 24106,
    "Ġevery": 927,
    "Ġcomplying": 18584,
    "Ġdiv": 3730,
    "wretch": 17708,
    "fort": 1748,
    "ulpt": 10885,
    "Ġrecur": 1620,
    "inlaid": 21189,
    "Ġshorter": 4497,
    "strip": 19829,
    "Ġdetailed": 12822,
    "<MASK>": 4,
    "Ġsciences": 15943,
    "Ġconsid": 1815,
    "Ġcondition": 6764,
    "Ġunfathomably": 25873,
    "Ġrio": 23889,
    "Ġrange": 9711,
    "Ġsupercil": 23453,
    "ingley": 1549,
    "Ġcordial": 16835,
    "Ġtremulous": 14985,
    "que": 1138,
    "Ġimprobable": 9792,
    "Ġsimpleton": 16334,
    "Ġgene": 15670,
    "pooh": 18798,
    "esteem": 26008,
    "singular": 12186,
    "Ġglow": 7170,
    "Ġskulls": 12956,
    "Ġriver": 5411,
    "lust": 15378,
    "irra": 15783,
    "Ġlaugh": 4114,
    "Ġbaffled": 12401,
    "Ġcyl": 15555,
    "Ġbesides": 3512,
    "Ġramble": 9313,
    "dismay": 19152,
    "breathing": 25335,
    "Ġsyllables": 25298,
    "gems": 20883,
    "ienced": 5685,
    "commencement": 26347,
    "Ġimpenet": 14220,
    "Ġamongst": 8959,
    "Ġontario": 26204,
    "Ġwin": 9641,
    "Ġrapt": 7226,
    "Ġxi": 16429,
    "Ġwinchester": 10065,
    "begged": 18517,
    "Ġdon": 1612,
    "Ġshade": 6550,
    "Ġdesirous": 8942,
    "Ġtransform": 739,
    "Ġhog": 13923,
    "der": 469,
    "Ġpopular": 6216,
    "hav": 20896,
    "Ġscrape": 14917,
    "throwing": 11701,
    "contains": 16029,
    "Ġrail": 7225,
    "Ġintric": 9245,
    "rigged": 17062,
    "stout": 21642,
    "Ġgarnery": 17386,
    "Ġbalance": 2021,
    "Ġunsupplied": 22040,
    "Ġkra": 18348,
    "undertaking": 23785,
    "Ġhierarchical": 1926,
    "Ġtapped": 11553,
    "ilder": 15711,
    "Ġape": 21195,
    "wic": 21119,
    "Ġqueerest": 16413,
    "Ġdiscomposure": 20377,
    "solitary": 14507,
    "Ġhauled": 11692,
    "sle": 9138,
    "Ġoccupation": 9930,
    "Ġsulk": 15045,
    "Ġeulogy": 26470,
    "dies": 15337,
    "Ġhug": 6979,
    "Ġrep": 1937,
    "Ġsmile": 4271,
    "Ġetern": 7085,
    "Ġcontain": 1557,
    "ernity": 18615,
    "Ġvillagers": 19472,
    "Ġconcussion": 26300,
    "Ġdebt": 12165,
    "utored": 15661,
    "Ġfoundations": 11073,
    "inev": 21962,
    "Ġtransmit": 10304,
    "Ġnotions": 14098,
    "Ġton": 15464,
    "mb": 918,
    "Ġindispens": 22951,
    "Ġmended": 21312,
    "oking": 4605,
    "Ġcommended": 18656,
    "ascal": 10192,
    "Ġrecollect": 8309,
    "mistress": 14904,
    "Ġpea": 14316,
    "Ġdawn": 6816,
    "ond": 1158,
    "Ġentreated": 9950,
    "overcome": 19052,
    "nable": 13761,
    "Ġmanif": 8870,
    "Ġmatrimonial": 25489,
    "necessities": 24306,
    "Ġannounced": 9034,
    "Ġenlar": 15799,
    "Ġcoarse": 14273,
    "Ġwarmed": 12022,
    "Ġheidelburgh": 11642,
    "Ġevaporate": 26332,
    "Ġdisconcerted": 18562,
    "swiftly": 20550,
    "Ġvaried": 11846,
    "Ġsympathised": 14861,
    "ationally": 15703,
    "lion": 20943,
    "bles": 7017,
    "stall": 21643,
    "Ġsays": 3560,
    "Ġming": 9645,
    "bod": 12435,
    "politeness": 16906,
    "etah": 12659,
    "Ġthews": 21276,
    "Ġwalls": 6762,
    "iffe": 21899,
    "cab": 7333,
    "Ġrever": 6536,
    "Ġpleaded": 16298,
    "Ġ1894": 5196,
    "Ġced": 10784,
    "Ġbashee": 19848,
    "ises": 3654,
    "Ĵ": 245,
    "Ą": 197,
    "Ġgills": 17992,
    "Ġkilburn": 18351,
    "awed": 10391,
    "attachment": 13048,
    "Ġpioneer": 17916,
    "Ġexaggerate": 25649,
    "Ġadroit": 26000,
    "bler": 11472,
    "Ġboneless": 19604,
    "mine": 5618,
    "Ġvibrating": 13536,
    "moor": 22701,
    "Ġnaval": 16899,
    "Ġinterference": 8893,
    "Ġsilver": 7464,
    "Ġcorpora": 26580,
    "Ġdepends": 1065,
    "Ġsits": 10768,
    "Ġearnest": 3928,
    "igms": 3043,
    "Ġmuttered": 7086,
    "Ġreciproc": 20620,
    "permitted": 18346,
    "onic": 7827,
    "glance": 16587,
    "cable": 20796,
    "attery": 18484,
    "reflections": 24735,
    "Ġdey": 11674,
    "Ġobtruded": 20721,
    "Ġmurmur": 14589,
    "Ġexcite": 11964,
    "Ġangrily": 9406,
    "p": 84,
    "threaten": 25461,
    "princip": 17136,
    "lik": 3914,
    "ounix": 14161,
    "Ġmining": 22827,
    "Ġdecency": 18485,
    "lestrade": 9656,
    "------": 12131,
    "thorough": 21982,
    "bewil": 22495,
    "Ġcaptivating": 26049,
    "itute": 9651,
    "Ġmechanisms": 1579,
    "Ġcruellest": 19657,
    "erring": 11057,
    "Ġstruct": 2784,
    "Ġcister": 13881,
    "Ġafar": 14293,
    "Ġeaster": 15673,
    "murderer": 13391,
    "Ġretrieval": 10674,
    "considered": 9580,
    "Ġbutcher": 18271,
    "Ġoverlooking": 22354,
    "miserably": 24210,
    "Ġthroughout": 8876,
    "Ġsisterly": 16301,
    "friends": 8304,
    "Ġnar": 7375,
    "Ġunwonted": 14124,
    "rium": 3128,
    "Ġmoonlight": 9957,
    "Ġentertainment": 12220,
    "Ġfeeble": 12282,
    "oura": 1059,
    "Ġbale": 7838,
    "Ġknew": 2057,
    "Ġ1883": 23894,
    "Ġcanst": 8857,
    "informed": 17736,
    "Ġornam": 15863,
    "ven": 782,
    "Ġlater": 6016,
    "consolatory": 25306,
    "Ġbirch": 26174,
    "Ġjust": 1239,
    "Ġglowed": 24864,
    "Ġapartments": 19613,
    "Ġdeliverance": 15156,
    "itation": 1780,
    "Ġconsc": 4274,
    "rising": 7557,
    "Ġfing": 3756,
    "showing": 22458,
    "Ġsquared": 1382,
    "Ġcoming": 2618,
    "Ġwhether": 2001,
    "Ġslices": 23162,
    "ken": 2801,
    "Ġeul": 21615,
    "hunted": 16832,
    "Ġrelevance": 5184,
    "tawny": 26404,
    "hever": 13830,
    "Ġpreface": 18367,
    "Ġcelebrated": 13592,
    "extinguish": 22767,
    "Ġtheore": 1831,
    "Ġneglig": 18878,
    "industrious": 26239,
    "rule": 15893,
    "Ġforgetting": 3435,
    "Ġhumorous": 10360,
    "Ġlabyrin": 13102,
    "Ġfeasts": 25369,
    "repeating": 20127,
    "Ġcelebrate": 26357,
    "edily": 17943,
    "Ġdescent": 1012,
    "Ġuncovered": 23430,
    "Ġskeleton": 5514,
    "Ġmachinations": 25767,
    "Ġheedless": 14902,
    "Ġswarming": 16272,
    "consid": 4924,
    "Ġhowled": 12854,
    "V": 58,
    "ral": 4627,
    "Ġdrinks": 24279,
    "Ġjar": 15949,
    "functions": 11237,
    "Ġinherited": 25353,
    "Ġunw": 8849,
    "Ġstretching": 10014,
    "Ġprodigiously": 14931,
    "Ġhurrah": 9868,
    "Ġconducting": 16649,
    "Ġprolonged": 8357,
    "ta": 13788,
    "Ġdisgusting": 19893,
    "Ġglories": 16237,
    "Ġreferred": 8916,
    "Ġwil": 4579,
    "Ġcountries": 13095,
    "Ġgreeted": 23211,
    "Ġflights": 24753,
    "Ġcarav": 18901,
    "Ġfrivolous": 26176,
    "Ġslang": 23156,
    "Ġconvince": 14642,
    "Ġmalice": 7152,
    "Ġfasten": 11132,
    "Ġmanip": 8871,
    "Ġheartily": 6890,
    "aff": 3097,
    "chief": 4644,
    "Ġreciprocating": 26369,
    "Ġaforethought": 25428,
    "Ġbrother": 2749,
    "Ġnarwhale": 12291,
    "pede": 19843,
    "Ġomin": 11576,
    "Ġsubfield": 11867,
    "new": 1466,
    "Ġconstantly": 11971,
    "Ġmedium": 16681,
    "Ġembark": 8560,
    "Ġspeaks": 11159,
    "injustice": 17737,
    "urs": 6989,
    "Ġmoments": 4845,
    "Ġstake": 14003,
    "Ġservices": 11217,
    "silent": 9973,
    "allies": 14165,
    "sych": 9888,
    "Ġboarded": 13231,
    "Ġruss": 18719,
    "throughout": 24087,
    "ery": 1266,
    "Ġund": 4120,
    "hair": 9122,
    "Ġstained": 11651,
    "Ġantiqu": 12142,
    "Ġserve": 9367,
    "Ġstroll": 13350,
    "home": 7341,
    "Ġexcepting": 14680,
    "Ġviciss": 11292,
    "Ġnormal": 1201,
    "Ġaz": 9629,
    "washed": 13042,
    "Ġemptied": 24347,
    "Ġpatagon": 14503,
    "Ġdemig": 20355,
    "Ġawoke": 7286,
    "Ġembatt": 18852,
    "Ġsab": 10762,
    "Ġtrain": 516,
    "Þ": 159,
    "out": 467,
    "Ġpile": 8423,
    "Ġstepped": 7051,
    "Ġpainter": 19167,
    "insensibility": 23066,
    "jet": 13741,
    "Ġcontraction": 16007,
    "Ġharpooneer": 3771,
    "ressed": 3021,
    "Ġversion": 10629,
    "Ġcase": 1940,
    "moil": 22702,
    "Ġswear": 6461,
    "~": 98,
    "Ġsmallest": 6430,
    "Ġhonourable": 10457,
    "extraordinary": 9094,
    "assault": 22303,
    "Ġtides": 13820,
    "Ġspiral": 14584,
    "Ġsaviour": 20712,
    "Ġproc": 5545,
    "Ġbackgammon": 22661,
    "Ġwallet": 21297,
    "Ġag": 683,
    "Ġgracefully": 13389,
    "itying": 21991,
    "Ġelated": 18633,
    "Ġcar": 1420,
    "Ġnlp": 3058,
    "drop": 15336,
    "Ġinte": 2067,
    "Ġpled": 17905,
    "ientious": 11689,
    "Ġbrill": 8548,
    "ening": 3100,
    "Ġvii": 13106,
    "horner": 23616,
    "Ġdelight": 2548,
    "Ġoccasion": 3244,
    "Ġesteem": 7531,
    "Ġnic": 7376,
    "batim": 25016,
    "hither": 11492,
    "Ġsecre": 5493,
    "Ġwhirl": 13447,
    "Ġforg": 3786,
    "Ġultimately": 17164,
    "Ġpreviously": 3918,
    "Ġethiop": 26155,
    "perhaps": 4123,
    "Ġcongregational": 25102,
    "Ġwhispering": 14944,
    "?âĢĶ": 3468,
    "sen": 21048,
    "Ġlug": 15650,
    "Ġmournful": 12334,
    "ives": 1409,
    "Ġfull": 2174,
    "Ġought": 3419,
    "Ġcommanding": 16590,
    "anned": 17839,
    "dro": 6644,
    "ve": 322,
    "Ġscenarios": 26542,
    "wonted": 13491,
    "Ġpaper": 4282,
    "people": 7676,
    "Ġfoot": 3159,
    "address": 14880,
    "roses": 17956,
    "Ġgreenhorn": 23766,
    "ceased": 21623,
    "?âĢĻâĢĿ": 23644,
    "Ġsmiled": 5940,
    "Ġwolfish": 25935,
    "ĠvertebrÃ¦": 11435,
    "Ġagain": 814,
    "opp": 6963,
    "Ġlivelong": 25511,
    "wondered": 17029,
    "Ġemblem": 20496,
    "Ġend": 1486,
    "Ġintruder": 25991,
    "culine": 19065,
    "word": 2486,
    "stretched": 10207,
    "rudential": 16709,
    "Ġwise": 6811,
    "Ġpurposes": 11168,
    "Ġcondesc": 7181,
    "avers": 17480,
    "Ġrendered": 5773,
    "Ġapologize": 15127,
    "Ġreturned": 2890,
    "Ġvirtuous": 14754,
    "Ġwere": 557,
    "cious": 6643,
    "Ġturbid": 23613,
    "Ġpallor": 13514,
    "retrie": 18922,
    "despairing": 25074,
    "resolved": 9639,
    "Ġoutput": 929,
    "Ġanomalously": 25638,
    "se": 358,
    "Ġbarricade": 14660,
    "Ġventilator": 8713,
    "Ġdata": 515,
    "Ġfalling": 6915,
    "Ġaver": 1286,
    "Ġtempor": 2362,
    "Ġreporting": 24657,
    ")âĢĶ": 20741,
    "mature": 20966,
    "Ġsleeps": 10446,
    "Ġliberated": 19665,
    "Ġwhar": 7388,
    "Ġsimil": 2530,
    "pride": 11210,
    "Ġcomputes": 4768,
    "Ġwretchedness": 9026,
    "Ġsisters": 3641,
    "Ġhappiness": 2945,
    "Ġinflamed": 13471,
    "Ġyanke": 18105,
    "star": 12670,
    "pain": 7350,
    "Ġstrugg": 3213,
    ",âĢĿ": 580,
    "Ġdependencies": 2311,
    "Ġunicorn": 22054,
    "Ġunb": 10907,
    "Ġnasty": 17442,
    "higher": 20405,
    "Ġprophets": 20449,
    "Ġphaet": 16318,
    "Ġbarbs": 10531,
    "hil": 8378,
    "Ġtelegraph": 25583,
    "Ġpaddles": 15146,
    "times": 8098,
    "bru": 12437,
    "Ġreflection": 6440,
    "Ġunconsciously": 10004,
    "invisible": 17740,
    "umber": 5240,
    "Ġlantern": 7116,
    "Ġdocks": 14177,
    "wit": 7817,
    "Ġgayer": 24501,
    "Ġmaled": 21313,
    "Ġimpress": 6862,
    "nor": 2742,
    "Ġresting": 7961,
    "Ġdanes": 25156,
    "Ġsequence": 1974,
    "Ġinquirer": 24961,
    "Ġquarto": 17295,
    "supportable": 12368,
    "Ġvane": 22868,
    "Ġlunging": 24989,
    "Ġann": 4488,
    "Ġlig": 21545,
    "sockets": 22726,
    "Ġthey": 577,
    "Ġperempt": 13672,
    "Ġcanoes": 12803,
    "Ġmagnanim": 14472,
    "Ġslice": 23157,
    "Ġtempt": 5565,
    "vid": 914,
    "designated": 26295,
    "Ġsized": 11562,
    "Ġbluff": 16518,
    "self": 617,
    "Ġbushy": 16401,
    "irc": 1730,
    "Ġkings": 7197,
    "Ġjenny": 20161,
    "Ġlifted": 6985,
    "Ġpricking": 23219,
    "Ġforebodings": 17303,
    "Ġhyperborean": 26339,
    "Ġgermans": 25784,
    "Ġinsignific": 13178,
    "ular": 715,
    "sister": 5139,
    "Ġwhistling": 19789,
    "eches": 8077,
    "Ġcompose": 12900,
    "sorrows": 17319,
    "Ġsanctified": 25883,
    "Ġwouldn": 6045,
    "iny": 4294,
    "Ġquick": 2582,
    "Ġstrangest": 14795,
    "Ġchancing": 22245,
    "Ġsen": 9156,
    "Ġinterpre": 1591,
    "ounded": 9747,
    "shott": 11792,
    "Ġrecurred": 18976,
    "neurons": 3130,
    "care": 4928,
    "Ġdir": 21419,
    "Ġconception": 10319,
    "tumbled": 21089,
    "wore": 21123,
    "Ó": 148,
    "Ġcoopers": 20520,
    "Ġunconcern": 14116,
    "Ġimpulsive": 19961,
    "explained": 23139,
    "Ġfals": 15579,
    "country": 6103,
    "Ġdivin": 13271,
    "Ġflow": 1238,
    "val": 1165,
    "Ġconsumed": 10349,
    "Ġluggage": 25957,
    "Ġdownward": 10331,
    "overlooked": 23323,
    "blood": 7779,
    "Ġshuddered": 11300,
    "Ġowest": 25091,
    "Ġmusk": 7494,
    "spring": 7231,
    "Ġpenetration": 19916,
    "Ġotherwise": 4657,
    "Ġzones": 22816,
    "Ġheartfelt": 18967,
    "generations": 23783,
    "Ġexplored": 23515,
    "Ġexhilarating": 26337,
    "Ġgeneralization": 984,
    "Ġcaress": 16338,
    "attention": 2110,
    "Ġhonors": 23603,
    "Ġshuttle": 12124,
    "wishes": 13806,
    "Ġcheer": 4067,
    "Ġphilosop": 5057,
    "Ġhereby": 10357,
    "Ġcalam": 13029,
    "Ġridicule": 13510,
    "Ġfastidious": 14492,
    "Ġsummoned": 9910,
    "Ġaccursed": 9452,
    "Ġnamed": 6139,
    "Ġlandlessness": 23378,
    "monster": 8591,
    "Ġclad": 12838,
    "Ġdispatched": 23879,
    "Ġbank": 4877,
    "Ġdistances": 22501,
    "Ġeasiness": 23535,
    "contain": 18502,
    "scythes": 26402,
    "Ġdevices": 2941,
    "Ġextending": 11022,
    "rec": 6003,
    "Ġinterest": 2244,
    "ear": 8730,
    "rents": 5308,
    "unwholesome": 26497,
    "Ġthrew": 3975,
    "stairs": 5155,
    "Ġvexed": 9993,
    "Ġremarked": 3695,
    "dignity": 15344,
    "Ġtrail": 16281,
    "Ġhap": 18195,
    "Ġwond": 3937,
    "bour": 2074,
    "Ġexhausted": 8693,
    "iscre": 17850,
    "Ġdeserves": 13287,
    "goodbye": 12054,
    "joining": 19444,
    "brave": 19822,
    "Ġlandau": 16419,
    "Ġoverlook": 10959,
    "Ġrespons": 2686,
    "Ġpairs": 4181,
    "Ġsounded": 8590,
    "Ġsoothe": 7405,
    "Ġdra": 1593,
    "Ġwet": 6518,
    "Ġpossess": 3201,
    "Ġrevive": 13477,
    "ssible": 2989,
    "Ġunnecessary": 8851,
    "Ġpsalmody": 20583,
    "Ġcogn": 11002,
    "char": 3502,
    "Ġsenate": 25214,
    "Ġascribe": 16782,
    "how": 1645,
    "change": 6392,
    "Ġsufficient": 2004,
    "aited": 12433,
    "mary": 8748,
    "riving": 21923,
    "movement": 25577,
    "Ġpestilent": 25777,
    "bec": 4053,
    "Ġknelt": 12156,
    "Ġpromontory": 11939,
    "Ġ108": 19683,
    "umns": 14147,
    "Ġassu": 21894,
    "innacle": 7519,
    "gled": 10699,
    "perpet": 14163,
    "jury": 15372,
    "Ġparmacetti": 20603,
    "Ġtuileries": 24826,
    "entire": 6824,
    "first": 3932,
    "Ġinherent": 4590,
    "description": 11093,
    "Ġchap": 5933,
    "rack": 18010,
    "Ġcottages": 14726,
    "dream": 8727,
    "Ġregularly": 7657,
    "hill": 15361,
    "pag": 11510,
    "ĠcÃ¦sar": 20578,
    "Ġslipper": 24265,
    "Ġprevious": 2090,
    "Ġfurnishes": 19439,
    "Ġinvoking": 19145,
    "Ġdaft": 19662,
    "Ġeluc": 16107,
    "Ġbehav": 3538,
    "wilful": 25086,
    "eled": 2354,
    "Ġsucceeding": 16761,
    "Ġanguish": 5583,
    "Ġcharing": 14180,
    "Ġcarefully": 6304,
    "Ġdecline": 9286,
    "del": 4077,
    "Ġdood": 22239,
    "Ġimproper": 22749,
    "Ġdangerously": 23934,
    "Ġarches": 14160,
    "meditation": 19068,
    "gloves": 25143,
    "Ġhiding": 9822,
    "Ġretained": 7173,
    "Ġundergo": 23232,
    "Ġnaught": 8127,
    "false": 15353,
    "december": 25558,
    "Ġpleadings": 25852,
    "purp": 8090,
    "sense": 11523,
    "Ġbiographical": 22762,
    "Ġfare": 5809,
    "Ġshirr": 18231,
    "Ġtattered": 21170,
    "parm": 21013,
    "icient": 778,
    "ising": 2250,
    "congratulations": 20278,
    "Ġtransition": 14233,
    "melancholy": 12351,
    "boxes": 16888,
    "Ġdames": 23472,
    "Ġgasps": 24865,
    "Ġtimbers": 14838,
    "Ġsnuffing": 25012,
    "Ġcross": 1374,
    "Ġof": 298,
    "Ġbluish": 23651,
    "Ġseven": 4540,
    "Ġgrowl": 16537,
    "food": 12461,
    "Ġcorn": 9349,
    "Ġeuroclydon": 15295,
    "Ġverdant": 15002,
    "Ġmeryton": 4436,
    "heum": 17747,
    "Ġdiscourse": 9797,
    "Ġroods": 22400,
    "Ġforthwith": 16618,
    "Ġyouthful": 16723,
    "Ġarrang": 2468,
    "Ġtempestuous": 20069,
    "eaten": 20343,
    "spot": 9788,
    "bruary": 15234,
    "Ġpublisher": 24062,
    "Ġface": 1722,
    "spir": 5738,
    "Ġcoff": 3506,
    "Ġsaddest": 16662,
    "Ġpods": 17912,
    "Ġwords": 1324,
    "asion": 5714,
    "Ġwhitt": 18054,
    "Ġchr": 3688,
    "Ġagents": 9765,
    "Ġtub": 7146,
    "Ġcompliance": 12112,
    "athans": 7433,
    "recognised": 15261,
    "Ġhasten": 10478,
    "ary": 987,
    "scuttle": 11907,
    "Ġfortunes": 12176,
    "Ġslavery": 16306,
    "ca": 20792,
    "Ġexperience": 1422,
    "sed": 4176,
    "Ġploughing": 26259,
    "Ġfame": 21404,
    "Ġmat": 1146,
    "Ġuncouth": 14549,
    "Ġhapless": 15811,
    "Ġenvy": 13185,
    "sentence": 2939,
    "Ġinsc": 7585,
    "Ġnapoleons": 25885,
    "Ġlandscape": 12415,
    "Ġdeformed": 14046,
    "problem": 25244,
    "Ġpret": 3033,
    "Ġfog": 9661,
    "Ġdesolated": 24812,
    "ships": 5486,
    "pect": 1252,
    "Ġbulkhead": 24511,
    "wonder": 6371,
    "Ġdissuade": 26256,
    "Ġdro": 2772,
    "Ġcompassion": 6487,
    "fore": 686,
    "Ġunlimited": 26222,
    "Ġconvent": 11667,
    "nantucket": 7804,
    "numer": 15399,
    "Ġgeorgiana": 8625,
    "Ġwards": 17789,
    "isf": 2432,
    "iter": 4390,
    "Ġcompromising": 22570,
    "Ġproduct": 3532,
    "distrustful": 26330,
    "Ġuseful": 3557,
    "spirits": 8054,
    "ruin": 22173,
    "abilizing": 2924,
    "Ġcopestone": 24936,
    "ston": 15681,
    "Ġovercome": 6043,
    "greenland": 10020,
    "gates": 20871,
    "Ġdedication": 3165,
    "Ġzig": 18743,
    "thinking": 9013,
    "Ġuncertain": 4068,
    "Ġirrevocably": 15296,
    "Ġiv": 4045,
    "report": 13397,
    "iers": 5990,
    "Ġyes": 2690,
    "Ġunderstanding": 1806,
    "Ġban": 7156,
    "Ġexplained": 5935,
    "Ġbethinking": 25279,
    "Ġclang": 15964,
    "Ġheroine": 24543,
    "Ġspecies": 5112,
    "agitation": 14067,
    "Ġtiara": 26415,
    "clair": 18932,
    "Ġmour": 6973,
    "posture": 16927,
    "sullenly": 26149,
    "Ġvi": 1953,
    "reasoning": 9475,
    "Ġrats": 21973,
    "Ġbraces": 14669,
    "Ġspirits": 3697,
    "anger": 2169,
    "Ġcocksure": 26258,
    "Ġhumorously": 18778,
    "killing": 20941,
    "Ġnoticing": 18224,
    "Ġmorcar": 13007,
    "dense": 18715,
    "hos": 15362,
    "belonged": 25597,
    "Ġsubt": 11866,
    "Ġneur": 813,
    "love": 9293,
    "rels": 6664,
    "Ġnick": 21520,
    "Ġfluke": 14673,
    "Ġtroops": 24898,
    "Ġhaught": 10252,
    "onings": 21251,
    "Ġindoors": 18836,
    "Ġinflict": 15001,
    "depart": 12263,
    "Ġpleases": 16297,
    "ist": 449,
    "unsupervised": 10889,
    "Ġstruggles": 16578,
    "Ġfrigid": 17352,
    "Ġamerica": 6763,
    "Ġsig": 869,
    "Ġbat": 10795,
    "horr": 14599,
    "Ġabsent": 7014,
    "marry": 13321,
    "previously": 17207,
    "Ġkind": 1785,
    "gee": 15976,
    "Ġsubl": 7235,
    "odecim": 9831,
    "ampl": 21839,
    "Ġjen": 9267,
    "beings": 12874,
    "Ġobedience": 11413,
    "iguous": 18045,
    "Ġcanted": 17831,
    "Ġwidely": 8032,
    "cement": 3030,
    "Ġdiabolism": 25514,
    "pregn": 18500,
    "Ġfounded": 8556,
    "Ġdow": 17886,
    "Ġbegun": 7243,
    "rocket": 13943,
    "iancy": 13005,
    "plain": 1360,
    "innocent": 20285,
    "Ġ43": 14769,
    "along": 6012,
    "Ġ270": 25130,
    "Ġbountiful": 25944,
    "Ġinexpressible": 17332,
    "Ġevanesc": 24294,
    "Ġcoverage": 4287,
    "ourable": 4967,
    "cription": 20817,
    "activation": 3229,
    "thine": 15823,
    "Ġdrunkard": 20176,
    "Ġinclemency": 22552,
    "renew": 24450,
    "rail": 10204,
    "Ġexquisite": 12380,
    "Ġbast": 21377,
    "Ġshrivelled": 19702,
    "Ġwhiff": 21715,
    "shire": 3019,
    "itten": 3441,
    "Ġrides": 21971,
    "Ġhawk": 15172,
    "Ġcoin": 9770,
    "Ġrepented": 23360,
    "Ġplate": 8898,
    "Ġzone": 14361,
    "Ġdoted": 21431,
    "Ġenlist": 21933,
    "Ġinvestig": 10549,
    "Ġrepairing": 25589,
    "pot": 10117,
    "pilot": 25908,
    "against": 5870,
    "Ġdimmed": 24267,
    "Ġmic": 17797,
    "Ġwhiskers": 10492,
    "Ġconversation": 3330,
    "clergyman": 20728,
    "Ġ181": 23892,
    "Ġspurn": 18309,
    "iarity": 8743,
    "Ġgiant": 13967,
    "Ġsomething": 1795,
    "Ġsect": 17751,
    "Ġcousins": 9914,
    "Ġstature": 10863,
    "Ġpalp": 11251,
    "Ġcoleman": 22582,
    "itional": 22471,
    "tained": 4404,
    "Ġsurpass": 13581,
    "Ġecon": 9677,
    "metallic": 19879,
    "Ġcasualty": 20340,
    "sw": 4741,
    "Ġdl": 3375,
    "Ġpromises": 10400,
    "Ġparch": 11724,
    "Ġstanding": 2995,
    "Ġclaret": 22350,
    "Ġsuccor": 25662,
    "Ġoverwhelm": 25052,
    "startled": 24941,
    "Ġpreference": 9732,
    "salesman": 20670,
    "promising": 24726,
    "Ġfastening": 16356,
    "progress": 11986,
    "surv": 24213,
    "Ġspectators": 19405,
    "Ġcosmopolitan": 20640,
    "Ġenvironments": 24065,
    "exceeded": 24999,
    "Ġfrenzy": 13620,
    "exclaimed": 11788,
    "onstrate": 17768,
    "willingly": 11981,
    "Ġinspector": 6498,
    "Ġbronze": 22862,
    "Ġreproach": 9556,
    "Ġweighing": 20014,
    "mish": 17598,
    "Ġfanning": 23388,
    "Ġbidirectional": 3754,
    "terrific": 25040,
    "Ġmultitud": 18746,
    "rints": 12500,
    "scruple": 26043,
    "Ġfer": 5529,
    "Ġtwisting": 18658,
    "kine": 15374,
    "Ġsquad": 22832,
    "Ġsuff": 1304,
    "hardly": 6491,
    "Ġjoined": 4562,
    "Ġdodging": 19886,
    "Ġtal": 7564,
    "Ġbreakers": 12053,
    "Ġply": 21450,
    "blu": 12438,
    "Ġchilly": 25562,
    "iantly": 13738,
    "Ġbuckler": 24859,
    "twelvemonth": 25862,
    "Ġostlers": 25276,
    "iries": 18169,
    "orable": 8119,
    "ĠĠĠĠĠĠĠĠĠĠĠĠĠĠĠĠĠ": 22946,
    "binnacle": 20786,
    "Ġacquiesce": 20328,
    "anyone": 16593,
    "Ġcoer": 22576,
    "sensations": 20049,
    "Ġspending": 10924,
    "ise": 708,
    "Ġforth": 3462,
    "guess": 14760,
    "Ġashen": 21896,
    "Ġcrop": 10162,
    "Ġscholars": 26112,
    "combined": 20319,
    "original": 9084,
    "Ġfortifications": 23622,
    "Ġdorm": 4821,
    "etics": 21578,
    "pow": 10717,
    "Ġjeroboam": 10600,
    "Ġheavily": 6740,
    "Ġbackwater": 18651,
    "ince": 4339,
    "Ġtongue": 6347,
    "Ġvor": 15805,
    "Ġ39": 19488,
    "Ġunfortunately": 10909,
    "Ġsweatings": 25710,
    "pens": 17632,
    "Ġkink": 22190,
    "Ġvelvet": 12396,
    "opolising": 25676,
    "Ġbull": 7839,
    "Ġuses": 1207,
    "Ġdeficiencies": 26570,
    "establish": 17392,
    "Ġmontan": 22973,
    "Ġensure": 23686,
    "Ġclever": 7054,
    "Ġcoffee": 6760,
    "Ġtops": 14586,
    "icip": 6389,
    "describe": 1515,
    "Ġvicious": 24403,
    "gown": 9596,
    "Ġtong": 4870,
    "paddington": 20476,
    "spades": 14335,
    "excitement": 19668,
    "Ġplead": 14454,
    "leather": 13889,
    "ital": 4817,
    "Ġunt": 2289,
    "Ġmastery": 23990,
    "Ġminded": 23226,
    "Ġspectrum": 4472,
    "Ġasserted": 16949,
    "Ġstoper": 14461,
    "masts": 19423,
    "Ġunassuming": 20507,
    "spikes": 10341,
    "Ġlost": 2636,
    "Ġgrinning": 9053,
    "Ġhun": 1496,
    "ĠĠĠĠĠĠĠĠĠĠĠĠ": 12898,
    "acca": 23599,
    "ogene": 18671,
    "Ġpages": 15606,
    "ou": 287,
    "Ġclutched": 13517,
    "yrin": 12519,
    "Ġprobabilities": 4966,
    "Ġflatt": 16245,
    "Ġdu": 4583,
    "moored": 22703,
    "Ġdate": 7841,
    "Ġwhip": 8451,
    "Ġroot": 2650,
    "Ġblanched": 26282,
    "prob": 7069,
    "Ġwives": 12552,
    "Ġlunatic": 24990,
    "icing": 9200,
    "Ġvertu": 23888,
    "Ġbegging": 11080,
    "ordered": 8789,
    "wherever": 13116,
    "Ġimmortal": 8017,
    "fishing": 20858,
    "Ġcongregated": 20095,
    "Ġobli": 9315,
    "Ġreigning": 15699,
    "Ġstep": 752,
    "Ġnine": 5369,
    "explanations": 25234,
    "rem": 1522,
    "Ġrespect": 1669,
    "Ġblueprints": 13169,
    "Ġcapsized": 20088,
    "Ġbenefactor": 14697,
    "asleep": 21541,
    "fering": 17542,
    "Ġliveliness": 13641,
    "aples": 20767,
    "Ġinexhaustible": 16981,
    "Ġfetching": 16896,
    "Ġleap": 5823,
    "terns": 21819,
    "Ġboots": 5942,
    "Ġslides": 18938,
    "Ġtigers": 25758,
    "Ġice": 3605,
    "closed": 23151,
    "Ġprofessional": 7299,
    "furniture": 20241,
    "nostril": 26559,
    "Ġpaying": 9937,
    "Ġcobweb": 22581,
    "departed": 24794,
    "Ġmidday": 23634,
    "Ġoutdone": 22316,
    "proachable": 23396,
    "Ġhol": 1180,
    "lott": 6650,
    "Ġconjoined": 21803,
    "hatch": 15363,
    "Ġuntouched": 16465,
    "ef": 5134,
    "Ġwebster": 20160,
    "crew": 7544,
    "stained": 21652,
    "Ġhabitation": 14802,
    "atory": 6125,
    "ially": 9246,
    "hunting": 24385,
    "Ġdeaths": 14537,
    "Ġglit": 8558,
    "Ġmilky": 9946,
    "dington": 11899,
    "Ġic": 9625,
    "Ġcomprehending": 24445,
    "Ġparched": 11725,
    "Ġshore": 4834,
    "Ġspacious": 18312,
    "umbrance": 22115,
    "Ġspan": 11727,
    "staking": 21645,
    "Ġimprudence": 10297,
    "frank": 7757,
    "Ġbutton": 10267,
    "Ġcounsel": 13613,
    "aster": 1868,
    "Ġsnapping": 19300,
    "replied": 11565,
    "Ġlistening": 6318,
    "accomp": 10456,
    "Ġcrumpled": 16442,
    "attle": 4464,
    "Ġgaily": 16748,
    "Ġflora": 11416,
    "Ġsought": 5010,
    "Ġay": 15491,
    "Ġsomewhat": 4897,
    "Ġsundering": 23272,
    "ensions": 14258,
    "fairly": 17219,
    "Ġdecember": 15007,
    "Ġfashions": 17885,
    "Ġstarboard": 7607,
    "Ġgradual": 20600,
    "damp": 15342,
    "Ġenriched": 26499,
    "Ġfries": 21413,
    "Ġnovels": 15928,
    "Ġcompens": 14263,
    "Ġplanet": 14749,
    "Ġrmsprop": 3354,
    "remarks": 23185,
    "need": 10979,
    "Ġcannot": 1666,
    "Ġdeadliest": 14556,
    "zeal": 16270,
    "Ġmadame": 13148,
    "Ġpurposely": 10444,
    "Ġsay": 933,
    "clam": 13051,
    "Ġskul": 22793,
    "Ġpicked": 6341,
    "Ġrefrain": 12944,
    "assertion": 22308,
    "Ġoffending": 22740,
    "Ġvigorously": 11299,
    "Ġnobody": 6158,
    "pond": 21012,
    "Ġslippers": 19614,
    "Ġseventy": 7879,
    "Ġfighting": 12195,
    "Ġpolicy": 10458,
    "pursuit": 20339,
    "Ġdes": 1248,
    "empty": 23636,
    "Ġaffl": 14385,
    "Ġabsurd": 7202,
    "Ġexter": 7397,
    "Ġepid": 18004,
    "ring": 1751,
    "Ġconfirmed": 11139,
    "Ġeat": 4643,
    "Ġhieroglyphics": 17302,
    "Ġrecurrent": 1803,
    "tures": 21068,
    "eter": 11620,
    "Ġparents": 6752,
    "Ġfeverish": 11348,
    "Ġrabbit": 4289,
    "Ġdaunt": 19663,
    "Ġbackground": 18650,
    "Ġpun": 4586,
    "Ġhigh": 932,
    "Ġrefer": 18701,
    "Ġwretchedly": 19505,
    "Ġboundless": 10495,
    "Ġbeckoning": 20500,
    "Ġlonging": 14298,
    "abond": 15739,
    "Ġhobbling": 25644,
    "Ġadmeasurements": 26225,
    "Ġcaves": 15552,
    "pleasant": 5874,
    "sweeping": 24618,
    "ourse": 8869,
    "beheld": 11799,
    "green": 7115,
    "expression": 10547,
    "Ġparl": 8177,
    "Ġwh": 328,
    "Ġcomfort": 3439,
    "etime": 12657,
    "Ġtriumphant": 12187,
    "Ġobsequ": 14319,
    "nineteenth": 26138,
    "Ġjune": 10288,
    "acid": 11006,
    "Ġlaboratory": 13610,
    "pursue": 24973,
    "fatigue": 20657,
    "Ġcopse": 17067,
    "Ġstationary": 19693,
    "whisper": 17083,
    "har": 20889,
    "Ġilluminate": 17192,
    "folio": 10546,
    "Ġestab": 6315,
    "Ġcavity": 20486,
    "Ġpraying": 19553,
    "Ġsolutions": 1947,
    "Ġcur": 1284,
    "Ġexamined": 6334,
    "omorrah": 18017,
    "Ġchurch": 4710,
    "Ġliving": 3059,
    "tisement": 6767,
    "sink": 11521,
    "Ġweig": 7618,
    "Ġmasked": 3694,
    "arrested": 15599,
    "Ġpraised": 19552,
    "Ġtol": 6675,
    "Ġlengthened": 25958,
    "had": 1950,
    "Ġstuck": 9222,
    "Ġinclude": 1875,
    "Ġenchantment": 24869,
    "Ġbandaged": 16842,
    "Ġverify": 12085,
    "Ġplayful": 19236,
    "Ġagreed": 7028,
    "hypothe": 25905,
    "Ġcarriage": 3950,
    "Ġoccupations": 9457,
    "Ġscheme": 7064,
    "ascertain": 21540,
    "Ġpressed": 6041,
    "envelope": 17782,
    "Ġmarbank": 23033,
    "Ġdetermines": 2363,
    "Ġaugmentation": 20114,
    "Ġcontact": 9280,
    "ip": 556,
    "Ġthumb": 6981,
    "Ġelev": 5536,
    "Ġprofits": 16489,
    "Ġinjunction": 19616,
    "sorting": 17004,
    "edmund": 17945,
    "Ġpecks": 18669,
    "pushed": 21022,
    "Ġappend": 18360,
    "Ġidiot": 11970,
    "war": 6802,
    "Ġemerged": 8684,
    "Ġspaniard": 20361,
    "lilies": 20960,
    "library": 12995,
    "Ġembodiment": 20527,
    "Ġwhirling": 12246,
    "beaut": 8512,
    "Ġfrequently": 4679,
    "forever": 22516,
    "Ġanoint": 25537,
    "judged": 14830,
    "Ġhurtling": 24957,
    "Ġhud": 10822,
    "proves": 23392,
    "Ġpoints": 5247,
    "Ġsovere": 9255,
    "Ġpresum": 4837,
    "¶": 119,
    "Ġwrath": 16316,
    "Ġsmelt": 16064,
    "Ġinfidel": 13085,
    "Ġmeat": 8151,
    "Ġpostponed": 20388,
    "cut": 3119,
    "Ġheedfully": 24521,
    "produced": 25414,
    "Ġan": 286,
    "Ġfree": 3374,
    "Ġimpersonal": 17395,
    "Ġfleets": 23772,
    "Ġsadness": 13284,
    "Ġfow": 6133,
    "Ġhelter": 24022,
    "Ġdiscussed": 19558,
    "Ġambergris": 8705,
    "ension": 6569,
    "Ġgoes": 3850,
    "Ġloitered": 26525,
    "exertion": 16015,
    "Ġsweating": 16462,
    "iftings": 23222,
    "Ġseems": 2480,
    "Ġdeg": 3280,
    "Ġheath": 15700,
    "deadly": 17100,
    "azz": 8261,
    "Ġinstantly": 3593,
    "Ġsheeted": 19830,
    "honey": 20904,
    "adopt": 25544,
    "Ġaccumulated": 11929,
    "Ġhardihood": 23110,
    "rably": 21630,
    "turning": 8316,
    "outer": 9668,
    "Ġcommissioned": 19894,
    "Ġstumped": 24942,
    "Ġfascinated": 25635,
    "Ġremember": 2679,
    "Ġlatent": 19654,
    "Ġshadows": 8012,
    "Ġgradu": 15831,
    "Ġadjusted": 23457,
    "onomy": 12544,
    "Ġgret": 21598,
    "Ġensl": 19273,
    "avo": 8517,
    "Ġb": 281,
    "Ġge": 1976,
    "ri": 389,
    "Ġluckily": 16798,
    "Ġash": 4832,
    "Ġessential": 7523,
    "smile": 23903,
    "Ġlasting": 18791,
    "Ġnuts": 17951,
    "Ġcannon": 14153,
    "Ġtrance": 12837,
    "Ġmusky": 19380,
    "Ġplant": 8899,
    "breeze": 20561,
    "common": 4129,
    "Ġextracted": 16310,
    "Ġrepresenting": 4061,
    "Ġmouths": 7491,
    "peare": 18911,
    "going": 6313,
    "fs": 17535,
    "Ġgpus": 3731,
    "night": 2165,
    "Ġbra": 3254,
    "Ġbengal": 18782,
    "Ġmisfortune": 5569,
    "Ġplaying": 6910,
    "heavens": 19744,
    "atmosphere": 21263,
    "Ġenderby": 13649,
    "Ġat": 395,
    "Ġdiscomposed": 25580,
    "Ġdressing": 7090,
    "Ġpatter": 806,
    "Ġgentlemanly": 19315,
    "Ġinfamous": 16364,
    "Ġcup": 5697,
    "entle": 1739,
    "Ġsurgeon": 8981,
    "tribute": 21087,
    "Ġprominence": 18953,
    "initely": 7568,
    "spin": 22730,
    "Ġlevi": 3032,
    "Ġdeveloped": 16346,
    "Ġod": 4437,
    "forest": 22515,
    "Ġgrimly": 17052,
    "Ġinfer": 7683,
    "tee": 16169,
    "Ġperceived": 4713,
    "ney": 2491,
    "Ġper": 587,
    "Ġkeel": 6444,
    "Ġst": 333,
    "urance": 10857,
    "Ġbarnacled": 25536,
    "Ġmagnanimous": 17410,
    "pleasanter": 24044,
    "Ġindign": 6173,
    "signed": 21060,
    "shipped": 18495,
    "Ġpossibly": 4512,
    "Ġlisten": 4673,
    "Ġmother": 2069,
    "Ġresolving": 9418,
    "daw": 17522,
    "Ġpol": 2576,
    "Ġphara": 23199,
    "Ġachieved": 13164,
    "Ġuser": 15913,
    "getic": 12963,
    "Ġconsecut": 18111,
    "Ġmanner": 2192,
    "Ġfleecy": 17023,
    "iot": 9600,
    "Ġhoriz": 4725,
    "Ġlegisl": 23533,
    "Ġdegenerating": 25799,
    "engine": 18926,
    "Ġbedfellows": 23437,
    "Ġshoved": 23488,
    "Ġcrowder": 19454,
    "Ġstack": 21733,
    "loss": 22505,
    "reduced": 15804,
    "Ġspas": 10923,
    "Ġprehens": 22228,
    "Ġjets": 10287,
    "Ġ46": 19489,
    "Ġbalances": 2336,
    "Ġconfide": 13097,
    "Ġgilder": 21610,
    "native": 17611,
    "Ġperson": 2364,
    "Ġspiritual": 9929,
    "Ġpod": 15602,
    "Ġhop": 1461,
    "ra": 314,
    "eat": 11482,
    "Ġcramped": 23529,
    "Ġidentical": 10434,
    "Ġmust": 845,
    "phil": 7924,
    "its": 1147,
    "Ġbanished": 10616,
    "Ġharry": 24571,
    "Ġphilipses": 24452,
    "30": 20753,
    "Ġlowly": 11121,
    "fl": 3601,
    "Ġrecorded": 11293,
    "Ġfourteen": 12008,
    "Ġjobs": 24832,
    "Ġbirth": 6524,
    "shavings": 22460,
    "Ġhearses": 20058,
    "largely": 19573,
    "Ġpercept": 14222,
    "onious": 15518,
    "ĠâĢĻ": 3040,
    "Ġskills": 1839,
    "Ġtinkling": 25212,
    "provid": 11149,
    "Ġbrightly": 13221,
    "Ġunlucky": 10049,
    "impotence": 23759,
    "ws": 7355,
    "Ġloathed": 15874,
    "Ġhardware": 4904,
    "Ġengine": 1919,
    "Ġroarings": 25301,
    "Ġfaces": 6008,
    "Ġtrad": 9827,
    "Ġsne": 6372,
    "Ġswe": 2285,
    "Ġcows": 15551,
    "Ġtren": 17721,
    "Ġvit": 10245,
    "Ġspur": 18303,
    "vere": 4883,
    "Ġcontinental": 19704,
    "dishonourable": 26365,
    "Ġsummons": 13229,
    "raged": 9211,
    "Ġcrushed": 9422,
    "icide": 11617,
    "nes": 6961,
    "follow": 5680,
    "Ġtelegra": 11890,
    "Ġnarr": 5085,
    "conclusion": 25671,
    "Ġcontents": 7210,
    "Ġcomposedly": 25183,
    "Ġhark": 8427,
    "Ġclam": 7416,
    "lude": 6161,
    "Ġunreasonable": 12775,
    "eyed": 11486,
    "room": 2175,
    "Ġequinoctial": 20531,
    "queens": 22905,
    "tranqu": 14705,
    "Ġgurglings": 26465,
    "###": 3825,
    "erc": 5904,
    "de": 459,
    "Ġpack": 5444,
    "settled": 10506,
    "Ġdoubled": 19641,
    "Ġke": 1153,
    "Ġthrows": 14736,
    "dirty": 20833,
    "Ġsubstituting": 26326,
    "Ġattendant": 11285,
    "Ġbags": 24537,
    "Ġflying": 5413,
    "olera": 21823,
    "poky": 17644,
    "Ġbacking": 16116,
    "Ġpenny": 16313,
    "Ġwester": 25152,
    "Ġskill": 6872,
    "Ġthrough": 604,
    "ribut": 816,
    "Ġtemple": 7653,
    "Ġtendons": 19807,
    "Ġcharacters": 9371,
    "lig": 3170,
    "hig": 12472,
    "typewritten": 26038,
    "mechanical": 25578,
    "Ġlany": 21551,
    "prep": 9758,
    "Ġcocoanuts": 26362,
    "Ġmadly": 16485,
    "calabash": 22891,
    "giana": 7800,
    "Ġinterruption": 9472,
    "post": 6061,
    "Ġexpressions": 7705,
    "ipher": 18432,
    "Ġcombinations": 22881,
    "Ġawed": 23584,
    "destroyed": 15259,
    "echo": 15347,
    "inks": 6869,
    "Ġ109": 24416,
    "organ": 15572,
    "Ġaspire": 21897,
    "icating": 15653,
    "conveyed": 20519,
    "Ġscope": 15942,
    "Ġvexation": 10586,
    "Ġtidings": 11397,
    "oors": 17620,
    "Ġshrieked": 9547,
    "Ġsoftened": 11101,
    "Ġretreated": 13431,
    "razor": 21634,
    "!âĢĶ": 2453,
    "Ġwrenching": 17322,
    "Ġcol": 1066,
    "Ġbur": 2699,
    "Ġcanada": 22163,
    "Ġ150": 22823,
    "subjects": 19875,
    "Ġmast": 2899,
    "Ġbelie": 14405,
    "Ġreprehensible": 15697,
    "Ġmixed": 6974,
    "Ġgang": 9207,
    "Ġconflict": 17273,
    "Ġrock": 5310,
    "Ġcongeal": 25980,
    "Ġrepeated": 3829,
    "Ġdisgust": 6705,
    "move": 11852,
    "!_": 7329,
    "hearted": 6970,
    "Ġexile": 12715,
    "Ġbelong": 3885,
    "Ġphrenologists": 25608,
    "Ġillustrious": 17109,
    "Ġaquiline": 26159,
    "Ġdances": 10812,
    "Ġseventeen": 26210,
    "ust": 495,
    "Ġaper": 17743,
    "Ġconsist": 1933,
    "Ġmar": 1312,
    "Ġavert": 14424,
    "Ġtrustees": 24108,
    "edy": 2856,
    "Ġtamer": 24976,
    "everywhere": 23696,
    "Ġgasfitters": 25038,
    "Ġasia": 11681,
    "Ġpict": 3497,
    "Ġdeepest": 8213,
    "Ġfolds": 12204,
    "Ġmishap": 20575,
    "Ġstoried": 18075,
    "Ġsquire": 16179,
    "erranean": 9333,
    "Ġimposed": 14215,
    "Ġbordeaux": 24564,
    "gammon": 20242,
    "Ġprouder": 18972,
    "Ġgeor": 3387,
    "Ġcontempl": 6701,
    "infernal": 24662,
    "vic": 13801,
    "Ġwhaleboats": 18478,
    "Ġcontrols": 1733,
    "Ġwoes": 23983,
    "Ġscrupulous": 20067,
    "Ġencirc": 18730,
    "Ġthoroughfare": 16944,
    "perform": 15900,
    "_).âĢĶ": 8681,
    "snow": 10724,
    "Ġpedro": 14994,
    "bted": 7793,
    "Ġapprove": 12871,
    "tub": 9143,
    "jol": 20924,
    "Ġsket": 18727,
    "vers": 1327,
    "Ġapparition": 8066,
    "Ġtrailing": 23076,
    "slightest": 25416,
    "Ġcomprehend": 6494,
    "Ġcoach": 6867,
    "Ġheels": 10850,
    "Ġannum": 24203,
    "Ġgirth": 13134,
    "dition": 15339,
    "Ġga": 4444,
    "Ġpillow": 10037,
    "Ġtalents": 15044,
    "Ġmaddened": 17244,
    "Ġthought": 1092,
    "Ġbedford": 7473,
    "Ġdiff": 3110,
    "Ġapplication": 2049,
    "stooped": 23818,
    "å": 166,
    "Ġhearts": 4972,
    "Ġexact": 2542,
    "Ġsavi": 18325,
    "strikes": 24670,
    "confined": 24332,
    "corrob": 24485,
    "hurrying": 14982,
    "Ġsees": 8842,
    "Ġperuvian": 18452,
    "Ġwar": 5526,
    "Ġgoodness": 6058,
    "Ġholiday": 12994,
    "flowing": 14570,
    "ide": 723,
    "Ġgam": 11623,
    "bolts": 11420,
    "mp": 3726,
    "Ġcotton": 17378,
    "iles": 2858,
    "alone": 10183,
    "Ġner": 1647,
    "threat": 10900,
    "Ġdropt": 23674,
    "Ġunhappily": 18262,
    "Ġmills": 21310,
    "y": 93,
    "Ġbecalmed": 18086,
    "dough": 15334,
    "fishers": 24928,
    "ren": 551,
    "Ġconstit": 8583,
    "vain": 15447,
    "Ġshowing": 7731,
    "Ġvalue": 2086,
    "Ġaroused": 15898,
    ".--": 20745,
    "queer": 10363,
    "Ġsends": 14789,
    "human": 7088,
    "Ġhanded": 8216,
    "ountain": 2918,
    "ogra": 4572,
    "Ġkith": 22189,
    "ĠĠĠĠĠĠĠĠĠĠĠĠĠĠĠĠĠĠĠĠĠĠĠĠĠĠĠĠĠĠĠĠĠĠ": 14613,
    "adier": 18089,
    "Ġspaulding": 11730,
    "Ġherein": 16189,
    "Ġclimates": 25050,
    "will": 1967,
    "Ġunreason": 15841,
    "Ġbennet": 1578,
    "Ġdynamic": 5124,
    "igating": 21697,
    "Ġsaintsbury": 26372,
    "Ġarts": 11008,
    "art": 590,
    "itive": 6668,
    "Ġannoyance": 20661,
    "Ġprized": 23218,
    "Ġnice": 6676,
    "Ġquebec": 24133,
    "ocity": 8277,
    "othic": 16215,
    "Ġcarried": 3693,
    "Ġinclement": 22550,
    "Ġredu": 1355,
    "Ġenterprise": 8641,
    "eed": 20840,
    "Ġdenomin": 12065,
    "Ġabusing": 18393,
    "Ġknowest": 12862,
    "Ġ156": 20169,
    "Ġdecreed": 18486,
    "charitable": 23930,
    "daughter": 8353,
    "scence": 14415,
    "Ġmention": 2983,
    "ud": 924,
    "Ġmince": 22828,
    "roylott": 20025,
    "Ġbery": 13897,
    "Ġrecord": 5316,
    "Ġ1836": 25721,
    "Ġfurnishing": 16645,
    "etymology": 14700,
    "Ġsumatra": 15285,
    "Ġmasters": 11574,
    "Ġblazing": 11894,
    "Ġquarrels": 16566,
    "be": 668,
    "Ġwag": 10775,
    "Ġgesture": 11399,
    "handsome": 13174,
    "persecut": 22186,
    "Ġmagnified": 23203,
    "hateful": 20908,
    "Ġhart": 17921,
    "condemned": 26060,
    "Ġreported": 11978,
    "Ġindistinctly": 26117,
    "Ġunnatural": 7190,
    "Ġcontentment": 14869,
    "Ġsmacking": 20164,
    "ild": 1152,
    "Ġteased": 18805,
    "Ġpropontis": 17465,
    "Ġexceptional": 19369,
    "itated": 4438,
    "Ġproxim": 3196,
    "ug": 1766,
    "Ġmainly": 22645,
    "Ġyielding": 12184,
    "Ġunfav": 14787,
    "sustained": 20567,
    "bree": 15313,
    "acked": 10974,
    "Ġcos": 2204,
    "ings": 637,
    "chosen": 21692,
    "condite": 23245,
    "Ġretains": 20028,
    "icorn": 15655,
    "Ġsincer": 13062,
    "Ġcondu": 18109,
    "Ġfrighted": 24026,
    "84": 15300,
    "Ġterrify": 19359,
    "hurt": 19877,
    "attendants": 25495,
    "Ġoccasioned": 13224,
    "icism": 13955,
    "Ġrad": 4962,
    "Ġsnodhead": 19301,
    "Ġflattering": 13021,
    "Ġinsensible": 12323,
    "iably": 13737,
    "Ġimmensities": 25330,
    "rabbit": 20589,
    "Ġdevilish": 11228,
    "Ġrepute": 18034,
    "Ġcallest": 17832,
    "Ġcourtesy": 9944,
    "Ġaddresses": 3768,
    "ores": 2410,
    "Ġtro": 7356,
    "Ġbrute": 8926,
    "Ġseptember": 18207,
    "rimshander": 20656,
    "Ġdecrease": 4199,
    "older": 15751,
    "Ġlaborious": 13101,
    "oblivious": 26582,
    "Ġswords": 19896,
    "Ġam": 660,
    "Ġlead": 3521,
    "Ġveteran": 17449,
    "Ġlevel": 5020,
    "ground": 4671,
    "Ġconsecrated": 26488,
    "Ġgrampus": 21990,
    "ached": 2318,
    "ected": 7872,
    "sorts": 21059,
    "etent": 10199,
    "gon": 17552,
    "uer": 21099,
    "oar": 12495,
    "quarried": 24945,
    "Ġcalculus": 23980,
    "Ġhandles": 22694,
    "Ġshrieking": 24758,
    "Ġwines": 21286,
    "Ġlit": 6246,
    "Ġearth": 2848,
    "Ġatmosphere": 10897,
    "Ġstrewed": 23420,
    "Ġreasoning": 1995,
    "ostent": 16846,
    "af": 2372,
    "Ġsolemnity": 9940,
    "croquet": 25747,
    "Ġdepending": 14287,
    "tedious": 22630,
    "Ġtheory": 5798,
    "Ġhouses": 6138,
    "nett": 16220,
    "see": 3044,
    "Ġposter": 14274,
    "Ġwindibank": 7257,
    "Ġargu": 10934,
    "Ġparchment": 13650,
    "Ġimplicate": 24876,
    "Ġlashings": 25097,
    "contemplated": 20457,
    "Ġtrespass": 23602,
    "://": 11465,
    "Ġmutually": 23954,
    "Ġ500": 24328,
    "Ġjon": 15947,
    "brill": 16491,
    "wart": 17705,
    "omn": 15680,
    "atural": 934,
    "Ġsiam": 13837,
    "Ġemotion": 7689,
    "web": 18664,
    "Ġkeels": 11061,
    "Ġproper": 1379,
    "Ġfootmen": 23795,
    "Ġfirmly": 8013,
    "Ġrout": 7402,
    "ittance": 12843,
    "Ġdreamt": 23936,
    "Ġgazing": 5875,
    "Ġanew": 11430,
    "epilogue": 22100,
    "Ġunsafe": 22038,
    "Ġschoolmasters": 19719,
    "!_âĢĶ": 19971,
    "Ġwildness": 14603,
    "Ġdoctors": 12149,
    "Ġbegins": 7244,
    "Ġnumbers": 2886,
    "Ġchaldee": 26234,
    "Ġdab": 15586,
    "Ġparts": 4165,
    "Ġmushroom": 13234,
    "tart": 21066,
    "Ġholy": 6591,
    "otence": 14022,
    "Ġunwell": 22014,
    "ounted": 5030,
    "carpet": 25202,
    "Ġstabilizing": 3657,
    "Ġlabour": 7274,
    "Ġint": 410,
    "announcement": 24562,
    "Ġfut": 15573,
    "Ġcongealed": 25981,
    "Ġobserving": 6080,
    "pling": 8474,
    "odings": 4398,
    "Ġpreservation": 24630,
    "Ġflaw": 23004,
    "pan": 10716,
    "etch": 9204,
    "lessly": 4554,
    "Ġboarders": 16600,
    "insufferable": 21191,
    "Ġjib": 14193,
    "Ġwrite": 3819,
    "evade": 24820,
    "pherd": 13642,
    "Ġrecommendation": 17025,
    "skull": 24488,
    "Ġconceivable": 16613,
    "Ġweaken": 21918,
    "ivation": 3105,
    "ambition": 13409,
    "Ġfair": 2835,
    "irements": 22214,
    "Ġcomplement": 23707,
    "forty": 9373,
    "engagement": 14457,
    "Ġju": 10286,
    "Ġchim": 5932,
    "gener": 3121,
    "aus": 1501,
    "browed": 25894,
    "Ġfiend": 4410,
    "Ġplunged": 8692,
    "Ġwalled": 15534,
    "Ġrandomly": 1920,
    "Ġsystem": 575,
    "Ġhonour": 3921,
    "Ġobstin": 14952,
    "Ġtranslation": 3083,
    "acters": 9308,
    "gg": 1997,
    "Ġassigned": 16311,
    "Ġlivel": 11355,
    "ikes": 8086,
    "Ġissued": 10599,
    "Ġcensus": 15095,
    "Ġbarely": 16936,
    "laughing": 15178,
    "Ġhush": 13209,
    "og": 859,
    "Ġtemporal": 2613,
    "Ġpredicted": 2045,
    "mises": 20977,
    "hog": 8379,
    "¯": 112,
    "Ġpoisoned": 24886,
    "Ġsage": 17752,
    "Ġconfusion": 7273,
    "reached": 13840,
    "Ġreck": 6537,
    "Ġrambling": 18644,
    "anter": 9166,
    "Ġdespond": 14667,
    "Ġreverence": 12057,
    "Ġsides": 4578,
    "800": 17476,
    "Ġextremely": 2670,
    "Ġarm": 2490,
    "mense": 4780,
    "Ġcalling": 5662,
    "rasing": 21044,
    "lest": 5288,
    "eteenth": 20156,
    "hawks": 24694,
    "lesson": 22770,
    "dreadful": 11421,
    "Ġakin": 15495,
    "Ġindulged": 13415,
    "Ġme": 352,
    "bering": 18680,
    "Ġseating": 18201,
    "Ġarg": 4766,
    "bank": 10079,
    "ribs": 23363,
    "Ġcardboard": 19977,
    "Ġcassock": 20485,
    "Ġmansfield": 25938,
    "Ġ33": 16676,
    "Ġcruc": 16534,
    "Ġdeposition": 18604,
    "Ġgin": 13960,
    "Ġher": 427,
    "Ġcreator": 7254,
    "Ġmore": 676,
    "chase": 11644,
    "Ġwidows": 24236,
    "sugg": 11839,
    "Ġremoved": 5274,
    "Ġmyster": 5925,
    "Ġfacility": 19849,
    "parable": 16389,
    "Ġwriter": 11943,
    "Ġtwice": 4661,
    "Ġcommis": 22668,
    "Ġfaster": 3194,
    "Ġhard": 1443,
    "approaching": 15011,
    "crowd": 25254,
    "barrels": 15041,
    "Ġappear": 2483,
    "article": 22397,
    "Ġmorris": 18843,
    "hest": 3368,
    "Ġexecuted": 9471,
    "Ġsincerely": 7962,
    "Ġdivide": 12108,
    "Ġability": 2764,
    "Ġtongs": 9960,
    "Ġspiteful": 19521,
    "valu": 1708,
    "Ġwinged": 16995,
    "residence": 19262,
    "Ġrekindled": 21674,
    "Ġmatters": 4974,
    "Ġcele": 9899,
    "Ġsung": 23270,
    "Ġflowed": 10371,
    "Ġenvelope": 7319,
    "Ġboat": 1275,
    "vanity": 24974,
    "Ġspeeding": 23563,
    "Ġh": 290,
    "Ġnarrow": 5086,
    "Ġhandsome": 4906,
    "eration": 10772,
    "Ġglades": 19370,
    "Ġrealising": 18981,
    "gr": 2087,
    "Ġmonstr": 7666,
    "Ġowing": 6004,
    "mency": 18925,
    "standing": 5558,
    "Ġignor": 4013,
    "Ġunremitting": 26217,
    "beat": 10986,
    "antediluvian": 24346,
    "Ġindignity": 18833,
    "affection": 7487,
    "insurance": 18887,
    "tort": 17675,
    "Ġeasy": 3452,
    "onday": 6063,
    "Ġfisheries": 17437,
    "Ġpips": 9847,
    "inging": 5906,
    "Ġ119": 24441,
    "variety": 23182,
    "Ġquality": 3526,
    "russian": 22176,
    "mysterious": 26051,
    "ision": 1855,
    "abated": 14019,
    "standers": 18479,
    "Ġdisrespect": 18553,
    "Ġmaintenance": 17461,
    "odd": 21806,
    "Ġdivine": 6921,
    "Ġlining": 13950,
    "Ġdisobedience": 22532,
    "imp": 3031,
    "screaming": 20324,
    "ative": 734,
    "Ġabuse": 18392,
    "jected": 22709,
    "Ġrind": 21969,
    "fits": 13717,
    "lement": 10166,
    "bantering": 25253,
    "histor": 13489,
    "covenant": 23561,
    "Ġmonosy": 18844,
    "licted": 20955,
    "Ġunreasoning": 15844,
    "Ġpulled": 5660,
    "uv": 6229,
    "Ġvag": 9707,
    "Ġchimer": 24602,
    "Ġcleans": 18947,
    "Ġ90": 24588,
    "itate": 6667,
    "accessory": 25499,
    "Ġfarmhouse": 24984,
    "&": 10,
    "nosed": 20991,
    "Ġspoon": 22132,
    "kshire": 13745,
    "Ġvariety": 8530,
    "Ġmercy": 8998,
    "rian": 10241,
    "Ġans": 1646,
    "Ġtags": 20570,
    "Ġsolve": 4195,
    "Ġmim": 3101,
    "Ġsocially": 22075,
    "rat": 8755,
    "Ġprayer": 16666,
    "Ġlaughing": 5338,
    "Ġmeant": 3549,
    "Ġwhile": 608,
    "?": 35,
    "Ġplatonian": 25118,
    "Ġdisturb": 7107,
    "Ė": 215,
    "scene": 14416,
    "Ġtennessee": 26596,
    "Ġanomaly": 25636,
    "Ġassid": 18944,
    "Ġshoes": 7071,
    "frankly": 20020,
    "powder": 17645,
    "peace": 13045,
    "Ġleg": 2331,
    "Ġinnumerable": 13349,
    "Ġintelligence": 565,
    "Ġfreshet": 25704,
    "Ġlearnt": 7612,
    "Ġprovision": 14824,
    "medical": 23339,
    "mistakable": 20652,
    "Ġbrilliant": 11414,
    "Ġsubmit": 11868,
    "itions": 4148,
    "Ġplank": 7033,
    "confirm": 16807,
    "pagans": 25525,
    "Ġroom": 1463,
    "Ġseeing": 2883,
    "Ġchancery": 20715,
    "emper": 18184,
    "Ġhour": 1814,
    "Ġthoughtlessness": 16192,
    "buff": 15317,
    "ifying": 5251,
    "seeking": 17152,
    "omet": 3072,
    "derbyshire": 18321,
    "Ġendless": 7053,
    "Ġgeometric": 3215,
    "painting": 17046,
    "chron": 21691,
    "Ġdusk": 12325,
    "owe": 15706,
    "Ġenemy": 5605,
    "Ġmotive": 6091,
    "itics": 13871,
    "Ġtort": 5901,
    "Ġbreaching": 23345,
    "amount": 10884,
    "ignific": 11954,
    "Ġwork": 1344,
    "Ġequatorial": 13507,
    "Ġfrankenstein": 7095,
    "excuse": 13379,
    "venison": 22626,
    "mell": 20963,
    "Ġlav": 13949,
    "Ġtun": 5998,
    "Ġnumerical": 4245,
    "unconquerable": 21888,
    "nib": 5214,
    "female": 20665,
    "Ġdisse": 18548,
    "stretching": 20497,
    "Ġunion": 6839,
    "Ġflooded": 24959,
    "stalk": 21647,
    "Ġhousehold": 8567,
    "Ġponies": 21473,
    "Ġseek": 4507,
    "ane": 1176,
    "Ġjingling": 26017,
    "Ġseizure": 21961,
    "Ġcig": 6520,
    "Ġorange": 8486,
    "Ġhereditarily": 25224,
    "Ġcruelty": 9968,
    "swe": 5995,
    "afternoon": 13183,
    "inclination": 20056,
    "Ġhandsom": 11124,
    "fre": 5425,
    "Ġsamuel": 10032,
    "quick": 6400,
    "Ġgorge": 13564,
    "itters": 10781,
    "Ġsweeping": 8985,
    "Ġtrust": 4080,
    "Ġcandelab": 23846,
    "Ġdistance": 3483,
    "Ġperished": 11782,
    "eldom": 4412,
    "Ġtyph": 10007,
    "fol": 4862,
    "Ġlabor": 10418,
    "nay": 7135,
    "merit": 19280,
    "arth": 4441,
    "Ġimpartial": 15218,
    "lies": 15380,
    "Ġintegr": 7968,
    "Ġchoke": 22246,
    "Ġsalut": 10509,
    "Ġstaid": 21735,
    "Ġprotection": 9461,
    "Ġecstasy": 11629,
    "construction": 19777,
    "Ġsakes": 18326,
    "azine": 19130,
    "Ġfalsehood": 10523,
    "Ġamounts": 6704,
    "altogether": 12637,
    "brew": 11473,
    "offered": 14518,
    "Ġpicking": 11259,
    "Ġdoes": 943,
    "Ġtattoo": 7359,
    "Ġbored": 16104,
    "Ġhovers": 19078,
    "held": 3838,
    "Ġenvelop": 5587,
    "repugnance": 16864,
    "Ġfirm": 3869,
    "Ġwoodcock": 19162,
    "cou": 13694,
    "ethics": 8877,
    "Ġaccosted": 13671,
    "Ġbasement": 24702,
    "lances": 15382,
    "ably": 1847,
    "Ġencodings": 4775,
    "lift": 15383,
    "Ġdestiny": 8983,
    "form": 493,
    "cstasy": 11445,
    "Ġfloated": 7288,
    "akers": 9739,
    "Ġdecided": 5471,
    "Ġdiabolical": 20341,
    "deaux": 22145,
    "Ġinsufferable": 13930,
    "Ġincognit": 22551,
    "arers": 12127,
    "vius": 23540,
    "warnings": 20350,
    "Ġemployments": 12100,
    "Ġpractices": 19037,
    "Ġbells": 19600,
    "Ġspare": 5102,
    "lorious": 17592,
    "Ġbeer": 10219,
    "Ġprocession": 11773,
    "kick": 20935,
    "Ġheadway": 18792,
    "loaded": 22509,
    "mon": 2306,
    "Ġappeals": 16315,
    "Ġcharley": 19006,
    "Ġcommonly": 3263,
    "Ġtire": 17720,
    "frock": 20119,
    "haut": 20901,
    "ishes": 6523,
    "endeavoured": 12278,
    "Ġparson": 6687,
    "Ġbustle": 17227,
    "Ġafraid": 3528,
    "Ġpaddock": 25037,
    "kinder": 24845,
    "Ġtowards": 1729,
    "Ġresignation": 18566,
    "frequented": 25900,
    "Ġeffective": 1246,
    "Ġflanks": 11913,
    "Ġfates": 15576,
    "alyards": 18784,
    "ugnance": 12365,
    "visible": 10533,
    "Ġsaloon": 24059,
    "persu": 8027,
    "Ġanchors": 12611,
    "rove": 21530,
    "Ġfantastic": 10058,
    "lotte": 3331,
    "uding": 16150,
    "Ġorchard": 22089,
    "re": 266,
    "Ġchina": 8039,
    "bu": 5132,
    "Ġisolation": 17150,
    "eyes": 5684,
    "Ġproving": 15750,
    "Ġignorant": 5343,
    "Ġcrammed": 16470,
    "trem": 17681,
    "Ġwithin": 2161,
    "skelter": 24490,
    "ator": 1922,
    "discredit": 24250,
    "Ġswish": 23050,
    "natured": 7110,
    "Ġconfound": 23304,
    "mph": 20970,
    "phys": 18700,
    "underneath": 23786,
    "Ġlurking": 11289,
    "Ġpreprocessing": 26536,
    "contrivance": 26316,
    "Ġchair": 3662,
    "ominy": 13977,
    "century": 20045,
    "planted": 11694,
    "igators": 18046,
    "heim": 17746,
    "uncommon": 11680,
    "ining": 3218,
    "uccas": 21105,
    "bright": 8989,
    "Ġdebility": 24272,
    "Ġcharm": 4546,
    "Ġrequest": 6050,
    "Åĵ": 10744,
    "Ġgeorgia": 23884,
    "recogn": 13423,
    "Ġbarrens": 25501,
    "ruit": 22174,
    "Ġimproving": 1208,
    "asked": 8911,
    "Ġpreserved": 9261,
    "Ġcontinuation": 22915,
    "Ġreceptacle": 23188,
    "subs": 14300,
    "Ġhalloa": 13314,
    "igations": 18044,
    "X": 60,
    "Ġmeetings": 16532,
    "judge": 13334,
    "Ġreaches": 18031,
    "mmar": 953,
    "Ġviciously": 24404,
    "arranted": 19319,
    "Ġboy": 3020,
    "Ġtroubles": 19437,
    "Ġhowever": 1306,
    "iment": 2815,
    "ĠĠĠĠĠĠĠĠĠĠĠĠĠ": 22559,
    "Ġforeshadowing": 26592,
    "ultaneously": 4192,
    "barbs": 20236,
    "bbs": 23690,
    "Ġdomineer": 23593,
    "Ġvertebra": 20180,
    "Ġdistinguished": 8272,
    "Ġestablished": 9069,
    "usages": 22287,
    "Ġadventures": 7747,
    "Ġmeanness": 22597,
    "Ġenergy": 2552,
    "uber": 15445,
    "uteness": 17985,
    "hast": 5357,
    "Ġinev": 10181,
    "Ġexpectantly": 23524,
    "repaid": 24491,
    "iday": 8829,
    "gro": 10094,
    "Ġdrank": 16535,
    "Ġlip": 6532,
    "Ġsaint": 15507,
    "Ġattempts": 10490,
    "Ġsuccour": 20433,
    "Ġruffled": 25835,
    "Ġindepend": 3668,
    "Ġcomplaints": 12262,
    "Ġtorment": 8673,
    "aciously": 12905,
    "Ġimmensely": 13593,
    "Ġdin": 3626,
    "Ġsnarled": 25716,
    "screwed": 17187,
    "Ġgrunt": 18735,
    "repe": 8775,
    "Ġheedfulness": 24522,
    "Ġaimed": 20249,
    "Ġoccasions": 7987,
    "geneva": 13729,
    "watching": 16930,
    "Ġduncan": 13459,
    "ument": 5239,
    "twinkle": 23701,
    "Ġinfrequent": 3822,
    "boone": 23252,
    "Ġfrosts": 19801,
    "Ġhelping": 3266,
    "distrust": 19569,
    "bitt": 17485,
    "ichever": 13956,
    "square": 15059,
    "ķ": 248,
    "ilities": 6991,
    "Ġchuckled": 10647,
    "gloom": 17139,
    "rooms": 10432,
    "speak": 5504,
    "Ġrest": 1781,
    "deav": 2675,
    "instruct": 19541,
    "Ġfind": 1458,
    "Ġsufferable": 16257,
    "Ġfished": 21408,
    "Ġfortun": 4982,
    "australian": 20560,
    "Ġevangelical": 25506,
    "Ġprecious": 5760,
    "Ġlinguistic": 12423,
    "Ġpetrified": 19595,
    "Ġbecause": 2206,
    "publ": 17638,
    "Ġallured": 14112,
    "hemat": 3124,
    "Ġdisagree": 22529,
    "erately": 21272,
    "brance": 7284,
    "acled": 16081,
    "Ġphenomenon": 17914,
    "Ġrely": 8820,
    "Ġvesu": 21946,
    "monsters": 19170,
    "Ġterminating": 23508,
    "Ġfountains": 13501,
    "ort": 522,
    "land": 1533,
    "sorrow": 12506,
    "inea": 7622,
    "ersed": 10259,
    "follows": 24528,
    "Ġbus": 1904,
    "Ġnineveh": 13387,
    "Ġoptimizer": 5036,
    "sought": 15427,
    "Ġmaddening": 17243,
    "Ġspecific": 2003,
    "charge": 9447,
    "Ġsli": 4748,
    "winds": 10521,
    "Ġreaders": 18914,
    "Ġbudge": 15163,
    "Ġentry": 11026,
    "orses": 6051,
    "istry": 22106,
    "Ġtaught": 6803,
    "atlantic": 15523,
    "Ġbene": 2033,
    "suggested": 17298,
    "Ġrinal": 21977,
    "Ġstages": 14004,
    "ĠĠĠĠĠĠĠĠĠĠĠĠĠĠĠĠĠĠĠĠĠĠĠĠĠĠĠĠĠĠ": 24443,
    "Ġjago": 22296,
    "Ġdeadly": 5405,
    "Ġsigns": 2440,
    "gling": 10097,
    "Ġthimble": 15635,
    "fights": 20864,
    "Ġpeeping": 16126,
    "Ġmanaged": 7905,
    "doubtful": 24791,
    "Ġset": 1175,
    "Ġneatly": 17016,
    "Ġgovern": 10450,
    "Ġweak": 5098,
    "Ġflexible": 23773,
    "Ġlaid": 3940,
    "Ġnowhere": 12884,
    "Ġfishy": 16524,
    "Ġtwelfth": 22675,
    "Ġxviii": 23408,
    "Ġimpreg": 15987,
    "Ġrendering": 16657,
    "Ġchilian": 25563,
    "Å": 134,
    "earn": 10696,
    "li": 1187,
    "Ġpreferred": 14965,
    "mast": 3603,
    "Ġoffended": 7040,
    "Ġflapp": 23002,
    "plifted": 9709,
    "Ġgalvan": 21614,
    "Ġsuspicious": 9479,
    "Ġrecumbent": 22739,
    "Ġoccurs": 1858,
    "Ġemperors": 15158,
    "Ġinsert": 19904,
    "Ġbadge": 16683,
    "Ġpantry": 20294,
    "Ġcapacity": 10440,
    "hollow": 24037,
    "Ġdifficulty": 5770,
    "silenced": 24423,
    "entieth": 17978,
    "Ġvehement": 16201,
    "Ġacquiesced": 25493,
    "Ġsecurely": 16802,
    "Ġsolemnisation": 24114,
    "masters": 16834,
    "intention": 10367,
    "Ġtreatment": 12069,
    "ithmetic": 18061,
    "cask": 12444,
    "Ġrelations": 5852,
    "Ġgrunted": 16167,
    "ave": 979,
    "Ġgidd": 25783,
    "fulfilment": 26025,
    "Ġmanaging": 22323,
    "nered": 18490,
    "Ġclum": 8872,
    "key": 5463,
    "Ġhood": 10823,
    "gunw": 17220,
    "Ġott": 13865,
    "arising": 17895,
    "dar": 20823,
    "Ġinteresting": 4325,
    "Ġcaptioning": 23019,
    "fts": 18696,
    "Ġrattled": 15065,
    "Ġcurds": 23015,
    "sterdam": 19089,
    "Ĺ": 250,
    "Ġlibr": 15999,
    "distinguished": 10526,
    "Ġinconvenient": 20008,
    "Ġlets": 18063,
    "Ġdeduced": 12205,
    "proved": 11985,
    "Ġcatherine": 2812,
    "Ġprejudices": 13467,
    "Ġourselves": 5127,
    "Ġfoster": 18990,
    "Ġknee": 7093,
    "ac": 743,
    "Ġunsav": 18251,
    "rant": 11516,
    "narrowly": 20346,
    "Ġsuperl": 16446,
    "Ġmaintain": 857,
    "Ġhosea": 17330,
    "ple": 455,
    "Ġrequ": 828,
    "Ġsymb": 2591,
    "Ġwilson": 6629,
    "Ġscent": 10284,
    "Ġwherever": 8523,
    "Ġtennes": 23548,
    "Ġporch": 19679,
    "hastily": 19701,
    "Ġexplaining": 15959,
    "sho": 6425,
    "Ġproved": 4884,
    "scotland": 20526,
    "Ġblackness": 9392,
    "che": 3169,
    "Ġcondem": 6338,
    "ĠâĢľâĢĺ_": 25111,
    "Ġhindrance": 25220,
    "attempted": 20173,
    "Ġoverpowered": 15287,
    "vacancies": 25919,
    "Ġard": 5164,
    "admirably": 24944,
    "aker": 3663,
    "Ġbam": 15564,
    "ker": 5792,
    "Ġproud": 5654,
    "Ġdoubling": 23319,
    "Ġradiant": 16809,
    "Ġsuspend": 14608,
    "Ġspires": 11729,
    "Ġinfluence": 5515,
    "affectionate": 24921,
    "Ġimplements": 2484,
    "Ġfisher": 3220,
    "Ġjelly": 22297,
    "Ġemaciated": 20637,
    "Ġern": 8396,
    "Ġpalms": 8643,
    "Ġwitnessing": 19597,
    "Ġ58": 24326,
    "Ġgnashed": 20131,
    "pans": 13769,
    "Ġobliterated": 17404,
    "Ġphenomena": 21480,
    "Ġcontinu": 1164,
    "Ġyourself": 2593,
    "writes": 4988,
    "Ġcorpse": 6638,
    "Ġpalmy": 19497,
    "Ġshin": 18227,
    "isher": 2875,
    "Ġchristian": 6479,
    "Ġscandinav": 19959,
    "Ġgeomet": 3188,
    "beyond": 8882,
    "Ġadapts": 3814,
    "comprehend": 14359,
    "Ġvia": 2378,
    "Ġdespaired": 14668,
    "Ġspermaceti": 8967,
    "Ġsunlight": 13082,
    "yed": 3271,
    "Ġwrap": 24594,
    "wide": 10137,
    "Ġdisappeared": 5645,
    "till": 6965,
    "erred": 6376,
    "sus": 6228,
    "Ġinco": 14259,
    "Ġfund": 2841,
    "Ġanticipatingly": 26102,
    "ushes": 22288,
    "Ġshreds": 12768,
    "spoutings": 25001,
    "cocks": 23560,
    "Ġnoises": 18374,
    "Ġwrote": 5011,
    "pedest": 24695,
    "bott": 9105,
    "Ġbrand": 16185,
    "pest": 6964,
    "Ġshillings": 15834,
    "Ġvigilant": 20183,
    "geese": 22364,
    "Ġforgiven": 24024,
    "Ġcrane": 23438,
    "Ġfrenz": 25446,
    "admitted": 18091,
    "Ġbewil": 11656,
    "Ġet": 3580,
    "ĠĠĠĠ": 460,
    "Ġshowers": 16605,
    "Ġfootpaths": 26318,
    "Ġjav": 7901,
    "Ġrefuse": 5739,
    "Ġmercifully": 20177,
    "Ġincredible": 9514,
    "Ġdented": 17891,
    "Ġended": 7949,
    "Ġeccentric": 13647,
    "Ġchasing": 11752,
    "falling": 24361,
    "traces": 24315,
    "might": 4079,
    "python": 4691,
    "also": 7850,
    "Ġsqueezed": 20034,
    "ancy": 4392,
    "Ġliterally": 15115,
    "Ġslouched": 13055,
    "Ġcrisp": 12001,
    "dep": 6786,
    "Ġvide": 10250,
    "Ġfirmness": 11238,
    "yes": 985,
    "Ġsensible": 4976,
    "Ġfresher": 23209,
    "Ġtossed": 5815,
    "Ġevil": 3804,
    "Ġgenerous": 6273,
    "Ġauthority": 7748,
    "Ġpliny": 11823,
    "Ġproof": 6153,
    "use": 2535,
    "Ġdreadful": 4920,
    "business": 5610,
    "Ġprophes": 16348,
    "cele": 21622,
    "Ġdeposited": 25484,
    "[": 63,
    "bies": 15311,
    "windibank": 24161,
    "Ġpunch": 9954,
    "Ġblocks": 6321,
    "lp": 898,
    "Ġsermons": 20193,
    "ia": 1255,
    "Ġworldly": 16329,
    "con": 652,
    "coll": 23777,
    "oir": 21001,
    "Ġopposite": 5120,
    "Ġsinks": 19548,
    "hammock": 16353,
    "contented": 14634,
    "Ġjewell": 19519,
    "Ġquaker": 10971,
    "Ġmoved": 4839,
    "Ġcultivated": 17363,
    "Ġnatural": 1112,
    "Ġcomfits": 21849,
    "ckled": 9256,
    "Ġpictured": 16622,
    "dw": 3333,
    "Ġerection": 23998,
    "Ġdanish": 21429,
    "Ġswerve": 14436,
    "Ġprocure": 9509,
    "Ġvectors": 1771,
    "Ġdeportment": 22594,
    "Ġinterlude": 16069,
    "Ġmiz": 10777,
    "Ġfusion": 21412,
    "gracious": 11829,
    "Ġpipes": 9848,
    "Ġshops": 21998,
    "henomen": 10494,
    "Ġqual": 6274,
    "Ġflame": 7448,
    "protected": 19920,
    "innocence": 15182,
    "Ġmean": 744,
    "m": 81,
    "Ġpatagonia": 25857,
    "oftener": 23962,
    "ario": 14247,
    "Ġwrench": 12554,
    "someone": 14563,
    "Ġaffairs": 6877,
    "Ġchose": 7413,
    "gra": 769,
    "lay": 5890,
    "direful": 25896,
    "Ġostr": 21323,
    "Ġhers": 7888,
    "izon": 18141,
    "Ġdelusion": 18973,
    "barbar": 20237,
    "Ġamiss": 18512,
    "Ġbehave": 23297,
    "Ġprincely": 24148,
    "yth": 981,
    "caroline": 24149,
    "Ġsupervised": 3426,
    "Ġvisiting": 10359,
    "Ġaims": 15496,
    "Ġostens": 25275,
    "Ġindirectly": 8939,
    "Ġflows": 13006,
    "verd": 21724,
    "Ġvolumes": 14799,
    "Ġreduced": 11922,
    "Ġaslant": 21898,
    "Ġcables": 15556,
    "Ġperennial": 22691,
    "ard": 465,
    "Ġhousemaid": 14463,
    "delay": 16698,
    "Ġnovelist": 24777,
    "remember": 7262,
    "tone": 8762,
    "Ġhinting": 19648,
    "Ġadditionally": 1174,
    "ists": 4002,
    "sit": 13779,
    "finding": 17013,
    "fortunes": 6332,
    "plicable": 10255,
    "prosper": 19100,
    "suitableness": 26260,
    "truth": 9918,
    "assured": 10952,
    "whis": 7897,
    "Ġlottery": 19887,
    "Ġfootmarks": 19336,
    "Ġeag": 2965,
    "Ġfireplace": 13143,
    "add": 5229,
    "entropy": 1439,
    "chess": 16573,
    "iew": 2445,
    "Ġundet": 16704,
    "likewise": 13103,
    "Ġmoist": 9284,
    "Ġimpatiently": 8337,
    "tranquillity": 20545,
    "Ġsleeves": 10660,
    "not": 907,
    "bouton": 17501,
    "Ġwrecked": 9965,
    "Ġpassing": 4315,
    "Ġamours": 22478,
    "childhood": 16868,
    "during": 6787,
    "Ġblocked": 19221,
    "Ġshaggy": 13568,
    "Ġbrigandish": 25487,
    "irr": 12735,
    "ull": 1433,
    "Ġenlarged": 25985,
    "outon": 12801,
    "Ġtre": 2536,
    "Ġcolossal": 11459,
    "presented": 12988,
    "Ġbrowne": 13299,
    "Ġanxiously": 8289,
    "Ġhorizont": 6937,
    "terbury": 21821,
    "Ġdangling": 17174,
    "breckinridge": 24074,
    "iom": 20914,
    "Ġempire": 11145,
    "Ġcomprehensiveness": 25072,
    "brary": 5755,
    "Ġencircling": 26271,
    "cils": 20813,
    "ierce": 14390,
    "Ġobed": 8535,
    "Ġapplies": 11953,
    "ullied": 23103,
    "ice": 585,
    "Ġcompanion": 3644,
    "Ġbroiled": 18908,
    "nikin": 23242,
    "Ġe": 311,
    "Ġcrockery": 24301,
    "Ġsubtle": 6716,
    "Ġunrelieved": 20544,
    "Ġbreast": 8968,
    "Ġapprised": 18361,
    "Ġadorned": 15246,
    "Ġcad": 12565,
    "Ġtrunks": 15963,
    "Ġoakum": 16934,
    "Ġshining": 8171,
    "Ġsc": 531,
    "Ġthick": 3781,
    "Ġvers": 7563,
    "Ġcarelessly": 11120,
    "Ġdevice": 1928,
    "ior": 2040,
    "Ġfor": 340,
    "Ġcalculate": 13262,
    "Ġgracious": 8846,
    "impenetrable": 26196,
    "Ġweld": 8111,
    "cked": 2763,
    "Ġscoresby": 10462,
    "Ġeastward": 13388,
    "Ġstudies": 7955,
    "Ġ111": 24436,
    "itous": 13866,
    "else": 6533,
    "swimming": 24258,
    "Ġknives": 14836,
    "Ġaccuse": 14211,
    "Ġconverted": 16110,
    "Ġregulations": 18599,
    "Ġlurk": 13381,
    "clad": 14458,
    "Ġlap": 8436,
    "Ġcalls": 6744,
    "Ġfamiliar": 5511,
    "ij": 7801,
    "Ġstove": 6733,
    "ately": 1701,
    "Ġdisapprobation": 16056,
    "Ġsocieties": 20181,
    "awk": 23112,
    "Ġdistrustful": 25054,
    "ato": 17769,
    "pine": 13768,
    "horrors": 20540,
    "Ġgrego": 18961,
    "Ġadventurous": 16733,
    "Ġlazarus": 15028,
    "Ġalterations": 19870,
    ")": 13,
    "Ġzodiac": 16174,
    "Ġhymn": 24518,
    "Ġdistantly": 18534,
    "Ġstream": 5186,
    "ows": 1916,
    "Ġprinces": 23220,
    "Ġtragic": 15254,
    "Ġbrick": 8925,
    "Ġbloody": 9887,
    "Ġstudied": 11117,
    "Ġ44": 16679,
    "geons": 15978,
    "trees": 10731,
    "Ġpenal": 1773,
    "Ġflirting": 16248,
    "Ġbranded": 14378,
    "north": 14615,
    "confirmation": 26089,
    "Ġfairness": 9892,
    "Ġtreacle": 14595,
    "Ġabide": 14187,
    "Ġresided": 11809,
    "Ġexcited": 5580,
    "shock": 19854,
    "Ġencl": 16164,
    "Ġbarbar": 6935,
    "Ġfurrow": 22810,
    "Ġsub": 951,
    "Ġclassify": 1526,
    "Ġeh": 6987,
    "Ġnecessitated": 23925,
    "Ġcowards": 12571,
    "Ġcomparing": 14264,
    "Ġfurs": 18738,
    "eties": 10837,
    "Ġcomprehen": 5349,
    "Ġrifle": 18212,
    "colonel": 8284,
    "Ġdespise": 14665,
    "blister": 24128,
    "awing": 18915,
    "lovely": 16045,
    "descending": 16283,
    "Ġredeem": 20498,
    "Ġconvolutional": 2160,
    "ces": 579,
    "ord": 666,
    "can": 1232,
    "dy": 3859,
    "soft": 12507,
    "them": 3017,
    "Ġexclamations": 11361,
    "Ġflank": 8227,
    "Ġtriangular": 14858,
    "possible": 5743,
    "Ġguardianship": 17419,
    "Ġlaunched": 14925,
    "keep": 3848,
    "Ġterritories": 23843,
    "Ġcontroverted": 23250,
    "Ġcher": 6129,
    "ware": 3933,
    "Ġbubb": 12582,
    "Ġautumn": 14505,
    "ezes": 9990,
    "Ġwishes": 4795,
    "Ġgranting": 18736,
    "point": 6062,
    "dressed": 10695,
    "Ġshaping": 22000,
    "Ġunfair": 19506,
    "Ġscal": 1609,
    "tured": 13794,
    "Ġblunder": 18818,
    "Ġskirt": 18728,
    "Ġlash": 8438,
    "Ġ275": 20109,
    "interested": 9505,
    "Ġreconciliation": 25292,
    "Ġsoftmax": 1690,
    "press": 1732,
    "Ġpia": 21461,
    "Ġunlocked": 14119,
    "Ġwit": 3839,
    "alarmed": 21500,
    "gladness": 25194,
    "rodden": 21532,
    "Ġdownwards": 8529,
    "acle": 4715,
    "pence": 15409,
    "Ġhighland": 18712,
    "acter": 2505,
    "Ġcorresponds": 19820,
    "Ġcreations": 18682,
    "Ġabstract": 17181,
    "Ġshortly": 6196,
    "ead": 2599,
    "Ġful": 4297,
    "Ġcubs": 20085,
    "aut": 1912,
    "albatross": 15628,
    "Ġthanks": 6707,
    "Ġpredomin": 16040,
    "Ġmysteries": 11322,
    "prof": 7698,
    "Ġright": 1505,
    "Ġapprehensiveness": 16877,
    "Ġtransformations": 3484,
    "Ġhousekeeping": 18943,
    "Ġemotions": 8969,
    "Ġfaithfully": 14886,
    "Ġhighly": 4844,
    "Ġ55": 24323,
    "Ġrocking": 10969,
    "warrant": 21136,
    "Ġl": 303,
    "Ġadmiration": 5328,
    "Ġhostile": 19938,
    "Ġcommunic": 5751,
    "Ġextras": 22724,
    "Ġturner": 7049,
    "Ġseparation": 11248,
    "Ġuncivil": 11155,
    "Ġyoked": 15736,
    "picture": 11407,
    "abetical": 15741,
    "supposing": 24135,
    "Ġengineer": 11973,
    "consequence": 9762,
    "ume": 4835,
    "attering": 7418,
    "Ġphr": 2683,
    "Ġrover": 18454,
    "Ġadie": 8488,
    "Ġfootsteps": 16572,
    "Ġtrump": 8194,
    "Ġalgorithm": 763,
    "Ġindividual": 5744,
    "Ġaccumulates": 2888,
    "ague": 3905,
    "Ġsignification": 19201,
    "Ġobjectionable": 16991,
    "Ġconvenient": 8345,
    "gust": 6360,
    "Ġrolls": 8333,
    "Ġhogshe": 20490,
    "Ġvouch": 15808,
    "Ġprosecuted": 25293,
    "Ġpart": 861,
    "Ġtwit": 12927,
    "Ġdictating": 20151,
    "suitable": 18632,
    "chants": 21689,
    "tete": 10732,
    "Ġunholy": 26218,
    "Ġdeposed": 16079,
    "et": 307,
    "Ġyet": 1029,
    "Ġpot": 2987,
    "omnipotent": 25964,
    "Ġacting": 10991,
    "Ġpremium": 23902,
    "calmly": 20138,
    "Ġdisk": 22519,
    "mor": 4213,
    "favouring": 24762,
    "calculation": 25688,
    "Ý": 158,
    "ost": 5360,
    "Ġslily": 23161,
    "Ġoarsmen": 7737,
    "phenomenon": 17648,
    "Ġharp": 17923,
    "Ġperplexity": 2755,
    "decl": 8856,
    "Ġpreliminary": 10056,
    "Ö": 151,
    "Ġgodlike": 23355,
    "Ġdestro": 3721,
    "with": 1298,
    "ater": 3369,
    "Ġpresumed": 10544,
    "Ġarist": 14159,
    "abominable": 20592,
    "Ġundersampling": 19517,
    "angel": 5726,
    "bil": 20770,
    "tan": 4742,
    "principal": 20659,
    "grieved": 17316,
    "icle": 10834,
    "ridge": 9496,
    "Ġfruits": 17118,
    "Ġlingered": 13503,
    "allions": 22195,
    "Ġbox": 5109,
    "Ġhandled": 12935,
    "imod": 15708,
    "undant": 14791,
    "Ġunallied": 22029,
    "Ġpathways": 11153,
    "cannot": 5745,
    "Ġstreatham": 17448,
    "Ġtwitch": 22673,
    "Ġmotions": 8280,
    "caps": 20806,
    "Ġgrecian": 26296,
    "Q": 53,
    "conviction": 19963,
    "varied": 23181,
    "Ġdenominated": 15227,
    "hundred": 8330,
    "owders": 18047,
    "eting": 7169,
    "Ġhappy": 2465,
    "Ġappeased": 23194,
    "Ġthereby": 7643,
    "Ġreceiving": 4882,
    "doc": 23374,
    "ù": 186,
    "illar": 5101,
    "superiority": 20184,
    "Ġincommunicable": 26611,
    "Ġquies": 18464,
    "famous": 16916,
    "Ġdep": 740,
    "Ġcretan": 22721,
    "Ġcircumst": 2972,
    "Ġunfolded": 10638,
    "Ġskewer": 19619,
    "scor": 13012,
    "Ġgazette": 19499,
    "Ġdrifted": 14625,
    "Ġegg": 8818,
    "Ġappet": 9730,
    "pidation": 18896,
    "Ġhalls": 19524,
    "Ġceased": 6468,
    "abst": 21785,
    "harm": 13734,
    "Ġdozen": 8185,
    "Ġwindings": 18909,
    "Ġcomplimented": 14903,
    "Ġtusked": 25426,
    "none": 6962,
    "Ġul": 6828,
    "Ġsteadfast": 8678,
    "Ġhesitate": 16946,
    "Ġabout": 633,
    "Ġtravels": 11925,
    "faint": 17545,
    "Ġtiles": 17726,
    "Ġglistening": 12363,
    "Ġgn": 8817,
    "Ġunfrequent": 24110,
    "Ġtreachery": 15100,
    "id": 338,
    "pier": 17635,
    "Ġreceipt": 20354,
    "ath": 863,
    "Ġviolation": 23404,
    "ela": 21566,
    "itory": 12564,
    "Ġhay": 11604,
    "sory": 17659,
    "ront": 15418,
    "Ġirritated": 17242,
    "Ġagent": 6277,
    "ascribed": 24708,
    "Ġintegration": 9867,
    "Ġbrightest": 13222,
    "lifted": 15385,
    "Ġ89": 19711,
    "Ġmutual": 8295,
    "boots": 11126,
    "orters": 21399,
    "acc": 2533,
    "evil": 11485,
    "uger": 21102,
    "all": 485,
    "Ġmoderately": 22213,
    "bound": 6220,
    "transom": 19734,
    "ek": 1907,
    "Ġbeth": 9657,
    "Ġglancing": 5399,
    "Ġsounding": 8264,
    "ĝ": 222,
    "Ġlace": 13948,
    "ignity": 4373,
    "Ġgrasshopper": 24380,
    "marked": 9048,
    "leag": 21364,
    "Ġremembered": 5276,
    "Ġtou": 15466,
    "Ġcircumstances": 3924,
    "Ġsilently": 6895,
    "Ġabused": 22266,
    "trap": 24313,
    "dler": 13705,
    "bow": 5424,
    "ateral": 19375,
    "Ġbarrels": 9435,
    "Ġmy": 411,
    "mindful": 19598,
    "Ġadmitting": 19182,
    "Ġregression": 4408,
    "wester": 21137,
    "cloth": 11935,
    "Ġnut": 12644,
    "Ġattendance": 12179,
    "Ġhatchways": 24987,
    "ancing": 1758,
    "Ġinstances": 5568,
    "procure": 23395,
    "simple": 13450,
    "Ġcompre": 4447,
    "effort": 19212,
    "Ġswelling": 11923,
    "ē": 212,
    "Ġdebar": 24271,
    "vac": 15450,
    "Ġmislead": 22756,
    "Ġsh": 419,
    "!âĢĿ": 847,
    "Ġquantity": 6948,
    "baggage": 24926,
    "Ġreiter": 21663,
    "sings": 4251,
    "john": 11497,
    "Ġcontinual": 6777,
    "Ġfearful": 6197,
    "Ġagency": 11804,
    "Ġsandwiched": 26610,
    "Ġunrestrained": 25554,
    "tahit": 17692,
    "asters": 8433,
    "compar": 14358,
    "Ġpowers": 5419,
    "poor": 6060,
    "shooting": 16965,
    "ite": 713,
    "Ġpriority": 19761,
    "Ġajar": 21201,
    "ustry": 18357,
    "Ġsensibility": 14514,
    "jets": 20927,
    ";âĢĶ": 3748,
    "Ġscarlet": 13220,
    "Ġmainmast": 9778,
    "hro": 20890,
    "Ġsinister": 8568,
    "Ġrooms": 5180,
    "Ġdaily": 5986,
    "total": 17250,
    "Ġhaunted": 10253,
    "Ġinvari": 6529,
    "Ġentropy": 2032,
    "header": 11931,
    "herself": 4890,
    "Ġmechanism": 2292,
    "Ġgirdled": 19157,
    "swam": 24254,
    "being": 3912,
    "Ġthou": 1810,
    "Ġunworthy": 11713,
    "pping": 1426,
    "mechanically": 17299,
    "roar": 17952,
    "Ġtwinkled": 14311,
    "Ġsenior": 17171,
    "Ġannealing": 1558,
    "Ġsouthampton": 24307,
    "Ġworked": 6583,
    "esu": 17918,
    "istence": 2580,
    "Ġmarine": 23029,
    "Ġimmemorial": 10510,
    "transferred": 24514,
    "omics": 21640,
    "Ġgra": 415,
    "Ġkeeps": 8266,
    "gia": 20875,
    "harmony": 25750,
    "sand": 21051,
    "Ġicy": 10747,
    "Ġencoding": 4774,
    "fooled": 24419,
    "Ġoldest": 12970,
    "Ġugliness": 20425,
    "glass": 9908,
    "ean": 20839,
    "ufactured": 15180,
    "queequeg": 4334,
    "Ġblending": 14399,
    "Ġseaport": 20598,
    "xes": 21139,
    "illustration": 2279,
    "Ġbenches": 18780,
    "jer": 12478,
    "Ġroad": 3880,
    "ui": 9144,
    "Ġbee": 21746,
    "operations": 19973,
    "Ġwails": 21295,
    "Ġstriking": 6088,
    "Ġalone": 2567,
    "Ġpockets": 8895,
    "Ġcruelly": 13373,
    "nal": 1902,
    "Ġharbors": 24901,
    "advance": 12154,
    "Ġsoul": 2726,
    "Ġpays": 13294,
    "iracle": 11244,
    "Ġgleams": 17309,
    "accuracy": 9878,
    "lead": 10165,
    "Ġbusiness": 2227,
    "Ġcurv": 3510,
    "Ġterra": 13114,
    "Ġvivid": 8057,
    "amongst": 24672,
    "Ġswims": 12117,
    "towing": 17689,
    "Ġindirect": 18835,
    "Ġaccording": 5508,
    "Ġpondering": 17005,
    "_,": 2799,
    "Ġjob": 7015,
    "Ġerad": 25028,
    "Ġcrumbs": 20639,
    "slouched": 24557,
    "prudently": 21033,
    "turner": 19540,
    "Ġraised": 4660,
    "Ġmizen": 17258,
    "Ġcuriosities": 26289,
    "Ġrequisite": 18649,
    "Ġbroods": 23101,
    "Ġcedar": 15187,
    "Ġintroduce": 3202,
    "Ġxxi": 24476,
    "Ġaccumul": 1411,
    "resol": 17760,
    "Ġbordering": 17228,
    "Ġdolph": 12378,
    "ureau": 10226,
    "ercial": 21273,
    "search": 8464,
    "Ġpreluding": 18368,
    "fly": 13713,
    "Ġwithhold": 18115,
    "scorn": 22981,
    "Ġleech": 24155,
    "Ġpigs": 19746,
    "bale": 20773,
    "remained": 8569,
    "Ġshocking": 10435,
    "Ġopening": 5045,
    "Ġpenetrating": 17011,
    "degree": 12799,
    "hearts": 13342,
    "Ġrejoinder": 24597,
    "Ġnods": 19062,
    "Ġimbib": 22172,
    "division": 20047,
    "aspect": 10193,
    "lets": 7836,
    "Ġacts": 2290,
    "Ġtag": 15468,
    "Ġberkshire": 16884,
    "Ġjoppa": 12034,
    "Ġirresolute": 24916,
    "Ġvines": 12749,
    "Ġinserting": 19905,
    "dorff": 15236,
    "Ġgloomy": 7504,
    "warmth": 20051,
    "rough": 588,
    "Ġemployer": 19430,
    "Ġcalm": 3447,
    "lue": 8508,
    "ultural": 22565,
    "))": 1516,
    "Ġrum": 5923,
    "viii": 12019,
    "Ġconciliating": 19049,
    "hunsford": 24386,
    "Ġtilted": 20411,
    "stretch": 13980,
    "appearance": 5333,
    "sadly": 25526,
    "Ġresisted": 22538,
    "Ġafghan": 22627,
    "omination": 21639,
    "Ġgold": 3277,
    "Ġtranquillize": 24757,
    "detective": 24383,
    "Ġcontemptible": 16953,
    "Ġniece": 5712,
    "distant": 13332,
    "Ġdesist": 16235,
    "F": 42,
    "Ġalluded": 7884,
    "oology": 21005,
    "minute": 11274,
    "laden": 14928,
    "derer": 4599,
    "itely": 5365,
    "Ġrisks": 9963,
    "iable": 3334,
    "Ġdair": 17889,
    "rubbed": 22177,
    "Ġrejoiced": 8683,
    "ipt": 12476,
    "heric": 15910,
    "Ġtropic": 17064,
    "Ġbrides": 22860,
    "Ġnets": 21521,
    "69": 17474,
    "dropped": 12260,
    "Ġunlock": 18243,
    "interest": 5421,
    "Ġbulge": 23855,
    "atra": 17771,
    "Ġlik": 2521,
    "Ġrhine": 12354,
    "_.âĢĻâĢĿ": 17479,
    "Ġretirement": 25378,
    "Ġcode": 1721,
    "Ġsad": 3866,
    "Ġsaved": 6690,
    "Ġblade": 11891,
    "Ġrode": 15996,
    "crane": 24099,
    "È": 137,
    "public": 17646,
    "Ġpatiently": 19917,
    "deserted": 18958,
    "Ġadmits": 23553,
    "went": 6512,
    "Ġfoliage": 18866,
    "Ġlondon": 2837,
    "Ġdaboll": 25950,
    "reeling": 21243,
    "Ġaccomplishment": 19664,
    "Ġapproving": 18509,
    "pretend": 24882,
    ".;": 20743,
    "Ġcoco": 11000,
    "Ġsubmission": 22787,
    "Ġcripp": 9653,
    "Ġappro": 659,
    "virt": 15451,
    "happen": 19330,
    "Ġlees": 18062,
    "Ġprecision": 13187,
    "Ġdispute": 16054,
    "peril": 18343,
    "Ġacid": 22679,
    "Ġorigin": 4121,
    "Ġsearch": 2590,
    "igin": 3656,
    "ys": 3960,
    "Ġjump": 4502,
    "Ġinvestigations": 17246,
    "Ġfashionable": 19543,
    "mysteries": 26050,
    "Ġsque": 18755,
    "Ġhercules": 14127,
    "Ġdeemed": 7613,
    "Ġnewfound": 22929,
    "enstein": 5799,
    "otently": 21797,
    "Ġencamp": 22797,
    "Ġinstant": 2705,
    "Ġdiscove": 16154,
    "fair": 10092,
    "linearity": 1651,
    "Ġbeaten": 10528,
    "barb": 10080,
    "Ġmouldings": 24737,
    "chers": 11317,
    "Ġceleb": 20224,
    "discharging": 26305,
    "brother": 7091,
    "Ġscrutiny": 26015,
    "Ġload": 14145,
    "Ġmaterial": 5178,
    "Ġhey": 11640,
    "Ġjurymen": 16847,
    "Ġforcing": 3222,
    "smitten": 23906,
    "Ġwriggling": 15256,
    "í": 174,
    "Ġporpoise": 7106,
    "gratification": 24348,
    "Ġcontrolled": 23249,
    "Ġpreserve": 7529,
    "Ġengage": 9334,
    "Ġsteersman": 13037,
    "houses": 9599,
    "painter": 24896,
    "centre": 17087,
    "Ġeast": 5370,
    "pump": 21016,
    "scratch": 26042,
    "Ġconfirming": 25321,
    "avating": 18606,
    "Ġbalancing": 2427,
    "Ġsorely": 17256,
    "Ġt": 261,
    "Ġplucked": 15112,
    "fun": 3860,
    "Ġrising": 4355,
    "performed": 18345,
    "Ġaxis": 12305,
    "horses": 17567,
    "Ġinterior": 8894,
    "Ġrecalled": 8537,
    "asant": 17958,
    "commanded": 16988,
    "Ġderanged": 23171,
    "Ġbased": 3339,
    "Ġmenaced": 16292,
    "aset": 10832,
    "yourself": 6742,
    "Ġpiercing": 13492,
    "gree": 10701,
    "Ġ0": 1903,
    "Ġtransc": 12861,
    "sweep": 24617,
    "here": 2549,
    "Ġcrying": 10786,
    "Ġtakings": 20571,
    "Ġspasmodically": 17313,
    "Ġstranded": 9774,
    "apothe": 22332,
    "Ġbohemia": 10649,
    "Ġmanufactured": 22328,
    "Ġmaiden": 13384,
    "Ġtowers": 16738,
    "Ġtinged": 20081,
    "Ġincomp": 12895,
    "Ġcred": 8780,
    "flame": 16637,
    "Ġsea": 1206,
    "irty": 4050,
    "alogue": 25159,
    "Ġinconven": 7586,
    "alcul": 15626,
    "widely": 25343,
    "profitable": 17071,
    "arches": 10816,
    "Ġ107": 24415,
    "Ġmovable": 22430,
    "mental": 16059,
    "ific": 492,
    "Ġmightiest": 12957,
    "Ġundulates": 24119,
    "Ġadver": 5641,
    "Ġenveloping": 19733,
    "Ġawait": 17073,
    "Ġtenderness": 12213,
    "Ġlamps": 14790,
    "Ġonce": 1492,
    "Ġsuccess": 3611,
    "ellect": 7381,
    "inclined": 10639,
    "Ġgaping": 13968,
    "dimensional": 2344,
    "Ġreflecting": 24751,
    "ucumber": 19058,
    "rub": 15892,
    "Ġcolony": 18766,
    "named": 9898,
    "Ġsuspicions": 9478,
    "Ġslight": 3114,
    "Ġdemonstrate": 24994,
    "Ġput": 1798,
    "blown": 25201,
    "Ġincant": 18568,
    "din": 8373,
    "Ġpresuming": 16793,
    "Ġslewed": 23383,
    "rosings": 15642,
    "strade": 5065,
    "Ġtur": 2565,
    "Ġsalmon": 24058,
    "Ġkicks": 19767,
    "dreams": 12335,
    "nels": 12493,
    "ire": 497,
    "Ġanecd": 20153,
    "Ġattack": 5478,
    "Ġaddressed": 5262,
    "Ġmrs": 1467,
    "Ġmythologies": 26213,
    "Ġdistrusting": 25053,
    "Ġfabric": 25947,
    "aze": 10074,
    "Ġpuffing": 12252,
    "agers": 5633,
    "Ġunperceived": 22034,
    "skylight": 25623,
    "Ġexcell": 10417,
    "Ġeagerly": 4990,
    "strate": 12672,
    "Ġsaxe": 13626,
    "iod": 3837,
    "Ġvancouver": 26565,
    "Ġcastaways": 19426,
    "Ġbanquet": 15239,
    "Ġex": 362,
    "Ġabject": 18391,
    "Ġomens": 21326,
    "Ġfolded": 7767,
    "Ġsangu": 15504,
    "Ġshriek": 6637,
    "Ġafter": 871,
    "Ġhunch": 18934,
    "Ġderbyshire": 6586,
    "Ġshud": 5461,
    "Ġworlds": 11945,
    "Ġassumpt": 5415,
    "Ġrestored": 7066,
    "Ġsparks": 22130,
    "Ġintermediate": 18588,
    "Ġjunior": 15098,
    "Ġvideos": 13604,
    "Ġbacked": 12924,
    "Ġcoolness": 16886,
    "Ġtwitching": 25683,
    "Ġjuncture": 17129,
    "Ġamusing": 11798,
    "Ġfinish": 7948,
    "hound": 20894,
    "Ġautomation": 13232,
    "Ġsepulch": 15283,
    "Ġappertain": 22216,
    "loo": 10318,
    "anth": 13886,
    "showed": 16026,
    "Ġtransparent": 9488,
    "Ġengraving": 17080,
    "Ġheeds": 24520,
    "ades": 5631,
    "Ġhovering": 10178,
    "Ġcomfortably": 16615,
    "lips": 13749,
    "Ġvainly": 9923,
    "Ġtap": 12523,
    "remain": 9837,
    "unwillingness": 25802,
    "Ġbark": 10798,
    "Ġreadiness": 13046,
    "Ġpurring": 23474,
    "Ġplainpal": 19276,
    "Ġlane": 5627,
    "urpr": 2283,
    "Ġsculpture": 26016,
    "Ġbehaviors": 13252,
    "Ġp": 288,
    "Ġranges": 2881,
    "Ġest": 2262,
    "Ġunprotected": 22064,
    "Ġnewcomer": 26040,
    "Ġstatistical": 11104,
    "Ġbund": 17863,
    "Ġagricultural": 26550,
    "Ġvener": 8163,
    "attacked": 23120,
    "Ġdiminished": 16665,
    "Ġamazement": 7764,
    "Ġfurnace": 19438,
    "Ġ74": 24261,
    "Ġshrieks": 12197,
    "Ġrates": 1403,
    "Ġunforgiving": 25995,
    "Ġlima": 10442,
    "Ġrecourse": 22738,
    "Ġcir": 21339,
    "Ġtid": 8106,
    "Ġ72": 19610,
    "violets": 23542,
    "atig": 13844,
    "Ġspoiled": 11363,
    "Ġpositively": 13026,
    "occasion": 7753,
    "ssian": 3399,
    "Ġdint": 15589,
    "rol": 5713,
    "dil": 11478,
    "generosity": 23784,
    "Ġsubsisting": 23433,
    "disposed": 25010,
    "Ġspiced": 22131,
    "Ġcomprising": 16067,
    "Ġminutes": 2999,
    "Ġsynd": 22203,
    "mm": 674,
    "Ġfright": 3795,
    "Ġdiddled": 22664,
    "Ġamazed": 14888,
    "abri": 6682,
    "Ġextinguished": 10338,
    "Ġpretty": 3858,
    "hereabouts": 23608,
    "withstand": 23023,
    "Ġcling": 11769,
    "Ġbildad": 3780,
    "air": 1002,
    "garious": 17558,
    "Ġleathern": 15049,
    "Ġapprehensions": 13402,
    "Ġprynne": 25540,
    "Ġaft": 5737,
    "Ġturnpike": 23025,
    "ments": 1399,
    "very": 501,
    "Ġspouting": 9438,
    "Ġspecks": 14303,
    "Ġregion": 2268,
    "Ġquadrille": 13539,
    "Ġarrival": 4730,
    "eff": 2534,
    "odecimo": 11444,
    "Ġimmortality": 26325,
    "Ð": 145,
    "Ġconstitution": 20107,
    "Ġcharger": 19005,
    "niest": 18992,
    "ah": 1834,
    "Ġsaf": 4003,
    "cur": 3269,
    "itled": 7577,
    "cary": 10689,
    "ructure": 761,
    "Ġspars": 3808,
    "Ġseldom": 4629,
    "enjoy": 10774,
    "Ġinquisitive": 26317,
    "Ġunparalleled": 15852,
    "Ġamphitheat": 26252,
    "permission": 15902,
    "Ġobscure": 9553,
    "Ġconvenience": 11331,
    "Ġspr": 4026,
    "enses": 10994,
    "Ġsnugness": 20075,
    "bers": 2570,
    "bag": 7542,
    "lessness": 5317,
    "Ġencouragement": 13038,
    "backward": 2685,
    "Ġunfulfilled": 26509,
    "Ġpenet": 6888,
    "Ġmonday": 6127,
    "Ġnap": 8808,
    "Ġaw": 2509,
    "Ġteacup": 16212,
    "quimaux": 21856,
    "Ġbureau": 11589,
    "Ġchapter": 2954,
    "Ġrecol": 4030,
    "poling": 12217,
    "mild": 15390,
    "Ġcowardice": 17032,
    "vib": 21114,
    "ralian": 19599,
    "Ġsunny": 13083,
    "avish": 22595,
    "reach": 17757,
    "inion": 2873,
    "Ġirksome": 13109,
    "Ġturbul": 23614,
    "Ġlower": 2663,
    "ineering": 21964,
    "Ġfifteen": 6947,
    "Ġem": 1923,
    "Ġmaking": 1779,
    "pre": 650,
    "Ġboscombe": 8325,
    "wondrous": 12336,
    "Ġnom": 21516,
    "Ġskiff": 16162,
    "aisance": 15073,
    "perseus": 26005,
    "Ġinconstant": 21493,
    "ook": 21003,
    "ote": 4595,
    "Ġsignificantly": 4517,
    "Ġlagged": 21555,
    "cellar": 20276,
    "or": 282,
    "umbled": 8492,
    "Ġapproached": 5843,
    "Ġshutters": 9936,
    "Ġsymbols": 2796,
    "rised": 10123,
    "turbable": 24531,
    "Ġclasp": 9743,
    "dependence": 17167,
    "Ġsprang": 5064,
    "ulnerable": 18150,
    "Ġimpenit": 22388,
    "Ġtravelled": 7771,
    "Ġdefer": 18822,
    "didst": 19347,
    "Ġdistribution": 2019,
    "Ġcentrally": 23829,
    "Ġhadn": 9718,
    "oqu": 7555,
    "Ġklux": 22192,
    "Ġvintage": 26209,
    "inted": 2649,
    "sleet": 20148,
    "Ġislets": 21798,
    "Ġlestrade": 5824,
    "Ġo": 275,
    "conda": 18993,
    "Ġfeels": 6882,
    "Ġcomplete": 4381,
    "Ġmurky": 19200,
    "Ġfifty": 4622,
    "Ġexeget": 24085,
    "Ġappeal": 16314,
    "Ġenjoined": 18191,
    "Ġinitial": 822,
    "Ġsmitten": 12897,
    "Ġincumbent": 16061,
    "Ġbreathed": 11220,
    "Ġlatin": 16821,
    "Ġbelrive": 18830,
    "kers": 7132,
    "Ġgemin": 21607,
    "Ġcandelabra": 26602,
    "Ġsnatches": 16543,
    "Ġdominant": 12394,
    "felicity": 25140,
    "unfortunate": 15775,
    "cavity": 26126,
    "getting": 12964,
    "Ġshyness": 20305,
    "ą": 198,
    "Ġbegin": 3094,
    "smiles": 14692,
    "Ġblaze": 16219,
    "Ġrelated": 3714,
    "Ġtarquin": 23612,
    "Ġsystematically": 3879,
    "whispering": 26103,
    "Ġintrodu": 1924,
    "relu": 17759,
    "Ġirregularly": 25323,
    "Ġreason": 1359,
    "Ġparade": 18301,
    "Ġrumpled": 24600,
    "Ġwasted": 9703,
    "unable": 14058,
    "Ġstrict": 7222,
    "Ġphysiognomically": 25612,
    "Ġleaking": 21727,
    "sick": 13783,
    "blows": 17165,
    "Ġgets": 10839,
    "ank": 1366,
    "young": 7321,
    "Ġmayhap": 18709,
    "striking": 13438,
    "Ġmarlings": 23032,
    "pshire": 21023,
    "Ġenables": 726,
    "Ġking": 2302,
    "rative": 17652,
    "Ġattentions": 5877,
    "Ġvesuvius": 26501,
    "expose": 23663,
    "Ġfury": 7660,
    "Ġprophe": 13076,
    "inions": 8401,
    "Ġhut": 15617,
    "collect": 16563,
    "Ġindividually": 22954,
    "inuating": 16202,
    "Ġcolonnades": 26275,
    "easily": 17534,
    "Ġ*": 1270,
    "ifix": 21900,
    "Ġstamping": 20029,
    "charlotte": 6473,
    "Ġsounds": 5190,
    "crime": 14782,
    "raise": 18011,
    "ored": 3894,
    "merely": 16133,
    "gin": 4930,
    "tried": 13793,
    "idious": 11661,
    "cular": 15327,
    "kind": 3862,
    "bpp": 20771,
    "Ġbowing": 10475,
    "Ġfather": 1451,
    "vol": 731,
    "Ġsettlement": 19835,
    "Ġcomparison": 7099,
    "Â·": 21148,
    "Ġcreaking": 14327,
    "Ġgreenland": 5761,
    "Ġscepticism": 25927,
    "ologies": 18763,
    "Ġsecluded": 11991,
    "ommod": 13976,
    "Ġnewsp": 9338,
    "Ġverdict": 13473,
    "enchant": 21282,
    "Ġcabinets": 23860,
    "Ġunfinished": 19508,
    "tut": 15434,
    "Ġcrawford": 24893,
    "Ġbraided": 16581,
    "Ġgraze": 18226,
    "Ġstarted": 4150,
    "Ġmuslin": 19381,
    "Ġsign": 2493,
    "Ġanalytical": 22907,
    "Ġcrony": 23439,
    "Ġalso": 1346,
    "Ġweakness": 9966,
    "worse": 14690,
    "guarded": 13292,
    "Ġmathematical": 3350,
    "Ġworse": 4718,
    "Ġknotted": 17019,
    "Ġadmirer": 16838,
    "Ġassistant": 7298,
    "nnight": 20992,
    "Ġsinking": 7307,
    "icate": 9201,
    "nals": 16399,
    "Ġprobed": 18733,
    "reader": 23844,
    "Ġwidow": 8662,
    "Ġconsidering": 4614,
    "Ġheredit": 9216,
    "Ġcondensed": 24049,
    "regret": 16451,
    "Ġhide": 4588,
    "Ġlam": 21546,
    "least": 8784,
    "Ġver": 3393,
    "+": 15,
    "Ġcolumns": 14376,
    "Ġrecover": 9790,
    "Ġ103": 24411,
    "Ġsingers": 23769,
    "ames": 2879,
    "Ġfocus": 4235,
    "Ġas": 374,
    "arer": 3969,
    "Ġequalled": 13310,
    "Ġthrone": 12211,
    "Ġeffected": 14353,
    "ladyship": 14828,
    "Ġtick": 8108,
    "Ġleakage": 23458,
    "coffin": 10662,
    "Ġaugment": 8691,
    "Ġfixing": 13154,
    "gest": 5426,
    "Ġprofound": 5497,
    "valued": 2850,
    "Ġmind": 1618,
    "Ġvoyagings": 19235,
    "whe": 1074,
    "Ġprofession": 6207,
    "Ġswap": 23049,
    "Ġ54": 24322,
    "Ġinterpreted": 1713,
    "ousness": 10274,
    "Ġwhis": 3503,
    "Ġdelicious": 14792,
    "Ġinfle": 16362,
    "bee": 16036,
    "Ġcastaway": 16640,
    "idents": 6150,
    "grees": 20885,
    "Ġtraits": 23072,
    "Ġoutermost": 22317,
    "merchant": 10467,
    "sharp": 10306,
    "luxur": 25822,
    "Ġwhal": 5454,
    "breath": 15161,
    "features": 14762,
    "extensive": 18711,
    "rew": 3649,
    "Ġrenegades": 26476,
    "Ġappearance": 3699,
    "barr": 15319,
    "Ġreserve": 9970,
    "Ġprepare": 8646,
    "tossing": 18580,
    "should": 3261,
    "Ġmedicine": 15204,
    "hastened": 16845,
    "Ġeffects": 7236,
    "beryls": 25309,
    "Ġlodger": 24092,
    "Ġwept": 7184,
    "Ġfriend": 1296,
    "Ġjig": 15950,
    "Ġwickham": 2202,
    "Ġspam": 7630,
    "Ġchaff": 18383,
    "Ġgibberish": 25786,
    "Ġremonstrance": 20621,
    "Ġproceeds": 12075,
    "Ġexterior": 19986,
    "hauled": 20667,
    "Ġenric": 21931,
    "Ġphrenolog": 12332,
    "Ġturns": 4981,
    "Ġchewed": 16369,
    "Ġcompacted": 23506,
    "Ġworshipper": 25692,
    "Ġvindictive": 20468,
    "Ġtread": 9408,
    "Ġdeclare": 6614,
    "mass": 12487,
    "Ġdissatisfied": 14256,
    "ain": 343,
    "Ġruin": 6055,
    "Ġlowermost": 23239,
    "Ġvelvets": 25393,
    "Ġcabman": 14605,
    "carefully": 13366,
    "Ġquartered": 20371,
    "circumstance": 7763,
    "Ġcries": 7154,
    "Ġintrospective": 20599,
    "desk": 23206,
    "apolog": 22330,
    "Ġomn": 8409,
    "exceed": 7910,
    "Ġgrease": 26189,
    "Ġnoted": 15829,
    "Ġcorners": 18873,
    "Ġclanging": 18423,
    "ums": 10272,
    "Ġfritters": 23255,
    "Ġ177": 13410,
    "Ġsubur": 12953,
    "Ġincred": 5646,
    "accordingly": 19211,
    "Ġcounsell": 25384,
    "izure": 21838,
    "Ġwhelm": 25998,
    "Ġwithdrew": 9695,
    "Ġsphynx": 20711,
    "Ġpopulous": 16826,
    "Ġeavesdroppers": 25963,
    "obscure": 23094,
    "Ġram": 11014,
    "Ġwonder": 2117,
    "Ġpossibilities": 18975,
    "Ġwicked": 5960,
    "Ġarmchair": 8270,
    "Ġfeelings": 2451,
    "Ġdissu": 18550,
    "Ġconcer": 23320,
    "Ġleading": 7297,
    "Ġmadden": 10447,
    "Ġbuy": 8298,
    "Ġdined": 9176,
    "Ġpasture": 14543,
    "Ġtruest": 16703,
    "Ġdefend": 9339,
    "Ġbodiless": 24226,
    "cannon": 22959,
    "Ġwounded": 8657,
    "Ġsavoury": 23875,
    "Ġcommunity": 19009,
    "abode": 21788,
    "Ġsurest": 19056,
    "Ġsuperiority": 14616,
    "Ġowe": 8114,
    "Ġsl": 1497,
    "Ġchange": 1994,
    "creator": 26381,
    "twill": 21073,
    "banish": 20781,
    "Ġglut": 18846,
    "Ġbread": 5404,
    "alloyed": 22198,
    "Ġleagues": 9221,
    "anzas": 17840,
    "Ġbreakfast": 3977,
    "Ġemail": 19074,
    "Ġjourney": 3878,
    "Ġvote": 21944,
    "sect": 8152,
    "Ġprosper": 10228,
    "esteemed": 26009,
    "hel": 4814,
    "mselves": 2859,
    "Ġobliging": 13241,
    "oe": 7552,
    ".âĢĻâĢĿ": 6739,
    "Ġpersist": 16286,
    "Ġhaste": 9003,
    "ro": 301,
    "lamp": 9608,
    "keys": 15858,
    "axing": 18547,
    "ios": 2454,
    "Ġcalculated": 4473,
    "bud": 10682,
    "choose": 23671,
    "Ġembarkation": 25123,
    "Ġdropout": 1562,
    "ims": 7176,
    "concerned": 24638,
    "Ġdirect": 1472,
    "iences": 6957,
    "Ġstro": 4594,
    "Ġlot": 6678,
    "erer": 8731,
    "shall": 4548,
    "Ġintelligently": 3949,
    "learn": 2371,
    "Ġalche": 21777,
    "Ġatone": 15801,
    "secure": 12233,
    "itself": 7834,
    "Ġtragedies": 25241,
    "heart": 4524,
    "Ġtreas": 7358,
    "Ġsimilar": 4917,
    "anced": 1278,
    "instance": 24168,
    "Ġgoest": 22418,
    "Ġrefill": 18702,
    "Ġdyspepsia": 20642,
    "Ġcarcase": 14443,
    "Ġpianoforte": 15272,
    "increased": 20269,
    "Ġcomment": 9232,
    "blo": 6353,
    "Ġransacked": 26505,
    "ody": 1480,
    "Ġsatin": 12986,
    "Ġfireside": 23530,
    "ript": 4153,
    "Ġcurb": 16252,
    "Ġ}": 21152,
    "estic": 4956,
    "weekly": 25684,
    "like": 1885,
    "tons": 7559,
    "quickness": 19850,
    "Ġharm": 5017,
    "Ġinventing": 24861,
    "Ġwonderful": 4561,
    "Ġswiftly": 5670,
    "Ġvol": 4188,
    "partiality": 13158,
    "olence": 10229,
    "arthur": 14829,
    "Ġstating": 15723,
    "aunted": 20769,
    "Ġunass": 14113,
    "Ġlangsdorff": 15275,
    "solute": 16598,
    "Ġjudged": 12081,
    "inian": 21181,
    "ogue": 9781,
    "aching": 5831,
    "Ġperdition": 15991,
    "Ġposs": 1615,
    "Ġclinch": 18425,
    "sticking": 21657,
    "unforeseen": 21885,
    "Ġcarelessness": 13073,
    "Ġ95": 19772,
    "Ġuncommonly": 7759,
    "Ġplan": 3881,
    "retrospect": 23135,
    "Ġexchange": 15754,
    "Ġcircumference": 13543,
    "Ġpon": 10175,
    "Ġtype": 2020,
    "Ġports": 10818,
    "26": 10072,
    "ashing": 4824,
    "Ġhatred": 8608,
    "Ġdifferen": 937,
    "philosophers": 25252,
    "Ġoverflowed": 20261,
    "clinging": 20821,
    "Ġbambooz": 26119,
    "Ġhorribly": 16341,
    "itted": 2439,
    "abiding": 21790,
    "Ġimagined": 8606,
    "rival": 12740,
    "Ġdolphin": 17311,
    "Ġcrept": 11021,
    "Ġinstructed": 19283,
    "Ġshri": 5375,
    "Ġdece": 6996,
    "Ġprecautions": 23724,
    "jolly": 20930,
    "Ġspitzbergen": 15286,
    "Ġresounds": 22539,
    "ordinary": 4406,
    "Ġpeddler": 24800,
    "Ġbone": 4694,
    "bearded": 18519,
    "Ġleaps": 14001,
    "Ġhumaneval": 25582,
    "Ġenveloped": 12206,
    "carries": 19526,
    "Ġsuspects": 16890,
    "Ġedward": 19119,
    "Ġoverboard": 6044,
    "Ġconstantinople": 19836,
    "Ġtraversed": 18891,
    "Ġadmitted": 8986,
    "inating": 9153,
    "Ġmach": 13856,
    "ended": 1835,
    "Ġexplo": 2281,
    "Ġinput": 609,
    "Ġdock": 15929,
    "ets": 1157,
    "Ġeyebrows": 23513,
    "Ġinitialized": 3947,
    "Ġspat": 2665,
    "Ġresolved": 3796,
    "Ġpence": 17903,
    "Ġsandwich": 19827,
    "ferences": 10326,
    "independent": 26021,
    "shining": 18494,
    "Ġneither": 3686,
    "Ġdisregard": 22525,
    "Ġfrosted": 19802,
    "Ġvacant": 9494,
    "impregn": 21711,
    "oa": 9612,
    "perfect": 7634,
    "Ġextinguish": 14331,
    "Ġbubbling": 17325,
    "Ġlengthen": 15652,
    "Ġunrem": 18244,
    "Ġgripping": 26186,
    "ville": 6087,
    "complet": 11383,
    "Ġrelevant": 1865,
    "Ġmonogra": 22972,
    "Ġguest": 7249,
    "Ġpermitted": 9277,
    "Ġcorpor": 23035,
    "cused": 15331,
    "wrong": 13204,
    "athom": 12937,
    "Ġmingling": 20196,
    "Ġlain": 17961,
    "Ġaloud": 6252,
    "Ġdefe": 21832,
    "tuning": 1584,
    "Ġbreaking": 6310,
    "Ġquicker": 16508,
    "gish": 20872,
    "Ġrigger": 19529,
    "Ġgips": 10841,
    "een": 727,
    "Ġtash": 13819,
    "path": 10118,
    "Ġprogeny": 17387,
    "Ġboston": 22635,
    "abouts": 9451,
    "Ġmeekly": 26490,
    "sery": 17661,
    "tains": 10962,
    "period": 15901,
    "Ġfemale": 8344,
    "Ġverses": 17063,
    "system": 4241,
    "alike": 17942,
    "Ġelement": 6898,
    "Ġrobustness": 18875,
    "share": 14236,
    "Ġanalogical": 25640,
    "Ġpauper": 26179,
    "Ġmunro": 25630,
    ")âĢĶâĢľ": 20742,
    "Ġactionable": 24559,
    "amed": 4446,
    "Ġtravellers": 11308,
    "lish": 1951,
    "Ġtribes": 20479,
    "Ġdestroyed": 5271,
    "Ġac": 846,
    "Ġtendinous": 16931,
    "thro": 12759,
    "Ġsped": 22123,
    "curiosity": 8623,
    "Ġempty": 5353,
    "ĠĠ": 353,
    "âĢĶ_": 3197,
    "Ġassembl": 20059,
    "Ġsimilarity": 3164,
    "Ġcontest": 18473,
    "Ġmart": 10779,
    "bordered": 17498,
    "elder": 21569,
    "Ġmarvell": 7248,
    "Ġquestions": 3974,
    "Ġconstrain": 2629,
    "aid": 1921,
    "counterpart": 26359,
    "Ġpregn": 22229,
    "Ġcanoe": 9722,
    "five": 6356,
    "Ġcet": 6669,
    "Ġlurks": 11290,
    "Ġshape": 5639,
    "Ġchag": 15930,
    "Ġcranes": 20381,
    "Ġbalmy": 22901,
    "conquerable": 17398,
    "Ġfloat": 12030,
    "Ġforeb": 12002,
    "tallow": 21084,
    "Ġtaken": 2526,
    "Ġcostly": 23583,
    "Ġhundredth": 16519,
    "allow": 5104,
    "Ġishmael": 7395,
    "sphere": 22732,
    "Ġtemperate": 16161,
    "ctic": 8441,
    "Ġcluster": 13569,
    "Ġdesires": 9456,
    "Ġprudent": 9184,
    "isome": 17848,
    "Ġopal": 23627,
    "Ġdismissed": 12890,
    "Ġwilling": 7421,
    "Ġeyelashes": 26106,
    "Ġjovial": 19233,
    "Ġdusting": 24596,
    "Ġcaucus": 17379,
    "Ġsituated": 9446,
    "Ġenchant": 7185,
    "Ġscroll": 14191,
    "Ġwarmth": 6905,
    "otent": 8831,
    "Ġclothing": 18424,
    "je": 11495,
    "ã": 164,
    "just": 1700,
    "spent": 12940,
    "Ę": 217,
    "Ġconveniently": 20077,
    "Ġ52": 24321,
    "Ġfossils": 20221,
    "motives": 26137,
    "Ġcharged": 9853,
    "work": 1752,
    "access": 11180,
    "Ġplaited": 14283,
    "Ġresources": 2937,
    "ppo": 18175,
    "orand": 21395,
    "thoughts": 9934,
    "Ġquitted": 5311,
    "Ġunite": 9253,
    "boil": 18999,
    "carp": 9109,
    "Ġdeliber": 7268,
    "finer": 17546,
    "Ġjoosy": 23633,
    "calm": 8934,
    "Ġsubtile": 20378,
    "Ġdazzling": 15210,
    "oll": 5456,
    "continuing": 24479,
    ";âĢĻ": 15301,
    "Ġlordly": 23741,
    "gave": 7799,
    "Ġinvaluable": 10182,
    "hic": 3248,
    "Ġoccupy": 14730,
    "olic": 14040,
    "Ġcorpore": 13399,
    "Ġprovinc": 16742,
    "Ġchis": 11748,
    "sciss": 18850,
    "Ġensures": 3052,
    "str": 2577,
    "Ġemails": 13104,
    "Ġblooming": 17212,
    "Ġignited": 25069,
    "parsee": 14512,
    "Ġcomrades": 9554,
    "critters": 14783,
    "ilt": 2966,
    "Ġruthless": 15284,
    "endeavouring": 15015,
    "Ġm": 274,
    "Ġsolemn": 4101,
    "igner": 21699,
    "Ġacceptance": 14826,
    "eel": 11483,
    "Ġsystematic": 5244,
    "ere": 6789,
    "ñ": 178,
    "Ġfiled": 15578,
    "Ġwaif": 9374,
    "Ġheartless": 13070,
    "Ġsockets": 22076,
    "Ġlabeled": 3717,
    "gover": 10702,
    "rinted": 21042,
    "omit": 13973,
    "patient": 25342,
    "function": 4288,
    "uneven": 23683,
    "e": 73,
    "Ġemperor": 15157,
    "Ġbirds": 5873,
    "Ġgorgeous": 20465,
    "quely": 10231,
    "Ġblossom": 26312,
    "Ġfancy": 3744,
    "larger": 24202,
    "next": 5891,
    "Ġsixty": 7722,
    "Ġconfidence": 6590,
    "finish": 24384,
    "Ġflip": 11911,
    "Ġhagger": 21488,
    "prejudice": 25571,
    "proceed": 8976,
    "Ġperpendicular": 7209,
    "Ġargument": 7098,
    "im": 327,
    "recked": 17762,
    "must": 3577,
    "taught": 17684,
    "Ġes": 8768,
    "egyptians": 25898,
    "destiny": 16702,
    "jur": 17578,
    "Ġinjunctions": 24269,
    "Ġprophetic": 20018,
    "Ġthemselves": 3251,
    "Ġaccorded": 24089,
    "Ġcapst": 8595,
    "resnet": 4070,
    "fitted": 17544,
    "Ġdizzy": 21430,
    "Ġsons": 10766,
    "Ġaback": 22263,
    "Ġblo": 2734,
    "sweet": 8685,
    "oquent": 12497,
    "Ġmentioned": 4329,
    "Ġsneezes": 24698,
    "aked": 2016,
    "deck": 4499,
    "Ġappearing": 9840,
    "Ġdough": 8420,
    "Ġcivilly": 19602,
    "Ġrage": 5110,
    "Ġpardon": 5727,
    "gyric": 19109,
    "Ġturkish": 12259,
    "Ġallegro": 25794,
    "tick": 17678,
    "Ġbend": 9170,
    "ondency": 15268,
    "words": 7982,
    "Ġquiver": 16001,
    "iced": 3899,
    "ber": 884,
    "Ġman": 545,
    "Ġepistle": 24904,
    "Ġinquis": 19303,
    "Ġundecided": 22045,
    "Ġwight": 12550,
    "Ġtaste": 5524,
    "Ġprying": 15607,
    "Ġflaming": 8563,
    "Ġimpediments": 26240,
    "oin": 17617,
    "Ġtossings": 25356,
    "Ġmisanthropic": 26560,
    "Ġstun": 11649,
    "living": 7133,
    "Ġmccauley": 26427,
    "scattered": 22985,
    "ĠĠĠĠĠĠĠĠĠĠĠĠĠĠĠĠĠĠĠĠĠĠĠĠĠĠĠ": 14885,
    "uated": 10131,
    "Ġindicated": 10469,
    "uten": 11621,
    "Ġcastles": 16639,
    "nt": 921,
    "caught": 8726,
    "endom": 15922,
    "Ġsm": 705,
    "ers": 406,
    "Ġsaw": 1352,
    "Ġmetaphys": 16398,
    "Ġprivileged": 20111,
    "Ġdiscl": 9796,
    ";--": 8068,
    "telesc": 22813,
    "Ġfireboard": 23531,
    "sche": 13011,
    "quently": 9701,
    "Ġcomo": 21844,
    "Ġwarning": 9058,
    "ulating": 10887,
    "Ġrocked": 12851,
    "perquis": 22187,
    "verbally": 25360,
    "Ġf": 283,
    "Ġbear": 3658,
    "Ġser": 1672,
    "Ġserpentine": 11360,
    "invari": 21183,
    "Ġdivert": 23595,
    "Ġoutbreak": 22315,
    "Ġmix": 7576,
    "dissatisf": 26129,
    "Ġmichael": 20678,
    "Ġdepths": 4326,
    "Ġpointing": 5661,
    "dued": 7908,
    "Ġthump": 11610,
    "on": 267,
    "gentlemanlike": 20000,
    "ă": 196,
    "Ġweary": 5635,
    "ĠcÃ¦": 15553,
    "Ġplague": 11822,
    "Ġcertainly": 2495,
    "ĠĠĠĠĠ": 3525,
    "Ġelsewhere": 7712,
    "Ġaccelerating": 1617,
    "Ġgentleman": 3038,
    "mber": 7803,
    "rained": 5162,
    "vag": 8764,
    "chard": 21684,
    "Ġspices": 22128,
    "Ġimpressions": 9552,
    "Ġsparsity": 4206,
    "plex": 709,
    "wl": 17702,
    "Ġresponses": 23650,
    "Ġdispersed": 16597,
    "contained": 22467,
    "Ġglittering": 10052,
    "verest": 13990,
    "mystic": 25316,
    "oters": 21796,
    "irksome": 18172,
    "Ġname": 2084,
    "conside": 9289,
    "Ġexhib": 6349,
    "Ġinstrument": 7118,
    "Ġpraise": 6486,
    "Ġdum": 10811,
    "Ġvindication": 25364,
    "Ġnoticed": 5549,
    "Ġmouthful": 16574,
    "tolerably": 21094,
    "Ġshells": 20362,
    "Ġdoctor": 5067,
    "ials": 11704,
    "Ġblame": 6446,
    "Ġgleam": 12306,
    "zening": 21147,
    "Ġorganization": 7983,
    "subsided": 25830,
    "Ġmagazine": 23098,
    "pool": 16208,
    "illuminated": 17452,
    "Ġassign": 11110,
    "Ġmultiplication": 2869,
    "atters": 18483,
    "Ġgoethe": 22419,
    "treas": 17679,
    "whole": 6085,
    "Ġunsolved": 22030,
    "Ġoscillations": 2897,
    "Ġwreaths": 25937,
    "Ġjacobian": 2891,
    "Ġconjecture": 9531,
    "score": 18849,
    "belt": 24032,
    "Ġlegendary": 20536,
    "Ġjumbled": 22294,
    "Ġgleamed": 17077,
    "penetrate": 20323,
    "Ġwhisper": 6205,
    "fever": 22499,
    "ensation": 22542,
    "Ġrival": 10485,
    "nearest": 16021,
    "Ġagonized": 25372,
    "mped": 16647,
    "Ġmurderer": 4980,
    "Ġfumes": 21416,
    "Ġc": 277,
    "Ġdifferently": 10389,
    "Ġkidnapping": 26356,
    "Ġexhaustion": 14960,
    "Ġtreacherous": 13552,
    "eld": 968,
    "Ġworshipping": 22925,
    "Ġhearse": 10420,
    "acity": 5735,
    "sails": 7497,
    "bur": 4686,
    "achines": 1723,
    "Ġforgery": 25977,
    "Ġdemeanour": 17336,
    "acquired": 24296,
    "Ġringle": 18210,
    "Ġsimulation": 2752,
    "ply": 6366,
    "Ġbowlines": 19321,
    "Ġkl": 2736,
    "Ġplans": 7917,
    "Ġmainten": 16111,
    "biqu": 17497,
    "_,âĢĻâĢĿ": 20399,
    "Ġintercepted": 25826,
    "Ġflit": 23000,
    "Ġharness": 17927,
    "stave": 21646,
    "Ġmanoir": 22329,
    "Ġwillow": 18533,
    "Ġextrem": 2474,
    "Ġdevoutly": 25832,
    "Ġfurnish": 9018,
    "Ġmodes": 22212,
    "Ġembed": 1453,
    "Ġrequesting": 24632,
    "Ġmonogram": 26574,
    "laz": 15384,
    "Ġhilariously": 25450,
    "Ġerrand": 11085,
    "Ġexaggerated": 25650,
    "Ġgamesome": 17289,
    "Ġdella": 21437,
    "Ġbaltic": 18794,
    "Ġdec": 642,
    "Ġjunk": 15952,
    "cceed": 4143,
    "itioned": 22472,
    "ck": 437,
    "influ": 9540,
    "Ġheeded": 13401,
    "Ġyesterday": 5332,
    "Ġmistifying": 23717,
    "Ġyawn": 7609,
    "Ġcens": 8412,
    "Ġgrotes": 19562,
    "Ġbore": 5079,
    "Ġflogged": 23626,
    "imper": 13996,
    "Ġsword": 6732,
    "impart": 21706,
    "sailed": 17666,
    "Ġbeh": 1801,
    "turbaned": 24532,
    "Ġnicely": 8708,
    "Ġexpeditions": 24954,
    "Ġtoday": 12641,
    "Ġnortheast": 23202,
    "Ġjumped": 7096,
    "Ġredress": 23749,
    "Ġmustering": 18662,
    "Ġcrowned": 16841,
    "Ġstirs": 14916,
    "Ġoccurred": 4460,
    "Ġinsufficient": 9672,
    "ressing": 8918,
    "vitiated": 25754,
    "Ġ99": 10745,
    "plainly": 11090,
    "Ġlizard": 12652,
    "utherland": 9578,
    "Ġdipping": 15590,
    "Ġrome": 12153,
    "Ġinfants": 16363,
    "Ġslide": 10393,
    "agery": 21904,
    "include": 23588,
    "Ġcoincid": 20316,
    "Ġpers": 1407,
    "Ġstrata": 26027,
    "Ġcaroline": 7255,
    "Ġbounded": 16626,
    "Ġanger": 5442,
    "Ġkingdom": 12017,
    "ornament": 23486,
    "unch": 14057,
    "Ġfangs": 12595,
    "Ġportra": 9008,
    "Ġfire": 2329,
    "Ġconsistent": 14528,
    "Ġimproved": 7656,
    "Ġplays": 12035,
    "Ġbelieves": 14406,
    "Ġlines": 4532,
    "ourage": 2449,
    "adequate": 15202,
    "Ġshan": 9248,
    "Ġstory": 2900,
    "puted": 8845,
    "Ġco": 730,
    "Ġpo": 738,
    "Ġmamm": 25090,
    "¿": 128,
    "stre": 5451,
    "Ġevenings": 18753,
    "Ġreverie": 13455,
    "Ġvillanous": 24051,
    "Ġvanity": 7045,
    "ggy": 13111,
    "rations": 10723,
    "objects": 13468,
    "think": 3610,
    "Ġdevoured": 16136,
    "ast": 473,
    "Ġsuckling": 25997,
    "Ġdru": 8421,
    "phology": 3006,
    "achalot": 15857,
    "married": 9948,
    "tled": 3457,
    "exasper": 22424,
    "Ġunfaltering": 24113,
    "Ġmagnifying": 16320,
    "embed": 18186,
    "Ġunwillingness": 20030,
    "ateness": 15519,
    "Ġxiv": 23406,
    "Ġfond": 4755,
    "gerine": 22885,
    "Ġassault": 9836,
    "utmost": 21585,
    "Ġtribute": 15475,
    "_,âĢĿ": 6218,
    "ivities": 22079,
    "Ġlids": 12273,
    "orne": 17872,
    "Ġvaliantly": 22792,
    "Ġwhereon": 16100,
    "deformity": 22143,
    "Ġmisanthrop": 22758,
    "divided": 25018,
    "Ġrippling": 17277,
    "dinner": 11406,
    "Ġcronies": 23441,
    "Ġado": 7626,
    "Ġinquiring": 8999,
    "deep": 1016,
    "Ġmak": 10778,
    "Ġahoy": 12182,
    "covering": 15333,
    "ic": 304,
    "eth": 616,
    "Ġmaybe": 12946,
    "Ġabstracted": 17182,
    "Ġlatitude": 8328,
    "Ġwhoa": 22417,
    "Ġrearing": 12675,
    "Ġreiterating": 26474,
    "vulgar": 25918,
    "Ġsummits": 14683,
    "Ġflash": 8228,
    "Ġintelligible": 15940,
    "Ġpitch": 5767,
    "Ġjustly": 11901,
    "Ġmuseum": 15270,
    "slee": 17168,
    "Ġlapse": 17120,
    "Ġfever": 6558,
    "started": 10845,
    "Ġsuddenly": 2646,
    "riminately": 16483,
    "ient": 393,
    "Ġfatigued": 13463,
    "mouthful": 25208,
    "glasses": 11215,
    "Ġrepl": 1594,
    "Ġkirwin": 8496,
    "Ġcontinually": 5042,
    "tend": 17674,
    "Ġdespite": 19351,
    "Ġgasping": 17038,
    "benefact": 24641,
    "Ġstoop": 16309,
    "Ġcheapside": 23285,
    "Ġpersisting": 18895,
    "ross": 807,
    "watch": 6118,
    "Ġmisunderstand": 18706,
    "Ġextant": 18684,
    "himself": 3973,
    "Ġunattended": 15842,
    "recurring": 24194,
    "Ġcaprice": 14577,
    "rucastle": 22175,
    "77": 15299,
    "Ġshark": 5550,
    "Ġrural": 21967,
    "wants": 21129,
    "Ġsnug": 8279,
    "Ġquote": 18466,
    "Ġcrooked": 11281,
    "Ġpowdered": 24237,
    "Ġunimaginable": 15245,
    "gang": 17553,
    "empl": 5724,
    "adays": 14012,
    "Ġalternate": 19984,
    "Ġfrogs": 23920,
    "Ġoccupies": 24005,
    "Ġlid": 6983,
    "Ġrepugn": 23361,
    "fold": 7546,
    "Ġrespite": 13152,
    "Ġinsomuch": 23681,
    "flitted": 23966,
    "Ġn": 300,
    "ensed": 10995,
    "at": 268,
    "Ġshetland": 22156,
    "Ġlandsc": 11146,
    "inching": 21188,
    "Ġbusier": 23336,
    "encoun": 12296,
    "sleeves": 26109,
    "Ġdepart": 4656,
    "Ġtis": 15465,
    "glances": 23851,
    "enborough": 21284,
    "oran": 8788,
    "Ġinclination": 6623,
    "Ġintru": 15826,
    "Ġmillions": 11354,
    "Ġarchipelagoes": 14347,
    "harpooneers": 8689,
    "Ġadventure": 5980,
    "Ġoverflowing": 17237,
    "Ġcaved": 21351,
    "Ġeigenvalues": 4998,
    "Ġcontinues": 18809,
    "Ġblock": 2575,
    "Ġvirt": 3906,
    "Ġapproximation": 2337,
    "thing": 1481,
    "leman": 21366,
    "iltrated": 19305,
    "entirely": 7781,
    "Ġtravelling": 11307,
    "Ġperfect": 2556,
    "Ġsudden": 2000,
    "coburg": 13596,
    "Ġsleepy": 8267,
    "Ġpa": 2986,
    "Ġpit": 3420,
    "Ġphaeton": 17464,
    "stamp": 21651,
    "rigible": 24931,
    "Ġquarter": 3978,
    "Ġconductor": 24004,
    "Ġpreceding": 7528,
    "idays": 21767,
    "Ġstrait": 23747,
    "Ġappropriated": 23483,
    "Ġnugent": 26457,
    "ement": 1502,
    "Ġhams": 16612,
    "Ġdict": 9175,
    "Ġmeasured": 9803,
    "Ġeels": 21617,
    "Ġatonement": 21939,
    "Ġneighb": 14075,
    "Ġbeach": 6541,
    "moments": 19410,
    "Ġrighteous": 18945,
    "Ġunguarded": 15849,
    "versed": 9824,
    "prehend": 14242,
    "Ġfro": 3471,
    "ernal": 4312,
    "Ġfortunately": 12177,
    "bitious": 16669,
    "Ġrhone": 25230,
    "Ġrepine": 16409,
    "Ġhome": 2029,
    "Ġtranscend": 25667,
    "Ġfills": 12592,
    "Ġgoblets": 20517,
    "cleanliness": 25871,
    "peleg": 16293,
    "chain": 18039,
    "Ġenglishmen": 19428,
    "Ġpreside": 18365,
    "bedroom": 14676,
    "Ġmending": 17804,
    "Ġaspired": 25984,
    "Ġlearn": 363,
    "Ġprediction": 2351,
    "Ġirish": 14534,
    "Ġexisting": 12716,
    "Ġselected": 9710,
    "Ġdau": 21423,
    "Ġprophesy": 26061,
    "Ġsuperflu": 14554,
    "Ġdiameter": 19866,
    "wor": 3416,
    "Ġresumed": 11810,
    "Ġmeddle": 19490,
    "Ġprompt": 3186,
    "Ġmor": 1247,
    "Ġrisen": 9492,
    "ellation": 12748,
    "Ġflush": 14422,
[...]
