{
  "metadata": {
    "vocab_size": 26615,
    "algorithm": "BPE",
    "created_at": "2026-08-13 04:09:13",
    "special_tokens": [
      "<PAD>",
      "<SOS>",
      "<EOS>",
      "<UNK>",
      "<MASK>"
    ]
  },
  "vocab": {
    "dist": 4479,
    "Ġpleadings": 25854,
    "Ġgentlemanlike": 12070,
    "Ġmeat": 8153,
    "main": 8089,
    "uned": 21876,
    "Ġconjured": 25102,
    "Ġsurvey": 13595,
    "Ġ45": 14773,
    "Ġclimes": 12849,
    "lady": 4431,
    "abouts": 9454,
    "Ġlover": 7193,
    "Ġactually": 5389,
    "Ġjury": 5378,
    "Ġconquest": 15751,
    "Ġdecl": 3590,
    "ā": 194,
    "Ġsur": 2183,
    "Ġsuperfluous": 17416,
    "shortly": 12262,
    "Ġcomo": 21852,
    "Ġfarthest": 23122,
    "leader": 25352,
    "pray": 5429,
    "Ġdetested": 14176,
    "orily": 15576,
    "Ġcontradictory": 20400,
    "rap": 21632,
    "Ġsymptom": 13485,
    "Ġsquint": 22841,
    "Ġliterally": 15119,
    "Ġcircles": 7968,
    "!âĢĿ": 848,
    "Ġai": 3123,
    "remorse": 14469,
    "Ġterrors": 6918,
    "Ġstepdaughter": 22620,
    "Ġthree": 1371,
    "Ġamber": 7028,
    "Ġconvivial": 16549,
    "Ġreplaced": 13074,
    "Ġsensational": 16394,
    "Ġsigning": 22712,
    "Ġweight": 658,
    "Ġmention": 2985,
    "Ġkneeling": 12146,
    "mer": 2832,
    "51": 12434,
    "farmer": 25900,
    "terrors": 25044,
    "Ġstoutly": 16925,
    "Ġdine": 7366,
    "Ġdonkey": 23231,
    "called": 6294,
    "baden": 25616,
    "Ġlens": 8440,
    "Ġstepmother": 16093,
    "Ġwhether": 1999,
    "Ġpleated": 16299,
    "ulatory": 15771,
    "kne": 20937,
    "photograph": 16153,
    "Ġsaith": 14159,
    "Ġsubordinate": 18723,
    "Ġgrenadier": 21620,
    "judgment": 16754,
    "Ġdeduce": 8338,
    "Ġmisfortune": 5568,
    "Ġcolonies": 14378,
    "ission": 6458,
    "Ġpedestrian": 25884,
    "mme": 22505,
    "Ġscoundrel": 13673,
    "Ġcomplement": 23712,
    "ode": 1453,
    "Ġbumping": 25281,
    "Ġmagnitudes": 3822,
    "fulfilment": 26026,
    "swallowed": 14855,
    "Ġbarrowful": 25596,
    "Ġbarrens": 25502,
    "pres": 16032,
    "aneous": 7240,
    "shark": 14239,
    "Ġrecommended": 8671,
    "Ġnich": 21524,
    "Ġinteraction": 7424,
    "expectations": 24278,
    "Ġphysical": 7523,
    "Ġcock": 11000,
    "Ġcigarette": 20658,
    "inc": 2518,
    "ry": 806,
    "lifeless": 24313,
    "Ġuntouched": 16467,
    "Ġjinglers": 26019,
    "Ġper": 587,
    "Ġstandard": 14498,
    "produ": 10721,
    "Ġtopic": 9408,
    "ositories": 22269,
    "hate": 20894,
    "Ġcistern": 17383,
    "Ġ46": 19494,
    "Ġorphan": 12386,
    "south": 8762,
    "smitten": 23912,
    "necessity": 13370,
    "Ġwhitt": 18057,
    "family": 7324,
    "ret": 1476,
    "children": 9057,
    "Ġdishes": 16053,
    "deliberated": 26119,
    "Ġ23": 13192,
    "heed": 15500,
    "ror": 7351,
    "Ġwearisome": 19798,
    "Ġbeck": 14011,
    "Ġforgiveness": 16658,
    "Ġsaws": 23051,
    "Ġweeds": 21928,
    "Ġempty": 5354,
    "Ġforcing": 3220,
    "address": 14883,
    "Ġswiss": 18883,
    "Ġoutdone": 22323,
    "petulance": 24300,
    "ĠĠĠĠĠĠĠĠĠĠĠĠĠĠĠĠĠĠĠĠĠĠĠĠĠĠĠĠĠĠĠĠĠĠĠĠĠĠĠĠ": 4515,
    "Ġbru": 13897,
    "Ġconducted": 10504,
    "Ġcomposing": 16070,
    "Ġslashing": 23175,
    "however": 4371,
    "aying": 15753,
    "Ġobeisance": 19761,
    "ims": 7177,
    "Ġbeheading": 21759,
    "Ġexposed": 8525,
    "Ġobligation": 13247,
    "Ġcoolly": 9774,
    "brated": 12029,
    "Ġresounds": 22547,
    "ailed": 3245,
    "Ġaust": 4871,
    "Ġuttering": 16463,
    "Ġinsatiable": 19274,
    "wearing": 22691,
    "Ġopenly": 8576,
    "Ġstables": 23659,
    "Ġblessed": 6931,
    "Ġest": 2265,
    "handkerchief": 14619,
    "Ġ150": 22830,
    "Ġpuzz": 5532,
    "striving": 24670,
    "Ġconcuss": 19048,
    "Ġinsipid": 26314,
    "Ġfeathers": 15122,
    "Ġcloudy": 19480,
    "Ġceased": 6469,
    "humoredly": 26326,
    "ictions": 14227,
    "Ġleadenhall": 16630,
    "scythes": 26403,
    "Ġsympathise": 16795,
    "magnet": 14972,
    "F": 42,
    "congratulations": 20282,
    "osely": 9267,
    "affa": 23779,
    "Ġern": 8398,
    "Ġrespectability": 14486,
    "peculiarities": 13473,
    "lestrade": 9658,
    "Ġbiographical": 22766,
    "Ġsprung": 11248,
    "Ġselves": 21225,
    "chard": 21691,
    "bowsprit": 16854,
    "Ġconstantly": 11975,
    "abhor": 12712,
    "Ġtranquilly": 12293,
    "okers": 18443,
    "Ġsynd": 22212,
    "esteem": 26009,
    "Ġazores": 20196,
    "Ġuninjured": 22059,
    "Ġfaithfulness": 24445,
    "Ġflash": 8231,
    "Ġdesolate": 10015,
    "Ġplain": 2817,
    "Ġprone": 18968,
    "Ġanim": 2114,
    "Ġchar": 1701,
    "Ġessex": 20130,
    "Ġtons": 11551,
    "Ġdivinest": 25722,
    "Ġmultitud": 18750,
    "Ġgrievances": 20650,
    "Đ": 209,
    "arthur": 14832,
    "Ġappointment": 10648,
    "four": 6115,
    "Ġbruited": 25774,
    "Ġunspeakable": 10058,
    "aited": 12438,
    "whence": 23216,
    "tha": 15826,
    "Ġdat": 494,
    "Ġtho": 21518,
    "Ġeditions": 19154,
    "Ġdestroy": 5772,
    "embedding": 20360,
    "Ġmeans": 699,
    "dear": 6557,
    "Ġpound": 12621,
    "Ġpairs": 4180,
    "heavens": 19748,
    "dependence": 17169,
    "Ġthen": 664,
    "Ġseaport": 20602,
    "kitchen": 17586,
    "ury": 3312,
    "._)": 10482,
    "Ġnatures": 16507,
    "Ġdint": 15594,
    "weaving": 18667,
    "Ġcombines": 1183,
    "Ġeurope": 8063,
    "Ġgrass": 5177,
    "Ġbowsprit": 16561,
    "Ġbar": 3142,
    "output": 4400,
    "Ġenticing": 22748,
    "Ġrushes": 20511,
    "Ġreprehensible": 15702,
    "ger": 1107,
    "tent": 21067,
    "cst": 10086,
    "hope": 5992,
    "Ġsanctioned": 26352,
    "cost": 19188,
    "Ġmodeling": 2096,
    "arken": 18668,
    "Ġmoderately": 22227,
    "project": 16427,
    "possesses": 24618,
    "Ġsweeter": 23921,
    "Ġdrinks": 24281,
    "Ġapproving": 18482,
    "Ġfireside": 23534,
    "sweetly": 25137,
    "Ġunluckily": 20105,
    "Ġinvincible": 23481,
    "Ġsleep": 2397,
    "Ġassign": 11110,
    "garet": 9599,
    "Ġindia": 10372,
    "Ġsurv": 6083,
    "Ġdisordered": 16058,
    "Ġresolution": 5500,
    "Ġfergus": 16873,
    "Ġgravesend": 15219,
    "Ġindividual": 5744,
    "Ġregularization": 1179,
    "cies": 1817,
    "change": 6393,
    "leap": 21370,
    "east": 9117,
    "changing": 10855,
    "Ġsuspend": 14609,
    "Ġeagle": 13202,
    "incess": 15484,
    "narrative": 17321,
    "Ġber": 5698,
    "dishon": 20407,
    "Ġstrictest": 17042,
    "ishop": 9744,
    "Ġpolitic": 23620,
    "letter": 6203,
    "Ġbeliefs": 24582,
    "Ġcoleridge": 18770,
    "Ġinquired": 7486,
    "rd": 17650,
    "Ġpract": 1849,
    "Ġsolicitude": 10042,
    "Ġmild": 4143,
    "ceremony": 20593,
    "Ġthose": 1171,
    "hateful": 20911,
    "Ġoutermost": 22324,
    "Ġrefreshing": 20267,
    "bask": 20778,
    "equ": 6791,
    "vib": 21118,
    "Ġlikelihood": 16502,
    "Ġberg": 24535,
    "Ġadmiral": 17307,
    "°": 113,
    "Ġextraction": 11252,
    "whalemen": 10432,
    "octavo": 11386,
    "Ġruff": 14351,
    "Ġdressed": 5081,
    "Ġexpedition": 10636,
    "Ġexcite": 11969,
    "Ġdenominated": 15231,
    "thou": 4708,
    "Ġstraps": 19311,
    "Ġfearless": 9877,
    "un": 373,
    "t": 88,
    "Ġdevoted": 6575,
    "zek": 16248,
    "Ġformer": 3323,
    "ime": 625,
    "explained": 23150,
    "Ġpugnacious": 26452,
    "Ġbrittle": 22867,
    "Ġunfor": 15842,
    "Ġcedars": 20295,
    "Ġsophisticated": 1567,
    "Ġstabbed": 25457,
    "Ġsurgeons": 23466,
    "Ġempires": 19075,
    "Ġrepublic": 14532,
    "Ġbespeaking": 26311,
    "Ġpunctil": 20117,
    "Ġunhinged": 26218,
    "date": 17518,
    "Ġforests": 13594,
    "Ġunjust": 8486,
    "Ġconsisted": 10420,
    "Ġburly": 19252,
    "aths": 22705,
    "Ġmut": 3583,
    "Ġveracity": 23892,
    "servants": 15039,
    "Ġattachment": 6052,
    "remes": 21240,
    "Ġstudded": 18984,
    "Ġeveryone": 8920,
    "irst": 879,
    "Ġcompares": 20169,
    "Ġpondicherry": 20494,
    "Ġelbowed": 16112,
    "Ġsubstances": 24167,
    "Ġimputable": 22177,
    "anyone": 16594,
    "Ġrecording": 24433,
    "also": 7852,
    "Ġconsisting": 8973,
    "Ġtowers": 16739,
    "Ġspears": 12929,
    "Ġdesolation": 12272,
    "Ġgoring": 21608,
    "Ġdistricts": 20266,
    "Ġsavi": 18331,
    "Ġsteer": 10388,
    "Ġcognitive": 13636,
    "Ġentrapped": 26264,
    "ousand": 2428,
    "real": 10151,
    "agrad": 2746,
    "Ġwheeling": 18289,
    "dece": 11737,
    "Ġcompliment": 5673,
    "Ġtransparency": 10678,
    "Ġdip": 13909,
    "Ġexerted": 15760,
    "accomp": 10456,
    "move": 11857,
    "Ġyelled": 9696,
    "Ġunusual": 6555,
    "middle": 11311,
    "Ġforked": 11666,
    "Ġsense": 3249,
    "Ġsource": 6806,
    "depend": 9114,
    "luckily": 19755,
    "Ġtalk": 1969,
    "Ġdegrad": 2588,
    "Ġhay": 11607,
    "storied": 18024,
    "Ġeng": 1163,
    "Ġcau": 13883,
    "Ġaspired": 25985,
    "value": 18812,
    "Ġnorthward": 13324,
    "Ġsqualidness": 25844,
    "instance": 24170,
    "Ġdisobedience": 22540,
    "ustomed": 6101,
    "perch": 18343,
    "Ġdisembow": 22542,
    "Ġbesides": 3513,
    "Ġflickering": 23020,
    "Ġdollars": 11456,
    "tap": 17677,
    "stands": 22440,
    "Ġglowing": 12286,
    "fabulous": 20477,
    "Ġtreatise": 19348,
    "crown": 13701,
    "infall": 21191,
    "Ġseap": 15817,
    "Ġsudden": 1998,
    "Ġnightfall": 23137,
    "beside": 19879,
    "othing": 6996,
    "Ġtragedy": 10669,
    "Ġgained": 4533,
    "Ġflood": 7717,
    "Ġgentle": 1893,
    "billiard": 25335,
    "ivable": 10912,
    "Ġremember": 2679,
    "burn": 8372,
    "crews": 15044,
    "ohn": 4559,
    "seem": 10229,
    "Ġindispensable": 11904,
    "Ġhandwriting": 14321,
    "Ġinfamous": 16370,
    "Ġenjoys": 19453,
    "Ġparallel": 1417,
    "Ġphys": 5653,
    "Ġconcealing": 23906,
    "enchanted": 26425,
    "Ġnaked": 8128,
    "Ġisolated": 13561,
    "Ġdism": 9769,
    "sur": 4521,
    "Ġextravagance": 17281,
    "aside": 10193,
    "matters": 14876,
    "Ġdetermine": 3243,
    "elder": 21576,
    "Ġtaking": 3247,
    "programming": 10065,
    "determine": 19947,
    "Ġoriginally": 7304,
    "queg": 1773,
    "everybody": 8614,
    "Ġhemisphere": 26479,
    "inquir": 9538,
    "Ġchewing": 23291,
    "lection": 3653,
    "Ġmun": 12566,
    "Ġphyseter": 26587,
    "ituted": 13875,
    "Ġarchly": 22779,
    "loa": 18535,
    "Ġacquiring": 2768,
    "moving": 11018,
    "Ġpacing": 8428,
    "Ġturbul": 23614,
    "Ġfanned": 19101,
    "god": 4863,
    "Ġblasphemer": 26117,
    "recklessly": 25270,
    "contented": 14635,
    "ickering": 22674,
    "thole": 21991,
    "Ġprovoked": 13328,
    "ĠĠĠĠĠĠĠĠĠĠĠĠĠĠĠĠĠĠĠĠĠĠĠĠĠĠĠĠĠĠĠĠĠĠĠĠ": 23668,
    "acquaintance": 6938,
    "!_âĢĶ": 19976,
    "Ġliving": 3059,
    "Ġwith": 349,
    "hoped": 20912,
    "Ġbelly": 10371,
    "Ġfurniture": 6477,
    "prairies": 20569,
    "well": 1689,
    "Ġproportion": 7281,
    "Ġshores": 8851,
    "Ġrese": 2363,
    "opposing": 24822,
    "Ġcalifornian": 25853,
    "Ġepit": 18009,
    "ature": 522,
    "Ġtransformer": 2637,
    "Ġempire": 11145,
    "databases": 3021,
    "Ġspe": 823,
    "Ġghostliness": 24652,
    "odecimoes": 25319,
    "Ġstow": 21735,
    "Ġtrying": 4839,
    "Ġprophet": 7683,
    "Ġtheir": 644,
    "Ġstubbs": 23301,
    "rosings": 15647,
    "Ġoft": 9196,
    "Ġbeaches": 18087,
    "axing": 18548,
    "Ġplay": 2626,
    "revol": 12544,
    "Ġmorass": 22975,
    "likely": 9025,
    "gre": 5788,
    "duct": 3506,
    "zar": 11549,
    "Ġbattalions": 25777,
    "Ġtestified": 16335,
    "Ġinstigated": 18699,
    "village": 25423,
    "clerval": 7952,
    "Ġmccarthy": 5145,
    "Ġbecomes": 6397,
    "Ġwept": 7184,
    "Ġbride": 6293,
    "ĠĠĠĠĠĠĠĠĠĠĠĠĠĠĠĠĠĠĠĠĠĠĠĠĠĠĠ": 14888,
    "Ġextract": 1528,
    "Ġends": 8239,
    "Ġlargest": 6284,
    "winding": 16721,
    "Ġsupplication": 25492,
    "Ġvolcano": 24148,
    "Ġwearily": 18180,
    "abeth": 907,
    "Ġwines": 21290,
    "chants": 21696,
    "standers": 18480,
    "ctuous": 9207,
    "Ġbehaviors": 13257,
    "buff": 15321,
    "watches": 14949,
    "Ġbaff": 10800,
    "Ġswore": 10380,
    "Ġspr": 4021,
    "reason": 4413,
    "ading": 5091,
    "Ġanyways": 22525,
    "Ġatmosphere": 10898,
    "Ġshun": 11712,
    "Ġprotruding": 16660,
    "Ġmatrices": 4968,
    "Ġexasperated": 11413,
    "Ġfrank": 4418,
    "wherever": 13121,
    "```": 25894,
    "pity": 17628,
    "Ġach": 2621,
    "Ġmeanly": 12914,
    "iant": 5427,
    "equal": 14995,
    "Ġshortly": 6198,
    "Ġassented": 17340,
    "lish": 1951,
    "vine": 10735,
    "Ġply": 21457,
    "rush": 7012,
    "Ġwars": 17787,
    "aneously": 4055,
    "ios": 2251,
    "mystery": 15158,
    "Ġjoyfully": 19349,
    "Ġlong": 795,
    "towards": 5002,
    "ounder": 11747,
    "Ġreaders": 18916,
    "Ġsins": 13839,
    "modesty": 22838,
    "Ġlighted": 7065,
    "Ġushered": 18361,
    "Ġnind": 17952,
    "vert": 15718,
    "Ġprocesses": 3634,
    "Ġdissolved": 18555,
    "Ġconn": 9231,
    "Ġrequirements": 9797,
    "Ġweigh": 10894,
    "Ġtwinkled": 14314,
    "standing": 5557,
    "Ġbeings": 2488,
    "Ġworshippers": 25694,
    "stretched": 10207,
    "asted": 4649,
    "Ġhudson": 15194,
    "ply": 6367,
    "Ġgloom": 4200,
    "medi": 2629,
    "Ġabandonment": 25604,
    "Ġresentment": 7531,
    "Ġ80": 24455,
    "tuesday": 17691,
    "Ġinferiority": 17115,
    "Ġperfection": 19221,
    "Ġverbal": 19382,
    "appe": 2942,
    "Ġnap": 8812,
    "Ġchest": 5185,
    "Ġminimax": 5859,
    "Ġorders": 5341,
    "Ġdelight": 2547,
    "Ġtargets": 4203,
    "oysius": 14367,
    "ific": 488,
    "Ġchap": 5936,
    "ake": 749,
    "Ġrejo": 5918,
    "Ġimport": 1043,
    "Ġlake": 5227,
    "pped": 1997,
    "Ġtattooed": 11379,
    "Ġcottages": 14729,
    "warp": 17707,
    "tubes": 25212,
    "Ġinjustice": 9192,
    "Ġcovered": 5171,
    "Ġcolleague": 17161,
    "Ġkeener": 22919,
    "ampled": 18885,
    "Ġadaptive": 1379,
    "Ġrevolutions": 23845,
    "writes": 4987,
    "telescope": 26563,
    "Ġtrod": 15028,
    "ativeness": 15523,
    "Ġmisunderstand": 18705,
    "Ġunrival": 22050,
    "Ġseated": 4539,
    "Ġconveniently": 20082,
    "Ġhelplessly": 20081,
    "Ġimmediately": 3366,
    "Ġdevotion": 22721,
    "evidence": 25522,
    "occasion": 7755,
    "Ġdrags": 16942,
    "witness": 10037,
    "Ġantique": 19554,
    "Ġstreet": 2957,
    "icuous": 10836,
    "Ġsensation": 6896,
    "da": 17515,
    "Ġfabulous": 25949,
    "Ġtrans": 640,
    "î": 175,
    "Ġnice": 6678,
    "cig": 17505,
    "wander": 17710,
    "Ġmerest": 14033,
    "antically": 22101,
    "Ġakin": 15497,
    "Ġmeetings": 16534,
    "Ġshr": 4223,
    "Ġphantoms": 13488,
    "japan": 15377,
    "Ġactiv": 836,
    "uish": 5431,
    "Ġhither": 4759,
    "counterpart": 26361,
    "iers": 5993,
    "Ġsnapped": 9899,
    "slouched": 24556,
    "ighter": 7969,
    "Ġclothing": 18431,
    "Ġpugn": 21484,
    "Ġpel": 17906,
    "heavily": 24533,
    "wil": 8769,
    "Ġabode": 7902,
    "Ġothers": 2581,
    "Ġdivided": 8635,
    "helmsman": 24288,
    "qualified": 17098,
    "Ġminutes": 2999,
    "wedged": 24558,
    "condite": 23251,
    "ined": 1258,
    "comput": 2045,
    "Ġsurpl": 19134,
    "Ġbenevol": 5964,
    "regulated": 23469,
    "Ġmanif": 8873,
    "Ġsoftened": 11102,
    "ivered": 7007,
    "Ġturkish": 12265,
    "ek": 1908,
    "Ġhousings": 21497,
    "Ġdesperate": 7778,
    "Ġdug": 21434,
    "Ġescape": 2648,
    "Ġespecial": 26411,
    "del": 4073,
    "Ġassizes": 11109,
    "giving": 8742,
    "Ġadvocate": 13679,
    "Ġlevers": 18080,
    "Ġultimately": 17166,
    "Ġslugg": 15271,
    "Ġwilliam": 3481,
    "Ġsoap": 14133,
    "kee": 18274,
    "Ġgallery": 10526,
    "Ġentropy": 2030,
    "iscuits": 24667,
    "Ġalps": 10871,
    "ructure": 751,
    "Ġembarr": 7446,
    "Ġskirts": 14354,
    "dually": 3281,
    "oop": 10716,
    "perv": 1608,
    "idated": 11663,
    "Ġswandam": 11089,
    "Ġsteps": 2862,
    "Ġconsult": 6059,
    "Ġstrands": 25575,
    "Ġtrag": 13042,
    "Ġcreditor": 24291,
    "about": 3587,
    "Ġindestructible": 26573,
    "illes": 12699,
    "educ": 10829,
    "data": 2071,
    "lude": 6163,
    "Ġassociate": 13452,
    "Ġbenignity": 18785,
    "meat": 18678,
    "bres": 11472,
    "prove": 11148,
    "lively": 12488,
    "whatsoever": 18495,
    "overing": 6308,
    "supplemental": 25875,
    "Ġledge": 19404,
    "killing": 20944,
    "Ġfighting": 12201,
    "ĕ": 214,
    "Ġbiography": 22765,
    "Ġwant": 1118,
    "Ġfootfalls": 25867,
    "Ġsimpleton": 16338,
    "Ġadro": 15870,
    "Ġclergy": 7644,
    "ached": 2319,
    "Ġconge": 15749,
    "Ġtahiti": 13621,
    "Ġdraughts": 20224,
    "idol": 21771,
    "ken": 2802,
    "hatred": 24818,
    "cious": 6646,
    "Ġfairly": 6327,
    "orange": 21403,
    "Ġreader": 11937,
    "Ġrescue": 13345,
    "Ġenlivened": 26209,
    "Ġbacks": 8532,
    "Ġincomplete": 17210,
    "Ġdeafened": 25652,
    "Ġinsurance": 23685,
    "icy": 6142,
    "Ġinflicted": 11366,
    "ope": 4122,
    "Ġdiscu": 4361,
    "Ġstupid": 7605,
    "Ġfullest": 14816,
    "endured": 22230,
    "0": 20,
    "Ġmincing": 18754,
    "Ġsimultaneous": 22592,
    "Ĝ": 221,
    "Ġschoolmasters": 19723,
    "Ġmach": 13859,
    "Ġdramat": 23218,
    "expressing": 16802,
    "Ġerect": 6145,
    "Ġwalker": 23314,
    "Ġquakers": 22421,
    "Ġprincipal": 6497,
    "toller": 20675,
    "itigated": 23049,
    "Ġworsh": 13003,
    "Ġmonday": 6129,
    "Ġclouded": 13293,
    "digger": 24311,
    "Ġinitialized": 3947,
    "heavenly": 20048,
    "arrival": 15603,
    "Ġoccupied": 5273,
    "questioning": 16851,
    "Ġbracing": 16582,
    "caught": 8730,
    "Ġliberated": 19669,
    "pr": 3169,
    "sm": 3435,
    "Ġbran": 5252,
    "Ġenjoined": 18192,
    "fortunate": 4792,
    "Ġimpet": 11782,
    "Ġdeem": 18136,
    "Ġsteak": 9831,
    "Ġvirtual": 11240,
    "Ġsqueaking": 26276,
    "elastic": 17983,
    "imming": 9689,
    "Ġbreaching": 23351,
    "anded": 5925,
    "h": 76,
    "origin": 7583,
    "Ġparish": 8857,
    "Ġmomentary": 11036,
    "Ġmarlingspike": 26580,
    "ulent": 21867,
    "awful": 23121,
    "Ġdisplay": 6429,
    "poster": 11057,
    "Ġfeverish": 11349,
    "Ġdemand": 4946,
    "uctive": 17697,
    "Ġsenior": 17173,
    "Ġmemorable": 16447,
    "iform": 2200,
    "Ġfanciful": 24787,
    "Ġtwelve": 4962,
    "eagerly": 17318,
    "position": 15415,
    "Ġtortoise": 16909,
    "expense": 22434,
    "Ġpassionately": 16765,
    "Ġmidships": 23636,
    "Ġanalyze": 1495,
    "isive": 10794,
    "Ġcocain": 18599,
    "claim": 9837,
    "zz": 4291,
    "Ġmetropolis": 17276,
    "Ġchat": 6562,
    "Ġconsistent": 14529,
    "Ġcrammed": 16472,
    "Ġfrightens": 24033,
    "zors": 21150,
    "Ġthousandth": 23687,
    "edily": 17946,
    "Ġinsult": 6749,
    "jee": 17580,
    "Ġsob": 12788,
    "Ġtallest": 15476,
    "achalot": 15862,
    "olstadt": 7790,
    "Ġbeckoning": 20505,
    "Ġgibe": 25960,
    "Ġsolitude": 6876,
    "Ġlooks": 4162,
    "Ġwidest": 24236,
    "Ġhate": 5445,
    "Ġunwillingly": 15851,
    "cursed": 23847,
    "Ġheaven": 3365,
    "Ġadvised": 16210,
    "Ġsof": 18278,
    "Ġrustic": 14967,
    "Ġfactory": 23281,
    "Ġdespise": 14667,
    "tossing": 18581,
    "binary": 20786,
    "Ġvictory": 16655,
    "Ġminiature": 11041,
    "contriv": 19294,
    "rote": 4590,
    "Ġconnexion": 11455,
    "Ġdeprec": 15761,
    "Ġless": 1938,
    "Ġtransform": 750,
    "Ġsullen": 9159,
    "consist": 14818,
    "Ġjones": 7204,
    "itional": 22483,
    "breakfast": 8691,
    "Ġ121": 24465,
    "·": 120,
    "pennies": 26287,
    "Ġgra": 415,
    "unusually": 15783,
    "buncle": 13695,
    "fearing": 18530,
    "Ġsqu": 1035,
    "Ġscold": 10951,
    "Ġdarted": 4758,
    "Ġexordium": 26493,
    "ments": 1402,
    "Ġfamilies": 8028,
    "repugnance": 16865,
    "Ġnonsensical": 21533,
    "anges": 1674,
    "Ġmaids": 19694,
    "Ġminut": 2203,
    "Ġfiver": 22778,
    "toss": 22571,
    "ushion": 14722,
    "Ġdipping": 15595,
    "Ġmagn": 1554,
    "killer": 20479,
    "Ġclearly": 6897,
    "umbent": 12093,
    "Ġstream": 5186,
    "ribly": 8256,
    "Ġcompliments": 8636,
    "acific": 4959,
    "Ġplot": 14283,
    "rabbit": 20594,
    "Ġexhaust": 6400,
    "Ġfoam": 6891,
    "Ġbeating": 8146,
    "tre": 8764,
    "Ġliked": 5265,
    "Ġharriet": 24572,
    "Ġfift": 6383,
    "Ġprinces": 23224,
    "Ġservox": 23873,
    "Ġstructure": 829,
    "Ġsouthwards": 19636,
    "racts": 14359,
    "Ġcrevice": 22728,
    "Ġmeaning": 1418,
    "becoming": 18517,
    "Ġrede": 13986,
    "adieu": 26202,
    "aning": 2254,
    "Ġbluff": 16519,
    "Ġlinear": 3432,
    "emed": 3380,
    "nor": 2741,
    "Ġsummar": 3525,
    "itten": 3440,
    "Ġitalian": 12413,
    "Ġknight": 9729,
    "enchant": 21286,
    "Ġhug": 6980,
    "society": 9974,
    "Ġmills": 21314,
    "Ġbohem": 8529,
    "Ġten": 2383,
    "oric": 21399,
    "Ġmaimed": 21319,
    "regiment": 16451,
    "Ġthroes": 24574,
    "sign": 8389,
    "Ġrapidity": 11103,
    "Ġabilities": 8869,
    "Ġbedroom": 7277,
    "make": 5793,
    "porpoise": 16436,
    "Ġassociations": 14965,
    "pole": 9335,
    "masterly": 24529,
    "victim": 25531,
    "Ġtransient": 18483,
    "¡": 99,
    "protested": 13476,
    "suff": 4960,
    "Ġfowler": 16938,
    "Ġparaph": 22125,
    "pause": 12504,
    "progression": 20385,
    "assistant": 25568,
    "Ġdeceive": 12727,
    "Ġoffend": 16147,
    "southern": 20412,
    "Ġbaked": 21389,
    "Ġamput": 16037,
    "etition": 7382,
    "Ġnight": 1466,
    "Ġsquared": 1382,
    "resist": 8277,
    "Ġcous": 3436,
    "Ġundoubted": 19517,
    "Ġconflagration": 26366,
    "Ġglory": 6067,
    "Ġwrongfully": 24250,
    "Ġjingling": 26018,
    "dut": 10089,
    "Ġlike": 666,
    "Ġcandour": 14674,
    "Ġheroine": 24542,
    "Ġsmiting": 12903,
    "Ġclubs": 25180,
    "Ġuninterrupted": 22049,
    "Ġsolemnly": 8024,
    "Ġrejoicing": 13423,
    "Ġsuccession": 12105,
    "ick": 838,
    "conclusive": 25674,
    "view": 5898,
    "Ġstumble": 26483,
    "Ġro": 597,
    "Ġlanc": 19767,
    "hypothe": 25906,
    "Ġcows": 15556,
    "Ġprobed": 18735,
    "Ġrepining": 23364,
    "Ġheadsman": 13277,
    "Ġtak": 15471,
    "Ġsammy": 24933,
    "Ġspecimens": 18860,
    "Ġha": 400,
    "Ġgreenland": 5761,
    "Ġamerican": 5060,
    "Ġimplicated": 24875,
    "Ġhighly": 4845,
    "shire": 3018,
    "sold": 15428,
    "conceal": 25117,
    "infer": 10146,
    "Ġhaz": 12760,
    "Ġsuccour": 20438,
    "Ġessays": 19747,
    "sford": 6000,
    "Ġdelightfully": 13160,
    "Ġsympathised": 14864,
    "cast": 2926,
    "q": 85,
    "assisted": 22312,
    "shunned": 22460,
    "decan": 22146,
    "Ġstrokes": 16770,
    "sympathy": 20545,
    "Ġhappening": 14385,
    "inement": 11559,
    "Ġsympathising": 24298,
    "Ġstruggling": 12078,
    "Ġtraces": 7947,
    "Ġexploded": 15912,
    "Ġstride": 22617,
    "atible": 17773,
    "Ġabundantly": 17158,
    "Ġsimpler": 2047,
    "Ġlearnt": 7616,
    "Ġworst": 7444,
    "Ġcomparative": 10544,
    "Ġpenetrated": 13474,
    "Ġaffair": 4462,
    "Ġsaints": 20677,
    "Ġcham": 4892,
    "Ġsutherland": 10150,
    "assuming": 22315,
    "alarm": 15630,
    "Ġmy": 411,
    "Ġimplies": 24873,
    "Ġincarnate": 20378,
    "arrow": 4178,
    "Ġob": 861,
    "Ġtingling": 15095,
    "introduce": 25187,
    "uncont": 15777,
    "ĠĠĠĠĠĠĠĠĠĠĠĠĠĠĠĠĠĠĠĠĠĠĠĠĠĠĠĠĠĠĠĠĠĠĠĠĠĠĠĠĠĠĠ": 12158,
    "Ġnay": 5711,
    "accepting": 20138,
    "Ġjutting": 22306,
    "unders": 13312,
    "consequential": 26252,
    "Ġreconsidered": 21677,
    "Ġcrimson": 16438,
    "rather": 5430,
    "Ġshouting": 10524,
    "acy": 3953,
    "Ġchiselled": 25560,
    "Â·": 21152,
    "Ġroy": 4226,
    "Ġharbors": 24902,
    "Ġprojects": 9513,
    "important": 7114,
    "Ġsensible": 4975,
    "Ġdesmarest": 22980,
    "berries": 22753,
    "Ġsleepless": 14582,
    "Ġelevation": 14899,
    "Ġadmirers": 19689,
    "deceiving": 22149,
    "gin": 4930,
    "Ġdouble": 4939,
    "pered": 4196,
    "Ġenthusiastic": 19969,
    "apter": 1194,
    "sales": 17668,
    "Ġilluminating": 25246,
    "killed": 15379,
    "humiliation": 24024,
    "ther": 481,
    "supernatural": 19782,
    "Ġserved": 8247,
    "expl": 9285,
    "Ġevanesc": 24295,
    "spades": 14334,
    "Ġdirections": 1970,
    "Ġanticipatingly": 26103,
    "plate": 18208,
    "hopeless": 16918,
    "Ġtone": 4035,
    "usations": 15950,
    "generous": 16569,
    "sex": 12718,
    "actions": 8909,
    "Ġjust": 1240,
    "foolish": 12350,
    "Ġunsavory": 20709,
    "Ġrenegades": 26477,
    "humored": 19456,
    "neglected": 25670,
    "Ġgrego": 18962,
    "otted": 14026,
    "Ġsab": 10763,
    "oke": 1861,
    "Ġlandlessness": 23383,
    "short": 6568,
    "Ġmaintained": 12939,
    "ur": 326,
    "hastened": 16846,
    "Ġig": 3500,
    "Ġstriding": 16092,
    "Ġbunch": 11327,
    "flutterings": 26607,
    "Ġindefinitely": 25222,
    "Ġbearing": 5300,
    "Ġsickbed": 24248,
    "Ġunsur": 22025,
    "whip": 22242,
    "iii": 14779,
    "ĠĠĠĠĠĠĠĠĠĠĠĠĠĠĠĠ": 1221,
    "fitted": 17545,
    "probable": 17022,
    "worthy": 7734,
    "smoking": 23914,
    "Ġoutput": 929,
    "Ġtechnical": 17193,
    "aly": 1049,
    "Ġbingley": 1675,
    "Ġreaches": 18034,
    "Ġcracking": 14574,
    "?âĢĿ": 700,
    "Ġimplicate": 24876,
    "example": 16016,
    "Ġbasement": 24701,
    "gratitude": 16817,
    "buckets": 26124,
    "Ġthy": 2511,
    "Ġrapture": 13497,
    "miniature": 16766,
    "Ġwrecks": 16819,
    "rest": 1634,
    "Ġhearse": 10421,
    "Ġgame": 3629,
    "Ġinconsistency": 26184,
    "Ġascribe": 16783,
    "Ġintently": 8170,
    "icult": 3342,
    "life": 4932,
    "Ġrespected": 11956,
    "Ġpolluted": 25594,
    "beg": 22491,
    "Ġpenn": 11113,
    "hatchet": 24819,
    "difficulty": 12393,
    "Ġabominable": 12325,
    "Ġtranscend": 25668,
    "Ġbeneficial": 23934,
    "detained": 24381,
    "Ġsecond": 1884,
    "Ġoperated": 14547,
    "Ġindications": 14633,
    "Ġbestirred": 20454,
    "Ġdefy": 11900,
    "Ģ": 227,
    "escript": 18471,
    "mn": 3577,
    "an": 278,
    "50": 6785,
    "://": 11466,
    "bbed": 6911,
    "Ġsighed": 10339,
    "Ġformal": 2940,
    "Ġdejection": 15199,
    "Ġbigger": 19764,
    "Ġjumped": 7098,
    "Ġlantern": 7118,
    "Ġdances": 10813,
    "Ġneuron": 1810,
    "Ġrepaired": 13110,
    "Ġsides": 4577,
    "unguarded": 23671,
    "originally": 24940,
    "icking": 8913,
    "pect": 1253,
    "Ġprairies": 20024,
    "Ġvillages": 14750,
    "Ġsurviv": 13437,
    "Ġfollowed": 1796,
    "agree": 14069,
    "Ġgibraltar": 25788,
    "itatingly": 25278,
    "Ġpaddles": 15150,
    "Ġdelirium": 10406,
    "Ġmountains": 4425,
    "Ġgave": 2217,
    "Ġgum": 21599,
    "Ġferguson": 17471,
    "disagreeable": 11164,
    "Ġrevol": 5536,
    "handled": 19263,
    "aceti": 7113,
    "Ġsell": 7826,
    "Ġseedy": 21960,
    ":": 30,
    "Ġpry": 11602,
    "Ġresolute": 19247,
    "Ġneglected": 10379,
    "Ġregard": 3064,
    "Ġ54": 24317,
    "Ġpledge": 11603,
    "Ġthought": 1096,
    "hand": 2757,
    "ckery": 22100,
    "Ġidea": 2485,
    "Ġlacepede": 20498,
    "gain": 8740,
    "Ġthirt": 13941,
    "Ġflank": 8230,
    "Ġmedit": 8026,
    "_,âĢĻ": 12436,
    "Ġav": 3582,
    "Ġgale": 5823,
    "Ġuttered": 7280,
    "Ġdumplings": 15193,
    "suspect": 9542,
    "Ġweighted": 2091,
    "Ġflashed": 11917,
    "ular": 713,
    "Ġinsolent": 13602,
    "Ġmeanness": 22603,
    "Ġdeterminate": 23008,
    "Ġhackney": 20436,
    "Ġsuperstition": 15058,
    "Ġtom": 15636,
    "Ġmoon": 4606,
    "mm": 674,
    "Ġstreams": 12196,
    "disapprobation": 19159,
    "dred": 2525,
    "Ġshake": 6036,
    "Ġbanker": 8670,
    "rages": 15684,
    "Ġdollar": 25284,
    "Ġwrap": 24596,
    "cannot": 5745,
    "Ġadmir": 12024,
    "gul": 12469,
    "Ġcomple": 2839,
    "heredit": 21212,
    "Ġscarcity": 23830,
    "Ġmere": 2714,
    "Ġleaf": 15726,
    "irably": 13298,
    "Ġportent": 12085,
    "apside": 22966,
    "Ġembodied": 25848,
    "Ġfeast": 10279,
    "shiver": 16026,
    "avenue": 25060,
    "Ġoozy": 21330,
    "ü": 189,
    "iana": 7050,
    "gradient": 2273,
    "Ġ64": 24366,
    "glanced": 19369,
    "Ġlethar": 21751,
    "happ": 3099,
    "smiles": 14694,
    "Ġloves": 10916,
    "umes": 10918,
    "Ġseethings": 26504,
    "Ġpoor": 1706,
    "wishes": 13809,
    "Ġsinew": 25432,
    "bank": 10081,
    "go": 2063,
    "Ġplants": 22605,
    "Ġrepaid": 19082,
    "Ġstopping": 2749,
    "conced": 22473,
    "signed": 21064,
    "Ġassisted": 11111,
    "othic": 16218,
    "trip": 21094,
    "Ġ131": 24781,
    "Ġabundance": 17157,
    "od": 351,
    "Ġpreced": 6042,
    "Ġfer": 5623,
    "Ġenlarge": 21940,
    "Ġacquiesce": 20332,
    "Ġcontentment": 14872,
    "Ġswells": 9829,
    "Ġfrancis": 26064,
    "Ġsensitive": 13199,
    "Į": 239,
    "Ġdying": 2137,
    ",âĢĻ": 2326,
    "S": 55,
    "Ġbeen": 626,
    "mured": 6960,
    "Ġperformer": 18758,
    "waiting": 12224,
    "Ġtheology": 21279,
    "Ġasp": 15784,
    "unks": 15778,
    "Ġexplaining": 15963,
    "Ġhasten": 10479,
    "Ġbead": 21755,
    "Ġpatience": 2596,
    "Ġsat": 1132,
    "vitality": 20482,
    "conjectures": 25181,
    "Ġlowerings": 23651,
    "Ġstrainings": 24629,
    "Ġcompanies": 14558,
    "will": 1968,
    "zag": 17714,
    "uttering": 12667,
    "akin": 11770,
    "resting": 23238,
    "Ġvisitor": 5331,
    "Ġdiffidence": 14660,
    "Ġmasses": 10505,
    "Ġagricultural": 26551,
    "Ġgloves": 8578,
    "ahit": 9384,
    "Ġpractised": 23328,
    "ease": 12461,
    "Ġsalutation": 12400,
    "Ġcomplete": 4380,
    "Ġcapsized": 20093,
    "iel": 11495,
    "special": 14707,
    "inence": 15483,
    "icles": 17975,
    "Ġspasmodically": 17316,
    "books": 8667,
    "Ġdeserved": 7738,
    "Ġassuring": 13067,
    "Ġscrut": 15948,
    "oons": 12502,
    "influences": 25251,
    "Ġsands": 14950,
    "Ġcommitting": 22677,
    "Ġfasc": 12603,
    "hands": 5969,
    "small": 6473,
    "Ġahoy": 12188,
    "Ġjeopardized": 20233,
    "lant": 20949,
    "Ġcoop": 14272,
    "oward": 6023,
    "country": 6105,
    "arian": 10317,
    "Ġsuspecting": 14912,
    "dering": 5307,
    "Ġgrunted": 16171,
    "Ġsomehow": 4842,
    "Ġwoman": 2384,
    "Ġinconvenient": 20013,
    "Ġshower": 11713,
    "Ġbook": 2703,
    "Ġwrites": 23202,
    "netherfield": 9815,
    "Ġaffections": 10386,
    "Ġah": 5075,
    "Ġscrutiny": 26016,
    "Ġfour": 2214,
    "Ġsolitary": 5856,
    "Ġincorporate": 20457,
    "Ġproficiency": 19194,
    "iliation": 10861,
    "Ġmercenary": 17195,
    "Ġidentifies": 12017,
    "Ġsuspects": 16891,
    "Ġdashing": 8799,
    "Ġheavier": 13105,
    "bweb": 20793,
    "Ġlogical": 14488,
    "Ġquart": 11790,
    "thanked": 24326,
    "Ġdesolated": 24809,
    "Ġspl": 2983,
    "Ġhed": 7387,
    "Ġhoofs": 14528,
    "appo": 3913,
    "Ġbrute": 8928,
    "Ġcounted": 12143,
    "Ġhermits": 22079,
    "Ġhardships": 14453,
    "Ġunhappily": 18263,
    "tro": 15435,
    "Ġautomation": 13231,
    "Ġonto": 14030,
    "Ġknitting": 24220,
    "Ġstanding": 2997,
    "hearth": 15501,
    "Ġ69": 19664,
    "settled": 10508,
    "piece": 6658,
    "Ġboards": 14302,
    "itime": 15551,
    "gument": 20887,
    "iforn": 14066,
    "ension": 6571,
    "Ġdiminish": 14747,
    "Ġdrunk": 9426,
    "Ġslipping": 13363,
    "Ġrudeness": 17126,
    "¶": 119,
    "cure": 11475,
    "Ġengland": 3856,
    "Ġmeet": 2805,
    "riers": 18187,
    "remote": 23194,
    "Ġsentiments": 7963,
    "Ġsilent": 3411,
    "Ġinboard": 17935,
    "aves": 3599,
    "part": 2572,
    "Ġnoiseless": 10358,
    "embarrassed": 20667,
    "Ġstreets": 5865,
    "Ġrelieve": 8225,
    "bone": 5611,
    "Ġcav": 13882,
    "blazing": 24131,
    "Ġmyself": 1454,
    "cheeked": 19342,
    "watching": 16931,
    "sided": 17665,
    "Ġslowly": 3619,
    "quiet": 6156,
    "Ġblade": 11896,
    "Ġscraps": 16903,
    "successively": 24778,
    "bishop": 13697,
    "Ġfuss": 13907,
    "youth": 11878,
    "orting": 9737,
    "Ġprobably": 4312,
    "Ġgild": 15672,
    "igning": 12685,
    "ength": 2311,
    "Ġwhenever": 5166,
    "Ġxavier": 2853,
    "pride": 11211,
    "ades": 5631,
    "Ġcowards": 12578,
    "Ġyea": 8918,
    "ertips": 23642,
    "attacked": 23127,
    "tps": 11536,
    "Ġbelonged": 6922,
    "idirection": 2410,
    "pate": 21012,
    "Ġrucastles": 18722,
    "acceptance": 25186,
    "Ġabased": 22273,
    "ĠĠĠĠĠĠĠĠĠĠĠĠĠĠĠĠĠĠĠĠĠĠĠĠĠĠĠĠĠĠĠĠĠĠ": 14615,
    "Ġenvy": 13207,
    "fer": 1916,
    "Ġlabourers": 23336,
    "Ġsecondary": 23337,
    "Ġbraz": 19361,
    "Ġdispositions": 13236,
    "Ġshol": 22000,
    "snapping": 24850,
    "Ġwindlass": 7255,
    "etuous": 21587,
    "Ġmarling": 23037,
    "dra": 3413,
    "iot": 9602,
    "anx": 8787,
    "Ġfever": 6560,
    "anted": 5026,
    "Ġcrowded": 8013,
    "Ġrobots": 11080,
    "Ġlieu": 19567,
    "scap": 22994,
    "Ġgrammar": 1063,
    "Ġfigures": 8633,
    "Ġwhale": 627,
    "brimmed": 14589,
    "Ġpossessed": 5195,
    "Ġinconceivable": 17940,
    "Ġdeepest": 8216,
    "Ġrequesting": 24634,
    "Ġchasing": 11757,
    "extinguish": 22773,
    "Ġbir": 17855,
    "constable": 24607,
    "scornful": 26576,
    "Ġevents": 4471,
    "Ġremain": 1875,
    "Ġprevent": 758,
    "Ġflapp": 23014,
    "ieved": 3226,
    "Ġfold": 5530,
    "Ġpump": 12626,
    "Ġnois": 4266,
    "separ": 9232,
    "enjoy": 10775,
    "er": 269,
    "Ġpinioned": 21487,
    "Ġimpediments": 26242,
    "dragged": 16609,
    "ason": 1251,
    "satisf": 5781,
    "Ġmutter": 23957,
    "Ġagreeable": 4550,
    "Ġeavesdroppers": 25964,
    "Ġquoted": 22420,
    "Ġfunction": 590,
    "Ġrivers": 9444,
    "smiled": 16615,
    "Ġacquiescence": 20333,
    "immed": 9219,
    "philosophers": 25253,
    "Ġappend": 18357,
    "post": 6064,
    "Ġmourning": 13480,
    "Ġpreliminaries": 25177,
    "berg": 11867,
    "Ġupp": 13994,
    "Ġburnwell": 13270,
    "Ġphiladel": 23888,
    "Ġstrang": 4157,
    "repaid": 24490,
    "pervised": 1625,
    "Ġset": 1174,
    "'t": 3139,
    "maid": 8556,
    "Ġjeopardy": 13598,
    "asters": 8436,
    "Ġwhaleman": 4654,
    "Ġsibbald": 21233,
    "Ġheat": 5453,
    "mark": 5282,
    "Ġsegment": 12762,
    "remem": 13070,
    "------": 12137,
    "Ġglo": 1713,
    "Ġstretched": 5922,
    "Ġkrem": 9728,
    "Ġafforded": 8030,
    "itor": 12570,
    "Ġparsee": 6414,
    "Ġintrepidity": 25551,
    "Ġalabama": 14021,
    "ĠĠĠĠĠĠĠ": 7633,
    "Ġyounger": 5253,
    "fow": 20855,
    "þ": 191,
    "Ġdinn": 23984,
    "Ġprecious": 5760,
    "Ġbusily": 9386,
    "culine": 19065,
    "Ġchallenges": 13632,
    "Ġspending": 10924,
    "Ġprejudice": 9077,
    "Ġimposing": 11784,
    "Ġslop": 23167,
    "Ġfreighted": 16326,
    "entirely": 7783,
    "boats": 6206,
    "Ġproperties": 3113,
    "Ġhairy": 23868,
    "blog": 19842,
    "ĠâĢĻ": 3040,
    "clo": 5612,
    "sense": 11525,
    "oarsman": 25262,
    "Ġtresses": 21178,
    "f": 74,
    "zy": 2671,
    "Ġcommentaries": 20163,
    "Ġtil": 12528,
    "lass": 5995,
    "Ġimpaling": 22388,
    "Ġbags": 24536,
    "convenient": 12241,
    "urons": 3126,
    "ó": 180,
    "Ġaway": 1243,
    "wind": 4251,
    "Ġmonogra": 22981,
    "apan": 6860,
    "Ġtrick": 7020,
    "Ġminiatures": 20324,
    "Ġunpleasing": 22058,
    "emic": 18182,
    "Ġfounded": 8561,
    "Ġmaze": 23834,
    "Ġprisoner": 8676,
    "elag": 12663,
    "promontory": 24727,
    "Ġveneration": 25047,
    "Ġintercourse": 10999,
    "Ġpostpone": 17309,
    "Ġoptim": 781,
    "lording": 24053,
    "Ġdemoniacal": 20559,
    "younger": 11313,
    "Ġdisputes": 25826,
    "Ġrambled": 20171,
    "Ġbennett": 16327,
    "Ġasse": 8161,
    "Ġpresence": 5030,
    "Ġwield": 21293,
    "Ġbountiful": 25945,
    "Ġfruitless": 25606,
    "Ġcoward": 7156,
    "Ġreasonable": 7252,
    "suit": 18639,
    "Ġfad": 17878,
    "driven": 19774,
    "Ġincivility": 18573,
    "okingly": 22383,
    "Ġqueer": 4477,
    "Ġexpiration": 22627,
    "Ġlye": 21555,
    "Ġbob": 22639,
    "Ġdischarged": 15223,
    "done": 6501,
    "formal": 14169,
    "Ġcupidity": 24534,
    "Ġ37": 24079,
    "Ġcyn": 13888,
    "entering": 17979,
    "Ġberyl": 20493,
    "Ġa": 263,
    "Ġextravag": 11253,
    "penny": 22949,
    "sharp": 10308,
    "Ġcorrupt": 11926,
    "Ġplaned": 24058,
    "Ġmethodology": 2223,
    "Ġunnearable": 26517,
    "Ġunintellig": 22029,
    "Ġbows": 4080,
    "Ġspangled": 22140,
    "Ġgradual": 20604,
    "Ġgreenhorn": 23771,
    "accepted": 20139,
    "Ġforming": 7044,
    "Ġresign": 18565,
    "cro": 13699,
    "Ġalexander": 17426,
    "fashioned": 9572,
    "Ġparm": 15880,
    "Ġpalmy": 19502,
    "Ġfacilitate": 26099,
    "Ġserenely": 13508,
    "politeness": 16907,
    "Ġmotive": 6093,
    "Ġparts": 4161,
    "Ġmask": 1867,
    "99": 1897,
    "Ġrake": 18644,
    "Ġbeach": 6543,
    "Ġswallows": 18884,
    "Ġpoem": 22593,
    "Ġhuggins": 24826,
    "Ġwhel": 15869,
    "eel": 11485,
    "Ġslight": 3114,
    "mosphere": 10045,
    "sil": 5283,
    "Ġpicking": 11259,
    "Ġparc": 10921,
    "Ġmalice": 7153,
    "ub": 1227,
    "cence": 9590,
    "Ġnarrower": 24353,
    "Ġdictated": 25219,
    "Ġimpressions": 9555,
    "expound": 23665,
    "Ġforgot": 4683,
    "Ġemblaz": 16232,
    "Ġcomfortably": 16616,
    "Ġsherry": 19454,
    "Ġclumsy": 9581,
    "Ġdropping": 7484,
    "Ġ68": 24369,
    "natural": 2287,
    "Ġaye": 3353,
    "oh": 1579,
    "Ġacquired": 13047,
    "corrid": 24483,
    ",--": 2475,
    "Ġinvoking": 19147,
    "ory": 1082,
    "Ġ16": 7928,
    "Ġfielding": 16233,
    "Ġcaged": 21355,
    "belt": 24038,
    "Ġmonosy": 18847,
    "Ġcoil": 11821,
    "Ġinaccessible": 13936,
    "Ġtrained": 8504,
    "examination": 25479,
    "Ġbeliever": 25847,
    "Ġsallied": 12541,
    "flukes": 25206,
    "avoiding": 25237,
    "Ġbleeding": 14882,
    "Ġfitzwilliam": 5771,
    "hib": 15370,
    "Ġacceptance": 14829,
    ":âĢĶâĢĺ": 24195,
    "cannibals": 25585,
    "Ġregret": 5560,
    "sle": 9140,
    "Ġgrotes": 19566,
    "dri": 5890,
    "kilt": 4866,
    "aut": 1912,
    "Ġfidgeted": 25890,
    "Ġhal": 1363,
    "Ġinspection": 14544,
    "Ġreference": 2564,
    "Ġboughs": 20492,
    "Ġbash": 12591,
    "Ġchronicled": 25329,
    "Ġdeck": 2139,
    "Ġpleasurable": 23344,
    "Ġmatters": 4972,
    "Ġpile": 8426,
    "Ġtelegraph": 25584,
    "Ġtriumph": 5143,
    "Ġservant": 5764,
    "security": 26208,
    "message": 17374,
    "Ġdoctrine": 24199,
    "evinced": 19928,
    "Ġblueprints": 13173,
    "consum": 12876,
    "sworn": 24258,
    "ader": 14014,
    "Ġbroadway": 23987,
    "Ġuncomfortable": 8488,
    "soever": 11862,
    "ip": 555,
    "Ġacres": 14315,
    "ouement": 21452,
    "itself": 7835,
    "Ġutilize": 4798,
    "Ġsending": 8779,
    "returning": 12209,
    "Ġcrystall": 20229,
    "conviction": 19968,
    "increased": 20273,
    "Ġpainted": 7979,
    "Ġfrankenstein": 7097,
    "Ġcomposedly": 25184,
    "Ġsnail": 19301,
    "stop": 11636,
    "Ġprimal": 17107,
    "suitable": 18640,
    "buck": 17492,
    "embow": 21934,
    "abiding": 21798,
    "iors": 9127,
    "Ġspaulding": 11734,
    "Ġbrows": 13303,
    "av": 740,
    "vessels": 10627,
    "Ġdrive": 5054,
    "ishment": 3505,
    "iment": 2816,
    "Ġunguarded": 15853,
    "Ġaudits": 24769,
    "Ġpy": 21455,
    "sixteen": 24854,
    "pane": 10122,
    "Ġhump": 5855,
    "Ġrecogn": 2767,
    "Ġerad": 25031,
    "Ġcyl": 15560,
    "Ġbul": 3292,
    "north": 14617,
    "vial": 17698,
    "count": 4211,
    "Ġobey": 9521,
    "Ġbowels": 9432,
    "nant": 17610,
    "Ġfreckled": 18960,
    "Ġseating": 18200,
    "esteemed": 26010,
    "re": 266,
    "Ġremembered": 5277,
    "Ġundertaking": 8577,
    "Ġunperceived": 22040,
    "istence": 2520,
    "Ġsufficiently": 8975,
    "Ġconsist": 1934,
    "arranging": 19320,
    "Ġphilips": 5410,
    "lizzy": 6654,
    "isbury": 21380,
    "Ġconvinced": 4204,
    "ible": 1115,
    "repent": 15515,
    "Ġegotistical": 26193,
    "Ġlucas": 3832,
    "Ġsinners": 18952,
    "Ġpresented": 5183,
    "Ġaudience": 24768,
    "ricity": 23068,
    "retrospect": 23146,
    "eps": 12796,
    "Ġforg": 3787,
    "Ġfidel": 12601,
    "Ġallusion": 7627,
    "aunted": 20772,
    "Ġgnawed": 25168,
    "Ġinfluenced": 19635,
    "compose": 24035,
    "onet": 12549,
    "Ġhunting": 7259,
    "Ġprepared": 5879,
    "Ġtuck": 10142,
    "Ġeduc": 4785,
    "Ġofficers": 4424,
    "friendly": 13287,
    "Ġmanners": 3790,
    "Ġneutral": 12749,
    "orial": 8419,
    "Ġ-": 1945,
    "Ġscar": 3208,
    "Ġrest": 1785,
    "Ġdetail": 635,
    "Ġclinched": 17396,
    "Ġwarrior": 24495,
    "Ġperplexed": 23663,
    "Ġincorpor": 13167,
    "journey": 8748,
    "iminished": 19028,
    "Ġremarkably": 7704,
    "fered": 5559,
    "Ġsnap": 11201,
    "oppressed": 24821,
    "Ġchin": 4891,
    "tend": 17675,
    "Ġstrife": 18615,
    "sust": 15424,
    "Ġmediocr": 24140,
    "Ġcrossing": 7253,
    "Ġdim": 4757,
    "Ġpillar": 21477,
    "aph": 10955,
    "Ġclassifies": 11843,
    "Ġrecently": 11864,
    "Ġsnoring": 23743,
    "Ġeul": 21624,
    "whel": 7667,
    "Ġcorp": 5573,
    "plendent": 21969,
    "Ġframework": 1961,
    "Ġcrash": 12004,
    "Ġembellish": 25849,
    "Ġgarb": 21607,
    "hid": 13736,
    "ashions": 16420,
    "ead": 2599,
    "Ġcontains": 2794,
    "reigned": 21245,
    "acca": 23599,
    "Ġshooting": 11163,
    "asting": 12811,
    "Ġhussey": 7726,
    "Ġingrat": 16841,
    "violence": 16479,
    "Ġoffending": 22745,
    "Ġroused": 7624,
    "Ġgallop": 19558,
    "Ġmoderation": 12825,
    "Ġincompetent": 25680,
    "insula": 23071,
    "grateful": 10429,
    "Ġroared": 7025,
    "Ġincor": 2609,
    "Ġpyramids": 15117,
    "Ġslacked": 25189,
    "bering": 18695,
    "Ġincreas": 1692,
    "Ġunusually": 15849,
    "itzerland": 9997,
    "eteenth": 20160,
    "relatively": 24017,
    "Ġmurmured": 7481,
    "Ġ**": 4720,
    "Ġfain": 5809,
    "icit": 3378,
    "flowing": 14583,
    "Ġmagistrate": 8235,
    "rope": 3179,
    "Ġremove": 7500,
    "Ġomitted": 12568,
    "Ġbenjam": 22895,
    "creature": 5347,
    "Ġintimidated": 24802,
    "Ġgur": 21596,
    "urred": 8451,
    "summer": 11996,
    "Ġcleat": 18949,
    "Ġmari": 6814,
    "accursed": 20543,
    "rix": 1576,
    "aud": 8524,
    "better": 7121,
    "intellig": 5321,
    "athies": 22706,
    "Ġhesitate": 16947,
    "naturedly": 24841,
    "affair": 14656,
    "Ġforgo": 21778,
    "Ġconfidently": 24960,
    "find": 6954,
    "Ġ89": 19715,
    "Ġguardians": 14945,
    "ere": 6790,
    "Ġinstructive": 19287,
    "Ġagitates": 22522,
    "Ġmicha": 17813,
    "Ġrom": 4523,
    "riage": 2124,
    "Ġpassage": 3883,
    "pat": 10118,
    "tiger": 13799,
    "Ġsavann": 14685,
    "ities": 1829,
    "Ġindifference": 6727,
    "posted": 24637,
    "Ġneedles": 11185,
    "Ġroads": 13291,
    "Ġsquat": 14369,
    "Ġsymph": 22213,
    "Ġconcentric": 20078,
    "Ġelev": 5535,
    "Ġinclu": 1101,
    "tossed": 10997,
    "impotence": 23764,
    "Ġcircular": 13113,
    "thoroughly": 26509,
    "Ġhollowly": 24525,
    "Ġfishe": 15589,
    "Ġcompasses": 11268,
    "Ġdiabolical": 20345,
    "Ġgrammatical": 13540,
    "Ġjoint": 12037,
    "Ġmultiplication": 2870,
    "Ġsolemnisation": 24113,
    "Ġhammered": 13243,
    "created": 12454,
    "Ġbarrel": 23794,
    "Ġbase": 5012,
    "Ġunra": 18238,
    "Ġsed": 10762,
    "Ġencirc": 18731,
    "Ġhighway": 14350,
    "schoolmaster": 15164,
    "Ġflashing": 13031,
    "mature": 20969,
    "ificent": 8185,
    "Ġgayer": 24497,
    "gentle": 5357,
    "Ġaccess": 9749,
    "Ġattendant": 11286,
    "Ġmutilated": 23962,
    "Ġtanning": 17730,
    "Ġredness": 19313,
    "uend": 21104,
    "Ġsustain": 10019,
    "Ġtantamount": 25626,
    "adr": 6995,
    "arious": 10318,
    "Ġperdition": 15995,
    "Ġunmolested": 15248,
    "Ġrebell": 21673,
    "Ġtreacherously": 25132,
    "Ġears": 4489,
    "cooee": 12421,
    "edmund": 17948,
    "Ġrece": 11640,
    "plexy": 18576,
    "Ġfluctuations": 5516,
    "ually": 2772,
    "seeing": 7080,
    "Ġexposing": 11835,
    "Ġrejoice": 10210,
    "dangerous": 20243,
    "asons": 6017,
    "angle": 22108,
    "maul": 11895,
    "Ġsyn": 15915,
    "ff": 462,
    "Ġcurvature": 3574,
    "finding": 17014,
    "Ġinstance": 2544,
    "ivided": 22091,
    "Ġcheering": 11134,
    "Ġchase": 3943,
    "precious": 12076,
    "Ġdanish": 21435,
    "Ġsoftness": 18919,
    "Ġyelling": 18099,
    "cruet": 17027,
    "frost": 15109,
    "Ġdrought": 19280,
    "Ġapprehension": 7115,
    "Ġsurveying": 25326,
    "Ġ76": 24264,
    "meaning": 2906,
    "ulnerable": 18153,
    "Ġrudder": 25110,
    "Ġlouisa": 13547,
    "ĠĠĠĠĠĠĠĠĠĠĠĠĠĠĠĠĠĠĠĠĠĠĠĠĠĠ": 13390,
    "Ġiterate": 13201,
    "Ġprovinc": 16743,
    "Ġpron": 6452,
    "Ġdefines": 1742,
    "ichever": 13959,
    "ets": 1160,
    "Ġheathen": 10567,
    "Ġunclad": 22057,
    "Ġjollies": 20373,
    "Ġdus": 8425,
    "Ġprophes": 16351,
    "dock": 16421,
    "Ġdemeanour": 17339,
    "seems": 10876,
    "Ġascertained": 25297,
    "Ġtol": 6677,
    "Ġbirch": 26175,
    "fering": 17543,
    "Ġrecord": 5317,
    "glad": 9010,
    "sterdam": 19092,
    "cra": 6356,
    "Ġcondescending": 24869,
    "benefact": 24642,
    "Ġfeet": 2258,
    "wilful": 25152,
    "Ġforbe": 8459,
    "Ġcabin": 3302,
    "Ġstings": 21739,
    "Ġseparated": 9466,
    "urs": 6990,
    "Ġfurrow": 22817,
    "Ġmalicious": 10559,
    "Ġfear": 2275,
    "Ġtwit": 12934,
    "Ġblocked": 19225,
    "flagged": 23975,
    "Ġimprisonment": 22392,
    "Ġpanthe": 19656,
    "Ġcommands": 16590,
    "strang": 11184,
    "Ġjunks": 25116,
    "Ġdisclose": 16159,
    "Ġparacelsus": 15269,
    "Ġpapered": 20134,
    "Ġpeasant": 13553,
    "ener": 565,
    "next": 5894,
    "Ġigniting": 25073,
    "Ġextras": 22740,
    "Ġfulfilled": 11363,
    "umbled": 8495,
    "Ġshyness": 20309,
    "ustry": 18360,
    "Ġmake": 1283,
    "Ġimprec": 14218,
    "Ġwrite": 3821,
    "Ġimmutable": 17360,
    "Ġcompared": 2229,
    "Ġmich": 21308,
    "Ġsymphony": 26533,
    "Ġviewing": 19266,
    "Ġheedfully": 24520,
    "Ġplaid": 22607,
    "Ġcomposition": 1686,
    "stem": 562,
    "Ġbreak": 2867,
    "itted": 2439,
    "Ġmonsieur": 12424,
    "Ġdard": 21426,
    "Ġdepths": 4324,
    "Ġunass": 14116,
    "Ġhost": 7070,
    "wh": 508,
    "wheeler": 16190,
    "Ġpatched": 16361,
    "Ġbehaved": 13256,
    "listened": 15045,
    "Ġforging": 18096,
    "Ġresided": 11814,
    "Ġcultured": 25158,
    "Ġshadow": 5595,
    "favourable": 12267,
    "smith": 5669,
    "Ġclothed": 19609,
    "Ġesc": 2253,
    "Ġholidays": 22926,
    "Ġcowardice": 17032,
    "Ġpass": 1037,
    "Ġse": 401,
    "aught": 2681,
    "irksome": 18175,
    "mile": 17598,
    "Ġtinkling": 25213,
    "itaries": 21339,
    "nameless": 19905,
    "asburgh": 15650,
    "ii": 4011,
    "que": 1135,
    "Ġdiverse": 19211,
    "Ġcoun": 4176,
    "Ġanxiously": 8291,
    "ĠĠĠĠĠĠĠĠĠĠĠĠĠĠĠĠĠĠĠĠĠĠĠĠĠĠĠĠĠĠĠĠĠĠĠĠĠĠĠĠĠĠĠĠĠĠĠĠĠĠĠ": 20042,
    "Ġtrials": 16790,
    "Ġliberties": 19670,
    "Ġrepe": 3278,
    "Ġeu": 6391,
    "Ġicebergs": 23978,
    "Ġberth": 8683,
    "Ġcripp": 9655,
    "Ġsin": 1513,
    "pits": 15414,
    "Ġcontaining": 2232,
    "Ġgrimly": 17052,
    "igner": 21705,
    "Ġuncles": 23433,
    "Ġlived": 3987,
    "Ġhorrid": 8000,
    "motion": 17607,
    "uted": 7594,
    "Ġdie": 3960,
    "Ġsettee": 22925,
    "Ġheroines": 19754,
    "Ġblowing": 10486,
    "urch": 3990,
    "Ġxliv": 23411,
    "Ġlamps": 14794,
    "Ġlab": 1873,
    "height": 21208,
    "thes": 7391,
    "expectant": 24277,
    "sea": 4763,
    "Ġgesture": 11400,
    "Ġinh": 10825,
    "Ġconveys": 16856,
    "ledge": 1330,
    "otion": 4945,
    "Ġcreep": 22725,
    "Ġeccentric": 13651,
    "Ġeggs": 12345,
    "Ġwere": 556,
    "shut": 10981,
    "otic": 15748,
    "report": 13401,
    "lement": 10168,
    "aint": 2540,
    "obey": 11511,
    "Ġbegin": 3094,
    "Ġpoets": 11824,
    "Ġglare": 13020,
    "shutters": 20314,
    "oriously": 17876,
    "ricane": 16280,
    "Ġdeference": 10882,
    "both": 5785,
    "Ġcelebrated": 13596,
    "Ġoffences": 18692,
    "Ġincidentally": 16955,
    "Ġdisreputable": 22539,
    "Ġexpert": 18875,
    "laug": 10708,
    "Ġmother": 2068,
    "activation": 3227,
    "Ġdoubling": 23323,
    "lested": 14885,
    "Ġobservation": 6599,
    "Ġsaxon": 25469,
    "Ġfooting": 14484,
    "Ġdiff": 3110,
    "Ġregimentals": 19860,
    "Ġcomstock": 21856,
    "Ġbashee": 19851,
    "bear": 10316,
    "Ġjackal": 24241,
    "consc": 4841,
    "Ġbackward": 7656,
    "omely": 21663,
    "asserted": 22314,
    "Ġindic": 2885,
    "Ġconnex": 10667,
    "inctions": 17733,
    "Ġrout": 7402,
    "Ġcheese": 9379,
    "pede": 19932,
    "Ġcoachman": 15001,
    "Ġcost": 2504,
    "Ġtakings": 20575,
    "du": 605,
    "na": 13762,
    "mountains": 15183,
    "Ġflask": 3037,
    "Ġbear": 3658,
    "Ġannihilation": 15168,
    "nel": 11506,
    "Ġbrag": 23837,
    "]": 65,
    "Ġrheumatic": 20707,
    "Ġfetch": 7771,
    "Ġexpand": 9309,
    "Ġprofounder": 23570,
    "Ġregression": 4408,
    "cused": 15334,
    "Ķ": 247,
    "Ġsunlight": 13087,
    "tracks": 19649,
    "Ġmu": 17797,
    "Ġwrapped": 8343,
    "Ġadapted": 11044,
    "Ġsleepy": 8269,
    "Ġmurmur": 14590,
    "Ġalleghan": 25796,
    "Ġsake": 4089,
    "Ġexclamations": 11362,
    "Ġtries": 9152,
    "Ġwent": 1535,
    "Ġdatasets": 2387,
    "Ġminister": 18755,
    "Ġfe": 491,
    "omed": 13981,
    "Ġrecur": 1624,
    "wanderer": 25424,
    "luck": 5733,
    "Ļ": 252,
    "Ġfind": 1457,
    "help": 1478,
    "Ġsprout": 24090,
    "ribut": 816,
    "Ġgri": 17990,
    "Ġmumbling": 11576,
    "Ġhackluyt": 25656,
    "weight": 2938,
    "Ġcirc": 1984,
    "Ġpooh": 18604,
    "equally": 19901,
    "Ġrace": 5848,
    "ulence": 15769,
    "Ġspouts": 7731,
    "iquette": 26133,
    "related": 24015,
    "als": 2040,
    "clergyman": 20731,
    "Ġcontinuous": 1562,
    "Ġchances": 9265,
    "Ġrally": 21973,
    "Ġtendinous": 16932,
    "ids": 21768,
    "Ġunderwent": 23243,
    "Ġaffecting": 2321,
    "Ġcruel": 5121,
    "lamps": 25261,
    "oriental": 23723,
    "occasionally": 13522,
    "Ġspit": 22129,
    "yramid": 8369,
    "phenomenon": 17649,
    "Ġpaints": 23527,
    "Ġrumours": 24600,
    "chor": 6148,
    "Ġhilarity": 20300,
    "Ġcage": 17827,
    "Ġovercame": 9745,
    "ladies": 9531,
    "ccess": 3177,
    "cheeks": 23810,
    "Ġearnestness": 12129,
    "Ġinfant": 11963,
    "secondly": 16985,
    "Ġfacetious": 20587,
    "looking": 4029,
    "apple": 22845,
    "Ġice": 3604,
    "Ġfrogs": 23927,
    "Ġwardrobe": 17227,
    "account": 5330,
    "Ġremainder": 9860,
    "Ġpalpitated": 26086,
    "Ġwar": 5526,
    "Ġassumed": 9467,
    "Ġforest": 9873,
    "vii": 13150,
    "comprehensive": 20629,
    "Ġsevent": 18201,
    "Ġcharms": 11131,
    "laughing": 15182,
    "Ġairth": 23322,
    "Ġsubset": 9872,
    "male": 15391,
    "Ġinnocent": 4921,
    "blunder": 24129,
    "Ġreproachfully": 25252,
    "Ġoutside": 5553,
    "Ġwhich": 502,
    "ethe": 9678,
    "Ġinduced": 8674,
    "repe": 8780,
    "Ġgryphon": 4298,
    "comfortableness": 24524,
    "Ġfangs": 12602,
    "Ġcaulk": 25441,
    "Ġlouis": 8358,
    "Ġmarshalled": 25316,
    "anoke": 21364,
    "Ġqual": 6276,
    "barrel": 17061,
    "omon": 10209,
    "final": 19679,
    "Ġborrowed": 17231,
    "behold": 12882,
    "igger": 21704,
    "Ġfurnish": 9021,
    "Ġchinese": 14185,
    "cery": 20810,
    "Ġcomputers": 2646,
    "sig": 2873,
    "Ġinward": 11609,
    "Ġbreath": 4791,
    "Ġterm": 2266,
    "Ġparagraph": 17456,
    "assed": 6422,
    "Ġapril": 13664,
    "kine": 15378,
    "advice": 12161,
    "Ġstudent": 14480,
    "Ġrector": 21680,
    "passed": 8027,
    "Ġcorrid": 9826,
    "Ġintelligently": 4164,
    "lour": 15383,
    "Ġtang": 13816,
    "withstand": 23030,
    "its": 1150,
    "Ġfriendless": 23029,
    "ured": 1655,
    "meryton": 10113,
    "peculiarity": 23116,
    "mathemat": 19139,
    "Ġlooking": 2472,
    "Ġregretted": 13402,
    "question": 5418,
    "laugh": 10110,
    "Ġside": 1386,
    "Ġ1825": 25719,
    "ute": 4642,
    "orable": 8121,
    "Ġsomewhat": 4897,
    "âĢĶâĢĺ_": 24832,
    "imod": 15713,
    "dled": 9113,
    "Ġzer": 1097,
    "inquire": 16933,
    "Ġdanes": 25160,
    "Ġdere": 21839,
    "Ġ21": 11199,
    "chet": 13219,
    "Ġhatchway": 13526,
    "Ġdestroyed": 5272,
    "Ġarom": 15494,
    "ivot": 11721,
    "Ġsprinkled": 19500,
    "Ġrecourse": 22743,
    "Ġmosses": 20166,
    "grand": 7971,
    "table": 5795,
    "quarrel": 20018,
    "Ġrespects": 7269,
    "Ġbounce": 21396,
    "Ġoccur": 1084,
    "ad": 337,
    "Ġpeered": 18669,
    "eked": 16404,
    "indebted": 26159,
    "ict": 595,
    "Ġscaling": 3632,
    "because": 4923,
    "Ġrever": 6538,
    "Ġscaled": 2106,
    "Ġpeculiarly": 8288,
    "Ġgangway": 20161,
    "cordiality": 25140,
    "==": 945,
    "oud": 1942,
    "Ġropes": 10749,
    ".}": 20747,
    "walk": 5523,
    "Ą": 197,
    "Ġwrist": 8244,
    "erxes": 21278,
    "Ġrugged": 18721,
    "Ġbrains": 2630,
    "Ġendeared": 26499,
    "erated": 21273,
    "wor": 3415,
    "Ġmanager": 11772,
    "Ġnephew": 6406,
    "Ġceases": 19314,
    "paying": 25412,
    "Ġdoubtfully": 23479,
    "Ġcooped": 22587,
    "Ġmayhew": 12954,
    "Ġcongratulatory": 19770,
    "Ġdescrying": 18619,
    "underneath": 23791,
    "feelings": 5674,
    "Ġforgetfulness": 14607,
    "Ġdupl": 9956,
    "ind": 568,
    "Ġclearer": 16314,
    "Ġvaried": 11851,
    "cries": 17512,
    "Ġdr": 2824,
    "Ġclenched": 14209,
    "Ġdevilish": 11229,
    "ceive": 3060,
    "fanning": 20868,
    "Ġdestabilizing": 5052,
    "Ġvult": 12757,
    "myster": 16266,
    "Ġexcuse": 5863,
    "Ġlifelessly": 23052,
    "Ġthre": 2059,
    "ctu": 5088,
    "Ġattention": 1178,
    "Ġdevils": 7230,
    "mitting": 20975,
    "Ġanytime": 12890,
    "Ġattracted": 8907,
    "backward": 2684,
    "Ġdomin": 10461,
    "Ġjoyful": 13224,
    "Ġwa": 1755,
    "Ġconsciousness": 9950,
    "Ġvices": 14085,
    "Ġcon": 348,
    "Ġdec": 642,
    "Ġbehaves": 23305,
    "shazzar": 15292,
    "ickory": 22673,
    "distant": 13337,
    "toed": 18579,
    "Ġclue": 7022,
    "Ġconclude": 8584,
    "Ġgraph": 10903,
    "Ġbehind": 2808,
    "Ġreigning": 15704,
    "Ġcomplaints": 12268,
    "odious": 21815,
    "Ġcurric": 22987,
    "Ġaskance": 23155,
    "Ġstingy": 25456,
    "import": 5668,
    "Ġtahitian": 25428,
    "hard": 4689,
    "Ġreclining": 26034,
    "ĠĠĠĠĠĠĠĠĠĠ": 18578,
    "Ġdisgu": 8207,
    "sp": 895,
    "sisters": 13378,
    "Ġquaker": 10972,
    "Ġmccauley": 26428,
    "Ġfamine": 16330,
    "Ġlatitude": 8330,
    "istol": 6261,
    "Ġmason": 10159,
    "Ġcorporeal": 17362,
    "Ġslime": 23166,
    "enges": 13057,
    "Ġfinny": 23132,
    "Ġimaginative": 19249,
    "yonder": 21147,
    "touched": 15441,
    "Ġperfections": 23610,
    "Ġthreat": 5154,
    "Ġbee": 21754,
    "Ġheartfelt": 18967,
    "Ġsolve": 4195,
    "Ġfejee": 18355,
    "Ġpill": 7847,
    "Ġsolicit": 22892,
    "Ġslaughtered": 26585,
    "Ġknowing": 4455,
    "Ġbusks": 23343,
    "Ġmales": 17807,
    "Ġejaculated": 15172,
    "Ġintensely": 17018,
    "dro": 6647,
    "grieved": 17319,
    "stranded": 19228,
    "Ġvindictiveness": 25739,
    "Ġinvolves": 1046,
    "Ġsecret": 3720,
    "doubtful": 24790,
    "rices": 4557,
    "Ġpromotion": 23198,
    "Ġrevelation": 25223,
    "Ġbagging": 24538,
    "Ġpenalizing": 13094,
    "dispute": 23501,
    "Ġtarred": 23611,
    "Ġdelay": 5748,
    "Ġwaved": 9646,
    "vate": 21112,
    "doctor": 19097,
    "Ġflourished": 15128,
    "Ġgales": 12670,
    "Ġexpired": 18623,
    "Ġunfathom": 14792,
    "ister": 1294,
    "Ġus": 497,
    "Ġregained": 18593,
    "trowsers": 17692,
    "actory": 8910,
    "tell": 1380,
    "Ġbristol": 14382,
    "Ġowners": 7664,
    "gunpowder": 25340,
    "Ġmid": 2614,
    "Ġseven": 4540,
    "seventy": 10877,
    "must": 3578,
    "phur": 16152,
    "Ġstupendous": 20504,
    "Ġpolite": 9884,
    "Ġimplicit": 19961,
    "viv": 17699,
    "Ġrepenting": 25323,
    "oman": 2017,
    "Ġcaved": 21356,
    "upon": 2722,
    "mare": 17600,
    "Ġinvesting": 19644,
    "Ġresembles": 25970,
    "Ġdarts": 16769,
    "shape": 10983,
    "Ġdundee": 16998,
    "Ġautumnal": 19024,
    "Ġbarber": 23792,
    "Ġshoreless": 24296,
    "Ġwildly": 9416,
    "Ġpistols": 17331,
    "Ġjour": 11767,
    "\"]": 17472,
    "Ġstam": 18068,
    "Ġbroken": 3447,
    "imate": 4219,
    "Ġvillainous": 25134,
    "Ġthoroughfare": 16945,
    "ethics": 8880,
    "loud": 11502,
    "Ġwhere": 786,
    "coronet": 16864,
    "Ġliter": 8815,
    "narrow": 11509,
    "Ġflaming": 8567,
    "Ġgirdled": 19161,
    "orses": 6054,
    "lets": 7837,
    "fairly": 17221,
    "Ġmarrying": 6179,
    "Ġoverpowering": 15252,
    "Ġgoethe": 22427,
    "Ġpierced": 12285,
    "Ġabject": 18392,
    "pursu": 11393,
    "Ġend": 1474,
    "ago": 14067,
    "words": 7984,
    "thinking": 9016,
    "softened": 20413,
    "Ġtossings": 25357,
    "Ġquestions": 3970,
    "rily": 7623,
    "Ġshrouds": 11345,
    "mber": 5850,
    "Ġlashing": 11618,
    "upwards": 18865,
    "collected": 13215,
    "pulous": 15418,
    "someone": 14564,
    "Ġresponses": 23653,
    "Ġloading": 15877,
    "treasures": 26153,
    "?âĢĶ": 3467,
    "Ġencouraging": 2263,
    "Ġignorantly": 19498,
    "Ġbubble": 13536,
    "Ġslumber": 13063,
    "allers": 22202,
    "Ġvoids": 25808,
    "rank": 21044,
    "stache": 15692,
    "Ġswift": 3669,
    "Ġadie": 8491,
    "Ġdiffered": 22717,
    "Ġzoology": 22823,
    "Ġhaws": 21956,
    "Ġgoodly": 22824,
    "Ġmund": 21320,
    "Ġventil": 8020,
    "Ġcornelius": 13575,
    "Ġstaple": 26200,
    "Ġfunctions": 1342,
    "Ġsurely": 6309,
    "Ġelephant": 8257,
    "Ġmental": 21322,
    "came": 4568,
    "poling": 12223,
    "Ġpersuasion": 10500,
    "ĠĠĠĠĠĠĠĠĠĠĠĠĠĠĠĠĠĠĠĠĠĠĠĠĠĠĠĠĠĠĠĠĠ": 12045,
    "Ġtem": 804,
    "mospheric": 17091,
    "intern": 23739,
    "Ġundertone": 23244,
    "Ġcannibals": 10589,
    "Ġagency": 11809,
    "Ġscratching": 20372,
    "Ġjewell": 19523,
    "Ġseats": 14090,
    "Ġroyal": 5601,
    "dead": 8181,
    "Ġsubl": 7235,
    "Ġattic": 16100,
    "maker": 12496,
    "Ġpratt": 23221,
    "Ġeyford": 10643,
    "improve": 15715,
    "tern": 4221,
    "Ġquarrelling": 13500,
    "onness": 21257,
    "´": 117,
    "Ġschedule": 2370,
    "Ġcombing": 22874,
    "Ġports": 10819,
    "Ġim": 473,
    "Ġdispute": 16059,
    "Ġtick": 8110,
    "Ġtarts": 10754,
    "mong": 15392,
    "Ġgamesome": 17291,
    "Ġtower": 8320,
    "Ġgestures": 13537,
    ">": 34,
    "Ġeffusions": 18541,
    "Ġcarefully": 6306,
    "solely": 19819,
    "Ġextensive": 12948,
    "honey": 20907,
    "describe": 1514,
    "mon": 2307,
    "Ġumbrella": 15268,
    "obtain": 23098,
    "Ġwooden": 4729,
    "trade": 19647,
    "Ġcreat": 1452,
    "Ġstoner": 7179,
    "zor": 15460,
    "ometer": 19328,
    "Ġattack": 5478,
    "Ġhoops": 9390,
    "Ġab": 529,
    "peculiar": 6886,
    "iveness": 2464,
    "ais": 8072,
    "rely": 6125,
    "Ġalthough": 4147,
    "connected": 1309,
    "errand": 22914,
    "Ġoverall": 4356,
    "Ġtallow": 14782,
    "former": 11751,
    "Ġelevating": 19731,
    "fing": 13715,
    "arson": 22754,
    "Ġvul": 10249,
    "imely": 14000,
    "Ġhalloa": 13319,
    "Ġfish": 2711,
    "ĥ": 230,
    "Ġhyperborean": 26341,
    "title": 17289,
    "Ġsaf": 3998,
    "Ġinitials": 11015,
    "Ġshells": 20367,
    "Ġdev": 878,
    "Ġanimal": 2496,
    "esley": 17904,
    "Ġfootmen": 23800,
    "Ġplied": 22604,
    "rese": 15510,
    "user": 5105,
    "const": 5941,
    "Ġpractical": 3158,
    "Ġexcl": 3474,
    "loss": 22512,
    "Ġmichael": 20682,
    "slanting": 24557,
    "sartain": 25623,
    "let": 2733,
    "Ġstockings": 20000,
    "isc": 6241,
    "leather": 13892,
    "Ġperishing": 22402,
    "Ġskilful": 25838,
    "Ġdirection": 1795,
    "Ġmarching": 16697,
    "Ġdisasters": 16057,
    "Ġbenjamin": 26568,
    "ishmael": 18421,
    "Ġmoney": 3417,
    "richard": 17288,
    "intend": 16227,
    "itive": 6671,
    "oves": 15405,
    "Ġaverred": 18866,
    "Ġfinancier": 26584,
    "Ġcracks": 12022,
    "alescence": 15927,
    "requ": 7149,
    "uation": 17695,
    "Ġsupport": 6730,
    "Ġnewcomers": 26042,
    "Ġward": 10157,
    "Ġexcellent": 4235,
    "kered": 18275,
    "Ġtoad": 21514,
    "Ġlassitude": 20590,
    "Ġjug": 12840,
    "Ġspind": 18308,
    "Ġfoolscap": 24159,
    "Ġbud": 10170,
    "Ġsporty": 19892,
    "ipper": 13742,
    "Ġeagerness": 6610,
    "Ġoverflow": 10293,
    "dashed": 12459,
    "Ġard": 5164,
    "Ġvind": 10251,
    "complaisance": 24808,
    "Ġinclud": 1511,
    "gress": 2213,
    "Ġscuffle": 20611,
    "hyme": 19612,
    "quar": 7617,
    "Ġsharp": 2413,
    "Ġcompletely": 4860,
    "Ġundoing": 22038,
    "forced": 11032,
    "Ġhoriz": 4725,
    "Ġspoon": 22139,
    "nur": 11507,
    "parsee": 14514,
    "Ġdz": 4756,
    "fingers": 17372,
    "Ġemotion": 7692,
    "drifting": 19827,
    "Ġcomfortable": 6097,
    "Ġcurving": 16242,
    "ective": 18177,
    "Ġassertion": 13491,
    "Ġglac": 9348,
    "Ġmornings": 16238,
    "Ġpersonally": 8602,
    "Ġassent": 12738,
    "Ġcircumnav": 12429,
    "Ġbenchmarks": 15023,
    "Ġconcer": 23324,
    "Ġvengeful": 14892,
    "Ġinfancy": 10410,
    "round": 3368,
    "Ġmechanical": 7938,
    "arched": 10816,
    "Ġhateful": 19716,
    "Ġsatin": 12991,
    "Ġlift": 8814,
    "Ġprecision": 13189,
    "Ġvers": 7564,
    "Ġrare": 7039,
    "Ġton": 15466,
    "Ġindel": 13007,
    "chari": 21693,
    "allic": 12818,
    "Ġupbraided": 26529,
    "adoes": 11662,
    "Ġsuperst": 7705,
    "Ġtomahawk": 7540,
    "Ġguided": 10462,
    "shining": 18487,
    "Ġafghan": 22633,
    "Ġclump": 15977,
    "Ġgain": 4828,
    "moil": 22709,
    "Ġclim": 8198,
    "ĠâĢľâĢĻ": 22259,
    "Ġbrow": 3985,
    "context": 3404,
    "narrated": 25622,
    "Ġeasiest": 23540,
    "Ġpattered": 19014,
    "Ġmcc": 21309,
    "Ġcolouring": 16752,
    "Ġconnection": 5479,
    "tomb": 21096,
    "Ġhumour": 7933,
    "hoist": 23716,
    "Ġmons": 10158,
    "nyder": 16686,
    "darker": 24512,
    "shipping": 10309,
    "izure": 21846,
    "centred": 25020,
    "Ġapt": 9157,
    "omical": 9684,
    "ism": 4874,
    "mell": 20966,
    "forward": 2187,
    "k": 79,
    "ofs": 11833,
    "Ġboom": 9312,
    "!--": 10679,
    "rist": 10124,
    "Ġsecurity": 8979,
    "Ġhulls": 13928,
    "osure": 5308,
    "problem": 25245,
    "Ġproject": 5545,
    "house": 4074,
    "iqu": 7804,
    "uttered": 8443,
    "ron": 5216,
    "Ġga": 4444,
    "Ġdep": 739,
    "accustomed": 13159,
    "Ġground": 2845,
    "Ġmarvel": 23038,
    "impression": 15714,
    "insisted": 23072,
    "leaped": 17845,
    "Ġcheap": 13092,
    "long": 2910,
    "Ġmockery": 12111,
    "Ġpersist": 16289,
    "Ġproceed": 3241,
    "Ġrough": 7187,
    "distinguished": 10528,
    "understanding": 1157,
    "mentioning": 24886,
    "Ġpassionate": 11274,
    "Ġtiar": 21170,
    "onist": 21253,
    "Ġdirectors": 18923,
    "Ġmeets": 7396,
    "Ġtop": 2469,
    "Ġmachine": 792,
    "Ġmilitia": 13320,
    "Ġebony": 18011,
    "weeks": 14318,
    "Ġbigot": 24565,
    "ition": 656,
    "Ġcoat": 4552,
    "latitudes": 17198,
    "Ġchambermaid": 24305,
    "Ġgroan": 13327,
    "crowd": 25255,
    "Ġloaf": 15875,
    "alous": 7372,
    "crier": 20822,
    "jacket": 12295,
    "estic": 4955,
    "ange": 1017,
    "scheme": 15257,
    "bud": 10685,
    "Ġ94": 17718,
    "Ġtin": 15465,
    "Ġflutter": 16253,
    "horizon": 23617,
    "Ġspoils": 24805,
    "Ġgenerator": 3382,
    "Ġtrades": 8233,
    "Ġthundering": 24292,
    "imperturbable": 25791,
    "Ġoccasionally": 5589,
    "Ġsword": 6734,
    "visit": 7756,
    "Ġweeping": 11689,
    "Ġnoteworthy": 24164,
    "ceptible": 10958,
    "Ġadapts": 3817,
    "Ġhoky": 17929,
    "Ġetc": 7086,
    "Ġextracts": 9367,
    "bright": 8991,
    "Ġaudacity": 19884,
    "keeper": 5596,
    "Ġendangered": 16305,
    "Ġtribe": 10752,
    "Ġmystery": 5509,
    "undertaking": 23790,
    "classes": 12139,
    "Ġsharing": 3476,
    "Ġperson": 2366,
    "Ġline": 1852,
    "G": 43,
    "Ġhats": 14620,
    "totally": 25418,
    "Ġappre": 5165,
    "mira": 20981,
    "Ġkeel": 6445,
    "Ġdiggings": 24650,
    "Ġteacher": 22915,
    "Ġdenny": 9003,
    "Ġseaward": 22951,
    "aste": 4599,
    "Ġaimed": 20253,
    "Ġsixth": 16560,
    "severe": 21823,
    "Ġapothe": 12378,
    "ittle": 812,
    "Ġequilib": 4133,
    "lifted": 15389,
    "Ġrobbery": 11915,
    "amplified": 26495,
    "dum": 17519,
    "mist": 5686,
    "Ġprime": 10405,
    "Ġrobert": 10971,
    "Ġsounds": 5190,
    "Ġegyptians": 25290,
    "Ġenabled": 9298,
    "crated": 16684,
    "Ġschoolboys": 24480,
    "Ġfolded": 7769,
    "Ġsteep": 2887,
    "bran": 23576,
    "ascending": 24706,
    "quently": 9704,
    "pie": 21013,
    "varieties": 23191,
    "Ġtransplanted": 22446,
    "sch": 21053,
    "Ġfaire": 13367,
    "stranger": 9885,
    "caves": 20818,
    "Ġwretchedness": 9028,
    "Ġsubsiding": 23436,
    "icirc": 15659,
    "Ġspine": 7407,
    "Ġsitu": 3494,
    "desk": 23812,
    "respond": 12548,
    "Ġprevention": 16095,
    "surely": 10571,
    "Ġaccurate": 13271,
    "Ġsteed": 13043,
    "Ġvacancy": 9046,
    "Ġrooted": 13171,
    "prob": 7071,
    "Ġlun": 7857,
    "Ġprofited": 19193,
    ".]": 15301,
    "Ġscheduling": 2347,
    "acceler": 23600,
    "subject": 6634,
    "Ġdisconsol": 18558,
    "destro": 13314,
    "_--": 20764,
    "Ġunjustly": 17128,
    "âĢĶ_": 3196,
    "Ġprogrammed": 11059,
    "Ġboot": 11841,
    "chiefly": 14848,
    "Ġpals": 13920,
    "Ġcode": 1721,
    "Ġsuspense": 9420,
    "Ġlets": 18079,
    "abomin": 15745,
    "Ġarrives": 23609,
    "Ġweaken": 21926,
    "Ġincreasingly": 9373,
    "Ġdisappearing": 22538,
    "Ġexhilarating": 26339,
    "searching": 25106,
    "Ġriding": 14096,
    "reve": 12543,
    "Ġindirect": 18837,
    "Ġgaieties": 24197,
    "Ġwhen": 514,
    "thorough": 21990,
    "Ġsweetest": 13250,
    "Ġthroat": 7772,
    "Ġnative": 4640,
    "Ġfals": 15584,
    "educated": 17261,
    "Ġmaternal": 11060,
    "Ġlifted": 6986,
    "ulation": 5458,
    "intercourse": 14639,
    "usal": 7640,
    "Ġsounding": 8266,
    "Ġlying": 4826,
    "Ġcircumstantial": 14644,
    "Ġused": 2060,
    "advantage": 8662,
    "epend": 3315,
    "Ġthereof": 22373,
    "Ġwallowing": 24046,
    "itty": 3555,
    "Ġshutters": 9939,
    "angular": 11726,
    "Ġchapel": 9525,
    "Ġwit": 3841,
    "Ġprevents": 2556,
    "iverse": 13118,
    "Ġsubs": 2131,
    "Ġcoquet": 22588,
    "Ġcomprehend": 6495,
    "heedful": 20576,
    "bles": 7019,
    "Ġexerting": 21838,
    "Ġsubst": 4272,
    "evade": 24817,
    "med": 1913,
    "Ġvishnoo": 12758,
    "dimens": 2315,
    "Ġchristian": 6480,
    "Ġlumps": 21560,
    "Ġpedest": 15068,
    "bruary": 15238,
    "Ġbackbones": 22665,
    "Ġexpressing": 12011,
    "atious": 10153,
    "Ġslow": 2377,
    "Ġgladness": 16592,
    "Ġkeenest": 12165,
    "telesc": 22820,
    "devil": 7897,
    "Ġirrespective": 23378,
    "Ġinsert": 19907,
    "po": 1140,
    "Ġjer": 6268,
    "Ġdeclined": 9923,
    "unctuous": 21887,
    "Ġaggreg": 12889,
    "wonders": 17145,
    "treat": 12517,
    "Ġconceive": 8463,
    "omination": 21666,
    "machine": 1009,
    "ying": 1368,
    "Ġpebbles": 16132,
    "Ġwaves": 3917,
    "Ġnovelist": 24776,
    "Ġcanall": 10929,
    "Ġimpl": 7194,
    "Ġbegg": 16258,
    "wondering": 19847,
    "reply": 19725,
    "ĩ": 234,
    "Ġlead": 3522,
    "carefully": 13371,
    "Ġskeleton": 5514,
    "Ġaffected": 5576,
    "Ġmorsel": 20680,
    "betrayed": 24641,
    "Ġbowlines": 19324,
    "declined": 25175,
    "inese": 12888,
    "ilities": 6992,
    "cooks": 25070,
    "ails": 6162,
    "Ġreap": 18029,
    "Ġlig": 21552,
    "Ġappeal": 16317,
    "Ġwoof": 14723,
    "Ġabsence": 4894,
    "Ġulster": 14998,
    "Ġticklish": 25037,
    "Ġabsurdities": 24879,
    "attered": 4015,
    "sleepy": 24728,
    "wickham": 5886,
    "ems": 5236,
    "sheet": 16287,
    "Ġjustly": 11907,
    "oran": 8792,
    "Ġbat": 10796,
    "Ġharpooneer": 3771,
    "Ġspeedy": 11173,
    "coff": 9111,
    "Ġchests": 19674,
    "....": 11317,
    "Ġmarble": 7671,
    "Ġalternating": 15032,
    "wit": 7818,
    "Ġprodu": 1206,
    "compan": 7301,
    "Ġconfed": 13100,
    "required": 17030,
    "Ġsupposition": 9819,
    "Ġadler": 8175,
    "Ġdraws": 19439,
    "Ġdegrees": 7294,
    "Ġjaws": 5592,
    "Ġunchanged": 22034,
    "Ġcrawled": 17044,
    "Ġsire": 15503,
    "Ġlivers": 18462,
    "endering": 21287,
    "Ġtransitory": 16023,
    "Ġpigs": 19750,
    "Ġirritated": 17243,
    "Ġdexterity": 25295,
    "Ġdedicated": 19203,
    "rudential": 16711,
    "eping": 5835,
    "Ġspam": 7632,
    "ceptive": 15968,
    "Ġfins": 9665,
    "Ġma": 3251,
    "ided": 2786,
    "Ġnum": 1350,
    "Ġheavens": 5049,
    "professional": 20278,
    "Ġoverthrown": 18426,
    "Ġdelicate": 6481,
    "Ġimmaculate": 19489,
    "uced": 13802,
    "supers": 22653,
    "hab": 1079,
    "asing": 5914,
    "grees": 20888,
    "Ġbizarre": 17873,
    "Ġupward": 9723,
    "Ġspaniards": 25556,
    "Ġassoc": 6403,
    "Ġway": 1087,
    "Ġclutches": 20021,
    "attempts": 17192,
    "glancing": 11215,
    "Ġdreaming": 11224,
    "Ġjudiciously": 23881,
    "sof": 17658,
    "Ġelopement": 10330,
    "running": 6798,
    "Ġprices": 15615,
    "aset": 10833,
    "Ġlandsc": 11147,
    "Ġgraces": 18226,
    "Ġlaugh": 4110,
    "broad": 8646,
    "oft": 3591,
    "ctic": 8444,
    "Ġstudy": 1811,
    "dread": 8732,
    "Ġcross": 1373,
    "Ġerie": 20057,
    "Ġhorrify": 23822,
    "Ġverily": 16604,
    "follows": 24527,
    "Ġcords": 14881,
    "Ġbefall": 8832,
    "Ġbutcher": 18272,
    "Ġhonourable": 10457,
    "Ġfreely": 7058,
    "greater": 13254,
    "there": 1426,
    "Ġsocket": 12789,
    "Ġtime": 691,
    "Ġbelt": 13006,
    "Ġawaken": 23588,
    "Ġfalls": 14645,
    "Ġautom": 3285,
    "Ġperplex": 2716,
    "Ġwarrant": 17796,
    "Ġdeductions": 19735,
    "imper": 13999,
    "Þ": 159,
    "Ġhag": 12630,
    "Ġamidst": 9496,
    "Ġpetticoat": 15298,
    "Ġoverpowered": 15291,
    "custom": 15335,
    "Ġlines": 4532,
    "Ġmanaged": 7908,
    "Ġrender": 8306,
    "Ġvol": 4188,
    "Ġforbid": 7867,
    "Ġmeasureless": 14712,
    "ple": 455,
    "Ġcome": 1241,
    "Ġrifled": 21981,
    "Ġassert": 7122,
    "za": 13812,
    "Ġyoun": 1411,
    "inite": 6004,
    "fell": 6953,
    "itioned": 22484,
    "Ġignited": 25072,
    "Ġcalifornia": 20533,
    "Ġabsolut": 3909,
    "mont": 19171,
    "thro": 12766,
    "bly": 6112,
    "Ġupbraiding": 26228,
    "ica": 10200,
    "Ġstreamed": 14546,
    "Ġweep": 7621,
    "ouraged": 22856,
    "cerem": 15681,
    "pleasure": 5980,
    "nt": 921,
    "sofa": 26147,
    "shake": 22450,
    "Ġtemper": 955,
    "Ġenglishmen": 19433,
    "Ġinfrequent": 3824,
    "vative": 1556,
    "Ġclass": 801,
    "should": 3260,
    "Ġsitting": 3605,
    "Ġyourself": 2592,
    "Ġregal": 16075,
    "Ġheaded": 11055,
    "Ġthat": 335,
    "whew": 22871,
    "certainly": 5340,
    "mrs": 3744,
    "Ġmidday": 23635,
    "Ġvibration": 17099,
    "among": 6258,
    "Ġiv": 4040,
    "Ġvertebra": 20184,
    "grounds": 11152,
    "Ġspecies": 5112,
    "mou": 10709,
    "Ġsingular": 4422,
    "tottenham": 25419,
    "Ġslyness": 25267,
    "int": 1200,
    "Ġkilled": 4954,
    "Ġarr": 1802,
    "cushion": 20823,
    "gon": 17553,
    "nlp": 8754,
    "Ġconcoct": 19047,
    "Ġ51": 24315,
    "terrible": 8468,
    ".)": 6784,
    "Ġcompress": 21854,
    "course": 6106,
    "conscientious": 19629,
    "Ġattentions": 5880,
    "moments": 19415,
    "Ġexpecting": 10437,
    "Ġbosoms": 16796,
    "tle": 2408,
    "hester": 9633,
    "draw": 23903,
    "fam": 5991,
    "Ġsuspic": 4469,
    "Ġsocially": 22084,
    "harbors": 20151,
    "Ġinvisibly": 24814,
    "ayed": 12717,
    "Ġdrawn": 4274,
    "Ġrashness": 25461,
    "Ġhol": 1182,
    "Ġyon": 9695,
    "Ġascendency": 20235,
    "Ġblend": 14401,
    "jerked": 25619,
    "Ġverses": 17064,
    "ech": 4387,
    "Ġ12": 5483,
    "Ġwest": 5219,
    "Ġstrides": 22618,
    "turkish": 24532,
    "Ġsiamese": 20486,
    "ĠĠĠĠĠĠĠĠĠĠĠĠĠĠĠĠĠĠĠĠĠĠĠĠĠĠĠĠĠĠĠĠĠĠĠĠĠĠ": 16527,
    "Ġtake": 1580,
    "unable": 14061,
    "answ": 15887,
    "Ġencamp": 22804,
    "Ġpreposterous": 13672,
    "pequod": 7054,
    "suited": 22652,
    "etw": 408,
    "Ġpersuaded": 5769,
    "gage": 13725,
    "Ġkins": 22199,
    "stump": 21651,
    "Ġbay": 9170,
    "remain": 9840,
    "Ġstarve": 24627,
    "'m": 9584,
    "decoder": 3645,
    "Ġhelm": 5276,
    "quitted": 21862,
    "Ġintrusion": 12770,
    "Ġcataract": 23430,
    "figure": 13557,
    "Ġcondemn": 13446,
    "Ġlongbourn": 3508,
    "Ġfusion": 21418,
    "Ġtechniques": 2866,
    "Ġawful": 6201,
    "Ġrecoil": 18691,
    "Ġcontinuously": 23209,
    "ginger": 13165,
    "Ġruins": 16161,
    "woman": 5901,
    "ú": 187,
    "Ġner": 1648,
    "contact": 23730,
    "Ġbroke": 5323,
    "Ġdecided": 5471,
    "ospel": 17011,
    "Ġisinglass": 21807,
    "Ġreconcile": 25292,
    "Ġobscured": 15012,
    "Ġbones": 4581,
    "Ġhapless": 15815,
    "ain": 343,
    "Ġsponge": 26004,
    "15": 12433,
    "ays": 6685,
    "Ġseeth": 21958,
    "Ġmovable": 22438,
    "Ġbroom": 18908,
    "chie": 21694,
    "Ġcrackling": 24963,
    "Ġtradesman": 20076,
    "Ġ114": 24437,
    "species": 13259,
    "desper": 13221,
    "Ġpaul": 12065,
    "Ġclosely": 6489,
    "critters": 14778,
    "Ġsisterly": 16306,
    "Ġtorrid": 25035,
    "Ġdon": 1615,
    "Ġhardihood": 23118,
    "particular": 5757,
    "Ġpagoda": 19791,
    "Ġstrategies": 1841,
    "commun": 15035,
    "Ġconsidering": 4614,
    "Ġcoupled": 16852,
    "Ġfeelings": 2450,
    "Ġriv": 10747,
    "gladness": 25195,
    "Ġarrant": 23303,
    "Ġrepine": 16412,
    "manner": 6172,
    "Ġbronze": 22870,
    "vocabulary": 25088,
    "Ġkelson": 18351,
    "Ġmagnifying": 16323,
    "Ġaffectionately": 13170,
    "Ġcetacea": 20556,
    "itous": 13869,
    "Ġwides": 17790,
    "Ġinterests": 14569,
    "baron": 24926,
    "wheels": 14383,
    "Ġpreviously": 3918,
    "ucket": 2482,
    "Ġintervene": 25481,
    "denial": 18718,
    "Ġjoes": 19233,
    "rying": 3180,
    "numbers": 17617,
    "Ġhog": 13926,
    "Ġpossibilities": 18976,
    "quadr": 15767,
    "msman": 9272,
    "grim": 19108,
    "handsome": 13178,
    "owed": 2269,
    "mons": 17601,
    "Ġirresistible": 13115,
    "Ġselection": 18203,
    "Ġfearful": 6199,
    "Ġwaste": 9236,
    "enc": 7575,
    "grey": 14914,
    "Ġcompl": 3758,
    "Ġequals": 4726,
    "Ġequilibrium": 4137,
    "Ġquietude": 19363,
    "Ġcran": 12003,
    "Ġbelieved": 4366,
    "alter": 10827,
    "Ġjet": 5309,
    "send": 15425,
    "balance": 12009,
    "Ġpoet": 8209,
    "Ġdrink": 4787,
    "hall": 8086,
    "Ġfrosted": 19806,
    "Ġsanity": 24984,
    "Ġscales": 4850,
    "Ġsaluted": 14760,
    "dart": 20828,
    "learnt": 23574,
    "insanity": 23073,
    "deserts": 25382,
    "earn": 10697,
    "Ġthanking": 18603,
    "oce": 10715,
    "Ġenvelop": 5586,
    "Ġdank": 21432,
    "judges": 19576,
    "division": 20052,
    "transom": 19737,
    "Ġindex": 17049,
    "Ġchaise": 9078,
    "ulpt": 10886,
    "Ġtwinkling": 12327,
    "swim": 16780,
    "Ġblanket": 8344,
    "nin": 17609,
    "Ġoarsmen": 7739,
    "Ġlulled": 17971,
    "Ġungovernable": 20711,
    "Ġcolours": 12978,
    "warrior": 24797,
    "Ġheadland": 22899,
    "pping": 1427,
    "Ġindirectly": 8941,
    "Ġemboldened": 22964,
    "Ġredeem": 20503,
    "Ġdivergence": 2728,
    "troubled": 17112,
    "µ": 118,
    "Ġeligible": 10672,
    "Ġrainy": 24340,
    "Ġcheetah": 14508,
    "lege": 17843,
    "phants": 9322,
    "Ġwhaling": 2784,
    "sec": 6154,
    "Ġstating": 15725,
    "Ċ": 203,
    "Ġgraze": 18227,
    "soles": 18685,
    "threadbare": 25990,
    "Ġglared": 13021,
    "Ġmoment": 989,
    "ot": 346,
    "Ġtars": 21167,
    "encounter": 20395,
    "tan": 4742,
    "harpooneer": 8692,
    "Ġaloud": 6254,
    "sought": 15429,
    "withstanding": 8947,
    "Ġcalamities": 25700,
    "Ġpremature": 3725,
    "Ġparcel": 15202,
    "granting": 23416,
    "Ġcompassionate": 24722,
    "ilight": 12698,
    "genteel": 19952,
    "Ġvalid": 1752,
    "Ġhearers": 15706,
    "isance": 17849,
    "Ġcommunicates": 24546,
    "Ġprair": 7748,
    "gest": 5426,
    "Ġtranquill": 6633,
    "Ġachieves": 4377,
    "neville": 22470,
    "Ġmarine": 23036,
    "isco": 12586,
    "period": 15905,
    "Ġicy": 10748,
    "Ġunlo": 22015,
    "mention": 7214,
    "^": 66,
    "Ġsea": 1209,
    "Ġilliterate": 26595,
    "loveliness": 26550,
    "industrious": 26241,
    "Ġscared": 14191,
    "dreaded": 25141,
    "nui": 21002,
    "Ġwash": 9705,
    "Ġpersuasions": 16633,
    "Ġasiatics": 20434,
    "glow": 20876,
    "iro": 20916,
    "Ġdangers": 12357,
    "Ġcorrespond": 6211,
    "Ġcatholic": 20684,
    "Ġapparel": 20439,
    "eager": 12463,
    "Ġbrood": 23107,
    "Ġdeputation": 21844,
    "fork": 20859,
    "Ġobedience": 11414,
    "Ġjew": 9469,
    "Ġentities": 11866,
    "Ġcroquet": 9964,
    "Ġwarp": 8114,
    "mph": 20973,
    "Ġseen": 1369,
    "Ġuninhabited": 22054,
    "Ġ107": 24414,
    "ional": 1085,
    "commanders": 16990,
    "Ġarab": 7824,
    "riv": 3104,
    "Ġfired": 16157,
    "avings": 12025,
    "Ġflooring": 23626,
    "prodig": 16429,
    "Ġharpooning": 23982,
    "Ġdup": 21431,
    "Ġcoal": 18596,
    "Ġly": 2268,
    "Ġhilariously": 25451,
    "Ġcomrade": 11681,
    "Ġeasiness": 23539,
    "laborers": 23919,
    "Ġcoming": 2616,
    "darkness": 9514,
    "shock": 19857,
    "Ġsecretly": 13274,
    "Ġreduces": 2341,
    "Ġirish": 14535,
    "Ġbreadth": 10565,
    "Ġen": 393,
    "Î": 143,
    "Ġconspicuous": 13605,
    "io": 3802,
    "Ġswims": 12123,
    "ext": 923,
    "gardiner": 12294,
    "Ġregent": 18592,
    "attended": 8954,
    "Ġmilk": 6486,
    "Ġdub": 13911,
    "orus": 10802,
    "inferences": 17740,
    "Ġfists": 15586,
    "Ġliberally": 16831,
    "Ġbreeding": 14523,
    "Ġland": 1996,
    "mine": 5617,
    "Ġensemble": 1612,
    "Ġclothes": 4996,
    "signs": 16540,
    "Ġf": 283,
    "Ġcocked": 12909,
    "request": 21244,
    "Ġbabies": 19695,
    "glings": 23854,
    "Ġdisapprobation": 16061,
    "Ġink": 8806,
    "alogue": 25163,
    "Ġspoil": 17008,
    "Ġauto": 23289,
    "Ġbask": 8118,
    "Ġassail": 13066,
    "Ġdiscoverer": 26036,
    "fitting": 1509,
    "Ġsuccessfully": 19432,
    "arpening": 21447,
    "Ġcontrivances": 12360,
    "Ġsuccessful": 9925,
    "Ġclattering": 22369,
    "Ġ98": 24595,
    "§": 105,
    "Ġsignificant": 8637,
    "ishness": 22347,
    "Ġtemporary": 7982,
    "Ġmetropol": 11146,
    "Ġhealth": 3902,
    "Ġaltern": 7394,
    "Ġlonger": 3360,
    "talked": 14987,
    "Ġincantation": 26259,
    "Ġspiritual": 9932,
    "Ġmansion": 17811,
    "Ġalleged": 17292,
    "Ġmanilla": 15962,
    "fields": 14654,
    "Ġtones": 8402,
    "pursued": 17283,
    "Ġsnuff": 7993,
    "individual": 18437,
    "Ġsnoo": 21231,
    "ontory": 10460,
    "Ġsanction": 20029,
    "Ġcaresses": 26060,
    "Ġargue": 16784,
    "Ġgabriel": 7597,
    "Ġlanyard": 26462,
    "Ġfrown": 10808,
    "Ġhooked": 19079,
    "Ġmexic": 14034,
    "adding": 21766,
    "Ġmurdered": 6465,
    "solution": 14687,
    "Ġpeterson": 9485,
    "Ġbashful": 20423,
    "Ġloveliest": 20264,
    "Ġfills": 12599,
    "Ġdigesting": 19812,
    "Ġillustrate": 25068,
    "Ġmorbid": 16237,
    "track": 24334,
    "young": 7321,
    "Ġscreamed": 9526,
    "Ġquitting": 7647,
    "Ġeas": 2350,
    "gish": 20875,
    "Ġpeels": 22695,
    "Ġerr": 1323,
    "Ġmoderate": 10940,
    "Ġconsiderable": 4003,
    "Ġidolator": 20001,
    "Ġdeliriously": 23232,
    "Ġheading": 8937,
    "Ġselected": 9712,
    "Ġsignific": 3828,
    "Ġgunwales": 12244,
    "needles": 20317,
    "Ġseized": 4834,
    "ela": 21573,
    "plexion": 14262,
    "Ġstern": 4186,
    "Ġflo": 2587,
    "Ġill": 2193,
    "ojo": 7349,
    "Ġunhing": 18242,
    "Ġinequalities": 26454,
    "elter": 21575,
    "Ġrepublican": 17414,
    "Ġriot": 14689,
    "similar": 13455,
    "following": 10574,
    "Ġderick": 9366,
    "pier": 17636,
    "afford": 14655,
    "Ġobsolete": 26559,
    "ander": 6402,
    "Ġjuggling": 20442,
    "Ġopposition": 16522,
    "malicious": 19904,
    "đ": 210,
    "Ġrewarded": 14942,
    "00": 1614,
    "observation": 17271,
    "Ġpagan": 7119,
    "Ġbust": 10169,
    "phr": 18707,
    "_),": 7127,
    "oided": 11510,
    "Ġcasc": 15559,
    "yes": 983,
    "erted": 7361,
    "Ġextinguished": 10343,
    "asse": 15648,
    "Ġburned": 8634,
    "Ġscholar": 26112,
    "Ġspeak": 2230,
    "Ġenveloped": 12212,
    "Ġquohog": 10973,
    "rayed": 23564,
    "iration": 4538,
    "heartedness": 24825,
    "emper": 18183,
    "Ġveil": 7935,
    "Ġconven": 6153,
    "Ġmaking": 1783,
    "der": 468,
    "irection": 2386,
    "rade": 9681,
    "Ġsoil": 9257,
    "Ġclaw": 22365,
    "terbury": 21829,
    "progra": 9397,
    "Ġstatement": 5255,
    "ern": 747,
    "descried": 11932,
    "Ġdimly": 9490,
    "Ġgriev": 16636,
    "Ġarduous": 26530,
    "oars": 9616,
    "Ġmarsh": 9823,
    "Ġsmaller": 1886,
    "silly": 24421,
    "Ġfaintness": 24570,
    "pleasures": 24049,
    "Ġanvil": 11599,
    "Ġbetrayed": 9563,
    "Ġrevolver": 14900,
    "opy": 4456,
    "more": 1031,
    "Ġattempting": 14698,
    "scotch": 25852,
    "ivility": 12794,
    "Ġ82": 24457,
    "Ġdecaying": 2247,
    "Ġcelestial": 10069,
    "what": 643,
    "Ġcritics": 23444,
    "º": 123,
    "fall": 5135,
    "Ġcities": 17829,
    "province": 26073,
    "objections": 19918,
    "acc": 2532,
    "Ġincites": 22556,
    "reproach": 15189,
    "Ġsunrise": 9375,
    "Ġasks": 5115,
    "izz": 7615,
    "thing": 1480,
    "Ġlunacy": 20031,
    "Ġmine": 3173,
    "Ġpres": 9734,
    "age": 504,
    "Ġaccumul": 1414,
    "Ġwalks": 8968,
    "Ġsanta": 26421,
    "jabez": 20935,
    "Ġencircling": 26273,
    "avenza": 17104,
    "Ġint": 409,
    "ribs": 23369,
    "Ġninetieth": 25358,
    "Ġpovels": 22596,
    "borough": 20787,
    "Ġequinoctial": 20536,
    "Ġwondering": 7972,
    "wel": 6119,
    "Ġtangled": 13829,
    "Ġagatha": 6866,
    "pro": 2049,
    "Ġministers": 22836,
    "Ġleaking": 21750,
    "hated": 17562,
    "Ġtreble": 16505,
    "Ġaunt": 3171,
    "Ġfore": 2152,
    "excited": 13382,
    "Ġrenowned": 26195,
    "ĠĠĠĠĠĠĠĠĠĠĠĠĠĠĠĠĠĠĠĠĠĠĠĠ": 5322,
    "Ġpages": 15611,
    "ieged": 22582,
    "Ġindustry": 18839,
    "Ġhark": 8430,
    "ruct": 680,
    "b": 70,
    "Ġchatting": 24746,
    "lengthwise": 19953,
    "Ġazure": 12377,
    "Ġemerg": 13426,
    "ioneer": 15635,
    "Ġhoars": 19077,
    "charles": 14701,
    "squ": 7810,
    "Ġforget": 2635,
    "Ġwonderland": 23427,
    "ameter": 2903,
    "Ġrealised": 18980,
    "Ġpot": 2989,
    "au": 777,
    "asis": 12655,
    "Ġ3": 3982,
    "Ġprocopius": 19733,
    "five": 6358,
    "Ġharpooned": 13264,
    "Ġsolitudes": 22891,
    "Ġdegener": 14050,
    "fugitive": 26132,
    "Ġlengthwise": 10453,
    "apparently": 15207,
    "Ġeve": 13972,
    "Ġdissu": 18551,
    "Ġmagnificent": 9844,
    "Ġunforgiving": 25996,
    "absence": 12713,
    "Ġdexterous": 15151,
    "Ġhiss": 15791,
    "foundation": 16716,
    "Ġgossip": 18470,
    "results": 20390,
    "{": 95,
    "Ġpupils": 20424,
    "Ġfather": 1450,
    "Ġnarrowed": 24354,
    "Ġcate": 4106,
    "doc": 23379,
    "Ġphase": 14473,
    "marest": 20982,
    "ernation": 8212,
    "treas": 17680,
    "Ġconfluent": 19042,
    "formation": 22223,
    "ornament": 23490,
    "Ġexcepting": 14681,
    "Ġflock": 21415,
    "Ġappal": 18356,
    "Ġanswering": 7478,
    "Ġasc": 4765,
    "mistakable": 20655,
    "Ġtoma": 7373,
    "of": 768,
    "Ġsong": 5905,
    "Ġwould": 652,
    "atlantic": 15526,
    "Ġeffects": 7236,
    "Ġconjectures": 16926,
    "rack": 18013,
    "apes": 9743,
    "unreasonable": 18165,
    "Ġspong": 15884,
    "Ġterrible": 5328,
    "after": 2894,
    "istrate": 7406,
    "thank": 4949,
    "fort": 1749,
    "Ġhun": 1496,
    "silence": 8046,
    "Ġsuicide": 12793,
    "Ġfris": 23259,
    "Ð": 145,
    "Ġris": 4886,
    "ner": 1372,
    "Ġwholly": 4445,
    "Ġmabel": 17326,
    "Ġdisagree": 22537,
    "islands": 21379,
    "Ġord": 3735,
    "gged": 3777,
    "libra": 22929,
    "Ġgrief": 4619,
    "consolation": 15155,
    "Ġgrievous": 13263,
    "Ġdetest": 8503,
    "ackled": 22429,
    "onde": 21254,
    "Ġpuffing": 12258,
    "Ġlogits": 3449,
    "atre": 17771,
    "Ġdebar": 24273,
    "Ġsuns": 23277,
    "deaux": 22153,
    "Ġstil": 15721,
    "laughed": 20284,
    "Ġdiverted": 14593,
    "resistible": 10645,
    "concealed": 25118,
    "handedness": 24921,
    "ruin": 22185,
    "Ġrelu": 1044,
    "serv": 7451,
    "mopol": 15398,
    "Ġ1890": 23900,
    "rid": 5137,
    "close": 9988,
    "chapter": 1404,
    "Ġthreaten": 24373,
    "Ġquit": 5247,
    "Ġincredulity": 11312,
    "Ġdelicacy": 6342,
    "Ġstraight": 3702,
    "orum": 12595,
    "Ġburg": 23656,
    "Ġexercise": 8360,
    "lect": 1223,
    "Ġtutored": 20131,
    "Ġfamed": 16329,
    "Ġrecall": 3855,
    "Ġheal": 21685,
    "Ġvisit": 2582,
    "Ġcontributes": 15253,
    "races": 21634,
    "Ġmostly": 7666,
    "own": 746,
    "Ġlimping": 23548,
    "Ġpurple": 10434,
    "Ġacc": 574,
    "Ġalleviated": 26205,
    "Ġcrowder": 19459,
    "ish": 550,
    "Ġtarshish": 12031,
    "Ġincludes": 2011,
    "Ġrecurring": 23234,
    "popular": 26141,
    "Ġperilously": 24503,
    "Ġrabbit": 4287,
    "Ġlandsmen": 11352,
    "Ġglide": 22990,
    "Ġtending": 17725,
    "Ġvest": 8164,
    "bree": 15317,
    "danger": 10091,
    "Ġturns": 4980,
    "ify": 1565,
    "Ġ15": 9326,
    "izing": 1070,
    "seen": 2879,
    "Ġpoles": 11004,
    "maritime": 24175,
    "Ġfiercely": 12956,
    "aks": 8509,
    "Ġfelony": 18954,
    "Ġgoodness": 6061,
    "Ġlistener": 16476,
    "Ġcomprehensiveness": 25075,
    "Ġbodily": 6108,
    "Ġproposals": 10615,
    "lasting": 8012,
    "at": 268,
    "quired": 21860,
    "Ġwhatsoever": 18461,
    "Ġbarbar": 6935,
    "wed": 5796,
    "salesman": 20674,
    "convalescence": 24885,
    "Ġfo": 1653,
    "Ġaccost": 12851,
    "Ġcloth": 9746,
    "Ġradiant": 16810,
    "Ġyouth": 4260,
    "Ġminority": 18756,
    "Ġflog": 23625,
    "indifferent": 14210,
    "Ġshuddered": 11301,
    "Ġtypes": 8938,
    "quis": 7872,
    "blocks": 25518,
    "Ġniag": 21534,
    "Ġvoices": 7878,
    "Ġtacit": 21177,
    "Ġsatire": 22903,
    "Ġcannibal": 7775,
    "Ġscorched": 17101,
    "Ġshouldn": 14327,
    "Ġstraggling": 23754,
    "heric": 15914,
    "Ġunlucky": 10052,
    "Ġsizes": 1519,
    "Ġvint": 18195,
    "Ġsway": 7572,
    "inate": 6235,
    "surprising": 16920,
    "Ġgore": 17991,
    "Ġslipper": 24267,
    "Ġgathers": 24742,
    "Ġcongealed": 25982,
    "Ġcalms": 23045,
    "amped": 12036,
    "Ġturtles": 19223,
    "Ġwrenching": 17325,
    "alice": 3204,
    "conve": 14245,
    "Ġbetake": 22909,
    "Ġtransom": 22443,
    "Ġconsented": 11296,
    "Ġchisel": 20371,
    "tain": 559,
    "sword": 10727,
    "Ġstem": 15722,
    "Ġpiazza": 26451,
    "Ġmanor": 14198,
    "Ġalive": 4397,
    "functions": 11265,
    "air": 1003,
    "horner": 23616,
    "ude": 7563,
    "\",": 10680,
    "Ġrevellers": 21682,
    "acies": 14280,
    "achus": 18276,
    "spikes": 10342,
    "Ġengage": 9337,
    "Ġabsurd": 7202,
    "joy": 3336,
    "iriously": 18174,
    "Ġmagg": 18907,
    "Ġgentleman": 3038,
    "Ġteacup": 16215,
    "credit": 12452,
    "Ġchurch": 4710,
    "recurrent": 4993,
    "outh": 2689,
    "sit": 13782,
    "Ġunreason": 15845,
    "Ġch": 513,
    "ws": 7355,
    "Ġscept": 15505,
    "build": 12191,
    "Ġmem": 2164,
    "Ġash": 4833,
    "Ġderives": 16310,
    "unteered": 26496,
    "Ġminuteness": 19140,
    "Ġlegendary": 20540,
    "Ġimpud": 18446,
    "always": 5708,
    "Ġevid": 3501,
    "over": 1848,
    "taken": 7561,
    "Ġrepast": 16413,
    "connect": 1291,
    "Ġmartyr": 26362,
    "Ġinquir": 4239,
    "Ġproceedings": 9909,
    "blister": 24127,
    "Ġunconcern": 14119,
    "iling": 3089,
    "Ġinattention": 17934,
    "bowl": 14893,
    "Ġcable": 11582,
    "Ġmight": 962,
    "Ġhur": 2100,
    "Ġchim": 5935,
    "taste": 10131,
    "mut": 17596,
    "Ç": 136,
    "ssip": 14081,
    "Ġele": 1963,
    "Ġentertainment": 12226,
    "Ġtunnels": 24622,
    "oss": 10117,
    "ġ": 226,
    "surprised": 9533,
    "Ġeff": 683,
    "Ġpunct": 8664,
    "weary": 22690,
    "geor": 15981,
    "pet": 4867,
    "andes": 18154,
    "Ġlicence": 25099,
    "Ġjoyous": 14665,
    "Ġlist": 2362,
    "ineff": 21985,
    "Ġmantelpiece": 15210,
    "Ġrefres": 14345,
    "Ġbalmy": 22907,
    "happiness": 6470,
    "Ġexecutors": 19536,
    "Ġunden": 22016,
    "wis": 12522,
    "Ġfet": 5808,
    "Ġdecreas": 1650,
    "Ġstamp": 7866,
    "Ġhair": 3314,
    "Ġengraved": 17081,
    "Ġlabors": 23333,
    "icating": 15658,
    "ression": 3405,
    "agings": 18168,
    "Ġdefinitions": 22948,
    "each": 7335,
    "Ġcontemplated": 13466,
    "globe": 25145,
    "Ġapoplexy": 25266,
    "Ġjen": 9269,
    "bru": 12442,
    "Ġcall": 2075,
    "Ġsettling": 11063,
    "surgeon": 24216,
    "ounded": 9750,
    "Ġexposes": 22626,
    "Ġbreaths": 14859,
    "cess": 538,
    "itives": 17821,
    "Ġdiscriminative": 4325,
    "reclining": 20577,
    "icious": 7380,
    "Ġsinging": 7725,
    "Ġplank": 7035,
    "Ġpoetry": 15083,
    "vessel": 11378,
    "verse": 9690,
    "vy": 21110,
    "whiteness": 18371,
    "Ġharris": 13929,
    "Ġjuggl": 20441,
    "Ġhangs": 11608,
    "pans": 13772,
    "Ġsupplies": 20329,
    "console": 22476,
    "Ġchristianity": 19863,
    "Ġlasting": 18793,
    "eline": 2399,
    "Ġcongreg": 8464,
    "Ġanx": 3175,
    "Ġsanct": 15066,
    "Ġcumbrous": 26433,
    "Ġdisappearance": 9299,
    "Ġthunder": 4824,
    "Ġawakened": 10454,
    "Ġstartling": 14672,
    "anous": 21362,
    "othe": 2613,
    "begins": 18523,
    "Ġbus": 1905,
    "Ġleave": 2454,
    "gate": 12470,
    "canst": 22967,
    "although": 8809,
    "Ġinterior": 8897,
    "Ġsixpence": 19319,
    "Ġnut": 12651,
    "Ġcarved": 7948,
    "Ġlabel": 14518,
    "Ġwo": 3651,
    "Ġbenefits": 4285,
    "Ġfriendly": 9822,
    "cible": 20808,
    "Ġimperfectly": 25727,
    "bies": 15315,
    "shri": 14236,
    "Ġblaming": 22934,
    "Ġenlightened": 12751,
    "Ġlate": 3377,
    "Ġcases": 3959,
    "opol": 12877,
    "Ġpetersburgh": 24230,
    "Ġsm": 704,
    "touch": 8393,
    "Ġgibberish": 25787,
    "Ġmour": 6974,
    "Ġbill": 4036,
    "Ġbuck": 7158,
    "Ġark": 10277,
    "Ġcrazed": 19177,
    "Ġvanishing": 1347,
    "Ġpanted": 21476,
    "Ġgi": 15669,
    "Ġcultivated": 17366,
    "preading": 18499,
    "oga": 22699,
    "cour": 4478,
    "sullen": 17670,
    "ĠĠĠĠĠ": 3526,
    "Ġsuffers": 2972,
    "caused": 25520,
    "grinder": 23417,
    "Ġme": 352,
    "inces": 13830,
    "Ġtying": 15475,
    "Ġcandles": 9910,
    "Ġturkey": 19222,
    "Ġforster": 5230,
    "trunk": 23951,
    "osures": 22266,
    "keen": 12787,
    "Ġhooped": 23359,
    "urried": 21708,
    "Ġsphere": 15885,
    "Ġfare": 5810,
    "Ġnantucketers": 9897,
    "Ġcomprehending": 24444,
    "Ġgleaming": 24998,
    "Ġhighlands": 22782,
    "Ġdeaf": 12726,
    "instruct": 19545,
    "imes": 1300,
    "replied": 11567,
    "orative": 21401,
    "inks": 6869,
    "comple": 7441,
    "ateness": 15522,
    "Ġenvirons": 13208,
    "less": 928,
    "Ġanointing": 25540,
    "brow": 15318,
    "determ": 7107,
    "true": 2585,
    "Ġproced": 2578,
    "Ġimbec": 14156,
    "Ġfainted": 8795,
    "Ġadditionally": 1173,
    "Ġvagu": 13591,
    "resum": 17762,
    "Ġunconsc": 6554,
    "Ġgun": 4701,
    "ius": 5789,
    "injured": 15135,
    "abs": 11669,
    "Ġadmeasurements": 26227,
    "exe": 11792,
    "Ġconvolutional": 2162,
    "Ġvast": 3295,
    "Ġidentified": 19152,
    "Ġsymmetrical": 20370,
    "Ġshelves": 14999,
    "_.)": 7278,
    "rated": 6229,
    "ceptibly": 22351,
    "storm": 9683,
    "vicious": 21121,
    "Ġupset": 22158,
    "Ġpivot": 13925,
    "icts": 22407,
    "Ġpredef": 18526,
    "aulets": 18621,
    "Ġpours": 17914,
    "tranqu": 14708,
    "oin": 17618,
    "Ġcapabilities": 4375,
    "Ġpromote": 23197,
    "iced": 3899,
    "rivial": 9436,
    "ster": 1959,
    "Ġobjective": 3765,
    "Ġmac": 15541,
    "convul": 24884,
    "Ġhabitu": 19531,
    "forgive": 18733,
    "arpo": 1758,
    "Ġentreaties": 9037,
    "Ġ72": 19614,
    "chan": 1162,
    "Ġlamb": 8816,
    "oid": 3122,
    "Ġpromises": 10402,
    "blot": 20785,
    "Ġfortunately": 12183,
    "Ġlandsman": 11351,
    "Ġsurf": 19133,
    "Ġenormity": 19698,
    "Ġanxiety": 5408,
    "warning": 25532,
    "completed": 19997,
    "Ġagony": 5388,
    "Ġchimneys": 16973,
    "Ġwarmth": 6905,
    "Ġawe": 7148,
    "forehead": 8518,
    "Ġfrench": 4938,
    "Ġfronted": 23261,
    "ishing": 1145,
    "Ġhereafter": 9332,
    "Ġpercept": 14225,
    "Ġar": 479,
    "Ġheath": 15705,
    "Ġreasonably": 11090,
    "Ġpictures": 5503,
    "Ġunseasonable": 26521,
    "Ġsaucer": 20608,
    "pin": 13769,
    "Ġtight": 8109,
    "Ġceasing": 23760,
    "Ġevident": 6615,
    "Ġlandless": 23382,
    "Ġmoisture": 12362,
    "atra": 17772,
    "historian": 25735,
    "Ġwrapt": 24597,
    "Ġbeadle": 26485,
    "]]": 5205,
    "Ġdorm": 4822,
    "Ġfaith": 5351,
    "violently": 23545,
    "Ġglories": 16243,
    "Ġfade": 21411,
    "Ġsurmise": 12298,
    "Ġspread": 5161,
    "Ġnoon": 6561,
    "Ġaccompanying": 11305,
    "Ġperman": 10965,
    "Ý": 158,
    "conc": 3945,
    "Ġpurring": 23477,
    "Ġclad": 12848,
    "Ġseverely": 14935,
    "ention": 856,
    "Ġ1671": 25008,
    "Ġforged": 12709,
    "Ġbloodshed": 23803,
    "embers": 21932,
    "Ġplaster": 16087,
    "Ġprecipitate": 19945,
    "ike": 4999,
    "Ġdiscovery": 5412,
    "adventures": 20259,
    "Ġsilk": 11966,
    "Ġmock": 3691,
    "importance": 9991,
    "Ġcourt": 4166,
    "Ġgor": 9208,
    "Ġthinnest": 24185,
    "urmountable": 15282,
    "Ġsurprise": 3829,
    "Ġindef": 9191,
    "stalk": 21648,
    "neurons": 3130,
    "erably": 7574,
    "Ġdarting": 7758,
    "Ġdesigned": 7742,
    "Ġdeformed": 14049,
    "Ġmounted": 7833,
    "Ġnodes": 1967,
    "ogany": 18673,
    "Ġcoinc": 11002,
    "ician": 21569,
    "Ġgay": 5534,
    "Ġstray": 18072,
    "Ġwintry": 17436,
    "Ġprescribed": 26011,
    "ators": 7830,
    "Ġintroduction": 8972,
    "aired": 8370,
    "Ġlonely": 6823,
    "Ġpains": 5967,
    "bows": 10083,
    "Ġloc": 10915,
    "Ġlustre": 15137,
    "Ġbuy": 8301,
    "Ġturning": 3327,
    "ac": 742,
    "Ġdestitute": 14566,
    "Ġfundament": 2924,
    ".âĢĻâĢĿ": 6741,
    "caus": 11477,
    "Ġvehemence": 26567,
    "Ġanchors": 12618,
    "nobody": 16139,
    "Ġexpans": 18622,
    "Ġliberal": 12194,
    "Ġdis": 695,
    "Ġconjugal": 25104,
    "Ġeyel": 17096,
    "thrown": 8483,
    "Ġalarmed": 6923,
    "Ġbred": 9171,
    "Ġshop": 9254,
    "travelling": 24337,
    "enge": 21283,
    "Ġont": 18119,
    "Ġpreser": 6043,
    "Ġdavy": 25952,
    "Ġswe": 2288,
    "Ġpockets": 8898,
    "Ġmoulton": 17437,
    "things": 6035,
    "tum": 11533,
    "whims": 22244,
    "Ġmastery": 23996,
    "lic": 17588,
    "Ġimmort": 19487,
    "Ġsobs": 14135,
    "Ġbandages": 24426,
    "ences": 1262,
    "Ġsuperseded": 26226,
    "erne": 21272,
    "unnatural": 15776,
    "vings": 9753,
    "fireside": 24693,
    "convinced": 10624,
    "Ġoaths": 13525,
    "Ġresponded": 13640,
    "Ġshutter": 16672,
    "Ġhat": 2774,
    "Ġforgery": 25978,
    "Ġsmart": 11818,
    "usual": 5842,
    "Ġkno": 5242,
    "wouldn": 23538,
    "ield": 2407,
    "Ġlodged": 11251,
    "Ġlodges": 19503,
    "wives": 15457,
    "agged": 9239,
    "dearest": 11738,
    "late": 11500,
    "Ġrheum": 18215,
    "û": 188,
    "Ġswelled": 11088,
    "Ġ184": 16608,
    "Ġwages": 13856,
    "Ġaccelerating": 1621,
    "Ġmal": 5221,
    "corpse": 24485,
    "Ġdrooping": 9422,
    "s": 87,
    "branch": 23580,
    "Ġducking": 17148,
    "intu": 22937,
    "dramatic": 19388,
    "ves": 686,
    "Ġconcepts": 4549,
    "offic": 7466,
    "Ġdiscussing": 5202,
    "Ġreading": 5114,
    "Ġlirra": 21564,
    "Ġlimits": 3452,
    "sorting": 17005,
    "tru": 10730,
    "Ġmelancholy": 5605,
    "Ġfoss": 9853,
    "ado": 11660,
    "Ġinhaled": 25452,
    "Ġgret": 21605,
    "Ġrefinement": 18703,
    "Ġcos": 2207,
    "Ġmislead": 22760,
    "Ġvulgar": 13606,
    "Ġpro": 361,
    "castles": 14637,
    "adders": 24399,
    "airs": 2220,
    "Ġreflect": 6577,
    "Ġimages": 1603,
    "Ġinsurg": 23684,
    "Ġextending": 11025,
    "hement": 13834,
    "Ġexclusion": 19399,
    "Ġdecorated": 22464,
    "Ġdelayed": 9520,
    "Ġponder": 6819,
    "osp": 6854,
    "Ġsneezing": 12251,
    "Ġagreed": 7031,
    "Ġintimacy": 8704,
    "arab": 21445,
    "ining": 3217,
    "Ġastronomy": 25927,
    "Ġsolved": 8933,
    "dles": 11482,
    "Ġcongratulated": 19769,
    "Ġwade": 17786,
    "Ġgetting": 4061,
    "ock": 15404,
    "Ġoutright": 18413,
    "stripped": 16946,
    "yield": 13811,
    "Ġsociety": 3975,
    "idav": 18095,
    "Ġkin": 15907,
    "Ġtout": 17720,
    "Ġincredulous": 9989,
    "Ġesteemed": 10590,
    "Ġthick": 3782,
    "Ġbatt": 13901,
    "venison": 22632,
    "Ġundressed": 19516,
    "Ġmistakes": 16542,
    "liter": 11503,
    "Ġwake": 4749,
    "Ġcolonel": 3407,
    "urity": 8144,
    "iar": 2376,
    "knew": 9128,
    "Ġhelpless": 8303,
    "Ġdiscredit": 22787,
    "admire": 24946,
    "Ġhamper": 19392,
    "Ġaffords": 16735,
    "Ġgregarious": 18964,
    "size": 15426,
    "Ġhood": 10824,
    "Ġlancaster": 26342,
    "tart": 21070,
    "Ġjing": 15952,
    "Ġabsorb": 25115,
    "ignation": 11129,
    "beware": 16041,
    "Ġready": 3397,
    "hip": 8744,
    "distance": 12156,
    "Ġscarlet": 13226,
    "Ġconscientious": 16728,
    "description": 11094,
    "Ġinquiring": 9001,
    "Ġnorth": 4317,
    "forks": 26388,
    "embarr": 17294,
    "vict": 11542,
    "unusual": 21884,
    "Ġcontinents": 16850,
    "Ġgaze": 6932,
    "Ġheated": 21686,
    "Ġindignity": 18835,
    "Ġwinchester": 10068,
    "Ġcomprise": 18586,
    "gree": 10702,
    "Ġgulp": 20032,
    "Ġtraitors": 23082,
    "Ġfreemason": 23212,
    "Ġjoll": 11768,
    "Ġfumbling": 21421,
    "Ġemph": 14526,
    "Ġspade": 9261,
    "veil": 18048,
    "Ġbuckets": 17034,
    "Ġtomb": 8811,
    "supp": 4159,
    "Ġlect": 9224,
    "apprehens": 17408,
    "Ġsilver": 7464,
    "Ġnav": 5819,
    "threaten": 25462,
    "Ġaspects": 4172,
    "Ġprejudiced": 24806,
    "Ġstandards": 19019,
    "aution": 9389,
    "dark": 5613,
    "Ġmerged": 19298,
    "Ġclinch": 18432,
    "Ġhandles": 22701,
    "Ġdynamic": 5122,
    "scuttle": 11913,
    "ober": 15408,
    "asets": 2308,
    "Ġtorch": 25033,
    "Ġjewels": 12372,
    "Ġfamil": 4318,
    "Ġintrodu": 1925,
    "Ġstanzas": 21749,
    "Ġyale": 21784,
    "Ġunforeseen": 22056,
    "Ġaquiline": 26160,
    "hounds": 20909,
    "mblies": 24610,
    "Ġpredecess": 18528,
    "Ġtreats": 19347,
    "Ġdemonstrate": 24999,
    "hears": 12537,
    "Ġstrand": 11831,
    "Ġthews": 21280,
    "Ġindul": 5858,
    "Ġgrassy": 24378,
    "poison": 14394,
    "gold": 9122,
    "Ġsynthe": 26008,
    "tolerable": 17689,
    "Ġabandoned": 8353,
    "flames": 14714,
    "Ġfacil": 16963,
    "perquisites": 26532,
    "Ġislanders": 19505,
    "Ġbarque": 23793,
    "calcul": 12990,
    "distressed": 24201,
    ".âĢĶâĢľ": 20749,
    "Ġwrinkles": 8574,
    "Ġgovernment": 15179,
    "shop": 14238,
    "Ġrephr": 21683,
    "Ġilluminated": 20178,
    "Ġheinous": 18041,
    "Ġbreeze": 5681,
    "Ġrejoiced": 8687,
    "Ġmob": 16020,
    "orts": 2554,
    "asol": 21544,
    "Ġirreproachable": 24918,
    "Ġghosts": 12236,
    "Ġmartin": 25437,
    "Ġsalut": 10511,
    "asc": 6387,
    "invite": 25091,
    "dy": 4072,
    "renewed": 19707,
    "uy": 21102,
    "istered": 14146,
    "Ġlibr": 16004,
    "iful": 2880,
    "Ġbathed": 17867,
    "familiar": 19786,
    "Ġefficient": 1055,
    "Ġperils": 6274,
    "Ġpaths": 2568,
    "Ġalpine": 18108,
    "pumps": 21029,
    "Ġspinning": 15054,
    "Ġadjusted": 23459,
    "Ġdead": 2172,
    "Ġcharley": 19007,
    "Ġwhirlwinds": 20468,
    "heartily": 24217,
    "istically": 14145,
    "Ġdrag": 6186,
    "Ġscorching": 20071,
    "Ġendurance": 23143,
    "Ġdragging": 14476,
    "Ġbale": 7839,
    "Ġemir": 23354,
    "Ġloftiest": 16875,
    "setting": 13288,
    "oring": 1862,
    "proved": 11989,
    "Ġinfer": 7686,
    "vedale": 22714,
    "Ġconducting": 16651,
    "Ġfluke": 14675,
    "waistcoat": 17363,
    "Ġmortification": 12098,
    "elab": 21574,
    "Ġcordiality": 24394,
    "Ġperem": 12937,
    "Ġinvitation": 5188,
    "omn": 15693,
    "carbuncle": 26383,
    "Ġpurely": 12235,
    "Ġleatherhead": 20017,
    "Ġtorments": 13396,
    "Ġpur": 2216,
    "Ġneatness": 19935,
    "Ġposit": 1306,
    "Ġinputs": 845,
    "exc": 5169,
    "Ġsimplicity": 2921,
    "Ġoffence": 12949,
    "Ġfathoms": 9085,
    "Ġgrammars": 11403,
    "Ġreced": 15695,
    "Ġconveying": 19717,
    "Ġglobal": 2368,
    "Ġattentive": 9035,
    "tem": 6370,
    "Ġdelic": 4131,
    "Ġlinen": 12410,
    "Ġtwenty": 3948,
    "execution": 20475,
    "Ġfiend": 4410,
    "Ġbloodthirsty": 26602,
    "Ġindisp": 18836,
    "warm": 8103,
    "Ġacted": 7422,
    "ibank": 6880,
    "friend": 3861,
    "falling": 24360,
    "Ġgrandeur": 8631,
    "riot": 18186,
    "Ġmodels": 771,
    "Ġperpetually": 17071,
    "Ġsnug": 8281,
    "phon": 4124,
    "sed": 4174,
    "morn": 20978,
    "Ġinitial": 824,
    "leave": 7838,
    "Ġdissip": 10993,
    "Ġsurprised": 3830,
    "Ġdiscreet": 16483,
    "Ġinsists": 23681,
    "Ġlazarus": 15030,
    "ourable": 4966,
    "crimson": 24088,
    "Ġfilial": 16621,
    "Ġpouch": 21473,
    "bucket": 17495,
    "clearly": 25196,
    "jane": 4481,
    "Ġsharply": 9405,
    "Ġrevolutionized": 3367,
    "Ġmagnitude": 1944,
    "rawling": 21640,
    "Ġfrighten": 13281,
    "Ġevenly": 4126,
    "Ġplayers": 12041,
    "ending": 1988,
    "estruct": 22232,
    "Ġoccupations": 9460,
    "mmet": 10989,
    "Ġsore": 10765,
    "reader": 23850,
    "ee": 1660,
    "pretty": 10623,
    "Ġtiresome": 26157,
    "Ġboone": 11842,
    "Ġuncont": 14118,
    "Ġaglow": 22519,
    "recover": 24624,
    "Ġstared": 8456,
    "commanded": 16989,
    "Ġlofty": 6219,
    "Ġalong": 1978,
    "Ġpeasants": 12335,
    "Ġdodging": 19889,
    "Ġdome": 15592,
    "conspicuous": 26250,
    "Ġnimble": 21532,
    "utely": 8133,
    "Ġsucked": 14139,
    "Ġoverwrites": 5032,
    "Ġshipw": 12982,
    "Ġconstrued": 26302,
    "Ġmethods": 3154,
    "Ġlogger": 11957,
    "Ġopportunities": 19251,
    "Ġfurnishes": 19444,
    "wake": 11547,
    "bottom": 11427,
    "Ġimpreg": 15990,
    "clifford": 23162,
    "Ġnorton": 12654,
    "Ġdaresay": 14706,
    "Ġbrowne": 13304,
    "barbaric": 26360,
    "allah": 5839,
    "discovery": 12019,
    "Ġsecretary": 19445,
    "ob": 1422,
    "Ġpolic": 13163,
    "ti": 8391,
    "befriend": 22496,
    "Ġdiscipline": 26562,
    "Ġharp": 17926,
    "Ġoppressed": 11190,
    "dest": 4100,
    "organic": 25947,
    "Ġins": 2782,
    "rimin": 2422,
    "isticated": 1553,
    "incredible": 16500,
    "Ġheadsmen": 14734,
    "Ġpledged": 20690,
    "Ġunimpe": 22075,
    "taller": 26151,
    "courage": 17511,
    "Ġdegenerating": 25800,
    "rossing": 18638,
    "scorn": 22995,
    "ipotent": 10960,
    "Ġconstable": 19068,
    "Ġfaithfully": 14889,
    "Ġdiscl": 9799,
    "speps": 14335,
    "Ġdeer": 12725,
    "ellow": 3874,
    "Ġincorporated": 25710,
    "Ġ(`": 12857,
    "Ġuninter": 18247,
    "Ġadvice": 4901,
    "Ġmatlock": 18805,
    "attachment": 13055,
    "ientious": 11694,
    "fleece": 19951,
    "Ġrang": 9247,
    "Ġsink": 4338,
    "his": 1415,
    "encouragement": 17425,
    "Ġcorner": 4368,
    "Ġfragmentary": 25858,
    "Ġcigaret": 16977,
    "Ġavenue": 13623,
    "Ġtatters": 21180,
    "Ġslouched": 13062,
    "Ġadequate": 20311,
    "oil": 7806,
    "Ġadjust": 2155,
    "Ġwal": 6518,
    "Ġallured": 14115,
    "Ġextort": 22739,
    "irwin": 8471,
    "Ġsocks": 14134,
    "Ġaccelerate": 23230,
    "Ġbackwoods": 22666,
    "Ġextremity": 8990,
    "Ġlaboratory": 13614,
    "Ġfrenchman": 11284,
    "Ġgodly": 19080,
    "Ġwalrus": 14975,
    "Ġimmediate": 6091,
    "Ġinconsist": 17938,
    "ancho": 4937,
    "Ġ181": 23899,
    "Ġplug": 17149,
    "Ġ221": 25071,
    "Ġcontained": 7681,
    "Ġcetacean": 25879,
    "Ġamericans": 14745,
    "Ġfab": 15579,
    "Ġopposing": 12043,
    "pse": 21011,
    "hunsford": 24385,
    "Ġbawling": 25946,
    "Ġoutlaws": 22328,
    "Ġisland": 4044,
    "Ġwhereas": 3854,
    "ceiling": 21631,
    "Ġexploration": 2334,
    "Ġcleaned": 23187,
    "Ġwoeful": 19622,
    "Ġimposs": 16617,
    "get": 1020,
    "oubted": 5861,
    "fortunes": 6334,
    "Ġupdates": 1298,
    "Ġboats": 2638,
    "leading": 15565,
    "general": 7490,
    "whales": 5187,
    "Ġbaptized": 25775,
    "Ġeleventh": 23372,
    "acters": 9311,
    "Ġdusk": 12330,
    "Ġhinted": 6014,
    "mology": 12495,
    "Ġrecommending": 24332,
    "Ġveget": 11889,
    "Ġteach": 8555,
    "Ġclapham": 17267,
    "adventurous": 25362,
    "hedge": 22503,
    "persuaded": 15076,
    "Ġlac": 17967,
    "Ġfoliage": 18868,
    "Ġpikes": 21482,
    "measure": 10033,
    "Ġanything": 2186,
    "pronounce": 25193,
    "Ġtore": 6532,
    "Ġobstacle": 16956,
    "sus": 6230,
    "Ġoutward": 7905,
    "Ġhearing": 4761,
    "Ġsteam": 9355,
    "Ġbreathed": 11221,
    "Ġtus": 10750,
    "william": 4560,
    "Ġryder": 10260,
    "Ġpetrified": 19599,
    "Ġhideousness": 16916,
    "Ġexperiences": 13034,
    "Ġunsounded": 15852,
    "Ġflap": 14424,
    "Ġda": 5150,
    "warmly": 25029,
    "Ġdowncast": 18651,
    "mate": 5359,
    "destined": 24114,
    "Ġdates": 6695,
    "alarmed": 21507,
    "Ġassailed": 23182,
    "Ġtalent": 12300,
    "Ġbel": 1218,
    "luxur": 25823,
    "Ġinteractions": 12908,
    "aw": 1448,
    "exhibited": 18478,
    "Ġbakers": 17868,
    "alk": 1153,
    "ques": 2840,
    "Ġbarbed": 14837,
    "Ġbricks": 13564,
    "unken": 10238,
    "Ġreminded": 10001,
    "frisco": 16788,
    "Ġfanning": 23393,
    ",_": 11463,
    "akness": 14196,
    "ms": 542,
    "disgrace": 16460,
    "connection": 18869,
    "aced": 2406,
    "Ġallowance": 14391,
    "sir": 5000,
    "fat": 8080,
    "Ġvide": 10252,
    "thousands": 16871,
    "dissatisf": 26130,
    "Ġernest": 8720,
    "glo": 8741,
    "Ġlicensing": 20096,
    "asht": 4081,
    "confess": 12179,
    "Ġchili": 25562,
    "ipping": 2206,
    "spite": 16141,
    "Ġoverseeing": 22355,
    "Ġelizabeth": 1130,
    "Ġnlp": 3058,
    "you": 1005,
    "Ġmaritime": 23041,
    "knows": 19174,
    "Ġbales": 21392,
    "coun": 10689,
    "Ġproble": 1111,
    "Ġhymn": 24517,
    "Ġeuroclydon": 15299,
    "beheaded": 22497,
    "Ġpenetrate": 12273,
    "Ġsmothered": 20722,
    "Ġagrippa": 11810,
    "ray": 2435,
    "Ġrecovered": 5481,
    "perai": 10278,
    "Ġimple": 1691,
    "Ġrates": 1405,
    "promise": 12254,
    "Ġsteelkilt": 5675,
    "grown": 10101,
    "Ġoutrages": 18415,
    "Ġsustained": 13484,
    "Ġtouches": 20573,
    "plete": 10920,
    "Ġcoin": 9773,
    "rannical": 26402,
    "Ġvindictive": 20473,
    "âĢĺ": 941,
    "Ġcontinuation": 22922,
    "Ġpistol": 7848,
    "Ġoccas": 2704,
    "places": 7881,
    "parm": 21016,
    "Ġcaptive": 14429,
    "Ġanat": 8125,
    "kovoko": 20672,
    "retch": 4369,
    "Ġbore": 5079,
    "etics": 21585,
    "Ġvari": 835,
    "Ġevils": 9022,
    "Ġsentence": 6188,
    "Ġimpatient": 5602,
    "murderers": 25728,
    "vol": 715,
    "approached": 13487,
    "Ġcallest": 17834,
    "ercial": 21277,
    "Ġinfatuated": 20537,
    "Ġexcited": 5579,
    "Ġtal": 7565,
    "sens": 8097,
    "Ġprice": 10404,
    "joint": 24012,
    "Ġmir": 9648,
    "Ġunimportant": 22033,
    "Ġfolly": 7942,
    "pronounced": 12349,
    "Ġuntamed": 19166,
    "whispered": 20037,
    "Ġjupiter": 17458,
    "Ġchristians": 13311,
    "Ġwhelm": 25999,
    "derbyshire": 18322,
    "Ġanticipation": 17058,
    "Ġchimer": 24604,
    "Ġpanelled": 19657,
    "Ġtolerably": 8069,
    "Ġslice": 23165,
    "Ġpossibility": 7458,
    "ended": 1836,
    "Ġyoke": 18098,
    "Ġaccur": 3711,
    "Ġnerve": 16343,
    "Ġsmitten": 12904,
    "Ġissu": 6255,
    "collect": 16564,
    "forbidding": 25839,
    "ploy": 2066,
    "Ġtapping": 10753,
    "had": 1950,
    "Ġwind": 1435,
    "ment": 690,
    "pad": 13770,
    "Ġcharacters": 9374,
    "heads": 4092,
    "Ġreached": 4019,
    "Ġrabb": 4160,
    "Ġhydraulic": 10066,
    "Ġbennets": 9808,
    "sam": 21054,
    "arter": 17895,
    "Ġpalace": 16690,
    "Ġquar": 3108,
    "peare": 18913,
    "oquence": 11387,
    "Ġband": 5292,
    "'s": 2467,
    "lilies": 20963,
    "Ġain": 6970,
    "oun": 482,
    "deliber": 17428,
    "keep": 3850,
    "Ġpertaining": 18451,
    "abby": 14023,
    "finger": 10095,
    "Ġboil": 16107,
    "Ġtongs": 9963,
    "Ġclanking": 20614,
    "cient": 4567,
    "Ġstave": 11653,
    "Ġdeclining": 23967,
    "soft": 12513,
    "Ġobliv": 16136,
    "Ġrespite": 13156,
    "condition": 7061,
    "Ġcomparison": 7101,
    "talk": 6659,
    "events": 12320,
    "result": 12046,
    "shrouded": 26363,
    "Ġvoyagings": 19238,
    "Ġquarrel": 7292,
    "Ġrecumbent": 22744,
    "Ġproduces": 2094,
    "Ġlakeman": 6987,
    "Ġstaggering": 20276,
    "Ġweariness": 19797,
    "Ġdeliciousness": 24126,
    "Ġpatagon": 14496,
    "Ġfast": 1717,
    "Ġornamented": 20365,
    "beards": 22495,
    "Ġascribed": 14857,
    "Ġsax": 10930,
    "ignified": 14491,
    "uracy": 1114,
    "Ġisolation": 17152,
    "unhesitatingly": 26497,
    "Ġslit": 13060,
    "ber": 905,
    "Ġcourtiers": 24136,
    "Ġagonized": 25373,
    "Ġunsupervised": 2619,
    "Ġofficious": 19351,
    "kindly": 14746,
    "Ġbrist": 14380,
    "Ġinexorable": 12259,
    "Ġobliged": 4284,
    "Ġcalf": 16269,
    "Ġattends": 19653,
    "Ġliterature": 17150,
    "Ġhoist": 11979,
    "Ġpalsied": 25780,
    "Ġimprudence": 10299,
    "empty": 23637,
    "Ġfixed": 2686,
    "Ġgoal": 10303,
    "Ġsound": 2242,
    "bour": 2073,
    "**": 4685,
    "tish": 17678,
    "ses": 3024,
    "Ġbureau": 11592,
    "Ġunscrew": 22043,
    "treatment": 20415,
    "ooped": 17624,
    "rences": 9274,
    "Ġarchitectures": 2908,
    "enter": 7859,
    "consp": 18506,
    "love": 9296,
    "Ġbarn": 11589,
    "Ġfamiliarly": 11304,
    "tete": 10733,
    "Ġpronouncing": 16970,
    "Ġprofessed": 14726,
    "Ġsuspect": 5758,
    "Ġsets": 8778,
    "noticed": 14343,
    "presumption": 20445,
    "ter": 359,
    "Ġcondense": 21813,
    "Ġcatches": 23429,
    "tuning": 1585,
    "Ġminers": 22835,
    "exposure": 19259,
    "Ġpursuers": 13229,
    "Ġnumberless": 16418,
    "Ġfreshet": 25704,
    "Ġdisregarded": 22535,
    "Ġbuild": 6475,
    "Ġvessels": 6757,
    "third": 8169,
    "independ": 15984,
    "Ġpepper": 9783,
    "dress": 17521,
    "ologically": 22853,
    "Ġplaced": 3443,
    "endent": 15922,
    "semble": 1523,
    "Ġtended": 21169,
    "ashion": 3858,
    "Ġsincerity": 13681,
    "Ġmenacing": 23114,
    "Ġdeal": 3609,
    "lightning": 16553,
    "diminished": 20841,
    "quered": 11056,
    "usage": 12838,
    "Ġgloss": 11961,
    "legs": 13184,
    "leagued": 26436,
    "whatever": 6696,
    "ractions": 11635,
    "hurriedly": 25511,
    "Ġdoran": 9181,
    "mes": 1199,
    "swelled": 19613,
    "nment": 20992,
    "Ġsembl": 19061,
    "Ġtremendous": 8354,
    "Ġunansw": 22061,
    "Ġcusack": 26434,
    "Ġgloried": 22991,
    "teen": 6371,
    "Ġmodified": 14170,
    "antucket": 2645,
    "begin": 8886,
    "torm": 11532,
    "Ġswiftness": 9929,
    "tains": 10963,
    "know": 2316,
    "ever": 1078,
    "Ġfeasts": 25370,
    "Ġflashes": 11919,
    "norm": 20987,
    "Ġcurious": 3361,
    "Ġundue": 25994,
    "ny": 4012,
    "Ġdeserves": 13292,
    "Ġepis": 19985,
    "tied": 21073,
    "glances": 23856,
    "Ġthrusting": 10554,
    "thin": 14099,
    "Ġpilgr": 12184,
    "itively": 21334,
    "groom": 8743,
    "Ġauthent": 14507,
    "jolly": 20933,
    "Ġattendance": 12185,
    "Ġreceptive": 1563,
    "Ġbaw": 15572,
    "Ġtaffrail": 15478,
    "recurring": 24196,
    "commend": 19996,
    "Ġxxxix": 24973,
    "hoping": 17567,
    "Ġprehensile": 26535,
    "rell": 11565,
    "Ġyield": 5093,
    "Ġenrolled": 21942,
    "flying": 13723,
    "Ġsquire": 16182,
    "Ġbeaufort": 13570,
    "Ġ101": 24408,
    "Ġrope": 4336,
    "ootiful": 17375,
    "Ġpurch": 6601,
    "Ġclosest": 16764,
    "Ġtransc": 12870,
    "Ġreciprocating": 26371,
    "Ġstartled": 7084,
    "Ġlump": 21556,
    "Ġscan": 22284,
    "Ġextended": 7926,
    "Ġinquis": 19305,
    "th": 407,
    "Ġtant": 12529,
    "sych": 9889,
    "Ġxiii": 25592,
    "Ġchristendom": 16695,
    "methodically": 20666,
    "strained": 21656,
    "Ġleague": 6540,
    "Ġfastened": 7067,
    "thur": 7188,
    "brink": 23578,
    "asion": 5714,
    "watson": 12247,
    "Ĩ": 233,
    "Ġdestruction": 6602,
    "Ġgeese": 7696,
    "high": 6652,
    "Ġrob": 1268,
    "els": 1767,
    "Ġmagician": 25061,
    "pidation": 18898,
    "Ġassaulted": 25321,
    "Ġintention": 5638,
    "aware": 16297,
    "Ġcurrents": 13019,
    "lined": 12487,
    "Ġexpanding": 25239,
    "_).": 5889,
    "directed": 20408,
    "atiable": 17775,
    "Ġobscure": 9556,
    "Ġmurderers": 16812,
    "Ġconcre": 16392,
    "vand": 21111,
    "Ġpurporting": 19184,
    "Ġsystem": 572,
    "Ġroutine": 13509,
    "measureless": 20238,
    "ĠĠĠĠĠĠĠĠĠĠĠĠĠĠĠĠĠĠĠĠĠĠĠĠĠĠĠĠĠĠĠĠĠĠĠĠĠĠĠĠĠĠĠĠĠĠĠĠĠ": 20041,
    "ak": 537,
    "indifference": 15985,
    "Ġdisease": 14259,
    "Ġhumility": 12988,
    "confl": 22474,
    "Ġjoints": 12038,
    "Ġsunda": 13545,
    "endeavour": 17031,
    "illuminated": 17455,
    "Ġtrucks": 19515,
    "Ġdishon": 12234,
    "Ġaveraging": 2417,
    "Ġcourage": 4633,
    "Ġwithdrawn": 10608,
    "Ġcha": 6853,
    "robust": 19730,
    "Ġsolutions": 1947,
    "enthus": 17980,
    "Ġembatt": 18840,
    "ulgent": 18152,
    "Ġunf": 4087,
    "privilege": 25264,
    "voice": 7817,
    "derest": 18316,
    "Ġmarks": 6748,
    "Ġvisibly": 22883,
    "Ġgranted": 22811,
    "Ġunallied": 22035,
    "Ġwhittling": 20702,
    "cle": 3954,
    "Ġexcused": 23317,
    "Ġlombardy": 26464,
    "money": 8753,
    "Ġcarve": 23097,
    "Ġpropag": 16350,
    "Ġpretensions": 16559,
    "Ġplease": 4722,
    "Ġaustralia": 15235,
    "Ġascending": 14856,
    "imprudence": 16558,
    "adler": 21767,
    "Ġchry": 22251,
    "spread": 8390,
    "Ġbrougham": 17872,
    "Ġworms": 25217,
    "Ġswaths": 23060,
    "opard": 9293,
    "Ġwallow": 19469,
    "Ġmort": 3459,
    "Ġtens": 17724,
    "science": 11912,
    "Ġamateur": 22490,
    "Ġsenor": 20153,
    "Ġtill": 1827,
    "Ġjuncture": 17131,
    "Ġtip": 15473,
    "Ĥ": 229,
    "Ġstaircase": 20099,
    "Ġhip": 17923,
    "art": 585,
    "natured": 7112,
    "Ġstress": 18069,
    "visitor": 15061,
    "Ġblackest": 19100,
    "nuee": 17432,
    "Ġwhites": 21721,
    "Ġdestro": 3722,
    "Ġconcept": 673,
    "riend": 1187,
    "Ġgrand": 3593,
    "Ġremorselessly": 16968,
    "windward": 24162,
    "Ġface": 1722,
    "Ġabounding": 12347,
    "Ġpainter": 19170,
    "through": 4020,
    "Ġirregularity": 25325,
    "eluded": 21579,
    "ge": 560,
    "Ġembarked": 17136,
    "Ġdisconsolate": 20721,
    "Ġradney": 6776,
    "def": 1451,
    "Ġtemporarily": 11168,
    "Ġalready": 2713,
    "Ġsalad": 19482,
    "Ġmamma": 10050,
    "Ġdismay": 11812,
    "Ġhot": 4256,
    "Ġconjure": 17125,
    "Ġtype": 2019,
    "Ġcompelled": 14267,
    "repid": 11566,
    "social": 11023,
    "Ġchilly": 25563,
    "Ġtiles": 17727,
    "elihood": 4621,
    "Ġlovers": 9722,
    "indul": 22375,
    "Ġdidst": 11852,
    "serious": 14450,
    "Ġsuits": 22087,
    "Ġbomb": 17869,
    "Ġhairs": 13234,
    "render": 10292,
    "Ġactively": 18655,
    "Ġmajor": 13294,
    "Ġmadden": 10448,
    "rance": 5996,
    "Ġdarker": 13122,
    "Ġappalling": 8501,
    "Ġcerem": 7079,
    "Ġpipe": 4319,
    "heaved": 21213,
    "benevol": 12230,
    "eries": 6809,
    "Ġinconstant": 21500,
    "Ġbouton": 17870,
    "Ġpicture": 4857,
    "Ġlurks": 11291,
    "Ġpurpose": 2709,
    "unbounded": 21890,
    "Ġinsensible": 12328,
    "flame": 16639,
    "Ġ8": 5433,
    "london": 9611,
    "Ġcommonplaces": 16291,
    "Ġcircumnavigating": 25615,
    "Ġmanifold": 13562,
    "Ġinmost": 17933,
    "Ġstrolled": 16771,
    "Ġthursday": 12649,
    "Ġbor": 5805,
    "sac": 7142,
    "Ġhissed": 15792,
    "masculine": 24386,
    "Ġmonsie": 11448,
    "continuing": 24478,
    "Ġphilist": 16602,
    "sey": 5542,
    "Ġneg": 1333,
    "human": 7090,
    "bee": 16039,
    "relu": 17760,
    "Ġdefence": 11068,
    "contents": 12061,
    "Ġgrieve": 14709,
    "Ġstalk": 12702,
    "Ġcollecting": 12289,
    "Ġgirth": 13137,
    "dimly": 15349,
    "mystic": 25317,
    "Ġslaughter": 20732,
    "Ġcommerce": 11016,
    "Ġperpendicular": 7209,
    "Ġspires": 11733,
    "Ġgrecian": 26297,
    "Ġcontriv": 9284,
    "Ġtook": 1857,
    "Ġscotland": 6642,
    "Ġexquisite": 12385,
    "Ġsweetly": 23922,
    "rael": 21633,
    "Ġprophesied": 26063,
    "Ġslavish": 23178,
    "beaut": 8515,
    "Ġmyst": 4046,
    "Ġinev": 10183,
    "Ġunique": 12783,
    "Ġfinest": 10394,
    "Ġchose": 7413,
    "ensils": 22553,
    "Ġdisgust": 6707,
    "Ġcuriosities": 26291,
    "Ġbol": 6243,
    "anting": 6413,
    "retion": 9364,
    "Ġilleg": 21622,
    "esu": 17903,
    "Ġstricken": 9778,
    "cloudless": 20335,
    "Ġdeduced": 12211,
    "enemy": 15529,
    "or": 282,
    "Ġfilters": 3926,
    "Ġranges": 2881,
    "Ġpace": 9185,
    "neighbouring": 19967,
    "alongside": 19792,
    "meant": 7923,
    "Ġmister": 22758,
    "Ġlandlady": 10423,
    "Ġcircumst": 2973,
    "Ġped": 7846,
    "Ġmab": 12564,
    "Ġlegisl": 23537,
    "Ġscrewing": 20211,
    "Ġmitig": 1337,
    "Ġsupp": 1263,
    "Ġfrontispiece": 23917,
    "Ġcomparable": 24280,
    "ede": 21510,
    "unsuitable": 21898,
    "Ġsabbee": 17257,
    "wal": 10135,
    "Ġfoolishly": 19785,
    "Ġabhor": 5467,
    "unimportant": 18162,
    "usive": 8193,
    "advent": 10222,
    "Ġplumage": 17300,
    "binnacle": 20789,
    "Ġshoot": 11162,
    "merged": 11194,
    "icates": 11619,
    "clay": 18933,
    "tipt": 25086,
    "Ġdol": 9666,
    "icle": 10835,
    "dition": 15341,
    "Ġsympathetic": 17361,
    "representation": 20199,
    "Ġselfishness": 12292,
    "gus": 13727,
    "alions": 21505,
    "ree": 874,
    "Ġthrough": 603,
    "Ġconceit": 7295,
    "nowledge": 10291,
    "Ġsympathy": 6348,
    "Ġignominy": 15088,
    "Ġinterpreted": 1708,
    "Ġhands": 1665,
    "Ġfalling": 6915,
    "trembling": 17144,
    "horrors": 20544,
    "iless": 10283,
    "Ġbusied": 19066,
    "Ġsketch": 16167,
    "Ġhuff": 21494,
    "87": 20759,
    "Ġinvariable": 13458,
    "Ġbarrow": 12073,
    "Ġdeeply": 4716,
    "insupportable": 21196,
    "bing": 7793,
    "other": 1314,
    "xology": 21144,
    "Ġmaximizing": 3163,
    "fears": 18529,
    "Ġbridal": 14956,
    "cri": 17507,
    "distinguish": 19575,
    "Ġpon": 10177,
    "el": 306,
    "Ġhospitable": 17060,
    "Ġbush": 23341,
    "windows": 19537,
    "arness": 11674,
    "Ġrepentance": 15163,
    "aurs": 20771,
    "Ġcolder": 22859,
    "Ġcab": 2633,
    "Ġreplen": 11115,
    "Ġrack": 9314,
    "Ġprofessional": 7299,
    "Ġinwards": 15624,
    "Ġraises": 11848,
    "iterranean": 15553,
    "Ġattorney": 18627,
    "ryder": 18637,
    "boiling": 19001,
    "idel": 5301,
    "Ġdoesn": 7438,
    "ifle": 10892,
    "Ġcardboard": 19982,
    "Ġdust": 5911,
    "shabb": 18490,
    "extensive": 18711,
    "Ġcho": 4545,
    "Ġhotels": 19539,
    "Ġaffright": 9334,
    "Ġjustification": 22972,
    "Ġcastors": 23979,
    "B": 38,
    "akened": 7415,
    "usation": 18402,
    "impart": 21713,
    "Ġstamping": 20034,
    "Ġchorus": 10948,
    "Ġrespectively": 23252,
    "Ġundivided": 24120,
    "Ġheire": 18039,
    "sively": 13788,
    "Ġpulley": 2974,
    "uttural": 21593,
    "elzebub": 26465,
    "Ġvelvets": 25394,
    "uated": 10133,
    "Ġdoor": 1740,
    "ilib": 4114,
    "damp": 15346,
    "Ġgods": 6455,
    "roc": 9676,
    "Ġblasted": 7939,
    "ational": 5716,
    "Ġwolfish": 25936,
    "Ġwarehouse": 20420,
    "Ġtall": 4034,
    "housekeeping": 24102,
    "Ġseveral": 2674,
    "p": 84,
    "Ġconvolutions": 21812,
    "Ġpasseng": 12975,
    "reached": 13843,
    "Ġduke": 7757,
    "ruck": 6848,
    "Ġpersonality": 16478,
    "Ġmeditate": 16708,
    "ffic": 22156,
    "acting": 22634,
    "arying": 9803,
    "Ġpathetic": 19015,
    "iply": 22358,
    "Ġsubtle": 6718,
    "Ġwilfully": 16767,
    "Ġshrivelled": 19706,
    "Ġle": 333,
    "eenth": 12464,
    "Ġchivalry": 25820,
    "armon": 23061,
    "Ġsits": 10769,
    "Ġmonkey": 8227,
    "Ġpowdered": 24239,
    "yra": 8104,
    "Ġanon": 9668,
    "Ġwiser": 14732,
    "Ġmaintain": 857,
    "Ġdict": 9177,
    "Ġarmy": 11744,
    "Ġpitiless": 19391,
    "Ġfavours": 23286,
    "Ġmercy": 9000,
    "hetic": 12207,
    "Ġtrad": 9830,
    "Ġride": 12763,
    "Ġbespe": 19244,
    "Ġunwell": 22020,
    "âĢľ_": 5720,
    "Ġdefici": 22947,
    "Ġcakes": 13886,
    "Ġcalamity": 17351,
    "Ġhad": 441,
    "Ġpursu": 3237,
    "Ġitself": 2519,
    "Ġhours": 2819,
    "Ġmarbank": 23040,
    "Ġ93": 24593,
    "latter": 15385,
    "Ġfished": 21414,
    "Ġoversampling": 20519,
    "Ġdrops": 9034,
    "Ġrepent": 9865,
    "uncle": 8160,
    "ropes": 7906,
    "Ġaudible": 19883,
    "Ġfring": 11128,
    "Ġgentlemanly": 19318,
    "discredit": 24252,
    "Ġdislike": 6050,
    "discrimin": 19611,
    "Ġeyed": 12674,
    "Ġmur": 2487,
    "christmas": 20258,
    "Ġneatly": 17017,
    "Ġreel": 9215,
    "Ġbread": 5404,
    "chel": 11208,
    "Ġconfusion": 7273,
    "vult": 21116,
    "Ġxl": 11992,
    "Ġgives": 5017,
    "Ġcoincidences": 26365,
    "stubb": 6020,
    "surd": 6934,
    "Ġbrilliancy": 20110,
    "Ġbefallen": 12346,
    "shoulder": 16585,
    "Ġpunctures": 25136,
    "Ġaffording": 14823,
    "Ġast": 2960,
    "Ġskrimshander": 22802,
    "Ġpost": 4271,
    "Ġoccurred": 4461,
    "Ġmisconduct": 22761,
    "Ġspectacle": 10498,
    "Ġbegat": 18864,
    "restrained": 16339,
    "Ġrelev": 1714,
    "Ġeventually": 8620,
    "antediluvian": 24345,
    "Ġkuiperai": 10936,
    "Ġbene": 2031,
    "lantic": 6365,
    "Ġgeneva": 5450,
    "Ġcottage": 4733,
    "musical": 25341,
    "Ġwhirlp": 16964,
    "Ġimaginations": 16518,
    "Ġtempestuous": 20074,
    "Ġpiratical": 24798,
    "Ġpaus": 4297,
    "kicked": 20945,
    "cake": 20806,
    "Ġfin": 1460,
    "Ġreconc": 9685,
    "Ġunremitting": 26219,
    "Ġdesisted": 22979,
    "Ġju": 10288,
    "bery": 9796,
    "coburg": 13600,
    "undant": 14789,
    "Ġreminiscences": 26271,
    "Ġscowl": 22290,
    "Ġskulls": 12963,
    "Ġomens": 21331,
    "contain": 18504,
    "Ġborder": 10171,
    "whaleman": 23438,
    "Ġsuddenly": 2647,
    "Ġinconvenience": 9565,
    "Ġteased": 18803,
    "tal": 17671,
    "Ġhysterics": 26094,
    "Ġsorting": 3231,
    "Ġcirclings": 26432,
    "remark": 7261,
    "Ġrenounce": 19471,
    "Ġchamber": 6215,
    "anth": 13889,
    "Ġvexed": 9996,
    "Ġexist": 9233,
    "Ġhummed": 18781,
    "Ġelderly": 13496,
    "Ġfidget": 15192,
    "upp": 10132,
    "Ġlimited": 23547,
    "amuse": 14054,
    "Ġforeign": 9874,
    "Ġdeject": 10881,
    "transp": 24508,
    "backs": 9393,
    "Ġclient": 5555,
    "Ġseas": 3074,
    "decor": 23783,
    "Ġsheets": 9724,
    "ishe": 13893,
    "Ġtracing": 18890,
    "Ġmet": 1940,
    "Ġinvulnerable": 19148,
    "andromeda": 21873,
    "continu": 5501,
    "leman": 21371,
    "Ġbuff": 9174,
    "Ġsworn": 14437,
    "jar": 17578,
    "Ġvit": 10247,
    "pool": 16211,
    "tub": 9145,
    "Ġwashed": 15768,
    "Ġoldest": 12977,
    "Ġdownward": 10333,
    "Ġconcentration": 25065,
    "Ġsinusoid": 4781,
    "Ġmim": 3101,
    "Ġundecided": 22051,
    "Ġblown": 12089,
    "itary": 4751,
    "Ġassume": 10517,
    "Ġcoloss": 11047,
    "exercise": 17461,
    "Ġindign": 6175,
    "ilst": 8145,
    "Ġnext": 2140,
    "ping": 9617,
    "Ġpoints": 5249,
    "foreseen": 14255,
    "farm": 15354,
    "Ġdairy": 20689,
    "Ġfloats": 9415,
    "forecastle": 10991,
    "vation": 4744,
    "Ġ57": 24320,
    "resolution": 17767,
    "Ġwails": 21299,
    "Ġsucceeding": 16762,
    "lies": 15384,
    "odhead": 18121,
    "apable": 6423,
    "crime": 14777,
    "umps": 6319,
    "conditionally": 24835,
    "Ġdan": 8796,
    "Ġagon": 10322,
    "Ġtattoo": 7359,
    "Ġdecap": 16028,
    "Ġmagnanim": 14474,
    "banish": 20784,
    "Ġlull": 15654,
    "Ġcopied": 20011,
    "Ġrevolt": 24500,
    "Ġfully": 6344,
    "iteous": 14263,
    "snap": 24849,
    "Ġqualifications": 24676,
    "Ġhoot": 19076,
    "bation": 9105,
    "pe": 1438,
    "Ġdisobey": 18560,
    "Ġpersisted": 13046,
    "ized": 1526,
    "Ġpom": 21456,
    "Ġpartaking": 22703,
    "Ġassistance": 6335,
    "agitation": 14070,
    "buttons": 22405,
    "Ġconsecutive": 20705,
    "Ġbars": 13899,
    "hero": 21207,
    "Ġowen": 15097,
    "marrying": 19550,
    "figured": 20126,
    "Ġlabour": 7274,
    "Ġgiddy": 20500,
    "Ġseeking": 7038,
    "Ġslip": 8956,
    "hosmer": 25903,
    "isher": 2876,
    "Ġmess": 7832,
    "Ġrequested": 14305,
    "xter": 9148,
    "forever": 22524,
    "earthquakes": 24724,
    "ouble": 2661,
    "idge": 14016,
    "Ġknot": 7013,
    "Ġhuman": 1318,
    "Ġdistrustful": 25057,
    "su": 810,
    "interchange": 23742,
    "acceptable": 25185,
    "Ġcrew": 2494,
    "Ġhut": 15622,
    "Ġpaunch": 23752,
    "ĠĠĠĠĠĠĠĠĠĠĠĠĠĠĠĠĠĠĠĠĠĠĠĠĠĠĠĠĠĠĠĠĠĠĠĠĠĠĠĠĠĠĠĠ": 12157,
    "cuniary": 26380,
    "Ġalms": 21785,
    "abilities": 3234,
    "Ġdesiring": 14416,
    "pute": 8848,
    "Ġtangle": 25761,
    "Ġtent": 15469,
    "deliver": 19507,
    "Ġteasing": 11893,
    "overcome": 19052,
    "Ġasyl": 12739,
    "Ġprofundities": 20456,
    "Ġcaring": 23096,
    "Ġ22": 8280,
    "Ġbapt": 13898,
    "Ġsearch": 2589,
    "inating": 9155,
    "amore": 21848,
    "cloth": 11940,
    "Ġstorm": 4299,
    "Ġscrewed": 15123,
    "Ġshell": 11739,
    "fine": 10092,
    "uvier": 9070,
    "Ġsne": 6373,
    "cleanliness": 25872,
    "Ġtoilette": 20496,
    "Ġalcoves": 26487,
    "Ġdrown": 6816,
    "Ġwhitting": 18058,
    "Ġperemptorily": 17369,
    "Ġenchantment": 24870,
    "Ġhiding": 9825,
    "ell": 395,
    "approb": 11043,
    "daughters": 13468,
    "earnest": 12402,
    "Ġ70": 11277,
    "Ġscenari": 22292,
    "Ġpict": 3498,
    "Ġcomprising": 16071,
    "Ġcrotch": 9965,
    "Ġsharpened": 17367,
    "Ġcr": 2150,
    "Ġcomputations": 16002,
    "fur": 6357,
    "Ġsupre": 10271,
    "Ġlistening": 6320,
    "54": 15302,
    "Ġamphitheat": 26254,
    "Ġsafie": 6620,
    "Ġobviously": 16811,
    "Ġfearfully": 23513,
    "conf": 4956,
    "Ġtermination": 16462,
    "Ġintrude": 25991,
    "Ġvener": 8165,
    "utral": 12668,
    "Ġsacri": 18334,
    "iliary": 21731,
    "oc": 2833,
    "Ġunfailing": 24111,
    "Ġinvaders": 23482,
    "Ġcommod": 10335,
    "Ġconstitution": 20112,
    "ustom": 3789,
    "Ġdelights": 14597,
    "Ġwish": 2098,
    "Ġmeal": 9699,
    "Ġvi": 1952,
    "steaks": 23964,
    "Ġwatson": 3597,
    "Ġunconquerable": 22066,
    "Ġpeace": 3692,
    "Ġwaifing": 25244,
    "hinting": 17570,
    "hauled": 20671,
    "Ġwindings": 18911,
    "Ġreliability": 22886,
    "Ġdisgra": 18550,
    "Ġforeseeing": 23451,
    "Ġseeming": 8542,
    "details": 19678,
    "Ġjeroboam": 10602,
    "Ġlapl": 19780,
    "Ġmacy": 19358,
    "excepting": 19709,
    "Ġscr": 11763,
    "supper": 12928,
    "Ġshifting": 12773,
    "solitary": 14510,
    "putting": 14102,
    "Ġpointed": 4773,
    "ceased": 21630,
    "apering": 8042,
    "Ġunaccountably": 26516,
    "Ġpurport": 14581,
    "Ġsinks": 19552,
    "Ġadagrad": 2901,
    "Ġcosmopolitan": 20643,
    "smug": 23911,
    "teness": 23208,
    "Ġemerging": 24614,
    "Ġger": 21595,
    "Ġorgans": 15868,
    "Ġpattering": 18650,
    "grow": 10100,
    "persons": 24176,
    "pra": 15409,
    "compliments": 24807,
    "Ġlove": 2053,
    "aggoo": 5130,
    "Ġreaching": 7303,
    "abhorred": 17338,
    "rad": 2153,
    "relig": 15514,
    "Ġcandidates": 4331,
    "Ġepo": 21625,
    "purposes": 25024,
    "Ġarranging": 11175,
    "Ġpromethe": 14470,
    "distinct": 13338,
    "between": 5071,
    "Ġbutt": 14127,
    "Ġcoils": 9305,
    "Ġfellow": 2778,
    "Ġgallant": 8658,
    "Ġlanguages": 1569,
    "Ġpendulous": 25956,
    "Ġbohemian": 17135,
    "ler": 3490,
    "asiness": 8130,
    "Ġdivine": 6921,
    "Ġringing": 13334,
    "Ġsharper": 17181,
    "gloom": 17141,
    "Ġinvests": 14870,
    "Ġninety": 13603,
    "pursuit": 20343,
    "Ġtears": 4228,
    "Ġrespons": 2685,
    "Ġtreated": 7082,
    "ried": 926,
    "opinion": 10986,
    "cating": 20804,
    "Ġremarkable": 4915,
    "shelf": 20384,
    "merit": 19283,
    "possession": 12225,
    "Ġunited": 6840,
    "Ġinvisible": 7327,
    "scream": 11077,
    "Ġfogs": 25283,
    "constant": 11325,
    "Ġsplend": 9900,
    "Ġadmirals": 20388,
    "Ġgarnery": 17389,
    "ides": 2161,
    "Ġ/*": 10141,
    "Ġfix": 2506,
    "Ġlament": 7858,
    "Ġaudibly": 24770,
    "Ġblow": 3374,
    "Ġscholars": 26113,
    "nect": 662,
    "Ġtimidity": 24688,
    "ercely": 12554,
    "Ġwaving": 8579,
    "Ġlionel": 25287,
    "wound": 21129,
    "Ġutility": 23515,
    "surf": 24214,
    "Ġentirely": 3433,
    "Ġtouch": 3395,
    "Ġprovoking": 16744,
    "ather": 741,
    "Ġterror": 5124,
    "Ġfruits": 17120,
    "Ġgrudge": 20696,
    "Ġop": 2602,
    "Ġdoubt": 2224,
    "Ġhil": 10822,
    "Ġinconveniences": 24942,
    "proof": 16426,
    "ollen": 11299,
    "artificial": 987,
    "Ġgravel": 14104,
    "meanwhile": 10611,
    "ifix": 21908,
    "Ġdefault": 3036,
    "Ġisles": 8461,
    "Ġdummy": 25450,
    "who": 2443,
    "Ġfrance": 7684,
    "Ġpeninsula": 23200,
    "Ġdefend": 9342,
    "Ġaper": 17744,
    "Ġholes": 16410,
    "Ġlids": 12279,
    "Ġexhaustion": 14963,
    "ounts": 4651,
    "Ġadvers": 4887,
    "Ġscru": 8192,
    "Ġbordeaux": 24564,
    "annica": 24561,
    "support": 9471,
    "Ġ$": 21153,
    "Ġsteadfast": 8682,
    "solid": 16383,
    "duodecimo": 16005,
    "gratification": 24347,
    "Ġknows": 4156,
    "Ġseclusion": 18207,
    "Ġhimmalehs": 26232,
    "Ġfound": 1245,
    "Ġunsolved": 22036,
    "Ġxxxi": 24971,
    "Ġarch": 932,
    "Ġreasons": 6022,
    "Ġshone": 7404,
    "Ġbreast": 8970,
    "Ġpra": 4344,
    "Ġvisage": 18776,
    "Ġdenomin": 12071,
    "oped": 6049,
    "copyright": 5278,
    "Ġasia": 11685,
    "Ġrisk": 8040,
    "Ġstrait": 23753,
    "Ġadopt": 10634,
    "Ġvacuous": 24343,
    "Ġslaugh": 18940,
    "Ġaccount": 2318,
    "Ġbarriers": 23797,
    "step": 2453,
    "Ġcoding": 8117,
    "Ġwelcomed": 9484,
    "Ġstiggs": 25793,
    "Ġdesc": 773,
    "churning": 21701,
    "effectually": 25131,
    "accounted": 16503,
    "Ġmixing": 24937,
    "wandering": 20287,
    "Ñ": 146,
    "Ġboisterous": 20446,
    "Ġardently": 9500,
    "Ġunprincipled": 20710,
    "erable": 1917,
    "Ġwax": 10777,
    "wr": 3025,
    "Ġcompat": 2936,
    "sw": 4741,
    "Ġbuoyed": 20044,
    "isms": 12585,
    "pitchpoling": 25725,
    "drew": 7334,
    "Ġreducing": 1956,
    "bourne": 19104,
    "pleased": 8856,
    "rug": 18340,
    "onsense": 6432,
    "Ġevangel": 11281,
    "ras": 21039,
    "separately": 25228,
    "tic": 8392,
    "Ġseparately": 13305,
    "indulged": 22380,
    "Ġfraud": 19020,
    "Ġhastening": 19338,
    "Ġparr": 22124,
    "Ġhalts": 3153,
    "Ġstronger": 8582,
    "sme": 17659,
    "opp": 6963,
    "Ġsuperhuman": 23454,
    "Ġinj": 4760,
    "hangs": 15371,
    "Ġzealand": 12353,
    "Ġboon": 22640,
    "ackinaw": 22430,
    "quet": 6835,
    "meet": 11859,
    "Ġdebt": 12171,
    "oam": 8755,
    "Ġinsular": 19270,
    "Ġspan": 11731,
    "Ġrefreshment": 17241,
    "umber": 5241,
    "Ġaccents": 14212,
    "Ġchance": 3318,
    "ravelled": 18017,
    "Ġcad": 12572,
    "earnestly": 17315,
    "Ġaug": 6236,
    "Ġbecame": 2693,
    "yarn": 15459,
    "Ġineffect": 13932,
    "tically": 3392,
    "verity": 14003,
    "Ġoutweigh": 22327,
    "enes": 5218,
    "Ġvinc": 14087,
    "Ġsimilitude": 19212,
    "namely": 23674,
    "Ġmissionary": 25697,
    "took": 6166,
    "Ġape": 21199,
    "Ġdazed": 15599,
    "postp": 24636,
    ",âĢĿâĢĶ": 14222,
    "ft": 910,
    "Ġaccumulating": 2723,
    "rations": 10724,
    "rev": 17757,
    "hark": 15368,
    "ħ": 232,
    "Ġharrow": 17928,
    "Ġmoral": 6581,
    "Ġcoins": 11822,
    "Ġcylinders": 25944,
    "lee": 11587,
    "name": 6796,
    "Ġheedful": 19743,
    "Ġnourishment": 15195,
    "Ġlass": 15651,
    "reputation": 15517,
    "uv": 6231,
    "âĢĿ)": 21819,
    "law": 6117,
    "Ġadvis": 9809,
    "Ġample": 11801,
    "Ġfortitude": 9887,
    "Ġtheatre": 21281,
    "abez": 10224,
    "Ġfretfully": 25448,
    "Ġtext": 2267,
    "adam": 15733,
    "dragging": 16610,
    "bid": 5610,
    "fixed": 7549,
    "Ġwondered": 11126,
    "Ġgurg": 15676,
    "Ġwords": 1326,
    "Ġrebounds": 25968,
    "Ġgrotesque": 26331,
    "Ġcamel": 25350,
    "fig": 8738,
    "Ġbloom": 9890,
    "Ġgrey": 4511,
    "throughout": 24089,
    "woe": 21138,
    "Ġclout": 22361,
    "desp": 6095,
    "Ġsubdivisions": 26038,
    "Ġskirt": 18729,
    "ivorous": 22092,
    "Ġprotruded": 19473,
    "Ġsatiated": 22905,
    "pence": 15411,
    "Ġdeduction": 14901,
    "Ġbrighton": 6471,
    "Ġoutset": 15958,
    "Ġobedient": 20108,
    "Ġfishing": 9664,
    "Ġcompletion": 12151,
    "ignorantly": 25190,
    "Ġreturned": 2889,
    "listen": 13515,
    "iffe": 21907,
    "Ġfossiliferous": 25610,
    "whilst": 18372,
    "Ġpreaching": 15929,
    "floating": 12231,
    "Ġmagical": 23105,
    "Ġentertaining": 16927,
    "Ġhanging": 5447,
    "Ġsprawling": 22144,
    "%": 9,
    "Ġfestoon": 20297,
    "Ġtemptation": 8681,
    "Ġinterfere": 11820,
    "Ġuneasy": 8665,
    "Ġconcealment": 16915,
    "Ġguarded": 9828,
    "Ġslapped": 23176,
    "copy": 5133,
    "terms": 15754,
    "ķ": 248,
    "Ġcoron": 4463,
    "Ġal": 342,
    "Ġconvenient": 8347,
    "attending": 18918,
    "Ġowe": 8116,
    "Ġcried": 1486,
    "Ġunex": 11716,
    "Ġpleaded": 16301,
    "lat": 9606,
    "Ġjabbering": 22308,
    "Ġforms": 6398,
    "Ġpoisonous": 24888,
    "wes": 17704,
    "tender": 14475,
    "Ġphilistines": 26083,
    "Ġwestmorland": 24389,
    "Ġsmilingly": 22565,
    "Ġweighed": 8714,
    "Ġirreduc": 5491,
    "mud": 20974,
    "mayhew": 23995,
    "fourth": 11329,
    "Ġsympt": 7014,
    "Ġmachinations": 25768,
    "azz": 8263,
    "Ġted": 13814,
    "Ġenrapt": 21944,
    "continual": 20646,
    "Ġspin": 7631,
    "got": 6955,
    "avern": 24791,
    "Ġroom": 1464,
    "Ġclutching": 24954,
    "Ġunbecoming": 22067,
    "Ġinflamed": 13475,
    "asions": 12656,
    "died": 11481,
    "Ġvineyards": 25109,
    "conditional": 9080,
    "Ġboldness": 24427,
    "urer": 18124,
    "Ġsledge": 8112,
    "Ġjohnson": 18410,
    "ival": 4224,
    "Ġscope": 15946,
    "Ġexcel": 3568,
    "Ġundo": 15843,
    "Ġflail": 23013,
    "Ġworks": 5860,
    "Ġpiercing": 13495,
    "Ġtransfer": 2209,
    "Ġrapid": 1459,
    "gled": 10700,
    "Ġfrantically": 23262,
    "Ġharshly": 25250,
    "Ġneurons": 976,
    "Ġuneasiness": 9486,
    "turning": 8318,
    "Ġperiodically": 19497,
    "rium": 3128,
    "Ġpopulous": 16827,
    "ropri": 2180,
    "Ġrekindled": 21681,
    "Ġfeat": 10938,
    "Ġaberde": 22282,
    "immortal": 21714,
    "iners": 4936,
    "Ġproverb": 12721,
    "Ġimpose": 22387,
    "obtained": 23100,
    "verb": 10218,
    "Ġbalance": 2020,
    "inary": 3272,
    "Ġshame": 6411,
    "wers": 12523,
    "udg": 22775,
    "Ġinfl": 6894,
    "frau": 15092,
    "Ġcompens": 14265,
    "Ġsuperiority": 14618,
    "rows": 6443,
    "Ġimplac": 24874,
    "Ġarchy": 14348,
    "Ġanchor": 7368,
    "Ġpeaks": 16131,
    "Ġdecember": 15008,
    "Ġmarried": 3408,
    "carries": 19530,
    "Ġloose": 4648,
    "brary": 5755,
    "Ġvaliantly": 22807,
    "Ġcompensated": 17403,
    "Ġstone": 4645,
    "Ġleyden": 21752,
    "Ġlashings": 25100,
    "Ġconfronted": 23312,
    "Ġinsomuch": 23686,
    "Ġsupply": 6069,
    "delivered": 24100,
    "Ġferry": 24514,
    "Ġdesign": 4129,
    "Ġhandfuls": 17211,
    "Ġexplained": 5938,
    "Ě": 219,
    "Ġoppression": 23655,
    "Ġducks": 25161,
    "Ġseptember": 18206,
    "Ġdismissed": 12897,
    "ra": 314,
    "Ġliable": 14230,
    "rapidly": 15246,
    "Ġmoreover": 6165,
    "Ġskylarking": 19490,
    "Ġuproar": 22160,
    "Ġvisits": 8224,
    "icacy": 15661,
    "Ġvision": 1619,
    "Ġpromising": 10401,
    "Ġvouch": 15812,
    "Ġknotted": 17020,
    "Ġveritable": 19384,
    "Ġpoint": 2055,
    "Ġhelper": 24029,
    "Ġcourtship": 24135,
    "omically": 13982,
    "Ġ115": 24438,
    "Ġquill": 12862,
    "Ġdangerous": 6616,
    "gr": 2087,
    "seek": 8840,
    "Ġcandidate": 16699,
    "Ġambition": 11433,
    "Ġwatching": 4855,
    "Ġfeeling": 3080,
    "Ġprofound": 5497,
    "Ġnobly": 22246,
    "ivil": 6412,
    "Ġplanets": 24059,
    "Ġpress": 5934,
    "iously": 2678,
    "Ġprocured": 8680,
    "Ġsweet": 3465,
    "Ġghost": 6144,
    "Ġpermitted": 9280,
    "roads": 17960,
    "ash": 1991,
    "Ġhourly": 23306,
    "Ġberries": 13409,
    "residual": 19264,
    "iousness": 4899,
    "Ġexhib": 6351,
    "ery": 1266,
    "topic": 10529,
    "presbyter": 20621,
    "spoutings": 25006,
    "queens": 22908,
    "Ġisol": 8837,
    "Ġpickle": 16723,
    "induce": 22379,
    "Ġdeliberation": 19972,
    "Ġfavoured": 16366,
    "Ġphilosophy": 7105,
    "Ġwhipping": 21720,
    "Ġpulled": 5660,
    "Ġfamily": 1966,
    "intment": 4719,
    "Ġcoroner": 7511,
    "Ġbarrier": 16570,
    "valu": 1745,
    "Ġchivalrous": 20518,
    "bat": 8073,
    "amed": 4446,
    "â": 163,
    "Ġdespaired": 14670,
    "Ġdecreasing": 2441,
    "miraculous": 26397,
    "Ġrosings": 4605,
    "Ġtarn": 21161,
    "Ġdiadem": 24740,
    "ikes": 8088,
    "teous": 16174,
    "Ġbrutality": 26278,
    "ignantly": 23269,
    "Ġadvantages": 9810,
    "arnel": 18130,
    "Ġcarving": 14445,
    "Ġgrant": 11876,
    "Ġpince": 21475,
    "Ġembalmed": 13658,
    "Ġslabs": 13064,
    "Ġmenaces": 23113,
    "Ġmuseum": 15274,
    "Ġmotives": 7487,
    "Ġtwine": 14313,
    "Ġtroop": 24898,
    "exceed": 7913,
    "Ġyard": 5923,
    "material": 13131,
    "somewhere": 12015,
    "Ġpeaking": 22694,
    "Ġdoubts": 8583,
    "Ġhval": 21492,
    "georgiana": 26021,
    "Ġforeman": 23448,
    "Ġcame": 1299,
    "Ġglobu": 23275,
    "Ġsufferings": 7514,
    "Ġprogen": 14042,
    "ical": 754,
    "Ġrushed": 4085,
    "ĠĠĠĠĠĠĠĠĠĠĠĠĠĠĠĠĠĠĠĠĠĠĠĠĠĠĠĠĠĠĠĠĠĠĠĠĠĠĠĠĠĠĠĠĠĠ": 9955,
    "Ġitaly": 10868,
    "urches": 12690,
    "Ġderbyshire": 6588,
    "Ġyarns": 15198,
    "Ġextremities": 19197,
    "fishermen": 17062,
    "Ġeager": 3571,
    "Ġconfirms": 23313,
    "began": 6427,
    "Ġshelf": 12271,
    "Ġstilly": 25974,
    "inuating": 16205,
    "approaching": 15013,
    "agonies": 21914,
    "ampton": 18147,
    "sick": 13786,
    "Ġdem": 11676,
    "Ġgrim": 7439,
    "Ġodorous": 19569,
    "coll": 23782,
    "Ġyawning": 12303,
    "Ġenables": 726,
    "secured": 16939,
    "Ġstreat": 15724,
    "Ġclassical": 22643,
    "Ġwhirled": 14962,
    "spell": 22734,
    "Ġhan": 15621,
    "Ġbite": 10798,
    "Ġass": 1503,
    "Ġrossum": 3010,
    "boys": 13362,
    "inder": 9154,
    "Ġrelationship": 2313,
    "Ġtimber": 13352,
    "Ġensuring": 11192,
    "Ġblazing": 11899,
    "Ġwill": 677,
    "Ġsoaked": 15864,
    "bethink": 25745,
    "Ġsyllable": 9731,
    "forbid": 14355,
    "Ġcomparing": 14266,
    "Ġtawny": 20485,
    "Ġmistifying": 23722,
    "tiest": 21084,
    "present": 1139,
    "Ġprocure": 9512,
    "Ġsubstitute": 16727,
    "Ġpri": 5814,
    "Ġdisastrous": 16063,
    "Ġmalady": 24391,
    "Ġfixing": 13158,
    "ption": 7398,
    "mediate": 16515,
    "clu": 20801,
    "iety": 2818,
    "Ġdifficulty": 5770,
    "Ġbusier": 23342,
    "Ġgriff": 22810,
    "Ġlin": 10834,
    "Ġfurlongs": 20725,
    "Ġwander": 9033,
    "Ġdevious": 22719,
    "Ġpenal": 1776,
    "lives": 12489,
    "rooms": 10433,
    "onies": 6807,
    "Ġterrier": 23402,
    "Ġstrata": 26028,
    "Ġincident": 6282,
    "Ġoptimizers": 18628,
    "Ġgasfitters": 25041,
    "Ġrecollecting": 17113,
    "sius": 13790,
    "Ġdevoid": 18681,
    "Ġchowders": 18387,
    "swam": 24256,
    "Ġservants": 6613,
    "Ġroughs": 19960,
    "Ġlaughs": 24116,
    "grained": 20885,
    "viating": 14579,
    "88": 20760,
    "algorithm": 3891,
    "Ġisa": 14027,
    "ourers": 21453,
    "Ġ75": 19615,
    "Ġsepul": 14091,
    "Ġoutriders": 26544,
    "Ġfiner": 13056,
    "Ġhob": 12634,
    "mil": 13754,
    "Ġcommons": 22676,
    "Ġyouthful": 16724,
    "rating": 7809,
    "Ġallegro": 25795,
    "Ġfifty": 4622,
    "Ġsimplest": 16337,
    "firmly": 20283,
    "poles": 16212,
    "Ġfierce": 7437,
    "Ġsurmisings": 26594,
    "arabian": 26447,
    "Ġobserv": 8589,
    "Ġaffronted": 22896,
    "ground": 4671,
    "sheltered": 25586,
    "Ġcontract": 18476,
    "Ġwail": 21289,
    "kempt": 20943,
    "egypt": 15352,
    "Ġfurs": 18739,
    "Ġreconciliation": 25293,
    "Ġneeded": 7719,
    "Ġprimitive": 25064,
    "Ġcrosses": 23067,
    "Ġtit": 8401,
    "Ġbrightly": 13227,
    "Ġdisent": 22528,
    "Ġdiabolically": 25514,
    "Ġaries": 21200,
    "Ġreferred": 8919,
    "dish": 12456,
    "Ġdrenched": 12608,
    "Ġcraggy": 23532,
    "Ġmonarchs": 25851,
    "Ġenumer": 12750,
    "Ġcoleman": 22591,
    "Ġnormalizes": 1864,
    "bedded": 12446,
    "Ġscreams": 24605,
    "vap": 13805,
    "Ġminor": 12972,
    "Ġdozing": 22248,
    "Ġintroducing": 11978,
    "onym": 14650,
    "Ġstumbling": 21747,
    "arned": 21826,
    "Ġbottles": 16571,
    "folding": 24928,
    "rees": 5436,
    "Ġexperiment": 11924,
    "Ġmiser": 18704,
    "Ġdom": 2634,
    "autumn": 23346,
    "Ġseal": 10256,
    "Ġreasoner": 14440,
    "ulsive": 10235,
    "ske": 13784,
    "derstand": 651,
    "Ġtasted": 12533,
    "retrie": 18926,
    "Ġgroaned": 11267,
    "slept": 17171,
    "stock": 13225,
    "Ġrafters": 22660,
    "skylight": 25624,
    "shaven": 18489,
    "performances": 26007,
    "Ġardent": 9972,
    "Å": 134,
    "Ġcred": 8784,
    "Ġdeliberate": 15024,
    "land": 1530,
    "likelihood": 4991,
    "Ġscraped": 16904,
    "Ġconceived": 8151,
    "Ġinterrupting": 19560,
    "Ġmuchness": 18709,
    "Ġlocker": 16912,
    "Ġthreats": 13379,
    "Ġdre": 1744,
    "Ġsung": 23276,
    "Ġstretching": 10017,
    "ones": 2742,
    "powerful": 24848,
    "Ġabsor": 8507,
    "Ġbells": 19604,
    "iancy": 13012,
    "sequent": 6831,
    "lur": 13749,
    "Ġhypotheses": 4384,
    "Ġtrouble": 3690,
    "Ġconcentrated": 15086,
    "Ġshows": 8485,
    "Ġacceded": 22384,
    "Ġcheever": 23290,
    "Ġencouragement": 13045,
    "Ġhandled": 12942,
    "Ġdecapitated": 20619,
    "marry": 13326,
    "fits": 13720,
    "Ġrepulses": 26070,
    "ker": 5792,
    "Ġmonotonically": 3833,
    "Ġinvent": 7165,
    "Ġunrestingly": 20364,
    "frequent": 15356,
    "Ġjoy": 3178,
    "gentleness": 24845,
    "Ġlexic": 15727,
    "Ġforenoon": 19127,
    "crimin": 17510,
    "Ġcelest": 9903,
    "Ġnib": 13942,
    "Ġclipping": 2438,
    "Ġnorthumbria": 24173,
    "Ġaston": 3701,
    "Ġdiffers": 23784,
    "Ġwaned": 17793,
    "Ġhurled": 10430,
    "Ġpositive": 2296,
    "by": 1158,
    "Ġexpectation": 6904,
    "Ġfamous": 5256,
    "sixty": 24853,
    "fore": 688,
    "Ġstation": 5299,
    "Ġstochastic": 3264,
    "cousin": 10654,
    "Ġdispleasure": 16055,
    "Ġwound": 4526,
    "Ġdampening": 2893,
    "advise": 24219,
    "Ġpatchwork": 24142,
    "footman": 17164,
    "Ġdiana": 21440,
    "Ġinsc": 7587,
    "Ġartist": 12917,
    "Ġfishers": 19357,
    "Ġobscurely": 20191,
    "Ġsugg": 4498,
    "Ġbanish": 15573,
    "call": 8726,
    "Ġerecting": 24653,
    "Ġbingleys": 18996,
    "Ġpelt": 15613,
    "ounced": 4953,
    "shown": 22449,
    "skeleton": 17378,
    "Ġsimon": 5172,
    "Ġpriests": 15042,
    "Ġxxi": 24475,
    "Ġannihil": 10176,
    "Ġmetal": 9391,
    "Ġarter": 22182,
    "Ġcuvier": 9167,
    "Ġarguing": 25471,
    "Ġced": 10785,
    "crowded": 20193,
    "Ġbilliard": 16689,
    "saying": 8644,
    ":--âĢľ": 24549,
    "hies": 17561,
    "Ġrespect": 1669,
    "Ġenchanting": 17039,
    "rendering": 22345,
    "idy": 21769,
    "Ġlungless": 24864,
    "cial": 2649,
    "Ġdisclosed": 15156,
    "Ġexplo": 2283,
    "Ġdiscoverers": 26037,
    "smile": 23909,
    "Ġ132": 19898,
    "gives": 15360,
    "Ġearly": 2079,
    "Ġnorthwards": 19549,
    "ning": 949,
    "Ġmand": 21307,
    "tedious": 22636,
    "Ġjonas": 20612,
    "Ġgliding": 8564,
    "Ġtouching": 4680,
    "onious": 15520,
    "erson": 7003,
    "Ġplush": 18611,
    "Ġcorpor": 23043,
    "Ġperformed": 8550,
    "aven": 8211,
    "Ġordinary": 6099,
    "Ġrumors": 11322,
    "Ġconviction": 6328,
    "Ġcolumb": 22861,
    "Ġoperate": 19117,
    "faces": 13722,
    "rier": 9244,
    "Ġinterlacing": 22581,
    "garn": 20872,
    "Ġhappiness": 2943,
    "Ġbeaks": 21760,
    "Ġwis": 3728,
    "Ġmuskets": 17057,
    "card": 11476,
    "Ġbaron": 19336,
    "Ġlaz": 7378,
    "anter": 9168,
    "Ġjerk": 16951,
    "promote": 24726,
    "Ġanswerable": 23472,
    "Ġtails": 9904,
    "covered": 11478,
    "aet": 15310,
    "/`": 12432,
    "onomy": 12551,
    "Ġmerryweather": 9524,
    "Ġgarn": 13965,
    "Ġaffl": 14388,
    "ient": 394,
    "Ġshrouded": 14971,
    "usually": 10287,
    "confirmation": 26090,
    "eties": 10838,
    "Ġaffrighted": 13574,
    "volume": 18583,
    "Ġbrim": 12979,
    "Ġimper": 4500,
    "Ġdepicting": 22599,
    "Ġcarpet": 9358,
    "Ġeternities": 19946,
    "Ġphysiology": 25333,
    "Ġquench": 22424,
    "Ġpyramid": 8805,
    "Ġabomin": 8190,
    "Ġrepair": 11981,
    "Ġaverage": 3134,
    "Ġdepressions": 25799,
    "ouching": 13179,
    "Ġmixed": 6975,
    "Ġmists": 14631,
    "tinted": 17684,
    "unavoidable": 17392,
    "sk": 5521,
    "Ġtort": 5904,
    "Ġdad": 12605,
    "Ġlingering": 11380,
    "Ġconv": 2968,
    "Ġplead": 14458,
    "archbishop": 22913,
    "Ġfiery": 6871,
    "Ġimpress": 6862,
    "Ġpaved": 17915,
    "hauteur": 26392,
    "ighb": 10424,
    "Ġkings": 7197,
    "belonged": 25598,
    "ou": 287,
    "Ġpreceded": 13430,
    "ising": 2255,
    "Ġbrine": 18773,
    "Ġspeaking": 4023,
    "clinging": 20824,
    "Ġcrust": 21354,
    "Ġmors": 17803,
    "div": 8077,
    "Ġvideo": 25366,
    "Ġreveal": 11200,
    "ologies": 18765,
    "Ġrazor": 22659,
    "raham": 18016,
    "Ġheav": 1853,
    "Ġmag": 1431,
    "Ġundergone": 18986,
    "Ġmortals": 9918,
    "Ġcave": 10786,
    "Ġinsince": 23682,
    "complacency": 19916,
    "shell": 16288,
    "Ġloft": 5642,
    "inously": 21189,
    "Ġsebastian": 11699,
    "Ġre": 317,
    "oner": 6126,
    "ittarius": 22382,
    "Ġestablish": 9545,
    "Ġtierce": 15480,
    "Ġ6": 5141,
    "hawk": 7123,
    "outon": 12808,
    "gris": 8261,
    "Ġsearching": 13164,
    "Ġlanguor": 12853,
    "Ġfastening": 16359,
    "Ġdirty": 9180,
    "relate": 24014,
    "Ġdesertion": 24786,
    "Ġeleven": 9392,
    "nett": 16223,
    "Ġstrateg": 1322,
    "Ġsloop": 25931,
    "Ġexploitation": 2345,
    "Ġserv": 3329,
    "ental": 7169,
    "Ġflint": 23015,
    "castle": 3350,
    "âĢĿ;": 11672,
    "pretend": 24883,
    "Ġorganizations": 12317,
    "Ġrevolution": 3305,
    "Ġarrang": 2466,
    "Ġdiscourse": 9800,
    "weed": 14317,
    "Ġidly": 16405,
    "Ġhaste": 9005,
    "Ġpredicting": 2414,
    "Ġtypewriter": 19099,
    "Ġcul": 17824,
    "ĺ": 251,
    "Ġvilla": 14749,
    "mockery": 24377,
    "ugn": 9380,
    "willing": 6594,
    "Ġcountess": 11967,
    "war": 6803,
    "Ġergo": 25032,
    "Ġperennial": 22698,
    "gro": 10096,
    "Ġbulkhead": 24507,
    "Ġfitted": 6245,
    "Ġhail": 7400,
    "Ġthoughtless": 16195,
    "hroom": 12480,
    "Ġfavour": 3642,
    "offended": 16399,
    "Ġwavering": 23284,
    "Ġgout": 21600,
    "Ġdl": 3376,
    "possess": 5986,
    "Ġsavory": 23879,
    "aul": 6354,
    "hic": 3246,
    "Ġtropics": 17067,
    "illum": 15872,
    "Ġnorm": 763,
    "housekeeper": 24101,
    "echo": 15351,
    "Ġdoubloon": 6945,
    "Ġintervened": 25482,
    "odecimo": 11445,
    "ensity": 11816,
    "atory": 6127,
    "Ġstomach": 11655,
    "avish": 22601,
    "confirmed": 19643,
    "Ġelbow": 12925,
    "Ġreside": 22544,
    "proachable": 23401,
    "Ġtam": 7822,
    "lane": 10707,
    "Ġdismast": 12893,
    "gravel": 22624,
    "Ġprevailed": 7779,
    "otics": 10225,
    "Ġdipped": 15598,
    "apt": 734,
    "Ġwolves": 25935,
    "Ġsends": 14793,
    "Ġcocoanuts": 26364,
    "Ġowest": 25094,
    "Ġing": 5284,
    "matlock": 23471,
    "Ġdey": 11677,
    "Ġcarr": 23095,
    "arity": 1302,
    "Ġfid": 10804,
    "Ġrestored": 7068,
    "ien": 10103,
    "occup": 7754,
    "volutional": 1935,
    "saddest": 25528,
    "Ġdismal": 11813,
    "Ġenhancement": 23732,
    "coat": 5407,
    "Ġstory": 2899,
    "Ġembarrassed": 11385,
    "bub": 15319,
    "Ġ43": 14772,
    "Ġdenying": 14659,
    "Ġram": 11014,
    "Ġneglect": 7943,
    "Ġseldom": 4629,
    "Ġsmokes": 22564,
    "Ġhomely": 25220,
    "interred": 23740,
    "singing": 24362,
    "espe": 3497,
    "Ġgardeners": 12124,
    "Ġconting": 18473,
    "Ġjewelled": 20186,
    "cart": 10691,
    "Ġslung": 23173,
    "itically": 21333,
    "Ġimpending": 22389,
    "Ġindividually": 22961,
    "Ġscience": 1539,
    "planted": 11701,
    "prevented": 20377,
    "penetrate": 20327,
    "Ġrepugnance": 19086,
    "Ġext": 897,
    "hanging": 10102,
    "Ġenglishman": 11230,
    "Ġacquaint": 13048,
    "Ġlive": 2735,
    "Ġarose": 7360,
    "Ġtrade": 2546,
    "Ġobser": 2070,
    "heeded": 13836,
    "Ġcounsell": 25385,
    "city": 15329,
    "vel": 2382,
    "Ġslee": 8976,
    "Ġ130": 24780,
    "Ġestimate": 19376,
    "cop": 20803,
    "Ġprobabilities": 4965,
    "Ġforbearing": 25101,
    "included": 19210,
    "banked": 25338,
    "Ġfurnace": 19443,
    "gers": 8377,
    "Ġflor": 8565,
    "====": 1482,
    "adequ": 11021,
    "Ġapex": 24341,
    "ette": 15662,
    "strike": 14951,
    "cturn": 17989,
    "Ġengra": 7876,
    "Ġpupp": 10821,
    "bted": 7795,
    "Ġclap": 10961,
    "ieve": 1659,
    "Ġdetained": 18373,
    "Ġstoven": 23180,
    "Ġarcher": 22184,
    "asant": 17961,
    "Ġbluish": 23654,
    "Ġentrances": 25836,
    "ĠmanÅĵuv": 18418,
    "ourage": 2448,
    "Ġay": 15493,
    "abling": 1080,
    "uce": 11537,
    "Ġsundry": 20077,
    "Ġpainful": 6463,
    "ioning": 21513,
    "âĢĻ-": 18169,
    "Ġkindred": 16380,
    "quickness": 19853,
    "Ġadult": 18290,
    "Ġname": 2083,
    "Ġlinn": 13955,
    "lad": 5994,
    "Ġsoph": 1560,
    "pierced": 26142,
    "Ġcoldly": 14651,
    "circuit": 24190,
    "owders": 18050,
    "brill": 16492,
    "evening": 7091,
    "Ġlabeled": 3718,
    "author": 9862,
    "Ġseparating": 16683,
    "idable": 8147,
    "Ġensu": 7877,
    "isa": 17847,
    "Ġspasmod": 12417,
    "Ġxlvi": 25591,
    "Ġproposed": 7460,
    "Ġtow": 4394,
    "Ġexpost": 18624,
    "Ġdelusion": 18974,
    "Ġwelded": 9573,
    "Ġminutely": 14561,
    "Ġkindly": 6079,
    "Ġpregn": 22237,
    "Ġinstrument": 7120,
    "Ġsect": 17752,
    "mort": 10711,
    "Ġsta": 18065,
    "sequ": 2400,
    "shrugged": 22455,
    "Ġbuckskin": 19955,
    "mp": 3727,
    "oy": 1022,
    "Ġ270": 25133,
    "violent": 14580,
    "hom": 12477,
    "algorith": 3499,
    "Ġbegins": 7244,
    "Ġhumor": 11052,
    "Ġbackwater": 18653,
    "presents": 18798,
    "ork": 416,
    "enth": 6682,
    "Ġfisherman": 12079,
    "Ġhinges": 15215,
    "Ġenjoying": 11235,
    "Ġowner": 8925,
    "Ġwhispered": 5338,
    "Ġdeliverer": 11954,
    "oura": 1060,
    "Ġwisest": 11233,
    "prospect": 23399,
    "baggage": 24927,
    "Ġpantaloons": 20299,
    "Ġcaptioning": 23026,
    "Ġconcealed": 7496,
    "Ġsuccess": 3611,
    "Ġgpt": 4348,
    "Ġag": 685,
    "Ġbushes": 16402,
    "unwillingly": 21889,
    "anging": 3552,
    "Ġxii": 11993,
    "ote": 4594,
    "bearer": 18519,
    "Ġshoal": 12018,
    "rocious": 21543,
    "owing": 7603,
    "Ġabused": 22274,
    "Ġswitzerland": 10381,
    "Ġcontinuing": 14399,
    "Ġopal": 23628,
    "Ġ28": 19296,
    "Ġundulating": 19520,
    "Ġottoman": 17380,
    "Ġbelongs": 8016,
    "year": 11096,
    "Ġunspeakably": 25173,
    "sighted": 19788,
    "Ġ5": 4934,
    "Ġlizard": 12659,
    "Ġstump": 7604,
    "Ġwindibank": 7256,
    "oboam": 9360,
    "astonished": 15034,
    "leo": 21367,
    "alt": 12643,
    "Ġcorrectly": 9406,
    "feared": 11805,
    "Ġinteresting": 4323,
    "maged": 15396,
    "Ġportion": 7493,
    "ically": 841,
    "Ġbefore": 811,
    "Ġlucerne": 23867,
    "Ġrhone": 25231,
    "Ġpir": 6818,
    "remarks": 23193,
    "Ġinconven": 7588,
    "lest": 5290,
    "Ġtribes": 20484,
    "nurs": 21001,
    "Ġcemet": 20683,
    "utherland": 9580,
    "chronicle": 26481,
    "Ġequinox": 25857,
    "enance": 3371,
    "screen": 23000,
    "Ġarrogance": 26233,
    "Ġcensured": 25097,
    "Ġwonders": 7501,
    "Õ": 150,
    "begone": 12883,
    "Ġpoetical": 25059,
    "lott": 6653,
    "Ġcassock": 20490,
    "mortar": 25409,
    "iteness": 4391,
    "Ġplaything": 19240,
    "Ġdreading": 23801,
    "Ġadvoc": 12994,
    "Ġwild": 2601,
    "Ġdownwards": 8531,
    "ulus": 21869,
    "Ġtwinkle": 12326,
    "hug": 17564,
    "Ġnation": 12652,
    "Ġworried": 22930,
    "Ġfleetness": 20182,
    "Ġdeactivates": 20706,
    "feature": 3946,
    "imately": 12693,
    "Ġdow": 17888,
    "Ġforbidden": 17078,
    "nical": 20993,
    "Ġselfish": 7272,
    "Ġinspiring": 19114,
    "closing": 23161,
    "Ġfeel": 1259,
    "Ġconfid": 7689,
    "bermaid": 20792,
    "Ġlik": 2521,
    "Ġquestion": 2779,
    "ĠĠĠĠĠĠĠĠĠĠĠĠĠĠĠĠĠĠĠĠĠĠĠĠĠĠĠĠĠĠĠĠĠĠĠĠĠĠĠĠĠĠĠĠĠĠĠĠ": 7990,
    "Ġdecisions": 6704,
    "Ġunlikely": 10909,
    "Ġpop": 5151,
    "Ġapproach": 808,
    "succeed": 10331,
    "Ġdrunken": 12053,
    "Ġbodings": 21394,
    "immediate": 20097,
    "Ġreus": 8825,
    "Ġinexper": 16981,
    "Ġintent": 6410,
    "athans": 7433,
    "Ġpredicts": 2593,
    "fever": 22506,
    "Ġoscillations": 2896,
    "Ġunharmed": 15142,
    "fresh": 13394,
    "Ġjam": 10952,
    "£": 101,
    "rebellum": 26166,
    "Ġenthus": 7232,
    "Ġstand": 1736,
    "Ġtis": 15467,
    "swiftly": 20554,
    "Ġwelfare": 12563,
    "anite": 17839,
    "lead": 10167,
    "silent": 9976,
    "movable": 14326,
    "gracious": 11834,
    "neys": 23584,
    "page": 13773,
    "Ġirrevocably": 15300,
    "ours": 3426,
    "spond": 5566,
    "Ġ50": 24314,
    "Ġsequences": 1753,
    "saw": 5896,
    "Ġtreatment": 12075,
    "ney": 2491,
    "Ġyears": 1894,
    "ĠâĢĶâĢľ_": 17719,
    "Ġantics": 24180,
    "Ġcreases": 22726,
    "ortment": 22262,
    "Ġleghorn": 13147,
    "Ġdolphin": 17314,
    "Ġbloody": 9891,
    "Ġwhiskers": 10494,
    ",": 16,
    "Ġheart": 1597,
    "sink": 11523,
    "Ġhurriedly": 11249,
    "Ġinfernal": 11964,
    "Ġengaged": 3428,
    "Ġtesting": 23226,
    "Ġimposed": 14215,
    "Ġwerter": 15242,
    "Ġsinful": 18951,
    "consult": 24171,
    "gar": 5614,
    "tranquillity": 20549,
    "Ġinterest": 2248,
    "discovering": 24253,
    "Ġenormous": 5608,
    "Ġanalysis": 1871,
    "Ġsubstit": 19543,
    "Ġpaddington": 17095,
    "ssed": 3734,
    "Ġoccup": 3739,
    "Ġprank": 23220,
    "attempt": 9362,
    "charmed": 21700,
    "Ġapprehending": 26092,
    "rints": 12506,
    "Ġcatastrop": 3348,
    "Ġmodesty": 12824,
    "unknown": 10891,
    "poss": 4778,
    "hos": 15366,
    "Ġswept": 7978,
    "Ġchildhood": 13139,
    "diversity": 25898,
    "Ġviolates": 3159,
    "Ġhollow": 5648,
    "seemed": 4302,
    "Ġco": 731,
    "Ġxerxes": 23413,
    "temper": 10006,
    "bag": 7543,
    "Ġwhisper": 6207,
    "burgh": 6774,
    "devoted": 20020,
    "bingleys": 19637,
    "Ġcasting": 12104,
    "ilder": 15716,
    "injury": 25214,
    "trop": 15438,
    "ross": 807,
    "anesc": 21363,
    "Ġmilliner": 19886,
    "Ġrug": 16160,
    "Ġfellows": 8258,
    "ateg": 1320,
    "imly": 12692,
    "ceed": 1077,
    "Ġvanished": 6874,
    "beautiful": 10650,
    "use": 2534,
    "insulting": 26056,
    "Ġdeser": 3885,
    "Ġoverwhelming": 17102,
    "whale": 2141,
    "Ġscream": 5937,
    "ß": 160,
    "me": 870,
    "hearted": 6971,
    "Ġrelentless": 26279,
    "despicable": 24639,
    "icing": 9202,
    "timidity": 25754,
    "judged": 14833,
    "cords": 25139,
    "Ġexerc": 6834,
    "Ġwindigate": 18912,
    "Ġintellig": 523,
    "tol": 17673,
    "Ġconfiding": 19040,
    "magistrate": 19865,
    "another": 5439,
    "Ġword": 1053,
    "Ġpitchpoling": 14913,
    "Ġcarelessness": 13078,
    "irt": 3073,
    "omeness": 18025,
    "Ġintegral": 25011,
    "Ġweapon": 7777,
    "Ġsuffice": 18870,
    "Ġsize": 1219,
    "Ġinjunctions": 24271,
    "enger": 10774,
    "awn": 3834,
    "abulary": 4800,
    "ertain": 1208,
    "Ġpriv": 4181,
    "Ġholiest": 18814,
    "Ġtowing": 9195,
    "Ġclamped": 18433,
    "Ġoun": 13865,
    "Ġsuperiors": 23456,
    "Ġplun": 6283,
    "Ġimprove": 1751,
    "Ġresume": 18566,
    "Ġcongeal": 25981,
    "Ġnumber": 1980,
    "Ġvigorous": 10568,
    "ivory": 10272,
    "ave": 978,
    "Ġelimin": 16110,
    "borean": 25744,
    "Ġbutter": 6842,
    "silver": 19693,
    "reg": 2184,
    "Ġguinea": 8949,
    "Ġbohemia": 10651,
    "rown": 2192,
    "Â£": 4812,
    "stealthily": 23965,
    "proportion": 16187,
    "awing": 18917,
    "impressions": 20701,
    "Ġcould": 703,
    "Ġthrust": 5084,
    "Ġdevoting": 22720,
    "Ġbuckle": 17033,
    "Ġnaturally": 2463,
    "Ġotherwise": 4657,
    "Ġdriven": 6200,
    "Ġcrad": 21352,
    "asible": 21546,
    "Ġprotracted": 19472,
    "Ġ117": 19700,
    "Ġfable": 15580,
    "Ġimitated": 18324,
    "eches": 8079,
    "on": 267,
    "Ġtide": 6661,
    "test": 13794,
    "wife": 8102,
    "Ġvalidate": 3232,
    "saf": 11526,
    "Ġworn": 6446,
    "70": 17477,
    "Ġimprecate": 20521,
    "miserably": 24212,
    "Ġcourtesy": 9947,
    "Ġgap": 21603,
    "Ġpil": 5013,
    "accordingly": 19215,
    "Ġillness": 8593,
    "Ġexamples": 2604,
    "/(": 2981,
    "olds": 9313,
    "insufferable": 21195,
    "Ġsphynx": 20714,
    "skull": 24487,
    "getting": 12971,
    "trick": 19416,
    "Ġdogs": 7743,
    "Ġingenious": 12351,
    "Ġchief": 3381,
    "Ġspecialized": 3919,
    "Ġsnows": 14728,
    "ĠĠĠĠĠĠĠĠĠĠĠĠĠĠĠĠĠĠĠĠĠĠĠĠĠĠĠĠĠĠĠ": 19703,
    "igned": 5656,
    "eldom": 4412,
    "Ġadopted": 15181,
    "likes": 18816,
    "Ġprompted": 23820,
    "publ": 17639,
    "mass": 12493,
    "Ġdears": 18139,
    "Ġmean": 743,
    "apothe": 22339,
    "Ġkne": 4265,
    "Ġable": 3077,
    "brew": 11474,
    "Ġapolog": 9045,
    "Ġsavage": 4007,
    "Ġsuppose": 2865,
    "Ġgloomy": 7505,
    "Ġpreserved": 9264,
    "honor": 19902,
    "Ġmentioned": 4327,
    "ele": 9116,
    "Ġstabilizing": 3657,
    "Ġpod": 15607,
    "Ġshorter": 4497,
    "Ġincessant": 15100,
    "Ġjoyously": 19350,
    "Ġcrouched": 23441,
    "Ġwell": 902,
    "Ġtrif": 6270,
    "telling": 14442,
    "tures": 21072,
    "Ġross": 2765,
    "Ġisrael": 21808,
    "speed": 19412,
    "Ġcompromising": 22578,
    "Ġsooty": 25816,
    "affect": 13214,
    "Ġsounded": 8594,
    "Ġinvoked": 19146,
    "Ġboasted": 16109,
    "Ġsatisfactory": 11193,
    "hogs": 20085,
    "Ġruminated": 24601,
    "gradually": 12920,
    "Ġdodge": 19888,
    "kl": 4865,
    "Ġrocks": 6863,
    "Ġevermore": 18813,
    "Ġsite": 17754,
    "Ġtransaction": 22444,
    "Ġvigilance": 12374,
    "cigar": 26125,
    "vul": 15450,
    "_)âĢĶ": 20147,
    "Ġplump": 14285,
    "Ġharness": 17930,
    "Ġspeaks": 11160,
    "Ġcontrast": 2119,
    "dr": 6223,
    "ý": 190,
    "les": 1016,
    "ospit": 22268,
    "Ġresisted": 22546,
    "Ġfearlessness": 19163,
    "creatures": 7518,
    "Ġornament": 11722,
    "Ġburying": 19254,
    "nson": 16096,
    "Ġdespondency": 16578,
    "Ġattend": 5034,
    "Ġprinciple": 6771,
    "Ġfashionable": 19547,
    "Ġbern": 17860,
    "anged": 3588,
    "safety": 20352,
    "Ġgang": 9209,
    "Ġprudence": 13922,
    "Ġluff": 15656,
    "Ġ(_": 3736,
    "whole": 6087,
    "Ġabroad": 8868,
    "Ġimpossible": 3544,
    "Ġshock": 6084,
    "Ġcaves": 15557,
    "ifled": 14065,
    "astrous": 15888,
    "Ġgreatly": 5851,
    "Ġholland": 10367,
    "Ġel": 802,
    "Ġplays": 12040,
    "Ġsagacious": 14973,
    "Ġsplit": 7994,
    "Ġsumat": 14138,
    "sal": 8761,
    "avers": 17482,
    "Ġaforethought": 25429,
    "weather": 7229,
    "Ġcontinu": 1166,
    "Ġrussia": 26269,
    "brushing": 20790,
    "sentiment": 12919,
    "chosen": 21699,
    "Ġcircumference": 13546,
    "Ġspat": 2664,
    "Ġinsulted": 14994,
    "Ġlights": 8962,
    "ahead": 12437,
    "Ġattacked": 10569,
    "Ġdomineering": 23647,
    "Ġnone": 3219,
    "Ġquivering": 12863,
    "Ġgiants": 25961,
    "virtue": 20572,
    "Ġaristocratic": 20515,
    "ufact": 10734,
    "ograph": 4797,
    "assistance": 20374,
    "Ġconjoined": 21811,
    "Ġobstacles": 19838,
    "Ġcontemplation": 11358,
    "Ġgallows": 12149,
    "Ġ106": 24413,
    "Ġdiffident": 23786,
    "Ġlivel": 11356,
    "Ġthreads": 13120,
    "Ġspies": 22133,
    "Ġoverspread": 14204,
    "Ġwedge": 24935,
    "Ġpersonages": 23543,
    "wholly": 10942,
    "Ġproduce": 4364,
    "Ġsprang": 5063,
    ";": 31,
    "belongs": 25597,
    "Ġfrequencies": 4789,
    "Ġrobberies": 23010,
    "sun": 7141,
    "Ġhandsomer": 20336,
    "merchant": 10468,
    "Ġtwisting": 18659,
    "Ġcig": 6521,
    "Ġhugh": 15005,
    "whenever": 11884,
    "Ġleft": 1763,
    "hunting": 24384,
    "master": 5687,
    "Ġcharacteristically": 23694,
    "Ġdisliked": 12896,
    "neg": 12871,
    "Ġexig": 21832,
    "Ġrenewing": 19813,
    "consciously": 19628,
    "Ġsecre": 5493,
    "Ġdrily": 23542,
    "N": 50,
    "Ġintric": 9248,
    "Ġdependent": 14291,
    "Ġstarvation": 19794,
    "whisper": 17083,
    "asp": 3341,
    "id": 338,
    "Ġnewsp": 9341,
    "Ġtreasure": 9560,
    "Ġthoughtlessness": 16196,
    "Ġoce": 3027,
    "shuff": 18486,
    "Ġunfrequ": 19511,
    "Ġfeeding": 7973,
    "Ġbarbaric": 10016,
    "Ġaccosted": 13675,
    "creation": 14808,
    "attoo": 6808,
    "Ġconsequ": 6256,
    "Ġbolted": 12248,
    "endless": 22229,
    "illa": 12798,
    "Ġtenants": 23549,
    "Ġnigh": 4878,
    "colour": 9905,
    "stocks": 23824,
    "Ġpleasantly": 14521,
    "clear": 9026,
    "significant": 25085,
    "Ġalliance": 18236,
    "confined": 24327,
    "Ġaustral": 12176,
    "Ġnevertheless": 5039,
    "ppa": 10241,
    "along": 6015,
    "Ġcensure": 15098,
    "occ": 4483,
    "wheel": 22872,
    "within": 6732,
    "Ġjournal": 15221,
    "Ġpray": 3898,
    "Ġhostile": 19943,
    "hau": 17563,
    "Ġpool": 5173,
    "Ġsickly": 16775,
    "Ġindebted": 8711,
    "Ġtour": 9149,
    "Ġvestige": 20066,
    "Ġconsummate": 25311,
    "Ġearn": 3548,
    "alone": 10185,
    "Ġflying": 5413,
    "meditated": 19072,
    "bug": 17494,
    "commence": 19995,
    "meadow": 18679,
    "emason": 18184,
    "Ġsublimity": 26348,
    "ref": 6516,
    "ite": 712,
    "iamond": 14591,
    "astron": 22174,
    "Ġpiling": 17913,
    "Ġfaded": 10810,
    "quin": 21858,
    "Ġideal": 13123,
    "Ġvillain": 8639,
    "gans": 11491,
    "web": 18665,
    "Ġcourse": 2132,
    "Ġbal": 1133,
    "beryls": 25310,
    "Ġdisappo": 4504,
    "Ġvoyager": 16513,
    "Ġuncle": 3187,
    "Ġoptimal": 1858,
    "Ġanonym": 17899,
    "slave": 16896,
    "lyph": 10853,
    "Ġconsumm": 15157,
    "featured": 24070,
    "Ġrespective": 16347,
    "Ġsoc": 3524,
    "Ġabraham": 18396,
    "Ġstrike": 4856,
    "Ġlips": 3988,
    "formity": 10280,
    "fiery": 13583,
    "Ġwh": 328,
    "Ġimagenet": 19248,
    "Ġinstincts": 16987,
    "Ġflat": 8229,
    "regarded": 12010,
    "entiating": 3437,
    "varying": 13806,
    "sledge": 21060,
    "ppers": 7619,
    "Ġvaliant": 9802,
    "Ġjobs": 24833,
    "Ġtoward": 17949,
    "Ġblinded": 13273,
    "adagrad": 9693,
    "dishonourable": 26367,
    "Ġdesires": 9459,
    "Ġdegraded": 19229,
    "anean": 7443,
    "Ġsensations": 5260,
    "Ġflourishing": 25188,
    "Ġmale": 9650,
    "Ġcondesc": 7182,
    "increas": 10455,
    "sleepers": 24729,
    "li": 1189,
    "Ġlodgings": 8313,
    "Ġkinds": 14509,
    "Ġprofuse": 23567,
    "Ġequality": 16364,
    "jackets": 24896,
    "Ġdearer": 14051,
    "ifer": 11687,
    "Ġadoption": 24951,
    "Ġgrateful": 7662,
    "Ġelsewhere": 7714,
    "indignation": 18439,
    "dropout": 3192,
    "Ġunidirectional": 3424,
    "Ġregularity": 22784,
    "apprehension": 26115,
    "Ġcorrected": 10449,
    "gaining": 20127,
    "Ġmethodically": 23104,
    "pos": 15412,
    "Ġdeigned": 18141,
    "Ġ78": 19616,
    "Ġpertin": 18450,
    "uesday": 8590,
    "Ġperpet": 7646,
    "Ġcorrob": 16268,
    "Ġashes": 7618,
    "iasm": 8062,
    "Ġscraggy": 24579,
    "ineas": 15825,
    "initions": 21190,
    "Ġenvironments": 24139,
    "hurt": 19880,
    "ifling": 15786,
    "ogra": 4571,
    "Ġapartments": 19617,
    "alf": 4638,
    "Ġmariners": 6070,
    "Ġdecency": 18491,
    "thine": 15827,
    "Ġelasticity": 19561,
    "Ġhanding": 16133,
    "alarms": 21509,
    "Ġlewis": 15728,
    "Ġramad": 8530,
    "gover": 10703,
    "Ġsuffusing": 23034,
    "Ġzigzag": 26274,
    "Ġperforming": 7929,
    "Ġeulogy": 26472,
    "Ġrebellion": 26476,
    "vitiated": 25755,
    "Ġslily": 23169,
    "Ġintelligible": 15943,
    "Ġleviathan": 3287,
    "Ġdimin": 3870,
    "Ġdew": 14045,
    "Ġjoin": 4854,
    "Ġtint": 13819,
    "isted": 3297,
    "Ġrecess": 10848,
    "Ġharpo": 1943,
    "Ġneural": 621,
    "Ġparticularly": 5055,
    "clergy": 18936,
    "cob": 10088,
    "Ġfervently": 25878,
    "Ġwhile": 607,
    "Ġsubterraneous": 20268,
    "speaks": 19722,
    "Ġremained": 3136,
    "aug": 1214,
    "ribution": 14306,
    "Ġ17": 5740,
    "Ġspasmodic": 20401,
    "Ġbehalf": 14511,
    "âĢľ": 344,
    "splash": 25210,
    "Ġtablet": 19207,
    "Ġmaps": 2962,
    "Ġsolic": 7934,
    "Ġejac": 10205,
    "Ġfav": 1757,
    "philips": 20038,
    "aped": 3764,
    "Ġbishop": 13904,
    "Ġdaggoo": 5441,
    "fred": 20857,
    "Ġenters": 11026,
    "merely": 16137,
    "faith": 15026,
    "shud": 18485,
    "adv": 4535,
    "Ġamid": 4958,
    "Ġunnatural": 7190,
    "une": 2787,
    "Ġnar": 7375,
    "ableness": 8150,
    "atha": 6574,
    "Ġenthr": 22749,
    "âĢĿ": 354,
    "Ġclassification": 1088,
    "Ġfil": 3472,
    "deser": 10480,
    "Ġrounds": 18886,
    "history": 15016,
    "Ġblacksmiths": 19875,
    "Ġturban": 23615,
    "Ġtooth": 9194,
    "Ġguernsey": 9353,
    "Ġconceals": 23907,
    "rusted": 16508,
    "loops": 12887,
    "Ġindist": 14411,
    "gledy": 25404,
    "everything": 6326,
    "mighty": 9468,
    "Ġgreedily": 18965,
    "Ġattached": 5392,
    "Ġforthwith": 16619,
    "bourn": 3301,
    "Ġinterm": 14270,
    "Ġpythag": 26449,
    "Ġfl": 1278,
    "Ġdetect": 1198,
    "swear": 16919,
    "Ġchimney": 6498,
    "Ġinterval": 4049,
    "Ġdescends": 14289,
    "barbs": 20240,
    "Ġweak": 5098,
    "palms": 25263,
    "ureau": 10228,
    "Ġloops": 8855,
    "Ġbri": 21381,
    "te": 994,
    "breat": 10080,
    "prosperity": 20737,
    "Ġprudential": 17922,
    ")": 13,
    "Ġcrocodile": 20742,
    "aggo": 5097,
    "paused": 17376,
    "Ġnast": 15642,
    "Ġsoftware": 18920,
    "clothes": 9059,
    "collins": 6916,
    "unaccountable": 15782,
    "thick": 10262,
    "Ġshalt": 18231,
    "repairing": 24494,
    "ums": 10274,
    "Ġunsatisfied": 22047,
    "Ġsable": 15502,
    "Ġfloundering": 16256,
    "Ġshirt": 8852,
    "Ġmaj": 3925,
    "Ġdiagon": 24739,
    "roof": 17956,
    "Ġexord": 21833,
    "ermost": 7430,
    "atement": 17774,
    "acked": 10975,
    "neat": 22467,
    "Ġp": 289,
    "ule": 6801,
    "Ġcretan": 22727,
    "superiority": 20188,
    "Ġcomes": 3422,
    "Ġposture": 24166,
    "Ġstup": 14007,
    "langu": 4807,
    "Ġrandom": 1590,
    "Ġtrophy": 20010,
    "Ġdepose": 22598,
    "Ġsoaring": 22083,
    "assemblies": 25957,
    "igation": 5920,
    "Ġconsulting": 13431,
    "Ġstrung": 22619,
    "Ġsidelong": 11439,
    "Ġrevealing": 3923,
    "Ġdistress": 5845,
    "Ġvagabond": 20206,
    "preserving": 25305,
    "Ġpar": 456,
    "Ġquiver": 16006,
    "ming": 3601,
    "Ġcitadel": 25439,
    "Ġslappin": 18945,
    "Ġverte": 9443,
    "Ġremem": 4311,
    "Ġunfair": 19510,
    "Ġmonogram": 26575,
    "Ġhurrying": 11997,
    "Ġirksome": 13114,
    "Ġshears": 18320,
    "wonder": 6372,
    "Ġwidespread": 20678,
    "Ġ177": 13414,
    "Ġnew": 1196,
    "laying": 19775,
    "Ġsubstant": 14811,
    "clopÃ¦": 13059,
    "Ġi": 311,
    "Ġrepel": 23363,
    "Ġpillows": 24991,
    "Ġriots": 23895,
    "Ġintentions": 10609,
    "Ġadvertised": 17249,
    "Ġsuperflu": 14554,
    "Ġbeggars": 20632,
    "Ġyarman": 12710,
    "measured": 19993,
    "ropy": 1104,
    "ccas": 15895,
    "collecting": 26082,
    "obvious": 9359,
    "Ġvehicle": 20141,
    "Ġbrave": 6331,
    "Ġasylum": 13669,
    "Ġprogressive": 5023,
    "Ġfac": 6382,
    "Ġgrasshopper": 24379,
    "yet": 3752,
    ";âĢĿ": 7792,
    "Ġpet": 4584,
    "narrowly": 20350,
    "Ġflirt": 14425,
    "ė": 216,
    "Ġcherry": 16936,
    "Ġhand": 859,
    "Ġmillar": 13863,
    "Ġdevelop": 1600,
    "Ġpreyed": 18367,
    "Ġsickening": 19607,
    "Ġthrice": 10577,
    "Ġbutchers": 18273,
    "Ġwallet": 21301,
    "phew": 6369,
    "erce": 6128,
    "Ġrenewal": 12238,
    "penn": 18829,
    "Ġfugitives": 25635,
    ",âĢĶâĢĺ": 23805,
    "Ġdaybreak": 18727,
    "Ġmetaphys": 16414,
    "Ġtwitch": 22680,
    "Ġhailed": 6408,
    "mushroom": 26396,
    "pherd": 13646,
    "Ġrecorded": 11294,
    "Ġaggregate": 25678,
    "Ġreaction": 15698,
    "ieties": 19029,
    "Ġforeshad": 23453,
    "Ġduplicate": 17217,
    "Ġdepends": 1066,
    "Ġedinburgh": 16458,
    "chamber": 13627,
    "Ġhorribly": 16345,
    "Ġmout": 17800,
    "Ġproprietor": 12376,
    "Ġmonarch": 14417,
    "Ġpell": 21460,
    "Ġcash": 9654,
    "Ġmanned": 9273,
    "intentions": 22943,
    "âĢĶâĢĺ": 7015,
    "Ġsummary": 19407,
    "Ġexcavating": 23319,
    "ampling": 12731,
    "Ġpocket": 4898,
    "Ġcomprehended": 11295,
    "see": 3044,
    "Ġentangled": 10345,
    "Ġbeauties": 10446,
    "ă": 196,
    "ips": 2591,
    "Ġcrack": 7711,
    "clump": 23160,
    "Ġshoved": 23492,
    "eman": 5636,
    "Ġlengthen": 15657,
    "Ġlascar": 9201,
    "Ġreve": 2931,
    "Ġmainland": 22651,
    "Ġ19": 6721,
    "Ġunctuous": 10268,
    "Ġraising": 8912,
    "Ġstrict": 7221,
    "xic": 9147,
    "Ġhorn": 6187,
    "Ġcrockery": 24302,
    "bill": 10078,
    "deceptive": 22154,
    "Ġbarbarously": 24816,
    "resent": 10770,
    "Ġtest": 1610,
    "ics": 3255,
    "Ġsafety": 6341,
    "az": 2182,
    "Ġevangelists": 20342,
    "Ġaccountability": 10439,
    "Ġleech": 24156,
    "earth": 6503,
    "ispiece": 19728,
    "Ġundisturbed": 19522,
    "Ġawait": 17073,
    "week": 12936,
    "Ġbiting": 17863,
    "Ġkept": 3347,
    "Ġparchment": 13654,
    "bots": 10084,
    "Ġlory": 12657,
    "Ġbulwarks": 5591,
    "Ġrunning": 3950,
    "jep": 20928,
    "writer": 14649,
    "mingled": 14715,
    "Ġunless": 4088,
    "Ġfamiliar": 5511,
    "Ġpaper": 4281,
    "Ġunclasp": 26512,
    "Ġprovid": 1007,
    "Ġdaintiest": 25954,
    "Ġmadame": 13152,
    "Ġcasks": 7522,
    "Ġdams": 16456,
    "Ġfolds": 12210,
    "walked": 10572,
    "ounders": 22398,
    "Ġsentimental": 24753,
    "Ġwhir": 6394,
    "asleep": 21548,
    "Ġyaw": 18097,
    "Ġhaving": 1883,
    "Ġdevelopments": 23219,
    "urance": 10858,
    "Ġvaulted": 25171,
    "dared": 13705,
    "armed": 7251,
    "ect": 380,
    "Ġunseason": 22055,
    "Ġbedford": 7476,
    "Ġstarted": 4146,
    "Ġprovision": 14827,
    "Ġpredicted": 2043,
    "Ġtempered": 12927,
    "ocratic": 17246,
    "Ġforever": 14553,
    "breeze": 20565,
    "Ġsust": 7009,
    "Ġblindly": 12113,
    "commod": 16178,
    "Ġprofessors": 14727,
    "Ġdistrict": 10320,
    "Ġendued": 14079,
    "Ġcaus": 1725,
    "Ġorganically": 3009,
    "ô": 181,
    "Ġsays": 3562,
    "ste": 3585,
    "ptember": 10895,
    "Ġapproximation": 2339,
    "Ġlullaby": 20591,
    "Ġ86": 24460,
    "Ġalarm": 4043,
    "Ġdespair": 4006,
    "Ġimmortality": 26327,
    "Ġexulting": 20261,
    "ronted": 14879,
    "forth": 9324,
    "perseus": 26006,
    "Ġtrading": 23083,
    "Ġgovernesses": 25130,
    "gentleman": 7519,
    "earthly": 24723,
    "Ġpat": 1723,
    "Ġcomplain": 6687,
    "Ġwithin": 2163,
    "Ġcarpets": 18904,
    "Ġxxx": 7768,
    "ament": 2437,
    "divided": 25021,
    "Ġporing": 21471,
    "Ġresides": 22545,
    "Ġundiscovered": 18253,
    "tattoo": 21090,
    "Ġclapped": 9748,
    "Ġgleam": 12311,
    "Ġprophetic": 20023,
    "Ġinfallibly": 10043,
    "Ġsteal": 16285,
    "Ä": 133,
    "newsp": 23140,
    "direful": 25897,
    "Ġwhiff": 21722,
    "separation": 25227,
    "Ġpangs": 15618,
    "Ġeternally": 11370,
    "Ġcoiled": 11823,
    "destroyed": 15263,
    "Ġcalhoun": 23047,
    "youngest": 19746,
    "keys": 15861,
    "Ġscreaming": 13425,
    "Ġrepulsive": 14531,
    "pushed": 21025,
    "ortion": 11760,
    "dismal": 23499,
    "Ġthr": 5709,
    "stick": 15687,
    "comfort": 5647,
    "nar": 12497,
    "Ġthoughts": 3133,
    "Ġenc": 964,
    "eck": 20846,
    "Ġskip": 1847,
    "Ġsimil": 2530,
    "Ġpouring": 12629,
    "Ġconsideration": 5191,
    "Ġlegible": 23536,
    "willingly": 11985,
    "Ġmachinery": 20488,
    "ily": 1030,
    "Ġassures": 14468,
    "Ġharder": 14451,
    "Ġretrogression": 26582,
    "Ġdeftly": 26494,
    "Ġevian": 24293,
    "Ġet": 3581,
    "Ġsimulation": 2751,
    "countless": 24151,
    "Ġact": 692,
    "Ġpainfully": 13143,
    "benevolent": 15236,
    "ulity": 10887,
    "Ġanswers": 7072,
    "Ġdeficiency": 14406,
    "overspreading": 26140,
    "Ġdissatisfied": 14258,
    "Ġunprofitable": 18268,
    "Ġpeeped": 10014,
    "Ġmince": 22834,
    "etting": 21584,
    "variance": 2656,
    "Ġbands": 14886,
    "Ġconcise": 23326,
    "lascar": 20962,
    "Ġsher": 3763,
    "pent": 3492,
    "Ġsaturation": 2062,
    "Ġcompass": 4407,
    "bounded": 13441,
    "Ġfiltering": 23930,
    "Ġdial": 10811,
    "Ġmelbourne": 24290,
    "Ġhypocritical": 20740,
    "Ġworaciousness": 22933,
    "mem": 10710,
    "Ġmournfully": 20120,
    "Ġfleet": 9434,
    "boots": 11127,
    "Ġtiara": 26416,
    "lp": 899,
    "Ġforbearance": 12331,
    "Ġcents": 17830,
    "drugg": 20840,
    "axen": 22526,
    "Ġstretch": 6994,
    "cap": 8374,
    "Ġprofessions": 11232,
    "hung": 8382,
    "Ġasking": 5651,
    "Ġlaw": 3655,
    "Ġmuslin": 19386,
    "doing": 8588,
    "Ġgreas": 17994,
    "Ġthreatens": 24374,
    "brought": 7285,
    "Ġfulfilment": 20190,
    "aster": 1868,
    "Ġmissed": 8560,
    "lled": 10109,
    "icest": 21568,
    "Ġunhe": 22013,
    "education": 20304,
    "Ë": 140,
    "rie": 2788,
    "Ġadventurous": 16734,
    "slipped": 25530,
    "Ġul": 6828,
    "entreat": 17978,
    "henry": 16627,
    "Ġordering": 18998,
    "Ġreliance": 14387,
    "Ġtou": 15468,
    "Ġincognita": 26552,
    "handle": 11191,
    "spermaceti": 12197,
    "Ġrains": 24339,
    "Ġcentrally": 23835,
    "Ġmistake": 6205,
    "pressed": 6590,
    "Ġhig": 755,
    "inno": 10757,
    "Ġjump": 4502,
    "ape": 1906,
    "Ġspring": 4117,
    "ton": 1727,
    "autions": 20769,
    "Ġdoes": 943,
    "Ġhelmeted": 19691,
    "Ġbos": 4875,
    "Ġinformed": 6719,
    "advantages": 11272,
    "Ġreject": 7386,
    "Ġanswered": 2850,
    "Ġunderstanding": 1797,
    "ok": 573,
    "imagination": 13482,
    "Ġhunts": 23163,
    "Ġamounts": 6706,
    "Ġquestioned": 14621,
    "Ġamused": 11802,
    "Ġwhar": 7388,
    "Ġrept": 13985,
    "unwholesome": 26498,
    "È": 137,
    "Ġpaid": 5014,
    "Ġgeneralize": 3096,
    ";âĢĿâĢĶ": 20762,
    "hammered": 19005,
    "Ġgrounds": 6751,
    "Ġ109": 24415,
    "Ġpre": 507,
    "Ġrealistic": 5862,
    "Ġenraptured": 26501,
    "ging": 2600,
    "ardy": 22161,
    "Ġthin": 4345,
    "scand": 18857,
    "Ġstash": 18070,
    "Ġtwink": 8217,
    "Ġscorch": 20070,
    "Ġnoble": 3439,
    "Ġchast": 18381,
    "Ġoffended": 7042,
    "rennial": 22346,
    "jump": 10105,
    "eringly": 23007,
    "Ġrelations": 5854,
    "Ġtie": 10751,
    "idered": 4551,
    "Ġsayest": 22783,
    "Ġredu": 1355,
    "Ġoccupation": 9933,
    "cases": 12451,
    "Ġmouthfuls": 20648,
    "Ġsires": 21229,
    "Ġrecursive": 4782,
    "iscuit": 10600,
    "Ġcore": 13880,
    "uits": 21107,
    "Ġaddu": 22106,
    "Ġcurds": 22988,
    "leep": 4634,
    "Ġpostmark": 16726,
    "Ġpam": 21458,
    "Ġdefects": 12336,
    "Ġ102": 24409,
    "Ġdespondence": 25870,
    "Ġquenched": 22422,
    "Ġadmirable": 8270,
    "Ġimpossibility": 20649,
    "pretending": 17041,
    "Ġflannel": 26578,
    "heidelburgh": 21214,
    "Ġmississippi": 20727,
    "Ġislands": 6767,
    "oforte": 14288,
    "Ġchaps": 14181,
    "Ġdanger": 3519,
    "lucky": 24544,
    "Ġtows": 19565,
    "Ġostr": 21328,
    "secre": 18129,
    "mo": 863,
    "Ġrelapses": 26280,
    "Ġdeterm": 1267,
    "dressed": 10696,
    "since": 5897,
    "etieth": 21588,
    "Ġbuffalo": 11430,
    "Ġacre": 22685,
    "Ġgrizz": 10353,
    "Ġdramatic": 4851,
    "confidence": 16809,
    "Ġblossom": 26313,
    "Ġknave": 11273,
    "Ġfrequented": 16587,
    "Ġor": 436,
    "Ġdiscern": 7660,
    "Ġimbedded": 18327,
    "Ġscrib": 22288,
    "Ġromantic": 8032,
    "anchor": 13891,
    "Ġdense": 8124,
    "altern": 17944,
    "steam": 23963,
    "gerine": 22893,
    "arch": 1141,
    "Ġtiny": 11554,
    "Ġpipes": 9850,
    "Ġspringing": 10520,
    "Ġrejoined": 14929,
    "Ġforces": 12707,
    "Ġcries": 7155,
    "âĢĶâĢľ": 2969,
    "ures": 839,
    "Ġstages": 14006,
    "malice": 17604,
    "moon": 10337,
    "ylon": 24980,
    "Ġfools": 14483,
    "Ġlesson": 7276,
    "Ġfriday": 14489,
    "Ġruskin": 25809,
    "Ġimply": 18445,
    "hint": 12479,
    "Ġelevate": 24498,
    "Ġdoctor": 5067,
    "Ġcopestone": 24939,
    "Ġhosmer": 6775,
    "sheets": 14444,
    "thern": 4952,
    "Ġfa": 4820,
    "Ġfeatures": 1434,
    "Ġunholy": 26220,
    "Ġdaylight": 10352,
    "thirty": 12767,
    "Ġobservable": 25129,
    "Ġreport": 6193,
    "inery": 17734,
    "majesty": 26282,
    "omist": 21662,
    "Ġantichron": 24183,
    "Ġnewton": 3532,
    "Ġevery": 927,
    "Ġinput": 608,
    "morrow": 4570,
    "Ġfarthing": 14456,
    "Ġconsoling": 19460,
    "Ġformidable": 8221,
    "Ġlend": 17965,
    "Ġ35": 24078,
    "Ġfluttered": 16254,
    "Ġposted": 16725,
    "Ġenv": 3032,
    "geese": 22372,
    "ve": 323,
    "Ġlivery": 16003,
    "limp": 20954,
    "Ġelixir": 26556,
    "omy": 6251,
    "complain": 14361,
    "Ġstubbornness": 25380,
    "Ġpropri": 6740,
    "Ġexpl": 487,
    "Ġemployment": 8632,
    "Ġhungry": 10534,
    "cork": 20798,
    "Ġability": 2764,
    "Ġimmersed": 19488,
    "Ġmass": 3780,
    "Ġcomplaisance": 19452,
    "Ġbetween": 793,
    "Ġalso": 1345,
    "Ġcloak": 9536,
    "Ġaccumulates": 2888,
    "desc": 1393,
    "Ġpure": 6139,
    ",âĢĻâĢĶ": 23530,
    "Ġadjacent": 20713,
    "Ġstim": 18066,
    "sailor": 14717,
    "venerable": 26409,
    "Ġrags": 18646,
    "Ġhappiest": 11885,
    "Ġcopy": 10165,
    "Ġcow": 13878,
    "Ġgilder": 21617,
    "Ġaffront": 18790,
    "Ġunmindful": 22069,
    "Ġdeformity": 11678,
    "Ġpleas": 1907,
    "Ġstrangled": 24133,
    "âĢĶ(": 15941,
    "pursue": 24978,
    "appearance": 5334,
    "subst": 12168,
    "Ġspeckled": 14311,
    "¯": 112,
    "Ġinterested": 6459,
    "slightest": 25417,
    "Ġcorridor": 10673,
    "Ġbedside": 19125,
    "oat": 13766,
    "Ġ1869": 19387,
    "fatality": 25022,
    "Ġfootsteps": 16573,
    "Ġwoods": 5406,
    "Ġreminding": 19800,
    "oder": 2456,
    "strade": 5064,
    "Ġkitty": 3908,
    "Ġsagaciously": 24730,
    "X": 60,
    "Ġexpression": 4514,
    "Ġmail": 17802,
    "Ġjunior": 15102,
    "approach": 24834,
    "Ġtormented": 8678,
    "Ġoccupant": 16653,
    "Ġauthor": 4373,
    "Ġvehicles": 10661,
    "Ġepaulets": 24906,
    "Ġvineyarder": 25607,
    "plex": 708,
    "Ġpracticable": 19056,
    "Ġlisten": 4673,
    "Ġcabinet": 23864,
    "Ġcasualties": 25513,
    "ieces": 4772,
    "riors": 18188,
    "ledyard": 22396,
    "Ġstatements": 7517,
    "Ġmastiff": 23727,
    "Ġpantry": 20298,
    "icting": 12858,
    "Ġdripping": 13148,
    "rics": 13040,
    "Ġmisgiv": 14347,
    "Ġworld": 1599,
    "ither": 1546,
    "total": 17252,
    "accident": 11182,
    "Ġlawless": 19438,
    "Ġchemical": 10413,
    "ring": 1754,
    "fle": 7130,
    "turbable": 24530,
    "Ġdiscomposed": 25581,
    "tomorrow": 25915,
    "expect": 4769,
    "Ġdealing": 14047,
    "Ġobjects": 5577,
    "russian": 22188,
    "Ġthroughout": 8879,
    "Ġherds": 9718,
    "Ġscorn": 7903,
    "Ġspeeches": 22662,
    "Ġprizes": 13076,
    "Ġnor": 1550,
    "length": 7136,
    "momentum": 4990,
    "Ġcarn": 17823,
    "Ġcanallers": 13629,
    "Ġvoc": 4449,
    "stupid": 12680,
    "Ġsummits": 14684,
    "passenger": 24168,
    "Ġhesitation": 13443,
    "Ġanalogy": 25640,
    "Ġcertain": 1557,
    "Ġseren": 7401,
    "Ġgaol": 19570,
    "Ġleaks": 16446,
    "itan": 10161,
    "Ġyellow": 5302,
    "Ġboxes": 13376,
    "agery": 21912,
    "Ġrigging": 5600,
    "Ġsu": 433,
    "slow": 7811,
    "Ġvintage": 26211,
    "reach": 17758,
    "Ġladyship": 5045,
    "Ġtraits": 23080,
    "Ġgenial": 12198,
    "dis": 2250,
    "ocean": 12404,
    "ı": 242,
    "Ġje": 4119,
    "i": 77,
    "headsman": 16698,
    "Ġmidway": 14605,
    "angels": 22110,
    "eyeing": 14948,
    "tering": 3807,
    "Ġtufted": 17015,
    "Ġblame": 6447,
    "Ġargu": 10935,
    "befall": 22499,
    "rep": 5525,
    "fates": 20860,
    "acute": 22602,
    "Ġgills": 17995,
    "Ġuneasily": 24232,
    "oment": 920,
    "Ġhumiliating": 22889,
    "impatience": 25501,
    "tempest": 16960,
    "nels": 12499,
    "Ġpatients": 24810,
    "Ġtranspointed": 22445,
    "Ġun": 422,
    "retaining": 21248,
    "Ġ77": 24265,
    "Ġmultiplicity": 19277,
    "definition": 23124,
    "Ġunabated": 15855,
    "neying": 22468,
    "control": 16544,
    "amused": 21851,
    "Ġcalmly": 7735,
    "phil": 7927,
    "<": 32,
    "Ġappearances": 10452,
    "Ġlitter": 19832,
    "Ġfainting": 16898,
    "ullied": 23111,
    "Ġunrel": 14697,
    "inkle": 22622,
    "Ġchann": 15938,
    "Ġhandsome": 4906,
    "kins": 7345,
    "iple": 4806,
    "Ġdespairing": 14776,
    "attle": 4465,
    "onel": 3086,
    "Ġventing": 19496,
    "Ġbenefited": 19401,
    "Ġprovocation": 24193,
    "Ġax": 7823,
    "tu": 12515,
    "asked": 8914,
    "wherein": 19109,
    "staring": 18020,
    "Ġagencies": 18543,
    "Ġpeep": 6870,
    "Ġbias": 1192,
    "Ġincalculable": 17462,
    "sleet": 20152,
    "ensions": 14260,
    "lop": 20950,
    "Ġrequ": 813,
    "Ġwinds": 5746,
    "Ġwhose": 2008,
    "Ġvexatious": 19784,
    "acey": 7651,
    "Ġfaults": 12216,
    "Ġdisputing": 25825,
    "hibited": 17429,
    "misrepresented": 24213,
    "thrasher": 25659,
    "Ġevolved": 9894,
    ",--âĢľ": 19198,
    "acet": 5476,
    "weekly": 25685,
    "reasoning": 9478,
    "incible": 16499,
    "5": 25,
    "Ġserene": 8168,
    "Ġlakes": 8132,
    "Ġinf": 1759,
    "Ġmassa": 19457,
    "haired": 14769,
    "Ġsurrender": 16449,
    "visits": 24225,
    "Ġperformance": 1307,
    "quimaux": 21864,
    "Ġrepresenting": 4056,
    "fed": 11489,
    "Ġquestioning": 10465,
    "Ġdream": 3537,
    "Ġgam": 11626,
    "onical": 21256,
    "laws": 19810,
    "Ġpaces": 13921,
    "Ġequival": 4783,
    "Ġbashaw": 25634,
    "Ġhers": 7891,
    "presume": 25671,
    "Ġatt": 780,
    "Ġtrifle": 10603,
    "Ġphrase": 11188,
    "Ġequal": 4132,
    "strom": 15686,
    "Ġplainpalais": 20739,
    "Ġheeded": 13405,
    "Ġsagittarius": 24731,
    "ative": 738,
    "Ġchiefly": 5766,
    "Ġconqueror": 25797,
    "utility": 21591,
    "founded": 16715,
    "every": 2811,
    "Ġbough": 13896,
    "Ġplates": 11008,
    "brit": 19199,
    "athan": 2955,
    "Ġextant": 18689,
    "Ġoarsman": 8641,
    "wall": 10138,
    "Ġleeward": 6212,
    "knell": 24554,
    "Ġprivately": 19526,
    "&": 10,
    "Ġhunks": 18938,
    "naturally": 14571,
    "pha": 22767,
    "Ġwaters": 3596,
    "Ġhonors": 23603,
    "Ġtrail": 16284,
    "icate": 9203,
    "Ġduties": 6611,
    "Ġlion": 9677,
    "Ġeddystone": 25736,
    "Ġpeeping": 16130,
    "utions": 1892,
    "Ġplausible": 26554,
    "Ġaverages": 2396,
    "ç": 168,
    "Ġdiscuss": 9476,
    "Ġnapkins": 25165,
    "proble": 9396,
    "pattern": 4735,
    "Ġprofile": 16489,
    "Ġpraises": 16731,
    "Ġintervals": 5597,
    "Ġtwist": 11854,
    "Ġentreat": 4508,
    "otograph": 5827,
    "simp": 17666,
    "Ġreg": 730,
    "Ġevaluate": 3332,
    "Ġinevitably": 17232,
    "Ġdrop": 4342,
    "ollion": 19718,
    "runs": 25416,
    "Ġratt": 7883,
    "Ġjealously": 24124,
    "Ġhunger": 8570,
    "corn": 13702,
    "whaler": 20312,
    "Ġhampshire": 15245,
    "Ġfoe": 7682,
    "path": 10120,
    "rate": 2421,
    "consequ": 18508,
    "Ġexpressions": 7707,
    "Ġcommonest": 23094,
    "anxiously": 15113,
    "hered": 5622,
    "Ġinfants": 16369,
    "puzz": 17641,
    "distrust": 19573,
    "m": 81,
    "Ġmedium": 16707,
    "Ġgrowled": 19285,
    "exagger": 22433,
    "Ġkick": 5838,
    "Ġbatch": 889,
    "Ġcommodores": 25375,
    "Ġdrawled": 23992,
    "Ġpos": 1011,
    "giana": 7802,
    "Ġinspired": 2516,
    "Ġunpleasant": 7191,
    "Ġpartners": 11856,
    "Ġwitness": 4620,
    "?_": 8071,
    "Ġcondensed": 24055,
    "Ġproduct": 3533,
    "Ġshan": 9251,
    "onted": 11569,
    "Ğ": 223,
    "uded": 6289,
    "arches": 10817,
    "explaining": 23149,
    "Ġpitiful": 13242,
    "Ġroasted": 18460,
    "Ġsidel": 9637,
    "Ġlizzie": 26463,
    "Ġmedd": 15542,
    "pedest": 24823,
    "har": 20892,
    "Ġmutters": 23959,
    "Ġsane": 21224,
    "Ġuniverse": 14126,
    "Ġmarbles": 18873,
    "Ġvariance": 1167,
    "Ġstrikes": 13183,
    "Ġspare": 5102,
    "Ġslid": 7953,
    "Ġtravellers": 11309,
    "devilish": 17082,
    "Ġnervousness": 23558,
    "Ġlust": 9199,
    "Ġchanged": 5243,
    "9": 29,
    "bow": 5424,
    "Ġchalk": 15936,
    "trap": 24333,
    "ostentatious": 20654,
    "bast": 10079,
    "Ġsequ": 981,
    "Ġpunish": 12163,
    "Ġenhance": 2925,
    "Ġleagues": 9225,
    "anish": 2615,
    "@": 36,
    "connections": 14430,
    "sentence": 2937,
    "chron": 21698,
    "Ġofficio": 23819,
    "af": 2374,
    "Ġstillness": 12998,
    "Ġinclemency": 22560,
    "Ġsnatched": 10472,
    "Ġneither": 3686,
    "ahab": 4288,
    "forgotten": 12419,
    "Ġlazily": 11381,
    "Ġsi": 21215,
    "oundering": 11749,
    "desired": 9007,
    "_âĢĶâĢĻâĢĿ": 25742,
    "Ġbills": 17862,
    ",âĢĶ": 3164,
    "dig": 4929,
    "bearance": 22498,
    "Ġouthouse": 22319,
    "Ġhams": 16613,
    "Ġfriendship": 7246,
    "aloes": 21506,
    "Ġhoney": 12637,
    "presently": 9811,
    "Ġformality": 22832,
    "whe": 1075,
    "live": 7551,
    "Ġfleshy": 24616,
    "Ġevangelist": 20341,
    "blo": 6355,
    "Ġ118": 19701,
    "Ġconfess": 3766,
    "Åĵuvre": 25888,
    "ously": 2489,
    "Ġsqueezed": 20039,
    "Ġgradient": 450,
    "companions": 15025,
    "Ġjudgment": 5765,
    "Ġrowing": 10302,
    "gh": 3801,
    "Ġringbolts": 24198,
    "Ġadvance": 5484,
    "Ġmisgivings": 15294,
    "Ġhelmsman": 10506,
    "Ġdefined": 11901,
    "Ġday": 956,
    "zas": 17713,
    "Ġinquirer": 24966,
    "Ġcompact": 2262,
    "Ġbreakers": 12058,
    "narwhale": 17320,
    "Ġsled": 21221,
    "Ġentra": 18694,
    "Ġwiping": 25766,
    "rified": 15421,
    "Ġharpooneers": 4731,
    "sneezes": 11447,
    "Ġmapple": 11151,
    "Ġebb": 21628,
    "Ġbrook": 13051,
    "Ġpadded": 25039,
    "fearfully": 25119,
    "Ġparac": 12800,
    "Ġaz": 9631,
    "Ġheavily": 6742,
    "Ġshaved": 22007,
    "ancial": 21365,
    "ructed": 7029,
    "Ġpret": 3033,
    "Ġlob": 7629,
    "Ġkiller": 19571,
    "admiration": 11388,
    "therly": 18342,
    "pon": 17626,
    "Ġspecial": 2103,
    "Ġcells": 13887,
    "dry": 13706,
    "Ġarchitecture": 1110,
    "Ġlightnings": 16355,
    "Ġfingers": 5672,
    "Ġapparently": 6779,
    "Ġstories": 10866,
    "Ġincompatible": 25681,
    "Ġuniversity": 13124,
    "Ġmassac": 14738,
    "Ġlaws": 8004,
    "Ġcaptiv": 16261,
    "phantoms": 24680,
    "Ġciv": 3309,
    "Ġcrater": 16437,
    "eye": 6226,
    "Ġtoilet": 13939,
    "unexpected": 15781,
    "Ġdecidedly": 9511,
    "tch": 9143,
    "Ġcommencement": 12242,
    "remediable": 26296,
    "Ġsor": 4142,
    "Ġjewel": 9944,
    "Ġeighteen": 11239,
    "Ġchewed": 16375,
    "rippling": 24712,
    "shells": 26057,
    "isting": 5550,
    "muring": 17602,
    "Ġcruellest": 19661,
    "Ġendeavors": 16547,
    "Ġinsignificance": 20460,
    "Ġresort": 18564,
    "friends": 8307,
    "twain": 23703,
    "attached": 11938,
    "uguese": 20734,
    "Ġmuster": 16125,
    "inu": 1116,
    "Ġcotton": 17381,
    "Ġuncommon": 5025,
    "miserable": 8660,
    "Ŀ": 256,
    "per": 483,
    "sc": 1257,
    "Ġexempl": 21836,
    "Ġcoiling": 12910,
    "yingly": 23065,
    "Ġkilling": 13335,
    "Ġallegor": 25546,
    "wat": 6233,
    "Ġencountered": 8323,
    "Ġcape": 5146,
    "sery": 17662,
    "Ġdare": 3546,
    "Ġhailing": 11696,
    "Ġerud": 20058,
    "Ġwr": 1543,
    "Ġslighter": 18942,
    "Ġfill": 5701,
    "hist": 7132,
    "akeman": 6269,
    "Ġexercising": 19909,
    "Ġpretension": 23767,
    "Ġastonishing": 10503,
    "left": 6976,
    "Ġauthentic": 20538,
    "Ġgar": 10839,
    "8": 28,
    "Ġdestroying": 14731,
    "august": 11072,
    "Ġlunch": 13527,
    "Ġgod": 1936,
    "Ġhere": 1092,
    "Ġdeposit": 17270,
    "rench": 3965,
    "Ġthoroughfares": 26096,
    "loat": 8889,
    "Ġspeeding": 23565,
    "ef": 5134,
    "windibank": 24163,
    "Ġappeals": 16318,
    "ece": 17532,
    "Ġpink": 12623,
    "Ġcountenances": 11968,
    "hent": 12538,
    "income": 15488,
    "Ġspirits": 3697,
    "Ġnortheast": 23206,
    "cated": 20805,
    "Ġunprovided": 18261,
    "fain": 13717,
    "Ġperth": 7024,
    "Ġshel": 6847,
    "Ġsubaltern": 22795,
    "py": 17625,
    "prom": 6510,
    "librarian": 26569,
    "Ġhoping": 11104,
    "Ġgiven": 1629,
    "irium": 8163,
    "Ġcruelty": 9971,
    "iber": 6507,
    "bantering": 25254,
    "Ġbrazier": 26322,
    "Ġprevious": 2090,
    "elze": 21577,
    "zetts": 17715,
    "Ġdragged": 6889,
    "Ġglassy": 19563,
    "pudding": 17648,
    "Ġfirmest": 16666,
    "Ġlinguistic": 12428,
    "Ġcurios": 18852,
    "Ġduplicates": 17218,
    "Ġinvited": 6903,
    "Ġrobins": 16251,
    "Ġnaught": 8129,
    "Ġwheel": 9720,
    "Ġpersistence": 3230,
    "Ġfrozen": 9015,
    "Ġbunger": 9998,
    "Ġranged": 10259,
    "astonishment": 10032,
    "Ġaltitude": 26204,
    "sister": 5139,
    "Ġcreative": 9833,
    "calm": 8936,
    "fierce": 25256,
    "ask": 858,
    "Ġdispatched": 23884,
    "Ġshank": 22002,
    "Ġasserted": 16950,
    "gave": 7801,
    ")âĢĶâĢľ": 20745,
    "Ġrefrained": 14346,
    "Ġsneer": 13449,
    "Ġ0": 1904,
    "urpation": 16303,
    "Ġmetropolitan": 17277,
    "Ġconsolation": 6210,
    "Ġconfound": 23308,
    "Ġnursery": 19753,
    "Ġthrobbing": 16899,
    "Ġlamentations": 17076,
    "declaration": 25176,
    "opement": 10313,
    "Ġunder": 1638,
    "Ġbreathless": 12173,
    "Ġactivations": 2721,
    "Ġamazed": 14891,
    "ressed": 3020,
    "protection": 19922,
    "ĠĠĠĠĠĠĠĠĠĠĠĠĠĠĠĠĠĠĠĠĠĠĠĠĠĠĠĠ": 9977,
    "Ġpreparing": 8651,
    "bye": 5952,
    "Ġdetain": 14175,
    "Ġency": 21938,
    "immediately": 10051,
    "Ġbelted": 22952,
    "Ġomniscient": 20089,
    "sole": 6170,
    "Ġmagic": 8234,
    "Ġlimp": 19182,
    "Ġcrony": 23440,
    "Ġgib": 13967,
    "Ġforbade": 15217,
    "barrow": 15323,
    "Ġinvestigated": 25387,
    "Ġobservations": 13555,
    "riving": 21936,
    "abb": 15742,
    "omuch": 21664,
    "Ġsped": 22130,
    "Ġingolstadt": 8334,
    "Ġfemin": 13438,
    "Ġtuning": 3069,
    "Ġgrapes": 15218,
    "classification": 4385,
    "Ġbig": 5806,
    "Ġlow": 1649,
    "Ġloop": 14148,
    "Ġtransportation": 13644,
    "Ġsashes": 21228,
    "eks": 4727,
    "Ġadviser": 25313,
    "Ġsobbing": 14136,
    "Ġgrampus": 21998,
    "Ġcollections": 22862,
    "Ġincalcul": 16066,
    "welcomed": 24645,
    "Ġincred": 5646,
    "Ġtech": 1662,
    "Ġerskine": 17434,
    "Ġinvite": 14563,
    "Ġhurry": 4913,
    "Ġretiring": 16282,
    "disposed": 25013,
    "Ġneighbor": 25806,
    "fluttering": 23976,
    "Ġforth": 3462,
    "Ġreluct": 14373,
    "Ġgasping": 17038,
    "rous": 3751,
    "inced": 3337,
    "purse": 20028,
    "reading": 12083,
    "Ġannihilated": 20255,
    "Ġdawned": 14996,
    "osa": 22265,
    "he": 264,
    "rative": 17653,
    "Ġgunwale": 7325,
    "Ġperturbed": 20443,
    "ama": 11679,
    "ives": 1412,
    "Ġtapers": 11553,
    "Ġcliffs": 15979,
    "Ġfow": 6135,
    "Ġplying": 17916,
    "Ġhusbands": 16644,
    "Ġconsider": 2567,
    "Ġformed": 3882,
    "Ġprized": 23222,
    "Ġshipmate": 8931,
    "/`)": 13662,
    "Ġparticulars": 5754,
    "tured": 13797,
    "reast": 17759,
    "vi": 2373,
    "endeavouring": 15017,
    "Ġimaginary": 11187,
    "ą": 198,
    "iem": 20919,
    "justine": 7685,
    "Ġimmeas": 18325,
    "Ġmount": 7362,
    "Ġ1894": 5196,
    "Ġspake": 18309,
    "Ġstaff": 14008,
    "ivance": 22088,
    "batim": 25019,
    "Ġhealed": 21687,
    "Ġcares": 9368,
    "kin": 7133,
    "accomplished": 17213,
    "resp": 13841,
    "lid": 20947,
    "Ġjavelin": 26105,
    "impetuous": 23766,
    "Ġadieus": 25113,
    "welt": 12524,
    "oted": 4595,
    "ersman": 11704,
    "ountain": 2916,
    "Ġpractises": 23329,
    "Ġincurable": 22557,
    "Ġentertained": 10000,
    "Ġtrains": 10945,
    "Ġgeological": 14534,
    "Ġecstasy": 11632,
    "Ġconcern": 2584,
    "ideas": 18584,
    "Ġgre": 1586,
    "Ġcrazy": 8596,
    "Ġarrangements": 16517,
    "Ġmournful": 12339,
    "Ġjuggler": 26368,
    "Ġmachines": 1779,
    "Ġobtain": 8917,
    "Ġepoch": 26473,
    "chanced": 18810,
    "Ġspont": 22136,
    "Ġtransformed": 22616,
    "Ġhatch": 7849,
    "tiness": 21074,
    "Ġunbounded": 18260,
    "slackened": 26095,
    "Ġclients": 19734,
    "ifted": 4493,
    "Ġproport": 2297,
    "Ġvanity": 7047,
    "Ġgardiners": 11158,
    "Ġjoking": 12842,
    "Ġcreditable": 19625,
    "suggest": 20379,
    "contempl": 13191,
    "shr": 10980,
    "Ġmercifully": 20181,
    "Ġsignifies": 19206,
    "Ġsling": 21223,
    "boilers": 26298,
    "Ġspoiled": 11364,
    "staking": 21646,
    "Ġenforced": 21943,
    "Ġbrigs": 20325,
    "Ġbleak": 10560,
    "Ġhastily": 5763,
    "Ġunfortunately": 10910,
    "Ġpotential": 3620,
    "put": 414,
    "Ġtotally": 9473,
    "Ġbrewed": 23350,
    "Ġwhe": 439,
    "Ġmanip": 8874,
    "ters": 1575,
    "Ġexpatiate": 18625,
    "Ġbeads": 18086,
    "oing": 15403,
    "Ġingen": 9051,
    "polar": 24585,
    "extra": 8220,
    "Ġpeople": 2542,
    "Ġponderous": 8356,
    "Ġsun": 1720,
    "Ġsim": 733,
    "Ġbradstreet": 9578,
    "Ġepisode": 26349,
    "Ġmaterials": 11289,
    "provided": 13639,
    "Ġ26": 10471,
    "otle": 21802,
    "people": 7679,
    "gue": 12471,
    "vill": 10736,
    "Ġperceived": 4713,
    "Ġresnet": 5473,
    "appro": 7046,
    "Ġproceeded": 5336,
    "Ġfishery": 4173,
    "som": 3290,
    "sleep": 6512,
    "Ġnocturn": 18376,
    "Ġbehoo": 19038,
    "Ġcorroded": 18877,
    "Ġcadiz": 17327,
    "kingly": 20941,
    "Ġrevolved": 9986,
    "Ġhus": 3088,
    "Ġstyled": 24672,
    "iftings": 23229,
    "whiskers": 12314,
    "original": 9087,
    "Ġinterconnected": 1339,
    "Ġtorrents": 20059,
    "insult": 16281,
    "guinea": 16674,
    "Ġbedfellow": 16440,
    "Ġtestimony": 14479,
    "Ġdemo": 10880,
    "rain": 460,
    "Ġcord": 5222,
    "cruise": 24842,
    "Ġhonorable": 16877,
    "bular": 15316,
    "hammock": 16356,
    "angry": 18295,
    "vanity": 24979,
    "Ġfallen": 5970,
    "Ġaccidentally": 9507,
    "Ġadroit": 26001,
    "road": 6679,
    "Ġshrugged": 12774,
    "americans": 25045,
    "brandy": 19202,
    "freely": 16855,
    "Ġcentral": 7729,
    "Ġwandered": 6930,
    "Ġportentous": 15232,
    "Ġpollard": 20389,
    "Ġavailed": 23955,
    "Ġflirting": 16255,
    "ellations": 21947,
    "Ġsumatra": 15289,
    "Ġrecurred": 18977,
    "Ġlightning": 5750,
    "Ġramsgate": 18649,
    "Ġindelible": 25695,
    "choice": 21695,
    "system": 4065,
    "Ġguess": 4903,
    "ugging": 23296,
    "Ġcareer": 11119,
    "orious": 6010,
    "Ġpursuit": 4732,
    "determined": 9081,
    "Ġtwin": 12933,
    "Ġfierceness": 26267,
    ".âĢĶ": 4247,
    "ana": 15562,
    "carpenter": 11428,
    "Ġspeed": 2445,
    "ering": 1264,
    "oglyph": 11017,
    "Ġinquest": 16548,
    "Ġimpenitent": 26549,
    "Ġpleasant": 4167,
    "discoveries": 25386,
    "owner": 18613,
    "acknowledge": 18472,
    "Ġgrow": 2858,
    "authority": 13593,
    "Ġharsh": 9523,
    "Ġbetray": 7442,
    "zen": 5140,
    "Ġnorris": 23205,
    "cnns": 3622,
    "Ġelse": 2479,
    "eleg": 20851,
    "Ġfol": 1287,
    "Ġdivineness": 25724,
    "Ġsteered": 11093,
    "client": 18934,
    "Ġembedding": 2104,
    "Ġphrenologist": 25608,
    "Ġappearance": 3699,
    "Ġbrush": 17866,
    "fo": 5279,
    "Ġbrigandish": 25488,
    "himself": 3969,
    "95": 17479,
    "Ġwretchedly": 19509,
    "Ġsour": 21219,
    "courageous": 26128,
    "Ġfalse": 4341,
    "Ġforger": 15736,
    "itering": 17820,
    "ella": 12752,
    "Ġfactor": 19016,
    "erc": 5907,
    "Ġadvancing": 6878,
    "Ġdisinterested": 16060,
    "Ġseek": 4507,
    "Ġcontain": 1551,
    "oso": 12836,
    "outre": 18321,
    "hued": 20913,
    "eg": 17530,
    "rom": 420,
    "Ġreveren": 13197,
    "Ġdeadly": 5405,
    "mbling": 3346,
    "Ġemblazonings": 26043,
    "Ġ275": 20114,
    "procure": 23400,
    "Ġcontext": 1712,
    "Ġremark": 2145,
    "urious": 21707,
    "Ġspreading": 13380,
    "Ġjago": 22304,
    "impatient": 13642,
    "said": 4101,
    "Ġdiscrete": 2474,
    "Ġconsp": 10226,
    "Ġnarrated": 14873,
    "Ġperiod": 4000,
    "Ġlining": 13953,
    "Ġcheshire": 13093,
    "smo": 10127,
    "parameter": 2956,
    "Ġheartily": 6890,
    "nets": 9134,
    "Ġspeedily": 7713,
    "Ġrucastle": 5176,
    "Ġunre": 3477,
    "Ġnervous": 2403,
    "chase": 11647,
    "doms": 20837,
    "indirectly": 18438,
    "Ġestab": 6317,
    "Ġsulkily": 25882,
    "Ġhid": 1319,
    "Ġskills": 1840,
    "embraced": 25805,
    "informed": 17737,
    "nosed": 20994,
    "Ġchooses": 13349,
    "ĠĠĠĠĠĠĠĠĠĠĠĠĠĠ": 22568,
    "james": 15375,
    "Ġgunw": 6214,
    "jam": 15374,
    "Ġmusty": 22684,
    "Ġendeavouring": 8036,
    "ep": 446,
    "Ġtender": 5753,
    "sockets": 22732,
    "orton": 11759,
    "duty": 20242,
    "Ġreminisc": 18726,
    "ide": 723,
    "Ġilluminate": 17194,
    "ult": 724,
    "Ġlou": 6822,
    "Ġcrabs": 19176,
    "shel": 11933,
    "Ġsubsided": 14550,
    "Ġeloquence": 11844,
    "ļ": 253,
    "Ġpitiable": 9916,
    "ire": 493,
    "Ġbusy": 6191,
    "Ġphrases": 2798,
    "Ġbuilded": 24718,
    "lungs": 26136,
    "xt": 2081,
    "plun": 15822,
    "Ġlengthened": 25959,
    "Ġdrug": 11411,
    "lashed": 20956,
    "drove": 16994,
    "mind": 4625,
    "masts": 19428,
    "Ġalien": 14020,
    "Ġapproxim": 1220,
    "mild": 15394,
    "Ġbudge": 15167,
    "aders": 21763,
    "Ġpreluding": 18369,
    "Ġcarrying": 6074,
    "Ġfragments": 19022,
    "Ġmistress": 8615,
    "Ġmarvell": 7248,
    "superstitious": 17282,
    "hum": 3778,
    "misfortunes": 16757,
    "Ġhaw": 10253,
    "Ġpompous": 20426,
    "drowned": 17371,
    "Ġarisen": 11746,
    "machines": 8386,
    "little": 3352,
    "Ġsomnambul": 26577,
    "honest": 17004,
    "barb": 10082,
    "Ġtranqu": 4602,
    "Ġsav": 3357,
    "ĠÂ£": 5005,
    "etween": 774,
    "Ġattentively": 9952,
    "regard": 7974,
    "ov": 15402,
    "Ġbelfry": 26439,
    "wont": 21135,
    "Ġportrait": 10663,
    "arrant": 10475,
    "Ġtwos": 18658,
    "Ġalex": 15136,
    "Ġpain": 2302,
    "ľ": 255,
    "insufficient": 15491,
    "Ġtempest": 8214,
    "Ġgermans": 25785,
    "comparatively": 25841,
    "Ġmic": 17799,
    "Ġparl": 8179,
    "Ġnon": 1627,
    "Ġcomputing": 2219,
    "Ġpark": 5465,
    "Ġgrope": 17997,
    "to": 714,
    "Ġsame": 1343,
    "tolerably": 21098,
    "Ġpraying": 19557,
    "Ġshirr": 18232,
    "pointed": 9812,
    "pip": 6657,
    "Ġperiods": 13306,
    "rolling": 9062,
    "goodness": 19290,
    "if": 376,
    "iloquent": 21730,
    "Ġsom": 1274,
    "gener": 3121,
    "ands": 21871,
    "Ġinclined": 6625,
    "Ġmin": 1025,
    "Ġarrangement": 2657,
    "Ġincom": 9771,
    "Ġaccompaniments": 24481,
    "Ġendeavored": 19304,
    "intending": 22939,
    "against": 5872,
    "Ġcompassion": 6488,
    "Ġhorseback": 14852,
    "Ġbehav": 3539,
    "outs": 7010,
    "search": 8467,
    "Ġbuoyant": 13533,
    "Ġmoth": 17804,
    "Ġrecede": 25969,
    "alcul": 15631,
    "atered": 22077,
    "Ġescorted": 23508,
    "Ġmortal": 4681,
[...]
