{
  "metadata": {
    "vocab_size": 26613,
    "algorithm": "BPE",
    "created_at": "2026-05-27 06:19:08",
    "special_tokens": [
      "<PAD>",
      "<SOS>",
      "<EOS>",
      "<UNK>",
      "<MASK>"
    ]
  },
  "vocab": {
    "Ġsandwic": 24664,
    "Ġdeadliest": 14555,
    "Ġhumor": 11049,
    "Ġcircumstantial": 14642,
    "Ġarsac": 11739,
    "Ġmanhood": 22324,
    "Ġharvard": 24572,
    "saddest": 25527,
    "lady": 4432,
    "Ġholmes": 1306,
    "Ġrelevant": 1867,
    "Ġsupre": 10267,
    "Ġmartial": 20290,
    "Ġbounty": 26436,
    "Ġmoney": 3417,
    "Ġderiv": 1736,
    "ufact": 10732,
    "Ġunconcern": 14115,
    "given": 8377,
    "Ġsupport": 6728,
    "Ġengaged": 3428,
    "Ġsteals": 23082,
    "Ġindignant": 12236,
    "Ġchil": 11748,
    "Ġexplanation": 6692,
    "iply": 22353,
    "Ġblooming": 17211,
    "Ġlakes": 8131,
    "Ġmissionary": 25696,
    "Ġsluggishly": 25891,
    "poss": 4778,
    "skeleton": 17374,
    "breakfast": 8687,
    "invari": 21183,
    "gone": 6504,
    "Ġsensational": 16389,
    "severe": 21817,
    "rospect": 11609,
    "ces": 578,
    "Ġwatchful": 16524,
    "Ġrat": 4352,
    "Ġpoltroon": 26597,
    "Ġveil": 7934,
    "oided": 11506,
    "Ġstrasburgh": 18615,
    "measured": 19988,
    "Ġsober": 10908,
    "Ġtomorrow": 21511,
    "Ġdr": 2828,
    "Ġtren": 17720,
    "Ġbrow": 3990,
    "so": 890,
    "@": 36,
    "atiously": 15519,
    "sings": 4251,
    "Ġrace": 5847,
    "eleg": 20848,
    "Ġquietude": 19358,
    "Ġscolding": 15198,
    "Ġincreas": 1695,
    "Ġsuff": 1302,
    "Ġplainer": 23703,
    "Ġterminating": 23508,
    "Ġexcluded": 16385,
    "Ġenabled": 9294,
    "Ġstabbing": 20302,
    "Ġimag": 2677,
    "Ġwr": 1544,
    "Ġminuteness": 19138,
    "Ġcease": 7076,
    "Ġ1846": 26084,
    "whaleman": 23434,
    "iscient": 17851,
    "Ġrope": 4337,
    "oot": 13763,
    "Ġhatherley": 7849,
    "Ġraptures": 13495,
    "Ġgentlemen": 3643,
    "punctual": 26355,
    "Ġamidst": 9492,
    "Ġinduced": 8670,
    "Ġinsensible": 12322,
    "Ġsurv": 6082,
    "anqu": 4112,
    "Ġtranque": 14206,
    "umed": 6554,
    "suitable": 18632,
    "Ġlydia": 2376,
    "uzza": 11268,
    "commotion": 24913,
    "Ġresolving": 9417,
    "enthusiastic": 20691,
    "Ġmeaning": 1413,
    "dry": 13701,
    "Ġgraces": 18225,
    "Ġarrowy": 25469,
    "Ġcomfort": 3438,
    "Ġprows": 19888,
    "Ġstaving": 21735,
    "istan": 22106,
    "Ġloathing": 15067,
    "deeply": 16183,
    "Ġmending": 17804,
    "Ġbulge": 23854,
    "Ġanticip": 7508,
    "Ġmisgiv": 14343,
    "Ġembra": 6579,
    "Ġparameters": 993,
    "Ġinvis": 6902,
    "Ġbubblingly": 25632,
    "iences": 6957,
    "failed": 20862,
    "Ġcircumn": 11980,
    "finer": 17545,
    "ickering": 22668,
    "Ġwedding": 4858,
    "Ġbrooding": 18907,
    "Ġconsulting": 13427,
    "Ġbran": 5250,
    "Ġsombre": 18859,
    "Ġcreeping": 18684,
    "Ġignominy": 15083,
    "Ġant": 4344,
    "Ġswore": 10377,
    "liking": 22922,
    "Ġbarrow": 12066,
    "Ġproud": 5654,
    "Ġincor": 2613,
    "onse": 21248,
    "nings": 9130,
    "Ġmasters": 11572,
    "Ġeating": 8136,
    "Ġfriesland": 26441,
    "Ġbewitched": 25975,
    "acies": 14275,
    "country": 6103,
    "floating": 12224,
    "Ġarts": 11006,
    "Ġsnatch": 14638,
    "Ġgayer": 24497,
    "penny": 22943,
    "®": 111,
    "cence": 9587,
    "Ġdoleful": 18377,
    "Ġconvinced": 4207,
    "Ġendeavors": 16545,
    "Ġadhes": 22103,
    "vess": 7354,
    "Ġerect": 6143,
    "Ġcrop": 10161,
    "Ġworld": 1599,
    "antique": 18287,
    "rison": 13777,
    "Ġname": 2083,
    "Ġsteer": 10385,
    "Ġannealing": 1554,
    "Ġslices": 23163,
    "Ġirresolution": 24915,
    "Ġunbecoming": 22062,
    "Ġcompromising": 22571,
    "spirit": 11311,
    "satisfied": 10577,
    "beds": 16585,
    "Ġopulent": 23628,
    "Ġathirst": 20597,
    "Ġaccumul": 1409,
    "Ġoakshott": 12226,
    "Ġdeposit": 17267,
    "Ġconcluded": 5658,
    "obviously": 25242,
    "dried": 20826,
    "Ġislets": 21799,
    "Ġdodo": 9071,
    "odox": 21814,
    "Ġmansion": 17809,
    "Ġvague": 6406,
    "dually": 3280,
    "Ġshabby": 14109,
    "Ġsiberia": 26161,
    "Ġvalidation": 2359,
    "Ġrealities": 18982,
    "Ġtalker": 23369,
    "caps": 20806,
    "Ġcomes": 3422,
    "Ġestates": 16457,
    "ustom": 3788,
    "fastened": 19324,
    "igh": 2031,
    "Ġdiscompose": 25579,
    "Ġdegradation": 2636,
    "Ġwaistcoat": 12267,
    "Ġspot": 4155,
    "Ġimplement": 3284,
    "Ġrece": 11636,
    "obvious": 9355,
    "Ġearnestness": 12122,
    "Ġthom": 21514,
    "Ġpersons": 6180,
    "Ġinsist": 9889,
    "Ġparamore": 22120,
    "Ġevangelical": 25506,
    "Ġdairy": 20685,
    "anders": 18152,
    "pening": 2836,
    "Ġthoughtfully": 12976,
    "Ġindelible": 25694,
    "Ġandrew": 21505,
    "singular": 12185,
    "Ġwig": 9160,
    "Ġoffensive": 18692,
    "Ġtamely": 24979,
    "Ġclap": 10954,
    "Ġconquest": 15744,
    "clearly": 25195,
    "cil": 8720,
    "tained": 4404,
    "Ġoftentimes": 20154,
    "Ġsincerity": 13676,
    "ĭ": 238,
    "Ġshame": 6410,
    ";âĢĶ": 3749,
    "reg": 2182,
    "Ġoverpower": 12838,
    "Ġnearing": 15794,
    "why": 2833,
    "Ġimagine": 3922,
    "culiar": 2824,
    "Ġderivatives": 2373,
    "Ġaccordingly": 6619,
    "daring": 20828,
    "xter": 9145,
    "andromeda": 21866,
    "Ġinducements": 24967,
    "uss": 8763,
    "Ġvariously": 18652,
    "Ġscents": 22280,
    "Ġforbid": 7866,
    "Ġsmoothe": 23654,
    "Ġdupl": 9952,
    "Ġfits": 8789,
    "uvian": 12239,
    "Ġcontemptuous": 24676,
    "risonment": 17373,
    "goodbye": 12053,
    "respective": 19845,
    "Ġhazarded": 25654,
    "Ġadored": 18293,
    "Ġavert": 14423,
    "Ġtwee": 22673,
    "Ġdeeps": 16104,
    "Ġfortune": 4240,
    "Ġsebastian": 11695,
    "Ġholland": 10364,
    "Ġshake": 6034,
    "Ġgregarious": 18965,
    "Ġfollow": 1395,
    "button": 10964,
    "Ġhorizontal": 7783,
    "hs": 8378,
    "Ġundoubtedly": 8313,
    "Ġowning": 18744,
    "/`)": 13658,
    "Ġintrude": 25990,
    "itty": 3554,
    "Ġungracious": 18258,
    "Ġadversity": 24302,
    "Ġhim": 476,
    "Ġtossing": 8126,
    "enchant": 21282,
    "Ġpurposes": 11166,
    "Ġmates": 4872,
    "Ġattach": 14286,
    "inexplicable": 25808,
    "Ġemm": 18002,
    "Ġbias": 1191,
    "ias": 6362,
    "deserving": 17240,
    "chair": 5917,
    "Ġfinal": 5400,
    "Ġcurds": 22996,
    "Ġdl": 3375,
    "Ġspurn": 18309,
    "poverty": 22908,
    "Ġascent": 19617,
    "Ġneighbour": 3807,
    "venth": 9293,
    "ficial": 17547,
    "Ġinstrument": 7118,
    "Ġrehearsed": 25971,
    "Ġmeridians": 17354,
    "erting": 17776,
    "inqu": 6121,
    "Ġshouldn": 14323,
    "orte": 14183,
    "Ġcounsell": 25384,
    "Ġintric": 9245,
    "Ġspas": 10920,
    "spikes": 10339,
    "ental": 7168,
    "Ġpromotion": 23192,
    "made": 4808,
    "Ġhanged": 17924,
    "anxiety": 25155,
    "Ġinvulnerable": 19146,
    "Ġhob": 12625,
    "Ġchemistry": 11458,
    "Ġconversations": 9423,
    "Ġprodu": 1204,
    "inex": 14090,
    "Ġsul": 7571,
    "Ġfound": 1244,
    "paid": 15412,
    "process": 11146,
    "Ġinfidel": 13085,
    "Ġhonestly": 19970,
    "acific": 4960,
    "ached": 2321,
    "Ġrevolut": 3255,
    "pier": 17634,
    "Ġwidows": 24235,
    "Ġprogressive": 5024,
    "Ġsap": 18323,
    "Ġfe": 491,
    "Ġpreparation": 13527,
    "Ġfashioned": 13318,
    "hor": 2575,
    "Ġblu": 2688,
    "orney": 17873,
    "harbors": 20147,
    "Ġalexander": 17422,
    "superior": 9523,
    "Ġinfamy": 14500,
    "Ġrain": 5005,
    "Ġfern": 21405,
    "Ġconfirm": 9854,
    "Ġfront": 3450,
    "ake": 749,
    "oyed": 14360,
    "wheels": 14379,
    "Ġcounted": 12136,
    "n": 82,
    "Ġshort": 2225,
    "Ġdev": 885,
    "bering": 18680,
    "Ġgar": 10837,
    "Ġaudibly": 24771,
    "Ġe": 312,
    "brary": 5755,
    "Ġextant": 18694,
    "Ġtranslations": 12049,
    "/`": 12426,
    "Ġlengthwise": 10451,
    "Ġprocured": 8676,
    "Ġfidget": 15187,
    "Ġmccarthy": 5145,
    "Ġdang": 9173,
    "aus": 1498,
    "Ġmien": 17808,
    "pret": 7212,
    "ifference": 5632,
    "moon": 10334,
    "crimes": 16696,
    "Ġvillain": 8635,
    "Ġsummer": 4790,
    "Ġchanced": 8187,
    "Ġheel": 9682,
    "Ġ112": 24436,
    "Ġcolouring": 16750,
    "stee": 21643,
    "Ġgriefs": 16770,
    "saving": 21058,
    "aur": 15306,
    "posture": 16926,
    "Ġtow": 4394,
    "persons": 24173,
    "Ġsearch": 2594,
    "Ġvengeful": 14888,
    "Ġcaring": 23089,
    "Ġten": 2390,
    "enter": 7858,
    "mixed": 15392,
    "Ġpremeditated": 22232,
    "rabbit": 20589,
    "initions": 21186,
    "Ġbony": 12583,
    "ela": 21567,
    "Ġmaddened": 17243,
    "plete": 10917,
    "Ġstandard": 14495,
    "Ġdominion": 16530,
    "Ġalter": 6542,
    "streamed": 25965,
    "Ġinadequate": 17936,
    "tempered": 13444,
    "Ġaspire": 21898,
    "Ġgamming": 25542,
    "Ġhuman": 1317,
    "Ġdeliberation": 19967,
    "undoubtedly": 13308,
    "sham": 9756,
    "Ġhaw": 10250,
    "ived": 1531,
    "Ġsympathetic": 17357,
    "Ġdeserted": 8636,
    "ĠĠĠĠĠĠĠĠĠĠĠĠĠĠĠĠĠĠĠĠĠĠĠĠĠĠĠĠĠĠĠĠĠĠĠĠĠĠĠ": 19258,
    "Ġlacepede": 20493,
    "Ġcar": 1416,
    "Ġlunging": 24991,
    "Ġreproachfully": 25251,
    "Ġintrusion": 12761,
    "Ġshared": 10262,
    "Ġlessons": 7693,
    "||": 4869,
    "Ġiv": 4045,
    "asleep": 21542,
    "Ġexec": 19491,
    "Ġlysander": 13136,
    "Ġvib": 8165,
    "inted": 2653,
    "Ġniece": 5712,
    "Ġsunny": 13083,
    "Ġglo": 1713,
    "Ġwhence": 5839,
    "Ġ11": 5318,
    "Ġliquid": 22407,
    "Ġinnocence": 6477,
    "Ġrestrain": 8963,
    "Ġmales": 17805,
    "covenant": 23561,
    "Ġcloset": 19590,
    "Ġanointing": 25539,
    "acceler": 23597,
    "Ġtwilight": 16118,
    "phant": 6287,
    "Ġinjuries": 11275,
    "ogn": 2407,
    "Ġhighest": 3528,
    "Ġreasoning": 2005,
    "Ġscheme": 7064,
    "conjectures": 25180,
    "Ġsmoky": 22556,
    "Ġgover": 2465,
    "Ġsalisbury": 24061,
    "Ġpaddled": 20200,
    "dread": 8728,
    "inv": 8401,
    "itates": 13867,
    "irr": 12733,
    "sensible": 20050,
    "Ġfru": 8420,
    "Ġshivered": 14106,
    "nam": 2757,
    "Ġsubtile": 20378,
    "Ġinvited": 6903,
    "Ġcoquet": 22580,
    "Ġladies": 3189,
    "Ġsafety": 6339,
    "Ġreduces": 2343,
    "Ġprophets": 20449,
    "Ġotherwise": 4656,
    "bellies": 19972,
    "Ġfris": 23255,
    "Ġmanip": 8870,
    "Ġpea": 14315,
    "Ġcobbler": 25829,
    "downstairs": 23917,
    "Ġimpl": 7195,
    "Ġconvulsively": 25717,
    "ue": 1180,
    "beg": 22485,
    "rum": 3414,
    "Ġreplenished": 13634,
    "fordshire": 4675,
    "teous": 16171,
    "Ġbake": 21380,
    "Ġdecided": 5471,
    "ilet": 12825,
    "Ġstandards": 19015,
    "Ġhart": 17921,
    "Ġdisd": 7030,
    "Ġlowermost": 23241,
    "abilities": 3234,
    "Ġmagnified": 23201,
    "Ġpatent": 11960,
    "tra": 4934,
    "iard": 9600,
    "lod": 15376,
    "achusetts": 20709,
    "inguished": 6598,
    "Ġtoilette": 20491,
    "benevolently": 25600,
    "quake": 11678,
    "Ġsamuel": 10031,
    "suffered": 24333,
    "rocket": 13942,
    "Ġyale": 21777,
    "ssible": 2995,
    "Ġclothes": 4997,
    "tim": 13789,
    "Ġsetting": 7046,
    "Ġpass": 1037,
    "Ġcallest": 17832,
    "Ġrode": 15994,
    "Ġincompatible": 25680,
    "Ġprovinc": 16741,
    "Ġverify": 12084,
    "shall": 4548,
    "Ġsoc": 3525,
    "rib": 1946,
    "Ġsparing": 22127,
    "Ġhandy": 12933,
    "enchanted": 26423,
    "Ġemboldened": 22980,
    "Ġhogshead": 26367,
    "cour": 4478,
    "lighted": 23752,
    "fitters": 24761,
    "Ġcloser": 8659,
    "affair": 14654,
    "Ġchristian": 6479,
    "flag": 14709,
    "sc": 1259,
    "parts": 14601,
    "hen": 3517,
    "police": 10582,
    "[": 63,
    "Ġchips": 14180,
    "Ġdevotees": 25376,
    "Ġforgetting": 3434,
    "Ġlordly": 23742,
    "Ġcocks": 18591,
    "aments": 12721,
    "Ġendow": 23141,
    "sor": 7352,
    "Ġasked": 2274,
    "Ġreposing": 23360,
    "Ġanticipated": 13509,
    "Ġgateway": 24802,
    "ç": 168,
    "Ġrelaxed": 12980,
    "Ġmadam": 5663,
    "Ġyounge": 16285,
    "reds": 12746,
    "Ġdefe": 21833,
    "lob": 22504,
    "Ġdepicted": 14282,
    "Ġdried": 7367,
    "voice": 7817,
    "Ġsympathised": 14860,
    "._]]": 5334,
    "firmly": 20279,
    "Ġcomely": 21846,
    "Ġcoron": 4463,
    "vative": 1626,
    "Ġexamination": 8005,
    "Ġinquiry": 6484,
    "hand": 2756,
    "aved": 5475,
    "Ġreliance": 14383,
    "silly": 24421,
    "Ġundeceive": 25552,
    "break": 6101,
    "Ġcharles": 11953,
    "Ġbegins": 7244,
    "Ġlobster": 11387,
    "Ġexceeded": 14431,
    "Ġsitt": 21216,
    "Ġabated": 18390,
    "Ġclaimed": 14200,
    "fever": 22499,
    "Ġtests": 8956,
    "Ġspecimen": 13019,
    "jets": 20927,
    "Ġmilk": 6485,
    "Ġtent": 15465,
    "plac": 15813,
    "Ġbeamed": 23720,
    "Ġchaos": 17008,
    "Ġsensitiveness": 23733,
    "Ġtrespass": 23599,
    "negro": 18487,
    "avoid": 9303,
    "Ġbills": 17860,
    "Ġcoleridge": 18765,
    "find": 6954,
    "Ġstrands": 25574,
    "Ġstalked": 20427,
    "Ġbreathlessly": 24279,
    "Ġpropensity": 18996,
    "Ġcanoes": 12801,
    "rolling": 9059,
    "Ġcoincidences": 26363,
    "anzas": 17840,
    "quietude": 24655,
    "lungs": 26135,
    "intu": 22931,
    "Ġ{": 21151,
    "Ġdisaster": 12883,
    "terday": 4704,
    "Ġunwarrantable": 26353,
    "tinted": 17682,
    "Ġtant": 12521,
    "Ġconfused": 7965,
    "mist": 5686,
    "ĠcÃ¦": 15551,
    "Ġstudying": 9845,
    "Ġdoted": 21432,
    "itives": 17819,
    "wherever": 13116,
    "bes": 6641,
    "Ġunattended": 15840,
    "Ġconfiding": 19038,
    "Ġhereditarily": 25224,
    "Ġtamer": 24978,
    "remarkable": 13496,
    "Ġjacket": 6489,
    "iality": 8842,
    "knows": 19171,
    "Ġunrecord": 16620,
    "Ġlaug": 3628,
    "Ġfertile": 20581,
    "Ġexcitement": 9379,
    "Ġfragrant": 13088,
    "understood": 13214,
    "Ġdoubts": 8579,
    "Ġclad": 12835,
    "Ġsob": 12783,
    "Ġdare": 3544,
    "Ġgrapes": 15213,
    "ensing": 12892,
    "Ġcities": 17827,
    "Ġirene": 8444,
    "lynes": 15700,
    "Ġhearsed": 25039,
    "Ġcondense": 21806,
    "Ġsig": 868,
    "Ġidleness": 11142,
    "Ġasyl": 12730,
    "Ġcetacea": 20552,
    "eer": 15345,
    "Ġexchanging": 18131,
    "Ġconfines": 23304,
    "Ġreflection": 6440,
    "Ġended": 7950,
    "Ġincess": 8431,
    "Ġdisposing": 19373,
    "Ġinsp": 2100,
    "Ġethere": 23948,
    "Ġwoodcock": 19162,
    "Ġwaif": 9373,
    "Ġnomin": 10189,
    "locks": 14454,
    "Ġtahiti": 13617,
    "ye": 1404,
    "yourself": 6742,
    "ety": 3520,
    "transformers": 8714,
    "olic": 14040,
    "Ġmarry": 4417,
    "Ġembarked": 17133,
    "Ġprosecuted": 25293,
    "Ġdon": 1617,
    "Ġpleasure": 2696,
    "Ġsinners": 18949,
    "Ġresc": 4505,
    "Ġtower": 8319,
    "Ġbennett": 16322,
    "secured": 16937,
    "aphs": 22334,
    "Ġpartners": 11850,
    "Ġboun": 21378,
    "Ġmiz": 10776,
    "Ġpoor": 1709,
    "Ġpreface": 18367,
    "tically": 3392,
    "mag": 6508,
    "follows": 24527,
    "Ġadmired": 7982,
    "Ġlaboratory": 13610,
    "Ġbenediction": 18784,
    "rench": 3968,
    "col": 3101,
    "Ġmalignant": 14876,
    "Ġdesp": 3212,
    "cleanliness": 25871,
    "inarticulate": 21194,
    "Ġlament": 7857,
    "Ġunf": 4092,
    "Ġsurmises": 17055,
    "Ġsch": 13833,
    "Ġagainst": 1699,
    "Ġunsupplied": 22041,
    "bug": 17491,
    "Ġwebster": 20160,
    "sold": 15424,
    "byshire": 6172,
    "plague": 21951,
    "Ġcountrymen": 23594,
    "Ġcomfits": 21850,
    "Ġcrocod": 19627,
    "Ġsurprised": 3829,
    "Ġtilted": 20411,
    "Ġmidnight": 5265,
    "oglyph": 11014,
    "ounts": 4650,
    "Ġsalesman": 13666,
    "Ġ34": 16676,
    "Ġappalled": 22215,
    "ĠĠĠĠĠĠĠĠĠĠĠĠĠĠĠĠĠĠĠĠĠĠĠĠĠĠĠĠĠĠĠĠĠĠĠĠĠĠĠĠĠ": 19581,
    "opatra": 22475,
    "life": 4932,
    "Ġacknowledged": 7535,
    "volutions": 16319,
    "Ġinterview": 9768,
    "adamite": 20591,
    "alty": 17938,
    "onomy": 12543,
    "Ġredu": 1353,
    "ounders": 22392,
    "Ġnoiseless": 10356,
    "knell": 24554,
    "Ġoutset": 15952,
    "Ġsorry": 4211,
    "Ġpeddling": 24799,
    "Ġserves": 4667,
    "renched": 7908,
    "ergy": 2363,
    "imprudent": 14650,
    "best": 6111,
    "leag": 21364,
    "result": 12041,
    "Ġvector": 1972,
    "Ġassemblage": 26351,
    "Ġnortheast": 23200,
    "bl": 4142,
    "threat": 10898,
    "Ġknees": 6928,
    "Ġperemptorily": 17365,
    "Ġdemig": 20355,
    "izar": 14048,
    "Ġswears": 16461,
    "dog": 10691,
    "ping": 9614,
    "Ġwallowing": 24040,
    "Ġclean": 5652,
    "Ġpen": 1530,
    "uine": 13797,
    "skill": 24486,
    "Ġassault": 9835,
    "Ġsultry": 20287,
    "calling": 12446,
    "Ġsaving": 15883,
    "orate": 10799,
    "Ġprocedural": 12027,
    "answ": 15881,
    "Ġtrop": 7566,
    "Ġbolt": 11332,
    "ulent": 21860,
    "retrospect": 23136,
    "Ġwidow": 8662,
    "eze": 20846,
    "Ġnight": 1466,
    "guest": 19480,
    "Ġtrials": 16788,
    "Ġsecondly": 14518,
    "abashed": 21790,
    "Ġchill": 11749,
    "Ġalbino": 20501,
    "ables": 7891,
    "Ġlod": 4043,
    "scar": 9814,
    "anch": 15556,
    "Ġrequest": 6051,
    "published": 26142,
    "welcomed": 24644,
    "exactly": 10635,
    "Ġclerks": 17293,
    "poured": 17636,
    "Ġdismantled": 20215,
    "Ġluxuriant": 20393,
    "Ġgirdled": 19157,
    "Ġexceeding": 1585,
    "gish": 20872,
    "Ġantichron": 24180,
    "assed": 6421,
    "Ġsketch": 16161,
    "Ġmol": 12557,
    "Ġresponses": 23647,
    "Ġpathetic": 19036,
    "aths": 22699,
    "draught": 12086,
    "ract": 1017,
    "Ġcircle": 4977,
    "Ġneighbouring": 12115,
    "Ė": 215,
    "imental": 16532,
    "Ġpious": 11596,
    "Ġpasses": 2681,
    "accident": 11179,
    "Ġinvincible": 23478,
    "quiet": 6154,
    "indispensable": 14208,
    "Ġabsent": 7014,
    "Ġforces": 12698,
    "Ġranged": 10256,
    "Ġcommerce": 11013,
    "astonished": 15031,
    "wandered": 20284,
    "ells": 5303,
    "Ġthread": 14538,
    "Ġburied": 7719,
    "Ġdriven": 6198,
    "additional": 20462,
    "Ġinsisted": 12043,
    "rably": 21631,
    ".âĢĻâĢĿ": 6739,
    "hur": 6648,
    "Ġblasts": 19994,
    "pper": 3206,
    "Ġgeneva": 5450,
    "Ġmeagre": 21808,
    "Ġprobable": 5569,
    "Ġpleasantest": 24136,
    "pacific": 17640,
    "Ġsax": 10927,
    "Ġwrites": 23196,
    "Ġlinn": 13951,
    "authority": 13589,
    "Ġactuated": 18545,
    "Ġinterchange": 16068,
    "Ġdoubloons": 13432,
    "inuating": 16200,
    "Ġfamiliar": 5511,
    "protest": 24815,
    "Ġbowels": 9428,
    "Ġsanguinary": 25929,
    "Ġpainted": 7978,
    "Ġpermanently": 25473,
    "vellers": 16672,
    "Ġcharlotte": 3889,
    "Ġsadness": 13284,
    "Ġpromising": 10398,
    "Ġdragged": 6889,
    "Ġbitterest": 12399,
    "athed": 7829,
    "Ġdetained": 18372,
    "Ġpenetrate": 12266,
    "encounter": 20390,
    "ashions": 16415,
    "sad": 11518,
    "Ġticking": 25033,
    "boscombe": 26121,
    "exper": 8877,
    "fortun": 3538,
    "Ġworkman": 16261,
    "bear": 10314,
    "Ġgur": 21590,
    "Ġdisse": 18548,
    "zetts": 17713,
    "correspond": 13396,
    "Ġstrained": 10217,
    "ots": 3292,
    "Ġmerid": 13193,
    "Ġprogeny": 17386,
    "ols": 2418,
    "Ġkey": 2101,
    "inside": 23063,
    "Ġconsolidation": 5060,
    "Ġstocks": 23174,
    "Ġeurope": 8062,
    "somebody": 14564,
    "bulwarks": 12269,
    "÷": 184,
    "Ġstirring": 10578,
    "Ġslabs": 13057,
    "ented": 4347,
    "Ġsolemnly": 8024,
    "Ġrummaged": 16909,
    "ted": 790,
    "Ġ96": 24593,
    "walked": 10569,
    "shad": 10980,
    "Ġtransparen": 10540,
    "ĠâĢĶ_": 3458,
    "Ġlaughter": 9026,
    "Ġreiter": 21664,
    "emper": 18180,
    "grandfather": 25009,
    "Ġhapp": 1087,
    "often": 6165,
    "boats": 6204,
    "ude": 7563,
    "Ġdeaths": 14536,
    "Ġprecaution": 11195,
    "Ġwinc": 9641,
    "rat": 8755,
    "yed": 3269,
    "smoke": 17221,
    "Ġparagra": 15876,
    "prophet": 16179,
    "Ġdamning": 19139,
    "otently": 21798,
    "Ġhurried": 4033,
    "Ġ8": 5433,
    "Ġmaketh": 15185,
    "ssip": 14077,
    "Ġthin": 4346,
    "weakness": 16121,
    "Ġinsipid": 26313,
    "Ġdampening": 2898,
    "deployment": 26526,
    "Ġoblong": 14319,
    "ĠâĢĶ": 13809,
    "ģ": 228,
    "Ġexhibited": 9542,
    "Ġspars": 3809,
    "Ġbedrooms": 19968,
    "Ġunwe": 15835,
    "covery": 11169,
    "Ġenrapt": 21937,
    "Ġinfl": 6893,
    "Ġwol": 15527,
    "Ġoverhead": 11770,
    "ceremony": 20588,
    "other": 1313,
    "Ġbirds": 5873,
    "Ġpurest": 14937,
    "ocr": 10467,
    "Ġindication": 22950,
    "Ġintensity": 10014,
    "Ġraft": 16113,
    "Ġlifelessly": 23048,
    "Ġlimping": 23545,
    "Ġcommon": 1411,
    "Ġvillas": 24050,
    "berries": 22717,
    "Ġcongealed": 25981,
    "flu": 9116,
    "closed": 23152,
    "Ġalacrity": 15733,
    "vour": 17698,
    "Ġbats": 13898,
    "scho": 8759,
    "Ġbaleen": 10035,
    "Ġacknowledgment": 16956,
    "Ġassumptions": 5517,
    "Ġmuttered": 7086,
    "unlike": 18156,
    "Ġbank": 4877,
    "blown": 25201,
    "Ġ42": 16677,
    "branch": 23577,
    "Ġpossible": 2588,
    "oth": 1185,
    "copy": 5133,
    "lever": 2936,
    "occasionally": 13519,
    "Ġremonstrance": 20621,
    "Ġrecogn": 2614,
    "Ġser": 1675,
    "Ġcased": 21344,
    "den": 938,
    "poison": 14391,
    "Ġbitterly": 8315,
    "Ġrelig": 8550,
    "iver": 2050,
    "Ġindebted": 8707,
    "Ġglare": 13009,
    "heaved": 21209,
    "necessity": 13365,
    "summoned": 26590,
    "Ġusages": 15912,
    "Ġgravity": 9246,
    "Ġrampart": 20317,
    "subst": 12161,
    "poor": 6061,
    "thinks": 16640,
    "Ġlet": 1111,
    "Ġpicking": 11257,
    "Ġbreaking": 6310,
    "ari": 671,
    "Ġdiana": 21435,
    "scales": 22989,
    "lion": 20943,
    "Ġflowers": 8939,
    "ī": 236,
    "Ġhorrors": 10478,
    "Ġsc": 531,
    "claimed": 9834,
    "Ġunfolded": 10637,
    "Ġpoised": 22588,
    "Ġharpooned": 13259,
    "sole": 6168,
    "idually": 21767,
    "Ġlurks": 11288,
    "pudding": 17646,
    "Ġdivinest": 25722,
    "backward": 2685,
    "ulatory": 15764,
    "augment": 18828,
    "Ġvomit": 21946,
    "Ġblocks": 6321,
    "madly": 24419,
    "itted": 2446,
    "ination": 2918,
    "Ġjav": 7903,
    "Ġravines": 25831,
    "frankly": 20020,
    "prob": 7069,
    "Ġtable": 2503,
    "Ġelderly": 13493,
    "hever": 13829,
    "built": 16824,
    "always": 5708,
    "Ġsto": 1497,
    "Ġflirt": 14421,
    "osis": 18389,
    "som": 3289,
    "Ġthings": 1962,
    "Ġhad": 442,
    "Ġamazement": 7765,
    "Ġbanquet": 15238,
    "Ġwint": 15530,
    "pale": 13770,
    "Ġhearers": 15699,
    "Ġbenefactor": 14696,
    "render": 10289,
    "Ġhearties": 18967,
    "prehens": 9287,
    "blog": 19838,
    "Ġsummons": 13229,
    "Ġenormousness": 24511,
    "impenet": 18053,
    "Ġsplashed": 23746,
    "Ġeternal": 5976,
    "Ġsqualls": 17019,
    "necess": 4896,
    "benevol": 12223,
    "Ġ1": 1015,
    "former": 11745,
    "Ġflapped": 23011,
    "Ġschool": 5512,
    "tashtego": 9621,
    "cap": 8373,
    "Ġdealing": 14043,
    "itz": 6006,
    "aceti": 7111,
    "Ġunchanged": 22029,
    "Ġunappe": 22016,
    "Ġinsurance": 23678,
    "star": 12667,
    "Ġdimens": 3147,
    "Ġilliter": 23467,
    "Ġseals": 11694,
    "Ġoblivious": 26032,
    "Ġchron": 19436,
    "Ġbespeaking": 26310,
    "Ġassembly": 10641,
    "Ġcontin": 5382,
    "Ġnetworks": 591,
    "Ġfrancis": 26063,
    "Ġfacial": 10604,
    "idelburgh": 10559,
    "Ġamounted": 18512,
    "drunk": 24659,
    "aly": 1103,
    "Ġadds": 1808,
    "Ġweaver": 11685,
    "Ġsurmisings": 26592,
    "attacks": 23122,
    "Ġdecap": 16016,
    "Ġdisent": 22521,
    "Ġsurface": 5119,
    "caut": 20811,
    "Ġjungfrau": 15246,
    "Ġclings": 15960,
    "izing": 1065,
    "otes": 15740,
    "Ġmari": 6813,
    "Ġspared": 7894,
    "Ġgodly": 19080,
    "Ġgods": 6454,
    "marry": 13321,
    "oso": 12827,
    "Ġretrieval": 10673,
    "cest": 12441,
    "Ġdenomin": 12064,
    "Ġquite": 1740,
    "Ġdough": 8421,
    "Ġswaying": 15045,
    "Ġgripping": 26186,
    "Ġgrunt": 18735,
    "onel": 3089,
    "inform": 10142,
    "Ġxerxes": 23409,
    "Ġhope": 1790,
    "five": 6356,
    "Ġstall": 12692,
    "Ġfired": 16151,
    "Ġbingley": 1678,
    "shoulders": 16583,
    "squ": 7810,
    "punishment": 15143,
    "Ġcourses": 10410,
    "Ġenglishman": 11227,
    "Ġepsom": 19981,
    "vig": 15444,
    "Ġrect": 18025,
    "terogene": 21823,
    "Ġendurance": 23143,
    "Ġnatives": 17950,
    "ific": 489,
    "Ġpiqu": 21476,
    "kington": 11201,
    "asted": 4648,
    "Ġnasty": 17441,
    "7": 27,
    "Ġnoted": 15827,
    "Ġinn": 4589,
    "Ġgleamed": 17076,
    "Ġfri": 17878,
    "spoke": 11021,
    "Ġwisdom": 11231,
    "Ġcareer": 11116,
    "clim": 18929,
    "Ġleg": 2335,
    "Ġpa": 2992,
    "ferred": 16411,
    "Ġfun": 524,
    "Ġxxii": 24477,
    "Ġapprehen": 16828,
    "Ġstroke": 6936,
    "ĠĠĠĠĠĠĠĠĠĠĠĠĠĠĠĠĠĠĠĠĠĠĠĠĠĠĠĠĠĠĠĠĠĠĠĠĠĠĠĠĠĠĠĠĠĠĠĠ": 7989,
    "inforcement": 3217,
    "ald": 15621,
    "Ġdistinguishing": 16495,
    "toed": 18578,
    "unaccountable": 15775,
    "Ġjen": 9265,
    "hundred": 8331,
    "Ġeasterly": 25962,
    "Ġbeseeching": 26311,
    "culine": 19065,
    "magistrate": 19862,
    "Ġhagger": 21489,
    "Ġbrightest": 13222,
    "Ġtint": 13815,
    "âĢĻâĢĶ": 12732,
    "Ġcoarsely": 25828,
    "Ġblan": 18816,
    "Ġjeopard": 9941,
    "ober": 15404,
    "reel": 21232,
    "Ġyon": 9691,
    "fearing": 18530,
    "Ġdisconsolate": 20718,
    "Ġtus": 10748,
    "Ġlandowner": 23379,
    "Ġdistressed": 8514,
    "virt": 15449,
    "Ġissue": 2310,
    "Ġgrowl": 16537,
    "Ġunnecessary": 8850,
    "Ġrejoined": 14925,
    "Ġabst": 9264,
    "engthen": 14455,
    "Ġspinal": 12299,
    "r": 86,
    "Ġchas": 18379,
    "Ġparlour": 12318,
    "Ġstarted": 4150,
    "cur": 3267,
    "Ġchooses": 13344,
    "Ġquiet": 3258,
    "Ġgreatest": 4095,
    "Ī": 235,
    "Ġpainting": 13138,
    "Ġpupils": 20419,
    "vicinity": 20478,
    "Ġarm": 2495,
    "Ġlakeman": 6986,
    "bran": 23573,
    "Ġformed": 3883,
    ";--": 8069,
    "iii": 14772,
    "Ġendeavour": 4676,
    "Ġstable": 2700,
    "ments": 1400,
    "raised": 15675,
    "Ġsou": 1889,
    "Ġfict": 21403,
    "Ġmeasuring": 22880,
    "Ġpluck": 15610,
    "Ġruefully": 17299,
    "Ġbible": 9317,
    "Ġcottage": 4733,
    "Ġsilver": 7463,
    "Ġtravelled": 7772,
    "Ġfemales": 14935,
    "abated": 14018,
    "Ġfilled": 4393,
    "cutting": 23782,
    "Ġsed": 10760,
    "Ġmole": 11788,
    "extending": 22769,
    "approve": 19935,
    "Ġtalking": 3856,
    "Ġcovariate": 2350,
    "str": 2581,
    "lydon": 13987,
    "Ġexhausting": 24710,
    "Ġdet": 509,
    "Ġothers": 2586,
    "Ġoptimal": 1858,
    "Ġpanel": 13370,
    "twinkle": 23702,
    "Ġclothed": 19605,
    "Ġvesuvius": 26500,
    "Ġgravely": 7884,
    "Ġinterests": 14568,
    "Ġspeaking": 4028,
    "Ġsleet": 8974,
    "beth": 13686,
    "inguish": 9395,
    "Ġpend": 15602,
    "Ġreduced": 11921,
    "eldom": 4412,
    "gaze": 17556,
    "Ġbow": 3060,
    "Ġcult": 8780,
    "Ġfists": 15579,
    "Ġlevers": 18077,
    "Ġblundering": 26283,
    "Ġmoul": 15540,
    "erect": 20847,
    "olence": 10229,
    "ropol": 10951,
    "Ġguilty": 7250,
    "Ġcommentaries": 20159,
    "Ġstaid": 21733,
    "Ġdistillation": 16042,
    "Ġtapers": 11549,
    "Ġverbal": 19377,
    "Ġmoves": 14230,
    "Ġ40": 14766,
    "Ġmonsie": 11445,
    "Ġfem": 6134,
    "Ġhearth": 11978,
    "Ġevian": 24291,
    "Ġbarber": 23787,
    "Ġexpert": 18868,
    "apolog": 22331,
    "Ġendeavoured": 4918,
    "Ġweakness": 9965,
    "ardy": 22154,
    "Ġcreating": 3000,
    "Ġtainted": 21169,
    "Ġsympath": 4861,
    "Ġundec": 22017,
    "Ġupdates": 1298,
    "Ġprompt": 3185,
    "Ġardently": 9496,
    "Ġjapan": 7640,
    "versed": 9823,
    "Ġwolfish": 25935,
    "Ġryder": 10257,
    "recognised": 15260,
    "Ġdraw": 3671,
    "Ġsturgeon": 20590,
    "Ġmorass": 22967,
    "becoming": 18516,
    "Ġskill": 6872,
    "steps": 9403,
    "Ġterror": 5124,
    "olds": 9309,
    "Ġfished": 21409,
    "kes": 3679,
    "Ġnarrated": 14869,
    "affording": 23775,
    "gled": 10698,
    "removing": 17763,
    "joke": 20929,
    "Ġheated": 21680,
    "bur": 4686,
    "Ġvict": 3762,
    "entary": 21565,
    "Ġapprobation": 10983,
    "Ġwho": 613,
    "Ġtowing": 9192,
    "Ġmuff": 8114,
    "Ġrose": 3442,
    "Ġtalents": 15043,
    "case": 5206,
    "abash": 18107,
    "Ġtimor": 24223,
    "terbury": 21822,
    "jacket": 12289,
    "analy": 17838,
    "imagination": 13478,
    "maltese": 24795,
    "Ġcalam": 13030,
    "Ġindia": 10369,
    "tle": 2415,
    "Ġdoubtfully": 23476,
    "ensical": 18567,
    "during": 6787,
    "Ġeulogy": 26470,
    "Ġallurements": 22007,
    "Ġpassions": 7930,
    "Ġswiftly": 5670,
    "const": 5939,
    "Ġspoils": 24808,
    "iv": 433,
    "Ġpeaking": 22688,
    "Ġlacey": 10196,
    "Ġremoter": 20104,
    "correct": 24482,
    "Ġmix": 7577,
    "Ġscenes": 5730,
    "Ġroad": 3880,
    "Ġhearken": 21683,
    "moment": 3579,
    "Ġpush": 9183,
    "Ġrepositories": 23363,
    "Ġreiterating": 26473,
    "Ġproceeding": 9904,
    "Ġrobberies": 22974,
    "Ġsquire": 16177,
    "Ġfedallah": 6108,
    "dening": 22776,
    "verty": 8452,
    "side": 2298,
    "reproach": 15184,
    "erson": 7002,
    "gold": 9119,
    "Ġawkwardness": 13485,
    "Ġintending": 11702,
    "Ġsofa": 10268,
    "Ġimprecate": 20515,
    "Ġcruisers": 25863,
    "iffs": 9020,
    "uries": 6147,
    "Ġrefreshing": 20263,
    "Ġfaintly": 14913,
    "very": 495,
    "Ġsworn": 14433,
    "woes": 21132,
    "Ġsuitable": 18278,
    "Ġhumorously": 18778,
    "Ġrenowned": 26193,
    "finding": 17012,
    "Ġinstincts": 16985,
    "propagation": 1253,
    "Ġdeadly": 5405,
    "Ġleaps": 14006,
    "Ġreview": 18030,
    "Ġconfirming": 25321,
    "Ġelephant": 8256,
    "Ġcollins": 2179,
    "mysterious": 26051,
    "Ġprendergast": 26536,
    "emic": 18179,
    "Ġceasing": 23755,
    "Ġcl": 551,
    "Ġsunk": 5752,
    "countless": 24149,
    "Ġrib": 4936,
    "Ġmerc": 9424,
    "Ġstubbs": 23295,
    "Ġcr": 2149,
    "Ġcongeal": 25980,
    "Ġwicked": 5961,
    "Ġpatagonian": 20534,
    "Ġurging": 24501,
    "Ġreus": 8820,
    "Ġrefresh": 10344,
    "arpaul": 14535,
    "drab": 23895,
    "Ġbreeds": 23347,
    "Ġinconsistency": 26182,
    "Ġwhipcord": 20093,
    "infor": 3194,
    "Ġtease": 18792,
    "Ġbaling": 17859,
    "Ġplate": 8897,
    "Ġneed": 2610,
    "Ġsnar": 13198,
    "profitable": 17054,
    "eridge": 15523,
    "scythes": 26401,
    "Ġboys": 5194,
    "Ġsecuring": 11988,
    "cro": 13694,
    "Ġtwisting": 18657,
    "Ġthre": 2060,
    "bring": 9103,
    "blot": 20782,
    "spermaceti": 12190,
    "Ġobjects": 5577,
    "gerine": 22886,
    "Ġliar": 22406,
    "Ġreeling": 18032,
    "ilight": 12689,
    "ldog": 21915,
    "Ġtackles": 8051,
    "boilers": 26297,
    "Ġterti": 14537,
    "Ġdust": 5909,
    "twist": 23700,
    "society": 9970,
    "Ġceti": 24773,
    "Ġyear": 3282,
    "¸": 121,
    "Ġsalutations": 25382,
    "Ġdisc": 943,
    "Ġeyel": 17095,
    "Ġcurrents": 13018,
    "Ġenraged": 10243,
    "Ġpropag": 16345,
    "Ġreclining": 26033,
    "Ġenraptured": 26499,
    "verb": 10215,
    "Ġgrammars": 11400,
    "Ġstam": 18065,
    "Ġsolicit": 22885,
    "Ġstrain": 6024,
    "Ġamongst": 8958,
    "irable": 5776,
    "Ġproport": 2294,
    "vill": 10734,
    "Ġglistened": 20171,
    "Ġproduct": 3533,
    "Ġturned": 2131,
    "Ġevolve": 3004,
    "ë": 172,
    "Ġresisted": 22539,
    "Ġcharacter": 2795,
    "Ġuncompromised": 20602,
    "Ġsurprising": 14597,
    "Ġnigh": 4878,
    "Ġcorpora": 26579,
    "Ġfumbling": 21416,
    "Ġcloudy": 19475,
    "**": 4685,
    "ospit": 22261,
    "Ġproflig": 23566,
    "Ġwax": 10775,
    "Ġfleets": 23772,
    "Ġendowed": 18924,
    "rayed": 23562,
    "swift": 14850,
    "Ġri": 3394,
    "arthur": 14828,
    "conceivable": 17129,
    "Ġconscious": 7744,
    "structure": 2353,
    "hawks": 24694,
    "ognit": 19184,
    "Ġsulkily": 25882,
    "establishment": 26113,
    "confined": 24331,
    "Ġ119": 24440,
    "Ġcomput": 601,
    "Ġtest": 1627,
    "Ġbreathed": 11218,
    "Ġconcern": 2589,
    "J": 46,
    "bers": 2574,
    "Ġcharming": 6628,
    "Ġsundry": 20072,
    "Ġfailure": 13312,
    "Ġbehooves": 20732,
    "gallantry": 15059,
    "Ġrepresented": 8937,
    "present": 1136,
    "Ġchristmas": 6924,
    "expressing": 16800,
    "Ġpon": 10174,
    "Ġhauling": 14085,
    "beloved": 19459,
    "rints": 12499,
    "Ġconsidering": 4614,
    "Ġcomplacency": 19446,
    "Ġbreathing": 9443,
    "Ġplanning": 14749,
    "sul": 15419,
    "Ġthreatening": 16827,
    "alog": 8803,
    "Ġproxim": 3197,
    "prejudiced": 17295,
    "Ġearnestly": 5979,
    "Ġprimary": 25060,
    "lit": 9604,
    "antingly": 22096,
    "interval": 7991,
    "Ġent": 903,
    "Ġfishers": 19352,
    "dan": 17514,
    "Ġsquatted": 25841,
    "cell": 10684,
    "crowd": 25254,
    "Ġinnocently": 24025,
    "ogr": 18670,
    "Ġconfining": 23305,
    "Ġvineyard": 12327,
    "waters": 11331,
    "Ġbabies": 19691,
    "Ġabound": 8862,
    "Ġdevotedly": 24750,
    "Ġrecoil": 18687,
    "stalls": 26472,
    "Ġerection": 23998,
    "toss": 22564,
    "Ġhigher": 1821,
    "ilt": 2972,
    "Ġest": 2263,
    "Ġjune": 10287,
    "Ġenjoyment": 7300,
    "Ġiter": 2957,
    "urance": 10855,
    "Ġcum": 21340,
    "Ġnib": 13938,
    "Ġdespondence": 25869,
    "true": 2590,
    "Ġreputation": 11638,
    "Ġimbecile": 17390,
    "Ġunhappiness": 14116,
    "ura": 1102,
    "Ġdepose": 22605,
    "Ġbr": 1071,
    "Ġattended": 5391,
    "haut": 20901,
    "Ġunhinged": 26216,
    "happy": 4424,
    "Ġdetailed": 12820,
    "aboard": 21792,
    "Ġconcluding": 9855,
    "Ġunceasing": 20356,
    "hom": 12470,
    "Ġcorridor": 10670,
    "Ġbathed": 17865,
    "Ġmouth": 3176,
    "reproof": 25432,
    "here": 2554,
    "Ġagitates": 22514,
    "Ġcategories": 4476,
    "Ġnlp": 3061,
    "Ġaccording": 5508,
    "Ġantagonist": 26328,
    "Ġforeboding": 20382,
    "Ġhinge": 25541,
    "ofs": 11827,
    "Ġrelent": 18774,
    "grie": 12467,
    "Ġboston": 22636,
    "Ġmid": 2621,
    "Ġjabez": 11763,
    "console": 22466,
    "Ġhimmalehs": 26230,
    "Ġevils": 9018,
    "ayed": 12708,
    "phants": 9318,
    "Ġdrowning": 19903,
    "live": 7551,
    "Ġenlar": 15797,
    "ism": 4874,
    "Ġhorn": 6185,
    "responsible": 25763,
    "flood": 19805,
    "Ġinhabitants": 7525,
    "Ġwas": 370,
    "Ġaz": 9628,
    "Ġresist": 7917,
    "Ġhag": 12621,
    "Ġumbrella": 15263,
    "Ġtumult": 7114,
    "Ġlanding": 11981,
    "sailing": 14712,
    "lection": 3653,
    "Ġcircumvent": 25064,
    "Ġlamp": 4116,
    "Ġafrica": 12342,
    "yards": 9622,
    "Ġspeechless": 13351,
    "Ġinhaled": 25451,
    "Ġriots": 23890,
    "Ġaltogether": 4831,
    "overhearing": 19052,
    "notches": 22750,
    "Ġdistinctly": 7311,
    "mant": 20964,
    "Ġper": 588,
    "momentum": 4991,
    "Ġastonishment": 4794,
    "Ġmilitary": 11256,
    "Ġerred": 21155,
    "ports": 13772,
    "Ġremotest": 10050,
    "Ġ122": 24466,
    "Ġunass": 14112,
    "Ġperfectly": 3701,
    "ator": 1924,
    "Ġunquestionable": 26221,
    "Ġeste": 6085,
    "tural": 21065,
    "Ġconnection": 5479,
    "Ġsupplication": 25491,
    "dashed": 12452,
    "Ġmalay": 24390,
    "Ġkicked": 10580,
    "Ġanchor": 7368,
    "Ġdistracted": 11800,
    "concern": 5875,
    "Ġattitude": 8902,
    "hood": 2662,
    "ĠĠĠĠĠĠĠĠĠĠĠĠĠĠĠĠĠĠĠĠĠĠĠĠĠĠĠĠĠĠĠĠĠĠĠĠĠĠĠĠĠĠĠĠĠĠĠ": 16754,
    "Ġeast": 5370,
    "Ġsnapped": 9895,
    "uncle": 8159,
    "Ġfaithfully": 14885,
    "Ġdiffused": 12065,
    "Ġgull": 15666,
    "rid": 5137,
    "Ġcous": 3436,
    "Ġhorr": 3186,
    "threshold": 21985,
    "Ġprivile": 8645,
    "Ġobst": 6283,
    "Ġeffaced": 18541,
    "Ġcon": 348,
    "ashing": 4824,
    "merged": 11192,
    "wrapped": 15207,
    "Ġdownstairs": 11222,
    "Ġcompanies": 14556,
    "Ġhoisting": 9860,
    "ractions": 11631,
    "announced": 19758,
    "imprisonment": 23760,
    "Ġpallet": 21480,
    "oundered": 14163,
    "Ġwad": 13849,
    "Ġresentful": 24632,
    "hauled": 20667,
    "wester": 21137,
    "trucks": 25419,
    "Ġtropical": 17065,
    "Ġcor": 1323,
    "Ġate": 8838,
    "telling": 14438,
    "Ġgallons": 14816,
    "85": 13679,
    "Ġrepenting": 25322,
    "coiled": 16484,
    "commander": 16986,
    "ropri": 2177,
    "Ġbrixton": 13661,
    "Ġgilded": 17443,
    "Ġlomb": 21557,
    "rer": 3623,
    "Ġconquered": 14024,
    "mess": 13751,
    "Ġcoll": 8222,
    "furnished": 20240,
    "Ġwithstand": 10224,
    "straw": 24093,
    "Ġbillow": 14776,
    "Ġrepute": 18034,
    "Ġvexation": 10585,
    "grey": 14910,
    "Ġgeese": 7695,
    "Ġsex": 8840,
    "Ġtrade": 2552,
    "Ġdec": 639,
    "jerked": 25618,
    "Ġev": 4828,
    "Ġscalding": 16310,
    "Ġgifts": 21610,
    "Ġcarpent": 4464,
    "Ġfrivolous": 26176,
    "lotte": 3329,
    "gins": 12465,
    "intellig": 5320,
    "Ġimpregn": 26022,
    "Ġcharmed": 16761,
    "Ġhatches": 12042,
    "Ġdatasets": 2393,
    "Ġhimmale": 18334,
    "Ġgazing": 5876,
    "Ġhun": 1494,
    "bye": 5950,
    "Ġcontribut": 12855,
    "breat": 10076,
    "Ġindel": 13000,
    "erie": 21270,
    "on": 267,
    "Ġbut": 424,
    "deceiving": 22142,
    "Ġpleated": 16294,
    "regular": 3042,
    "returns": 23135,
    "Ġobstinacy": 17419,
    "Ġseptember": 18207,
    "Ġgoble": 14229,
    "Ġpatched": 16378,
    "ĠĠĠĠ": 458,
    "Ġkate": 15902,
    "powerful": 24847,
    "Ġsky": 3970,
    "Ġtrout": 22362,
    "gratitude": 16815,
    "hau": 17561,
    "ieves": 4007,
    "Ġcher": 6129,
    "Ġeighty": 19474,
    "Ġsayest": 22774,
    "Ġgroves": 16739,
    "sounded": 12263,
    "stayed": 25290,
    "Ġhur": 2099,
    "Ġrio": 23889,
    "Ġaroused": 15900,
    "Ġactions": 6278,
    "likeness": 19476,
    "Ġunguarded": 15847,
    "Ġsunset": 8961,
    ",--âĢľ": 19197,
    "ceiving": 3901,
    "Ġsurrender": 16448,
    "arris": 13207,
    "Ġformality": 22826,
    "anted": 5027,
    "âĢĻ-": 18166,
    "oman": 2020,
    "Ġcup": 5697,
    "Á": 130,
    "Ġunimaginable": 15244,
    "Ġlaz": 7378,
    "Ġscuttle": 7414,
    "Ġunrest": 11711,
    "Ġscar": 3209,
    "Ġinsanity": 12044,
    "Ġabundance": 17154,
    "Ġfatigue": 8697,
    "Ġdownst": 3559,
    "Ġerecting": 24652,
    "Ġblows": 5973,
    "Ġinserting": 19905,
    "Ġreco": 9786,
    "per": 480,
    "Ġmortification": 12090,
    "Ġeyelids": 26107,
    "Ġhesitate": 16945,
    "Ġrecovering": 11859,
    "inese": 12875,
    "consequ": 18502,
    "ivity": 1735,
    "comfort": 5647,
    "Ġpunch": 9953,
    "Ġupdate": 2467,
    "Ġcontinual": 6777,
    "ared": 771,
    "):": 11459,
    "tree": 11531,
    "imitably": 21709,
    "Ġsang": 12531,
    "Ġwoof": 14719,
    "Ġpaul": 12059,
    "Ġgums": 21609,
    "Ġdens": 21423,
    "olent": 8155,
    "Ġmoonlight": 9956,
    "Ġsplendour": 20223,
    "distraction": 24199,
    "Ġeach": 891,
    "Ġshouts": 19536,
    "Ġminority": 18752,
    "Ġwrongfully": 24247,
    "Ġsubstit": 19539,
    "prospect": 23394,
    "Ġstretch": 6993,
    "Ġpolynesian": 26026,
    "Ġ156": 20169,
    "pag": 11508,
    "Ġshares": 23245,
    "undertaking": 23785,
    "¯": 112,
    "Ġrick": 21971,
    "poling": 12216,
    "Ġreign": 13983,
    "ulged": 12726,
    "Ġconnex": 10664,
    "Ġpiping": 23225,
    "bourne": 19102,
    "hearted": 6970,
    "suitableness": 26260,
    "Ġwhose": 2011,
    "Ġlanded": 7469,
    "Ġleather": 7607,
    "erranean": 9332,
    "Ġinsurgents": 26599,
    "Ġadvert": 10570,
    "Ġscott": 22279,
    "Ġkiss": 8183,
    "Ġrecur": 1625,
    "Ġburial": 16519,
    "ivering": 7699,
    "rebell": 17762,
    "handkerchief": 14617,
    "Ġschools": 9475,
    "okes": 9275,
    "ipt": 12475,
    "Ġloathed": 15872,
    "Ġrepugnant": 26589,
    "Ġdetested": 14173,
    "Ġfi": 934,
    "duing": 22409,
    "Ġfounder": 17883,
    "domestic": 19824,
    "Ġmeanest": 12906,
    "Ġcork": 12565,
    "Ġ26": 10469,
    "ble": 542,
    "Ġjem": 18402,
    "Ġbritish": 11335,
    "ror": 7351,
    "Ġfrenchman": 11281,
    "Ġpsychology": 11446,
    "Ġlancaster": 26340,
    "oise": 15402,
    "cures": 20804,
    "shout": 22445,
    "Ġarchitect": 998,
    "sk": 5521,
    "peddling": 24696,
    "Ġinex": 6528,
    "Ġhabitu": 19527,
    "Ġkitty": 3908,
    "dler": 13704,
    "Ġdisgusting": 19893,
    "Ġtangled": 13825,
    "Ġglanced": 5952,
    "ker": 5792,
    "robotics": 11304,
    "Ġfellows": 8257,
    "Ġcleanse": 24526,
    "incl": 8110,
    "ane": 1179,
    "pervading": 18955,
    "vii": 13146,
    "Ġglobules": 26587,
    "Ġ62": 24364,
    "Ġlifetime": 13600,
    "iling": 3092,
    "Ġcouns": 10519,
    "Ġpeas": 8533,
    "Ġstop": 2506,
    "Ġrange": 9710,
    "Ġwhile": 608,
    "Ġcovers": 18590,
    "Ġex": 361,
    "Ġsignification": 19203,
    "seldom": 13785,
    "omorrah": 18024,
    "ignified": 14489,
    "Ġbeauties": 10444,
    "Ġrotterdam": 25475,
    "Ġmanners": 3789,
    "Ġbaby": 6636,
    "bolt": 25135,
    "mush": 20976,
    "creation": 14804,
    "Ġhue": 8429,
    "disappo": 8983,
    "arthly": 8030,
    "Ġmann": 18416,
    "Ġphren": 8571,
    "omely": 21657,
    "greeting": 24553,
    "Ġsleeping": 6319,
    "Ġintrodu": 1926,
    "Ġambiguous": 20163,
    "Ġplaying": 6909,
    "Ġwhel": 15863,
    "Ġaccelerate": 23224,
    "j": 78,
    "Ġaver": 1285,
    "shirt": 22451,
    "Ġsweating": 16460,
    "composed": 14738,
    "Ġpicked": 6341,
    "Ġunimpe": 22070,
    "Ġlee": 4223,
    "Ġenlightened": 12742,
    "from": 1992,
    "entimes": 12652,
    "Ġtalked": 4420,
    "Ġflit": 23006,
    "Ġpoints": 5247,
    "================================================================": 9988,
    "Ġcol": 1057,
    "Ġpiercing": 13492,
    "Ġcolonies": 14373,
    "Ġmatlock": 18804,
    "Ġprovid": 1007,
    "hast": 5357,
    "Ġapprised": 18361,
    "89": 20758,
    "Ġcough": 11578,
    "Ġpitiful": 13237,
    "ripp": 6405,
    "Ġcrumb": 16438,
    "Ġvac": 5025,
    "rels": 6664,
    "aton": 21257,
    "Ġsneering": 24697,
    "offic": 7466,
    "Ġspitzbergen": 15285,
    "preced": 10307,
    "bott": 9104,
    "icult": 3339,
    "despair": 8344,
    "Ġfif": 4218,
    "father": 3775,
    "bucket": 17492,
    "Ġ[\"": 19929,
    "Ġspake": 18308,
    "Ġboldness": 24427,
    "Ġpeasants": 12329,
    "Ġmischief": 8541,
    "Ġcastaway": 16639,
    "mechanically": 17298,
    "olstad": 7612,
    "testing": 12513,
    "cry": 12442,
    "no": 896,
    "inconsiderable": 21190,
    "Ġshriek": 6637,
    "Ġadorn": 12786,
    "Ġbloom": 9886,
    "complet": 11381,
    "Ġwonder": 2116,
    "Ġunsub": 22021,
    "Ġpersonified": 19177,
    "Ġtrustworthy": 24105,
    "Ġfooted": 23794,
    "contents": 12055,
    "racts": 14363,
    "Ġbox": 5109,
    "wins": 21128,
    "Ġvapory": 17005,
    "Ġenticing": 22744,
    "birds": 15142,
    "Ġinvaluable": 10181,
    "need": 10977,
    "Ġroasted": 18458,
    "Ġpenetrating": 17010,
    "Ġprying": 15605,
    "necessary": 5882,
    "Ġbarrens": 25501,
    "Ġsanta": 26419,
    "Ġcorrespondence": 10593,
    "Ġnaught": 8128,
    "itatingly": 25277,
    "Ġhowever": 1303,
    "Ġmanxman": 9564,
    "Ġexhilar": 19682,
    "Ġbounding": 19398,
    "Ġalgorith": 562,
    "Ġbarb": 4529,
    "Ġfaculties": 14956,
    "Ġpervers": 11780,
    "Ġenumerating": 15242,
    "Ġbuild": 6474,
    "Ġrosings": 4606,
    "Ġheard": 1399,
    "Ġsmoke": 4714,
    "Ġobed": 8535,
    "scratch": 26043,
    "Ġsuperb": 16443,
    "Ġsinusoidal": 4801,
    "Ġdisgraceful": 15018,
    "Ġlake": 5227,
    "Ġfruitless": 25605,
    "intosh": 22938,
    "Ġineff": 12630,
    "Ġlater": 6017,
    "Ġscreamed": 9522,
    "complained": 25838,
    "Ġquito": 24407,
    "infer": 10143,
    "Ġworms": 25216,
    "Ġru": 947,
    "Ġuncont": 14114,
    "Ġvisibly": 22849,
    "Ġforenoon": 19126,
    "Ġrecollect": 8310,
    "Ġhug": 6979,
    "Ġspilled": 10922,
    "Ġmaty": 22910,
    "Ġvices": 14081,
    "engaged": 7452,
    "Ġrudeness": 17123,
    "Ġneuron": 1810,
    "ale": 506,
    "preserver": 20212,
    "Ġbackground": 18649,
    "ze": 1321,
    "Ġpersonages": 23538,
    "Ġcoffee": 6760,
    "Ġquadrille": 13539,
    "msprop": 2630,
    "sch": 21049,
    "Ġpol": 2580,
    "mont": 19168,
    "Ġheadsman": 13271,
    "Ġchowder": 10279,
    "Ġoutrid": 22313,
    "confess": 12172,
    "Ġdoes": 942,
    "Ġheredit": 9215,
    "Ġbomb": 17867,
    "Ġscience": 1612,
    "Ġmathemat": 3200,
    "noise": 14332,
    "Ġdownwards": 8529,
    "Ġfals": 15577,
    "speechless": 25395,
    "Ġinconceivable": 17937,
    "**:": 4737,
    "Ġsteering": 10386,
    "impress": 18051,
    "stating": 21639,
    "spirits": 8055,
    "Ġlandsmen": 11349,
    "idious": 11660,
    "Ġflag": 7242,
    "verize": 21726,
    "sens": 8096,
    "intelligent": 16843,
    "Ġha": 400,
    "Ġhist": 2449,
    "lleg": 20950,
    "wes": 17702,
    "alliance": 22198,
    "olerable": 7182,
    "do": 1996,
    "near": 5842,
    "flitted": 23966,
    "Ġoffer": 4843,
    "aven": 8209,
    "vial": 17696,
    "Ġsaturn": 22899,
    "Ġrains": 24339,
    "Ġirreproachable": 24917,
    "-------": 20387,
    "Ġclust": 9272,
    "bos": 17482,
    "Ġmightiest": 12956,
    "Ġxxiv": 24476,
    "explanations": 25234,
    "Ġroanoke": 22404,
    "prince": 23811,
    ":âĢĶâĢĺ": 24192,
    "Ġubiquitous": 26195,
    "Ġenabling": 1078,
    "Ġimm": 3966,
    "jewell": 25523,
    "Ġpride": 3822,
    "Ġgaff": 17993,
    "cils": 20813,
    "Ġblinded": 13267,
    "Ġunforgiving": 25995,
    "dimens": 2317,
    "scheme": 15252,
    "eping": 5834,
    "Ġtreating": 4283,
    "ances": 1337,
    "Ġjoppa": 12033,
    "isk": 9166,
    "Ġclasping": 20208,
    "Ġphilips": 5410,
    "Ġattacked": 10566,
    "Ġscraping": 13414,
    "desol": 13065,
    "ppings": 18176,
    "Ġtested": 23231,
    "Ġstriding": 16090,
    "Ġvillainous": 25131,
    "Ġcle": 1509,
    "Ġrainy": 24340,
    "possesses": 24617,
    "zza": 24166,
    "Ġoblige": 10487,
    "ensation": 22543,
    "tout": 21064,
    "hither": 11490,
    "Ġnecessity": 7296,
    "Ġbask": 8117,
    "Ġpitches": 23899,
    "Ġbehold": 5049,
    "Ġplanks": 5562,
    "ecess": 17531,
    "opening": 10311,
    "sect": 8153,
    "Ġrelinqu": 12979,
    "Ġoff": 902,
    "Ġunfaltering": 24111,
    "Ġsobbing": 14134,
    "Ġbeech": 18082,
    "Ġcrown": 5287,
    "intellect": 18821,
    "Ġroaring": 10966,
    "Ġsuggest": 5417,
    "Ġchink": 15929,
    "hundreds": 25073,
    "Ġconclusions": 10552,
    "Ġdiet": 13908,
    "Ġproblems": 2852,
    "Ġleast": 2065,
    "instruct": 19541,
    "Ġn": 300,
    "Ġsurprise": 3828,
    "Ġtossings": 25356,
    "sembled": 7263,
    "Ġbressed": 21385,
    "Ġjohnson": 18409,
    "Ġfitzwilliam": 5771,
    "Ġoutdone": 22316,
    "Ġcertainly": 2500,
    "Ġcomb": 1059,
    "Ġdied": 4113,
    "Ġsnapping": 19300,
    "Ġshouting": 10521,
    "Ġfob": 21408,
    "Ġ111": 24435,
    "Ġcursed": 6727,
    "mph": 20971,
    "Ġmince": 22828,
    "Ġbetokened": 18798,
    "Ġmau": 21309,
    "Ġsubsequently": 16157,
    "Ġsympathy": 6346,
    "Ġtorments": 13392,
    "Ġne": 390,
    "cou": 13693,
    "wards": 1277,
    "istry": 22107,
    "particip": 23615,
    "Ġbourgh": 5069,
    "iors": 9124,
    "invested": 17116,
    "Ġbaggy": 24537,
    "oles": 21004,
    "quakes": 21854,
    "Ġthursday": 12640,
    "Ġsinusoid": 4781,
    "Ġdaresay": 14702,
    "Ġvexations": 24610,
    "Ġpursuits": 12073,
    "Ġcaroline": 7254,
    "18": 20750,
    "behind": 6779,
    "Ġfortitude": 9884,
    "Ġliberal": 12187,
    "han": 12469,
    "bern": 20774,
    "igation": 5918,
    "Ġinspired": 2523,
    "Ġaxis": 12304,
    "Ġexquis": 9697,
    "Ġexamined": 6334,
    "Ġthreshold": 2812,
    "Ġatlantic": 7000,
    "Ġslighted": 16566,
    "itud": 2935,
    "Ġtrees": 4204,
    "Ġmeeting": 5193,
    "Ġtract": 21164,
    "Ġtowering": 16738,
    "Ġenlarged": 25985,
    "ugnance": 12364,
    "Ġmach": 13855,
    "Ġbankers": 24301,
    "Ġsemicircular": 26069,
    "Ġbelonging": 8308,
    "Ġteaching": 10363,
    "fac": 17540,
    "Ġalleg": 14015,
    "Ġhung": 4558,
    "Ġleatherhead": 20012,
    "Ġpines": 12613,
    "Ġavenue": 13619,
    "ky": 4518,
    "dict": 15337,
    "Ġretire": 10380,
    "flour": 23963,
    "Ġbrag": 23830,
    "Ġcounterpart": 24721,
    "alescing": 23863,
    "concerned": 24583,
    "leap": 21365,
    "_).": 5887,
    "Ġseparating": 16684,
    "Ġpotency": 14645,
    "burgh": 6773,
    "Ġrotation": 25474,
    "Ġbetray": 7442,
    "bolts": 11418,
    "st": 315,
    "aded": 3548,
    "gown": 9595,
    "Ġespecial": 26409,
    "shells": 26056,
    "months": 9070,
    "gunw": 17219,
    "Ġburke": 19250,
    "Ġfelix": 4848,
    "penet": 11068,
    "Ġpenalty": 1841,
    "attered": 4020,
    "being": 3912,
    "Ġapple": 14165,
    "threw": 21982,
    "gangway": 20666,
    "Ġab": 528,
    "Ġelbow": 12917,
    "Ġprogno": 14038,
    "Ġleaves": 5021,
    "ituted": 13871,
    "judgment": 16752,
    "Ġlascar": 9198,
    "Ġzer": 1092,
    "Ġdeck": 2136,
    "Ġmcc": 21305,
    "Ġray": 18642,
    "Ġwhispered": 5337,
    "shuff": 18489,
    "Ġwarn": 5695,
    "harpooned": 24285,
    "Ġchr": 3689,
    "leaped": 17843,
    "Ġfitness": 23997,
    "ckled": 9255,
    "Ġvor": 15803,
    "Ġshaster": 21996,
    "ground": 4670,
    "Ġpovels": 22590,
    "Ġbeacon": 21754,
    "Ġbrewed": 23345,
    "increased": 20269,
    "lied": 6507,
    "Ġprotruded": 19468,
    "elsewhere": 19867,
    "Ġframe": 1897,
    "Ġcharmingly": 24220,
    "Ġeighteenth": 14752,
    "Ġpatch": 4181,
    "Ġremarks": 7475,
    "Ġfaithfulness": 24445,
    "once": 5904,
    "Ġlist": 2367,
    "ectual": 21913,
    "ulty": 22565,
    "Ġceased": 6468,
    "Ġlanterns": 24576,
    "Ġheroes": 10575,
    "Ġlustrous": 20155,
    "Ġpenal": 1772,
    "Ġnumerical": 4245,
    "mangled": 20980,
    "Ġremarked": 3696,
    "Ġpilgr": 12177,
    "cat": 15322,
    "Ġdashing": 8794,
    "Ġmethodic": 23117,
    "fat": 8079,
    "utional": 17983,
    "ĠlinnÃ¦us": 15273,
    "Ġsacr": 7194,
    "Ġirritated": 17241,
    "Ġaudience": 24769,
    "simp": 17664,
    "Ġruggedness": 26268,
    "Ġfrightened": 5341,
    "ves": 698,
    "Ġuncles": 23429,
    "thanked": 24330,
    "Ġimpulse": 10022,
    "problem": 25244,
    "Ġtreasures": 17046,
    "Ġsupposing": 6729,
    "inclination": 20056,
    "Ġpresuming": 16792,
    "somerset": 26322,
    "language": 5129,
    "Ġinert": 15618,
    "countenances": 24150,
    "dam": 7798,
    "ellation": 12745,
    "Ġyelled": 9692,
    "ulity": 10884,
    "chard": 21685,
    "Ġpointed": 4773,
    "Ġswe": 2285,
    "Ġscoundrel": 13668,
    "sweep": 24618,
    "iz": 365,
    "Ġfortun": 4982,
    "Ġforward": 1837,
    "poled": 22907,
    "saw": 5894,
    "Ġwilt": 9642,
    "arent": 4249,
    "scans": 22984,
    "Ġprudent": 9184,
    "foundered": 20866,
    "Ġnovelist": 24777,
    "ught": 2750,
    "Ġugly": 8715,
    "Ġstoried": 18072,
    "fel": 8733,
    "intolerable": 22936,
    "Ġstream": 5186,
    "Ġacting": 10989,
    "Ġunfathomably": 25873,
    "Ġfeebly": 24877,
    "Ġbun": 6007,
    "derest": 18315,
    "Ġconsisting": 8970,
    "Ġtropics": 17066,
    "Ġsearched": 15816,
    "Ġcarpenter": 4683,
    "Ġinterpret": 5490,
    "sper": 4434,
    "Ġaberdeen": 26540,
    "dy": 3861,
    "Ġdeclaring": 19418,
    "Ġmonitors": 3154,
    "Ġelud": 22641,
    "Ġslew": 23381,
    "Ġwil": 4579,
    "interrupt": 8615,
    "Ġgasps": 24865,
    "Ġmadame": 13148,
    "marrying": 19546,
    "minute": 11272,
    "Ġjew": 9466,
    "wich": 11541,
    "Ġblo": 2734,
    "supper": 12916,
    "Ġdelayed": 9516,
    "Ġimmortal": 8018,
    "Ġdong": 17887,
    "unfearing": 21890,
    "Ġoverwhelmed": 11401,
    "Ġdistinguish": 2727,
    ",": 16,
    "Ġdeuteronomy": 15756,
    "Ġfrontispiece": 23911,
    "Ġparting": 9782,
    "Ġinflicted": 11363,
    "Ġaddressing": 11162,
    "courageous": 26127,
    "Ġtermination": 16458,
    "big": 13683,
    "Ġlink": 8130,
    "Ġmysterious": 7528,
    "persuaded": 15071,
    "Ġscenari": 22285,
    "Ġculprit": 26172,
    "Ġwert": 12552,
    "Ġxxxiv": 24969,
    "Ġhavoc": 15810,
    "Ġdetective": 14404,
    "Ġstumped": 24942,
    "Ġaccumulating": 2723,
    "Ġfit": 3685,
    "ateness": 15517,
    "Ġretreats": 16927,
    "sies": 21053,
    "property": 19998,
    "Ġxxxi": 24968,
    "Ġilleg": 21616,
    "Ġimpetuous": 25570,
    "Ġmounted": 7833,
    "Ġswung": 6449,
    "Ġkink": 22191,
    "oysius": 14361,
    "Ġasserted": 16948,
    "Ġtwist": 11848,
    "Ġtext": 2265,
    "Ġseemed": 1279,
    "utch": 21584,
    "Ġlegit": 16471,
    "delivered": 24099,
    "datasets": 11951,
    "ute": 4641,
    "Ġcomforts": 14692,
    "stun": 18015,
    "Ġadvers": 4887,
    "Ġdrops": 9031,
    "Ġcit": 10782,
    "Ġjoist": 19231,
    "wondered": 17028,
    "agreeable": 5829,
    "bride": 19200,
    "Ġinterrupted": 6343,
    "Ġproximity": 3218,
    "heim": 17745,
    "Ġsexes": 25168,
    "Ġrept": 13981,
    "Ġcy": 13872,
    "weed": 14313,
    "Ġcared": 8781,
    "Ġdecanting": 22436,
    "Ġmultiplied": 23686,
    "Ġconsecrate": 26488,
    "Ġpsych": 10175,
    "Ġsingular": 4423,
    "Ġrelief": 6060,
    "Ġbouton": 17868,
    "excellent": 8044,
    "Ġgeneralize": 3099,
    "Ġheld": 3586,
    "alth": 3253,
    "Ġberm": 21381,
    "Ġnameless": 7700,
    "Ġspread": 5161,
    "Ġaffability": 14385,
    "Ġdecreases": 3408,
    "Ġstand": 1734,
    "Ġprevail": 13440,
    "stocks": 23817,
    "continuing": 24478,
    "Ġvalid": 1658,
    "evidently": 20344,
    "Ġ51": 24319,
    "Ġsundial": 15080,
    "Ġaction": 5796,
    "Ġostentatious": 25736,
    "Ġtid": 8107,
    "ñ": 178,
    "hailed": 17564,
    "Ġbroad": 3640,
    "pocket": 9807,
    "borean": 25743,
    "Ġdistantly": 18531,
    "Ġpeaceable": 14721,
    "Ġexped": 7651,
    "Ġbashful": 20418,
    "Ġwhal": 5454,
    "Ġ1820": 25718,
    "Ġsembl": 19061,
    "Ġbark": 10797,
    "Ġcivilized": 8664,
    "contact": 23726,
    "Ġraised": 4659,
    "Ġhelplessly": 20076,
    "admon": 21759,
    "islanders": 25442,
    "recol": 10149,
    "Ġantiquities": 25598,
    "Ġnonsensical": 21527,
    "Ġpractised": 23325,
    "Ġconclude": 8580,
    "Ġpacifics": 24372,
    "Ġham": 3420,
    "Ġwithal": 18113,
    "dark": 5613,
    "pretty": 10620,
    "Ġmassachusetts": 24019,
    "Ġ121": 24465,
    "broker": 13302,
    "Ġselect": 4000,
    "Ġdescried": 7920,
    "Ġassaults": 15154,
    "Ġproportions": 16465,
    "conc": 3947,
    "acquaintance": 6938,
    "personal": 24965,
    "lucases": 20209,
    "Ġdome": 15585,
    "residual": 19261,
    "4": 24,
    "Ġcommitting": 22671,
    "cannibals": 25584,
    "Ġreigned": 13985,
    "Ġcontextual": 3742,
    "Ġfret": 10805,
    "Ġstockings": 19995,
    "Ġjeopardy": 13594,
    "itics": 13870,
    "Ġnewspaper": 12361,
    "itations": 17817,
    "Ġspirit": 3724,
    "morning": 4859,
    "overcome": 19050,
    "Ġfailed": 6671,
    "Ġunspeakably": 25172,
    "irksome": 18172,
    "Ġpasture": 14542,
    "Ġnorms": 3666,
    "onely": 6516,
    "awned": 19458,
    "Ġ12": 5483,
    "Ġaug": 6234,
    "Ġsymph": 22202,
    "Ġmacey": 12559,
    "Ġsent": 1775,
    "Ġthankful": 14736,
    "menced": 23144,
    "Ġfare": 5809,
    "Ġinvolves": 1117,
    "Ġtelegra": 11887,
    "isance": 17847,
    "Ġmechanism": 2304,
    "swinging": 25912,
    "insufficient": 15487,
    "tling": 9141,
    "Ġ221": 25068,
    "arpening": 21442,
    "acency": 12904,
    "Ġmerest": 14028,
    "Ġirrespective": 23373,
    "Ġwages": 13852,
    "pivot": 21030,
    "Ġanswerable": 23469,
    "Ġgliding": 8560,
    "ĠĠĠĠĠĠĠĠĠĠĠĠĠĠĠĠĠĠĠĠĠĠĠĠĠĠĠĠĠ": 19698,
    "Ġgraceful": 11294,
    "fugitive": 26131,
    "Ġadvantage": 4315,
    "Â·": 21148,
    "hullo": 17569,
    "Ġdesperate": 7777,
    "nial": 20983,
    "supernatural": 19778,
    "Ġreproofs": 24892,
    "ask": 858,
    "Ġentit": 22742,
    "Ġtrail": 16280,
    "getic": 12962,
    "Ġdividing": 12108,
    "addressed": 13383,
    "Ġable": 3080,
    "Ġinitialized": 3948,
    "Ġowed": 10779,
    "Ġvial": 10247,
    "Ġbilliard": 16688,
    "shame": 16020,
    "ss": 396,
    "Ġreminding": 19796,
    "activity": 22630,
    "hamed": 6305,
    "Ġlock": 5928,
    "Ġtrif": 6269,
    "Ġtranquillize": 24757,
    "shr": 10978,
    "Ġcolumns": 14374,
    "Ġtapped": 11551,
    "lights": 13203,
    "ences": 1265,
    "Ġency": 21931,
    "Ġadmirers": 19685,
    "Ġobservations": 13551,
    "forward": 2185,
    "Ġachieve": 3674,
    "Ġthanking": 18602,
    "Ġclumsy": 9578,
    "contained": 22465,
    "shoals": 24717,
    "bub": 15314,
    "embarr": 15793,
    "Ġlanguage": 645,
    "Ġwhilst": 9217,
    "province": 26072,
    "Ġpot": 2993,
    "Ġcollecting": 12283,
    "Ġformal": 2946,
    "Ġendure": 5956,
    "fabulous": 20472,
    "inous": 8771,
    "å": 166,
    "Ġopera": 23424,
    "Ġpromised": 5181,
    "hook": 12050,
    "Ġby": 383,
    "Ġneared": 14073,
    "biqu": 17496,
    ",)": 9099,
    "leviathans": 19936,
    "Ġdinners": 23979,
    "lat": 9603,
    "Ġtransportation": 13640,
    "animals": 24738,
    "ernally": 22610,
    "Ġdischarged": 15218,
    "Ġinjury": 10539,
    "darkened": 24513,
    "Ġincorporate": 20453,
    "hearty": 14832,
    "angel": 5726,
    "gently": 13727,
    "pest": 6964,
    "Ġarmitage": 23580,
    "Ġyore": 21776,
    "covering": 15332,
    "Ġtravels": 11924,
    "Ġtune": 17724,
    "axing": 18547,
    "iam": 2513,
    "Ġgreece": 17069,
    "Ġnearest": 8470,
    "amouch": 21843,
    "fem": 17536,
    "Ġdeduction": 14897,
    "Ġdisappo": 4504,
    "Ġtipt": 21172,
    "Ġmulti": 1043,
    "emberley": 4171,
    "Ġcologne": 12972,
    "conduct": 11794,
    "coffin": 10661,
    "Ġwavering": 23278,
    "constable": 24606,
    "actions": 8905,
    "Ġamsterdam": 22482,
    "ppers": 7618,
    "Ġcoin": 9769,
    "miserably": 24209,
    "dar": 20823,
    "Ġsine": 10762,
    "Ġrichest": 26211,
    "Ġsequence": 1978,
    "gabriel": 15358,
    "Ġnarrowed": 24354,
    "Ġgreas": 17991,
    "Ġcarried": 3694,
    "Ġunmannerly": 26516,
    "Ġclang": 15959,
    "Ġhardy": 8565,
    "Ġtoy": 15630,
    "esc": 611,
    "procure": 23395,
    "Ġegyptian": 13584,
    "Ġket": 18347,
    "Ġevery": 926,
    "Ġflattered": 10373,
    "subsided": 25830,
    "Ġcreditors": 20128,
    "Ġlikeness": 11177,
    "Ġlodge": 5779,
    "Ġcautious": 12250,
    "Ġaccidentally": 9503,
    "Ġnaval": 16898,
    "fatal": 17087,
    "flask": 12096,
    "cket": 3688,
    "isl": 21373,
    "Ġoverwhel": 8196,
    "Ġdrawback": 23987,
    "Ġfordham": 21774,
    "Ġlobsters": 13515,
    "Ġprosperity": 20256,
    "art": 582,
    "joining": 19444,
    "Ġgenteel": 19979,
    "Ġextinct": 14335,
    "Ġautomation": 13232,
    "Ġreaped": 18029,
    "Ġgun": 4701,
    "Ġgloomy": 7505,
    "feather": 16040,
    "borrowed": 20791,
    "Ġpew": 9313,
    "Ġindispensable": 11897,
    "Ġmounts": 17806,
    "Ġadjust": 2152,
    "Ġtelling": 5747,
    "Ġdiscre": 2422,
    "Ġmanage": 7641,
    "Ġ36": 14765,
    "chooses": 23670,
    "Ġoh": 2173,
    "Ġdepicting": 22606,
    "springing": 24889,
    "fixedly": 24929,
    "Ġcustom": 5078,
    "rob": 5533,
    "Ġregained": 18598,
    "Ġtambourine": 9563,
    "opolising": 25676,
    "ross": 807,
    "Ġimpropri": 14210,
    "ilib": 4119,
    "det": 5207,
    "Ġfiss": 21411,
    "Ġcomparative": 10541,
    "Ġsoothe": 7405,
    "Ġtwins": 16117,
    "constit": 24605,
    "þ": 191,
    "Ġfinancial": 23128,
    "Ġbraved": 23834,
    "Ġrealised": 18981,
    "Ġstigma": 25791,
    "feeder": 12358,
    "Ġtortures": 14921,
    "oves": 15401,
    "Ġflap": 14420,
    "Ġindirectly": 8938,
    "Ġpardon": 5727,
    "fun": 4176,
    "tomb": 21092,
    "Ġinc": 702,
    "Ġnorm": 764,
    "conjectured": 25181,
    "Ġtroubles": 19437,
    "Ġcharms": 11128,
    "Ġingrat": 16839,
    "ipping": 2207,
    "Ġsavage": 4013,
    "dep": 6786,
    "Ġminim": 1324,
    "uttural": 21587,
    "Ġdiddled": 22665,
    "tier": 12511,
    "biscuit": 17499,
    "Ġmurder": 4280,
    "settle": 16660,
    "receive": 12538,
    "anoke": 21359,
    "Ġforest": 9869,
    "ikes": 8087,
    "Ġsuspected": 9061,
    "Ġaffected": 5576,
    "ils": 3178,
    "Ġegg": 8817,
    "Ġclutches": 20016,
    "garnished": 26387,
    "Ġobserved": 3540,
    "Ġtransferred": 16466,
    "prevented": 20372,
    "done": 6500,
    "Ġalive": 4397,
    "laz": 15383,
    "Ġmistaken": 4986,
    "Ġvinc": 14083,
    "Ġfolded": 7768,
    "prison": 14661,
    "nue": 15395,
    "Ġchip": 12821,
    "cannib": 11899,
    "Ġaffectionate": 5584,
    "chors": 11642,
    "tremble": 17140,
    "writing": 7721,
    "Ġjoin": 4853,
    "mael": 6723,
    "Ġlimber": 16477,
    "remember": 7262,
    "Ġevolved": 9890,
    "Ġcliffs": 15964,
    "Ġmass": 3779,
    "answered": 10272,
    "Ġchurchyard": 16776,
    "Ġtol": 6675,
    "Ġusefulness": 19406,
    "arness": 11669,
    "hoist": 23712,
    "Ġreplete": 15694,
    "Ġnovel": 6695,
    "Ġshivering": 10264,
    "Ġsquires": 16178,
    "nikin": 23209,
    "Ġdecipher": 22439,
    "Ġbond": 21382,
    "Ġcamel": 25349,
    "Ġsuperst": 7704,
    "Ġcrimin": 6901,
    "mis": 4519,
    "Ġbuckskin": 19950,
    "Ġentreating": 24206,
    "Ġsteal": 16281,
    "h": 76,
    "onym": 14648,
    "Ġphiladel": 23883,
    "iarity": 8743,
    "Ġwednesday": 9023,
    "Ġ_": 841,
    "Ġsumat": 14128,
    "Ġreminded": 9997,
    "exe": 11786,
    "toller": 20671,
    "Ġgpus": 3732,
    "Ġgood": 1000,
    "Ġpreternatural": 12819,
    "ibly": 2998,
    "Ġfancying": 12109,
    "skull": 24487,
    "Ġfootfall": 14660,
    "Ġstacked": 21741,
    "fireside": 24692,
    "Ġcompar": 4771,
    "icles": 17972,
    "utherland": 9577,
    "izon": 18141,
    "Ġvictoria": 14871,
    "Ġform": 1023,
    "Ġentropy": 2033,
    "arched": 10814,
    "Ġspan": 11725,
    "Ġgambler": 26190,
    "Ġens": 2789,
    "Ġintroduce": 3202,
    "Ġmistaking": 23717,
    "Ġhatchway": 13523,
    "grounds": 11149,
    "Ġbrief": 6976,
    "Ġauger": 21202,
    "Ġcondem": 6338,
    "horner": 23613,
    "discover": 10538,
    "Ġinquiries": 5678,
    "lid": 20944,
    "Ġquestioning": 10462,
    "complain": 14355,
    "Ġhumiliating": 22882,
    "Ġaccept": 4409,
    "ullied": 23102,
    "fro": 8732,
    "unmistakable": 21893,
    "tallow": 21084,
    "Ġpressed": 6042,
    "ĠĠĠĠĠĠĠĠĠĠĠĠĠĠĠĠĠĠĠĠĠĠĠĠĠĠĠĠ": 9973,
    "Ġfest": 10803,
    "Ġmills": 21310,
    "Ġbowlines": 19321,
    "Ġregular": 952,
    "hollow": 24037,
    "Ġhurricane": 16429,
    "x": 92,
    "Ġaffront": 18787,
    "Ġfriendly": 9818,
    "gun": 10095,
    "Ġbleeding": 14878,
    "willingness": 24755,
    "Ġprogress": 5023,
    "Ġmorals": 22968,
    "Ġposture": 24163,
    "Ġ99": 10744,
    "Ġbehaved": 13251,
    "Ġincorporated": 25711,
    "Ġoccas": 2704,
    "Ġspecific": 2003,
    "scream": 11075,
    "Ġungod": 22022,
    "é": 170,
    "Ġrear": 6535,
    "Ġauthority": 7749,
    "Ġestimated": 16593,
    "Ġshe": 466,
    "Ġawe": 7147,
    "Ġschoolboys": 24480,
    "indisc": 22371,
    "iffe": 21900,
    "Ġsquares": 11167,
    "hem": 6663,
    "Ġ1890": 23893,
    "Ġunspeak": 8849,
    "gaz": 20877,
    "secret": 12233,
    "useness": 22290,
    "Â£": 4812,
    "Ġclout": 22341,
    "magn": 10609,
    "haustible": 16890,
    "excepting": 19705,
    "Ġseconds": 16396,
    "Ġneglect": 7942,
    "Ġoffing": 16140,
    "allers": 22195,
    "Ġposterity": 17400,
    "fanc": 20863,
    "Ġwilfully": 16765,
    "Ġclubs": 25179,
    "Ġfuriously": 9800,
    "Ġtoad": 21508,
    "Ġextra": 4056,
    "usions": 6159,
    "eyes": 5684,
    "expression": 10546,
    "Ġconscience": 6929,
    "Ġmag": 1425,
    "Ġcav": 13878,
    "olidity": 18132,
    "avery": 13681,
    "itous": 13865,
    "pleasanter": 24044,
    "Ġranks": 21973,
    "hotel": 20048,
    "Ġdictated": 25218,
    "ased": 1269,
    "pute": 8843,
    "Ġessentials": 20001,
    "cus": 3981,
    "Ġ65": 24367,
    "fell": 6953,
    "Ġsidelong": 11436,
    "Ġdifficulties": 11223,
    "beyond": 8881,
    "Ġglobal": 2372,
    "Ġpredecessor": 26253,
    "Ġsquall": 7043,
    "Ġcontinuing": 14395,
    "ichron": 22161,
    "resum": 17760,
    "known": 3568,
    "onement": 21255,
    "riot": 18185,
    "Ġtexture": 19159,
    "Ġcircumst": 2978,
    "Ġtorm": 5434,
    "ette": 15655,
    "Ġnind": 17949,
    "Ġgrat": 4057,
    "Ġsolar": 22883,
    "Ġgesture": 11397,
    "clinging": 20821,
    "Ġtypewritten": 16419,
    "Ġpaste": 23417,
    "Ġmaybe": 12945,
    "onents": 8776,
    "ilburn": 18059,
    "aco": 12902,
    "eringly": 23003,
    "Ġfervent": 14899,
    "Ġlombardy": 26462,
    "quickness": 19850,
    "obstructed": 15224,
    "{": 95,
    "drifting": 19823,
    "Ġchallenges": 13628,
    "beside": 19876,
    "icuous": 10834,
    "Ġmotions": 8281,
    "Ġglance": 4233,
    "Ġtobacco": 8367,
    "Ġcollinses": 19129,
    "aren": 10072,
    "Ġmermaids": 26170,
    "ainted": 3659,
    "Ġlanes": 19764,
    "Ġassumpt": 5415,
    "Ġcardboard": 19977,
    "Ġbellies": 13353,
    "Ġaut": 1786,
    "Ġ----": 7145,
    "dia": 2132,
    "Ġknocked": 9498,
    "Ġamply": 22480,
    "Ġretreat": 6070,
    "Ġcontrad": 9753,
    "Ġintercourse": 10996,
    "inst": 4294,
    "Ġblanche": 18819,
    "Ġworked": 6583,
    "mosp": 8089,
    "ensed": 10993,
    "Ġdefines": 1741,
    "extinguished": 16149,
    "lim": 9605,
    "Ġdisease": 14256,
    "Ġdeliberately": 10623,
    "Ġjeroboam": 10599,
    "Ġyawn": 7610,
    "Ġaccommod": 14218,
    "Ġtone": 4040,
    "Ġflitting": 13022,
    "fa": 7336,
    "date": 17516,
    "Ġrug": 16154,
    "Ġtumultuous": 10614,
    "Ġgreedily": 18966,
    "Ġpossessions": 23821,
    "indignation": 18438,
    "Ġknob": 24406,
    "Ġsobs": 14133,
    "Ġsimply": 7218,
    "Ġdem": 11672,
    "arth": 4442,
    "Ġfrolic": 23921,
    "Ġhasn": 12921,
    "Ġwide": 4110,
    "Ġsatire": 22898,
    "combined": 20319,
    "Ġundecided": 22046,
    "Ġmant": 9646,
    "mistak": 16877,
    "avast": 8895,
    "ought": 829,
    "unnecessary": 21878,
    "Ġbale": 7839,
    "Ġboiling": 8525,
    "woof": 21138,
    "Ġjura": 14191,
    "Ġdeveloped": 16339,
    "Ġswam": 6448,
    "Ġpat": 1806,
    "ootiful": 17371,
    "Ġintroduction": 8969,
    "Ġdreaming": 11221,
    "Ġgospel": 18000,
    "Ġrnns": 2398,
    "Ġapproxim": 1219,
    "adam": 15726,
    "Ġfavourable": 7959,
    "Ġconvivial": 16547,
    "Ġrecords": 12192,
    "death": 6261,
    "Ġoversight": 22357,
    "Ġtearless": 24786,
    "baned": 17494,
    "circled": 24186,
    "Ġapartments": 19613,
    "specul": 23940,
    "Ġjuly": 17235,
    "Ġxvi": 19104,
    "Ġsaviour": 20712,
    "Ġoccurring": 2793,
    "Ġalike": 8147,
    "Ġenriched": 26498,
    "Ġabruptly": 15148,
    "neat": 22441,
    "aking": 976,
    "avenue": 25057,
    "buried": 14847,
    "Ġvehem": 22887,
    "Ġwrath": 16314,
    "Ġupper": 5090,
    "Ġrays": 10329,
    "ander": 6401,
    "Ø": 153,
    "Ġdiscreet": 16480,
    "Ġloudly": 7312,
    "Ġcomposedly": 25183,
    "rushed": 10583,
    "Ġanimals": 8977,
    "Ġthreads": 13115,
    "owders": 18047,
    "alarm": 15623,
    "beware": 16036,
    "Ġcompanionship": 14918,
    "Ġvirginia": 13498,
    "estruct": 22219,
    "ivil": 6411,
    "Ġduchess": 4799,
    "Ġgunwale": 7325,
    "Ġbeh": 1802,
    "Ġwhirlp": 16962,
    "dorff": 15235,
    "Ġcompleted": 8996,
    "maritime": 24172,
    "Ġspitz": 14147,
    "Ġdistur": 5312,
    "distinct": 13333,
    "Ġsummits": 14682,
    "Ġantichronical": 26608,
    "Ġmodified": 14169,
    "oubted": 5859,
    "Ġshun": 11706,
    "Ġintensely": 17016,
    "Ġclutch": 15052,
    "Ġhoisted": 5960,
    "cousin": 10651,
    "Ġmutable": 23952,
    "Ġwhitting": 18055,
    "Ġcomplement": 23708,
    "hel": 4814,
    "Ġsatir": 18795,
    "Ġdoctor": 5067,
    "Ġmil": 4254,
    "lamp": 9607,
    "Ġhandsomer": 20332,
    "Ġpitching": 16610,
    "irene": 15913,
    "Ġrad": 4962,
    "ictions": 14224,
    "Ġnarrations": 24351,
    "Ġwalled": 15532,
    "instinct": 19542,
    "offended": 16394,
    "windlass": 16720,
    "rosings": 15640,
    "solely": 19815,
    "Ġmatted": 22911,
    "Ġwelfare": 12555,
    "Ġhailed": 6407,
    "icions": 21561,
    "hands": 5967,
    "witted": 17706,
    "county": 25396,
    "Ġrese": 2309,
    "Ġgardiners": 11155,
    "Ġlaid": 3940,
    "Ġofficious": 19346,
    "Ġpartial": 2127,
    "Ġrolling": 5975,
    "Ġbloodthirst": 23799,
    "Ġreven": 18028,
    "bushes": 24446,
    "Ġbelike": 18830,
    "Ġpiteous": 17917,
    "Ġvol": 4190,
    "Ġregret": 5560,
    "Ġseldom": 4628,
    "ending": 1991,
    "Ġdemands": 19642,
    "gies": 13724,
    "Ġsocket": 12784,
    "beef": 18520,
    "Ġacts": 2290,
    "Ġjokes": 18408,
    "Ġicebergs": 23972,
    "iest": 4037,
    "Ġhimself": 1351,
    "sent": 761,
    "ackled": 22419,
    "rugged": 6849,
    "mblings": 19779,
    "Ġremorse": 6441,
    "Ġsurpassed": 25267,
    "ozy": 17621,
    "Ġvindictiveness": 25738,
    "Ġgordon": 26466,
    "overspreading": 26139,
    "Ġpropontis": 17464,
    "Ġlonging": 14297,
    "otted": 14022,
    "Ġpout": 17906,
    "Ġcem": 17823,
    "Ġfluffy": 19362,
    "Ġprincely": 24147,
    "Ġgeor": 3387,
    ".âĢĿ": 464,
    "Ġsell": 7826,
    "ouder": 17900,
    "shoulder": 16582,
    "ode": 1454,
    "Ġsocially": 22079,
    "baden": 25615,
    "Ġward": 10154,
    "erated": 21269,
    "Ġmended": 21312,
    "ulnerable": 18150,
    "Ġscal": 1517,
    "flex": 24843,
    "Ġbutler": 18270,
    "Ġmatrices": 4969,
    "Ġperusal": 14223,
    "adders": 24399,
    "jack": 7344,
    "stays": 15684,
    "Ġoccupations": 9455,
    "gossip": 23402,
    "atmosphere": 21263,
    "Ġpertur": 12846,
    "presents": 18800,
    "Ġbuff": 9171,
    "Ġisinglass": 21800,
    "Ġcausing": 16355,
    "plate": 18199,
    "Ġtransp": 4770,
    "Ġd": 284,
    "Ġjabbering": 22301,
    "except": 5383,
    "Ġunrel": 14694,
    "Ġcleaning": 23179,
    "Ġobtru": 18675,
    "Ġado": 7627,
    "ove": 1742,
    "Ġde": 363,
    "accordingly": 19213,
    "Ġjam": 10949,
    "Ġbristol": 14378,
    "written": 7995,
    "Ġoutlandish": 12834,
    "Ġtypewriting": 16418,
    "Ġcustoms": 19651,
    "ersman": 11699,
    "Ġsof": 18280,
    "Ġredden": 15690,
    "Ġnut": 12642,
    "Ġspreading": 13376,
    "Ġgreatly": 5849,
    "Ġenglishmen": 19428,
    "Ġsi": 21211,
    "Ġrepay": 19081,
    "Ġexponential": 1056,
    "missing": 13216,
    "Ġimaginary": 11184,
    "Ġprophe": 13076,
    "Ġamateur": 22483,
    "Ġsultan": 15182,
    "orm": 425,
    "Ġwashing": 9703,
    "amped": 12030,
    "Ġavowal": 19413,
    "asc": 6386,
    "Ġwilderness": 14838,
    "Ġsideboard": 10384,
    "Ġbeatrix": 24203,
    "Ġstalk": 12693,
    "Ġbernard": 20683,
    "Ġincarn": 11811,
    "ppo": 18175,
    "ittarius": 22375,
    "kshire": 13744,
    "form": 497,
    "Ġ19": 6719,
    "Ġfeeble": 12281,
    "Ġjava": 12309,
    "Ġlandsman": 11348,
    "Ġsitting": 3606,
    "Ġcranes": 20381,
    "batt": 20777,
    "Ġflukes": 5266,
    "coal": 12021,
    "gy": 2096,
    "Ġgerman": 6141,
    "70": 17474,
    "Ġstrokes": 16768,
    "Ġcalmly": 7734,
    "semic": 21819,
    "Ġunaccountably": 26514,
    "Ġesteemed": 10587,
    "Ġmarsh": 9819,
    "mews": 22711,
    "Ġintelligence": 557,
    "Ġtrue": 1340,
    "sen": 21048,
    "oration": 2209,
    "kindness": 10504,
    "sax": 21055,
    "Ġgrapple": 25811,
    "Ġquarto": 17294,
    "rolled": 9058,
    "Ġstudied": 11113,
    "beaten": 20314,
    "riage": 2122,
    "attachment": 13048,
    "contrary": 23727,
    "Ġdiligently": 11403,
    "Ġ48": 24079,
    "Ġinformed": 6717,
    "Ġadmitting": 19183,
    "Ġsixth": 16558,
    "remed": 18952,
    "Ġlatter": 3991,
    "Ġdeployment": 11189,
    "attering": 7419,
    "Ġcontains": 2794,
    "witness": 10033,
    "Ġere": 3686,
    "Ġhark": 8428,
    "Ġreluctant": 20523,
    "Ġacknowledge": 13400,
    "soc": 5175,
    "Ġsometimes": 2165,
    "chiefly": 14844,
    "ushes": 22289,
    "Ġsurmise": 12292,
    "Ġcronies": 23441,
    "Ġempt": 5051,
    "Ġthreaten": 24373,
    "dangerous": 20239,
    "fo": 5278,
    "Ġwholly": 4446,
    "Ġgratify": 19501,
    "Ġpolice": 4673,
    "ect": 381,
    "Ġprimitive": 25061,
    "Ġpoem": 22587,
    "Ġbordered": 24562,
    "Ġsouls": 6308,
    "promontory": 24728,
    "Ġherd": 7889,
    "onah": 3335,
    "heading": 5487,
    "Ġarchbishop": 18721,
    "Ġnecess": 3475,
    "mystical": 25317,
    "india": 22369,
    "Ġmarchant": 14783,
    "i": 77,
    "Ġchanged": 5242,
    "Ġhelping": 3264,
    "Ġ3": 3986,
    "ras": 21035,
    "ropes": 7904,
    "Ġstrand": 11825,
    "gus": 13723,
    "iments": 4945,
    "Ġtribe": 10750,
    "Ġcomical": 11676,
    "Ġclinging": 10290,
    "Ġreap": 18026,
    "Ġspark": 6689,
    "likewise": 13103,
    "Ġcommunication": 1873,
    "nur": 11503,
    "pigs": 17139,
    "orrow": 2920,
    "Ġexord": 21825,
    "injured": 15130,
    "unavoid": 14060,
    "used": 3257,
    "Ġborrow": 10169,
    "Ġclient": 5555,
    "itters": 10780,
    "Ą": 197,
    "Ġfacet": 15581,
    "urer": 18121,
    "Ġax": 7823,
    "Ġlocal": 1199,
    "meal": 22710,
    "ady": 996,
    "absolutely": 10644,
    "Ġshuddered": 11298,
    "Ġsingularly": 12145,
    "dington": 11898,
    "Ġhorizont": 6937,
    "Ġarduous": 26530,
    "vain": 15445,
    "Ġdisplays": 19856,
    "housekeeper": 24100,
    "Ġinto": 646,
    "cabin": 8363,
    "Ġshiny": 14104,
    "Ġfluttered": 16247,
    "Ġhospitals": 24923,
    "dirty": 20833,
    "Ġlurked": 11289,
    "marching": 25752,
    "taste": 10128,
    "expectant": 24274,
    "Ġdiscomposure": 20377,
    "Ġhabitual": 24790,
    "Ġsuspecting": 14908,
    "isting": 5550,
    "feared": 11799,
    "aned": 5147,
    "should": 3259,
    "include": 23588,
    "dra": 3412,
    "ch": 321,
    "Ġseize": 8166,
    "Ġsangu": 15502,
    "Ġain": 6969,
    "alleging": 23022,
    "Ġprematurely": 24003,
    "all": 485,
    "hap": 17558,
    "Ġhopelessly": 16373,
    "Ġhorseback": 14848,
    "attended": 8951,
    "bethinking": 25745,
    "pour": 17629,
    "Ġjagged": 18407,
    "Ġsecrecy": 7316,
    "Ġdecreasing": 2448,
    "tps": 11532,
    "Ġcountryside": 23595,
    "ulties": 12897,
    "maybe": 23988,
    "Ġlies": 5295,
    "Ġcolony": 18764,
    "aulding": 11337,
    "Ġ81": 24456,
    "Ġhugh": 15003,
    "Ġsands": 14946,
    "Ġstar": 6023,
    "Ġstri": 2806,
    "Ġdrowsiness": 26444,
    "Ġinscriptions": 20007,
    "abern": 21787,
    "prit": 19340,
    "Ġdeep": 797,
    "Ġpermission": 9277,
    "Ġexceed": 1345,
    "Ġleaf": 15719,
    "Ġtightly": 13532,
    "Ġlaw": 3655,
    "Ġtutored": 20126,
    "Ġshoals": 13131,
    "dire": 15334,
    "Ġaudio": 24772,
    "Ġscratches": 22284,
    "pard": 9617,
    "sink": 11519,
    "Ġinduce": 7763,
    "Ġelig": 9776,
    "Ġamaz": 5385,
    "Ġshook": 4467,
    "Ġwhispers": 14698,
    "Ġpractically": 13100,
    "crossed": 16631,
    "Ġdwell": 5812,
    "Ġsorrowful": 10535,
    "Ġher": 426,
    "msman": 9268,
    "complaisance": 24811,
    "Ġback": 825,
    "apers": 3481,
    "Ġfritters": 23256,
    "Ġsnatches": 16543,
    "Ġdefend": 9338,
    "Ġamount": 8511,
    "Ġscot": 5643,
    "Ġeu": 6390,
    "Ġcul": 17822,
    "hair": 9121,
    "Ġridicule": 13510,
    "Ġpagan": 7117,
    "presence": 18494,
    "attentions": 13572,
    "Ġheiress": 20696,
    "Ġencourag": 1392,
    "ill": 447,
    "every": 2814,
    "trouble": 8296,
    "urpation": 16298,
    "Ġcogn": 11000,
    "er": 269,
    "Ġindoors": 18836,
    "Ġobjectionable": 16990,
    "Ġmask": 1869,
    "Ġstruck": 3389,
    "Ġmaxim": 3084,
    "fitted": 17543,
    "disappeared": 14569,
    "pleasures": 24043,
    "mil": 13750,
    "preading": 18495,
    "?": 35,
    "Ġlamps": 14789,
    "Ġenric": 21932,
    "developed": 15262,
    "Ġconcepts": 4549,
    "Ġconstable": 19070,
    "Ġlangu": 575,
    "determined": 9078,
    "Ġsphynx": 20711,
    "Ġsculpture": 26016,
    "Ġhovel": 8254,
    "Ġnewsp": 9337,
    "atically": 2527,
    "consciousness": 13363,
    "Ġstrata": 26027,
    "his": 1410,
    "Ġgross": 11622,
    "Ġrecollections": 10511,
    "Ġpittance": 15613,
    "Ġbunger": 9994,
    "Ġdit": 21419,
    "Ġdiscomp": 11863,
    "Ġmanagement": 8193,
    "ffy": 18318,
    "paddington": 20476,
    "Ġmoving": 1680,
    "ribut": 814,
    "brous": 19199,
    "pane": 10119,
    "Ġharder": 14447,
    "Ġimmediate": 6090,
    "Ġtarpaulin": 26157,
    "Ġfabulous": 25948,
    "looking": 4034,
    "wherefore": 19108,
    "aug": 1212,
    "Ġjust": 1238,
    "Ġtickled": 20055,
    "Ġboxed": 24359,
    "Ġpublic": 4331,
    "crucible": 24842,
    "gracechurch": 24580,
    "Ġmorocc": 22970,
    "iliating": 12691,
    "Ġgrasped": 8034,
    "finally": 9497,
    "loom": 18535,
    "Ġportly": 14677,
    "but": 593,
    "ront": 15416,
    "Ġstructured": 2976,
    "N": 50,
    "kick": 20935,
    "Ġcostly": 23583,
    "pointed": 9806,
    "Ġdeficiency": 14401,
    "fortunately": 9448,
    "Ġreced": 15688,
    "bottle": 20144,
    "Ġapproached": 5843,
    "Ġpreparing": 8647,
    "ely": 623,
    "Ġomit": 17815,
    "Ġwheeled": 14137,
    "already": 6980,
    "Ġcommendation": 13608,
    "too": 4506,
    "spin": 22732,
    "Ġfair": 2841,
    "Ġhisself": 21912,
    "hated": 17560,
    "Ġviolation": 23404,
    "Ġsubterranean": 13609,
    "lashed": 20953,
    "Ġancles": 21445,
    "Ġdependent": 14296,
    "cigar": 26124,
    "bold": 17486,
    "Ġdepressed": 10880,
    "Ġcont": 621,
    "Ġsculpt": 15943,
    "win": 6801,
    "description": 11092,
    "Ġwrapped": 8342,
    "ap": 547,
    "Ġtimidly": 11336,
    "useless": 14594,
    "ancy": 4392,
    "Ġmainland": 22647,
    "edy": 2862,
    "becomes": 22494,
    "Ġresidual": 1681,
    "england": 18928,
    "Ġboast": 7034,
    "binnacle": 20786,
    "Ġdrugged": 12598,
    "vult": 21112,
    "Ġwindings": 18909,
    "Ġmortal": 4680,
    "Ġxlix": 25860,
    "iforn": 14062,
    "ek": 1909,
    "Ġhealthful": 24055,
    "akers": 9738,
    "Ġpleases": 16295,
    "Ġsl": 1495,
    "Ġreasoner": 14436,
    "Ġsteersman": 13038,
    "Ġeasier": 11163,
    "Ġble": 5223,
    "owe": 15704,
    "Ġmonsters": 11073,
    "wrinkled": 16553,
    "cr": 4077,
    "vens": 21111,
    "Ġbitten": 21388,
    "Ġwearisome": 19794,
    "artificial": 971,
    "Ġrecurrent": 1804,
    "Ġlazy": 17049,
    "Ġharvest": 13413,
    "Ġcapric": 14574,
    "Ġtasted": 12525,
    "Ġdrily": 23537,
    "Ġdenied": 8999,
    "eliest": 14744,
    "Ġdifficulty": 5770,
    "Ġpreservative": 24630,
    "Ġgard": 2188,
    "uted": 7593,
    "Ġanecdote": 26354,
    "Ġslime": 23159,
    "say": 3985,
    "Ġwhelm": 25998,
    "when": 1594,
    "Ġruddy": 17124,
    "stre": 5451,
    "ĠĠĠĠĠĠĠĠĠĠĠĠĠĠĠĠĠĠĠĠĠĠĠĠĠĠĠĠĠĠĠĠĠĠĠĠĠĠĠĠĠĠĠĠĠĠĠĠĠĠĠ": 20037,
    "strils": 10457,
    "animate": 12573,
    "pid": 1398,
    "Ġstraightway": 9015,
    "Ġmiller": 19882,
    "Ġarc": 14159,
    "Ġpath": 2113,
    "Ġutensils": 23512,
    "cess": 537,
    "conducted": 25572,
    "Ġworking": 5573,
    "itch": 10159,
    "abled": 12790,
    "Ġselected": 9709,
    "Ġgiants": 25960,
    "infl": 15485,
    "Ġplanisp": 24054,
    "Ġlets": 18076,
    "Ġgroups": 3719,
    "Ġusher": 22210,
    "Ġsentin": 16369,
    "Ġitems": 9690,
    "Ġmarshal": 20218,
    "Ġvocabulary": 4995,
    "Ġnewfoundland": 26568,
    "Ġassociated": 12246,
    "Ġstowing": 18071,
    "Ġpowers": 5419,
    "Ġchances": 9261,
    "Ġretention": 23069,
    "Ġeasily": 3890,
    "sa": 8756,
    "Ġunremitting": 26217,
    "Ġgarb": 21601,
    "sympathy": 20538,
    "arrang": 14651,
    "Ġgenerously": 22398,
    "Ġslopes": 18940,
    "ivers": 1985,
    "Ġunresting": 25553,
    "Ġoscillations": 2901,
    "batross": 9091,
    "Ġsaved": 6690,
    "Ġdinnertime": 16718,
    "fright": 9594,
    "Ġerudite": 26350,
    "Ġpict": 3498,
    "kin": 7131,
    "Ġcarav": 18901,
    "th": 408,
    "Ġstrategies": 1840,
    "Ġabomin": 8189,
    "ledge": 1330,
    "Ġcircumspect": 15082,
    "Ġnews": 3818,
    "Ġrule": 1533,
    "Ġpoles": 11001,
    "ggling": 19096,
    "Ġtissu": 25920,
    "Ġhoriz": 4725,
    "sprang": 19989,
    "isle": 13890,
    "matters": 14872,
    "georgiana": 26020,
    "\"": 6,
    "solute": 16597,
    "Ġbeside": 5192,
    "Ġmonogram": 26573,
    "Ġpreposter": 12818,
    "Ġproprietors": 20185,
    "Ġofficially": 24838,
    "oker": 10961,
    "Ġpenny": 16311,
    "Ġquaker": 10969,
    "years": 6883,
    "hooked": 23714,
    "Ġpre": 507,
    "Ġ54": 24321,
    "Ġpouring": 12620,
    "Ġcringing": 25941,
    "Ġearned": 19403,
    "Ġoccasions": 7988,
    "hered": 5622,
    "Ġcapture": 3383,
    "Ġsense": 3248,
    "Ġindies": 22949,
    "ernsey": 8900,
    "Ġhaunts": 18198,
    "said": 4106,
    "exagger": 22426,
    "clever": 20812,
    "Ġbars": 13895,
    "chains": 9683,
    "ethics": 8876,
    "don": 3543,
    "Ġpreprocessing": 26535,
    "Ġfloundering": 16249,
    "Ġindisc": 16225,
    "ellest": 21572,
    "thing": 1479,
    "Ġepicurean": 20554,
    "Ġknots": 15007,
    "ileries": 18058,
    "fif": 9115,
    "possess": 5984,
    "sprit": 11380,
    "stretch": 13974,
    "Ġcriminal": 7538,
    "Ġcaptain": 1605,
    "Ġinclude": 1877,
    "Ġhooks": 14966,
    "Ġtender": 5753,
    "obed": 14444,
    "denial": 18716,
    "Ġinns": 17929,
    "Ġfondness": 16779,
    "bel": 3834,
    "Ġconceited": 12087,
    "ansion": 10923,
    "part": 2577,
    "coarse": 16485,
    "ig": 323,
    "Ġwave": 7576,
    "Ġsidel": 9634,
    "attendants": 25495,
    "prove": 11145,
    "Ġpolitics": 19224,
    "rev": 17755,
    "handled": 19260,
    "Ġexactly": 2767,
    "oved": 5215,
    "acrity": 14277,
    "Ġguest": 7249,
    "Ġlone": 11610,
    "john": 11495,
    "cription": 20817,
    "mean": 6438,
    "Ġcarted": 21347,
    "Ġaccur": 3790,
    "impossible": 8822,
    "table": 5795,
    "Ġthoughtlessness": 16191,
    "Ġdepos": 11005,
    "elevating": 20404,
    "winds": 10520,
    "scor": 13012,
    "Ġearning": 23938,
    "Ġstones": 9220,
    "Ġundivided": 24119,
    "Ġdynamic": 5122,
    "Ġnod": 1890,
    "occurrences": 26331,
    "Ġsteady": 4847,
    "squall": 13520,
    "Ġwoes": 23983,
    "Ġstars": 6149,
    "Ġbefitting": 15722,
    "Ġmartin": 25436,
    "hering": 12810,
    "Ġplank": 7033,
    "aspect": 10192,
    "feit": 16039,
    "Ġgait": 13328,
    "Ġinit": 818,
    "greater": 13249,
    "Ġleagues": 9222,
    "prepare": 20211,
    "Ġpositive": 2292,
    "ods": 8834,
    "Ġgrammar": 1060,
    "civility": 17512,
    "Ġrueful": 25581,
    "Ġwhitish": 24866,
    "quered": 11051,
    "Ġrescued": 24205,
    "Ġ133": 24783,
    "chronicle": 26479,
    "Ġriver": 5411,
    "Ġrestrictions": 20634,
    "studied": 17148,
    "Ġminutes": 3003,
    "Ġunlocked": 14118,
    "untarily": 6312,
    ".--": 20745,
    "Ġbrother": 2748,
    "Ġdoct": 4454,
    "Ġmiseries": 10345,
    "Ġsufficiently": 8972,
    "direful": 25896,
    "fired": 20859,
    "Ġentities": 11861,
    "interchange": 23737,
    "then": 2054,
    "Ġunfeeling": 14117,
    "Ġreusable": 13555,
    "Ġscroll": 14190,
    "Ġfortunate": 6214,
    "Ġcontrivances": 12354,
    "Ġsw": 1355,
    "Ġboard": 3382,
    "Ġflushed": 13023,
    "Ġdiver": 2536,
    "Ġparliament": 18302,
    "Ġfoolishly": 19781,
    "educated": 17258,
    "isters": 11916,
    "atches": 13844,
    "\":": 9580,
    "Ġexordium": 26491,
    "Ġsuckling": 25997,
    "Ġ56": 24323,
    "Ġadult": 18291,
    "Ġinvisibly": 24817,
    "Ġimmemorial": 10509,
    "Ġinspect": 5964,
    "Ġsplinters": 15100,
    "Ġtiger": 11552,
    "uvier": 9067,
    "Ġmission": 13002,
    "Ġdelight": 2553,
    "ified": 3225,
    "Ġcur": 1263,
    "Ġtougher": 21175,
    "Ġsyllables": 25298,
    "Ġenthus": 7232,
    "Ġfemin": 13434,
    "bedstead": 23846,
    "Ġpersuade": 5872,
    "residence": 19262,
    "lab": 3456,
    "directed": 20403,
    "utral": 12659,
    "onom": 9157,
    "Ġthank": 3791,
    "Ġsplitting": 4381,
    "Ġstring": 11824,
    "Ġperiodical": 14770,
    "Ġexpress": 2194,
    "Ġmaintain": 857,
    "rebellum": 26165,
    "Ġakin": 15493,
    "Ġnour": 10829,
    "tied": 21069,
    "disc": 4728,
    "arted": 2202,
    "Ġruff": 14345,
    "Ġhish": 21911,
    "Ġthack": 21515,
    "Ġthereby": 7644,
    "Ġpresenting": 18988,
    "Ġbattered": 17862,
    "Ġvanishing": 1346,
    "fare": 7799,
    "Ġquartered": 20371,
    "Ġdiscovered": 4411,
    "Ġthrill": 24540,
    "zes": 11546,
    "races": 21628,
    "uge": 4018,
    "thread": 15823,
    "Ġcomrade": 12280,
    "Ġcommissionaire": 16999,
    "Ġvia": 2386,
    "Ġauthorities": 11262,
    "zy": 2672,
    "utely": 8132,
    "Ġlav": 13948,
    "Ġcop": 7580,
    "Ġcolour": 4460,
    "nose": 17609,
    "Ġdecaying": 2245,
    "10": 17471,
    "amy": 8467,
    "amidst": 25652,
    "flying": 13719,
    "Ġstables": 23653,
    ".*": 7331,
    "terms": 15747,
    "Ġturnpike": 23027,
    "dining": 13703,
    "below": 12118,
    "position": 15411,
    "Ġdeeper": 2084,
    "Ġunwelcome": 12776,
    "Ġstatement": 5254,
    "Ġslippers": 19614,
    "Ġwaking": 11567,
    "Ġgodson": 23357,
    "Ġhorrid": 7999,
    "Ġfruits": 17117,
    "persecutor": 26528,
    "Ġeveryone": 8916,
    "work": 1718,
    "ulated": 6030,
    "Ġdanced": 7843,
    "playing": 19656,
    "Ġeas": 2352,
    "infliction": 25924,
    "Ġvancou": 22875,
    "dragging": 16608,
    "Ġinexpressible": 17331,
    "windward": 24159,
    "effectually": 25128,
    "Ġroyals": 19531,
    "Ġrussian": 14346,
    "Ġcoding": 8116,
    "image": 9684,
    "Ġknows": 4160,
    "thereby": 14445,
    "Ġconsuming": 22791,
    "Ġlack": 17963,
    "Ġridges": 16730,
    "Ġgaped": 13965,
    "oregressive": 3423,
    "ahawk": 23315,
    "Ġconsternation": 9857,
    "Ġlocking": 18298,
    "algorithm": 3860,
    "ical": 752,
    "Ġgoblet": 25823,
    "due": 22408,
    "eli": 3873,
    "Ġthreats": 13375,
    "Ġghost": 6142,
    "rust": 2584,
    "Ġaston": 3702,
    "Ġrespectively": 23247,
    "foremost": 14251,
    "Ġtypewriter": 19097,
    "Ġflorid": 17134,
    "Ġfaster": 3195,
    "Ġrubber": 22782,
    "Ġdetermination": 9817,
    "ignorant": 13561,
    "Ġdescription": 7429,
    "Ġevermore": 18811,
    "Ġimplicated": 24875,
    "Ċ": 203,
    "Ġjiff": 22294,
    "Ġtep": 21160,
    "Ġtrophy": 20005,
    "Ġsighing": 18676,
    "smitten": 23906,
    "Ġrecognition": 2915,
    "Ġmaledictions": 26427,
    "haired": 14764,
    "Ġmowers": 17812,
    "inction": 6660,
    "Ġwholesome": 16003,
    "matic": 4617,
    "jonah": 11494,
    "Ġchief": 3380,
    "Ġdisappoint": 24204,
    "agre": 18164,
    "Ġinterlude": 16067,
    "Ġporpoise": 7106,
    "learning": 2502,
    "Ġaversion": 18865,
    "Ġprodigies": 19792,
    "Ġfireplace": 13143,
    "Ġhey": 11639,
    "expanded": 23661,
    "Ġlory": 12648,
    "Ġware": 12550,
    "throwing": 11700,
    "Ġminimax": 5858,
    "Ġembal": 11905,
    "Ġ127": 24471,
    "comparatively": 25839,
    "Ġcard": 7363,
    "later": 20952,
    "Ġsle": 2016,
    "Ġvessel": 3798,
    "scrape": 25698,
    "requiem": 24856,
    "Ġtremulous": 14984,
    "Ġtortoise": 16907,
    "firm": 10697,
    "ationally": 15701,
    "Ġquant": 6424,
    "liest": 6294,
    "Ġgreatness": 12939,
    "humored": 19451,
    "Ġapproaching": 6284,
    "_,": 2801,
    "venge": 4657,
    "Ġsymbol": 7717,
    "Ġpyramid": 8800,
    "Ġmaelstrom": 19354,
    "tery": 14035,
    "favourite": 15141,
    "Ġevenness": 22831,
    "irresist": 21910,
    "ously": 2494,
    "ingu": 2118,
    "Ġcathedral": 17411,
    "Ġadd": 629,
    "Ġtwink": 8216,
    "Ġstrenuously": 17446,
    "hab": 1076,
    "Ġstagger": 10590,
    "Ġsharply": 9401,
    "Ġpsalmody": 20583,
    "Ġperseverance": 13595,
    "Ġobsequious": 17402,
    "ensibility": 22545,
    "Ġnursed": 16884,
    "Ġimmutable": 17356,
    "Ġplumage": 17296,
    "Ģ": 227,
    "Ġstillness": 12991,
    "Ġ21": 11197,
    "Ġbambooz": 26119,
    "Ġmagg": 18905,
    "Ġlabyrinth": 13677,
    "rights": 23671,
    "brace": 16941,
    "Ġcapabilities": 4375,
    "Ġembraced": 10004,
    "Ġplaced": 3443,
    "Ġdesertion": 24787,
    "Ġsteel": 3888,
    "Ġenhance": 3365,
    "sinking": 17667,
    "Ġbrows": 13298,
    "ign": 1703,
    "Ġcrouching": 23442,
    "Ġdiameter": 19866,
    "scuttle": 11908,
    "Ġprometheus": 15290,
    "Ġbeget": 9224,
    "pl": 401,
    "Ġmodern": 3208,
    "blasted": 20188,
    "Ġopenness": 18956,
    "Ġjob": 7015,
    "Ġrokovoko": 22403,
    "Ġcups": 16881,
    "Ġprinc": 4201,
    "Ġcomprehending": 24444,
    "Ġbodily": 6106,
    "\",": 10677,
    "agitation": 14066,
    "hatches": 19927,
    "Ġgid": 13960,
    "time": 3144,
    "arse": 7160,
    "gra": 769,
    "Ġbarbaric": 10012,
    "Ġlens": 8438,
    "unning": 4492,
    "grat": 5052,
    "Ġsinking": 7307,
    "Ġoverjoy": 15966,
    "Ġshine": 12762,
    "Ġ82": 24457,
    "Ġvii": 13106,
    "Ġglimp": 6066,
    "Ġhansom": 13662,
    "Ġrustic": 14963,
    "him": 1939,
    "Ġopposition": 16518,
    "Ġpreserved": 9260,
    "ham": 1702,
    "Ġmodest": 15918,
    "Ġsells": 21222,
    "Ġgretna": 26467,
    "water": 4868,
    "Ġcongregation": 12326,
    "ĠâĢĺ_": 11115,
    "Ġvehicles": 10658,
    "Ġwriting": 4666,
    "Ġconveying": 19713,
    "Ġnapkins": 25161,
    "comb": 11034,
    "Ġglue": 15670,
    "Ġeduc": 4785,
    "Ġwhistles": 24625,
    "Ġtwitching": 25683,
    "Ġdirecting": 16297,
    "Ġbast": 21377,
    "exceeded": 25001,
    "Ġgeorgia": 23884,
    "mystic": 25316,
    "principle": 10649,
    "Ġsettling": 11060,
    "Ġdrowned": 9550,
    "Ġuttered": 7280,
    "successively": 24779,
    "Ġawaiting": 11388,
    "Ġunrecorded": 17466,
    "Ġswallow": 8949,
    "uy": 21098,
    "Ġremainder": 9856,
    "vac": 15448,
    "Ġprocesses": 3634,
    "Ġcontest": 18473,
    "Ġnice": 6676,
    "soled": 14328,
    "Ġresiding": 16057,
    "Ġo": 275,
    "loved": 14249,
    "Ġinterval": 4054,
    "Ġrather": 1493,
    "folding": 24927,
    "outside": 12800,
    "Ġcontradict": 12382,
    "Ġabraham": 18395,
    "Ġrevealing": 3924,
    "university": 25983,
    "jaw": 13741,
    "crier": 20819,
    "Ġgazed": 6478,
    "accessible": 13637,
    "Ġyourselves": 9027,
    "puzz": 17639,
    "opportunity": 12271,
    "Ġmock": 3692,
    "Ġquivered": 18467,
    "Ġbelonged": 6922,
    "them": 3021,
    "Ġnostrils": 10941,
    "stolidity": 21655,
    "late": 11496,
    "Ġincrust": 22548,
    "ened": 1388,
    "ants": 1390,
    "Ġinfant": 11956,
    "À": 129,
    "luyt": 18459,
    "Ġdeal": 3609,
    "pure": 17625,
    "ued": 7562,
    "smeer": 26147,
    "Ġlazarus": 15027,
    "Ġclouds": 5775,
    "see": 3047,
    "Ġresentment": 7531,
    "Ġshut": 3941,
    "Ġbristles": 25843,
    "Ġcontemptible": 16952,
    "nlp": 8750,
    "Ġopening": 5045,
    "Ġalternative": 19985,
    "gg": 1997,
    "Ġdeath": 2044,
    "Ġdisputing": 25824,
    "bidden": 19735,
    "edged": 15627,
    "pow": 10716,
    "home": 7341,
    "virtue": 20568,
    "Ġfirmest": 16663,
    "Ġtraditions": 11441,
    "Ġensu": 7876,
    "ushion": 14718,
    "lessness": 5317,
    "surf": 24211,
    "wild": 8766,
    "Ġallusions": 10904,
    "bergen": 14324,
    "Ġobliv": 16130,
    "pride": 11208,
    "Ġinferiority": 17114,
    "Ġrushed": 4090,
    "Ġapprehended": 26091,
    "Ġtrim": 15971,
    "Ġatonement": 21940,
    "Ġgpt": 4349,
    "decease": 25557,
    "Ġgabriel": 7596,
    "Ġamounts": 6704,
    "Ġunkindness": 22040,
    "Ġwraps": 19775,
    "Ġrejoice": 10207,
    "iation": 7343,
    "oked": 4307,
    "geons": 15976,
    "isms": 12576,
    "Ġyarman": 12701,
    "Ġworaciousness": 22927,
    "Ġdest": 2236,
    "Ġidentifies": 12011,
    "concl": 12864,
    "Ġexploring": 4304,
    "Ġcro": 4873,
    "at": 268,
    "Ġsubsequent": 7659,
    "estab": 14168,
    "Ġneglig": 18878,
    "adventurous": 25361,
    "cked": 2762,
    "Ġhearses": 20058,
    "ighted": 8476,
    "mel": 9126,
    "seas": 14031,
    "Ġantip": 24176,
    "Ġidly": 16402,
    "Ġstren": 15716,
    "Ġabandoned": 8352,
    "gunpowder": 25339,
    "Ġ114": 24437,
    "Ġspiteful": 19521,
    "exception": 9974,
    "Ġtransient": 18503,
    "Ġestimable": 23869,
    "lessly": 4554,
    "Ġwhaleman": 4653,
    "Ġwrest": 11568,
    "Ġfigures": 8629,
    "azine": 19130,
    "Ġsickening": 19603,
    "ositories": 22262,
    "supervised": 1943,
    "embedding": 20703,
    "Ġhookah": 16969,
    "istic": 974,
    "Ġadmission": 23554,
    "Ġmoustache": 20482,
    "Ġviolates": 3162,
    "into": 3681,
    "Ġequilibrium": 4141,
    "Ġghostly": 24650,
    "operations": 19973,
    "Ġbore": 5079,
    "Ġsabbee": 17254,
    "Ġbrightness": 16575,
    "Ġleague": 6538,
    "Ġtattooings": 24900,
    "unwho": 21875,
    "Ġmoluccas": 25629,
    "Ġhabit": 6771,
    "Ġslouched": 13055,
    "anite": 17837,
    "aurus": 20559,
    "Ġsuspense": 9416,
    "Ġapex": 24341,
    "Ġfejee": 18354,
    "allions": 22196,
    "Ġinherit": 25352,
    "Ġbordeaux": 24563,
    "apes": 9739,
    "Ġheavens": 5050,
    "Ġmassa": 19452,
    "Ġboisterously": 25682,
    "Ġobstinate": 11334,
    "Ġrepresenting": 4062,
    "Ġbeaks": 21753,
    "Ġlaughed": 5059,
    "merely": 16131,
    "Ġopportunities": 19248,
    "âĢĻ!âĢĿ": 18167,
    "ittance": 12841,
    "Ġmantel": 11437,
    "Ġindomitableness": 26570,
    "Ġsharpen": 13567,
    "Ġconfid": 7688,
    "Ġshone": 7404,
    "Ġconcussion": 26300,
    "activation": 3229,
    "Ġweapons": 10592,
    "Ġhere": 1086,
    "wrong": 13204,
    "Ġunheard": 22023,
    "Ġcostume": 16494,
    "Ġunbending": 25464,
    "oa": 9611,
    "Ġemblaz": 16237,
    "Ġinser": 6820,
    "Ġsymphony": 26531,
    "Ġardent": 9968,
    "quit": 15758,
    "Ġroar": 9750,
    "Ġsow": 17748,
    "Ġwed": 3961,
    "nevertheless": 8286,
    "throughout": 24085,
    "bull": 13688,
    "Ġswept": 7977,
    "Ġannihil": 10173,
    "Ġhail": 7400,
    "Ġemigrant": 25859,
    "Ġquestionable": 19265,
    "Ġspool": 24806,
    "Ġreadiness": 13046,
    "bildad": 9585,
    "bound": 6220,
    "Ġhatter": 4114,
    "Ġlayer": 1012,
    "Ġlin": 10832,
    "spears": 23939,
    "Ġobserve": 4669,
    "Ġfrigates": 25707,
    "endurable": 22226,
    "Ġbordering": 17227,
    "distressed": 24198,
    "Ġhushed": 13923,
    "Ġsgd": 3127,
    "Ġtumbling": 13824,
    "ising": 2252,
    "Ġsample": 3174,
    "Ġdonkey": 23226,
    "Ġmontan": 22976,
    "Ġattitudes": 16093,
    "Ġsmallest": 6430,
    "reeable": 3613,
    "Ġcourage": 4632,
    "<UNK>": 3,
    "Ġheroines": 19750,
    "Ġpear": 11849,
    "Ġiron": 3233,
    "appe": 2948,
    "Ġweights": 897,
    "Ġmovements": 24358,
    "Ġstark": 7390,
    "Ġsilently": 6894,
    "antee": 22095,
    "Ġslow": 2383,
    "Ġextinction": 14336,
    "Ġlifeless": 8947,
    "cre": 4250,
    "Ġkindly": 6078,
    "remarks": 23187,
    "Ġboats": 2642,
    "unhappy": 10236,
    "Ġmaximizing": 3166,
    "wic": 21119,
    "Ġseethings": 26502,
    "Ġsignificantly": 4517,
    "Ġclusters": 25232,
    "ma": 1152,
    "Ġsecretly": 13268,
    "decided": 13213,
    "Ġuniform": 2226,
    "produce": 20281,
    "Ġphysiogn": 12385,
    "Ġmidships": 23633,
    "Ġharm": 5017,
    "Ġsagacious": 14969,
    "july": 20473,
    "Ġregent": 18597,
    "involuntarily": 20413,
    "Ġeducated": 16784,
    "inked": 12909,
    "apidated": 22335,
    "dial": 20824,
    "neglect": 25667,
    "Ġ83": 24458,
    "Ġchiselled": 25559,
    "ato": 17768,
    "Ġlabor": 10417,
    "Ġducks": 25157,
    "Ġtackle": 9511,
    "Ġcondensed": 24049,
    "Ġvelvet": 12395,
    "Ġflourishing": 25187,
    "Ġmeddling": 24081,
    "Ġperhaps": 1913,
    "Ġhilariously": 25450,
    "Ġchace": 14177,
    "Ġremoval": 12114,
    "helm": 12168,
    "ą": 198,
    "Ġheave": 7600,
    "Ġover": 555,
    "Ġfearfully": 23509,
    "Ġbloodthirsty": 26600,
    "Ġordinary": 6097,
    "Ġbutton": 10266,
    "ashes": 6016,
    "https": 11682,
    "oric": 21394,
    "Ġcaval": 25769,
    "usoid": 4767,
    "destroy": 19509,
    "Ġlottery": 19887,
    "orum": 12586,
    "Ġdissimilar": 22529,
    "ellent": 3761,
    "Ġpresume": 8038,
    "Ġpunctually": 17137,
    "resh": 8404,
    "gment": 4389,
    "rub": 15890,
    "Ġevidently": 6759,
    "overs": 17620,
    "erland": 9639,
    "Ġrattler": 24997,
    "Ġfow": 6133,
    "Ġplague": 11821,
    "Ġpeeping": 16124,
    "esteemed": 26009,
    "whisper": 17082,
    "Ġmysteriously": 24602,
    "Ġsettlement": 19835,
    "Ġexplo": 2281,
    "istrate": 7406,
    "Ġrighteous": 18945,
    "Ġunallied": 22030,
    "Ġtram": 11090,
    "Ġhates": 21484,
    "inquiry": 15140,
    "you": 1005,
    "Ġdumbly": 24987,
    "Ġlabour": 7274,
    "Ġmourn": 8703,
    "ishness": 22340,
    "Ġexquisitely": 20201,
    "Ġigniting": 25070,
    "jury": 15371,
    "Ġreceipt": 20354,
    "Ġz": 999,
    "Ġstrengthen": 20699,
    "Ġstrike": 4855,
    "Ġinhale": 20299,
    "Ġloss": 823,
    "Ġcontinually": 5042,
    "Ġimplements": 2489,
    "until": 6596,
    "Ġanalogical": 25640,
    "Ġimperfectly": 25727,
    "Ġinstruction": 14342,
    "Ġmassacre": 20546,
    "hip": 8740,
    "ibule": 13003,
    "Ġtransparency": 10675,
    "omination": 21660,
    "Ġpained": 19166,
    "Ġperpendicular": 7209,
    "Ġmish": 15534,
    "Ġthames": 13936,
    "Ġdisconcerted": 18562,
    "Ġgaol": 19566,
    "Ġdoubly": 16386,
    "Ġcompassionate": 24723,
    "linen": 25257,
    "Ġindeed": 1683,
    "Ġfearlessness": 19160,
    "breathing": 25335,
    "inition": 11554,
    "ribes": 23365,
    "Ġcommodores": 25374,
    "Ġindividual": 5744,
    "designated": 26295,
    "Ġvictim": 6098,
    "Ġast": 2965,
    "speaks": 19718,
    "Ġsteered": 11091,
    "Ġst": 332,
    "lift": 15382,
    "crossing": 19409,
    "attacked": 23121,
    "Ġprofess": 3699,
    "windibank": 24160,
    "Ġbowl": 11202,
    "narr": 12493,
    "Ġsharpened": 17363,
    "Ġrover": 18454,
    "Ġsubstance": 5510,
    "Ġlate": 3376,
    "Ġblaming": 22928,
    "Ġdozing": 22241,
    "fifth": 20145,
    "Ġoldest": 12970,
    "Ġweapon": 7776,
    "itching": 21333,
    "plish": 18200,
    "Ġsoaked": 15858,
    "Ġder": 1496,
    "Ġamusements": 16912,
    "Ġcomparable": 24277,
    "Ġdowry": 20684,
    "âĢĻ,": 14068,
    "Ġklux": 22193,
    "opard": 9289,
    "skylight": 25623,
    "Ġslides": 18938,
    "impatience": 25500,
    "adel": 15725,
    "apping": 5851,
    "Ġecc": 11626,
    "darker": 24512,
    "mortar": 25408,
    "Ġdiscrimin": 2551,
    "Ġinformation": 1047,
    "Ġload": 14144,
    "Ġoutputs": 2889,
    "Ġlodges": 19498,
    "Ġunsatisfied": 22042,
    "thes": 7391,
    "Ġbulls": 23855,
    "Ġanimal": 2501,
    "Ġexter": 7397,
    "aways": 15308,
    "Ġgates": 10199,
    "Ġmachinery": 20483,
    "dances": 17520,
    "spending": 18690,
    "Ġworst": 7444,
    "Ġmizen": 17257,
    "Ġdart": 4584,
    "´": 117,
    "Ġugliness": 20425,
    "igan": 21697,
    "cool": 19188,
    "Ġcompanions": 5865,
    "Ġpeevish": 26556,
    "med": 1910,
    "glit": 23847,
    "Ġf": 283,
    "Ġalso": 1344,
    "Ġthreatened": 8330,
    "supplement": 14794,
    "Ġjudging": 16594,
    "lines": 6959,
    "Ġdraughts": 20220,
    "smote": 23907,
    "Ġslanting": 23170,
    "Ġcreativity": 3325,
    "sufferable": 12173,
    "Ġadvisable": 11440,
    "aternity": 21264,
    "ology": 1546,
    "Ġsprained": 15880,
    "Ġclanging": 18422,
    "particular": 5757,
    "Ġdated": 10936,
    "Ġenorm": 5302,
    "Ġslaught": 23165,
    "ount": 1112,
    "Ġspiced": 22131,
    "Ġremembrance": 8318,
    "Ġtide": 6658,
    "Ġinterior": 8893,
    "ria": 15795,
    "Ġthickness": 13274,
    "unt": 2045,
    "erval": 4021,
    "isis": 12575,
    "Ġtradesmen": 17104,
    "your": 1986,
    "Ġdispel": 16595,
    "oice": 1383,
    "little": 3350,
    "iple": 4806,
    "Ġmembrane": 20502,
    "eness": 2286,
    "ury": 3309,
    "Ġcrowder": 19454,
    "Ġmiguel": 25766,
    "ls": 1289,
    "?_": 8070,
    "Ġbass": 17855,
    "colnett": 19329,
    "Ġgidd": 25783,
    "Ġcalmer": 23042,
    "Ġobsole": 22698,
    "merit": 19280,
    "jumping": 20244,
    "Ġstudded": 18974,
    "·": 120,
    "Ġembellish": 25848,
    "Ġdurst": 20351,
    "Ġsteadfast": 8678,
    "ne": 643,
    "emph": 21924,
    "bbing": 6323,
    "Ġlastly": 16202,
    "Ġflog": 23622,
    "iger": 8446,
    "Ġreverie": 13455,
    "Ġpromptly": 23814,
    "using": 5468,
    "irements": 22211,
    "----âĢĿ": 13304,
    "awk": 23111,
    "ef": 5134,
    "Ġformula": 2868,
    "Ġcler": 11767,
    "Ġseek": 4507,
    "Ġsmiles": 6706,
    "Ġarrangements": 16513,
    "tempt": 21078,
    "Ġintent": 6409,
    "produced": 25414,
    "Ġfamiliarity": 16728,
    "inct": 3290,
    "Ġtranquill": 6630,
    "ho": 2861,
    "Ġconcerned": 5331,
    "besides": 8695,
    "Å": 134,
    "Ġgentlemanlike": 12063,
    "perfect": 7635,
    "ene": 2167,
    "fleece": 19946,
    "Ġthoughtful": 16189,
    "touched": 15437,
    "Ġacquitted": 18898,
    "niece": 20994,
    "Ġnor": 1552,
    "Ġcarpets": 18902,
    "romang": 22003,
    "Ġhairs": 13228,
    "Ġweep": 7620,
    "ference": 1884,
    "Ġcastaways": 19426,
    "bond": 17488,
    "keeping": 8634,
    "Ġ]": 15457,
    "Ġappearance": 3700,
    "esty": 4305,
    "Ġinvesting": 19645,
    "izes": 884,
    "carbuncle": 26381,
    "Ġig": 3499,
    "conspicuous": 26247,
    "Ġradiating": 24334,
    "Ġdouble": 4940,
    "gration": 9120,
    "Ġsteward": 6584,
    "Ġslumbers": 18941,
    "Ġhoof": 23352,
    "another": 5439,
    "Ġunjustifiable": 25109,
    "heedful": 20572,
    "Ġbloodless": 19338,
    "Ġbathe": 25443,
    "Ġhaggard": 17328,
    "ercely": 12546,
    "nephew": 26396,
    "Ġissued": 10598,
    "Ġcommotion": 9778,
    "attest": 23119,
    "Ġmuseum": 15269,
    "evil": 11483,
    "Ġcultivated": 17362,
    "Ġmuskets": 17056,
    "Ġmethinks": 10389,
    "Ġempire": 11143,
    "Ġexp": 779,
    "Ġfolios": 23018,
    "Ġpaddock": 25037,
    "!âĢĶ": 2458,
    "giving": 8738,
    "Ġcusack": 26432,
    "ter": 359,
    "Ġleaders": 16626,
    "uits": 21103,
    "ails": 6160,
    "âĢĺ": 940,
    "awful": 23112,
    "Ġshall": 1141,
    "Ġnarrative": 6215,
    "rist": 10121,
    "while": 2939,
    "Ġforegoing": 23448,
    "Ġdisinterested": 16053,
    "squee": 15428,
    "Ġdeduced": 12204,
    "examine": 25477,
    "unimportant": 18159,
    "Ġdeparted": 5563,
    "Ġrevolve": 19728,
    "Ġhan": 15614,
    "Ġsociety": 3978,
    "reported": 24492,
    "Ġberth": 8679,
    "Ġforced": 4351,
    "fav": 6646,
    "outs": 7008,
    "ledyard": 22389,
    "Ġstaple": 26198,
    "saying": 8640,
    "Ġpantheistic": 26335,
    "Ġmarvell": 7248,
    "Ġpivot": 13921,
    "Ġpetulance": 24226,
    "flaming": 23967,
    "insisted": 23065,
    "Ġflatt": 16245,
    "Ġjollies": 20368,
    "Ġnaturally": 2470,
    "Ġcreature": 2387,
    "Ġbeggar": 9347,
    "Ġbulwarks": 5591,
    "variety": 23184,
    "Ġseven": 4540,
    "Ġconsid": 1814,
    "?âĢĶ": 3467,
    "take": 4575,
    "Ġbringing": 5869,
    "Ġnevertheless": 5040,
    "Ġshipwrecked": 25687,
    "rapt": 13971,
    "Đ": 209,
    "Ġwhichever": 13998,
    "Ġrelics": 16193,
    "Ġwarden": 17223,
    "Ġupstairs": 5836,
    "Ġcanes": 22162,
    "Ġindistinctly": 26117,
    "Ġphrenolog": 12331,
    "Ġset": 1178,
    "Ġbands": 14882,
    "acious": 5561,
    "ument": 5239,
    "dislike": 23492,
    "Ġwhis": 3504,
    "regard": 7973,
    "oters": 21797,
    "helmsman": 24286,
    "stave": 21641,
    "ooped": 17622,
    "wet": 15450,
    "Ġimpreg": 15984,
    "Ġautoregressive": 3431,
    "Ġcetus": 19884,
    "Ġpinched": 17034,
    "Ġsupposed": 4556,
    "settled": 10505,
    "adm": 7609,
    "Ġabsurd": 7202,
    "ĠdÃ¦mon": 7845,
    "Ġraven": 16112,
    "acity": 5735,
    "enched": 10153,
    "Ĝ": 221,
    "Ġneskye": 21529,
    "Ġequin": 14494,
    "Ġtumbled": 13404,
    "Ġprone": 18969,
    "Ġrelinquish": 17345,
    "over": 1847,
    "Ġswims": 12116,
    "igned": 5656,
    "Ġpeeling": 22690,
    "Ġdisposed": 7083,
    "envelope": 17782,
    "Ġselling": 21223,
    "flight": 15350,
    "Ġprofile": 16486,
    "Ġaffirm": 11884,
    "Ġl": 303,
    "Ġconfined": 7465,
    "Ġtattoo": 7359,
    "Ġbed": 2142,
    "sequently": 14582,
    "mission": 5970,
    "Ġwashington": 17201,
    "Ġeffusions": 18542,
    "Ġtoler": 7589,
    "Ġmetropol": 11138,
    "thine": 15821,
    "he": 264,
    "Ġspiracle": 14148,
    "python": 4691,
    "Ġtig": 13811,
    "goldsmith": 20146,
    "<EOS>": 2,
    "Ġthunders": 15634,
    "onder": 3778,
    "amid": 12720,
    "Ġpips": 9846,
    "Ġsite": 17752,
    "Ġtemporal": 2618,
    "Ġtaurus": 21177,
    "royal": 11391,
    "escaped": 14228,
    "tains": 10959,
    "port": 10718,
    "Ġhundredth": 16516,
    "Ġstrongly": 5657,
    "Ġwine": 6810,
    "Ġhoarsely": 26302,
    "descend": 23083,
    "Ġsupreme": 13605,
    "counter": 20277,
    "Ġmenacing": 23105,
    ":--": 5784,
    "Ġalow": 18099,
    "Ġnavel": 24575,
    "Ġpred": 672,
    "sharp": 10304,
    "Ġswiss": 18882,
    "Ġerroneous": 17407,
    "arned": 21815,
    "hammock": 16351,
    "Ġsurf": 19131,
    "Ġdue": 3843,
    "Ġgreyish": 24207,
    "Ġclifford": 22351,
    "Ġwatch": 2743,
    "Ġplug": 17146,
    "Ġcloudless": 16667,
    "Ġcommunicative": 24547,
    "Ġcombing": 22856,
    "journey": 8744,
    "Ġrecital": 16136,
    "Ġperil": 5556,
    "oard": 4809,
    "oid": 3124,
    "Ġfumbled": 17881,
    "dec": 3110,
    "Ġsolutions": 1947,
    "Ġbab": 5289,
    "merc": 19279,
    "Ġcomposing": 16064,
    "Ġtale": 5142,
    "ced": 696,
    "Ġcuring": 21342,
    "record": 16920,
    "formity": 10277,
    "Ġpersuas": 23944,
    "trivial": 21091,
    "Ġexpressive": 8981,
    "Ġnominally": 17230,
    "Ġca": 21337,
    "Ġlabel": 14516,
    "Ġsuited": 12780,
    "Ġtarpaul": 17729,
    "lonely": 20956,
    "itely": 5365,
    "Ġgalvan": 21615,
    "Ġunavailing": 26215,
    "ĠĠĠĠĠĠĠĠĠĠĠĠĠĠĠĠĠĠĠĠĠĠĠĠĠĠĠĠĠĠĠĠĠĠĠĠĠĠĠĠĠĠĠĠĠĠĠĠĠĠĠĠĠĠĠĠĠĠĠĠ": 19259,
    "Ġwrithing": 11943,
    "ē": 212,
    "Ġelementary": 24814,
    "Ġslight": 3117,
    "Ġconcuss": 19046,
    "Ġcollection": 8223,
    "Ġ84": 19708,
    "Ġduring": 873,
    "Ġ27": 8614,
    "thole": 21984,
    "Ġthrusts": 24349,
    "Ġexist": 9230,
    "blunder": 24128,
    "Ġsuperstitious": 13518,
    "Ġbulkington": 14676,
    "Ġspotted": 12135,
    "Ġcollege": 11422,
    "Ġuns": 15833,
    "Ġtell": 1469,
    "vious": 1784,
    "Ġlong": 794,
    "wal": 10132,
    "Ġmingled": 12374,
    "Ġaccusations": 22387,
    "pres": 16024,
    "Ġdistant": 5387,
    "Ġshri": 5375,
    "Ġdents": 13909,
    "Ġconsistence": 23355,
    "Ġandes": 12637,
    "Ġhearing": 4761,
    "Ġbarren": 11204,
    "unities": 15767,
    "Ġwhy": 1758,
    "Ġunfrequent": 24108,
    "uncommonly": 25549,
    "inclined": 10638,
    "lose": 12878,
    "Ġdescending": 8901,
    "gentleman": 7519,
    "Ġhappy": 2469,
    "Ġstagnant": 24654,
    "inces": 13826,
    "Ġvelv": 10618,
    "Ġbehave": 23298,
    "Ġundone": 24116,
    "amiable": 14051,
    "spell": 22733,
    "Ġdirector": 18920,
    "Ġsummar": 3524,
    "Ġstriking": 6089,
    "weaving": 18666,
    "Ġashamed": 6403,
    "bred": 11467,
    "Ġcannot": 1669,
    "Ġabove": 2940,
    "Ġexperiences": 13026,
    "umbrance": 22116,
    "Ġborne": 6351,
    "supposed": 13313,
    "istle": 15867,
    "Ġturns": 4981,
    "swallow": 24256,
    "Ġnegatived": 23046,
    "Ġqueerest": 16412,
    "Ġconven": 6151,
    "guarded": 13292,
    "chosen": 21693,
    "Ġsubsiding": 23432,
    "Ġfetch": 7770,
    "Ġroutine": 13506,
    "Ġstories": 10863,
    "lascar": 20959,
    "classes": 12132,
    "=": 33,
    "Ġseated": 4539,
    "Ġreceptacle": 23190,
    "Ġsnuffed": 15070,
    "robber": 21535,
    "heat": 15495,
    "portuguese": 25413,
    "reated": 10301,
    "advance": 12153,
    "Ġjoker": 22296,
    "Ġunp": 12768,
    "Ġtobacc": 7853,
    "directly": 13707,
    "Ġ10": 5248,
    "Ġpricking": 23218,
    "Ġboneless": 19604,
    "Ġdisconnected": 22523,
    "Ġattic": 16092,
    "games": 20879,
    "¹": 122,
    "Ġvital": 9241,
    "Ġways": 5396,
    "taller": 26150,
    "Ġstreat": 15717,
    "Ġproclaim": 18130,
    "wled": 15452,
    "ate": 421,
    "iece": 3227,
    "ards": 2509,
    "Ġsatin": 12985,
    "detective": 24382,
    "buckets": 26123,
    "Ġindependently": 4246,
    "Ġhuge": 4699,
    "smith": 5669,
    "ual": 945,
    "amused": 21844,
    "idav": 18092,
    "Ġpoliceman": 15256,
    "ingale": 21298,
    "invincible": 25089,
    "Ġprince": 18972,
    "Ġgam": 11621,
    "Ġstaircase": 20094,
    "Ġjavelin": 26104,
    "Ġnervous": 2410,
    "returning": 12202,
    "desolate": 25703,
    "Ġunwound": 25169,
    "prepared": 13588,
    "Ġboundary": 11220,
    "Ġhellaswag": 24342,
    "Ġrevolved": 9982,
    "Ġhat": 2771,
    "ha": 3982,
    "humanity": 24839,
    "Ġconsideration": 5191,
    "Ġtrifled": 24674,
    "Ġgroan": 13322,
    "ĠĠĠĠĠĠĠĠĠĠĠĠĠĠĠĠĠĠĠĠĠĠĠĠĠĠĠĠĠĠĠĠĠĠĠĠĠĠĠĠĠĠĠĠĠĠĠĠĠĠĠĠĠ": 20038,
    "Ġlays": 15986,
    "Ġprom": 1524,
    "sign": 8388,
    "Ġhandkerchief": 8912,
    "Ġcut": 2646,
    "Ġpossibility": 7458,
    "Ġhumming": 12982,
    "ager": 6546,
    "million": 25751,
    "Ġfirmament": 19469,
    "gain": 8736,
    "Ġut": 2275,
    "Ġreplaced": 13069,
    "Ġnavy": 14914,
    "north": 14615,
    "passing": 14810,
    "Ġstrewed": 23420,
    "vag": 8764,
    "totally": 25417,
    "share": 14234,
    "acey": 7650,
    "Ġcrowds": 14737,
    "isco": 12577,
    "alle": 1292,
    "Ġturkish": 12258,
    "Ġedward": 19119,
    "------": 12130,
    "sweeping": 24619,
    "Ġinstructions": 11194,
    "Ġburgled": 23652,
    "je": 11493,
    "rine": 21036,
    "Ġabhorrent": 16855,
    "Ġcamp": 9163,
    "Ġindolent": 13001,
    "Ġdisco": 3427,
    "ingle": 1036,
    "Ġlicensing": 20091,
    "Ġtears": 4231,
    "Ġsystematically": 3946,
    "Ġalarming": 14777,
    "Ġimminent": 11242,
    "ientiously": 21939,
    "Ġloftiest": 16873,
    "apple": 22839,
    "Ġresent": 6049,
    "gging": 7698,
    "Ġattempt": 3486,
    "Ġadmirals": 20383,
    "prints": 23809,
    "Ġparac": 12791,
    "ling": 735,
    "vanished": 15061,
    "Ġii": 7384,
    "Ġentitled": 8538,
    "Ġsimultaneous": 22586,
    "Ġsurvey": 13591,
    "ĝ": 222,
    "Ġplun": 6281,
    "Ġcakes": 13882,
    "Ġcentre": 5123,
    "Ġinspecting": 24614,
    "Ġslewed": 23383,
    "Ġcompetition": 14265,
    "Ġheron": 22071,
    "Ġfighting": 12194,
    "Ġoverwhelm": 25052,
    "Ġshipw": 12975,
    "Ġoverdone": 22358,
    "pardon": 10063,
    "Ġro": 596,
    "ri": 391,
    "Ġapiece": 16812,
    "Ġincreasing": 8248,
    "Ġtill": 1825,
    "Ġabsurdly": 19958,
    "ultaneously": 4195,
    "ation": 320,
    "histor": 13489,
    "Ġwolves": 25934,
    "books": 8663,
    "Ġsqueeze": 10037,
    "Ġost": 9648,
    "ingham": 21299,
    "Ġforgery": 25977,
    "bun": 12435,
    "Ġinterrupting": 19556,
    "ino": 15477,
    "Ġextremity": 8987,
    "itche": 7579,
    "Ġloaf": 15869,
    "Ġplayful": 19236,
    "alone": 10182,
    "Ġintelligences": 12826,
    "Ġundisturbed": 19518,
    "mitting": 17601,
    "Ġwindpipe": 23103,
    "Ġfolly": 7941,
    "Ġvalleys": 14917,
    "knowing": 10436,
    "Ġthirty": 4944,
    "Ġannesley": 19576,
    "Ă": 195,
    "Ġnic": 7376,
    "aker": 3663,
    "Ġaffright": 9330,
    "Ġweigh": 10892,
    "Ġexult": 10228,
    "drawers": 19384,
    "Ġincoherent": 17398,
    "questioning": 16849,
    "lad": 5992,
    "Ġeagerly": 4990,
    "promised": 12248,
    "Ġsatisfying": 23696,
    "Ġcomprehens": 8320,
    "downward": 16618,
    "Ġoctober": 17225,
    "Ġresigned": 9766,
    "Ġstubborn": 10415,
    "Ġbarbs": 10530,
    "wn": 720,
    "Ġtragedies": 25241,
    "illating": 22105,
    "fol": 4862,
    "bones": 8372,
    "Ġbreaches": 14520,
    "Ġbubble": 13533,
    "Ġreigning": 15697,
    "unwillingly": 21882,
    "grinder": 23413,
    "Ġsmothe": 18573,
    "Ġevince": 24292,
    "Ġnightfall": 23130,
    "Ġinsomuch": 23679,
    "Ġwilliam": 3482,
    "Ġoperation": 11995,
    "anx": 8782,
    "Ġinseparable": 20687,
    "Ġrom": 4523,
    "rivial": 9432,
    "Ġgroom": 13964,
    "reng": 4004,
    "claims": 25319,
    "heartily": 24214,
    "spring": 7231,
    "Ġret": 1380,
    "Ġpassers": 18756,
    "Ġshaping": 22001,
    "Ġnon": 1629,
    "Ġcaut": 6521,
    "Ġlitter": 19828,
    "Ġextort": 22746,
    "wag": 21122,
    "Ġlangs": 13952,
    "Ġexperiment": 11917,
    "Ġhousings": 21491,
    "Ġenergy": 2557,
    "scene": 14417,
    "Ġgene": 15668,
    "Ġunfulfilled": 26508,
    "idol": 21764,
    "Ġspecies": 5112,
    "slipping": 25528,
    "Ġsigned": 11175,
    "ial": 409,
    "Ġshears": 18319,
    "Ġmott": 17803,
    "Ġflo": 2592,
    "acled": 16078,
    "Ġsaint": 15505,
    "alogue": 25159,
    "Ġindic": 2890,
    "ock": 15400,
    "magnifying": 25392,
    "Ġberry": 19745,
    "Ġsurging": 19133,
    "Ġsuperseded": 26223,
    "Ġdangerous": 6612,
    "stands": 22433,
    "greenland": 10019,
    "gaining": 20122,
    "ken": 2803,
    "Ġtawny": 20480,
    "Ġdrive": 5055,
    "bour": 2073,
    "12": 20748,
    "Ġvigorous": 10565,
    "Ġtriumphal": 24370,
    "Ġenclosure": 20622,
    "Ġliberally": 16829,
    "du": 605,
    "Ġincant": 18568,
    "Ġfleetness": 20178,
    "Ġperfection": 19218,
    "gale": 13722,
    "influences": 25250,
    "Ġdisappearance": 9295,
    "Ġbliss": 12997,
    "Ġspectacles": 12094,
    "male": 15386,
    "Ġcreep": 22722,
    "Ġmyth": 18220,
    "declare": 25173,
    "arks": 2848,
    "hideous": 25407,
    "Ġdoubtless": 6195,
    "Ġhoofs": 14526,
    "Ġblight": 18817,
    "ges": 2877,
    "Ġconceit": 7295,
    "Ġtierce": 15476,
    "Ġankers": 21444,
    "Ġsun": 1719,
    "early": 20117,
    "oky": 8198,
    "Ġstudies": 7956,
    "adier": 18089,
    "Ġsubmit": 11867,
    "Ġtrembled": 8701,
    "Ġusage": 9728,
    "congratulations": 20278,
    "Ġmeek": 21807,
    "Ġreject": 7386,
    "Ġtriangular": 14857,
    "nurse": 15206,
    "served": 5043,
    "shop": 14235,
    "inity": 5693,
    "Ġconsp": 10223,
    "Ò": 147,
    "repeat": 25151,
    "Ġ128": 24472,
    "Ġentranced": 25833,
    "Ġspending": 10921,
    "Ġschoolmasters": 19719,
    "camp": 15328,
    "philips": 20033,
    "Ġbashee": 19848,
    "Ġhunt": 6183,
    "thanking": 24329,
    "Ġobjections": 8564,
    "allah": 5838,
    "Ġahead": 6662,
    "throne": 25657,
    "folly": 20861,
    "Ġcab": 2638,
    "Ġintensified": 17017,
    "Ġfeasible": 22209,
    "Ġbulldog": 23856,
    "Ġunwillingly": 15845,
    "deliver": 19503,
    "scattered": 22990,
    "grant": 10426,
    "kinson": 10024,
    "Ġmaw": 15536,
    "Ġclouded": 13288,
    "Ġgrant": 11870,
    "Ġbreckinridge": 14522,
    "Ġprojecting": 9983,
    "Ġsty": 6251,
    "Ġquality": 3527,
    "Ġriv": 10745,
    "Ġfinger": 5273,
    "riend": 1186,
    "Ġhot": 4257,
    "Ġvehic": 8932,
    "tal": 17669,
    "Ġtour": 9146,
    "Ġundergo": 23237,
    "went": 6512,
    "nursery": 26398,
    "iverer": 11713,
    "Ġprejudice": 9074,
    "still": 4220,
    "Ġnetwork": 451,
    "Ġmystery": 5509,
    "Ġbigger": 19760,
    "erman": 5108,
    "Ġeclips": 20695,
    "itting": 1153,
    "Ġabounding": 12341,
    "Ġtree": 5284,
    "Ġcommis": 22669,
    "Ġsacrificial": 24871,
    "Ġprovided": 6577,
    "Ġknighthood": 25297,
    "Ġey": 8135,
    "Ġvows": 15805,
    "Åĵ": 10743,
    "Ġmillion": 14985,
    "remained": 8569,
    "wheeling": 22871,
    "ě": 220,
    "leagues": 21371,
    "Ġfaded": 10808,
    "Ġcopse": 17067,
    "Ġeyebrows": 23513,
    "Ġdeterm": 1271,
    "clopÃ¦dia": 15254,
    "Ġmod": 502,
    "Ġfangs": 12593,
    "Ġsubstantial": 14808,
    "Ġdra": 1595,
    "Ġbiological": 1933,
    "aited": 12432,
    "getting": 12963,
    "oin": 17616,
    "Ġobliged": 4285,
    "arb": 1565,
    "Ġinsignificant": 20455,
    "Ġdrooping": 9418,
    "Ġsacrific": 15016,
    "Ġundulated": 19515,
    "mists": 17604,
    "comed": 8544,
    "Ġsacred": 10928,
    "Ġamuse": 5940,
    "Ġtrepidation": 19215,
    "uns": 21868,
    "Ġearnest": 3929,
    "Ġcascade": 20579,
    "doubtless": 17001,
    "page": 13769,
    "Ġfurnish": 9017,
    "Ġroundabout": 23059,
    "going": 6313,
    "Ġskull": 6288,
    "erde": 21267,
    "Ġmartha": 16258,
    "heav": 5694,
    "eronomy": 15522,
    "Ġcin": 13873,
    "Ġelijah": 9098,
    "chambers": 25454,
    "prodigious": 17465,
    "Ġimbib": 22173,
    "Ġnightgown": 23131,
    "factories": 19842,
    "difficulty": 12387,
    "direction": 17523,
    "Ġseeth": 21958,
    "¥": 103,
    "Ġadmir": 12018,
    "coronet": 16862,
    "Ġtread": 9407,
    "Ġwretch": 6378,
    "Ġflask": 3040,
    "Ġnearer": 5301,
    "Ġappointed": 20101,
    "Ġwarmed": 12020,
    "fiend": 13659,
    "dilig": 17281,
    "Ġcommonest": 23087,
    "Ġroast": 18455,
    "Ġsubordinate": 18722,
    "Ġbermud": 26438,
    "Ġbeeches": 9225,
    "Ġincommod": 25307,
    "Ġchalk": 15930,
    "Ġaright": 11737,
    "Ġskul": 22794,
    "inder": 9151,
    "Ġbroods": 23100,
    "Ġgiant": 13966,
    "Ġincivility": 18572,
    "violently": 23542,
    "9": 29,
    "Ġ39": 19488,
    "è": 169,
    "Ġconcentric": 20073,
    "arbuck": 2027,
    "Ġball": 3624,
    "(_": 7541,
    "Ġassisting": 13255,
    "Ġhammers": 13239,
    "emy": 14071,
    "Ġmysticetus": 24922,
    "formed": 2559,
    "Ġnewspapers": 17185,
    "Ġsubmitted": 11868,
    "Ġprotection": 9460,
    "Ġcra": 2331,
    "Ġloggerhead": 13655,
    "Ġhead": 1121,
    "Ġhers": 7890,
    "drugg": 20837,
    "instances": 13317,
    "soon": 4029,
    "silenced": 24422,
    "Ġvenerable": 9092,
    "Ġocc": 886,
    "presented": 12987,
    "encyclopÃ¦dia": 16662,
    "vari": 1514,
    "ening": 3103,
    "Ġupd": 946,
    "canoes": 16227,
    "goin": 23401,
    "rified": 15417,
    "Ġedinburgh": 16434,
    "Ġrumbling": 18211,
    "knife": 6942,
    "Ġperception": 9748,
    "progra": 9393,
    "Ġeber": 18003,
    "vy": 21106,
    "Ġzig": 18743,
    "Ġperennial": 22692,
    "enc": 7575,
    "Ġservices": 11215,
    "Ġcollateral": 20070,
    "ii": 4016,
    "accomp": 10454,
    "compared": 24030,
    "Ġbefore": 809,
    "snowy": 20282,
    "asht": 4086,
    "Ġhunch": 18934,
    "Ġlandless": 23377,
    "Ġidol": 7467,
    "Ġsuperl": 16444,
    "stad": 7598,
    "Ġreports": 19084,
    "Ġunconsciously": 10003,
    "Ġvindictive": 20468,
    "magnificent": 20273,
    "Ġpeeled": 14316,
    "much": 3706,
    "Ġblubber": 5666,
    "usion": 3299,
    "freely": 16853,
    "Ġclin": 14199,
    "Ġsacrilege": 26228,
    "Ġunre": 3477,
    "Ġwaggish": 25434,
    "Ġblackstone": 23387,
    "Ġdecomp": 3810,
    "Ġaloft": 4302,
    "arrival": 15596,
    "looks": 12014,
    "partner": 19221,
    "Ġhopeful": 19032,
    "knight": 20939,
    "Ġpupella": 20420,
    "reigned": 21241,
    "Ġcryst": 9915,
    "Ġexam": 3711,
    "Ġalice": 1482,
    "Ġprovision": 14823,
    "bermaid": 20789,
    "enance": 3370,
    "Ġcloak": 9532,
    "Ġbu": 3683,
    "Ġbidden": 24646,
    "enstein": 5799,
    "resp": 13837,
    "play": 5099,
    "Ġdiscoverers": 26036,
    "vib": 21114,
    "Ġinvestigated": 25386,
    "Ġawaken": 23585,
    "Ġentangled": 10341,
    "Ġsisters": 3641,
    "contrad": 19291,
    "yp": 1045,
    "calmly": 20138,
    "Ġrecklessness": 24745,
    "Ġhappiest": 11879,
    "Ġamphitheat": 26251,
    "Ġjewel": 9940,
    "Ġbrougham": 17870,
    "score": 18850,
    "century": 20045,
    "Ġcounties": 23302,
    "resnet": 4071,
    "asse": 15641,
    "aling": 1032,
    "beaut": 8512,
    "icking": 8909,
    "Ġbash": 12582,
    "Ġpriests": 15039,
    "pe": 1435,
    "ples": 6845,
    "Ġyielded": 14870,
    "Ġdecay": 1013,
    "westward": 25424,
    "Ġdial": 10809,
    "Ġscarcity": 23823,
    "Ġdeepest": 8213,
    "Ġmusty": 22678,
    "beauty": 20102,
    "Ġstared": 8454,
    "Ġdependen": 1829,
    "considered": 9579,
    "Ġcrockery": 24300,
    "Ġsubstantiated": 25875,
    "Ġplainpal": 19276,
    "iline": 21719,
    "atious": 10150,
    "Ġtreat": 3172,
    "Ġmichigan": 26425,
    "Ġpretence": 13205,
    "Ġlined": 15646,
    "Ġdreams": 7497,
    "phon": 4128,
    "crazy": 24691,
    "Ġfarthing": 14452,
    "Ġadmirably": 16479,
    "Ġferocity": 16870,
    "wife": 8101,
    "romised": 14110,
    "Ġxviii": 23408,
    "Ġtwelvemonth": 12174,
    "Ġaddress": 2268,
    "Ġetc": 7084,
    "Ġoccurrence": 14380,
    "Ġpound": 12612,
    "A": 37,
    "Ġobeying": 13412,
    "Ġdetermining": 14419,
    "fit": 6645,
    "gust": 6360,
    "Ġappear": 2488,
    "shone": 22446,
    "Ġpra": 4345,
    "Ġstranger": 3484,
    "rical": 11516,
    "asserted": 22307,
    "Ġfilters": 3927,
    "isturbed": 18297,
    "Ġearls": 18903,
    "Ġgrop": 12660,
    "Ġmatrimony": 13633,
    "Ġproposition": 23249,
    "pinn": 21025,
    "queness": 18147,
    "ron": 5216,
    "Ġenslaved": 26314,
    "Ġpassed": 2013,
    "ocean": 12398,
    "Ġanchors": 12609,
    "Ġbelongs": 8015,
    "Ġadmeasure": 18295,
    "Ġwarming": 23557,
    "Ġinst": 913,
    "Ġcrews": 8989,
    "igate": 8821,
    "rable": 11630,
    "ithing": 11647,
    "educ": 10827,
    "Ġissuing": 16947,
    "Ġleadenhall": 16627,
    "Ġdefinitions": 22942,
    "Ġperceived": 4713,
    "³": 116,
    "Ġsub": 951,
    "guilt": 24066,
    "Ġ>": 21150,
    "Ġcountless": 16383,
    "Ġcoun": 4178,
    "Ġly": 2266,
    "opic": 22474,
    "Ġnich": 21518,
    "whence": 23212,
    "base": 20776,
    "apothe": 22333,
    "Ġapologizing": 25197,
    "torture": 26151,
    "along": 6013,
    "begging": 22495,
    "Ġamends": 14244,
    "european": 26371,
    "Ġhier": 1896,
    "sec": 6152,
    "Ġalan": 10867,
    "Ġavail": 11224,
    "Ġcoronation": 13331,
    "venerable": 26407,
    "Ġfeasts": 25369,
    "Ġteacup": 16203,
    "Ġrecursive": 4782,
    "Ġbaptized": 25774,
    "unks": 15771,
    "Ġprecision": 13187,
    "Ġresolves": 23646,
    "reen": 21230,
    "Ġcasual": 11407,
    "Ġdecreas": 1651,
    "Ġnois": 4267,
    "Ġ1894": 5196,
    "ming": 3602,
    "Ġvoice": 2189,
    "Ġaud": 6661,
    "swallowed": 14851,
    "Ġfurnace": 19438,
    "Ġmiscellaneous": 17461,
    "Ġrugged": 18719,
    "Ġfought": 12589,
    "Ġrising": 4354,
    "Ġtouched": 6001,
    "Ġpickle": 16721,
    "Ġdisplaying": 16965,
    "eh": 13708,
    "Ġunrolled": 22036,
    "Ġsan": 7825,
    "Ġincommun": 25308,
    "Ġsympathise": 16793,
    "consequential": 26249,
    "Ġasser": 6257,
    "Ġuneasily": 24229,
    "mira": 20978,
    "Ġdown": 830,
    "Ġblazing": 11893,
    "note": 14338,
    "wise": 2578,
    "Ġconsequence": 5541,
    "Ġhomeless": 23385,
    "Ġdeclared": 5594,
    "frequented": 25900,
    "Ġcritically": 23444,
    "Ġcomprehensiveness": 25072,
    "ently": 1619,
    "Ġsav": 3355,
    "constant": 11322,
    "Ġkissed": 10043,
    "Ġremem": 4312,
    "ordinary": 4406,
    "Ġunique": 12774,
    "sustained": 20567,
    "Ġhus": 3091,
    "Ġstaying": 8284,
    "bingleys": 19633,
    "likelihood": 4992,
    "Ġelated": 18633,
    "Ġbeer": 10218,
    "together": 3556,
    "Ġshops": 21999,
    "Ġdisorder": 16047,
    "ifle": 10889,
    "rey": 12534,
    "prov": 16420,
    "Ġexcite": 11963,
    "Ġalluded": 7886,
    "Ġnephew": 6404,
    "angle": 22098,
    "ounds": 4157,
    "import": 5668,
    "Ġburton": 23651,
    "Ġsunshine": 14493,
    "Ġrag": 18641,
    "tol": 17671,
    "Ġcau": 13879,
    "Ġincreasingly": 9369,
    "stript": 21649,
    "Ġthr": 5709,
    "conce": 8510,
    "Ġrisks": 9962,
    "rinted": 21042,
    "Ġunlabeled": 3799,
    "Ġdefilements": 26284,
    "yset": 21144,
    "Ġhieroglyphics": 17301,
    "Ġimputation": 22170,
    "Ġsnugly": 17110,
    "asp": 3338,
    "atiate": 12544,
    "Ġdissu": 18550,
    "Ġequinox": 25855,
    "Ġbeds": 14550,
    "hatchway": 25904,
    "ulous": 4449,
    "algorithms": 8293,
    "Ġtelescope": 17346,
    "Ġaccommodate": 20516,
    "Ġsepulchre": 20558,
    "chapter": 1402,
    "Ġcommod": 10332,
    "Ġdescribing": 19253,
    "Ġcharacteristic": 12045,
    "remarked": 12285,
    "Ġfort": 2582,
    "exerc": 16012,
    "Ġcommencement": 12235,
    "paralleled": 14511,
    "Ġharem": 9707,
    "tender": 14471,
    "Ġcus": 21341,
    "satisfaction": 9990,
    "Ġbehalf": 14508,
    "Ġletting": 10362,
    "Ġconfidential": 9086,
    "Ġstile": 21730,
    "Ġbegg": 16251,
    "Ġaddition": 1145,
    "Ġmenaces": 23104,
    "Ġembracing": 14978,
    "Ġoath": 7834,
    "trade": 19635,
    "ositions": 10282,
    "Ġideas": 5494,
    "ommod": 13979,
    "Ġstore": 8453,
    "Ġhedgehog": 10643,
    "Ġshallow": 14393,
    "Ġbales": 21387,
    "Ġcarve": 23090,
    "Ġcleat": 18946,
    "Ġwarsaw": 26167,
    "acquired": 24295,
    "Ġflavor": 16250,
    "Ġoce": 3031,
    "common": 4129,
    "Ġabsolute": 6765,
    "immortal": 21708,
    "Ġbag": 5699,
    "Ġsuggested": 8321,
    "Ġassures": 14463,
    "Ġsee": 803,
    "Ġmethodically": 23118,
    "Ġaven": 10758,
    "ee": 1664,
    "Ġexhibiting": 19837,
    "Ġfog": 9660,
    "Ġspears": 12920,
    "Ġkn": 4544,
    "Ġforesee": 19125,
    "Ġalluding": 18236,
    "Ġpresumed": 10543,
    "Ġresembled": 18033,
    "Ġwriter": 11942,
    "Ġentry": 11023,
    "Ġkill": 4453,
    "makes": 10710,
    "pha": 22762,
    "perceived": 8857,
    "Ġcurtains": 22997,
    "change": 6392,
    "communication": 25881,
    "Ġuncomfortable": 8485,
    "hies": 17559,
    "Ġwrit": 8242,
    "fig": 8734,
    "Ġfootpath": 19337,
    "Ġstoven": 23173,
    "Ġhaunt": 18197,
    "acquainted": 7313,
    "Ġscarce": 8621,
    "Ġspaniards": 25555,
    "shore": 10303,
    "chat": 21684,
    "Ġnewcomers": 26041,
    "kempt": 20940,
    "wick": 5362,
    "Ġworldly": 16327,
    "grateful": 10427,
    "Ġimpelled": 11779,
    "appearing": 14636,
    "Ġwhatsoever": 18460,
    "ound": 586,
    "also": 7851,
    "Ġlouder": 13466,
    "cats": 17511,
    "sensations": 20049,
    "oquence": 11384,
    "Ġthen": 665,
    "ospel": 17009,
    "Ġponder": 6819,
    "laid": 10108,
    ");": 7330,
    "Ġmagn": 1555,
    "Ġcemet": 20679,
    "Ġbesides": 3513,
    "59": 17472,
    "resent": 10768,
    "Ġhonest": 7287,
    "Ġdressing": 7090,
    "unfortunate": 15773,
    "Ġawhile": 13828,
    "etical": 13956,
    "evenings": 19461,
    "arding": 22155,
    "burnt": 20078,
    "Ġneck": 4885,
    "relu": 17758,
    "Ġexpon": 969,
    "laws": 19806,
    "Ġdif": 871,
    "Ġexistence": 4706,
    "Ġcongrat": 5827,
    "nades": 20996,
    "deck": 4499,
    "jug": 17579,
    "br": 2481,
    "Ġshortly": 6196,
    "Ġfishe": 15582,
    "Ġmeat": 8152,
    "Ġcitadel": 25438,
    "Ġseems": 2485,
    "Ġfresher": 23207,
    "Ġtrucks": 19511,
    "Ġnapoleon": 20556,
    "ouble": 2664,
    "Ġthis": 382,
    "Ġscound": 12828,
    "Ġecho": 12664,
    "objections": 19915,
    "either": 6791,
    "Ġimbec": 14155,
    "Ġmonica": 22978,
    "Ġscho": 4435,
    "Ġstra": 2994,
    "however": 4371,
    "Ġwapping": 21293,
    "Ġreserves": 19669,
    "canonical": 22961,
    "thumb": 18218,
    "iction": 4268,
    "Ġgestures": 13534,
    "machines": 8385,
    "Ġvanished": 6874,
    "Ġapologize": 15126,
    "Ġinserted": 8356,
    "Ġ22": 8279,
    "Ġsant": 21213,
    "Ġwonders": 7501,
    "veil": 18042,
    "display": 19154,
    "Ġmans": 15533,
    "Ġenthusiasm": 8065,
    "immense": 18052,
    "Ġratt": 7882,
    "Ġconsciousness": 9946,
    "none": 6962,
    "Ġplant": 8898,
    "Ġadvanced": 1526,
    "Ġkeys": 11993,
    "Ġpeaked": 2291,
    "Ġridic": 7509,
    "alid": 13933,
    "chance": 6827,
    "Ġdescribes": 3119,
    "Ġmallet": 17810,
    "Ġcomforter": 20505,
    "Ġfrantic": 7957,
    "oughed": 22075,
    "Ġscr": 11757,
    "industrious": 26239,
    "Ġinconsiderable": 21493,
    "aimed": 3953,
    "Ġimpunity": 14211,
    "Ġwaiting": 4322,
    "hills": 13734,
    "Ġprodigy": 19791,
    "shoe": 14965,
    "Ġmeanings": 18607,
    "Ġabatement": 22274,
    "Ġvolcanoes": 24144,
    "Ġmadman": 13149,
    "urously": 18050,
    "Ġobliter": 14320,
    "Ġclerval": 4652,
    "upp": 10129,
    "ugn": 9376,
    "Ġbrain": 2088,
    "ricade": 13035,
    "Ġjoining": 13162,
    "gl": 3288,
    "alarms": 21503,
    "Ġcaptiv": 16254,
    "latter": 15380,
    "Ġromish": 19583,
    "Ġgreeks": 20011,
    "Ġflour": 8943,
    "Ġpills": 21465,
    "pth": 2385,
    "Ġcritical": 7476,
    "Ġdistorted": 14248,
    "perquisites": 26529,
    "Ġimprinted": 22384,
    "Ġhackluyt": 25655,
    "Ġwearing": 12735,
    "Ġneighbors": 25806,
    "grand": 7970,
    "Ġasp": 15777,
    "Ġmouths": 7492,
    "thirst": 15822,
    "Ġpurp": 2396,
    "bted": 7794,
    "Ġcoat": 4552,
    "Ġcloth": 9741,
    "Ġstiff": 6992,
    "Ġcyl": 15553,
    "Ġsus": 18275,
    "Ġlagged": 21556,
    "Ġsparkling": 11354,
    "Ġregiment": 6432,
    "Ġardu": 22187,
    "collecting": 26081,
    "Ġunfailing": 24110,
    "consolatory": 25306,
    "Ġtakes": 5007,
    "Ġanother": 1737,
    "cork": 20795,
    "Ġemperors": 15157,
    "het": 5435,
    "Ġsimultaneously": 4310,
    "ssian": 3399,
    "Ġinv": 2224,
    "ifted": 4493,
    "pity": 17626,
    "Ġcoppers": 22581,
    "Ġregards": 16074,
    "Ġpolished": 11180,
    "Ġscared": 14188,
    "Ġ35": 24075,
    "Ġflood": 7716,
    "Ġremoving": 12113,
    "Ġglacier": 11431,
    "Ġpail": 15603,
    "onic": 7828,
    "izer": 2032,
    "Ġharness": 17927,
    "Ġ*": 1274,
    "braces": 24658,
    "Ġtendinous": 16930,
    "Ġcracks": 12016,
    "Ġdece": 6996,
    "murderers": 25728,
    "particularly": 8340,
    "distinguished": 10525,
    "Ġunconcerned": 20508,
    "Ġdesires": 9454,
    "Ġquantity": 6948,
    "Ġ18": 3405,
    "Ġdiffers": 23779,
    "Ġunholy": 26218,
    "Ġprefers": 20512,
    "Ġquenched": 22415,
    "Ġkicks": 19767,
    "Ġindex": 17048,
    "Ġcanvas": 7784,
    "difficult": 10056,
    "Ġentreaty": 10528,
    "ivities": 22083,
    "drawing": 10485,
    "ption": 7398,
    "crack": 19839,
    "Ġpractical": 3161,
    "Ġallowing": 2172,
    "slee": 17167,
    "Ġmeanwhile": 5736,
    "Ġtrades": 8232,
    "Ġdesperado": 19818,
    "promising": 24726,
    "strang": 11181,
    "Ġpulverize": 23391,
    "Ġmoisture": 12356,
    "Ġauxiliary": 26417,
    "Ġstands": 5258,
    "Ġwines": 21286,
    "Ġaltered": 7393,
    "Ġshower": 11707,
    "recked": 17761,
    "venant": 22626,
    "courage": 17508,
    "Ġtwinkle": 12320,
    "Ġink": 8801,
    "Ġbowled": 23767,
    "Ġnegative": 1465,
    "Ġilluminated": 20174,
    "Ġtimber": 13347,
    "andes": 18151,
    "Ġdeputation": 21837,
    "Ġdol": 9663,
    "pered": 4199,
    "vius": 23541,
    "Ġneat": 6999,
    "who": 2450,
    "restoration": 23236,
    "unalterable": 21884,
    "Ġalcoves": 26485,
    "Ġaspects": 4174,
    "Ġchamber": 6213,
    "Ġgrinned": 16856,
    "Ġfry": 17879,
    "Ġsave": 4052,
    "corrob": 24484,
    "Ġriveted": 13616,
    "Ġdisasters": 16050,
    "eastward": 15127,
    "Ġmacy": 19353,
    "pp": 384,
    "Ġprove": 5231,
    "rubber": 12805,
    "cun": 20794,
    "Ġwhen": 513,
    "origin": 7582,
    "angled": 6844,
    "Ġiroqu": 21617,
    "imming": 9685,
    "Ġresnet": 5473,
    "Ġprow": 6684,
    "newsp": 23133,
    "Ġtechn": 9364,
    "Ġworm": 9161,
    "ksome": 10103,
    "Ġtropic": 17064,
    "Ġeliminating": 20618,
    "bantering": 25253,
    "ten": 1556,
    "famous": 16915,
    "Ġcomparatively": 9488,
    "Ġseaman": 8638,
    "relig": 15510,
    "principal": 20659,
    "Ġrivers": 9440,
    "bald": 16445,
    "Ġplay": 2631,
    "Ġswish": 23051,
    "Ġcheers": 16363,
    "articulate": 17396,
    "ghan": 19453,
    "Ġassure": 4418,
    "Ġenthr": 22745,
    "Ġse": 402,
    "Ġwandered": 6930,
    "pain": 7350,
    "Ġisn": 7867,
    "grained": 20882,
    "aught": 2682,
    "Ġexceptions": 13227,
    "barbaric": 26358,
    "Ġdisrespect": 18553,
    "Ġcedar": 15186,
    "Ġdirectly": 2104,
    "Ġdeact": 18135,
    "special": 14703,
    "Ġfiends": 14826,
    "point": 6063,
    "voyages": 24855,
    "erness": 6434,
    "Ġright": 1502,
    "Ġmasked": 3695,
    "Ġhovered": 12627,
    "ain": 343,
    "Ġbloodshed": 23798,
    "Ġforbearance": 12325,
    "Ġagon": 10319,
    "bid": 5610,
    "Ġchimneys": 16971,
    "xim": 1089,
    "Ġdream": 3537,
    "Ġmagnificence": 20631,
    "Ġbremen": 23344,
    "Ġsignificance": 13278,
    "bab": 11466,
    "Ġwhoa": 22418,
    "Ġconsist": 1934,
    "remote": 23188,
    "Ġwell": 901,
    "irty": 4050,
    "Ġpuzz": 5532,
    "Ġting": 8398,
    "tled": 3457,
    "Ġidiotic": 25588,
    "Ġchar": 1704,
    "Ġallowed": 4060,
    "odecimo": 11442,
    "Ġthemselves": 3249,
    "Ġinsurg": 23677,
    "thur": 7188,
    "Ġmun": 12558,
    "ateur": 22004,
    "hig": 12471,
    "velling": 14760,
    "Ġcarn": 17821,
    "Ġproficiency": 19193,
    "Ġwisest": 11230,
    "Ġresult": 4459,
    "b": 70,
    "Ġmargin": 11918,
    "Ġhateful": 19712,
    "Ġexempt": 21826,
    "Ġvigorously": 11297,
    "Ġlovely": 4709,
    "power": 7136,
    "visits": 24222,
    "q": 85,
    "tur": 5688,
    "Ġperpet": 7645,
    "chet": 13215,
    "Ġfashions": 17885,
    "Ġsple": 21214,
    "Ġfilling": 13406,
    "Ġthrowing": 6335,
    "Ġnets": 21522,
    "rying": 3182,
    "ological": 1886,
    "Ġmatches": 14394,
    "oars": 9613,
    "paper": 9135,
    "beryls": 25309,
    "family": 7324,
    "Ġrequiring": 2926,
    "Ġwaters": 3596,
    "wedged": 24337,
    "isc": 6239,
    "chamber": 13623,
    "Ġrouted": 24907,
    "Ġburn": 3684,
    "Ġnovelties": 24778,
    "amous": 15757,
    "Ġharriet": 24571,
    "Ġabilities": 8865,
    "neath": 12861,
    "Ġyour": 633,
    "retreat": 23134,
    "Ġdiabolical": 20341,
    "Ġcent": 3251,
    "Ġattention": 1170,
    "Ġrifts": 21976,
    "Ġlifted": 6985,
    "agged": 9235,
    "Ġdestructive": 23485,
    "ien": 10100,
    "Ġoverwrites": 5033,
    "Ġsimple": 1624,
    "forced": 11029,
    "Ġjun": 8505,
    "Ġbedfellows": 23437,
    "Ġdebt": 12164,
    "Ġeul": 21618,
    "Ġoppression": 23649,
    "according": 12024,
    "Ġimmaculate": 19484,
    "Ġgang": 9206,
    "atum": 21258,
    "iscuit": 10597,
    "Ġgossip": 18471,
    "impart": 21707,
    "Ġunite": 9252,
    "Ġclassify": 1532,
    "Ġacceded": 22386,
    "willingly": 11979,
    "Ġdrenched": 12599,
    "Ġwere": 556,
    "kish": 20933,
    "Ġrifled": 21977,
    "isticated": 1561,
    "Ġhall": 4184,
    "lay": 5891,
    "cating": 20801,
    "Ġchance": 3315,
    "Ġglimmered": 20170,
    "exertion": 16013,
    "vate": 21108,
    "pled": 7893,
    "Ġdesolated": 24812,
    "Ġgree": 7595,
    "Ġpersecutor": 26096,
    "Ġrefreshed": 15288,
    "ders": 8075,
    "land": 1529,
    "Ġseethe": 21961,
    "ė": 216,
    "bled": 5469,
    "Ġnecessarily": 13247,
    "project": 16422,
    "Ġvariants": 1792,
    "Ġhooked": 19079,
    "Ġdrawer": 13263,
    "Ġpresc": 15922,
    "Ġoptim": 787,
    "wling": 11542,
    "inch": 10754,
    "abez": 10221,
    "breeding": 16674,
    "Ġaided": 17744,
    "himself": 3972,
    "Ġromantic": 8031,
    "Ġindign": 6173,
    "paws": 21028,
    "Ġjack": 4651,
    "oubtedly": 6943,
    "Ġshells": 20362,
    "Ġrearing": 12673,
    "yden": 21142,
    "cond": 1670,
    "Ġbeast": 7179,
    "Ġsteep": 2892,
    "Ġattics": 22620,
    "figure": 13553,
    "00": 1615,
    "Ġtaffrail": 15474,
    "earthquakes": 24725,
    "Ġessentially": 24924,
    "Ġcommanding": 16589,
    "alluring": 18352,
    "picture": 11405,
    "Ġgoug": 17990,
    "proves": 23392,
    "Ġbit": 2968,
    "flagged": 23969,
    "glings": 23848,
    "Ġensue": 18190,
    "pagan": 17284,
    "insufferable": 21191,
    "Ġforc": 9226,
    "Ġastonishing": 10500,
    "Ġpresumably": 19623,
    "Ġgroaned": 11264,
    "Ġsickbed": 24245,
    "ingolstadt": 21302,
    "ations": 711,
    "Ġcoldness": 23757,
    "Ġcontraction": 16005,
    "Ġcertainty": 6734,
    "Ġtrait": 23072,
    "Ġcalls": 6744,
    "precaution": 23819,
    "message": 17370,
    "treasures": 26152,
    "Ġadequate": 20307,
    "Ġmarching": 16698,
    "emed": 3379,
    "proceeding": 20140,
    "Ġpoultry": 17439,
    "cely": 3575,
    "Ġexpiration": 22624,
    "Ġends": 8238,
    "Ġcyn": 13884,
    "Ġjaw": 3316,
    "Ġlogic": 13075,
    "Ġgem": 21592,
    "Ġtal": 7565,
    "Ġuninhabited": 22049,
    "unconquerable": 21889,
    "raid": 3276,
    "Ġmannish": 26237,
    "glow": 20873,
    "Ġreser": 5170,
    "Ġpredict": 679,
    "sufficiently": 14979,
    "tart": 21066,
    "Ġmunro": 25630,
    "Ġprovidence": 18745,
    "Ġmoody": 8201,
    "Ġwhatever": 3473,
    "bag": 7543,
    "imson": 12685,
    "Ġceiling": 7997,
    "Ġcame": 1299,
    "ancho": 4938,
    "Ġassu": 21895,
    "Ġcorresponds": 19820,
    "Ġshoulder": 5848,
    "Ġmich": 21304,
    "civil": 7797,
    "Ġcontributes": 15248,
    "Ġbelieving": 8225,
    "nx": 17606,
    "Ġtin": 15461,
    "Ġgarnery": 17385,
    "Ġshrink": 14802,
    "Ġincorrect": 2729,
    "impat": 11200,
    "consideration": 14953,
    "Ġmisery": 3813,
    "Ġtornado": 24622,
    "Ġarguments": 8037,
    "Ġbarmaid": 19334,
    "Ġkeepers": 23536,
    "bpp": 20771,
    "Ġhave": 443,
    "Ġspacious": 18312,
    "christian": 17231,
    "ocratic": 17244,
    "Ġtars": 21163,
    "lust": 15377,
    "Ġimplicit": 19956,
    "Ġguido": 2980,
    "solemn": 19816,
    "Ġinventing": 24861,
    "Ġlivers": 18461,
    "Ġwasn": 6997,
    "ante": 11718,
    "tered": 2230,
    "Ġplying": 17913,
    "erative": 21271,
    "Ġscolded": 25472,
    "Ġcordage": 19677,
    "Ġinvolved": 8922,
    "Ġpalpit": 16690,
    "Ġundu": 15834,
    "manner": 6170,
    "Ġhermits": 22072,
    "Ġbet": 1132,
    "ction": 499,
    "repro": 10769,
    "Ġdiversity": 25284,
    "Ġflesh": 5969,
    "yra": 8103,
    "Ġprimal": 17106,
    "Ġinscribed": 24938,
    "leo": 21362,
    "Ġpeace": 3693,
    "Ġsurmount": 19999,
    "swelled": 19609,
    "respectable": 19846,
    "Ġcomment": 9231,
    "Ġstrangled": 24132,
    "hercules": 22204,
    "Ġeffort": 8205,
    "tackle": 17319,
    "heard": 5009,
    "Ġexpands": 25237,
    "Ġrepairs": 19083,
    "Ġunmolested": 15243,
    "Ġturban": 23612,
    "Ġed": 2141,
    "Ġeffectively": 2615,
    "sli": 11520,
    "del": 4078,
    "Ġrind": 21970,
    "Ġsomeone": 6703,
    "Ġfoot": 3159,
    "Ġblot": 9810,
    "ography": 13360,
    "benefact": 24641,
    "Ġpraises": 16729,
    "fred": 20854,
    "protested": 13472,
    "Ġdisgra": 18549,
    "Ġincognit": 22552,
    "Ġdecayed": 22823,
    "Ġmonuments": 22977,
    "rudently": 16710,
    "Ġchoke": 22247,
    "Ġlose": 5028,
    "stars": 18016,
    "inde": 17730,
    "Ġmechanical": 7937,
    "Ġarter": 22186,
    "Ġstrangely": 5677,
    "Ġconcert": 11964,
    "Ġdiscu": 4362,
    "Ġbier": 22759,
    "unable": 14057,
    "Ġpaternal": 16379,
    "Ġmisconduct": 22756,
    "Ġsli": 4748,
    "Ġcivilly": 19602,
    "Ġimaginative": 19246,
    "Ġwilson": 6629,
    "Ġpertaining": 18450,
    "hairs": 20903,
    "Ġlobes": 22113,
    "Ġthinker": 22807,
    "woe": 21134,
    "liness": 8746,
    "elephant": 12348,
    "Ġpromethe": 14466,
    "Ġhyp": 3872,
    "Ġinstituted": 18701,
    "Ġcuriosity": 2521,
    "Ġcomplexion": 8210,
    "Ġprodigiously": 14930,
    "Ġhurry": 4913,
    "Ġextras": 22747,
    "Ġrachel": 11844,
    "glorious": 19365,
    "Ġdeclares": 16991,
    "conceive": 16025,
    "Ġnoisier": 4623,
    "Ġoat": 21321,
    "Ġcold": 3033,
    "Ġglorious": 11074,
    "author": 9858,
    "Ġtuning": 3072,
    "square": 15060,
    "itudes": 3017,
    "final": 19675,
    "Ġviolently": 6456,
    "°": 113,
    "impenetrable": 26196,
    "Ġneedn": 19228,
    "Ġrival": 10484,
    "Ġbackstays": 22660,
    "Ġconceive": 8461,
    "iferous": 17290,
    "Ġconsented": 11293,
    "Ġencoding": 4774,
    "lantern": 17426,
    "farewell": 12303,
    "Ġconsumed": 10348,
    "Ġempty": 5353,
    "lev": 1234,
    "Ġblanket": 8343,
    "afterwards": 7485,
    "ivia": 22082,
    "fury": 17546,
    "Ġimpression": 5732,
    "Ġvoices": 7877,
    "Ġeighteen": 11236,
    "Ġdetest": 8500,
    "Ġdespite": 19351,
    "Ġtolland": 24990,
    "Ġroared": 7023,
    "Ġjogged": 26236,
    "ated": 722,
    "Ġtaken": 2534,
    "lier": 20948,
    "Ġannot": 15598,
    "verse": 9686,
    "icient": 799,
    "iancy": 13005,
    "Ġchat": 6560,
    "Ġcelest": 9899,
    "habit": 16187,
    "urean": 18122,
    "ase": 1160,
    "Ġrosy": 18457,
    "Ġcleans": 18947,
    "Ġresolve": 13168,
    "rugg": 15893,
    "Ġcalifornian": 25851,
    "rock": 15637,
    "Ġnick": 21521,
    "Ġprivilege": 11417,
    "Ġincarnation": 25573,
    "Ġshoot": 11159,
    "V": 58,
    "Ġwall": 3841,
    "Ġembell": 14413,
    "Ġdams": 16454,
    "Ġfifty": 4622,
    "Ġconditions": 8307,
    "opes": 10309,
    "iff": 3904,
    "Ġpromontory": 11938,
    "ceed": 1074,
    "Ġengagement": 5397,
    "Ġscandal": 9080,
    "Ġdivineness": 25724,
    "Ġhig": 753,
    "Ġwallet": 21297,
    "Ġoysters": 20577,
    "ompl": 4534,
    "metic": 14982,
    "Ġsensations": 5259,
    "regards": 23465,
    "Ġengland": 3855,
    "humour": 7499,
    "Ġdropout": 1558,
    "chron": 21692,
    "Ġmerited": 23729,
    "fool": 9046,
    "Ġfriends": 2658,
    "vell": 3959,
    "omet": 3075,
    "Ġaccord": 4027,
    "Ġvideos": 13604,
    "anum": 17835,
    "Ġstript": 23693,
    "Ġco": 729,
    "Ġbrutality": 26276,
    "ĠĠĠĠĠĠĠĠĠĠĠĠĠĠĠĠĠĠĠĠĠĠĠĠĠĠĠĠĠĠĠĠĠĠĠĠ": 23662,
    "ohn": 4559,
    "Ġwhaler": 7521,
    "hateful": 20908,
    "Ġantique": 19550,
    "Ġcontextually": 11955,
    "single": 10125,
    "Ġsickened": 16774,
    "Ġsomewhere": 5384,
    "standing": 5557,
    "Ġarrog": 18344,
    "Ġmaintained": 12931,
    "Ġcaul": 10786,
    "Ġperverseness": 13652,
    "Ġwisely": 13269,
    "Ġforemast": 12002,
    "oices": 7348,
    "Ġvacant": 9493,
    "Ġfift": 6382,
    "Ġsteadily": 8052,
    "Ġrural": 21968,
    "Ġoccasioned": 13224,
    "odecimoes": 25318,
    "Ġsafe": 5103,
    "Ġgentle": 1892,
    "Ġbenches": 18781,
    "chest": 11206,
    "Ġthird": 4187,
    "Ġserm": 9632,
    "Ġchoking": 15931,
    "Ġpip": 1616,
    "grasp": 16428,
    "dinner": 11404,
    "words": 7983,
    "Ġoverbearing": 12839,
    "valu": 1659,
    "Ġride": 12754,
    "Ġeh": 6987,
    "ivory": 10269,
    "iem": 20916,
    "Ġ103": 24410,
    "Ġconfirmed": 11137,
    "Ġtossed": 5815,
    "Ġdolphin": 17310,
    "Ġmap": 2395,
    "Ġsar": 21212,
    "clearer": 24065,
    "Ġthoroughly": 8348,
    "Ġsol": 1098,
    "Ġfates": 15574,
    "landed": 18954,
    "Ġcarriage": 3951,
    "Ġparametric": 2399,
    "Ġpropos": 7062,
    "ript": 4153,
    "Ġtalks": 23368,
    "================================": 5671,
    "plain": 1357,
    "le": 279,
    "Ġmainmast": 9777,
    "grass": 23411,
    "Ġjerked": 19831,
    "obliv": 23094,
    "herself": 4890,
    "Ġpurchas": 19873,
    "Ġvindication": 25364,
    "Ġfries": 21414,
    "Ġstart": 3256,
    "Ġstuff": 5717,
    "plun": 15812,
    "Ġmountainous": 16598,
    "Ġknot": 7011,
    "Ġenergetic": 15195,
    "Ġlane": 5627,
    "Ġvacancy": 9043,
    "Ġsides": 4578,
    "Ġeverybody": 4509,
    "Ġverdant": 15001,
    "jee": 17578,
    "ints": 3416,
    "Ġrevive": 13477,
    "cords": 25136,
    "rem": 1519,
    "Ġpossess": 3201,
    "Ġgranite": 22806,
    "Ġpartner": 6714,
    "Ġsuccess": 3611,
    "feel": 3811,
    "Ġjury": 5378,
    "ifling": 15779,
    "honest": 17002,
    "oblig": 16288,
    "oke": 1861,
    "Ġvariety": 8530,
    "Ġgrievances": 20647,
    "Ġrazors": 22655,
    "zors": 21146,
    "unted": 6998,
    "Ġskies": 8919,
    "arers": 12126,
    "Ġhurrying": 11991,
    "ule": 6800,
    "Ġhighland": 18712,
    "riet": 18184,
    "agon": 7872,
    "Ġhinted": 6012,
    "Ġfossiliferous": 25609,
    "unc": 15765,
    "irms": 18168,
    "ere": 6789,
    "Ġlibr": 15998,
    "Ġadventurous": 16732,
    "Ġwreat": 15528,
    "inioned": 19285,
    "Ġclimax": 25051,
    "Ġgradu": 15829,
    "Ġinitialization": 1252,
    "sake": 13781,
    "Ġgaping": 13967,
    "representation": 20195,
    "Ġcare": 1641,
    "ull": 1428,
    "secondly": 16983,
    "uding": 16145,
    "whiskers": 12308,
    "Ġage": 3895,
    "humoredly": 26324,
    "Ġsinned": 18950,
    "gate": 12463,
    "Ġomens": 21326,
    "gged": 3776,
    "seen": 2884,
    "Ġferule": 24515,
    "ier": 1134,
    "Ġecstasy": 11628,
    "speaking": 12095,
    "cig": 17502,
    "dum": 17517,
    "oat": 13762,
    "Ġcharm": 4546,
    "Ġmim": 3104,
    "Ġmiles": 3803,
    "Ġlesson": 7276,
    "Ġho": 1932,
    "Ġbroker": 23099,
    "Ġprinciples": 10009,
    "spouting": 25002,
    "Ġchrysalis": 26537,
    "sav": 8097,
    "Ġvaguely": 17364,
    "Ġdecapitated": 20614,
    "Ġflowed": 10370,
    "visited": 13345,
    "Ġostlers": 25276,
    "problems": 11432,
    "eler": 1577,
    "judge": 13334,
    "acters": 9307,
    "Ġsashes": 21224,
    "Ġglossy": 15225,
    "Ġarsacidean": 20363,
    "Ġassailed": 23175,
    "wretchedness": 17251,
    "Ġramble": 9311,
    "Ġclimbing": 20068,
    "Ġgri": 17987,
    "volous": 18595,
    "Ġanno": 9666,
    "ion": 296,
    "egyptians": 25898,
    "Ġtoilet": 13935,
    "diversity": 25897,
    "Ġtweed": 22675,
    "Ġdelic": 4135,
    "Ġcretan": 22724,
    "ded": 2427,
    "Ġintuitions": 17339,
    "brother": 7091,
    "Ġflooring": 23623,
    "Ġwhiting": 10857,
    "Ġrevisit": 21668,
    "apan": 6860,
    "Ġscrutiny": 26015,
    "iance": 5279,
    "ame": 642,
    "Ġthickening": 24021,
    "Ġdent": 13904,
    "Ġcourtesy": 9943,
    "wheeler": 16186,
    "Ġupdating": 2692,
    "Ġapprehension": 7113,
    "Ġtwentieth": 18658,
    "Ġdebility": 24271,
    "warp": 17705,
    "Ġmeals": 12707,
    "Ġenthusiastic": 19964,
    "Ġswitching": 23055,
    "Ġrattle": 10897,
    "fters": 20860,
    "Ġpenalties": 10411,
    "Ġprocuring": 16867,
    "Ġcoars": 14269,
    "Ġintruder": 25991,
    "ulgences": 21863,
    "duct": 3506,
    "Ġiteratively": 3057,
    "clifford": 23155,
    "Ġresurrection": 12890,
    "Ġcausal": 3409,
    "Ġcomplaint": 24776,
    "Ġrepeated": 3830,
    "netherfield": 9811,
    "asions": 12647,
    "chorus": 19810,
    "itoring": 21330,
    "hero": 21203,
    "ontory": 10458,
    "Ġye": 900,
    "Ġstructures": 2720,
    "declaration": 25175,
    "informed": 17735,
    "Ġcracking": 14572,
    "itious": 8778,
    "Ġevanesc": 24293,
    "obli": 23092,
    "Ġmummy": 25768,
    "Ġreader": 11931,
    "Ġyarn": 10866,
    "suspicions": 25391,
    "Ġarg": 4766,
    "Ġcele": 9898,
    "sory": 17658,
    "spark": 18689,
    "compliment": 11362,
    "Ġdepart": 4655,
    "icken": 6711,
    "Ġpequod": 2322,
    "Ġchoosing": 19589,
    "Ġw": 272,
    "Ġcam": 10160,
    "Ġregimentals": 19857,
    "Ġdeser": 3886,
    "anchor": 13887,
    "Ġlands": 6594,
    "==": 944,
    "Ġlocks": 11721,
    "Ġprognost": 15279,
    "Ġnotorious": 18223,
    "superstitiousness": 25508,
    "Ġstretching": 10013,
    "hole": 5585,
    "Ġap": 5008,
    "shapes": 22455,
    "Ġones": 3022,
    "strike": 14947,
    "giv": 13720,
    "bench": 16802,
    "Ġtopic": 9404,
    "Ġunmindful": 22064,
    "commod": 16168,
    "ugal": 19018,
    "Ġadvocate": 13674,
    "Ġvariations": 22664,
    "earnest": 12396,
    "Ġpenalizing": 13089,
    "Ġstumble": 26481,
    "sw": 4741,
    "Ġserene": 8167,
    "emin": 8469,
    "Ġinspire": 11992,
    "spouter": 22735,
    "Ġnast": 15635,
    "leaves": 12574,
    "Ġalgorithms": 834,
    "Ġ59": 24326,
    "Ġhideousness": 16914,
    "Ġbeen": 626,
    "Ġdines": 21422,
    "Ġsuavely": 26522,
    "looked": 6084,
    "Ġdeposition": 18611,
    "f": 74,
    "Ġresol": 2668,
    "Ġgravel": 14100,
    "athered": 6972,
    "Ġtor": 8106,
    "Ġimportance": 4900,
    "Ġmanaged": 7907,
    "Ġelevating": 19727,
    "ache": 8518,
    "Ġthenceforth": 25182,
    "Ġroots": 11183,
    "subs": 14299,
    "Ġmccarthys": 19661,
    "Ġconfide": 13096,
    "sive": 4144,
    "Ġroused": 7624,
    "Ġdiscipl": 22780,
    "ums": 10271,
    "Ġmouldings": 24737,
    "vision": 5619,
    "took": 6164,
    "Ġvind": 10248,
    "woods": 13417,
    "riages": 10242,
    "Ġcapricious": 20537,
    "Ġspout": 3279,
    "Ġporing": 21466,
    "Ġsuffocated": 20727,
    "dÃ¦mon": 17526,
    "put": 414,
    "Ġtet": 21156,
    "Ġ270": 25130,
    "Ġbatch": 889,
    "whal": 10938,
    "Ġcommunicate": 10576,
    "Ġinsult": 6747,
    "contain": 18498,
    "corrid": 24483,
    "shell": 16284,
    "Ġslightly": 7293,
    "adays": 14011,
    "initely": 7569,
    "Ġzoned": 22818,
    "Ġencountered": 8322,
    "Ġfire": 2332,
    "snow": 10723,
    "frozen": 25139,
    "belt": 24032,
    "though": 2115,
    "complexion": 14358,
    "fishers": 24928,
    "hos": 15361,
    "Ġnormalization": 1240,
    "unk": 4537,
    "Ġbolted": 12241,
    "pread": 7418,
    "Ġcares": 9365,
    "oug": 431,
    "Ġfanciful": 24788,
    "ot": 346,
    "Ġwantest": 18789,
    "bar": 7542,
    "ket": 17581,
    "Ġhunsford": 6301,
    "bit": 3931,
    "Ġsuperlatively": 26075,
    "incredible": 16497,
    "Ġinjure": 16780,
    "Ġhistories": 14686,
    "rously": 17653,
    "crews": 15041,
    "moid": 2454,
    "loat": 8885,
    "Ġcynical": 25770,
    "Ġcasks": 7522,
    "Ġblended": 16216,
    "entitled": 21566,
    ":": 30,
    "app": 1039,
    "Ġgallery": 10523,
    "significant": 25082,
    "legs": 13180,
    "Ġgn": 8816,
    "Ġadoption": 24948,
    "itime": 15544,
    "Ġceremonies": 24836,
    "ann": 5802,
    "Ġdenying": 14657,
    "Ġbroom": 18906,
    "eland": 11617,
    "Ġdrunken": 12047,
    "Ġtra": 1384,
    "Ġunshored": 25813,
    "de": 461,
    "mortals": 25409,
    "Ġconsort": 18723,
    "Ġprofessors": 14723,
    "steelkilt": 10045,
    "Ġbunch": 11324,
    "arman": 11592,
    "Ġcontour": 18474,
    "pine": 13767,
    "aph": 10952,
    "ench": 21278,
    "iform": 2201,
    "Ġjulia": 22300,
    "Ġunbelief": 22047,
    "handle": 11188,
    "inj": 9150,
    "Ġsubur": 12952,
    "hangs": 15366,
    "down": 3468,
    "Ġnumer": 3639,
    "Ġexig": 21824,
    "exceedingly": 9565,
    "res": 2759,
    "mens": 20968,
    "Ġfath": 7364,
    "wondering": 19844,
    "invariably": 26415,
    "Ġcontribute": 12857,
    "Ġproposal": 10017,
    "came": 4568,
    "Ġmetaphys": 16390,
    "Ġwra": 5906,
    "Ġmeetings": 16531,
    "photograph": 16148,
    "actory": 8906,
    "supportable": 12367,
    "Ġjunior": 15097,
    "www": 17250,
    "remains": 10397,
    "standard": 22434,
    "Ġsixteen": 8283,
    "Ġfuss": 13903,
    "Ġtypes": 8935,
    "Ġfibres": 12947,
    "dead": 8180,
    "Ġunjustly": 17125,
    "distrust": 19569,
    "place": 4154,
    "Ġcomm": 840,
    "Ġnoiselessly": 22862,
    "Ġderision": 16306,
    "aders": 21756,
    "Ġwards": 17789,
    "Ġfastening": 16354,
    "Ġwhir": 6393,
    "Ġanyhow": 14253,
    "Ġconduct": 3733,
    "Ġcargo": 16287,
    "Ġrel": 1093,
    "Ġhilarious": 20297,
    "ilations": 21720,
    "deed": 1516,
    "era": 13845,
    "steam": 23957,
    "pockets": 16208,
    "go": 2064,
    "Ġimposs": 16615,
    "Ġdisabled": 18561,
    "Ġrehears": 15696,
    "Ġsling": 21219,
    "make": 5793,
    "Ġpreliminaries": 25176,
    "Ġhandling": 8911,
    "Ġwomen": 4750,
    "Ġfluid": 11210,
    "Ġisland": 4049,
    "Ġbonnet": 10654,
    "violence": 16476,
    "urious": 21701,
    "Ġuncouth": 14548,
    "Ġbug": 11586,
    "Ġpartake": 18673,
    "Ġobjection": 6585,
    "flutterings": 26605,
    "Ġsmith": 16061,
    "chanced": 18809,
    "dismay": 19152,
    "Ġwithout": 1119,
    "since": 5895,
    "Ġoppressively": 25712,
    "les": 1016,
    "Ġunseason": 22050,
    "Ġtinkling": 25212,
    "Ġpiazza": 26449,
    "Ġundaunted": 24118,
    "Ġbroiled": 18908,
    "Ġult": 9073,
    "never": 3149,
    "hes": 1397,
    "Ġsubstitute": 16725,
    "Ġperturbation": 20439,
    "Ġloads": 22112,
    "Ġbureau": 11587,
    "Ġstepmother": 16085,
    "ib": 1233,
    "Ġalone": 2571,
    "Ġlent": 21545,
    "unwittingly": 25801,
    "Ġjurors": 17342,
    "Ġpaid": 5015,
    "Ġsoftware": 18918,
    "Ġgrass": 5177,
    "terrific": 25040,
    "Ġticklish": 25034,
    "enge": 21279,
    "Ġinvestigations": 17245,
    "Ġobligation": 13242,
    "Ġgiving": 4087,
    "purpose": 10042,
    "Ġdesert": 6726,
    "icorn": 15653,
    "Ġunderstanding": 1838,
    "Ġdolph": 12377,
    "Ġamput": 16030,
    "Ġunaware": 22057,
    "ush": 3633,
    "ifix": 21901,
    "Ġdevious": 22718,
    "Ġelixir": 26554,
    "Ġcatholic": 20680,
    "Ġwrist": 8243,
    "Ġcollections": 22853,
    "Ġnurse": 9515,
    "Ġarray": 12807,
    "terror": 18128,
    "Ġplata": 25117,
    "ĠĠĠĠĠĠĠĠĠĠĠĠĠ": 22560,
    "Ġinjustice": 9189,
    "linked": 17592,
    "Ġpuzzling": 14894,
    "idy": 21762,
    "Ġthrob": 21516,
    "71": 20755,
    "Ġwealth": 7621,
    "ġ": 226,
    "henomena": 20271,
    "Ġquestioned": 14619,
    "oried": 10801,
    "tures": 21068,
    "ateg": 1360,
    "Ġnarratives": 24352,
    "mes": 1197,
    "Ġmillar": 13859,
    "thyself": 19297,
    "archbishop": 22904,
    "arle": 21439,
    "stri": 6248,
    "extric": 22768,
    "Ġtrowsers": 9626,
    "Ġwarmly": 8986,
    "gentlemen": 9502,
    "Ġtuck": 10139,
    "Ĩ": 233,
    "spersed": 22736,
    "alvan": 21502,
    "Ġdistribut": 843,
    "lass": 5993,
    "Ġinattention": 17931,
    "Ġproportionably": 19969,
    "Ġfl": 1280,
    "Ġentertainment": 12219,
    "Ġ184": 16606,
    "Ġsil": 1798,
    "Ġtre": 2542,
    "ge": 560,
    "ment": 695,
    ",âĢĶâĢĺ": 23800,
    "ood": 963,
    "ack": 614,
    "Ġclosed": 4603,
    "Ġdinn": 23978,
    "sentence": 2943,
    "vand": 21107,
    "carried": 16711,
    "Ġclassical": 22619,
    "charles": 14697,
    "Ġsnatching": 10471,
    "Ġlivelihood": 24774,
    "ucumber": 19060,
    "sig": 2878,
    "Ġg": 310,
    "Ġpott": 21467,
    "Ġsacrifice": 9554,
    "Ġaverage": 3137,
    "Ġluxuries": 25163,
    "Ġbewildered": 15211,
    "abulary": 4800,
    "Ġundet": 16703,
    "Ġparalle": 1408,
    "Ġsignal": 5945,
    "Ġrome": 12152,
    "Ġencompassed": 15251,
    "Ġfirmness": 11235,
    "Ġrates": 1403,
    "Ġstudy": 1773,
    "Ġeve": 13968,
    "etah": 12657,
    "Ġinner": 9669,
    "rudence": 7092,
    "Ġconfound": 23303,
    "Ġchoice": 2164,
    "orious": 6008,
    "Ġpetersburgh": 24227,
    "stall": 21638,
    "Ġfatigued": 13463,
    "Ġwail": 21285,
    "cock": 12022,
    "Ġreveal": 11198,
    "Ġsmiling": 5474,
    "Ġmo": 628,
    "some": 2234,
    "Ġbarbarously": 24819,
    "sky": 12507,
    "Ġgibe": 25959,
    "Ġramad": 8527,
    "Ġstem": 15715,
    "Ġsurve": 9872,
    "Ġfinny": 23126,
    "Ġolder": 9325,
    "Ġhaul": 11689,
    "sweetly": 25134,
    "moran": 24151,
    "minutely": 19592,
    "bet": 6109,
    "Ġfolk": 10374,
    "Ġspur": 18303,
    "Ġrobust": 1314,
    "aint": 2547,
    "Ġfro": 3470,
    "Ġsensibly": 14515,
    "avoiding": 25236,
    "Ġentering": 6285,
    "reply": 19721,
    "Ġsporty": 19889,
    "Ġrhone": 25230,
    "Ġsum": 2701,
    "Ġscramble": 24577,
    "Ġbuoyed": 20039,
    "Ġtreated": 7080,
    "yd": 21141,
    "Ġports": 10817,
    "generative": 4329,
    "Ġref": 911,
    "theories": 18078,
    "Ġsurrey": 14557,
    "Ġpond": 13914,
    "Ġtigris": 25759,
    "Ġmend": 8406,
    "Ġcourting": 23289,
    "Ġmelancholy": 5605,
    "Ġintegrated": 13529,
    "Ġrelatives": 12978,
    "Ġsits": 10767,
    "Ġhogshe": 20490,
    "Ġ43": 14767,
    "assin": 22303,
    "Ġgift": 10839,
    "ber": 883,
    "Ġmead": 8833,
    "ad": 337,
    "Ġelsewhere": 7713,
    "wam": 10134,
    "assault": 22304,
    "species": 13254,
    "concluded": 11240,
    "irous": 8837,
    "Ġcommenting": 25228,
    "oring": 1863,
    "entle": 1738,
    "Ġphara": 23197,
    "Ġscaling": 3632,
    "Ġfancy": 3745,
    "lone": 11497,
    "Ġodorous": 19565,
    "Ġrudder": 25107,
    "Ġdevilish": 11226,
    "Ġexpressions": 7706,
    "Ġdiffidence": 14658,
    "its": 1151,
    "elter": 21569,
    "Ġcaresses": 26059,
    "Ġcutting": 4983,
    "reference": 13838,
    "Ġabusive": 22271,
    "Ġwits": 15529,
    "Ġdivide": 12107,
    "Ġdesolate": 10011,
    "Ġannoyance": 20661,
    "Ġglow": 7170,
    "gences": 20876,
    "Ġstreets": 5863,
    "Ġcrevice": 22725,
    "Ġkeels": 11059,
    "Ġrecess": 10845,
    "Ġassociates": 24712,
    "Ġarabic": 24980,
    "6": 26,
    "Ġestimation": 11216,
    "Ġmountains": 4426,
    "stra": 4046,
    "folio": 10545,
    "Č": 205,
    "Ġlonger": 3358,
    "overed": 2857,
    "Ġadmon": 15865,
    "danger": 10088,
    "Ġcommunity": 19008,
    "Ġconsent": 5372,
    "Ġinhuman": 13927,
    "Ġsust": 7006,
    "Ġtrunk": 7206,
    "considering": 12171,
    "Ġpuzzled": 7317,
    "aside": 10190,
    "brim": 23574,
    "Ġbearing": 5298,
    "Ġregarding": 13208,
    "Ġomen": 11573,
    "Ġprecipices": 12274,
    "Ġdepended": 9775,
    "pooh": 18802,
    "Ġmoods": 14949,
    "inate": 6233,
    "madam": 24420,
    "Ġsomehow": 4841,
    "Ġsymmet": 11744,
    "ppered": 15787,
    "street": 6495,
    "figures": 20120,
    "many": 5249,
    "perpendicular": 14158,
    "Ġgros": 14821,
    "Ġmalicious": 10556,
    "Ġbush": 23336,
    "Ġtherein": 11773,
    "Ġshocking": 10434,
    "Ġfirm": 3870,
    "rating": 7809,
    "exc": 5169,
    "Ġmud": 11570,
    "Ġease": 5629,
    "mselves": 2865,
    "Ġdestroyer": 13411,
    "Ġdiminished": 16664,
    "Ġquebec": 24131,
    "pulous": 15414,
    "extensive": 18711,
    "Ġunch": 18239,
    "conscience": 14858,
    "bordered": 17497,
    "duodecimo": 15999,
    "Ġlit": 6246,
    "pping": 1421,
    "Ġrubbing": 9319,
    "Ġbuck": 7157,
    "inates": 21179,
    "Ġhousehold": 8567,
    "accustomed": 13155,
    "oniously": 21256,
    "Ġracket": 22652,
    "Ġkeener": 22913,
    "Ġpeople": 2549,
    "Ġaltitude": 26202,
    "isp": 5528,
    "entials": 22662,
    "monster": 8592,
    "Ġsharing": 3476,
    "Ġdetermines": 2369,
    "Ġsuffered": 5649,
    "Ġshining": 8172,
    "Ġreferred": 8915,
    "Ġpresto": 22228,
    "indef": 17734,
    "Ġcaucus": 17378,
    "Ġmildly": 9028,
    "Ġunsupervised": 2482,
    "Ġlamb": 8811,
    "smile": 23903,
    "Ġsuppose": 2869,
    "Ġhog": 13922,
    "imate": 4222,
    "ustration": 2257,
    "Ġlife": 1352,
    "Ġresembling": 4100,
    "Ġliable": 14227,
    "brothers": 17023,
    "Ġduplicates": 17215,
    "Ġhysterics": 26093,
    "Ġowned": 11873,
    "Ġdisagreeable": 9296,
    "heavily": 24533,
    "Ġsentinel": 26065,
    "paradise": 20635,
    "Ġdelivery": 18976,
    "Ġyawning": 12297,
    "Ġsmokes": 22557,
    "uneven": 23681,
    "Ġsagacity": 16973,
    "Ġdeclare": 6613,
    "Ġgibraltar": 25787,
    "Ġgoat": 16004,
    "Ġneskyeuna": 26458,
    "money": 8749,
    "Z": 62,
    "abs": 11665,
    "Ġtowed": 11263,
    "Ġabed": 22263,
    "Ġcasting": 12097,
    "parable": 16381,
    "prophecy": 22847,
    "nd": 11501,
    "a": 69,
    "Ġprophesied": 26062,
    "Ġpudding": 17915,
    "circumamb": 26087,
    "aled": 3943,
    "Ġhindrance": 25220,
    "scand": 18849,
    "seam": 10872,
    "peasant": 23108,
    "Ġtempest": 8214,
    "fluttering": 23970,
    "arrested": 15597,
    "Ġtiny": 11550,
    "Ġsymmetrical": 20365,
    "Ġming": 9644,
    "fooled": 24418,
    "Ġdistrict": 10317,
    "robe": 15638,
    "Ġlivid": 14987,
    "Ġgum": 21593,
    "icha": 11735,
    "Ġfaced": 10807,
    "Ġstandpoint": 23276,
    "Ġridge": 14817,
    "Ġmaking": 1779,
    "Ġhumbly": 16195,
    "ees": 13709,
    "Ġhogarth": 25780,
    "Ġshin": 18227,
    "Ġwhirled": 14958,
    "Ġdisappointed": 7097,
    "om": 316,
    "iour": 4038,
    "Ġrepugn": 23362,
    "Ġunlab": 3787,
    "Ġsunbeam": 23274,
    "Ġelimin": 16105,
    "kered": 18274,
    "Ġassuming": 16692,
    "Ġadjusts": 8979,
    "Ġexamining": 8006,
    "rennial": 22339,
    "tiger": 13795,
    "Ġmusic": 5268,
    "byter": 16212,
    "Ġwithin": 2162,
    "investigations": 25533,
    "speed": 19407,
    "Ġdisgusted": 14988,
    "variance": 2659,
    "dressed": 10694,
    "bert": 4661,
    "measure": 10029,
    "infallibly": 26416,
    "Ġohio": 19128,
    "Ġjutting": 22299,
    "Ġhawsers": 26501,
    "Ġsuppl": 11077,
    "Ġ199": 3012,
    "uble": 21101,
    "Ġwooden": 4729,
    "Ġindef": 9188,
    "Ġwhether": 2001,
    "Ġillustrative": 25066,
    "Ġunsh": 14113,
    "Ġstuffed": 13407,
    "chain": 18039,
    "ions": 449,
    "ass": 536,
    "----": 4059,
    "inously": 21185,
    "mic": 12485,
    "Ġapplication": 2198,
    "esting": 7412,
    "Ġell": 17714,
    "Ġbarrier": 16568,
    "Ġrelapses": 26278,
    "Ġliv": 6679,
    "Ġcapacity": 10439,
    "Ġsk": 961,
    "Ġcommitted": 7431,
    "Ġgrounded": 23710,
    "Ġposs": 1620,
    "Ġsuspect": 5758,
    "Ġcoldly": 14649,
    "movable": 14322,
    "Ġswear": 6461,
    "etics": 21579,
    "Ġwhirlpool": 20654,
    "Ġlistening": 6318,
    "Ġcarriages": 11096,
    "Ġcabal": 23641,
    "Ġpositives": 4316,
    "Ġnoises": 18374,
    "limp": 20951,
    "Ġpoetical": 25056,
    "led": 581,
    "Ġpaling": 21461,
    "wives": 15453,
    "Ġunprotected": 22065,
    "Ġisles": 8459,
    "Ġmoodily": 19833,
    "Ġscorch": 20065,
    "Ġskulls": 12955,
    "striking": 13438,
    "âĢĶâĢĶâĢĿ": 15936,
    "brilliancy": 26077,
    "Ġ77": 24262,
    "kitchen": 17584,
    "Ġtip": 15469,
    "Ġgreen": 3052,
    "Ġ52": 24320,
    "Ġusurpation": 18356,
    "bul": 6951,
    "Ġfairy": 14626,
    "iner": 2673,
    "Ġlongitude": 11009,
    "dishon": 20402,
    "Ġresponsiveness": 2900,
    "Ġvesture": 20060,
    "watch": 6118,
    "nett": 16218,
    "Ġbuckets": 17033,
    "Ġbusiness": 2232,
    "things": 6033,
    "dress": 17519,
    "Ġlashes": 17966,
    "Ġorganization": 7984,
    "holes": 12051,
    "Ġmutilated": 23956,
    "Ġperilously": 24503,
    "Ġarchangel": 8542,
    "isons": 17849,
    "Ġgrimesby": 11455,
    "appropri": 22840,
    "acca": 23596,
    "Ġhaunted": 10252,
    "clear": 9022,
    "Ġshreds": 12766,
    "Ġcompl": 3759,
    "Ġvess": 3294,
    "substance": 15229,
    "Ġcachalot": 17834,
    "Ġtanning": 17728,
    "Ġmidway": 14604,
    "london": 9608,
    "Ġexamine": 7735,
    "gle": 20868,
    "sufficient": 6635,
    "Ġricher": 12755,
    "Ġheadlong": 11885,
    "Ġimputed": 12804,
    "silence": 8045,
    "Ġquiescent": 26242,
    "Ġfolio": 11915,
    "Ġbacks": 8528,
    "nals": 16397,
    "Ġcontent": 5034,
    "Ġch": 512,
    "Ġlump": 21550,
    "Ġproble": 1109,
    "ĠĠĠĠĠĠĠĠĠĠĠĠĠĠĠĠĠĠĠĠĠĠĠĠĠĠĠĠĠĠĠĠĠĠĠĠĠĠĠĠ": 4515,
    "aviour": 11002,
    "Ġjan": 11759,
    "tossed": 10994,
    "zor": 15456,
    "latitudes": 17195,
    "Ġa": 263,
    "Ġknelt": 12155,
    "Ġsettles": 22918,
    "Ġreaders": 18914,
    "Ġhats": 14618,
    "Ġshipwreck": 20444,
    "Ġach": 2626,
    "handedness": 24920,
    "Ġexpose": 10326,
    "Ġpau": 17908,
    "Ġxlvi": 25590,
    "Ġviolet": 19089,
    "Ġimbu": 15887,
    "rees": 5436,
    "Ġexplain": 545,
    "address": 14879,
    "Ġcet": 6669,
    "influence": 13576,
    "Ġsign": 2498,
    "Ġknow": 631,
    "Ġfonder": 17880,
    "Ġweek": 2831,
    "ick": 836,
    "Ġretirement": 25378,
    "Ġarticulate": 24431,
    "Ġsheeted": 19830,
    "medical": 23340,
    "Ġhonorable": 16875,
    "Ġdetestable": 15096,
    "Ġringle": 18210,
    "Ġabiding": 22268,
    "icable": 6388,
    "Ġvillagers": 19472,
    "Ġsnarl": 25715,
    "Ġmathematical": 3349,
    "swing": 15427,
    "Ġhowling": 8509,
    "Ġtitle": 11406,
    "Ġperse": 6271,
    "Ġbeing": 1165,
    "Ġunsav": 18251,
    "Ġnarrating": 24350,
    "Ġir": 1994,
    "ident": 3378,
    "Ġparallel": 1412,
    "Ġgamesome": 17288,
    "Ġsupper": 4664,
    "oton": 3608,
    "Ġdefection": 22940,
    "Ġbountiful": 25944,
    "elope": 14464,
    "Ġengaging": 9334,
    "Ġantelope": 24179,
    "osure": 5306,
    "rely": 6123,
    "Ġprairies": 20019,
    "itative": 13868,
    "Ġmasoned": 20250,
    "Ġchemist": 11132,
    "Ġbeard": 11653,
    "Ġsobbed": 14135,
    "Ġunwaning": 25170,
    "increasing": 20268,
    "Ġtelegraph": 25583,
    "Ġlinks": 13953,
    "Ġmail": 17800,
    "Ġglided": 7447,
    "quest": 4536,
    "oss": 10114,
    "Ġphotograph": 6302,
    "shiver": 16022,
    "Ġfrankness": 16745,
    "rol": 5713,
    "69": 17473,
    "Ġvisible": 4777,
    "Ġtro": 7356,
    "Ġstill": 1158,
    "Ġaisle": 21200,
    "Ġbeg": 1282,
    "leads": 21368,
    "Ġbang": 17854,
    "Ġnoisy": 13316,
    "Ġdynamically": 4073,
    "persecut": 22183,
    "Ġtim": 4577,
    "Ġla": 5913,
    "corrupt": 14893,
    "Ġstranded": 9773,
    "bread": 10683,
    "Ġmutinous": 23955,
    "Ġfluctuations": 5516,
    "Ġirretrie": 23372,
    "recovered": 19786,
    "Ġseasonable": 24405,
    "Ġredress": 23750,
    "Ġscaramouch": 23824,
    "possibly": 10542,
    "Ġpredictions": 1456,
    "Ġgrievous": 13258,
    "Ġcopper": 7425,
    "Ġclutching": 24951,
    "Ġcastor": 19425,
    "is": 280,
    "reck": 9635,
    "Ġpropagating": 20632,
    "Ġwarb": 17787,
    "embarrassed": 20595,
    "Ġvilla": 14745,
    "Ġenh": 3293,
    "mody": 16176,
    "Ġgallon": 24183,
    "Ġridiculous": 10628,
    "Ġcurved": 18855,
    "Ġcrowd": 6336,
    "bitts": 26122,
    "pictures": 15088,
    "contains": 16026,
    "aping": 8194,
    "iage": 17572,
    "occasion": 7754,
    "Ġrepine": 16407,
    "Ġencouraging": 2261,
    "Ġblanched": 26282,
    "Ġmastiff": 23723,
    "brated": 12023,
    "Ġsuperglue": 23456,
    "inf": 6232,
    "bon": 13682,
    "ed": 293,
    "Ġleaks": 16446,
    "ads": 5718,
    "execution": 20470,
    "politeness": 16905,
    "Ġalarm": 4048,
    "Ġharbors": 24901,
    "Ġqual": 6274,
    "Ġstoutest": 24629,
    "eminently": 25105,
    "iet": 1774,
    "Ġadieus": 25110,
    "arcy": 1275,
    "Ġleghorn": 13144,
    "Ġtem": 804,
    "now": 548,
    "Ġbumpkin": 20199,
    "Ġforth": 3462,
    "Ġunimag": 12771,
    "Ġreason": 1359,
    "monograph": 23524,
    "Ġcondesc": 7181,
    "Ġcheever": 23282,
    "Ġrumpled": 24601,
    "Ġspies": 22126,
    "Ġsix": 3044,
    "Ġphaet": 16315,
    "happily": 14656,
    "Ġimprudently": 22381,
    "Ġexalted": 12408,
    "strip": 19829,
    "someone": 14563,
    "Ġsmart": 11812,
    "Ġmarrying": 6177,
    "horse": 8605,
    "Ġvintage": 26209,
    "ios": 2297,
    "Ġ116": 24439,
    "Ġparamount": 15875,
    "narrated": 25621,
    "Ġoffending": 22741,
    "Ġsens": 1855,
    "Ġsupremacy": 20259,
    "Ġbenevol": 5962,
    "anged": 3588,
    "Ġconfident": 11136,
    "Ġshaved": 22000,
    "ost": 5360,
    "Ġlofty": 6217,
    "Ġrequested": 14301,
    "destined": 24113,
    "nns": 1895,
    "Ġtechniques": 2870,
    "arranging": 19317,
    "Ġlik": 2529,
    "Ġfoul": 7159,
    "vint": 21113,
    "Ġslim": 18936,
    "answer": 11729,
    "suited": 22638,
    "Ġbenef": 3488,
    "large": 6625,
    "dz": 4739,
    "Ġadro": 15864,
    "Ġimpose": 22377,
    "Ġtemper": 957,
    "Ġpap": 8796,
    "hatch": 15362,
    "carpet": 25202,
    "Ġpoorly": 9853,
    "Ġvulture": 17337,
    "Åĵuv": 15180,
    "Ġsmothered": 20719,
    "Ġdecomposes": 5506,
    "Ġhorrify": 23815,
    "hall": 8085,
    "Ġimitation": 22169,
    "apse": 14197,
    "Ġrally": 21969,
    "generosity": 23784,
    "Ġdod": 6672,
    "Ġcontemplation": 11355,
    "Ġcapital": 7980,
    "Ġspray": 7895,
    "thrown": 8480,
    "Ġeth": 17715,
    "ceased": 21624,
    "astern": 8581,
    "Ġslo": 15504,
    "Ġservants": 6610,
    "tackles": 25624,
    "Ġpresum": 4837,
    "Ġtiar": 21166,
    "Ġsain": 17749,
    "book": 4668,
    "Ġjuicy": 25370,
    "lar": 4482,
    "Ġplaited": 14281,
    "Ġdefined": 11895,
    "Ġfive": 2840,
    "Ġbus": 1906,
    "Ġargemone": 24273,
    "fed": 11485,
    "Ġceler": 15547,
    "Ġbruited": 25773,
    "Ġadhering": 14139,
    "Ġrenewed": 9536,
    "cob": 10085,
    "warn": 11540,
    "Ġpork": 21456,
    "Ġexcept": 3310,
    "Ġdevelopment": 7058,
    "Ġmerged": 19296,
    "á": 162,
    "Ġpul": 2042,
    "enhall": 13848,
    "Ġconcentrate": 25063,
    "Ġpumps": 8427,
    "Ġschol": 17375,
    "Ġprosecut": 9696,
    "Ġanew": 11428,
    "Ġinch": 7850,
    "ĠĠĠĠĠĠĠĠ": 712,
    "ħ": 232,
    "headers": 23106,
    "tan": 4742,
    "Ġoverflowing": 17236,
    "propriety": 14369,
    "Ġaromatic": 25925,
    "Ġcigars": 12249,
    "ĠĠĠĠĠĠĠĠĠĠĠĠĠĠĠĠĠĠĠĠĠĠĠĠĠĠĠĠĠĠĠ": 19699,
    "ã": 164,
    "Ġuncommon": 5026,
    "fold": 7547,
    "umblings": 23927,
    "unsuitable": 21891,
    "Ġspam": 7631,
    "Ġthan": 736,
    "bal": 2155,
    "Ġintend": 12760,
    "crimin": 17507,
    "Ġequilib": 4137,
    "Ġark": 10275,
    "keen": 12778,
    "grim": 19106,
    "Ġ1671": 25005,
    "aying": 15746,
    "lover": 18536,
    "oes": 4433,
    "Ġinterfere": 11814,
    "ung": 2745,
    "Ġpiled": 8425,
    "Ġoverpow": 14205,
    "Ġflutter": 16246,
    "Ġreigns": 21669,
    "Ġpatroness": 13508,
    "uniform": 18157,
    "Ġenjoying": 11232,
    "heed": 15496,
    "mai": 22912,
    "Ġlowest": 11120,
    "Ġindignity": 18833,
    "ner": 1372,
    "doubt": 6782,
    "agony": 14067,
    "invest": 11557,
    "Ġscreaming": 13421,
    "Ġclay": 7018,
    "slo": 17655,
    "alterable": 13622,
    "_,âĢĻ": 12430,
    "far": 5787,
    "Ġsneezing": 12244,
    "anting": 6412,
    "extraordinary": 9093,
    "mistress": 14903,
    "Ġinde": 7371,
    "mate": 5358,
    "Ġcocain": 18592,
    "Ġdrifted": 14624,
    "Ġdad": 12596,
    "list": 7552,
    "Ġfishy": 16521,
    "Ġbright": 3211,
    "Ġtwenty": 3949,
    "Ġbachel": 7158,
    "sister": 5139,
    "Ġjoes": 19230,
    "deserted": 18959,
    "Ġsleeves": 10659,
    "Ġkrusenstern": 20713,
    "Ġwestern": 10653,
    "Ġoughts": 23898,
    "Ġdetermined": 2222,
    "Ġfeatures": 1429,
    "lizzy": 6651,
    "Ġcrying": 10785,
    "Ġflight": 6580,
    "Ġbecalmed": 18086,
    "Ġontario": 26204,
    "Ġhumbug": 18779,
    "sust": 15420,
    "Ġinsincere": 26598,
    "Ġunwilling": 7887,
    "Ġhelmet": 19686,
    "Ġjail": 22292,
    "perai": 10274,
    "tarpaulins": 26404,
    "Ġaforethought": 25428,
    "introduced": 15122,
    "Ġreach": 4047,
    "somewhere": 12009,
    "Ġpigeon": 9514,
    "Ġelemental": 19918,
    "blooded": 20021,
    "T": 56,
    "oft": 3591,
    "tedious": 22631,
    "ist": 448,
    "Ġreferences": 21672,
    "Ġdisappointment": 6626,
    "Ġdeeds": 15755,
    "superst": 11323,
    "....": 11314,
    "Ġalliance": 18235,
    "Ġtouches": 20569,
    "Ġeat": 4642,
    "glimmer": 26321,
    "|": 96,
    "drovand": 24760,
    "Ġalex": 15131,
    "Ġinward": 11604,
    "Ġ117": 19696,
    "atlantic": 15521,
    "Ġshoreless": 24294,
    "Ġorganize": 8990,
    "deficient": 23115,
    "Ġincorruption": 26309,
    "Ġdressed": 5081,
    "dart": 20825,
    "Ġminister": 18751,
    "Ġexcurs": 23313,
    "itable": 5437,
    "Ġsymbolize": 24962,
    "Ġperils": 6272,
    "uity": 12514,
    "Ġknave": 11270,
    "Ġif": 697,
    "Ġhorses": 6385,
    "asible": 21540,
    "manif": 14371,
    "nowhere": 18418,
    "forever": 22517,
    "Ġdared": 5440,
    "Ġundeviating": 15215,
    "Ġsabbath": 17253,
    "empl": 5724,
    "Ġdesired": 4663,
    "Ġredness": 19311,
    "Ġprynne": 25540,
    "Ġchuck": 8501,
    "Ġinquest": 16546,
    "ckets": 6843,
    "Ġbruised": 25772,
    "Ġtempestuous": 20069,
    "finger": 10092,
    "Ġdey": 11673,
    "Ġgnashed": 20131,
    "Ġattentively": 9948,
    "Ġmomentary": 11033,
    "Ġtut": 8769,
    "Ġaccosted": 13670,
    "Ġrails": 22651,
    "Ġleft": 1759,
    "qu": 369,
    "unpardonable": 21888,
    "revenge": 13840,
    "Ġqueequeg": 2015,
    "Ġlullaby": 20586,
    "Ġsaid": 577,
    "Ġrecompense": 14836,
    "Ġmax": 2008,
    "Ġvivacious": 19814,
    "_.âĢĶ": 23471,
    "Ġwon": 1668,
    "ilst": 8144,
    "Ġrows": 10560,
    "sails": 7498,
    "Ġsensit": 2951,
    "Ġopen": 1551,
    "Ġinquir": 4242,
    "Ġepicures": 25880,
    "Ġemployment": 8628,
    "shorn": 22450,
    "Ġjingling": 26017,
    "ignation": 11126,
    "any": 3336,
    "flame": 16636,
    "Ġxl": 11986,
    "Ġlogical": 14485,
    "Ġfa": 4819,
    "mechan": 11854,
    "Ġstrides": 22615,
    "Ġunsafe": 22039,
    "Ġengraved": 17080,
    "Ġmounting": 19975,
    "Ġthe": 270,
    "Ġmoles": 22430,
    "Ġalms": 21778,
    "Ġepic": 15028,
    "Ġflock": 21410,
    "Ġchristians": 13306,
    "Ġconstraint": 16512,
    "Ġstrict": 7222,
    "cried": 8724,
    "Ġdomin": 10463,
    "Ġje": 4124,
    "Ġdull": 6384,
    "ease": 12454,
    "Ġbatt": 13897,
    "Ġchast": 18380,
    "Ġdam": 2216,
    "Ġinflex": 20633,
    "Ġshorter": 4497,
    "Ġcavity": 20486,
    "87": 20756,
    "Ġimpo": 3441,
    "arling": 10813,
    "Ġarches": 14161,
    "umbent": 12092,
    "ression": 3404,
    "Ġslappin": 18942,
    "Ġspleen": 26420,
    "Ġinclemency": 22553,
    "Ġmess": 7832,
    "battle": 12439,
    "Ġruffled": 25835,
    "Ġtragic": 15253,
    "Ġintricacies": 15136,
    "Ġalighted": 18103,
    "urn": 777,
    "Ġlinen": 12404,
    "Ġmaintains": 2143,
    "Ġbrilliant": 11412,
    "Ġobservable": 25126,
    "Ġanteced": 26177,
    "Ġpensive": 21474,
    "devils": 20031,
    "Ġfrayed": 23290,
    "ois": 9133,
    "Ġshilling": 18228,
    "self": 617,
    "hamlet": 23261,
    "Ġrationally": 18213,
    "Ġsusp": 2666,
    "crawling": 16957,
    "Ġjustice": 5111,
    "Ġhoard": 23351,
    "acknowledged": 15200,
    "enses": 10992,
    "Ġqueens": 16705,
    "Ġannum": 24202,
    "Ġproviding": 1361,
    "Ġnowadays": 18546,
    "Ġrecollection": 6620,
    "sixty": 24852,
    "Ġstood": 2556,
    "irst": 878,
    "izard": 10881,
    "Ġpurse": 12007,
    "embraced": 25804,
    "meaning": 2911,
    "Ġremain": 1876,
    "Ġchewed": 16367,
    "Ġbaw": 15565,
    "Ġferoc": 14900,
    "Ġstead": 5650,
    "Ġinsulated": 23676,
    "dropped": 12259,
    "Ġsoldier": 16919,
    "Ġpo": 737,
    "Ġcompress": 21847,
    "Ġgips": 11623,
    "Ġmoonshine": 19596,
    "irations": 18170,
    "Ġmonths": 3455,
    "tray": 21076,
    "Ġruined": 12950,
    "Ġsplendid": 17212,
    "Ġaware": 5756,
    "set": 3865,
    "penetrating": 25490,
    "immedi": 8450,
    "rael": 21627,
    "Ġanalyzing": 18799,
    "Ġactionable": 24558,
    "Ġimpute": 18331,
    "pt": 386,
    "Ġrealising": 18983,
    "dings": 2187,
    "chased": 18041,
    "Ġmexic": 14029,
    "Ġsails": 5256,
    "ucy": 15442,
    "Ġpierced": 12278,
    "Ġbound": 3518,
    "sed": 4177,
    "itate": 6667,
    "Ġwaited": 4908,
    "placidity": 25988,
    "ades": 5631,
    "till": 6965,
    "Ġunderneath": 16335,
    "Ġchamois": 16799,
    "mind": 4625,
    "ivance": 22081,
    "Ġconcealed": 7496,
    "musical": 25340,
    "Ġmark": 2330,
    "naturalists": 23540,
    "mon": 2307,
    "Ġcate": 4111,
    "oir": 21001,
    "report": 13397,
    "Ġinsc": 7586,
    "Ġbeckoned": 25793,
    "Ġapparently": 6778,
    "ach": 435,
    "Ġdisinclination": 22534,
    "Ľ": 254,
    "Ġnormalizes": 1866,
    "Ġnoon": 6559,
    "arity": 1301,
    "Ġsuffice": 18869,
    "Ġpantry": 20294,
    "lucas": 15149,
    "cain": 15324,
    "Ġpooh": 18603,
    "Ġfalsehood": 10522,
    "axed": 8887,
    "Ġobliging": 13241,
    "Ġfiddle": 25444,
    "Ġalert": 18101,
    "Ġfarmhouse": 24986,
    "Ġminutely": 14559,
    "blades": 24129,
    "Ġcosmopol": 16453,
    "Ġutterance": 14761,
    "Ġglass": 4367,
    "Ġportents": 14678,
    "Ġoverall": 4357,
    "Ġcountries": 13094,
    "Ġdearest": 5457,
    "Ġdepress": 14044,
    "Ġal": 342,
    "Ġexercising": 19906,
    "Ġsparks": 22130,
    "Ġmarines": 16257,
    "Ġinsens": 8277,
    "rah": 8137,
    "Ġsoutherly": 23333,
    "Ġroll": 5381,
    "Ġmoreover": 6163,
    "Ġcruisings": 25864,
    "eth": 619,
    "Ġswings": 11085,
    "Ġyer": 15730,
    "Ġ101": 24408,
    "Ġcooped": 22579,
    "actually": 14293,
    "Ġstamped": 13525,
    "alleled": 14427,
    "ilege": 22256,
    "onsible": 22559,
    "ĺ": 251,
    "bulk": 19923,
    "furthest": 19840,
    "roused": 16651,
    "shaped": 10306,
    "dition": 15338,
    "whereby": 23416,
    "Ġmistake": 6203,
    "meditation": 19068,
    "Ġthere": 565,
    "meanwhile": 10608,
    "Ġfeelings": 2457,
    "ishe": 13889,
    "ersampling": 18216,
    "Ġnephews": 24713,
    "iac": 6225,
    "print": 23808,
    "Ġemerging": 24613,
    "voy": 7143,
    "Ġother": 759,
    "_.âĢĻâĢĿ": 17478,
    "Ġtooth": 9191,
    "use": 2541,
    "Ġgradually": 3400,
    "ind": 568,
    "uarded": 21104,
    "again": 3398,
    "Ġseasoned": 24404,
    "ifying": 5251,
    "Ġwo": 3651,
    "Ġtrough": 15972,
    "ounced": 4954,
    "league": 17844,
    "Ġchannels": 26013,
    "Ġmedit": 8019,
    "uring": 819,
    "Ġfac": 6381,
    "offing": 23332,
    "Ġunfavourable": 17415,
    "Ġcurious": 3359,
    "Ġcomposure": 7217,
    "Ġele": 1963,
    "Ġgather": 6534,
    "Ġmelting": 24287,
    "Ġimpertin": 6933,
    "umpled": 15873,
    "Ġdiscernment": 15053,
    "os": 526,
    "plentiful": 21954,
    "longbourn": 9894,
    "alescence": 15921,
    "Ġmanoir": 22329,
    "Ġagitation": 6865,
    "visual": 24221,
    "Ġmilan": 19534,
    "ours": 3426,
    "Ġhes": 6250,
    "ource": 5243,
    "Ġ45": 14768,
    "Ġgracious": 8845,
    "Ġmermaid": 17813,
    "lanterns": 17427,
    "Ġchap": 5934,
    "oking": 4605,
    "Ġtruce": 24114,
    "mansion": 20982,
    "Ġexh": 5232,
    "Ġlewis": 15721,
    "Ġcurls": 22994,
    "scr": 16239,
    "Ġbearded": 15723,
    "Ġnailing": 21525,
    "Ñ": 146,
    "Ġrevol": 5536,
    "erce": 6126,
    "Ġrags": 18645,
    "ruction": 4356,
    "ppa": 10238,
    "ckles": 22087,
    "Ġwestward": 24388,
    "be": 669,
    "Ġendeavored": 19302,
    "seems": 10873,
    "Ġimportant": 1052,
    "cut": 3121,
    "Ġintimate": 6549,
    "Ġneeded": 7718,
    "Ġthine": 7374,
    "Ġadvancement": 24474,
    "pondicherry": 26399,
    "Ġno": 510,
    "throw": 14096,
    "ferent": 4196,
    "osp": 6854,
    "Ġdownright": 16115,
    "Ġcosine": 2375,
    "Ġquadrant": 11402,
    "sombre": 23851,
    "Ġhardest": 18912,
    "Ġdella": 21438,
    "Ġweariness": 19793,
    "Ġenough": 1760,
    "Ġre": 317,
    "upright": 23016,
    "numerous": 17429,
    "surgeon": 24213,
    "ucket": 2487,
    "access": 11178,
    "Ġcannibals": 10586,
    "Ġnumerous": 6920,
    "Ġsprawling": 22137,
    "Ġproblem": 1272,
    "Ġforgot": 4682,
    "Ġtolerably": 8068,
    "Ġfade": 21406,
    "vest": 6230,
    "Ġrapt": 7227,
    "!âĢĶâĢĻ": 23564,
    "Ġpersistence": 2950,
    "Ġdesc": 762,
    "Ġug": 8141,
    "Ġsog": 22076,
    "Ġinexper": 16979,
    "Ġsimulation": 2751,
    "everywhere": 23697,
    "Ġlavater": 20494,
    "Ġpubl": 3939,
    "Ġpaltry": 16691,
    "Ġhammock": 5768,
    "Ġlegisl": 23532,
    "cake": 20803,
    "ispiece": 19724,
    "uzz": 4522,
    "idays": 21768,
    "nels": 12492,
    "eaten": 20343,
    "Ġmention": 2989,
    "Ġreturning": 5325,
    "welt": 12517,
    "onial": 11564,
    "spade": 10338,
    "nihil": 9842,
    "causing": 25518,
    "Ġobject": 1394,
    "elzebub": 26463,
    "Ġparts": 4165,
    "ersburgh": 18215,
    "Ġbecomes": 6396,
    "Ġtailed": 21167,
    "Ġagile": 22510,
    "Ġbridge": 8349,
    "prodig": 16424,
    "Ġmoulded": 16974,
    "Ġtresses": 21174,
    "values": 4973,
    "ignific": 11952,
    "Ġrendering": 16656,
    "Ġ32": 19487,
    "Ġhome": 2030,
    "Ġseizure": 21962,
    "importance": 9987,
    "danced": 20827,
    "Ġbri": 21376,
    "Ġimprudence": 10293,
    "ourably": 14375,
    "Ġdarting": 7757,
    "Ġburly": 19249,
    "Ġcommend": 10333,
    "Ġstove": 6733,
    "Ġpendulous": 25955,
    "accusations": 23598,
    "Ġscorching": 20066,
    "Ġgraph": 10900,
    "sol": 1791,
    "footsteps": 25199,
    "Ġexplicit": 3589,
    "zen": 5140,
    "Ġimmensely": 13593,
    "Ġshovel": 23489,
    "Ġavocation": 23950,
    "men": 1485,
    "abri": 6682,
    "Ġmizzen": 20288,
    "gledy": 25403,
    "changed": 7175,
    "rannical": 26400,
    "Ġunnatural": 7190,
    "Ġprayed": 16666,
    "Ġambitious": 18513,
    "Ġplace": 1655,
    "disagreeable": 11161,
    "lun": 20945,
    "Ġdesire": 3717,
    "minds": 24231,
    "Ġbraided": 16580,
    "involved": 25626,
    "erring": 11055,
    "Ġretrogress": 23071,
    "prop": 1044,
    "Ġfur": 990,
    "Ġhint": 5016,
    "Ġneurons": 978,
    "p": 84,
    "Ġprofundity": 20451,
    "steaks": 23958,
    "Ġidolator": 19996,
    "Ġlub": 15645,
    "assumed": 22306,
    "answering": 26004,
    "Ġstrings": 11826,
    "Ġrelates": 12977,
    "breast": 11243,
    "Ġhertfordshire": 5377,
    "Ġbull": 7840,
    "vigorous": 25917,
    "Ġvenge": 5420,
    "Ġdelightful": 6320,
    "stonecraft": 24355,
    "Ġobliquely": 12359,
    "Ġmisfortune": 5568,
    "ould": 427,
    "gird": 20878,
    "prairies": 20565,
    "irmed": 9237,
    "Ġinvitation": 5189,
    "Ġrestoration": 19026,
    "Ġdefence": 11065,
    "retched": 3068,
    "Ġhyper": 19738,
    "Ġinsight": 16528,
    "Ġcollected": 2616,
    "Ġcrucial": 9891,
    "Ġcompliments": 8632,
    "Ġincurable": 22550,
    "widows": 25344,
    "phenomenon": 17647,
    "Ġeccentric": 13647,
    "Ġmostly": 7665,
    "Ġdoran": 9178,
    "copper": 19189,
    "Ġadvised": 16211,
    "rity": 13774,
    "Ġvelocity": 10619,
    "back": 2019,
    "Ġpuffed": 14975,
    "silent": 9972,
    "Ġdoubloon": 6945,
    "Ġimpact": 10292,
    "has": 4015,
    "Ġadvertise": 25388,
    "Ġcordially": 16835,
    "Ġczar": 12570,
    "arled": 21441,
    "Ġspat": 2667,
    "Ġpaw": 12616,
    "Ġpunctilious": 26352,
    "objects": 13468,
    "ly": 319,
    "Ġconsume": 12954,
    "Ġvehemently": 26039,
    "isen": 10791,
    "seat": 18125,
    "ition": 648,
    "ĠĠĠĠĠĠĠĠĠĠĠĠĠĠĠĠĠĠĠĠĠĠĠĠĠ": 24441,
    "Ġsurvivors": 25732,
    "Ġfiercely": 12948,
    "Ġplaid": 22598,
    "hanging": 10099,
    "ipper": 13738,
    "peaceful": 20445,
    "Ġdrew": 3536,
    "Ġpitiless": 19386,
    "Ġbeaches": 18084,
    "monsters": 19170,
    "Ġinquis": 19303,
    "Ġbaboon": 19692,
    "Ġmargaret": 10375,
    "Ġchose": 7413,
    "Ġlargest": 6282,
    "Ġstage": 7389,
    "Ġimpotently": 22385,
    "Ġshould": 864,
    "Ġ30": 10510,
    "Ġ(âĢľ": 15992,
    "ternatural": 12711,
    "itage": 17816,
    "Ġcoloured": 11042,
    "Ġaffecting": 2323,
    "ascribed": 24708,
    "clings": 23150,
    "Ġthroes": 24573,
    "Ġcompact": 2260,
    "Ġexperience": 1386,
    "Ġreassure": 21670,
    "pardonable": 17216,
    "Ġblemish": 19678,
    "Ġcruising": 6913,
    "conception": 22467,
    "perse": 15895,
    "Ġwidest": 24233,
    "ursday": 12273,
    "Ġdodging": 19886,
    "Ġforeb": 12000,
    "terns": 21820,
    "advancing": 14834,
    "tooth": 18579,
    "Ġshakes": 10902,
    "scissors": 20726,
    "Ġrushing": 7403,
    "Ġreliability": 22879,
    "Ġdrab": 13068,
    "Ġvestibule": 13535,
    "kinder": 24845,
    "Ġagency": 11802,
    "Ġheroine": 24542,
    "cement": 3007,
    "frantic": 24282,
    "could": 2876,
    "ribution": 14302,
    "Ġobserver": 11985,
    "abiding": 21791,
    "Ġcorpus": 13028,
    "topp": 22563,
    "anced": 1327,
    "indeed": 4486,
    "might": 4080,
    "olently": 15753,
    "Ġcreated": 2708,
    "sford": 5998,
    "Ġfullest": 14812,
    "ised": 1070,
    "ively": 1311,
    "Ġprinted": 11946,
    "Ġadjusting": 3411,
    "Ġstruggling": 12071,
    "reporting": 24493,
    "Ġrescales": 5068,
    "attracted": 13047,
    "Ġhem": 8445,
    "mbles": 23086,
    "Ġincommunicable": 26610,
    "Ġfirmly": 8014,
    "Ġwheel": 9716,
    "Ġeither": 2606,
    "dat": 1682,
    "Ġstreatham": 17447,
    "Ġhyperborean": 26339,
    "Ġabstract": 17180,
    "Ġreminiscences": 26269,
    "court": 7512,
    "Ġdescend": 7427,
    "declared": 15116,
    "Ġ60": 14873,
    "Ġplaus": 22597,
    "glanced": 19364,
    "Ġbaltic": 18796,
    "cent": 8073,
    "Ġlessened": 19087,
    "Ġbeats": 21750,
    "seized": 14033,
    "Ġintervene": 25480,
    "Ġfron": 14486,
    "Ġabhorrence": 9051,
    "µ": 118,
    "Ġclo": 6043,
    "Ġvest": 8163,
    "enstern": 17781,
    "Ġintact": 21987,
    "Ġunb": 10905,
    "Ġsheepfold": 25466,
    "Ġcommunicating": 16888,
    "Ġimmense": 4952,
    "Ġservox": 23867,
    "gely": 10699,
    "of": 768,
    "Ġtimbers": 14837,
    "Ġapproach": 865,
    "ct": 309,
    "everybody": 8610,
    "Ġcrushed": 9421,
    "Ġgrotes": 19562,
    "charitable": 23930,
    "better": 7119,
    "can": 1231,
    "Ġegress": 21621,
    "reeling": 21243,
    "Ġcandles": 9906,
    "revol": 12536,
    "Ġtugged": 17287,
    "Ġimprecations": 25820,
    "Ġangels": 11176,
    "wall": 10135,
    "Ġbarrowful": 25595,
    "Ġcontemptuously": 19832,
    "Ġcompassion": 6487,
    "jewel": 20345,
    "kov": 17585,
    "rote": 4591,
    "iring": 1707,
    "Ġforeseeing": 23449,
    "Ġmeant": 3549,
    "unworthy": 18161,
    "striving": 24669,
    "Ġminute": 4278,
    "Ġsuite": 18276,
    "Ġmapple": 11148,
    "Ġdarted": 4758,
    "Ġy": 341,
    "Ġprivate": 5345,
    "Ġhaving": 1883,
    "iations": 11492,
    "Ġsooty": 25815,
    "Ġacquiescence": 20329,
    "Ġhenry": 5197,
    "Ġsoul": 2726,
    "Ġ177": 13410,
    "Ġschooner": 16746,
    "Ġallies": 18234,
    "Ġshore": 4834,
    "iltrated": 19305,
    "Ġdeserves": 13287,
    "Ġtweezers": 26555,
    "Ġcrate": 19122,
    "fine": 10089,
    "darcy": 5208,
    "mped": 16646,
    "intments": 18820,
    "Ġelbows": 18635,
    "Ġeaves": 15672,
    "Ġpersuasions": 16630,
    "Ġgodfrey": 15291,
    "Ġpublisher": 24063,
    "pursu": 11390,
    "Ġaccident": 5380,
    "Ġobstacles": 19834,
    "Ġsoar": 18281,
    "atural": 936,
    "officer": 17053,
    "aul": 6352,
    "Ġprofane": 13150,
    "Ġallured": 14111,
    "Ġrequisition": 22648,
    "Ġdeliberate": 15021,
    "ctor": 13958,
    "preservation": 25305,
    "pig": 8752,
    "Ġovercome": 6044,
    "'t": 3142,
    "conversations": 24749,
    "eries": 6808,
    "ctuous": 9204,
    "Ġclum": 8871,
    "Ġwip": 13851,
    "Ġhelmeted": 19687,
    "Ġmajestic": 8639,
    "Ġisol": 8832,
    "Ġchann": 15932,
    "Ġhired": 10176,
    "Ġthoughtfulness": 18773,
    "empt": 2624,
    "Ġfourteen": 12006,
    "Ġsepulchral": 25892,
    "Ġoppose": 16517,
    "20": 20752,
    "Ġod": 4438,
    "Ġshaken": 10263,
    "utterly": 20010,
    "oga": 22693,
    "Ġungovernable": 20708,
    "Ġdeficient": 18824,
    "Ġcontinue": 5398,
    "evid": 11482,
    "Ġsallies": 21228,
    "Ġcells": 13883,
    "pump": 21016,
    "Ġholy": 6591,
    "Ġmiserable": 3635,
    "Ġdragg": 23213,
    "Ġphilosop": 5057,
    "Ġamusement": 8056,
    "masts": 19423,
    "Ġsizes": 1518,
    "planted": 11693,
    "Ġexpatiate": 18625,
    "Ġdispleased": 18555,
    "Ġhack": 12752,
    "Ġmont": 8557,
    "Ġflank": 8229,
    "swell": 17662,
    "Ġverses": 17063,
    "ott": 1875,
    "meth": 11500,
    "Ġmichaelmas": 26374,
    "Ġbecause": 2210,
    "presumption": 20440,
    "Ġfearing": 12811,
    "etime": 12655,
    "Ġbos": 4875,
    "etent": 10198,
    "circumspect": 26086,
    "S": 55,
    "Ġseparately": 13300,
    "Ġsorely": 17255,
    "inking": 6709,
    "oward": 6021,
    "romeda": 17261,
    "Ġtrib": 13817,
    "Ġdisobey": 18559,
    "transp": 24508,
    "spr": 7436,
    "consider": 6348,
    "Ġpy": 21450,
    "Ġchemical": 10409,
    "Ġcommunications": 16352,
    "Ġstyle": 6946,
    "hunted": 16831,
    "Ġterms": 2567,
    "Ġminimum": 23040,
    "sight": 5995,
    "Ġreceptive": 1563,
    "Ġdemoniacal": 20555,
    "Ġspong": 15878,
    "naturally": 14577,
    "Ġchocks": 13343,
    "Ġchained": 16388,
    "Ġbutcher": 18271,
    "Ġmurderous": 8316,
    "Ġvenom": 24237,
    "Ġcensure": 15093,
    "Ġillinois": 19136,
    "Ġcreditable": 19621,
    "Ġbapt": 13894,
    "Ġrenegades": 26475,
    "been": 3342,
    "irs": 14069,
    "suppose": 8644,
    "enary": 12547,
    "Ġdoubled": 19641,
    "compose": 24029,
    "laden": 14927,
    "Ġarchitectures": 2913,
    "Ġintu": 12759,
    "Ġcoincid": 20316,
    "Ġaristotle": 25817,
    "Ġnumbers": 2891,
    "Ġanger": 5442,
    "sleeping": 13452,
    "Ġfrogs": 23920,
    "retaining": 21244,
    "Ġga": 4445,
    "Ġdazzling": 15209,
    "hearse": 17747,
    "Ġresources": 2941,
    "Ġquitted": 5311,
    "Ġanimated": 7702,
    "ineering": 21965,
    "Ġconse": 21802,
    "Ġinquirer": 24963,
    "Ġdeclined": 9919,
    "smug": 23905,
    "Ġreducing": 1956,
    "Ġram": 11011,
    "Ġfeeding": 7972,
    "Ġencounters": 19579,
    "approached": 13483,
    "Ġtoller": 9089,
    "](": 11464,
    "Ġfossils": 20221,
    "Ġsatisfy": 6912,
    "Ġfurlong": 18738,
    "outon": 12799,
    "embers": 21925,
    "protruding": 24816,
    "Ġgore": 17988,
    "gor": 546,
    "Ġdoctrine": 24196,
    "Ġheels": 10848,
    "immed": 9216,
    "ira": 3958,
    "Ġuntrodden": 23519,
    "ger": 1101,
    "Ġarrang": 2472,
    "Ġpierce": 17035,
    "Ġmutually": 23954,
    "Ġbor": 5804,
    "Ġcorrupt": 11920,
    "schoolmaster": 15159,
    "Ġfrom": 434,
    "hatherley": 17567,
    "Ġexploding": 2108,
    "phantoms": 24679,
    "Ġdiff": 3113,
    "Ġmultitudinous": 26273,
    "acy": 3955,
    "trap": 24312,
    "sank": 17661,
    "Ġcour": 1766,
    "Ġchamp": 18381,
    "Ġdiscovering": 13355,
    "umst": 2508,
    "sip": 10724,
    "anxious": 15107,
    "Ġglowed": 24864,
    "Ġdisappears": 18560,
    "Ġshade": 6550,
    "Ġshel": 6847,
    "Ġpermitted": 9276,
    "Ġrevealed": 6751,
    "anean": 7443,
    "Ġsolved": 8929,
    "Ġkid": 9723,
    "ond": 1162,
    "ď": 208,
    "Ġoblig": 3444,
    "fashioned": 9569,
    "Ġmouldy": 14972,
    "Ġindec": 13926,
    "lightened": 12062,
    "Ġbridges": 24682,
    "nect": 662,
    "Ġadver": 5641,
    "Ġthw": 21513,
    "Ġstrife": 18614,
    "Ġromans": 16758,
    "leg": 2817,
    "idea": 9299,
    "Ġnoblest": 13240,
    "Ġtruck": 19510,
    "Ġlap": 8437,
    "presume": 25669,
    "Ġfoolish": 5980,
    "poise": 6171,
    "nobody": 16139,
    "fal": 17535,
    "Ġprocopius": 19729,
    "desired": 8955,
    "Ġoverlooking": 22356,
    "Ġslu": 13834,
    "Ġhoney": 12628,
    "expressed": 9040,
    "Ġgenerate": 1572,
    "Ġweaving": 12736,
    "Ġmorbidness": 20627,
    "Ġxliv": 23407,
    "Ġreflecting": 24751,
    "Ġgardeners": 12117,
    "arches": 10815,
    "Ġattract": 11830,
    "trying": 15436,
    "Ġprosperous": 15168,
    "Ġ4": 3987,
    "Ġcod": 8412,
    "Ġsnowy": 9016,
    "Ġapplicable": 19028,
    "Ġhandsomely": 25497,
    "Ġresume": 18565,
    "instant": 8651,
    "remaining": 20219,
    "Ġgratifying": 13303,
    "Ġinstantly": 3592,
    "adequately": 20318,
    "Ġcircus": 19091,
    "Ġdraws": 19434,
    "Ġbuttoning": 17234,
    "grew": 17554,
    "Ġunrestrained": 25554,
    "culous": 11139,
    "Ġopium": 8993,
    "nostr": 22738,
    "Ġtemptations": 24504,
    "Ġassail": 13059,
    "disappointment": 11423,
    "uture": 1099,
    "Ġlid": 6983,
    "Ġabsor": 8504,
    "ĥ": 230,
    "idge": 14012,
    "Ġmoment": 989,
    "Ġmuscle": 14688,
    "Ġshelf": 12264,
    "forgive": 18732,
    "Ġanomalously": 25638,
    "volume": 18596,
    "burg": 16772,
    "Ġhierarchical": 1928,
    "Ġteneriffe": 26413,
    "Ġdizzy": 21431,
    "arer": 3969,
    "Ġsavann": 14683,
    "asant": 17958,
    "Ġfulfil": 9549,
    "Ġdishon": 12227,
    "Ġyellow": 5300,
    "Ġdarcy": 1343,
    "Ġphysiognomical": 25611,
    "human": 7088,
    "exact": 7911,
    "Ġesq": 15106,
    "thern": 4953,
    "Ġtoken": 2040,
    "Ġhumour": 7932,
    "uccas": 21105,
    "Ġ150": 22824,
    "Ġroyal": 5601,
    "Ġwrench": 12553,
    "Ġinvolve": 11044,
    "nights": 16447,
    "Ġaudits": 24770,
    "Ġoceans": 7996,
    "building": 17307,
    "Ġsupers": 18277,
    "Ġindustry": 18837,
    "Ġwoeful": 19618,
    "Ġfab": 15572,
    "germans": 20564,
    "fted": 9117,
    "Ġbehavior": 8002,
    "Ġlust": 9196,
    "Ġrebellion": 26474,
    "name": 6795,
    "Ġillustrations": 17107,
    "Ġelopement": 10328,
    "Ġbrace": 11209,
    "greatest": 10492,
    "Ġassume": 10514,
    "reach": 17756,
    "least": 8783,
    "Ġtit": 8399,
    "ruined": 18337,
    "Ġcaprice": 14575,
    "obtain": 23091,
    "Ġneglected": 10376,
    "Ġeucl": 24709,
    "Ġfitly": 23996,
    "staking": 21640,
    "Ġdefy": 11894,
    "Ġunden": 22011,
    "Ġwhole": 1666,
    "Ġbravery": 23833,
    "Ġfreely": 7056,
    "lig": 3169,
    "classification": 4386,
    "Ġb": 281,
    "arest": 4006,
    "Ġtall": 4039,
    "Ġireland": 17333,
    "deliberated": 26118,
    "Ġassistance": 6333,
    "Ġportrait": 10660,
    "eu": 17529,
    "ibility": 2394,
    "august": 11069,
    "Ġwounds": 17790,
    "purp": 8091,
    "Ġaft": 5737,
    "kye": 20937,
    "Ġsleepers": 13147,
    "meditated": 19069,
    "queen": 12723,
    "Ġdanes": 25156,
    "Ġspouting": 9437,
    "streets": 13393,
    "fered": 5559,
    "Ġready": 3397,
    "Ġfeather": 8858,
    "Ġwh": 328,
    "Ġginger": 9209,
    "Ġeddystone": 25709,
    "1": 21,
    "Ġriddles": 16731,
    "Ġenergies": 25459,
    "masculine": 24386,
    "Ġplus": 3882,
    "hit": 20888,
    ":--âĢľ": 24549,
    "detached": 19673,
    "Ġunsur": 22020,
    "Ġmeditating": 20041,
    "diss": 17522,
    "proportion": 16180,
    "nants": 17612,
    "fere": 10987,
    "na": 13758,
    "king": 3059,
    "Ġvul": 10246,
    "lorn": 12484,
    "Ġdoomed": 11340,
    "Ġdangling": 17173,
    "Ġbene": 2034,
    "endent": 15919,
    "Ġinstinctively": 13457,
    "tossing": 18580,
    "Ġgoose": 5938,
    "Ġunperceived": 22035,
    "hidden": 17369,
    "Ġolive": 12561,
    "Ġinsights": 13177,
    "Ġdetail": 634,
    "Ġconf": 1820,
    "Ġhose": 12623,
    "outer": 9667,
    "Ġpinch": 15015,
    "Ġpunishment": 9954,
    "Ġkitchen": 8495,
    "Ġinanimate": 13931,
    "Ġspaniard": 20361,
    "Ġjig": 15948,
    "uish": 5431,
    "Ġchancery": 20715,
    "Ġimpro": 898,
    "Ġeleven": 9388,
    "interested": 9504,
    "Ġphantom": 8706,
    "mer": 2837,
    "ifice": 7198,
    "Ġsedentary": 25430,
    "Ġintervened": 25481,
    "oology": 21005,
    "ditch": 17527,
    "rift": 11517,
    "Ġbar": 3145,
    "raint": 18314,
    "Ġconventional": 25547,
    "Ġputs": 19033,
    "Ġcity": 4528,
    "shel": 11927,
    "ts": 960,
    "Ġdedu": 5582,
    "verest": 13989,
    "Ġslay": 16303,
    "nameless": 19902,
    "Ġexpectantly": 23523,
    "Ġblocked": 19222,
    "Ġvale": 14080,
    "Ġparted": 5929,
    "mology": 12488,
    "Ġlinear": 3432,
    "Ġegotistical": 26191,
    "Ġblasp": 14399,
    "Ġpur": 2217,
    "Ġdearly": 10400,
    "Ġfurthest": 22812,
    "Ġbelieved": 4366,
    "Ġceremonious": 24837,
    "Ġmillions": 11352,
    "Ġnocturnal": 20714,
    "Ġresidence": 8207,
    "Ġextracted": 16320,
    "Ġflatter": 9346,
    "Ġverse": 16601,
    "rot": 21530,
    "maged": 15391,
    "Ġabating": 22265,
    "Ġpotential": 3620,
    "ency": 3868,
    "Ġfalling": 6915,
    "Ġcovered": 5171,
    "Ġbeams": 14630,
    "drove": 16992,
    "securing": 19812,
    "Ġcats": 8978,
    "Ġem": 1925,
    "Ġunacquainted": 12772,
    "Ġamber": 7026,
    "Ġpolicy": 10456,
    "Ġcreation": 6439,
    "countenance": 6925,
    "gling": 10096,
    "Ġdiscipline": 26560,
    "Ġgnawed": 25164,
    "ego": 4036,
    "Ġendwise": 23142,
    "lo": 681,
    "Ġpreservation": 24631,
    "Ġconvincing": 19307,
    "punct": 20191,
    "commission": 22814,
    "Ġparson": 6687,
    "Ġinvariable": 13454,
    "Ġcrad": 21348,
    "turning": 8317,
    "Ġstrange": 2270,
    "lemag": 21370,
    "Ġeloped": 22643,
    "Ġtickets": 17093,
    "Ġparl": 8178,
    "Ġenglish": 3615,
    "embra": 14072,
    "bone": 5611,
    "Ġunreasoning": 15842,
    "Ġstatistics": 1685,
    "bud": 10681,
    "Ġaugmentation": 20114,
    "Ġchecking": 23284,
    "Ġdistraction": 22503,
    "Ġcolon": 18763,
    "Ġdeterminate": 23004,
    "Ġrelieved": 7667,
    "Ġworkmen": 23038,
    "attent": 9357,
    "Ġfergus": 16871,
    "private": 13580,
    "Ġmisled": 22754,
    "arian": 10315,
    "Ġarist": 14160,
    "Ġgreeted": 23210,
    "Ġgibberish": 25786,
    "descending": 16282,
    "hess": 4747,
    "abling": 1077,
    "Ġrevelation": 25222,
    "thrasher": 25658,
    "Ġkeeps": 8267,
    "Ġwaves": 3917,
    "rents": 5308,
    "because": 4923,
    "source": 11523,
    "Ġinputs": 845,
    "successfully": 14989,
    "Ġband": 5290,
    "```": 25893,
    "Ġvaluable": 5607,
    "script": 11076,
    "Ġtoast": 21510,
    "âĢĶ.": 11752,
    "completely": 12416,
    "Ġheadland": 22894,
    "south": 8758,
    "ologies": 18768,
    "Ġwhiff": 21716,
    "Ġsuicide": 12782,
    "pos": 15408,
    "lording": 24047,
    "Ġchapel": 9521,
    "Ġobscure": 9552,
    "L": 48,
    "ureau": 10225,
    "leaned": 21367,
    "key": 5462,
    "doom": 23375,
    "permitted": 18342,
    "Ġunlocking": 20705,
    "Ġacqu": 1414,
    "Ġpasseng": 12967,
    "Ġdeceitfulness": 25734,
    "oline": 6834,
    "Ġlive": 2735,
    "Ġgrey": 4511,
    "pal": 9615,
    "atived": 21261,
    "children": 9054,
    "oam": 8751,
    "ocation": 14625,
    "pleasure": 5978,
    "Ġfeeling": 3083,
    "shape": 10981,
    "harpoone": 6107,
    "Ġenem": 4707,
    "hib": 15365,
    "Ġdevoting": 22719,
    "Ġguar": 23044,
    "vine": 10733,
    "Ġdeity": 18134,
    "ational": 5716,
    "Ġterm": 2264,
    "Ġparsonage": 7123,
    "Ġcoal": 18589,
    "ke": 429,
    "Ġretreated": 13431,
    "ink": 755,
    "Ġcritics": 23443,
    "Ġessays": 19743,
    "pursued": 17280,
    "ilated": 18057,
    "stranded": 19225,
    "Ġnest": 10187,
    "Ġtag": 15466,
    "Ġwafted": 14497,
    "arying": 9799,
    "heartedness": 24827,
    "autions": 20766,
    "Ġtophet": 23572,
    "Ġdiscussion": 17193,
    "oko": 18441,
    "Ġfully": 6342,
    "Ġchambermaid": 24303,
    "Ġaccomplish": 14874,
    "Ġsublimity": 26345,
    "Ġpersever": 10001,
    "hoped": 20909,
    "Ġsouthern": 7690,
    "ques": 2845,
    "Ġluxury": 20130,
    "Ġcommonplaces": 16286,
    "Ġpurple": 10432,
    "Ġlengthen": 15650,
    "mers": 9609,
    "unavoidable": 17388,
    "Ġunconnected": 18242,
    "ieth": 10703,
    "Ġtwain": 16116,
    "Ġnavigation": 9991,
    "lins": 2028,
    "Ġris": 4886,
    "Ġapprehens": 5682,
    "Ġsuggestions": 24452,
    "Ġecl": 18005,
    "Ġcounty": 9029,
    "Ġcornelius": 13571,
    "sensibility": 25023,
    "Ġcoats": 16071,
    "Ġgall": 4350,
    "cab": 7333,
    "Ġhopes": 4234,
    "kne": 20934,
    "Ġundertone": 23239,
    "Ġmaterially": 12188,
    "Ġunusually": 15843,
    "fashion": 8081,
    "troubled": 17111,
    "plunging": 25987,
    "Ġpositively": 13027,
    "Ġapologies": 25196,
    "Ġcreator": 7257,
    "Ġsemicirc": 16391,
    "Ġaccents": 14216,
    "aits": 20765,
    "Ġillust": 8263,
    "Ġpreventing": 882,
    "Ġportion": 7493,
    "Ġsadly": 7302,
    "Ġpretty": 3859,
    "alk": 1154,
    "dashing": 20835,
    "orial": 8417,
    "ctors": 21588,
    "Ġquick": 2585,
    "urable": 8930,
    "Ġtranqu": 4604,
    "ezing": 10572,
    "Ġdisagree": 22530,
    "Ġwides": 17788,
    "Ġslept": 8259,
    "Ġapothecary": 13657,
    "pulling": 25146,
    "owing": 7602,
    "Ġhandspikes": 12935,
    "Ġunseen": 3523,
    "Ġfeared": 5931,
    "Ġwarned": 16879,
    "Ġdoublo": 6079,
    "Ġpall": 7583,
    "Ġfrancisco": 26064,
    "mrs": 3744,
    "Ġdiffer": 18677,
    "Ġstupid": 7604,
    "Ġveracity": 23887,
    "anyth": 5438,
    "Ġduplicate": 17214,
    "aggo": 5097,
    "sion": 8094,
    "Ġscrolled": 22282,
    "Ġcart": 11580,
    "Ġunfortunate": 5376,
    "stay": 9678,
    "onsensical": 18576,
    "wat": 6231,
    "column": 19328,
    "Ġseen": 1368,
    "Ġcustomary": 8669,
    "Ġwandering": 8653,
    "history": 15013,
    "obtained": 23093,
    "Ġseventh": 18206,
    "ploy": 2010,
    "llable": 6878,
    "insurance": 18888,
    "Ġ61": 24363,
    "Ġmingling": 20196,
    "½": 126,
    "clouds": 25496,
    "ike": 5000,
    "Ġseemingly": 9316,
    "thomas": 18219,
    "free": 8735,
    "Ġgales": 12661,
    "van": 7815,
    "âĢ": 294,
    "response": 25762,
    "Ġcandid": 4101,
    "Ġgushed": 21605,
    "Ġpar": 456,
    "Ġglances": 10371,
    "_),": 7125,
    "Ġribbed": 16803,
    "uncont": 15770,
    "Ġread": 1445,
    "beries": 22715,
    "Ġrepresentation": 14403,
    ").": 1273,
    "ige": 12676,
    "truck": 15439,
    "Ġbattle": 5908,
    "usation": 18401,
    "Ġes": 8768,
    "Ġcaterpillar": 5864,
    "Ġroy": 4228,
    "vels": 5432,
    "Ġleeward": 6210,
    "swear": 16917,
    "Ġbrush": 17864,
    "avor": 14274,
    "Ġwestmorland": 24389,
    "Ġevinced": 7100,
    "_?âĢĿ": 15303,
    "Ġlur": 5226,
    "harpooneers": 8689,
    "Ġbegan": 2024,
    "Ġsick": 4692,
    "half": 4931,
    "Ġtenement": 23547,
    "Ġending": 18189,
    "falling": 24360,
    "Ġattend": 5035,
    "Ġdefiance": 11066,
    "Ġagreeing": 20017,
    "transferred": 24510,
    "Ġethics": 15460,
    "Ġalb": 14014,
    "Ġrector": 21674,
    "disposed": 25010,
    "Ġdreamt": 23936,
    "Ġtransformer": 2641,
    "Ġfund": 2847,
    "Ġtinge": 25087,
    "Ġbackpropagation": 1267,
    "Ġrepul": 16406,
    "Ġ\"": 6119,
    "Ġpaying": 9936,
    "Ġlain": 17961,
    "stopping": 19348,
    "t": 88,
    "Ġcanv": 7009,
    "aster": 1870,
    "stern": 7862,
    "unciation": 25982,
    "character": 6331,
    "Ġimped": 18443,
    "washed": 13042,
    "Ġconverse": 11841,
    "err": 1140,
    "Ġeats": 15673,
    "doms": 20834,
    "Ġsoda": 25534,
    "Ġprofuse": 23565,
    "bale": 20773,
    "Ġencodings": 4775,
    "Ġcondescended": 19954,
    "lish": 1951,
    "Ġdefinition": 14402,
    "Ġpauper": 26179,
    "bank": 10078,
    "shipped": 18491,
    "omy": 6249,
    "lorious": 17591,
    "Ġmariner": 7247,
    "Ġemerg": 13422,
    "bestow": 16928,
    "ife": 1024,
    "mem": 10708,
    "Ġretarded": 23070,
    "Ġm": 274,
    "Ġsalmon": 24059,
    "minded": 9036,
    "Ġsalt": 8017,
    "Ġconveniences": 19811,
    "Ġdisadvantage": 12886,
    "stone": 5089,
    "Ġinitials": 11012,
    "Ġhap": 18195,
    "Ġsurplus": 26303,
    "Ġdil": 6383,
    "Ġhurling": 19110,
    "recogn": 13423,
    "Ġconducting": 16648,
    "Ġfortunately": 12176,
    "keeper": 5596,
    "Ġentertained": 9996,
    "Ġencoura": 1367,
    "Ġcorrespond": 6209,
    "Ġstains": 21739,
    "Ġmerry": 5868,
    "magnet": 14968,
    "Ġrecent": 7435,
    "Ġbusily": 9383,
    "Ġsilence": 3265,
    "Ġexclamations": 11359,
    "cous": 8721,
    "wonderful": 16959,
    "determ": 7105,
    "Ġtended": 21165,
    "fin": 5209,
    "Ġtells": 9359,
    "icacy": 15654,
    "Ġscholar": 26111,
    "gunwale": 20662,
    "barr": 15318,
    "perquis": 22184,
    "Ġfoundation": 4232,
    "Ġarriving": 19217,
    "searching": 25103,
    "aging": 2237,
    "Ġrecognised": 8994,
    "Ġfiled": 15576,
    "Ġrestless": 10412,
    "Ġfifteen": 6947,
    "Ġsunrise": 9371,
    "proof": 16421,
    "Ġinfatuation": 25856,
    "Ġevaluation": 16535,
    "urch": 3995,
    "Ġimpulsive": 19961,
    "requ": 7148,
    "Ġugl": 12678,
    "Ġninetieth": 25357,
    "pursuit": 20339,
    "Ġdescends": 14283,
    "awing": 18915,
    "Ġcentral": 7728,
    "Ġsink": 4339,
    "Ġnarwhale": 12290,
    "Ġresults": 7308,
    "Ġameric": 3852,
    "Ġspurned": 12793,
    "Ġfacts": 2284,
    "Ġfam": 1590,
    "Ġpaved": 17912,
    "Ġdominant": 12393,
    "Ġyouth": 4261,
    "Ġkingdom": 12015,
    "Ġthirst": 7590,
    "Ġapolog": 9042,
    "Ġpole": 6433,
    "Ġpurplish": 19140,
    "Ġdaylight": 10349,
    "Ġunctuous": 10265,
    "Ġmessages": 24983,
    "iating": 3203,
    "summon": 23414,
    "continuance": 19717,
    "Ġscowl": 22283,
    "Ġcuff": 17829,
    "Ġsavor": 23872,
    "shabb": 18493,
    "acles": 8519,
    "Ġchuckled": 10646,
    "Ġmapp": 2082,
    "Ġprivileged": 20111,
    "Ġpawn": 12060,
    "achines": 1722,
    "Ġapplied": 6187,
    "constellation": 24608,
    "Ġwrecked": 9964,
    "que": 1106,
    "Ġdiscriminative": 4326,
    "Ġflea": 23771,
    "Ġglut": 18847,
    "eminent": 25104,
    "missionary": 24616,
    "claim": 9833,
    "Ġventilator": 8713,
    "erately": 21272,
    "Ġdispute": 16052,
    "twilight": 23701,
    "orted": 4602,
    "Ġdirectors": 18921,
    "Ġassaulted": 25320,
    "apparently": 15202,
    "Ġbodiless": 24225,
    "ban": 9583,
    "Ġemails": 13104,
[...]
