{
  "metadata": {
    "vocab_size": 26613,
    "algorithm": "BPE",
    "created_at": "2026-09-09 07:03:29",
    "special_tokens": [
      "<PAD>",
      "<SOS>",
      "<EOS>",
      "<UNK>",
      "<MASK>"
    ]
  },
  "vocab": {
    "Ġcupidity": 24534,
    "stubb": 6018,
    "eldest": 22798,
    "Ġcostly": 23583,
    "K": 47,
    "Ġtaurus": 21177,
    "Ġimmediate": 6090,
    "Ġfluctuations": 5516,
    "Ġeat": 4643,
    "Ġbrink": 18767,
    "mistakable": 20652,
    "Ġsagittarius": 24732,
    "Ġremoving": 12113,
    "Ġgoblets": 20517,
    "Ġbosom": 6939,
    "absence": 12704,
    "Ġdollar": 25283,
    "taken": 7560,
    "becoming": 18516,
    "bale": 20773,
    "âĢĶâĢĺ": 7013,
    "Ħ": 231,
    "Ġstrangled": 24133,
    "octavo": 11384,
    "Ġcele": 9898,
    "Ġrec": 897,
    "Ġcreeping": 18684,
    "Ġamel": 18509,
    "Ġpierced": 12278,
    "account": 5329,
    "datasets": 11948,
    "Ġchar": 1706,
    "Ġnegro": 6447,
    "committed": 18737,
    "Ġenduring": 16300,
    "william": 4561,
    "Ġplayful": 19236,
    "Ġedition": 16432,
    "Ġannoyance": 20661,
    "Ġwax": 10775,
    "ractions": 11631,
    "Ġdependence": 18627,
    "Ġgloves": 8574,
    "Ġundoubtedly": 8313,
    "Ġfade": 21406,
    "Ġastr": 15492,
    "intend": 16222,
    "Ġhealthful": 24055,
    "exerc": 16012,
    "Ġmoods": 14949,
    "ameter": 2806,
    "==": 943,
    "iliar": 15710,
    "Ġprodigies": 19792,
    "cordiality": 25137,
    "Ġpretext": 22227,
    "Ġskiff": 16161,
    "Ġmatrimony": 13633,
    "Ġvictoria": 14871,
    "Ġtattoo": 7359,
    "ark": 848,
    "iguous": 18043,
    "Ġsweetheart": 19393,
    "Ġchambers": 16798,
    "Ġwashes": 21859,
    "Ġapprised": 18361,
    "Ġhun": 1495,
    "Ġcough": 11579,
    "slanting": 24557,
    "sax": 21055,
    "Ġcloser": 8659,
    "Ý": 158,
    "binder": 17498,
    "unknown": 10889,
    "Ġuntil": 2668,
    "duct": 3507,
    "fooled": 24418,
    "belongs": 25596,
    "ript": 4155,
    "unavoidable": 17388,
    "Ġvows": 15805,
    "Ġune": 4598,
    "Ġimpertin": 6933,
    "Ġreef": 10848,
    "Ġchemistry": 11459,
    "Ġaccent": 10294,
    "augmented": 26286,
    "principal": 20659,
    "carries": 19526,
    "ained": 3066,
    "Ġvict": 3764,
    "Ġcontextual": 3743,
    "Ġdownwards": 8529,
    "Ġinboard": 17932,
    "Ġindicated": 10468,
    "Ġobservant": 20108,
    "Ġsheet": 6262,
    "bunger": 20400,
    "Ġskylight": 24070,
    "Ġdistressed": 8514,
    "Ġincor": 2611,
    "uberance": 25916,
    "dling": 9110,
    "Ġmortals": 9914,
    "Ġmerely": 3772,
    "Ġdetail": 636,
    "gaz": 20877,
    "Ġwind": 1434,
    "super": 5943,
    "watery": 19825,
    "Ġpunctil": 20112,
    "Ġ177": 13410,
    "Ġtemple": 7653,
    "Ġlet": 1110,
    "Ġlashes": 17966,
    "Ġstructured": 2976,
    "igan": 21696,
    "lilies": 20960,
    "Ġcedar": 15186,
    "Ġcheeks": 5958,
    "twain": 23699,
    "Ġmanaged": 7907,
    "Ġpatronage": 17052,
    "Ġalmost": 1655,
    "Ġorders": 5340,
    "Ġsupple": 23000,
    "Ġgodfre": 14527,
    "va": 4742,
    "Ġtipped": 17727,
    "Ġstatue": 23148,
    "Ġexpectation": 6904,
    "Ġheightened": 8648,
    "Ġeyebrows": 23515,
    "Ġdeadly": 5405,
    "Ġreserves": 19669,
    "Ġsovere": 9254,
    "lleg": 20950,
    "Ġsewing": 21955,
    "Ġoutbreak": 22315,
    "Ġwitty": 21291,
    "Ġdisgraceful": 15018,
    "Ġemphasis": 20535,
    "extric": 22765,
    "Ġhis": 380,
    "Ġatrocious": 21941,
    "Ġrelationship": 2318,
    "car": 4214,
    "Ġportcullis": 26602,
    "Ġfullest": 14812,
    "Ġcitizens": 25439,
    "shudder": 26245,
    "uncontrollable": 20594,
    "Ġexclaiming": 13639,
    "Ġascertain": 9704,
    "Ġjung": 12832,
    "itional": 22466,
    "Ġcontributes": 15248,
    "dismal": 23495,
    "otes": 15740,
    "Ġnervousness": 23554,
    "Ġpall": 7582,
    "Ġforests": 13590,
    "Ġinfants": 16360,
    "egypt": 15347,
    "icher": 9201,
    "Ġentreaties": 9034,
    "forbearance": 22793,
    "ernally": 22610,
    "Ġcircumn": 11980,
    "dire": 15334,
    "Ġprobabilities": 4966,
    "Ġtick": 8109,
    "hound": 20894,
    "allied": 7410,
    "Ġrapid": 1459,
    "proved": 11983,
    "Ġhoriz": 4725,
    "Ġpersuas": 23944,
    "----âĢĿ": 13304,
    "Ġbehaved": 13251,
    "Ġinaudible": 21497,
    "aisance": 15072,
    "vul": 15446,
    "Ġcru": 2824,
    "isturbed": 18297,
    "Ġbird": 3758,
    "Ġplate": 8897,
    "tables": 19756,
    "Ġbelrive": 18830,
    "Ġe": 311,
    "Ġnav": 5818,
    "Ġmainz": 22646,
    "oregressive": 3424,
    "circuit": 24187,
    "Ġireland": 17333,
    "Ġinfinity": 23279,
    "ibank": 6880,
    "quer": 11676,
    "shaken": 16018,
    "Ġann": 4489,
    "Ġhackney": 20431,
    "Ġcrusad": 23705,
    "sworn": 24255,
    "cannibals": 25584,
    "Ġentailed": 11027,
    "Ġquarter": 3977,
    "delighted": 10561,
    "pooh": 18800,
    "Ġamazement": 7765,
    "Ġwan": 15525,
    "Ġathe": 17740,
    "ources": 2789,
    "Ġstreamed": 14545,
    "Ġunsounded": 15846,
    "Ġcuff": 17829,
    "Ġwaiting": 4324,
    "Ġdistributed": 18661,
    "Ġcorrid": 9822,
    "sheets": 14440,
    "featured": 24088,
    "ĸ": 249,
    "Ġturner": 7049,
    "Ġglistened": 20171,
    "mblings": 19779,
    "Ġstat": 1490,
    "Ġmechanical": 7937,
    "Ġheidelburgh": 11641,
    "Ġsin": 1510,
    "Ġpull": 5152,
    "carriage": 9944,
    "ela": 21567,
    "Ġunsavory": 20706,
    "Ġindecision": 25781,
    "Ġfringe": 17270,
    "Ġunacquainted": 12771,
    "Ġmowers": 17812,
    "hopes": 15367,
    "perceive": 12805,
    "Ġquicker": 16506,
    "Ġcatastrop": 3345,
    "nants": 17612,
    "Ġmice": 13857,
    "Ġadmission": 23553,
    "Ġframed": 19015,
    "ogany": 18675,
    "Ġentered": 2846,
    "Ġcoats": 16074,
    "announcement": 24561,
    "Ġdol": 9663,
    "minutely": 19592,
    "Ġperverseness": 13652,
    "ĠÂ£": 5006,
    "sec": 6152,
    "Ġworthy": 7241,
    "approached": 13483,
    "ks": 3144,
    "Ġsprain": 18305,
    "Ġabstract": 17180,
    "Ġoverboard": 6045,
    "Ġbrixton": 13661,
    "trifling": 19412,
    "luent": 15995,
    "Ġpurpose": 2708,
    "Ġtest": 1582,
    "Ġtartar": 17320,
    "Ġkramm": 26233,
    "Ġdome": 15585,
    "Ġprecipitate": 19940,
    "gardiner": 12288,
    "Ġenrapt": 21938,
    "cupboards": 25401,
    "deck": 4500,
    "pression": 10406,
    "Ġleaks": 16446,
    "Ġwonderfully": 10429,
    "Ġgrammar": 1059,
    "concern": 5875,
    "Ġcompromised": 22571,
    "Ġlionel": 25286,
    "rously": 17653,
    "supplement": 14795,
    "fall": 5135,
    "Ġsus": 18276,
    "species": 13255,
    "Ġdivinely": 25723,
    "Ġinvoluntary": 18771,
    "died": 10692,
    "months": 9070,
    "ge": 559,
    "zas": 17711,
    "Ġliver": 14226,
    "Ġner": 1645,
    "Ġtattooings": 24900,
    "Ġfather": 1451,
    "Ġinvested": 7279,
    "Ġstrained": 10217,
    "isters": 11917,
    "Ġseren": 7401,
    "script": 11077,
    "Ġneeded": 7718,
    "thinness": 25810,
    "Ġhearers": 15699,
    "vate": 21108,
    "ke": 429,
    "orter": 4256,
    "vious": 1783,
    "Ġseer": 21953,
    "curiosity": 8623,
    "Ġsickening": 19603,
    "Ġdyspeps": 16499,
    "Ġcomposing": 16067,
    "ċ": 204,
    "robustness": 26338,
    "Ġcasement": 25092,
    "sli": 11521,
    "uy": 21098,
    "Ġlikes": 9406,
    "Ġfeast": 10276,
    "bling": 10077,
    "zes": 11547,
    "instr": 12527,
    "nals": 16395,
    "Ġinev": 10180,
    "Ġreced": 15688,
    "zors": 21146,
    "Ġchronic": 9927,
    "Ġpardon": 5727,
    "Ġphilistines": 26082,
    "Ġglaciers": 20172,
    "âĢĻâĢĶ": 12732,
    "inkers": 22614,
    "ientious": 11687,
    "Ġserpents": 13074,
    "ain": 343,
    "onder": 3780,
    "Ġsolemnisation": 24113,
    "Ġapproximation": 2344,
    "Ġcream": 22721,
    "Ġpawn": 12061,
    "Ġaccordance": 19496,
    "Ġbuckets": 17033,
    "Ġcapting": 23020,
    "repent": 15511,
    "barbaric": 26358,
    "Ġforetold": 23450,
    "Ġthickest": 16653,
    "sad": 11519,
    "Ġresigned": 9766,
    "allowance": 16823,
    "Ġbroods": 23100,
    "Ġnoise": 1067,
    "Ġmarket": 7709,
    "Ġf": 283,
    "Ġfaintly": 14913,
    "Ġunivers": 2127,
    "embow": 21927,
    "Ġcetacean": 25878,
    "Č": 205,
    "Ġstam": 18068,
    "Ġmitigating": 1615,
    "Ġapproached": 5843,
    "mblance": 7323,
    "learn": 2500,
    "Ġinstigated": 18702,
    "Ġdegree": 3704,
    "volous": 18605,
    "Ġprovincial": 20649,
    "nervous": 16274,
    "hr": 20887,
    "Ġfondly": 19615,
    "felt": 5889,
    "Ġdepths": 4326,
    "Ġmuchness": 18706,
    "it": 276,
    "Ġknocking": 10558,
    "rol": 5713,
    "Ġjoint": 12031,
    "Ġstocks": 23175,
    "Ġputting": 5326,
    "Ġmumbling": 11572,
    "Ġblubber": 5666,
    "Ġbloodthirst": 23799,
    "origin": 7581,
    "Ġpowder": 11274,
    "Ġincoherent": 17398,
    "Ġoverflowing": 17236,
    "ccas": 15887,
    "oir": 21001,
    "Ġridicule": 13510,
    "Ġscepticism": 25927,
    "Ġdelighted": 5499,
    "rigged": 17061,
    "Ġpersevering": 20232,
    "Ġlitter": 19828,
    "Ġberg": 24535,
    "Ġsu": 431,
    "Ġforbid": 7866,
    "tub": 9142,
    "Ġbengal": 18782,
    "Ġins": 2781,
    "Ġspades": 12792,
    "Ġmottled": 20677,
    "Ġarrive": 6907,
    "Ġextremity": 8987,
    "Ġguinea": 8946,
    "Ġbehavior": 8002,
    "Ġreign": 13983,
    "accompanied": 12419,
    "Ġbury": 12039,
    "Ġcorners": 18875,
    "Ġdiscover": 4717,
    "Ġgra": 414,
    "Ġattent": 4360,
    "bearance": 22491,
    "Ġdecay": 1011,
    "Ġblasphemer": 26116,
    "sust": 15420,
    "Ġdived": 9176,
    "Ġvillagers": 19472,
    "Ġinsists": 23676,
    "reflect": 19864,
    "Ġbritannica": 24680,
    "Ġpeg": 22687,
    "Ġassoc": 6402,
    "Ġcalam": 13030,
    "Ġwashington": 17201,
    "Ġsane": 21220,
    "Ġdenial": 13212,
    "Ġpitchpoling": 14909,
    "sustained": 20567,
    "Ġclifford": 22355,
    "Ġwithdraw": 16963,
    "Ġactually": 5389,
    "Ġvigil": 9505,
    "Ġinducements": 24967,
    "rity": 13774,
    "woes": 21132,
    "ris": 9136,
    "grateful": 10427,
    "Ġrig": 4226,
    "=": 33,
    "gently": 13727,
    "Ġresentment": 7530,
    "caroline": 24148,
    "condem": 16341,
    "Ġscenarios": 26541,
    "Ġshall": 1143,
    "Ġsmile": 4272,
    "Ġarchy": 14347,
    "Ġswimming": 5507,
    "Ġdescends": 14283,
    "attachment": 13048,
    "hog": 8380,
    "Ġmoth": 17802,
    "Ġvague": 6406,
    "persecutor": 26528,
    "Ġprevailed": 7778,
    "icken": 6711,
    "Ġhitherto": 5880,
    "Ġscramble": 24577,
    "Ġscalable": 1616,
    "Ġchestnuts": 24380,
    "ances": 1336,
    "iards": 17573,
    "Ġcharm": 4547,
    "complain": 14355,
    "Ġgrasped": 8034,
    "indul": 22368,
    "Ġvestige": 20061,
    "thrill": 25656,
    "agonies": 21907,
    "miss": 3171,
    "Ġungod": 22018,
    "reed": 6373,
    "--âĢľ": 12968,
    "guilty": 19481,
    "idel": 5299,
    "hosmer": 25902,
    "Ġunthinkingly": 26220,
    "pride": 11208,
    "Ġvariants": 1791,
    "ires": 6038,
    "Ġdines": 21422,
    "Ġflint": 23010,
    "Ġcontraction": 16005,
    "Ġextinguish": 14335,
    "passage": 11260,
    "soft": 12506,
    "Ġoffing": 16140,
    "Ġman": 544,
    "Ġ16": 7927,
    "Ġlance": 4878,
    "Ġhappening": 14381,
    "intending": 22933,
    "Ġcomputer": 1241,
    "Ġcamel": 25349,
    "umbrance": 22116,
    "Ġcond": 3874,
    "Ġsoapstone": 20509,
    "beg": 22484,
    "describe": 1511,
    "whaleman": 23434,
    "allowed": 5728,
    "Ġyell": 21775,
    "Ġridic": 7508,
    "furthest": 19840,
    "Ġgoal": 10300,
    "cop": 20800,
    "Ġquaker": 10970,
    "Ġrequested": 14297,
    "Ġsnugness": 20075,
    "Ġchall": 10943,
    "Ġash": 4831,
    "ert": 2634,
    "inquir": 9534,
    "gunpowder": 25339,
    "broken": 8021,
    "Ġcal": 1324,
    "Ġfir": 17877,
    "Ġrelinquish": 17345,
    "Ġruskin": 25809,
    "Ġspouter": 12794,
    "umberland": 16836,
    "Ġdecoding": 3083,
    "ulty": 22567,
    "Ġsleeve": 20139,
    "Ġinvoluntarily": 8549,
    "Ġsatisf": 2808,
    "Ġmeant": 3551,
    "Ġsweetness": 9444,
    "Ġhook": 6453,
    "nihil": 9844,
    "uttural": 21587,
    "five": 6356,
    "Ġmorsel": 20676,
    "sleepy": 24729,
    "Ġjewelled": 20182,
    "Ġliable": 14227,
    "Ġcurse": 7667,
    "arn": 357,
    "rubbery": 17340,
    "sister": 5139,
    "Ġheat": 5453,
    "Ġentreaty": 10528,
    "Ġscales": 4848,
    "Ġdeclaration": 16635,
    "Ġlone": 11611,
    "Ġfilial": 16619,
    "several": 5543,
    "fishery": 10030,
    "Ġbald": 16203,
    "attracted": 13047,
    "pse": 21008,
    "tone": 8762,
    "Ġproceed": 3241,
    "Ġcocks": 18594,
    "chastic": 2337,
    "constit": 24605,
    "Ġgrappling": 25812,
    "embedding": 20703,
    "Ġobe": 5800,
    "t": 88,
    "Ġlombardy": 26462,
    ",âĢĶ": 3168,
    "Ġconstant": 6309,
    "brought": 7285,
    "Ġfanny": 23387,
    "Ġinjured": 9038,
    "Ġagreeing": 20017,
    "Ġslyness": 25266,
    "luding": 6700,
    "wer": 8395,
    "ide": 721,
    "varying": 13802,
    "Ġunc": 2126,
    "ence": 392,
    "Ġappointed": 20101,
    "Ġdistrusted": 13540,
    "Ġspared": 7894,
    "Ġjunk": 15950,
    "Ġrescue": 13340,
    "Ġdexterously": 25295,
    "Ġsoul": 2727,
    "Ġcurled": 8226,
    "prehens": 9287,
    "Ġfaith": 5350,
    "Ġspecially": 11994,
    "_": 67,
    "Ġheedfulness": 24521,
    "loops": 12879,
    "apologizing": 26543,
    "Ġsuspicion": 6211,
    "Ġcolder": 22853,
    "holes": 12051,
    "beries": 22718,
    "butter": 11782,
    "Ġtend": 6120,
    "he": 264,
    "aze": 10073,
    "Ġweld": 8112,
    "Ġmeditative": 25014,
    "superstitiousness": 25508,
    "wond": 8767,
    "Ġmiddle": 4141,
    "Ġunsav": 18248,
    "Ġpromontory": 11938,
    "following": 10571,
    "Ġpend": 15602,
    "leaving": 10790,
    "Ġgazette": 19499,
    "Ġalternate": 19984,
    "Ġreported": 11976,
    "Ġliber": 5168,
    "accidents": 19212,
    "bled": 5469,
    "rule": 15895,
    "Ġfe": 491,
    "Ġsheaves": 22156,
    "Ġushered": 18356,
    "oky": 8198,
    "equal": 14991,
    "ious": 769,
    "stall": 21638,
    "shows": 22444,
    "Ġshores": 8846,
    "Ġselected": 9708,
    "Ġporch": 19679,
    "control": 16542,
    "pped": 1999,
    "ized": 1524,
    "Ġfettered": 24567,
    "Ġthousand": 2782,
    "Ġpraises": 16729,
    "Ġlodgings": 8312,
    "limp": 20951,
    "Ġclutched": 13517,
    "Ġway": 1081,
    "onic": 7828,
    "Î": 143,
    "appears": 12057,
    "Ġcontingency": 26244,
    "visitor": 15058,
    "thrown": 8480,
    "pil": 15406,
    "harrow": 20907,
    "Ġactivation": 917,
    "Ġadvise": 7936,
    "Ġprodigy": 19791,
    "Ġadjacent": 20710,
    "ated": 732,
    "Ġthink": 983,
    "Ġhilarious": 20297,
    "Ġdeplored": 20503,
    "Ġdesires": 9455,
    "Ġencouraged": 9353,
    "deepest": 22861,
    "Ġthro": 5817,
    "cheerfulness": 20179,
    "Ġbiography": 22759,
    "winds": 10520,
    "Ġcleanse": 24526,
    "Ġwhile": 606,
    "Ġinquir": 4243,
    "wont": 21131,
    "tin": 6116,
    "Ġprep": 4194,
    "Ğ": 223,
    "Ġexhibiting": 19837,
    "erness": 6434,
    "Ġmaty": 22909,
    "raham": 18013,
    "Ġshelves": 14997,
    "explanation": 12355,
    "Ġasse": 8160,
    "Ġweight": 657,
    "Ġcarving": 14441,
    "untering": 15772,
    "orders": 12870,
    "coloured": 7291,
    "Ġbrimstone": 25686,
    "Ġhumanity": 6731,
    "Ġkeepers": 23537,
    "Ġthirteen": 15272,
    "Ġassociates": 24712,
    "Ġoxford": 11370,
    "Ġadds": 1804,
    "Ġfelt": 1746,
    "Ġexterm": 21827,
    "incom": 21180,
    "Ġplu": 8797,
    "Ġsquire": 16178,
    "Ġdepose": 22605,
    "laugh": 10107,
    "Ġliterature": 17147,
    "Ġseeth": 21954,
    "Ġanchor": 7368,
    "Ġadmirals": 20383,
    "possess": 5984,
    "Ġtrifled": 24674,
    "Ġalongside": 6311,
    "Ġcarpets": 18902,
    "Ġindestructible": 26571,
    "Ġinqu": 2969,
    "streamed": 25965,
    "Ġtheoretically": 3568,
    "Ġrenowned": 26193,
    "eting": 7169,
    "Ġafar": 14290,
    "Ġchowder": 10278,
    "watson": 12240,
    "izes": 885,
    "Ġcostume": 16493,
    "Ġpious": 11597,
    "Ġsimul": 1805,
    "Ġconsists": 11974,
    "commanders": 16988,
    "Ġappalling": 8498,
    "Ġtorture": 9064,
    "Ġcoral": 11919,
    "enhall": 13848,
    "mercenary": 26315,
    "Ġenticements": 26034,
    "plete": 10918,
    "Ġwatson": 3599,
    "unlike": 18156,
    "neither": 9756,
    "Ġtawn": 13821,
    "Ġfathom": 17047,
    "ye": 1405,
    "Ġemerg": 13422,
    "wherever": 13117,
    "ruined": 18342,
    "Ġcaulking": 20292,
    "ilent": 21718,
    "Ġcareless": 11117,
    "Ġblackest": 19098,
    "Ġcring": 15548,
    "Ġbended": 21383,
    "Ġconcerning": 4072,
    "Ġtrusting": 24105,
    "rels": 6664,
    "Ġvisible": 4776,
    "Ġsyllable": 9726,
    "conceive": 16026,
    "Ġopenshaw": 7955,
    "Ġtoilette": 20491,
    "Ġconstable": 19068,
    "Ġsepul": 14088,
    "Ġintact": 21987,
    "p": 84,
    "Ġvane": 22873,
    "Ġbuy": 8300,
    "Ġaustral": 12169,
    "skin": 10567,
    "Ġmem": 2069,
    "kindred": 24046,
    "Ġreluct": 14370,
    "Ġtook": 1855,
    "alleging": 23023,
    "/`)": 13658,
    "Ġevaporate": 26332,
    "darkness": 9510,
    "Ġcalcul": 3639,
    "delirium": 14783,
    "Ġcounsell": 25384,
    "plunging": 25987,
    "incredible": 16496,
    "aved": 5475,
    "Ġreceived": 2956,
    "Ġcivilized": 8664,
    "happiness": 6469,
    "Ġimposs": 16615,
    "Ġgilt": 21604,
    "Ġselection": 18202,
    "cked": 2763,
    "Ġyoungster": 23178,
    "Ġchili": 25561,
    "Ġprecisely": 6466,
    "swe": 5996,
    "Ġstronger": 8577,
    "Ġskill": 6872,
    "Ġflowers": 8939,
    "resembled": 21245,
    "Ġcister": 13880,
    "Ġphilipp": 23881,
    "atiously": 15519,
    "narrow": 11506,
    "nour": 20987,
    "Ġexcurs": 23311,
    "Ġemig": 14522,
    "Ġcrescentic": 20619,
    "Ġsurging": 19133,
    "Ġnobody": 6158,
    "ff": 461,
    "Ġast": 2965,
    "bub": 15314,
    "ront": 15416,
    "Ġencamp": 22799,
    "expected": 5780,
    "strang": 11182,
    "Ġjenny": 20161,
    "Ġresulting": 24197,
    "shrugged": 22448,
    "lotts": 23822,
    "Ġpolar": 9409,
    "Ġeventually": 8616,
    "Ġsauntering": 18327,
    "unning": 4493,
    "hatred": 24821,
    "Ġsmilingly": 22560,
    "Ġclever": 7054,
    "Ġgardiners": 11156,
    "Ġbreast": 8967,
    "Ġsuccession": 12098,
    "Ġgrin": 5482,
    "Ġtrout": 22341,
    "Ġfunctional": 3049,
    "Ġunjustifiable": 25109,
    "Ġdrinking": 12165,
    "Ġgreek": 10629,
    "Ġweighty": 16028,
    "atever": 3080,
    "Ġhimmale": 18334,
    "Ġcooper": 16075,
    "seldom": 13785,
    "Ġweapon": 7776,
    "Ġclearness": 23182,
    "Ġmann": 18416,
    "Ġcensus": 15094,
    "works": 6587,
    "X": 60,
    "adventurous": 25361,
    "Ġsuperl": 16444,
    "Ġdepending": 14295,
    "Ġstreets": 5863,
    "belief": 13279,
    "apidated": 22335,
    "Ġhearth": 11978,
    "sail": 3604,
    "urried": 21702,
    "obtained": 23093,
    "Ġexistence": 4705,
    "whalers": 17262,
    "Ġcontemplation": 11356,
    "======": 9831,
    "riety": 12739,
    "Ġsperma": 19050,
    "remembered": 17349,
    "Ġridiculous": 10627,
    "Ġbottle": 7490,
    "solitary": 14504,
    "gences": 20876,
    "pulous": 15414,
    "Ġundergone": 18985,
    "Ġinstruments": 12220,
    ",âĢĻâĢĶ": 23526,
    "examine": 25477,
    "Ġrailway": 15019,
    "inter": 2953,
    "Ġmisfortune": 5568,
    "Ġalcoves": 26485,
    "decan": 22141,
    "Ġstoutly": 16923,
    "Ġelevate": 24498,
    "means": 9784,
    "Ġapp": 498,
    "manners": 16180,
    "Ġtall": 4042,
    "04": 10678,
    "french": 9118,
    "Ġdipped": 15591,
    "civilities": 24973,
    "Ġcannibal": 7774,
    "lives": 12482,
    "Ġassizes": 11107,
    "wal": 10132,
    "Ġpeevish": 26556,
    "Ġostens": 25275,
    "Ġtwos": 18657,
    "Ġpersever": 10001,
    "Ġson": 2986,
    "mmed": 7915,
    "Ġdaintiest": 25953,
    "Ġoriginate": 24121,
    "tashtego": 9621,
    "Ġaltered": 7393,
    "anthrop": 17380,
    "Ġ\"": 6119,
    "Ġjogged": 26236,
    "Ġlondon": 2840,
    "Ġasleep": 6836,
    "Ġmus": 3397,
    "ends": 6039,
    "ensation": 22545,
    "highly": 24764,
    "Ġflank": 8229,
    "odious": 21813,
    "Ġrecur": 1620,
    "horr": 14598,
    "Ġhosts": 19937,
    "Ġconvent": 11666,
    "Ġsmelt": 16065,
    "Ġk": 484,
    "====": 1481,
    "arus": 13910,
    "Ġdisaster": 12883,
    "ortion": 11754,
    "Ġtearing": 14389,
    "Ġtahiti": 13617,
    "Ġhagger": 21489,
    "brad": 20780,
    "Ġthickness": 13275,
    "Ġstormy": 16727,
    "Ġtraffic": 23081,
    "phant": 6287,
    "ricity": 23061,
    "ocratic": 17244,
    "Ġdiffused": 12065,
    "uther": 8815,
    "commanding": 24752,
    "Ġwra": 5906,
    "Ġglow": 7170,
    "Ġasyl": 12730,
    "Ġteacup": 16205,
    "Ġhemisphere": 26477,
    "wake": 11544,
    "lue": 8508,
    "Ġpromised": 5181,
    "_.âĢĶ": 23471,
    "gallant": 7781,
    "Ġmar": 1309,
    "Ġjourneys": 19473,
    "Ġaffrighted": 13570,
    "Ġphotograph": 6302,
    "final": 19675,
    "enjoyment": 17256,
    "Ġoccasionally": 5589,
    "Ġhope": 1789,
    "Ġblight": 18817,
    "uce": 11534,
    "²": 115,
    "september": 14034,
    "ight": 403,
    "Ġspread": 5161,
    "activity": 22630,
    "Ġhousehold": 8567,
    "Ġattending": 3283,
    "Ġprogra": 1145,
    "'t": 3143,
    "Ġconsiderations": 9408,
    "rier": 9240,
    "Ġtropical": 17064,
    "smiled": 16613,
    "man": 1051,
    "contented": 14633,
    "umbers": 10917,
    "Ġdri": 2366,
    "st": 315,
    "correct": 24482,
    "proble": 9391,
    "conject": 8878,
    "Ġventilator": 8713,
    "Ġhundredth": 16516,
    "Ġbulls": 23855,
    "Ġrotterdam": 25475,
    "kept": 11714,
    "Ġnarrower": 24353,
    "Ġpyramid": 8800,
    "Ġy": 341,
    "Ġhaven": 8473,
    "Ġdivert": 23592,
    "Ġalman": 21779,
    "ission": 6457,
    "Ġhonour": 3921,
    "Ġessential": 7523,
    "ignorantly": 25189,
    "jug": 17579,
    "rog": 15636,
    "Ġlanes": 19764,
    "================": 3723,
    "Ġpeas": 8533,
    "Ġenvirons": 13186,
    "wholly": 10940,
    "Ġerection": 23998,
    "Ġstupendous": 20499,
    "Ġmay": 922,
    "Ġcreaking": 14326,
    "Ġresort": 18563,
    "Ġandrew": 21505,
    "Ġdrawback": 23987,
    "89": 20758,
    "flukes": 25205,
    "dred": 2527,
    "Ġcourse": 2132,
    "ugal": 19022,
    "Ġaggregated": 25678,
    "Ġrequ": 794,
    "Ġbanking": 19629,
    "Ġbugs": 13646,
    "oop": 10714,
    "Ġbring": 3321,
    "Ġglossy": 15225,
    "Ġcaves": 15550,
    "Ġfervent": 14899,
    "Ġceaseless": 13486,
    "agation": 1238,
    "bweb": 20790,
    "Ġsecured": 6745,
    "Ġemployment": 8628,
    "Ġpound": 12612,
    "Ġunlike": 7004,
    "Ġwoodcock": 19162,
    "Ġmere": 2715,
    "Ġdefault": 3039,
    "Ġchaise": 9075,
    "swear": 16917,
    "Ġveil": 7934,
    "unvarying": 21885,
    "gypt": 8261,
    "follows": 24527,
    "Ġcollar": 11876,
    "Ġgenerates": 3665,
    "Ġleghorn": 13144,
    "dish": 12449,
    "owl": 12680,
    "Ġrepeatedly": 9019,
    "Ġconfeder": 25708,
    "Ġstatements": 7516,
    "Ġfrancis": 26063,
    "Ġindiscriminately": 20626,
    "Ġcowards": 12569,
    "Ġlock": 5928,
    "Ġarrangements": 16513,
    "Ġcrumpled": 16440,
    "Ġrouted": 24907,
    "Ġplunge": 13441,
    "Ġdesirous": 8941,
    "Ġcontentment": 14868,
    "Ġescaped": 6459,
    "iantly": 13737,
    "offered": 14516,
    "itation": 1780,
    "Ġbringing": 5869,
    "Ġgest": 8134,
    "Ġfocus": 4237,
    "Ġthreatening": 16827,
    "ner": 1370,
    "Ġaffright": 9330,
    "exasper": 22427,
    "judged": 14829,
    "Ġslackened": 15124,
    "Ġdisposed": 7083,
    "impotence": 23759,
    "Ġdig": 6135,
    "Ġimproving": 1210,
    "Ġbeads": 18083,
    "ellow": 3875,
    "Ġru": 948,
    "satisfied": 10577,
    "Ġintervened": 25481,
    "smeer": 26147,
    "Ġsubsiding": 23432,
    "Ġ-": 1944,
    "blog": 19838,
    "Ġprogress": 5023,
    "Ġfore": 2153,
    "bedroom": 14675,
    "strate": 12669,
    "buck": 17489,
    "Ġstiff": 6992,
    "ilingly": 21721,
    "trowsers": 17690,
    "Ġape": 21195,
    "Ġcows": 15549,
    "edy": 2860,
    "Ġservants": 6610,
    "force": 12955,
    "ict": 597,
    "Ġtossed": 5815,
    "boat": 3360,
    "streets": 13393,
    "Ġoverpower": 12839,
    "Ġtrials": 16788,
    "uits": 21103,
    "outon": 12799,
    "regularly": 13206,
    "treat": 12510,
    "Ġdiscre": 2417,
    "Ġpleasures": 11141,
    "Ġeffort": 8205,
    "Ġdegra": 2591,
    "entitled": 21566,
    "Ġimp": 574,
    "Ġpell": 21455,
    "Ġsplinter": 23745,
    "visits": 24222,
    "cher": 5786,
    "scratch": 26044,
    "Ġadmeasurements": 26225,
    "empl": 5724,
    "scap": 22990,
    "Ġdromedary": 17437,
    "Ġclout": 22345,
    "spring": 7231,
    "Ġloathed": 15872,
    "Ġsearched": 15814,
    "Ġconc": 1842,
    "Ġexterior": 19986,
    "Ġclim": 8196,
    "istle": 15867,
    "Ġrambles": 17183,
    "Ġannouncement": 14831,
    "Ġbackbones": 22650,
    "Ġliterally": 15114,
    "Ġpurplish": 19140,
    "rigible": 24931,
    "affection": 7487,
    "cooper": 19188,
    "Ġgoest": 22421,
    "85": 13679,
    "justified": 19003,
    "Ġste": 1387,
    "Ġdouble": 4940,
    "Ġdoorway": 14497,
    "Ġevermore": 18811,
    "Ġwidely": 8033,
    "Ġbuoy": 8004,
    "Ġtimid": 6345,
    "Ġobli": 9314,
    "oat": 13762,
    "Ġescapes": 23505,
    "Ġloosed": 22110,
    "Ġ}": 21152,
    "Ġglit": 8559,
    "Ġintrospect": 15825,
    "Ġenrolled": 21936,
    "Ġconstitution": 20107,
    "Ġcares": 9365,
    "chop": 21686,
    "Ġworsh": 12996,
    "erative": 21271,
    "Ġomn": 8410,
    "!--": 10676,
    "Ġstings": 21735,
    "Ġwhereof": 16099,
    "prophet": 16176,
    "Ġcounty": 9029,
    "istan": 22106,
    "pread": 7418,
    "Ġtesting": 23210,
    "oring": 1860,
    "Ġbridegroom": 10603,
    "adm": 7608,
    "offers": 16390,
    "wins": 21128,
    "arse": 7160,
    "Ġporpoise": 7106,
    "Ġpurses": 23475,
    "uture": 1097,
    "clifford": 23156,
    "Ġ6": 5141,
    "Ġchemist": 11133,
    "Ġex": 360,
    "Ġwhaleman": 4654,
    "effort": 19214,
    "Ġturn": 1297,
    "Ġfrocks": 23919,
    "Ġtelegram": 15221,
    "present": 1136,
    "esc": 611,
    "Ġpostponed": 20388,
    "zy": 2670,
    "Ġapproved": 16032,
    "Ġshapes": 14107,
    "Ġconclusions": 10552,
    "Ġperils": 6272,
    "Ġcubs": 20085,
    "Ġwouldst": 18501,
    "Ġnatures": 16504,
    "Ġgrounded": 23710,
    "Ġunpleasant": 7191,
    "remarked": 12285,
    "Ġasph": 21896,
    "ensities": 22546,
    "Ġland": 1998,
    "dropout": 3193,
    "Ġcontinue": 5398,
    "braid": 17493,
    "Ġembedding": 2105,
    "separately": 25227,
    "Ġreligious": 25121,
    "Ġaudio": 24772,
    "Ġskilfully": 20522,
    "terday": 4704,
    "Ġapples": 22214,
    "Ġpeterson": 9481,
    "Ġapr": 12528,
    "mense": 4779,
    "Ġelevation": 14895,
    "Ġaunts": 21199,
    "put": 415,
    "ascal": 10191,
    "Ġneighbours": 8303,
    "Ġcongenial": 12408,
    "Ġrelu": 1045,
    "Ġhaught": 10251,
    "onden": 13842,
    "circumstantial": 24443,
    "Ġgrowing": 6750,
    "Ġconfirmation": 17209,
    "appear": 13196,
    "Ġrecommended": 8667,
    "dwelling": 20563,
    "Ġfreshets": 25705,
    "inery": 17732,
    "Ġsubproblems": 12953,
    "gaining": 20122,
    "rised": 10122,
    "sacrifice": 13490,
    "Ġdoubted": 7966,
    "Ġoutset": 15952,
    "Ġscale": 1546,
    "Ġauthoritative": 19560,
    "Ġsunken": 14492,
    "honey": 20904,
    "aulding": 11338,
    "Ġafore": 10757,
    "stranger": 9881,
    "Ġcompanies": 14556,
    "Ġdescribed": 6606,
    "Ġgallied": 19555,
    "Ġleaped": 8823,
    "flakes": 23965,
    "Ġexciting": 23309,
    "gerine": 22887,
    "canst": 22964,
    "Ġtranquil": 7310,
    "Ġhouse": 1501,
    "Ġhunks": 18935,
    "Ġbetter": 1176,
    "intense": 22934,
    "Ġprofit": 14584,
    "ray": 2437,
    "cloudless": 20331,
    "irst": 878,
    "Ġreduce": 7943,
    "bus": 5354,
    "Ġrejoice": 10207,
    "Ġduplicity": 25331,
    "ode": 1453,
    "Ġaimed": 20249,
    "Ġxxiv": 24476,
    "Ġsuperstition": 15055,
    "tro": 15431,
    "Ġwhipping": 21714,
    "Ġcurv": 3512,
    "riv": 3109,
    "forecastle": 10989,
    "Ġvacancy": 9043,
    "iver": 2048,
    "Ġdirected": 5578,
    "Ġwaist": 6899,
    "ross": 809,
    "Ġmighty": 4231,
    "asets": 2313,
    "Ġpallor": 13514,
    "conducted": 25572,
    "Ġanonymous": 26178,
    "Ġbuild": 6474,
    "Ġexplore": 15905,
    "dissemble": 23490,
    "Ġoffic": 3184,
    "wonders": 17142,
    "Ġlevi": 3035,
    "woe": 21134,
    "Ġsecurely": 16801,
    "Ġcrawled": 17043,
    "Ġprograms": 7239,
    "Ġshel": 6847,
    "Ġgrieve": 14705,
    "Ġdisent": 22521,
    "Ġrestricted": 19028,
    "eliest": 14744,
    "Ġspermaceti": 8966,
    "receive": 12538,
    "Ġtobacco": 8367,
    "Ġforehead": 5261,
    "Ġtoast": 21510,
    "Ġmanaging": 22323,
    "Ġtertiary": 15292,
    "Ġneatness": 19931,
    "Ġharris": 13925,
    "Ġcontracted": 12856,
    "Ġplates": 11005,
    "Ġunwarrant": 20132,
    "prodig": 16423,
    "Ġwho": 614,
    "Ġreserve": 9969,
    "Ġseparately": 13300,
    "Ġhost": 7068,
    "under": 3131,
    "concerted": 16670,
    "Ġsy": 489,
    "Ġjupiter": 17454,
    "gy": 2096,
    "Ġcelest": 9899,
    "Ġdecline": 9286,
    "commanded": 16987,
    "anguish": 15980,
    "engthen": 14455,
    "disgust": 23494,
    "Ġjoosy": 23631,
    "Ġpermitting": 22397,
    "Ġclattering": 22353,
    "Ġ57": 24324,
    "Ġstature": 10862,
    "Ġunrivalled": 26518,
    "Ġwisest": 11231,
    "Ġsloping": 11936,
    ";--": 8069,
    "Ġshrubbery": 18232,
    "Ġfals": 15577,
    "itatingly": 25277,
    "overhearing": 19054,
    "Ġfell": 1979,
    "lodged": 25907,
    "plain": 1358,
    "Ġspoiled": 11362,
    "sens": 8097,
    "Ġtr": 552,
    "Ġmonsieur": 12418,
    "Ġjane": 1757,
    "Ġalgorith": 561,
    "Ġbounded": 16625,
    "Ġwad": 13849,
    "Ġcoolly": 9770,
    "indust": 18435,
    "estations": 22220,
    "Ġbrown": 6298,
    "crier": 20819,
    "Ġexamine": 7735,
    "Ġunhing": 18238,
    "whips": 22236,
    "heidelburgh": 21210,
    "Ġcronies": 23441,
    "Ġstumble": 26482,
    "Ġthroes": 24573,
    "passing": 14810,
    "Ġ79": 24263,
    "Ġcatholic": 20680,
    "ĠâĢĶ": 13809,
    "satisf": 5781,
    "Ġsingular": 4423,
    "Ġmid": 2618,
    "Ġcocoa": 25482,
    "Ġdue": 3844,
    "discharging": 26305,
    "Ġdrowsiness": 26444,
    "Ġcigarette": 20655,
    "Ġcow": 13874,
    "deceit": 25556,
    "sal": 8757,
    "Ġpebbles": 16126,
    "character": 6331,
    "Ġjunior": 15097,
    "Ġ93": 24592,
    "iate": 6505,
    "Ġcommanding": 16589,
    "400": 20754,
    "Ġacid": 22680,
    "Ġmiles": 3804,
    "Ġreliable": 18776,
    "whispered": 20032,
    "Ġdearest": 5457,
    "injury": 25213,
    "denial": 18714,
    "Ġsecret": 3720,
    "Ġnecess": 3476,
    "cavity": 26126,
    "Ġimpossible": 3544,
    "pair": 21011,
    "consequence": 9761,
    "Ġshamefully": 24716,
    "Ġxiv": 23406,
    "Ġranged": 10256,
    "rather": 5430,
    "osy": 11755,
    "Ġomens": 21326,
    "alse": 4187,
    "oh": 1574,
    "Ġalms": 21778,
    "Ġrecl": 16137,
    "Ġdurst": 20351,
    "Ġtheorem": 2328,
    "Ġclothes": 4997,
    "Ġsmoothe": 23654,
    "Ġunre": 3478,
    "Ġsustenance": 19932,
    "emph": 21924,
    "capt": 3836,
    "Ġdiabolism": 25514,
    "Ġrejoicing": 13419,
    "omically": 13978,
    "Ġineffectual": 17382,
    "bolt": 25135,
    "orn": 2245,
    "ilities": 6991,
    "Ġdisconsolate": 20718,
    "england": 18928,
    "attempt": 9358,
    "Ġbourgh": 5069,
    "Ġowning": 18744,
    "good": 2903,
    "Ġfurlongs": 20722,
    "Ġexcess": 3340,
    "Ġunearthly": 9035,
    "Ġdozen": 8186,
    "bel": 3835,
    "Ġcuba": 25095,
    "Ġcharity": 8861,
    "Ġmisanthrop": 22756,
    "Ġcorrespond": 6209,
    "Ġris": 4885,
    "Ġincensed": 18574,
    "sulphur": 25909,
    "Ġemblaz": 16236,
    "Ġ49": 24079,
    "Ġcondition": 6764,
    "Ġesteemed": 10587,
    "Ġfools": 14480,
    "Ġautomation": 13253,
    "Ġinvestigated": 25386,
    "Ġpelt": 15606,
    "Ġsulphur": 24933,
    "Ġturnkeys": 23028,
    "Ġreasonable": 7251,
    "Ġperfidious": 25666,
    "opence": 18507,
    "second": 6543,
    "significant": 25082,
    "Ġaims": 15494,
    "Ġdimens": 3148,
    "Ġsubsequently": 16157,
    "Ġfound": 1246,
    "Ġsolemnly": 8024,
    "Ġinsurance": 23680,
    "Ġgordon": 26466,
    "Ġbows": 4086,
    "repairing": 24494,
    "rig": 7556,
    "Ġsegment": 12753,
    "shell": 16284,
    "langu": 4806,
    "Ġtwink": 8216,
    "smo": 10124,
    "Ġabomination": 22276,
    "thankful": 16805,
    "Ġbonds": 17869,
    "Ġneared": 14073,
    "Ġinnocent": 4921,
    "_âĢĿ": 20760,
    "Ġunperceived": 22031,
    "Ġrepetition": 8971,
    "Ġunlucky": 10048,
    "sat": 4809,
    "Ġstriding": 16090,
    "commend": 19991,
    "writ": 16552,
    "own": 744,
    "perpendicular": 14158,
    "Ġunlimited": 26222,
    "und": 4121,
    "Ġimplac": 24874,
    "dangerous": 20239,
    "Ġstudents": 23243,
    "Ġtamer": 24978,
    "mody": 16182,
    "tubes": 25211,
    "Ġclattered": 22351,
    "Ġconnect": 801,
    "throne": 25657,
    "beholding": 16036,
    "Ġcliffs": 15968,
    "Ġaccur": 3506,
    "Ġbed": 2145,
    "liest": 6294,
    "capital": 15086,
    "Ġdy": 2530,
    "Ġfrenchman": 11282,
    "escape": 16002,
    "Ġglasses": 9473,
    "wet": 15450,
    "Ġsings": 15503,
    "Ġaffair": 4462,
    "Ġzone": 14360,
    "Ġtoday": 12639,
    "Ġbaker": 4695,
    "Ġfert": 15578,
    "Ġbabel": 24425,
    "urs": 6989,
    "Ġgemin": 21608,
    "hullo": 17569,
    "Ġprotecting": 24686,
    "Ġjer": 6266,
    "Ġtamely": 24979,
    "Ġpiping": 23226,
    "wis": 12515,
    "weather": 7229,
    "oun": 483,
    "Ġknew": 2054,
    "bounded": 13437,
    "peare": 18911,
    "bulwarks": 12269,
    "Ġtranquilly": 12287,
    "Ġeasily": 3890,
    "Ġegypt": 9677,
    "Ġcontradict": 12382,
    "pleas": 3851,
    "Ġpsychology": 11447,
    "Ġhandle": 3136,
    "Ġcloak": 9532,
    "Ġdisplay": 6428,
    "Ġsounding": 8265,
    "Ġinsensibly": 20074,
    "Ġeldest": 6571,
    "speechless": 25395,
    "delights": 19700,
    "cott": 8074,
    "lo": 681,
    "Ġsugg": 4499,
    "Ġarchbishop": 18721,
    "games": 20879,
    "dies": 15336,
    "Ġexpiration": 22623,
    "stoke": 18019,
    "enty": 2920,
    "talking": 10005,
    "Ġback": 817,
    "Ġtempestuous": 20069,
    "_,âĢĿ": 6218,
    "Ġdes": 1250,
    "misery": 13341,
    "Ġfurious": 10352,
    "Ġfoundering": 21418,
    "Ġspecks": 14306,
    "Ġassemblage": 26351,
    "Ġpropri": 6738,
    "recklessly": 25269,
    "Ġcorps": 13029,
    "Ġenjoyments": 24015,
    "Ġbrook": 13044,
    "disgraceful": 26076,
    "Ġamput": 16030,
    "tort": 17674,
    "bergs": 18682,
    "represented": 20194,
    "Ġbead": 21748,
    "Ġjudging": 16594,
    "Ġnewspapers": 17185,
    "insulting": 26055,
    "Ġavail": 11225,
    "smiles": 14691,
    "Ġbrag": 23830,
    "Ġescaping": 13133,
    "._": 3219,
    "sa": 8756,
    "Ġgorge": 13564,
    "Ġrubbed": 12951,
    "Ġplanks": 5562,
    "iations": 11493,
    "roses": 17956,
    "Ġterms": 2564,
    "repid": 11563,
    "Ġsetting": 7046,
    "Ġripe": 13232,
    "Ġfrequent": 3285,
    "Ġdecayed": 22823,
    "Ġgranting": 18735,
    "Ġproced": 2580,
    "Ġbetake": 22905,
    "Ġbulkhead": 24507,
    "osa": 22258,
    "tempt": 21078,
    "Ġmedical": 9462,
    "Ġembalmed": 13654,
    "Ġlectures": 17177,
    "dig": 4929,
    "Ġsouth": 4909,
    "apering": 8041,
    "Ġshipmates": 6720,
    "lob": 22504,
    "torture": 26151,
    "Ġdwell": 5812,
    "Ġpersisted": 13039,
    "accident": 11180,
    "Ġtriumphant": 12186,
    "Ġweigh": 10892,
    "Ġunsophisticated": 25992,
    "Ġentitled": 8539,
    "Ġloathing": 15067,
    "Ġill": 2195,
    "Ġoutrages": 18415,
    "Ġbewitching": 25976,
    "ĠĠĠĠĠĠĠĠĠĠĠĠĠĠĠĠĠĠĠĠĠĠĠĠĠĠĠĠĠĠĠĠĠĠĠĠ": 23665,
    "yielded": 25756,
    "Ġpreliminaries": 25176,
    "gradient": 2276,
    "ĉ": 202,
    "cause": 7796,
    "oked": 4308,
    "nailed": 20995,
    "Ġglens": 18854,
    "Ġperish": 8873,
    "Ġspurn": 18309,
    "Ġbiggest": 24565,
    "six": 7141,
    "Ġniagara": 26457,
    "Ġargu": 10933,
    "icle": 10833,
    "Ġdisobedience": 22533,
    "fiercely": 25256,
    "Ġhumming": 12981,
    "Ġgrace": 5374,
    "Ġwal": 6517,
    "Ġgiven": 1626,
    "unch": 14056,
    "Ġknitting": 24217,
    "Ġchas": 18378,
    "Ġinforming": 18741,
    "Ġcretan": 22724,
    "Ġdusty": 14923,
    "Ġeas": 2355,
    "Ġforbearing": 25098,
    "Ġpassenger": 14366,
    "Ġcollecting": 12283,
    "Ġagonising": 25373,
    "Ġdifferently": 10387,
    "ropout": 1319,
    "apping": 5851,
    "jeroboam": 25619,
    "uled": 11535,
    "Ġunfavourable": 17415,
    "Ġcurved": 18834,
    "Ġapprehended": 26091,
    "points": 14392,
    "Ġpatient": 6893,
    "butt": 15991,
    "Ġdatasets": 2390,
    "Ġinitial": 824,
    "Ġlimit": 10442,
    "Ġkins": 22192,
    "Ġbarbaric": 10012,
    "Ġwedding": 4857,
    "Ġcaptiv": 16254,
    "Ġrenounce": 19466,
    "Ġmitt": 21306,
    "Ġdreaming": 11222,
    "rayed": 23561,
    "Ġmisgiv": 14343,
    "Ġmap": 2392,
    "Ġtalent": 12294,
    "felix": 10652,
    "Ġstrove": 9955,
    "elab": 21568,
    "Ġadler": 8174,
    "Ġsustained": 13480,
    "Ġantiqu": 12141,
    "observed": 7675,
    "creature": 5346,
    "Ġsoothe": 7405,
    "phys": 18717,
    "Ġauthorized": 16734,
    "zeal": 16270,
    "Ġtightly": 13532,
    "Ġbale": 7839,
    "Ġdirty": 9177,
    "Ġ103": 24410,
    "Ġblaze": 16217,
    "Ġsporting": 16998,
    "Ġfun": 524,
    "İ": 241,
    "ratches": 20123,
    "Ġmargaret": 10375,
    "Ġdoubtless": 6195,
    "Ġmending": 17804,
    "Ġpanted": 21471,
    "mar": 4335,
    "Ġkrempe": 10668,
    "Ġprosecuted": 25293,
    "Ġcredit": 4817,
    "unwho": 21875,
    "Ġearthy": 23711,
    "deliver": 19503,
    "Ġvessel": 3799,
    "occur": 19574,
    "lur": 13745,
    "Ġhealthcare": 8016,
    "grant": 10426,
    "Ġnewfoundland": 26568,
    "Ġcruelly": 13373,
    "somehow": 12008,
    "missing": 13216,
    "orting": 9733,
    "Ġquart": 11784,
    "ultural": 22568,
    "Ġships": 3714,
    "Ġfertile": 20581,
    "Ġoverfitting": 1540,
    "Ġdelicate": 6480,
    "Ġsurprise": 3829,
    "Ġfrantic": 7957,
    "Ġpitied": 14690,
    "grace": 5846,
    "Ġimmemorial": 10509,
    "foundation": 16714,
    "Ġmember": 8585,
    "Ġskip": 1845,
    "Ġclearly": 6896,
    "heartily": 24214,
    "Ġwhelm": 25998,
    "._]]": 5334,
    "Ġsworn": 14434,
    "Ġopp": 2697,
    "Ġbig": 5805,
    "Ġsands": 14946,
    "Ġbrid": 6290,
    "hind": 20893,
    "Ġinclined": 6622,
    "Ġrevolut": 3256,
    "Ġcomfortable": 6095,
    "lads": 20954,
    "Ġfaculties": 14956,
    "example": 16010,
    "savor": 25022,
    "Ġessays": 19743,
    "Ġ56": 24323,
    "Ġpain": 2307,
    "kings": 17582,
    "howling": 18989,
    "Ġalpha": 13586,
    "Ġhy": 5625,
    "Ġformal": 2946,
    "Ġpropont": 16347,
    "Ġsilly": 7686,
    "Ġliberties": 19666,
    "Ġlouis": 8357,
    "Ġparents": 6752,
    "fill": 15348,
    "aped": 3766,
    "Ġfanciful": 24788,
    "eff": 2536,
    "Ġcruelty": 9967,
    "gment": 4389,
    "rendered": 22337,
    "Ġbadge": 16682,
    "Ġcanals": 22163,
    "Ġcustomary": 8669,
    "Ġcontinental": 19704,
    "loath": 22506,
    "Ġnotwithstanding": 9712,
    "blame": 14792,
    "Ġthree": 1369,
    ".âĢĶâĢľ": 20746,
    "Ġcomfits": 21857,
    "Ġsens": 1853,
    "Ġinoffensive": 21496,
    "Ġga": 4445,
    "opening": 10311,
    "quent": 2094,
    "Ġbast": 21377,
    "Ġrecess": 10846,
    "pleasanter": 24044,
    "ored": 3894,
    "Ġtalking": 3857,
    "Ġspoilt": 24807,
    "Ġoutsk": 15953,
    "icting": 12850,
    "tete": 10731,
    "Ġtry": 3133,
    "Ġpaltry": 16691,
    "Ġprofessors": 14723,
    "Ġtarshish": 12025,
    "Ġcomprises": 22572,
    "unerative": 21894,
    "Ġlou": 6822,
    "Ġ1836": 25721,
    "Ġmeet": 2805,
    "avoid": 9297,
    "begged": 18517,
    "Ġdiscours": 18715,
    "Ġpenn": 11111,
    "nez": 22459,
    "Ġinhaled": 25451,
    "Ġurgent": 16866,
    "onings": 21251,
    "uments": 5551,
    "Ġstoven": 23174,
    "Ġ8": 5433,
    "moon": 10334,
    "Ġeducated": 16784,
    "Ġcelebrate": 26357,
    "Ġinflu": 4907,
    "ving": 593,
    "Ġalbatross": 10870,
    "pitching": 24073,
    "Ġverge": 23884,
    "Ġshade": 6550,
    "Ġrepl": 1589,
    "Ġinf": 1756,
    "hinting": 17568,
    "isol": 17846,
    "Ġtechn": 9364,
    "slow": 7811,
    "50": 6784,
    "Ġgushed": 21605,
    "clinging": 20821,
    "exception": 9974,
    "Ġsuggested": 8321,
    "oda": 15746,
    "Ġsubtlety": 24780,
    "Ġbachel": 7158,
    "Ġwhichever": 13998,
    "Ġstay": 3095,
    "Ġsubmitted": 11868,
    "Ġresc": 4506,
    "Ġfurlong": 18739,
    "bear": 10314,
    "description": 11093,
    "dening": 22773,
    "type": 16173,
    "Ġmercenary": 17192,
    "retaining": 21244,
    "Ġdialogue": 12401,
    "urously": 18049,
    "Ġ114": 24437,
    "stealthily": 23959,
    "linked": 17592,
    "Ġroad": 3880,
    "udding": 11862,
    "Ġ36": 14765,
    "voy": 7143,
    "Ġte": 1132,
    "art": 586,
    "rawling": 21634,
    "Ġcanoe": 9721,
    "Ġsplashing": 16549,
    "rating": 7809,
    "Ġdisease": 14256,
    "shortened": 24748,
    "omuch": 21658,
    "business": 5609,
    "Ġshovel": 23489,
    "undant": 14790,
    "Ġagreeably": 24952,
    "Ġoaken": 13863,
    "they": 1878,
    "Ġvowed": 14082,
    "Ġxxxii": 24972,
    "Ġescape": 2648,
    "Ġropes": 10747,
    "Ġheaven": 3363,
    "Ġsuppl": 11078,
    "Ġdeduction": 14897,
    "Ġapparelled": 20435,
    "Ġfusion": 21413,
    "generosity": 23784,
    "Ġfifty": 4623,
    "Ġhole": 6080,
    "Ġwaylaid": 22870,
    "Ġ77": 24262,
    "Ġdais": 24371,
    "success": 6710,
    "eries": 6808,
    "ded": 2422,
    "Ġsacred": 10929,
    "itzerland": 9993,
    "totally": 25417,
    "ements": 11106,
    "ulus": 21862,
    "Ġho": 1930,
    "aret": 7417,
    "culous": 11139,
    "Ġaccurately": 3978,
    "Ġviii": 16409,
    "Ġdishonoured": 20389,
    "Ġleech": 24154,
    "Ġphysiognomy": 25610,
    "useful": 16501,
    "ounded": 9746,
    "Ġincredulity": 11310,
    "Ġbelieves": 14405,
    "bethink": 25744,
    "hurry": 24763,
    "Ġresented": 22541,
    "Ġhesitation": 13439,
    "Ġintu": 12759,
    "certain": 3677,
    "recurring": 24193,
    "Ġfath": 7364,
    "vac": 15448,
    "inois": 17737,
    "Ġupon": 719,
    "Ġclutching": 24951,
    "Ġabruptly": 15148,
    "Ġshift": 2286,
    "Ġperformance": 1305,
    "Ġirresistible": 13110,
    "hold": 3983,
    "Ġsuckling": 25997,
    "rador": 19158,
    "perils": 22176,
    "Ġdeliberation": 19967,
    "comfortably": 16874,
    "Ġhour": 1811,
    "Ġragged": 11843,
    "Ġlucas": 3832,
    "Ġadro": 15864,
    "Ġslipped": 6492,
    "Ġdistracted": 11800,
    "rogress": 21534,
    "sockets": 22728,
    "Ġcrowding": 13277,
    "do": 1996,
    "Ġcitations": 25437,
    "Ġlottery": 19887,
    "dense": 18713,
    "Ġgratified": 8022,
    "Ġly": 2271,
    "Ġbrief": 6976,
    "Ġbask": 8117,
    "air": 1003,
    "Ġlanc": 19763,
    "Ġstoried": 18075,
    "page": 13769,
    "vitality": 20477,
    "embra": 14072,
    "Ġlived": 3992,
    "Ġflatt": 16245,
    "Ġturning": 3324,
    "vil": 2733,
    "Ġpipeline": 2359,
    "Ġdirections": 1972,
    "Ġfat": 3463,
    "beaten": 20314,
    "Ġadjusts": 8979,
    "Ġmir": 9645,
    "ornamented": 26594,
    "Ġoozy": 21325,
    "watches": 14945,
    "ences": 1266,
    "Ġpercept": 14222,
    "Ġflapped": 23012,
    "Ġboard": 3382,
    "movable": 14322,
    "Ġleaves": 5021,
    "Ġreproachfully": 25251,
    "Ġurged": 6781,
    "pregn": 18498,
    "fights": 20864,
    "mits": 13754,
    "Ġinsure": 13176,
    "Ġravings": 18648,
    "Ġhopeless": 7463,
    "Ġapproving": 18514,
    "Ġempty": 5353,
    "======================================================================": 10066,
    "Ġwrap": 24595,
    "Ġjan": 11759,
    "gloom": 17138,
    "duodecimo": 15998,
    "Ġgravel": 14099,
    "Ġgambler": 26190,
    "Ġmetal": 9386,
    "(_": 7540,
    "glim": 19363,
    "ignant": 11128,
    "Ġbordering": 17227,
    "Ġsculpture": 26016,
    "otions": 7180,
    "Ġtheme": 16016,
    "atters": 18499,
    "Ġexig": 21824,
    "Ġmagnificent": 9840,
    "Ġago": 3135,
    "itating": 9649,
    "abil": 2008,
    "Ġfeather": 8858,
    "anting": 6412,
    "Ġharm": 5017,
    "Ġunful": 22005,
    "Ġsupplication": 25491,
    "Ġdeserve": 8309,
    "Ġtatters": 21176,
    "Ġextracting": 11110,
    "Ġtottenham": 24141,
    "Ġdivine": 6921,
    "Ġsave": 4055,
    "Ġhelmsman": 10503,
    "iday": 8828,
    "Ġpetulance": 24226,
    "Ġminutest": 14558,
    "Ġtrouble": 3691,
    "thoroughly": 26507,
    "Ġbe": 336,
    "Ġhammers": 13238,
    "Ġsatan": 14388,
    "Ġshort": 2227,
    "Ġirretrie": 23370,
    "Ġarrayed": 25664,
    "Ġdiscount": 22775,
    "Ġfearfulness": 23512,
    "Ġthanking": 18603,
    "Ġholy": 6591,
    "Ġpunctually": 17137,
    "living": 7133,
    "pets": 17635,
    "Ġundecided": 22042,
    "Ġendeavours": 8617,
    "regularization": 3515,
    "Ġgilder": 21611,
    "Ġrugged": 18719,
    "Ġburly": 19249,
    "Ġult": 9073,
    "Ġprophet": 7681,
    "sim": 6510,
    "ott": 1871,
    "Ġnavy": 14914,
    "Ġbigger": 19760,
    "suspect": 9538,
    "Ġlaughing": 5338,
    "Ġwarning": 9057,
    "going": 6313,
    "comra": 16166,
    "Ġtag": 15466,
    "Ġconjectures": 16924,
    "Ġhappiness": 2949,
    "F": 42,
    "Ġchoking": 15931,
    "could": 2875,
    "Ġappo": 8497,
    "introdu": 8936,
    "Ġesteem": 7531,
    "Ġtags": 20570,
    "Ġhowled": 12852,
    "Ġawait": 17072,
    "¨": 106,
    "Ġben": 1106,
    "Ġ1671": 25005,
    "Ġprofanely": 23568,
    "ock": 15400,
    "Ġlight": 1703,
    "Ġconceived": 8150,
    "Ġthreatened": 8330,
    "onom": 9157,
    "mistake": 24528,
    "Ġglac": 9344,
    "Ġsprings": 16686,
    "fearfully": 25116,
    "Ġke": 1155,
    "ze": 1356,
    "Ġeverywhere": 9794,
    "amaz": 21842,
    "Ġlacey": 10196,
    "manif": 14371,
    "Ġtroop": 24897,
    "Ġpyth": 21460,
    "Ġexcellence": 11450,
    "isance": 17847,
    "Ġglimmer": 15139,
    "Ġwhitney": 11372,
    "Ġremotest": 10050,
    "Ġshakespeare": 20306,
    "Ġsash": 17753,
    "Ġtwinkle": 12320,
    "þ": 191,
    "Ġmakes": 3653,
    "murder": 10563,
    "tender": 14471,
    "notwithstanding": 22751,
    "full": 7420,
    "Ġdur": 11590,
    "Ġscant": 22278,
    "Ġthr": 5709,
    "confidence": 16807,
    "Ġathirst": 20597,
    "dimensional": 2351,
    "Ġpredict": 679,
    "Ġmonotonically": 3833,
    "Ġplump": 14280,
    "Ġinsist": 9888,
    "Ġwaited": 4911,
    "Ġfeverish": 11347,
    "cry": 12442,
    "conquerable": 17397,
    "Ġstaggered": 9537,
    "uniform": 18157,
    "Ġwhittingham": 26197,
    "Ġburg": 23650,
    "Ġundulated": 19515,
    "Ġended": 7950,
    "Ġhval": 21485,
    "Ġagonizing": 17237,
    "Ġstrongly": 5657,
    "Ġhardly": 2433,
    "Ġplanets": 24053,
    "Ġconcentration": 25062,
    "bull": 13688,
    "Ġowest": 25091,
    "acknowledge": 18469,
    "Ġvalue": 2085,
    "Ġtongs": 9959,
    "ksome": 10103,
    "Ġslack": 8954,
    "Ġbattered": 17862,
    "Ġshocking": 10434,
    "Ġspar": 10921,
    "learning": 2709,
    "Ġdab": 15584,
    "ccess": 3180,
    "Ġmetaphys": 16410,
    "ior": 2039,
    "Ġrope": 4338,
    "Ġear": 1423,
    "Ġextensive": 12940,
    "Ġdishonor": 25601,
    "morn": 20975,
    "indian": 11775,
    "thus": 5158,
    "rees": 5436,
    "Ġsenor": 20149,
    "Ġtitle": 11407,
    "ĠĠĠĠĠĠĠĠĠĠĠĠĠĠĠĠĠĠĠĠĠĠĠĠĠĠĠĠĠĠ": 24442,
    "Ġthough": 991,
    "Ġlaurel": 20653,
    "Ġspringing": 10517,
    "insufferable": 21191,
    "boats": 6204,
    "sullen": 17668,
    "Ġskeleton": 5514,
    "ch": 321,
    "Ġimpudence": 26241,
    "Ġwrapped": 8342,
    "Ġattendant": 11284,
    "Ġhostile": 19938,
    "Ġgrated": 22802,
    "eu": 17529,
    "Ġvariation": 22663,
    "Ġric": 18209,
    "Ġswears": 16462,
    "finding": 17012,
    "Ġsigh": 10335,
    "Ġreducing": 1956,
    "Ġsleeps": 10445,
    "g": 75,
    "Ġupp": 13990,
    "Ġirreproachable": 24917,
    "Ġlomb": 21557,
    "Ġshoreless": 24294,
    "Ġpraying": 19553,
    "Ġunbelief": 22043,
    "Ġweaken": 21919,
    "Ġunspeak": 8849,
    "im": 327,
    "Ġagree": 7646,
    "Ġvagu": 13587,
    "Ġglimp": 6066,
    "Ġtranspointed": 22438,
    "Ġerroneous": 17407,
    "seems": 10874,
    "square": 15060,
    "yield": 13807,
    "Ġinvoking": 19145,
    "Ġbenevol": 5962,
    "Ġstaple": 26198,
    "reproach": 15184,
    "Ġunf": 4092,
    "Ġent": 906,
    "deaux": 22147,
    "ipotent": 10959,
    "chor": 6146,
    "Ġvillage": 5774,
    "game": 11489,
    "Ġcr": 2152,
    "Ġanyways": 22518,
    "bearer": 18518,
    "Ġhead": 1121,
    "Ġlethargy": 26481,
    "gar": 5614,
    "Ġprevent": 756,
    "painful": 13500,
    "hated": 17560,
    "nav": 17609,
    "composure": 24031,
    "ĠmanÅĵuv": 18417,
    "Ġbow": 3062,
    "ustry": 18358,
    "Ġtren": 17720,
    "Ġoftentimes": 20154,
    "Ġmeek": 21807,
    "Ġdealer": 23974,
    "Ġwails": 21295,
    "preser": 9758,
    "Ġforging": 18093,
    "wrinkles": 16554,
    "Ġchiselled": 25559,
    "Ġgreedily": 18965,
    "Ġtended": 21165,
    "Ġalfred": 21784,
    "market": 16838,
    "Ġtransportation": 13640,
    "Ġsinews": 20286,
    "Ġmerciless": 25246,
    "Ġtouching": 4680,
    "Ġdevotedly": 24750,
    "fowl": 17548,
    "Ġ184": 16606,
    "bes": 6641,
    "Ġalthough": 4153,
    "Ġwand": 4341,
    "Ġlevers": 18064,
    "Ġsnows": 14724,
    "induce": 22372,
    "springing": 24889,
    "Ġpertaining": 18450,
    "Ġtoo": 1166,
    "Ġprevious": 2089,
    "stre": 5451,
    "Ġacre": 22679,
    "ù": 186,
    "Ġbusy": 6189,
    "unbounded": 21883,
    "Ġdam": 2217,
    "buncle": 13690,
    "Ġjot": 11760,
    "Ġtwin": 12924,
    "Ġfavoring": 2347,
    "Ġauxiliary": 26417,
    "Ġwoodlands": 23520,
    "beaut": 8512,
    "Ġdu": 4584,
    "Ġirr": 10420,
    "Ġtorrents": 20054,
    "Ġamaze": 22481,
    "Ġder": 1497,
    "Ġrattle": 10898,
    "Ġdepos": 11006,
    "Ġperman": 10963,
    "Ġlocket": 22111,
    "Ġmis": 916,
    "Ġchanced": 8187,
    "Ġdef": 1200,
    "ivates": 18281,
    "Ġconcoct": 19047,
    "Ġwreat": 15528,
    "developed": 15262,
    "Ġcorruption": 15223,
    "Ġless": 1937,
    "Ġveracity": 23886,
    "can": 1230,
    "chet": 13215,
    "echo": 15346,
    "heaven": 8053,
    "particular": 5757,
    "cing": 1012,
    "Ġsilk": 11960,
    "affect": 13210,
    "vig": 15444,
    "Ġupbraid": 18318,
    "Ġgriev": 16633,
    "ructure": 759,
    "violent": 14579,
    "season": 14032,
    "Ġscolded": 25472,
    "Ġpane": 21462,
    "humour": 7498,
    "Ġoptimization": 1421,
    "crossed": 16631,
    "owder": 8449,
    "value": 18803,
    "Ġalco": 21780,
    "gress": 2215,
    "Ġdejection": 15194,
    "Ġschoolboys": 24480,
    "Ġdisgusting": 19893,
    "Ġexertions": 13408,
    "Ġprobed": 18732,
    "Ġshows": 8482,
    "prolong": 23391,
    "headed": 4318,
    "Ġrespite": 13152,
    "Ġcontrols": 1731,
    "Ġwherein": 14291,
    "Ġspout": 3281,
    "bec": 4056,
    "Ġunchanged": 22025,
    "news": 23130,
    "desolate": 25703,
    "Ġmort": 3461,
    "Ġmethod": 1473,
    "Ġpetrified": 19595,
    "deduction": 23555,
    "Ġhill": 5626,
    "soles": 18686,
    "Ġceasing": 23755,
    "Ġincorrupt": 19234,
    "Ġtempt": 5564,
    "Ġpals": 13916,
    "Ġcalmness": 12089,
    "Ġfeebly": 24877,
    "Ġhurt": 7701,
    "caught": 8726,
    "Ē": 211,
    "Ġfriday": 14487,
    "Ġbrigandish": 25487,
    "Ġsiam": 13836,
    "thrasher": 25658,
    "Ġsorry": 4212,
    "Ġfolded": 7768,
    "Ġfree": 3373,
    "spark": 18688,
    "Ġprevail": 13440,
    "Ġparamet": 609,
    "rot": 21530,
    "elop": 1488,
    "unteered": 26494,
    "Ġocc": 886,
    "Ġeither": 2605,
    "Ġbased": 3336,
    "Ġamused": 11796,
    "estruct": 22219,
    "stat": 21636,
    "height": 21204,
    "Ġfascinating": 17326,
    "Ġfollies": 16253,
    "led": 582,
    "Ġunduly": 25994,
    "Ġprairie": 8712,
    "Ġtorm": 5434,
    "Ġgranite": 22806,
    "Ġlowers": 23240,
    "his": 1412,
    "recogn": 13423,
    "Ġdom": 2712,
    "Ġsallow": 12532,
    "Ġcauses": 2563,
    "marvell": 24171,
    "tanh": 5204,
    "Ġminuteness": 19138,
    "untarily": 6312,
    "Ġstation": 5297,
    "Ġcollectively": 19966,
    "acca": 23596,
    "ineas": 15811,
    "Ġdare": 3546,
    "would": 2354,
    "Ġdisposition": 5409,
    "Ġfeathers": 15117,
    "Ġgloomily": 14799,
    "innocence": 15181,
    "Ġthrone": 12210,
    "Ġbrowne": 13299,
    "Ġlabel": 14515,
    "Ġspirits": 3698,
    "Ġpreaching": 15923,
    "oubtedly": 6943,
    "Ġsolace": 16197,
    "wick": 5362,
    "Ġheav": 1851,
    "Ġexplanation": 6692,
    "Ġpole": 6433,
    "Ġsubdivisions": 26037,
    "Ġpom": 21451,
    "lin": 9602,
    "Ġfug": 12591,
    "Ġthus": 2036,
    "Ġinconstant": 21494,
    "dutch": 17217,
    "Ġindiscreet": 22959,
    "Ġdoted": 21432,
    "relu": 17758,
    "Ġbeards": 21749,
    "whel": 7665,
    "ckles": 22087,
    "Ġscheming": 23269,
    "Ġawaken": 23585,
    "Ġengravings": 15065,
    "august": 11070,
    "Ġacross": 1328,
    "morning": 4858,
    "prince": 23811,
    "importance": 9987,
    "lighter": 20958,
    "Ġdwelt": 12601,
    "Ġrelaxed": 12979,
    "Ġclamped": 18426,
    "Ġcommonplaces": 16286,
    "ha": 3982,
    "laug": 10706,
    "Ġconcert": 11964,
    "superstitious": 17279,
    "Ġside": 1385,
    "Ġsummoned": 9909,
    "elag": 12654,
    "Ġsteed": 13036,
    "Ġazores": 20192,
    "Ġ134": 24784,
    "Ġparameter": 881,
    "Ġhavoc": 15810,
    "Ġpermanent": 13629,
    "bath": 13687,
    "saf": 11523,
    "Ġconsecutive": 20701,
    "Ġcoloured": 11043,
    "Ġcrash": 11998,
    "Ġsust": 7006,
    "Ġopal": 23625,
    "Ġspitzbergen": 15285,
    "Ġdiffer": 18679,
    "Ġpouch": 21468,
    "Ġcapst": 8595,
    "Ġplants": 22597,
    "Ġbecause": 2212,
    "abomin": 15738,
    "Ġ111": 24435,
    "Ġcompany": 3721,
    "tern": 4225,
    "etics": 21579,
    "Ġbl": 1190,
    "itaries": 21334,
    "Ġgets": 10838,
    "Ġblacks": 23384,
    "Ġtimes": 2306,
    "ves": 743,
    "cock": 12022,
    "wich": 11542,
    "hyme": 19608,
    "arth": 4442,
    "Ġfishery": 4177,
    "vult": 21112,
    "Ġintrig": 21988,
    "Ġcomforts": 14692,
    "Ġmoccas": 22434,
    "urpr": 2291,
    "entiful": 10835,
    "Ġwrenched": 12554,
    "Ġmany": 1102,
    "Ġlip": 6532,
    "Ġinflexibly": 26370,
    "Ġhates": 21484,
    "_âĢĶ": 11466,
    "Ġintending": 11701,
    "Ġcorrected": 10447,
    "Ġhardened": 14448,
    "Ġgloomy": 7504,
    "Ġparticular": 2449,
    "Ġrecorded": 11292,
    "Ġgateway": 24802,
    "chester": 23804,
    "Ġquoted": 22413,
    "Ġentry": 11026,
    "Ġwakes": 11570,
    "landish": 11939,
    "forbid": 14349,
    "Ġroof": 6564,
    "Ġwithdrew": 9694,
    "urg": 8142,
    "Ġblocked": 19222,
    "Ġrepent": 9861,
    "pron": 9004,
    "bowsprit": 16852,
    "ampled": 18883,
    "finally": 9497,
    "Ġsmothe": 18576,
    "Ġdisreputable": 22532,
    "battle": 12439,
    "Ġlar": 765,
    "Ġsec": 2076,
    "achable": 14128,
    "Ġmonstrous": 7790,
    "Ä": 133,
    "Ġprolonged": 8359,
    "Ġdetained": 18386,
    "Ġdissuade": 26256,
    "Ġlambton": 10656,
    "ine": 401,
    "Ġsnuffing": 25012,
    "ravity": 21633,
    "Ġflirting": 16248,
    "Ġdented": 17891,
    "cutting": 23782,
    "liament": 16215,
    "Ġfiendish": 13325,
    "Ġlightnings": 16350,
    "rift": 11518,
    "descending": 16282,
    "177": 20751,
    "Ġup": 463,
    "pray": 5429,
    "Ġbarely": 16935,
    "Ġundeserving": 18265,
    "Ġeaster": 15671,
    "my": 1314,
    "Ġdescried": 7920,
    "Ġapproximates": 2418,
    "elve": 4641,
    "transom": 19733,
    "Ġbalmy": 22903,
    "Ġundulations": 19514,
    "proper": 7471,
    "Ġlivelong": 25511,
    "aying": 15745,
    "rolled": 9058,
    "Ġvint": 18194,
    "killed": 15374,
    "Ġfourth": 7707,
    "feared": 11799,
    "sciss": 18857,
    "lived": 12483,
    "Ġpioneer": 17918,
    "Ġearliest": 9829,
    "Ġninety": 13599,
    "Ġworldly": 16327,
    "iftings": 23224,
    "Ġeverything": 3153,
    "india": 22369,
    "tor": 15430,
    "spermaceti": 12190,
    "Ġenables": 724,
    "Ġxv": 23405,
    "ume": 4834,
    "Ġstack": 21734,
    "no": 891,
    "Ġlizzy": 3547,
    "Ġeber": 18003,
    "Ġmistakes": 16540,
    "Ġseize": 8166,
    "overlooked": 23322,
    "Ġembarked": 17133,
    "Ġvisitor": 5330,
    "Ġwindows": 4971,
    "kind": 3863,
    "Ġunconsc": 6552,
    "indirect": 22370,
    "walks": 19720,
    "Ġsubt": 11865,
    "burst": 10536,
    "Ġtant": 12521,
    "spr": 7435,
    "Ġfinest": 10391,
    "Ġduplicates": 17215,
    "spade": 10338,
    "Ġmagnus": 18957,
    "burning": 25078,
    "Ġbristling": 20525,
    "Ġfreshness": 23985,
    "Ġtwice": 4661,
    "Ġfolks": 14424,
    "Ġdav": 15586,
    "Ġtapers": 11550,
    "terr": 8154,
    "Ġay": 15489,
    "sharpening": 22452,
    "makers": 20981,
    "Ġtypewritten": 16418,
    "Ġfleet": 9430,
    "phere": 21018,
    "independ": 15978,
    "mell": 20963,
    "algorithms": 8293,
    "Ġringbolts": 24195,
    "Ġscorn": 7902,
    "Ġchurned": 18384,
    "Ġcathed": 14547,
    "Ġleviathanic": 12077,
    "python": 4691,
    "Ġoutstretched": 14194,
    "Ġhighest": 3529,
    "electricity": 26384,
    "Ġterror": 5124,
    "Ġjob": 7015,
    "Ġextant": 18691,
    "knight": 20939,
    "ana": 15555,
    "Ġdents": 13909,
    "Ġphrenologically": 20392,
    "Ġfaire": 13362,
    "Ġexpectantly": 23524,
    "pierced": 26141,
    "Ġgibberish": 25786,
    "Ġusual": 3941,
    "Ġsummer": 4789,
    "Ġflew": 5587,
    "Ġinput": 610,
    "additional": 20462,
    "narrative": 17317,
    "Ġdirest": 22705,
    "solute": 16597,
    "Ġdissol": 18551,
    "restrained": 16334,
    "Ġfob": 21408,
    "total": 17249,
    "Ġtist": 21161,
    "Ġcrumb": 16438,
    "linging": 16078,
    "destruction": 11255,
    "Ġspokes": 18313,
    ",âĢĿ": 580,
    "Ġbiographical": 22760,
    "Ġwretch": 6378,
    "Ġoverdone": 22361,
    "iminished": 19024,
    "eternal": 17982,
    "wrapped": 15207,
    "moral": 14800,
    "aintance": 3571,
    "yd": 21141,
    "emin": 8469,
    "Ġauthentic": 20534,
    "Ġret": 1380,
    "Ġlacepede": 20494,
    "windlass": 16720,
    "Ġhalf": 1672,
    "Ġfable": 15573,
    "Ġnurse": 9515,
    "pers": 4336,
    "Ġframe": 1846,
    "everlasting": 18768,
    "Ġdiffidence": 14658,
    "Ġinhabitant": 19754,
    "Ġabsence": 4893,
    "continue": 16860,
    "american": 11399,
    "Ġdazed": 15592,
    "upon": 2723,
    "footed": 19688,
    "Ġfishermen": 5971,
    "soever": 11857,
    "inguish": 9395,
    "ouncing": 8494,
    "Ġcruising": 6913,
    "persuaded": 15071,
    "analy": 17838,
    "Ġdistrusting": 25053,
    "formation": 22212,
    "Ġbehaviors": 13252,
    "Ġanne": 1527,
    "Ġforgiveness": 16655,
    "Ġwhispering": 14943,
    "Ġjovial": 19233,
    "mont": 19168,
    "io": 3802,
    "Ġfalls": 14643,
    "named": 9889,
    "ccarthy": 4888,
    "norm": 20984,
    "Ġtowing": 9192,
    "Ġprot": 3847,
    "nelson": 25620,
    "credit": 12445,
    "Ġruled": 22782,
    "jected": 22712,
    "youn": 5690,
    "fellow": 6792,
    "bl": 4144,
    "Ġdescrying": 18614,
    "Ġbehoo": 19035,
    "banish": 20781,
    "Ġfaded": 10808,
    "Ġchamber": 6213,
    "Ġtransition": 14232,
    "influ": 9539,
    "Ġmourn": 8703,
    "###": 3827,
    "Ġbooks": 4675,
    "pect": 1257,
    "indignation": 18438,
    "immed": 9216,
    "Ġboast": 7034,
    "Ġlodges": 19498,
    "gives": 15355,
    "Ġ2": 2933,
    "board": 3567,
    "Ġcaptured": 7245,
    "cannon": 22965,
    "Ġpractical": 3162,
    "Ġdeacon": 18140,
    "Ġaugment": 8691,
    "aft": 9582,
    "Ġten": 2387,
    "Ġbarricade": 14659,
    "cially": 3490,
    "Ġtacit": 21173,
    "retion": 9360,
    "hours": 9123,
    "Ġmimic": 3142,
    "honest": 17002,
    "Ġdutch": 6327,
    "sample": 12503,
    "'": 11,
    "Ġpropagating": 20632,
    "Ġclamorous": 24909,
    "etween": 775,
    "Ġkingdom": 12015,
    "Ġopenly": 8572,
    "knife": 6942,
    "Ġassail": 13059,
    "Ġappointment": 10645,
    "Ġgur": 21590,
    "Ġdaw": 21428,
    "go": 2062,
    "Ġexpansion": 22624,
    "tem": 6369,
    "bu": 5132,
    "Ġterm": 2269,
    "Ġpanegyric": 26448,
    "otence": 14021,
    "body": 2311,
    "Ġrepose": 6741,
    ",--âĢľ": 19196,
    "looks": 12014,
    "provided": 13635,
    "Ġslumber": 13056,
    "Ġprimitive": 25061,
    "heav": 5694,
    "Ġinto": 647,
    "Ġsevent": 18200,
    "amusement": 15280,
    "Ġfamiliarly": 11302,
    "alty": 17938,
    "Ġproved": 4883,
    "Ġvort": 18193,
    "Ġconstraint": 16512,
    "Ġkentuckian": 26342,
    "think": 3610,
    "Ġardent": 9968,
    "doesn": 19819,
    "untary": 9865,
    "nnight": 20992,
    "hess": 4746,
    "Ġrushes": 20506,
    "Ġventil": 8020,
    "Ġtransform": 740,
    "uming": 8491,
    "Ġwaggish": 25434,
    "Ġmatrimonial": 25489,
    "Ġeleven": 9387,
    "fere": 10988,
    "Ġwatchful": 16525,
    "Ġjudges": 14684,
    "Ġprovince": 24188,
    "Ġappertain": 22215,
    "Ġpulse": 13112,
    "Ġnames": 4532,
    "required": 17029,
    "Ġclutch": 15052,
    "Ġleaving": 3904,
    "Ġmentioned": 4329,
    "insist": 23062,
    "designated": 26295,
    "Ġhysterics": 26093,
    "header": 11930,
    "remaining": 20219,
    "dead": 8180,
    "gement": 13726,
    "Ġgeorgiana": 8625,
    "Ġsheepfold": 25466,
    "Ġunsatisfied": 22038,
    "Ġrumours": 24599,
    "surely": 10568,
    "Ġpervading": 20612,
    "Ġundertaking": 8573,
    "Ġcondescended": 19954,
    "Ġcrosses": 23060,
    "Ġexceeded": 14431,
    "Ġendeavors": 16545,
    "sme": 17657,
    "Ġpresent": 1640,
    "disreputable": 23501,
    "Ġmists": 14629,
    "Ġcomfor": 14052,
    "vid": 915,
    "Ġheadland": 22895,
    "Ġgeomet": 3188,
    "Ġaccident": 5380,
    "faced": 8080,
    "Ġladyship": 5046,
    "Ġintrospective": 20599,
    "treasures": 26152,
    "Ġclubb": 22350,
    "Ġtragedy": 10666,
    "Ġresource": 10992,
    "Ġnail": 9194,
    "Ġrecommending": 24336,
    "presbyterian": 26368,
    "Ġoverthrown": 18431,
    "ensed": 10996,
    "crum": 17510,
    "100": 11463,
    "powers": 25410,
    "Ġfrig": 13078,
    "piteous": 21032,
    "Ġmidships": 23633,
    "armed": 7252,
    "Ġthis": 382,
    "Ġcommunicating": 16888,
    "Ġslam": 13054,
    "Ġquantity": 6948,
    "ontory": 10458,
    "overs": 17620,
    "Ġsuffered": 5649,
    "conception": 22472,
    "Ġjamming": 17263,
    "Ġaware": 5756,
    "dashed": 12452,
    "tier": 12511,
    "globe": 25142,
    "Ġsink": 4340,
    "Ġcherub": 23284,
    "sit": 13778,
    "Ġfoolscap": 24157,
    "Ġconfirm": 9854,
    "iform": 2202,
    "Ġjaws": 5592,
    "Ġval": 971,
    "Ġremnants": 22791,
    "Ġhap": 18195,
    "atics": 15520,
    "wester": 21137,
    "Ġreservoir": 20650,
    "Ġbattle": 5908,
    "tide": 11531,
    "olidity": 18132,
    "Ġtherefore": 2241,
    "Ġcorrespondent": 19821,
    "Ġgleam": 12305,
    "Ġon": 350,
    "Ġcontinents": 16848,
    "Ġinterested": 6458,
    "Ġbrought": 2517,
    "Ġmatted": 22910,
    "Ġdecreed": 18490,
    "patient": 25342,
    "Ġtho": 21512,
    "Ġevenness": 22831,
    "Ġ32": 19487,
    "Ġstacked": 21744,
    "Ġ50": 24318,
    "aston": 7408,
    "Ġdesign": 4135,
    "Ġdevoured": 16132,
    "Ġmissed": 8555,
    "Ġgaz": 4047,
    "last": 3803,
    "Ġadvisable": 11441,
    "elder": 21570,
    "Ġsurtout": 23464,
    "lake": 13747,
    "Ġstole": 7953,
    "founded": 16713,
    "Ġmounted": 7833,
    "Ġtooks": 23324,
    "iro": 20913,
    "Ġfevers": 22207,
    "Ġexamination": 8005,
    "coach": 23558,
    "intolerable": 22936,
    "Ġenhancement": 23902,
    "Ġinstrum": 6055,
    "Ġcourage": 4633,
    "Ġcho": 4546,
    "5": 25,
    "Ġlurked": 11290,
    "Ġcumul": 4181,
    "neurons": 3134,
    "merry": 16535,
    "Ġrides": 21972,
    "Ġthumb": 6981,
    "Ġprayers": 12120,
    "Ġmanifold": 13558,
    "Ġaspects": 4176,
    "Ġendwise": 23142,
    "riving": 21929,
    "positive": 20566,
    "$": 8,
    "Ġwallet": 21297,
    "iest": 4040,
    "Ġsail": 1675,
    "Ġthereof": 22366,
    "Ġbite": 10796,
    "Ġmagn": 1553,
    "Ġcryst": 9915,
    "Ġgravity": 9246,
    "if": 376,
    "bye": 5950,
    "Ġward": 10154,
    "Ġrenewal": 12231,
    "tranqu": 14704,
    "Ġchamp": 18380,
    "Ġaw": 2511,
    "Ġspeech": 4610,
    "Ġmonsie": 11446,
    "Ġloaded": 8490,
    "mm": 675,
    "cruet": 17025,
    "Ġglobe": 6077,
    "Ġpossessions": 23821,
    "Ġgradual": 20600,
    "Ġwhaleboats": 18479,
    "Ġrenewing": 19809,
    "Ġappellation": 22218,
    "Ġsamples": 2966,
    "Ġhopeful": 19033,
    "Ġomit": 17815,
    "Ġfiddle": 25444,
    "atched": 6375,
    "voyages": 24855,
    "mun": 20961,
    "chased": 18041,
    "Ġcognitive": 13632,
    "bid": 5610,
    "problem": 25243,
    "Ġcanv": 7009,
    "Ġratt": 7882,
    "Ġinitials": 11013,
    "ounts": 4651,
    "Ġdecidedly": 9507,
    "read": 3274,
    "Ġunintellig": 22020,
    "Ġshutting": 14757,
    "ought": 831,
    "mped": 16646,
    "rederick": 14078,
    "emberley": 4173,
    "conditional": 9077,
    "Ġperishing": 22395,
    "dimens": 2320,
    "ļ": 253,
    "oniously": 21256,
    "Ġdaughter": 2872,
    "Ġpick": 4257,
    "Ġpoliceman": 15256,
    "Ġsaluted": 14756,
    "Ġpratt": 23218,
    "Ġcarcase": 14442,
    "beside": 19876,
    "Ġalterations": 19870,
    "employ": 10894,
    "ouses": 5163,
    "Ġremembering": 14609,
    "hark": 15363,
    "Ġhack": 12752,
    "âĢĶâĢĻâĢĿ": 20062,
    "Ġchagrin": 20606,
    "Ġtongue": 6347,
    "ipagos": 22358,
    "estic": 4956,
    "Ġheinous": 18038,
    "Ġnibbling": 17383,
    "ong": 537,
    "Ġinward": 11605,
    "Ġdoctors": 12148,
    "riage": 2125,
    "oder": 2459,
    "thoughts": 9933,
    "interchange": 23737,
    "Ġapril": 13660,
    "Ġprejudice": 9074,
    "Ġendued": 14075,
    "continuing": 24478,
    "Ġopt": 793,
    "firm": 10697,
    "rut": 8092,
    "clever": 20813,
    "putting": 14100,
    "thar": 18217,
    "Ġbeaches": 18084,
    "Ġhurrah": 9867,
    "instrument": 15236,
    "Ġcontempt": 6275,
    "Ġwidows": 24235,
    "assisted": 22305,
    "Ġforebodings": 17302,
    "Ġintruder": 25991,
    "Ġkid": 9723,
    "Ġrashly": 20304,
    "Ġshrill": 12138,
    "Ġpinioned": 21481,
    "Ġsailors": 4277,
    "Ġwide": 4111,
    "ivility": 12783,
    "dz": 4738,
    "Ġhandy": 12932,
    "introduce": 25186,
    "Ġexhib": 6349,
    "Ġsal": 3936,
    "Ġmig": 13854,
    "Ġprinc": 4202,
    "brit": 19197,
    "Ġdiscussing": 5202,
    "Ġpresum": 4836,
    "Ġunpleasing": 22049,
    "Ġmunro": 25630,
    "Ġentic": 16143,
    "Ŀ": 256,
    "Ġsulk": 15044,
    "Ġfalsehood": 10522,
    "Ġpint": 17909,
    "listen": 13512,
    "Ġseethe": 21957,
    "Ġgloss": 11954,
    "ivot": 11715,
    "Ġkrem": 9724,
    "rant": 11515,
    "Ġferoc": 14900,
    "Ġinevitably": 17229,
    "Ġcord": 5222,
    "accepted": 20135,
    "steam": 23957,
    "Ġdisown": 22522,
    "Ġposter": 14277,
    "Ġoccupant": 16650,
    "Ġopium": 8993,
    "fort": 1750,
    "dropped": 12259,
    "Ġhomage": 12352,
    "Ġapex": 24341,
    "knot": 13743,
    "Ġclasp": 9742,
    "police": 10582,
    "ters": 1570,
    "Ġrelating": 2705,
    "calculating": 25689,
    "walls": 25345,
    "Ġgips": 10840,
    "sul": 15419,
    "humoredly": 26324,
    "inities": 21184,
    "kward": 6958,
    "while": 2939,
    "Ġringed": 16749,
    "Ġmainten": 16110,
    "Ġambergris": 8705,
    "bearings": 25371,
    "Ġ116": 24439,
    "Ġcarefully": 6304,
    "Ġxviii": 23408,
    "Ġperhaps": 1910,
    "Ġcost": 2507,
    "Ġdistinguished": 8273,
    "leaned": 21367,
    "recurrent": 4994,
    "Ġfile": 13901,
    "Ġferrule": 24516,
    "Ġclub": 8872,
    "inclined": 10638,
    "Ġshone": 7404,
    "Ġnephew": 6405,
    "Ġlangu": 576,
    "Ġarmchair": 8271,
    "compared": 24030,
    "Ġearned": 19403,
    "Ġpenal": 1773,
    "Ġpallet": 21480,
    "aches": 6569,
    "broker": 13302,
    "companies": 24894,
    "Ġseverity": 15815,
    "Ġgang": 9206,
    "Ġplanisp": 24054,
    "pick": 17633,
    "petulance": 24298,
    "mur": 5428,
    "Ġpleadings": 25852,
    "surgeon": 24213,
    "supplied": 10518,
    "Ġpulpit": 7470,
    "aly": 1138,
    "Ġproperties": 3118,
    "Ġvelv": 10618,
    "set": 3865,
    "salis": 25147,
    "Ġwidth": 16771,
    "Ġsain": 17749,
    "ittingly": 18806,
    "Ġsaucer": 20604,
    "Ġdevil": 3614,
    "Ġvibration": 17098,
    "Ġassured": 4371,
    "Ġdestined": 7975,
    "retched": 3069,
    "Ġlanding": 11981,
    "Ġexisted": 15748,
    "Ġenv": 2922,
    "Ġtries": 9149,
    "akin": 11765,
    "Ġproducts": 5198,
    "odecimoes": 25318,
    "Ġbedford": 7473,
    "estate": 12814,
    "Ġsant": 21213,
    "ugnance": 12364,
    "Ġdataset": 12812,
    "pence": 15407,
    "numbers": 17615,
    "Ġgifts": 21610,
    "Ġentries": 22745,
    "Ġinsurgents": 26599,
    "Ġastonished": 7087,
    "Ġheaped": 18037,
    "ilet": 12825,
    "Ġreplacing": 3450,
    "Ġpitched": 9442,
    "omorrah": 18024,
    "Ġplacid": 11823,
    "Ġjaw": 3316,
    "asant": 17958,
    "umb": 3479,
    "Ġprejud": 6851,
    "Ġassu": 21895,
    "Ġsharpen": 13567,
    "erably": 7573,
    "Ġglades": 19370,
    "antically": 22094,
    "Ġworsted": 19993,
    "volutional": 1933,
    "join": 12110,
    "attentions": 13572,
    "Ġoverseeing": 22362,
    "rossing": 18640,
    "ifix": 21901,
    "Ġpersuaded": 5769,
    "sleet": 20148,
    "Ġamph": 18510,
    "rate": 2423,
    "blister": 24127,
    "Ġpenetrated": 13470,
    "hidden": 17369,
    "yea": 23085,
    "Ġapart": 4745,
    "Ġwater": 1947,
    "Ġimprovements": 14510,
    "worshipping": 16609,
    "Ġjabez": 11763,
    "clergy": 18933,
    "orously": 8419,
    "counterpart": 26359,
    "Ġramadans": 25119,
    "Ġinventing": 24861,
    "Ġgangs": 21607,
    "Ġchocks": 13343,
    "suppose": 8644,
    "desp": 6076,
    "Ġbritish": 11336,
    "Ġprom": 1523,
    "anoke": 21359,
    "Ġnapoleons": 25885,
    "Ġcrockery": 24300,
    "evil": 11484,
    "Ġquant": 6424,
    "derer": 4600,
    "Ġinclemency": 22555,
    "Ġdish": 6136,
    "feeling": 6616,
    "Ġstrictly": 12282,
    "Ġadaptation": 3154,
    "Ġsovereign": 10060,
    "Ġpetticoat": 15293,
    "Ġimpertinence": 11365,
    "Ġadmon": 15865,
    "ially": 9245,
    "Ġmarching": 16698,
    "Ġflattered": 10373,
    "Ġsome": 655,
    "favourable": 12260,
    "tically": 3393,
    "Ġseverely": 14931,
    "Ġrheum": 18214,
    "nant": 17608,
    "Ġerudite": 26350,
    "danger": 10088,
    "Ġdemoniac": 15064,
    "Ġsubterr": 10347,
    "Ġchains": 8251,
    "Ġpreparing": 8647,
    "theast": 21746,
    "rucastle": 22182,
    "ught": 2752,
    "Ġhalloa": 13314,
    "Ġvineyard": 12327,
    "ere": 6789,
    "Ġsepulch": 15282,
    "Ġarchipelagoes": 14348,
    "Ġopposition": 16518,
    "retrie": 18922,
    "stalls": 26472,
    "Ġadapts": 3817,
    "Ġledge": 19399,
    "Ġexasperate": 20096,
    "furnish": 25338,
    "taining": 7206,
    "whenever": 11878,
    "bow": 5424,
    "Ġappeased": 23195,
    "madly": 24419,
    "cular": 15326,
    "old": 802,
    "employed": 17260,
    "landsmen": 25059,
    "sold": 15424,
    "Ġcrib": 21346,
    "Ġthoroughly": 8348,
    "Ġchaldee": 26234,
    "Ġstraighten": 24001,
    "Ġmour": 6973,
    "fulfil": 16037,
    "Ġpretended": 19313,
    "wind": 4253,
    "Ġusurpation": 18357,
    "Ġmoving": 1681,
    "Ġleaps": 14000,
    "Ġobtain": 8913,
    "Ġhurled": 10428,
    "Ġauthors": 10415,
    "proportion": 16177,
    "Ġguardians": 14941,
    "Ġarrang": 2469,
    "Ġmak": 10777,
    "Ġrays": 10329,
    "gins": 12465,
    "embraced": 25804,
    "Ġrails": 22656,
    "Ġrescued": 24205,
    "erce": 6126,
    "Ġquieted": 23839,
    "Ġcanterbury": 22166,
    "Ġjewels": 12366,
    "Ġinn": 4590,
    "acted": 11009,
    "Ġhulls": 13924,
    "Ġhart": 17921,
    "Ġimmutable": 17356,
    "Ġdancing": 5703,
    "Ġmoran": 9340,
    "Ġrender": 8305,
    "iriously": 18171,
    "Ġunknown": 4452,
    "Ġjoyfully": 19344,
    "Ġmace": 21308,
    "Ġdisse": 18548,
    "Ġfigures": 8629,
    "itic": 11576,
    "Ġfurnishes": 19439,
    "oline": 6834,
    "Ġschoolmaster": 16861,
    "Ġbarn": 11585,
    "Ġpertin": 18449,
    "Ġsleep": 2400,
    "Ġgeneral": 1861,
    "operations": 19973,
    "Ġidol": 7467,
    "Ġguiltless": 16939,
    "iracle": 11242,
    "Ġjoker": 22296,
    "osc": 18387,
    "Ġblameless": 19858,
    "msman": 9267,
    "igen": 4828,
    "Ġdates": 6693,
    "likely": 9021,
    "Ġtongues": 14861,
    "Ġvesuvius": 26500,
    "aet": 15305,
    "Ġsickened": 16774,
    "irms": 18168,
    "Ġstoper": 14461,
    "Ġbequest": 21751,
    "trampled": 26333,
    "ĠâĢĻ": 3043,
    "room": 2179,
    "Ġme": 351,
    "Ġ71": 24258,
    "Ġcompre": 4448,
    "Ġflock": 21410,
    "aling": 1033,
    "Ġcocksure": 26258,
    "Ġbaggy": 24537,
    "Ġreconcile": 25291,
    "camp": 15328,
    "tranquil": 25870,
    "Ġswore": 10377,
    "Ġant": 4345,
    "Ġexile": 12712,
    "ures": 838,
    "ager": 6546,
    "Ġslanting": 23171,
    "brous": 19198,
    "Ġimagenet": 19245,
    "Ġoverpow": 14206,
    "fow": 20852,
    "ogrand": 26261,
    "Ġprocedure": 2811,
    "Ġpenny": 16311,
    "ishments": 9271,
    "Ġovertaken": 18430,
    "ĕ": 214,
    "Ġinterlude": 16070,
    "Ġstatistics": 1685,
    "etwork": 442,
    "Ġherd": 7889,
    "turning": 8317,
    ".": 18,
    "Ġcoolness": 16885,
    "Ġ60": 14873,
    "Ġwester": 25152,
    "Ġimm": 3964,
    "Ġdoth": 13906,
    "Ġcollins": 2181,
    "low": 658,
    "Ġbreathe": 9010,
    "Ġ84": 19708,
    "apparatus": 26562,
    "Ġdisdain": 8360,
    "onies": 6806,
    "conve": 14242,
    "Ġskilful": 25837,
    "Ġduodecimo": 16766,
    "fra": 8375,
    "Ġhandwriting": 14317,
    "Ġcoronation": 13331,
    "reel": 21232,
    "Ġjoyously": 19345,
    "Ġsquare": 2397,
    "Ġfabulous": 25948,
    "Ġantilles": 24178,
    "dough": 15333,
    "Ġpresumably": 19623,
    "Ġrepugnant": 26589,
    "poster": 11055,
    "Ġerrone": 14428,
    "weight": 2944,
    "fears": 18528,
    "Ġmislead": 22754,
    "Ġarrest": 7409,
    "Ġvouch": 15806,
    "Ġparamore": 22120,
    "Ġassur": 6074,
    "hero": 21203,
    "viating": 14578,
    "Ġupbraiding": 26226,
    "Ġautomatically": 3750,
    "Ġvis": 1109,
    "Ġqual": 6274,
    "Ġreeled": 13984,
    "Ġmystery": 5509,
    "Ġgo": 615,
    "ortal": 6265,
    "march": 13753,
    "Ġclasping": 20208,
    "Ġcand": 3275,
    "Ġadapted": 11039,
    "Ġdirection": 1792,
    "Ġboots": 5944,
    "Ġpoltroon": 26597,
    "Ġoffered": 5816,
    "Ġmu": 17795,
    "Ġdisplaying": 16965,
    "Ġbutts": 15852,
    "Ġequatorial": 13507,
    "calm": 8933,
    "approve": 19935,
    "Ġresemble": 15689,
    "bright": 8988,
    "Ġcran": 11997,
    "lesson": 22763,
    "Ġfibres": 12947,
    "Ġcustoms": 19651,
    "Ġoutermost": 22317,
    "Ġbending": 12581,
    "Ġwhalers": 8048,
    "Ġcusack": 26432,
    "doublo": 24660,
    "Ġblundering": 26283,
    "Ġdesolated": 24812,
    "Ġinvestment": 24335,
    "feeders": 25235,
    "inhab": 10756,
    "Ġdestro": 3722,
    "act": 785,
    "Ġhermits": 22072,
    "Ġconstrained": 19239,
    "Ġgums": 21609,
    "three": 5238,
    "wedding": 13369,
    "Ġcoron": 4463,
    "money": 8749,
    "sharks": 14237,
    "complexion": 14358,
    "aves": 2545,
    "laden": 14927,
    "Ġrestless": 10412,
    "innocent": 20285,
    "oriously": 17874,
    "pointed": 9806,
    "ple": 455,
    "Ġwithdrawn": 10605,
    "ocity": 8278,
    "Ġcashier": 20197,
    "Ġshin": 18227,
    "club": 26379,
    "Ġwhole": 1662,
    "Ġriding": 14093,
    "Ġnecessitated": 23925,
    "Ġmarried": 3408,
    "Ġspitz": 14147,
    "Ġmannish": 26237,
    "app": 1039,
    "Ġheave": 7599,
    "Ġsee": 805,
    "threaten": 25461,
    "Ġsaloon": 24059,
    "ists": 4002,
    "Ġrespectable": 6736,
    "Ġwidower": 24234,
    "yramid": 8368,
    "Ġsilken": 16378,
    "idge": 14012,
    "scornful": 26574,
    "Ġessentials": 20001,
    "Ġgeorgia": 23883,
    "Ġheeded": 13401,
    "Ġrind": 21970,
    "sies": 21053,
    "Ġmilan": 19534,
    "rebellum": 26165,
    "Ġsprawling": 22138,
    "Ġdiab": 10610,
    "actor": 11835,
    "Ġindiam": 22956,
    "ubines": 22962,
    "Ġbedroom": 7277,
    "Ġodious": 12147,
    "Ġhumorousness": 25377,
    "Ġdispleasure": 16048,
    "Ġmeasures": 1206,
    "Ġstr": 762,
    "Ġholding": 4979,
    "Ġgaining": 9490,
    "Ġreel": 9212,
    "Ġshun": 11706,
    "opinion": 10983,
    "retired": 11933,
    "Ġgraces": 18225,
    "Ġbeard": 11653,
    "Ġscuffle": 20607,
    "Ġ121": 24465,
    "Ġsheep": 10925,
    "Ġcommunication": 1869,
    "Ġoriginal": 6102,
    "desirable": 23205,
    "abiding": 21791,
    "coff": 9107,
    "Ġconvention": 25546,
    "incing": 15483,
    "Ġunmingled": 18260,
    "Ġmeekly": 26489,
    "Ġmantelpiece": 15205,
    "Ġunconcerned": 20508,
    "truth": 9917,
    "paying": 25411,
    "Ġbottomless": 12103,
    "rs": 7808,
    "illuminated": 17451,
    "Ġwo": 3652,
    "Ġmortified": 14693,
    "Ġplat": 8520,
    "Ġproportion": 7281,
    "explaining": 23139,
    "Ġcables": 15554,
    "Ġprof": 2460,
    "Ġoce": 3031,
    "Ġangular": 19206,
    "Ġplaced": 3445,
    "Ġ65": 24367,
    "Ġmystic": 7503,
    "itates": 13867,
    "splinter": 25210,
    "Ġbeginning": 4244,
    "oman": 2018,
    "Ġcopse": 17066,
    "Ġclaim": 5106,
    "Ġblasphemy": 26115,
    "ball": 7793,
    "retch": 4370,
    "Ġcad": 12564,
    "Ġgathered": 8443,
    "Ġwat": 1287,
    "Ġap": 5008,
    "voices": 21116,
    "Ġscraggy": 24578,
    "Ġvag": 9706,
    "Ġelemental": 19918,
    "Ġprogressive": 5024,
    "Ġreturning": 5325,
    "xt": 2081,
    "Ġpecks": 18669,
    "Ġdinnertime": 16718,
    "Ġ270": 25130,
    "coo": 11169,
    "Ġverify": 12084,
    "Ġ48": 24078,
    "Ġstarboard": 7607,
    "Ġoutright": 18413,
    "Ġpossibly": 4513,
    "condite": 23247,
    "date": 17516,
    "Ġslices": 23164,
    "Ġwrong": 4723,
    "lane": 10705,
    "hued": 20910,
    "Ġintrusion": 12761,
    "Ġbrute": 8923,
    "farm": 15349,
    "Ġprophesy": 26061,
    "Ġcorporeal": 17358,
    "Ġoccasioned": 13224,
    "Ġgarments": 15191,
    "myst": 9820,
    "Ġeucl": 24709,
    "ten": 1554,
    "oll": 5456,
    "Ġretains": 20028,
    "bots": 10081,
    "andes": 18151,
    "entions": 17974,
    "sent": 760,
    "Ġchallenges": 13628,
    "Ġtri": 4812,
    "ulled": 14054,
    "choose": 23671,
    "Ġmartha": 16258,
    "Ġcage": 17825,
    "Ġstrateg": 1404,
    "ground": 4671,
    "Ġimagine": 3922,
    "Ġclinging": 10290,
    "Ġital": 10865,
    "Ġchry": 22244,
    "Ġwildness": 14602,
    "dee": 11730,
    "Ġgrip": 11625,
    "Ġnew": 1196,
    "Ġnecessitates": 23926,
    "Ġbats": 13898,
    "supportable": 12367,
    "Ġcreep": 22722,
    "Ġseparated": 9463,
    "chron": 21692,
    "ributed": 8215,
    "legged": 10465,
    "ama": 11675,
    "Ġmutineer": 19416,
    "Ġvaluable": 5607,
    "cross": 3577,
    "Ġelect": 10841,
    "Ġcocoan": 20315,
    "hood": 2660,
    "Ġmal": 5221,
    "Ġwashing": 9703,
    "bers": 2571,
    "paus": 13771,
    "Ġwhite": 1536,
    "alvan": 21502,
    "Ġstrasburgh": 18616,
    "Ġquit": 5245,
    "Ġdejected": 20303,
    "iles": 2864,
    "Ġwaifing": 25244,
    "Ġpoem": 22589,
    "ature": 522,
    "slo": 17655,
    "pate": 21009,
    "sen": 21048,
    "Ġmarrying": 6177,
    "ue": 1180,
    "Ġjagged": 18407,
    "Ġreliability": 22880,
    "city": 15325,
    "Ġdeterminate": 23005,
    "ries": 3351,
    "Ġflashed": 11912,
    "masculine": 24386,
    "Ġneighbourhood": 5126,
    "Ġhoarsely": 26302,
    "Ġrickety": 26505,
    "Ġsettlement": 19835,
    "Ġgives": 5018,
    "Ġgurgling": 17444,
    "Ġlat": 5087,
    "Ġprocuring": 16867,
    "Ġearthquake": 14627,
    "Ġ88": 19710,
    "Ġunprepared": 22044,
    "Ġparched": 11724,
    "certainly": 5339,
    "Ġvehemently": 26039,
    "warrior": 24798,
    "Ġpost": 4273,
    "Ġpainter": 19167,
    "Ġimprove": 1812,
    "ilogue": 21722,
    "Ġrefrain": 12941,
    "pilot": 25908,
    "Ġgeorge": 3749,
    "Ġbubblingly": 25632,
    "Ġpolicy": 10456,
    "discrimin": 19607,
    "Ġproblem": 1273,
    "somers": 19366,
    "Ġcompliment": 5673,
    "waste": 21133,
    "gg": 1997,
    "Ġsleeves": 10659,
    "edmund": 17945,
    "Ġzeros": 3322,
    "neglected": 25669,
    "younger": 11311,
    "cain": 15324,
    "Ġdissip": 10991,
    "jol": 20924,
    "indulged": 22373,
    "material": 13128,
    "save": 13783,
    "Ġencourag": 1390,
    "chest": 11206,
    "Ġquitted": 5311,
    "Ġwavering": 23402,
    "clopÃ¦": 13052,
    "hauteur": 26390,
    "Ġshallow": 14393,
    "Ġberm": 21381,
    "dem": 10690,
    "Ġextend": 18692,
    "Ġjealous": 9467,
    "scythes": 26401,
    "Ġgulp": 20027,
    "Ġnormalizing": 1821,
    "Ġkindling": 19032,
    "Ô": 149,
    "Ġtouch": 3396,
    "Ġdelusion": 18974,
    "Ġthird": 4189,
    "Ġsleepers": 13147,
    "Ġplanting": 16082,
    "Ġyielding": 12183,
    "passion": 11259,
    "Ġcandid": 4102,
    "orative": 21396,
    "Ġcurls": 22948,
    "turkish": 24532,
    "Ġtougher": 21175,
    "Ġbuffaloes": 25217,
    "Ġmurmuring": 23577,
    "Ġclimes": 12837,
    "Ġweep": 7619,
    "Ġperturbed": 20438,
    "ernation": 8212,
    "Ġdreamed": 16628,
    "Ġlavater": 20493,
    "Ġmarvell": 7248,
    "Ġmend": 8406,
    "Ġaverted": 16252,
    "Ġmen": 1435,
    "Ġdan": 8791,
    "Ġrossum": 3015,
    "Ġdeg": 3280,
    "covering": 15332,
    "Ġpropensity": 18996,
    "Ġrucastles": 18720,
    "âĢĶâĢĻ": 8188,
    "Ġdivinest": 25722,
    "Ġmother": 2067,
    "lemagne": 26435,
    "watch": 6118,
    "Ġlayer": 1010,
    "Ġlucifers": 16587,
    "Ġpredicted": 2044,
    "Ġoverjoyed": 17456,
    "Ġmish": 15534,
    "Ġscimet": 22286,
    "Ġunforgiving": 25995,
    "Ġleague": 6538,
    "Ġmutinous": 23955,
    "Ġscott": 22279,
    "Ġaccompany": 9485,
    "Ġdusky": 13547,
    "where": 2092,
    "Ġperpet": 7644,
    "Ġneighbor": 25805,
    "Ġdowry": 20684,
    "Ġshadowed": 24042,
    "ean": 20839,
    "quered": 11052,
    "favouring": 24762,
    "Ġenslaved": 26314,
    "Ġsponge": 26004,
    "article": 22390,
    "Ġarmies": 16490,
    "Ġge": 1980,
    "Ġcrime": 4616,
    "ird": 2428,
    "Ġknees": 6928,
    "ook": 21003,
    "Ġpia": 21463,
    "sis": 1907,
    "Ġsebastian": 11694,
    "whether": 5319,
    "84": 15299,
    "Ġparadigms": 3058,
    "screaming": 20324,
    "Ġbuffalo": 11428,
    "Ġpreserve": 7529,
    "Ġmorocc": 22975,
    "Ġmake": 1285,
    "Ġconflag": 20334,
    "Ġimmortality": 26325,
    "province": 26072,
    "Ġleads": 12093,
    "Ġfocused": 16339,
    "Ġdepends": 1104,
    "Ġcharacteristics": 8609,
    "down": 3470,
    "Ġswitzerland": 10378,
    "Ġheadstrong": 14386,
    "paws": 21028,
    "counter": 20277,
    "hanging": 10099,
    "Ġbern": 17858,
    "Ġquarto": 17294,
    "Ġholland": 10364,
    "Ġconfidence": 6590,
    "illity": 18296,
    "Ġvarying": 15807,
    "oura": 1058,
    "Ġeddying": 16433,
    "Ġlav": 13947,
    "Ġoars": 3897,
    "Ġupward": 9719,
    "Ġoy": 15542,
    "assemblies": 25956,
    "sleep": 6511,
    "direction": 17523,
    "orus": 10800,
    "chamber": 13623,
    "Ġsub": 951,
    "unted": 6998,
    "Ġemperor": 15156,
    "è": 169,
    "Ġremoter": 20104,
    "related": 24009,
    "Ġorder": 1688,
    "Ġgroom": 13964,
    "uded": 6286,
    "Ġbeliefs": 24581,
    "Ġselect": 4000,
    "Ġascend": 9958,
    "Ġenhance": 3436,
    "Ġloosened": 26002,
    "Ġend": 1484,
    "Ġprove": 5232,
    "resses": 16148,
    "ashes": 6016,
    "Ġwinking": 17793,
    "Ġsufferings": 7513,
    "Ġmourning": 13476,
    "sequence": 2857,
    "achel": 7031,
    "Ġenchantment": 24869,
    "Ġretort": 23068,
    "Ġopposing": 12038,
    "Ġallude": 12776,
    "Ġpreference": 9731,
    "Ġalarming": 14778,
    "acute": 22543,
    "solution": 14685,
    "eding": 7165,
    "Ġhence": 4989,
    "Ġvibrated": 25045,
    "Ġaint": 17743,
    "Ġdisinterested": 16053,
    "du": 604,
    "recked": 17761,
    "carried": 16711,
    "throt": 25659,
    "Ġpronounce": 16967,
    "Ġdazzling": 15209,
    "aimed": 3950,
    "Ġoblong": 14319,
    "Ġbohemian": 17132,
    "iring": 1709,
    "stretching": 20497,
    "Ġspending": 10923,
    "mystery": 15153,
    "Ġorchard": 22092,
    "Ġpop": 5151,
    "Ġlaughs": 24116,
    "Ġthrew": 3974,
    "bulkington": 19924,
    "rell": 11562,
    "rodden": 21533,
    "Ġdit": 21419,
    "eldom": 4413,
    "83": 13678,
    "Ġfrequently": 4679,
    "Ġhearsed": 25039,
    "Ġdante": 21437,
    "Ġdisc": 942,
    "Ġnotion": 7883,
    "Ġgul": 7860,
    "wandered": 20284,
    "Ġtowering": 16738,
    "mies": 20967,
    "Ġancles": 21445,
    "Ġluckless": 16796,
    "attempts": 17189,
    "influence": 13576,
    "atement": 17772,
    "away": 4625,
    "Ġsqualls": 17019,
    "Ġsleepless": 14581,
    "roman": 22002,
    "evinced": 19925,
    "Ġscanning": 18399,
    "mathematics": 26304,
    "Ġsisters": 3642,
    "Ġmuster": 16119,
    "indeed": 4487,
    "consp": 18504,
    "ash": 1993,
    "Ġmanage": 7640,
    "Ġmenaces": 23104,
    "cats": 17511,
    "Ġreasonably": 11085,
    "Ġoutrage": 15955,
    "Ġnat": 12641,
    "Ġbearing": 5298,
    "Ġsounded": 8590,
    "Ġoptimize": 1642,
    "answered": 10272,
    "Ġhedges": 19983,
    "Ġirrevoc": 15037,
    "Ġidolator": 19996,
    "string": 15681,
    "Ġaskance": 23149,
    "orte": 14183,
    "Ġmel": 4815,
    "Ġterminated": 23507,
    "Ġutmost": 5496,
    "Ġlivelihood": 24774,
    "Ġgree": 7594,
    "Ġsubjected": 23570,
    "Ġpaddled": 20200,
    "Ġcitadel": 25438,
    "Ġduncan": 13459,
    "Ġincommun": 25308,
    "Ġplucked": 15111,
    "Ġinjury": 10539,
    "Ġcomparative": 10541,
    "mbl": 5947,
    "clam": 13051,
    "proves": 23390,
    "immediately": 10047,
    "Ġcurbstone": 26042,
    "Ġdistance": 3484,
    "Ġrumors": 11320,
    "nest": 10112,
    "volut": 1558,
    "Ġegyptians": 25289,
    "Ġperpetual": 12300,
    "embarrassed": 20595,
    "Ġbeds": 14550,
    "ener": 562,
    "Ġmorcar": 13011,
    "Ġemigrant": 25859,
    "Ġamuse": 5940,
    "Ġwoll": 21292,
    "Ġassembly": 10641,
    "announce": 24559,
    "fordshire": 4676,
    "Ġdisappears": 18560,
    "Ġvicinity": 7315,
    "Ġsafely": 9024,
    "Ġrats": 21974,
    "Ġlower": 2663,
    "newsp": 23131,
    "ar": 285,
    "ieved": 3228,
    "Ġmaw": 15536,
    "horrible": 14599,
    "amidst": 25652,
    "Ġindustry": 18842,
    "Ġchurch": 4710,
    "trees": 10730,
    "Ġcrisp": 11999,
    "bpp": 20771,
    "Ġsmut": 22556,
    "Ġplan": 3881,
    "quickness": 19850,
    "Ġtumult": 7114,
    "Ġmirror": 12375,
    "Ġdressed": 5081,
    "ggling": 19096,
    "minded": 9036,
    "Ġsecre": 5493,
    "conce": 8510,
    "Ġinhabit": 5782,
    "brown": 15315,
    "Ġclosing": 11769,
    "tumbled": 21089,
    "voc": 8394,
    "Ġshaking": 6551,
    "Ġsta": 18065,
    "Ġpremises": 10486,
    "Ġulster": 14996,
    "Ġnought": 21520,
    "sub": 4659,
    "reclining": 20573,
    "Ġreneg": 21673,
    "Ġscrewing": 20207,
    "ouse": 1192,
    "\":": 9580,
    "Ġwooded": 23519,
    "Ġsquad": 22834,
    "Ġparameters": 993,
    "outh": 2687,
    "sprinkling": 24912,
    "Ġpoetical": 25057,
    "hur": 6648,
    "hoist": 23712,
    "Ġlaying": 7909,
    "Ġsolid": 6443,
    "itiousness": 21332,
    "Ġscreaming": 13421,
    "Ġharpoone": 2914,
    "Ġpersecut": 16951,
    "Ġmutilated": 23956,
    "Ġburns": 16520,
    "lights": 13203,
    "Ġfunctions": 1340,
    "possibility": 13359,
    "precipitance": 25867,
    "thank": 4950,
    "Ġvalid": 1748,
    "Ġheedfully": 24520,
    "Ġcompasses": 11266,
    "Ġchoice": 2166,
    "Ġpacifics": 24372,
    "Ġspermacetti": 19051,
    "Ġxxxvi": 24971,
    "Ġisinglass": 21800,
    "Ġweeks": 4564,
    "Ġparaphrasing": 26525,
    "Ġbacks": 8527,
    "atches": 13844,
    "Ġspikes": 22135,
    "Ġsabbee": 17254,
    "Ġmaintenance": 17460,
    "boil": 18999,
    "Ġow": 8408,
    "rals": 21041,
    "hau": 17561,
    "Ġcountryside": 23595,
    "grained": 20882,
    "ailed": 3245,
    "Ġadjusted": 23457,
    "principle": 10649,
    "Ġerred": 21155,
    "Ġ180": 16605,
    "Ġxi": 16427,
    "Ġpewter": 17184,
    "described": 18894,
    "surprise": 9528,
    "Ġpause": 5707,
    "former": 11745,
    "ayed": 12708,
    "Ġpremeditated": 22232,
    "uger": 21102,
    "atre": 17769,
    "Ġuniverse": 14121,
    "Ġasiatics": 20429,
    "Ġhellaswag": 24342,
    "Ġacknowledgment": 16956,
    "Ġapologies": 25196,
    ");": 7330,
    "Ġbrahma": 26319,
    "Ġoutskirts": 17455,
    "Ġmetropolis": 17273,
    "Ġoverall": 4358,
    "Ġfritters": 23256,
    "disappointment": 11424,
    "Ġmeridians": 17354,
    "Ġgn": 8816,
    "Ġstate": 1809,
    "jump": 10102,
    "Ġfrightened": 5341,
    "Ġcaution": 11345,
    "Ġfashionable": 19543,
    "Ġpoliteness": 8274,
    "Ġundertone": 23239,
    "word": 2487,
    "Ġlic": 8436,
    "apter": 1193,
    "Ġneatly": 17015,
    "wilful": 25086,
    "Ġagrees": 22514,
    "perseus": 26005,
    "Ġproviding": 1361,
    "Ġcircumnavigation": 20398,
    "Ġdemeanour": 17335,
    "Ġchuckled": 10646,
    "Ġslope": 14459,
    "hateful": 20908,
    "Ġprecautions": 23725,
    "Ġschool": 5512,
    "Ġmiser": 18703,
    "aboard": 21792,
    "Ġseparate": 5778,
    "Ġwednesday": 9023,
    "Ġsurvivor": 17361,
    "almost": 4943,
    "Ġlithe": 24668,
    "Ġturkish": 12258,
    "Ġalter": 6542,
    "Ġrestlessness": 23289,
    "Ġmessage": 13521,
    "Ġapiece": 16812,
    "forty": 9372,
    "driver": 14919,
    "Ġboasted": 16103,
    "Ġadoption": 24948,
    "aited": 12432,
    "Ġspecksnyder": 17401,
    "hurriedly": 25510,
    "Ġpens": 21459,
    "verbally": 25360,
    "bble": 17483,
    "Ġnoblest": 13239,
    "interval": 7991,
    "armon": 23058,
    "felicity": 25140,
    "atherley": 7220,
    "Ġprofane": 13150,
    "Ġcrowded": 8012,
    "ethics": 8876,
    "acquainted": 7313,
    "usation": 18401,
    "Ġarist": 14160,
    "Ġbarrel": 23789,
    "Ġadvers": 4886,
    "Ġshaken": 10263,
    "·": 120,
    "Ġstruggles": 16577,
    "Ġimminent": 11243,
    "adam": 15726,
    "sufficient": 6635,
    "savage": 15073,
    "delight": 5344,
    "distinction": 19570,
    "Ġintellig": 525,
    "Ġplutarch": 22602,
    "casks": 20401,
    "Ġinstinctively": 13457,
    "đ": 210,
    "Ġoperate": 19115,
    "ulates": 14053,
    "ilies": 18056,
    "Ġcurrents": 13003,
    "Ġgodly": 19078,
    "Ġdrag": 6184,
    "surprised": 9529,
    "tic": 8391,
    "Ġvisit": 2584,
    "Ġbolivia": 24667,
    "Ġ22": 8279,
    "Ġflo": 2590,
    "Ġdeath": 2042,
    "single": 10125,
    "ressing": 8917,
    "Ġfounder": 17883,
    "Ġbowsman": 11254,
    "countryman": 24639,
    "Ġstreng": 18073,
    "Ġmiserable": 3636,
    "Ġmiserably": 12944,
    "Ġforced": 4352,
    "presum": 12864,
    "Ġimproved": 7656,
    "herald": 22203,
    "Ġmale": 9647,
    "Ġcollinses": 19129,
    "Ġglories": 16240,
    "comfortable": 7320,
    "impregn": 21712,
    "ologist": 22871,
    "Ġscud": 14189,
    "Ġunce": 11708,
    "Ġpencil": 11940,
    "aye": 3661,
    "8": 28,
    "Ġcomplexity": 1698,
    "vand": 21107,
    "Ġcruc": 16533,
    "Ġlicence": 25096,
    "wretched": 10741,
    "Ġloveliness": 13606,
    "Ġconditions": 8307,
    "indef": 17734,
    "Ġdeceitful": 25733,
    "Ġupstairs": 5836,
    "Ġpersu": 3565,
    "Ġpersuading": 19408,
    "heeded": 13832,
    "Ġcass": 13877,
    "Ġrewarding": 13435,
    "Ġrefusing": 11024,
    "Ġobserver": 11985,
    "Ġsensibly": 14514,
    "Ġcontradictory": 20395,
    "Ġjacobians": 2897,
    "Ġfab": 15572,
    "Ġrevenge": 5452,
    "cat": 15322,
    "Ġslow": 2381,
    "igh": 2029,
    "Ġcirc": 1987,
    "Ġprincipal": 6496,
    "mantel": 26393,
    "Ġsignification": 19202,
    "Ġmingling": 20196,
    "Ġdaughters": 4421,
    "fa": 7336,
    "confused": 19643,
    "Ġcrouched": 23440,
    "Ġrates": 1403,
    "iosity": 2156,
    "Ġgrief": 4620,
    "utting": 17984,
    "Ġdining": 6977,
    "Ġconstit": 8582,
    "Ġshrugged": 12765,
    "Ġtremulous": 14984,
    "humanity": 24839,
    "Ġfrolic": 23921,
    "extensive": 18709,
    "Ġpremium": 23901,
    "Ġindians": 14408,
    "ouch": 2780,
    "seeing": 7078,
    "Ġpassive": 22838,
    "drive": 8682,
    "aming": 5828,
    "Ġmechanis": 1203,
    "Ġchimer": 24603,
    "ban": 9583,
    "Ġwindibank": 7257,
    "nlp": 8750,
    "use": 2537,
    "experienced": 15119,
    "Ġupset": 22151,
    "Ġcleaving": 23180,
    "Ġdanes": 25156,
    "ive": 427,
    "Ġzero": 1201,
    "ced": 746,
    "Ġoutweigh": 22320,
    "ĠcÃ¦": 15551,
    ";âĢĿâĢĶ": 20759,
    "Ġheal": 21679,
    "Ġgallon": 24183,
    "Ġwet": 6518,
    "garden": 15024,
    "ow": 326,
    "Ġeels": 21618,
    "Ġ550": 19640,
    "terror": 18128,
    "Ġcolour": 4460,
    "Ġleap": 5823,
    "Ġfeed": 2129,
    "appo": 3914,
    "Ġmuttering": 10498,
    "oboam": 9356,
    "Ġsingularly": 12145,
    "Ġmaled": 21313,
    "Ġreal": 1633,
    "awed": 10390,
    "Ġfr": 1699,
    "Ġentirely": 3434,
    "Ġbath": 9657,
    "Ġhast": 3149,
    "Ġpeep": 6870,
    "Ġaids": 12225,
    "Ġpeculiarities": 12067,
    "oves": 15402,
    "prejud": 11793,
    "Ġpossessed": 5195,
    "Ġleak": 2161,
    "Ġfasting": 16353,
    "venor": 16097,
    "Ġfrosty": 14933,
    "Ġnavigators": 19762,
    "cleanliness": 25871,
    "Ġoverladen": 22364,
    "wards": 1278,
    "indispensable": 14208,
    "Ġplaus": 22598,
    "weep": 22682,
    "Æ": 135,
    "Ġpow": 4637,
    "Ġextended": 7925,
    "reader": 23843,
    "nowhere": 18418,
    "lantern": 17426,
    "cool": 19186,
    "inlaid": 21189,
    "Ġillustrious": 17108,
    "Ġhorizontally": 17011,
    "Ġcircumstance": 4987,
    "blown": 25201,
    "ounders": 22392,
    "Ġstreatham": 17447,
    "scence": 14417,
    "Ġweig": 7618,
    "lengths": 24846,
    "Ġwonderful": 4562,
    "Ġvenge": 5420,
    "acon": 10680,
    "Ġslide": 10392,
    "Ġcritically": 23444,
    "Ġsatirical": 26279,
    "eler": 1569,
    "chari": 21687,
    "perceived": 8857,
    "Ġmoist": 9283,
    "Ġcompetition": 14269,
    "Ġlaz": 7378,
    "prosper": 19100,
    "Ġdrink": 4786,
    "Ġcoding": 8116,
    "Ġfangs": 12593,
    "venth": 9293,
    "illating": 22105,
    "Ġrefined": 18695,
    "Ġsqu": 1036,
    "forest": 22516,
    "Ġmeals": 12707,
    "ondescript": 22914,
    "disp": 7977,
    "rested": 13072,
    "Ġobligations": 12088,
    "Ġtickled": 20055,
    "Ġboxes": 13372,
    "Ġsweetly": 23916,
    "Ġvers": 7563,
    "Ġchoicest": 24219,
    "published": 26142,
    "Ġspeed": 2448,
    "Ġjudged": 12080,
    "sius": 13786,
    "Ġfrightens": 24027,
    "poky": 17643,
    "Ġdownright": 16115,
    "bourn": 3300,
    "every": 2812,
    "qual": 8157,
    "Ġscreamed": 9522,
    "acceptable": 25183,
    "withstand": 23025,
    "endeavour": 17030,
    "Ġuncontrollable": 25814,
    "idually": 21767,
    "station": 10843,
    "Ġcult": 8780,
    "years": 6883,
    "iscient": 17851,
    "Ġtimely": 19593,
    "Ġrooted": 13167,
    "Ġopen": 1547,
    "Ġdece": 6996,
    "ificial": 607,
    "ermaid": 14294,
    "princip": 17135,
    "Ġjackson": 24239,
    "Ġshorter": 4498,
    "actorily": 25576,
    "Ġburst": 4379,
    "came": 4570,
    "Ġsimply": 7218,
    "Ġwrithing": 11943,
    "ohnson": 16322,
    "Ġstony": 21741,
    "sufficiently": 14979,
    "Ġunanswerable": 26520,
    "Ġfifth": 11256,
    "Ġevil": 3806,
    "Ġflorida": 20658,
    "Ġstaves": 21739,
    "Ġneskyeuna": 26458,
    "eryton": 4096,
    "ma": 1151,
    "Ġcushion": 17833,
    "conspicuous": 26247,
    "imet": 21704,
    "Ġgibe": 25959,
    "Ġpea": 14315,
    "Ġarrival": 4730,
    "ared": 770,
    "ď": 208,
    "arab": 21440,
    "olen": 9698,
    "Ġpattering": 18651,
    "testing": 12513,
    "Ġsexes": 25168,
    "con": 653,
    "Ġblinded": 13268,
    "Ġcalculating": 9923,
    "Ġhanging": 5447,
    "iance": 5279,
    "Ġsilvery": 13092,
    "Ġliberty": 7762,
    "Ġexposure": 16096,
    "Ġourselves": 5127,
    "Ġpast": 2099,
    "vous": 2253,
    "glances": 23850,
    "vering": 15712,
    "Ġreceipt": 20354,
    "Ġprofits": 16487,
    "Ġwages": 13852,
    "Ġ(âĢľ": 15992,
    "ourably": 14375,
    "Ġfireboard": 23531,
    "Ġdress": 4022,
    "Ġfanned": 19099,
    "sus": 6228,
    "Ġvalidation": 2360,
    "hes": 1396,
    "Ġmelt": 21316,
    "Ġantip": 24176,
    "alley": 23022,
    "Ġwrig": 13064,
    "une": 2786,
    "crimson": 24099,
    "Ġdog": 4195,
    "agement": 4191,
    "agre": 18164,
    "Ġsoup": 7067,
    "Ġ17": 5740,
    "Ġbouton": 17868,
    "Ġmuskets": 17055,
    "<MASK>": 4,
    "Ġfaulty": 14905,
    "Ġadam": 2128,
    "aggoo": 5130,
    "Ġtw": 841,
    "urday": 13992,
    "Ġinvoked": 19144,
    "Ġworshipper": 25692,
    "Ġamazing": 9975,
    "Ġstem": 15718,
    "Ġceased": 6468,
    "Ġincessantly": 11410,
    "Ġcoroner": 7510,
    "Ġhears": 8139,
    "chase": 11643,
    "Ġevident": 6612,
    "Ġwealthy": 18178,
    "Ġtis": 15463,
    "Ġlaid": 3939,
    "Ġimplicit": 19956,
    "Ġmichigan": 26425,
    "disgrace": 16456,
    "Ġcorrectly": 9402,
    "Ġcongreg": 8462,
    "Ġdevelopments": 23233,
    "Ġmean": 741,
    "Ġblemish": 19678,
    "generous": 16567,
    "Ġstrives": 23694,
    "swells": 26148,
    "corpse": 24485,
    "Ġcrav": 19172,
    "maintained": 25020,
    "Ġcrawl": 11374,
    "Ġcame": 1299,
    "Ġintegr": 7969,
    "Ġdynamically": 4178,
    "thirty": 12758,
    "Ġarchitects": 18743,
    "Ġdecomposition": 5342,
    "Ġlieuten": 13324,
    "benevolent": 15231,
    "Ġinconven": 7586,
    "base": 20776,
    "Ġsophisticated": 1677,
    "Ġcoopers": 20520,
    "hauled": 20667,
    "Ġfought": 12589,
    "rist": 10121,
    "aste": 4601,
    "Ġlapse": 17119,
    "Ġrecall": 3855,
    "Ġ**": 4720,
    "Ġfisherman": 12072,
    "Ġground": 2847,
    "recollected": 25347,
    "Ġexe": 3996,
    "Ġbedfellow": 16435,
    "standard": 22426,
    "Ġslates": 11105,
    "iration": 4539,
    "uber": 15443,
    "ig": 322,
    "Ġzoology": 22819,
    "rossed": 11011,
    "learnt": 23581,
    "Ġplatform": 17130,
    "Ġwinter": 5220,
    "Ġpeaceable": 14721,
    "uctive": 17695,
    "Ġboxed": 24359,
    "ately": 1696,
    "Ġ62": 24364,
    "Ġsoda": 25534,
    "lection": 3654,
    "Ġhotels": 19535,
    "Ġproducing": 11896,
    "hunter": 10554,
    "Ġappropri": 2229,
    "Ġ*/": 10372,
    "Ġhasten": 10477,
    "Ġunwilling": 7886,
    "Ġbecomes": 6396,
    "Ġincantation": 26257,
    "Ġtrib": 13817,
    "Ġdev": 882,
    "Ġhanded": 8217,
    "Ġclimb": 15077,
    "Ġox": 7153,
    "congreg": 25398,
    "resum": 17760,
    "rary": 4575,
    "Ġbehaviour": 4383,
    "Ġusages": 15913,
    "Ġsigma": 1539,
    "Ġunexpected": 6841,
    "sive": 4146,
    "Ġrummaged": 16909,
    "rocket": 13942,
    "Ġdeaths": 14535,
    "Ġpower": 1267,
    "Ġmud": 11571,
    "flung": 16637,
    "Ġrun": 2357,
    "Ġdidst": 11846,
    "Ġwearily": 18177,
    "inctions": 17731,
    "garn": 20869,
    "Ġcruisings": 25864,
    "dream": 8727,
    "wild": 8766,
    "igms": 3047,
    "Ġparadise": 11193,
    "Ġgallows": 12142,
    "Ġbeautifully": 13265,
    "Ġequator": 7461,
    "that": 851,
    "Ġinterpre": 1586,
    "Ġinfer": 7684,
    "strong": 6322,
    "bran": 23572,
    "Ġprovocation": 24190,
    "Ġclouds": 5775,
    "Ġlieu": 19563,
    "Ġeverybody": 4510,
    "Ġperemptorily": 17365,
    "Ġhav": 12750,
    "ladyship": 14827,
    "Ġfrantically": 23257,
    "Ġaglow": 22512,
    "itioned": 22467,
    "Ġcou": 5286,
    "Ġgamming": 25542,
    "Ġdeaden": 23459,
    "wreck": 21135,
    "oriental": 23719,
    "erect": 20847,
    "eridge": 15523,
    "Ġwhispers": 14698,
    "fact": 6358,
    "Ġpractices": 19043,
    "Ġadhering": 14139,
    "Ġorb": 22089,
    "abeth": 908,
    "Ġsnorting": 23739,
    "Ġconnex": 10664,
    "Ġhorrible": 4905,
    "Ġcrew": 2495,
    "Ġfond": 4754,
    "Ġsally": 15500,
    "Ġthundering": 24290,
    "Ġintricate": 15135,
    "Ġyellowish": 24429,
    "Ġflee": 7079,
    "Ġbert": 4582,
    "Ġtranslations": 12049,
    "shook": 19855,
    "Ġcommodores": 25374,
    "Ġcharms": 11129,
    "Ġboone": 11838,
    "Ġsummits": 14682,
    "Ġstrata": 26027,
    "rank": 21040,
    "Ġwash": 9701,
    "arded": 5029,
    "Ġcents": 17828,
    "rudence": 7092,
    "changed": 7175,
    "Ġgag": 21591,
    "](": 11465,
    "Ġpredef": 18525,
    "dw": 3330,
    "Ġlips": 3993,
    "Ġtormented": 8674,
    "def": 1452,
    "Ġspouting": 9437,
    "gave": 7800,
    "Ġphantom": 8706,
    "Ġregular": 938,
    "contents": 12055,
    "Ġpirate": 14995,
    "hug": 17562,
    "Ġclean": 5652,
    "moment": 3580,
    "Ġfirmly": 8014,
    "Ġhumorously": 18778,
    "Ġsuit": 5725,
    "rative": 17651,
    "Ġfriendly": 9818,
    "Ġlabeled": 3718,
    "fortunes": 6332,
    "aples": 20767,
    "Ġtreat": 3173,
    "Ġmultitude": 9323,
    "Ġcarpenters": 16751,
    "Ġsuspic": 4469,
    "Ġvap": 6837,
    "haps": 1673,
    "Ġdi": 6525,
    "Ġshillings": 15832,
    "Ġarrange": 3120,
    "Ġeffusion": 22510,
    "Ġlonely": 6823,
    "urned": 9304,
    "Ġapparent": 5466,
    "Ġresearch": 2915,
    "fters": 20860,
    "Ġhelplessly": 20076,
    "appin": 18758,
    "Ġheadsmen": 14730,
    "Ġpondicherry": 20489,
    "allies": 14164,
    "Ġthoughtfully": 12975,
    "Ġpoets": 11818,
    "Ġsh": 419,
    "Ġrover": 18454,
    "Ġloitered": 26524,
    "Ġwife": 2589,
    "Ġphenomena": 21482,
    "Ġrobots": 11073,
    "Ġreeling": 18032,
    "iter": 4391,
    "Ġthreshold": 2810,
    "Ġwarrior": 24495,
    "nay": 7135,
    "onday": 6064,
    "bulk": 19923,
    "bbed": 6911,
    "trunk": 23945,
    "istic": 1016,
    ".,": 5988,
    "Ġlances": 6984,
    "Ġfurled": 22812,
    "Ġominous": 12421,
    "Ġfoul": 7159,
    "Ġsom": 1277,
    "leaning": 10789,
    "chose": 18040,
    "Ġunluckily": 20100,
    "hammered": 19004,
    "Ġosc": 2836,
    "arrested": 15597,
    "Ġperennial": 22692,
    "utional": 17983,
    "inent": 9627,
    "Ġmile": 7151,
    "Ġmoluccas": 25629,
    "fins": 13717,
    "ast": 472,
    "Ġsizes": 1516,
    "Ġwilliam": 3483,
    "Ġclosest": 16762,
    "tips": 13794,
    "Ġbeggar": 9347,
    "Ġgroves": 16739,
    "rack": 18010,
    "give": 4688,
    "Ġhardships": 14449,
    "odiac": 14030,
    "gr": 2086,
    "oce": 10713,
    "contained": 22470,
    "fro": 8732,
    "wheels": 14379,
    "liberal": 26281,
    "chapter": 1402,
    "Ġmerged": 19296,
    "Ġcat": 2123,
    "Ġcup": 5697,
    "Ġnumber": 1983,
    "Ġremem": 4313,
    "Ġbelfry": 26437,
    "Ġabandoned": 8352,
    "Ġcondescend": 19953,
    "Ġlies": 5295,
    "Ġpatent": 11959,
    "sway": 15422,
    "Ġslo": 15504,
    "tail": 8761,
    "distinct": 13333,
    "meryton": 10110,
    "Ġinvaders": 23479,
    "Ġliberal": 12187,
    "resting": 23235,
    "enged": 23145,
    "Ġvirgin": 7328,
    "coming": 3563,
    "Ġsorrows": 13352,
    "Ġbred": 9168,
    "thesize": 24906,
    "Ġfret": 10805,
    "Ġcomplicated": 14733,
    "Ġintercept": 14271,
    "Ġwag": 10774,
    "Ġlamented": 24993,
    "breathing": 25335,
    "Ġamend": 16031,
    "advent": 10219,
    "Ġtable": 2499,
    "Ġblasted": 7938,
    "ided": 2785,
    "Ġweather": 3998,
    "Ġchuck": 8500,
    "Ġdorm": 4820,
    "share": 14234,
    "Ġprogen": 14038,
    "Ġdownstream": 3776,
    "ond": 1162,
    "capting": 24036,
    "Ġtranced": 18421,
    "Ġlighten": 23258,
    "Ġlatitudes": 9494,
    "Ġhire": 21483,
    "Ġberries": 13405,
    "Ġreve": 2937,
    "Ġconjecture": 9530,
    "bedded": 13225,
    "amp": 2607,
    "brill": 16489,
    "Ġware": 12550,
    "lestrade": 9655,
    "housekeeper": 24101,
    "Ġfairy": 14626,
    "Ġrounding": 16272,
    "Ġseeks": 14301,
    "sembled": 7263,
    "Ġengagements": 9976,
    "cheeked": 19339,
    "machine": 944,
    "addressing": 24400,
    "cousins": 20116,
    "fluttering": 23970,
    "philosophy": 13578,
    "Ġcovers": 18593,
    "Ġhudson": 15189,
    "longbourn": 9894,
    "terdam": 18129,
    "Ġcomprised": 14270,
    "cabin": 8363,
    "Ġalarmed": 6923,
    "consid": 4924,
    "hitherto": 17282,
    "yourself": 6742,
    "Ġrefresh": 10342,
    "estation": 15916,
    "Ġoutlined": 22318,
    "batross": 9091,
    "aces": 2068,
    "Ġconsidering": 4615,
    "billows": 20235,
    "Ġpurchasing": 19874,
    "atives": 2238,
    "cy": 654,
    "Ġdischar": 11805,
    "Ġvegetables": 15219,
    "Ġdefy": 11894,
    "Ġtested": 23211,
    "deli": 15342,
    "Ġsteak": 9827,
    "Ġromish": 19583,
    "aving": 2406,
    "Ġshipmate": 8926,
    "Ġrejoinder": 24598,
    "Ġdust": 5909,
    "iz": 365,
    "č": 206,
    "Ġnic": 7376,
    "Ġcore": 13876,
    "phia": 22781,
    "reliable": 21239,
    "tish": 17676,
    "Ġimpatient": 5602,
    "Ġattain": 12743,
    "feelings": 5674,
    "ashtego": 4105,
    "rated": 6227,
    "Ġslumbers": 18941,
    "Ġcasks": 7521,
    "stationed": 25453,
    "wat": 6231,
    "Ġbawling": 25945,
    "design": 18958,
    "Ġconscience": 6929,
    "Ġconsequently": 8060,
    "Ġinquire": 7720,
    "Ġcompan": 2173,
    "Ġmassa": 19452,
    "Ġdescend": 7427,
    "magn": 10609,
    "Ġpurp": 2393,
    "Ġwept": 7184,
    "franch": 24283,
    "fier": 9592,
    "Ġsignifies": 19203,
    "Ġsooty": 25815,
    "nament": 11505,
    "Ġmartyr": 26360,
    "mill": 13752,
    "Ġfastened": 7065,
    "lines": 6959,
    "done": 6500,
    "Ġhenceforth": 19646,
    "Ã¦us": 14815,
    "Ġaltogether": 4830,
    "Ġflies": 13022,
    "Ġlass": 15644,
    "Ġcrawford": 24893,
    "sion": 8094,
    "served": 5043,
    "ioning": 21507,
    "Ġdelight": 2550,
    "ulation": 5458,
    "Ġscru": 8191,
    "Ġbecher": 18879,
    "ithing": 11647,
    "Ġhogshe": 20490,
    "Ġburnwell": 13266,
    "Ġj": 533,
    "Ġdefend": 9338,
    "Ġengage": 9333,
    "Ġrelentless": 26277,
    "ullen": 8235,
    "Ġsubst": 4274,
    "Ġlearns": 2644,
    "mology": 12488,
    "diss": 17522,
    "Ġexerting": 21830,
    "Ġpaddock": 25037,
    "endent": 15919,
    "deal": 12795,
    "ressed": 3025,
    "Ġregions": 10323,
    "Ġresidence": 8207,
    "Ġbeats": 21750,
    "reject": 21235,
    "av": 700,
    "Ġpounds": 5368,
    "performed": 18339,
    "mo": 863,
    "Ġfossil": 12384,
    "Ġmosses": 20162,
    "Ġloun": 7166,
    "Ġguardianship": 17418,
    "Ġeu": 6390,
    "Ġhasty": 10476,
    "official": 24914,
    "icant": 21560,
    "Ġfellow": 2777,
    "Ġpromethe": 14466,
    "Ġlizzie": 26461,
    "appalling": 22842,
    "Ġduplicate": 17214,
    "secured": 16937,
    "Ġboards": 14300,
    "Ġdism": 9765,
    "Ġlanded": 7469,
    "Ġcopying": 17067,
    "Ġconqueror": 25796,
    "abilities": 3234,
    "Ġincumbent": 16062,
    "Ġsatur": 1929,
    "Ġincompatible": 25680,
    "outward": 22158,
    "Ġdead": 2171,
    "Ġsplintered": 11417,
    "ĠâĢĶâĢľ_": 17717,
    "pardon": 10063,
    "byshire": 6172,
    "bred": 11468,
    "Ġdeigned": 18138,
    "Ġrare": 7037,
    "Ġhouses": 6138,
    "Ġboscombe": 8326,
    "omn": 15686,
    "alot": 15622,
    "Ġrace": 5847,
    "Ġanecdote": 26354,
    "exertion": 16013,
    "substance": 15229,
    "cils": 20814,
    "otently": 21798,
    "Ġthing": 1637,
    "niest": 18973,
    "Ġsavory": 23873,
    "rabb": 15676,
    ")âĢĶâĢľ": 20742,
    "Ġsubjects": 7072,
    "abases": 3009,
    "Ġlogs": 16344,
    "reduced": 15802,
    "Ġpolice": 4674,
    "Ġemergencies": 17360,
    "te": 994,
    "Ġscreams": 24604,
    "arabian": 26445,
    "ructive": 18543,
    "Ġstifle": 18076,
    "69": 17473,
    "let": 2734,
    "Ġusefulness": 19406,
    "urning": 12913,
    "Ġcramped": 23529,
    "Ġdiscriminator": 3392,
    "Ġclapping": 14202,
    "Ġassailants": 20447,
    "shaped": 10307,
    "Ġarsac": 11739,
    "Ġseptember": 18205,
    "Ġoperations": 2303,
    "Ġspaniards": 25555,
    "few": 8203,
    "Ġsturgeon": 20590,
    "Ġscraping": 13414,
    "Ġxerxes": 23409,
    "sorts": 21059,
    "Ġinstrument": 7118,
    "af": 2378,
    "Ġproduces": 2093,
    "object": 6884,
    "Ġuppermost": 15276,
    "Ġdesk": 11903,
    "abulary": 4799,
    "makes": 10710,
    "Ġsweetest": 13244,
    "Ġinfl": 6892,
    "Ġwarring": 16864,
    "Ġwait": 4910,
    "Ġ12": 5483,
    "gratitude": 16815,
    "Ġsells": 21222,
    "Ġdifferences": 18712,
    "aned": 5147,
    "Ġmatrices": 4969,
    "Ġ1839": 20458,
    "Ġbust": 10166,
    "Ġpostp": 12140,
    "Ġunpardonable": 22056,
    "Ġharpooneer": 3773,
    "Ġ*": 1275,
    "irth": 5634,
    "Ġtrustworthy": 24106,
    "boots": 11125,
    "Ġfebruary": 15910,
    "Ġepis": 19980,
    "ised": 1065,
    "Ġchatbots": 11348,
    "rev": 17755,
    "Ġsupremacy": 20259,
    "Ġmcc": 21305,
    "question": 5418,
    "Ġsomewhere": 5384,
    "Ġforth": 3464,
    "Ġtubs": 11369,
    "ribly": 8255,
    "germans": 20564,
    "centred": 25017,
    "achus": 18275,
    "Ġworthless": 19564,
    "Ġinstinct": 6575,
    "Ġdifferent": 1428,
    "Ġsupplies": 20325,
    "Ġunappalled": 22059,
    "Ġinquiry": 6484,
    "Ġpassengers": 13673,
    "Ġlearnable": 3997,
    "Ġtantalizing": 20412,
    "Ġclimates": 25050,
    "mpt": 6653,
    "tempestuous": 26097,
    "cles": 8725,
    "Ġnaught": 8128,
    "erate": 7149,
    "oise": 15401,
    "Ġshetland": 22157,
    "Ġcomplacency": 19446,
    "Ġpretensions": 16557,
    "iny": 4294,
    "Ġbarber": 23787,
    "permitted": 18340,
    "Ġreproached": 24891,
    "Ġcompared": 2231,
    "Ġapplicable": 19019,
    "quickly": 14960,
    "Ġdisliked": 12887,
    "Ġprobability": 1124,
    "Ġsummoning": 23871,
    "comed": 8544,
    "flaming": 23967,
    "Ġpaints": 23523,
    "exc": 5169,
    "Ġgenteel": 19979,
    "?_âĢĿ": 12313,
    "flood": 19805,
    "acquaintance": 6938,
    "vigorous": 25917,
    "stocks": 23817,
    "ene": 2169,
    "Ġdint": 15587,
    "Ġclaimed": 14201,
    "spouting": 25002,
    "Ġcens": 8413,
    "sledge": 21056,
    "Ġthoughts": 3137,
    "Ġhapless": 15809,
    "Ġpair": 5706,
    "Ġslate": 11935,
    "Ġstepmother": 16085,
    "ogy": 22704,
    "Ġstriving": 8995,
    "Ġcommands": 16588,
    "float": 19804,
    "âĢĶ_": 3197,
    "Ġprocesses": 3635,
    "Ġrespectfully": 18994,
    "puzz": 17639,
    "medi": 2630,
    "Ġfailing": 12134,
    "lev": 1234,
    "Ġplaited": 14281,
    "brevi": 24071,
    "uction": 15441,
    "Ġabutted": 22273,
    "Ġgoodness": 6059,
    "Ġpot": 2992,
    "Ġuplifted": 11645,
    "Ġcontrast": 2120,
    "Ġrucastle": 5176,
    "combined": 20319,
    "countless": 24149,
    "Ġdeified": 18137,
    "affections": 17355,
    "Ġottoman": 17376,
    "naturalists": 23510,
    "Ġmontan": 22983,
    "Ġmechanisms": 1573,
    "Ġcrad": 21348,
    "Ġjago": 22297,
    "Ġprominence": 18953,
    "70": 17474,
    "Ġfeatures": 1432,
    "Ġinterchange": 16071,
    "raised": 15675,
    "entered": 8813,
    "whole": 6086,
    "Ġpursue": 6314,
    "Ġincorporated": 25711,
    "queness": 18146,
    "Ġfooting": 14481,
    "Ġvertically": 19378,
    "Ġjog": 18404,
    "nder": 20986,
    "Ġesc": 2254,
    "papers": 12498,
    "Ġbulb": 23852,
    "actually": 14293,
    "Ġint": 409,
    "Ġcordially": 16835,
    "charmed": 21694,
    "Ġunkindness": 22036,
    "Ġarrested": 9559,
    "Ġpuzz": 5532,
    "_,âĢĻâĢĿ": 20399,
    "Ġhypocr": 19470,
    "Ġredress": 23750,
    "Ġcircumnavigating": 25614,
    "Ġbraced": 16578,
    "Ġinterment": 22574,
    "Ġoctavo": 15161,
    "Ġsanctioned": 26349,
    "remain": 9836,
    "among": 6256,
    "iloqu": 11646,
    "Ġaccomplish": 14874,
    "Ġburgled": 23652,
    "excepting": 19705,
    "Ġinsert": 19904,
    "Ġinconsistency": 26182,
    "x": 92,
    "Ġdesponding": 25868,
    "Ġweighing": 20014,
    "australian": 20560,
    "consider": 6348,
    "Ġpian": 13915,
    "Ġunderground": 18984,
    "Ġpreprocessing": 26535,
    "Ġhardware": 4904,
    "Ġfossiliferous": 25609,
    "Ġthw": 21513,
    "Ġupdates": 1298,
    "Ġpail": 15603,
    "Ġmodified": 14169,
    "Ġagreeable": 4551,
    "ively": 1333,
    "Ġnet": 3628,
    "Ġperuvian": 18452,
    "Ġmoose": 22431,
    "secondly": 16983,
    "nerable": 16273,
    "Ġunworth": 22030,
    "tempted": 26402,
    "Ġjeroboam": 10599,
    "Ġcomparable": 24277,
    "ection": 4948,
    "Ġdamp": 8264,
    "forster": 16160,
    "distrust": 19569,
    "stream": 15682,
    "Ġfortifications": 23619,
    "Ġmathematics": 12070,
    "rubbed": 22184,
    "alliance": 22198,
    "Ġrigger": 19529,
    "Ġculprit": 26172,
    "Ġalleg": 14015,
    "Ġdespaired": 14667,
    "mistaken": 12207,
    "Ġbreathing": 9443,
    "Ġoccasion": 3244,
    "supper": 12915,
    "Ġimpotently": 22385,
    "laid": 10108,
    "edged": 15627,
    "Ġjun": 8505,
    "Ġpathetic": 19030,
    "Ġenglishmen": 19428,
    "clergyman": 20728,
    "reated": 10301,
    "therefore": 5954,
    "seaman": 25457,
    "abetical": 15739,
    "pacing": 21020,
    "bell": 7332,
    "Ġshipw": 12974,
    "Ġfarm": 7841,
    "Ġmont": 8558,
    "Ġwoof": 14719,
    "Ġbapt": 13894,
    "î": 175,
    "draught": 12086,
    "Ġcloth": 9741,
    "ô": 181,
    "asher": 15642,
    "leave": 7838,
    "lested": 14881,
    "pemberley": 9619,
    "Ġresponsible": 9884,
    "Ġobservations": 13551,
    "ip": 555,
    "owed": 2272,
    "Ġexecutors": 19532,
    "Ġhawsers": 26501,
    "iqu": 7803,
    "umps": 6317,
    "Ġcircling": 19092,
    "Ġclut": 7641,
    "Ġinherent": 4591,
    "dark": 5613,
    "Ġbarbs": 10530,
    "Ġsul": 7570,
    "Ġaspire": 21898,
    "Ġsnoring": 23738,
    "bond": 17488,
    "mant": 20964,
    "Ġmaids": 19690,
    "Ġdesperately": 24656,
    "Ġdetest": 8501,
    "Ġcosmopol": 16453,
    "import": 5668,
    "..": 5783,
    "eteenth": 20156,
    "Ġtrappings": 23080,
    "Ġquestioning": 10463,
    "Ġlovely": 4709,
    "Ġstriking": 6089,
    "Ġpossessing": 16574,
    "Ġpoignant": 22593,
    "Ġdarling": 12600,
    "Ġvillanous": 24051,
    "penetrate": 20323,
    "Ġarticulated": 24432,
    "plifted": 9709,
    "Ġheron": 22071,
    "Ġharness": 17927,
    "Ġcam": 10160,
    "Ġgem": 21592,
    "Ġcondescension": 10617,
    "Ġinhabited": 12182,
    "frequent": 15351,
    "alloyed": 22199,
    "Ġscraped": 16902,
    "Ġsn": 2954,
    "Ġrespected": 11950,
    "oid": 3126,
    "Ġexpands": 25237,
    "itious": 8778,
    "met": 6652,
    "Ġphyset": 23198,
    "Ġconvincing": 19307,
    "Ġdeliber": 7268,
    "Ġoutline": 15951,
    "Ġhaul": 11689,
    "Ġthinking": 4033,
    "Ġacted": 7422,
    "Ġweaving": 12736,
    "ket": 17581,
    "Ġexplicit": 3591,
    "Ġtriumphal": 24370,
    "Ġlegisl": 23533,
    "ashions": 16414,
    "Ġfre": 1568,
    "admirably": 24944,
    "Ġhumility": 12980,
    "Ġproportionate": 17042,
    "Ġsequel": 14353,
    "Ġanomaly": 25636,
    "unquiet": 21879,
    "icacy": 15654,
    "Ġbeheld": 4492,
    "Ġeasiness": 23535,
    "Ġtranquo": 14841,
    "Ġvacancies": 24344,
    "Ġbaleen": 10035,
    "Ġspeaks": 11158,
    "saying": 8640,
    "Ġbarren": 11204,
    "Ġglobules": 26587,
    "meadow": 18677,
    "Ġproport": 2302,
    "Ġstruggled": 9903,
    "Ġsoften": 23121,
    "Ġfern": 21405,
    "Ġscruple": 25048,
    "Ġepsom": 19981,
    "Ġgoin": 18470,
    "Ġheartfelt": 18967,
    "Ġfatal": 5871,
    "comparison": 25840,
    "Ġsoldiers": 8686,
    "shiver": 16019,
    "Ġaffectionate": 5584,
    "Ġpressed": 6042,
    "powder": 17644,
    "Ġcobbler": 25829,
    "Ġcelerity": 17434,
    "acknowledging": 25476,
    "âĢĿ": 353,
    "Ġbrisk": 9801,
    "Ġcrest": 12937,
    "Ġcuriosity": 2265,
    "Ġfollowing": 4066,
    "threw": 21982,
    "Ġtrophy": 20005,
    "inder": 9151,
    "Ġcowardice": 17031,
    "Ġtangles": 25761,
    "quired": 21847,
    "Ġassent": 12729,
    "Ġlexic": 15714,
    "Ġparad": 2843,
    "Ġperfection": 19218,
    "Ġeddies": 23436,
    "Ġoff": 904,
    "Ġmediterranean": 12312,
    "Ġmovements": 24358,
    "aguy": 21908,
    "oner": 6124,
    "Ġsighed": 10336,
    "Ġjournal": 15216,
    "determ": 7105,
    "Ġbible": 9317,
    "Ġsubstitute": 16725,
    "cried": 8724,
    ",": 16,
    "fl": 3601,
    "atha": 6572,
    "purpose": 10042,
    "Ġsuggests": 12197,
    "Ġtugged": 17287,
    "Ġsunwards": 19011,
    "Ġworse": 4718,
    "Ġreckless": 13456,
    "Ġintensely": 17016,
    "ival": 4228,
    "Ġthe": 270,
    "Ġstraining": 11326,
    "Ġxxxiv": 24969,
    "\",": 10677,
    "Ġcharge": 5324,
    "Ġcapabilities": 4376,
    "dr": 6221,
    "ri": 390,
    "rons": 21038,
    "Ġmeas": 1093,
    "acher": 6867,
    "Ġcommunity": 19009,
    "Ġlunging": 24991,
    "Ġrelative": 11880,
    "fast": 3072,
    "ounted": 5030,
    "gest": 5426,
    "Ġwoeful": 19618,
    "Ġcab": 2635,
    "Ġholiest": 18812,
    "Ġanguish": 5582,
    "Ġrelate": 6875,
    "Ġjohn": 5032,
    "ios": 2097,
    "Ġharbour": 19978,
    "Ġbelonging": 8308,
    "visual": 24221,
    "Ġsick": 4692,
    "Ġleatherhead": 20012,
    "Ġforesight": 13126,
    "Ġcompanionship": 14918,
    "Ġgasfitters": 25038,
    "Ġunp": 12767,
    "ivable": 10909,
    "pleasing": 14740,
    "prosperity": 20734,
    "painter": 24896,
    "Ġthrobbing": 16897,
    "Ġsquee": 7929,
    "Ġhues": 21487,
    "restored": 18978,
    "Ġneighbors": 25806,
    "Ġ83": 24458,
    "mist": 5686,
    "Ġspies": 22127,
    "horses": 17566,
    "relatively": 24011,
    "umber": 5240,
    "cad": 17503,
    "kshire": 13744,
    "Ġdrawers": 12102,
    "bringing": 17165,
    "âĢĶ(": 15935,
    "luck": 5733,
    "emorial": 10240,
    "contains": 16027,
    "erpillar": 5797,
    "Ġterr": 3272,
    "Ġrussian": 14346,
    "Ġimmortal": 8018,
    "mitted": 5213,
    "Ġamiss": 18511,
    "Ġslacked": 25188,
    "dragging": 16608,
    "Ġprofoundest": 16859,
    "_.": 2214,
    "Ġadequ": 10912,
    "Ġgates": 10199,
    "Ġorph": 9715,
    "rudential": 16709,
    "countenance": 6925,
    "lungs": 26135,
    "Ġcontortions": 18476,
    "tural": 21065,
    "awn": 3834,
    "Ġcruel": 5121,
    "ever": 1073,
    "Ġbenchmarks": 15020,
    "Ġender": 11688,
    "Ġstrain": 6024,
    "+": 15,
    "Ġinterpretation": 19715,
    "loud": 11499,
    "arson": 22748,
    "contr": 12054,
    "Ġmasked": 3695,
    "love": 9292,
    "_;": 6640,
    "overcome": 19052,
    "Ġsauce": 15886,
    "Ġproposed": 7460,
    "Ġrabbit": 4289,
    "Ġpleasurable": 23337,
    "Ġparamount": 15875,
    "daw": 17521,
    "Ġabsor": 8504,
    "Ġremember": 2678,
    "Ġprendergast": 26536,
    "telling": 14438,
    "ciousness": 20816,
    "leton": 5148,
    "pen": 1204,
    "Ġgro": 4396,
    "Ġsoar": 18283,
    "Ġicicles": 25264,
    "Ġincalculable": 17459,
    "Ġluxur": 12338,
    "suddenly": 6493,
    "Ġinwards": 15617,
    "ull": 1431,
    "Ġinverted": 12633,
    "stones": 11633,
    "hot": 8084,
    "possible": 5743,
    "Ġdownst": 3560,
    "iogn": 20920,
    "Ġpartake": 18670,
    "reflections": 24735,
    "afford": 14653,
    "Ġcomo": 21852,
    "Ġenvironments": 24064,
    "strip": 19829,
    "Ġwound": 4527,
    "gammon": 20242,
    "Ġlandscape": 12414,
    "reach": 17756,
    "Ġmissionary": 25696,
    "Ġbaboon": 19692,
    "26": 10071,
    "Ġdrawled": 23986,
    "nearly": 8680,
    "Ġindividually": 22960,
    "Ġconspicuous": 13601,
    "Ġseen": 1367,
    "Ġstaff": 14005,
    "Ð": 145,
    "Ġsplitting": 4382,
    "Ġyoked": 15731,
    "Ġaxe": 15062,
    "Ġleg": 2338,
    "Ġshowers": 16604,
    "Ġremembered": 5276,
    "Ġ74": 24260,
    "gn": 8082,
    "Ġcallest": 17832,
    "purp": 8091,
    ")(": 2984,
    "fig": 8734,
    "Ġtherein": 11772,
    "Ġbuilded": 24719,
    "Ġapproach": 858,
    "Ġvig": 5460,
    "Ġdeficiency": 14401,
    "Ġkate": 15902,
    "Ġgazed": 6478,
    "beginning": 13559,
    "ortunity": 4403,
    "ut": 308,
    "Ġfing": 3759,
    "Ġlabours": 8581,
    "Ġrank": 6258,
    "Ġsobbing": 14135,
    "conversations": 24749,
    "Ġlabor": 10417,
    "Ġwits": 15529,
    "surv": 24212,
    "Ġpaces": 13917,
    "Ġimmemorially": 25383,
    "Ġresid": 22536,
    "factories": 19842,
    "culiar": 2821,
    "Ġdetermine": 3243,
    "alone": 10182,
    "Ġdoubloons": 13432,
    "unearthly": 19272,
    "Ġtrip": 16787,
    "uation": 17693,
    "Ġgreas": 17991,
    "size": 15423,
    "Ġsobbed": 14136,
    "aire": 10679,
    "Ġlewis": 15715,
    "Ġblend": 14397,
    "Ġslavish": 23172,
    "coat": 5407,
    "Ġsurmised": 24919,
    "Ġabsurd": 7202,
    "Ġrepresentation": 14403,
    "Ġskylarking": 19485,
    "oken": 4307,
    "Ġmamma": 10046,
    "Ġnewfound": 22930,
    "Ġemble": 13969,
    "Ġcraven": 16468,
    "ocean": 12398,
    "Ġwin": 9640,
    "Ġdick": 3497,
    "Ġthames": 13936,
    "Ġharb": 7370,
    "Ġjost": 23630,
    "Ġprovinc": 16741,
    "Ġheaving": 7600,
    "ß": 160,
    "flask": 12096,
    "Ġunreasonable": 12772,
    "Ġsanguine": 25928,
    "Ġworks": 5858,
    "hit": 20888,
    "devil": 7896,
    "ental": 7168,
    "Ġendeavored": 19302,
    "Ġsweeping": 8984,
    "goin": 23399,
    "Ġpopulation": 16826,
    "Ġunav": 18237,
    "Ġperempt": 13671,
    "Ġscowl": 22283,
    "Ġtreacherous": 13552,
    "gyric": 19109,
    "jure": 20923,
    "Ġformer": 3320,
    "bree": 15312,
    "Ġwakeful": 24265,
    "roded": 17955,
    "inity": 5693,
    "Ġfilled": 4394,
    "âĢĻ!âĢĿ": 18167,
    "peasant": 23108,
    "Ġquar": 3113,
    "Ġmonogra": 22982,
    "Ġelixir": 26554,
    "mixed": 15392,
    "Ġexerted": 15750,
    "Ġmulti": 1043,
    "oars": 9613,
    "Ġcreditable": 19621,
    "Ġ1825": 25719,
    "Ġhackluyt": 25655,
    "Ġcorridor": 10670,
    "shipped": 18486,
    "Ġnewcomers": 26041,
    "Ġfaithfulness": 24445,
    "Ġsusp": 2664,
    "hetically": 21207,
    "Ġsuperlative": 26074,
    "welcome": 9999,
    "10": 17471,
    "Ġchiefly": 5766,
    "col": 3103,
    "ament": 2439,
    "Ġfrightful": 7736,
    "Ġnarrative": 6215,
    "ifying": 5251,
    "ific": 490,
    "vit": 13799,
    "assuming": 22308,
    "arest": 4006,
    "Ġcooking": 16645,
    "Ġhob": 12625,
    "Ġordinarily": 20648,
    "Ġforever": 14552,
    "Ġcatherine": 2814,
    "fal": 17535,
    "Ġproving": 15751,
    "oldened": 22640,
    "Ġstuff": 5717,
    "Ġcologne": 12971,
    "Ġseated": 4540,
    "Ġcalhoun": 23041,
    "afraid": 10440,
    "Ġsymbols": 2796,
    "Ġnone": 3222,
    "Ġpanic": 11285,
    "Ġannot": 15598,
    "used": 3259,
    "Ġvirtue": 4922,
    "Ġinvisible": 7327,
    "da": 17513,
    "existence": 16011,
    "aways": 15308,
    "Ġruins": 16155,
    "Ġthrilling": 19747,
    "ility": 623,
    "Ġenchanting": 17038,
    "ĭ": 238,
    "loaded": 22509,
    "Ġgrimes": 11033,
    "unnatural": 15769,
    "arted": 2203,
    "Ġdiscipline": 26560,
    "bordered": 17497,
    "Ġnoisier": 4624,
    "Ġhousekeeper": 7456,
    "should": 3261,
    "Ġsacrificial": 24871,
    "Ġbran": 5250,
    "Ġdoomed": 11341,
    "Ġstowing": 18074,
    "Ġanalysis": 1962,
    "Ġtrembling": 7481,
    "Ġfinal": 5400,
    "ol": 363,
    "dri": 5888,
    "Ġbestowed": 6593,
    "osing": 3690,
    "Ġobliv": 16130,
    "charlotte": 6473,
    "bantering": 25253,
    "Ġoutriders": 26542,
    "be": 668,
    "Ġcategories": 4476,
    "omin": 4702,
    "acific": 4960,
    "Ġfright": 3797,
    "Ġcharacteristic": 12045,
    "Ġcarpet": 9354,
    "Ġoak": 6128,
    "Ġrecede": 25968,
    "Ġvide": 10249,
    "Ġexpon": 968,
    "feeder": 12358,
    "bloom": 24689,
    "Ġhelplessness": 25071,
    "Ġsubterraneous": 20264,
    "Ġmonotonous": 13261,
    "Ġhunsford": 6301,
    "iastic": 12476,
    "Ġforty": 5719,
    "Ġwhirl": 13447,
    "Ġransacked": 26504,
    "tell": 1379,
    "Ġgazing": 5876,
    "Ġmouths": 7491,
    "Ġinfle": 16359,
    "Ġsav": 3355,
    "ede": 21504,
    "Ġnap": 8807,
    "Ġvitality": 15170,
    "onsensical": 18579,
    "Ġwires": 21294,
    "Ġshed": 8181,
    "sheet": 16283,
    "Ġromans": 16758,
    "asis": 12646,
    "Ġtrif": 6268,
    "concluding": 19479,
    "Ġdecreas": 1648,
    "Ġnormalizes": 1862,
    "Ġunable": 4951,
    "Ġwounded": 8657,
    "Ġphren": 8571,
    "Ġafforded": 8029,
    "gor": 546,
    "Ġcharlotte": 3889,
    "lorn": 12484,
    "Ġetext": 23947,
    "Ġchatting": 24747,
    "Ġtrous": 10955,
    "Ġelias": 18635,
    "oubted": 5859,
    "Ġshar": 9248,
    "ption": 7398,
    "Ġrelev": 1716,
    "glasses": 11214,
    "enses": 10995,
    "Ġnuptials": 20492,
    "Ġinterven": 10998,
    "jur": 17577,
    "gradually": 12911,
    "Ġbeaut": 2394,
    "Ġconcer": 23319,
    "Ġbrooks": 25700,
    "withstanding": 8944,
    "Ġalive": 4398,
    "ching": 5156,
    "Ġnecks": 18187,
    "ports": 13772,
    "ength": 2316,
    "Ġbene": 2032,
    "Ġlees": 18062,
    "Ġrevelry": 15134,
    "mency": 18925,
    "Ġco": 728,
    "Ġlandsman": 11349,
    "gris": 8260,
    "reply": 19721,
    "asse": 15641,
    "Ġbrides": 22863,
    "Ġtearless": 24786,
    "Ġsupp": 1268,
    "Ġrome": 12152,
    "Ġfelix": 4847,
    "»": 124,
    "Ġmartial": 20290,
    "Ġbride": 6291,
    "warm": 8102,
    "Ġpilgrim": 25599,
    "ickering": 22668,
    "Ġwhistles": 24625,
    "sherlock": 5422,
    "Ġcrammed": 16469,
    "Ġpilgr": 12177,
    "resol": 17759,
    "Ġoverlapping": 26238,
    "Ġeuroclydon": 15294,
    "small": 6472,
    "Ġirons": 7696,
    "Ġrepel": 23356,
    "Ġsickness": 10537,
    "Ġleakage": 23458,
    "ustomed": 6099,
    "Ġbrill": 8548,
    "Ġasi": 12728,
    ",âĢĶâĢľ": 10068,
    "Ġspeak": 2232,
    "wharf": 20605,
    "umed": 6554,
    "Ġreminds": 13429,
    "Ġpushing": 10818,
    "Ġpress": 5932,
    "Ġvariety": 8530,
    "Ġdecrease": 4203,
    "ĠâĢĺ": 1630,
    "Ġkeeping": 7283,
    "Ġcrop": 10161,
    "Ġoverwrites": 5033,
    "qu": 368,
    "Ġoldest": 12969,
    "Ġwrecks": 16817,
    "tormented": 13643,
    "agery": 21905,
    "andering": 21865,
    "Ġflaming": 8563,
    "worked": 19002,
    "sum": 2087,
    "Ġcompelled": 14268,
    "avoiding": 25236,
    "Ġregression": 4409,
    "Ġprosper": 10228,
    "Ġunde": 11709,
    "Ġener": 10895,
    "Ġashamed": 6403,
    "wled": 15452,
    "Ġrecom": 4554,
    "Ġseamen": 5063,
    "Ġslightly": 7293,
    "Ġfoot": 3160,
    "Ġaboriginal": 14187,
    "antial": 8487,
    "Ġavocation": 23950,
    "Ġonto": 14026,
    "kin": 7131,
    "Ġbureau": 11588,
    "Ġnich": 21518,
    "rec": 6004,
    "rigging": 20004,
    "Ġmoles": 22432,
    "Ġcharging": 23266,
    "Ġscotch": 12206,
    "queens": 22891,
    "Ġimmensity": 25329,
    "Ġjo": 2610,
    "Ġblending": 14398,
    "Ġfut": 15571,
    "Ġstupid": 7606,
    "Ġhaggard": 17328,
    "ring": 1753,
    "Ġcircus": 19091,
    "Ġhoof": 23350,
    "Ġsuspending": 19243,
    "Ġscarcity": 23823,
    "Ġsluggishly": 25891,
    "Ġconfl": 11136,
    "Ġjourneying": 25565,
    "Ġmutters": 23953,
    "Ġsch": 13833,
    "architect": 22877,
    "supplementary": 20548,
    "greek": 25404,
    "Ġhatherley": 7849,
    "Ġrider": 24184,
    "Ġburied": 7719,
    "Ġacceler": 1607,
    "Ġwafted": 14538,
    "Ġlurch": 21553,
    "Ġwickedness": 9524,
    "Ġastir": 14639,
    "Ġmod": 501,
    "Ġunavailing": 26215,
    "answer": 11725,
    "Ġair": 1835,
    "ext": 927,
    "Ġhierarchical": 1926,
    "Ġalice": 1482,
    "pans": 13768,
    "Ġcon": 348,
    "Ġcrimson": 16439,
    "human": 7088,
    "Ġforgery": 25977,
    "Ġslang": 23158,
    "harpoon": 9489,
    "Ġsequence": 1978,
    "Ġaugmented": 15103,
    "sphere": 22731,
    "Ġsequences": 1752,
    "Ġalmanac": 26484,
    "idled": 21766,
    "Ġcarted": 21347,
    "billiard": 25334,
    "Ġworms": 25216,
    "specul": 23940,
    "Ġhur": 2100,
    "astrous": 15882,
    "Ġrolls": 8334,
    "barrel": 17059,
    "contemplated": 20457,
    "Ġrepulses": 26069,
    "Ġcautious": 12250,
    "depend": 9111,
    "stern": 7862,
    "Ġnerve": 16338,
    "tumult": 12420,
    "Ġportentous": 15227,
    "Ġsouthern": 7689,
    "Ġdislike": 6048,
    "Ġsqueaking": 26274,
    "there": 1424,
    "ask": 857,
    "Ġencl": 16163,
    "¡": 99,
    "indifference": 15979,
    "quod": 2165,
    "hav": 20896,
    "Ġsaintly": 25931,
    "Ġhe": 318,
    "circumamb": 26087,
    "Ġlakeman": 6986,
    "kington": 11201,
    "sor": 7352,
    "Ġirreducible": 5519,
    "den": 937,
    "Ġknight": 9725,
    "ster": 1959,
    "Ġvir": 7001,
    "Ġabraham": 18395,
    "Ġcall": 2074,
    "unction": 10233,
    "pursuit": 20339,
    "Ġlane": 5627,
    "idents": 6150,
    "Â£": 4811,
    "Ġbarriers": 23792,
    "Ġpaved": 17912,
    "events": 12314,
    "Ġbids": 24645,
    "Ġlightning": 5750,
    "Ġprosperity": 20257,
    "Ġcons": 954,
    "otic": 15741,
    "prot": 6898,
    "Ġ=": 1071,
    "rians": 21928,
    "ospel": 17009,
    "Ġunhappy": 5640,
    "axen": 22519,
    "Ġdelic": 4137,
    "Ġdug": 21429,
    "Ġenormousness": 24511,
    "Ġcosmopolitan": 20640,
    "Ġhartshorn": 26180,
    "dil": 11477,
    "Ġreus": 8820,
    "Ġbedfellows": 23437,
    "Ġregained": 18599,
    "pall": 17627,
    "Ġneedless": 19229,
    "pressing": 19013,
    "vember": 10854,
    "Ġqualifications": 24675,
    "Ġreaching": 7303,
    "Ġunconcern": 14114,
    "Ġspecimen": 13020,
    "Ġroared": 7023,
    "vard": 21109,
    "Ġdrenched": 12599,
    "Ġantagon": 19549,
    "Ġ1894": 5196,
    "Ġrust": 6408,
    "Ġfists": 15579,
    "Ġanew": 11429,
    "magnetic": 20551,
    "shipmates": 11925,
    "Ġevery": 925,
    "Ġglu": 15664,
    "aton": 21257,
    "interruption": 20110,
    "ped": 6365,
    "consciousness": 13363,
    "irium": 8162,
    "ifice": 7198,
    "Ġinvestigations": 17245,
    "Ġrevenue": 26194,
    "part": 2574,
    "Ġnar": 7375,
    "Ġdoesn": 7438,
    "Ġcouch": 12567,
    "Ġreasons": 6020,
    "sively": 13784,
    "Ġenormous": 5608,
    "Ġpret": 3036,
    "Ġgreyish": 24207,
    "Ġbriefly": 11366,
    "Ġvindication": 25364,
    "igning": 12676,
    "reasonable": 7752,
    "driven": 19770,
    "isl": 21373,
    "Ġonly": 788,
    "necessity": 13365,
    "Ġlowered": 6735,
    "Ġconfinement": 19039,
    "Ġever": 1181,
    "when": 1587,
    "Ġflame": 7448,
    "Ġriotous": 20543,
    "Ġfeedforward": 2329,
    "Ġdardanelles": 26442,
    "Ġmagazine": 23097,
    "Ġqualities": 7533,
    "Ġvisitors": 7985,
    "Ġaudibly": 24771,
    "Ġgeneration": 2204,
    "Ġreligions": 20106,
    "Ġpartly": 6713,
    "Ġaction": 5796,
    "Ġnightmare": 18919,
    "ĠĠĠĠĠĠĠĠĠĠĠĠĠĠĠĠĠĠĠĠĠĠĠĠĠĠĠĠĠĠĠĠĠĠĠĠĠĠĠĠĠĠĠĠĠĠĠ": 16754,
    "Ġhood": 10822,
    "Ġtashtego": 4486,
    "comm": 7440,
    "Ġevangelist": 20337,
    "Ġwar": 5526,
    "Ġhunch": 18934,
    "Ġarguments": 8037,
    "Ġ119": 24440,
    "Ġexalted": 12409,
    "lop": 20947,
    "Ġwiser": 14728,
    "Ġclaret": 22352,
    "lovel": 22508,
    "Ġbart": 17857,
    "Ġengraving": 17079,
    "ying": 1449,
    "Ġardu": 22187,
    "etical": 13956,
    "Ġinquired": 7485,
    "asol": 21538,
    "Ġoccurred": 4461,
    "Ġeffected": 14354,
    "necessarily": 19630,
    "Ġfins": 9662,
    "Ġ86": 24460,
    "Ġsable": 15498,
    "Ġsuggestions": 24452,
    "attle": 4465,
    "Ġhieroglyphic": 25587,
    "Ġsees": 8841,
    "Ġhot": 4258,
    "Ġpist": 12611,
    "phology": 3011,
    "Ġapparition": 8067,
    "Ġsailing": 5323,
    "Ġquivered": 18467,
    "Ġorgies": 18285,
    "Ġfancied": 7326,
    "Ġgush": 10201,
    "hap": 17558,
    "barb": 10079,
    "yp": 1044,
    "ism": 4873,
    "Ġstingy": 25455,
    "Ġimprec": 14212,
    "Ġadopted": 15176,
    "voice": 7817,
    "Ġallowed": 4062,
    "Ġhighland": 18711,
    "Ġlegal": 10438,
    "Ġquery": 2479,
    "Ġcaresses": 26059,
    "viii": 12017,
    "ok": 572,
    "simon": 16972,
    "Ġflourishing": 25187,
    "Ġinv": 2226,
    "um": 454,
    "âĢĿ;": 11667,
    "palms": 25262,
    "vapor": 25755,
    "Ġdowncast": 18652,
    "Ġgradu": 15829,
    "Ġrepresenting": 4064,
    "conv": 7213,
    "Ġscope": 15940,
    "Ġsurpass": 13581,
    "succeeded": 15173,
    "Ġleast": 2064,
    "Ġfron": 14486,
    "Ġexposing": 11831,
    "quently": 9700,
    "cond": 1669,
    "upset": 23018,
    "Ġenraged": 10243,
    "Ġconcussion": 26300,
    "Ġdiamond": 15595,
    "disagreeable": 11162,
    "Ġpierce": 17035,
    "Ġwrit": 8242,
    "Ġtwinkled": 14310,
    "Ġelopement": 10328,
    "Ġauthent": 14507,
    "receiving": 12539,
    "Ġtierce": 15476,
    "U": 57,
    "Ġcoherent": 3262,
    "Ġmerid": 13193,
    "Ġstro": 4595,
    "towards": 5002,
    "Ġped": 6817,
    "Ġseventy": 7879,
    "indirectly": 18437,
    "Ġmachinery": 20483,
    "thing": 1479,
    "althy": 8432,
    "herfield": 3632,
    "Ġenem": 4707,
    "Ġdiscomposure": 20377,
    "ev": 6952,
    "entle": 1739,
    "Ġconcealed": 7495,
    "Ġspec": 1265,
    "Ġvillas": 24050,
    "Ġcompare": 9301,
    "Ġstrictest": 17041,
    "commendation": 26348,
    "Ġstre": 2109,
    "Ġworshippers": 25693,
    "zers": 21145,
    "Ġwhispered": 5337,
    "Ġboun": 21378,
    "asht": 4087,
    "Ġunh": 9251,
    "Ġripples": 25505,
    "Ġbaron": 19333,
    "grow": 10097,
    "pattern": 4478,
    "Ġpurse": 12007,
    "Ġgourmand": 26465,
    "Ġmerry": 5868,
    "Ġalchemists": 26486,
    "Ġnur": 5710,
    "Ġbeaufort": 13566,
    "Ġbridges": 24682,
    "Ġbestow": 6455,
    "arent": 4250,
    "progression": 20380,
    "arnel": 18124,
    "aker": 3664,
    "Ġmasterless": 23992,
    "Ġkeys": 11993,
    "Ġsepulchre": 20558,
    "nes": 6961,
    "monograph": 23525,
    "Ġbee": 21747,
    "Ġrus": 14091,
    "Ġinstances": 5567,
    "Ġaccelerate": 23225,
    "Ġkeener": 22912,
    "Ġreplying": 19580,
    "Ġevaluation": 16537,
    "Ġeternal": 5976,
    "Ġrally": 21969,
    "Ġdesp": 3213,
    "Ġclaps": 22348,
    "appetite": 22844,
    "Ġpace": 9182,
    "ishness": 22340,
    "cottage": 9568,
    "Ġfortnight": 6200,
    "Ġsimpler": 2047,
    "duing": 22409,
    "Ġfireplace": 13143,
    "Ġforeign": 9870,
    "win": 6801,
    "inno": 10755,
    "nursery": 26398,
    "threadbare": 25989,
    "Ġvehement": 16199,
    "ġ": 226,
    "Ġpossessor": 23820,
    "frisco": 16786,
    "Ġfaithful": 9501,
    "made": 4807,
    "Ġlinear": 3433,
    "Ġdeafened": 25651,
    "Ġquietude": 19358,
    "personal": 24965,
    "Ġsuperglue": 23456,
    "Ġstrenuously": 17446,
    "Ġ99": 10744,
    "Ġforcibly": 10059,
    "perform": 15891,
    "Ġoccur": 1078,
    "Ġbliss": 12997,
    "pequod": 7052,
    "Ġaccumulation": 2692,
    "Ġproductions": 22944,
    "Ġrendering": 16656,
    "like": 1884,
    "icient": 778,
    "Ġeyel": 17095,
    "ĠĠĠĠĠĠĠĠĠĠĠĠĠĠ": 22563,
    "seas": 14031,
    "Ġcom": 369,
    "cour": 4479,
    "Ġbohemia": 10648,
    "ia": 1260,
    "Ġreptile": 15275,
    "Ġconfided": 19037,
    "Ġbulge": 23854,
    "Ġwondering": 7972,
    "Ġmanagement": 8193,
    "Ġblanched": 26282,
    "home": 7341,
    "cape": 13695,
    "Ġbou": 17852,
    "Ġremembr": 24169,
    "Ġordained": 19443,
    "missionary": 24616,
    "Ġmonogram": 26573,
    "Ġvolumes": 14798,
    "Ġmills": 21310,
    "Ġaband": 6561,
    "Ġmixture": 9561,
    "Ġspears": 12922,
    "osh": 18388,
    "Ġwraps": 19775,
    "Ġjurors": 17342,
    "hist": 7130,
    "ada": 14009,
    "ogn": 2462,
    "Ġletting": 10360,
    "Ġtows": 19561,
    "league": 17844,
    "calcul": 12983,
    "output": 4401,
    "lessness": 5317,
    "Ġpun": 4587,
    "Ġsled": 21217,
    "perhaps": 4125,
    "allow": 5104,
    "evenings": 19461,
    "ct": 309,
    "ingu": 2121,
    "rods": 21536,
    "unhappy": 10236,
    "Ġsideways": 6181,
    "vanished": 15061,
    "cold": 9588,
    "Ġante": 17896,
    "Ġir": 1994,
    "Ġmyst": 4054,
    "Ġpers": 1391,
    "'d": 12424,
    "oried": 10801,
    "Ġwhat": 601,
    "leful": 17842,
    "Ġsashes": 21224,
    "pred": 2803,
    "exposure": 19256,
    "Ġcommencement": 12235,
    "Ġvoices": 7877,
    "Ġwasn": 6997,
    "impul": 16555,
    "Ġcontempl": 6701,
    "Ġfervently": 25877,
    "Ġquoin": 22416,
    "pivot": 21030,
    "Ġunfaltering": 24112,
    "hs": 8378,
    "Ġrandom": 1585,
    "Ġwarmest": 16482,
    "!âĢĻâĢĿ": 16591,
    "Ġelusive": 22645,
    "Ġequivalent": 4801,
    "Ġspecimens": 18859,
    "Ġimpose": 22377,
    "Ġnetworks": 600,
    "Ġbelieving": 8225,
    "Ġneglect": 7942,
    "Ġairs": 14512,
    "threatened": 25462,
    "Ġcould": 703,
    "ĵ": 246,
    "sullenly": 26149,
    "Ġbutton": 10266,
    "©": 107,
    "Ġharpooned": 13260,
    "kov": 17585,
    "revival": 26162,
    "Ġuncompromised": 20602,
    "barrow": 15319,
    "Ġgroan": 13322,
    "Ġriv": 10745,
    "razor": 21635,
    "liter": 11500,
    "lanterns": 17427,
    "Ġbequeathed": 20700,
    "supervised": 1915,
    "grass": 23411,
    "allows": 15904,
    "Ġtransmit": 10303,
    "Ġarabian": 9088,
    "Ġseized": 4832,
    "amed": 4447,
    "Ġmartin": 25436,
    "Ġnets": 21522,
    "Ġsandwic": 24664,
    "Ġchannel": 26012,
    "endous": 6850,
    "Ġfalse": 4343,
    "squ": 7810,
    "enced": 4296,
    "fanc": 20863,
    "Ġtransformed": 22594,
    "Ġbeef": 6830,
    "brimmed": 14587,
    "Ġcarries": 7674,
    "Ġsmoky": 22558,
    "Ġaforethought": 25428,
    "writhed": 26080,
    "court": 7511,
    "Ġhud": 10821,
    "batt": 20777,
    "urements": 18123,
    "anct": 21356,
    "Ġmounts": 17806,
    "Ġuniversal": 2236,
    "Ġmuttered": 7086,
    "Ġpostmark": 16724,
    "Ġjudgment": 5765,
    "Ġtigris": 25759,
    "n": 82,
    "Ġmor": 1249,
    "Ġreverber": 19868,
    "Ò": 147,
    "Ġtrick": 7018,
    "Ġfamily": 1967,
    "Ġtablets": 13153,
    "twill": 21073,
    "Ġclue": 7020,
    "erxes": 21274,
    "Ġclos": 4548,
    "Ġguitar": 16265,
    "kempt": 20940,
    "greeting": 24553,
    "Ġscaled": 2107,
    "der": 468,
    "asc": 6386,
    "Ġlabors": 23326,
    "raising": 21630,
    "Ġpretence": 13205,
    "ourselves": 9009,
    "Ġsettee": 22919,
    "inkling": 16086,
    "Ġdrunk": 9422,
    "Ġheavens": 5050,
    "pard": 9617,
    "Ġgash": 15667,
    "Ġdespite": 19351,
    "ernsey": 8900,
    "Ġevents": 4471,
    "purse": 20023,
    "ography": 13360,
    "ishnoo": 10954,
    "Ġdesist": 16235,
    "Ġadorn": 12786,
    "erity": 21266,
    "Ġfountains": 13501,
    "Ġshyness": 20305,
    "smooth": 20247,
    "Ġdownstairs": 11223,
    "thereby": 14445,
    "Ġcare": 1636,
    "month": 6463,
    "Ġ75": 19611,
    "Ġdistribut": 842,
    "Ġneedn": 19228,
    "Ġspreading": 13376,
    "sitting": 8387,
    "Ġladder": 8597,
    "Ġaccursed": 9447,
    "Ġwoods": 5406,
    "Ġaffectation": 14439,
    "ullied": 23102,
    "Ġcompress": 21854,
    "anx": 8782,
    "Ġdesc": 761,
    "®": 111,
    "Ġprepared": 5877,
    "blacksmith": 17000,
    "Ġpreserved": 9260,
    "Ġ_": 840,
    "Ġcorpulence": 24505,
    "kindly": 14742,
    "incident": 14590,
    "amous": 15757,
    "Ġsemicircular": 26068,
    "Ġretreating": 19798,
    "Ġninetieth": 25357,
    "hear": 10145,
    "make": 5793,
    "Ġparacelsus": 15264,
    "Ġdelightful": 6320,
    "Ġfeeding": 7973,
    "err": 1142,
    "Ġimperfect": 13337,
    "unbe": 21870,
    "levi": 7047,
    "nets": 9131,
    "Ġobtaining": 16129,
    "Ġbriony": 9327,
    "Ġfields": 2143,
    "Ġflat": 8228,
    "Ġtuning": 3074,
    "Ġgermans": 25784,
    "Ġafterwards": 3531,
    "anxiety": 25155,
    "Ġrav": 14304,
    "iffs": 9020,
    "ateral": 19375,
    "Ġliar": 22406,
    "mbles": 23086,
    "Ġwelded": 9570,
    "Ġuniversity": 13120,
    "Ġvengeful": 14888,
    "Ġ92": 24591,
    "ys": 3958,
    "Ġyards": 5371,
    "reception": 15512,
    "Ġtreating": 4284,
    "omon": 10206,
    "allic": 12809,
    "compasses": 19456,
    "ization": 486,
    "les": 1015,
    "Ġado": 7626,
    "Ġlif": 10194,
    "Ġgain": 4826,
    "Ġmounting": 19975,
    "communication": 25881,
    "vulgar": 25918,
    "parlour": 16381,
    "Ġfails": 13311,
    "european": 26371,
    "Ġkill": 4453,
    "Ġamaz": 5385,
    "Ġsinging": 7724,
    "takes": 21074,
    "Ġsurveying": 25325,
    "Ġrealising": 18982,
    "que": 1113,
    "Ġmusical": 23890,
    "Ġbarbar": 6935,
    "returning": 12202,
    "Ġsitu": 3495,
    "ropes": 7904,
    "Ġencoun": 4511,
    "Ġliquid": 22407,
    "rud": 4193,
    "Ġconsternation": 9857,
    "Ġencircling": 26271,
    "hoped": 20909,
    "Ġcabaco": 13165,
    "Ġtenement": 23546,
    "mistak": 16877,
    "Ġweedy": 15788,
    "Ġfoss": 9849,
    "arts": 6563,
    "Ġiteratively": 3059,
    "aff": 3102,
    "matlock": 23468,
    "Ġ96": 24593,
    "Ġunfortunate": 5376,
    "Ġwhis": 3504,
    "Ġremains": 4908,
    "Ġfacil": 16961,
    "waving": 21130,
    "Ġdoubts": 8578,
    "Ġconversing": 14632,
    "james": 15370,
    "power": 7136,
    "Ġsubset": 9868,
    "overfitting": 13099,
    "Ġmeanings": 18607,
    "Ġerected": 12230,
    "Ġblades": 11892,
    "frost": 15104,
    "robber": 21535,
    "aven": 8208,
    "Ġcooped": 22581,
    "straight": 9938,
    "Ġsemi": 11965,
    "caused": 25519,
    "distinctive": 25726,
    "blooded": 20021,
    "ids": 21761,
    "Ġdistillation": 16042,
    "Ġrepairing": 25589,
    "fiend": 13659,
    "erial": 4631,
    "Ġwall": 3842,
    "Ġindestruct": 22961,
    "Ġcaptivating": 26049,
    "quake": 11677,
    "Ġmeasure": 3596,
    "scept": 21052,
    "Ġours": 4612,
    "Ġawa": 7714,
    "Ġsoftware": 18918,
    "Ġalphabetical": 17200,
    "Ġadv": 1174,
    "summon": 23414,
    "shunned": 22453,
    "Ġpict": 3499,
    "atus": 21259,
    "Ġgratitude": 5598,
    "Ġisland": 4052,
    "scales": 22994,
    "Ġrejoined": 14925,
    "Q": 53,
    "otics": 10222,
    "finished": 10553,
    ";âĢĿ": 7791,
    "erring": 11056,
    "Ġabandon": 12254,
    "slee": 17167,
    "¦": 104,
    "brothers": 17023,
    "Ġfounded": 8556,
    "Ġpresided": 20206,
    "Ġshattered": 7885,
    "Ġdolphins": 20394,
    "angry": 18289,
    "up": 1284,
    "redit": 3876,
    "Ġgood": 999,
    "unfearing": 21890,
    "Ġsweating": 16461,
    "Ġoblivion": 26031,
    "Ġjury": 5378,
    "orters": 21399,
    "Ġrightly": 13061,
    "Ġgaiters": 20459,
    "rief": 6202,
    "Ġdevice": 1927,
    "oundering": 11743,
    "Ġsixth": 16558,
    "Ġdepressed": 10881,
    "ishing": 1144,
    "Ġpredicts": 2596,
    "Ġcourt": 4171,
    "rendering": 22338,
    "pop": 17630,
    "Ġsolitude": 6876,
    "alogies": 25158,
    "Ġcalled": 1974,
    "Ġbeings": 2489,
    "Ġdeliberately": 10623,
    "bag": 7542,
    "Ġincommunicable": 26610,
    "Ġbelonged": 6922,
    "Ġpossesses": 19350,
    "spikes": 10339,
    "jour": 20926,
    "pid": 1407,
    "Ġcontinu": 1167,
    "Ġcachalot": 17834,
    "Ġdistur": 5312,
    "Ġobjectionable": 16990,
    "bbings": 19275,
    "Ġfairer": 20460,
    "Ġske": 4814,
    "Ġdropping": 7483,
    "Ġcurds": 22950,
    "Ġhanding": 16127,
    "Ġuncommon": 5026,
    "Ġ110": 24434,
    "tolerable": 17687,
    "project": 16421,
    "Ġtunes": 24620,
    "Ġwick": 2006,
    "taffrail": 15440,
    "Ġriveted": 13616,
    "touching": 15089,
    "Ġincapable": 7423,
    "Ġexotic": 21829,
    "Ġpainful": 6462,
    "Ġautonomous": 10674,
    "vari": 1513,
    "Ġadroit": 26000,
    "Ġcaut": 6521,
    "occurred": 13335,
    "hearty": 14832,
    "Ġscents": 22280,
    "walked": 10569,
    "Ġtailed": 21167,
    "Ġpagans": 16921,
    "Ġ235": 25713,
    "Ġor": 437,
    "Ġevangelical": 25506,
    "ipper": 13738,
    "Ġcustom": 5078,
    "Ġdispatched": 23878,
    "Ġtal": 7564,
    "Ġreport": 6191,
    "braces": 24658,
    "Ġpoles": 11004,
    "Ġfool": 4236,
    "Ġfootmen": 23795,
    "gan": 2200,
    "Ġhastened": 9003,
    "Ġfinger": 5273,
    "oga": 22703,
    "Ġrasc": 21975,
    "unimportant": 18159,
    "Ġrelig": 8550,
    "Ġsmiled": 5941,
    "Ġvaults": 17152,
    "hour": 7340,
    "Ġhind": 9187,
    "approach": 24833,
    "ny": 4017,
    "Ġunresting": 25553,
    "Ġdaybreak": 18726,
    "Ġlounging": 10020,
    "Ġsulky": 13513,
    "Ġblunder": 18818,
    "Ġwalk": 1825,
    "Ġrnns": 2395,
    "cooks": 25067,
    "extinguish": 22767,
    "Ġstren": 15719,
    "Ġsimilar": 4917,
    "elaborate": 21574,
    "Ġsp": 458,
    "Ġaristocratic": 20511,
    "Ġdirectly": 2106,
    "ourse": 8868,
    "Ġwidest": 24233,
    "Ġsquall": 7043,
    "giv": 13720,
    "Ġimpulses": 19960,
    "Ġenlarged": 25985,
    "_,": 2799,
    "Ġimplore": 24872,
    "Ġglittering": 10051,
    "itiously": 13869,
    "Ġhamper": 19387,
    "swed": 24252,
    "Ġraging": 14305,
    "valued": 2853,
    "Ġacquiesce": 20328,
    "Ġease": 5629,
    "Ġeager": 3572,
    "floated": 24643,
    "Ġdesirable": 8940,
    "torm": 11529,
    "Ġtomorrow": 21511,
    "calculation": 25688,
    "Ġmedium": 16680,
    "Ġdefine": 9813,
    "Ġfierce": 7437,
    "remed": 18952,
    "abilizing": 2929,
    "swept": 19785,
    "ilight": 12689,
    "viv": 17697,
    "macy": 18805,
    "Ġcreation": 6439,
    "Ġspasmodically": 17312,
    "Ġelementary": 24814,
    "heart": 4525,
    "Ġsystem": 573,
    "teous": 16171,
    "agitation": 14066,
    "Ġfrequented": 16584,
    "Ġfreezing": 23880,
    "Ġcoinc": 11002,
    "Ġis": 347,
    "Ġundu": 15834,
    "enjoyments": 25433,
    "Ġmedit": 8019,
    "consist": 14814,
    "Ġcakes": 13882,
    "Ġinestimable": 17440,
    "Ġnotable": 18222,
    "Ġtrespass": 23599,
    "master": 5687,
    "Ġdiscontented": 16055,
    "Ġocean": 3302,
    "block": 11469,
    "Ġapplications": 4783,
    "Ġundeviating": 15215,
    "Ġcredulous": 17143,
    "Ġflames": 7940,
    "Ġnetwork": 452,
    "look": 2263,
    "Ġmodular": 12815,
    "hither": 11491,
    "Ġfro": 3472,
    "Ġbustle": 17226,
    "Ġwee": 21916,
    "Ġtrack": 7450,
    "Ġindefinite": 17175,
    "Ġemblazonings": 26043,
    "amb": 5723,
    "Ġreproof": 24890,
    "Ġpursuits": 12073,
    "reck": 9635,
    "ently": 1613,
    "clu": 20798,
    "Ġtrim": 15959,
    "susceptible": 24661,
    "Ġclust": 9272,
    "Ġmagg": 18905,
    "ividually": 22081,
    "Ġmer": 2934,
    "Ġprematurely": 24003,
    "Ġfulfilment": 20186,
    "Ġimbalanced": 18333,
    "Ġwants": 5742,
    "Ġsinful": 18948,
    "Ġpray": 3899,
    "Ġshrew": 21998,
    "Ġcrystal": 17213,
    "Ġliking": 23590,
    "added": 11657,
    "Ġdomain": 3456,
    "Ġmultiple": 1187,
    "Ġconverts": 2807,
    "Ġshoots": 14566,
    "Ġrags": 18647,
    "Ġmood": 6276,
    "weigh": 18665,
    "bott": 9104,
    "Ġforswe": 21772,
    "Ġcircumnav": 12423,
    "isles": 15560,
    "bolts": 11419,
    "individual": 18436,
    "achine": 596,
    "Ġdull": 6384,
    "_,âĢĻ": 12430,
    "Ġcolumb": 22855,
    "Ġcompares": 20165,
    "Ġintegrity": 12310,
    "presbyter": 20616,
    "Ġobedient": 20103,
    "Ġgovern": 10449,
    "Ġsix": 3045,
    "Ġexcellent": 4239,
    "mush": 20976,
    "Ġinquiries": 5678,
    "¸": 121,
    "anders": 18152,
    "Ġfishes": 11589,
    "Ġlessened": 19085,
    "Ġoffensive": 18698,
    "Ġunceasingly": 20357,
    "prev": 12863,
    "learned": 8601,
    "avail": 18568,
    "Ġhistory": 4009,
    "Ġimagined": 8606,
    "Ġjava": 12309,
    "Ġflows": 13010,
    "Ġannals": 17898,
    "akened": 7415,
    "arily": 4129,
    "Ġfrenzy": 13620,
    "arranged": 19318,
    "clouds": 25496,
    "Ġhammock": 5768,
    "bert": 4662,
    "Ġchanges": 2290,
    "Ġbrad": 8785,
    "Ġvirtual": 11238,
    "Ġmonica": 22985,
    "Ġcripp": 9652,
    "Ġlandlessness": 23376,
    "unhesitatingly": 26495,
    "weed": 14313,
    "awk": 23111,
    "Ġgreatly": 5849,
    "77": 15298,
    "Ġwindward": 6885,
    "Ġproposal": 10017,
    "Ġaccounted": 10295,
    "careful": 14864,
    "Ġsolved": 8930,
    "Ġcanal": 8182,
    "poverty": 22907,
    "Ġintense": 6157,
    "Ġconfed": 13095,
    "suffer": 24332,
    "ricted": 15418,
    "ourers": 21448,
    "Ġfavoured": 16357,
    "Ġconference": 15743,
    "Ġcanopy": 18322,
    "gems": 20883,
    "uneven": 23683,
    "grammar": 6435,
    "hate": 20891,
    "Ġdeserves": 13287,
    "Ġpearl": 20375,
    "Ġlaughed": 5059,
    "pres": 16025,
    "don": 3545,
    "Ġcherished": 10589,
    "castle": 3347,
    "Ġobstructed": 24677,
    "Ġign": 8295,
    "Ġtiger": 11553,
    "Ġdepended": 9775,
    "Ġdismally": 20213,
    "chariot": 26478,
    "dress": 17519,
    "Ġmythologies": 26213,
    "Ġlearning": 386,
    "Ġfortune": 4241,
    "Ġpaternal": 16373,
    "Ġwhereon": 16098,
    "Ġrebellion": 26474,
    "Ġenable": 685,
    "affected": 10475,
    "Ġbub": 8118,
    "Ġhusbands": 16641,
    "Ġprofession": 6207,
    "Ġblast": 7445,
    "ateness": 15517,
    "Ġdrab": 13068,
    "tot": 10727,
    "cart": 10687,
    "Ġpacing": 8426,
    "Ġfeet": 2260,
    "Ġcanoes": 12801,
    "Ġhidden": 1375,
    "believe": 8304,
    "bottle": 20144,
    "Ġcompetent": 11813,
    "illustration": 2287,
    "Ġbeautiful": 3673,
    "Ġcirclings": 26430,
    "Ġbowsprit": 16559,
    "Ġlowerings": 23645,
    "sensations": 20049,
    "Ġdeb": 4763,
    "rics": 13033,
    "tri": 11528,
    "Ġrepresents": 4902,
    "py": 17623,
    "dar": 20823,
    "Ġpatagonia": 25858,
    "agatha": 21906,
    "Ġviolin": 16426,
    "Ġinteraction": 7424,
    "Ġsofa": 10269,
    "Ġreaction": 15691,
    "Ġnext": 2140,
    "Ġeclipsed": 26376,
    "Ġhoist": 11973,
    "Ġcommence": 6167,
    "Ġspoken": 4835,
    "Ġfavourably": 16358,
    "20": 20752,
    "Ġimbedded": 18332,
    "Ġenergies": 25459,
    "Ġnut": 12642,
    "Ġtusk": 25425,
    "Ġlend": 17962,
    "Ġinferiority": 17114,
    "Ġlimbs": 5966,
    "Ġplaintiffs": 13607,
    "Ġrecommend": 7102,
    "Ġrud": 8477,
    "Ġmonarchs": 25849,
    "bitter": 11239,
    "once": 5904,
    "displeasure": 23493,
    "Ġswinging": 7449,
    "oward": 6021,
    "orm": 425,
    "Ġices": 21153,
    "expectant": 24274,
    "Ġmushroom": 13233,
    "Ġconsequence": 5541,
    "injured": 15130,
    "wicked": 24448,
    "tering": 3807,
    "Ġfainted": 8790,
    "Ġlog": 1680,
    "V": 58,
    "ass": 538,
    "Ġdrown": 6815,
    "vest": 6230,
    "hammock": 16351,
    "Ġaudacity": 19881,
    "ariously": 18524,
    "list": 7551,
    "Ġcomfortably": 16614,
    "harbor": 13562,
    "Ġwond": 3937,
    "dry": 13701,
    "Ġcomplement": 23708,
    "Ġproduced": 2452,
    "ign": 1705,
    "Ġtestimony": 14473,
    "Ġtexas": 25922,
    "afternoon": 13183,
    "ane": 1179,
    "Ġcaged": 21350,
    "ras": 21035,
    "Ġappals": 22216,
    "cru": 7126,
    "Ġindian": 4134,
    "Ġparac": 12791,
    "Ġscarce": 8621,
    "combination": 25486,
    "revealed": 20414,
    "Ġprojected": 16868,
    "Ġevaluate": 2951,
    "ifled": 14061,
    "lucases": 20209,
    "Ġstrong": 1787,
    "Ġind": 1220,
    "ã": 164,
    "wander": 17708,
    "Ġcogn": 11003,
    "hered": 5622,
    "Ġpoetry": 15078,
    "librarian": 26567,
    "Ġfrederick": 15583,
    "Ġzeal": 9096,
    "Ġshol": 21993,
    "studied": 17148,
    "Ġunerring": 15844,
    "Ġlap": 8437,
    "Ġstupidity": 15049,
    "excitement": 19668,
    "ideas": 18584,
    "Ġrelinqu": 12978,
    "utterly": 20010,
    "Ġoccurs": 1857,
    "Ġremo": 3786,
    "sticking": 21652,
    "peculiar": 6886,
    "ran": 11514,
    "Ġamiable": 4270,
    "separ": 9229,
    "Ġimbalance": 22172,
    "Ġsil": 1796,
    "Ġpersonal": 7479,
    "Ġfewer": 16219,
    "Ġtenderest": 23548,
    "Ġsiamese": 20481,
    "Ġimbec": 14155,
    "als": 2041,
    "Ġsigning": 22708,
    "problems": 11433,
    "Ġessence": 13403,
    "Ġfishy": 16521,
    "Ġha": 400,
    "Ġcul": 17822,
    "ted": 790,
    "Ġlike": 667,
    "Ġscratch": 25564,
    "Ġdir": 21420,
    "Ġavowal": 19413,
    "effectually": 25128,
    "Ġchilian": 25563,
    "Ġpulley": 2979,
    "Ġruggedness": 26268,
    "Ġvind": 10248,
    "Ġcomplained": 16997,
    "Ġhorizont": 6937,
    "Ġsolar": 22884,
    "anelles": 26433,
    "Ġabsolute": 6765,
    "Ġbud": 10167,
    "pulling": 25146,
    "Ġsignify": 16492,
    "Ġacquirement": 19254,
    "Ġnarrowed": 24354,
    "Ġdood": 22240,
    "Ġgaol": 19566,
    "Ġmainland": 22648,
    "orney": 17873,
    "tap": 17675,
    "Ġjoyful": 13218,
    "pth": 2383,
    "homage": 25616,
    "Ġscent": 10283,
    "Ġleagues": 9220,
    "dan": 17514,
    "trad": 21075,
    "aced": 2416,
    "Ġcrunched": 19123,
    "Ġcandelabra": 26601,
    "Ġefficient": 1035,
    "Ġrhyme": 21979,
    "Ġtalked": 4420,
    "Ġblack": 2033,
    "Ġsinned": 18950,
    "opposite": 19928,
    "ient": 393,
    "Ġmouldings": 24737,
    "Ġ82": 24457,
    "Ġsuicide": 12782,
    "appe": 2948,
    "fab": 13714,
    "Ġimage": 3403,
    "Ġgrunt": 18734,
    "Ġdistressing": 12215,
    "Ġthereby": 7643,
    "ulnerable": 18150,
    "Ġstagger": 10590,
    "Ġconjunction": 25100,
    "Ġofficial": 7081,
    "shr": 10977,
    "Ġhilarity": 20296,
    "Ġaccording": 5508,
    "s": 87,
    "Ġmovement": 9966,
    "Ġstab": 10861,
    "exclaimed": 11787,
    "Ġtestament": 23212,
    "Ġlive": 2736,
    "antled": 18286,
    "Ġbashful": 20418,
    "Ġangles": 23587,
    "Ġhauling": 14085,
    "Ġcape": 5146,
    "Ġesquimaux": 25150,
    "Ġunho": 18242,
    "fol": 4861,
    "Ġindistinct": 17406,
    "Ġembellished": 25848,
    "followed": 8339,
    "Ġastronomy": 25926,
    "Ġphrases": 2797,
    "Ġlouisiana": 25076,
    "Ġsteeply": 23722,
    "daylight": 19055,
    "laz": 15383,
    "Ġarticulate": 24431,
    "itten": 3442,
    "addressed": 13383,
    "Ġsounds": 5190,
    "Ġsteer": 10385,
    "Ġhalls": 19524,
    "Ġheaths": 25972,
    "Ġtones": 8400,
    "expression": 10546,
    "Ġsensit": 2950,
    "Ġissu": 6253,
    "Ġlandsc": 11145,
    "Ġlivel": 11354,
    "robotics": 11305,
    "Ġstops": 3164,
    "Ġchecked": 9373,
    "Ġveget": 11883,
    "Ġpiercing": 13492,
    "wh": 508,
    "Ġcompleted": 8996,
    "Ġtendons": 19807,
    "Ġabstracted": 17181,
    "Ġposted": 16723,
    "Ġtolerable": 6949,
    "Ġpreach": 14171,
    "Ġoften": 1954,
    "covenant": 23560,
    "Ġlust": 9196,
    "Ġpresto": 22228,
    "Ġconsec": 21803,
    "abri": 6682,
    "Ġhussey": 7725,
    "Ġinterview": 9768,
    "Ġowl": 20082,
    "ased": 1270,
    "Ġdeclines": 23960,
    "Ġheroic": 14906,
    "Ġbordeaux": 24563,
    "beef": 18520,
    "Ġtreats": 19342,
    "derstand": 638,
    "engineer": 23146,
    "Ġwounds": 17790,
    "Ġstrip": 9419,
    "Ġbelieved": 4367,
    "Ġdestiny": 8982,
    "Ġexerc": 6832,
    "Ġheld": 3587,
    "Ġcommod": 10332,
    "Ġcotton": 17377,
    "Ġoutdone": 22316,
    "Ġmildly": 9028,
    "tired": 21071,
    "Ġmonkey": 8227,
    "Ġtwitching": 25683,
    "Ġswandam": 11088,
    "Ġinfat": 14498,
    "compliment": 11363,
    "afterwards": 7484,
    "Ġfamine": 16325,
    "Ġshivered": 14106,
    "Ġlogical": 14485,
    "Ġinfinitely": 8962,
    "Ġprimal": 17106,
    "Ġsolve": 4199,
    "Ġjokes": 18408,
    "grave": 16091,
    "Ġpron": 6451,
    "Ġexempl": 21828,
    "Ġamb": 9290,
    "Ġtake": 1575,
    "Ġfoolish": 5980,
    "Ġcompassionate": 24723,
    "Ġrafters": 22659,
    "devilish": 17081,
    "Ġoccurrence": 14380,
    "beings": 12872,
    "Ġvulgar": 13602,
    "Ġreason": 1350,
    "prisoner": 20542,
    "Ġloom": 7628,
    "fancy": 7337,
    "Ġori": 8409,
    "comes": 5394,
    "Ġcomra": 7183,
    "Ġminers": 22829,
    "commencement": 26347,
    "Ġdestroyed": 5271,
    "composed": 14738,
    "Ġdisrespect": 18553,
    "favour": 9547,
    "Ġp": 289,
    "Ġchronicler": 20228,
    "formity": 10277,
    "Ġmadman": 13149,
    "Ġsole": 3296,
    "glory": 23849,
    "Ġproc": 5544,
    "Ġix": 12664,
    "singular": 12185,
    "impulse": 20644,
    "consolation": 15150,
    "Ġcottage": 4733,
    "tom": 15433,
    "stonecraft": 24355,
    "Ġbetween": 791,
    "Ġche": 1762,
    "h": 76,
    "luc": 9752,
    "Ġarms": 3965,
    "Ġamongst": 8958,
    "Ġpermitted": 9276,
    "sleeve": 26108,
    "Ġpoisoned": 24886,
    "Ġetc": 7084,
    "orrow": 2919,
    "saved": 15429,
    "Ġaux": 21198,
    "Ġidiotic": 25588,
    "everything": 6324,
    "Ġdiligence": 17113,
    "Ġarranging": 11173,
    "Ġsomeone": 6703,
    "Ġneighbouring": 12115,
    "Ġoverheard": 11771,
    "belled": 24033,
    "card": 11474,
    "Ġlong": 798,
    "Ġlothario": 26184,
    "overed": 2854,
    "Ġimprecate": 20515,
    "Ġsubstant": 14807,
    "wonted": 13491,
    "bat": 8072,
    "Ġenough": 1761,
    "Ġepid": 18004,
    "lead": 10164,
    "Ġaqu": 17741,
    "Ġsubsisted": 19117,
    "Ġtuesday": 9625,
    "Ġdeep": 803,
    "Ġbomb": 17867,
    "Ġbegone": 11915,
    "plentiful": 21963,
    "Ġvault": 8839,
    "yond": 2332,
    "Ġbitterness": 8025,
    "Ġcheered": 16365,
    "abez": 10221,
    "console": 22471,
    "istical": 8489,
    "Ġfoes": 11949,
    "prise": 7727,
    "Ġkindliness": 23292,
    "Ġtrampled": 20327,
    "Ġescorted": 23504,
    "Ġcarry": 4778,
    "Ġsignature": 16491,
    "adamite": 20591,
    "spears": 23939,
    "Ġlizard": 12650,
    "Ġdividing": 12108,
    "Ġbaked": 21384,
    "Ġunobserved": 18246,
    "Ġalike": 8147,
    "Ġunb": 10905,
    "Ġfront": 3452,
    "Ġcontention": 22424,
    "shattered": 22447,
    "Ġposit": 1304,
    "Ġindomitableness": 26570,
    "Ġleaky": 2349,
    "Ġlod": 4046,
    "chery": 24550,
    "Ġsphy": 18311,
    "race": 11629,
    "<UNK>": 3,
    "Ġmorrow": 9341,
    "instruct": 19541,
    "Ġsamuel": 10031,
    "Ġmortar": 19391,
    "Ġhyp": 3872,
    "Ġminded": 23229,
    "medical": 23338,
    "chanced": 18808,
    "Ġwoody": 23518,
    "Ġlibrary": 6423,
    "Ġmurderers": 16810,
    "Ġpurple": 10432,
    "illum": 15866,
    "Ġpie": 13913,
    "umbled": 8492,
    "emptied": 23635,
    "Ġlime": 13946,
    "destroy": 19509,
    "Ġnimble": 21526,
    "Ġeighteen": 11237,
    "Ġvelocity": 10619,
    "ulpt": 10884,
    "Ġpent": 17903,
    "Ġimpertinent": 9076,
    "killing": 20941,
    "Ġgenuine": 14883,
    "waiter": 24587,
    "Ġmachines": 1776,
    "Ġloses": 15870,
    "Ġabsolutely": 4856,
    "hro": 20890,
    "libra": 22923,
    "ected": 7874,
    "Ġkn": 4545,
    "Ġweeping": 11684,
    "Ġinstructions": 11194,
    "Ġexists": 14036,
    "Ġspiced": 22132,
    "itect": 996,
    "Ġchests": 19670,
    "Ġseedy": 21956,
    "irs": 14069,
    "punishment": 15143,
    "Ġpathways": 11152,
    "request": 21240,
    "Ġcomplet": 4422,
    "known": 3570,
    "Ġcorpora": 26579,
    "Ġleviathan": 3287,
    "erick": 13846,
    "Ġnumerous": 6920,
    "Ġstrang": 4163,
    "^": 66,
    "shrouded": 26361,
    "iii": 14772,
    "Ġtepid": 26411,
    "message": 17370,
    "connections": 14426,
    "Ġcensured": 25094,
    "Ġmodel": 515,
    "omics": 21661,
    "asing": 5912,
    "olent": 8155,
    "Ġclum": 8871,
    "kindled": 16659,
    "Ġreporting": 24657,
    "aster": 1866,
    "gam": 10094,
    "Ġquill": 12853,
    "Ġindec": 13926,
    "Ġderiv": 1737,
    "Ġrepelled": 19083,
    "Ġegress": 21619,
    "Ġimpulsive": 19961,
    "Ġblind": 3716,
    "Ġpopular": 6216,
    "bearers": 18521,
    "Ġadduced": 26523,
    "Ġrubbing": 9319,
    "destiny": 16701,
    "Ġmarvels": 11083,
    ",--": 2477,
    "obst": 11929,
    "Ġhandling": 8911,
    "Ġirreduc": 5491,
    "shone": 22441,
    "onstrate": 17767,
    "Ġsports": 18310,
    "Ġrounded": 14437,
    "greatest": 10492,
    "ahead": 12431,
    "whisper": 17082,
    "Ġit": 339,
    "volutions": 16319,
    "operation": 13499,
    "Ġoysters": 20577,
    "Ġbelshazzar": 16223,
    "Ġpliny": 11822,
    "circum": 16736,
    "mutually": 26136,
    "Ġsympathy": 6346,
    "Ġargosy": 24272,
    "Ġmustering": 18662,
    "Ġglass": 4368,
    "Ġsmaller": 1882,
    "Ġincidentally": 16953,
    "burn": 8371,
    "gossip": 23400,
    "Ġspear": 9312,
    "inating": 9152,
    "rolling": 9059,
    "Ġhandkerchief": 8912,
    "self": 617,
    "to": 714,
    "night": 2168,
    "Ġcasked": 24496,
    "ucy": 15442,
    "Ġexperience": 1334,
    "Ġthings": 1963,
    "Ġkneeling": 12139,
    "luxur": 25822,
    "rope": 3182,
    "Ġloath": 7892,
    "Ġsidelong": 11437,
    "Ġfierceness": 26264,
    "Ġmaketh": 15185,
    "Ġlit": 6246,
    "apped": 5395,
    "idirection": 2410,
    "Ġcharing": 14177,
    "ages": 829,
    "handle": 11189,
    "Ġgentlemen": 3644,
    "Ġeagerly": 4990,
    "Ġshudderings": 25200,
    "Ġsoaring": 22084,
    "Ġdl": 3374,
    "Ġtattered": 21170,
    "comprehensive": 20625,
    "Ġblade": 11890,
    "gu": 3955,
    "Ġbowl": 11202,
    "Ġcottages": 14725,
    "Ġwrithed": 17105,
    "difference": 13706,
    "ollen": 11297,
    "Ġwarned": 16879,
    "follow": 5680,
    "Ġsides": 4579,
    "enstein": 5799,
    "Ġunconquerable": 22057,
    "Ġconversations": 9423,
    "avern": 24792,
    "urous": 10211,
    "Ġdistress": 5844,
    "grasping": 20638,
    "mming": 1172,
    "Ġcos": 2210,
    "discoloured": 23496,
    "Ġwol": 15527,
    "Ġgoble": 14229,
    "rub": 15894,
    "Ġwings": 9162,
    "Ġpanther": 16818,
    "quaker": 15759,
    "startled": 24941,
    "abashed": 21790,
    "imens": 1747,
    "networks": 2405,
    "traces": 24314,
    "Ġhatchway": 13523,
    "ersman": 11699,
    "rodu": 1818,
    "Ġprop": 1684,
    "perplex": 18338,
    "fatal": 17087,
    "Ġcove": 22580,
    "Ġ[_": 15459,
    "Ġembrace": 16989,
    "amped": 12030,
    "condemned": 26060,
    "Ġcarn": 17821,
    "cial": 2649,
    "Ġvexatious": 19780,
    "politeness": 16905,
    "Ġcasket": 19723,
    "Ġelements": 2667,
    "Ġnowadays": 18546,
    "greatly": 16622,
    "Ġbeauty": 3771,
    "Ġexpensive": 12914,
    "Ġdraw": 3672,
    "Ġought": 3419,
    "Ġwithout": 1118,
    "Ġhysterical": 26092,
    "bular": 15311,
    "Ġfurrow": 22813,
    "Ġgenerative": 5644,
    "Ġsustaining": 25333,
    "pudding": 17646,
    "prick": 19341,
    "Ġbrave": 6329,
    "Ġcommis": 22669,
    "steady": 14707,
    "Ġconnivance": 25225,
    "Ġimpatiently": 8338,
    "twig": 23698,
    "pool": 16206,
    "hatchway": 25904,
    "bo": 1692,
    "Ġextras": 22740,
    "Ġforts": 21770,
    "dering": 5305,
    "comfort": 5647,
    "commander": 16986,
    "Ġslaughter": 20729,
    "dissatisfied": 26611,
    "Ġgames": 11624,
    "again": 3399,
    "jonah": 11495,
    "Ġpasture": 14542,
    "iger": 8446,
    "Ġimag": 2675,
    "tied": 21069,
    "uteronomy": 15660,
    "Ġobey": 9517,
    "eches": 8078,
    "Ġdoom": 6417,
    "deemed": 18317,
    "Ġgloom": 4204,
    "measured": 19988,
    "Ġdupl": 9952,
    "Ġnovelty": 13461,
    "Ġreminding": 19796,
    "childhood": 16865,
    "Ġproportionably": 19969,
    "Ġdespise": 14664,
    "Ġsuperseded": 26223,
    "Ġchair": 3663,
    "Ġwer": 12548,
    "Ġinvincible": 23478,
    "Ġundivided": 24120,
    "talk": 6656,
    "Ġfiltering": 23923,
    "Ġpalmed": 24089,
    "Ġrecognise": 12037,
    "asy": 5294,
    "Ġinstruct": 2867,
    "Ġpaced": 7583,
    "Ġdanger": 3520,
    "ses": 3028,
    "etuous": 21581,
    "Ġconcre": 16386,
    "Ġsettling": 11061,
    "attended": 8951,
    "Ġrokovoko": 22403,
    "Ġknowest": 12860,
    "Ġfloated": 7288,
    "Ġezekiel": 26192,
    "inkled": 5477,
    "ack": 613,
    "acetty": 24463,
    "Ġsupervised": 3207,
    "Ġattributed": 11830,
    "Ġmagnified": 23201,
    "Ġblanket": 8343,
    "nib": 5214,
    "Ġkettle": 26232,
    "Ġbowled": 23767,
    "«": 109,
    "concealed": 25115,
    "Ġcurtain": 14406,
    "Ġpau": 17908,
    "Ġrumpled": 24601,
    "Ġrustic": 14963,
    "Ġworker": 23045,
    "Ġrevolutionized": 3365,
    "ety": 3521,
    "gir": 8083,
    "Ġavowed": 16632,
    "breakfast": 8687,
    "Ġlatent": 19654,
    "Ġhonest": 7287,
    "heim": 17745,
    "bowing": 24453,
    "Ġmorbid": 16233,
    "cob": 10085,
    "Ġmercifully": 20177,
    "Ġmakest": 25435,
    "ercely": 12546,
    "Ġdiscussed": 19558,
    "ically": 850,
    "formed": 2556,
    "Ġcardboard": 19977,
    "lier": 20948,
    "Ú": 155,
    "Ġthinks": 6169,
    "Ġgrie": 3585,
    "Ġfejee": 18354,
    "Ġidly": 16400,
    "oing": 15399,
    "Ġdraws": 19434,
    "cushion": 20820,
    "Ġdaint": 15589,
    "pat": 10115,
    "Ġchurches": 12823,
    "Ġsorely": 17255,
    "Ġnephews": 24714,
    "Ġdire": 866,
    "admitted": 18091,
    ";âĢĶ": 3751,
    "baby": 25515,
    "din": 8374,
    "Ġtarpaulin": 26157,
    "Ġjustine": 4970,
    "Ġattitudes": 16093,
    "maritime": 24172,
    "serious": 14446,
    "Ġrapt": 7227,
    "how": 1643,
    "insensibility": 23067,
    "Ġsensitiveness": 23733,
    "spending": 18689,
    "Ġactor": 16045,
    "etite": 21577,
    "Ġeighty": 19474,
    "Ġcigar": 9543,
    "Ġfunere": 22257,
    "Ġfring": 11126,
    "Ġhovel": 8254,
    "Ġhearing": 4760,
    "Ġstretched": 5920,
    "ency": 3868,
    "apprehension": 26114,
    "Ġblasphe": 17405,
    "tered": 2233,
    "escaped": 14228,
    "Ġbrewed": 23343,
    "Ã": 132,
    "Ġgirdled": 19157,
    "Ġlarger": 1400,
    "lever": 2936,
    "Ġimmensities": 25330,
    "Ġelement": 6897,
    "emotions": 15791,
    "Ġemer": 5959,
    "Ġwearisome": 19794,
    "71": 20755,
    "impressions": 20697,
    "Ġcyp": 21343,
    "Ġapple": 14166,
    "Ġagonized": 25372,
    "Ġgrat": 4060,
    "Ġdiffered": 22711,
    "ieth": 10703,
    "Ġarrangement": 2658,
    "Ġansw": 2207,
    "ultaneously": 4196,
    "Ġhailed": 6407,
    "gentleness": 24844,
    "haustible": 16890,
    "https": 11681,
    "Ġevap": 19622,
    "female": 20665,
    "sheltered": 25585,
    "Ġsutherland": 10147,
    "Ġbolted": 12241,
    "ĠĠĠĠĠĠĠĠĠĠĠĠĠĠĠĠ": 1219,
    "Ġrecord": 5316,
    "shriek": 20518,
    "Ġskies": 8919,
    "Ġsentence": 6187,
    "Ġhunter": 5401,
    "test": 13790,
    "ifferent": 4263,
    "Ġgone": 2108,
    "bies": 15310,
    "Ġdus": 8423,
    "Ġcolossal": 11458,
    "cocks": 23559,
    "Ġmons": 10155,
    "Ġexquisite": 12378,
    "Ġexploitation": 2350,
    "dreams": 12334,
    "Ġaver": 1286,
    "arcy": 1276,
    "Ġprompted": 23813,
    "Ġeasier": 11164,
    "Ġens": 2788,
    "Ġthankful": 14736,
    "sig": 2877,
    "heading": 5487,
    "Ġlvi": 21551,
    "rically": 15415,
    "Ġignominy": 15083,
    "Ġirre": 7468,
    "Ġconsisted": 10418,
    "'re": 12425,
    "helmsman": 24286,
    "history": 15013,
    "process": 11147,
    "Ġ130": 24781,
    "zealand": 26054,
    "behaviour": 11300,
    "stolidity": 21655,
    "Ġfurthest": 22814,
    "Ġproperty": 6450,
    "Ġsaw": 1349,
    "trans": 5593,
    "Ġshiver": 12763,
    "Ġdew": 14041,
    "nails": 17613,
    "ignific": 11952,
    "Ġtracks": 18889,
    "Ġfrom": 434,
    "rice": 13775,
    "Ġflog": 23622,
    "Ġorgan": 2503,
    "Ġ55": 24322,
    "Ġtribe": 10750,
    "Ġarrogance": 26231,
    "Ġwith": 349,
    "coiled": 16484,
    "Ġwelfare": 12555,
    "attest": 23117,
    "Ġembeddings": 2193,
    "fer": 1943,
    "Ġflowed": 10370,
    "ur": 325,
    "ck": 436,
    "Ġsacrific": 15016,
    "Ġvictim": 6098,
    "Ġrigged": 16716,
    "Ġappe": 1538,
    "Ġhighly": 4843,
    "Ġmorocco": 26572,
    "Ġpeels": 22689,
    "Ġnodes": 1968,
    "fisher": 7547,
    "Ġsacri": 18328,
    "Ġlikened": 16497,
    "<PAD>": 0,
    "neighbours": 24881,
    "boards": 23254,
    "remote": 23188,
    "Ġdoor": 1740,
    "Ġbye": 12734,
    "Ġnovels": 15926,
    "Ġinsip": 19266,
    "blunder": 24129,
    "promote": 24727,
    "Ġnarwhales": 24902,
    "quest": 4537,
    "Ġpracticable": 19044,
    "Ġcalamity": 17347,
    "Ġdeclares": 16991,
    "Ġreser": 5170,
    "Ġmonday": 6127,
    "urp": 1472,
    "idious": 11660,
    "Ġrefuge": 8538,
    "Ġrocking": 10968,
    "Ġvoc": 4450,
    "Ġbond": 21382,
    "Ġspong": 15879,
    "Ġepicures": 25880,
    "increas": 10453,
    "Ġdoors": 6418,
    "Ġobservable": 25126,
    "Ġtrait": 23072,
    "Ġfingers": 5672,
    "Ġawkwardness": 13485,
    "sided": 17663,
    "ppers": 7617,
    "Ġtransport": 11277,
    "Ġunmo": 12768,
    "Ġunalterable": 15848,
    "faint": 17544,
    "Ġanomalous": 25637,
    "Â·": 21148,
    "iamond": 14589,
    "Ġangels": 11177,
    "bergen": 14325,
    "Ġunwonted": 14122,
    "----âĢĻ": 24096,
    "):": 11460,
    "Ġdecomposes": 5506,
    "Ġillness": 8589,
    "assured": 10951,
    "Ġscrew": 8866,
    "Ġ33": 16675,
    "Ġcol": 1057,
    "Ġhumbled": 16194,
    "person": 7746,
    "Ġaverages": 2399,
    "Ġsnugly": 17110,
    "tre": 8760,
    "lydon": 13987,
    "Ġtinted": 13820,
    "Ġgeneva": 5450,
    "hatherley": 17567,
    "consc": 4839,
    "Ġbloom": 9886,
    "reshold": 21238,
    "monster": 8591,
    "quished": 21846,
    "tooth": 18582,
    "japan": 15372,
    "olerable": 7182,
    "rices": 4558,
    "Ġdevotees": 25376,
    "Ġconnecting": 18633,
    "Ġwestward": 24388,
    "ihood": 20921,
    "opes": 10309,
    "wretchedness": 17251,
    "Ġargument": 7098,
    "Ġconceal": 5974,
    "Ġpretension": 23762,
    "Ġfishe": 15582,
    "Ġrapidity": 11101,
    "Ġcomes": 3423,
    "Ġunintelligible": 26513,
    "Ġomen": 11574,
    "Ġerrors": 2598,
    "Ġtragedies": 25241,
    "Ġmoderation": 12817,
    "ernal": 4312,
    "Ġauthor": 4374,
    "Ġglue": 15670,
    "Ġunbroken": 18247,
    "folio": 10545,
    "det": 5207,
    "Ġdrifted": 14624,
    "Ġamid": 4959,
    "of": 767,
    "beheaded": 22490,
    "rasing": 21044,
    "Ġremove": 7499,
    "Ġindignant": 12236,
    "Ġleviathans": 8282,
    "//": 11462,
    "Ġtools": 11607,
    "Ġbroadway": 23981,
    "Ġnois": 4268,
    "mates": 5073,
    "ittarius": 22375,
    "abominable": 20592,
    "paint": 21017,
    "keep": 3850,
    "humored": 19451,
    "rat": 8755,
    "Ġbun": 6007,
    "start": 7598,
    "Ġtreacle": 14594,
    ";": 31,
    "Ġletters": 3793,
    "adequate": 15201,
    "Ġimpressive": 14998,
    "Ġflattening": 26048,
    "Ġspangled": 22134,
    "bank": 10078,
    "Ġcatch": 4440,
    "unctuous": 21880,
    "mb": 912,
    "Ġgoverning": 2795,
    "Ġfish": 2711,
    "Ġtrifling": 10601,
    "Ġanxiously": 8290,
    "you": 1005,
    "Ġdefile": 18823,
    "she": 1395,
    "Ġceler": 15547,
    "_âĢĶâĢĻ": 13680,
    "Ġtenants": 23545,
    "tenderly": 20529,
    "ĠĊ": 12519,
    "Ġtoilings": 24742,
    "spell": 22730,
    "spin": 22729,
    "Ġvac": 5025,
    "score": 18856,
    "ody": 1478,
    "these": 3240,
    "althily": 19357,
    "Ġ63": 24365,
    "Ġyounger": 5252,
    "elihood": 4622,
    "Ĺ": 250,
    "Ġproceeded": 5335,
    "Ġstraightened": 12105,
    "troubled": 17111,
    "Ġlasted": 11053,
    "Ġloop": 14145,
    "enges": 13050,
    "Ġsanctified": 25883,
    "Ġlabourers": 23329,
    "given": 8377,
    "striving": 24669,
    "Ġuncle": 3189,
    "Ġmarsh": 9819,
    "Ġfemale": 8345,
    "Ġdeploy": 3258,
    "fre": 5425,
    "Ġslee": 8973,
    "Ġarmitage": 23579,
    "Ġfugitive": 17325,
    "Ġwhir": 6393,
    "ference": 1881,
    "captain": 3952,
    "trembling": 17141,
    "Ġconcuss": 19048,
    "ascar": 8435,
    "Ġnicely": 8708,
    "Ġvector": 1973,
    "Ġrejoiced": 8683,
    "Ġseverest": 14089,
    "smitten": 23906,
    "Ġclutches": 20016,
    "Ġsim": 733,
    "Ġpreferment": 19852,
    "ufact": 10732,
    "Ġunass": 14111,
    "Ġperseverance": 13595,
    "imag": 6990,
    "Ġindu": 5293,
    "Ġmorose": 18847,
    "bered": 4504,
    "Ġunion": 6839,
    "Ġsine": 10762,
    "Ġproximity": 3218,
    "Ġrambling": 18646,
    "Ġpresuming": 16792,
    "Ġhypothe": 4077,
    "Ġexpired": 18623,
    "yn": 7820,
    "beer": 22485,
    "ogene": 18674,
    "Ġmichaelmas": 26374,
    "Ġshy": 10902,
    "Ġwashed": 15761,
    "Ġepic": 15028,
    "03": 20747,
    "ladies": 9527,
    "ulgences": 21863,
    "diver": 20830,
    "Ġsubterranean": 13609,
    "neural": 3067,
    "Ġcapstan": 9097,
    "oof": 15403,
    "Ġdoubled": 19641,
    "Ġloose": 4648,
    "Ġledger": 19400,
    "crown": 13696,
    "Ġminimizes": 2046,
    "Ġunwearied": 20601,
    "Ġinconsist": 17935,
    "Ġhem": 8445,
    "Ġreigns": 21669,
    "crippled": 26383,
    "Ġfry": 17879,
    "Ġcasts": 19424,
    "Ġfluttered": 16247,
    "Ġencoura": 1366,
    "Ġvisiting": 10359,
    "dum": 17517,
    "copper": 19187,
    "cely": 3576,
    "roylott": 20025,
    "Ġdignified": 15594,
    "Ġeigenvalues": 4998,
    "Ġhull": 5446,
    "Ġwrites": 23196,
    "Ġforthwith": 16617,
    "iving": 1725,
    "Ġports": 10817,
    "Ġhinge": 25541,
    "Ġdetected": 18851,
    "Ġimmens": 9937,
    "thence": 23396,
    "Ġprice": 10402,
    "begin": 8882,
    "Ġcheese": 9374,
    "Ġgrass": 5177,
    "Ġpowerful": 1550,
    "ificent": 8184,
    "inte": 5144,
    "Ġstranger": 3486,
    "elfth": 22367,
    "acceler": 23597,
    "Ġcontemplative": 19892,
    "daring": 20828,
    "Ġswelling": 11922,
    "Ġexpected": 3697,
    "Ġspots": 11727,
    "Ġcrocod": 19627,
    "Ġprinciples": 10009,
    "Ġloaf": 15869,
    "Ġdisconnected": 22523,
    "puted": 8845,
    "Ġaggregate": 25677,
    "Ġpagoda": 19787,
    "invest": 11558,
    "Ġexpanse": 14289,
    "commission": 22810,
    "Ġsleek": 23380,
    "Ġgirls": 4280,
    "Ġsunshine": 14493,
    "Ġprogramming": 1184,
    ".--": 20745,
    "venison": 22626,
    "Ġjurymen": 16846,
    "Ġearthly": 7990,
    "ils": 3179,
    "abond": 15737,
    "omely": 21657,
    "pip": 6654,
    "Ġteeth": 4169,
    "entieth": 17978,
    "cking": 4266,
    "Ġsprang": 5064,
    "azing": 7705,
    "--------": 14779,
    "rious": 11686,
    "ux": 7814,
    "Ġupwards": 7633,
    "Ġassumed": 9464,
    "Ġunfolded": 10637,
    "quin": 21845,
    "summer": 11990,
    "Ġdecisions": 6702,
    "Ġperv": 15987,
    "Ġtiny": 11551,
    "Ġrosy": 18457,
    "Ġadventure": 5981,
    "Ġcomprehend": 6494,
    "Ġhuggins": 24828,
    "bask": 20775,
    "Ġintuitions": 17339,
    "Ġschedu": 1823,
    "Ġpiece": 5367,
    "understand": 1100,
    "beware": 16035,
    "Ġquestions": 3973,
    "Ġinstantaneously": 23656,
    "opatra": 22475,
    "planks": 21961,
    "Ľ": 254,
    "L": 48,
    "Ġlandlady": 10421,
    "ropri": 2180,
    "Ġconvey": 9979,
    "Ġapologize": 15126,
    "iasm": 8061,
    "Ġabsurdly": 19958,
    "Ġire": 12665,
    "equ": 6790,
    "ductive": 23933,
    "endeavouring": 15014,
    "Ġsensitivity": 3070,
    "Ġquakers": 22414,
    "hair": 9121,
    "Ġdeficiencies": 26569,
    "Ġeff": 682,
    "Ġrattled": 15066,
    "rush": 7010,
    "Ġinsupportable": 13930,
    "fever": 22499,
    "ahawk": 23313,
    "Ġlatitude": 8329,
    "Ġnarratives": 24352,
    "Ġjabbering": 22301,
    "onsible": 22561,
    "socket": 22727,
    "Ġintegration": 9866,
    "Ġflooring": 23623,
    "engagement": 14456,
    "Ġfru": 8420,
    "Ġethere": 23948,
    "securer": 25602,
    "Ġstrict": 7222,
    "Ġglowed": 24864,
    "forward": 2188,
    "Ġugl": 12678,
    "osis": 18389,
    "Ġetern": 7085,
    "xology": 21140,
    "Ġtra": 1383,
    "Ġfurther": 1054,
    "Ġdeserted": 8636,
    "ogr": 18673,
    "-------": 20387,
    "ellent": 3763,
    "ĠĠĠĠĠĠĠ": 7631,
    "Ġthroats": 24574,
    "osure": 5306,
    "ech": 4388,
    "ms": 536,
    "Ġbrig": 11045,
    "Ġsimil": 2533,
    "Ġowen": 15092,
    "Ġpersistence": 3200,
    "Ġbass": 17855,
    "Ġ5": 4935,
    "Ġstool": 14460,
    "Ġlima": 10441,
    "Ġfinanc": 23125,
    "Ġpicturesque": 14892,
    "Ġexceptions": 13227,
    "Ġborne": 6351,
    "satisfactory": 16892,
    "vap": 13801,
    "Ġhoping": 11102,
    "Ġwooden": 4729,
    "rable": 11630,
    "Ġelevates": 24499,
    "conclude": 24063,
    "istrate": 7406,
    "Ġisolated": 13557,
    "precisely": 6917,
    "Ġtarget": 2822,
    "irements": 22210,
    "offices": 19061,
    "fed": 11486,
    "rane": 17652,
    "rent": 1171,
    "Ġwere": 557,
    "ulity": 10885,
    "Ġdomains": 6611,
    "Ġbled": 17856,
    "Ġrat": 4353,
    "Ġtwitch": 22674,
    "Ġaccount": 2323,
    "Ġflights": 24753,
    "ippi": 20243,
    "Ġdisagreeable": 9296,
    "rect": 1594,
    "Ġdestabilizing": 5053,
    "war": 6802,
    "daughter": 8354,
    "above": 8148,
    "!)": 10067,
    "filled": 9593,
    "Ġreusability": 13556,
    "Ġpersuade": 5872,
    "Ġforger": 15729,
    "Ġminority": 18752,
    "Ġintelligence": 560,
    "Ġcontact": 9279,
    "Ġpondered": 15164,
    "Ġshrieked": 9546,
    "allowing": 24357,
    "Ġcloudy": 19475,
    "Ġrmsprop": 3353,
    "roofed": 26183,
    "Ġunnearable": 26515,
    "Ġglim": 9342,
    "Ġmalays": 19676,
    "Ġdesired": 4664,
    "Ġasked": 2282,
    "deprived": 19897,
    "Ġsag": 6514,
    "nothing": 3152,
    "mechanically": 17298,
    "Ġdistinguishing": 16494,
    "marching": 25752,
    "Ġarrowy": 25469,
    "Ġmanhood": 22324,
    "unk": 4538,
    "Ġdeprived": 8211,
    "Ġprodigious": 8057,
    "Ġclaims": 13371,
    "Ġspanish": 2828,
    "ame": 645,
    "Ġh": 290,
    "Ġmeanly": 12905,
    "Ġsteward": 6584,
    "neighb": 16024,
    "Ġcamberwell": 25350,
    "Ġgaze": 6932,
    "Ġdescription": 7429,
    "Ġcircumvent": 25064,
    "teen": 6370,
    "flitted": 23966,
    "Ġsarat": 21226,
    "%": 9,
    "Ġplans": 7919,
    "successfully": 14989,
    "amiable": 14051,
    "Ġglen": 18852,
    "Ġthinkings": 22808,
    "Ġaversion": 18866,
    "Ġcleat": 18946,
    "thoughtfully": 24041,
    "Ġroused": 7623,
    "real": 10148,
    "anche": 10787,
    "Ġda": 5150,
    "Ġexternal": 8365,
    "Ġprotracted": 19467,
    "rations": 10722,
    "Ġvirt": 3907,
    "Ġtear": 6722,
    "Ġincrease": 9368,
    "nameless": 19902,
    "Ġhams": 16611,
    "family": 7324,
    "Ġpainted": 7979,
    "Ġhans": 12622,
    "Ġcoil": 11815,
    "Ġusing": 709,
    "feel": 3812,
    "usiveness": 22291,
    "ally": 531,
    "pumps": 21026,
    "Ġmonarch": 14413,
    "Ġxlvi": 25590,
    "Ġviolence": 5963,
    "Ġinstance": 2547,
    "Ġmon": 1253,
    "Ġscream": 5935,
    "Ġorlop": 22091,
    "Ġcrystals": 20226,
    "footman": 17161,
    "Ġdiscuss": 9472,
    "Ġrestore": 9377,
    "fifty": 12349,
    "Ġpersuasion": 10497,
    "reflected": 24733,
    "osity": 14184,
    "akes": 2221,
    "Ġabide": 14186,
    "oting": 2746,
    "eded": 9672,
    "Ġintelligences": 12826,
    "Ġpout": 17906,
    "Ġfourteen": 12006,
    "Ġadvantages": 9809,
    "Ġbaw": 15565,
    "aloes": 21500,
    "Ġgaff": 17993,
    "Ġscal": 1593,
    "spl": 9138,
    "harpoone": 6107,
    "Ġjune": 10287,
    "ij": 7802,
    "Ġheavenly": 12081,
    "Ġschol": 17375,
    "fortunately": 9449,
    "Ġprivate": 5345,
    "Ġdismantled": 20215,
    "Ġscroll": 14190,
    "Ġsatisfied": 4174,
    "Ġmoderate": 10938,
    "Ġtone": 4043,
    "pain": 7350,
    "introduced": 15122,
    "Ġbiscuit": 12585,
    "ellative": 21943,
    "quid": 18145,
    "Ġflattering": 13026,
    "ate": 423,
    "Ġtoward": 17946,
    "irous": 8837,
    "Ġaccosted": 13670,
    "hon": 6793,
    "much": 3706,
    "alled": 5911,
    "Ġpan": 5082,
    "network": 1912,
    "adie": 18088,
    "Ġloc": 10913,
    "Ġscholars": 26112,
    "Ġtruly": 4795,
    "quarters": 24946,
    "garious": 17557,
    "Ġowns": 22822,
    "Ġinherit": 25352,
    "Ġembracing": 14978,
    "Ġinvention": 19951,
    "Ġtranque": 14199,
    "itely": 5365,
    "Ġswing": 13032,
    "Ġremarked": 3696,
    "Ġlaughter": 9026,
    "Ġmeat": 8152,
    "masts": 19423,
    "idav": 18092,
    "mot": 17595,
    "Ġconst": 1909,
    "Ġhitting": 21486,
    "Ġpolitely": 8992,
    "Ġlessons": 7692,
    "Ġcravat": 26307,
    "Ġseals": 11693,
    "ows": 1917,
    "flu": 9116,
    "precision": 4331,
    "treas": 17678,
    "Ġbites": 23741,
    "ctive": 11621,
    "Ġscarlet": 13220,
    "Ġjug": 12831,
    "Ġunfair": 19506,
    "Ġsharkish": 24502,
    "mmar": 953,
    "Ġclank": 15965,
    "transform": 8050,
    "Ġdeductions": 19731,
    "Ġsnarl": 25715,
    "plings": 11695,
    "ppery": 10891,
    "mered": 8218,
    "Ġeffemin": 18540,
    "Ġwhims": 12688,
    "Ġhappened": 3713,
    "Ġdispel": 16595,
    "coward": 13698,
    "Ġpledged": 20686,
    "plate": 18207,
    "Ġcommunications": 16352,
    "itically": 21328,
    "Ġcoach": 6868,
    "oil": 7806,
    "Ġhumorous": 10358,
    "Ġloveliest": 20260,
    "turbaned": 24531,
    "Ġelizabeth": 1128,
    "expressed": 9040,
    "erve": 12545,
    "Ġdiscoveries": 13356,
    "alike": 17942,
    "Ġglorious": 11075,
    "Ġfav": 1754,
    "sweet": 8685,
    "youngest": 19742,
    "Ġklux": 22193,
    "Ġmotions": 8281,
    "noon": 5037,
    "Ġbill": 4044,
    "anging": 3552,
    "Ġdeposed": 16084,
    "Ġshaster": 21996,
    "evade": 24820,
    "unwillingly": 21882,
    "Ġslice": 23159,
    "Ġwriter": 11942,
    "arms": 10172,
    "Ġpolitics": 19224,
    "etence": 21575,
    "riumph": 4919,
    "pra": 15405,
    "Ġgods": 6454,
    "bud": 10681,
    "Ń": 260,
    "Ġattitude": 8902,
    "ezes": 9989,
    "reat": 618,
    "insupportable": 21192,
    "Ġdrug": 11409,
    "agon": 7872,
    "Ġiterate": 13199,
    "Ġcopper": 7425,
    "ract": 992,
    "Ġslewed": 23381,
    "Ġmizzen": 20288,
    "difficulty": 12387,
    "bourine": 9394,
    "weeks": 14314,
    "enthus": 17977,
    "inting": 9812,
    "ainty": 21785,
    "aments": 12721,
    "suspicions": 25391,
    "jud": 4481,
    "Ġunimpeachable": 26521,
    "Ġwatching": 4853,
    "ibbald": 18846,
    "Ġcoburg": 18596,
    "ivers": 1985,
    "igned": 5656,
    "Ġunprinciple": 18251,
    "I": 45,
    "Ġangle": 8602,
    "Ġadvancement": 24474,
    "Ġhansom": 13662,
    "Ġscrape": 14916,
    "Ġmr": 660,
    "Ġahead": 6662,
    "Ġenergy": 2554,
    "Ġcrooked": 11280,
    "Ġshaggy": 13568,
    "Ġbarbarous": 13474,
    "riet": 18183,
    "completed": 19992,
    "ws": 7355,
    "Ġbrains": 2632,
    "Ġrib": 4936,
    "races": 21628,
    "Ġscratching": 20367,
    "Ġpriests": 15039,
    "Ġnlp": 3063,
    "Ġunsc": 22008,
    "Ġlocker": 16910,
    "gue": 12464,
    "ringle": 21039,
    "Ġhastily": 5763,
    "Ġviewed": 10462,
    "========": 2315,
    "Ġdark": 2113,
    "cceed": 4145,
    "Ġtransferred": 16459,
    "Ġque": 4161,
    "Ġharp": 17923,
    "ermost": 7430,
    "inition": 11555,
    "alid": 13933,
    "Ġdeceiving": 21835,
    "Ġheightens": 24153,
    "Ġlying": 4825,
    "Ġmightiest": 12957,
    "Ġyore": 21776,
    "Ġbuckle": 17032,
    "Ġlandlord": 5580,
    "icular": 2023,
    "pul": 8753,
    "reserved": 13841,
    "imate": 4223,
    "Ġcarelessness": 13073,
    "Ġflora": 11415,
    "Ġinsights": 13177,
    "Ġtack": 5620,
    "Ġhadn": 9717,
    "sof": 17656,
    "Ġcan": 471,
    "Ġelimin": 16105,
    "Ġover": 556,
    "girl": 12315,
    "Ġfiss": 21411,
    "Ġsacrificed": 17420,
    "Ġscound": 12828,
    "Ġcourses": 10410,
    "labour": 23912,
    "ĠĠĠĠĠĠĠĠĠĠĠĠĠĠĠĠĠĠĠĠĠĠĠĠĠĠ": 13386,
    "Ġtoy": 15630,
    "whiskers": 12308,
    "Ġsmoothed": 23655,
    "Ġburgl": 13171,
    "isco": 12577,
    "Ġrevolve": 19728,
    "Ġislands": 6766,
    "Ġselects": 4384,
    "signed": 21060,
    "shore": 10304,
    "Ġmol": 12557,
    "tee": 16170,
    "Ġmess": 7832,
    "Ġperadventure": 22396,
    "Ġtidings": 11396,
    "those": 4495,
    "Ġperson": 2371,
    "Ġimpro": 905,
    "Ġingenuity": 17162,
    "Ġcivilities": 14846,
    "ony": 3030,
    "univers": 15768,
    "belt": 24032,
    "Ġfrenz": 25446,
    "Ġbil": 15561,
    "Ġpromotion": 23192,
    "Ġplun": 6281,
    "eminence": 20097,
    "Ġconcrete": 20636,
    "Ġdiddled": 22665,
    "Ġtainted": 21169,
    "Ġtried": 3649,
    "Ġunsuccessful": 18254,
    "tomb": 21092,
    "fat": 8079,
    "Ġelij": 8907,
    "Ġattention": 1165,
    "Ġprizes": 13071,
    "Ġserious": 4322,
    "Ġskrimshander": 22797,
    "Ġperusal": 14223,
    "bottom": 11425,
    "acency": 12893,
    "heavy": 10573,
    "inking": 6709,
    "Ġhor": 1660,
    "intended": 11065,
    "around": 12604,
    "Ġcrushed": 9421,
    "Ġthoroughfares": 26095,
    "Ġ87": 19709,
    "Ġdictionary": 15110,
    "Ġcold": 3033,
    "Ġfurs": 18738,
    "icism": 13954,
    "Ġaccurate": 13247,
    "Ġnations": 8808,
    "Ġbarbary": 24215,
    "ester": 11596,
    "Ġchap": 5934,
    "Ġ1807": 26083,
    "Ġwinds": 5746,
    "ishop": 9740,
    "Ġspain": 15878,
    "Ġcommitted": 7431,
    "Ġlifted": 6985,
    "etymology": 14699,
    "Ġcommon": 1413,
    "Ġinsanity": 12044,
    "Ġpredictions": 1455,
    "Ġfrank": 4419,
    "Ġbaptized": 25774,
    "Ġunconnected": 18239,
    "Ġhowl": 12851,
    "Ġbare": 6132,
    "Ġladies": 3190,
    "want": 8765,
    "Ġexam": 3711,
    "Ġvanquished": 22875,
    "idays": 21768,
    "assumed": 22306,
    "thouse": 21980,
    "metallic": 19879,
    "Ġcoffee": 6760,
    "table": 5795,
    "computer": 1969,
    "Ġpresumption": 10544,
    "Ġterrible": 5327,
    "ilar": 10214,
    "Ġwithheld": 18114,
    "abled": 12790,
    "imin": 1768,
    "pt": 388,
    "Ġsincere": 11135,
    "rosings": 15640,
    "Ġspence": 22125,
    "Ġdec": 642,
    "Ġcomprehensive": 15085,
    "Ġsuitable": 18279,
    "Ġsaith": 14154,
    "Ġreplied": 2267,
    "window": 7743,
    "Ġcased": 21344,
    "cable": 20796,
    "Ġdoc": 7200,
    "hmael": 7342,
    "Ġextract": 1526,
    "Ġwipe": 25764,
    "sell": 13779,
    "dings": 2183,
    "we": 847,
    "Ġsallies": 21228,
    "Ġdetain": 14181,
    "Ġweal": 21917,
    "Ġworrying": 22925,
    "Ġfordham": 21774,
    "Ġportion": 7492,
    "Ġcauldron": 25441,
    "Ġinflicted": 11364,
    ":": 30,
    "eat": 11481,
    "loved": 14249,
    "Ġedge": 5188,
    "steak": 14706,
    "ont": 2624,
    "aled": 3942,
    "osite": 4892,
    "Ġbearded": 15723,
    "Ġstockings": 19995,
    "Ġhills": 6527,
    "prior": 21031,
    "Ġfleecy": 17022,
    "in": 262,
    "Ġbennets": 9804,
    "ĠâĢľ": 517,
    "leviathan": 7785,
    "attering": 7419,
    "eling": 6681,
    "Ġnightfall": 23128,
    "Ġmaze": 23827,
    "Ġdeparture": 6490,
    "harm": 13733,
    "Ġbloody": 9887,
    "Ġphysiognomical": 25611,
    "Ġcuvier": 9164,
    "Ġbidirectional": 3757,
    "Ġconcernment": 23621,
    "contempt": 13188,
    "better": 7119,
    "Ġpatchwork": 24140,
    "Ġunrel": 14694,
    "pity": 17626,
    "Ġestablish": 9541,
    "Ġmurmur": 14588,
    "Ġmention": 2989,
    "source": 11524,
    "Ġduly": 13348,
    "Ġlist": 2368,
    "turned": 7306,
    "odd": 21812,
    "jewel": 20345,
    "Ġmeditate": 16681,
    "manner": 6170,
    "hatches": 19927,
    "Ġgpt": 4350,
    "propriety": 14363,
    "Ġflattened": 26047,
    "Ġgrec": 18961,
    "Ġconvict": 23743,
    "ick": 837,
    "ily": 1030,
    "Ġkind": 1785,
    "Ġorphans": 20203,
    "Ġplaid": 22599,
    "bastian": 10672,
    "sander": 11525,
    "Ġ54": 24321,
    "Ġpillow": 10036,
    "ersed": 10258,
    "Ġworshipped": 25691,
    "queen": 12723,
    "Ġdepressions": 25798,
    "Ġencourage": 10379,
    "deserving": 17240,
    "Ġgros": 14821,
    "esy": 9181,
    "Ġcountries": 13094,
    "Ġres": 695,
    "Ġborrow": 10169,
    "Ġmark": 2333,
    "constable": 24606,
    "Ġdemi": 25548,
    "Ġwander": 9030,
    "buoy": 7761,
    "july": 20473,
    "Ġdelightfully": 13156,
    "Ġexcessive": 3891,
    "nyder": 16685,
    "iceland": 21564,
    "Ġble": 5223,
    "pherd": 13642,
    "Ġord": 3736,
    "gentlemen": 9502,
    "proud": 9902,
    "Ġsatin": 12984,
    "Ġtandem": 26410,
    "hearted": 6970,
    "Ġvicissitudes": 12416,
    "Ġjuicy": 25370,
    "caterpillar": 26382,
    "Ġrector": 21674,
    "Ġpredefined": 20716,
    "Ġmelted": 19620,
    "sutherland": 21061,
    "Ġthought": 1089,
    "Ġperplex": 2717,
    "Ġconsiderable": 4008,
    "clearly": 25195,
    "odox": 21814,
    "Ġdangers": 12351,
    "Ġfemales": 14935,
    "Ġminutely": 14559,
    "Ġcontrasting": 11153,
    "Ġrate": 1061,
    "arranted": 19319,
    "Ġpencils": 23193,
    "member": 20974,
    "Ġeagerness": 6608,
    "Ġbecalmed": 18086,
    "fiery": 13579,
    "Ġview": 2762,
    "msprop": 2627,
    "thes": 7391,
    "fug": 17542,
    "Ġblank": 5951,
    "corrob": 24484,
    "Ġsupplement": 23003,
    "Ġduke": 7756,
    "Ġanxious": 4517,
    "Ġsultanism": 25888,
    "Ġprojecting": 9983,
    "Ġmute": 19414,
    "Ġentropy": 2031,
    "Ġbracing": 16579,
    "rian": 10241,
    "anqu": 4113,
    "Ġmill": 6666,
    "Ġseparating": 16684,
    "Ġhereditarily": 25224,
    "attention": 2111,
    "Ġdevious": 22714,
    "Ġtraced": 10382,
    "Ġspine": 7407,
    "Ġdeuteronomy": 15756,
    "Ġplaces": 5390,
    "Ġcry": 3496,
    "illes": 12690,
    "Ġpleated": 16294,
    "Ġaromatic": 25925,
    "methodically": 20663,
    "pond": 21012,
    "Ġsubsided": 14549,
    "Ġbloodless": 19338,
    "Ġencoder": 3637,
    "Ġdash": 8122,
    "Ġinjurious": 24269,
    "Ġobsequ": 14318,
    "Ġpublisher": 24062,
    "Ġterra": 13114,
    "Ġbody": 2436,
    "Ġquito": 24407,
    "Ġvial": 10247,
    "placed": 7881,
    "remained": 8569,
    "profound": 16422,
    "Ġgrunted": 16164,
    "Ġspan": 11726,
    "pits": 15410,
    "compliments": 24810,
    "Ġdisturb": 7107,
    "valu": 1661,
    "reng": 4004,
    "arp": 2027,
    "oriented": 2952,
    "ruct": 686,
    "Ġcoiled": 11817,
    "Ġobjecting": 18895,
    "Ġdeliver": 9847,
    "iture": 5696,
    "Ġfreshe": 13067,
    "Ġspile": 22126,
    "Ġledgers": 23935,
    "et": 307,
    "less": 926,
    "Ġprettier": 23763,
    "Ġimpassable": 20611,
    "teak": 22815,
    "Ġtrappers": 23079,
    "Ġskirt": 18729,
    "laws": 19806,
    "Ġconfederate": 17352,
    "dor": 12448,
    "Ġah": 5075,
    "autumn": 23340,
    "esteem": 26008,
    "Ġc": 277,
    "Ġbewildered": 15211,
    "entire": 6824,
    "tie": 21067,
    "Ġamsterdam": 22482,
    "Ġexclusiveness": 23924,
    "Ġcompression": 18147,
    "later": 20952,
    "Ġquiet": 3260,
    "Ġparted": 5929,
    "Ġantichron": 24180,
    "place": 4156,
    "sooner": 14774,
    "jephro": 26391,
    "Ġyou": 366,
    "fortnight": 13085,
    "ortment": 22255,
    "Ġcred": 8779,
    "Ġbattalions": 25776,
    "Ġphaet": 16315,
    "transition": 24509,
    "enormous": 26166,
    "Ġindic": 2890,
    "narwhale": 17316,
    "Ġyankees": 26201,
    "Ġshr": 4227,
    "Ġserpent": 6737,
    "umul": 1289,
    "¯": 112,
    "Ġwhirlp": 16962,
    "Ġmilk": 6485,
    "Ġdet": 512,
    "Ġunfortunately": 10907,
    "Ġknowing": 4456,
    "Ġnovelties": 24778,
    "Ġfleece": 10613,
    "resentment": 15183,
    "Ġafresh": 18626,
    "moby": 8536,
    "Ġcolony": 18763,
    "Ġcongregated": 20095,
    "Ġexclamation": 8698,
    "Ġbleeds": 24396,
    "tons": 7559,
    "imod": 15706,
    "Ġveritable": 19379,
    "Ġessentially": 24924,
    "solving": 3100,
    "Ġhyena": 24518,
    "Ġtawny": 20480,
    "canallers": 22967,
    "vint": 21113,
    "fuller": 22496,
    "daggoo": 13705,
    "judge": 13334,
    "pict": 8386,
    "winter": 10740,
    "dried": 20826,
    "incible": 16495,
    "Ġremedy": 18724,
    "Ġprognostics": 20557,
    "Ġdart": 4585,
    "Ġscold": 10949,
    "indisc": 22371,
    "ivial": 15858,
    "Ġmustard": 12926,
    "tribute": 21087,
    "impat": 11200,
    "Ġsummers": 23870,
    "Ġspace": 1533,
    "Ġcombines": 1159,
    "Ġexposes": 22622,
    "Ġamelia": 26250,
    "ology": 1577,
    "Ġproceedings": 9905,
    "Ġvenerable": 9092,
    "lemency": 21372,
    "strange": 6087,
    "Ġgravely": 7884,
    "Ġquestionable": 19265,
    "Ġturbul": 23611,
    "pad": 13766,
    "Ġcluster": 13569,
    "maid": 8553,
    "Ġhomely": 25219,
    "Ġmemories": 14540,
    "length": 7134,
    "Ġinve": 17928,
    "cabinet": 25077,
    "promontory": 24728,
    "Ġcolumn": 9326,
    "maul": 11889,
    "Ġblotted": 20216,
    "Ġincorrect": 2730,
    "ambition": 13409,
    "Ġstand": 1735,
    "rr": 17649,
    "range": 3494,
    "photograph": 16153,
    "Ġmagnific": 16316,
    "okened": 15981,
    "Ġeconomical": 25287,
    "Ġunwaning": 25170,
    "Ġspy": 22122,
    "Ġdrugged": 12598,
    "Ġcandidate": 16700,
    "consum": 12866,
    "Ġprotect": 6337,
    "tained": 4405,
    "Ġfacing": 10170,
    "Ġstates": 1852,
    "Ġclergy": 7642,
    "alongside": 19788,
    "Ġwhereupon": 14292,
    "Ġset": 1178,
    "Ġcommerce": 11014,
    "Ġdraught": 9842,
    "hounds": 20906,
    "Ġgrazed": 15830,
    "kingly": 20938,
    "Ġsales": 12803,
    "Ġrejection": 19982,
    "Ġutility": 23513,
    "Ġchild": 2262,
    "Ġemboldened": 22979,
    "Ġtendency": 11328,
    "mp": 3728,
    "both": 5785,
    "Ġscept": 15501,
    "europe": 20664,
    "Ġtraveller": 8049,
    "fam": 5989,
    "Ġsympathetic": 17357,
    "Ġprosecut": 9697,
    "Ġgrapple": 25811,
    "Ġbenevolence": 9525,
    "anous": 21357,
    "deformity": 22145,
    "Ġillinois": 19136,
    "Ġalas": 5922,
    "quality": 10231,
    "Ġplaymate": 23637,
    "Ġliveliness": 13641,
    "Ġ113": 19695,
    "archical": 1925,
    "Ġprevailing": 24673,
    "atig": 13843,
    "bucket": 17492,
    "Ġnocturn": 18374,
    "Ġindistinctly": 26117,
    "degrees": 22149,
    "Ġwalking": 4323,
    "Ġcomput": 608,
    "Ġundeniable": 26509,
    "Ġxii": 11987,
    "tears": 11036,
    "ination": 2917,
    "Ġsymphony": 26531,
    "Ġdisappeared": 5645,
    "frozen": 25139,
    "Ġrepositories": 23361,
    "Ġpassage": 3884,
    "Ġloafer": 18299,
    "scoured": 22993,
    "shape": 10980,
    "hamed": 6305,
    "Ġestimates": 3748,
    "Ġpotency": 14644,
    "desire": 14472,
    "Ġroofs": 16984,
    "Ġwas": 370,
    "lyph": 10851,
    "ascending": 24707,
    "Ġartist": 12908,
    "Ġrejecting": 17050,
    "ire": 492,
    "shuff": 18484,
    "perth": 22174,
    "law": 6115,
    "Ġknowledge": 1445,
    "Ġtong": 4869,
    "catherine": 7127,
    "ot": 346,
    "isis": 12575,
    "Ġ95": 19772,
    "eh": 13708,
    "Ġclimbing": 20068,
    "Ġsatisfaction": 5667,
    "Ġartificial": 792,
    "precaution": 23819,
    "umnal": 18300,
    "ak": 539,
    "icted": 5937,
    "gled": 10698,
    "Ġappet": 9729,
    "Ġuprising": 12798,
    "Ġcoal": 18592,
    "Ġclasses": 4058,
    "Ġstopping": 2751,
    "Ġfruitless": 25605,
    "Ġdenote": 19332,
    "Ġrapidly": 3431,
    "Ġagricultural": 26549,
    "Ġburke": 19250,
    "forget": 11031,
    "Ġheel": 9682,
    "Ġwondrously": 24061,
    "Ġfate": 4753,
    "bres": 11470,
    "Ġfortunes": 12175,
    "Ġsurvey": 13591,
    "Ġwarb": 17787,
    "deeply": 16183,
    "Ġcheek": 8576,
    "Ġtweezers": 26555,
    "Ġcondescending": 24868,
    "Ġgrecian": 26296,
    "ø": 185,
    "Ġblankness": 24611,
    "Ġplague": 11821,
    "Ġsurviving": 24638,
    "Ġpresenting": 18987,
    "Ġjolly": 6858,
    "Ġsavor": 23872,
    "Ġneeds": 6605,
    "stump": 21645,
    "asp": 3337,
    "Ġshower": 11707,
    "Ġexception": 11215,
    "Ġvoluntary": 14797,
    "ispensable": 9094,
    "boone": 23253,
    "Ġcrater": 16437,
    "Ġportent": 12078,
    "Ġwithhold": 18115,
    "anch": 15556,
    "impud": 23758,
    "objection": 19914,
    "ego": 4038,
    "Ġhaze": 18196,
    "Ġdistributing": 22677,
    "Ġprehens": 22229,
    "Ġterrier": 23395,
    "Ġgrant": 11870,
    "Ġgladstone": 23866,
    "authority": 13589,
    "Ġresolutely": 14608,
    "Ġaccompl": 5167,
    "iments": 4945,
    "Ġdesigns": 13012,
    "reputable": 15515,
    "Ġtangled": 13825,
    "box": 5749,
    "Ġobliter": 14320,
    "Ġsurface": 5119,
    "Ġmoustache": 20482,
    "Ġaccomp": 4712,
    "Ġparsee": 6413,
    "Ġpit": 3420,
    "Ġprosecution": 12379,
    "Ġshreds": 12766,
    "Ġhopes": 4235,
    "Ġblanc": 11064,
    "ies": 584,
    "Ġdexterous": 15146,
    "column": 19328,
    "Ġwhiff": 21716,
    "impatiently": 20469,
    "Ġhotel": 8650,
    "Ġhaunts": 18198,
    "esting": 7412,
    "Ġvaliantly": 22801,
    "Ġdependencies": 2317,
    "Ġtom": 15629,
    "mists": 17604,
    "Ġdocument": 15017,
    "Ġappl": 1736,
    "Ġtexel": 25923,
    "Ġdiligently": 11404,
    "Ġbelongs": 8015,
    "quakes": 21848,
    "w": 91,
    "holder": 13280,
    "Ġfancies": 10423,
    "Ġdegradation": 2633,
    "naught": 20993,
    "lot": 3204,
    "Ġconstruct": 23339,
    "avating": 18569,
    "Ġbone": 4694,
    "sory": 17658,
    "anc": 6379,
    "ened": 1386,
    "ootiful": 17371,
    "neat": 22460,
    "Ġwouldn": 6046,
    "Ġameric": 3853,
    "Ġpedro": 14993,
    "Ġunfinished": 19508,
    "Ġmalice": 7152,
    "Ġpacket": 14891,
    "Ġprolong": 6833,
    "Ġreflections": 5946,
    "Ġpursued": 6328,
    "undoubtedly": 13309,
    "ro": 301,
    "Ġpreside": 18365,
    "Ġcharmed": 16761,
    "Ġoversight": 22360,
    "zza": 24166,
    "Ġemotions": 8968,
    "Ġtoe": 13934,
    "isted": 3297,
    "Ġtun": 5999,
    "Ġsend": 4110,
    "asons": 6015,
    "Ġxxii": 24477,
    "Ġchemical": 10409,
    "era": 13845,
    "Ġbored": 16102,
    "Ġ[\"": 19929,
    "Ġuntrodden": 23521,
    "Ġliberally": 16829,
    "Ġsubdued": 11029,
    "O": 51,
    "Ġunderstand": 830,
    "Ġhither": 4758,
    "Ġsupercil": 23453,
    "Ġple": 1469,
    "Ġyoung": 1504,
    "Ġwestmorland": 24389,
    "Ġrights": 10395,
    "cused": 15330,
    "teringly": 21821,
    "Ġimpropri": 14210,
    "conside": 9288,
    "Ġsalisbury": 24060,
    "circumstances": 8047,
    "aware": 16292,
    "Ġshan": 9247,
    "Ġinfallibly": 10039,
    "due": 22408,
    "Ġthick": 3783,
    "Ġhighway": 14344,
    "pshaw": 21027,
    "expedition": 26078,
    "Ġsteadfast": 8678,
    "swinging": 25912,
    "Ġbecome": 3156,
    "Ġprincess": 23222,
    "Ġsurpr": 2552,
    "back": 2017,
    "building": 17307,
    "Ġtre": 2538,
    "lod": 15376,
    "Ġeel": 18001,
    "Ġhairy": 23862,
    "Ġbus": 1902,
    "Ġsinew": 25431,
    "lances": 15381,
    "Ġmitigates": 3052,
    "enough": 6809,
    "Ġbegat": 18863,
    "Ġimitate": 14156,
    "Ġtreatise": 19343,
    "transformer": 25015,
    "Ġfrighted": 24026,
    "ief": 2045,
    "Ġunsettled": 14120,
    "Ġmaintainable": 12931,
    "recol": 10149,
    "Ġmayhap": 18707,
    "inburgh": 15488,
    "Ġlengthen": 15650,
    "oysius": 14369,
    "Ġshoals": 13132,
    "Ġsecretary": 19440,
    "Ġarbitrary": 4735,
    "Ġcalmly": 7734,
    "Ġconsult": 6057,
    "Ġfolk": 10374,
    "Ġdisappearing": 22531,
    "Ġgrotesque": 26329,
    "Ġgeese": 7694,
    "Ġmaddened": 17243,
    "Ġcareer": 11116,
    "Ġphase": 14469,
    "rear": 21231,
    "interview": 19298,
    "Ġwantest": 18789,
    "Ġcontroverted": 23251,
    "hundreds": 25073,
    "advice": 12154,
    "Ġfortun": 4982,
    "also": 7851,
    "Ġestablished": 9068,
    "resemblance": 25933,
    "Ġcatastrophe": 10482,
    "eled": 2361,
    "Ġtorn": 6000,
    "ancho": 4938,
    "Ġsundial": 15080,
    "Ġpeace": 3693,
    "professor": 17248,
    "gunwale": 20662,
    "Ġinclu": 1096,
    "Ġcheerily": 13305,
    "Ġcircumst": 2978,
    "raved": 18012,
    "Ġsouls": 6308,
    "merged": 11192,
    "alization": 731,
    "Ġconse": 21802,
    "Ġadvances": 12992,
    "Ġimple": 1880,
    "Ġbudge": 15162,
    "seized": 14033,
    "Ġinvented": 17036,
    "Ġlucy": 17969,
    "Ġsample": 3175,
    "mountain": 10712,
    "Ġtid": 8107,
    "tacit": 21097,
    "Ġbefriend": 18081,
    "Ġtreas": 7358,
    "geese": 22365,
    "Ġbushy": 16397,
    "Ġknocked": 9498,
    "olog": 1082,
    "Ġflorid": 17134,
    "Ġhastening": 19335,
    "emone": 21923,
    "Ġmight": 965,
    "Ġbloodshed": 23798,
    "national": 20997,
    "Ġinexperience": 26099,
    "poises": 11888,
    "Ġfearful": 6197,
    "Ġridge": 14817,
    "Ĵ": 245,
    "Ġbrilliantly": 25120,
    "Ġmariners": 6068,
    "omed": 13977,
    "Ġdenny": 9000,
    "stun": 18015,
    "Ġtorrid": 25032,
    "bb": 2800,
    "Ġdiscoverers": 26036,
    "concerned": 24583,
    "leaves": 12574,
    "Ġmisery": 3814,
    "Ġtransparent": 9487,
    "shadow": 20311,
    "Ġsymph": 22205,
    "hest": 3367,
    "Ġresp": 2493,
    "Ġgrove": 12143,
    "intu": 22931,
    "irable": 5776,
    "Ġcherry": 16934,
    "P": 52,
    "develop": 13516,
    "severe": 21817,
    "Ġembra": 6579,
    "Ġreverend": 15257,
    "Ġfaces": 6009,
    "Ġtow": 4395,
    "Ġunpitying": 25660,
    "Ġdiana": 21435,
    "Ġb": 281,
    "theirs": 23601,
    "Ġbeen": 627,
    "behind": 6779,
    "Ġvengeance": 5885,
    "Ġreappearance": 21665,
    "Ġregarded": 5762,
    "Ġinfirm": 19020,
    "Ġnoiseless": 10355,
    "Ġseats": 14087,
    "ist": 450,
    "Ġsolitudes": 22885,
    "precedented": 15172,
    "Ġversion": 10628,
    "Ġanonym": 17897,
    "genteel": 19947,
    "Ġpanel": 13370,
    "Ġends": 8238,
    "Ġrich": 2995,
    "Ġmalignity": 10555,
    "Ġfrost": 6096,
    "Ġignoble": 19397,
    "Ġcoefficient": 2886,
    "Ġscenery": 11455,
    "Ġunsupplied": 22037,
    "Ġlandsmen": 11350,
    "Ġvisibly": 22890,
    "lucas": 15149,
    "isite": 15559,
    "uries": 6147,
    "angu": 570,
    "Ġprocured": 8676,
    "Ġdisappointed": 7097,
    "Ġresided": 11808,
    "stad": 7597,
    "Ġisles": 8459,
    "Ġjumped": 7096,
    "Ġinfallible": 15068,
    "Ġcontrol": 13077,
    "plainly": 11089,
    "Ġglancing": 5399,
    "Ġgifted": 17996,
    "oc": 2835,
    "Ġzoned": 22818,
    "front": 12167,
    "Ġsalt": 8017,
    "Ġmorphology": 3013,
    "itching": 21333,
    "Ġintricacies": 15136,
    "Ġconsented": 11294,
    "backpropagation": 11982,
    "Ġtower": 8319,
    "wol": 21121,
    "preserving": 25304,
    "hawks": 24694,
    "tw": 2813,
    "antediluvian": 24345,
    "Ġunthink": 18244,
    "Ġshakes": 10903,
    "ober": 15404,
    "Ġgettest": 23231,
    "Ġmagnanimous": 17409,
    "striking": 13438,
    "sprit": 11381,
    "Ġuniform": 2228,
    "Ġdispleased": 18555,
    "anatory": 21361,
    "ising": 2256,
    "Ġblessings": 24175,
    "Ġactively": 18654,
    "ners": 3270,
    "Ġretrogression": 26580,
    "Ġwonderland": 23423,
    "common": 4131,
    "tart": 21066,
    "erie": 21269,
    "slowly": 9087,
    "Ġprevents": 2559,
    "Ġperiodically": 19493,
    "Ġjack": 4652,
    "Ġlucerne": 23861,
    "Ġmassac": 14734,
    "bar": 7541,
    "warrant": 21136,
    "Ġteaching": 10363,
    "Ġlivid": 14987,
    "Ġenric": 21933,
    "Ġlatest": 16821,
    "Ġtown": 2455,
    "Ġfact": 1727,
    "Ġpharaoh": 26584,
    "Ġasks": 5115,
    "iline": 21719,
    "Ġunlim": 18250,
    "Ġjerked": 19831,
    "rudently": 16710,
    "secut": 7868,
    "Ġinsects": 25646,
    "Ġunseen": 3524,
    "Ġsize": 1216,
    "Ġcomplete": 4381,
    "nostr": 22726,
    "ousings": 18335,
    "ethe": 9675,
    "Ġgrandfather": 19420,
    "Ġpitches": 23898,
    "Ġegg": 8817,
    "remember": 7262,
    "Ġunforeseen": 22047,
    "Ġrepented": 23359,
    "steelkilt": 10045,
    "Ġbronze": 22865,
    "witness": 10033,
    "opotam": 22477,
    "Ġwears": 10239,
    "Ġneat": 6999,
    "relative": 24010,
    "Ġmagistrate": 8234,
    "heavens": 19744,
    "Ġruefully": 17299,
    "Ġvivid": 8058,
    "Ġannounced": 9033,
    "www": 17250,
    "Ġengra": 7875,
    "jacket": 12289,
    "Ġphilist": 16600,
    "Ġrushing": 7403,
    "affa": 23774,
    "hands": 5967,
    "infall": 21187,
    "changing": 10853,
    "inv": 8401,
    "Ġinarticulate": 21498,
    "Ġwhitened": 24867,
    "Ġbeating": 8145,
    "northern": 23666,
    "Ġpremature": 3726,
    "Ġunassuming": 20507,
    "mort": 10709,
    "Ġaf": 782,
    "Ġlivers": 18461,
    "iag": 20915,
    "inging": 5907,
    "ascended": 24706,
    "Ġbackbone": 22649,
    "spite": 16135,
    "corn": 13697,
    "Ġweak": 5098,
    "Ġused": 2059,
    "Ġdisclose": 16151,
    "Ġfelicity": 7260,
    "Ġcampaign": 20660,
    "uvian": 12239,
    "Ġmaj": 3925,
    "adays": 14011,
    "Ġmccauley": 26426,
    "Ġloft": 5642,
    "Ġcurric": 22949,
    "bestow": 16928,
    "Ġindependence": 12101,
    "Ġcertain": 1555,
    "Ġexpl": 487,
    "Ġgrope": 17994,
    "Ġlinked": 15075,
    "Ġsurely": 6307,
    "inuating": 16200,
    "illed": 2626,
    "answers": 22121,
    "Ġassuming": 16692,
    "Ġinclination": 6623,
    "Ġeastern": 11627,
    "Ġposition": 1952,
    "Ġanimation": 11151,
    "Ġinclude": 1873,
    "adru": 15727,
    "Ġtreatment": 12068,
    "goldsmith": 20146,
    "dance": 17518,
    "ints": 3417,
    "Ġmetropol": 11144,
    "Ġcommunicated": 9060,
    "antucket": 2645,
    "Ġ131": 24782,
    "eties": 10836,
    "Ġere": 3686,
    "Ġsweep": 8266,
    "Ġ133": 24783,
    "Ġexpanding": 25238,
    "Ġcertainly": 2497,
    "swing": 15427,
    "express": 4894,
    "_?âĢĿ": 15303,
    "Ġfrown": 10806,
    "forehead": 8515,
    ":--âĢľ": 24549,
    "frightened": 17194,
    "dressed": 10694,
    "meditated": 19067,
    "then": 2052,
    "ineff": 21951,
    "Ġidentifies": 12011,
    "Ġpondering": 17004,
    "myself": 5113,
    "Ġevenings": 18753,
    "Ġlords": 14640,
    "Ġcrucial": 9891,
    "Ġshuddering": 9050,
    "Ġvolat": 24143,
    "Ġshapeless": 24523,
    "Ġroads": 13286,
    "Ġenorm": 5302,
    "Ġcausal": 3410,
    "Ġenlivened": 26207,
    "Ġlurking": 11288,
    "Ġunstructure": 2996,
    "Ġsquint": 22835,
    "Ġdespondency": 16576,
    "street": 6495,
    "Ġskul": 22794,
    "Ġslung": 23168,
    "Ġblaming": 22928,
    "Ġlamb": 8811,
    "Ġforgetfulness": 14605,
    "Ġmitig": 1335,
    "Ġprayed": 16666,
    "Ġcoins": 11816,
    "Ġoverwhelmed": 11402,
    "Ġlament": 7857,
    "iv": 433,
    "Ġcontribut": 12855,
    "Ġsnow": 3707,
    "Ġexhaled": 19681,
    "Ġtread": 9407,
    "Ġthump": 11609,
    "speak": 5504,
    "clair": 18932,
    "placidity": 25988,
    "Ġstagnant": 24654,
    "Ġselling": 21223,
    "grate": 23410,
    "ibly": 2997,
    "Ġbehav": 3540,
    "Ġdecent": 10981,
    "suspicious": 25390,
    "Ġsatiated": 22901,
    "Ġcabinet": 23858,
    "paradise": 20635,
    "astonished": 15031,
    "overing": 6306,
    "Ġquebec": 24132,
    "Ġebony": 18008,
    "00": 1609,
    "Ġsticks": 14929,
[...]
