{
  "metadata": {
    "vocab_size": 26614,
    "algorithm": "BPE",
    "created_at": "2026-07-19 05:20:32",
    "special_tokens": [
      "<PAD>",
      "<SOS>",
      "<EOS>",
      "<UNK>",
      "<MASK>"
    ]
  },
  "vocab": {
    "Ġsinister": 8568,
    "unless": 9234,
    "supp": 4166,
    "club": 26380,
    "iform": 2201,
    "Ġdamning": 19139,
    "Ġsimon": 5172,
    "asting": 12803,
    "Ġgovernesses": 25127,
    "Ġconfirmed": 11139,
    "Ġslaughtered": 26584,
    "fine": 10090,
    "Ġloved": 4600,
    "always": 5708,
    "mission": 5969,
    "ilt": 2970,
    "Ġcupboard": 16883,
    "emotions": 15794,
    "Ġsimul": 1804,
    "Ġphenomenon": 17916,
    "Ġquieted": 23839,
    "sweetly": 25134,
    "Ġcarriage": 3954,
    "casks": 20401,
    "lux": 14226,
    "pure": 17626,
    "Ġunsettled": 14122,
    "Ġassiduous": 26292,
    "Ġdiscussed": 19558,
    "Ġdiffident": 23781,
    "Ġenumerating": 15243,
    "Ġmeasureless": 14710,
    "Ġnetherfield": 3932,
    "Ġdissip": 10992,
    "Ġdisk": 22519,
    "Ġstrangeness": 16707,
    "ond": 1161,
    "nephew": 26397,
    "Ġnewcomer": 26040,
    "Ġun": 422,
    "Ġpert": 22391,
    "planks": 21951,
    "Ġshivering": 10265,
    "undant": 14791,
    "roar": 17952,
    "Ġinventing": 24861,
    "Ġbrig": 11046,
    "Ġelbow": 12920,
    "conceal": 25114,
    "Ġbale": 7838,
    "whiskers": 12309,
    "enet": 10152,
    "Ġpitiless": 19386,
    "_?âĢĿ": 15304,
    "russian": 22180,
    "Ġdedicated": 19235,
    "Ġinvisibly": 24817,
    "Ġcallest": 17832,
    "Ġsystem": 581,
    "Ġwhose": 2006,
    "Ġunworth": 22031,
    "Ġsuggests": 12198,
    "'t": 3143,
    "halfway": 24311,
    "Ġinex": 6528,
    "scream": 11077,
    "useless": 14594,
    "Ġsuggestive": 11297,
    "Ġechoed": 20422,
    "baned": 17495,
    "Ġasser": 6257,
    "ography": 13361,
    "sake": 13782,
    "Ġbeasts": 10617,
    "Ġquestions": 3978,
    "Ġbennett": 16323,
    "living": 7133,
    "Ġforehead": 5261,
    "Ġestimable": 23870,
    "ribbed": 16410,
    "harpoons": 24285,
    "mises": 20977,
    "Ġcompanions": 5865,
    "rious": 11687,
    "path": 10118,
    "ssed": 3736,
    "Ġegot": 18007,
    "Ġinclination": 6623,
    "wickham": 5883,
    "Ġample": 11796,
    "É": 138,
    "Ġwaited": 4911,
    "Ġtex": 15471,
    "Ġspringing": 10518,
    "Ġsaith": 14155,
    "Ġasc": 4765,
    "indispensable": 14209,
    "Ġgall": 4354,
    "Ġperpet": 7644,
    "dare": 12451,
    "inglass": 21301,
    "intolerable": 22935,
    "interval": 7990,
    "inent": 9628,
    "Ġdisputing": 25824,
    "Ġdazz": 11593,
    "leap": 21365,
    "obey": 11509,
    "Ġbowels": 9429,
    "Ġsinews": 20286,
    "Ġcontemplated": 13463,
    "Ġinsens": 8276,
    "Ġarrayed": 25664,
    "confined": 24332,
    "act": 786,
    "Ġmountainous": 16599,
    "Ġreveren": 13196,
    "worthy": 7732,
    "Ġhumble": 8551,
    "Ġmand": 21303,
    "Ġtri": 4813,
    "Ġparametric": 2398,
    "rudently": 16710,
    "Ġeditions": 19120,
    "Ġstalk": 12694,
    "ufact": 10733,
    "Ġmarched": 18871,
    "Ġhast": 3149,
    "twill": 21073,
    "Ġmorrow": 9342,
    "Ġjustified": 11902,
    "Ġprodigiously": 14931,
    "Ġprecise": 7075,
    "Ġsustaining": 25333,
    "isive": 10793,
    "Ġap": 5008,
    "sterns": 23364,
    "Ġjane": 1755,
    "could": 2873,
    "Ġgaiters": 20459,
    "Ġrecall": 3856,
    "Ġslapped": 23168,
    "Ġscrolled": 22267,
    "Ġover": 554,
    "£": 101,
    "harpooneers": 8689,
    "erring": 11057,
    "ac": 697,
    "Ġliberal": 12188,
    "Ġnathan": 21523,
    "Ġsulphur": 24933,
    "long": 2913,
    "ognit": 19225,
    "acid": 10994,
    "Ġours": 4613,
    "Ġwhistling": 19789,
    "convolutional": 4958,
    "elze": 21570,
    "ira": 3963,
    "Ġmagician": 25058,
    "Ġde": 365,
    "Ġdied": 4115,
    "Ġcharacters": 9371,
    "onist": 21249,
    "Ġquit": 5246,
    "itating": 9650,
    "Ġdreamy": 14702,
    "Ġumb": 11645,
    "Ġstockings": 19995,
    "relics": 24013,
    "Ġright": 1503,
    "Ġearned": 19403,
    "ual": 946,
    "Ġapprehen": 16829,
    "Ġpagan": 7117,
    "pur": 7806,
    "featured": 23939,
    "awn": 3835,
    "Ġperdition": 15990,
    "unks": 15772,
    "digger": 24310,
    "Ġshank": 21994,
    "after": 2896,
    "Ġlawyers": 25248,
    "apothecary": 26545,
    "Ġchips": 14181,
    "Ġarrangements": 16514,
    "Ġcalifornian": 25851,
    "iner": 2673,
    "Ġharb": 7370,
    "ocation": 14626,
    "Ġmeanness": 22593,
    "otence": 14022,
    "Ġnatures": 16504,
    "ially": 9245,
    "Ġfails": 13312,
    "Ġcompanies": 14558,
    "Ġslack": 8955,
    "Ġpenetrate": 12267,
    "Ġencl": 16164,
    "Ġsaving": 15885,
    "Ġpolitic": 23617,
    "omit": 13973,
    "conce": 8510,
    "Ġgulp": 20027,
    "Ġcottages": 14727,
    "hob": 20899,
    "Ġunconnected": 18242,
    "Ġdup": 21425,
    "Ġhorn": 6185,
    "Ġliberally": 16830,
    "useful": 16501,
    "Ġregression": 4411,
    "ĠĠĠĠĠĠĠĠĠĠĠĠĠĠĠĠĠĠĠĠĠĠĠ": 18831,
    "Ġslackened": 15125,
    "mates": 5073,
    "Ġpledge": 11600,
    "Ġlatitude": 8328,
    "Ġinsanity": 12044,
    "Ġmutual": 8296,
    "Ġseating": 18201,
    "Ġinstruction": 14343,
    "human": 7088,
    "Åĵ": 10744,
    "Ġferule": 24499,
    "Ġninetieth": 25357,
    "Ġcolumn": 9327,
    "Ġsizes": 1516,
    "Ġsome": 655,
    "Ġmitigates": 3051,
    "Ġupp": 13991,
    "again": 3402,
    "proud": 9903,
    "Ġdocks": 14177,
    "Ġdiabolically": 25513,
    "circuit": 24188,
    "something": 4287,
    "represent": 9637,
    "inordinate": 21193,
    "icil": 17971,
    "Ġaut": 1808,
    "Ġsplashing": 16549,
    "heeded": 13833,
    "Ġleft": 1758,
    "Ġunallied": 22027,
    "Ġflows": 13007,
    "inn": 5363,
    "Ġrevenge": 5452,
    "recognised": 15261,
    "Ġ124": 24469,
    "Ġcost": 2505,
    "Ġbowing": 10475,
    "Ġcommerce": 11015,
    "prosperity": 20734,
    "Ġmincing": 18751,
    "lantic": 6363,
    "Ġchaise": 9076,
    "Ġflour": 8944,
    "oct": 7554,
    "Ġcho": 4548,
    "Ġexagger": 12716,
    "Ġhoisting": 9861,
    "Ġyields": 19655,
    "erate": 7149,
    "olds": 9310,
    "cible": 20805,
    "Ġhurts": 19111,
    "ative": 741,
    "Ġpangs": 15612,
    "Ġexceptionable": 25503,
    "Ġleaf": 15720,
    "Ġcape": 5146,
    "meant": 7920,
    "Ġenslaved": 26314,
    "Ġlick": 21547,
    "Ġperfectly": 3702,
    "Ġmonitors": 3155,
    "Ġbulldog": 23857,
    "Ġgot": 2282,
    "Ġimpossibility": 20646,
    "felix": 10653,
    "Ġgrip": 11626,
    "Ġwhosoever": 21716,
    "se": 358,
    "Ġcomposition": 1690,
    "Ġtrue": 1339,
    "Ġspeaking": 4032,
    "Ġsorting": 3233,
    "Ġevolve": 3003,
    "prison": 14662,
    "to": 714,
    "Ġcoburg": 18600,
    "Ġnominal": 15167,
    "Ġwantest": 18789,
    "kins": 7345,
    "Ġshears": 18319,
    "described": 18894,
    "overspreading": 26139,
    "Ġenlightened": 12743,
    "Ġcab": 2635,
    "zek": 16268,
    "exe": 11787,
    "Ġanatomy": 12318,
    "Ġappet": 9730,
    "sed": 4180,
    "================================": 5671,
    "tedious": 22629,
    "Ġdood": 22239,
    "Ġsplendidly": 25327,
    "nearest": 16023,
    "Ġstopped": 5956,
    "Ġindependence": 12102,
    "Ġcalf": 16263,
    "Ġgerman": 6141,
    "Ġgene": 15669,
    "Ġhumane": 11882,
    "Ġthink": 986,
    "Ġdistorted": 14249,
    "Ġloftiest": 16874,
    "Ġtour": 9147,
    "bble": 17484,
    "ribe": 1226,
    "Ġsegment": 12754,
    "Ġblueprints": 13170,
    "susceptible": 24661,
    "Ġlaunched": 14925,
    "inch": 10755,
    "ims": 7176,
    "arat": 9180,
    "sies": 21053,
    "capt": 3837,
    "Ġscandal": 9081,
    "grinder": 23413,
    "Ġliterary": 25162,
    "Ġcapable": 5054,
    "oqu": 7555,
    "Ġsomewhere": 5384,
    "Ġincapable": 7423,
    "among": 6256,
    "devoted": 20015,
    "Ġdams": 16456,
    "Ġimproved": 7656,
    "brous": 19197,
    "mannered": 22852,
    "Ġstumped": 24942,
    "Ġhers": 7888,
    "Ġpierced": 12279,
    "Ġlecture": 13566,
    "Ġwolfish": 25935,
    "Ġbranch": 8331,
    "Ġadieu": 10050,
    "tap": 17676,
    "opportunity": 12272,
    "omuch": 21637,
    "oss": 10115,
    "Ġtragic": 15254,
    "pop": 17631,
    "Ġfest": 10804,
    "aft": 9583,
    "Ġelij": 8908,
    "testing": 12514,
    "Ġwhirl": 13448,
    "woods": 13418,
    "Ġrelish": 14383,
    "Ġweb": 9239,
    "Ġfrankenstein": 7095,
    "conjectures": 25180,
    "tacit": 21097,
    "dorff": 15236,
    "aff": 3100,
    "ression": 3408,
    "Ġmoustache": 20482,
    "Ġevils": 9019,
    "Ġcomforter": 20505,
    "Ġflapp": 23007,
    "Ġvalues": 2653,
    "hunting": 24385,
    "Ġwisest": 11232,
    "xt": 2081,
    "ernal": 4314,
    "rib": 1944,
    "Ġcheeks": 5957,
    "Ġbuffalo": 11429,
    "countryman": 24639,
    "Ġwar": 5526,
    "Ġtra": 1384,
    "Ġcasc": 15553,
    "contriv": 19292,
    "overcoat": 19050,
    "sub": 4660,
    "Ġinvulnerable": 19146,
    "riumph": 4919,
    "Ġsket": 18728,
    "Ġshunned": 17292,
    "warrior": 24798,
    "Ġlivery": 15997,
    "Ġgate": 6825,
    "Ġacid": 22679,
    "vulgar": 25918,
    "Ġdest": 2238,
    "ullen": 8234,
    "Ġiteratively": 3057,
    "Ġgasp": 7172,
    "noo": 9788,
    "rods": 21535,
    "Ġsnuff": 7991,
    "Ġinterp": 16072,
    "Ġaccess": 9746,
    "Ġdagger": 21435,
    "Ġlouisiana": 25076,
    "Ġtravels": 11925,
    "iage": 17573,
    "riors": 18182,
    "estate": 12818,
    "cruise": 24841,
    "Ġdecreed": 18488,
    "Ġbelie": 14405,
    "Ġdevoutly": 25832,
    "embarrassed": 20595,
    "Ġconversed": 13187,
    "Ġdictated": 25218,
    "Ġparcel": 15198,
    "uger": 21102,
    "ded": 2424,
    "Ġomniscient": 20084,
    "Ġholland": 10365,
    "Ġdestabilizing": 5053,
    "outside": 12801,
    "Ġruggedness": 26268,
    "?--": 15302,
    "ability": 715,
    "Ġpool": 5173,
    "okingly": 22387,
    "Ġfel": 1514,
    "Ġblasphe": 17406,
    "yellow": 9624,
    "Ġpossession": 5589,
    "Ġawful": 6199,
    "Ġyards": 5371,
    "bable": 8718,
    "commander": 16987,
    "Ġmusic": 5268,
    "Ġsat": 1131,
    "society": 9971,
    "Ġuniversally": 11998,
    "Ġperpendicularly": 11374,
    "Ġdis": 694,
    "Ġhonestly": 19970,
    "Ġtalked": 4422,
    "drop": 15336,
    "Ġhap": 18195,
    "Ġlasting": 18790,
    "Ġarist": 14159,
    "blows": 17165,
    "his": 1412,
    "Ġhaz": 12752,
    "Ġungod": 22019,
    "smote": 23907,
    "aston": 7408,
    "Ġfairly": 6325,
    "extremely": 26265,
    "lodged": 25907,
    "Ġgive": 1713,
    "anations": 12573,
    "Ġinfallible": 15069,
    "Ġextracts": 9364,
    "Ġforgiveness": 16656,
    "Ġmainz": 22650,
    "Ġunremitting": 26217,
    "spade": 10339,
    "Ġapple": 14167,
    "eter": 11620,
    "Ġaspired": 25984,
    "Ġubiquitous": 26195,
    "Ġthirteen": 15273,
    "Ġhumiliating": 22879,
    "illings": 14142,
    "ades": 5631,
    "Ġbranches": 6776,
    "Ġferguson": 17469,
    "absent": 21786,
    "Ġprediction": 2173,
    "Ġinsect": 12633,
    "Ġward": 10155,
    "ame": 646,
    "Ġconge": 15743,
    "Ġimproper": 22763,
    "Ġprints": 16329,
    "Ġensures": 3055,
    "jee": 17579,
    "Ġmule": 13861,
    "head": 1435,
    "ements": 11107,
    "Ġperth": 7022,
    "Ġprovocation": 24191,
    "Ġrecorded": 11293,
    "Ġprevious": 2089,
    "Ġpumps": 8426,
    "Ġjoining": 13163,
    "coff": 9108,
    "cuniary": 26379,
    "libr": 22920,
    "Ġunworthy": 11713,
    "Ġhauled": 11692,
    "Ġedged": 23435,
    "Ġintegr": 7968,
    "Ġtrampled": 20327,
    "Ġhospitals": 24923,
    "Ġreassure": 21669,
    "Ġmouth": 3177,
    "Ġbirch": 26174,
    "Ġminutely": 14561,
    "Ġrepublic": 14529,
    "Ġsteelkilt": 5675,
    "Ġmour": 6973,
    "Ġvineyards": 25106,
    "Ġreceived": 2952,
    "tube": 20409,
    "ribut": 817,
    "sculptured": 26046,
    "Ġguardian": 14941,
    "board": 3568,
    "Ġexquisitely": 20201,
    "Ġvoyage": 3054,
    "Ġadjusted": 23457,
    "cork": 20795,
    "gan": 2199,
    "manifested": 20524,
    "Ġfugitives": 25634,
    "Ġwipe": 25764,
    "Ġplains": 14623,
    "Ġvenerable": 9093,
    "rations": 10723,
    "Ġramble": 9312,
    "sn": 7138,
    "Ġrelieved": 7665,
    "aimed": 3957,
    "Ġrelative": 11881,
    "Ġstage": 7389,
    "telling": 14438,
    "orers": 14102,
    "Ġsturgeon": 20590,
    "Ġpaws": 13920,
    "Ġdefy": 11895,
    "Ġcollectively": 19966,
    "Ġravines": 25831,
    "Ġintellectual": 11401,
    "Ġsquare": 2399,
    "chors": 11643,
    "loud": 11500,
    "Ġprefers": 20512,
    "Ġcivility": 4788,
    "Ġfollowing": 4067,
    "Ġreadily": 5253,
    "Ġmechanis": 1224,
    "Ġfacil": 16962,
    "teen": 6370,
    "Ġcretan": 22723,
    "Ġshoved": 23490,
    "rule": 15894,
    "sticking": 21657,
    "Ġratio": 5066,
    "Ġcasks": 7521,
    "Ġindia": 10370,
    "charles": 14698,
    "Ġessential": 7523,
    "garn": 20869,
    "Ġprobable": 5570,
    "Ġhateful": 19712,
    "Ġholmes": 1306,
    "Ġpantheistic": 26335,
    "Ġcontemplative": 19892,
    "Ġbarbar": 6935,
    "Ġfunere": 22256,
    "Ġcommons": 22669,
    "Ġteach": 8552,
    "Ġconsecut": 18111,
    "Ġmol": 12558,
    "fulness": 4312,
    "Ġwars": 17785,
    "Ġoperated": 14547,
    "Ġindisposed": 26287,
    "Ġwashing": 9704,
    "Ġbits": 11587,
    "Ġthen": 665,
    "Ġalterations": 19870,
    "Ġouthouse": 22311,
    "Ġnormal": 1203,
    "yarn": 15456,
    "isc": 6239,
    "ank": 1366,
    "Ġrelated": 3716,
    "shorn": 22439,
    "cats": 17512,
    "Ġvide": 10250,
    "Ġwhaleboats": 18479,
    "opence": 18507,
    "wander": 17709,
    "Ġproceed": 3242,
    "ifferent": 4264,
    "tempted": 26403,
    "bath": 13688,
    "85": 13680,
    "Ġcompan": 2174,
    "stranger": 9882,
    "Ġanticip": 7507,
    "wreck": 21135,
    "party": 8992,
    "Ġascertain": 9705,
    "Ġknown": 1643,
    "Ġwhere": 785,
    "detached": 19673,
    "Ġsaint": 15506,
    "Ġlaud": 17967,
    "joining": 19444,
    "tottenham": 25418,
    "anger": 2172,
    "aneously": 4064,
    "iocr": 20922,
    "Ġscriptures": 26235,
    "Ġrelent": 18773,
    "Ġanonym": 17897,
    "Ġwhar": 7388,
    "Ġartful": 22606,
    "Ġaccounted": 10294,
    "Ġjudge": 5502,
    "Ġneglecting": 25007,
    "tles": 10730,
    "Ġdeified": 18140,
    "orified": 21400,
    "Ġgregarious": 18963,
    "national": 20997,
    "opard": 9290,
    "Ġrepaired": 13106,
    "anct": 21356,
    "Ġgushed": 21604,
    "Ġobservant": 20108,
    "igner": 21699,
    "peter": 24298,
    "Ġdissembling": 26254,
    "Ġassociates": 24712,
    "Ġthrees": 23397,
    "Ġmenaces": 23104,
    "attributed": 23117,
    "greek": 25404,
    "ĠĠĠĠĠĠĠĠĠĠĠĠĠĠĠĠĠĠĠĠĠĠĠĠĠĠĠĠĠĠĠĠĠĠ": 14614,
    "snapping": 24849,
    "Ġdull": 6384,
    "pret": 7212,
    "Ġagreeing": 20017,
    "Ġcoroner": 7510,
    "Ġmechanically": 14397,
    "Ġmakes": 3654,
    "syntax": 5866,
    "Ġforswe": 21771,
    "Ġdiminish": 14745,
    "Ġcruisers": 25863,
    "Ġefficient": 1060,
    "Ġcustom": 5078,
    "Ġspl": 2985,
    "Ġexerting": 21829,
    "Ġangles": 23587,
    "Ġsplin": 8618,
    "Ġentreaty": 10529,
    "Ġdry": 5624,
    "Ġuncivil": 11155,
    "Ġpenet": 6888,
    "Ġmalay": 24391,
    "Ġ84": 19708,
    "pregn": 18498,
    "false": 15353,
    "Ġdetain": 14174,
    "fearfully": 25116,
    "Ġdais": 24372,
    "Ġoaks": 16933,
    "Ġgenial": 12192,
    "ckets": 6843,
    "Ġsuspicion": 6211,
    "Ġpatch": 4184,
    "ufactured": 15180,
    "knell": 24555,
    "anx": 8783,
    "Ġapplying": 13090,
    "wilful": 25086,
    "extrem": 18711,
    "Ġstave": 11650,
    "Ġgreeted": 23211,
    "mediterranean": 16400,
    "irs": 14070,
    "Ġscare": 18390,
    "Ġendeavor": 16544,
    "Ġdestroyer": 13412,
    "Ġspending": 10923,
    "oquence": 11386,
    "enjoyments": 25433,
    "Ġstead": 5650,
    "Ġsaville": 15887,
    "discovered": 8324,
    "Ġruss": 18719,
    "ib": 1237,
    "ivorous": 22084,
    "Ġban": 7156,
    "breathing": 25335,
    "would": 2351,
    "Ġbart": 17857,
    "Ġheedfully": 24521,
    "knew": 9126,
    "Ġhosmer": 6774,
    "armed": 7251,
    "mopol": 15395,
    "Ġconflag": 20334,
    "Ġinert": 15619,
    "Ġflatt": 16246,
    "Ġscept": 15502,
    "Ġbethinking": 25279,
    "Ġpractised": 23312,
    "Ġinherited": 25353,
    "Ġhedges": 19983,
    "Ġarrowy": 25469,
    "Ġquaker": 10971,
    "!--": 10677,
    "punct": 20191,
    "been": 3346,
    "building": 17308,
    "Ġbrought": 2515,
    "Ġgangs": 21606,
    "Ġchis": 11748,
    "Ġsparsity": 4210,
    "feeders": 25235,
    "Ġleading": 7297,
    "screw": 9346,
    "Ġtemptations": 24508,
    "Ġpreventing": 882,
    "Ġjove": 9267,
    "Ġinvestment": 24336,
    "satisfy": 16892,
    "Ġquant": 6424,
    "Ġlowering": 7986,
    "ruding": 9723,
    ",--âĢľ": 19195,
    "teness": 23201,
    "Ġpugn": 21478,
    "Ġforests": 13591,
    "edily": 17943,
    "ece": 17531,
    "Ġintermediate": 18595,
    "Ġdeliciousness": 24127,
    "itiousness": 21332,
    "Ġcoffee": 6760,
    "Ġgoverness": 8601,
    "Ġbewitched": 25975,
    "ed": 293,
    "Ġsupre": 10269,
    "Ġmarred": 23029,
    "irc": 1729,
    "Ġbespe": 19241,
    "Ġjagged": 18407,
    "quaker": 15760,
    "captains": 12125,
    "french": 9119,
    "ham": 1703,
    "Ġhappy": 2466,
    "oky": 8198,
    "Ġ48": 24081,
    "proper": 7471,
    "Ġfol": 1286,
    "Ġslight": 3117,
    "Ġguarded": 9825,
    "Ġpronounced": 8350,
    "aught": 2682,
    "Ġberkshire": 16884,
    "Ġwre": 5077,
    "Ġchair": 3664,
    "length": 7134,
    "Ġstudying": 9845,
    "lydon": 13988,
    "Ġscents": 22265,
    "Ġcompletion": 12145,
    "±": 114,
    "Ġexerted": 15752,
    "sho": 6425,
    "Ġembalmed": 13655,
    "Ġsoliloquized": 17301,
    "Ġwindpipe": 23103,
    "anyone": 16593,
    "Ġforbear": 17121,
    "prow": 15410,
    "Ġconveying": 19713,
    "Ġmight": 964,
    "Ġ9": 5900,
    "Ġmyst": 4055,
    "Ġpennies": 17270,
    "oll": 5456,
    "Ġround": 1370,
    "hopes": 15368,
    "Ġpainfully": 13141,
    "reng": 4008,
    "Ġaccompanying": 11304,
    "induce": 22371,
    "Ġterr": 3273,
    "Ġcountry": 2532,
    "Ġautomatically": 3777,
    "Ġeighty": 19474,
    "Ġeaves": 15673,
    "Ġlascar": 9199,
    "orily": 15570,
    "Ġrosy": 18456,
    "Ġthyself": 6602,
    "code": 15328,
    "Ġprinciples": 10010,
    "Ġhelpless": 8301,
    "whaler": 20308,
    "Ġbefriend": 18081,
    "Ġplayers": 12036,
    "Ġpreserving": 19795,
    "pans": 13769,
    "Ġgurg": 15670,
    "gish": 20872,
    "Ġfailure": 13313,
    "ensive": 6279,
    "Ġsprang": 5064,
    "Ġangular": 19205,
    "Ġalco": 21779,
    "perceived": 8858,
    "ientiously": 21938,
    "deli": 15343,
    "embedding": 20703,
    "Ġperplexity": 2757,
    "lances": 15382,
    "Ġgid": 13961,
    "Ġsewing": 21958,
    "Ġbroadened": 23983,
    "Ġlaughed": 5059,
    "worth": 8626,
    "Ġcigar": 9544,
    "..": 5783,
    "Ġcynical": 25770,
    "breckinridge": 24075,
    "Ġexclaim": 11221,
    "Ġrobert": 10969,
    "ĠĠĠĠĠĠĠĠĠĠĠĠĠĠĠĠĠĠĠĠĠĠĠĠĠĠĠĠĠĠĠĠĠ": 12040,
    "Ġevents": 4474,
    "Ġhemis": 21681,
    "Ġexpectations": 13142,
    "intu": 22930,
    "pents": 11512,
    "rained": 5162,
    "cousins": 20116,
    "prec": 3199,
    "Ġwa": 2063,
    "Ġevaporate": 26332,
    "Ġknighthood": 25297,
    "wling": 11544,
    "Ġmagnificent": 9841,
    "Ġranged": 10257,
    "cano": 18839,
    "least": 8784,
    "Ġlived": 3997,
    "Ġconsum": 9798,
    "Ġchuckled": 10647,
    "Ġcave": 10785,
    "Ġbony": 12584,
    "Ġmum": 13857,
    "neural": 3065,
    "uous": 4149,
    "esley": 17902,
    "crazy": 24691,
    "ique": 8742,
    "Ġleaning": 5228,
    "arding": 22154,
    "verity": 14000,
    "ote": 4597,
    "mechan": 11855,
    "ena": 11567,
    "clinging": 20821,
    "churning": 21694,
    "beyond": 8882,
    "fair": 10092,
    "clergy": 18933,
    "ms": 542,
    "Ġgenerous": 6273,
    "Ġcontemporary": 16010,
    "Ġpatterns": 1215,
    "Ġmisanthropic": 26560,
    "backed": 9865,
    "lane": 10706,
    "Ġparlour": 12319,
    "Ġconfines": 23300,
    "Ġadam": 2127,
    "hall": 8084,
    "Ġmouthful": 16573,
    "recklessly": 25269,
    "erer": 8731,
    "Ġsignificant": 8633,
    "shot": 2076,
    "pad": 13767,
    "Ġcomprised": 14271,
    "Ġslit": 13054,
    "iature": 8741,
    "Ġsuperhuman": 23452,
    "Ġwhite": 1533,
    "Ġslung": 23166,
    "akers": 9738,
    "crowded": 20189,
    "rapt": 13972,
    "pyramid": 21029,
    "Ġsund": 8247,
    "endeav": 7150,
    "pun": 9617,
    "Ġmumbling": 11573,
    "marks": 7346,
    "ript": 4157,
    "Ġrestore": 9378,
    "Ġdears": 18139,
    "macy": 18804,
    "Ġoverjoyed": 17457,
    "Ġsharp": 2416,
    "Ġsoothed": 10028,
    "invol": 12527,
    "surely": 10569,
    "Ġsorry": 4212,
    "tete": 10732,
    "parsee": 14510,
    "inquir": 9535,
    "mindful": 19598,
    "Ġbenefited": 19396,
    "accompanied": 12420,
    "lat": 9604,
    "Ġtalents": 15044,
    "inging": 5906,
    "Ġdistance": 3485,
    "Ġoat": 21321,
    "unavoidable": 17389,
    "chased": 18041,
    "Ġbenevolent": 7772,
    "pless": 6260,
    "Ġstud": 1601,
    "except": 5383,
    "Ġdischarged": 15219,
    "Ġnaval": 16899,
    "Ġworms": 25216,
    "ering": 1266,
    "Ġupdating": 2692,
    "Ġmended": 21312,
    "Ġobtruded": 20721,
    "Ġseparation": 11248,
    "Ġtelescopes": 25690,
    "ester": 11597,
    "rah": 8136,
    "Ġinst": 912,
    "objections": 19915,
    "Ġexchanged": 10878,
    "Ġeffectually": 16165,
    "Ġexasperated": 11412,
    "Ġuncovered": 23430,
    "Ġcass": 13878,
    "arthy": 4822,
    "Ġwarmed": 12022,
    "Ġecho": 12665,
    "regarded": 12006,
    "Ġcannibal": 7773,
    "Ġturkey": 19217,
    "Ġane": 9181,
    "apside": 22957,
    "Ġdevilish": 11228,
    "hill": 15361,
    "gro": 10094,
    "Ġcum": 21340,
    "Ġapartments": 19613,
    "imson": 12686,
    "Ġgravesend": 15215,
    "Ġreduces": 2343,
    "Ġastonishment": 4794,
    "Ġpant": 10817,
    "Ġmoisture": 12357,
    "Ġevol": 2815,
    "beneath": 9534,
    "Ġczar": 12571,
    "Ġfoiled": 23243,
    "continuing": 24479,
    "looks": 12016,
    "Ġthread": 14538,
    "Ġshuttle": 12124,
    "spirits": 8054,
    "Ġluxuriant": 20393,
    "Ġnote": 4265,
    "Ġregularly": 7657,
    "Ġupward": 9720,
    "edy": 2860,
    "anke": 15558,
    "lod": 15377,
    "presbyterian": 26368,
    "Ġwool": 19431,
    "Ġhas": 825,
    "Ġshapeless": 24524,
    "Ġtand": 21159,
    "anxiety": 25155,
    "Ġbowditch": 19322,
    "Ġfobbing": 26441,
    "Ġindians": 14408,
    "Ġfa": 4819,
    "neglected": 25668,
    "Ġcellar": 8058,
    "Ġapologize": 15127,
    "Ġbegan": 2019,
    "stately": 18021,
    "Ġpianoforte": 15272,
    "Ġfishery": 4179,
    "bree": 15313,
    "Ġsensitivity": 3069,
    "Ġstriking": 6088,
    "Ġprejudices": 13468,
    "Ġlaurel": 20653,
    "sciss": 18857,
    "Ġhither": 4759,
    "cond": 1668,
    "Ġredness": 19311,
    "Ġnormalizing": 1819,
    "gentle": 5356,
    "Ġamelia": 26250,
    "Ġcap": 2361,
    "Ġsagacity": 16974,
    "Ġattend": 5035,
    "iety": 2819,
    "harmony": 25750,
    "bewil": 22496,
    "inarticulate": 21194,
    "Ġharpo": 1941,
    "ested": 3481,
    "Ġbowsman": 11255,
    "Ġpurchased": 12258,
    "Ġlet": 1113,
    "Ġface": 1722,
    "ined": 1261,
    "Ġsweatings": 25710,
    "Ġsatir": 18793,
    "Ġgreat": 894,
    "strangely": 17276,
    "promised": 12249,
    "proceeded": 25190,
    "Ġradiance": 13369,
    "Ġunearthly": 9036,
    "Ġglue": 15671,
    "Ġimpotently": 22386,
    "room": 2179,
    "imens": 1745,
    "Ġ105": 24413,
    "children": 9055,
    "Ġhigh": 934,
    "Ġconve": 5455,
    "signed": 21060,
    "tribute": 21087,
    "Ġvillains": 14749,
    "Ġbronze": 22865,
    "Ġlips": 3998,
    "crop": 20797,
    "Ġhumped": 19768,
    "ele": 9114,
    "puff": 21021,
    "eration": 10772,
    "Ġvector": 1971,
    "Ġlift": 8810,
    "Ġelsewhere": 7712,
    "when": 1589,
    "Ĕ": 213,
    "hardly": 6491,
    "Ġver": 3397,
    "Ġsuited": 12783,
    "Ġstarboard": 7604,
    "Ġsundial": 15081,
    "its": 1149,
    "Ġcaval": 25769,
    "card": 11475,
    "Ġdiscipl": 22782,
    "smeer": 26147,
    "imental": 16532,
    "Ġintolerable": 8481,
    "Ġdevout": 14326,
    "Ġrank": 6258,
    "resses": 16152,
    "Ġbec": 1349,
    "Ġconcrete": 20635,
    "Ġalternative": 19985,
    "Ġclouded": 13289,
    "herself": 4890,
    "Ġvenge": 5420,
    "Ġbrutality": 26276,
    "warm": 8101,
    "Ġcherub": 23282,
    "dum": 17518,
    "Ġresuming": 12890,
    "causing": 25518,
    "bearded": 18524,
    "Ġberyls": 25775,
    "Ġsain": 17750,
    "Ġdusting": 24596,
    "Ġintroduction": 8970,
    "Ġimage": 3406,
    "15": 12428,
    "Ġtranspired": 16784,
    "Ġdu": 4585,
    "Ġsum": 2701,
    "boom": 18999,
    "Ġcomprehens": 8319,
    "Ġbarely": 16936,
    "Ġsummary": 19402,
    "Ġoverlooking": 22344,
    "Ġnovel": 6695,
    "Ġquiver": 16001,
    "laborers": 23913,
    "Ġdil": 6383,
    "Ġpacket": 14892,
    "Ġscraggy": 24579,
    "Ġlessen": 14530,
    "Ġris": 4886,
    "Ġdeaths": 14536,
    "Ġaugmentation": 20114,
    "Ġingolstadt": 8332,
    "Ġhonors": 23600,
    "83": 13679,
    "Ġleaving": 3906,
    "involuntarily": 20413,
    "velling": 14762,
    "youngest": 19742,
    "Ġtr": 557,
    "moved": 9783,
    "cavity": 26126,
    "Ġanchor": 7368,
    "ive": 426,
    "Ġearlier": 9086,
    "Ġcurds": 22966,
    "Ġunreason": 15840,
    "Ġprinces": 23220,
    "relative": 24011,
    "Ġmathematics": 12071,
    "Ġslu": 13835,
    "ensation": 22544,
    "consternation": 16912,
    "eler": 1569,
    "Ġsuspended": 5665,
    "histor": 13490,
    "Ġtarred": 23608,
    "venge": 4659,
    "supplemental": 25874,
    "Ġdexter": 9700,
    "seemed": 4306,
    "listen": 13513,
    "Ġbuilt": 8300,
    "header": 11931,
    "Ġvectors": 1769,
    "Ġnoiselessly": 22861,
    "Ġhide": 4590,
    "Ġclaw": 22354,
    "Ġtinkling": 25212,
    "earnestly": 17312,
    "Ġseized": 4833,
    "Ġsale": 14154,
    "Ġexhibit": 14955,
    "arpening": 21441,
    "education": 20300,
    "Ġultimate": 12347,
    "Ġallowance": 14388,
    "leaves": 12575,
    "mush": 20976,
    "Ġrequired": 7223,
    "iff": 3907,
    "Ġex": 361,
    "Ġsteals": 23081,
    "Ġloosed": 22109,
    "moonlight": 25375,
    "gi": 17551,
    "Ġinjurious": 24270,
    "Ġcasualty": 20340,
    "Ġmoody": 8200,
    "Ġcrying": 10786,
    "ben": 4926,
    "Ġforesaw": 19127,
    "Ġreminds": 13430,
    "mblance": 7323,
    "Ġcleans": 18947,
    "Ġalone": 2566,
    "Ġ97": 19773,
    "Ġwithstand": 10225,
    "scoured": 22992,
    "affording": 23775,
    "xim": 1093,
    "Ġfat": 3463,
    "k": 79,
    "turkish": 24533,
    "Ġactivation": 918,
    "muttered": 13758,
    "Ġreefed": 20301,
    "pens": 17632,
    "Ġmember": 8585,
    "Ġintens": 7003,
    "etuous": 21580,
    "Ġcategor": 4144,
    "half": 4931,
    "Ġpreceding": 7528,
    "ff": 462,
    "Ġreached": 4028,
    "aurs": 20768,
    "Ġjumbled": 22294,
    "Ġserene": 8166,
    "Ġoutfits": 22318,
    "Ġcomfortably": 16615,
    "Ġfrog": 23918,
    "Ġmagical": 23096,
    "Ġinvincible": 23480,
    "Ġcrumbs": 20639,
    "consent": 18503,
    "feren": 768,
    "Ġassuming": 16693,
    "rary": 4576,
    "Ġgraphs": 25463,
    "agonies": 21906,
    "beg": 22485,
    "met": 6652,
    "Ġ104": 24412,
    "july": 20473,
    "cen": 17502,
    "Ġbay": 9168,
    "Ġconsternation": 9858,
    "Ġquench": 22416,
    "Ġsocieties": 20181,
    "Ġmaterial": 5178,
    "expose": 23660,
    "Ġspiral": 14584,
    "Ġbra": 3254,
    "Ġtingling": 15091,
    "Ġwhelmed": 25999,
    "Ġthrown": 4640,
    "tee": 16171,
    "Ġteaches": 18797,
    "lu": 598,
    "Ġlooked": 1800,
    "Ġprender": 22232,
    "Ġrev": 6988,
    "cture": 15662,
    "Ġscru": 8189,
    "Ġdemonstrate": 24994,
    "Ġcopy": 10163,
    "Ġjavel": 17084,
    "Ġrenew": 6145,
    "Ġutmost": 5496,
    "Ġgale": 5822,
    "Ġwaters": 3599,
    "Ġprogress": 5023,
    "Ġimmensity": 25329,
    "thesize": 24906,
    "Ġspaniards": 25555,
    "Ġepicurean": 20554,
    "Ġpiercing": 13493,
    "Ġeigen": 4881,
    "Ġhandful": 9781,
    "Ġprestige": 22233,
    "dread": 8728,
    "Ġfrighten": 13277,
    "christ": 10210,
    "Ġproclaim": 18130,
    "Ġdiscern": 7925,
    "Ġunlocked": 14119,
    "Ġvalid": 1735,
    "Ġessex": 20125,
    "Ġbear": 3660,
    "crowning": 25748,
    "Ġcocks": 18598,
    "Ġhonest": 7287,
    "attempts": 17190,
    "Ġformal": 2943,
    "_âĢĶâĢĻâĢĿ": 25741,
    "Ġmaggie": 26291,
    "worshipping": 16610,
    "Ġproportions": 16467,
    "Ġpushing": 10819,
    "rer": 3625,
    "Ġlaboratory": 13611,
    "Ġcott": 3710,
    "Ġcolossal": 11459,
    "therefore": 5953,
    "Ġwants": 5742,
    "ado": 11657,
    "Ġcarpet": 9355,
    "Ġplacing": 8900,
    "Ġdischar": 11806,
    "Ġstr": 757,
    "54": 15298,
    "Ġriddle": 14819,
    "Î": 143,
    "punishment": 15144,
    "tree": 11533,
    "where": 2092,
    "assumed": 22305,
    "Ġcastaways": 19426,
    "men": 1484,
    "Ġeveryday": 22770,
    "Ġgrego": 18961,
    "rue": 1128,
    "Ġquoin": 22415,
    "culiarity": 11141,
    "delirious": 19504,
    "Ġmission": 13003,
    "Ġashen": 21896,
    "poster": 11056,
    "Ġstalked": 20427,
    "Ġpractises": 23313,
    "dilig": 17282,
    "doubt": 6782,
    "Ġurged": 6781,
    "int": 1199,
    "Ġpratt": 23217,
    "Ġbade": 9171,
    "Ġeffeminacy": 20717,
    "Ġweighted": 2090,
    "ries": 3355,
    "Ġadopted": 15177,
    "Ġiron": 3234,
    "arp": 2026,
    "Ġoverladen": 22349,
    "hump": 12475,
    "Ġeasiness": 23535,
    "https": 11682,
    "rep": 5525,
    "Ġfleeting": 19326,
    "Ġ6": 5141,
    "«": 109,
    "Ġsleepy": 8267,
    "Ġgre": 1580,
    "slave": 16895,
    "Ġarcher": 22176,
    "Ġpanted": 21470,
    "erated": 21269,
    "Ġmayhap": 18710,
    "Ġmed": 3993,
    "Ġthomson": 26454,
    "sprinkling": 24912,
    "Ġplant": 8899,
    "Ġneighbour": 3809,
    "frankenstein": 11391,
    "union": 15767,
    "fluke": 25204,
    "Ġdardanelles": 26443,
    "Ġdarkened": 16431,
    "Ġspecimens": 18858,
    "Ġhar": 5814,
    "Ġmundane": 26429,
    "furthermore": 20002,
    "ops": 5247,
    "gloom": 17139,
    "com": 987,
    "Ġentries": 22736,
    "Ġeloped": 22648,
    "Ġzeal": 9097,
    "aract": 17894,
    "yards": 9623,
    "games": 20879,
    "Ġtobacc": 7852,
    "valued": 2854,
    "adie": 18088,
    "attend": 11101,
    "Ġordinarily": 20648,
    "µ": 118,
    "Ġinstigated": 18702,
    "Ġexile": 12714,
    "Ġsuperstitious": 13519,
    "called": 6292,
    "Ġtraced": 10383,
    "Ġhurst": 5582,
    "Ġclusters": 25232,
    "Ġmoran": 9341,
    "Ġlucifers": 16588,
    "Ġisolation": 17150,
    "Ġlivid": 14988,
    "ably": 1845,
    "Ġtraits": 23072,
    "ashed": 3786,
    "feeder": 12359,
    "trade": 19635,
    "pardonable": 17217,
    "Ġperpetually": 17070,
    "Ġcombat": 16182,
    "afric": 19178,
    "Ġdefinite": 11069,
    "shone": 22435,
    "hatches": 19927,
    "Ġenvironment": 3984,
    "christian": 17232,
    "Ġsnarled": 25716,
    "Ġmemory": 2278,
    "Ġpervading": 20612,
    "ascribed": 24708,
    "aching": 5831,
    "Ġcritically": 23444,
    "Ġdivinest": 25722,
    "destro": 13308,
    "Ġlegendary": 20536,
    "ition": 656,
    "ohnson": 16324,
    "Ġobligations": 12089,
    "Ġcope": 17830,
    "Ġtwee": 22672,
    "Ġinvestigated": 25386,
    "Ġdemo": 10880,
    "Ġunabated": 15850,
    "raid": 3280,
    "Ġsordid": 26422,
    "breeding": 16675,
    "keeper": 5597,
    "Ġbutler": 18270,
    "soul": 9140,
    "entered": 8814,
    "Ġnook": 15926,
    "Ġoriginated": 24123,
    "Ġblanc": 11065,
    "Ġnotes": 7189,
    "Ġpet": 4587,
    "aking": 977,
    "Ġtep": 21160,
    "ropol": 10952,
    "circumamb": 26087,
    "danish": 20832,
    "oforte": 14285,
    "Ġbon": 8785,
    "onden": 13843,
    "Ġarmitage": 23580,
    "Ġevent": 2951,
    "Ġbreakers": 12053,
    "Ġleaping": 8340,
    "iveness": 2468,
    "Ġpom": 21450,
    "Ġvulgarity": 25363,
    "Ġtongue": 6347,
    "Ġ1778": 25730,
    "ucket": 2484,
    "Ġcontrols": 1731,
    "racted": 4776,
    "bitterly": 20336,
    "Ġfamous": 5255,
    "Ġunlimited": 26222,
    "Ġvibration": 17099,
    "batch": 1981,
    "shutters": 20310,
    "Ġorphan": 12381,
    "Ġomens": 21326,
    "Ġintimate": 6549,
    "Ġclut": 7641,
    "Ġdispersed": 16597,
    "Ġroar": 9751,
    "sample": 12504,
    "liber": 18813,
    "Ġproduces": 2093,
    "cont": 2921,
    "Ġexplore": 15906,
    "Ġinvolve": 11049,
    "Ġices": 21153,
    "Ġdetermine": 3244,
    "Ġnumerical": 4247,
    "penn": 18826,
    "ç": 168,
    "Ġhabitation": 14802,
    "Ġcommencement": 12236,
    "third": 8167,
    "Ġprotruded": 19468,
    "Ġapplied": 6186,
    "Ġharpoon": 3619,
    "pall": 17628,
    "ancholy": 5070,
    "Ġdistinctly": 7311,
    "asc": 6386,
    "Ġconvivial": 16547,
    "Ġentertain": 6053,
    "Ġcommunic": 5751,
    "Ġappo": 8498,
    "hercules": 22201,
    "ibid": 18840,
    "rollable": 13944,
    "gunwale": 20662,
    "coast": 10449,
    "fortunate": 4792,
    "Ġpersonally": 8598,
    "quiet": 6154,
    "Ġrestlessness": 23288,
    "Ġimmeas": 18330,
    "Ġrequesting": 24632,
    "Ġtawny": 20480,
    "Ġactive": 7914,
    "semicirc": 26491,
    "Ġdescribe": 2767,
    "Ġselfish": 7272,
    "Ġprevention": 16089,
    "Ġmortals": 9915,
    "Ġappearing": 9840,
    "eray": 21265,
    "obliged": 20630,
    "Ġfinger": 5273,
    "Ġforge": 8456,
    "attachment": 13049,
    "Ġfertile": 20581,
    "Ġ16": 7926,
    "Ġwintry": 17433,
    "Ġpartial": 2129,
    "Ġconfed": 13095,
    "Ġcalamity": 17348,
    "Ġprocedures": 9411,
    "Ġutter": 3980,
    "Ġval": 970,
    "Ġpreliminary": 10056,
    "Ġdefines": 1741,
    "Ġdiscl": 9796,
    "Ġglim": 9343,
    "consp": 18504,
    "Ġarchitectures": 2911,
    "Ġev": 4828,
    "Ġsacr": 7194,
    "Ġcalling": 5662,
    "Ġassistants": 9451,
    "Ġsteadily": 8051,
    "Ġtiger": 11554,
    "Ġshows": 8482,
    "rels": 6664,
    "swells": 26148,
    "merely": 16132,
    "Ġrightly": 13062,
    "Ġsickle": 24245,
    "Ġhardship": 18913,
    "wic": 21119,
    "Ġupset": 22150,
    "Ġpains": 5964,
    "possession": 12219,
    "acon": 10681,
    "Ġloves": 10915,
    "Ġheadway": 18791,
    "Ġheedful": 19739,
    "Ġconvolutional": 2161,
    "Ġmorcar": 13012,
    "getic": 12963,
    "asburgh": 15644,
    "Ġoverhear": 15965,
    "Ġelizabeth": 1129,
    "serious": 14447,
    "softened": 20408,
    "Ġveiled": 16199,
    "pagans": 25525,
    "draw": 23896,
    "ssian": 3403,
    "Ġconsecrated": 26488,
    "Ġunconcerned": 20508,
    "Ġassid": 18944,
    "lips": 13749,
    "Ġdella": 21437,
    "sentence": 2940,
    "amp": 2606,
    "Ġmamma": 10047,
    "total": 17250,
    "Ġinhuman": 13928,
    "shad": 10980,
    "Ġsticks": 14930,
    "Ġvial": 10248,
    "Ġphrase": 11187,
    "blooded": 20021,
    "osing": 3691,
    "icle": 10834,
    "Ġquies": 18464,
    "Ġrussia": 26267,
    "Ġscornful": 24996,
    "Ġservices": 11217,
    "nour": 20987,
    "icest": 21561,
    "Ġmad": 2429,
    "Ġvinegar": 20098,
    "Ġinstructive": 19284,
    "hooked": 23713,
    "lipped": 16215,
    "Ġamazed": 14888,
    "Ġtorch": 25030,
    "Ġconvention": 25546,
    "Ġmend": 8405,
    "nurs": 20998,
    "spee": 9316,
    "Ġunmindful": 22061,
    "Õ": 150,
    "Ġthroat": 7770,
    "Ġliter": 8811,
    "conspicuous": 26247,
    "Ġcaved": 21351,
    "fancy": 7337,
    "Ġfondly": 19615,
    "Ġtre": 2536,
    "Ġnarrowed": 24355,
    "high": 6649,
    "Ġfabulous": 25948,
    "Ġthistle": 21913,
    "Ġparameters": 993,
    "Ġcottagers": 6761,
    "Ġcommence": 6167,
    "grant": 10427,
    "olence": 10230,
    "Ġalways": 1699,
    "Ġsadness": 13285,
    "shine": 9285,
    "Ġinferior": 8365,
    "proportion": 16177,
    "arius": 14248,
    "Ġam": 660,
    "Ġjapan": 7639,
    "Ġinstantaneously": 23656,
    "Ġha": 400,
    "Ġkinds": 14503,
    "Ġdeceit": 13480,
    "Ġbrink": 18768,
    "Ġlanyard": 26461,
    "rians": 21922,
    "18": 20750,
    "Ġgilt": 21603,
    "idually": 21766,
    "ieces": 4772,
    "Ġaustrian": 24300,
    "pling": 8474,
    "pherd": 13643,
    "arter": 17893,
    "Ġrapidly": 3302,
    "written": 7994,
    "Ġopal": 23624,
    "Ġscent": 10284,
    "Ġdraw": 3673,
    "Ġhyster": 16873,
    "destroyed": 15259,
    "Ġyour": 633,
    "Ġadvert": 10571,
    "orable": 8119,
    "ĠâĢľâĢĶ": 9734,
    "establish": 17392,
    "Ġour": 1009,
    "ascertain": 21540,
    "Ġprehensile": 26534,
    "Ġcalifornia": 20528,
    "iation": 7343,
    "Ġdiver": 2530,
    "Ġimputed": 12805,
    "Ġtraveller": 8048,
    "Ġsuperl": 16445,
    "Ġlisten": 4674,
    "Ġdistributed": 18661,
    "Ġunsophisticated": 25992,
    "Ġdat": 492,
    "Ġwednesday": 9024,
    "Ġunwinding": 22055,
    "known": 3572,
    "shake": 22437,
    "Ġsurplus": 26303,
    "Ġspecimen": 13020,
    "gris": 8259,
    "Ġrotation": 25474,
    "Ġheath": 15699,
    "Ġprematurely": 24004,
    "wealth": 22685,
    "Ġexceptions": 13228,
    "pleasure": 5977,
    "Ġly": 2272,
    "Ġbrotherly": 16526,
    "gallant": 7780,
    "Ġconstructed": 9384,
    "Ġgrasping": 12163,
    "par": 1850,
    "accidents": 19210,
    "Ġinvisible": 7327,
    "Ġspilled": 10924,
    "ċ": 204,
    "ory": 1079,
    "itatingly": 25277,
    "Ġadventures": 7747,
    "Ġwarden": 17224,
    "Ġsubt": 11866,
    "Ġunforeseen": 22048,
    "efficient": 2871,
    "adieu": 26200,
    "sur": 4524,
    "rents": 5308,
    "Ġoffice": 4965,
    "Ġcontained": 7678,
    "barbaric": 26358,
    "Ġcurses": 13010,
    "Ġruin": 6055,
    "Ġrad": 4962,
    "Ġiter": 2953,
    "Ġencomp": 12960,
    "onze": 21254,
    "Ġnegro": 6447,
    "Ġansw": 2205,
    "beries": 22714,
    "Ġug": 8140,
    "Ď": 207,
    "Ġaries": 21196,
    "âĢĿ;": 11668,
    "Ġswiftly": 5670,
    "irium": 8161,
    "onness": 21253,
    "inkers": 22611,
    "Ġoozy": 21325,
    "Ġregularizer": 2339,
    "Ġhostile": 19938,
    "Ġpetersburgh": 24228,
    "Ġwhom": 1828,
    "deal": 12796,
    "Ġprot": 3848,
    "Ġattested": 22619,
    "Ġloo": 22107,
    "Ġsemicircular": 26068,
    "turner": 19540,
    "cain": 15325,
    "Ġlandlady": 10422,
    "gazed": 15360,
    "Ġcommonplaces": 16287,
    "erect": 20847,
    "ble": 541,
    "Ġmaw": 15537,
    "Ġbashful": 20418,
    "Ġconsequ": 6254,
    "Ġdrawers": 12103,
    "Ġfedallah": 6108,
    "Ġnavigation": 9992,
    "Ġrol": 3557,
    "itates": 13868,
    "Ġcyn": 13885,
    "business": 5610,
    "Ġprocess": 558,
    "Ġdiary": 24739,
    "Ġtorment": 8673,
    "volut": 1555,
    "ogrand": 26261,
    "Ġrachel": 11845,
    "Ġhempen": 13549,
    "orrah": 17875,
    "Ġcutting": 4983,
    "Ġfields": 2142,
    "Ġstowing": 18071,
    "gress": 2215,
    "Ġai": 3125,
    "Ġunf": 4093,
    "Ġcompany": 3722,
    "Ġwithout": 1121,
    "Ġcursed": 6726,
    "departed": 24794,
    "barbs": 20236,
    "sof": 17657,
    "Ġdaily": 5986,
    "Ġseclusion": 18208,
    "Ġinsurmountable": 16529,
    "curious": 10482,
    "Ġpulpit": 7470,
    "intelligence": 5882,
    "opatra": 22474,
    "Ġcomput": 602,
    "restraint": 18980,
    "tum": 11531,
    "Ġunnaturally": 24870,
    "inations": 7567,
    "orse": 5806,
    "Z": 62,
    "circumstances": 8046,
    "Ġtimber": 13348,
    ".âĢĻ": 1719,
    "relatively": 24012,
    "forget": 11031,
    "Ġkid": 9724,
    "Ġimpregn": 26022,
    "Ġneatly": 17016,
    "ropout": 1320,
    "icular": 2020,
    "Ġreminiscences": 26269,
    "Ġross": 2766,
    "Ġapproxim": 1219,
    "Ġbrilliantly": 25120,
    "Ġwidely": 8032,
    "Ġ35": 24077,
    "Ġshouldn": 14324,
    "Ġchain": 1842,
    "Ġthrob": 21515,
    "Ġnation": 12644,
    "Ġscepticism": 25927,
    "Ġvoracity": 25986,
    "Ġpr": 1596,
    "Ġgarb": 21600,
    "nostril": 26559,
    "ounts": 4652,
    "Ġanalyzing": 18806,
    "Ġslappin": 18942,
    "rix": 1571,
    "uten": 11621,
    "ĠĠĠĠĠĠĠĠĠĠĠĠĠĠĠĠĠĠĠĠĠĠĠĠĠĠĠĠĠĠĠĠĠĠĠĠĠĠ": 16524,
    "Ġdirectly": 2105,
    "Ġunscrew": 22035,
    "Ġdiminished": 16665,
    "Ġtorpor": 25031,
    "razor": 21634,
    "ersman": 11699,
    "Ġaffright": 9331,
    "appre": 14370,
    "Ġpaved": 17912,
    "Ġcrystals": 20226,
    "Ġmourn": 8703,
    "caus": 11476,
    "har": 20889,
    "rowsers": 8694,
    "======================================================================": 10067,
    "different": 6501,
    "whispering": 26103,
    "Ġsuffer": 4722,
    "Ġtension": 13823,
    "Ġnoticed": 5549,
    "âĢĻâĢĶ": 12733,
    "Ġwife": 2586,
    "Ġassisting": 13256,
    "oth": 1185,
    "Ġ103": 24411,
    "electricity": 26385,
    "get": 1023,
    "Ġbroad": 3642,
    "Ġdollars": 11455,
    "scotch": 25850,
    "ught": 2752,
    "Ġdecoyed": 18490,
    "Ġemploys": 19429,
    "coronet": 16863,
    "collinses": 19922,
    "Ġdedu": 5584,
    "Ġomit": 17815,
    "Ġintrusted": 21989,
    "Ġbased": 3341,
    "Ġbelow": 4066,
    "Ġgreatly": 5849,
    "Ġrenewed": 9537,
    "Ġcusack": 26433,
    "Ġplumber": 16082,
    "Ġubiqu": 18046,
    "Ġunhappiness": 14117,
    "Ġgradient": 450,
    "owders": 18050,
    "mr": 1897,
    "cod": 12441,
    "Ġgild": 15666,
    "Ġinvis": 6902,
    "Ġfastening": 16355,
    "Ġserpent": 6737,
    "dan": 17515,
    "writing": 7720,
    "Ġcleansed": 26293,
    "Ġdeferred": 18825,
    "_).âĢĶ": 8681,
    "Ġseeing": 2885,
    "Ġmerest": 14029,
    "itarian": 21335,
    "while": 2936,
    "Ġgreek": 10630,
    "Ġchanges": 2288,
    "Ġsubstantiated": 25875,
    "oment": 921,
    "sis": 1914,
    "Ġfo": 1651,
    "Ġcommentaries": 20159,
    "Ġburial": 16520,
    "Ġinde": 7371,
    "Ġillustrate": 25065,
    "Ġsixpence": 19316,
    "Ġadult": 18291,
    "Ġlead": 3523,
    "Ġfrenchman": 11283,
    "pondicherry": 26400,
    "dun": 17516,
    "found": 4216,
    "Ġpadd": 9669,
    "Ġpew": 9314,
    "Ġrhine": 12354,
    "eneva": 5118,
    "Ġcomplete": 4384,
    "year": 11095,
    "centred": 25017,
    "remaining": 20219,
    "Ġlakeman": 6986,
    "Ġtail": 3088,
    "only": 3309,
    "barrel": 17060,
    "Ġpruning": 18970,
    "watery": 19825,
    "Ġinaudible": 21496,
    "Ġheart": 1592,
    "Ġslop": 23159,
    "declared": 15117,
    "Ġalph": 9694,
    "Ġreposing": 23357,
    "Ġauto": 23296,
    "rippling": 24713,
    "inex": 14095,
    "Ġhumor": 11051,
    "Ġweights": 896,
    "Ġconsideration": 5191,
    "Ġbabel": 24426,
    "uary": 11537,
    "Ġregained": 18590,
    "twig": 23697,
    "arches": 10816,
    "considerably": 13444,
    "Ġrav": 14304,
    "Ġpike": 12620,
    "Ġcreating": 2997,
    "Ġmingled": 12375,
    "):": 11461,
    "confidential": 25876,
    "Ġbackgammon": 22643,
    "neighbours": 24881,
    "Ġbour": 4876,
    "urged": 18047,
    ")âĢĶâĢľ": 20742,
    "Ġsynthe": 26007,
    "lowering": 16030,
    "Ġbrilliancy": 20105,
    "Ġgeorge": 3750,
    "cap": 8372,
    "however": 4375,
    "ions": 449,
    "Ġreside": 22536,
    "Ġbaker": 4696,
    "Ü": 157,
    "Ġo": 275,
    "Ġcaptain": 1600,
    "Ġtul": 21158,
    "matic": 4619,
    "Ġevolved": 9890,
    "dragging": 16609,
    "Ġbohemia": 10649,
    "Ġfocus": 4238,
    "ity": 416,
    "entiating": 3440,
    "mortals": 25409,
    "Ġpretended": 19313,
    "Ġactor": 16047,
    "puzzling": 26143,
    "ods": 8835,
    "sides": 12505,
    "chester": 23804,
    "Ġclang": 15966,
    "Ġcircumn": 11982,
    "Ġpoverty": 9304,
    "Ġdirectors": 18921,
    "Ġ1950": 11359,
    "changed": 7175,
    "bes": 6641,
    "Ġassuring": 13061,
    "expressing": 16801,
    "ighb": 10423,
    "Ġconcealing": 23900,
    "Ġlie": 4408,
    "ggy": 13112,
    "Ġprecaution": 11197,
    "Ġdismally": 20213,
    "Ġconfessed": 8008,
    "Ġlink": 8129,
    "occupation": 15056,
    "Ġborne": 6351,
    "Ġmatters": 4973,
    "inted": 2651,
    "Ġeaten": 14844,
    "Ġevident": 6611,
    "Ġoutlines": 15955,
    "Ġobstin": 14952,
    "Ġmarriage": 3186,
    "Ġitalian": 12408,
    "Ġexchanging": 18131,
    "nikin": 23224,
    "proof": 16421,
    "Ġgiddy": 20495,
    "Ġsimpler": 2046,
    "ascended": 24706,
    "Ġtempestuous": 20069,
    "Ġsinks": 19548,
    "(_": 7540,
    "Ġcame": 1299,
    "Ġpoliteness": 8273,
    "Ġunnecessary": 8851,
    "Ġpractice": 2726,
    "northern": 23663,
    "Ġreview": 18030,
    "ills": 1629,
    "Ġah": 5075,
    "iron": 3552,
    "Ġwhile": 606,
    "easily": 17534,
    "Ġmace": 21308,
    "Ġcripp": 9653,
    "Ġtruth": 3321,
    "see": 3047,
    "Ġins": 2781,
    "Ġunit": 1846,
    "Ġency": 21930,
    "itu": 1229,
    "Ġarrange": 3118,
    "onical": 21252,
    "Ġrushes": 20506,
    "iet": 1772,
    "Ġanaly": 1154,
    "Ġscaffold": 18394,
    "Ġhem": 8445,
    "visited": 13346,
    "deprived": 19897,
    "Ġcondition": 6764,
    "sutherland": 21061,
    "Ġliveliness": 13642,
    "Ġcetace": 14987,
    "Ġpopularly": 12239,
    "genteel": 19947,
    "stories": 18023,
    "div": 8075,
    "conveyed": 20519,
    "raved": 18012,
    "hee": 10760,
    "arranging": 19317,
    "cru": 7126,
    "ferent": 4197,
    "Ġunderstanding": 1784,
    "Ġterminated": 23509,
    "Ġjollity": 25566,
    "Ġengagement": 5397,
    "rivial": 9433,
    "Ġsch": 13834,
    "per": 481,
    "Ġhed": 7387,
    "heavens": 19744,
    "lashed": 20953,
    "Ġfreezing": 23881,
    "monograph": 23525,
    "legs": 13181,
    "Ġdecipher": 22452,
    "ublic": 11227,
    "Ġfootpath": 19337,
    "vicinity": 20478,
    "Ġswiss": 18881,
    "Ġtou": 15465,
    "Ġloom": 7628,
    "Ġdefection": 22939,
    "Ġsurprised": 3831,
    "ghan": 19453,
    "hopeless": 16917,
    "pton": 15789,
    "respective": 19845,
    "Ġreconc": 9682,
    "Ġdark": 2113,
    "iza": 6255,
    "Ġadapt": 996,
    "Ġthough": 992,
    "troubled": 17112,
    "Ý": 158,
    "exc": 5169,
    "Ġcombination": 22846,
    "mut": 17595,
    "Ġtrifle": 10601,
    "hr": 20887,
    "Ġquestion": 2778,
    "Ġoccupation": 9930,
    "ik": 17571,
    "Ġfiltering": 23923,
    "Ġcat": 2122,
    "illes": 12691,
    "Ġtesting": 23205,
    "Ġgone": 2107,
    "rusion": 11323,
    "Ġperched": 10299,
    "althily": 19357,
    "Ġimagined": 8606,
    "Ġvint": 18194,
    "Ġpoison": 7219,
    "Ġinevitably": 17230,
    "cursed": 23841,
    "yes": 985,
    "Ġexposing": 11832,
    "Ġwarn": 5695,
    "Ġpasseng": 12968,
    "crack": 19839,
    "Ġlaure": 16909,
    "ited": 1749,
    "pounds": 21024,
    "Ġ117": 19696,
    "Ġnur": 5710,
    "Ġrephrased": 26477,
    "inked": 12910,
    "dered": 2474,
    "Ġsomehow": 4841,
    "Ġsauntering": 18327,
    "Ġnot": 413,
    "anning": 10164,
    "Ġexpiration": 22622,
    "Ġproportion": 7281,
    "Ġ54": 24322,
    "isition": 11585,
    "Ġderives": 16306,
    "elephant": 12349,
    "overlooked": 23320,
    "tland": 21072,
    "speechless": 25395,
    "ĠÂ£": 5006,
    "Ġtearless": 24786,
    "Ġviciously": 24404,
    "Ġsketches": 26270,
    "Ġdefile": 18823,
    "sounding": 24796,
    "terrific": 25040,
    "Ġscant": 22263,
    "Ġsangu": 15503,
    "fug": 17543,
    "iteous": 14265,
    "Ġsees": 8842,
    "Ġpupp": 10820,
    "Ġsteepest": 3087,
    "----âĢĿ": 13305,
    "Ġunerring": 15845,
    "oded": 11669,
    "Ġflood": 7715,
    "Ġabsurdly": 19959,
    "Ġchowder": 10280,
    "chambers": 25454,
    "Ġintim": 6838,
    "f": 74,
    "swiss": 24255,
    "Ġcounsel": 13614,
    "adequately": 20318,
    "Ġnoble": 3442,
    "Ġintegrated": 13530,
    "Ġfly": 3871,
    "Ġdangerously": 23934,
    "Ġgap": 21596,
    "Ġmonstrous": 7789,
    "Ġdrank": 16534,
    "vid": 916,
    "ensils": 22547,
    "Ġoy": 15543,
    "Ġretire": 10381,
    "Ġentity": 10341,
    "Ġwhitewashed": 14468,
    "led": 580,
    "Ġwillingness": 24910,
    "Ġthese": 821,
    "Ġsnapped": 9896,
    "ency": 3870,
    "Ġignominy": 15084,
    ")(": 2982,
    "decease": 25557,
    "Ġher": 427,
    "Ġdiscoverers": 26036,
    "Ġmexic": 14030,
    "resp": 13838,
    "Ġdepressions": 25798,
    "iles": 2862,
    "Ġapothecary": 13658,
    "Ġmatrimonial": 25489,
    "aur": 15307,
    "yl": 7818,
    "Ġresigned": 9767,
    "Ġcensured": 25094,
    "ished": 1426,
    "Ġnewcom": 16221,
    "Ġreusable": 13556,
    "Ġsleet": 8975,
    "Ġezekiel": 26192,
    "Ġopenness": 18955,
    "figure": 13554,
    "Ġdraught": 9843,
    "baked": 20778,
    "Ġtempor": 2366,
    "Ġglimmered": 20170,
    "Ġunfrequent": 24110,
    "Ġalexander": 17423,
    "Ġinboard": 17932,
    "Ġfleshy": 24614,
    "in": 262,
    "Ġskirt": 18729,
    "Ġshield": 21996,
    "Ġprogrammed": 11058,
    "Ġbankrupt": 16796,
    "Ġforegoing": 23448,
    "ulled": 14055,
    "ĠĠĠĠĠĠĠĠĠĠĠĠĠĠĠĠĠĠĠĠĠĠĠĠĠĠĠĠĠĠĠĠĠĠĠĠĠĠĠĠĠĠĠĠĠĠ": 9952,
    "Ġcurt": 18842,
    "Ġpulling": 5862,
    "morrow": 4573,
    "walk": 5523,
    "Ġable": 3080,
    "Ġenticing": 22737,
    "yra": 8102,
    "Ġdiffused": 12066,
    "Ġfinal": 5400,
    "Ġdeem": 18136,
    "ser": 1425,
    "guard": 12126,
    "avail": 18568,
    "gener": 3123,
    "oise": 15402,
    "desolate": 25703,
    "advent": 10220,
    "Ġpopulation": 16827,
    "ior": 2038,
    "Ġrecently": 11861,
    "pushed": 21022,
    "Ġpetty": 19594,
    "Ġdetest": 8500,
    "Ġtw": 840,
    "ā": 194,
    "Ġfrightful": 7735,
    "concealed": 25115,
    "sleet": 20148,
    "Ġmizen": 17258,
    "Ġobvious": 4964,
    "osoever": 17342,
    "iced": 3902,
    "Ġneural": 619,
    "Ġbumps": 21390,
    "give": 4689,
    "icient": 792,
    "americ": 8155,
    "recurring": 24194,
    "Ġheidelburgh": 11642,
    "matical": 13128,
    "----âĢĻ": 24097,
    "Ġcrews": 8990,
    "Ġdowncast": 18652,
    "enough": 6809,
    "erred": 6376,
    "Ġconverts": 2806,
    "Ġearthy": 23710,
    "pemberley": 9620,
    "Ġdetained": 18375,
    "Ġpersuasions": 16631,
    "roc": 9674,
    "Ġrural": 21964,
    "usal": 7638,
    "bad": 12434,
    "hem": 6663,
    "grie": 12468,
    "Ġnumbers": 2888,
    "Ġmoist": 9284,
    "Ġbesides": 3514,
    "amb": 5723,
    "abling": 1077,
    "Ġmild": 4151,
    "hoisted": 19281,
    "Ġtougher": 21175,
    "Ġputting": 5326,
    "Ġwrung": 14469,
    "Ġhyena": 24519,
    "Ġtimid": 6345,
    "claps": 23148,
    "Ġadmiration": 5328,
    "Ġcobweb": 22585,
    "squee": 15429,
    "Ġ26": 10470,
    "Ġrack": 9311,
    "Ġcramped": 23529,
    "purpose": 10043,
    "etieth": 21581,
    "ui": 9144,
    "Ġunprincipled": 20707,
    "arers": 12127,
    "algorithm": 3542,
    "Ġdifferent": 1427,
    "Ġventing": 19492,
    "R": 54,
    "Ġhan": 15615,
    "Ġservice": 6471,
    "elopement": 23172,
    "iscuit": 10598,
    "Ġdipped": 15592,
    "Ġpower": 1318,
    "Ġprying": 15606,
    "agrad": 2748,
    "feit": 16034,
    "ll": 1141,
    "Ġwages": 13853,
    "Ġparallel": 1414,
    "Ġcolumns": 14375,
    "Ġinferences": 17934,
    "gledy": 25403,
    "Ġarise": 7895,
    "Ġbawling": 25945,
    "Ġmatted": 22909,
    "owards": 4595,
    "Ġcanall": 10928,
    "Ġfastidious": 14492,
    "Ġcou": 5286,
    "sleepy": 24729,
    "Ġcens": 8412,
    "Ġveil": 7933,
    "Ġbonnet": 10655,
    "Ġcherish": 10589,
    "Ġmould": 6519,
    "unsuitable": 21890,
    "smoke": 17222,
    "Ġprejudiced": 24809,
    "Ġbeget": 9225,
    "Ġmississ": 18837,
    "Ġdepth": 2440,
    "odings": 4401,
    "Ġhollow": 5648,
    "otent": 8831,
    "Ġsinusoidal": 4801,
    "Ġstim": 18063,
    "Ġcampa": 17173,
    "Ġtrance": 12841,
    "Ġtough": 13814,
    "Ġsuperiority": 14617,
    "mast": 3605,
    "tan": 4742,
    "besides": 8695,
    "Ġappearance": 3701,
    "ould": 428,
    "Ġrecovery": 11441,
    "offices": 19058,
    "Ġdoes": 943,
    "overs": 17621,
    "Ġgretna": 26468,
    "Ġunsc": 22009,
    "Ġclouds": 5775,
    "Ġpapers": 4026,
    "Ġslumbers": 18941,
    "eminently": 25105,
    "Ġdollar": 25283,
    "Ġpatient": 6893,
    "Ġbutchers": 18272,
    "Ġevening": 2654,
    "Ġgrop": 12661,
    "Ġcrucial": 9891,
    "Ġtempted": 9056,
    "coarse": 16486,
    "along": 6012,
    "Ġarchitecture": 1111,
    ".;": 20743,
    "Ġinterpreted": 1712,
    "Ġincom": 9768,
    "Ġcorps": 13030,
    "resolved": 9639,
    "Ġecstasy": 11629,
    "Ġjealous": 9468,
    "Ġsnapping": 19300,
    "Ġpurse": 12009,
    "Ġscener": 10949,
    "amet": 585,
    "tubes": 25211,
    "Ġrake": 18645,
    "Ġrecoil": 18693,
    "eridge": 15524,
    "Ġwad": 13850,
    "Ġladies": 3191,
    "Ġshallow": 14394,
    ",*": 17471,
    "idean": 14266,
    "Ġpod": 15601,
    "Ġoverflowing": 17237,
    "iance": 5279,
    "Ġunavailing": 26215,
    "Ġhawaiian": 25366,
    "Ġaddresses": 3770,
    "Ġsignifies": 19202,
    "iop": 20918,
    "ahit": 9380,
    "receiving": 12540,
    "Ġjug": 12832,
    "Ġorganically": 3014,
    "Ġethiop": 26155,
    "Ġsp": 457,
    "assment": 9739,
    "Ġimmensely": 13594,
    "Ġmar": 1309,
    "Ġdiverged": 23593,
    "Ġanyways": 22517,
    "Ġcoils": 9303,
    "emed": 3382,
    "Ġidentity": 2524,
    "Ġinjunction": 19616,
    "Ġacceptable": 16744,
    "Ġon": 350,
    "Ġsakes": 18326,
    "Ġplaymate": 23636,
    "thin": 14096,
    "Ġanchored": 17439,
    "Ġupbraiding": 26226,
    "Ġdissipate": 13632,
    "ters": 1570,
    "nineteenth": 26138,
    "Ġbraided": 16580,
    "Ġwilful": 10534,
    "Ġimpropri": 14214,
    "idol": 21763,
    "Ġelephants": 9863,
    "affect": 13211,
    "?_": 8069,
    "deepest": 22833,
    "Ġvapors": 19907,
    "Ġconcisely": 19043,
    "Ġonly": 789,
    "ara": 12603,
    "Ġyork": 11664,
    "Ġinspect": 5963,
    "Ġinco": 14263,
    "Ġregulations": 18591,
    "Ġdemocracy": 25458,
    "lee": 11584,
    "Ġtyros": 26101,
    "Ġbennet": 1573,
    "remarked": 12286,
    "rowing": 7930,
    "counters": 25397,
    "Ġacquaint": 13042,
    "ython": 1033,
    "Ġexpensive": 12915,
    "Ġinscriptions": 20007,
    "insanity": 23065,
    "Ġhang": 9187,
    "nurtured": 25524,
    "girls": 12317,
    "Ġsuav": 22078,
    "Ġdesperate": 7776,
    "spike": 16136,
    "Ġnewcomers": 26041,
    "Ġenemy": 5605,
    "Ġawhile": 13829,
    "?âĢĻâĢĿ": 23641,
    "Ġunconsciously": 10004,
    "Ġdouble": 4940,
    "Ġclaps": 22353,
    "ullied": 23102,
    "contains": 16028,
    "Ġpiteous": 17917,
    "down": 3471,
    "avo": 8519,
    "discovery": 12015,
    "Ġallusion": 7625,
    "rugg": 15896,
    "Ġtypes": 8936,
    "°": 113,
    "jabez": 20932,
    "Ġexact": 2542,
    "Ġthumb": 6981,
    "mency": 18925,
    "Ġclubbed": 26546,
    "instrument": 15237,
    "Ġsavor": 23873,
    "shut": 10979,
    "Ġscrew": 8863,
    "strange": 6086,
    "Ġhelter": 24023,
    "ise": 707,
    "can": 1235,
    "Ġexpatiate": 18625,
    "Ġglobe": 6076,
    "ready": 2359,
    "iscreet": 20681,
    "husband": 8041,
    "Ġgifts": 21609,
    "ste": 3588,
    "Ġwhel": 15864,
    "Ġcommissioned": 19894,
    "Ġtinged": 20081,
    "Ġtorn": 5999,
    "Ġbelieve": 2147,
    "Ġhinge": 25541,
    "ri": 389,
    "Ġshoot": 11161,
    "Ġcunning": 6238,
    "rist": 10122,
    "ask": 856,
    "Ġarmchair": 8270,
    "Ġshyness": 20305,
    "Ġstubborn": 10414,
    "many": 5250,
    "%": 9,
    "Ġundoubted": 19513,
    "Ġtalking": 3858,
    "Ġofficers": 4427,
    "eag": 20841,
    "Ġlucases": 9009,
    "Ġ135": 24785,
    "Ġirr": 10421,
    "Ġtyro": 16994,
    "falgar": 26130,
    "Ġvineyarder": 25606,
    "Ġsenseless": 12076,
    "Ġvestige": 20061,
    "nowledge": 10289,
    "Ġinduced": 8670,
    "achalot": 15861,
    "within": 6730,
    "Ġnervousness": 23555,
    "Ġinscrutable": 10672,
    "Ġstarry": 16923,
    "Ġdetermines": 2367,
    "Ġlook": 879,
    "Ġwas": 370,
    "nourished": 26398,
    "government": 25406,
    "uning": 1310,
    "itute": 9651,
    "âĢĶ(": 15937,
    "Ġpoll": 12028,
    "Ġvulgar": 13603,
    "Â·": 21148,
    "Ġchoose": 5981,
    "Ġmartin": 25436,
    "Ġfettered": 24568,
    "instances": 13318,
    "Ġrosings": 4608,
    "Ġfetched": 24567,
    "Ġem": 1922,
    "Ġliterature": 17148,
    "preced": 10308,
    "Ġswashing": 23053,
    "dwell": 15340,
    "Ġstray": 18069,
    "Ġacquirement": 19254,
    "Ġprogressive": 5024,
    "shortened": 24748,
    "tears": 11037,
    "resides": 23667,
    "Ġobserved": 3541,
    "Ġeuroc": 14958,
    "smug": 23905,
    "Ġbub": 8117,
    "Ġdented": 17891,
    "Ġexactly": 2769,
    "water": 4868,
    "Ġsuns": 23271,
    "rap": 21625,
    "Ġsentinel": 26065,
    "Ġconstru": 19069,
    "Ġjoy": 3182,
    "Ġwhittling": 20698,
    "Ġmast": 2901,
    "Ġconciliating": 19046,
    "Ġposterity": 17401,
    "Ġjer": 6266,
    "Ġdevoting": 22718,
    "Ġheeded": 13402,
    "Ġpleadings": 25852,
    "clad": 14458,
    "Ġfeasts": 25369,
    "Ġouter": 6859,
    "Ġguiltless": 16940,
    "much": 3707,
    "Ġlest": 6395,
    "critters": 14783,
    "elev": 12456,
    "beloved": 19459,
    "Ġwheels": 10912,
    "similar": 13452,
    "Ġberm": 21381,
    "Ġalluded": 7884,
    "due": 22407,
    "Ġalluding": 18236,
    "Ġpronounce": 16968,
    "Ġpeering": 8534,
    "Ġtruce": 24116,
    "quietly": 10592,
    "Ġincidentally": 16954,
    "cor": 5520,
    "Ġexecute": 7505,
    "Ġoutrages": 18415,
    "Ġflushed": 13024,
    "rically": 15416,
    "Ġbreath": 4791,
    "kered": 18274,
    "Ġimmortality": 26325,
    "Ġclass": 797,
    "Ġpalaces": 24091,
    "âĢĶâĢľ": 2972,
    "hullo": 17570,
    "Ġendangered": 16302,
    "phew": 6368,
    "Ġjura": 14192,
    "rosings": 15641,
    "Ġpatroness": 13509,
    "tawn": 21079,
    "Ġsight": 2112,
    "billiard": 25334,
    "Ġnever": 1021,
    "sence": 3308,
    "Ġexquisite": 12380,
    "waters": 11333,
    "laughing": 15178,
    "Ġvillanous": 24052,
    "Ġchambers": 16799,
    "accept": 8889,
    "astonished": 15032,
    "road": 6677,
    "stee": 21648,
    "aisance": 15073,
    "Ġbarricade": 14660,
    "Ġtempest": 8212,
    "shipmates": 11926,
    "Ġastonished": 7087,
    "aciously": 12893,
    "unk": 4540,
    "inary": 3274,
    "Ġderision": 16307,
    "Ġprovide": 7749,
    "Ġabstra": 22278,
    "oc": 2835,
    "Ġintrepidity": 25550,
    "âĢĶ.": 11755,
    "icirc": 15653,
    "Ġdomin": 10464,
    "Ġdespondency": 16576,
    "diligence": 26110,
    "sided": 17664,
    "Ġidentify": 12012,
    "Ġinsol": 10180,
    "thoughtfully": 24042,
    "Ġceaseless": 13487,
    "anel": 21355,
    "Ġconcentrated": 15082,
    "intended": 11066,
    "Ġauthors": 10416,
    "coun": 10686,
    "matlock": 23470,
    "Ġmorbid": 16236,
    "invariably": 26416,
    "Ġdock": 15928,
    "Ġcaravan": 26290,
    "duodecimo": 16000,
    "Ġready": 3401,
    "Ġenlarged": 25985,
    "usation": 18401,
    "Ġrefuge": 8539,
    "Ġbott": 3147,
    "Ġcondescended": 19954,
    "Ġslip": 8954,
    "coil": 23558,
    "Ġretrogression": 26581,
    "carriage": 9945,
    "Ġobviously": 16810,
    "Ġsustain": 10016,
    "Ġcounting": 13093,
    "Ġthirt": 13938,
    "Ġabominably": 20067,
    ",": 16,
    "beside": 19876,
    "australian": 20560,
    "league": 17844,
    "Ġabundant": 17154,
    "Ġexists": 14040,
    "Ġimages": 1597,
    "Ġreceiving": 4882,
    "Ġwondrously": 24063,
    "Ġdissu": 18550,
    "Ġquito": 24408,
    "Ġ221": 25068,
    "situ": 9621,
    "Ġ166": 25004,
    "Ġattachment": 6049,
    "Ġconjecture": 9531,
    "Ġflooring": 23622,
    "ally": 531,
    "Ġland": 1995,
    "Ġvengeance": 5884,
    "Ġstrokes": 16769,
    "tomahawk": 25915,
    "Ġfolio": 11916,
    "Ġfiver": 22762,
    "Ġprob": 972,
    "Ġmonument": 16239,
    "Ġrespond": 11176,
    "Ġserenity": 10027,
    "Ġdesign": 4137,
    "Ġcanst": 8857,
    "hors": 9598,
    "safie": 20347,
    "which": 1709,
    "Ġsne": 6372,
    "bbs": 23687,
    "Ġunt": 2295,
    "hur": 6648,
    "20": 20752,
    "afflicted": 23776,
    "quar": 7615,
    "Ġrud": 8477,
    "gall": 6359,
    "Ġlamentations": 17076,
    "Ġuninjured": 22051,
    "burning": 25078,
    "Ġcall": 2074,
    "Ġacquitted": 18898,
    "Ġdubious": 17382,
    "sympathy": 20541,
    "Ġlocket": 22110,
    "quitted": 21854,
    "Ġincant": 18571,
    "assuming": 22307,
    "tro": 15432,
    "ogue": 9784,
    "od": 354,
    "hinting": 17569,
    "hies": 17560,
    "Ġmut": 3586,
    "Ð": 145,
    "Ġplanks": 5563,
    "cowardly": 25749,
    "Ġpuffing": 12252,
    "iration": 4541,
    "Ġreally": 2158,
    "Ġtilted": 20411,
    "mbly": 9793,
    "Ġbumpkin": 20199,
    "ratches": 20123,
    "osal": 11757,
    "Ġpe": 851,
    "Ġamuse": 5939,
    "Ġannouncing": 16754,
    "Ġsisterly": 16300,
    "forbearance": 22785,
    "stre": 5451,
    "Ġstacked": 21740,
    "Ġduchess": 4799,
    "Ġclaimed": 14204,
    "assist": 11766,
    "waiter": 24586,
    "Ġsagittarius": 24732,
    "Ġdividing": 12109,
    "Ġbarrel": 23789,
    "Ġthirds": 16708,
    "breat": 10077,
    "Ġrelationship": 2315,
    "Ġattach": 14286,
    "Ġhelplessness": 25071,
    "Ġpunctually": 17138,
    "oura": 1059,
    "ours": 3430,
    "vision": 5620,
    "Ġpencils": 23192,
    "stepfather": 19189,
    "Ġhalting": 16273,
    "Ġimprobable": 9794,
    "Ġwind": 1432,
    "Ġsacrifice": 9555,
    "Ġjelly": 22297,
    "ental": 7168,
    "Ġaltar": 9228,
    "Ġmainmast": 9778,
    "Ġlizard": 12651,
    "braces": 24658,
    "shooting": 16965,
    "jonah": 11496,
    "Ġswims": 12117,
    "Ġdumplings": 15189,
    "quarrel": 20013,
    "beer": 22486,
    "Ġgrief": 4621,
    "Ġimpart": 11778,
    "Ġmeasure": 3597,
    "Ġrug": 16155,
    "rifice": 12501,
    "Ġbreakfast": 3981,
    "bast": 10076,
    "Ġfeels": 6882,
    "Ġmiseries": 10346,
    "Ġinnermost": 12158,
    "Ġadvocate": 13675,
    "Ġtower": 8318,
    "romeda": 17262,
    "sicilian": 21062,
    "Ġspades": 12793,
    "Ġenraptured": 26500,
    "appearance": 5333,
    "Ġeloquence": 11840,
    "sing": 5138,
    "lucases": 20209,
    "whal": 10940,
    "Ġfurnace": 19438,
    "Ġforwarded": 19041,
    "Ġmotion": 4567,
    "aches": 6569,
    "text": 1973,
    "Ġupheld": 22149,
    "Ġpretensions": 16557,
    "crow": 9590,
    "Ġdwell": 5812,
    "toss": 22565,
    "Ġunmannerly": 26517,
    "Ġmonkey": 8226,
    "Ġresolutely": 14610,
    "Ġguardians": 14942,
    "vour": 17699,
    "already": 6980,
    "anyth": 5438,
    "Ġropes": 10748,
    "Ġungodly": 26513,
    "whenever": 11879,
    "Ġgods": 6454,
    "Ġmasks": 23323,
    "iple": 4806,
    "orate": 10800,
    "Ġfrancis": 26063,
    "jep": 20925,
    "Ġconsuming": 22791,
    "Ġvacant": 9494,
    "Ġstreams": 12190,
    "Ġdownst": 3562,
    "enge": 21279,
    "unting": 21871,
    "Ġgateway": 24802,
    "Ġnut": 12643,
    "Ġperturbed": 20438,
    "â": 163,
    "completed": 19992,
    "Ġraging": 14305,
    "âĢĶâĢľ_": 13203,
    "Ġbravest": 23837,
    "does": 6194,
    "Ġonto": 14027,
    "Ġenraged": 10244,
    "Ġgives": 5018,
    "Ġparmacetti": 20603,
    "atha": 6572,
    "nowled": 5470,
    "zes": 11548,
    "Ġreputed": 18035,
    "Ġwasting": 12725,
    "eager": 12457,
    "Ġvindication": 25364,
    "Ġgamy": 17998,
    "Ġrestrain": 8964,
    "Ġmusical": 23891,
    "Ġfashionable": 19543,
    "wig": 17704,
    "agery": 21904,
    "Ġseeking": 7035,
    "advancing": 14835,
    "Ġain": 6969,
    "begone": 12877,
    "Ġhyperborean": 26339,
    "Ġscale": 1543,
    "Ġpagoda": 19787,
    "Ġmisunderstood": 18705,
    "otic": 15742,
    "Ġtotally": 9470,
    "Ġimmeasurable": 26229,
    "protection": 19919,
    "Ġworth": 4418,
    "Ġunnear": 22023,
    "riminately": 16482,
    "ights": 8475,
    "son": 2329,
    "Ġsabbee": 17255,
    "Ġhatch": 7847,
    "Ġburg": 23650,
    "Ġlimits": 3455,
    "Ġnought": 21519,
    "Ġarchitect": 969,
    "Ġragged": 11844,
    "floor": 14935,
    "Ġvestibule": 13536,
    "Ġsteeple": 19286,
    "Ġmonogra": 22979,
    "Ġguards": 16265,
    "Ġriggers": 24156,
    "hills": 13735,
    "Ġtelling": 5747,
    "rushing": 10017,
    "knives": 14912,
    "Ġfict": 21403,
    "nib": 5214,
    "|": 96,
    "sky": 12508,
    "Ġwheelbarrow": 17204,
    "using": 5468,
    "Ġcherry": 16935,
    "Ġpart": 858,
    "Ġlistened": 4471,
    "Ġrepresentations": 1872,
    "Ġwat": 1285,
    "educ": 10828,
    "Ġfight": 5366,
    "Ġintruding": 21988,
    "complain": 14356,
    "shoulders": 16583,
    "Ġhiss": 15785,
    "Ġchannel": 26012,
    "yed": 3272,
    "ster": 1951,
    "oker": 10963,
    "Ġtwo": 1044,
    "Ġunwarrantable": 26353,
    "Ġshell": 11734,
    "Ġseventeen": 26210,
    "pertaining": 22185,
    "Ġconceit": 7295,
    "irwin": 8468,
    "\",": 10678,
    "ubbub": 23242,
    "Ġdoubting": 13098,
    "Ġexchange": 15751,
    "Ġimportant": 1014,
    "Ġwhites": 21714,
    "staff": 21653,
    "Ġwindings": 18909,
    "Ġexisting": 12715,
    "Ġcanaan": 22164,
    "Ġlicensing": 20091,
    "Ġlic": 8435,
    "Ġric": 18209,
    "Ġnominally": 17231,
    "osop": 4406,
    "Ġsgd": 3127,
    "forgotten": 12414,
    "Ġbud": 10168,
    "Ġcorpulence": 24509,
    "Ġpopulous": 16826,
    "american": 11400,
    "ogany": 18677,
    "Ġscarce": 8621,
    "Ġhaggard": 17329,
    "acit": 16060,
    "Ġmonsie": 11447,
    "up": 1282,
    "Ġspacious": 18312,
    "cheon": 23801,
    "Ġchurches": 12825,
    "begged": 18522,
    "phys": 18707,
    "inal": 15479,
    "anzas": 17840,
    "governed": 25405,
    "Ġwhaler": 7520,
    "Ġrail": 7225,
    "modern": 1168,
    "butt": 15992,
    "Ġweeps": 24947,
    "shook": 19855,
    "Ġderived": 8238,
    "Ġdesignated": 19520,
    "Ġbedroom": 7277,
    "Ġgpt": 4353,
    "latitudes": 17196,
    "Ġtrees": 4205,
    "precip": 14664,
    "adventure": 17233,
    "Ġcalculating": 9924,
    "Ġoysters": 20577,
    "Ġmanhood": 22323,
    "lac": 17589,
    "Ġtechniques": 2868,
    "Ġyouthful": 16723,
    "Ġsus": 18278,
    "Ġbore": 5079,
    "Ġcreep": 22721,
    "Ġpanelled": 19653,
    "Ġliberty": 7761,
    "Ġappearances": 10451,
    "Ġfixed": 2687,
    "key": 5462,
    "Ġblanche": 18819,
    "Ġacquit": 18897,
    "Ġperson": 2368,
    "Ġplank": 7033,
    "ta": 13788,
    "Ġmutter": 23952,
    "Ġet": 3584,
    "Ġtread": 9408,
    "Ġscorching": 20064,
    "Ġamendment": 26024,
    "Ġcommendation": 13609,
    "Ġfeeds": 16432,
    "Ġsteps": 2864,
    "alluring": 18352,
    "educated": 17259,
    "hast": 5357,
    "wil": 8395,
    "oin": 17617,
    "ort": 517,
    "Ġstumble": 26482,
    "Ġclubb": 22355,
    "Ġhereafter": 9329,
    "Ġcomprehending": 24445,
    "Ġstudents": 23223,
    "eliest": 14746,
    "ieties": 19021,
    "leep": 4635,
    "Ġhailed": 6407,
    "Ġtennes": 23547,
    "abond": 15738,
    "Ġpitied": 14691,
    "owal": 13995,
    "Ġadjust": 2154,
    "Ġintimately": 24804,
    "oriented": 2948,
    "Ġbloodshot": 23797,
    "Ġairy": 23314,
    "cur": 3270,
    "Ġordered": 5832,
    "col": 3101,
    "Ġdisease": 14257,
    "impress": 18051,
    "Ġhysterics": 26093,
    "Ġchronicled": 25328,
    "Ġtent": 15466,
    "part": 2572,
    "Ġtamely": 24977,
    "Ġpanther": 16819,
    "bul": 6951,
    "Ġskies": 8920,
    "Ġdictionary": 15111,
    "regularly": 13207,
    "ums": 10272,
    "Ġwrinkled": 7264,
    "Ġinside": 5448,
    "thro": 12758,
    "some": 2236,
    "ention": 845,
    "Ġop": 2603,
    "Ġwaterward": 23363,
    "erably": 7573,
    "Ġcry": 3497,
    "Ġtongs": 9960,
    "Ġreb": 15688,
    "Ġpurchase": 12257,
    "positive": 20566,
    "Ġeverybody": 4512,
    "Ġcontinu": 1166,
    "Ġsensitive": 13198,
    "Ġdeal": 3611,
    "Ġrig": 4227,
    "Ġnuptial": 25782,
    "Ġaffecting": 2324,
    "stealthily": 23960,
    "Ġbounds": 9917,
    "Ġexter": 7397,
    "beef": 18525,
    "Ġbackground": 18633,
    "clo": 5613,
    "Ġyoung": 1504,
    "athy": 14322,
    "neat": 22454,
    "Ġgri": 17987,
    "Ġlate": 3379,
    "Ġrouse": 15819,
    "Ġagrippa": 11804,
    "cies": 1812,
    "Ġfrozen": 9012,
    "Ġreporting": 24657,
    "Ġtransfer": 2211,
    "Ġcrowder": 19454,
    "Ġrevealed": 6751,
    "Ġgloomily": 14800,
    "Ġdromedary": 17438,
    "Ġrun": 2354,
    "fired": 20859,
    "Ġpromotion": 23191,
    "Ġblade": 11891,
    "Ġtradesman": 20071,
    "Ġarrows": 18336,
    "playing": 19656,
    "Ġlik": 2522,
    "Ġfortresses": 23620,
    "Ġtailed": 21167,
    "Ġoverwhelmed": 11403,
    "Ġrecover": 9792,
    "Ġrang": 9244,
    "Ġshoulders": 5566,
    "Ġoutweigh": 22319,
    "Ġenemies": 9038,
    "Ġrelaxed": 12981,
    "string": 15683,
    "Ġadjac": 18294,
    "Ġfarewell": 9519,
    "Ġ75": 19611,
    "Ġchar": 1705,
    "flood": 19805,
    "H": 44,
    "Ġmeetings": 16531,
    "Ġpromoting": 3159,
    "Ġlevers": 18077,
    "Ġblocks": 6321,
    "Ġmoluccas": 25629,
    "Ġresumed": 11810,
    "Ġseparate": 5778,
    "Ġflutter": 16247,
    "Ġbridge": 8348,
    "Ġsincer": 13063,
    "ellations": 21941,
    "Ġsanity": 24979,
    "habit": 16188,
    "Ġhuddled": 20298,
    "isely": 4490,
    "Ġsaratoga": 26423,
    "than": 4092,
    "Ġveneration": 25044,
    "omically": 13975,
    "arrange": 23764,
    "tender": 14472,
    "ville": 6087,
    "Ġ34": 16677,
    "mo": 861,
    "Ġrare": 7036,
    "Ġincommun": 25308,
    "ges": 2874,
    "Ġcrunched": 19123,
    "Ġhighway": 14347,
    "conv": 7213,
    "particular": 5757,
    "emberley": 4175,
    "dial": 20824,
    "parad": 16386,
    "clump": 23150,
    "ulity": 10886,
    "Ġobtained": 7432,
    "Ġcrashes": 13125,
    "Ġpromise": 4201,
    "continual": 20643,
    "Ġcautiously": 16977,
    "menced": 23141,
    "Ġobservations": 13552,
    "Ġbadge": 16683,
    "Ġcarav": 18901,
    "rift": 11519,
    "inter": 2949,
    "Ġrevolut": 3257,
    "Ġask": 1490,
    "rate": 2425,
    "Ġhospital": 15039,
    "Ġvillages": 14748,
    "Ġshud": 5461,
    "buoy": 7760,
    "Ġsuitable": 18281,
    "books": 8663,
    "ores": 2415,
    "Ġquohog": 10972,
    "body": 2308,
    "borough": 20784,
    "Ġsoar": 18276,
    "Ġdictating": 20151,
    "Ġgravel": 14101,
    "prejudice": 25571,
    "Ġderive": 10394,
    "Ġliberated": 19665,
    "Ġcandidates": 4336,
    "atical": 10771,
    "Ġmemorable": 16426,
    "sledge": 21056,
    "hurrying": 14982,
    "Ġallude": 12768,
    "Ġlifts": 25358,
    "whales": 5187,
    "arking": 16123,
    "war": 6802,
    "Ġexhaled": 19681,
    "Ġlounged": 19952,
    "Ġsenate": 25214,
    "plendent": 21955,
    "fra": 8374,
    "Ġchapel": 9522,
    "track": 24314,
    "Ġstaid": 21732,
    "Ġhaunted": 10253,
    "Ġbowled": 23767,
    "pulled": 25145,
    "Ġversion": 10629,
    "Ġinnocence": 6477,
    "Ġcheerful": 6621,
    "Ġget": 1623,
    "supernatural": 19778,
    "impressions": 20697,
    "Ġkindly": 6077,
    "Ġsulky": 13514,
    "Ġflower": 16230,
    "Ġsimilitude": 19208,
    "itoring": 21330,
    "Ġimpious": 15983,
    "bearer": 18523,
    "Ġunrestingly": 20359,
    "Ġharpoone": 2912,
    "Ġbeaten": 10528,
    "hatchet": 24822,
    "octavo": 11385,
    "one": 615,
    "Ġillust": 8262,
    "Í": 142,
    "Ġsails": 5256,
    "Ġinterested": 6458,
    "Ġgiving": 4089,
    "deliber": 17425,
    "Ġhandsomely": 25497,
    "Ġelegance": 11332,
    "**": 4686,
    "leisure": 21369,
    "uiperai": 10663,
    "ribution": 14306,
    "Ġaverage": 3136,
    "zen": 5140,
    "nelson": 25620,
    "brimmed": 14588,
    "Ġcases": 3967,
    "Ġrepro": 7275,
    "Ġarmada": 23579,
    "erative": 21271,
    "Ġ8": 5433,
    "hideous": 25407,
    "Ġupper": 5090,
    "commer": 22808,
    "Ġsample": 3175,
    "Ġlime": 13947,
    "notice": 16145,
    "precipitance": 25867,
    "Ġglass": 4371,
    "Ġwhither": 10214,
    "Ġfeelings": 2454,
    "Ġcongealed": 25981,
    "born": 7543,
    "Ġcherished": 10590,
    "Ġstorms": 11262,
    "ylon": 24975,
    "Ġtraverse": 18891,
    "Ġkings": 7197,
    "Ġchill": 11750,
    "Ġpout": 17906,
    "antee": 22089,
    "Ġmaledictions": 26428,
    "Ġtrif": 6269,
    "Ġhedgehog": 10644,
    "laying": 19771,
    "Ġovercome": 6042,
    "cst": 10084,
    "Ġcolleg": 22854,
    "madness": 14881,
    "Ġfunctional": 3048,
    "Ġamerican": 5061,
    "Ġunex": 11711,
    "Ġword": 1052,
    "Ġdisdain": 8359,
    "ater": 3372,
    "Ġold": 1056,
    "Ġslates": 11106,
    "Ġbound": 3519,
    "idled": 21765,
    "Ġgreenwich": 19320,
    "gaining": 20122,
    "Ġ2026": 12333,
    "Ġanywhere": 8516,
    "Ġcomfort": 3441,
    "Ġsoles": 22073,
    "ild": 1155,
    "Ġgroan": 13323,
    "#": 7,
    "acted": 11010,
    "Ġbeholding": 8668,
    "Ġchestnut": 19671,
    "oftentimes": 19419,
    "Ġautonomous": 10675,
    "Ġson": 2984,
    "amples": 1820,
    "Ġloomed": 12299,
    "Ġenchantment": 24869,
    "bohemia": 20730,
    "Ġlightning": 5750,
    "arch": 1103,
    "ĉ": 202,
    "movable": 14323,
    "Ġminute": 4281,
    "K": 47,
    "Ġadmirably": 16480,
    "even": 3838,
    "Ġsquared": 1381,
    "Ġwolves": 25934,
    "Ġmeditating": 20041,
    "improve": 15709,
    "bring": 9104,
    "Ġclaws": 15970,
    "ifted": 4496,
    "means": 9785,
    "leather": 13889,
    "Ġnodding": 23330,
    "Ġemblaz": 16241,
    "Ġconducted": 10502,
    "Ġcomputer": 1195,
    "iated": 5889,
    "Ġindications": 14632,
    "Ġcurbstone": 26042,
    "Ġavowal": 19413,
    "consist": 14815,
    "mont": 19168,
    "Ġnovelty": 13462,
    "Ġswing": 13033,
    "Ġbang": 17854,
    "Ġcopestone": 24936,
    "ometer": 19325,
    "Ġbeheld": 4494,
    "whip": 22234,
    "buried": 14848,
    "aming": 5828,
    "gain": 8736,
    "Ġenlist": 21933,
    "Ġvindict": 13604,
    "Ġcrotch": 9962,
    "Ġul": 6828,
    "Ġdistillation": 16042,
    "otion": 4946,
    "Ġunseasonable": 26520,
    "Ġholding": 4979,
    "necessary": 5881,
    "Ġmoods": 14950,
    "Ġdevices": 2942,
    "ship": 1390,
    "Ġreliance": 14384,
    "ayed": 12709,
    "wedded": 24339,
    "respect": 6374,
    "Ġallures": 22003,
    "stra": 4050,
    "Ġmien": 17808,
    "Ġobtain": 8914,
    "Ġjamming": 17264,
    "Ġwhalemen": 3914,
    "Ġlustre": 15133,
    "Ġflukes": 5266,
    "Ġwhence": 5839,
    "Ġmess": 7831,
    "brary": 5755,
    "fish": 3516,
    "Ġadversary": 12171,
    "Ġlighter": 12650,
    "solut": 3365,
    "Ġmerryweather": 9521,
    "trunk": 23946,
    "oters": 21796,
    "Ġinev": 10181,
    "Ġpierce": 17036,
    "Ġrecording": 24434,
    "Ġstrasburgh": 18614,
    "Ġevidently": 6759,
    "Ġriverside": 25247,
    "Ġhart": 17921,
    "Ġremoving": 12114,
    "Ġvigil": 9506,
    "Ġclifford": 22360,
    "voices": 21116,
    "Ġard": 5164,
    "Ġapparent": 5466,
    "bony": 15318,
    "Ġdifficult": 3575,
    "Ġpartners": 11851,
    "claims": 25319,
    "Ġconstruct": 23338,
    "59": 17473,
    "Ġprogno": 14039,
    "Ġcollection": 8221,
    "Ġtoast": 21509,
    "deception": 22142,
    "nesday": 8702,
    "Ġmaybe": 12948,
    "Ġserviceable": 24718,
    "Ġnurse": 9516,
    "Ġsouth": 4909,
    "Ġpicture": 4856,
    "Ġtambourine": 9564,
    "forming": 15919,
    "elius": 13286,
    "increase": 20267,
    "possibility": 13360,
    "gallery": 24693,
    "Ġmarried": 3411,
    "then": 2052,
    "jo": 3753,
    "ceive": 3063,
    "recollected": 25347,
    "Ġincreasing": 8246,
    "Ġthousandth": 23679,
    "Ġkeeled": 18807,
    "Ġfellow": 2777,
    "Ġjust": 1243,
    "Ġlug": 15649,
    "Ġdimin": 3873,
    "Ġgenerously": 22404,
    "Ġcrippled": 25278,
    "Ġade": 22100,
    "Ġphilistines": 26082,
    "Ġdistributing": 22676,
    "operations": 19973,
    "Ġsauc": 15886,
    "wondering": 19844,
    "Ġberth": 8679,
    "Ġunflinching": 26512,
    "Ġchat": 6560,
    "derest": 18314,
    "Ġswash": 23052,
    "wat": 6231,
    "Ġimper": 4503,
    "Ġpasses": 2681,
    "hunsford": 24386,
    "Ġnatural": 1104,
    "simply": 20669,
    "Ġjew": 9467,
    "Ġsledge": 8110,
    "sk": 5521,
    "!_âĢĿ": 11376,
    "Ġrefrain": 12944,
    "mark": 5281,
    "Ġaccompan": 5513,
    "Ġcrouched": 23440,
    "Ġcabinet": 23859,
    "Ġpia": 21462,
    "mon": 2309,
    "Ġ127": 24472,
    "travel": 24316,
    "unaffected": 21880,
    "Ġwis": 3730,
    "Ġaccomp": 4713,
    "taught": 17684,
    "Ġdiscover": 4718,
    "lik": 3917,
    "Ġorganizations": 12312,
    "Ġyawned": 15051,
    "girl": 12316,
    "tub": 9143,
    "Ġstarvation": 19790,
    "dinah": 20079,
    "Ġrested": 9377,
    "ics": 3256,
    "Ġtill": 1822,
    "screen": 22995,
    "Ġsoil": 9254,
    "impud": 23758,
    "mons": 17600,
    "bearings": 25371,
    "rust": 2580,
    "Ġmarlingspike": 26579,
    "Ġlongitude": 11011,
    "Ġknot": 7011,
    "flying": 13720,
    "Ġmeal": 9696,
    "Ġdan": 8792,
    "Ġhandy": 12933,
    "het": 5435,
    "laz": 15384,
    "mot": 17596,
    "paper": 9136,
    "rising": 7557,
    "Ġcrowds": 14739,
    "invested": 17117,
    "Ġbridegroom": 10604,
    "oat": 13763,
    "Ġjuncture": 17129,
    "Ġwavering": 23402,
    "Ġowner": 8921,
    "Ġglades": 19370,
    "Ġheartily": 6890,
    "Ġpsalmody": 20583,
    "Ġmisfortune": 5569,
    "Ġblossom": 26312,
    "Ġobjective": 3767,
    "personal": 24963,
    "Ġerected": 12231,
    "playful": 24357,
    "Ġcommonplace": 11096,
    "Ġboast": 7034,
    "Ġpermanent": 13630,
    "Ġri": 3398,
    "Ġsouls": 6308,
    "Ġnap": 8808,
    "Ġfulfilled": 11362,
    "Ġaccomplish": 14875,
    "Ġthreads": 13116,
    "cook": 8269,
    "conscience": 14859,
    "kine": 15374,
    "Ġstreaming": 19672,
    "://": 11465,
    "Ġslim": 18936,
    "hammer": 14489,
    "Ġmetrics": 19072,
    "Ġcondescending": 24868,
    "clam": 13052,
    "Ġtokens": 1770,
    "Ġproper": 1378,
    "Ġwire": 13851,
    "owl": 12681,
    "Ġvisage": 18765,
    "Ġveins": 8932,
    "Ġimputation": 22169,
    "Ġlowest": 11122,
    "Ġintercept": 14272,
    "upwards": 18863,
    "Ġte": 1134,
    "holder": 13281,
    "Ġomen": 11575,
    "Ġsavesoul": 26227,
    "erval": 4024,
    "Ġpreaching": 15924,
    "Ġload": 14145,
    "Ġsharpened": 17364,
    "Ġemboldened": 22986,
    "Ġrudimental": 25108,
    "Ġshares": 23244,
    "Ġprecious": 5760,
    "developed": 15263,
    "bol": 8717,
    "footsteps": 25199,
    "dances": 17521,
    "vineyard": 25421,
    "Ġorganisation": 23582,
    "Ġdents": 13910,
    "Ġsquire": 16180,
    "insupportable": 21192,
    "Ġpalms": 8643,
    "Ġprovoke": 14825,
    "farewell": 12304,
    "Ġcabin": 3305,
    "Ġnewfound": 22929,
    "Ġpractically": 13097,
    "Ġkiss": 8182,
    "Ġpeterson": 9482,
    "Ġlevels": 12695,
    "Ġbluish": 23648,
    "Ġsake": 4095,
    "warp": 17706,
    "Ġunceasingly": 20357,
    "Ġforging": 18093,
    "Ġ22": 8278,
    "pent": 3494,
    "Ġchristendom": 16695,
    "ner": 1372,
    "arm": 1356,
    "sleeves": 26109,
    "reach": 17757,
    "hester": 9631,
    "Ġharshly": 25249,
    "Ġcult": 8781,
    "charming": 15703,
    "Ġrates": 1404,
    "Ġpeaked": 2297,
    "sensations": 20049,
    "view": 5895,
    "Ġappal": 18359,
    "isp": 5528,
    "erpillar": 5797,
    "Ġground": 2847,
    "rear": 21231,
    "ton": 1726,
    "politeness": 16906,
    "Ġgoodge": 22820,
    "Ġstung": 21736,
    "Ġthreatens": 24375,
    "Ġbarbarously": 24819,
    "Ġconversations": 9424,
    "Ġbefall": 8828,
    "Ġblows": 5972,
    "Ġinspection": 14544,
    "Ġserpents": 13075,
    "Ġclerval": 4654,
    "Ġmouldy": 14973,
    "Ġstatue": 23144,
    "plans": 21949,
    "Ġconnect": 798,
    "Ġchancery": 20715,
    "Ġprecipice": 19939,
    "Ġcorrected": 10448,
    "bweb": 20790,
    "Ġactively": 18654,
    "years": 6883,
    "isl": 21373,
    "Ġstalls": 25647,
    "Ġlung": 7167,
    "Ġsubstantial": 14809,
    "Ġcatholic": 20680,
    "condite": 23246,
    "Ġconcre": 16384,
    "itled": 7577,
    "Ġoutputs": 2886,
    "broad": 8642,
    "Ġprocedure": 2810,
    "Ġpardon": 5727,
    "mar": 4338,
    "Ġfacial": 10605,
    "Ġstrain": 6023,
    "Ġprofessed": 14724,
    "Ġwound": 4529,
    "Ġanecd": 20153,
    "Ġsurmis": 23464,
    "Ġbirth": 6524,
    "Ġbrilliant": 11414,
    "Ġsymph": 22208,
    "Ġdepress": 14047,
    "unavoid": 14061,
    "anim": 6522,
    "Ġsitt": 21216,
    "Ġrose": 3445,
    "Ġeyebrows": 23515,
    "Ġcommun": 1707,
    "Ġocc": 887,
    "supers": 22638,
    "underneath": 23786,
    "Ġtrunks": 15974,
    "fore": 687,
    "Ġpict": 3500,
    "oil": 7805,
    "Ġcruellest": 19657,
    "l": 80,
    "Ġwow": 15527,
    "oop": 10715,
    "Ġcriminals": 19921,
    "bare": 12439,
    "Ġjoker": 22295,
    "pivot": 21030,
    "Ġbiographical": 22761,
    "ersed": 10259,
    "Ġreg": 728,
    "Ġchronicle": 20227,
    "mass": 12487,
    "chancing": 22915,
    "lude": 6161,
    "Ġblow": 3376,
    "Ġemb": 1258,
    "Ġforces": 12699,
    "evil": 11485,
    "Ġsilly": 7685,
    "Ġextent": 7655,
    "Ġprodigies": 19792,
    "Ġinterpre": 1588,
    "Ġcontortions": 18476,
    "Ġpraying": 19553,
    "Ġkin": 15902,
    "classification": 4389,
    "Ġspeech": 4611,
    "Ġsped": 22122,
    "Ġapology": 8327,
    "estic": 4956,
    "requirements": 24857,
    "rasing": 21044,
    "),": 1346,
    "Ġdarted": 4758,
    "Ġcanoes": 12802,
    "Ġgestures": 13535,
    "Ġplead": 14454,
    "apped": 5395,
    "Ġbuildings": 24720,
    "Ġvernal": 23886,
    "Ġtropics": 17066,
    "lected": 1637,
    "othing": 6995,
    "Ġgrievous": 13260,
    "lot": 3206,
    "Ġspectacle": 10496,
    "Ġgrie": 3587,
    "Ġclatter": 22351,
    "Ġhemisphere": 26478,
    "Ġteasing": 11887,
    "Ġbusy": 6189,
    "Ġducks": 25157,
    "Ġitself": 2521,
    "Ġsilk": 11961,
    "Ġ32": 19487,
    "Ġexpenses": 11833,
    "Ġcovariate": 2350,
    "Ġeth": 17716,
    "Ġthroats": 24575,
    "ë": 172,
    "Ġdisapprobation": 16056,
    "Ġresist": 7915,
    "Ġguardianship": 17419,
    "Ġproperty": 6450,
    "Ġdigress": 24648,
    "Ġnimble": 21525,
    "still": 4221,
    "ĠĠĠĠĠĠĠĠĠĠĠĠĠ": 22561,
    "Ġboneless": 19604,
    "yramid": 8367,
    "Ġstri": 2804,
    "ě": 220,
    "Ġboyhood": 23753,
    "Ġge": 1977,
    "breath": 15161,
    "Ġirrevocably": 15296,
    "ut": 308,
    "ously": 2491,
    "Ġfinancial": 23125,
    "Ġrepel": 23355,
    "Ġob": 859,
    "headsman": 16700,
    "Ġbeauties": 10445,
    "Ġacquainted": 5179,
    "acceptable": 25183,
    "Ġunsupervised": 2473,
    "Ġquarters": 8619,
    "Ġburke": 19250,
    "Ġguide": 3215,
    "cnns": 3624,
    "Ġgable": 15664,
    "Ġraising": 8909,
    "ated": 722,
    "Ġdistinction": 8885,
    "Ġthoughtful": 16190,
    "Ġfoundering": 21417,
    "Ġcontest": 18473,
    "indian": 11776,
    "abez": 10222,
    "Ġobjections": 8564,
    "away": 4626,
    "rived": 5373,
    "Ġaltitude": 26202,
    "Ġgreenhorn": 23766,
    "Ġbubble": 13534,
    "ĠĠĠĠĠĠĠĠĠĠ": 18580,
    "aim": 2758,
    "Ġgros": 14822,
    "Ġthirdly": 24143,
    "Ġemerg": 13423,
    "shown": 22436,
    "unearthly": 19272,
    "Ġpreceded": 13427,
    "Ġhadn": 9718,
    "Ġcounties": 23298,
    "Ġknife": 7309,
    "Ġoverwrites": 5033,
    "magn": 10610,
    "goldsmith": 20146,
    "Ġquart": 11785,
    "Ġcovering": 13254,
    "Ġbox": 5109,
    "fourth": 11328,
    "Ġberg": 24536,
    "natured": 7110,
    "fiercely": 25256,
    "enced": 4298,
    "Ġrings": 11697,
    "Ġvessels": 6755,
    "Ġharvest": 13414,
    "Ġrewarded": 14939,
    "omen": 4090,
    "Ġcor": 1322,
    "ittered": 18439,
    "Ġl": 303,
    "Ġadmires": 19684,
    "true": 2585,
    "ccess": 3181,
    "Ġsubset": 9869,
    "Ġtight": 8107,
    "eth": 622,
    "Ġimmured": 24071,
    "Ġunp": 12769,
    "istic": 974,
    "Ġrainbows": 19647,
    "opposing": 24825,
    "ŀ": 257,
    "Ġastronomy": 25926,
    "Ġfritters": 23255,
    "fireside": 24692,
    "Ġobscure": 9553,
    "surf": 24212,
    "ived": 1528,
    "ipl": 20917,
    "Ġlastly": 16203,
    "Ġmonuments": 22981,
    "Ġaval": 15492,
    "Ġdoubtfully": 23478,
    "Ġbrazier": 26320,
    "itious": 8779,
    "Ġsprawling": 22136,
    "kick": 20935,
    "Ġsneeze": 24699,
    "med": 1904,
    "parts": 14601,
    "Ġhip": 17920,
    "za": 13809,
    "Ġmidday": 23631,
    "ntax": 937,
    "Ġabandon": 12255,
    "Ġrmsprop": 3356,
    "Ġclassical": 22635,
    "spell": 22728,
    "Ġcorrectly": 9403,
    "Ġsmart": 11813,
    "abil": 2005,
    "affectionate": 24921,
    "Ġcrimson": 16440,
    "Ġappalled": 22216,
    "creation": 14805,
    "ĠĠ": 352,
    "Ġwhy": 1757,
    "hastening": 24448,
    "Ġmurmuring": 23578,
    "arn": 357,
    "Ġdelineations": 26058,
    "Ġdisposed": 7083,
    "Ġtrifles": 16951,
    "misfortunes": 16756,
    "viii": 12019,
    "sweeping": 24618,
    "Ġplayful": 19236,
    "apolog": 22329,
    "Ġpurposes": 11168,
    "Ġeleven": 9388,
    "Ġlookest": 22710,
    "sailing": 14714,
    "Ġpracticable": 19040,
    "Ġessence": 13404,
    "iony": 9191,
    "hum": 3780,
    "Ġobserving": 6080,
    "_--": 20761,
    "Ġexcite": 11964,
    "intend": 16223,
    "Ġrefusal": 10344,
    "strip": 19829,
    "pot": 10117,
    "Ġdreaded": 8288,
    "Ġdetail": 634,
    "mount": 9129,
    "Ġfals": 15578,
    "alled": 5910,
    "downstairs": 23917,
    "Ġcompos": 22568,
    "Ġpleasantest": 24138,
    "Ġdro": 2772,
    "Ġfing": 3759,
    "Ġprem": 3429,
    "lightning": 16551,
    "Ġindefinitely": 25221,
    "Ġunidirectional": 3428,
    "permission": 15901,
    "Ġmcc": 21305,
    "Ġprocure": 9509,
    "solitude": 23292,
    "magnifying": 25392,
    "Ġvic": 5237,
    "Ġsuperiors": 23454,
    "beauty": 20102,
    "Ġalley": 15733,
    "Ġarc": 14158,
    "Ġmultitud": 18747,
    "isite": 15560,
    "Ġlaw": 3657,
    "itors": 2915,
    "liking": 22921,
    "leaped": 17843,
    "Ġprophe": 13077,
    "leo": 21362,
    "Ġsubsequent": 7658,
    "expression": 10547,
    "Ġmeditative": 25014,
    "Ġflush": 14423,
    "Ġduly": 13349,
    "Ġbehaved": 13252,
    "Ġoutermost": 22316,
    "Ġingratitude": 17468,
    "Ġno": 509,
    "Ġfurlong": 18740,
    "Ġoffered": 5816,
    "Ġnearer": 5301,
    "vanity": 24974,
    "Ġchaos": 17009,
    "Ġtracing": 18889,
    "Ġmult": 1024,
    "Ġinv": 2226,
    "Ġoutrage": 15956,
    "ver": 331,
    "Ġmainly": 22651,
    "Ġnecess": 3477,
    "preser": 9759,
    "zwilliam": 5074,
    "at": 268,
    "Ġdece": 6996,
    "itheat": 21336,
    "embarr": 15796,
    "itely": 5365,
    "Ġambiguous": 20163,
    "atlantic": 15522,
    "Ġgallant": 8654,
    "motives": 26137,
    "Ġequin": 14495,
    "gre": 5788,
    "Ġbatch": 889,
    "Ġcovers": 18597,
    ".}": 20744,
    "Ġrevive": 13478,
    "Ġinfallibly": 10040,
    "uzz": 4525,
    "none": 6962,
    "Ġoverhanging": 22348,
    "Ġbestir": 13108,
    "shott": 11792,
    "epilogue": 22103,
    "roded": 17955,
    "repressed": 21242,
    "Ġthump": 11610,
    "happy": 4426,
    "we": 848,
    "Ġrecesses": 17260,
    "Ġcordage": 19677,
    "Ġreminisc": 18726,
    "pitching": 24076,
    "Ġbl": 1190,
    "Ġought": 3422,
    "Ġblan": 18816,
    "Ġsheer": 14150,
    "spite": 16135,
    "Ġrage": 5110,
    "delay": 16698,
    "ulum": 21860,
    "Ġpossessed": 5195,
    "Ġyell": 21774,
    "Ġclean": 5652,
    "Ġalan": 10869,
    "Ġshake": 6033,
    "Ã¦st": 24175,
    "Ġpossessor": 23820,
    "Ġdisgu": 8205,
    "Ġfitzwilliam": 5771,
    "Ġreadability": 2725,
    "grees": 20885,
    "fordshire": 4677,
    "_;": 6640,
    "Ġsignification": 19201,
    "turning": 8316,
    "married": 9948,
    "visits": 24223,
    "cular": 15327,
    "chron": 21691,
    "Ġste": 1388,
    "aurus": 20559,
    "Ġhidden": 1375,
    "Ġholds": 7975,
    "Ġequilib": 4141,
    "Ġperfections": 23607,
    "Ġroman": 8322,
    "ą": 198,
    "Ġneeds": 6605,
    "Ġbounce": 21391,
    "Ġconjured": 25099,
    "Ġattractions": 12913,
    ",âĢĶâĢľ": 10069,
    "Ġprofession": 6207,
    "agged": 9236,
    "Ġbristling": 20525,
    "Ġsoothe": 7405,
    "ust": 494,
    "near": 5842,
    "88": 20757,
    "Ġdistension": 22500,
    "handle": 11190,
    "Ġimputable": 22170,
    "Ġinitials": 11014,
    "foreseen": 14253,
    "Ġendwise": 23139,
    "Ġrepetition": 8972,
    "Ġasse": 8159,
    "Ġopportunities": 19248,
    "Ġminimum": 23037,
    "Ġtechni": 1672,
    "jud": 4483,
    "castle": 3351,
    "Ġbouquet": 20682,
    "Ġplaid": 22597,
    "Ġpervers": 11781,
    "hung": 8380,
    "urrection": 12407,
    "narrated": 25621,
    "Ġath": 15799,
    "Ġtreachery": 15100,
    "Ġdownwards": 8529,
    "Ġown": 1007,
    "Ġaccidental": 16848,
    "Ġstillness": 12990,
    "accomp": 10455,
    "equal": 14992,
    "](": 11466,
    "car": 4214,
    "Ġsepul": 14089,
    "Ġdisengaged": 12886,
    "Ġexp": 779,
    "izabeth": 907,
    "Ġrecurring": 23231,
    "Ġrule": 1529,
    "sharks": 14237,
    "Ġages": 7027,
    "der": 468,
    "avast": 8890,
    "Ġbalmy": 22902,
    "Ġfather": 1451,
    "Ġundeserving": 18268,
    "Ġquadruped": 17458,
    "Ġholes": 16406,
    "Ġstolen": 14006,
    "ias": 6362,
    "bra": 6219,
    "Ġseamen": 5063,
    "ciousness": 20816,
    "Ġharmless": 9964,
    "conc": 3950,
    "Ġpreserve": 7529,
    "Ġloaf": 15870,
    "ne": 647,
    "Ġsurpassing": 20466,
    "rict": 8092,
    "Ġahab": 1216,
    "cable": 20796,
    "Ġesteem": 7531,
    "Ġdurst": 20351,
    "Ġabridged": 26541,
    "Ù": 154,
    "Ġprompted": 23813,
    "Ġpunchbowl": 20230,
    "Ġinsert": 19904,
    "oldened": 22636,
    "Ġamb": 9291,
    "goose": 19101,
    "state": 13978,
    "Ġkicked": 10581,
    "Ġdisd": 7030,
    "Ġbless": 4345,
    "Ġfits": 8790,
    "Ġborn": 5224,
    "heartily": 24215,
    "stooped": 23818,
    "uvier": 9068,
    "Ġdie": 3968,
    "insist": 23061,
    "Ġdodging": 19886,
    "Ġrecovering": 11862,
    "Ġunassuming": 20507,
    "Ġstubbornness": 25380,
    "Ġbusier": 23333,
    "Ġmales": 17805,
    "somerset": 26322,
    "ground": 4672,
    "Ġlain": 17961,
    "Ġdivision": 19442,
    "Ġgamesome": 17289,
    "isle": 13891,
    "Ġsmelt": 16066,
    "Ġrescued": 24206,
    "now": 549,
    "giving": 8738,
    "alth": 3255,
    "?âĢĶ": 3470,
    "Ġcentrally": 23828,
    "Ġtempered": 12922,
    "Ġdeformity": 11675,
    "ĥ": 230,
    "elzebub": 26464,
    "Ġmine": 3176,
    "Ġvirtual": 11239,
    "Ġsoaring": 22074,
    "Ġcontinued": 2923,
    "tumult": 12421,
    "search": 8464,
    "Ġcomplain": 6685,
    "Ġlatin": 16821,
    "instead": 14812,
    "information": 12391,
    "delights": 19700,
    "suspected": 12370,
    "Ġcolonel": 3410,
    "Ġvenetian": 14846,
    "Ġguess": 4903,
    "Ġhermit": 15855,
    "Ġtrivial": 10142,
    "Ġunreserved": 19395,
    "endent": 15920,
    "abounding": 25979,
    "ceptibly": 22335,
    "Ġrattler": 24995,
    "most": 1257,
    "Ġklux": 22192,
    "ounders": 22390,
    "suspicions": 25391,
    "phology": 3010,
    "hing": 981,
    "Ġquartered": 20371,
    "usages": 22287,
    "surd": 6934,
    "yt": 17711,
    "u": 89,
    "Ġspans": 18304,
    "Ġfourth": 7706,
    "Ġfreemason": 23210,
    "Ġwine": 6810,
    "Ġmanilla": 15957,
    "Ġartic": 5314,
    "Ġprinciple": 6770,
    "Ġthanking": 18603,
    "Ġelopement": 10329,
    "Ġdesperately": 24656,
    "uity": 12515,
    "ptic": 21914,
    "friends": 8305,
    "ercely": 12547,
    "Ġ128": 24473,
    "Ġprogramming": 1183,
    "scorched": 25697,
    "Ġsmoked": 10323,
    "Ġphysiology": 25332,
    "Ġaffront": 18787,
    "Ġfaithfulness": 24446,
    "Ġtwinkle": 12321,
    "Ġdelivery": 18976,
    "Ġprudent": 9185,
    "Ġnlp": 3061,
    "organ": 15571,
    "Ġfelicity": 7260,
    "Ġele": 1962,
    "bles": 7017,
    "erm": 787,
    "ignorantly": 25189,
    "Ġdestined": 7974,
    "Ġdeceitful": 25733,
    "mixed": 15393,
    "Ġpump": 12618,
    "Ġsweetheart": 19393,
    "Ġmythologies": 26213,
    "Ġsombre": 18859,
    "ecess": 17532,
    "atisf": 21262,
    "idav": 18092,
    "Ġdiscours": 18718,
    "Ġmagnet": 10389,
    "Ġamusements": 16913,
    "Ġlibrary": 6423,
    "Ġpoorly": 9854,
    "Ġindu": 5293,
    "Ġsides": 4580,
    "crier": 20819,
    "Ġunder": 1635,
    "Ġveter": 15809,
    "Ġattic": 16093,
    "Ġsupreme": 13606,
    "Ġringbolts": 24196,
    "Ġthrill": 24541,
    "gree": 10701,
    "incing": 15484,
    "sadly": 25526,
    "Ġsubjects": 7072,
    "ular": 711,
    "readiness": 19361,
    "Ġwave": 7575,
    "Ġindisp": 18833,
    "Ġhedge": 8363,
    "Ġorigin": 4124,
    "Ġfortunes": 12176,
    "Ġdoubloon": 6945,
    "Ġusefulness": 19406,
    "Ġmarry": 4419,
    "Ġresent": 6048,
    "Ġfinds": 6299,
    "response": 25762,
    "ï": 176,
    "Ġunderstood": 5655,
    "atory": 6125,
    "Ġrepose": 6741,
    "necessarily": 19630,
    "Ġbrings": 11878,
    "Ġaffliction": 25844,
    "udg": 22749,
    "Ġorder": 1688,
    "north": 14616,
    "Ġanswer": 2598,
    "Ġflashes": 11914,
    "Ġsalesman": 13667,
    "Ġrevived": 11368,
    "polar": 24583,
    "breast": 11246,
    "rily": 7621,
    "scarcely": 12384,
    "Ġbiting": 17861,
    "Ġenchant": 7185,
    "Ġknew": 2054,
    "Ġinsatiable": 19271,
    "Ġdotted": 16792,
    "Ġidle": 8252,
    "Ġtea": 5041,
    "commod": 16168,
    "Ġstark": 7390,
    "Ġmeanest": 12907,
    "Ġangle": 8602,
    "$": 8,
    "Ġannoy": 17198,
    "waited": 24585,
    "Ġcounters": 24140,
    "Ġtruck": 19510,
    "Ġhandsom": 11124,
    "ignorance": 17161,
    "Ġvision": 1572,
    "Ġfiled": 15577,
    "Ġbarb": 4532,
    "Ġtheory": 5798,
    "smooth": 20247,
    "Ġdes": 1252,
    "overcome": 19049,
    "pressed": 6587,
    "Ġglaciers": 20172,
    "Ġdictate": 20150,
    "Ġtwelve": 4963,
    "heaved": 21209,
    "Ġkrem": 9725,
    "suspect": 9539,
    "izard": 10879,
    "une": 2786,
    "Ġfig": 3627,
    "ardy": 22153,
    "ture": 7558,
    "yesterday": 10352,
    "civil": 7796,
    "Ġclung": 10960,
    "Ġlog": 1678,
    "Ġagitation": 6865,
    "Ġadroop": 26001,
    "Ġdreams": 7496,
    "Ġwindlass": 7256,
    "Ġsequ": 983,
    "ens": 701,
    "lue": 8508,
    "Ġrevisit": 21667,
    "Ġwrecks": 16818,
    "commun": 15033,
    "thoroughly": 26508,
    "coffin": 10662,
    "Ġsax": 10929,
    "grasping": 20638,
    "Ġfighting": 12195,
    "Ġdancing": 5703,
    "L": 48,
    "Ġevangel": 11280,
    "oub": 1633,
    "cell": 10685,
    "Ġbucket": 8787,
    "ushed": 2973,
    "Ġlouis": 8356,
    ",âĢĿ": 579,
    "Ġprominence": 18953,
    "Ġpained": 19166,
    "Ġdivinely": 25723,
    "quired": 21852,
    "Ġanoints": 25538,
    "wishes": 13806,
    "Ġobst": 6283,
    "hound": 20894,
    "meditation": 19063,
    "chooses": 23669,
    "tray": 21076,
    "december": 25558,
    "Ġillustrative": 25066,
    "Ġconvinced": 4208,
    "Ġscreaming": 13422,
    "Ġsecrets": 9054,
    "ulence": 15763,
    "approbation": 11458,
    "pig": 8752,
    "everlasting": 18769,
    "wondered": 17029,
    "ax": 693,
    "Ġexcept": 3314,
    "Ġgravity": 9247,
    "iant": 5427,
    "Ġunbounded": 18259,
    "Ġchuck": 8501,
    "Ġcapric": 14576,
    "Ġchimney": 6497,
    "Ġprices": 15609,
    "Ġconstable": 19068,
    "Ġacc": 570,
    "myster": 16260,
    "Ġcleat": 18946,
    "Ġhanding": 16128,
    "Ġnowhere": 12883,
    "Ġparad": 2843,
    "Ġthenceforth": 25182,
    "vicious": 21117,
    "Ġdivined": 19441,
    "Ġfingers": 5672,
    "Ġunprofitable": 18267,
    "Ġunfavourable": 17416,
    "ontory": 10459,
    "poison": 14392,
    "Ġsupplication": 25491,
    "Ġspile": 22124,
    "Ġburied": 7718,
    "fect": 2301,
    "Ġescape": 2649,
    "lesome": 12962,
    "bl": 4146,
    "Ġannihilation": 15164,
    "r": 86,
    "Ġspout": 3283,
    "eled": 2357,
    "Ġpoker": 13921,
    "Ġlands": 6594,
    "oric": 21394,
    "guess": 14761,
    "Ġreproofs": 24892,
    "dock": 16416,
    "iod": 3840,
    "Ġsums": 2904,
    "Ġmister": 22750,
    "Đ": 209,
    "Ġcontempl": 6701,
    "Ġnearing": 15793,
    "Ġrecept": 1519,
    "Ġattack": 5478,
    "Ġconsort": 18724,
    "mers": 9610,
    "Ġchimneys": 16972,
    "Ġfault": 5702,
    "aphys": 15200,
    "Ġdreamt": 23936,
    "just": 1701,
    "Ġdevotees": 25376,
    "Ġtu": 6968,
    "Ġambergris": 8705,
    "expected": 5780,
    "Ġmilk": 6485,
    "Ġremonstr": 16160,
    "shiver": 16019,
    "Ġsmokes": 22558,
    "Ġenthus": 7232,
    "Ġezek": 18009,
    "Ġtinker": 15130,
    "Ġtut": 8769,
    "gang": 17553,
    "Ġdisciple": 22781,
    "embraces": 25805,
    "princip": 17136,
    "Ġliving": 3062,
    "af": 2376,
    "ctic": 8441,
    "Ġencode": 4367,
    "ĠâĢĺ": 1631,
    "illed": 2626,
    "Ġbeads": 18083,
    "estion": 18362,
    "Ġhumbled": 16195,
    "Ġebb": 21621,
    "ede": 21503,
    "Ġdetestable": 15097,
    "iasm": 8060,
    "Ġfelony": 18951,
    "Ġanomalously": 25638,
    "irons": 10238,
    "Ġdance": 4444,
    "attentions": 13573,
    "iana": 7048,
    "Ġthence": 8881,
    "Ġdang": 9174,
    "Ġbetter": 1175,
    "Ġknock": 9972,
    "ras": 21035,
    "quarters": 24946,
    "Ġesq": 15107,
    "allah": 5838,
    "ğ": 224,
    "gently": 13727,
    "Ġcircum": 8257,
    "Ġorgies": 18287,
    "Ġname": 2083,
    "istan": 22105,
    "spin": 22727,
    "Ġplying": 17913,
    "Ġindicate": 23721,
    "Ġdepl": 14045,
    "Ġaglow": 22510,
    "Ġexplained": 5935,
    "feature": 3558,
    "Ġpremeditated": 22231,
    "tic": 8390,
    "storm": 9681,
    "Ġwe": 387,
    "Ġtossed": 5815,
    "Ġsporty": 19889,
    "Ġsmothe": 18576,
    "Ġvehement": 16200,
    "irms": 18168,
    "garious": 17558,
    "âĢĶâĢĻâĢĿ": 20062,
    "flag": 14711,
    "Ġpassenger": 14369,
    "Ġfishing": 9662,
    "Ġnumberless": 16413,
    "Ġgover": 2462,
    "pronounce": 25192,
    "Ġfurrow": 22812,
    "Ġphiladelphia": 26604,
    "inde": 17731,
    "Ġkey": 2102,
    "Ġeternal": 5975,
    "Ġalders": 21781,
    "iny": 4296,
    "Ġgenealogies": 25961,
    "Ġcare": 1638,
    "Ġbread": 5404,
    "ortunities": 15936,
    "upper": 11538,
    "Ġstrides": 22614,
    "Ġsigns": 2444,
    "Ġmotive": 6091,
    "Ġexpanse": 14290,
    "ners": 3271,
    "Ġabilities": 8867,
    "rell": 11563,
    "enances": 10153,
    "Ġgur": 21589,
    "Ġilluminate": 17192,
    "Ġgodlike": 23353,
    "Ġyore": 21775,
    "Ġ130": 24781,
    "Ġderick": 9363,
    "Ġimminent": 11245,
    "Ġapparition": 8066,
    "earthquakes": 24725,
    "eu": 17530,
    "Ġcarried": 3695,
    "Ġtranquillize": 24757,
    "Ġtablets": 13154,
    "Ġguilty": 7250,
    "Ġdiscomp": 11864,
    "material": 13129,
    "Ġdiagon": 24740,
    "replied": 11565,
    "Ġnurtured": 19748,
    "Ġembark": 8560,
    "Ġnews": 3820,
    "Ġespecially": 3938,
    "Ġviolates": 3163,
    "Ġ62": 24365,
    "Ġkeeping": 7283,
    "Ġcabman": 14605,
    "Ġsteal": 16282,
    "Ġhundred": 2695,
    "Ġconcerns": 11966,
    "more": 1035,
    "hopper": 23712,
    "list": 7551,
    "aulets": 18621,
    "Ġripp": 11219,
    "Ġdesiring": 14412,
    "mid": 5617,
    "Ġunited": 6840,
    "igns": 8447,
    "Ġisles": 8459,
    "Ġsacrific": 15017,
    "aver": 6785,
    "spect": 3231,
    "Ġintervals": 5598,
    "burgh": 6773,
    "so": 890,
    "Ġuncouth": 14549,
    "Ġrattle": 10899,
    "Ġhardened": 14449,
    "Ġcritic": 19124,
    "Ġtotal": 4993,
    "Ġpunishment": 9955,
    "Ġfri": 17878,
    "Ġimmediately": 3367,
    "behaviour": 11301,
    "Ġfishers": 19352,
    "Ġjoyfully": 19344,
    "Ġarched": 10932,
    "itical": 5801,
    "united": 14059,
    "spending": 18689,
    "presented": 12988,
    "Ġshovel": 23491,
    "Ġsins": 13836,
    "jour": 20926,
    "really": 6971,
    "Ġcomplement": 23707,
    "Ġstraits": 7993,
    "Ġgrap": 11705,
    "himself": 3977,
    "Ġfurious": 10353,
    "er": 269,
    "Ġwhitened": 24867,
    "indignation": 18438,
    "Ġtell": 1467,
    "Ġinfamous": 16362,
    "Ġuneasy": 8661,
    "Ġtragedies": 25241,
    "Ġimply": 18441,
    "Ġbeauty": 3771,
    "lish": 1950,
    "hook": 12051,
    "Ġspasmodically": 17313,
    "Ġgaping": 13968,
    "Ġparcels": 25465,
    "Ġemotion": 7689,
    "asher": 15643,
    "Ġwounds": 17790,
    "Ġcontain": 1546,
    "miserable": 8656,
    "bank": 10079,
    "inno": 10756,
    "Ġmastery": 23991,
    "gods": 13365,
    "Ġreceptacle": 23189,
    "ĠâĢĶâĢľ_": 17718,
    "bread": 10684,
    "Ġjoyful": 13219,
    "twilight": 23700,
    "Ġelud": 22646,
    "Ġclimb": 15078,
    "Ġreluct": 14371,
    "Ġasiatics": 20429,
    "attached": 11933,
    "riages": 10242,
    "networks": 2408,
    "lead": 10165,
    "Ġdecidedly": 9508,
    "cad": 17504,
    "intern": 23734,
    "Ġlong": 795,
    "ospel": 17010,
    "Ġlbs": 11614,
    "Ġwarriors": 19722,
    "Ġparading": 23708,
    "Ġtoll": 7851,
    "heav": 5694,
    "Åĵuvre": 25887,
    "Ġstranger": 3487,
    "daughter": 8353,
    "Ġavailed": 23950,
    "Ġethere": 23949,
    "ourably": 14376,
    "Ġ89": 19711,
    "proachable": 23394,
    "Ġcommit": 18655,
    "iverse": 13114,
    "Ġswinging": 7449,
    "Ġpoky": 21477,
    "Ġwillow": 18530,
    "Ġantichronical": 26609,
    "Ġknave": 11272,
    "Ġoverpowered": 15287,
    "Ġvisibly": 22859,
    "Ġretirement": 25378,
    "alizing": 17939,
    "nyder": 16686,
    "Ġfigure": 4209,
    "ashion": 3859,
    "Ġcrimin": 6901,
    "preading": 18497,
    "Ġreputation": 11639,
    "Ġhistor": 3394,
    "Ġbleeding": 14879,
    "Ġvaulted": 25167,
    "Ġdoubloons": 13433,
    "Ġdaughters": 4423,
    "ringle": 21039,
    "Ġxxxvi": 24969,
    "vari": 1513,
    "companion": 9557,
    "ernity": 18615,
    "Ġfatally": 19392,
    "cigar": 26124,
    "cooks": 25067,
    "Ġinformed": 6717,
    "Ġstum": 21728,
    "utter": 7593,
    "Ġprair": 7746,
    "ification": 1006,
    "alescing": 23864,
    "Ġschol": 17376,
    "paid": 15413,
    "Ġrescales": 5068,
    "Ġhumorous": 10360,
    "Ġscrutin": 26014,
    "peaceful": 20445,
    "jumping": 20244,
    "Ġoutdone": 22315,
    "Ġsovereign": 10061,
    "Ġcaliforn": 14430,
    "Ġcloudy": 19475,
    "riage": 2124,
    "Ġexamples": 2605,
    "Ġforetold": 23450,
    "Ġsold": 6002,
    "Ġsystems": 805,
    "Ġengrossed": 12992,
    "Ġunwound": 25169,
    "Ġrepl": 1591,
    "Ġlake": 5227,
    "centre": 17087,
    "Ġrum": 5923,
    "Ġwatch": 2745,
    "Ġtransom": 22461,
    "unwilling": 14060,
    "Ġfools": 14481,
    "Ġdavis": 25952,
    "Ġhasn": 12924,
    "reas": 989,
    "Ġentertained": 9997,
    "Ġthack": 21514,
    "Ġ150": 22825,
    "Ġpenalties": 10412,
    "Ġmurdering": 14810,
    "Ġblessings": 24176,
    "nantucket": 7804,
    "ittle": 812,
    "belongs": 25596,
    "fail": 17540,
    "Ġwhitney": 11373,
    "akes": 2220,
    "Ġsprings": 16687,
    "heavenly": 20043,
    "lighter": 20958,
    "Ġwindows": 4971,
    "Ġpedest": 14995,
    "merchant": 10467,
    "augmented": 26286,
    "Ġwaylaid": 22870,
    "Ġyarns": 15194,
    "Ġjackets": 19601,
    "Ġfathom": 17048,
    "Ġslept": 8258,
    "christmas": 20254,
    "leviathan": 7784,
    "Ġpainter": 19167,
    "dry": 13702,
    "derick": 22159,
    "Ġshape": 5639,
    "indulged": 22372,
    "Ġnobleman": 19390,
    "Ġcomely": 21840,
    "Ġweal": 21917,
    "uteness": 17985,
    "pshaw": 21027,
    "oes": 4436,
    "Ġembraces": 19871,
    "wait": 11320,
    "Ġsally": 15501,
    "Ġcatch": 4443,
    "Ġprows": 19888,
    "Ġdoth": 13907,
    "Ġargument": 7098,
    "ace": 716,
    "Ġtoilette": 20491,
    "Ġasked": 2280,
    "clings": 23147,
    "comp": 3817,
    "Ġprehens": 22228,
    "ina": 21178,
    "amped": 12031,
    "Ġmott": 17803,
    "organic": 25946,
    "Ġ90": 24588,
    "Ġmankind": 6698,
    "Ġthere": 563,
    "rison": 13778,
    "Ġintervening": 17267,
    "gl": 3291,
    "Ġfitness": 23998,
    "Ġvariations": 22663,
    "augh": 1781,
    "Ġconcoct": 19044,
    "Ġtypewriter": 19097,
    "Ġrows": 10561,
    "Ġhowled": 12853,
    "bbles": 13690,
    "Ġovertaken": 18424,
    "crippled": 26384,
    "Ġscruples": 15077,
    "Ġpreposterous": 13668,
    "entials": 22661,
    "Ġdata": 512,
    "Ġphotograph": 6302,
    "your": 1983,
    "Ġwhipcord": 20093,
    "Ġdimensions": 16570,
    "Ġforb": 11662,
    "Ġprovince": 24189,
    "Ġspoutings": 14675,
    "Ġashore": 5351,
    "Ġ": 225,
    "Ġvirtue": 4922,
    "judges": 19572,
    "tenderly": 20529,
    "obviously": 25242,
    "ropri": 2180,
    "alogue": 25159,
    "remem": 13064,
    "oftener": 23963,
    "Ġsecre": 5493,
    "Ġfavourable": 7958,
    "Ġsweep": 8265,
    "Ġpassions": 7929,
    "Ġuniversal": 2235,
    "icult": 3343,
    "oy": 1015,
    "Ġdevoted": 6573,
    "Ġsobbed": 14134,
    "Ġenvy": 13185,
    "putting": 14099,
    "Ġintegral": 25008,
    "orney": 17873,
    "Ġlye": 21548,
    "Ġmonsieur": 12419,
    "fitting": 1507,
    "Ġunhe": 22005,
    "Ġbarrow": 12067,
    "Ġuntil": 2670,
    "Ġwarring": 16865,
    "Ġvesuvius": 26501,
    "ioning": 21506,
    "hood": 2661,
    "clerval": 7950,
    ".)": 6783,
    "slouched": 24557,
    "certainly": 5339,
    "Ġnicely": 8708,
    "ified": 3225,
    "Ġalternately": 15031,
    "Ġperchance": 15989,
    "swear": 16918,
    "Ġphilosophical": 26334,
    "Ġsequentially": 4914,
    "ached": 2322,
    "Ġwithered": 19463,
    "eps": 12788,
    "Ġpartiality": 9397,
    "Ġoars": 3899,
    "owners": 16085,
    "Ġemm": 18002,
    "Ġnext": 2139,
    "Ġtener": 21162,
    "Ġbravery": 23833,
    "Ġpry": 11599,
    "ooping": 21006,
    "Ġdated": 10938,
    "istically": 14143,
    "prit": 19340,
    "operation": 13500,
    "Ġhermits": 22071,
    "Ġstained": 11651,
    "Ġequival": 4784,
    "cannib": 11900,
    "Ġsucceeding": 16761,
    "_),": 7125,
    "Ġsoot": 14129,
    "rubbery": 17341,
    "Ġpatted": 16370,
    "Ġpropriety": 10009,
    "mered": 8217,
    "Ġtheorem": 2326,
    "Ġjoyous": 14663,
    "vial": 17697,
    "Ġscr": 11758,
    "ounted": 5030,
    "Ġmccarthy": 5145,
    "superstitiousness": 25508,
    "confidence": 16808,
    "Ġsalt": 8016,
    "ilege": 22255,
    "Ġglance": 4235,
    "Ġnewfoundland": 26569,
    "Ġless": 1935,
    "Ġrighteous": 18945,
    "Ġattendance": 12179,
    "Ġbab": 5289,
    "Ġdatasets": 2390,
    "successful": 11358,
    "hero": 21203,
    "Ġdivide": 12108,
    "crossed": 16632,
    "Ġasserted": 16949,
    "Ġscheduling": 2349,
    "Ġburn": 3685,
    "Ġmant": 9647,
    "Ġaffords": 16734,
    "Ġengage": 9334,
    "_,": 2799,
    "Ġtroub": 22362,
    "Ġfaintness": 24570,
    "reputable": 15516,
    "Ġreus": 8821,
    "Ġtrifling": 10602,
    "Ġbeams": 14631,
    "Ġferry": 24498,
    "fits": 13717,
    "hearse": 17748,
    "Ġstooping": 13059,
    "Ġimmersed": 19483,
    "immense": 18052,
    "Ġschedules": 3389,
    "Ġinsure": 13177,
    "Ġmor": 1251,
    "opolising": 25676,
    "engaged": 7452,
    "Ġzone": 14360,
    "Ġchanging": 11751,
    "whiteness": 18370,
    "Ġderanged": 23171,
    "Ġannounced": 9034,
    "Ġattends": 19649,
    "Ġcal": 1325,
    "Ġunche": 23427,
    "Ġstrand": 11826,
    "Ġrelevance": 5184,
    "snow": 10724,
    "unfearing": 21889,
    "Ġperusal": 14223,
    "better": 7119,
    "baby": 25515,
    "Ġazure": 12372,
    "spread": 8388,
    "Ġmans": 15534,
    "Ġsweat": 13139,
    "Ġdomineering": 23690,
    "rage": 10843,
    "Ġloads": 22111,
    "Ġdoctrine": 24197,
    "Ġsmo": 2702,
    "Ġseem": 913,
    "Ġflourish": 17160,
    "Ġnib": 13939,
    "Ġdeployment": 11193,
    "Ġrebounds": 25967,
    "Ġapparel": 20434,
    "Ġappointment": 10646,
    "Ġdawned": 14993,
    "Ġcomparison": 7099,
    "Ġ133": 24783,
    "Ġbiography": 22760,
    "Ġmorphology": 3012,
    "Ġhangs": 11605,
    "ource": 5244,
    "Ġmistake": 6203,
    "ub": 1228,
    "Ġseeming": 8540,
    "Ġextremely": 2671,
    "atically": 2616,
    "Ġobsequious": 17403,
    "et": 307,
    "Ġundue": 25993,
    "alously": 15626,
    "Ġott": 13865,
    "Ġswandam": 11088,
    "Ġbefore": 811,
    "uel": 6966,
    "Ġbrushed": 15568,
    "Ġtrod": 15026,
    "collecting": 26081,
    "Ġzoned": 22817,
    "Ġfewer": 16219,
    "Ġpremature": 3727,
    "sound": 6799,
    "Ġ73": 24260,
    "Ġoutright": 18413,
    "imprisonment": 23760,
    "call": 8722,
    "Ġmiles": 3805,
    "du": 604,
    "ifford": 15781,
    "icip": 6389,
    "Ġtumult": 7114,
    "Ġnailed": 10189,
    "Ġshillings": 15833,
    "miniature": 16765,
    "Ġcot": 13876,
    "Ġdrag": 6184,
    "Ġimposs": 16616,
    "Ġhunsford": 6301,
    "Ġiii": 7860,
    "Ġembal": 11907,
    "Ġbecomes": 6396,
    "Ġconfide": 13096,
    "tumbled": 21089,
    "Ġherb": 15854,
    "Ġrafters": 22658,
    "Ġtub": 7146,
    "Ġinn": 4591,
    "Ġhunted": 7453,
    "Ġhollowly": 24526,
    "Ġhimmalehs": 26230,
    "Ġaunt": 3174,
    "nns": 1890,
    "Ġbehave": 23294,
    "Ġpre": 507,
    "Ġ53": 19639,
    "Ġcounter": 6481,
    "/`)": 13659,
    "icha": 11736,
    "Ġlids": 12273,
    "Ġdaunt": 19663,
    "phil": 7924,
    "uerus": 26406,
    "Ġapprehens": 5682,
    "Ġaccidentally": 9504,
    "acceler": 23597,
    "Ġseveral": 2675,
    "Ġfunctions": 1340,
    "england": 18928,
    "Ġlately": 6387,
    "Ġmonarch": 14413,
    "ength": 2313,
    "Ġdistrict": 10318,
    "load": 12878,
    "Ġtrained": 8502,
    "Ġaccomplishment": 19664,
    "reg": 2184,
    "Ġchann": 15933,
    "Ġfisherman": 12073,
    "cull": 20808,
    "opol": 12868,
    "Ġconsequences": 11335,
    "place": 4158,
    "scept": 21052,
    "Ġdelayed": 9517,
    "wis": 12516,
    "possible": 5743,
    "Ġerrand": 11085,
    "mblings": 19779,
    "urean": 18122,
    "Ġbethink": 12377,
    "Ġresponded": 13637,
    "held": 3841,
    "Ġdisadvantage": 12887,
    "urance": 10857,
    "Ġsyn": 15911,
    "Ġhelp": 1641,
    "rich": 11517,
    "broker": 13303,
    "lovely": 16043,
    "urp": 1472,
    "Ġshipw": 12976,
    "Ġdiscerning": 25002,
    "degree": 12798,
    "aries": 6244,
    "Ġunderwent": 23237,
    "Ġdistur": 5312,
    "Ġbeside": 5192,
    "roused": 16652,
    "duck": 22409,
    "Ġhamp": 12627,
    "po": 1139,
    "nable": 13761,
    "Ġwand": 4344,
    "Ġcharming": 6628,
    "Ġinch": 7849,
    "Ġlabours": 8581,
    "Ġhorses": 6385,
    "Ġunfold": 8022,
    "involved": 25626,
    "Ġconsisted": 10419,
    "Ġmary": 3844,
    "Ġdrink": 4787,
    "Ġnast": 15636,
    "Ġreception": 9838,
    "meadow": 18679,
    "Ġdeb": 4764,
    "Ġtomahawk": 7539,
    "ancho": 4938,
    "Ġhistories": 14687,
    "Ġannouncement": 14832,
    "Ġhollows": 19740,
    "Ġmany": 1107,
    "Ġprofoundly": 16859,
    "Ġslope": 14459,
    "Ġsolemn": 4104,
    "Ġcapst": 8595,
    "condition": 7059,
    "Ġrashness": 25460,
    "manners": 16184,
    "Ġspec": 1263,
    "begin": 8883,
    "Ġheightened": 8648,
    "Ġghost": 6142,
    "Ġaccelerating": 1616,
    "rougham": 15991,
    "Ġboun": 21378,
    "lanter": 15386,
    "Ġmodel": 514,
    "sets": 17660,
    "itect": 968,
    "accepting": 20134,
    "Ġremem": 4315,
    "Ġremark": 2146,
    "Ġware": 12551,
    "please": 8176,
    "Ġimpartial": 15218,
    "Ġindefatigable": 17177,
    "mell": 20963,
    "Ġlikewise": 5386,
    "across": 10322,
    "Ġrepenting": 25322,
    "consol": 9761,
    "Ġwidespread": 20674,
    "Ġ113": 19695,
    "Ġfinish": 7948,
    "visitor": 15057,
    "Ġjustice": 5111,
    "ipp": 10102,
    "Ġhates": 21483,
    "Ġnavies": 16900,
    "Ġtravelling": 11307,
    "Ġpatched": 16371,
    "Ġmedicine": 15204,
    "Ġcand": 3276,
    "Ġmutually": 23955,
    "sweep": 24617,
    "Ġequator": 7461,
    "Ġapprobation": 10986,
    "soo": 18685,
    "Ġreynolds": 10209,
    "'(": 2980,
    "Ġseap": 15815,
    "Ġdifficulty": 5770,
    "Ġlangu": 574,
    "Ġthoughtfully": 12977,
    "Ġlining": 13950,
    "Ġbroadway": 23982,
    "Ġfitly": 23997,
    "wife": 8100,
    "uge": 4021,
    "stones": 11635,
    "Ġsunday": 7270,
    "pit": 3989,
    "forest": 22515,
    "Ġfinest": 10391,
    "Ġwield": 21289,
    "sense": 11523,
    "Ġspeaker": 19148,
    "Ġsubstances": 24165,
    "ensing": 12896,
    "Ġendeavoured": 4918,
    "deceit": 25556,
    "accents": 19209,
    "companions": 15023,
    "Ġchaplain": 19911,
    "Ġexpressing": 12007,
    "Ġtoken": 2037,
    "disputed": 23500,
    "Ġbinding": 20417,
    "amaz": 21847,
    "Ġsigma": 1536,
    "Ġrinal": 21974,
    "Ġphren": 8571,
    "Ġmincer": 14366,
    "broken": 8020,
    "Ġscales": 4849,
    "Ġloathing": 15066,
    "Ġmechanical": 7936,
    "grateful": 10428,
    "Ġoscill": 2857,
    "ided": 2785,
    "sander": 11526,
    "Ġtusked": 25426,
    "Ġsmiting": 12898,
    "Ġbam": 15563,
    "ises": 3656,
    "Ġcopper": 7425,
    "beds": 16586,
    "Ġimportance": 4900,
    "Ġspell": 8855,
    "tering": 3808,
    "Ġlean": 7605,
    "Ġbrain": 2088,
    "Ġnin": 10187,
    "Ġpause": 5707,
    "until": 6596,
    "possess": 5983,
    "Ġlad": 2363,
    "Ġgoblet": 25823,
    "Ġsheath": 14151,
    "sought": 15426,
    "Ġcologne": 12972,
    "Ġshrouds": 11344,
    "oves": 15403,
    "Ġdazed": 15593,
    "vity": 7815,
    "Ġsimil": 2531,
    "Ġforger": 15730,
    "\":": 9581,
    "fam": 5988,
    "Ġdepends": 1089,
    "Ġdenoted": 16564,
    "disapprobation": 19155,
    "anean": 7443,
    "Ġimprec": 14216,
    "Ġremarks": 7474,
    "ass": 540,
    "Ġcont": 620,
    "Ġwhip": 8451,
    "Ġsteamer": 17188,
    "Ġopposite": 5120,
    "Ġsl": 1495,
    "continued": 8675,
    "Ġtapping": 10752,
    "fil": 12460,
    "icherry": 15134,
    "Ġdeprec": 15755,
    "Ġinitialization": 1254,
    "Ġemployment": 8628,
    "ishness": 22340,
    "swinging": 25912,
    "Ġchapters": 10473,
    "les": 1018,
    "Ġornamented": 20360,
    "withdrawn": 23025,
    "Ġruskin": 25808,
    "Ġbaboon": 19692,
    "kee": 18273,
    "Ġeel": 18001,
    "threw": 21981,
    "ruit": 22178,
    "Ġpicked": 6341,
    "Ġroyals": 19531,
    "mingled": 14713,
    "pursued": 17281,
    "aan": 20763,
    "object": 6884,
    "sorrow": 12506,
    "Ġclerical": 25568,
    "incible": 16496,
    "cheap": 23802,
    "Ġcorroboration": 26052,
    "Ġclos": 4550,
    "bus": 5354,
    "Ġdisenc": 22523,
    "Ġburly": 19249,
    "sam": 21050,
    "cake": 20803,
    "Ġweave": 21918,
    "irty": 4054,
    "Ġclum": 8872,
    "Ġtortoise": 16908,
    "Ġpretence": 13206,
    "Ġcards": 7580,
    "Ġtant": 12522,
    "Ġphiladel": 23883,
    "Ġtowns": 11173,
    "Ġjon": 15946,
    "Ġsnuffing": 25012,
    "Ġreflecting": 24751,
    "Ġcongrat": 5827,
    "mrs": 3746,
    "client": 18931,
    "Ġmummy": 25768,
    "nobody": 16137,
    "presbyter": 20616,
    "Ġearl": 7675,
    "Ġadapted": 11038,
    "umb": 3480,
    "Ġdeprived": 8209,
    "Ġfunction": 588,
    "bted": 7793,
    "Ġfogs": 25282,
    "vellers": 16673,
    "Ġassailed": 23175,
    "Ġshorter": 4500,
    "Ġhyp": 3874,
    "Ġstir": 5823,
    "Ġpassengers": 13674,
    "Ġisol": 8833,
    "Ġwhoever": 10975,
    "Ġabruptly": 15149,
    "Ġsultanism": 25888,
    "osite": 4893,
    "Ġschool": 5512,
    "Ġallurements": 22004,
    "Ġfrigate": 13080,
    "Ġsuperglue": 23456,
    "Ġthrills": 24542,
    "shavings": 22445,
    "Ġbohem": 8526,
    "ĠĠĠĠĠĠĠĠĠĠĠĠĠĠĠĠ": 1221,
    "Ġrepulsive": 14528,
    "Ġstab": 10862,
    "!": 5,
    "Ġuncork": 23428,
    "Ġdeveloped": 16338,
    "Ġporus": 24398,
    "racing": 21628,
    "nals": 16396,
    "Ġxiv": 23406,
    "Ġminimax": 5857,
    "Ġprogra": 1146,
    "icket": 22665,
    "Ġgabriel": 7595,
    "ú": 187,
    "ption": 7398,
    "drovand": 24760,
    "cceed": 4147,
    "scra": 13019,
    "cent": 8072,
    "ssible": 2992,
    "Ġdynam": 3304,
    "owder": 8449,
    "Ġwandered": 6930,
    "ediction": 17944,
    "Ġwitnessing": 19597,
    "Ġassizes": 11108,
    "Ġattendant": 11285,
    "Ġbored": 16103,
    "Ġemerge": 14927,
    "blown": 25201,
    "Ġlig": 21545,
    "acknowledged": 15201,
    "Ġfeed": 2128,
    "Ġadler": 8173,
    "uling": 2260,
    "Ġoffensive": 18691,
    "Ġtherefore": 2240,
    "Ġfairness": 9892,
    "orrowed": 19289,
    "Ġlivel": 11355,
    "note": 14339,
    "cery": 20807,
    "Ġclassification": 1092,
    "Ġmiss": 1232,
    "Ġgrind": 18735,
    "Ġassert": 7120,
    "Ġfeverish": 11348,
    "noon": 5037,
    "often": 6165,
    "Ġgipsies": 12406,
    "dep": 6786,
    "Ġcrimes": 8588,
    "Ġwilderness": 14839,
    "Ġpolicy": 10457,
    "broke": 14776,
    "Ġfron": 14487,
    "arts": 6563,
    "<PAD>": 0,
    "Ġspin": 7629,
    "Ġresponsible": 9886,
    "iam": 2508,
    "Ġhailing": 11691,
    "committed": 18738,
    "Ġ45": 14770,
    "zing": 7820,
    "Ġprogeny": 17387,
    "Ġcylinders": 25943,
    "such": 3082,
    "Ġdoctors": 12149,
    "Ġresting": 7961,
    "Ġscheme": 7064,
    "Ġpretext": 22226,
    "Ġglasses": 9474,
    "Ġconvolutions": 21804,
    "Ġyou": 366,
    "Ġfiner": 13050,
    "Ġunfathom": 14788,
    "Ġfeeding": 7972,
    "omn": 15679,
    "introduced": 15123,
    "Ġrobust": 1312,
    "Ġpers": 1357,
    "whale": 2140,
    "Ġplanisphere": 26607,
    "iliation": 10860,
    "Ġcries": 7154,
    "Ġrumours": 24598,
    "Ġmarbank": 23034,
    "_:": 17478,
    "Ġindependently": 4248,
    "complied": 19912,
    "Ġhack": 12753,
    "Ġhogshead": 26367,
    "clothed": 19737,
    "Ġspool": 24806,
    "Ġpressure": 13421,
    "Ġunattended": 15841,
    "permitted": 18345,
    "ward": 705,
    "Ġcalcul": 3640,
    "Ġbilliard": 16689,
    "exerc": 16013,
    "Ġdiscoloured": 15251,
    "gam": 10095,
    "Ġwaiter": 16425,
    "mine": 5618,
    "Ġaromatic": 25925,
    "fishermen": 17061,
    "Ġbackward": 7652,
    "Ġenabling": 1078,
    "ood": 963,
    "Ġcomprehended": 11294,
    "Ġdesertion": 24787,
    "Ġchange": 1992,
    "Ġstones": 9221,
    "ission": 6457,
    "Ġvancou": 22872,
    "Ġwhat": 600,
    "food": 12461,
    "Ġpaw": 12617,
    "independ": 15980,
    "Ġbel": 1217,
    "Ġprodig": 6027,
    "Ġmealy": 18118,
    "Ġrecursive": 4782,
    "ually": 2771,
    "Ġgenerate": 1585,
    "Ġlouder": 13467,
    "Ġplunged": 8692,
    "others": 7669,
    "Ġcentre": 5122,
    "Ġagonies": 14251,
    "Ġguessed": 11282,
    "Ġoust": 21322,
    "Ġunderneath": 16335,
    "Ġtries": 9150,
    "Ġcavity": 20486,
    "letter": 6201,
    "Ġendeared": 26498,
    "Ġoffend": 16139,
    "umed": 6554,
    "action": 3728,
    "embraced": 25806,
    "emotion": 21927,
    "Ġinsignific": 13179,
    "Ġvalu": 5039,
    "Ġarisen": 11741,
    "Ġthrust": 5084,
    "Ġbu": 3684,
    "accordingly": 19211,
    "Ġscorch": 20063,
    "precision": 4333,
    "unalterable": 21883,
    "Ġroyal": 5602,
    "tremendous": 20672,
    "Ġresort": 18563,
    "Ġsensitiveness": 23733,
    "odious": 21812,
    "Ġbuffaloes": 25217,
    "uss": 8763,
    "relieved": 13275,
    "Ġassur": 6073,
    "Ġpelt": 15607,
    "Ġlingu": 11613,
    "Ġwere": 556,
    "eyed": 11486,
    "quarried": 24945,
    "Ġcomprise": 18586,
    "Ġprogen": 14038,
    "Ġtint": 13816,
    "Ġcashier": 20197,
    "Ġhelping": 3266,
    "Ġbeak": 18079,
    "likewise": 13103,
    "Ġprincess": 23221,
    "Ġhier": 1891,
    "Ġingen": 9049,
    "straight": 9939,
    "ĠĠĠĠĠĠĠĠĠĠĠĠĠĠĠĠĠĠĠĠĠĠĠĠĠĠ": 13387,
    "Ġruefully": 17300,
    "Ġharpooned": 13261,
    "Ġfigures": 8629,
    "Ġsolicitude": 10039,
    "extraordinary": 9094,
    "irable": 5776,
    "Ġunwe": 15836,
    "Ġattitudes": 16094,
    "avor": 14261,
    "Ġadmire": 5263,
    "Ġloggerhead": 13656,
    "Ġinvitation": 5189,
    "Ġbetokened": 18798,
    "ently": 1447,
    "Ġcaught": 3732,
    "remember": 7262,
    "Ġregiment": 6432,
    "stud": 8819,
    "mund": 13757,
    "jug": 17580,
    "recur": 4439,
    "Ġpreferred": 14965,
    "join": 12111,
    "Ġaw": 2509,
    "Ġ95": 19772,
    "Ġadmeasure": 18295,
    "infall": 21187,
    "Ġfive": 2837,
    "ors": 854,
    "Ġstuff": 5717,
    "Ġformation": 2944,
    "Ġequinoctial": 20531,
    "conception": 22469,
    "dro": 6644,
    "Ġdismal": 11808,
    "Ġsickening": 19603,
    "Ġsauce": 15888,
    "Ġbefallen": 12341,
    "³": 116,
    "Ġchances": 9262,
    "unwillingness": 25802,
    "Ġcondescension": 10618,
    "manner": 6170,
    "itiously": 13870,
    "Ġhorrible": 4905,
    "Ġcircumference": 13544,
    "Ġconsume": 12956,
    "Ġabusive": 22280,
    "impatience": 25500,
    "Ġremoved": 5274,
    "unaccountable": 15776,
    "Ġmurmur": 14589,
    "oul": 4699,
    "Ġsolid": 6443,
    "Å": 134,
    "Ġgodly": 19080,
    "Ġ83": 24459,
    "reason": 4416,
    "ok": 575,
    "Ġgenerally": 4162,
    "marked": 9048,
    "Ġunrival": 22042,
    "Ġvarieties": 14309,
    "Ġpand": 21453,
    "Ġstarts": 16581,
    "Ġmaintains": 2145,
    "Ġconstrain": 2631,
    "Ġtone": 4044,
    "overing": 6306,
    "Ġchinese": 14183,
    "oles": 21004,
    "Ġspit": 22121,
    "Ġuntamed": 19163,
    "Ġbeggar": 9348,
    "sc": 1260,
    "Ġprofundities": 20452,
    "Ġcousin": 3706,
    "Ġuninhabited": 22046,
    "Ġmod": 496,
    "Ġanother": 1737,
    "Ġunh": 9252,
    "Ġdownstairs": 11224,
    "Ġclimes": 12840,
    "nowhere": 18418,
    "Ġcorpor": 23036,
    "Ġmodular": 12814,
    "Ġlegitimate": 20641,
    "Ġmimic": 3142,
    "Ġwidest": 24234,
    "Ġbottomless": 12104,
    "Ġradney": 6775,
    "Ġalex": 15132,
    "Ġbest": 1974,
    "Ġgreeks": 20011,
    "thirds": 25046,
    "Ġintently": 8168,
    "yset": 21144,
    "etics": 21578,
    "Ġprecip": 7074,
    "Ġclues": 18427,
    "Ġheartfelt": 18967,
    "Ġcrystal": 17214,
    "vult": 21112,
    "Ġadvertisement": 6941,
    "unusual": 21876,
    "Ġevince": 24293,
    "ulates": 14054,
    "sleeve": 26108,
    "print": 23808,
    "Ġconj": 8460,
    "Ġforming": 7042,
    "Ġinter": 729,
    "Ġreproached": 24891,
    "\"]": 17470,
    "Ġsayest": 22776,
    "numerous": 17430,
    "Ġcrystall": 20225,
    "discovering": 24251,
    "remarkable": 13497,
    "ribute": 7227,
    "Ġune": 4599,
    "Ġhabit": 6771,
    "hint": 12473,
    "pillar": 5619,
    "Ġtheirs": 7024,
    "absolutely": 10645,
    "Ġmarked": 4620,
    "Ġperennial": 22691,
    "Ġcase": 1939,
    "Ġboisterously": 25682,
    "Ġintroduce": 3202,
    "Ġmemb": 14028,
    "Ġarri": 2553,
    "Ġleaks": 16447,
    "Ġcouns": 10520,
    "Ġstricken": 9775,
    "brance": 7284,
    "Ġsumm": 3357,
    "congratulations": 20278,
    "Ġconversation": 3332,
    "ĠâĢĺ_": 11117,
    "officer": 17054,
    "Ġinsight": 16528,
    "floating": 12225,
    "Ġ177": 13411,
    "withstanding": 8945,
    "erc": 5904,
    "Ġgreater": 3038,
    "Ġcocksure": 26258,
    "Ġtug": 11550,
    "Ġrattled": 15065,
    "cream": 15330,
    "Ġcontented": 9755,
    "eon": 8729,
    "Ġbanker": 8666,
    "Ġmons": 10156,
    "whalebone": 19118,
    "Ġseemed": 1277,
    "Ġremember": 2680,
    "weaknesses": 26030,
    "ault": 2307,
    "passenger": 24166,
    "Ġelevation": 14898,
    "Ġinsensibly": 20074,
    "Ġenglishmen": 19428,
    "Ġspouting": 9438,
    "Ġass": 1502,
    "ht": 375,
    "increas": 10454,
    "Ġdrops": 9032,
    "Ġender": 11688,
    "waving": 21130,
    "prophecy": 22824,
    "icates": 11616,
    "tracks": 19637,
    "Ġrecalled": 8538,
    "Ġenumer": 12742,
    "it": 276,
    "Ġodds": 13328,
    "Ġcontent": 5034,
    "Ġmerits": 13195,
    "ources": 2789,
    "Ġbales": 21387,
    "Ġcowards": 12570,
    "Ġallies": 18234,
    "Ġplough": 18608,
    "rendered": 22337,
    "distinguished": 10526,
    "Ġendurance": 23140,
    "Ġalman": 21778,
    "Ġvariously": 18653,
    "igned": 5656,
    "enary": 12548,
    "dra": 3416,
    "Ġbankers": 24302,
    "Ġabide": 14190,
    "Ġrendering": 16657,
    "Ġpages": 15605,
    "inconsiderable": 21190,
    "Ġsplinter": 23745,
    "aciousness": 18567,
    "Ġinjure": 16781,
    "cence": 9588,
    "ean": 20839,
    "unhes": 21872,
    "Ġeasily": 3892,
    "investments": 25532,
    "um": 453,
    "Ġgetting": 4070,
    "aks": 8506,
    "(": 12,
    "obli": 23092,
    "acquired": 24296,
    "ackinaw": 22418,
    "Ġadd": 630,
    "ars": 905,
    "Ġeduc": 4785,
    "Ġdiscredit": 22780,
    "oried": 10802,
    "Ġengineering": 3027,
    "Ġnorthern": 7265,
    "mistake": 24529,
    "Ġbushes": 16397,
    "magnet": 14969,
    "Ġperilously": 24507,
    "ii": 4019,
    "isis": 12576,
    "satisfactory": 16893,
    "Ġsermons": 20193,
    "majesty": 26280,
    "ĠâĢľ": 518,
    "Ġmuteness": 19415,
    "Ġcompatibility": 2961,
    "Ġpolar": 9410,
    "care": 4928,
    "Ġoffspring": 16140,
    "azore": 23463,
    "pier": 17635,
    "Ġmirth": 15542,
    "ousings": 18335,
    "regard": 7973,
    "Ġforeb": 12002,
    "Ġspear": 9313,
    "didst": 19347,
    "Ġdecreases": 3412,
    "Ġcapsizing": 20087,
    "bury": 9106,
    "turbaned": 24532,
    "Ġinfer": 7683,
    "comfortable": 7320,
    "Ġwreak": 16817,
    "ļ": 253,
    "Ġrapture": 13495,
    "Ġbambooz": 26119,
    "itty": 3556,
    "Ġwondered": 11125,
    "Ġpillow": 10037,
    "Ġgang": 9207,
    "Ġdisp": 3360,
    "ı": 242,
    "Ġsteadfastly": 10651,
    "Ġconveys": 16855,
    "meaning": 2909,
    "wishing": 21127,
    "Ġprairie": 8712,
    "being": 3915,
    "Ġcig": 6520,
    "Ġheinous": 18038,
    "Ġpeculiarity": 12930,
    "Ġsatiated": 22900,
    "Ġoptim": 782,
    "Ġprop": 1683,
    "Ġ40": 14768,
    "Ġdiddled": 22664,
    "Ġfundamentals": 14635,
    "Ġyaw": 18094,
    "stem": 572,
    "Ġterminating": 23510,
    "etrics": 21582,
    "Ġchased": 8861,
    "Ġeasiest": 23536,
    "Ġdisabled": 18561,
    "oning": 7572,
    "Ġoldest": 12970,
    "Ġfollies": 16254,
    "Ġpersonified": 19177,
    "yard": 5899,
    "Ġtepid": 26412,
    "Ġivory": 4478,
    "Ġv": 399,
    "Ġpregn": 22229,
    "omination": 21639,
    "green": 7115,
    "Ġyet": 1031,
    "ittingly": 18805,
    "Ġsenior": 17171,
    "ire": 493,
    "naturalists": 23460,
    "Ġsa": 474,
    "Ġinequal": 21494,
    "Ġaway": 1246,
    "bird": 9585,
    "scrape": 25698,
    "Ġschools": 9476,
    "Ġsuccessive": 10500,
    "abases": 3008,
    "weary": 22683,
    "Ġstarve": 24625,
    "Ġpoisoned": 24886,
    "Ġhundreds": 4330,
    "Ġgrammars": 11402,
    "Ġcringed": 25942,
    "Ġviolent": 5117,
    "Ġverify": 12085,
    "sigma": 3004,
    "Ġsends": 14789,
    "ortion": 11754,
    "Ġshelter": 17008,
    "ching": 5156,
    "Ġhesitation": 13440,
    "Ġvicissitudes": 12417,
    "Ġstoop": 16308,
    "Ġwaifing": 25244,
    "Ġcarelessly": 11120,
    "Ġincorrupt": 19233,
    "Ġdistressing": 12216,
    "batross": 9092,
    "acked": 10973,
    "acy": 3959,
    "impenet": 18053,
    "rages": 15678,
    "Ġshrine": 19530,
    "Ġproceedings": 9906,
    "Ġtowards": 1728,
    "Ġtechnically": 12364,
    "Ġshrunk": 16718,
    "Ġdispute": 16054,
    "Ġfished": 21408,
    "Ġpour": 13913,
    "valley": 16213,
    "Ġmeaning": 1415,
    "slowly": 9088,
    "ahead": 12432,
    "Ġdisput": 14255,
    "forbidding": 25836,
    "bitious": 16669,
    "Ġmus": 3400,
    "eers": 20842,
    "Ġoppose": 16518,
    "Ġmagnifying": 16317,
    "nantucketer": 24972,
    "Ġpaintings": 15055,
    "Ġbenjam": 22890,
    "Ġpepper": 9780,
    "Ġabhorrence": 9052,
    "ade": 880,
    "ortunity": 4405,
    "Ġsec": 2075,
    "ĝ": 222,
    "Ġstrange": 2276,
    "ingolstadt": 21302,
    "Ġfreed": 7267,
    "Ġcredit": 4818,
    "Ġhumph": 22878,
    "Ġimpreg": 15984,
    "Ġretarded": 23069,
    "acknowledging": 25476,
    "Ġrucastles": 18721,
    "Ġlogs": 16345,
    "Ġupon": 718,
    "crew": 7544,
    "regarding": 15070,
    "Ġdischarge": 18556,
    "Ġlabrador": 23326,
    "Ġfasting": 16354,
    "Ġjing": 15947,
    "Ġflogged": 23623,
    "Ġmoney": 3421,
    "Ġabsurd": 7203,
    "Ġcigars": 12250,
    "ou": 287,
    "Ġdames": 23474,
    "onde": 21250,
    "Ġholidays": 22919,
    "Ġsong": 5902,
    "iciously": 17973,
    "¶": 119,
    "leness": 4691,
    "Ġmystical": 12130,
    "tot": 10728,
    "Ġendeavored": 19302,
    "inte": 5144,
    "Ġeve": 13969,
    "knot": 13744,
    "assisted": 22304,
    "Ġminimize": 7050,
    "Ġhastened": 9004,
    "Ġending": 18189,
    "mblies": 24608,
    "Ġverd": 6919,
    "Ġwalls": 6762,
    "Ġslid": 7951,
    "feed": 9292,
    "stamp": 21651,
    "resembled": 21245,
    "Ġline": 1847,
    "Ġclenched": 14206,
    "Ġhydraul": 9513,
    "scr": 16242,
    "Ġobliged": 4288,
    "Ġpugnacious": 26451,
    "vius": 23540,
    "abri": 6682,
    "Ġbride": 6291,
    "Ġoverboard": 6043,
    "vo": 11539,
    "Ġpreside": 18365,
    "rief": 6202,
    "Ġtissu": 25920,
    "maul": 11890,
    "Ġchains": 8250,
    "Ġfoliage": 18866,
    "Ġverily": 16603,
    "judge": 13335,
    "Ġopened": 3513,
    "drawn": 9912,
    "Ġpacific": 5153,
    "fred": 20854,
    "Ġagency": 11803,
    "oboam": 9357,
    "thoughts": 9934,
    "retrospect": 23133,
    "Ġsteering": 10387,
    "Ġwanting": 6721,
    "Ġlodge": 5779,
    "phenomenon": 17648,
    "Ġgest": 8133,
    "Ġmoth": 17802,
    "obedience": 17409,
    "Ġrobins": 16235,
    "Ġloc": 10914,
    "Ġrecklessly": 16983,
    "Ġskirts": 14352,
    "mortal": 10112,
    "Ġhealthcare": 8015,
    "Ġscoresby": 10461,
    "ured": 1653,
    "Ġoct": 10158,
    "Ġcabaco": 13166,
    "bond": 17489,
    "Ġvi": 1952,
    "Ġhovel": 8253,
    "Ġvillain": 8635,
    "said": 4108,
    "Ġmoreover": 6163,
    "Ġpenn": 11111,
    "Ġfumes": 21416,
    "ific": 490,
    "Ġutilize": 4798,
    "Ġscolding": 15199,
    "Ġcruelly": 13374,
    "Ġmeek": 21806,
    "Ġstack": 21730,
    "rally": 17651,
    "Ġhesitating": 16947,
    "Ġfluctuations": 5516,
    "Ġwrig": 13065,
    "miss": 3171,
    "Ġgallons": 14817,
    "Ġtort": 5901,
    "Ġhistorically": 19376,
    "Ġdome": 15586,
    "lights": 13204,
    "oug": 431,
    "Ġpoets": 11819,
    "Ġplump": 14281,
    "Ġjobs": 24832,
    "Ġgrec": 18960,
    "stars": 18019,
    "²": 115,
    "Ġpeace": 3694,
    "Ġbritain": 16956,
    "Ġappeared": 2776,
    "readers": 23845,
    "Ġsupervised": 3383,
    "<EOS>": 2,
    "americans": 25042,
    "Ġrevolution": 3307,
    "inev": 21976,
    "Ġwhitish": 24866,
    "Ġcongen": 10873,
    "batim": 25016,
    "drab": 23895,
    "Ġfancied": 7326,
    "Ġquietly": 4568,
    "Ġembedding": 2104,
    "Ġimprudently": 22382,
    "Ġbough": 13893,
    "Ġfancies": 10424,
    "Ġconjoined": 21803,
    "ortations": 22252,
    "Ġhail": 7400,
    "orange": 21398,
    "Ġsummit": 7730,
    "ong": 537,
    "Ġflowery": 16231,
    "soc": 5175,
    "mitting": 17602,
    "Ġcushion": 17833,
    "shrugged": 22442,
    "Ġlimited": 23543,
    "threaten": 25461,
    "Ġmira": 8406,
    "Ġinclusive": 24163,
    "bur": 4687,
    "Ġdrifting": 19278,
    "azz": 8261,
    "representing": 25271,
    "mentioning": 24885,
    "Ġalthough": 4155,
    "Ġdisposing": 19373,
    "insulting": 26055,
    "child": 5538,
    "====": 1480,
    "Ġinanimate": 13932,
    "cool": 19186,
    "Ġimport": 961,
    "icles": 17972,
    "Ġdate": 7841,
    "Ġsuccessfully": 19427,
    "ĠarchÃ¦": 22773,
    "Ġworldly": 16328,
    "emason": 18186,
    "worm": 15452,
    "ã": 164,
    "Ġholy": 6591,
    "Ġegress": 21620,
    "Ġflea": 23771,
    "Ġmr": 661,
    "Ġowns": 22821,
    "etime": 12656,
    "Ġturner": 7049,
    "Ġsublime": 8065,
    "Ġfearful": 6197,
    "Ġadmitting": 19182,
    "Ġarthur": 7196,
    "concluding": 19479,
    "Ġ1846": 26084,
    "Ġawfulness": 23586,
    "Ġswaths": 23055,
    "Ġensu": 7874,
    "quadrille": 20593,
    "Ġlumps": 21553,
    "apping": 5851,
    "Ġvexatious": 19780,
    "Ġimpulse": 10023,
    "susp": 10596,
    "Ġprincely": 24148,
    "Ġepidemic": 20694,
    "Ġarsac": 11740,
    "steering": 16635,
    "Ġunobstructed": 18264,
    "Ġ64": 24367,
    "Ġmost": 1022,
    "Ġwonderland": 23423,
    "Ġplausible": 26553,
    "errand": 22907,
    "Ġprosperity": 20256,
    "idious": 11661,
    "Ġliked": 5264,
    "fearing": 18519,
    "secured": 16938,
    "ien": 10101,
    "Ġtackle": 9512,
    "gates": 20871,
    "Ġbecher": 18879,
    "Ġinh": 10824,
    "ronted": 14876,
    "Ġscrutiny": 26015,
    "Ġmercifully": 20177,
    "Ġcelebrated": 13593,
    "Ġholiest": 18812,
    "penetrate": 20323,
    "doub": 6223,
    "Ġgasping": 17038,
    "Ġbust": 10167,
    "horizon": 23614,
    "Ġstow": 21727,
    "Ġmovable": 22432,
    "Ġsummers": 23871,
    "Ġriveted": 13617,
    "Ġske": 4815,
    "Ġabundantly": 17156,
    "Ġexponentially": 1444,
    "employ": 10895,
    "Ġnineveh": 13388,
    "Ġhouses": 6138,
    "Ġtelescope": 17347,
    "ments": 1400,
    "Ġprocuring": 16870,
    "Ġstretch": 6993,
    "Ġxviii": 23408,
    "Ġfreighted": 16322,
    "nue": 15396,
    "iriously": 18171,
    "Ġsinners": 18949,
    "Ġsuggest": 5417,
    "Ġclosed": 4605,
    "mic": 12486,
    "Ġnotwithstanding": 9713,
    "Ġtransmit": 10309,
    "soever": 11858,
    "Ġsnatching": 10472,
    "Ġunholy": 26218,
    "Ġicy": 10747,
    "Ġunimaginable": 15245,
    "Ġnoisier": 4625,
    "Ġportent": 12079,
    "confl": 22466,
    "¢": 100,
    "ant": 437,
    "84": 15300,
    "Ġskirting": 22795,
    "¿": 128,
    "Ġru": 948,
    "ospit": 22260,
    "Ġinterfere": 11815,
    "Ġmeditate": 16682,
    "Ġgoverned": 23570,
    "Ġentire": 2559,
    "Ġwhereas": 3855,
    "Ġlar": 767,
    "Ġtroubles": 19437,
    "Ġuntouched": 16465,
    "Ġwash": 9702,
    "Ġnarrower": 24354,
    "Ġhinges": 15211,
    "Ġcaroline": 7254,
    "Ġshy": 10903,
    "Ġscar": 3211,
    "Ġanxiety": 5408,
    "Ġprecisely": 6466,
    "Ġsoften": 23120,
    "Ġentreat": 4511,
    "failed": 20862,
    "Ġbackwater": 18634,
    "our": 534,
    "Ġhowever": 1303,
    "beam": 16038,
    "Ġforbid": 7864,
    "Ġregards": 16071,
    "isting": 5551,
    "with": 1296,
    "Ġstony": 21737,
    "Ġrequire": 899,
    "riet": 18179,
    "Ġporter": 15608,
    "ograph": 4797,
    "Ġshowing": 7731,
    "Ġlittle": 865,
    "irement": 18355,
    "flight": 15351,
    "Ġstru": 2170,
    "Ġharrow": 17925,
    "Ġbackstays": 22642,
    "Ġgrizz": 10351,
    "Ġretains": 20028,
    "Ġstre": 2109,
    "ĳ": 244,
    "stays": 15686,
    "Ġbehavior": 8001,
    "kempt": 20940,
    "inquire": 16932,
    "Ġprim": 8243,
    "Ġnewly": 9337,
    "Ġathe": 17741,
    "Ġawe": 7147,
    "Ġpaul": 12061,
    "Ġsixty": 7722,
    "Ġhow": 599,
    "Ġreigning": 15698,
    "Ġattentions": 5877,
    "influence": 13577,
    "popular": 26140,
    "tolerable": 17688,
    "Ġprosecution": 12379,
    "Ġsob": 12780,
    "philosophers": 25252,
    "ird": 2430,
    "Ġpatience": 2753,
    "ommod": 13976,
    "Ġmists": 14630,
    "rive": 9706,
    "Ġsternly": 16715,
    "Ġjeer": 24124,
    "arpaul": 14535,
    "rannical": 26401,
    "aken": 1866,
    "istol": 6259,
    "coll": 23777,
    "Ġill": 2194,
    "Ġwhereon": 16099,
    "pag": 11510,
    "ivility": 12786,
    "blister": 24128,
    "aspect": 10193,
    "Ġwhaling": 2783,
    "Ġcountless": 16380,
    "ierce": 14391,
    "Ġsatisfying": 23695,
    "principle": 10650,
    "Ġpoles": 11005,
    "flukes": 25205,
    "Ġgraph": 10902,
    "Ġdoran": 9179,
    "urous": 10212,
    "Ġparticip": 16129,
    "Ġadvanced": 1556,
    "Ġwilt": 9643,
    "Ġperturbation": 20439,
    "Ġlulled": 17968,
    "Ġshakes": 10904,
    "Ġspeedy": 11172,
    "Ġwax": 10776,
    "Ġvouch": 15807,
    "Ġcuring": 21342,
    "stains": 11636,
    "Ġdismay": 11807,
    "Ġpoultry": 17440,
    "regret": 16450,
    "Ġrepresent": 1212,
    "umbent": 12093,
    "ulent": 21859,
    "Ġpercept": 14222,
    "Ġindisc": 16227,
    "Ġaghast": 16045,
    "meal": 22711,
    "Ġwollstonecraft": 26425,
    "Ġcolours": 12971,
    "Ġapplies": 11953,
    "ria": 15792,
    "stupid": 12673,
    "ders": 8074,
    "Ġtreated": 7080,
    "Ġwitnessed": 14843,
    "Ġbrightness": 16575,
    "Ġoverdone": 22346,
    "Ġjets": 10287,
    "Ġrecognition": 3204,
    "Ġbreeze": 5681,
    "Ġbeckoning": 20500,
    "Ġmanual": 14197,
    "larking": 17594,
    "Ġleaking": 21742,
    "Ġreaped": 18029,
    "Ġhearts": 4972,
    "Ġrod": 9279,
    "Ġpotent": 12060,
    "Ġdissimilar": 22528,
    "actions": 8906,
    "Ġbars": 13896,
    "elag": 12655,
    "Ġobstinate": 11336,
    "Ġcordial": 16835,
    "Ġmurderous": 8315,
    "Ġelderly": 13494,
    "Ġadvis": 9809,
    "luent": 15996,
    "Ġyale": 21776,
    "lasting": 8010,
    "mounting": 25207,
    "Ġomn": 8409,
    "Ġoverfitting": 1537,
    "killer": 20474,
    "Ġintrospective": 20599,
    "horner": 23613,
    "Ġfocused": 16340,
    "aths": 22696,
    "Ġwise": 6811,
    "Ġagric": 22511,
    "moments": 19410,
    "composure": 24032,
    "Ġenables": 726,
    "Ġsanta": 26420,
    "Ġnarrations": 24352,
    "Ġmounttop": 19976,
    "bre": 3985,
    "Ġinexhaustible": 16981,
    "Ġinexpress": 12632,
    "Ġsilence": 3267,
    "ingu": 2120,
    "Ġsnugly": 17111,
    "Ġincess": 8430,
    "Ġpoem": 22588,
    "Ġwired": 17786,
    "Ġraft": 16115,
    "Ġtastes": 15476,
    "drew": 7334,
    "Ġapprehension": 7113,
    "Ġsnowy": 9017,
    "free": 8735,
    "Ġcranial": 25592,
    "hereditary": 26419,
    "51": 12429,
    "ob": 1419,
    "Ġmitt": 21306,
    "Ġweap": 6155,
    "70": 17475,
    "Ġsympathised": 14861,
    "Ġrevel": 9214,
    "Ġexecution": 6927,
    "Ġinterconnected": 1338,
    "aton": 21257,
    "Ġabout": 632,
    "Ġeyeing": 6460,
    "Ġblubber": 5666,
    "ructure": 759,
    "Ġdy": 2575,
    "Ġcraggy": 23528,
    "Ġlighten": 23257,
    "Ġdismast": 12885,
    "saturday": 14857,
    "Ġworaciousness": 22926,
    "Ġobsole": 22695,
    "Ġnames": 4534,
    "Ġavowed": 16633,
    "pacing": 21020,
    "Ġvan": 1086,
    "Ġwheel": 9717,
    "Ġimaginative": 19246,
    "ft": 910,
    "gment": 4392,
    "Ġafternoon": 6052,
    "Ġmodest": 15915,
    "Ġdampening": 2895,
    "Ġattaining": 15801,
    "Ġroy": 4230,
    "fitters": 24761,
    "stirred": 20423,
    "ap": 546,
    "Ġgard": 2190,
    "Ġspreading": 13377,
    "Ġhonor": 5664,
    "backs": 9389,
    "Ġcapering": 21352,
    "Ġindies": 22948,
    "ternatural": 12712,
    "ruck": 6848,
    "iates": 13736,
    "Ġbremen": 23341,
    "home": 7341,
    "Ġpenetration": 19916,
    "Ġfiery": 6871,
    "Ġhousehold": 8567,
    "Ġsuck": 15859,
    "Ġspecialized": 3921,
    "Ġbeast": 7179,
    "bent": 15310,
    "os": 524,
    "therly": 18346,
    "event": 8076,
    "proportions": 22823,
    "ials": 11702,
    "twelvemonth": 25862,
    "glimmer": 26321,
    "Ġq": 1084,
    "Ġfriesland": 26442,
    "Ġtinted": 13821,
    "rings": 10722,
    "Ġimagination": 5759,
    "whips": 22235,
    "Ġbowed": 6242,
    "Ġjoke": 8868,
    "publ": 17638,
    "Ġanimal": 2498,
    "Ġ(_": 3738,
    "Ġwithdrawn": 10606,
    "sford": 5997,
    "Ġbegrim": 23014,
    "Ġshadows": 8012,
    "Ġdrawled": 23987,
    "maybe": 23989,
    "erde": 21267,
    "Ġnecessitated": 23925,
    "Ġdetermined": 2223,
    "horrors": 20540,
    "Ġacceler": 1609,
    "Ġfrocks": 23919,
    "aces": 2068,
    "Ġdishonoured": 20389,
    "Ġnevertheless": 5040,
    "Ġsobs": 14132,
    "Ġvishnoo": 12750,
    "cried": 8724,
    "Ġticking": 25033,
    "Ġexample": 5096,
    "Ġruff": 14348,
    "Ġpowerful": 1654,
    "Ġpondering": 17005,
    "Ġgravely": 7882,
    "bular": 15312,
    "intellect": 18821,
    "Ġwhisker": 23932,
    "Ġdau": 21423,
    "pth": 2381,
    "Ġone": 569,
    "Ġdiffusion": 23780,
    "conclusions": 25672,
    "liv": 9607,
    "Ġnormalization": 1245,
    "sudden": 5315,
    "Ġsisters": 3643,
    "inst": 4297,
    "Ġassociated": 12247,
    "Ġperils": 6272,
    "Ġhousings": 21490,
    "Ġallen": 5160,
    "Ġ66": 24369,
    "Ġmediterranean": 12313,
    "Ġfell": 1976,
    "mbl": 5946,
    "Ġgeological": 14532,
    "glim": 19363,
    "hunt": 20902,
    "reme": 2427,
    "Ġquantization": 19853,
    "Ġgas": 8132,
    "Ġhat": 2773,
    "coat": 5407,
    "provoke": 26071,
    "Ġacres": 14312,
    "Ġcos": 2209,
    "Ġplanned": 14752,
    "Ġposter": 14278,
    "Ġdelay": 5748,
    ":--âĢľ": 24550,
    "lantern": 17427,
    "do": 1993,
    "Ġcirc": 1984,
    "Ġwarming": 23557,
    "twain": 23698,
    "Ġ1820": 25718,
    "Ġsignify": 16493,
    "erman": 5108,
    "acute": 22542,
    "Ġdem": 11673,
    "crimson": 24100,
    "Ġcommonest": 23087,
    "Ġquadru": 16002,
    "begging": 22495,
    "Ġdiscriminative": 4329,
    "Ġcircumspection": 25884,
    "Ġpole": 6433,
    "Ġfilled": 4396,
    "affa": 23774,
    "Ġcrash": 12000,
    "ellative": 21942,
    "angled": 6844,
    "opposition": 24823,
    "ric": 1376,
    "arnel": 18124,
    "Ġexcel": 3571,
    "desponding": 26341,
    "idays": 21767,
    "Ġmonotonically": 3834,
    "Ġcounterpart": 24721,
    "Ġcolourless": 19568,
    "Ġers": 15459,
    "Ġcalamities": 25699,
    "Ġsulkily": 25882,
    "Ġancestors": 25642,
    "Ġsentry": 19022,
    "Ġdeadliest": 14557,
    "Ġaccidents": 10295,
    "Ġfr": 1698,
    "darcy": 5208,
    "Ġmes": 17796,
    "atters": 18494,
    "Ġshock": 6082,
    "Ġtrusted": 10517,
    "pond": 21012,
    "quickness": 19850,
    "Ġstrife": 18613,
    "tru": 10729,
    "mpus": 13756,
    "Ġstumbling": 21739,
    "resnet": 4074,
    "Ġchamber": 6213,
    "atmosphere": 21263,
    "scent": 13018,
    "Ġwrest": 11570,
    "Ġrising": 4358,
    "Ġyoungster": 23177,
    "rather": 5430,
    "verdict": 21726,
    "eternal": 17982,
    "Ġpyramids": 15113,
    "Ġawaiting": 11390,
    "Ġresid": 22535,
    "Ġdespair": 4015,
    "might": 4082,
    "Ġcruelty": 9968,
    "Ġlearned": 2021,
    "umbered": 22114,
    "somewhat": 11160,
    "Ġcompass": 4410,
    "Ġmiddle": 4143,
    "Ġparting": 9782,
    "Ġbreaths": 14856,
    "Ġrepugnant": 26590,
    "Ġconsummation": 17424,
    "Ġjav": 7901,
    "Ġdecl": 3593,
    "Ġshavings": 14109,
    "Ġcompare": 9302,
    "dark": 5614,
    "Ġvivacious": 19814,
    "refuge": 24734,
    "henomen": 10494,
    "Ġart": 747,
    "countenance": 6925,
    "Ġturtles": 19218,
    "Ġreference": 2565,
    "Ġclergy": 7642,
    "Ġme": 351,
    "U": 57,
    "Ġbreast": 8968,
    "twenty": 6607,
    "Ġfleets": 23772,
    "gings": 7549,
    "Ġshrieked": 9547,
    "Ġrestricted": 19026,
    "armon": 23056,
    "Ġlack": 17963,
    "tips": 13795,
    "counter": 20277,
    "Ġ41": 24080,
    "kill": 13743,
    "Ġeh": 6987,
    "omnipotent": 25964,
    "Ġvain": 3632,
    "tired": 21071,
    "Ġdisconnected": 22522,
    "Ġheavens": 5050,
    "Ġrealised": 18981,
    "sperm": 5203,
    "Ġjumping": 13340,
    "asiness": 8128,
    "Ġirresolution": 24915,
    "Ġagree": 7646,
    "bits": 17488,
    "adru": 15728,
    "Ġportrait": 10661,
    "igations": 18043,
    "empt": 2620,
    "Ġoversampling": 20514,
    "Ġfoundations": 11073,
    "Ġoccurrences": 11050,
    "Ġannihilated": 20251,
    "Ġremembering": 14611,
    "advance": 12154,
    "Ķ": 247,
    "Ġvocation": 10525,
    "Ġdel": 1612,
    "Ġextra": 4060,
    "Ġdared": 5440,
    "reen": 21230,
    "lean": 21363,
    "Ġpermit": 9748,
    "ulate": 5233,
    "preserve": 25303,
    "abriel": 6950,
    "becomes": 22494,
    "Ġunce": 11709,
    "lands": 8240,
    "Ġnarwhales": 24902,
    "Ġeffects": 7236,
    "F": 42,
    "ignor": 8961,
    "skinned": 25387,
    "Ġcausing": 16356,
    "Ġneedn": 19227,
    "Ġum": 10211,
    "purse": 20023,
    "sacrifice": 13491,
    "Ġfamiliar": 5511,
    "Ġ[": 6967,
    "Ġcolleague": 17159,
    "Ġmasses": 10503,
    "<": 32,
    "tin": 6116,
    "Ġaverted": 16253,
    "before": 3112,
    "Ġsociety": 3983,
    "Ġli": 601,
    "Ġmanaged": 7905,
    "dead": 8179,
    "Ġquiet": 3260,
    "ideas": 18584,
    "Ġcrack": 7709,
    "treas": 17679,
    "pencil": 18827,
    "Ġproved": 4884,
    "Ġfreshe": 13068,
    "cottagers": 20046,
    "Ġstreet": 2960,
    "Ġshoe": 14567,
    "Ġextinct": 14336,
    "Ġemployments": 12100,
    "Ġpeak": 16124,
    "assistant": 25567,
    "Ġtass": 15469,
    "Ġpalmed": 24090,
    "aloft": 8806,
    "ctors": 21587,
    "ify": 1530,
    "Ġglanced": 5951,
    "etch": 9204,
    "ulty": 22566,
    "Ġmainland": 22652,
    "Ġhardships": 14450,
    "Ġcolour": 4463,
    "neg": 12861,
    "Ġcistern": 17380,
    "ph": 919,
    "Ġwander": 9031,
    "Ġfuller": 11156,
    "Ġdundee": 16997,
    "Ġutility": 23513,
    "Ġarrives": 23606,
    "Ġbuttoning": 17235,
    "Ġthinkings": 22807,
    "spears": 23940,
    "field": 3071,
    "Ġskipper": 22796,
    "Ġequals": 4727,
    "Ġcivilly": 19602,
    "ella": 12746,
    "ď": 208,
    "Ġif": 696,
    "wail": 21124,
    "powers": 25410,
    "Ġlimit": 10443,
    "gyric": 19109,
    "Ġignorance": 6618,
    "spass": 18687,
    "Ġsparks": 22129,
    "Ġgladstone": 23867,
    "circumspect": 26086,
    "Ġthoughtlessness": 16192,
    "Ġdenomin": 12065,
    "Ġcommander": 8624,
    "Ġernest": 8716,
    "Ġmanxman": 9565,
    "Ġnorth": 4321,
    "uring": 820,
    "dispute": 23499,
    "Ġhighness": 22774,
    "Ġbuilding": 8062,
    "Ġparl": 8177,
    "Ġtottenham": 24142,
    "Ġcareer": 11118,
    "ons": 709,
    "ableness": 8148,
    "Ġpurpose": 2709,
    "Ġequally": 5257,
    "guilty": 19481,
    "Ġneglected": 10377,
    "Ġlikely": 3601,
    "Ġtemperate": 16161,
    "Ġnug": 21522,
    "Ġlambton": 10657,
    "Ġever": 1181,
    "chard": 21684,
    "Ġterror": 5123,
    "Ġplu": 8798,
    "ĠĠĠĠĠĠĠĠĠĠĠĠĠĠĠĠĠĠĠĠĠĠĠĠĠĠĠĠĠĠĠĠĠĠĠĠĠĠĠĠĠĠĠĠĠ": 9951,
    "Ġaccomplishments": 13378,
    "Ġstam": 18065,
    "towing": 17689,
    "Ġspoil": 17007,
    "decoder": 3647,
    "cherish": 24552,
    "Ġbright": 3213,
    "Ġstable": 2700,
    "pointed": 9807,
    "Ġsummar": 3526,
    "Ġgratefully": 20443,
    "Ġbet": 1136,
    "Ġassociation": 24711,
    "dislike": 23494,
    "Ġmuscle": 14689,
    "frisco": 16787,
    "Ġgroom": 13965,
    "Ġruthless": 15284,
    "Ġoutbreak": 22314,
    "Ġserving": 14485,
    "Ġemac": 16405,
    "thirty": 12759,
    "Ġunexampled": 20358,
    "varieties": 23184,
    "ssip": 14079,
    "rig": 7556,
    "Ġsurf": 19131,
    "Ġrounds": 18885,
    "Ġsuffusing": 23028,
    "Ġinsulated": 23675,
    "stall": 21643,
    "ream": 2710,
    "Ġways": 5396,
    "ĠĊ": 12520,
    "irst": 878,
    "corpse": 24486,
    "Ġalchemists": 26487,
    "plete": 10919,
    "Ġcostly": 23583,
    "Ġenthusiasm": 8064,
    "Ġgrass": 5177,
    "accompl": 9879,
    "solely": 19815,
    "Ġfortunately": 12177,
    "quit": 15759,
    "perils": 22184,
    "txt": 12513,
    "iably": 13737,
    "Ġtags": 20570,
    "afer": 17481,
    "Ġinterval": 4058,
    "Ġent": 902,
    "Ġvort": 18193,
    "el": 306,
    "ench": 21278,
    "Ġmagazine": 23097,
    "dutch": 17218,
    "Ġobjecting": 18896,
    "Ġplane": 11821,
    "Ġstrong": 1786,
    "Ġmercenary": 17193,
    "dashing": 20835,
    "Ġshirr": 18231,
    "stricken": 9883,
    "ocratic": 17245,
    "Ġhuzza": 12630,
    "Ġear": 1421,
    "iot": 9600,
    "Ġrange": 9711,
    "Ġfeelingly": 22996,
    "Ġarter": 22174,
    "Ġcorporeally": 25729,
    "Ġmelt": 21316,
    "Ġfriday": 14488,
    "anation": 5803,
    "thou": 4709,
    "Ġpricking": 23219,
    "renew": 24450,
    "perfect": 7634,
    "Ġtalent": 12295,
    "Ġpack": 5444,
    "recover": 24622,
    "Ġve": 1109,
    "Ġsubmission": 22788,
    "Ġidly": 16401,
    "Ġliber": 5168,
    "Ġmicha": 17811,
    "Ġeager": 3574,
    "tallow": 21084,
    "Ġjoys": 13218,
    "Ġsocket": 12781,
    "Ġrepresenting": 4065,
    "ominy": 13977,
    "Ġecl": 18005,
    "squall": 13521,
    "Ġsulk": 15045,
    "Ġmowers": 17812,
    "wand": 10738,
    "Ġbad": 3994,
    "shoes": 14238,
    "Ġclin": 14203,
    "Ġtoler": 7588,
    "Ġscratches": 22269,
    "Ġwhatsoever": 18460,
    "Ġsky": 3975,
    "Ġinvariably": 8063,
    "Ġdegrees": 7294,
    "everybody": 8610,
    "Ġjohn": 5032,
    "Ġdespite": 19351,
    "Ġtongues": 14862,
    "Ġreconciled": 13586,
    "Ġfeigned": 22204,
    "Ġindist": 14407,
    "Ġservox": 23868,
    "Ġwonderfully": 10430,
    "article": 22396,
    "Ġupstairs": 5836,
    "saving": 21058,
    "Ġcompose": 12902,
    "Ġlimber": 16478,
    "Ġshun": 11707,
    "bs": 3752,
    "belt": 24033,
    "brit": 19196,
    "Ġramadans": 25119,
    "Ġtranslates": 12049,
    "Ġunsatisfied": 22039,
    "Ġanonymous": 26178,
    "pardon": 10064,
    "progress": 11986,
    "Ġespe": 21154,
    "ris": 9137,
    "stad": 7597,
    "envelope": 17782,
    "Ġlashing": 11615,
    "Ġadorned": 15246,
    "spikes": 10340,
    "Ġsystemat": 18447,
    "Ġsamples": 2964,
    "Ġselling": 21223,
    "tarpaul": 21096,
    "ilib": 4121,
    "Ġcring": 15549,
    "Ġcask": 5527,
    "Ġconsole": 8150,
    "prodig": 16424,
    "combe": 7660,
    "Ġpsal": 15613,
    "Ġclimates": 25051,
    "Ġearly": 2079,
    "Ġsteel": 3890,
    "benevolent": 15232,
    "Ġcultivated": 17363,
    "difficult": 10057,
    "Ġinvader": 23479,
    "âĢĶ": 519,
    "apprec": 22841,
    "reasoning": 9475,
    "aggoo": 5130,
    "Ġsent": 1773,
    "Ġundulations": 19514,
    "avering": 24793,
    "mat": 2200,
    "wart": 17705,
    "Ġvult": 12749,
    "ologically": 22881,
    "berg": 11856,
    "Ġincarn": 11812,
    "lection": 3655,
    "Ġstring": 11825,
    "versed": 9824,
    "exp": 2739,
    "consuming": 25674,
    "allowing": 24358,
    "Ġanecdote": 26354,
    "Ġkno": 5242,
    "Ġhabitual": 24790,
    "cules": 12389,
    "adjust": 21757,
    "Ġrides": 21968,
    "Ġsnar": 13199,
    "Ġspe": 822,
    "glad": 9007,
    "Ġwantonly": 22893,
    "_.âĢĻâĢĿ": 17479,
    "istics": 1630,
    "mastod": 23972,
    "//": 11463,
    "aid": 1920,
    "Ġpoetical": 25057,
    "scale": 3535,
    "ructed": 7029,
    "Ġfrom": 434,
    "ulatory": 15765,
    "Ġrole": 15993,
    "ler": 3492,
    "Ġhearties": 18966,
    "chosen": 21692,
    "oda": 15746,
    "furthest": 19840,
    "Ġfacilitate": 26098,
    "Ġhails": 21947,
    "Ġmarvel": 23032,
    "jackets": 24895,
    "amiable": 14053,
    "Ġoun": 13862,
    "strade": 5065,
    "standers": 18478,
    "Ġushered": 18357,
    "Ġherself": 1565,
    "Ġder": 1496,
    "Ġ24": 13192,
    "Ġcobbling": 20521,
    "base": 20776,
    "Ġtinge": 25087,
    "Ġleviathan": 3289,
    "Ġugliness": 20425,
    "Ġgnashed": 20131,
    "Ġpositive": 2298,
    "post": 6061,
    "Ġsmoky": 22557,
    "Ä": 133,
    "butter": 11783,
    "agger": 7871,
    "reserve": 17765,
    "exclaimed": 11788,
    "aven": 8207,
    "Ġunfair": 19506,
    "Ġcrawling": 17045,
    "Ġwithhold": 18115,
    "aset": 10832,
    "Ġplanted": 9773,
    "perquisites": 26531,
    "Ġar": 478,
    "Č": 205,
    "native": 17612,
    "Ġgown": 10201,
    "Ġbecame": 2693,
    "Ġunfulfilled": 26509,
    "Ġpenetrating": 17011,
    "Ġhamper": 19387,
    "Ġsaintsbury": 26372,
    "Ġsty": 6251,
    "joint": 24007,
    "Ġay": 15490,
    "inced": 3338,
    "Ġ71": 24259,
    "th": 407,
    "ised": 1096,
    "Ġsap": 18323,
    "Ġkills": 15904,
    "Ġcabs": 23639,
    "Ġchrysalis": 26538,
    "Ġrecre": 22739,
    "seamen": 13625,
    "Ġmoulton": 17434,
    "invisible": 17740,
    "question": 5418,
    "Ġcourt": 4173,
    "Ġconsumm": 15153,
    "Ġleads": 12094,
    "Ġceiling": 7996,
    "Ġdusk": 12325,
    "hel": 4814,
    "uff": 2732,
    "unction": 10234,
    "¦": 104,
    "Ġelucidated": 26029,
    "Ġma": 3252,
    "Ġencouraged": 9354,
    "Ġmetropol": 11144,
    "Ġascent": 19617,
    "Ġcomputational": 1625,
    "Ġfog": 9661,
    "Ġfrequently": 4680,
    "Ġcreative": 9830,
    "Ġwond": 3941,
    "Ġtherein": 11774,
    "residence": 19262,
    "Ġnosegay": 24192,
    "Ġinches": 5845,
    "Ġirritation": 20265,
    "virtue": 20568,
    "Ġnecessitates": 23926,
    "Ġenthusiastic": 19964,
    "make": 5793,
    "Ġappro": 670,
    "Ġforgive": 8009,
    "Ġphyseter": 26586,
    "Ġoverpow": 14202,
    "chest": 11208,
    "incess": 15481,
    "Ġwilled": 21290,
    "lynes": 15701,
    "Ġworst": 7444,
    "Ġpovelson": 26552,
    "alley": 23020,
    "Ġforgery": 25977,
    "Ġ49": 24082,
    "Ġreel": 9213,
    "ghost": 20886,
    "ky": 4521,
    "Ġloving": 8175,
    "Ġbloodthirst": 23799,
    "bun": 12436,
    "Ġgrate": 12961,
    "Ġbarred": 9002,
    "riend": 1186,
    "Ġcaptains": 7457,
    "ain": 343,
    "nights": 16448,
    "Ġfi": 924,
    "requent": 3652,
    "shark": 14236,
    "Ġepisode": 26346,
    "marching": 25752,
    "Ġgar": 10838,
    "unforeseen": 21885,
    "eland": 11619,
    "volous": 18605,
    "Ġturing": 7566,
    "Ġdusty": 14924,
    "chet": 13216,
    "parted": 21015,
    "Ġsaf": 4007,
    "Ġencounter": 6627,
    "Ġden": 3105,
    "Ġdisquiet": 18552,
    "Ġtrials": 16789,
    "drown": 13703,
    "ctive": 11622,
    "imitably": 21708,
    "Ġunalterable": 15849,
    "thed": 8826,
    "owe": 15706,
    "generous": 16567,
    "Ġsembl": 19056,
    "believed": 9932,
    "return": 5489,
    "stood": 4120,
    "Ġtarquin": 23609,
    "Ġflor": 8561,
    "Ġpomp": 12619,
    "Ġfolds": 12204,
    "ints": 3420,
    "obliv": 23094,
    "lacing": 17590,
    "Ġtribes": 20479,
    "Ġphilosop": 5057,
    "Ġslugg": 15267,
    "Ġor": 438,
    "Ġjeroboam": 10600,
    "lion": 20943,
    "Ġsister": 1473,
    "reputation": 15514,
    "riety": 12740,
    "Ġparc": 10920,
    "Ġdistributes": 4198,
    "Ġchoking": 15932,
    "Ġagencies": 18538,
    "Ġsubur": 12954,
    "wandering": 20283,
    "brandy": 19199,
    "idirection": 2413,
    "ificant": 22206,
    "Ġfounded": 8556,
    "poles": 16208,
    "è": 169,
    "Ġrocking": 10968,
    "Ġunrecord": 16621,
    "execut": 13654,
    "Ġhor": 1662,
    "Ġinjustice": 9190,
    "oregressive": 3427,
    "Ġfleece": 10614,
    "mmed": 7913,
    "Ġmethod": 1493,
    "Â£": 4812,
    "Ġwade": 17784,
    "six": 7141,
    "fle": 7128,
    "Ġdeser": 3888,
    "Ġeveryone": 8917,
    "Ġlunging": 24989,
    "Ġbelike": 18829,
    "cele": 21622,
    "harpo": 4805,
    "-": 17,
    "helmsman": 24287,
    "loss": 22503,
    "erns": 8777,
    "retion": 9361,
    "Ġinvolved": 8926,
    "Ġbattered": 17862,
    "Ġislands": 6766,
    "Ġlibraries": 20613,
    "ete": 9203,
    "Ġlawless": 19433,
    "Ġdispleasure": 16050,
    "Ġwhalebone": 10977,
    "rot": 21529,
    "purp": 8090,
    "Ġpartially": 13122,
    "Ġgidd": 25783,
    "trained": 4241,
    "Ġshowers": 16605,
    "Ġdiana": 21434,
    "aky": 18411,
    "Ġgibraltar": 25787,
    "fe": 668,
    "succeeded": 15174,
    "p": 84,
    "Ġprovides": 1927,
    "Ġhus": 3091,
    "Ġtied": 7357,
    "repairing": 24495,
    "Ġhypocritical": 20737,
    "Ġdine": 7366,
    "Ô": 149,
    "Ġcomprehend": 6494,
    "Ġcrane": 23438,
    "Ġimmediate": 6089,
    "ullo": 12726,
    "her": 488,
    "Ġdip": 13906,
    "Ġactions": 6278,
    "Ġvexation": 10586,
    "practical": 17221,
    "Ġmethodology": 2516,
    "Ġcivil": 4679,
    "Ġberyl": 20488,
    "arian": 10316,
    "resistible": 10643,
    "Ġdespatched": 23826,
    "rimshander": 20656,
    "tha": 15821,
    "star": 12669,
    "secondly": 16984,
    "Ġphrenologist": 25607,
    "Ġasiatic": 20428,
    "bet": 6109,
    "irous": 8838,
    "alid": 13934,
    "{": 95,
    "Ġallegro": 25794,
    "Ġsubsided": 14550,
    "revolver": 25627,
    "Ġflaming": 8563,
    "Ġtwitching": 25683,
    "Ġrenders": 13282,
    "Ġmanly": 22321,
    "Ġmaids": 19690,
    "doubtful": 24791,
    "Ġgritted": 22802,
    "Ġdisappearing": 22530,
    "sion": 8093,
    "Ġswerve": 14436,
    "Ġhardy": 8565,
    "chop": 21685,
    "Ġlengthen": 15651,
    "Ġfrolic": 23921,
    "game": 11490,
    "Ġchimer": 24602,
    "Ġbern": 17858,
    "neck": 14240,
    "Ġswiftness": 9926,
    "aulding": 11339,
    "Ġresides": 22537,
    "difference": 13707,
    "Ġrueful": 25581,
    "Ġstiffly": 15005,
    "Ġfled": 6670,
    "Ġrick": 21967,
    "Ġreeling": 18032,
    "offers": 16391,
    "Ġscarcity": 23823,
    "Ġadditional": 7934,
    "Ġslam": 13055,
    "Ġbell": 4636,
    "Ġinvited": 6903,
    "Ġ92": 24590,
    "val": 1180,
    "Ġretain": 7862,
    "eminent": 25104,
    "Ġfilm": 23922,
    "Ġcucumber": 21354,
    "Ġantarctic": 19551,
    "atement": 17773,
    "Ġdoubly": 16383,
    "Ġhans": 12623,
    "Ġbells": 19600,
    "cruet": 17026,
    "whatsoever": 18491,
    "Ġevinced": 7100,
    "bouton": 17501,
    "Ġpair": 5706,
    "Ġsanguine": 25928,
    "Ġstationary": 19693,
    "iling": 3092,
    "Ġgathered": 8442,
    "Ġenrapt": 21936,
    "Ġcontradictory": 20395,
    "data": 2268,
    "Ġsounds": 5190,
    "idation": 5022,
    "Ġpikes": 21476,
    "Ġwoeful": 19618,
    "prospect": 23392,
    "Ġcharger": 19005,
    "Ġjurors": 17343,
    "Ġgums": 21608,
    "Ġ114": 24438,
    "Ġdeep": 813,
    "Ġsufferings": 7513,
    "whilst": 18371,
    "fre": 5425,
    "removed": 15515,
    "Ġdiabol": 11453,
    "be": 671,
    "ho": 2858,
    "Ġthom": 21513,
    "Ġdish": 6136,
    "Ġthy": 2512,
    "Ġbreaks": 13182,
    "Ġtricks": 13483,
    "Ġstripping": 23694,
    "Ġduodecimo": 16767,
    "Ġindignity": 18832,
    "Ġprevent": 755,
    "Ġtremble": 6906,
    "Ġeavesdroppers": 25963,
    "gracechurch": 24581,
    "Ġunpleasant": 7191,
    "igators": 18045,
    "Ġrind": 21966,
    "Ġfarthing": 14453,
    "Ġregulate": 22574,
    "arising": 17895,
    "Ġpushed": 5909,
    "Ġwhispered": 5337,
    "itively": 21329,
    "tie": 21067,
    "blubber": 15235,
    "Ġmighty": 4232,
    "Ġbrit": 6289,
    "Ġenh": 3209,
    "Ġstrangely": 5677,
    "Ġfatigued": 13464,
    "Ġthrowing": 6335,
    "Ġemergency": 25731,
    "Ġtop": 2471,
    "aye": 3662,
    "Ġfifth": 11257,
    "Ġfanatic": 23388,
    "Ġcitations": 25437,
    "igated": 15704,
    "Ġvirtuous": 14755,
    "ruded": 15897,
    "Ġshooting": 11162,
    "Ġultimately": 17164,
    "storied": 18024,
    "Ġearthquake": 14628,
    "pleasant": 5874,
    "barr": 15319,
    "orous": 5292,
    "/(": 2983,
    "Ġcontemptuously": 19832,
    "sailor": 14715,
    "Ġalpha": 13587,
    "Ġhind": 9188,
    "anelles": 26434,
    "Ġtoilings": 24742,
    "urable": 8922,
    "Ġsurvey": 13592,
    "Ġgenerations": 10970,
    "depart": 12263,
    "Ġstout": 6024,
    "Ġsubdued": 11033,
    "Ġfalse": 4346,
    "dismay": 19152,
    "Ġbasement": 24702,
    "experienced": 15120,
    "Ġassume": 10515,
    "Ġrambled": 20167,
    "ĠĠĠĠĠĠĠĠĠĠĠĠĠĠĠĠĠĠĠĠĠĠĠĠĠĠĠĠĠ": 19698,
    "Ġfootfall": 14661,
    "Ġrelu": 1047,
    "Ġbid": 6131,
    "Ġyourselves": 9028,
    "ĠĠĠĠĠĠĠĠĠĠĠĠĠĠĠĠĠĠĠĠĠĠĠĠĠĠĠĠĠĠĠĠĠĠĠĠĠĠĠĠĠĠĠ": 12152,
    "Ġpleated": 16295,
    "conf": 4957,
    "Ġfaire": 13363,
    "Ġthreshold": 2809,
    "aning": 2255,
    "Ġoutstanding": 22313,
    "Ġpropont": 16348,
    "Ġfrequencies": 4789,
    "Ġrealise": 16334,
    "Ġstake": 14002,
    "Ġuncertain": 4072,
    "Ġfut": 15572,
    "Ġdecided": 5471,
    "Ġcompetition": 14270,
    "truck": 15440,
    "Ġmince": 22829,
    "Ġscuffle": 20607,
    "Ï": 144,
    "Ġstates": 1849,
    "Ġsituations": 10491,
    "hope": 5989,
    "Ġconsecutive": 20701,
    "Ġconfederate": 17353,
    "Ġten": 2388,
    "etite": 21576,
    "Ġhon": 2537,
    "Ġoverpower": 12837,
    "Ġevid": 3502,
    "Ġeffectively": 2668,
    "Ġsadder": 24049,
    "Ġuproar": 22152,
    "Ġvapor": 8699,
    "wrote": 11546,
    "Ġpenal": 1771,
    "Ġdistantly": 18531,
    "Ġprecision": 13188,
    "Ġboundary": 11222,
    "oned": 4631,
    "Ġproductions": 22943,
    "Ġsung": 23270,
    "lust": 15378,
    "Ġhearth": 11980,
    "Ġdemoniac": 15063,
    "Ġdepartment": 24241,
    "Ġinconsist": 17935,
    "Ġquite": 1740,
    "Ġanatomical": 15075,
    "Ġroving": 22399,
    "Ġbeneficial": 23929,
    "horse": 8605,
    "four": 6113,
    "Ġbeing": 1164,
    "Ġcolumb": 22855,
    "Ġrom": 4526,
    "fel": 8733,
    "Ġdeserved": 7736,
    "Ġbaggy": 24538,
    "Ġslime": 23158,
    "Ġsound": 2242,
    "emporary": 15795,
    "ness": 852,
    "cruising": 12277,
    "Ġstain": 18064,
    "Ġbargain": 23790,
    "pro": 2049,
    "Ġdetective": 14409,
    "cro": 13695,
    "Ġexcessive": 3893,
    "Ġtrait": 23071,
    "Ġcre": 888,
    "Ġevian": 24292,
    "Ġgarments": 15192,
    "minds": 24232,
    "nes": 6961,
    "Ġclipping": 2442,
    "Ġresc": 4508,
    "Ġboon": 22633,
    "Ġsweetest": 13246,
    "instance": 24168,
    "Ġduck": 8793,
    "adagrad": 9690,
    "heidelburgh": 21210,
    "Ġsage": 17752,
    "Ġhated": 7584,
    "Ġtouched": 6000,
    "Ġtradeoff": 2660,
    "ower": 1070,
    "devilish": 17082,
    "Ġprofounder": 23568,
    "Ġmoonshine": 19596,
    "gradient": 2277,
    "Ġvital": 9242,
    "Ġformer": 3325,
    "height": 21204,
    "atoes": 17775,
    "coo": 11170,
    "gained": 20880,
    "Ġshops": 21998,
    "ife": 1027,
    "Ġwallow": 19464,
    "Ġoak": 6128,
    "Ġpostscript": 14807,
    "Ġseparating": 16685,
    "Ġtrustworthy": 24107,
    "Ġgratify": 19501,
    "harrow": 20907,
    "Ġextending": 11027,
    "canonical": 22960,
    "Ġpossessing": 16574,
    "Ġdiscomposed": 25580,
    "Ġreports": 19084,
    "salis": 25147,
    "Ġsend": 4111,
    "Ġperfidious": 25666,
    "Ġfrederick": 15584,
    "Ġfeedforward": 2327,
    "Ġreturn": 1711,
    "Ġunknown": 4455,
    "Ġelevating": 19728,
    "cordiality": 25137,
    "Ġunmolested": 15244,
    "vice": 15448,
    "presents": 18799,
    "banish": 20781,
    "dress": 17520,
    "Ġfix": 2507,
    "Ġmurmured": 7480,
    "Ġretiring": 16279,
    "moby": 8536,
    "Ġbreathes": 13245,
    "Ġinject": 2712,
    "Ġcentaurs": 23829,
    "Ġdisgust": 6705,
    "uzzle": 19582,
    "acc": 2533,
    "xology": 21140,
    "Ġwant": 1119,
    "strength": 13979,
    "Ġfiftieth": 24703,
    "Ġsteady": 4847,
    "rene": 5379,
    "Ġpleasurable": 23335,
    "chain": 18039,
    "recovered": 19786,
    "Ġing": 5283,
    "Ġamend": 16032,
    "terday": 4705,
    "thest": 11653,
    "Ġacceptance": 14826,
    "Ġchim": 5932,
    "Ġbrawny": 13612,
    "Ġeurope": 8061,
    "germans": 20564,
    "Ġmagg": 18905,
    "Ġpapered": 20129,
    "Ġfeminine": 15262,
    "urns": 10213,
    "Ġwouldn": 6045,
    "enc": 7574,
    "thrust": 10261,
    "Ġthomas": 17947,
    "Ġarrived": 3748,
    "hundred": 8330,
    "bery": 9786,
    "Ġbooks": 4676,
    "cig": 17503,
    "estab": 14169,
    "Ġundesired": 12776,
    "pul": 8753,
    "sensible": 20050,
    "Ġworn": 6445,
    "lie": 12480,
    "Ġhall": 4187,
    "Ġdiscu": 4366,
    "holes": 12052,
    "Ġconvul": 13202,
    "Ġaustral": 12170,
    "til": 17671,
    "Ġretribution": 16280,
    "greg": 6647,
    "Ġresounded": 22541,
    "Ġbegin": 3097,
    "Ġmournfully": 20115,
    "Ġcongratulatory": 19766,
    "Ġpirate": 14996,
    "prim": 23807,
    "Ġstra": 2991,
    "Ġlikeness": 11179,
    "Ġspake": 18308,
    "Ġlancaster": 26340,
    "Ġtusks": 17253,
    "waste": 21133,
    "tur": 5688,
    "Ġmid": 2617,
    "alions": 21498,
    "Ġpointing": 5661,
    "Ġrepublican": 17411,
    "Ġimpudence": 26241,
    "Ġbatt": 13898,
    "airing": 16175,
    "Ġheaded": 11055,
    "creature": 5346,
    "boats": 6204,
    "Ġsymbol": 7716,
    "sus": 6228,
    "Ġbake": 21380,
    "Ġpliny": 11823,
    "Ġcompact": 2265,
    "vious": 1782,
    "Ġprincip": 5600,
    "inion": 2876,
    "Ġburglar": 17354,
    "neying": 22455,
    "Ġbats": 13899,
    "iece": 3228,
    "Ġcrop": 10162,
    "distrust": 19569,
    "objects": 13469,
    "Ġdisclose": 16154,
    "Ġconfeder": 25708,
    "Ġincl": 4272,
    "Ġsuppl": 11079,
    "Ġprouder": 18972,
    "Ġsires": 21225,
    "Ġfast": 1717,
    "Ġbrother": 2750,
    "Ġwhal": 5454,
    "ha": 3987,
    "Ġinterrupting": 19556,
    "station": 10844,
    "wel": 6117,
    "headed": 4320,
    "Ġtrying": 4838,
    "beings": 12875,
    "Ġhav": 12751,
    "Ġclock": 9532,
    "Ġchaps": 14179,
    "Ġtransformations": 3486,
    "Ġinviting": 19143,
    "lorn": 12485,
    "Ġemble": 13970,
    "rolling": 9060,
    "Ġwatching": 4854,
    "Ġresiding": 16059,
    "Ġconsc": 4276,
    "Ġspectre": 16630,
    "Ġweary": 5635,
    "Ġpatter": 829,
    "jointed": 24008,
    "Ġtenants": 23545,
    "Ġuncles": 23429,
    "Ġcompiled": 22569,
    "Ġfierc": 18709,
    "etts": 12657,
    "condesc": 18505,
    "Ġapples": 22213,
    "sole": 6168,
    "proceed": 8976,
    "Ġruffled": 25835,
    "Ġvariety": 8530,
    "stone": 5089,
    "Ġ116": 24440,
    "Ġbecome": 3156,
    "occ": 4486,
    "Ġmuch": 923,
    "Ġserve": 9368,
    "Ġimpediments": 26240,
    "liest": 6294,
    "Ġamours": 22478,
    "Ġdiscriminator": 3395,
    "stochastic": 3775,
    "Ġentertaining": 16926,
    "Ġdiscourage": 3114,
    "linked": 17593,
    "Ġetc": 7084,
    "lo": 680,
    "values": 4974,
    "pen": 1204,
    "cket": 3689,
    "gra": 770,
    "blasted": 20188,
    "Ġsurmount": 19999,
    "transp": 24512,
    "bergen": 14325,
    "Ġintentions": 10607,
    "plentiful": 21953,
    "machine": 1019,
    "Ġcoffin": 4430,
    "Ġconcealed": 7495,
    "Ġnecks": 18183,
    "cold": 9589,
    "Ġhandling": 8912,
    "practised": 20246,
    "Ġmagnitude": 1942,
    "foam": 24418,
    ".âĢĶâĢľ": 20746,
    "rifled": 21046,
    "Ġviolet": 19090,
    "Ġcarve": 23090,
    "garet": 9597,
    "Ġvoyager": 16511,
    "Ġelevate": 24502,
    "Ġabhorrent": 16856,
    "wow": 21120,
    "silence": 8044,
    "Ġredoubled": 23751,
    "numer": 15398,
    "Ġdawn": 6816,
    "Ġdramat": 23215,
    "wharf": 20605,
    "kindled": 16660,
    "Ġpotential": 3622,
    "Ġmic": 17797,
    "Ã¦mon": 7094,
    "solid": 16378,
    "sych": 9885,
    "Ġkilburn": 18351,
    "amuse": 14052,
    "Ġinfinitely": 8963,
    "Ġgently": 7171,
    "Ġgradual": 20600,
    "Ġpersist": 16272,
    "fing": 13712,
    "ented": 4351,
    "circumstance": 7763,
    "Ġadrift": 11721,
    "Ġharbors": 24901,
    "Ġluckily": 16798,
    "Ġtopic": 9405,
    "Ġreven": 18028,
    "Ġholder": 6724,
    "Ġtoe": 13935,
    "Ġweakness": 9966,
    "Ġadvantage": 4318,
    "Ġduplicity": 25331,
    "Ġperception": 9749,
    "Ġmadly": 16484,
    "cription": 20817,
    "Ġpossesses": 19350,
    "Ġty": 6657,
    "unts": 12728,
    "Ġsymbols": 2796,
    "Ġsevent": 18202,
    "Ġhorribly": 16341,
    "scap": 22989,
    "usoid": 4767,
    "Ġalgorith": 562,
    "Ġlod": 4047,
    "Ġegotistical": 26191,
    "furn": 10091,
    "Ġcarcase": 14443,
    "exam": 10976,
    "Ġkne": 4268,
    "Ġhorizont": 6937,
    "Ġforward": 1835,
    "squ": 7809,
    "Ġbushy": 16398,
    "Ċ": 203,
    "private": 13581,
    "Ġindef": 9189,
    "Ġerection": 23999,
    "Ġdishonor": 25601,
    "Ġhandkerchief": 8913,
    "Ġboot": 11836,
    "Ġstool": 14461,
    "wit": 7817,
    "Ġrather": 1492,
    "Ġpearl": 20375,
    "Ġtelegram": 15222,
    "Ġpitching": 16611,
    "Ġse": 402,
    "iciency": 9574,
    "Ġfoster": 18991,
    "Ġdipping": 15589,
    "viating": 14579,
    "bows": 10081,
    "Ġanno": 9667,
    "Ġcomo": 21839,
    "Ġmaze": 23827,
    "Ġgour": 21595,
    "Ġhorr": 3188,
    "Ġprovoked": 13324,
    "Ġfanny": 23387,
    "Ġunwaning": 25170,
    "abode": 21788,
    "Ġabsurdities": 24879,
    "Ġsquares": 11169,
    "Ġstigma": 25791,
    "Ġnice": 6676,
    "Ġcleaned": 23180,
    "lour": 15379,
    "Ġdrifted": 14625,
    "igning": 12678,
    "Ġportions": 19367,
    "Ġassent": 12730,
    "division": 20047,
    "Ġslo": 15505,
    "asters": 8433,
    "Ġminutest": 14560,
    "pal": 9616,
    "Ġsquee": 7928,
    "lar": 4485,
    "Ġsurrounded": 5878,
    "ascending": 24707,
    "Ġundertone": 23238,
    "Ġbeaut": 2396,
    "Ġvast": 3297,
    "empl": 5724,
    "Ġfiend": 4413,
    "lott": 6650,
    "Ġlou": 6822,
    "utions": 1886,
    "forced": 11030,
    "bug": 17492,
    "Ġeats": 15674,
    "Ġpoint": 2055,
    "vigorous": 25917,
    "Ġclo": 6044,
    "Ġprospects": 9958,
    "Ġcottage": 4734,
    "Ġleg": 2335,
    "Ġdoctor": 5067,
    "mantel": 26394,
    "char": 3504,
    "Ġtransient": 18499,
    "Ġlandless": 23375,
    "ruin": 22177,
    "Ġlocks": 11722,
    "melancholy": 12351,
    "Ġsou": 1884,
    "hereafter": 19214,
    "user": 5105,
    "retch": 4373,
    "Ġmagnus": 18956,
    "accounted": 16500,
    "introduce": 25186,
    "Ġseldom": 4630,
    "Ġmiscellaneous": 17462,
    "Ġheedless": 14902,
    "osed": 1960,
    "Ġbeds": 14551,
    "imprudent": 14651,
    "Ġexception": 11216,
    "neurons": 3132,
    "Ġshrink": 14803,
    "sofa": 26146,
    "dling": 9111,
    "Ġsimilar": 4917,
    "remediable": 26294,
    "invest": 11559,
    "Ġreligion": 11415,
    "Ġsymmet": 11745,
    "Ġthoughtless": 16191,
    "Ġimaginary": 11186,
    "Ġmuseum": 15270,
    "Ġimprove": 1937,
    "Ġpioneer": 17918,
    "Ġcombing": 22845,
    "Ġspur": 18303,
    "detained": 24382,
    "Ġstag": 6148,
    "Ġexclusiveness": 23924,
    "Ġstrateg": 1365,
    "Ġexultation": 15170,
    "Ġmy": 411,
    "Ġrefine": 2995,
    "Ġjunior": 15098,
    "Ġunwell": 22012,
    "Ġeffect": 971,
    "catherine": 7127,
    "Ġripples": 25505,
    "Ġlav": 13948,
    "Ġpicturesqueness": 24480,
    "hurriedly": 25510,
    "Ġcreditable": 19621,
    "ins": 1377,
    "Ġdod": 6672,
    "Ġcarry": 4779,
    "Ġcounted": 12137,
    "Ġresided": 11809,
    "peddling": 24696,
    "died": 10693,
    "Ġancles": 21444,
    "Ġmockery": 12105,
    "Ġcoachman": 15000,
    "kes": 3680,
    "Ġbearded": 15724,
    "ispens": 8335,
    "float": 19804,
    "Ġstory": 2902,
    "ogra": 4574,
    "emph": 21925,
    "arks": 2845,
    "Ġchinks": 22248,
    "Ġrods": 9752,
    "Ġenormity": 19694,
    "Ġargued": 13628,
    "duct": 3507,
    "pid": 1393,
    "Ġdiscerned": 25003,
    "Ġdetaining": 25818,
    "Ġworshipped": 25691,
    "Ġbigger": 19760,
    "scattered": 22994,
    "Ġcarbuncle": 14444,
    "Ġvice": 6548,
    "Ġpantry": 20294,
    "deav": 2676,
    "Ġprophesy": 26061,
    "Ġarticulate": 24432,
    "Ġburying": 19251,
    "clusion": 16303,
    "Ġfarmhouse": 24984,
    "Ġ183": 13237,
    "hmael": 7342,
    "thickness": 25367,
    "atible": 17772,
    "ism": 4874,
    "Ġhur": 2100,
    "ĠâĢľ_": 6696,
    "Ġtuples": 13476,
    "Ġprank": 23216,
    "Ġsm": 704,
    "innocence": 15182,
    "Ġmidships": 23632,
    "Ġjavelin": 26104,
    "Ġnerves": 2629,
    "cus": 3986,
    "Ġm": 274,
    "Ġawait": 17073,
    "Ġarranging": 11174,
    "page": 13770,
    "Ġassumptions": 5517,
    "abroad": 18108,
    "reat": 618,
    "Ġconsec": 21802,
    "Ġballarat": 14719,
    "Ġallev": 18100,
    "eked": 16399,
    "Ġearnest": 3931,
    "provid": 11149,
    "Ġundulated": 19515,
    "Ġsodden": 25535,
    "Ġsame": 1341,
    "Ġark": 10275,
    "dared": 13701,
    "Ġhysterical": 26092,
    "Ġperemptory": 25740,
    "Ġunquestionable": 26221,
    "Ġeffemin": 18542,
    "Ġprey": 6415,
    "Ġnight": 1464,
    "inement": 11557,
    "iantly": 13738,
    "Ġsighing": 18673,
    "st": 316,
    "Ġrelatives": 12979,
    "Ġnotorious": 18223,
    "Ġresembles": 25969,
    "Ġinserting": 19905,
    "Ġthoroughfare": 16944,
    "elements": 25203,
    "Ġdiscovered": 4414,
    "Ġinsip": 19266,
    "Ġuniformly": 19147,
    "both": 5785,
    "Ġresidual": 1681,
    "Ġdz": 4756,
    "Ġontario": 26204,
    "Ġbelieving": 8224,
    "Ġjewels": 12367,
    "Ġuseless": 7037,
    "Ġbecause": 2212,
    "Ġdrew": 3537,
    "Ġcovered": 5171,
    "Ġpaper": 4285,
    "Ġmarbles": 18872,
    "Ġbowlines": 19321,
    "Ġleaky": 2346,
    "dwelling": 20563,
    "Ġcharm": 4549,
    "abilities": 3235,
    "Ġcrowned": 16841,
    "Ġpockets": 8897,
    "meat": 18678,
    "Ġpap": 8797,
    "Ġicicles": 25264,
    "justice": 7957,
    "Ġindistinctly": 26117,
    "photograph": 16149,
    "accuracy": 9878,
    "pinn": 21025,
    "Ġdisconsol": 18557,
    "smoking": 23908,
    "linen": 25257,
    "Ġweakened": 16823,
    "Ġclub": 8873,
    "warmth": 20051,
    "Ġcrab": 13143,
    "Ġmeantime": 6206,
    "Ġsmallest": 6430,
    "off": 1883,
    "Ġperv": 15988,
    "tar": 8097,
    "too": 4509,
    "Ġpillows": 24986,
    "lucky": 24545,
    "archangel": 18780,
    "ulsive": 10233,
    "Ġslipping": 13359,
    "uberance": 25916,
    "onds": 12991,
    "gent": 7129,
    "stating": 21644,
    "satisfied": 10578,
    "Ġgib": 13964,
    "onent": 21247,
    "ee": 1661,
    "indifferent": 14208,
    "Ġsecret": 3721,
    "Ġeyford": 10641,
    "Ġeastern": 11628,
    "anter": 9166,
    "liable": 3819,
    "Ġcoupled": 16851,
    "renched": 7906,
    "Ġjoist": 19230,
    "Ġcommunicated": 9061,
    "Ġboth": 1656,
    "Ġarrested": 9560,
    "vic": 13801,
    "has": 4018,
    "Ġadvertising": 25389,
    "Ġcem": 17823,
    "Ġsim": 733,
    "Ġber": 5698,
    "Ġimmemorially": 25383,
    "Ġbeseeching": 26311,
    "Ġsnugness": 20075,
    "erxes": 21274,
    "ating": 663,
    "Ġshin": 18227,
    "aging": 2239,
    "Ġtorrents": 20054,
    "someone": 14564,
    "Ġrotterdam": 25475,
    "Ġhum": 1099,
    "ret": 1474,
    "Ġunqualified": 22056,
    "Ġwaving": 8584,
    "Ġcauldron": 25441,
    "Ġviolin": 16427,
    "fellows": 12271,
    "Ġprofited": 19190,
    "Ġadvers": 4887,
    "forbid": 14350,
    "Ġgrows": 4985,
    "Ġrights": 10396,
    "Ġilluminating": 25245,
    "speaks": 19718,
    "Ġwrithed": 17106,
    "oured": 2674,
    "Ġvir": 7001,
    "Ġtwist": 11849,
    "Ġuninterrupted": 22041,
    "ash": 1990,
    "Ġdetested": 14175,
    "gence": 876,
    "Ġyarman": 12702,
    "Ġdiverse": 19207,
    "lakeman": 13750,
    "Ġangrily": 9406,
    "Ġmate": 3709,
    "Ġcynicism": 25771,
    "Ġintelligences": 12829,
    "bitts": 26122,
    "isol": 17846,
    "Ġj": 533,
    "Ġdisturbed": 8671,
    "Ġkettle": 26232,
    "Ġmodels": 761,
    "ocations": 23705,
    "Ġscotland": 6639,
    "Ġvillas": 24051,
    "Ġowen": 15093,
    "Ġmund": 21317,
    "Ġnightgown": 23128,
    "Ġcontracted": 12857,
    "Ġoutline": 15952,
    "Ġeul": 21617,
    "deployment": 26527,
    "Ġtowers": 16738,
    "Ġwhims": 12689,
    "earn": 10696,
    "Ġigniting": 25070,
    "Ġrefer": 18696,
    "Ġdirections": 1969,
    "Ġsooner": 5573,
    "Ġwol": 15528,
    "Ġtro": 7356,
    "Ġtrucks": 19511,
    "Ġspont": 22128,
    "Ġprolonged": 8357,
    "island": 10794,
    "Ġsallies": 21228,
    "Ġutterance": 14763,
    "Ġripple": 25504,
    "Ġbeque": 18080,
    "olently": 15754,
    "Ġmccauley": 26427,
    "Ġhatty": 19264,
    "Ġhint": 5016,
    "helped": 18923,
    "Ġcontinues": 18808,
    "Ġhorror": 3774,
    "Ġsoundings": 13132,
    "Ġchairs": 12823,
    "Ġgobern": 22422,
    "ĠĠĠĠĠĠĠĠĠĠĠĠĠĠĠĠĠĠĠĠĠĠĠĠ": 5321,
    "Ġprolong": 6832,
    "Ġmedic": 11247,
    "Ġresolution": 5500,
    "Ġextravagant": 17278,
    "nered": 18492,
    "Ġwickham": 2206,
    "onial": 11566,
    "Ġakin": 15494,
    "wonderful": 16960,
    "chat": 21683,
    "Ġstun": 11649,
    "Ġdong": 17887,
    "fate": 17539,
    "gracious": 11829,
    "Ġalleviated": 26203,
    "Ġgramm": 8170,
    "Ġdripping": 13146,
    "let": 2734,
    "iard": 9601,
    "Ġheel": 9683,
    "court": 7511,
    "Ġdistrust": 8203,
    "disinterested": 23501,
    "Ġaffection": 2641,
    "Ġliv": 6679,
    "Ġcoldly": 14650,
    "Ġnaturally": 2467,
    "Ġsquires": 16181,
    "missing": 13217,
    "ishnoo": 10956,
    "mem": 10709,
    "Ġhope": 1788,
    "Ġdisadvantages": 18558,
    "Ġdecomp": 3812,
    "Ġtranquillity": 7536,
    "eld": 952,
    "Ġarticulated": 24433,
    "ped": 6365,
    "Ġpity": 4941,
    "hateful": 20908,
    "Ġe": 312,
    "Ġscholars": 26112,
    "Ġneg": 1332,
    "winds": 10521,
    "Ġfulfilment": 20186,
    "Ġsupplies": 20325,
    "ĠvertebrÃ¦": 11435,
    "Ġdefray": 22938,
    "Ġembarrassment": 10626,
    "Ġrazor": 22657,
    "Ġoriental": 9096,
    "Ġaffect": 1385,
    "Ġenterprise": 8641,
    "Ġlooking": 2475,
    "Ġdecomposes": 5506,
    "Ġaloud": 6252,
    "Ġsticking": 13426,
    "formity": 10278,
    "Ġunmethodically": 22066,
    "Ġtickled": 20055,
    "filled": 9594,
    "Ġpoltroon": 26598,
    "Ġ131": 24782,
    "Ġindividual": 5744,
    "Ġmonths": 3457,
    "Ġendued": 14076,
    "Ġlegs": 4916,
    "skelter": 24490,
    "ause": 1311,
    "algorith": 3240,
    "ratulations": 20124,
    "Ġended": 7949,
    "Ġtechnical": 17191,
    "Ġjanuary": 13652,
    "Ġringle": 18210,
    "Ġboat": 1276,
    "Ġguernsey": 9350,
    "Ġcommunicative": 24548,
    "\"],": 26120,
    "Ġsunken": 14493,
    "light": 3019,
    "Ġconnexion": 11454,
    "Ġdiscovering": 13356,
    "Ġmeasuring": 22877,
    "Ġspong": 15879,
    "deceiving": 22141,
    "Ġsolely": 9909,
    "innacle": 7519,
    "Ġcad": 12565,
    "Ġelements": 2669,
    "Ġconst": 1907,
    "subsided": 25830,
    "Ġadapts": 3818,
    "Ġclings": 15967,
    "Ġsleep": 2402,
    "rain": 461,
    "Ġintrepid": 11704,
    "Ġdomains": 6614,
    "Ġunhappily": 18262,
    "looking": 4038,
    "ladyship": 14828,
    "Ġkirwin": 8496,
    "Ġcubs": 20085,
    "Ġcoast": 4656,
    "Ġperches": 18448,
    "consolatory": 25306,
    "uttered": 8440,
    "ulgences": 21862,
    "Ġposit": 1304,
    "beheld": 11800,
    "Ġscholar": 26111,
    "Ġingrat": 16840,
    "enial": 17780,
    "##": 2316,
    "Ġslate": 11936,
    "Ġhatchway": 13524,
    "Ġstudious": 23222,
    "am": 368,
    "enari": 21280,
    "stretching": 20497,
    "Ġadoration": 18292,
    "alog": 8804,
    "designated": 26295,
    "knows": 19171,
    "Ġpursuits": 12074,
    "borrowed": 20791,
    "Ġelix": 22647,
    "Ġcandelabra": 26602,
    "Ġbressed": 21385,
    "ignorant": 13562,
    "ston": 15680,
    "Ġtennessee": 26596,
    "heading": 5487,
    "mn": 3580,
    "yielded": 25756,
    "Ġpassers": 18757,
    "Ġwide": 4112,
    "Ġworm": 9162,
    "Ġb": 281,
    "Ġtranque": 14207,
    "mad": 5280,
    "widows": 25344,
    "asmuch": 10194,
    "Ġimprisonment": 22383,
    "uber": 15444,
    "Ġconfused": 7963,
    "Ġthrusting": 10552,
    "arb": 1560,
    "outre": 18320,
    "schoolmaster": 15160,
    "agon": 7870,
    "Ġdoom": 6417,
    "uttural": 21586,
    "ather": 738,
    "Ġamel": 18509,
    "Ġpencil": 11941,
    "Ġearnestly": 5978,
    "pra": 15406,
    "Ġreliability": 22876,
    "Ġcattle": 12569,
    "Ġrespect": 1670,
    "brace": 16942,
    "Ġbewitching": 25976,
    "Ġnightfall": 23127,
    "ê": 171,
    "whosoever": 22237,
    "Ġmitig": 1336,
    "Ġfatality": 12092,
    "frock": 20119,
    "Ġsentence": 6187,
    "Ġslippery": 12164,
    "Ġnumerous": 6920,
    "Ġsurpasses": 25268,
    "Ġnod": 1885,
    "Ġcustoms": 19651,
    "Ġan": 286,
    "Ġfurthermore": 1170,
    "Ġbrood": 23098,
    "stretched": 10207,
    "Ġscowl": 22268,
    "Ġas": 374,
    "Ġpeasant": 13550,
    "web": 18664,
    "Ġpist": 12612,
    "Ġsuperficial": 23455,
    "wich": 11543,
    "Ġancient": 5443,
    "Ġstand": 1734,
    "Ġperceptible": 18451,
    "Ġgraves": 11706,
    "speak": 5504,
    "ier": 1137,
    "Ġdepended": 9776,
    "surround": 16758,
    "Ġconcl": 5095,
    "Ġauthentic": 20534,
    "ø": 185,
    "know": 2319,
    "kington": 11203,
    "Ġcheered": 16366,
    "Ġscratching": 20367,
    "Ġtending": 17724,
    "whereby": 23416,
    "Ġstandard": 14496,
    "pleased": 8853,
    "Ġaversion": 18865,
    "admit": 18090,
    "flitted": 23967,
    "Ġdevil": 3616,
    "Ġencirc": 18731,
    "ological": 1880,
    "Ġsanguinary": 25929,
    "Ġsix": 3044,
    "spanish": 14330,
    "Ġlungless": 24863,
    "Ġabhorred": 9507,
    "fitted": 17544,
    "Ġyawn": 7609,
    "property": 19998,
    "interview": 19298,
    "awakened": 14452,
    "Ġsphere": 15880,
    "trucks": 25419,
    "atch": 675,
    "crooked": 25746,
    "Ġsplashed": 23746,
    "min": 4572,
    "portent": 25412,
    "expl": 9282,
    "Ġcurve": 22963,
    "ocean": 12399,
    "wondrous": 12336,
    "Ġmouths": 7491,
    "helpless": 16790,
    "Ġcompression": 18144,
    "onsible": 22560,
    "Ġgrammar": 1061,
    "Ġmelancholy": 5606,
    "lied": 6507,
    "Ġsweeter": 23915,
    "Ġserm": 9633,
    "Ġharpooning": 23977,
    "moderate": 22851,
    "Ġworkman": 16270,
    "Ġprotesting": 14741,
    "accountable": 7109,
    "somebody": 14565,
    "Ġequilibrium": 4145,
    "urch": 3999,
    "rat": 8755,
    "Ġmirror": 12376,
    "liberal": 26281,
    "sue": 2077,
    "Ġfires": 16471,
    "Ġsway": 7571,
    "Ġtreatment": 12069,
    "Ġbase": 5013,
    "Ġplays": 12035,
    "Ġbible": 9319,
    "Ġtrapped": 23074,
    "rol": 5713,
    "Ġrelation": 2141,
    "Ġabject": 18396,
    "roads": 17957,
    "Ġincites": 22550,
    "Ġstudy": 1764,
    "Ġprognostics": 20557,
    "Ġvineyard": 12328,
    "late": 11498,
    "decan": 22139,
    "Ġarchitects": 18732,
    "telescope": 26562,
    "loath": 22504,
    "Ġmemoirs": 26205,
    "Ġconstraints": 2742,
    "Ġstreat": 15718,
    "erest": 10697,
    "Ġjoll": 11763,
    "Ġsi": 21211,
    "vices": 21115,
    "eringly": 23002,
    "Ġcomplaint": 24776,
    "az": 2182,
    "Ġlightness": 23258,
    "Ġgiants": 25960,
    "Ġpresumed": 10544,
    "Ġfeet": 2261,
    "Ġstaring": 8824,
    "sail": 3606,
    "Ġblood": 3166,
    "Ġkeener": 22912,
    "Ġinjection": 3469,
    "Ě": 219,
    "Ġginger": 9210,
    "philosop": 9567,
    "iogn": 20920,
    "Ġdiscipline": 26561,
    "langu": 4807,
    "Ġameric": 3854,
    "gered": 9275,
    "Ġwithal": 18113,
    "complete": 15034,
    "tastes": 21095,
    "Ġhammer": 6093,
    "caut": 20811,
    "taking": 5689,
    "itic": 11577,
    "Ġfibres": 12946,
    "Ġsquatted": 25841,
    "byshire": 6172,
    "Ġdungeon": 16996,
    "Ġmerchants": 23731,
    "oration": 2210,
    "Ġrely": 8820,
    "resolution": 17766,
    "ifully": 13183,
    "Ġattraction": 18618,
    "Ġsunset": 8962,
    "sad": 11520,
    "wouldn": 23534,
    "ian": 1240,
    "ordered": 8789,
    "limbs": 20190,
    "Ġpresentiment": 18989,
    "lower": 8880,
    "Ġdisappointment": 6626,
    "thodox": 21985,
    "Ġenlivened": 26207,
    "Ġsustenance": 19932,
    "Ġdoubling": 23316,
    "Ġelimin": 16106,
    "Ġmassacre": 20546,
    "injustice": 17737,
    "sively": 13785,
    "civility": 17513,
    "Ġwedding": 4858,
    "european": 26371,
    "ack": 607,
    "Ġapoplexy": 25265,
    "saying": 8640,
    "eded": 9673,
    "Ġencouragement": 13040,
    "Ġwreath": 25936,
    "Ġteased": 18796,
    "scheme": 15253,
    "fixedly": 24929,
    "sideways": 14571,
    "_,âĢĻ": 12431,
    "Ġproportionably": 19969,
    "Ġdrives": 14578,
    "marrying": 19546,
    "Ġstride": 22613,
    "Ġperverseness": 13653,
    "Ġscho": 4438,
    "Ġresentment": 7530,
    "Ġgrounded": 23709,
    "stretch": 13980,
    "connections": 14427,
    "ĠlinnÃ¦us": 15274,
    "Ġomitted": 12561,
    "Ġprevented": 5941,
    "Ġwag": 10775,
    "suspicious": 25390,
    "Ġremained": 3140,
    "lover": 18536,
    "Ĉ": 201,
    "Ġphysiognomically": 25612,
    "Ġbrew": 23340,
    "Ġpistol": 7846,
    "Ġunlock": 18243,
    "Ġislets": 21798,
    "Ġvindictiveness": 25738,
    "Ġdirector": 18920,
    "Ġsings": 15504,
    "Ġsupported": 9817,
    "Ġdifferently": 10388,
    "Ġpast": 2099,
    "okened": 15986,
    "Ġveget": 11884,
    "Ġreinforcement": 3179,
    "Ġguardsmen": 20629,
    "Ġbaleen": 10036,
    "vel": 2387,
    "Ġembarrassed": 11384,
    "irect": 5553,
    "Ġintercepted": 25826,
    "Ġsoothingly": 25047,
    "Ġawaited": 17074,
    "Ġassu": 21894,
    "Ġvertebra": 20180,
    "damp": 15342,
    "Ġfid": 10803,
    "Ġspeeches": 22660,
    "anged": 3591,
    "Ġclasping": 20208,
    "alling": 6036,
    "Ġcable": 11579,
    "Ġmartyr": 26360,
    "expedition": 26078,
    "brain": 13686,
    "quished": 21851,
    "Ġsoftness": 18917,
    "Ġchivalry": 25819,
    "Ġlomb": 21556,
    "Ġincorpor": 13164,
    "ushes": 22288,
    "breeze": 20561,
    "months": 9071,
    "unpardonable": 21887,
    "Ġglancing": 5399,
    "id": 338,
    "Ġlandlessness": 23376,
    "Ġatmosphere": 10897,
    "disgraceful": 26076,
    "Ġstraw": 9428,
    "Ġwon": 1666,
    "Ġrandom": 1587,
    "steak": 14708,
    "adem": 21754,
    "mouth": 9130,
    "witted": 17707,
    "Ġringing": 13330,
    "Ġcurse": 7666,
    "Ġconfined": 7465,
    "Ġstrangled": 24134,
    "Ġtruest": 16703,
    "allic": 12810,
    "Ġmustering": 18662,
    "Ġcascade": 20579,
    "Ġsoapstone": 20509,
    "Ġremarked": 3697,
    "Ġcrest": 12938,
    "Ġmalady": 24392,
    "Ġsigmoid": 2463,
    "mild": 15390,
    "delirium": 14784,
    "Ġintensely": 17017,
    "icate": 9201,
    "Ġmasterly": 23992,
    "turtle": 12209,
    "daugh": 6788,
    "Ġimmovable": 15890,
    "Ġcoach": 6868,
    "Ġinferred": 14499,
    "Ġper": 587,
    "Ġtract": 21164,
    "Ġsenses": 8251,
    "Ġturbulence": 26597,
    "Ġdeserts": 10507,
    "shirt": 22440,
    "Ġdramatic": 4850,
    "Ġgift": 10840,
    "Ġmelted": 19620,
    "forks": 26387,
    "Ġattending": 3285,
    "bore": 13685,
    "Ġwast": 21857,
    "Ġremorselessly": 16967,
    "Ġvisible": 4777,
    "matter": 5136,
    "ple": 455,
    "Ġshipping": 14103,
    "Ġwalk": 1823,
    "ituted": 13872,
    "Ġbenchmarks": 15021,
    "Ġvictim": 6097,
    "Ġpompous": 20421,
    "prevent": 11793,
    "Ġargosy": 24273,
    "Ġbundle": 13425,
    "service": 15036,
    "Ġabsorb": 25112,
    "ys": 3965,
    "Ġinconvenient": 20008,
    "Ġprairies": 20019,
    "lance": 12479,
    "Ġreserve": 9970,
    "Ġsatan": 14389,
    "Ġrichness": 19310,
    "Ġshuddering": 9051,
    "east": 9115,
    "pride": 11210,
    "ojo": 7349,
    "concerned": 24638,
    "leful": 17842,
    "Ġblowing": 10484,
    "Ġairth": 23315,
    "ĠĠĠĠĠĠĠĠĠĠĠĠĠĠ": 22562,
    "heavy": 10574,
    "burned": 25079,
    "Ġfestival": 25445,
    "Ġboards": 14299,
    "Ġwedded": 16674,
    "enance": 3373,
    "ude": 7562,
    "Ġswain": 18880,
    "Ġfashioned": 13319,
    "uctive": 17696,
    "rane": 17653,
    "Ġprettier": 23763,
    "Ġsummits": 14683,
    "Ġloss": 824,
    "Ġblemish": 19678,
    "glasses": 11215,
    "ernsey": 8901,
    "effect": 8603,
    "Ġvehemently": 26039,
    "800": 17476,
    "Ġicelandic": 25886,
    "Ġph": 1542,
    "Ġissues": 9541,
    "Ġbordered": 24563,
    "Ġalbertus": 25648,
    "Ġrope": 4341,
    "Ġplayfully": 19238,
    "Ġextinguish": 14338,
    "Ġfumbling": 21415,
    "Ġdescrib": 2719,
    "or": 282,
    "inkled": 5477,
    "Ġstall": 12693,
    "Ġportra": 9008,
    "kitchen": 17585,
    "Ġcompleted": 8997,
    "Ġproportional": 2525,
    "Ġlightly": 13082,
    "Ġlysander": 13138,
    "examined": 17266,
    "een": 727,
    "Ġmining": 22828,
    "Ġint": 412,
    "arthly": 8029,
    "Ġphr": 2683,
    "Ġimprovements": 14531,
    "Ġjackson": 24240,
    "Ġemig": 14522,
    "ann": 5802,
    "communication": 25881,
    "Ġhid": 1319,
    "Ġbury": 12039,
    "entary": 21564,
    "Ġmarines": 16258,
    "Ġmungo": 25631,
    "Ġembodiment": 20526,
    "Ġsolicit": 22887,
    "Ġimpenet": 14218,
    "Ġviewing": 19263,
    "ampled": 18884,
    "Ġpivot": 13922,
    "Ġspr": 4030,
    "expectation": 14855,
    "Ġconstit": 8582,
    "Ġbash": 12583,
    "aiian": 23591,
    "Ġsince": 1794,
    "Ġclattered": 22356,
    "otes": 15741,
    "Ġox": 7153,
    "Ġcurls": 22964,
    "Ġpersu": 3566,
    "causes": 20342,
    "Ġradiating": 24335,
    "phon": 4132,
    "Ġsynd": 22207,
    "Ġlassitude": 20585,
    "Ġassertion": 13488,
    "Ġblush": 14401,
    "Ġattempts": 10490,
    "Ġlets": 18076,
    "Ġ69": 19660,
    "Ġhieroglyphics": 17302,
    "Ġaimed": 20249,
    "script": 11078,
    "Ġcetus": 19884,
    "model": 3953,
    "Ġbrass": 11047,
    "Ġability": 2765,
    "iftings": 23225,
    "stick": 15682,
    "Ġcorrection": 5062,
    "occur": 19574,
    "Ġsubterr": 10348,
    "Ġsqueezing": 25006,
    "Ġwhirling": 12246,
    "ppered": 15788,
    "Ġfle": 3090,
    "Ġdoing": 3663,
    "Ġblanched": 26282,
    "Ġsust": 7007,
    "Ġexperiments": 23022,
    "swept": 19785,
    "Ġdin": 3628,
    "Ġhymn": 24518,
    "tra": 4934,
    "Ġimmort": 19482,
    "Ġfound": 1248,
    "Ġlaudanum": 20689,
    "Ġvisitors": 7984,
    "unwittingly": 25801,
    "Ġreckon": 19869,
    "Ġvul": 10247,
    "Ġterra": 13115,
    "Ġintricacies": 15137,
    "multiple": 15106,
    "Ġlanterns": 24577,
    "joy": 3337,
    "measureless": 20234,
    "Ġextant": 18694,
    "raint": 18316,
    "Ġlangs": 13953,
    "Ġmodified": 14166,
    "shall": 4551,
    "Ġmortally": 23914,
    "Ġwip": 13852,
    "tuning": 1579,
    "Ġhawsers": 26502,
    "iness": 1280,
    "inian": 21181,
    "www": 17251,
    "ement": 1500,
    "Ġlatest": 16822,
    "tallied": 21088,
    "sincere": 16907,
    "Ġmoored": 11790,
    "Ġpage": 6978,
    "Ġgulf": 10635,
    "Ġano": 11595,
    "etence": 21574,
    "pretending": 17041,
    "Ġaxe": 15061,
    "Ġgeneric": 18458,
    "rance": 5993,
    "Ġglen": 18851,
    "Ġmeditation": 16680,
    "Ġpositional": 2597,
    "riot": 18180,
    "aby": 18106,
    "iloqu": 11647,
    "Ġ1894": 5196,
    "Ġburnt": 9927,
    "Ġincorrect": 2730,
    "Ġtowed": 11265,
    "ruff": 15895,
    "kles": 17584,
    "barrow": 15320,
    "Ġparamore": 22119,
    "request": 21240,
    "Ġaverse": 11081,
    "unfortunate": 15774,
    "Ġtranslations": 12050,
    "Ġpropriet": 9549,
    "Ġgam": 11623,
    "Ġcrackling": 24958,
    "berwell": 22715,
    "Ġsle": 2011,
    "explained": 23137,
    "Ġunsolved": 22028,
    "Ġbenefactor": 14697,
    "pression": 10407,
    "Ġtit": 8398,
    "Ġvanquished": 22873,
    "Ġmutinous": 23956,
    "inserted": 18887,
    "Ġundecided": 22043,
    "Ġimpenitent": 26548,
    "Ġmoderate": 10939,
    "Ġgrowing": 6750,
    "Ġmasking": 2422,
    "unhesitatingly": 26496,
    "ards": 2504,
    "sugg": 11839,
    "usive": 8191,
    "origin": 7581,
    "uniform": 18157,
    "odecim": 9831,
    "Ġpublic": 4335,
    "_)âĢĶ": 20143,
    "Ġgoat": 16004,
    "imagination": 13479,
    "Ġherds": 9715,
    "accompan": 11452,
    "Ġrolled": 4431,
    "omach": 11633,
    "Y": 61,
    "Ġoctavo": 15162,
    "caps": 20806,
    "teous": 16172,
    "Ġappetite": 12382,
    "Ġwarb": 17787,
    "Ġmanufactured": 22327,
    "oury": 22301,
    "illa": 12790,
    "gement": 13728,
    "Ġclay": 7018,
    "Ġcracking": 14574,
    "Ġrescue": 13341,
    "Ġsolace": 16198,
    "amusement": 15281,
    "ellow": 3878,
    "arus": 13911,
    "yourself": 6742,
    "Ġalleys": 25978,
    "Ġdifference": 1487,
    "Ġnantucketer": 6914,
    "Ġchorus": 10946,
    "Ġconsiderable": 4012,
    "appear": 13197,
    "Ġassured": 4374,
    "Ġgalvan": 21614,
    "Ġforcibly": 10060,
    "vengeance": 13355,
    "Ġmedical": 9463,
    "vishnoo": 21118,
    "Ġday": 958,
    "Ġscratch": 25564,
    "Ġkrusenstern": 26377,
    "althy": 8431,
    "Ġinclinations": 19538,
    "Ġdolphin": 17311,
    "Ġwreat": 15529,
    "Ġbestowed": 6593,
    "Ġnor": 1545,
    "Ġdetermination": 9818,
    "Ġmot": 2986,
    "Ġplaything": 19237,
    "rew": 3651,
    "ither": 1541,
    "missionary": 24615,
    "Ġmultipl": 2791,
    "seat": 18125,
    "Ġbestowing": 16971,
    "Ġpall": 7582,
    "nurse": 15207,
    "Ġ*": 1272,
    "Ġproudly": 19741,
    "ĠdÃ¦mon": 7844,
    "Ġmaketh": 15186,
    "Ġatom": 18192,
    "chers": 11317,
    "il": 329,
    "Ġfam": 1582,
    "Ġexertions": 13409,
    "Ġsensibly": 14513,
    "Ġdelighted": 5499,
    "Ġconse": 21801,
    "everything": 6324,
    "Ġhorizontal": 7782,
    "Ġbears": 6829,
    "apple": 22839,
    "Ġheadlong": 11886,
    "duchess": 18463,
    "Ġcher": 6129,
    "Ġlikes": 9407,
    "binary": 20783,
    "isted": 3299,
    "Ġspite": 4160,
    "Ġcouple": 5423,
    "Ġignor": 4017,
    "Ġcommodore": 12393,
    "arranged": 19318,
    "aration": 12604,
    "abetical": 15740,
    "Ġamused": 11797,
    "Ġinte": 2065,
    "Ġafraid": 3530,
    "Ġcler": 11770,
    "edmund": 17945,
    "Ġstories": 10865,
    "officers": 10627,
    "Ġunrelieved": 20544,
    "Ġexpense": 7651,
    "Ġcatches": 23425,
    "Ġundersampling": 19517,
    "proble": 9392,
    "Ġsqualls": 17020,
    "0": 20,
    "occupations": 24964,
    "Ġajar": 21201,
    "Ġfamine": 16326,
    "Ġfinishing": 23121,
    "september": 14035,
    "Ġplum": 11820,
    "Ġtyp": 1130,
    "Ġplay": 2628,
    "point": 6062,
    "Ġreligions": 20106,
    "Ġpitches": 23899,
    "Ġslain": 8953,
    "Ġgrowled": 19282,
    "Ġthreats": 13376,
    "Ġselfishness": 12287,
    "Ġbouton": 17868,
    "Ġmagn": 1550,
    "Ġreducing": 1957,
    "Ġpersistence": 2959,
    "Ġwarp": 8112,
    "!âĢĿ": 847,
    "reading": 12077,
    "Ġcetacea": 20552,
    "Ġsandwic": 24664,
    "Ġshortly": 6196,
    "nants": 17613,
    "Ġpain": 2304,
    "rously": 17654,
    "Ġfring": 11127,
    "tales": 17686,
    "Ġinsights": 13178,
    "Ġpeaceful": 9455,
    "itche": 7578,
    "ite": 713,
    "system": 3956,
    "Ġdemanding": 16805,
    "Ġvii": 13107,
    "islands": 21374,
    "pervading": 18965,
    "pper": 3208,
    "behold": 12876,
    "welcome": 10000,
    "Ġwaldman": 11345,
    "Ġcomplying": 18587,
    "close": 9985,
    "shabbily": 26246,
    "wester": 21137,
    "Ġstrategies": 1837,
    "Ġlandscape": 12415,
    "Ġparacels": 13666,
    "sm": 3438,
    "Ġinhabitant": 19754,
    "Ġbreed": 19073,
    "woes": 21132,
    "Ġworthless": 19564,
    "encoura": 15048,
    "Ġextreme": 2514,
    "Ġhaws": 21948,
    "Ġcigaret": 16976,
    "Ġcheapside": 23283,
    "Ġensure": 23683,
    "J": 46,
    "Ġtravelled": 7771,
    "mud": 20970,
    "bon": 13683,
    "Ġconfounded": 16381,
    "Ġdrinks": 24279,
    "Ġgirls": 4282,
    "unnatural": 15770,
    "Ġ25": 13193,
    "enstein": 5799,
    "Ġgrieved": 8297,
    "named": 9894,
    "apparent": 11041,
    "Ġtreats": 19342,
    "cou": 13694,
    "Ġforged": 12701,
    "Ġlost": 2637,
    "few": 8201,
    "Ġswish": 23050,
    "occasionally": 13520,
    "Ġduties": 6609,
    "Ì": 141,
    "Ġrepairs": 19083,
    "Ġobe": 5800,
    "Ġcaus": 1724,
    "Ġpresuming": 16793,
    "construction": 19777,
    "'m": 9582,
    "Ġspeed": 2449,
    "orphans": 26440,
    "nav": 17610,
    "Ġspect": 3554,
    "Ġconsider": 2567,
    "Ġsan": 7824,
    "Ġformality": 22827,
    "Ġcongregation": 12327,
    "tackles": 25624,
    "air": 1002,
    "Ġpond": 13915,
    "Ġpress": 5931,
    "attoo": 6807,
    "Ġpreprocessing": 26536,
    "Ġforesee": 19125,
    "Ġtranquo": 14842,
    "Ġdoings": 18376,
    "remed": 18952,
    "Ġsqu": 1038,
    "anish": 2618,
    "gences": 20876,
    "rec": 6003,
    "Ġpicturesque": 14893,
    "usual": 5841,
    "Ġrush": 5924,
    "'": 11,
    "Ġpupella": 20420,
    "ear": 8730,
    "Ġprecipitous": 24835,
    "Ġeclipsed": 26376,
    "angels": 22099,
    "Ġcurled": 8225,
    "Ġroaring": 10967,
    "walks": 19720,
    "became": 10514,
    "cott": 8073,
    "ends": 6038,
    "Ġstore": 8453,
    "reck": 9636,
    "Ġvind": 10249,
    "paradise": 20636,
    "Ġmansion": 17809,
    "methodically": 20663,
    "instant": 8651,
    "Ġencamped": 22799,
    "ounding": 22389,
    "ifting": 6545,
    "Ġbitterness": 8024,
    "hib": 15366,
    "reds": 12745,
    "msman": 9269,
    "resentment": 15184,
    "Ġheaved": 9381,
    "Ġalarm": 4052,
    "Ġav": 3585,
    "Ġenlarge": 21932,
    "Ġgoest": 22420,
    "Ġdid": 835,
    "Ġprudential": 17919,
    "Ġhypothe": 4078,
    "reluct": 26163,
    "Ġstick": 6025,
    "Ġgul": 7859,
    "Ġzones": 22816,
    "Ġbrighter": 16186,
    "Ġstyle": 6946,
    "cannot": 5745,
    "week": 12928,
    "Ġassumed": 9465,
    "Ġthereof": 22365,
    "Ġconsequently": 8059,
    "Ġindulging": 16904,
    "Ġsubsiding": 23432,
    "Ġprove": 5231,
    "Ġbrows": 13299,
    "Ġsympt": 7012,
    "tem": 6369,
    "incom": 21180,
    "fo": 5278,
    "Ġunob": 22010,
    "Ġferocious": 17418,
    "Ġdegraded": 19224,
    "Ġdiverted": 14592,
    "pher": 11511,
    "aux": 14288,
    "Ġaccused": 8507,
    "Ġdreadfully": 7725,
    "Ġanswers": 7070,
    "Ġinducements": 24965,
    "iancy": 13006,
    "Ġcaut": 6521,
    "ility": 624,
    "Ġconn": 9229,
    "Ġeag": 2969,
    "Ġperplexed": 23657,
    "Ġded": 2625,
    "Ġparts": 4169,
    "Ġcharity": 8862,
    "ispensable": 9095,
    "active": 16101,
    "Ġsqueaking": 26274,
    "Ġpredicts": 2593,
    "Ġtip": 15470,
    "vand": 21107,
    "Ġtreas": 7358,
    "princ": 8620,
    "uned": 21868,
    "Ġishmael": 7395,
    "figures": 20120,
    "Ġrooms": 5180,
    "Ġannoyed": 17199,
    "ofs": 11828,
    "Ġquicker": 16507,
    "Ġarctic": 12807,
    "sl": 5794,
    "attery": 18495,
    "Ġsea": 1209,
    "clearly": 25195,
    "rable": 11631,
    "Ġcompetent": 11814,
    "Ġsidel": 9635,
    "Ġjoyously": 19345,
    "raise": 18011,
    "Ġsoaked": 15858,
    "Ġspectator": 19404,
    "ustomed": 6098,
    "Ġsplice": 19308,
    "icious": 7380,
    "incident": 14591,
    "Ġbarbarous": 13475,
    "Ġhyper": 19738,
    "inj": 9151,
    "Ġth": 299,
    "**:": 4737,
    "Ġexhilarating": 26337,
    "springs": 24911,
    "Ġimmortal": 8017,
    "wing": 2519,
    "Ġprompt": 3187,
    "Ġjourneying": 25565,
    "arab": 21439,
    "omeness": 18015,
    "bask": 20775,
    "don": 3545,
    "autions": 20766,
    "Ġreappearance": 21664,
    "Ġinhabitants": 7524,
    "Ġcrevice": 22724,
    "Ġspar": 10921,
    "Ġaltern": 7394,
    "Ġbids": 24645,
    "metic": 14983,
    "Ġdisplay": 6428,
    "Ġcharmingly": 24221,
    "Ġnothing": 1359,
    "immed": 9217,
    "ollion": 19714,
    "Ġchemical": 10410,
    "Ġstreamed": 14546,
    "Ġselected": 9710,
    "Ġbask": 8116,
    "overhearing": 19051,
    "transferred": 24514,
    "Ġmilliner": 19883,
    "Ġball": 3626,
    "Ġdisse": 18548,
    "another": 5439,
    "Ġdons": 17888,
    "uccas": 21105,
    "impatiently": 20469,
    "Ġcalculus": 23981,
    "age": 502,
    "Ġdiab": 10611,
    "Ġlif": 10195,
    "x": 92,
    "venison": 22625,
    "meas": 7434,
    "Ġgrasped": 8033,
    "Ġ68": 24370,
    "Ġdeepest": 8213,
    "Ġdrug": 11410,
    "Ġplain": 2817,
    "Ġfailing": 12135,
    "Ġhappening": 14382,
    "Ġcircling": 19092,
    "wins": 21128,
    "Ġmargin": 11919,
    "Ġmud": 11572,
    "Ġlxi": 21558,
    "Ġabound": 8864,
    "Ġveritable": 19379,
    "Ġscrib": 22266,
    "oton": 3610,
    "imately": 12685,
    "Ġspire": 18306,
    "this": 1438,
    "Ġmorose": 18848,
    "Ġapologized": 25198,
    "Ġfiles": 21411,
    "ieved": 3229,
    "speed": 19407,
    "ouement": 21446,
    "Ġminds": 6303,
    "Ġjune": 10288,
    "}": 97,
    "Ġboots": 5942,
    "Ġwretch": 6378,
    "absolut": 8458,
    "pedest": 24695,
    "pense": 10368,
    "volutional": 1932,
    "Ġappend": 18360,
    "itary": 4751,
    "soles": 18686,
    "level": 2655,
    "Ġsul": 7570,
    "suitable": 18632,
    "Ġspace": 1524,
    "Ġdandy": 17892,
    "hearts": 13343,
    "Ġfrank": 4421,
    "Ġeclips": 20695,
    "Ġcatastrophe": 10483,
    "Ġpleas": 1902,
    "30": 20753,
    "Ġinland": 11607,
    "Ġsearching": 13161,
    "birth": 15321,
    "Ġinheritance": 25355,
    "Ġcomparative": 10542,
    "Ġschoolmaster": 16862,
    "Ġmonarchs": 25846,
    "dropped": 12260,
    "Ġgazes": 24094,
    "Ġcrazy": 8592,
    "ult": 724,
    "Ġpluck": 15611,
    "Ġhumanity": 6731,
    "Ġpromising": 10399,
    "inridge": 11560,
    "gast": 20870,
    "ws": 7355,
    "death": 6261,
    "Ġcompute": 2907,
    "Ġslang": 23156,
    "Ġmanufact": 22325,
    "Ġabroad": 8866,
    "iliating": 12692,
    "Ġcrossed": 6068,
    "Ġdifferences": 18715,
    "ħ": 232,
    "Ġoptimal": 1854,
    "iz": 364,
    "Ġstrait": 23747,
    "Ġlose": 5028,
    "good": 2899,
    "rons": 21038,
    "Ġhorrid": 7998,
    "Ġsufficient": 2001,
    "keys": 15856,
    "bons": 17486,
    "rudential": 16709,
    "teak": 22814,
    "Ġpaddock": 25037,
    "Ġgentlemen": 3645,
    "×": 152,
    "Ġadventure": 5980,
    "riv": 3107,
    "Ġjo": 2609,
    "peasant": 23108,
    "Ġsubterraneous": 20264,
    "ivates": 18282,
    "takes": 21074,
    "Ġhump": 5853,
    "impat": 11202,
    "start": 7598,
    "Ġdrawer": 13265,
    "zar": 11547,
    "ubines": 22956,
    "Ġdragged": 6889,
    "Ġexper": 1292,
    "itate": 6667,
    "ctor": 13959,
    "Ġcetology": 10008,
    "\\": 64,
    "Ġagrees": 22512,
    "Ġeddies": 23436,
    "Ġpurely": 12229,
    "olog": 1100,
    "z": 94,
    "Ġscaramouch": 23824,
    "Ġsecluded": 11991,
    "Ġunrem": 18244,
    "adel": 15726,
    "ouraged": 22858,
    "shuff": 18482,
    "Ġclosing": 11772,
    "subject": 6631,
    "unguarded": 23665,
    "dition": 15339,
    "Ġvortex": 26208,
    "Ġobscured": 15010,
    "draught": 12087,
    "nowadays": 22336,
    "Ġconcept": 653,
    "antly": 1987,
    "thur": 7188,
    "Ġreasoned": 23084,
    "altering": 12637,
    "Ġgroup": 2036,
    "queens": 22892,
    "Ġresult": 4462,
    "Ġbald": 16204,
    "Ġgilded": 17444,
    "xible": 13807,
    "ist": 448,
    "groom": 8739,
    "Ġframe": 2047,
    "Ġextravagance": 17279,
    "either": 6791,
    "hs": 8377,
    "antique": 18285,
    "Ġwould": 652,
    "gazing": 12469,
    "numbers": 17616,
    "Ġcringing": 25941,
    "Ġ14": 9322,
    "Ġasks": 5115,
    "ishing": 1144,
    "Ġtwin": 12925,
    "Ġcirclings": 26431,
    "Ġnatur": 17333,
    "Ġinterference": 8895,
    "Ġaccounts": 7207,
    "Ġenchanting": 17039,
    "Ġsustained": 13481,
    "icts": 22398,
    "atmospheric": 17776,
    "Ġsliding": 9362,
    "ifers": 15779,
    "Ġcoer": 22580,
    "Ġthrobbing": 16898,
    "Ġejaculation": 20253,
    "Ġvon": 14080,
    "Ġdevice": 1926,
    "Ġreserves": 19669,
    "Ġmethodically": 23154,
    "Ġchilian": 25563,
    "Ġgamming": 25542,
    "orand": 21395,
    "Ġrot": 10966,
    "Ġbashee": 19848,
    "urry": 13992,
    "Ġnights": 7258,
    "Ġlegible": 23532,
    "Ġgorge": 13565,
    "Ġwhereupon": 14295,
    "withstand": 23024,
    "Ġreaches": 18031,
    "theories": 18078,
    "Ġappl": 1679,
    "Ġmarvellous": 7538,
    "Ġeyel": 17096,
    "Ġgrandfather": 19420,
    "Ġwards": 17789,
    "Ġsecurity": 8977,
    "Ġfearing": 12812,
    "Ġoccurs": 1855,
    "Ġtunes": 24619,
    "zealand": 26054,
    "Ġenglish": 3617,
    "Ġfavours": 23276,
    "Ġwel": 4528,
    "Ġcrescent": 16134,
    "shoals": 24717,
    "Ġvelocity": 10620,
    "will": 1967,
    "Ġdiscovery": 5412,
    "Ġcork": 12566,
    "shudder": 26245,
    "Ġhogshe": 20490,
    "Ġpurest": 14938,
    "Ġwouldst": 18501,
    "ps": 4575,
    "Ġpropri": 6738,
    "ots": 3295,
    "Ġgait": 13329,
    "orously": 8418,
    "Ġdom": 2803,
    "achel": 7031,
    "line": 1440,
    "Ġarrog": 18337,
    "cloth": 11935,
    "Ĥ": 229,
    "spark": 18688,
    "Ġmizzen": 20288,
    "cerem": 15675,
    "leaving": 10791,
    "Ġxi": 16428,
    "izon": 18133,
    "Ġsculpt": 15943,
    "requiem": 24856,
    "Ġcomstock": 21843,
    "âĢľâĢĶ": 10872,
    "Ġanalyze": 1621,
    "narrow": 11507,
    "Ġtransplanted": 22464,
    "âĢĶâĢĺ_": 24831,
    "Ġsafety": 6339,
    "cher": 5786,
    "hold": 3988,
    "Ġgather": 6534,
    "Ġdeeper": 2084,
    "danger": 10089,
    "buff": 15317,
    "greeting": 24554,
    "Ġbattery": 21392,
    "Ġthinnest": 24183,
    "Ġmaz": 15539,
    "Ġcrabs": 19173,
    "Ġ(`": 12850,
    "Ġtrespass": 23599,
    "standing": 5558,
    "Ġhoof": 23349,
    "Ġplaited": 14282,
    "Ġhumorousness": 25377,
    "berish": 22713,
    "Ġdifficulties": 11225,
    "Ġbiases": 2400,
    "Ġsells": 21222,
    "Ġwedge": 24069,
    "Ġconsisting": 8971,
    "direct": 12454,
    "through": 4029,
    "Ġpleasures": 11142,
    "Ġtang": 13813,
    "Ġsquint": 22835,
    "Ġsubord": 22786,
    "Ġshadowed": 24043,
    "Ġlux": 8813,
    "freely": 16854,
    "Ġcalled": 1972,
    "dishon": 20402,
    "Ġdomineer": 23689,
    "fluttering": 23971,
    "Ġlayers": 818,
    "Ġ1991": 3018,
    "Ġbaw": 15566,
    "Ġwisdom": 11233,
    "Ġgrecian": 26296,
    "librarian": 26568,
    "fooled": 24419,
    "paws": 21028,
    "Ġchoosing": 19589,
    "âĢ": 294,
    "Ġbenefits": 4289,
    "continually": 11302,
    "·": 120,
    "london": 9609,
    "dering": 5305,
    "Ġinstance": 2545,
    "Ġrestoration": 19025,
    "Ġnarratives": 24353,
    "mured": 6960,
    "miseries": 16757,
    "isome": 17848,
    "Ġplenty": 6708,
    "fow": 20852,
    "Ġendeavors": 16545,
    "niece": 20994,
    "Ġxii": 11989,
    "Ġblotted": 20216,
    "Ġfreckled": 18959,
    "diver": 20830,
    "hate": 20891,
    "ergy": 2360,
    "shoulder": 16582,
    "Ġscandalous": 24878,
    "comparison": 25840,
    "Ġdeclares": 16992,
    "Ġsoft": 1458,
    "âĢĿ]": 21809,
    "extric": 22766,
    "fulfilment": 26025,
    "inkles": 7426,
    "Ġinsomuch": 23678,
    "Ġdefence": 11067,
    "Ġconception": 10310,
    "uled": 11536,
    "adm": 7608,
    "Ġinterposed": 20617,
    "Ġmich": 21304,
    "Ġkramm": 26233,
    "Ġpagans": 16922,
    "cial": 2650,
    "itics": 13871,
    "Ġquakers": 22413,
    "Ġforgo": 21770,
    "Ġsentiment": 6588,
    "Ġrefreshment": 17239,
    "Ġfruits": 17118,
    "Ġ86": 24461,
    "entric": 11618,
    "aways": 15309,
    "Ġmbpp": 21320,
    "hearty": 14833,
    "Ġworthy": 7241,
    "Ġtale": 5142,
    "Ġelapsed": 7653,
    "ulpt": 10885,
    "umul": 1287,
    "msgate": 18412,
    "Ġvegetables": 15220,
    "Ġwrists": 11112,
    "barb": 10080,
    "Ġpaid": 5015,
    "Ġvac": 5025,
    "sold": 15425,
    "ckled": 9256,
    "allions": 22195,
    "writer": 14648,
    "Ġpictured": 16622,
    "Ġbrine": 18767,
    "Ġpleases": 16296,
    "Ġhousekeeper": 7456,
    "Ġemphasis": 20535,
    "aits": 20765,
    "derstand": 643,
    "Ġgroaned": 11266,
    "Ġgates": 10200,
    "Ġ39": 19488,
    "arris": 13208,
    "position": 15412,
    "Ġelement": 6897,
    "Ġprocedural": 12029,
    "Ġanyone": 4461,
    "Ġextraction": 11253,
    "Ġintend": 12761,
    "Ġpastures": 23418,
    "avings": 12021,
    "Ġdescried": 7918,
    "Ġcrowded": 8011,
    "Ġvoice": 2191,
    "Ġabove": 2937,
    "Ġbamboo": 17436,
    "ifle": 10891,
    "ouncement": 11743,
    "Ġtransported": 11279,
    "Ġboundless": 10495,
    "Ġglowed": 24864,
    "ington": 21300,
    "ect": 381,
    "wear": 22680,
    "Ġcharges": 23266,
    "Ġmeals": 12708,
    "Ġentrapped": 26262,
    "tish": 17677,
    "negro": 18493,
    "Ġus": 495,
    "Ġsickness": 10538,
    "Ġseparated": 9464,
    "conjectured": 25181,
    "Ġleague": 6538,
    "Ġquestioned": 14620,
    "Ġrigger": 19529,
    "Ġgratitude": 5599,
    "Ġvolley": 24145,
    "write": 14647,
    "iro": 20913,
    "Ġcamp": 9164,
    "Ġtriangular": 14858,
    "Ġbund": 17863,
    "flatter": 23965,
    "Ġpanthe": 19652,
    "Ġsurvivor": 17362,
[...]
