{
  "metadata": {
    "vocab_size": 26616,
    "algorithm": "BPE",
    "created_at": "2026-06-26 06:08:47",
    "special_tokens": [
      "<PAD>",
      "<SOS>",
      "<EOS>",
      "<UNK>",
      "<MASK>"
    ]
  },
  "vocab": {
    "ĠarchÃ¦": 22790,
    "Ġcircus": 19093,
    "Ġfear": 2275,
    "Ġveins": 8935,
    "Ġhey": 11644,
    "Ġcrosses": 23064,
    "Ġassign": 11111,
    "Ġcongregation": 12333,
    "Ġfeed": 2128,
    "names": 16529,
    "infor": 2914,
    "Ġpout": 17908,
    "Ġblade": 11897,
    "Ġorphans": 20207,
    "Ġdood": 22246,
    "ications": 4444,
    "Ġdeficiency": 14407,
    "Ġpeculiarity": 12938,
    "Ġpunishment": 9959,
    "Ġbreaking": 6311,
    "Ġuniform": 2223,
    "Ġgathers": 24742,
    "knife": 6941,
    "Ġcordial": 16837,
    "Ġsagacity": 16976,
    "Ġfrog": 23925,
    "zor": 15461,
    "Ġthunders": 15642,
    "Ġalley": 15740,
    "Ġedged": 23489,
    "Ġjonas": 20612,
    "colnett": 19332,
    "Ġunsupp": 22021,
    "[_": 5131,
    "feels": 22504,
    "Ġproving": 15756,
    "Ġunconscious": 9550,
    "Ġsooty": 25816,
    "ĠĠĠĠĠĠĠĠĠĠĠĠĠĠĠĠ": 1220,
    "Ġdun": 6675,
    "uneasiness": 23690,
    "Ġphrenologist": 25608,
    "unction": 10237,
    "Ġgrapple": 25812,
    "Ġsymbols": 2798,
    "train": 2036,
    "Ġprayers": 12128,
    "Ġ1846": 26085,
    "bern": 20777,
    "Ġberkshire": 16886,
    "Ġthanked": 9462,
    "Ġunfold": 8022,
    "redible": 15805,
    "Ġvisitor": 5331,
    "Ġscud": 14193,
    "Ġdwelt": 12610,
    "Ġvivacity": 14944,
    "Ġgirdled": 19161,
    "Ġshell": 11740,
    "iors": 9128,
    "Ġfounded": 8560,
    "Ġolfactories": 26172,
    "Ġnodding": 23339,
    "Ġdread": 3163,
    "went": 6512,
    "uncommon": 11685,
    "Ġwildest": 16513,
    "Ġrouse": 15825,
    "Ġuttering": 16464,
    "Ġoffer": 4845,
    "anite": 17839,
    "Ġhid": 1320,
    "Ġhabits": 6925,
    "Ġbery": 13901,
    "wandering": 20287,
    "Ġjack": 4654,
    "smith": 5669,
    "Ġsignification": 19204,
    "claim": 9838,
    "Ġdisapprobation": 16062,
    "Ġgardiner": 3242,
    "Ġretrogress": 23076,
    "Ġspouter": 12803,
    "Ġvaliantly": 22806,
    "chariot": 26481,
    "fishers": 24929,
    "Ġthink": 985,
    "Ġpalpitated": 26086,
    "uvian": 12247,
    "Ġcovari": 2335,
    "cons": 4307,
    "Ġsucceeding": 16763,
    "Ġlur": 5226,
    "ildad": 3533,
    "Ġholmes": 1309,
    "sex": 12718,
    "Ġnovels": 15933,
    "painted": 17641,
    "Ġelij": 8912,
    "Ġdevoutly": 25834,
    "sounding": 24795,
    "Ġezekiel": 26194,
    "nep": 20988,
    "Ġendeav": 2957,
    "ignor": 8964,
    "Ġrid": 4353,
    "13": 20752,
    "Ġnomine": 26458,
    "Ġbigger": 19764,
    "rendering": 22355,
    "Ġtraverse": 18893,
    "Ġconquer": 14030,
    "Ġpint": 17911,
    "iminished": 19025,
    "nez": 22446,
    "Ġsung": 23275,
    "pine": 13772,
    "Ġwhaler": 7519,
    "glim": 19368,
    "Ġalt": 18101,
    "d": 72,
    "Ġexamples": 2605,
    "goin": 23406,
    "Ġsubmit": 11874,
    "queen": 12732,
    "reasoning": 9479,
    "ateg": 1367,
    "Ġrue": 11871,
    "Ġestab": 6316,
    "rary": 4577,
    "Ġtelescope": 17351,
    "Ġclaps": 22346,
    "fore": 687,
    "stolen": 13985,
    "Ġhaunts": 18199,
    "Ġtierce": 15481,
    "Ġreceiving": 4883,
    "Ġindispensable": 11904,
    "serve": 13052,
    "Ġupright": 8495,
    "Ġarriving": 19218,
    "Ġhold": 2243,
    "nav": 17614,
    "cular": 15331,
    "Ġsnar": 13202,
    "Ġmechanisms": 1581,
    "dw": 3336,
    "Ġencapsulate": 13678,
    "knight": 20942,
    "ï": 176,
    "Ġrow": 5245,
    "ating": 667,
    "Ġencountering": 11271,
    "Ġenveloped": 12213,
    "Ġpraise": 6486,
    "_).âĢĶ": 8685,
    "Ġcarpets": 18904,
    "loat": 8890,
    "Ġdisgra": 18550,
    "Ġweeks": 4567,
    "Ġ105": 24413,
    "germ": 15360,
    "ohnson": 16329,
    "however": 4372,
    "_âĢĶâĢĻ": 13686,
    "âĢĶ_": 3206,
    "eagerly": 17319,
    "ological": 1886,
    "noon": 5037,
    "rough": 591,
    "uit": 8393,
    "Ġdaboll": 25951,
    "Ġcelerity": 17439,
    "Ġproceeding": 9909,
    "Ġgramm": 8171,
    "Ġkind": 1786,
    "Ġarchipelagoes": 14353,
    "Ġrestrain": 8967,
    "Ġcontin": 5382,
    "Ġdisregarded": 22534,
    "then": 2055,
    "Ġgun": 4703,
    "but": 593,
    "helm": 12176,
    "Ġcommitting": 22676,
    "**": 4687,
    "Ġdispelling": 23883,
    "umbling": 6613,
    "col": 3103,
    "Ġbesee": 19245,
    "examination": 25479,
    "Ġbleeds": 24397,
    "Ġinex": 6528,
    "saying": 8644,
    "Ġblocks": 6322,
    "Ġcircumspection": 25885,
    "Ġbier": 22767,
    "Ġsnatches": 16546,
    "ripp": 6405,
    "Ġresiding": 16065,
    "Ġpince": 21474,
    "hilar": 25084,
    "Ġpatronage": 17054,
    "sheet": 16288,
    "Ġpractised": 23330,
    "Ġhighly": 4846,
    "Ġvacuous": 24344,
    "Ġdeep": 800,
    "Ġpostmark": 16727,
    "mean": 6438,
    "Ġrecord": 5317,
    "iations": 11497,
    "Ġobtruded": 20724,
    "deli": 15348,
    "weakness": 16128,
    "shot": 2171,
    "Ġovertook": 18428,
    "analy": 17840,
    "want": 8770,
    "plings": 11699,
    "Ġrequire": 916,
    "gre": 5788,
    "Ġwhale": 627,
    "endurable": 22232,
    "doors": 19096,
    "Ġfossils": 20225,
    "passenger": 24169,
    "Ġlethargy": 26485,
    "Ġplunged": 8696,
    "oubled": 23650,
    "Ġsepulchral": 25893,
    "Ġindistinct": 17411,
    "Ġforeman": 23449,
    "ration": 2005,
    "Ġdisputing": 25825,
    "Ġundersampling": 19521,
    "Ġworrying": 22930,
    "Ġdevils": 7230,
    "surprising": 16921,
    "whaleman": 23439,
    "Ġjust": 1243,
    "Ġrail": 7223,
    "iece": 3233,
    "Ġstartling": 14673,
    "=": 33,
    "seam": 10876,
    "wife": 8101,
    "useless": 14596,
    "history": 15017,
    "Ġfrantic": 7957,
    "misfortunes": 16758,
    "Ġshriek": 6639,
    "Ġkrusenstern": 26379,
    "ignomin": 23268,
    "Ġgardeners": 12125,
    "Ġnar": 7374,
    "Ġconcussion": 26301,
    "Ġplay": 2626,
    "ricity": 23066,
    "different": 6501,
    "Ġpaddled": 20204,
    "Ġinfat": 14502,
    "Ġexclaimed": 4684,
    "Ġpeg": 22692,
    "Ġoutsk": 15960,
    "Ġcaut": 6521,
    "enes": 5218,
    "Ġanswerable": 23472,
    "Ġunwillingly": 15852,
    "Ġsettling": 11064,
    "Ġhearing": 4762,
    "Ġhistorical": 3645,
    "Ġacqu": 1417,
    "ilet": 12834,
    "Ġunwaning": 24830,
    "Ġpirates": 9076,
    "Ġsincerely": 7963,
    "worked": 19018,
    "Ġsweeping": 8988,
    "Ġincompatible": 25681,
    "Ġconse": 21808,
    "phantoms": 24680,
    "once": 5904,
    "discover": 10542,
    "Ġridiculous": 10631,
    "Ġvariants": 1793,
    "ĠĠĠĠĠĠĠĠĠĠĠĠĠĠĠĠĠĠĠĠĠĠĠĠĠĠĠĠĠĠĠĠĠĠĠĠĠĠĠĠĠĠĠĠĠĠĠĠĠ": 20041,
    "Ġrelevant": 1864,
    "ierce": 14394,
    "Ġexploit": 19164,
    "Ġaddressing": 11166,
    "Ġchim": 5933,
    "Ġsoothingly": 25050,
    "Ġroarings": 25303,
    "specimen": 26607,
    "Ġimputed": 12813,
    "allies": 14168,
    "Ġshutters": 9940,
    ",--": 2472,
    "Ġjing": 15953,
    "Ġdesires": 9460,
    "Ġruminated": 24600,
    "meeting": 11021,
    "consc": 4842,
    "Ġchoice": 2164,
    "Ġcircular": 13115,
    "Ġrequires": 1042,
    "Ġoctober": 17229,
    "Ġknots": 15011,
    "rot": 21535,
    "Ġdates": 6694,
    "Ġinser": 6819,
    "fl": 3600,
    "Ġtelling": 5747,
    "Ġdecapitated": 20619,
    "educ": 10830,
    "Ġerr": 1322,
    "Ġdiscoverer": 26036,
    "icate": 9204,
    "came": 4572,
    "prov": 16426,
    "Ġlibrary": 6423,
    "Ġcister": 13885,
    "Ġvocation": 10528,
    "Ġencl": 16171,
    "Ġnonce": 23232,
    "Ġfourteen": 12014,
    "Ġlingered": 13508,
    "Ġyounger": 5253,
    "Ġcoleman": 22588,
    "hunting": 24385,
    "headers": 23111,
    "dining": 13709,
    "regular": 3042,
    "speptic": 23949,
    "cks": 3080,
    "Ġahab": 1216,
    "Ġentreat": 4510,
    "Ġfanciful": 24787,
    "Ġdowry": 20688,
    "instr": 12536,
    "Ġdance": 4441,
    "fatigue": 20660,
    "Ġpriests": 15043,
    "Ġfest": 10806,
    "Ġpeasants": 12336,
    "Ġminutes": 3002,
    "Ġane": 9184,
    "Ġresent": 6049,
    "Ġpromontory": 11945,
    "etime": 12664,
    "Ġresolutely": 14611,
    "Ġcoachman": 15002,
    "Ġpains": 5965,
    "Ġdefe": 21839,
    "Ġgret": 21604,
    "Ġsince": 1798,
    "Ġbustle": 17230,
    "Ġorph": 9720,
    "Ġexp": 780,
    ".": 18,
    "Ġstabbed": 25457,
    "Ġcoiling": 12910,
    "Ġpertur": 12856,
    "requ": 7148,
    "Ġpon": 10178,
    "Ġrevers": 21667,
    "Ġgrief": 4622,
    "aved": 5475,
    "Ġlamb": 8817,
    "Ġadver": 5641,
    "regarding": 15075,
    "speed": 19412,
    "Ġhandsomely": 25498,
    "Ġgaining": 9495,
    "culous": 11143,
    "enterprise": 24995,
    "Ġhooked": 19081,
    "gris": 8260,
    "Ġnarrower": 24354,
    "ulance": 15771,
    "Ġsea": 1209,
    "Ġspect": 3553,
    "verest": 13994,
    "Ġatt": 778,
    "Ġindispens": 22957,
    "Ġcoarsely": 25830,
    "Ġoccas": 2702,
    "Ġunhappily": 18260,
    "confl": 22473,
    "om": 315,
    "Ġplainpal": 19279,
    "Ġcelebrated": 13598,
    "genteel": 19952,
    "Ġemble": 13974,
    "Ġhideousness": 16917,
    "Ġmajesty": 5201,
    "Ġpr": 1602,
    "iony": 9194,
    "urity": 8143,
    "sheep": 23089,
    "Ġwool": 19436,
    "Ġban": 7156,
    "shoals": 24716,
    "moid": 2445,
    "acup": 14281,
    "arp": 2028,
    "Ġrelevance": 5184,
    "Ġreads": 23115,
    "warrant": 21140,
    "ping": 9618,
    "Ġjer": 6267,
    "stays": 15693,
    "Ġscornful": 24999,
    "Ġdistrusting": 25056,
    "Ġpam": 21457,
    "Ġpropriet": 9553,
    "preced": 10312,
    "Ġdaybreak": 18728,
    "Ġverbal": 19382,
    "Ġdifficulties": 11227,
    "Ġcyl": 15561,
    "terror": 18131,
    "bold": 17490,
    "Ġdefilements": 26286,
    "Ġprovidence": 18747,
    "Ġgomorrah": 21618,
    "Ġprivacy": 19527,
    "may": 3679,
    "Ġtyphoons": 20237,
    "Ġfront": 3452,
    "Ġsovere": 9259,
    "Ġlaud": 17970,
    "hoist": 23716,
    "Ġexisting": 12723,
    "Ġferoc": 14900,
    "Ġhel": 3788,
    "Ġtransp": 4771,
    "bench": 16805,
    "Ġpulse": 13119,
    "Ġartfully": 22610,
    "Ġdiscoverers": 26037,
    "convenient": 12242,
    "cet": 15328,
    "romised": 14115,
    "Ġdeceitful": 25733,
    "Ġimprudently": 22390,
    "tashtego": 9625,
    "Ġphrase": 11189,
    "Ġwis": 3731,
    "uncle": 8159,
    "Ġconstantinople": 19840,
    "proud": 9907,
    "Ġguardsmen": 20633,
    "Ġgemini": 26471,
    "Ġbath": 9661,
    "Ġconstrained": 19242,
    "benefit": 24643,
    "ouching": 13181,
    "Ġcemeteries": 26377,
    "rossed": 11015,
    "ah": 1833,
    "Ġaffliction": 25846,
    "Ġroman": 8323,
    "Ġadmirals": 20388,
    "Ġslight": 3119,
    "Ġpruning": 18972,
    "opÃ¦": 12878,
    "othing": 6995,
    "Ġbowsprit": 16563,
    "mmet": 10991,
    "Ġlength": 2495,
    "Ġindefinitely": 25222,
    "Ġenh": 3077,
    "Ġthump": 11614,
    "simultaneously": 19866,
    "Ġassociates": 24711,
    "pacing": 21023,
    "branch": 23580,
    "Ġrelinqu": 12988,
    "lar": 4484,
    "Ġcarav": 18903,
    "Ġaccuse": 14214,
    "Ġfloat": 12036,
    "Ġimpregnable": 26024,
    "Ġinconvenient": 20013,
    "Ġdeacon": 18143,
    "correct": 24483,
    "Ġdisplayed": 10611,
    "Ġfrighted": 24033,
    "Ġmartyr": 26362,
    "Ġabundance": 17158,
    "Ġchr": 3688,
    "talked": 14988,
    "Ġprudent": 9188,
    "stream": 15691,
    "Ġcrows": 24035,
    "that": 849,
    "pth": 2380,
    "Ġshipwrecked": 25688,
    "Ġcoward": 7155,
    "Ġgriefs": 16773,
    "otam": 21802,
    "Ġswept": 7978,
    "Ġimmersed": 19488,
    "Ġhast": 3151,
    "erranean": 9337,
    "Ġhastening": 19338,
    "Ġunmannerly": 26519,
    "Ġshutter": 16673,
    "Ġcup": 5697,
    "Ġolive": 12570,
    "Ġseconds": 16397,
    "Ġunremitting": 26219,
    "fed": 11490,
    "Ġcour": 1768,
    "Ġpensive": 21478,
    "deser": 10481,
    "turbaned": 24532,
    "Ġtattooed": 11380,
    "Ġactual": 3740,
    "Ġlightness": 23262,
    "Ġpupella": 20425,
    "Ġrequirements": 9798,
    "xes": 21143,
    "Ġtormenting": 15108,
    "Ġdismay": 11813,
    "Ġthre": 2061,
    "same": 5362,
    "Ġflora": 11418,
    "deck": 4501,
    "Ġassu": 21901,
    "Ġmaid": 5287,
    "and": 372,
    "Ġimp": 574,
    "Ġsebastian": 11702,
    "Ġplug": 17150,
    "Ġflying": 5413,
    "Ġnarrow": 5086,
    "Ġbars": 13900,
    "Ġconcentrate": 25066,
    "instead": 14816,
    "Ġreven": 18031,
    "Ġanomalous": 25638,
    "Ġdescend": 7426,
    "itheat": 21341,
    "going": 6314,
    "Ġshrinking": 14808,
    "serv": 7450,
    "fellow": 6792,
    "Ġswitzerland": 10382,
    "Ġcloth": 9745,
    "Ġnormalization": 1245,
    "hatch": 15368,
    "Ġcrumbs": 19124,
    "extraordinary": 9098,
    "Ġalternating": 15033,
    "Ġtremble": 6905,
    "Ġredden": 15698,
    "fast": 3070,
    "Ġscarlet": 13228,
    "Ġreveal": 11202,
    "Ġindoors": 18838,
    "Ġrhone": 25231,
    "carried": 16713,
    "sul": 15424,
    "mur": 5428,
    "Ġpassers": 18759,
    "Ġshipped": 9718,
    "Ġanointing": 25540,
    "looking": 4031,
    "_:": 17481,
    "bran": 23576,
    "Ġundergone": 18986,
    "Ġyourself": 2592,
    "rack": 18013,
    "attered": 4017,
    "extending": 22772,
    "Ġmeetings": 16535,
    "os": 525,
    "mopol": 15399,
    "Ġh": 290,
    "Ġbolted": 12249,
    "Ġdisk": 22526,
    "ougher": 18283,
    "Ġhither": 4760,
    "right": 2770,
    "Ġguise": 14435,
    "Ġjumped": 7097,
    "Ġintently": 8169,
    "Ġaddu": 22106,
    "Ġbrains": 2630,
    "sincerely": 24585,
    "Ġdiabolical": 20345,
    "utely": 8132,
    "Ġtease": 18809,
    "Ġgodly": 19082,
    "consist": 14819,
    "Ġfreighted": 16327,
    "Ġbraced": 16582,
    "Ġvari": 833,
    "Ġutil": 4674,
    "mechan": 11861,
    "Ġpressure": 13426,
    "Ġfolio": 11922,
    "Ġabridged": 26542,
    "Ġoverladen": 22364,
    "lord": 3864,
    "Ġpilgrim": 25600,
    "osque": 22266,
    "Ġreveren": 13199,
    "Ġmadly": 16487,
    "Ġeyelids": 26108,
    "Ġsumm": 3359,
    "Ġcru": 2824,
    "Ġthankful": 14742,
    "dissatisf": 26130,
    "Ġ91": 24590,
    "ease": 12462,
    "covering": 15337,
    "Ġinterpre": 1594,
    "Ġmexico": 15284,
    "Ġcanst": 8861,
    "Ġupdate": 2459,
    "Ġrely": 8825,
    "cop": 20803,
    "iel": 11496,
    "Ġheire": 18039,
    "inations": 7566,
    "Ġevermore": 18813,
    "jure": 20926,
    "Ġflurry": 18862,
    "Ġexhausting": 24709,
    "ħ": 232,
    "Ġtertiary": 15298,
    "asions": 12656,
    "Ġaverse": 11082,
    "Ġbeloved": 5572,
    "Ġadapt": 1015,
    "lamp": 9611,
    "Ġexaggerate": 25650,
    "Ġphotography": 24684,
    "Ġsteepest": 3088,
    "heads": 4093,
    "Ġhavoc": 15817,
    "Ġpenetrated": 13476,
    "Ġconnivance": 25226,
    "lynes": 15708,
    "Ġendeavoured": 4919,
    "Ġliable": 14231,
    "relics": 24019,
    "baby": 25516,
    "6": 26,
    "Ġbaronial": 23796,
    "Ġsagacious": 14974,
    "Ġeddy": 13550,
    "Ġimpetuous": 25571,
    "Ġprophecy": 25706,
    "reputable": 15520,
    "Ġcauses": 2557,
    "Ġdissimilar": 22535,
    "intervals": 10640,
    "ez": 5683,
    "Ġatone": 15808,
    "Ġcasting": 12105,
    "fortunately": 9454,
    "Ġdocument": 15021,
    "Ġavast": 9923,
    "ic": 304,
    "Ġtransformations": 3484,
    "sat": 4811,
    "endom": 15927,
    "Ġxviii": 23413,
    "Ġdiversion": 17200,
    "Ġdetails": 6566,
    "Ġsometimes": 2165,
    "Ġseparating": 16684,
    "Ġdim": 4758,
    "Ġframe": 1917,
    "laid": 10112,
    "doubt": 6782,
    "Ġmiles": 3805,
    "unsuitable": 21897,
    "Ġdesp": 3219,
    "inking": 6710,
    "actually": 14298,
    "Ġax": 7822,
    "Ġ116": 24440,
    "earliest": 20123,
    "Ġexpedition": 10636,
    "dham": 20832,
    "nowadays": 22341,
    "Ġsquid": 11882,
    "Ġbachelors": 24861,
    "Ġomit": 17817,
    "Ġtwo": 1044,
    "irene": 15918,
    "Ġlig": 21551,
    "sensible": 20055,
    "Ġsnug": 8280,
    "upon": 2720,
    "became": 10517,
    "pans": 13773,
    "oman": 2018,
    "Ġvir": 7001,
    "Ġspouting": 9442,
    "Ġvehicles": 10662,
    "Ġthw": 21518,
    "ument": 5239,
    "Ġbrain": 2089,
    "Ġrand": 1589,
    "iards": 17576,
    "Ġreeled": 13989,
    "Ġtechniques": 2869,
    "Ġgrotesque": 26331,
    "Ġgrowl": 16540,
    "Ġbrighton": 6470,
    "Ġmagnific": 16323,
    "breast": 11247,
    "trem": 17683,
    "harpooneers": 8693,
    "xi": 17712,
    "/*": 10074,
    "Ġpre": 507,
    "urable": 8926,
    "Ġmarrying": 6178,
    "Ġattentive": 9036,
    "intments": 18823,
    "Ġvig": 5460,
    "remediable": 26296,
    "circumamb": 26088,
    "of": 767,
    "reng": 4000,
    "Ġmistifying": 23722,
    "Ġvineyards": 25109,
    "Ġ15": 9327,
    "Ġchurch": 4712,
    "reement": 15514,
    "Ġseat": 4949,
    "jar": 17579,
    "Ġtrowsers": 9630,
    "rer": 3622,
    "Ġclung": 10958,
    "ugn": 9381,
    "spite": 16141,
    "Ġuncommonly": 7759,
    "iteous": 14263,
    "Ġdifferent": 1429,
    "Ġobserving": 6080,
    "Ġglared": 13019,
    "ittance": 12851,
    "Ġpenetrate": 12274,
    "outre": 18321,
    "Ġiroqu": 21627,
    "ribute": 7225,
    "ella": 12757,
    "life": 4933,
    "Ġamph": 18513,
    "Ġerrand": 11087,
    "ways": 1441,
    "ince": 4338,
    "Ġsuccor": 25663,
    "Ġriots": 23895,
    "Ġfads": 21419,
    "¬": 110,
    "Ġrenders": 13288,
    "Ġfigured": 16646,
    "Ġgratifying": 13310,
    "indispensable": 14212,
    "Ġreliance": 14388,
    "Ġmales": 17807,
    "Ġsupposition": 9820,
    "03": 20750,
    "bering": 18681,
    "69": 17477,
    "Ġvill": 3876,
    "eastern": 17535,
    "Ġajar": 21205,
    "atter": 641,
    "lod": 15382,
    "Ġgrecian": 26297,
    "standing": 5558,
    "Ġfreely": 7057,
    "inferiors": 25347,
    "Ġbench": 7237,
    "vol": 731,
    "Ġtour": 9150,
    "ancing": 1759,
    "une": 2787,
    "Ġunobserved": 18247,
    "Ġburning": 5977,
    "Ġindul": 5857,
    "gered": 9279,
    "Ġandrew": 21510,
    "Ġswain": 18881,
    "Ġaboriginal": 14191,
    "Ġreeds": 15700,
    "clair": 18935,
    "Ġsuperstitious": 13523,
    "Ġscrut": 15949,
    "Ġpatiently": 19920,
    "Ġporpoises": 13386,
    "corrid": 24484,
    "ried": 926,
    "touched": 15442,
    "reception": 15517,
    "Ġlull": 15655,
    "Ġquite": 1740,
    "shrugged": 22464,
    "Ġmississ": 18840,
    "reat": 617,
    "Ġpleaded": 16302,
    "ograph": 4798,
    "âĢĶâĢĿ": 3303,
    "Ġcapsized": 20093,
    "Ġwhole": 1660,
    "Ġalighted": 18106,
    "Ġhangs": 11609,
    "Ġwages": 13857,
    "Ġexperience": 1368,
    "Ġourselves": 5127,
    "ly": 319,
    "wra": 11544,
    "Ġlace": 13952,
    "sect": 8153,
    "Ġtoiled": 12647,
    "Ġexcurs": 23317,
    "scar": 9819,
    "currents": 23848,
    "Ġintruder": 25992,
    "Ġpacific": 5153,
    "Ġfilm": 23929,
    "Ġshop": 9255,
    "Ġexpected": 3697,
    "Ġunfl": 22020,
    "Ġalarmed": 6922,
    "Ġxiv": 23411,
    "Ġunlucky": 10053,
    "Ġraiment": 22651,
    "Ġtreacherously": 25132,
    "delightful": 12201,
    "Ġlinear": 3434,
    "arth": 4442,
    "Ġvicinity": 7314,
    "Ġperilous": 7768,
    "Ġjeopard": 9946,
    "laden": 14932,
    "Ġknife": 7308,
    "inspector": 13650,
    "Ġapproximate": 2339,
    "Ġswallowed": 7944,
    "Ġcruis": 14626,
    "pents": 11515,
    "olidity": 18135,
    "Ġprobable": 5570,
    "Ġwoll": 21296,
    "iquette": 26133,
    "Ġdomestic": 6906,
    "surgeon": 24217,
    "Ġkindliness": 23297,
    "lifeless": 24314,
    "Ġyale": 21783,
    "inities": 21188,
    "anean": 7442,
    "pitching": 24078,
    "Ġinvestigations": 17249,
    "accomplished": 17214,
    "fit": 6647,
    "intellig": 5321,
    "Ġturning": 3330,
    "Ġexpecting": 10438,
    "(": 12,
    "Ġincom": 9772,
    "swam": 24257,
    "Ġcowardice": 17033,
    "Ġdoran": 9182,
    "tolerably": 21098,
    "Ġcry": 3496,
    "Ġpleasing": 6191,
    "Åĵ": 10746,
    "ov": 15403,
    "umn": 5836,
    "Ġwhatever": 3474,
    "vult": 21116,
    "Ġreplen": 11117,
    "described": 18896,
    "Ġphilipses": 24452,
    "Ġabomin": 8189,
    "Ġcomputations": 16003,
    "Ġinfluence": 5515,
    "Ġsongs": 13424,
    "Ġplanks": 5563,
    "return": 5489,
    "smiled": 16616,
    "Ġshoal": 12020,
    "Ġcre": 887,
    "Ġexcited": 5580,
    "osures": 22265,
    "Ġtackles": 8051,
    "Ġchurches": 12833,
    "Ġhen": 3502,
    "itia": 11582,
    "Ġbefore": 812,
    "Ġramsgate": 18647,
    "Ġagent": 6278,
    "ts": 959,
    "Ġcontribut": 12864,
    "abama": 12714,
    "Ġbuilded": 24718,
    "Ġoriginate": 24123,
    "jee": 17581,
    "Ġinconvenience": 9566,
    "gin": 4931,
    "Ġeternally": 11371,
    "Ġfairy": 14629,
    "respectable": 19849,
    "Ġvirgin": 7327,
    "Ġsymphony": 26534,
    "Ġdog": 4191,
    "rep": 5525,
    "Ġhinting": 19652,
    "vity": 7815,
    ",": 16,
    "Ġmouths": 7490,
    "Ġchas": 18380,
    "Ġsale": 14157,
    "Ġboiling": 8527,
    "Ġsauce": 15894,
    "Ġthreatened": 8330,
    "Ġanecdote": 26356,
    "Ġdestitute": 14567,
    "ver": 331,
    "Ġlif": 10198,
    "promise": 12255,
    "beyond": 8886,
    "eringly": 23006,
    "eked": 16406,
    "sford": 5998,
    "Ġlanes": 19768,
    "ision": 1854,
    "accomplishment": 20226,
    "fare": 7798,
    "Ġfatig": 6757,
    "Ġminus": 18751,
    "Ġchemistry": 11462,
    "Ġwhiteness": 5919,
    "ultural": 22572,
    "track": 24335,
    "individual": 18437,
    "venison": 22632,
    "orrowed": 19291,
    "Ġsitting": 3605,
    "Ġrushes": 20511,
    "Ġerie": 20057,
    "Ġunde": 11716,
    "header": 11937,
    "despairing": 25077,
    "Ġdre": 1745,
    "Ġseeks": 14305,
    "Ġventured": 7500,
    "comprehend": 14360,
    "Ġallows": 3237,
    "Ġconveys": 16857,
    "Ġenvironment": 4174,
    "dearest": 11738,
    "lection": 3652,
    "Ġqueens": 16705,
    "Ġraising": 8913,
    "Ġdank": 21431,
    "Ġinjection": 3467,
    "ility": 624,
    "Ġsouthwards": 19636,
    "Ġfaintest": 24570,
    "circum": 16739,
    "ß": 160,
    "Ġgibberish": 25787,
    "Ġsab": 10764,
    "Ġinterrupting": 19560,
    "Ġbelly": 10372,
    "Ġbinnacle": 8119,
    "Ġstrategy": 2449,
    "Ġwatched": 6298,
    "athans": 7432,
    "card": 11477,
    "Ġhousemaid": 14467,
    "camp": 15333,
    "Ġcommend": 10337,
    "âĢĿ]": 21819,
    "Ġthereby": 7643,
    "boards": 23254,
    "Ġimmemorially": 25384,
    "Ġcoil": 11822,
    "Ġknot": 7012,
    "lever": 2933,
    "Ġsubject": 2460,
    "Ġstool": 14464,
    "Ġparsonage": 7124,
    "Ġmizzen": 20292,
    "Ġmrs": 1467,
    "ls": 1290,
    "Ġominous": 12428,
    "Ġcaresses": 26060,
    "Ġstrike": 4857,
    "Ġundeserving": 18266,
    "wling": 11547,
    "Ġgrud": 17998,
    "unbidden": 21898,
    "wrath": 23758,
    "Ġnewcomers": 26042,
    "Ġresistance": 13533,
    "short": 6567,
    "fishing": 20861,
    "greenland": 10024,
    "ited": 1750,
    "unworthy": 18164,
    "Ġfir": 17879,
    "shine": 9291,
    "grown": 10102,
    "banish": 20784,
    "Ġhypocritical": 20740,
    "Ġcivilities": 14851,
    "Ġplace": 1651,
    "riors": 18186,
    "Ġrobinson": 17466,
    "Ġgamb": 18000,
    "sun": 7140,
    "Ġcranes": 20386,
    "lemency": 21377,
    "Ġdefinition": 14408,
    "frisco": 16789,
    "oquence": 11388,
    "actions": 8910,
    "served": 5043,
    "torture": 26152,
    "Ġpushed": 5910,
    "Ġjingling": 26018,
    "Ġsleepy": 8268,
    "Ġintellig": 527,
    "Ġscorch": 20070,
    "Ġdatasets": 2387,
    "Ġsly": 9635,
    "Ġsavesoul": 26229,
    "Ġpor": 5225,
    "soft": 12514,
    "azed": 9402,
    "Ġqueequeg": 2013,
    "Ġdom": 2532,
    "Ġhadn": 9722,
    "Ġbrown": 6299,
    "Ġchatting": 24746,
    "Ġsav": 3360,
    "strip": 19833,
    "oky": 8198,
    "Ġaff": 1116,
    "Ġscruple": 25051,
    "mutually": 26137,
    "whence": 23216,
    "Ġfill": 5701,
    "Ġriverside": 25248,
    "an": 278,
    "Ġtainted": 21173,
    "Ġref": 900,
    "canallers": 22967,
    "Ġimpatiently": 8338,
    "Ġunhinged": 26218,
    "descend": 23088,
    "Ġflight": 6581,
    "Ġtend": 6121,
    "lu": 597,
    "ermaid": 14299,
    "Ġsurely": 6308,
    "Ġseething": 18204,
    "mai": 22914,
    "ĠdÃ¦mon": 7844,
    "Ġhebrew": 13991,
    "thoroughly": 26510,
    "Ġfeatures": 1433,
    "Ġcoffee": 6760,
    "Ġcelestial": 10070,
    "Ġundue": 25994,
    "poles": 16213,
    "analysis": 26174,
    "aunted": 20772,
    "Ġet": 3581,
    "vigorous": 25918,
    "iated": 5890,
    "punctual": 26357,
    "barrel": 17061,
    "Ġdamning": 19141,
    "tained": 4405,
    "Ġdiverged": 23596,
    "Ġdangerously": 23940,
    "Ġlawn": 7378,
    "itz": 6006,
    "Ġbandages": 24427,
    "Ġjago": 22303,
    "Ġuncompromised": 20606,
    "Ġfeminine": 15267,
    "Ġmassive": 9935,
    "Ġstrip": 9424,
    "Ġcommencement": 12243,
    "Ġriver": 5411,
    "Ġretort": 23073,
    "Ġconvincing": 19309,
    "Ġgriff": 22811,
    "gree": 10703,
    "wreck": 21139,
    "Ġmonths": 3456,
    "Ġconcerning": 4067,
    "Ġloth": 17968,
    "Ġescort": 23507,
    "Ġopulent": 23633,
    "gn": 8082,
    "âĢĻ-": 18169,
    "enges": 13059,
    "Ġtart": 12533,
    "Ġstick": 6026,
    "ental": 7168,
    "valley": 16217,
    "quietly": 10595,
    "clerval": 7951,
    "Ġarticles": 7109,
    "du": 604,
    "Ġfiled": 15584,
    "Ġtrod": 15029,
    "Ġappertaining": 26535,
    "occupations": 24967,
    "Ġcapsizing": 20092,
    "hence": 16627,
    "Ġgro": 4396,
    "cherries": 19759,
    "father": 3778,
    "leisure": 21374,
    "Ġoutward": 7904,
    "vast": 10738,
    "Ġclubs": 25180,
    "sweetly": 25137,
    "maker": 12497,
    "Ġforce": 5092,
    "Ġtravels": 11931,
    "shells": 26057,
    "Ġchecking": 23289,
    "Ġwrinkled": 7263,
    "Ġtapering": 8775,
    "Ġinsignificance": 20460,
    "Ġbelief": 5856,
    "Ġhigher": 1821,
    "Ġdirections": 1971,
    "Ġbosom": 6938,
    "Ġgrandeur": 8631,
    "Ġreward": 6145,
    "Ġjupiter": 17459,
    "Ġfrancis": 26064,
    "Ġaudibly": 24770,
    "Ġreluct": 14375,
    "dial": 20827,
    "Ġunsuccessful": 18255,
    "sip": 10727,
    "Ġhearts": 4972,
    "Ġungrateful": 14123,
    "Ġwalked": 3140,
    "Ġoverflowed": 20265,
    "judges": 19576,
    "Ġgather": 6535,
    "Ġannihil": 10177,
    "Ġjabez": 11770,
    "Ġrumors": 11323,
    "Ġpace": 9186,
    "lo": 682,
    "Ġmeasured": 9807,
    "Ġassented": 17341,
    "Ġremoter": 20109,
    "Ġappearances": 10453,
    "Ġpompous": 20426,
    "Ġunp": 12776,
    "Ġfluctuations": 5516,
    "Ġdreadfully": 7725,
    "oftener": 23968,
    "geese": 22371,
    "sofa": 26147,
    "Ġscal": 1561,
    "urday": 13997,
    "Ġshades": 9466,
    "Ġapothecary": 13663,
    "tenderly": 20534,
    "Ġcleaning": 23183,
    "exam": 10978,
    "Ġsombre": 18861,
    "ousand": 2425,
    "ging": 2600,
    "Ġeastward": 13394,
    "melted": 25207,
    "Ġawa": 7713,
    "ibid": 18843,
    "Ġpolitic": 23623,
    "mens": 20971,
    "iring": 1706,
    "Ġfem": 6135,
    "Ġlighten": 23261,
    "Ġshocked": 9404,
    "Ġabaft": 22278,
    "expectations": 24279,
    "difficult": 10061,
    "Ġquies": 18465,
    "Ġsullenly": 17175,
    "Ġkettle": 26234,
    "thrown": 8482,
    "Ġproportion": 7280,
    "Ġpounds": 5368,
    "Ġsubst": 4271,
    "flame": 16640,
    "Ġseverest": 14094,
    "Ġcrust": 21354,
    "bergs": 18682,
    "Ġrom": 4526,
    "Ġprematurely": 24010,
    "vered": 4831,
    "Ġscrupled": 25052,
    "jane": 4483,
    "Ġcheever": 23287,
    "Ġopen": 1556,
    "Ġfathers": 16299,
    "feather": 16046,
    "gunw": 17223,
    "Ġcolonel": 3410,
    "Ġenormous": 5609,
    "bidden": 19740,
    "title": 17290,
    "Ġcases": 3958,
    "indian": 11782,
    "Ġaids": 12233,
    "Ġphiladelphia": 26606,
    "Ġwhereupon": 14297,
    "Ġspat": 2663,
    "Ġfitting": 21411,
    "inous": 8776,
    "Ġreceive": 4705,
    "Ġawaiting": 11392,
    "Ġswallows": 18883,
    "ken": 2803,
    "Ġtransient": 18491,
    "Ġdislike": 6048,
    "moored": 22707,
    "Ġcondemn": 13448,
    "Ġabstract": 17184,
    "repent": 15516,
    "overcoat": 19053,
    "Ġmasses": 10506,
    "Ġcho": 4548,
    "Ġelated": 18634,
    "Ġices": 21157,
    "emorial": 10246,
    "vener": 21114,
    "Ġshud": 5461,
    "Ġperdition": 15996,
    "injustice": 17739,
    "Ġbern": 17860,
    "widows": 25345,
    "Ġabundantly": 17159,
    "Ġcoverage": 4285,
    "Ġinvoluntarily": 8550,
    "rior": 12747,
    "Ġcomprehended": 11296,
    "erately": 21276,
    "mell": 20966,
    "invisible": 17742,
    "ceptive": 15972,
    "Ġcrucifix": 26080,
    "ty": 1002,
    "urns": 10216,
    "Ġruefully": 17304,
    "ina": 21182,
    "Ġmadness": 6602,
    "po": 1137,
    "Ġsadness": 13291,
    "Ġroods": 22408,
    "Ġattractive": 25576,
    "Ġdifference": 1489,
    "Ġsuavely": 26525,
    "collected": 13217,
    "Ġhumbug": 18781,
    "Ġloo": 22114,
    "Ġshivering": 10268,
    "Ġpractice": 2834,
    "obscure": 23100,
    "Ġwhine": 21718,
    "Ġmexic": 14033,
    "Ġinv": 2221,
    "Ġtumbling": 13828,
    "Ġmaster": 3681,
    "Ġinquisitive": 26318,
    "brated": 12031,
    "expect": 4770,
    "Ġdenoted": 16568,
    "Ġload": 14148,
    "food": 12468,
    "mangled": 20983,
    "Ġattained": 14082,
    "Ġtaste": 5524,
    "calmed": 16207,
    "Ġbarbarous": 13480,
    "Ġaccumulates": 2891,
    "Ġlengthened": 25959,
    "cav": 17510,
    "Ġcaucus": 17383,
    "Ġwaving": 8578,
    "Ġcursory": 18859,
    "Ġprophesied": 26063,
    "ibilities": 13013,
    "Ġlord": 2968,
    "Ġtask": 1311,
    "Ġsaviour": 20715,
    "uttermost": 24943,
    "Ġderision": 16312,
    "Ġwalking": 4322,
    "erve": 12554,
    "tis": 4104,
    "key": 5462,
    "re": 266,
    "Ġproperty": 6450,
    "Ġportable": 19373,
    "Ġconclusions": 10556,
    "latter": 15386,
    "vint": 21117,
    "ivial": 15863,
    "Ġmechan": 1168,
    "ter": 359,
    "Ġlater": 6017,
    "Ġsynd": 22214,
    "mem": 10711,
    "Ġconsid": 1814,
    "Ġsharpened": 17368,
    "consumed": 25676,
    "waiter": 24587,
    "Ý": 158,
    "Ġcategor": 4138,
    "Ġbunger": 9999,
    "!_": 7328,
    "agues": 8161,
    "atoes": 17777,
    "Ġ69": 19664,
    "Ġkinds": 14508,
    "Ġyounge": 16290,
    "Ġfumbling": 21420,
    "Ġgoing": 2068,
    "Ġasleep": 6835,
    "Ġunhappy": 5640,
    "Ġreusability": 13562,
    "Ġjib": 14196,
    "Ġapartment": 6635,
    "ur": 325,
    "Ġascribed": 14858,
    "Ġcups": 16884,
    "Ġactivations": 2719,
    "Ġimpet": 11783,
    "Ġtimidity": 24688,
    "Ġgin": 13964,
    "ssed": 3737,
    "omination": 21645,
    "Ġdepressions": 25799,
    "Ġrounds": 18885,
    "Ġindelible": 25695,
    "Ġpleased": 4062,
    "Ġneed": 2608,
    "Ġglances": 10375,
    "lessly": 4557,
    "Ġcontextually": 11963,
    "honey": 20907,
    "bulwarks": 12277,
    "Ġforfeit": 21779,
    "disciple": 16780,
    "impressions": 20701,
    "Ġpervers": 11787,
    "pieces": 8758,
    "Ġplow": 21462,
    "Ġundoing": 22035,
    "Ġlearnt": 7612,
    "vict": 11543,
    "Ġdictated": 25219,
    "urred": 8450,
    "Ġnobleman": 19395,
    "Ġ81": 24457,
    "ê": 171,
    "harb": 9126,
    "Ġformations": 18750,
    "Ġvices": 14086,
    "eaten": 20347,
    "ate": 423,
    "Ġenjoying": 11236,
    "Ġfreshet": 25704,
    "fanning": 20868,
    "Ġtricks": 13488,
    "Ġpolynes": 16083,
    "Ġwebster": 20164,
    "Ġwidespread": 20678,
    "ington": 21304,
    "possibly": 10546,
    "Ġbackground": 18649,
    "Ġlaws": 8003,
    "Ġslanting": 23175,
    "âĢ": 294,
    "Ġwithhold": 18118,
    "Ġcirc": 1985,
    "ford": 2823,
    "zen": 5140,
    "direction": 17526,
    "shook": 19858,
    "Ġanew": 11432,
    "Ġinvested": 7278,
    "Ġlicensing": 20096,
    "icking": 8914,
    "Ġcreeping": 18684,
    "isbury": 21380,
    "Ġconcrete": 20640,
    "ators": 7829,
    "Ġsubjected": 23574,
    "Ġasc": 4766,
    "Ġninety": 13605,
    "Ġbacked": 12929,
    "Ġviolates": 3165,
    "numerous": 17434,
    "Ġhurts": 19113,
    "reached": 13844,
    "Ġhypothe": 4073,
    "Ġgrandfather": 19425,
    "modesty": 22864,
    "Ġconjunction": 25103,
    "ilies": 18059,
    "contrivance": 26317,
    "Ġgaped": 13970,
    "Ġfearless": 9878,
    "ager": 6547,
    "ciousness": 20819,
    "Ġdeposition": 18613,
    "ernation": 8212,
    "loun": 17590,
    "question": 5418,
    "Ġathirst": 20601,
    "Ġtinted": 13825,
    "Ġbrides": 22869,
    "chery": 24551,
    "Ġspir": 2424,
    "Ġunprotected": 22067,
    "ö": 183,
    "entirely": 7781,
    "ured": 1652,
    "Ġslipping": 13365,
    "esty": 4304,
    "Ġpeleg": 3741,
    "greatest": 10496,
    "Ġimpenit": 22392,
    "Ġhydraul": 9517,
    "Ġamendment": 26025,
    "tears": 11039,
    "Ġcoins": 11823,
    "Ġexasperate": 20101,
    "Ġcham": 4893,
    "Ġaccosted": 13676,
    "Ġgrampus": 21997,
    "ipl": 20920,
    "victim": 25531,
    "Ġthistle": 21920,
    "horn": 8086,
    "Ġunwinding": 22060,
    "unfortunate": 15781,
    "Ġseasoned": 24405,
    "Ġrucastles": 18721,
    "edding": 4367,
    "Ġfaulty": 14910,
    "Ġiron": 3239,
    "Ġfatally": 19397,
    "mark": 5282,
    "obstructed": 15230,
    "Ġvineyarder": 25607,
    "inlaid": 21193,
    "ching": 5156,
    "Ġgunw": 6213,
    "althy": 8433,
    "Ġarchy": 14352,
    "uberance": 25917,
    "Ġdes": 1251,
    "Ġmen": 1435,
    "Ġinfiltrated": 23286,
    "illa": 12798,
    "intended": 11068,
    "Ġunintelligible": 26516,
    "iamond": 14592,
    "Ġacquies": 11099,
    "Ġprognost": 15285,
    "Ġaveraging": 2415,
    "Ġrepublic": 14533,
    "formality": 22226,
    "Ġcountrymen": 23597,
    "Ġhoof": 23356,
    "awned": 19463,
    "Ġslides": 18942,
    "Ġmonotonically": 3834,
    "bies": 15316,
    "swift": 14855,
    "Ġcheat": 19022,
    "Ġsmallest": 6430,
    "Ġchicha": 15940,
    "supplementary": 20552,
    "Ġsouls": 6309,
    "axing": 18548,
    "Ġdavis": 25953,
    "emed": 3383,
    "inch": 10757,
    "handed": 7481,
    "Ġdisorder": 16055,
    "ynolds": 10039,
    "Ġcombined": 8548,
    "sent": 760,
    "Ġ101": 24409,
    "Ġobtain": 8918,
    "Ġlabels": 3290,
    "proportion": 16184,
    "Ġpeeping": 16131,
    "Ġporing": 21470,
    "Ġhappier": 10362,
    "Ġsqu": 1038,
    "Ġfast": 1716,
    "Ġcharming": 6630,
    "Ġdoublo": 6078,
    "twice": 14623,
    "Ġum": 10214,
    "be": 671,
    "Ġdiscourse": 9801,
    "Ġ97": 19777,
    "cry": 12450,
    "Ġbeque": 18083,
    "dÃ¦mon": 17529,
    "Ġchalk": 15937,
    "Ġflamingo": 15104,
    "utarch": 15666,
    "rosc": 17957,
    "Ġirish": 14536,
    "Ġbambooz": 26120,
    "step": 2452,
    "Ġeastern": 11632,
    "Ġimpetuously": 20375,
    "Ġdisputes": 25826,
    "Ġluxury": 20135,
    "Ġviolin": 16432,
    "Ġmouthful": 16577,
    "develop": 13521,
    "Ġnewton": 3534,
    "oms": 4595,
    "Ġlobes": 22119,
    "borrowed": 20794,
    "ishness": 22357,
    "puzzling": 26144,
    "Ġfrequencies": 4790,
    "alog": 8809,
    "strange": 6086,
    "prehensible": 12364,
    "Ġflower": 16236,
    "Ġvillages": 14752,
    "sli": 11525,
    "Ġconvinced": 4204,
    "mand": 3893,
    "Ġdozing": 22247,
    "Ġinverted": 12642,
    "rity": 13779,
    "Ġscan": 22283,
    "evid": 11487,
    "specul": 23946,
    "Ġaloft": 4301,
    "Ġdisenc": 22530,
    "Ġpinioned": 21486,
    "gely": 10702,
    "jected": 22717,
    "Ġprudence": 13923,
    "Ġmonoton": 3636,
    "uttural": 21592,
    "isance": 17849,
    "Ġlany": 21557,
    "Ġcaptains": 7456,
    "Ġsurmis": 23465,
    "fier": 9596,
    "strate": 12679,
    "Ġintroduce": 3210,
    "Ġtestament": 23240,
    "proves": 23397,
    "Ġdair": 17891,
    "Ġrivers": 9445,
    "Ġparagraph": 17457,
    "Ġprophet": 7680,
    "rollable": 13948,
    "Ġwrote": 5011,
    "last": 3804,
    "Ġdiscre": 2413,
    "actorily": 25577,
    "Ġmoist": 9288,
    "consequence": 9766,
    "ude": 7561,
    "Ġgaze": 6931,
    "Ġintroduced": 7690,
    "Ġtrepidation": 19216,
    "========": 2310,
    "benevolently": 25601,
    "Ġthy": 2508,
    "Ġhydraulic": 10067,
    "Ġfailed": 6673,
    "jewel": 20349,
    "Ġlanyard": 26463,
    "Ġgripping": 26188,
    "Ġpersecut": 16954,
    "Ġquestioned": 14621,
    "Ġveget": 11890,
    "gr": 2087,
    "Ġresist": 7916,
    "Ġnarwhales": 24903,
    "eling": 6682,
    "Ġsisterly": 16307,
    "reader": 23850,
    "needle": 20313,
    "rap": 21631,
    "Ġinherit": 25353,
    "Ġgladstone": 23872,
    "Ġlook": 879,
    "Ġsecond": 1883,
    "Ġeulogy": 26472,
    "Ġsolace": 16203,
    "Ġsemblance": 20736,
    "Ġacquit": 18899,
    "Ġformation": 2944,
    "Ġisles": 8461,
    "hunter": 10558,
    "Ġconceivable": 16615,
    "Ġhand": 858,
    "Ġuneasily": 24233,
    "dr": 6222,
    "fine": 10093,
    "cles": 8729,
    "ordered": 8794,
    "Ġsummons": 13236,
    "Ġshrivelled": 19706,
    "Ġimpartial": 15223,
    "Ġmeant": 3551,
    "Ġra": 807,
    "Ġaccordingly": 6621,
    "left": 6975,
    "pounds": 21027,
    "aternity": 21268,
    "Ġfing": 3759,
    "conspicuous": 26249,
    "Ġgorge": 13570,
    "Ġperiods": 13308,
    "range": 3494,
    "Ġsoliloquized": 17305,
    "Ġwallowing": 24047,
    "mccarthy": 15398,
    "Ġlongitude": 11013,
    "ainted": 3659,
    "sounded": 12271,
    "Ġstyle": 6945,
    "Ġexagger": 12724,
    "Ġbrazen": 23843,
    "Ġadduced": 26526,
    "Ġbliss": 13006,
    "contempt": 13192,
    "pervading": 18939,
    "eminent": 25107,
    "Ġconfide": 13103,
    "Ġthen": 668,
    "grate": 23415,
    "inite": 6002,
    "Ġconquest": 15752,
    "Ġmanor": 14199,
    "Ġhimself": 1350,
    "thirds": 25049,
    "drew": 7333,
    "Ġimbu": 15895,
    "Ġincensed": 18572,
    "Ġpotent": 12068,
    "ppered": 15795,
    "Ġviciously": 24404,
    "month": 6463,
    "Ġtemporarily": 11169,
    "Ġcontemplation": 11359,
    "Ġhawaiian": 25367,
    "Ġunimaginable": 15250,
    "Ġreser": 5170,
    "wouldn": 23538,
    "Ġcoff": 3508,
    "Ġexciting": 23315,
    "Ġhark": 8429,
    "ocity": 8278,
    "Ġvibrated": 25048,
    "onstr": 12551,
    "Ġreplying": 19584,
    "Ġreminded": 10002,
    "Ġsuperglue": 23459,
    "Ġonto": 14034,
    "uity": 12522,
    "Ġrobbed": 23028,
    "otics": 10226,
    "cy": 638,
    "Ġtreasure": 9561,
    "Ġfrenzy": 13626,
    "claimed": 9839,
    "Ġsaucer": 20608,
    "Ġagitation": 6864,
    "laws": 19810,
    "mind": 4628,
    "Ġglobe": 6076,
    "Ġporch": 19683,
    "enit": 17781,
    "ateur": 22075,
    "Ġserpents": 13081,
    "Ġpurest": 14942,
    "Ġslapped": 23174,
    "inhab": 10759,
    "aging": 2235,
    "usion": 3304,
    "enial": 17782,
    "Ġadditional": 7936,
    "Ġ2026": 12339,
    "as": 302,
    "Ġhumorously": 18780,
    "ure": 356,
    "Ġreappeared": 21668,
    "Ġsires": 21229,
    "Ġdro": 2772,
    "Ġampl": 22480,
    "Ġreve": 2934,
    "kles": 17586,
    "Ġnlp": 3062,
    "cer": 6644,
    ".âĢĿ": 464,
    "ol": 362,
    "Ġsub": 950,
    "sum": 2088,
    "Ġste": 1390,
    "gained": 20883,
    "Ġcreases": 22726,
    "spe": 3561,
    "Ġoverpowered": 15292,
    "Ġeach": 892,
    "whip": 22241,
    "enary": 12556,
    "Ġsumatra": 15290,
    "Ġmonkey": 8226,
    "pan": 10718,
    "elephant": 12355,
    "Ġobtru": 18673,
    "Ġgood": 1001,
    "Ġtidings": 11399,
    "fortune": 4975,
    "Ġfuel": 13907,
    "rage": 10845,
    "Ġsoundings": 13137,
    "opic": 22486,
    "Ġobliter": 14325,
    "Ġgreenness": 23769,
    "Ġinquire": 7719,
    "Ġheath": 15706,
    "Ġpallet": 21484,
    "ales": 3320,
    "Ġequilib": 4135,
    "Ġcor": 1323,
    "Ġseize": 8166,
    "Ġbitten": 21393,
    "Ġdesolate": 10016,
    "Ġshine": 12771,
    "consent": 18504,
    "Ġmatlock": 18800,
    "Ġspeedily": 7711,
    "Ġdestination": 19151,
    "Ġcomplimented": 14907,
    "inois": 17740,
    "Ġenduring": 16305,
    "Ġadaptive": 1344,
    "Ġgroves": 16742,
    "etw": 406,
    "Ġemper": 9864,
    "ais": 8071,
    "Ġcramped": 23531,
    "concerted": 16674,
    "Ġchron": 19441,
    "Ġtalks": 23373,
    "Ġfloundered": 18863,
    "Ġundivided": 24122,
    "Ġserve": 9371,
    "from": 1990,
    "Ġgrizz": 10354,
    "your": 1984,
    "agings": 18168,
    "steel": 8298,
    "Ġmarine": 23036,
    "trembling": 17145,
    "Ġfond": 4756,
    "Ġdevelop": 1698,
    "ribly": 8255,
    "Ġfelicity": 7259,
    "ount": 1111,
    "Ġdistrict": 10321,
    "elements": 25204,
    "god": 4864,
    "Ġapoplexy": 25266,
    "Ġwhirled": 14963,
    "posterity": 25489,
    "Ġsatirical": 26281,
    "Ġarid": 22191,
    "spond": 5567,
    "Ġmethinks": 10393,
    "Ġthis": 382,
    "Ġback": 809,
    "leaves": 12583,
    "Ġnations": 8814,
    "fthand": 26388,
    "reme": 2420,
    "Ġacquirement": 19257,
    "Ġjackson": 24243,
    "Ġcard": 7362,
    "ollen": 11300,
    "transp": 24512,
    "Ġcot": 13880,
    "Ġwondered": 11127,
    "Ġexacted": 23608,
    "Ġrecollected": 8311,
    "Ġloadstone": 25817,
    "Ġtreats": 19347,
    "Ġbestowed": 6594,
    "Ġlarboard": 11011,
    "Ġinsurgents": 26602,
    "Ġhails": 21954,
    "pike": 11517,
    "warrior": 24797,
    "Ġfavourites": 16647,
    "neat": 22447,
    "Ġcalifornia": 20533,
    "Ġcons": 954,
    "Ġconfounded": 16390,
    "^{": 15308,
    "Ġconference": 15751,
    "Ġfrosted": 19806,
    "Ġdistricts": 20266,
    "water": 4869,
    "gust": 6361,
    "Ġpunctil": 20117,
    "Ġpattern": 1289,
    "Ġpondered": 15170,
    "oon": 6365,
    "Ġcourage": 4635,
    "buoy": 7760,
    "Ġwheels": 10914,
    "vengeance": 13361,
    "escript": 18472,
    "Ġarrested": 9563,
    "circ": 4388,
    "nal": 1903,
    "ees": 13714,
    "Ġeager": 3571,
    "Ġcounsel": 13619,
    "harpooned": 24288,
    "beheaded": 22496,
    "entric": 11622,
    "penetrate": 20327,
    "Ġruns": 8599,
    "desol": 13222,
    "Ġancest": 12619,
    "Ġderived": 8239,
    "É": 138,
    "Ġarrangements": 16518,
    "sleep": 6511,
    "Ġangry": 5498,
    "Ġbreathing": 9448,
    "minute": 11276,
    "tottenham": 25419,
    "Ġremarks": 7472,
    "Ġkeel": 6444,
    "Ġjudiciously": 23881,
    "Ġdaggoo": 5441,
    "etence": 21580,
    "pron": 9009,
    "Ġconstables": 19072,
    "falgar": 26131,
    "Ġhopes": 4232,
    "Ġrat": 4352,
    "Ġtravel": 5953,
    "azing": 7704,
    "Ġsexes": 25172,
    "Ġwalrus": 14976,
    "Ġbeggar": 9352,
    "uth": 3019,
    "namely": 23670,
    "Ġmors": 17803,
    "infant": 19830,
    "osc": 18388,
    "Ġmates": 4873,
    "topp": 22569,
    "Ġfowler": 16939,
    "craft": 12251,
    "Ġfrankly": 16747,
    "rec": 6004,
    "ensed": 10997,
    "Ġshr": 4224,
    "Ġsparkled": 13466,
    "Ġhumorousness": 25378,
    "marrying": 19550,
    "rigged": 17063,
    "Ġeating": 8136,
    "science": 11913,
    "tiness": 21074,
    "Ġelephants": 9867,
    "coiled": 16488,
    "Ġembarks": 22968,
    "Ġ84": 19712,
    "pious": 17635,
    "Ġconfident": 11140,
    "cod": 12448,
    "furthest": 19844,
    "Ġsway": 7570,
    "Ġmarchant": 14789,
    "seat": 18128,
    "Ġchuck": 8503,
    "concent": 19483,
    "Ġpregn": 22236,
    "Ġtut": 8774,
    "Ġoar": 6237,
    "iag": 20918,
    "Ġmeans": 699,
    "breeding": 16677,
    "friend": 3862,
    "Ġindestructible": 26574,
    "Ġbeaver": 18088,
    "Ġfoam": 6890,
    "nervous": 16278,
    "Ġejaculation": 20257,
    "ascar": 8436,
    "Ġhim": 476,
    "Ġtestimony": 14482,
    "altern": 17944,
    "agree": 14070,
    "Ġadvertised": 17250,
    "utting": 17987,
    "roc": 9677,
    "Ġmouthfuls": 20648,
    "fordshire": 4678,
    "Ġarea": 14189,
    "Ġspermacetti": 19051,
    "Ġexistence": 4708,
    "Ġragged": 11850,
    "'(": 2980,
    "Ġneighb": 14077,
    "social": 11025,
    "Ġninetieth": 25358,
    "Ġwin": 9644,
    "Ġinj": 4761,
    "Ġreproach": 9559,
    "Ġcorrected": 10450,
    "Ġcentre": 5123,
    "Ġhinted": 6012,
    "arch": 1122,
    "Ġsquires": 16187,
    "general": 7488,
    "whalers": 17266,
    "fooled": 24419,
    "Ġsturgeon": 20595,
    "Ġsafe": 5103,
    "imately": 12693,
    "watery": 19829,
    "Ġsuppressed": 11915,
    "ade": 880,
    "Ġaffectation": 14444,
    "earnestly": 17316,
    "Ġjealousy": 13580,
    "Ġepid": 18007,
    "Ġdiffusion": 23784,
    "opard": 9295,
    "Ġpoor": 1708,
    "cu": 10086,
    "Ġimplicit": 19961,
    "Ġcyp": 21348,
    "Ġlasted": 11055,
    "lungs": 26136,
    "Ġaccumulated": 11935,
    "Ġdivin": 13278,
    "successful": 11360,
    "Ġ112": 24437,
    "Ġcouple": 5423,
    "ctions": 952,
    "reading": 12084,
    "Ġworn": 6445,
    "Ġask": 1492,
    "Ġreasoner": 14442,
    "Ġmislead": 22763,
    "Ġmice": 13862,
    "Ġdepends": 1112,
    "Ġaside": 5234,
    "common": 4127,
    "Ġwhel": 15870,
    "Ġpermitted": 9281,
    "ended": 1834,
    "thinness": 25811,
    "mbl": 5947,
    "Ġvisits": 8221,
    "Ġannounce": 13343,
    "Ġfrankness": 16748,
    "Ġthrusts": 24350,
    "older": 15760,
    "Ġchuckled": 10650,
    "Ġstudded": 18961,
    "Ġdefines": 1742,
    "Ġdragged": 6888,
    "ulpt": 10887,
    "Ġdecidedly": 9512,
    "rested": 13079,
    "Ġexplanation": 6693,
    "Ġsought": 5010,
    "el": 306,
    "Ġceasing": 23759,
    "rubbed": 22184,
    "Ġseats": 14092,
    "riages": 10245,
    "Ġthough": 990,
    "attacked": 23124,
    "insisted": 23070,
    "Ġagreeable": 4553,
    "perquis": 22190,
    "Ġcold": 3033,
    "Ġstoutly": 16926,
    "Ġlabour": 7273,
    "odd": 21815,
    "linked": 17595,
    "Ġengrossed": 13001,
    "Ġoftentimes": 20158,
    "Ġconsternation": 9862,
    "size": 15428,
    "Ġmasters": 11578,
    "addressed": 13389,
    "distinguished": 10529,
    "Ġinquiring": 9002,
    "Ġanimate": 23426,
    "star": 12677,
    "Ġsinks": 19552,
    "Ġvariance": 1166,
    "Ġpedd": 17912,
    "Ġconception": 10316,
    "Ġsidel": 9638,
    "Ġlifeless": 8951,
    "gd": 3125,
    "Ġv": 398,
    "Ġbreathlessly": 24283,
    "apologizing": 26546,
    "oce": 10716,
    "rit": 21038,
    "Ġtuck": 10143,
    "partiality": 13164,
    "requiem": 24857,
    "yield": 13812,
    "Ġinstantaneously": 23662,
    "fortunate": 4793,
    "iday": 8834,
    "cracy": 24691,
    "Ġensigns": 23692,
    "Ġmoby": 3665,
    "Ġhack": 12761,
    "Ġinquis": 19305,
    "do": 1995,
    "bree": 15318,
    "cen": 17505,
    "bear": 10318,
    "Ġsleeping": 6320,
    "Ġmail": 17802,
    "Ġheaved": 9386,
    "Ġworms": 25217,
    "Ġscrutiny": 26016,
    "lier": 20951,
    "Ġrucastle": 5176,
    "thodox": 21992,
    "apothecary": 26547,
    "turtle": 12216,
    "Ġburying": 19254,
    "ne": 645,
    "zz": 4291,
    "opatra": 22487,
    "Ġadoration": 18291,
    "Ġmessage": 13526,
    "original": 9088,
    "Ġlurch": 21558,
    "net": 1196,
    "Ġmemories": 14543,
    "sacrifice": 13496,
    "Ġsupervised": 3186,
    "hat": 6955,
    "Ġsple": 21218,
    "Ġcheetah": 14505,
    "Ġjavel": 17085,
    "Ġblacksmiths": 19875,
    "interrupt": 8619,
    "Ġsublime": 8066,
    "springs": 24912,
    "âĢĶâĢĻâĢĿ": 20067,
    "sky": 12515,
    "Ġcolonies": 14378,
    "gloom": 17142,
    "Ġsummers": 23876,
    "Ġdefiance": 11070,
    "Ġcoach": 6866,
    "Ġmultipl": 2793,
    "ibule": 13012,
    "Ġwedding": 4817,
    "Ġmannish": 26239,
    "Ġhung": 4562,
    "21": 10075,
    "Ġwonderful": 4565,
    "alo": 7587,
    "Ġwaylaid": 22876,
    "exceedingly": 9569,
    "cus": 3978,
    "hetically": 21211,
    "Ġtranspired": 16786,
    "Ġperfume": 25666,
    "mael": 6723,
    "Ġcomment": 9235,
    "Ġsect": 17753,
    "Ġshifting": 12773,
    "er": 269,
    "heartily": 24218,
    "ffic": 22155,
    "Ġflaw": 23013,
    "uries": 6148,
    "Ġunless": 4089,
    "Ġgift": 10842,
    "Ġfrank": 4419,
    "Ġfulfilled": 11364,
    "oves": 15406,
    "Ġprincipal": 6496,
    "Ġapprehending": 26092,
    "Ġfancies": 10426,
    "Ġinclude": 1876,
    "hereabouts": 23611,
    "Ġprevented": 5942,
    "Ġrhyme": 21982,
    "verbally": 25361,
    "Ġitaly": 10869,
    "niest": 19011,
    "Ġgradu": 15836,
    "cription": 20820,
    "Ġhelpless": 8302,
    "Ġfantastic": 10062,
    "Ġcommenced": 8533,
    "Ġmoney": 3420,
    "wretch": 17710,
    "cried": 8728,
    "placidity": 25989,
    "Ġdishes": 16054,
    "guard": 12133,
    "Ġrealise": 16339,
    "Ġlone": 11616,
    "Ġmechanis": 1198,
    "eld": 963,
    "wondrous": 12342,
    "Ġtex": 15475,
    "bing": 7791,
    "Ġfuriously": 9805,
    "Ġdisappointment": 6628,
    "Ġchristians": 13313,
    "continuance": 19721,
    "initely": 7567,
    "Ġcouch": 12576,
    "Ġlabelled": 23333,
    "patched": 17645,
    "way": 764,
    "lighter": 20961,
    "Ġmeditating": 20046,
    "past": 8090,
    "blister": 24129,
    "Ġlads": 8601,
    "meet": 11860,
    "Ġmarvel": 23038,
    "Ġvacancies": 24345,
    "Ġcompanionship": 14923,
    "Ġinsomuch": 23686,
    "large": 6627,
    "illating": 22111,
    "Ġchorus": 10948,
    "Ġforehead": 5262,
    "visible": 10536,
    "Ġtornado": 24622,
    "Ġpaid": 5015,
    "Ġrepairing": 25590,
    "Ġaccidental": 16850,
    "Ġouthouse": 22318,
    "Ġgarb": 21606,
    "Ġclapham": 17268,
    "Ġalgorithm": 774,
    "Ġversion": 10632,
    "enance": 3374,
    "iary": 15374,
    "Ġshag": 9254,
    "cup": 10694,
    "satisfaction": 9995,
    "reserve": 17767,
    "insurance": 18890,
    "Ġincrease": 9372,
    "inguished": 6599,
    "commission": 22808,
    "vitality": 20482,
    "mrs": 3747,
    "onness": 21257,
    "Ġomniscient": 20089,
    "Ġorthodox": 22099,
    "Ġsubordinate": 18723,
    ".*": 7330,
    "Ġmyself": 1455,
    "ib": 1236,
    "Ġbenjamin": 26569,
    "Ġmysteriously": 24602,
    "perishing": 22186,
    "itic": 11581,
    "urbed": 15712,
    "Ġunlim": 18251,
    "Ġrepeat": 8000,
    "affected": 10478,
    "Ġinstantaneous": 14613,
    "Ġleeward": 6211,
    "Ġadmeasurements": 26227,
    "Ġside": 1388,
    "landlord": 9843,
    "Ġsubord": 22791,
    "ersampling": 18217,
    "Ġslighter": 18943,
    "Ġruffled": 25837,
    "glow": 20876,
    "Ġparametric": 2393,
    "Ġexh": 5232,
    "Ġantiquity": 15234,
    "Ġwidth": 16774,
    "Ġjunior": 15103,
    "power": 7137,
    "Ġgreyish": 24211,
    "dripping": 16907,
    "Ġshow": 3404,
    "Ġafraid": 3531,
    "Ġbarbarously": 24816,
    "Ġgods": 6454,
    "Ġoccupation": 9934,
    "Ġchapters": 10475,
    "Ġauthors": 10418,
    "quod": 2163,
    "Ġvictor": 5125,
    "belonged": 25598,
    "time": 3147,
    "fingers": 17373,
    "Ġacquiesce": 20332,
    "Ġremain": 1875,
    "Ġgerm": 13967,
    "Ġwavering": 23282,
    "Ġseveral": 2671,
    "Ġsuperficial": 23458,
    "Ġdamps": 23476,
    "hearted": 6970,
    "Ġmuch": 923,
    "Ġdecaying": 2246,
    "worn": 13809,
    "Ġshoulder": 5849,
    "Ġfiercely": 12957,
    "wheel": 22873,
    "Ġknitting": 24221,
    "Ġdamp": 8264,
    "hammock": 16357,
    "Ġpist": 12620,
    "Ġsunda": 13547,
    "Ġaccompan": 5513,
    "duct": 3507,
    "fun": 4011,
    "ool": 17620,
    "Ġopinions": 9418,
    "thern": 4953,
    "Ġneat": 6999,
    "detective": 24383,
    "Ġprivileged": 20116,
    "Ġuntil": 2666,
    "Ġbathed": 17867,
    "Ġfret": 10808,
    "Ġparm": 15881,
    "Ġworshipped": 25692,
    "fabulous": 20477,
    "Ġattempt": 3486,
    "directly": 13712,
    "Ġvenerable": 9097,
    "Ġmould": 6519,
    "Ġlazy": 17051,
    "inition": 11559,
    "otes": 15748,
    "conclude": 24070,
    "departed": 24793,
    "pocket": 9814,
    "dy": 4074,
    "Ġyielding": 12191,
    "Ġhissed": 15793,
    "Ġcod": 8413,
    "untering": 15780,
    "Ġvariously": 18654,
    "Ġparr": 22123,
    "Ġfew": 1213,
    "pour": 17632,
    "Ġoutput": 929,
    "Ġclearer": 16316,
    "clergyman": 20731,
    "Ġcoral": 11926,
    "oft": 3591,
    "ouch": 2781,
    "affairs": 14658,
    "trunk": 23951,
    "suspended": 15181,
    "unct": 18157,
    "Ġeel": 18004,
    "rom": 420,
    "Ġdict": 9178,
    "Ġbarrow": 12074,
    "Ġfaced": 10810,
    "ifiable": 18166,
    "Ġgratify": 19506,
    "Ġunwilling": 7885,
    "ities": 1827,
    "Ġheart": 1598,
    "oke": 1860,
    "Ġintervening": 17270,
    "unmistakable": 21899,
    "Ġplaint": 10328,
    "Ġfulfilment": 20190,
    "Ġtusks": 17256,
    "ailed": 3251,
    "relative": 24017,
    "depend": 9115,
    "Ġpaddles": 15151,
    "Ġstarlight": 24627,
    "Ġboast": 7035,
    "Ġrestrained": 16379,
    "Ġenticements": 26034,
    "prolong": 23398,
    "Ġslew": 23386,
    "Ġdiadem": 24740,
    "Ġstur": 15721,
    "Ġferrule": 24500,
    "Ġspin": 7629,
    "Ġresult": 4460,
    "Ġmelted": 19624,
    "wat": 6232,
    "settled": 10509,
    "caterpillar": 26385,
    "Ġrumbling": 18212,
    "is": 280,
    "Ġplump": 14285,
    "Ġlot": 6679,
    "Ġportions": 19372,
    "therly": 18347,
    "Ġsplit": 7993,
    "Ġsherry": 19454,
    "ivil": 6411,
    "eon": 8733,
    "Ġagreeably": 24955,
    "Ġtoller": 9094,
    "oniously": 21260,
    "Ġsar": 21216,
    "Ġcask": 5527,
    "sixteen": 24854,
    "Ġisinglass": 21806,
    "Ġbring": 3327,
    "Ġarthur": 7195,
    "uber": 15448,
    "secure": 12240,
    "tarpaul": 21100,
    "ishments": 9278,
    "Ġreaders": 18916,
    "Ġdesk": 11911,
    "Ġmention": 2987,
    "Ġcash": 9655,
    "urried": 21707,
    "Ġparent": 14647,
    "Ġcontinental": 19708,
    "Ġisle": 8837,
    "telescope": 26564,
    "Ġexhale": 24402,
    "Ġott": 13869,
    "Ġstraightened": 12113,
    "Ġsupposed": 4559,
    "Ġlip": 6533,
    "000": 2556,
    "Ġ[_": 15464,
    "Ġmamma": 10051,
    "dued": 7909,
    "ł": 259,
    "irium": 8162,
    "crippled": 26386,
    "flying": 13724,
    "Ġvaried": 11852,
    "Ġgrammars": 11404,
    "Ġflogged": 23629,
    "contact": 23730,
    "Ġflung": 8565,
    "neville": 22450,
    "explaining": 23147,
    "exasper": 22431,
    "Ġforts": 21776,
    "Ġsur": 2182,
    "Ġarch": 948,
    "Ġcorpse": 6640,
    "deepest": 22822,
    "Ġupon": 720,
    "Ġfair": 2839,
    "Ġcoils": 9306,
    "Ġsupreme": 13611,
    "ailing": 7022,
    "Ġwearily": 18180,
    "Ġmischie": 22766,
    "whalemen": 10433,
    "Ġrabb": 4162,
    "Ġgor": 9209,
    "Ġglu": 15672,
    "Ġstupid": 7603,
    "brace": 16944,
    "Ġdrop": 4343,
    "inform": 10146,
    "Ġbehavioral": 11398,
    "Ġaft": 5737,
    "confirmation": 26090,
    "Ġalthough": 4149,
    "Ġbrave": 6330,
    "Å": 134,
    "Ġpia": 21467,
    "Ġlose": 5028,
    "Ġbapt": 13899,
    "Ġrud": 8479,
    "Ġbended": 21388,
    "Ġother": 759,
    "ocation": 14628,
    "Ġmod": 493,
    "Ġresulting": 24201,
    "pot": 10120,
    "count": 4211,
    "kn": 5791,
    "Ġwires": 21298,
    "utch": 21589,
    "Ġsold": 6003,
    "Ġprocuring": 16872,
    "impotence": 23763,
    "ue": 1180,
    "devils": 20036,
    "Ġprev": 6265,
    "Ġlashed": 9201,
    "dream": 8731,
    "Ġnavy": 14919,
    "Ġbordering": 17231,
    "elfth": 22373,
    "uccas": 21109,
    "Ġdomain": 3169,
    "ential": 828,
    "Ġvictory": 16656,
    "Ġexplain": 545,
    "Ġscenari": 22291,
    "unks": 15779,
    "Ġprefers": 20517,
    "prodig": 16430,
    "Ð": 145,
    "Ġghastly": 10063,
    "Ġfun": 523,
    "sence": 3310,
    "aven": 8209,
    "Ġinterest": 2248,
    "Ġgrease": 26191,
    "Ġstaggering": 20276,
    "Ġcretan": 22727,
    "paralleled": 14507,
    "adam": 15734,
    "Ġtiar": 21170,
    "grave": 16098,
    "Ġdoubting": 13104,
    "Ġcling": 11775,
    "Ġprying": 15613,
    "rees": 5436,
    "running": 6797,
    "pening": 2833,
    "accents": 19212,
    "uns": 21874,
    "Ġxvi": 19106,
    "Ġresidual": 1675,
    "ouses": 5163,
    "shore": 10308,
    "Ġequator": 7460,
    "Ġwhittingham": 26199,
    "Ġimputable": 22177,
    "Ġintimate": 6550,
    "Ġdiscerning": 25005,
    "Ġgenerative": 5644,
    "devilish": 17083,
    "eps": 12795,
    "Ġmanage": 7640,
    "begin": 8887,
    "persons": 24177,
    "Ġspark": 6690,
    "cheeked": 19342,
    "Ġpir": 6817,
    "augh": 1783,
    "iop": 20921,
    "Ġquestioning": 10466,
    "richard": 17289,
    "Ġ>": 21154,
    "Ġembra": 6579,
    "Ġblending": 14404,
    "Ġfootmen": 23800,
    "heavenly": 20048,
    "Ġcolleg": 22859,
    "wed": 5796,
    "thirst": 15829,
    "Ġpreserved": 9265,
    "forgotten": 12420,
    "fa": 7335,
    "par": 1784,
    "harpoon": 9494,
    "Ġforthwith": 16620,
    "Ġdesolated": 24809,
    "ens": 701,
    "love": 9297,
    "Ġleaves": 5021,
    "Ġbefell": 14013,
    "church": 8140,
    "Ġdesmarest": 22979,
    "Ġindifference": 6726,
    "Ġknocking": 10562,
    "Ġundaunted": 24121,
    "diss": 17525,
    "gigantic": 15363,
    "Ġfidelity": 15245,
    "Ġpleasantly": 14522,
    "Ġcompress": 21853,
    "narrowly": 20350,
    "Ġdat": 499,
    "Ġseeth": 21964,
    "swe": 5996,
    "Ġstrangest": 14799,
    "Ġhoars": 19079,
    "Ġmeagre": 21814,
    "Ġminima": 3464,
    "stooped": 23825,
    "det": 5207,
    "rifled": 21050,
    "Ġtra": 1386,
    "ipped": 5790,
    "Ġsufficient": 2003,
    "Ġdreaminess": 23943,
    "Ġtens": 17725,
    "jep": 20928,
    "Ġscarcity": 23830,
    "Ġenjoyments": 24022,
    "Ġplanting": 16089,
    "Ġsallow": 12541,
    "Ġgloomy": 7503,
    "Ġexecute": 7504,
    "succeed": 10331,
    "Ġmodesty": 12822,
    "Ġtrifles": 16953,
    "Ġexercise": 8359,
    "Ġmerc": 9429,
    "abash": 18110,
    "Ġ0": 1904,
    "bonnet": 25743,
    "palms": 25263,
    "interval": 7991,
    "Ġshaster": 22002,
    "Ġexpl": 486,
    "Ġbrawn": 10484,
    "strikes": 24671,
    "countless": 24153,
    "Ġcompression": 18148,
    "Ġthroughout": 8880,
    "Ġguernsey": 9354,
    "Ġsatir": 18794,
    "ana": 15563,
    "Ġwoodlands": 23522,
    "pretending": 17042,
    "Ġclump": 15969,
    "Ġnook": 15932,
    "Ġvindict": 13609,
    "Ġjustly": 11908,
    "Ġsunken": 14495,
    "itar": 15551,
    "rigible": 24932,
    "Ġeye": 2279,
    "Ġ500": 24324,
    "Ġoffices": 14343,
    "Ġmonomania": 17086,
    "Ġbount": 15572,
    "Ġobscure": 9557,
    "istle": 15874,
    "Ġtickled": 20060,
    "sweeping": 24619,
    "morland": 24156,
    "opol": 12877,
    "Ġabased": 22272,
    "Ġgoring": 21607,
    "Ġfit": 3684,
    "Ġunfathom": 14792,
    "Ġdiversity": 25285,
    "daggoo": 13710,
    "dled": 9114,
    "ĵ": 246,
    "Ġgag": 21596,
    "Ġcooper": 16079,
    "problem": 25245,
    "remarks": 23191,
    "Ġmou": 13858,
    "Ġsloop": 25931,
    "provided": 13641,
    "Ġcauldron": 25442,
    "Ġsteel": 3888,
    "ui": 9147,
    "Ġgracious": 8851,
    "Ġdoubtful": 19143,
    "Ġindependently": 4244,
    "record": 16923,
    "Ġmanifested": 17160,
    "Ġlivelong": 25512,
    "pigs": 17143,
    "Ġloops": 8856,
    "Ġcircling": 19094,
    "prairies": 20569,
    "arrow": 4179,
    "Ġwhich": 502,
    "Ġrecumbent": 22750,
    "niece": 20997,
    "Ġcivilised": 24247,
    "Ġshock": 6082,
    "Ġskewer": 19623,
    "Ġlavater": 20499,
    "visual": 24225,
    "quently": 9705,
    "Ġkindred": 16384,
    "aul": 6353,
    "Ġimmedi": 2905,
    "Ġvintage": 26211,
    "Ġshipping": 14107,
    "Ġnortheast": 23205,
    "Ġpleasant": 4168,
    "Ġtenants": 23550,
    "Ġhat": 2773,
    "Ġremained": 3141,
    "prehens": 9292,
    "aration": 12612,
    "terrors": 25044,
    "blood": 7779,
    "world": 5058,
    "Ġdisabled": 18562,
    "inkle": 22617,
    "Ġadmon": 15872,
    "Ġtamer": 24979,
    "Ġromans": 16761,
    "Ġ179": 19757,
    "Ġirrevoc": 15041,
    "Ġblades": 11899,
    "ortal": 6266,
    "deduction": 23674,
    "Ã¦st": 24178,
    "safe": 10057,
    "deprived": 19900,
    "Ġjumping": 13346,
    "Ġlink": 8130,
    "adel": 15733,
    "Ġtemper": 956,
    "Ġtum": 5692,
    "bab": 11470,
    "Ġcomprehensiveness": 25075,
    "Ġlanguor": 12853,
    "Ġcalling": 5662,
    "aches": 6571,
    "inav": 15487,
    "eryton": 4092,
    "allied": 7409,
    "Ġkills": 15910,
    "ĠĠĠ": 2115,
    "Ġpatched": 16367,
    "Ġben": 1107,
    "Ġrats": 21977,
    "pudding": 17649,
    "glory": 23855,
    "Ġunmo": 12777,
    "mightily": 24104,
    "ences": 1263,
    "Ġgeometric": 3222,
    "contrary": 23731,
    "Ġclerical": 25569,
    "Ġfall": 2988,
    "ere": 6789,
    "Ġcolouring": 16753,
    "Ġcolumn": 9331,
    "boxes": 16890,
    "Ġleaving": 3903,
    "Ġlapl": 19780,
    "Ġmaggie": 26293,
    "Ġbul": 3297,
    "Ġtempered": 12928,
    "Ġunintermitted": 26221,
    "Ġleaping": 8341,
    "Ġeternal": 5976,
    "Ġobedience": 11415,
    "Ġintervene": 25481,
    "Ġengaging": 9339,
    "certainly": 5340,
    "isting": 5551,
    "Ġmouldings": 24736,
    "wants": 21133,
    "Ġplenty": 6709,
    "Ġmagnificence": 20635,
    "consolation": 15156,
    "receive": 12547,
    "Ġproced": 2577,
    "cott": 8074,
    "izings": 14054,
    "dimens": 2315,
    "Ġcraft": 4375,
    "Ġdistinct": 4611,
    "Ġflog": 23627,
    "Ġpaunch": 23751,
    "st": 316,
    "Ġvertebra": 20184,
    "Ġtoes": 10831,
    "Ġaffirm": 11891,
    "malicious": 19904,
    "Ġtroubled": 6617,
    "rie": 2788,
    "fre": 5425,
    "emberley": 4169,
    "bott": 9109,
    "bless": 22316,
    "verize": 21732,
    "agos": 21908,
    "âĢľâĢĺ": 1485,
    "shelf": 20384,
    "Ġchips": 14184,
    "oard": 4810,
    "Ġcured": 21350,
    "Ġstrainings": 24628,
    "relapse": 24020,
    "sort": 6798,
    "ism": 4875,
    "Ġmockery": 12112,
    "Ġrefill": 18694,
    "Ġnicely": 8712,
    "Ġreclining": 26035,
    "Ġcorner": 4369,
    "Ġcabal": 23646,
    "Ġanswered": 2854,
    "Ġfinished": 5044,
    "conjecture": 15126,
    "Ġgales": 12670,
    "Ġdeferred": 18828,
    "Ġsounds": 5190,
    "Ġtravellers": 11310,
    "uge": 4015,
    "Ġcalmed": 16269,
    "Ġreserves": 19673,
    "Ġbressed": 21390,
    "Ġcruc": 16537,
    "Ġstern": 4220,
    "Ġcoronet": 6345,
    "Ġtheoretically": 3567,
    "Ġsurtout": 23467,
    "Ġarcher": 22194,
    "Ġhasten": 10480,
    "constant": 11326,
    "Ġundiscernible": 22068,
    "Ġperem": 12937,
    "Ġblacks": 23391,
    "Ġdiscernible": 15073,
    "Ġbedrooms": 19973,
    "Ġbreed": 19075,
    "Ġgenealogies": 25962,
    "Ġbrush": 17866,
    "Ġpost": 4270,
    "Ġencounter": 6629,
    "pers": 4335,
    "Ġsacrificial": 24872,
    "Ġfooted": 23799,
    "Ġevenings": 18755,
    "pal": 9619,
    "Ġcame": 1301,
    "accident": 11183,
    "Ġafric": 8909,
    "gings": 7548,
    "reported": 24493,
    "penetrating": 25491,
    "Ġgrowth": 14631,
    "Ġhereafter": 9333,
    "derbyshire": 18322,
    "Ġdutch": 6328,
    "Ġcontracting": 16015,
    "Ġres": 696,
    "thouse": 21986,
    "Ġfascinated": 25636,
    "Ġenlightened": 12751,
    "Ġmurmuring": 23581,
    "Ġinitialized": 3946,
    "Ġbrute": 8930,
    "rmsprop": 4523,
    "Ġavowal": 19418,
    "Ġcanall": 10930,
    "sar": 12509,
    "ation": 320,
    "murdered": 12207,
    "Ġappearance": 3700,
    "n": 82,
    "omed": 13978,
    "Ġheadache": 22902,
    "Ġvaliant": 9803,
    "gled": 10701,
    "Ġsickening": 19607,
    "Ġacquisition": 18901,
    "Ġsable": 15503,
    "Ġendure": 5956,
    "mming": 1170,
    "itect": 993,
    "Ġancestry": 25642,
    "separated": 20162,
    "Ġheld": 3586,
    "im": 327,
    "Ġimmovable": 15896,
    "Ġtwinkle": 12327,
    "Ġsource": 6805,
    "abiding": 21797,
    "il": 329,
    "ruined": 18338,
    "Ġsky": 3966,
    "Ġdespatched": 23833,
    "Ġamazing": 9980,
    "iting": 2156,
    "unavoidable": 17393,
    "pleasures": 24050,
    "://": 11467,
    "Ġtorrents": 20059,
    "Ġtrip": 16790,
    "Ġbelow": 4060,
    "peare": 18913,
    "Ġjeer": 24125,
    "Ġdra": 1596,
    "Ġvalu": 5039,
    "han": 12477,
    "Ġsweetest": 13251,
    "Ġdeliciousness": 24128,
    "Ġfireplace": 13149,
    "Ġmanagement": 8193,
    "Ġentrapped": 26264,
    "brill": 16493,
    "quee": 4129,
    "Ġgenerates": 3664,
    "Ġslippers": 19618,
    "Ġconve": 5455,
    "Ġduc": 4698,
    "Ġrespect": 1666,
    "Ġmillions": 11356,
    "Ġtasselled": 25922,
    "Ġacknowledged": 7533,
    "cords": 25139,
    "ariously": 18533,
    "Ġsmiling": 5474,
    "Ġsucked": 14139,
    "Ġrubbed": 12960,
    "Ġbitterest": 12406,
    "Ġhistory": 4005,
    "rinted": 21046,
    "Ġmassac": 14740,
    "Ġdesperation": 19821,
    "doublo": 24661,
    "roded": 17958,
    "Ġgrated": 22809,
    "Ġmurky": 19203,
    "hooked": 23718,
    "reference": 13843,
    "Ġafore": 10760,
    "Ġgordon": 26469,
    "Ġmedd": 15543,
    "Ġdeceitfulness": 25734,
    "Ġrobe": 18459,
    "Ġinexperience": 26100,
    "Ġadvisable": 11444,
    "Ġalarming": 14785,
    "Ġpun": 4589,
    "conceivable": 17133,
    "Ġimmediately": 3369,
    "Ġcontempl": 6702,
    "odes": 18122,
    "Ġscaramouch": 23831,
    "pus": 3417,
    "Ġforebodings": 17307,
    "pop": 17633,
    "Ġmagg": 18907,
    "Ġhanover": 20589,
    "Ġnourishment": 15196,
    "Ġbouton": 17870,
    "prises": 23817,
    "freely": 16856,
    "aset": 10834,
    "Ġresentment": 7529,
    "Ġterrific": 6755,
    "sadly": 25527,
    "Ġoccupant": 16654,
    "Ġwilled": 21294,
    "Ġanatomical": 15080,
    "Ġcrossed": 6069,
    "Ġparade": 18302,
    "Ġfields": 2142,
    "ender": 9163,
    "Ġsnaky": 23744,
    "empty": 23639,
    "ank": 1362,
    "thanking": 24326,
    "Ġencamp": 22804,
    "Ġpaces": 13922,
    "Ġachieved": 13170,
    "ilent": 21723,
    "immed": 9220,
    "eer": 15351,
    "andish": 18156,
    "Ġxv": 23410,
    "agation": 1224,
    "Ġqueerest": 16418,
    "pair": 21014,
    "quitted": 21861,
    "Ġpatagonian": 20536,
    "Ġdefault": 3039,
    "conditional": 9081,
    "required": 17031,
    "Ġhorses": 6385,
    "give": 4690,
    "Ġconfed": 13102,
    "univers": 15776,
    "Ġliking": 23593,
    "dles": 11483,
    "Ġfolds": 12211,
    "Ġheartless": 13077,
    "Ġthree": 1366,
    "Ã¦": 4336,
    "Ġshown": 5159,
    "iscre": 17852,
    "Ġrecurrent": 1805,
    "Ġmbpp": 21325,
    "Ġknob": 24407,
    "Ġjoints": 12039,
    "Ġones": 3021,
    "Ġgest": 8134,
    "Ġproximity": 3223,
    "contained": 22474,
    "Ġtraveller": 8049,
    "arial": 5532,
    "ineff": 21984,
    "Ġcalcul": 3637,
    "rossing": 18648,
    "Ġintricacies": 15142,
    "Ġhauling": 14090,
    "chief": 4646,
    "Ġ57": 24321,
    "upper": 11541,
    "permission": 15905,
    "Ġsanctified": 25883,
    "Ġhousehold": 8570,
    "excuse": 13385,
    "Ġdire": 865,
    "Ġostlers": 25277,
    "ersburgh": 18216,
    "Ġreasonably": 11092,
    "Ġspas": 10924,
    "Ġamel": 18512,
    "inordinate": 21197,
    "revol": 12545,
    "Ġconsum": 9802,
    "Ġsunlight": 13089,
    "Ġpeter": 10538,
    "Ġcovent": 16076,
    "inople": 13832,
    "Ġdependen": 1829,
    "Ġtapped": 11556,
    "birds": 15148,
    "sho": 6425,
    "Ġxxxii": 24973,
    "Ġvis": 1050,
    "promontory": 24727,
    "Ġwane": 21291,
    "Ġbelrive": 18833,
    "Ġtruck": 19514,
    "Ġtemptations": 24508,
    "Ġhoky": 17929,
    "Ġfurnace": 19443,
    "Ġclanging": 18421,
    "Ġresided": 11815,
    "Ġcontinent": 14891,
    "Ġing": 5284,
    "vis": 4579,
    "Ġdotted": 16794,
    "Ġdenying": 14660,
    "Ġaffording": 14824,
    "closing": 23159,
    "Ġstrateg": 1375,
    "Ġsequ": 982,
    "Ġunrest": 11718,
    "Ġdesc": 772,
    "Ġoversight": 22360,
    "Ġ}": 21156,
    "asked": 8915,
    "Ġcou": 5288,
    "this": 1439,
    "Ġmisunderstood": 18708,
    "Ġcleaving": 23184,
    "Ġpulpit": 7469,
    "Ġbored": 16109,
    "fitting": 1512,
    "long": 2912,
    "Ġminute": 4276,
    "Ġunfor": 15843,
    "repe": 8780,
    "ontory": 10462,
    "Ġlinguistic": 12429,
    "Ġcoppers": 22586,
    "Ġpian": 13920,
    "Ġpsychology": 11450,
    "ozy": 17624,
    "Ġthackeray": 26457,
    "dissatisfied": 26614,
    "Ġsheepfold": 25467,
    "Ġdramatic": 4852,
    "ulties": 12906,
    "ient": 393,
    "burn": 8371,
    "Ġadequ": 10915,
    "Ġaustralia": 15236,
    "arrangement": 17418,
    "Ġnimble": 21531,
    "reeling": 21247,
    "lies": 15385,
    "arned": 21821,
    "dering": 5307,
    "folio": 10549,
    "Ġcreat": 1402,
    "tri": 11532,
    "Ġentering": 6286,
    "Ġdestructive": 23488,
    "```": 25894,
    "ments": 1400,
    "Ġsymp": 4503,
    "Ġglad": 3329,
    "Ġkeeps": 8267,
    "willingness": 24754,
    "Ġplaited": 14286,
    "vously": 23506,
    "squ": 7809,
    "Ġpredefined": 20719,
    "Ġfetching": 16898,
    "Ġscuttle": 7413,
    "Ġfallen": 5968,
    "Ġscorched": 17102,
    "Ġfo": 1649,
    "ources": 2790,
    "ference": 1884,
    "Ġsecurely": 16804,
    "Ġp": 289,
    "apping": 5852,
    "Ġcheerful": 6623,
    "Ġinvestig": 10552,
    "Ġsomebody": 7912,
    "Ġbrooded": 23106,
    "Ġgall": 4350,
    "Ġreminisc": 18727,
    "Ġah": 5075,
    "Ġdispose": 23882,
    "greatly": 16626,
    "Ġcollapsed": 15085,
    "Ġplying": 17916,
    "erect": 20850,
    "Ġtrad": 9831,
    "Ġpurch": 6600,
    "leads": 21373,
    "coal": 12029,
    "mere": 11859,
    "assemblies": 25957,
    "Ġlombardy": 26465,
    "prot": 6898,
    "hecy": 21209,
    "Ġsockets": 22089,
    "quest": 4539,
    "thanked": 24327,
    "Ġgene": 15676,
    "Ġmum": 13861,
    "Ġ(": 595,
    "Ġsquaw": 22846,
    "Ġfancy": 3748,
    "Ġclos": 4550,
    "ulence": 15770,
    "Ġdependencies": 2312,
    "Ġprick": 14480,
    "Ġparticip": 16135,
    "myst": 9825,
    "Ġearning": 23944,
    "Ġnaval": 16901,
    "Ġcalled": 1973,
    "idence": 4300,
    "Ġlegit": 16475,
    "Ġfrig": 13085,
    "Ġstumble": 26484,
    "obtain": 23096,
    "rew": 3648,
    "disgu": 19157,
    "scorched": 25698,
    "Ġweighty": 16035,
    "Ġgive": 1712,
    "Ġhelmsman": 10507,
    "pagan": 17288,
    "outh": 2686,
    "Ġcomforter": 20510,
    "Ġbehind": 2809,
    "Ġgoug": 17993,
    "Ġoppression": 23655,
    "ravelled": 18017,
    "Ġsuppose": 2868,
    "magnetic": 20555,
    "Ġassail": 13068,
    "ues": 2081,
    "Ġsiam": 13841,
    "Ġavailed": 23955,
    "Ġmedic": 11258,
    "Ġbelted": 22951,
    "Ġforming": 7043,
    "cord": 8727,
    "starbuck": 6019,
    "ĠĠĠĠĠĠĠĠĠĠĠĠĠĠĠĠĠĠĠĠĠĠĠĠĠĠĠĠĠĠĠĠĠĠĠĠĠĠ": 16528,
    "Ġvoc": 4450,
    "Ġplum": 11826,
    "incredible": 16501,
    "Ġuntimely": 16469,
    "cases": 12452,
    "inqu": 6122,
    "Ġmourning": 13482,
    "Ġtarget": 2822,
    "Ġsuccessful": 9926,
    "orate": 10802,
    "Ġsupper": 4667,
    "tiest": 21084,
    "Ġchained": 16394,
    "evinced": 19928,
    "Ġlinked": 15081,
    "carriage": 9949,
    "Ġlistening": 6319,
    "Ġbeaut": 2391,
    "Ġcape": 5146,
    "oct": 7553,
    "Ġvirginia": 13503,
    "Ġsurp": 9637,
    "Ġindefatigable": 17180,
    "Ġgaunt": 11270,
    "Ġinfallible": 15074,
    "Ġscru": 8191,
    "Ġperished": 11788,
    "Ġdumb": 7843,
    "clam": 13060,
    "thoughtfully": 24048,
    "Ġsimplest": 16336,
    "fashioned": 9573,
    "nd": 11506,
    "Ġmoodily": 19837,
    "Ġscandinavian": 26347,
    "``": 15310,
    "commun": 15036,
    "Ġlizzie": 26464,
    "Ġmaintainable": 12940,
    "ilst": 8144,
    "Ġunav": 18238,
    "Ġspiral": 14586,
    "Ġbeds": 14554,
    "garity": 17556,
    "stalk": 21653,
    "Ġmanufactured": 22334,
    "yesterday": 10355,
    "every": 2812,
    "Ġiceberg": 14719,
    "Ġintrude": 25991,
    "Ġconsecrate": 26491,
    "Ġroast": 18458,
    "regulated": 23469,
    "Ġcopestone": 24939,
    "ĠĠĠĠĠĠĠĠĠĠĠĠĠĠĠĠĠĠĠĠĠĠĠĠĠĠĠĠĠĠĠĠĠĠĠĠĠĠĠĠĠĠĠĠĠĠĠĠĠĠĠĠĠĠĠĠĠĠĠĠ": 19262,
    "wheeling": 22874,
    "Ġadmiring": 16482,
    "Ġstruggle": 3675,
    "distinct": 13340,
    "window": 7742,
    "Ġtarpaulin": 26158,
    "Ġsusp": 2662,
    "Ġassailed": 23180,
    "Ġwinc": 9645,
    "Ġstarve": 24626,
    "deceiving": 22147,
    "(-": 2981,
    "diligence": 26111,
    "Ġhabit": 6771,
    "Ġfurlongs": 20725,
    "Ġlabrador": 23334,
    "Ġdeliberate": 15025,
    "ilder": 15717,
    "Ġgoverning": 2797,
    "zy": 2668,
    "loose": 11809,
    "hors": 9601,
    "Ġseventeen": 26212,
    "Ġvivid": 8058,
    "ckinridge": 11723,
    "Ġbare": 6133,
    "peace": 13054,
    "Ġcubic": 20091,
    "Ġspray": 7894,
    "rict": 8093,
    "Ġhut": 15623,
    "Ġevangel": 11282,
    "preservation": 25306,
    "Ġoperation": 12003,
    "Ġreadily": 5254,
    "imely": 14001,
    "olence": 10233,
    "alcul": 15632,
    "Ġvilla": 14751,
    "pivot": 21033,
    "rect": 1601,
    "Ġdews": 21842,
    "fitzwilliam": 11354,
    "Ġfloundering": 16253,
    "Ġcoefficient": 2885,
    "bony": 15323,
    "Ġdynamic": 5122,
    "usage": 12838,
    "Ġaston": 3702,
    "Ġstars": 6150,
    "Ġglobules": 26590,
    "Ġmad": 2422,
    "Ġcasement": 25095,
    "Ġbanker": 8670,
    "Ġdisco": 3430,
    "Ġdate": 7841,
    "ĠâĢĶ_": 3459,
    "stirring": 20429,
    "Ġtroub": 22366,
    "Ġliberal": 12195,
    "awed": 10394,
    "will": 1969,
    "impress": 18054,
    "insult": 16282,
    "Ġfrivolous": 26177,
    "Ġhue": 8430,
    "Ġopposed": 11190,
    "Ġdivine": 6920,
    "Ġdetermination": 9822,
    "Ġveneration": 25047,
    "Ġdishonor": 25602,
    "isa": 17847,
    "Ġmysticetus": 24923,
    "Ġopportunities": 19251,
    "pro": 2052,
    "Ġsto": 1500,
    "Ġunden": 22013,
    "Ġtheir": 643,
    "Ġmassachusetts": 24026,
    "Ġwards": 17791,
    "Ġcommentators": 25230,
    "Ġeagerly": 4990,
    "Ġlance": 4880,
    "Ġrheumatic": 20707,
    "Ġshould": 864,
    "Ġbottom": 3674,
    "Ġdescended": 7427,
    "Ġvillain": 8639,
    "lounged": 26134,
    "Ġclams": 19992,
    "ord": 669,
    "Ġratio": 5066,
    "Ġwarmest": 16486,
    "Ġharpooning": 23982,
    "has": 4012,
    "Ġprofusion": 23570,
    "Ġrepaired": 13112,
    "mole": 22704,
    "ffy": 18317,
    "Ġemperor": 15162,
    "Ġdeact": 18138,
    "Ġscr": 11764,
    "geon": 6271,
    "actor": 11842,
    "igating": 21703,
    "brothers": 17026,
    "Ġfift": 6382,
    "Ġenchantment": 24870,
    "oons": 12503,
    "Ġrepel": 23362,
    "Ġbrothers": 13179,
    "Ġrepentance": 15164,
    "Ġnames": 4534,
    "Ġgigantic": 5915,
    "Ġundeniable": 26512,
    "Ġshrieked": 9551,
    "stealthily": 23965,
    "Ġseized": 4835,
    "met": 6654,
    "Ġprehens": 22235,
    "new": 1466,
    "Ġeven": 1028,
    "Ġease": 5629,
    "Ġaround": 3611,
    "Ġlub": 15653,
    "Ġbush": 23340,
    "Ġalgorith": 566,
    "##": 2314,
    "Ġissuing": 16950,
    "Ġweather": 3994,
    "Ġattacked": 10570,
    "hospit": 25904,
    "ung": 2746,
    "wear": 22686,
    "Ġhaven": 8475,
    "woe": 21138,
    "Ġbound": 3520,
    "Ġroughs": 19960,
    "Ġfalse": 4342,
    "figured": 20126,
    "Ġcassock": 20490,
    "Ġsmitten": 12904,
    "osis": 18390,
    "Ġexploring": 4303,
    "Ġmarvell": 7247,
    "isted": 3302,
    "Ġdirty": 9181,
    "break": 6102,
    "Ġobstructed": 24678,
    "wag": 21126,
    "Ġmagic": 8233,
    "ptember": 10895,
    "Ġgaily": 16750,
    "Ġlovely": 4711,
    "Ġastern": 6090,
    "Ġarabic": 24981,
    "Ġmarching": 16698,
    "Ġvirtual": 11241,
    "Ġdick": 3497,
    "ommod": 13980,
    "collar": 19330,
    "Ġbrigs": 20325,
    "Ġvindictiveness": 25739,
    "vering": 15720,
    "Ġlustre": 15138,
    "Ġquitting": 7645,
    "Ġrestrictions": 20638,
    "Ġcontrivances": 12361,
    "Ġwheeling": 18289,
    "Ġinsist": 9894,
    "waistcoat": 17364,
    "Ġrainy": 24341,
    "fro": 8736,
    "son": 2326,
    "Ġincidents": 9302,
    "Ġrespectfully": 18994,
    "married": 9952,
    "patient": 25343,
    "Ġscientific": 6856,
    "ositions": 10286,
    "Ġpromoting": 3161,
    "Ġmistake": 6204,
    "thur": 7187,
    "Ġstupidity": 15052,
    "complain": 14358,
    "Ġsi": 21215,
    "Ġassisting": 13263,
    "troubled": 17113,
    "Ġjesty": 18406,
    "Ġdiabolism": 25515,
    "mou": 10710,
    "Ġshared": 10266,
    "Ġexchanged": 10880,
    "Ġdireful": 11019,
    "marriage": 7744,
    "Ġfed": 5530,
    "Ġflorid": 17138,
    "intend": 16227,
    "Ġsubterr": 10351,
    "aster": 1868,
    "asher": 15650,
    "Ġlivery": 16004,
    "alid": 13938,
    "Ġinstigated": 18705,
    "pushed": 21025,
    "sustained": 20571,
    "Ġrossum": 3014,
    "Ġlifts": 25359,
    "anxiety": 25159,
    "Ġhedge": 8364,
    "getic": 12971,
    "Ġfrightens": 24034,
    "Ġstepdaughter": 22615,
    "Ġkiller": 19571,
    "oder": 2455,
    "Ġdestabilizing": 5053,
    "Ġsee": 802,
    "Ġwed": 7574,
    "astes": 11743,
    "Ġcont": 622,
    "particular": 5757,
    "ience": 796,
    "geons": 15983,
    "uous": 4143,
    "hing": 979,
    "°": 113,
    "oters": 21803,
    "Ġocean": 3307,
    "Ġcrane": 23440,
    "Ġpaddling": 25286,
    "Ġinspired": 2513,
    "continual": 20646,
    "Ġrisen": 9496,
    "tempestuous": 26098,
    "Ġlod": 4041,
    "Ġstiffness": 24828,
    "Ġtubs": 11372,
    "gress": 2211,
    "Ġthese": 822,
    "Ġsplendidly": 25328,
    "oked": 4306,
    "Ġreasoning": 2035,
    "Ġbeach": 6542,
    "Ġlac": 17967,
    "Ġadmirer": 16840,
    "Ġfactor": 19014,
    "Ġcapst": 8600,
    "Ġappar": 7410,
    "Ġcorn": 9353,
    "atically": 2761,
    "jammed": 25907,
    "´": 117,
    "ocratic": 17247,
    "Ġsoliloqu": 11889,
    "utility": 21590,
    "Ġreasonable": 7252,
    "crimes": 16686,
    "dinah": 20084,
    "Ġmoody": 8201,
    "Ġram": 11014,
    "Ġensures": 3055,
    "Ġflush": 14427,
    "icions": 21566,
    "Ġforgetfulness": 14608,
    "anter": 9169,
    "Ġwere": 556,
    "Ġguests": 12291,
    "Ġexplanatory": 22206,
    "Ġdesist": 16240,
    "mother": 5480,
    "Ġstretched": 5920,
    "Ġstrugg": 3221,
    "Ġremove": 7498,
    "Ġassemblage": 26354,
    "ers": 405,
    "speak": 5504,
    "Ġcombine": 4415,
    "Ġxxxiv": 24970,
    "Ġclutching": 24954,
    "destruction": 11257,
    "Ġliterary": 25166,
    "experience": 17161,
    "Ġbreaching": 23350,
    "Ġresolute": 19247,
    "satisf": 5781,
    "Ġdundee": 16999,
    "itarian": 21340,
    "Ġmalacca": 24393,
    "Ġpalsied": 25780,
    "igned": 5656,
    "Ġpassed": 2011,
    "Ġdepth": 2433,
    "Ġstuff": 5717,
    "Ġoceans": 7996,
    "Ġbarnacled": 25537,
    "lux": 14229,
    "ippi": 20247,
    "produ": 10722,
    "Ġwept": 7183,
    "Ġmemo": 18119,
    "mystic": 25317,
    "mingled": 14716,
    "Ġinfirmity": 26299,
    "Ġcow": 13879,
    "Ġcanvassed": 19938,
    "ichever": 13960,
    "Ġdanes": 25160,
    "Ġenigmatical": 20600,
    "Ġsuperlatively": 26076,
    "cceed": 4141,
    "Ġdash": 8122,
    "Ġstraighten": 24008,
    "Ġnot": 413,
    "Ġrinal": 21981,
    "imes": 1303,
    "Ġdeclaration": 16639,
    "billows": 20239,
    "inquiries": 13581,
    "Ġwhaleboats": 18479,
    "alloyed": 22205,
    "windows": 19537,
    "ĠĠĠĠĠĠĠĠĠĠĠĠĠĠĠĠĠĠĠĠĠĠĠĠĠĠĠĠĠĠĠĠĠĠĠ": 19260,
    "Ġyawning": 12304,
    "Ġinto": 648,
    "ignant": 11131,
    "Ġweapon": 7775,
    "imony": 12695,
    "representativeness": 25273,
    "Ġbeyond": 2454,
    "Ġbowels": 9433,
    "Ġturk": 6604,
    "eternal": 17985,
    "Ġtreatise": 19348,
    "Ġtamely": 24980,
    "Ġdividing": 12116,
    "Ġintentions": 10610,
    "Ġchiefly": 5766,
    "the": 334,
    "fail": 17542,
    "Ġnervousness": 23559,
    "Ġpivot": 13926,
    "asting": 12811,
    "ipher": 18433,
    "cousin": 10655,
    "Ġnow": 692,
    "Ġork": 18285,
    "Ġprehensile": 26536,
    "Ġsordid": 26424,
    "Ġsummit": 7730,
    "Ġmourn": 8707,
    "Ġstraggling": 23753,
    "Ġroared": 7024,
    "Ġinterior": 8898,
    "isco": 12586,
    "embedding": 20360,
    "getting": 12972,
    "Ġwoke": 21292,
    "ersed": 10262,
    "Ġdesperado": 19822,
    "leman": 21371,
    "hush": 20908,
    "uplifted": 17697,
    "Ġwarmed": 12028,
    "delights": 19704,
    "oney": 3049,
    "rium": 3133,
    "Ġdressing": 7091,
    "tru": 10731,
    "tired": 21075,
    "ants": 1391,
    "incible": 16500,
    "ativeness": 15524,
    "Ġreception": 9842,
    "arranging": 19320,
    "sprit": 11384,
    "Ġlightnings": 16356,
    "nails": 17616,
    "Ġphil": 3388,
    "necessity": 13372,
    "Ġfastidious": 14494,
    "Ġboston": 22643,
    "compared": 24037,
    "fle": 7129,
    "Ġbelong": 3885,
    "Ġch": 513,
    "Ġembarked": 17137,
    "Ġwee": 21923,
    "Ġparmacetti": 20607,
    "Ġhands": 1662,
    "comrade": 18736,
    "Ġattested": 22626,
    "Ġoce": 3031,
    "Ġbend": 9173,
    "mises": 20980,
    "Ġmanager": 11773,
    "think": 3609,
    "Ġsings": 15508,
    "iscuit": 10601,
    "Ġhosmer": 6774,
    "Ġactivity": 7920,
    "Ġfang": 21406,
    "Ġirregular": 9868,
    "Ġcontest": 18474,
    "rust": 2578,
    "87": 20759,
    "historian": 25735,
    "Ġcrawling": 17046,
    "powerful": 24848,
    "Ġsympathise": 16796,
    "Ġharpooneer": 3773,
    "Ġfresh": 3670,
    "Ġlowers": 23241,
    "lover": 18541,
    "Ġ27": 8618,
    "Ġcircumnavigation": 20403,
    "planks": 21958,
    "apprehens": 17409,
    "zza": 24170,
    "Ġcorpulence": 24509,
    "Ġpocket": 4899,
    "scotland": 20532,
    "Ġdesignated": 19524,
    "Ġleast": 2066,
    "Ġwears": 10243,
    "england": 18931,
    "Ġrefer": 18693,
    "Ġelusive": 22649,
    "Ġgib": 13968,
    "Ġchord": 22249,
    "Ġpersuade": 5873,
    "amiable": 14056,
    "plan": 15818,
    "Ġobey": 9522,
    "Ġintense": 6158,
    "etts": 12665,
    "Ġdisposed": 7084,
    "erm": 785,
    "Ġconcepts": 4552,
    "privilege": 25264,
    "Ġpleasures": 11145,
    "Ġwilliam": 3482,
    "sheets": 14445,
    "Ġotherwise": 4659,
    "architect": 22898,
    "Ġsome": 654,
    "Ġattribute": 16101,
    "Ġengine": 1922,
    "Ġsubdivisions": 26038,
    "Ġrapidly": 3193,
    "whose": 6851,
    "renewed": 19707,
    "Ġkings": 7196,
    "Ġkeener": 22916,
    "Ġjoyfully": 19349,
    "ands": 21870,
    "Ġbulk": 5591,
    "Ġfleece": 10617,
    "Ġgate": 6824,
    "Ġsped": 22129,
    "400": 20757,
    "wrote": 11549,
    "Ġdriving": 3617,
    "Ġstro": 4597,
    "Ġbarber": 23792,
    "leviathans": 19941,
    "Ġach": 2621,
    "Ġvarious": 3510,
    "Ġreappearance": 21670,
    "Ġpush": 9187,
    "Ġvoyagings": 19238,
    "beam": 16042,
    "Ġeste": 6084,
    "Ġfixed": 2684,
    "Ġchill": 11756,
    "Ġug": 8141,
    "cross": 3576,
    "remark": 7260,
    "Ġradiating": 24331,
    "Ġthimble": 15641,
    "Ġconfessed": 8009,
    "Ġecl": 18008,
    "Ġimprinted": 22393,
    "Ġfascinating": 17331,
    "Ġprecious": 5760,
    "Ġsubset": 9873,
    "Ġterrible": 5328,
    "Ġdrawers": 12110,
    "Ġflourishing": 25188,
    "Ġlamps": 14794,
    "Ġnapole": 15119,
    "erative": 21275,
    "Ġsayest": 22779,
    "Ġdivulged": 16651,
    "finer": 17548,
    "itious": 8784,
    "Ġesteemed": 10591,
    "ensive": 6280,
    "devouring": 24953,
    "character": 6332,
    "Ġunappe": 22018,
    "probably": 10023,
    "carefully": 13373,
    "Ġflo": 2586,
    "Ġconvalescence": 23748,
    "anke": 15565,
    "duchess": 18464,
    "Ġsandwic": 24665,
    "contr": 12061,
    "Ġlurks": 11292,
    "Ġguilt": 6180,
    "attempted": 20177,
    "firm": 10700,
    "Ġcheer": 4065,
    "lengths": 24847,
    "inforcement": 2950,
    "oysius": 14367,
    "Ġundertake": 14481,
    "Ġsangu": 15507,
    "rank": 21044,
    "occup": 7752,
    "Ġrandom": 1593,
    "Ġdl": 3379,
    "parts": 14603,
    "Ġrepe": 3283,
    "Ġvocabulary": 4995,
    "Ġderivative": 3001,
    "Ġaccurate": 13254,
    "Ġpenn": 11114,
    "Ġperishing": 22402,
    "pard": 9621,
    "hval": 20900,
    "Ġincognit": 22558,
    "brandy": 19202,
    "Ġsubstitute": 16728,
    "Ġlewis": 15729,
    "Ġsimpleton": 16337,
    "Ġdistribution": 2019,
    "Ġcous": 3438,
    "Ġpotency": 14648,
    "Ġfinishing": 23127,
    "Ġslip": 8957,
    "growing": 13736,
    "enjoy": 10776,
    "ums": 10275,
    "irs": 14074,
    "deliberated": 26119,
    "Ġlens": 8439,
    "Ġsorely": 17259,
    "Ġgroaned": 11268,
    "Ġusurpation": 18361,
    "risonment": 17378,
    "Ġscraping": 13420,
    "Ġforc": 9230,
    "lion": 20946,
    "tiger": 13800,
    "Ġinclemency": 22559,
    "Ġball": 3623,
    "Ġmeet": 2806,
    "V": 58,
    "term": 3760,
    "Ġsure": 1866,
    "Ġop": 2602,
    "remental": 21250,
    "Ġreposing": 23364,
    "aming": 5829,
    "ext": 925,
    "suggested": 17302,
    "Ġcommunications": 16358,
    "althily": 19362,
    "Ġmantelpiece": 15211,
    "Ġrueful": 25582,
    "Ġcommissionaire": 17002,
    "insufferable": 21195,
    "Ġsit": 4214,
    "Ġcaptivating": 26050,
    "zeal": 16280,
    "Ġcum": 21345,
    "ugl": 23292,
    "Ġad": 443,
    "Ġshaped": 15838,
    "Ġfevers": 22211,
    "Ġeliminating": 20623,
    "Ġscheming": 23272,
    "Ġseer": 21963,
    "Ġensu": 7875,
    "Ġomn": 8411,
    "Ġcorporeally": 25729,
    "Ġsens": 1853,
    "Ġmaketh": 15191,
    "tch": 9144,
    "Ġwithstand": 10228,
    "Ġsuspicious": 9483,
    "Ġentity": 10347,
    "hurt": 19880,
    "arab": 21444,
    "Ġcomplaisance": 19452,
    "sticks": 25966,
    "Ġcapering": 21357,
    "us": 532,
    "Ġprofile": 16490,
    "Ġreflecting": 24750,
    "fatig": 17090,
    "Ġrav": 14307,
    "aze": 10078,
    "Ġdefection": 22945,
    "Ġdecomposes": 5506,
    "Ġours": 4614,
    "fes": 20853,
    "Ġbridegroom": 10607,
    "Ġlacey": 10200,
    "Ġpartake": 18671,
    "Ġmutinous": 23961,
    "Ġfragments": 19035,
    "Ġinferiority": 17116,
    "Ġharmony": 16816,
    "Ġgallons": 14821,
    "Ġqualified": 14953,
    "following": 10575,
    "Ġsaloon": 24066,
    "Ġblanc": 11067,
    "Ġmerited": 23733,
    "Ġhopelessly": 16385,
    "ite": 711,
    "Ġmisery": 3815,
    "Ġdiscrimin": 2541,
    "Ġidea": 2481,
    "Ġbon": 8790,
    "Ġhoist": 11981,
    "details": 19678,
    "Ġaval": 15496,
    "Ġliveliest": 24774,
    "Ġ92": 24591,
    "Ġrefresh": 10346,
    "Ġneglecting": 25010,
    "erland": 9643,
    "Ġwriggling": 15261,
    "Ġexterm": 21833,
    "Ġdecorated": 22444,
    "Ġperson": 2367,
    "Ġslumber": 13065,
    "Ġforemost": 12009,
    "Ġslappin": 18946,
    "surf": 24215,
    "Ġsecondly": 14520,
    "ied": 940,
    "impetuous": 23765,
    "Ġcustom": 5078,
    ")": 13,
    "Ġirrespective": 23378,
    "Ġdetail": 635,
    "Ġslices": 23168,
    "Ġdiscussing": 5202,
    "Ġpens": 21463,
    "credit": 12453,
    "Ġanother": 1737,
    "ram": 13975,
    "Ġli": 602,
    "fr": 4805,
    "Ġimpo": 3443,
    "shunned": 22469,
    "itary": 4752,
    "Ġreigning": 15705,
    "Ġconstrued": 26302,
    "Ġpaul": 12066,
    "savage": 15079,
    "Ġturnpike": 23032,
    "osop": 4404,
    "Ġtattered": 21174,
    "Ġmodes": 22217,
    "wanderer": 25424,
    "Ġsof": 18277,
    "Ġidol": 7466,
    "Ġmended": 21316,
    "amples": 1823,
    "Ġpierced": 12286,
    "Ġengagement": 5397,
    "Ġinstability": 3814,
    "Ġarabian": 9093,
    "Ġclout": 22343,
    "Ġirene": 8445,
    "Ġeffectively": 2595,
    "mediate": 16517,
    "due": 22414,
    "Ġpersian": 11097,
    "Ġhesitating": 16949,
    "abez": 10225,
    "Ġcabman": 14607,
    "Ġcaved": 21356,
    "Ġfreemason": 23213,
    "ent": 305,
    "Ġawakened": 10455,
    "Ġmish": 15541,
    "Ġmonsie": 11449,
    "Ġlicense": 20094,
    "canonical": 22966,
    "Ġsurmount": 20004,
    "expl": 9286,
    "Ġstores": 18071,
    "cheer": 9440,
    "Ġtranspointed": 22454,
    "Ġpl": 743,
    "Ġticking": 25036,
    "shoulder": 16586,
    "Ġexperiments": 23021,
    "pence": 15412,
    "Ġdiscreet": 16484,
    "daw": 17524,
    "enemy": 15530,
    "Ġbethink": 12383,
    "stirred": 20428,
    "Ġtrappers": 23084,
    "Ġshalt": 18231,
    "raved": 18015,
    "Ġeasy": 3453,
    "Ġridges": 16733,
    "Ġheadland": 22900,
    "independent": 26022,
    "Ġpaused": 5416,
    "Ġinteraction": 7423,
    "Ġsherlock": 3892,
    "Ġabhorrence": 9055,
    "Ġlunacy": 20031,
    "Ġmediterranean": 12319,
    "bat": 8072,
    "apsed": 6296,
    "Ġhungry": 10535,
    "escape": 16011,
    "Ġintrospect": 15832,
    "Ġearlier": 9090,
    "Ġtrinity": 22367,
    "mild": 15395,
    "recognised": 15266,
    "verse": 9691,
    "won": 8395,
    "stra": 4044,
    "Ġven": 4649,
    "Ġsweeter": 23921,
    "hearth": 15502,
    "Ġtreacher": 8608,
    "Ġvary": 15811,
    "Ġluxuriant": 20398,
    "nineteenth": 26139,
    "Ġsworn": 14438,
    "Ġhelen": 16658,
    "ĝ": 222,
    "affording": 23779,
    "Ġobeyed": 12221,
    "Ġdisagreeable": 9301,
    "rop": 539,
    "Ġmeeting": 5193,
    "car": 4210,
    "Ġlust": 9200,
    "Ġowned": 11880,
    "Ġwardrobe": 17228,
    "en": 271,
    "Ġstaying": 8284,
    "breat": 10081,
    "iability": 20922,
    "Ġprofessors": 14729,
    "Ġhandled": 12942,
    "Ġhardened": 14453,
    "class": 4094,
    "Ġconcern": 2655,
    "Ġilluminate": 17195,
    "Ġinscriptions": 20012,
    "borean": 25744,
    "Ġbakers": 17868,
    "send": 15426,
    "Ġushered": 18360,
    "Ġth": 299,
    "Ġcommended": 18657,
    "Ġnorm": 763,
    "nial": 20986,
    "Ġaffirmative": 15226,
    "ourers": 21452,
    "itional": 22478,
    "rist": 10125,
    "behaved": 24463,
    "Ġfasc": 12603,
    "Ġwhiff": 21721,
    "ulus": 21868,
    "Ġstatement": 5255,
    "Ġstooped": 14466,
    "alluring": 18353,
    "trade": 19647,
    "Ġimprecate": 20521,
    "Ġwoody": 23520,
    "Ġsaves": 18325,
    "wharf": 20609,
    "Ġsteps": 2865,
    "apes": 9744,
    "Ġsil": 1799,
    "Ġinsights": 13183,
    "Ġindication": 22955,
    "Ġpeeped": 10015,
    "Ġshuttle": 12131,
    "Ġpredecess": 18510,
    "over": 1846,
    "ning": 949,
    "Ġvow": 10249,
    "Ġexperiment": 11921,
    "appearance": 5334,
    "Ġoccup": 3742,
    "Ġbrew": 23347,
    "Ġclustered": 25234,
    "Ġfavoured": 16364,
    "include": 23591,
    "Ġmistaken": 4986,
    "Ġoffic": 3191,
    "yarn": 15460,
    "acquired": 24298,
    ",âĢĶ": 3173,
    "Ġlifting": 10199,
    "Ġharpoon": 3616,
    "fact": 6359,
    "Ġfinest": 10395,
    "Ġeleventh": 23372,
    "Ġgaz": 4042,
    "Ġanonymous": 26179,
    "above": 8148,
    "Ġinfirm": 19021,
    "Ġspectrum": 4475,
    "constable": 24606,
    "ander": 6401,
    "Ġfully": 6343,
    "Ġbooks": 4677,
    "icuous": 10837,
    "represented": 20198,
    "Ġdealing": 14048,
    "Ġsevent": 18203,
    "Ġmagnitudes": 3823,
    "upset": 23020,
    "Ġporpoise": 7107,
    "Ġemphasis": 20539,
    "Ġwaterloo": 11985,
    "affrail": 11207,
    "Ġnostrils": 10945,
    "Ġinstituted": 18704,
    "warm": 8102,
    "Ġfriday": 14490,
    "horse": 8609,
    "Ġcombines": 1119,
    "dischar": 19155,
    "represent": 9640,
    "formed": 2549,
    "hurry": 24762,
    "Ġadjusted": 23460,
    "Ġgour": 21601,
    "Ġpunctually": 17141,
    "vig": 15449,
    "Ġformer": 3326,
    "viv": 17700,
    "landish": 11946,
    "chance": 6826,
    "Ġstem": 15723,
    "!_âĢĿ": 11378,
    "Ġconsequ": 6255,
    "expression": 10550,
    "Ġdistension": 22508,
    "Ġbough": 13897,
    "chie": 21693,
    "axen": 22525,
    "udding": 11869,
    "Ġprocure": 9513,
    "daring": 20831,
    "Ġinvisibly": 24814,
    "Ġbolts": 16945,
    "Ġfinanc": 23130,
    "Ġforms": 6397,
    "Ġstructural": 2800,
    "gradient": 2273,
    "Ġchapel": 9526,
    "undoubtedly": 13316,
    "Ġlodge": 5779,
    "odiac": 14035,
    "Ġanatomy": 12324,
    "ancient": 9658,
    "earn": 10698,
    "urpr": 2285,
    "Ġsermon": 12380,
    "distinction": 19574,
    "mense": 4781,
    "Ġplutarch": 22606,
    "Ġcircumst": 2976,
    "shattered": 22463,
    "ops": 5247,
    "attempt": 9363,
    "Ġagreement": 18544,
    "ture": 7557,
    "Ġpersons": 6183,
    "Ġromish": 19587,
    "Ġterrify": 19364,
    "determined": 9082,
    "icket": 22671,
    "Ġtaking": 3253,
    "duck": 22416,
    "iliating": 12700,
    "Ġlandsc": 11148,
    "Ġdinners": 23985,
    "Ġthrust": 5084,
    "Ġhunks": 18938,
    "Ġabusing": 18394,
    "goose": 19103,
    "Ġpiratical": 24798,
    "ondency": 15273,
    "Ġqualities": 7532,
    "Ġreluctant": 20528,
    "Ġtep": 21164,
    "insanity": 23071,
    "Ġsaint": 15510,
    "naturedly": 24841,
    "Ġcarpet": 9359,
    "Ġbott": 3149,
    "Ġun": 421,
    "significant": 25085,
    "terns": 21826,
    "Ġsuckling": 25998,
    "rushing": 10021,
    "hour": 7339,
    "Ġhoneymoon": 25646,
    "Ġstranger": 3485,
    "Ġenv": 3008,
    "Ġprocedures": 9415,
    "emotion": 21934,
    "ben": 4927,
    "quer": 11683,
    "ĠâĢľâĢĺ": 8505,
    "Ġtreating": 4281,
    "Ġcents": 17830,
    "Ġresemble": 15697,
    "Ġexpatiate": 18626,
    "mpt": 6655,
    "Ġimplac": 24875,
    "quis": 7870,
    "Ġimperial": 9484,
    "let": 2732,
    "Ġimmut": 13302,
    "Ġveil": 7934,
    "Ġstep": 751,
    "Ġmishap": 20579,
    "Ġdespise": 14668,
    "Ġunimpeachable": 26524,
    "Ġhesitation": 13445,
    "Ġripp": 11221,
    "trans": 5594,
    "Ġrequested": 14310,
    "evidently": 20348,
    "Ġdistinguished": 8273,
    "Ġcongrat": 5828,
    "Ġtwitch": 22679,
    "Ġcorresponds": 19824,
    "exact": 7910,
    "Ġerred": 21159,
    "oles": 21007,
    "Ġafresh": 18627,
    "Ġrepeatedly": 9024,
    "Ġcolumbus": 26566,
    "Ġplacing": 8904,
    "shuff": 18494,
    "Ġrepeated": 3832,
    "Ġchurning": 15941,
    "Ġdominant": 12400,
    "Ġincommunicable": 26613,
    "za": 13813,
    "medical": 23346,
    "Ġsupplies": 20329,
    "Ġprovid": 1009,
    "rix": 1579,
    "tide": 11535,
    "few": 8203,
    "ations": 709,
    "vanity": 24977,
    "felix": 10656,
    "plentiful": 21960,
    "Ġlicence": 25099,
    "ris": 9140,
    "Ġmine": 3182,
    "Ġ133": 24782,
    "wicked": 24449,
    "rapt": 13976,
    "Ġspeeding": 23566,
    "recol": 10153,
    "Ġprot": 3848,
    "Ġperceive": 6700,
    "umbs": 14692,
    "ress": 930,
    "Ġdrives": 14580,
    "Ġhitherto": 5880,
    "revenge": 13845,
    "addressing": 24401,
    "ring": 1752,
    "Ġpicked": 6342,
    "Ġpe": 850,
    "estion": 18363,
    "Ġsk": 960,
    "Ġdoc": 7199,
    "Ġungodly": 26515,
    "bbing": 6324,
    "Ġcasual": 11411,
    "akeman": 6268,
    "Ġexceedingly": 4616,
    "usive": 8192,
    "Ġconscious": 7743,
    "Ġvehem": 22892,
    "Ġscratching": 20372,
    "Ġoutlined": 22324,
    "Ġvalues": 2650,
    "Ġsoftly": 7948,
    "Ġseeming": 8542,
    "Ġviciss": 11294,
    "Ġessentials": 20006,
    "Ġcritical": 7473,
    "Ġscott": 22285,
    "Ġgod": 1939,
    "blast": 9590,
    "fulfilment": 26026,
    "Ġnathan": 21529,
    "Ġsuffusing": 23034,
    "Ġsanguine": 25929,
    "Ġgossip": 18471,
    "Ġoppose": 16522,
    "Ġnumbers": 2889,
    "Ġasylum": 13670,
    ":--": 5784,
    "Ġthoughtlessness": 16197,
    "Ġjun": 8507,
    "Ġtastes": 15480,
    "ringle": 21043,
    "entire": 6823,
    "farm": 15355,
    "living": 7134,
    "Ġcoop": 14273,
    "illity": 18297,
    "kin": 7132,
    "Ġfounder": 17885,
    "Ġfire": 2330,
    "Ġapothe": 12379,
    "ostentatious": 20654,
    "Ġfling": 9663,
    "Ġsell": 7825,
    "Ġpitch": 5767,
    "Ġdestro": 3724,
    "Ġmarred": 23035,
    "Ġconstant": 6310,
    "Ġheavily": 6741,
    "Ġbru": 13898,
    "Ġarising": 10935,
    "Ġpumps": 8428,
    "Ġinter": 728,
    "Ġfaltering": 17886,
    "skill": 24487,
    "Ġrates": 1404,
    "goes": 10428,
    "Ġbass": 17857,
    "elaborate": 21579,
    "write": 14649,
    "Ġbraw": 23838,
    "Ġbordered": 24564,
    "Ġhummed": 18779,
    "Ġeternity": 12283,
    "Ġencomp": 12968,
    "librarian": 26570,
    "Ġexplanations": 15914,
    "Ġmark": 2328,
    "Ġbubbling": 17329,
    "Ġauthentic": 20538,
    "Ġceased": 6468,
    "Ġanalog": 12617,
    "Ġstirring": 10582,
    "Ġcongeal": 25981,
    "utmost": 21591,
    "qual": 8157,
    "Ġpaling": 21465,
    "bon": 13688,
    "Ġprynne": 25541,
    "Ġtort": 5902,
    "2": 22,
    "Ġintermix": 25827,
    "Ġcoincidence": 25484,
    "Ġretrieval": 10677,
    "Ġbear": 3658,
    "eties": 10839,
    "iled": 1765,
    "Ġdeemed": 7613,
    "Ġaudience": 24768,
    "Ġdodge": 19888,
    "Ġworth": 4416,
    "Ġsenate": 25215,
    "allah": 5839,
    "ling": 736,
    "sou": 12510,
    "ga": 17552,
    "Ġbowditch": 19325,
    "ason": 1264,
    "limp": 20954,
    "9": 29,
    "Ġpunish": 12164,
    "Ġphysiogn": 12392,
    "Ġmarbles": 18874,
    "Ġallowing": 2173,
    "Ġmeantime": 6207,
    "vapor": 25756,
    "Ġaisle": 21204,
    "Ġsave": 4050,
    "angling": 14143,
    "Ġfarmhouse": 24987,
    "Ġinfants": 16370,
    "Ġtophet": 23575,
    "Ġunlocked": 14122,
    "retired": 11940,
    "Ġaltering": 18105,
    "--": 1043,
    "Ġgates": 10203,
    "Ġbump": 9662,
    "achine": 611,
    "gain": 8740,
    "bl": 4140,
    "Ġthr": 5709,
    "Ġsanct": 15065,
    "Ġcarved": 7947,
    "cooks": 25070,
    "Ġalterations": 19873,
    "extensive": 18712,
    "inced": 3339,
    "Ġdivers": 9668,
    "Ġsix": 3044,
    "Ġdischar": 11812,
    "Ġsplinters": 15106,
    "Ġproperly": 7945,
    "Ġrevolve": 19733,
    "letter": 6202,
    "accepted": 20139,
    "Ġcoronation": 13338,
    "Ġoun": 13866,
    "Ġ78": 19616,
    "Ġshort": 2222,
    "Ġintend": 12769,
    "Ġtedious": 15271,
    "Ġpapers": 4020,
    "Ġpin": 7161,
    "ove": 1743,
    "Ġske": 4816,
    "boone": 23253,
    "ateness": 15523,
    "Ġsuddenly": 2645,
    "Ġsecure": 4913,
    "sprang": 19994,
    "Ġpod": 15608,
    "Ġbulkhead": 24511,
    "het": 5435,
    "Ġroused": 7622,
    "Ġsupports": 3050,
    "Ġhorribly": 16345,
    "rayed": 23565,
    "Ġspectator": 19409,
    "Ġsofa": 10272,
    "Ġmacey": 12568,
    "hil": 8379,
    "Ġremarked": 3696,
    "Ġinvest": 4978,
    "yd": 21145,
    "û": 188,
    "plac": 15820,
    "Ġcalculating": 9928,
    "ancy": 4393,
    "Ġoutside": 5554,
    "Ġdonkey": 23227,
    "Ġair": 1836,
    "Ġoppressive": 20458,
    "questions": 16762,
    "Ġunrival": 22047,
    "awn": 3835,
    "always": 5708,
    "Ġabhorrent": 16858,
    "Ġprepare": 8650,
    "Ġaslant": 21905,
    "Ġmistress": 8615,
    "Ġfishers": 19357,
    "rod": 10833,
    "network": 1865,
    "Ġvesuvius": 26503,
    "gravel": 22623,
    "Ġvoice": 2189,
    "bs": 3777,
    "Ġatlantic": 7000,
    "Ġinfamous": 16371,
    "him": 1942,
    "Ġking": 2303,
    "Ġdisappo": 4506,
    "copyright": 5278,
    "Ġvia": 2381,
    "Ġrambled": 20171,
    "Ġchry": 22250,
    "Ġimpudence": 26243,
    "spir": 5738,
    "Ġ70": 11278,
    "those": 4496,
    "Ġbetrayed": 9564,
    "Ġunfair": 19510,
    "Ġthat": 335,
    "Ġalfred": 21790,
    "Ġglens": 18850,
    "Ġapartments": 19617,
    "newsp": 23136,
    "'": 11,
    "Ġoaths": 13527,
    "reduced": 15806,
    "garet": 9600,
    "acific": 4960,
    "L": 48,
    "moment": 3579,
    "Ġmeek": 21813,
    "Ġbiases": 2395,
    "winding": 16722,
    "urously": 18052,
    "Ġdrab": 13075,
    "alogies": 25162,
    "Ġcele": 9903,
    "ven": 781,
    "Ġlimp": 19182,
    "wearing": 22690,
    "rock": 15645,
    "asis": 12655,
    "longer": 8616,
    "Ġyore": 21782,
    "Ġclattered": 22349,
    "ready": 2359,
    "Ġdisposing": 19378,
    "emb": 11693,
    "Ġwaiter": 16363,
    "Ġfibres": 12956,
    "Ġostr": 21328,
    "Ġinvader": 23480,
    "Ġsprained": 15887,
    "vation": 4745,
    "Ġnug": 21528,
    "Ġoverthrown": 18430,
    "Ġprevailing": 24674,
    "Ġpuff": 6526,
    "Ġgrin": 5482,
    "pumps": 21029,
    "Ġserves": 4670,
    "Ġsubfield": 11873,
    "Ġnoteworthy": 24165,
    "Ġpeace": 3693,
    "Ġlect": 9225,
    "Ġwarn": 5695,
    "Ġclaims": 13377,
    "Ġimpressive": 15001,
    "Ġostent": 13588,
    "Ġattributed": 11838,
    "Ġmoderation": 12823,
    "Ġjealous": 9471,
    "objection": 19917,
    "sych": 9893,
    "Ġimmured": 24074,
    "Ġprison": 5403,
    "Ġmiller": 19885,
    "Ġcreate": 2092,
    "beg": 22490,
    "ock": 15405,
    "coo": 11172,
    "erably": 7572,
    "Ġproducts": 5198,
    "braid": 17497,
    "Ġcrony": 23441,
    "Ġdizzy": 21435,
    "Ġspecimen": 13028,
    "Ġfull": 2176,
    "Ġgleamed": 17078,
    "Ġ129": 24474,
    "Ġfrozen": 9016,
    "Ġthrew": 3971,
    "scans": 22987,
    "Ġusing": 717,
    "Ġtight": 8108,
    "Ġscramble": 24579,
    "Ġsuccess": 3610,
    "Ġhollowly": 24526,
    "Ġredress": 23754,
    "Ġseparate": 5778,
    "Ġepaulets": 24906,
    "Ġmisfortunes": 7042,
    "Ġwedged": 24936,
    "Ġstagger": 10594,
    "ices": 2137,
    "Ġunimag": 12779,
    "nosed": 20994,
    "Ġduchess": 4800,
    "Ġmatrim": 11061,
    "rud": 4189,
    "laughed": 20284,
    "ir": 379,
    "Ġdesign": 4131,
    "attending": 18918,
    "shooting": 16967,
    "Ġ134": 24783,
    "Ġkins": 22198,
    "Ġgaol": 19570,
    "ners": 3274,
    "Ġslacked": 25189,
    "observed": 7674,
    "meetings": 20381,
    "ioneer": 15636,
    "Ġadopt": 10634,
    "Ġsurgeon": 8984,
    "Ġassertion": 13493,
    "Ġreply": 4515,
    "contains": 16034,
    "Ġextending": 11024,
    "county": 25397,
    "Ġwaxed": 21300,
    "Ġcontemplated": 13468,
    "Ġtho": 21517,
    "Ġpear": 11856,
    "[": 63,
    "upp": 10133,
    "enge": 21283,
    "Ġdispatched": 23884,
    "Ġ**": 4722,
    "are": 637,
    "Ġrevived": 11370,
    "Ġinside": 5448,
    "Ġfrighten": 13283,
    "Ġhertfordshire": 5377,
    "Ġowning": 18746,
    "Ġexclaim": 11223,
    "chel": 11209,
    "Ġrepenting": 25323,
    "aution": 9391,
    "particulars": 11317,
    "Ġsqueezed": 20039,
    "Ġdil": 6383,
    "oker": 10965,
    "sullenly": 26150,
    "onet": 12550,
    "olently": 15761,
    "O": 51,
    "Ġtraged": 9355,
    "Ġresisted": 22545,
    "Ġmeanwhile": 5736,
    "Ġprocopius": 19734,
    "Ġworry": 18818,
    "moil": 22706,
    "Ġlustrous": 20159,
    "Ġ59": 24323,
    "Ġcar": 1419,
    "occupation": 15059,
    "ª": 108,
    "Ġmy": 412,
    "Ġmic": 17799,
    "Ġtorch": 25033,
    "Ġdecomposition": 5343,
    "Ġarticle": 9505,
    "bedroom": 14701,
    "Ġmoved": 4841,
    "Ġsite": 17755,
    "rove": 21536,
    "Ġimaginations": 16519,
    "orters": 21404,
    "Ġtongue": 6348,
    "Ġvengeful": 14893,
    "abetical": 15747,
    "Ġfamiliarly": 11305,
    "Ġgirth": 13140,
    "Ġcondense": 21812,
    "Ġingen": 9052,
    "Ġreturns": 11930,
    "Ġjourney": 3879,
    "Ġcontinued": 2923,
    "stretch": 13984,
    "hated": 17563,
    "Ġprofessed": 14728,
    "Ġlock": 5928,
    "anation": 5804,
    "Ġruled": 22787,
    "Ġpref": 14174,
    "Ġcaptive": 14430,
    "Ġunreason": 15846,
    "Ġgrasped": 8034,
    "Ġmerryweather": 9525,
    "ks": 3146,
    "Ġapologize": 15132,
    "Ġheel": 9687,
    "Ġrolls": 8334,
    "anted": 5027,
    "Ġequal": 4134,
    "dil": 11480,
    "hoping": 17568,
    "orter": 4253,
    "Ġanxiety": 5408,
    "Ġdisconcerted": 18563,
    "Ġheeded": 13407,
    "Ġinns": 17932,
    "Ġearl": 7675,
    "superstitiousness": 25509,
    "seeing": 7079,
    "un": 373,
    "quet": 6834,
    "address": 14884,
    "Ġspan": 11732,
    "audible": 17135,
    "Ġclassification": 1102,
    "ucumber": 19060,
    "Ġimmensely": 13599,
    "Ġdismast": 12893,
    "mitting": 20975,
    "stud": 8824,
    "Ġphenomena": 21487,
    "jumped": 20249,
    "arter": 17895,
    "ich": 470,
    "ribut": 816,
    "isition": 11589,
    "Ġentranced": 25835,
    "separately": 25228,
    "Ġcollateral": 20075,
    "Ġcruisings": 25865,
    "Ġnarr": 5085,
    "Ġabode": 7900,
    "Ġglaciers": 20176,
    "Ġpresume": 8038,
    "ites": 3897,
    "Ġestablish": 9546,
    "Ġtrap": 7671,
    "Ġhagger": 21494,
    "Ġbranches": 6776,
    "Ġwholesome": 16009,
    "notice": 16151,
    "Ġav": 3582,
    "Ġcountenance": 3968,
    "Ġuncont": 14118,
    "Ġcant": 17826,
    "thoughts": 9938,
    "iguous": 18047,
    "Ġcalf": 16268,
    "Ġexpectation": 6903,
    "Ġpersuasions": 16634,
    "Ġfix": 2502,
    "antages": 7191,
    "comfort": 5647,
    "ģ": 228,
    "Ġbigot": 24566,
    "valu": 1686,
    "Ġmasking": 2416,
    "oration": 2207,
    "Ġcruising": 6912,
    "Ġtombed": 25164,
    "Ġwarm": 2421,
    "Ġglare": 13018,
    "Ġtram": 11093,
    "saving": 21062,
    "Ġmoulded": 16977,
    "Ġdisciple": 22784,
    "robe": 15646,
    "sweet": 8689,
    "ile": 522,
    "Ġstreamed": 14548,
    "Ġpair": 5706,
    "command": 6577,
    "Ġken": 22195,
    "Ġoper": 2121,
    "lamps": 25261,
    "destroy": 19513,
    "Ġconcisely": 19046,
    "Ġclouded": 13295,
    "Ġchowders": 18387,
    "itying": 21998,
    "Ġshipw": 12984,
    "Ġfestival": 25446,
    "men": 1486,
    "Ġjoists": 19235,
    "invested": 17120,
    "!)": 10072,
    "dinner": 11408,
    "alliance": 22204,
    "uteness": 17988,
    "Ġpilgrimage": 17311,
    "Ġepisode": 26349,
    "jur": 17580,
    "Ġpeople": 2539,
    "sters": 6391,
    "Ġconfeder": 25708,
    "Ġrus": 14095,
    "Ġchild": 2260,
    "Ġvolat": 24147,
    "Ġtotal": 4993,
    "Ġimpossibility": 20649,
    "Ġbegged": 8231,
    "ike": 5000,
    "batch": 1982,
    "Ġroads": 13293,
    "ĠĠĠĠĠĠĠĠĠĠĠĠĠĠ": 22567,
    "ution": 4348,
    "draught": 12095,
    "Ġdreams": 7495,
    "itation": 1781,
    "ivered": 7006,
    "securer": 25603,
    "Ġslipper": 24268,
    "Ġket": 18348,
    "bedded": 12447,
    "Ġ4": 3984,
    "Ġt": 261,
    "Ġlowering": 7987,
    "Ġstudies": 7956,
    "Ġascribe": 16784,
    "knew": 9129,
    "wol": 21125,
    "true": 2584,
    "anoke": 21364,
    "Ġexamination": 8005,
    "tracks": 19649,
    "aphys": 15205,
    "Ġnorthwards": 19549,
    "Ġcutting": 4983,
    "Ġbreast": 8971,
    "merely": 16138,
    "Ġsidelong": 11440,
    "aces": 2070,
    "Ġghast": 9212,
    "Ġstarting": 7728,
    "Ġdifferently": 10391,
    "Ġhatherley": 7849,
    "Ġfollow": 1396,
    "Ġcomplied": 14738,
    "culiarity": 11144,
    "scream": 11078,
    "Ġnewcastle": 16226,
    "Ġsimil": 2525,
    "inery": 17735,
    "Ġpleadings": 25854,
    "Ġsphynx": 20714,
    "Ġcle": 1513,
    "Ġswarming": 16274,
    "idays": 21774,
    "Ġdashed": 6010,
    "Ġyelling": 18099,
    "Ġcurrents": 13027,
    "Ġsimon": 5172,
    "Ġburnished": 24001,
    "Ġbridges": 24683,
    "reflection": 13459,
    "Ġcrabs": 19176,
    "irst": 878,
    "Ġimplore": 24873,
    "Ġaccusation": 22382,
    "Ġpatron": 7461,
    "Ġinternal": 2245,
    "¸": 121,
    "besides": 8699,
    "Ġloft": 5642,
    "Ġforeign": 9875,
    "feared": 11807,
    "ising": 2254,
    "Ġdeck": 2138,
    "olds": 9314,
    "Ġexpect": 2304,
    "owners": 16090,
    "Ġenvironments": 24114,
    "Ġsh": 419,
    "believing": 19465,
    "Ġnavel": 24577,
    "odecimo": 11446,
    "cuniary": 26381,
    "gave": 7799,
    "Ġtomahawk": 7538,
    "copy": 5133,
    "pursue": 24976,
    "ances": 1336,
    "fiery": 13585,
    "Ġtracing": 18891,
    "Ġpredef": 18508,
    "Ġdeduce": 8337,
    "blacksmith": 17003,
    "evident": 25521,
    "Ġwreat": 15534,
    "Ġshan": 9252,
    "Ġlearn": 363,
    "Ġcannon": 14156,
    "birth": 15325,
    "erated": 21273,
    "mates": 5073,
    "eng": 1488,
    "dropped": 12267,
    "Ġgravely": 7883,
    "Ġfellow": 2777,
    "ets": 1159,
    "poled": 22909,
    "Ġreveries": 11349,
    "Ġtrusted": 10520,
    "ated": 719,
    "steering": 16638,
    "alled": 5911,
    "Ġgrown": 5628,
    "Ġsplinter": 23749,
    "Ġfacet": 15589,
    "extric": 22771,
    "agitation": 14071,
    "Ġinsulted": 14995,
    "Ġcem": 17825,
    "Ġtrapped": 23079,
    "heidelburgh": 21214,
    "Ġhuman": 1319,
    "Ġher": 427,
    "Ġsales": 12812,
    "Ġunaware": 22059,
    "waist": 13422,
    "Ġmuscles": 12093,
    "coward": 13704,
    "Ġunseason": 22052,
    "progress": 11992,
    "iating": 3211,
    "traced": 19648,
    "Ġnursed": 16887,
    "Ġphantoms": 13490,
    "Ġwharves": 13509,
    "Ġbeseeching": 26312,
    "Ġsinusoidal": 4802,
    "Ġgreenhorn": 23770,
    "Ġjig": 15955,
    "resc": 21241,
    "Ġconfederate": 17356,
    "Ġshrouds": 11346,
    "smote": 23913,
    "Ġriv": 10748,
    "earth": 6502,
    "Ġelemental": 19921,
    "Ġorganically": 3013,
    "Ġguiding": 19243,
    "Ġanoints": 25539,
    "Ġfanning": 23393,
    "Ġopera": 23429,
    "ented": 4347,
    "Ġcontrived": 10306,
    "ignorantly": 25190,
    "Ġskull": 6289,
    "attentive": 17192,
    "Ġdestruction": 6601,
    "Ġdeser": 3886,
    "opened": 7913,
    "Ġremembrance": 8318,
    "Ġwillow": 18535,
    "Ġprejud": 6850,
    "cadence": 26126,
    "Ġtoo": 1163,
    "oping": 5559,
    "Ġmightiest": 12966,
    "Ġreadiness": 13055,
    "Ġdesper": 6177,
    "splash": 25210,
    "Ġprofuse": 23568,
    "indeed": 4488,
    "inese": 12879,
    "dece": 11737,
    "Ġoverhanging": 22363,
    "Ġsatiated": 22905,
    "judge": 13341,
    "coarse": 16489,
    "Ġgurglings": 26467,
    "Ġtragedy": 10670,
    "Ġinsinuating": 19273,
    "justice": 7958,
    "Ġstrands": 25575,
    "Ġlashes": 17969,
    "Ġfetched": 24568,
    "transferred": 24514,
    "Ġdeportment": 22613,
    "burg": 16775,
    "Ġendured": 6073,
    "Ġcomfits": 21856,
    "ston": 15687,
    "Ġledgers": 23941,
    "doctor": 19097,
    "cific": 10088,
    "Ġalpha": 13592,
    "spass": 18689,
    "Ġpit": 3422,
    "Ġagile": 22517,
    "medi": 2629,
    "Ġrisk": 8039,
    "lane": 10708,
    "Ġprejudiced": 24806,
    "wondering": 19847,
    "Ġtub": 7146,
    "Ġhesitated": 10005,
    "anguish": 15987,
    "animation": 16981,
    "Ġconge": 15750,
    "nable": 13765,
    "Ġreceipt": 20358,
    "Ġactuated": 18546,
    "persuaded": 15077,
    "Ġdiab": 10614,
    "alse": 4184,
    "Ġsyllable": 9732,
    "Ġobed": 8537,
    "ament": 2434,
    "them": 3020,
    "Ġbennet": 1580,
    "ackled": 22424,
    "bermaid": 20792,
    "opotam": 22489,
    "Ġforgetting": 3436,
    "Ġarmchair": 8271,
    "Ġinclosed": 19541,
    "ared": 770,
    "Ġhelps": 9370,
    "Ġadmiration": 5329,
    "commod": 16172,
    "etics": 21584,
    "ley": 1817,
    "Ġlubber": 17447,
    "glanced": 19369,
    "Ġcraven": 16472,
    "Ġpercept": 14227,
    "Ġballs": 9018,
    "Ġteneriffe": 26416,
    "Ġaction": 5797,
    "Ġinterrupted": 6344,
    "pondicherry": 26402,
    "using": 5468,
    "oul": 4700,
    "Ġoccur": 1083,
    "worshipping": 16612,
    "Ġdiscount": 22782,
    "Ġgloom": 4200,
    "Ġoaks": 16935,
    "everlasting": 18773,
    "Ġwolfish": 25936,
    "object": 6883,
    "Ġexhilarating": 26339,
    "ment": 689,
    "rene": 5379,
    "Ġsmells": 8893,
    "Ġoutlandish": 12843,
    "mers": 9613,
    "Ġensl": 19276,
    "Ġbutton": 10270,
    "Ġproductions": 22949,
    "rief": 6203,
    "Ġlangsdorff": 15280,
    "infall": 21191,
    "resent": 10771,
    "Ġdoctor": 5067,
    "Ġefficiently": 3714,
    "Ġdeterminate": 23007,
    "hear": 10149,
    "Ġcass": 13882,
    "Ġpractical": 3164,
    "himself": 3969,
    "imitably": 21714,
    "Ġbathe": 25444,
    "Ġro": 600,
    "ĠĠĠĠĠĠĠĠĠĠĠĠĠĠĠĠĠĠĠĠĠĠĠĠĠĠ": 13392,
    "Ġagonizing": 17241,
    "Ġberries": 13411,
    "Ġjup": 15956,
    "Ġmoon": 4610,
    "progression": 20385,
    "shroud": 20315,
    "Ġduration": 20356,
    "wonders": 17146,
    "Ġ37": 24080,
    "ns": 750,
    "ĠâĢľ_": 6697,
    "Ġpasseng": 12976,
    "Ġbritannica": 24681,
    "lour": 15384,
    "Ġexpressed": 4468,
    "tr": 3580,
    "Ġsubtlety": 24779,
    "sper": 4434,
    "heart": 4527,
    "Ġcome": 1244,
    "Ġbouquet": 20686,
    "Ġway": 1086,
    "Ġburns": 16525,
    "Ġmind": 1619,
    "Ġinstruction": 14347,
    "thar": 18218,
    "woes": 21136,
    "narrow": 11510,
    "Ġchanges": 2284,
    "ested": 3479,
    "Ġjura": 14195,
    "Ġempire": 11147,
    "inf": 6233,
    "Ġbr": 1073,
    "Ġtwitching": 25684,
    "sin": 21051,
    "osed": 1962,
    "Ġfring": 11129,
    "pictures": 15094,
    "Ġplied": 22600,
    "mend": 20968,
    "Ġenchanting": 17040,
    "Ġrescued": 24209,
    "aud": 8523,
    "Ġbarb": 4532,
    "Ġfrolic": 23928,
    "ateful": 5927,
    "Ġshares": 23245,
    "search": 8466,
    "rically": 15420,
    "Ġdistracted": 11808,
    "Ġcommunicate": 10580,
    "Ġglassy": 19563,
    "Ġpistols": 17332,
    "Ġconv": 2971,
    "Ġconcuss": 19048,
    "'d": 12431,
    "div": 8076,
    "Ġwre": 5077,
    "Ġgenerous": 6274,
    "Ġrestore": 9383,
    "Ġsustaining": 25334,
    "Ġlucifers": 16590,
    "Ġdemocracy": 25459,
    "uel": 6966,
    "Ġstroll": 13357,
    "landed": 18958,
    "tural": 21069,
    "Ġepsom": 19986,
    "iom": 20917,
    "Ġthence": 8885,
    "Ġcitizens": 25440,
    "Ġanxiously": 8290,
    "Ġsuggested": 8321,
    "Ġintelligences": 12836,
    "Ġbro": 1431,
    "Ġcalculate": 13269,
    "Ġcran": 12005,
    "treat": 12518,
    "Ġdecency": 18482,
    "Ġencompassed": 15257,
    "Ġwasn": 6997,
    "Ġdeposit": 17271,
    "writhed": 26081,
    "Ġhasty": 10479,
    "Ġprofoundly": 16861,
    "inter": 2951,
    "Ġtorrid": 25035,
    "derment": 22165,
    "Ġuninterrupted": 22046,
    "Ġgush": 10205,
    "Ġdependent": 14302,
    "Ġcontented": 9759,
    "tipt": 25086,
    "Ġphrenolog": 12338,
    "frantic": 24285,
    "gyric": 19111,
    "Ġcrop": 10165,
    "Ġharm": 5017,
    "Ġdecorum": 16024,
    "Ġnarwhale": 12297,
    "Ġire": 12674,
    "Ġeludes": 26556,
    "Ġbalm": 22906,
    "Ġstup": 14008,
    "cripp": 20821,
    "abeth": 907,
    "Ġexpose": 10330,
    "Ġunwillingness": 20035,
    "Ġattic": 16099,
    "ribe": 1225,
    "Ġlining": 13954,
    "Ġstrolled": 16772,
    "Ġimpud": 18445,
    "Ġconsequences": 11337,
    "Ġpersuasion": 10501,
    "Ġascent": 19621,
    "Ġtattooing": 15030,
    "Ġskill": 6871,
    "Ġanyhow": 14257,
    "Ġaghast": 16051,
    "cious": 6645,
    "Ġtoe": 13939,
    "ements": 11109,
    "Ġarrang": 2464,
    "Ġefforts": 11806,
    "Ġunderstood": 5655,
    "Ġremem": 4311,
    "patter": 4289,
    "anyone": 16595,
    "Ġimm": 3962,
    "Ġoffering": 3009,
    "Ġharpoone": 2911,
    "Ġslee": 8977,
    "Ġscraggy": 24580,
    "Ġzeros": 3328,
    "quality": 10235,
    "transformers": 8718,
    "Ġseriously": 7061,
    "stre": 5451,
    "folding": 24928,
    "Ġmizen": 17261,
    "Ġbedside": 19125,
    "emason": 18189,
    "avoiding": 25237,
    "hid": 13737,
    "Ġvon": 14084,
    "fat": 8079,
    "lorn": 12492,
    "Ġazores": 20196,
    "Ġexeget": 24086,
    "unctions": 18158,
    "cred": 9111,
    "Ġbodings": 21394,
    "Ġboneless": 19608,
    "Ø": 153,
    "Ġemaciated": 20641,
    "Ġmachines": 1777,
    "Ġugliness": 20430,
    "Ġniag": 21533,
    "Ġstamping": 20034,
    "holland": 24045,
    "Ġpreliminary": 10060,
    "careful": 14869,
    "Ġquadrant": 11406,
    ",âĢĿâĢĶ": 14223,
    "excited": 13384,
    "Ġdelicately": 24127,
    "sworn": 24259,
    "told": 7811,
    "level": 2652,
    "brimming": 23579,
    "Ġsuppression": 23003,
    "Ġoverhead": 11777,
    "Ġsuperstitions": 17073,
    "Ġspam": 7630,
    "ror": 7350,
    "Ġoverflowing": 17240,
    "Ġunattended": 15847,
    "Ġsensitivity": 3069,
    "Ġnecks": 18182,
    "istence": 2589,
    "Ġinterval": 4052,
    "Ġchatbots": 11351,
    "respectively": 24699,
    "phil": 7925,
    "pertaining": 22188,
    "Ġlysander": 13143,
    "Ġinfrequent": 3825,
    "studied": 17152,
    "umnal": 18301,
    "Ġbraz": 19361,
    "Ġconsiderably": 7714,
    "lodged": 25908,
    "Ġfielding": 16235,
    "_,": 2801,
    "Ġsoft": 1459,
    "Ġdur": 11595,
    "Ġprinces": 23223,
    "Ġle": 333,
    "oved": 5215,
    "establishment": 26114,
    "Ġeighty": 19479,
    "attain": 21264,
    "Ġgreeted": 23214,
    "secut": 7867,
    "Ġinsert": 19907,
    "Ġtexture": 19162,
    "uling": 2257,
    "Ġinstruments": 12228,
    "Ġindicated": 10471,
    "Ġearned": 19408,
    "Ġper": 589,
    "Ġbrut": 18770,
    "Ġslack": 8958,
    "ier": 1134,
    "being": 3912,
    "istry": 22113,
    "miraculous": 26398,
    "saturday": 14861,
    "Ġmeridian": 25713,
    "complacency": 19916,
    "Ġowes": 20088,
    "ā": 194,
    "lop": 20950,
    "table": 5795,
    "Ġendeared": 26500,
    "Ġpott": 21471,
    "ugnance": 12371,
    "Ġitems": 9695,
    "Ġspire": 18307,
    "impart": 21712,
    "Ġspasmodically": 17317,
    "icable": 6388,
    "Ġcopy": 10166,
    "83": 13684,
    "Ġsurviv": 13439,
    "tempted": 26405,
    "Ġmechanical": 7937,
    "meat": 18679,
    "Ġretreats": 16930,
    "Ġprocessions": 18434,
    "Ġbade": 9174,
    "ipt": 12483,
    "Ġtinkling": 25213,
    "jol": 20927,
    "Ġburden": 8611,
    "ashion": 3859,
    "pitch": 13303,
    "Ġvagabond": 20206,
    "discovered": 8325,
    "Ġone": 568,
    "Ġunctuousness": 17237,
    "Ġelectric": 15198,
    "Ġincorporated": 25710,
    "Ġgases": 21605,
    "itu": 1229,
    "pilot": 25909,
    "Ġclinging": 10293,
    "Ġproposed": 7459,
    "retaining": 21248,
    "Ġquivered": 18468,
    "linging": 16082,
    "Ġreeling": 18035,
    "Ġdiary": 24738,
    "Ġbegun": 7242,
    "tossed": 10998,
    "rrh": 26145,
    "Ġcook": 3713,
    "Ġcrash": 12006,
    "Ġranges": 2884,
    "Ġsignify": 16497,
    "Ġanalogy": 25640,
    "Ġpolic": 13165,
    "aker": 3663,
    "Ġsulphur": 24934,
    "oqu": 7554,
    "limbs": 20194,
    "alarmed": 21506,
    "Ġgentlemen": 3642,
    ".]": 15302,
    "Ġleaning": 5228,
    "Ġrecorded": 11295,
    "Ġcurling": 9350,
    "pidation": 18888,
    "Ġloveliness": 13612,
    "concl": 12874,
    "Ġfluid": 11214,
    "Ġtries": 9153,
    "Ġstare": 10866,
    "paws": 21031,
    "deploy": 22145,
    "rane": 17655,
    "usal": 7638,
    "neural": 3066,
    "headed": 4316,
    "determ": 7106,
    "poss": 4779,
    "Ġcus": 21346,
    "announce": 24561,
    "Ġdissol": 18552,
    "20": 20755,
    "quaker": 15767,
    "Ġrejoinder": 24598,
    "blows": 17168,
    "Ġscrews": 25178,
    "supportable": 12374,
    "Ġwarp": 8113,
    "Ġwonderfully": 10432,
    "Ġdrunkard": 20180,
    "Ġmeanest": 12915,
    "Ġev": 4830,
    "somewhat": 11162,
    "Ġfold": 5531,
    "imag": 6990,
    "Ġolder": 9330,
    "saw": 5894,
    "weary": 22689,
    "Ġceaseless": 13492,
    "Ġorchard": 22098,
    "city": 15330,
    "hot": 8084,
    "Ġswerve": 14440,
    "Ġcruel": 5121,
    "Ġlistless": 16478,
    "Ġ102": 24410,
    "Ġwho": 613,
    "Ġrounding": 16276,
    "clearly": 25196,
    "Ġclank": 15968,
    "restoration": 23234,
    "Ġconveniently": 20082,
    "Ġdramat": 23218,
    "Ġsplice": 19310,
    "reputation": 15518,
    "peaceful": 20450,
    "save": 13788,
    "rained": 5162,
    "Ġdraws": 19439,
    "ton": 1727,
    "Ġmappings": 2146,
    "Ġtiny": 11555,
    "footsteps": 25200,
    "frost": 15110,
    "Ġemploys": 19434,
    "ish": 551,
    "Ġlibr": 16005,
    "Ġintegration": 9871,
    "unwholesome": 26499,
    "Ġartic": 5315,
    "Ġvalleys": 14922,
    "Ġgovernment": 15180,
    "ultaneously": 4192,
    "Ġrugged": 18720,
    "obst": 11936,
    "Ġmccarthys": 19665,
    "Ġarist": 14164,
    "Ġangels": 11180,
    "tur": 5688,
    "onde": 21254,
    "Ġfiner": 13058,
    "Ġjuncture": 17132,
    "Ġinclud": 1514,
    "Ġ24": 13195,
    "Ġpassionate": 11275,
    "supernatural": 19782,
    "adru": 15735,
    "Ġstepfather": 7220,
    "es": 288,
    "Ġreservo": 16833,
    "Ġshelves": 15000,
    "Ġmuslin": 19386,
    "Ġvowed": 14087,
    "Ġsill": 10767,
    "Ġox": 7153,
    "winter": 10742,
    "invest": 11562,
    "Ġtolerable": 6948,
    "Ġcottagers": 6761,
    "Ġadd": 629,
    "soundest": 24796,
    "Ġjac": 1899,
    "levi": 7048,
    "gg": 1996,
    "didst": 19352,
    "Ġcobb": 14275,
    "Ġ98": 24594,
    "Ġthereof": 22372,
    "odings": 4399,
    "resist": 8276,
    "Ġisland": 4047,
    "Ġsigmoid": 2458,
    "wondered": 17118,
    "looked": 6083,
    "Ġstra": 2993,
    "Ġmethods": 3160,
    "yden": 21146,
    "pered": 4196,
    "Ġcrescentic": 20624,
    "haut": 20904,
    "Ġwhisker": 23938,
    "future": 13720,
    "Ġrepute": 18037,
    "cham": 10855,
    "Ġunderneath": 16340,
    "wound": 21129,
    "image": 9689,
    "rons": 21042,
    "Ġ-": 1947,
    "Ġsm": 704,
    "Ġaccomp": 4714,
    "Ó": 148,
    "Ġexcellence": 11453,
    "uding": 16152,
    "Ġlodged": 11253,
    "Ġassoc": 6402,
    "Ġstreatham": 17452,
    "Ġpaus": 4297,
    "Ġflor": 8564,
    "Ġirreparable": 20002,
    "Ġanticipation": 17058,
    "Ġlisten": 4675,
    "Ė": 215,
    "Ġequalled": 13317,
    "non": 9614,
    "ats": 4251,
    "tier": 12519,
    "peculiar": 6885,
    "aintance": 3570,
    "brim": 23577,
    "Ġperpet": 7644,
    "urp": 1472,
    "Ġsurve": 9877,
    "peter": 24300,
    "gument": 20887,
    "Ġfurled": 22817,
    "Ġexcepting": 14682,
    "cement": 2744,
    "Ġjoes": 19233,
    "overhearing": 19054,
    "Ġnovelist": 24776,
    "Ġramble": 9316,
    "Ġsou": 1889,
    "truck": 15444,
    "venerable": 26410,
    "Ġfren": 10807,
    "stepfather": 19192,
    "Ġretreat": 6070,
    "Ġsculpt": 15950,
    "Ġmaker": 15547,
    "dreaded": 25141,
    "Ġear": 1422,
    "Ġfringe": 17274,
    "Ġperuvian": 18453,
    "yonder": 21147,
    "Ġband": 5292,
    "haven": 20914,
    "striving": 24670,
    "gratulation": 24349,
    "century": 20050,
    "âĢľ": 344,
    "flukes": 25206,
    "Ġstranded": 9778,
    "arched": 10817,
    "assumed": 22311,
    "loa": 18538,
    "Ġflood": 7715,
    "clopÃ¦": 13061,
    "awakened": 14456,
    "stranger": 9886,
    "Ġeagerness": 6609,
    ".}": 20747,
    "Ġauto": 23304,
    "Ġraging": 14308,
    "Ġdialogue": 12408,
    "Ġdictionary": 15116,
    "dropping": 14985,
    "parameter": 2724,
    "Ġwarden": 17227,
    "hack": 20898,
    "foreseen": 14256,
    "rocket": 13947,
    "Ġvesu": 21951,
    "Ġsmall": 893,
    "ine": 407,
    "anything": 5518,
    "buckets": 26124,
    "bearance": 22497,
    "Ġcase": 1943,
    "Ġhealthful": 24062,
    "Ġarrogance": 26233,
    "netherfield": 9816,
    "Ġalb": 14019,
    "Ġbennets": 9809,
    "Ġordering": 18997,
    "Ġinduced": 8674,
    "Ġutensils": 23516,
    "Ġcryst": 9920,
    "Ġfreedom": 9085,
    "Ġspace": 1517,
    "Ġcoming": 2617,
    "Ġducks": 25161,
    "Ġmapple": 11152,
    "Ġmann": 18417,
    "Ġtheories": 13852,
    "Ġidolator": 20001,
    "lizzy": 6653,
    "friends": 8306,
    "Ġfingertips": 24021,
    "ck": 436,
    "Ġruskin": 25809,
    "twas": 15440,
    "pockets": 16214,
    "Ġencouraging": 2263,
    "¿": 128,
    "alarms": 21508,
    "Ġwindlass": 7255,
    "bly": 6111,
    "corner": 13401,
    "gam": 10098,
    "Ġinscrutable": 10675,
    "disp": 7977,
    "oss": 10118,
    "nuts": 15401,
    "Ġchronicled": 25329,
    "Ġexposes": 22628,
    "Ġob": 861,
    "Ġhappens": 2187,
    "Ġamusing": 11804,
    "Ġwintry": 17437,
    "talking": 10010,
    "te": 995,
    "attery": 18487,
    "Ġath": 15807,
    "sequ": 2398,
    "continue": 16863,
    "gno": 13730,
    "Ġvice": 6549,
    "âĢĻâĢĶ": 12741,
    "Ġcompass": 4408,
    "dia": 2134,
    "Ġshavings": 14113,
    "Ġaided": 17747,
    "carp": 9113,
    "Ġalleviated": 26205,
    "strade": 5065,
    "Ġfain": 5809,
    "Ġincidentally": 16956,
    "abhorred": 17339,
    "Ġwindows": 4971,
    "Ġstraining": 11329,
    "Ġincrust": 22554,
    "Ġconfluent": 19042,
    "consideration": 14958,
    "Ġweaver": 11691,
    "ahit": 9385,
    "upid": 6582,
    "words": 7983,
    "leep": 4636,
    "v": 90,
    "Ġniagara": 26460,
    "iable": 3337,
    "Ġlethar": 21750,
    "enter": 7858,
    "Ġ*": 1272,
    "Ġmus": 3399,
    "Ġbo": 797,
    "Ġabsurdly": 19963,
    "asant": 17961,
    "Ġspoils": 24805,
    "Ġgreek": 10633,
    "fastened": 19327,
    "Ġsurplus": 26304,
    "Ġclaw": 22347,
    "gling": 10100,
    "wind": 4250,
    "igated": 15711,
    "Ġcorners": 18876,
    "Ġpalms": 8647,
    "aced": 2404,
    "Ġcollecting": 12290,
    "Ġbeget": 9228,
    "acency": 12913,
    "contrad": 19293,
    "Ġplainer": 23707,
    "Ġobser": 2072,
    "Ġobst": 6285,
    "ither": 1553,
    "cake": 20806,
    "Ġcircumstances": 3924,
    "Ġsauntering": 18328,
    "Ġtraffic": 23086,
    "several": 5544,
    "mbling": 3348,
    "Ġunjust": 8485,
    "voices": 21120,
    "Ġtimes": 2300,
    "Ġdilatory": 24704,
    "orers": 14106,
    "state": 13982,
    "fourth": 11330,
    "Ġoccupations": 9461,
    "deadly": 17101,
    "Ġforcibly": 10064,
    "rad": 2152,
    "Ġsupple": 23002,
    "sus": 6229,
    "achable": 14140,
    "Ġscanning": 18400,
    "Ġarose": 7359,
    "Ġwhimsical": 20431,
    "aciousness": 18607,
    "Ġlingu": 11617,
    "Ġfairest": 20466,
    "Ġclergy": 7642,
    "Ġsomnambul": 26578,
    "bbings": 19278,
    "Ġdiff": 3115,
    "ze": 1371,
    "Ġchamois": 16802,
    "Ġacquaintance": 4132,
    "Ġhierarchical": 1929,
    "Ġsplitting": 4382,
    "preserve": 25304,
    "Ġfortifications": 23625,
    "wam": 10138,
    "stun": 18021,
    "Ġlights": 8963,
    "derest": 18315,
    "amore": 21847,
    "mont": 19171,
    "Ġignorance": 6620,
    "Ġdented": 17893,
    "remote": 23192,
    "Ġfifty": 4625,
    "Ġleg": 2332,
    "Ġincumbent": 16066,
    "pest": 6964,
    "Ġsyrian": 18355,
    "Ġspectacles": 12102,
    "Ġimproved": 7656,
    "!_âĢĶ": 19976,
    "Ġpaint": 7707,
    "Ġcloser": 8663,
    "Ġcomplexion": 8211,
    "bowl": 14894,
    "Ġexult": 10232,
    "Ġprivate": 5346,
    "asht": 4083,
    "convalescence": 24885,
    "Ġeyeing": 6460,
    "Ġin": 291,
    "hunsford": 24386,
    "tales": 17688,
    "Ġhose": 12632,
    "Ġadjac": 18293,
    "who": 2441,
    "Ġdandy": 17894,
    "Ġelder": 7222,
    "Ġvague": 6406,
    "Ġhabitations": 24788,
    "Ġmystic": 7502,
    "Ġdetermined": 2219,
    "Ġdrive": 5055,
    "Ġvisage": 18763,
    "nevertheless": 8286,
    "contrast": 25595,
    "ten": 1563,
    "Ġpeculiarly": 8287,
    "Ġencamped": 22805,
    "Ġdipped": 15599,
    "Ġprominence": 18957,
    "Ġinsp": 2101,
    "Ġindulged": 13421,
    "Ġtall": 4037,
    "Ġsiber": 17757,
    "achment": 5464,
    "dman": 10091,
    "Ġmake": 1283,
    "_,âĢĻ": 12437,
    "Ú": 155,
    "Ġbrilliant": 11416,
    "Ġcreep": 22725,
    "mast": 3602,
    "lyph": 10854,
    "att": 1457,
    "Ġsources": 10150,
    "ribbed": 16416,
    "Ġcorroborated": 26054,
    "Ġtartar": 17325,
    "Ġselfishness": 12293,
    "Ġplantation": 11425,
    "Ġheard": 1399,
    "ered": 1680,
    "task": 13796,
    "Ġwise": 6811,
    "Ġassist": 3565,
    "iloquent": 21729,
    "acute": 22598,
    "pain": 7349,
    "Ġcatherine": 2814,
    "added": 11662,
    "jephro": 26394,
    "ingale": 21302,
    "rics": 13042,
    "Ġisn": 7866,
    "Ġlodger": 24095,
    "Ġdust": 5909,
    "Ġpuzzled": 7316,
    "Ġpoky": 21482,
    "Ġtransport": 11280,
    "hypothe": 25906,
    "Ġapproximates": 2414,
    "Ġutility": 23515,
    "Ġantagon": 19553,
    "Ġenforced": 21942,
    "Ġpoisonous": 24888,
    "Ġexamined": 6335,
    "Ġspring": 4120,
    "Ġcompacted": 23510,
    "eous": 13715,
    "Ġraise": 6167,
    "Ġsang": 12540,
    "Ġsuggestive": 11299,
    "..": 5783,
    "races": 21633,
    "Ġoysters": 20582,
    "ĠĠĠĠĠĠĠĠĠĠĠĠĠĠĠĠĠĠĠĠĠĠĠĠĠĠĠĠĠĠĠĠĠĠĠĠĠĠĠĠĠĠĠ": 12159,
    "Ġcreamy": 14332,
    "Ġdenote": 19335,
    "Ġcontributed": 16013,
    "Ġnegatived": 23049,
    "Ġstronger": 8581,
    "Ġmab": 12565,
    "Ġrepresentations": 1877,
    "Ġryder": 10261,
    "bib": 17494,
    "Ġinsensibly": 20079,
    "exerc": 16019,
    "Ġmir": 9649,
    "Ġexaggerated": 25651,
    "Ġfarewell": 9523,
    "Ġlightened": 23263,
    "Ġinsignificant": 20459,
    "hib": 15371,
    "Ġpitiless": 19391,
    "occupied": 12308,
    "suffered": 24330,
    "Ġdisinclination": 22540,
    "Ġcashier": 20201,
    "esc": 618,
    "Ġspirit": 3726,
    "Ġuncork": 23433,
    "Ġsne": 6372,
    "neg": 12869,
    "Ġfamiliar": 5511,
    "Ġlastly": 16208,
    "Ġrusty": 14967,
    "cstasy": 11447,
    "Ġindel": 13009,
    "Ġstationary": 19697,
    "Ġwhalemen": 3911,
    "Ġportion": 7491,
    "iriously": 18174,
    "formation": 22225,
    "ullied": 23107,
    "lacing": 17592,
    "atiate": 12553,
    "Ġassent": 12738,
    "fury": 17549,
    "Ġtoiling": 15639,
    "justified": 19004,
    "Ġorganize": 8994,
    "Ġheiress": 20700,
    "princ": 8624,
    "clad": 14462,
    "increas": 10456,
    "Ġelev": 5536,
    "Ġunh": 9256,
    "ezing": 10576,
    "Ġoverlapping": 26240,
    "gather": 20877,
    "discern": 14854,
    "Ġindignant": 12244,
    "Ġmediocrity": 26610,
    "Ġappare": 12824,
    "Ġoccasions": 7988,
    "Ġfastened": 7066,
    "Ġbalancing": 2426,
    "Ġbedroom": 7276,
    "yp": 1046,
    "terdam": 18132,
    "ms": 541,
    "Ġoriginated": 24124,
    "Ġobjects": 5578,
    "cook": 8270,
    "Ġtheology": 21279,
    "less": 928,
    "Ġdost": 7636,
    "glings": 23854,
    "Ġbeaufort": 13572,
    "unforeseen": 21892,
    "Ġpelt": 15614,
    "Ġtire": 17722,
    "Ġcontinual": 6777,
    "pequod": 7053,
    "Ġplayfully": 19241,
    "Ġneutral": 12746,
    "Ġinvestigated": 25387,
    "Ġblindly": 12114,
    "Ġpence": 17907,
    "Ġspires": 11734,
    "road": 6678,
    "Ġpurplish": 19142,
    "Ġenabled": 9299,
    "Ġannoy": 17201,
    "shaw": 6863,
    "Ġpipeline": 2620,
    "Ġutilize": 4799,
    "Ġconjoined": 21810,
    "neurons": 3135,
    "tese": 21086,
    "approb": 11044,
    "Ġlately": 6387,
    "obliv": 23099,
    "Ġbony": 12592,
    "Ġpoured": 8805,
    "prudently": 21037,
    "supers": 22637,
    "bergen": 14330,
    "Ġglued": 20592,
    "Ġwing": 6667,
    "Ġjerk": 16952,
    "light": 3018,
    "Ġ1950": 11361,
    "Ġportcull": 23866,
    "ible": 1114,
    "Ġ&": 6513,
    "Ġausten": 5881,
    "unreasonable": 18165,
    "tornadoes": 26154,
    "Ġloud": 4702,
    "Ġnormalizes": 1863,
    "Ġrights": 10399,
    "Ġholes": 16412,
    "Ġdiscredit": 22783,
    "Ġbeheld": 4493,
    "ach": 435,
    "Ġlift": 8815,
    "Ġdissembling": 26256,
    "Ġboon": 22642,
    "ours": 3429,
    "Ġthrone": 12218,
    "Ġtennes": 23552,
    "Ġarithmetic": 18346,
    "Ġfellows": 8257,
    "Ġgrain": 15835,
    "Ġtinker": 15135,
    "Ġsc": 529,
    "Ġvibration": 17100,
    "furnish": 25339,
    "Ġsolid": 6443,
    "Ġbears": 6828,
    "Ġsolved": 8934,
    "Ġquenched": 22421,
    "leful": 17844,
    "ong": 537,
    "Ġhot": 4255,
    "beaut": 8514,
    "committed": 18735,
    "any": 3341,
    "antarctic": 22103,
    "willing": 6593,
    "Ġretains": 20033,
    "Ġgrapes": 15219,
    "racting": 10357,
    "Ġkno": 5241,
    "Ġdived": 9180,
    "rog": 15644,
    "Ġemerg": 13428,
    "Ġblessed": 6930,
    "Ġgallery": 10527,
    "Ġtemporary": 7981,
    "Ġbiting": 17863,
    "widely": 25344,
    "Ġnoiseless": 10360,
    "Ġbuy": 8300,
    "Ġenemies": 9041,
    "entreat": 17978,
    "Ġneedle": 8275,
    "begone": 12884,
    "Ġblankets": 24612,
    "Ġreceptive": 1569,
    "swear": 16920,
    "Ġju": 10289,
    "Ġaffright": 9335,
    "confusion": 13374,
    "Ġdenominated": 15232,
    "Ġimpenitent": 26550,
    "Ġsoutherly": 23338,
    "Ġvile": 8474,
    "Ġduplicates": 17219,
    "Ġ28": 19296,
    "Ġgraze": 18227,
    "taste": 10132,
    "Ġjest": 18404,
    "--âĢĺ": 22855,
    "jah": 17583,
    "Ġdreary": 10410,
    "Ġbeings": 2485,
    "Ġwal": 6517,
    "Ġsor": 4144,
    "isons": 17851,
    "Ġdecember": 15009,
    "Ġwomen": 4751,
    "onent": 21251,
    "iners": 4937,
    "amaz": 21848,
    "Ġinsight": 16533,
    "melancholy": 12357,
    "Ġcurt": 18854,
    "Ġser": 1669,
    "rift": 11522,
    "Ġtransparen": 10544,
    "Ġappetites": 20209,
    "testing": 12521,
    "hent": 12539,
    "Ġmorose": 18845,
    "Ġcrawl": 11377,
    "july": 20478,
    "Ġpath": 2114,
    "Ġdiscompose": 25580,
    "things": 6033,
    "/": 19,
    "Ġmonogram": 26576,
    "pshire": 21026,
    "erval": 4018,
    "Ġrevelations": 25224,
    "Ġbestowing": 16973,
    "ident": 3382,
    "desire": 14664,
    "Ġturkey": 19220,
    "Ġunintellig": 22026,
    "folly": 20864,
    "Ġthrusting": 10555,
    "Ġfaint": 5812,
    "insulting": 26056,
    "Ġugl": 12687,
    "Ġmaintaining": 1511,
    "Ġmany": 1103,
    "Ġlees": 18078,
    "fixedly": 24930,
    "woods": 13423,
    "Ġrol": 3556,
    "thine": 15828,
    "import": 5668,
    "Ġunpitying": 25661,
    "Ġdreaming": 11225,
    "Ġgangway": 20161,
    "Ġlimb": 9405,
    "Ġresol": 2664,
    "what": 642,
    "Ġdelight": 2543,
    "Ġmien": 17810,
    "Ġexamine": 7734,
    "Ġwondering": 7971,
    "Ġke": 1153,
    "Ġmelancholy": 5606,
    "scr": 16243,
    "buncle": 13696,
    "Ġconjugal": 25104,
    "Ġminor": 12973,
    "Ġcharity": 8866,
    "on": 267,
    "Ġbankrupt": 16798,
    "Ġsepulch": 15288,
    "Ġflag": 7241,
    "Ġcocoa": 25483,
    "Ġportra": 9012,
    "Ġmaterials": 11290,
    "Ġunsettled": 14125,
    "Ġeloquent": 16115,
    "swell": 17665,
    "leo": 21367,
    "Ġcosmetic": 23473,
    "brance": 7283,
    "¦": 104,
    "Ġgri": 17990,
    "Ġpuppy": 12409,
    "Ġmajority": 13297,
    "Ġenters": 11028,
    "makers": 20984,
    "itch": 10163,
    "Ġany": 688,
    "igations": 18046,
    "Ġbox": 5109,
    "Ġindiscriminately": 20630,
    "verty": 8454,
    "Ġlengthen": 15658,
    "Ġeclipsed": 26378,
    "idate": 21771,
    "Ġclue": 7020,
    "Ġringle": 18211,
    "Ġadrift": 11726,
    "shazz": 14244,
    "Ġimplement": 2947,
    "Ġseren": 7400,
    "app": 1041,
    "lic": 17589,
    "reject": 21239,
    "io": 3803,
    "Ġconviction": 6327,
    "pulous": 15419,
    "cim": 8723,
    "yramid": 8368,
    "appin": 18760,
    "cil": 8724,
    "Ġcracks": 12024,
    "Ġviolet": 19092,
    "Ġgentlemanlike": 12071,
    "Ġstruggled": 9908,
    "Ġperiodically": 19497,
    "Ġrescue": 13347,
    "aving": 2403,
    "Ġdeaden": 23462,
    "Ġstifle": 18076,
    "Ġcheap": 13093,
    "Đ": 209,
    "Ġchivalrous": 20518,
    "hering": 12819,
    "arrange": 23768,
    "Ġshaken": 10267,
    "itty": 3555,
    "impression": 15715,
    "Ġcaw": 13886,
    "Ġlion": 9678,
    "Ġseeking": 7036,
    "mannered": 22857,
    "feature": 3692,
    "aled": 3942,
    "consternation": 16914,
    "tically": 3395,
    "ige": 12685,
    "era": 13850,
    "Ġvariation": 22668,
    "yset": 21148,
    "Ġsneezing": 12252,
    "supposed": 13320,
    "amouch": 21849,
    "Ġrudimental": 25111,
    "Ġadvance": 5484,
    "Ġvictim": 6098,
    "Ġpressing": 9264,
    "restored": 18979,
    "had": 1952,
    "superior": 9528,
    "Ġpugn": 21483,
    "hastily": 19705,
    "Ġreaches": 18034,
    "oices": 7347,
    "÷": 184,
    "whether": 5320,
    "Ġscrolled": 22288,
    "Ġsal": 3936,
    "probability": 17024,
    "sentiment": 12919,
    "Ġglide": 22984,
    "Ġwhom": 1831,
    "Ġelevated": 7317,
    "Ġprovide": 7749,
    "Ġeuropean": 20049,
    "Ġxxxix": 24971,
    "ny": 4014,
    "Ġchilly": 25563,
    "Ġretirement": 25379,
    "apt": 725,
    "Ġarc": 14163,
    "Ġwretch": 6378,
    "deliver": 19507,
    "Ġforemast": 12010,
    "urean": 18125,
    "Ġcrime": 4618,
    "Ġascertain": 9709,
    "Ġdaylight": 10353,
    "Ġencourage": 10383,
    "abbering": 21800,
    "Ġoakum": 16936,
    "Ġphaeton": 17467,
    "Ġreplied": 2264,
    "fect": 2298,
    "Ġresuming": 12898,
    "Ġtwig": 11854,
    "Ġstructured": 2974,
    "ryphon": 4161,
    "Ġhieroglyph": 11975,
    "ead": 2599,
    "Ġwindings": 18911,
    "great": 3518,
    "clouded": 20334,
    "ee": 1658,
    "Ġstopping": 2750,
    "Ġsmile": 4269,
    "obser": 11101,
    "oftentimes": 19424,
    "Ġloses": 15877,
    "discharging": 26306,
    "inces": 13831,
    "lonely": 20959,
    "Ġirre": 7467,
    "Ġsolicit": 22890,
    "Ġharder": 14452,
    "\"": 6,
    "Ġexpiration": 22629,
    "ength": 2311,
    "Ġcanterbury": 22171,
    "somewhere": 12017,
    "Ġenjoys": 19453,
    "Ġnoticed": 5549,
    "Ġwriters": 13546,
    "Ġserpentine": 11362,
    "Ġcomb": 1031,
    "Ġconce": 3424,
    "Ġmilliner": 19886,
    "pul": 8757,
    "Ġdiscl": 9800,
    "nered": 18489,
    "ifford": 15788,
    "Ġaffronted": 22894,
    "lined": 12488,
    "eminently": 25108,
    "across": 10327,
    "out": 467,
    "Ġpremises": 10490,
    "coburg": 13602,
    "Ġrequired": 7226,
    "find": 6953,
    "Ġpikes": 21481,
    "Ġfasten": 11134,
    "Ġtugged": 17291,
    "ojo": 7348,
    "ital": 4819,
    "Ġrestrict": 16380,
    "pense": 10371,
    "professional": 20278,
    "Ġoutlast": 22317,
    "Ġfingers": 5672,
    "Ġinnermost": 12165,
    "Ġbreakfast": 3973,
    "Ġconceited": 12096,
    "pronounce": 25193,
    "Ġrecommendation": 17027,
    "Ġtweezers": 26558,
    "Ġblew": 9048,
    "Ġinde": 7370,
    "thence": 23403,
    "Ġpointing": 5661,
    "bury": 9110,
    "Ġparcels": 25466,
    "Ã": 132,
    "Ġembarrassment": 10629,
    "Ġafrican": 20140,
    "Ġaverred": 18867,
    "Ġcrazed": 19177,
    "arranged": 19321,
    "Ġexpand": 9310,
    "ensical": 18568,
    "Ġoverpowering": 15253,
    "Ġmill": 6668,
    "et": 307,
    "Ġjeopardy": 13600,
    "Ġtout": 17721,
    "Ġdivided": 8635,
    "abases": 3007,
    "subsided": 25832,
    "Ġcurtains": 22999,
    "Ġinasmuch": 10827,
    "Ġsanguinary": 25930,
    "icient": 777,
    "Ġham": 3423,
    "Ġapiece": 16815,
    "Ġoutwardly": 25001,
    "human": 7089,
    "Ġrecurred": 18978,
    "Ġsaints": 20677,
    "ety": 3522,
    "Ġregularity": 22786,
    "Ġutterance": 14767,
    "va": 4744,
    "Ġpatagonia": 25857,
    "Ġreflections": 5946,
    "announcement": 24563,
    "Ġunerringly": 18263,
    "Ġabsorbed": 12335,
    "enderby": 25216,
    "Ġropes": 10750,
    "recollect": 17226,
    "fel": 8737,
    "bloom": 24690,
    "Ġrequest": 6051,
    "Ġoil": 3376,
    "Ġirreduc": 5491,
    "Ġgarden": 3826,
    "Ġconting": 18473,
    "Č": 205,
    "iter": 4391,
    "Ġsteeply": 23726,
    "Ġsalutations": 25383,
    "dish": 12457,
    "Ġconducted": 10505,
    "Ġmeasuring": 22885,
    "increase": 20271,
    "inkers": 22618,
    "Ġdesigned": 7740,
    "theast": 21752,
    "Ġresponded": 13642,
    "Ġxxv": 19720,
    "Ġmoisture": 12363,
    "Ġice": 3604,
    "Ġinduce": 7762,
    "Ġnav": 5819,
    "merit": 19283,
    "Ġunexplored": 26520,
    "gs": 7337,
    "Ġfulf": 6772,
    "Ġtranslations": 12056,
    "etency": 21585,
    "Ġpursuing": 9441,
    "Ġfriendship": 7245,
    "Ġgeomet": 3196,
    "shabbily": 26248,
    "commer": 22807,
    "aggo": 5097,
    "Ġ1": 1017,
    "friendly": 13289,
    "Ġbetween": 790,
    "Ġname": 2084,
    "Ġmilky": 9950,
    "semic": 21825,
    "Ġchink": 15936,
    "igators": 18048,
    "od": 352,
    "Ġrounded": 14441,
    "def": 1452,
    "Ġmorocc": 22977,
    "Ġhorrid": 7999,
    "Ġdive": 10175,
    "Ġconsort": 18725,
    "Ġsuicide": 12794,
    "Ġsund": 8249,
    "ruded": 15901,
    "Ġsurpr": 2545,
    "Ġcluster": 13575,
    "Ġfloating": 6605,
    "Ġsyntax": 958,
    "Ġindians": 14413,
    "Ġstays": 16564,
    "lest": 5290,
    "Ġcoincidences": 26365,
    "ruff": 15899,
    "Ġdiddled": 22670,
    "miles": 10714,
    "asper": 7855,
    "Ġmutual": 8296,
    "Ġfind": 1458,
    "Ġannals": 17900,
    "Ġaugust": 10600,
    "Ġchains": 8251,
    "Ġdeb": 4765,
    "Ġmushroom": 13240,
    "distraction": 24203,
    "Ġrebounds": 25968,
    "Ġmorbid": 16238,
    "nur": 11508,
    "Ġthyself": 6603,
    "Ġturbulence": 26599,
    "Ġplant": 8903,
    "uish": 5431,
    "along": 6013,
    "pier": 17637,
    "Ġabstracted": 17185,
    "lydon": 13992,
    "Ġbags": 24537,
    "circuit": 24191,
    "favour": 9552,
    "Ġintu": 12768,
    "sh": 647,
    "Ġworshippers": 25694,
    "conception": 22476,
    "Ġheadlands": 22901,
    "Ġglit": 8562,
    "Ġorders": 5341,
    "Ġnoon": 6560,
    "Ġdiscern": 7926,
    "rese": 15511,
    "Ġtexas": 25923,
    "Ġconsummation": 17428,
    "Ġshows": 8484,
    "Ġhighland": 18713,
    "Ġfrosts": 19805,
    "Ġjoosy": 23636,
    "Ġonset": 12716,
    "Ġfortitude": 9888,
    "Ġfixing": 13160,
    "Ġdistances": 22507,
    "Ġboa": 22640,
    "inserted": 18889,
    "ighted": 8478,
    "memory": 13621,
    "adays": 14016,
    "cring": 20813,
    "scornful": 26577,
    "inst": 4293,
    "Ġestimated": 16596,
    "asion": 5714,
    "Ġengravings": 15069,
    "Ġwiping": 25766,
    "orrah": 17877,
    "85": 13685,
    "prospect": 23399,
    "Ġphrases": 2799,
    "Ġmerits": 13198,
    "Ġverify": 12092,
    "Ġconjectured": 10000,
    "wise": 2571,
    "Ġillinois": 19138,
    "â": 163,
    "chorus": 19814,
    "asburgh": 15651,
    "Ġdigress": 24649,
    "Ġwaters": 3596,
    "Ġbaptized": 25775,
    "wall": 10139,
    "ract": 991,
    "Ġincluded": 8959,
    "obedience": 17413,
    "Ġchoking": 15938,
    "Ġconsumed": 10352,
    "cures": 20807,
    "Ġbellies": 13360,
    "Ġrational": 8481,
    "Ġdrowning": 19906,
    "Ġmerry": 5869,
    "ask": 857,
    "Ġterrified": 14674,
    "Ġdarling": 12609,
    "Ġshol": 21999,
    "umb": 3405,
    "oat": 13767,
    "gration": 9124,
    "boo": 16353,
    "sensibility": 25026,
    "Ġactionable": 24560,
    "resses": 16157,
    "Ġwhen": 514,
    "Ġrept": 13986,
    "Ġlost": 2635,
    "Ġbenediction": 18785,
    "Ġforlorn": 14018,
    "prophecy": 22839,
    "reckoning": 25271,
    "Ġappet": 9733,
    "Ġmanx": 7905,
    "Ġproportional": 2519,
    "mas": 5212,
    "Ġindirectly": 8942,
    "proceed": 8979,
    "Ġshaping": 22007,
    "despond": 19803,
    "eline": 2603,
    "Ġamongst": 8962,
    "okes": 9280,
    "if": 375,
    "only": 3311,
    "Ġder": 1499,
    "Ġquietude": 19363,
    "encoun": 12302,
    "Ġcustody": 13651,
    "Ġanteced": 26178,
    "Ġnet": 3626,
    "Ġboat": 1276,
    "awing": 18917,
    "Ġhonor": 5664,
    "oak": 21005,
    "ancho": 4938,
    "Ġpacifics": 24373,
    "Ġtropic": 17065,
    "dragged": 16610,
    "avating": 18606,
    "ĺ": 251,
    "oy": 1016,
    "elf": 564,
    "cast": 2929,
    "Ġemptied": 24347,
    "teenth": 11878,
    "soldiers": 25912,
    "orated": 12596,
    "Ġneskyeuna": 26461,
    "Ġtravelling": 11309,
    "Ġmed": 4176,
    "Ġpropos": 7062,
    "Ġroar": 9756,
    "Ġg": 310,
    "Ġhar": 5815,
    "jolly": 20933,
    "sequent": 6830,
    "rers": 14721,
    "Ġfondness": 16782,
    "Ġstunsail": 25544,
    "leagues": 21376,
    "Ġdifficult": 3572,
    "Ġfe": 490,
    "inger": 6812,
    "Ġpresided": 20210,
    "Ġchimneys": 16974,
    "cupboards": 25402,
    "Ġfemin": 13440,
    "vices": 21119,
    "Â": 131,
    "_).": 5887,
    "conjecturing": 20137,
    "Ġweb": 9243,
    "_,âĢĿ": 6219,
    "Ġfac": 6381,
    "ially": 9249,
    "Ġinterpreter": 23215,
    "Ġgravel": 14105,
    "Ġbracing": 16583,
    "ension": 6570,
    "sch": 21053,
    "ese": 4443,
    "Ġjutting": 22305,
    "Ġhollow": 5648,
    "constit": 24605,
    "Ġsubmerged": 11876,
    "Ġimped": 18443,
    "Ġmustering": 18663,
    "Ġhoping": 11105,
    "Ġbreathe": 9015,
    "Ġregimentals": 19860,
    "attended": 8955,
    "Ġadapted": 11040,
    "Ġbraided": 16584,
    "progra": 9398,
    "atched": 6375,
    "Ġthus": 2038,
    "Ġmoot": 22434,
    "Ġchanged": 5242,
    "project": 16428,
    "Ġrecovering": 11868,
    "departure": 15238,
    "Ġbarricade": 14662,
    "browed": 25895,
    "Ġdiggings": 24650,
    "times": 8099,
    "Ġcurving": 16248,
    "code": 15332,
    "Ġsmoked": 10325,
    "jackets": 24896,
    "Ġefficient": 1033,
    "Ġwatching": 4856,
    "Ġregardless": 19326,
    "Ġdeposited": 25485,
    "keep": 3851,
    "ogany": 18677,
    "dost": 14537,
    "ames": 2956,
    "âĢĿ;": 11673,
    "Ġinformation": 1048,
    "Ġsteadfastly": 10654,
    "Ġelderly": 13498,
    "stat": 21647,
    "Ġpresentiment": 18989,
    "vital": 17702,
    "mira": 20981,
    "Ġcanaller": 25468,
    "Ġhyper": 19742,
    "stupid": 12681,
    "Ġtechn": 9376,
    "library": 13004,
    "purposes": 25024,
    "part": 2570,
    "Ġlascar": 9202,
    "Ġrally": 21972,
    "Ġpreach": 14175,
    "Ġireland": 17338,
    "Ġcredited": 25157,
    "Ġcreaking": 14331,
    "ject": 875,
    "Ġhastened": 9007,
    "Ġboards": 14304,
    "Ġearnestness": 12130,
    "play": 5099,
    "wart": 17707,
    "Ġson": 2984,
    "Ġincommod": 25308,
    "Ġshuddering": 9054,
    "Ġpos": 1011,
    "emper": 18188,
    "real": 10152,
    "conclusive": 25674,
    "Ġdepose": 22611,
    "Ġparched": 11731,
    "Ġsubproblems": 12962,
    "Ġinvoked": 19146,
    "ise": 707,
    "gabriel": 15364,
    "Ġsuspending": 19246,
    "Ġdiscoveries": 13363,
    "idirectional": 2417,
    "Ġemblem": 20501,
    "degrad": 22146,
    "irements": 22216,
    "Ġgills": 17995,
    "Ġwarehouses": 20421,
    "plain": 1356,
    "rederick": 14081,
    "Ġfriends": 2653,
    "Ġworkflow": 2555,
    "shire": 3022,
    "Ġebony": 18011,
    "wheeler": 16192,
    "Ġturing": 7565,
    "Ġslang": 23162,
    "Ġoverlook": 10961,
    "Ġsoon": 1230,
    "aries": 6245,
    "Ġshadows": 8013,
    "Ġoft": 9197,
    "inconsiderable": 21194,
    "Ġchest": 5185,
    "Ġdomineer": 23604,
    "Ġabsorb": 25115,
    "pull": 6796,
    "Ġvoluntarily": 12145,
    "Ġhighway": 14349,
    "Ġmyst": 4049,
    "Ġ83": 24459,
    "Ġdiffident": 23785,
    "Ġwherever": 8525,
    "Ġfertile": 20586,
    "Ġclaimed": 14203,
    "Ġrekindled": 21680,
    "Ġrevive": 13483,
    "Ġchurned": 18386,
    "Ġkilling": 13337,
    "Ġprofoundest": 16862,
    "A": 37,
    "Ġid": 1909,
    "Ġcalm": 3448,
    "Ġ17": 5740,
    "Ġoffend": 16145,
    "Ġlothario": 26186,
    "Ġinconven": 7586,
    "Ġlory": 12657,
    "ocris": 23711,
    "Ġsaxe": 13632,
    "asses": 7017,
    "Ġemergency": 25731,
    "Ġflask": 3040,
    "Ġpoints": 5248,
    "Ġminimizing": 3465,
    "Ġscroll": 14194,
    "loss": 22511,
    "rs": 7807,
    "Ġtuileries": 24824,
    "mped": 16650,
    "Ġeither": 2604,
    "Ġregent": 18598,
    "Ġasked": 2276,
    "duodecimo": 16006,
    "nor": 2740,
    "Ġreminding": 19800,
    "meaning": 2908,
    "mblings": 19783,
    "Ġ/*": 10142,
    "unteered": 26497,
    "ladder": 19787,
    "Ġpreservative": 24630,
    "ĠâĢĺ": 1628,
    "Ġtipped": 17730,
    "inuating": 16206,
    "Ġperfect": 2551,
    "Ġleisure": 6540,
    "%": 9,
    "Ġlands": 6595,
    "Ġtransitory": 16027,
    "Ġvalued": 12187,
    "Ġpapered": 20134,
    "Ġgrinning": 9056,
    "Ġscot": 5643,
    "sank": 17664,
    "Ġconstraints": 2739,
    "Ġindignantly": 16941,
    "Ġstaring": 8829,
    "bottom": 11428,
    "Ġasserted": 16951,
    "guessed": 25873,
    "Ġclapping": 14204,
    "Ġscraped": 16905,
    "antique": 18288,
    "ordingly": 18519,
    "vit": 13804,
    "Ġdisrespect": 18554,
    "ip": 557,
    "beries": 22721,
    "Ġplaned": 24059,
    "izz": 7614,
    "influence": 13582,
    "Ġelevation": 14902,
    "/`)": 13664,
    "oarsman": 25262,
    "Ġbehavior": 8002,
    "dz": 4740,
    "Ġtalker": 23374,
    "sp": 894,
    "Ġhorror": 3774,
    "Ġpolished": 11184,
    "Ġgryphon": 4298,
    "Ġsimplicity": 2925,
    "delay": 16697,
    "Ġtravell": 5576,
    "atives": 2232,
    "Ġamong": 1665,
    "Ġcoast": 4657,
    "ĭ": 238,
    "eel": 11486,
    "Ġsag": 6514,
    "Ġexcess": 3345,
    "Ġaccent": 10296,
    "Ġcedars": 20295,
    "poling": 12224,
    "admirably": 24947,
    "Ġinnumerable": 13356,
    "hitherto": 17286,
    "Ġsuccessfully": 19432,
    "Ġclothe": 4713,
    "Ġcontinually": 5041,
    "rods": 21541,
    "Ġunhe": 22010,
    "Ġcoffin": 4428,
    "Ġcontrive": 16014,
    "here": 2544,
    "Ġbreaches": 14523,
    "Ġmeadows": 11424,
    "Ġguest": 7248,
    "crossing": 19414,
    "sooner": 14781,
    "Ġtrack": 7449,
    "Ġmaintains": 2143,
    "Ġadjust": 2154,
    "Ġinst": 914,
    "acher": 6867,
    "putation": 7624,
    "Ġhandling": 8916,
    "except": 5383,
    "scor": 13021,
    "Ġpantaloons": 20299,
    "icates": 11620,
    "Ġroute": 11383,
    "Ġravings": 18645,
    "lemagne": 26438,
    "Ġbonds": 17871,
    "Ġcomposition": 1685,
    "Ġagony": 5388,
    "Ġquestion": 2778,
    "pend": 6367,
    "malice": 17605,
    "sake": 13786,
    "Ġintegrated": 13534,
    "Ġlawy": 9458,
    "steady": 14712,
    "makes": 10713,
    "Ġdiscoursing": 26268,
    "hit": 20891,
    "Ġthank": 3793,
    ":": 30,
    "endar": 18365,
    "Ġgpt": 4349,
    "maj": 18801,
    "port": 10721,
    "Ġengage": 9338,
    "Ġillustrious": 17110,
    "heaved": 21213,
    "related": 24016,
    "Ġmurderers": 16813,
    "Ġcusack": 26435,
    "Ġreach": 4045,
    "Ġattending": 3287,
    "Ġcomical": 11681,
    "leap": 21370,
    "Ġsaying": 3247,
    "chors": 11647,
    "ourselves": 9014,
    "ernally": 22622,
    "Ġexclamation": 8702,
    "powder": 17647,
    "accountable": 7110,
    "lotts": 23829,
    "Ġstarted": 4148,
    "Ġultimate": 12353,
    "Ġdepl": 14047,
    "Ġclose": 3037,
    "follow": 5680,
    "ium": 4865,
    "Ġze": 8547,
    "Ġpend": 15610,
    "Ġtanning": 17731,
    "aimed": 3950,
    "Ġtimbers": 14842,
    "Ġflea": 23775,
    "venant": 22631,
    "Ġlevers": 18080,
    "Ġaccidentally": 9508,
    "chose": 18043,
    "inct": 3296,
    "Ġrobustness": 18886,
    "plexy": 18581,
    "Ġens": 2789,
    "Ġintolerable": 8483,
    "Ġbreak": 2870,
    "Ġflint": 23012,
    "oried": 10804,
    "Ġfoe": 7679,
    "ule": 6800,
    "Ġhardships": 14454,
    "Ġlass": 15652,
    "naught": 20996,
    "paper": 9139,
    "Ġarchbishop": 18722,
    "Ġcas": 8412,
    "why": 2830,
    "Ġfelony": 18955,
    "Ġcapacious": 19178,
    "Ġpaying": 9941,
    "Ġunman": 12778,
    "Ġreaction": 15699,
    "Ġcliffs": 15971,
    "leading": 15566,
    "conceal": 25117,
    "Ġtriangular": 14862,
    "Ġignoble": 19402,
    "fisher": 7546,
    "Ġpract": 1872,
    "Ġblasphemer": 26117,
    "Ġgaping": 13972,
    "allest": 5485,
    "Ġasia": 11686,
    "separ": 9233,
    "Ġradiant": 16811,
    "Ġsubtile": 20383,
    "Ġhulls": 13929,
    "Ġwooden": 4731,
    "Ġalice": 1484,
    "tied": 21073,
    "Ġfruit": 12330,
    "alive": 10829,
    "Ġchann": 15939,
    "Ġbeer": 10222,
    "practical": 17224,
    "Ġneighbor": 25804,
    "Ġbecause": 2208,
    "Ġexhibiting": 19841,
    "Ġintrodu": 1927,
    "Ġfretfully": 25448,
    "Ġforefinger": 16444,
    "Ġaerial": 21201,
    "Ġobject": 1395,
    "pede": 19932,
    "Ġdig": 6136,
    "stache": 15694,
    "officer": 17055,
    "Ġequality": 16362,
    "Ġstilly": 25974,
    "Ġasiatic": 20433,
    "Ġpowder": 11277,
    "Ġlanguage": 650,
    "Ġparacelsus": 15270,
    "Ġunnatural": 7189,
    "oriented": 2949,
    "Ġcouples": 16854,
    "seek": 8841,
    "bread": 10688,
    "Ġcordage": 19681,
    "Ġbuffalo": 11431,
    "Ġnormalizing": 1822,
    "Ġriggers": 24159,
    "Ġcombining": 22842,
    "advise": 24220,
    "day": 1859,
    "zek": 16279,
    "helmsman": 24289,
    "Ġexceptions": 13234,
    "murderers": 25728,
    "ittleness": 22383,
    "Ġrejection": 19987,
    "Ġparticularly": 5056,
    "mathematics": 26305,
    "abst": 21792,
    "Ġf": 283,
    "Ġpropensity": 18996,
    "Ġwrites": 23200,
    "Ġoutrid": 22319,
    "Ġcurious": 3364,
    "estation": 15924,
    "enched": 10157,
    "Ġbabes": 24425,
    "Ġtogether": 1880,
    "enjoyments": 25434,
    "Ġz": 1000,
    "Ġpolluted": 25594,
    "ulated": 6030,
    "mine": 5618,
    "ertion": 12043,
    "ught": 2751,
    "ulent": 21866,
    "Ġmerchantmen": 19862,
    "Ġshrill": 12146,
    "mounting": 25208,
    "Ġseamen": 5063,
    "Ġconstruction": 9389,
    "Ġcomfort": 3440,
    "beat": 10988,
    "Ġrecalled": 8541,
    "Ġslide": 10396,
    "alth": 3259,
    "Ġsacr": 7193,
    "accordingly": 19214,
    "forgot": 11035,
    "Ġchallenge": 25472,
    "Ġsentence": 6188,
    "Ġdeceive": 12727,
    "ē": 212,
    "Ġcourt": 4167,
    "Ġhowl": 12859,
    "urches": 12688,
    "ighb": 10425,
    "remains": 10401,
    "certain": 3676,
    "Ġhurricane": 16435,
    "comp": 3817,
    "Ġbir": 17855,
    "Ġrisks": 9967,
    "exped": 16527,
    "gar": 5615,
    "nostril": 26561,
    "Ġassociation": 24710,
    "Ġbrowne": 13306,
    "Ġreader": 11938,
    "prepared": 13594,
    "Ġbristling": 20530,
    "whalebone": 19120,
    "Ġnaturally": 2462,
    "trowsers": 17693,
    "Ġapproached": 5844,
    "Ġadaptively": 3967,
    "Ġtraits": 23078,
    "squee": 15433,
    "astrous": 15890,
    "rolling": 9063,
    "Ġfuller": 11158,
    "Ġdivinest": 25722,
    "Ġdisappointed": 7098,
    "Ò": 147,
    "Ġbringing": 5870,
    "sure": 5522,
    "Ġdusting": 24597,
    "Ġ50": 24315,
    "adr": 6994,
    "Ġwer": 12557,
    "Ġexhaust": 6399,
    "Ġspirits": 3698,
    "pun": 9620,
    "Ġincantation": 26259,
    "Ġger": 21594,
    "Ġrejo": 5916,
    "anger": 2170,
    "ulged": 12735,
    "Ġunfulfilled": 26511,
    "Ġcongratulatory": 19770,
    "drove": 16995,
    "âĢĺ": 939,
    "Ġsaxon": 25469,
    "Ġinaudible": 21502,
    "Ġvisibly": 22856,
    "Ġtrophy": 20010,
    "Ġtie": 10752,
    "Ġinqu": 2967,
    "Ġconnecting": 18633,
    "Ġclut": 7641,
    "Ġwelcomed": 9485,
    "Ġentr": 14344,
    "illed": 2624,
    "Ġsoften": 23126,
    "conclusion": 25672,
    "Ġindustry": 18839,
    "syntax": 5867,
    "ends": 6039,
    "Ġsant": 21217,
    "sive": 4142,
    "third": 8168,
    "Ġmince": 22834,
    "Ġinvitation": 5188,
    "stiff": 12680,
    "Ġhugest": 17017,
    "wonder": 6371,
    "Ġcuriosity": 2503,
    "olera": 21837,
    "Ġpig": 5705,
    "undertaking": 23789,
    "Ġscratches": 22290,
    "Ġpurposed": 23555,
    "Ġcenturies": 8626,
    "Ġderbyshire": 6587,
    "Ġphenomenon": 17919,
    "Ġskylarking": 19490,
    "kward": 6957,
    "illings": 14145,
    "Ġmolasses": 25629,
    "oof": 15408,
    "isions": 6131,
    "tol": 17674,
    "reward": 15512,
    "Ġabominably": 20069,
    "confess": 12180,
    "Ġchap": 5934,
    "Ġmeditate": 16709,
    "Ġdigest": 24648,
    "Ġrolled": 4429,
    "factories": 19846,
    "Ġsoda": 25535,
    "drink": 10598,
    "Ġprime": 10406,
    "Ġdistributions": 1052,
    "Ġingolstadt": 8333,
    "bright": 8992,
    "mat": 2198,
    "Ġgunwale": 7324,
    "Ġrot": 10969,
    "Ġvacancy": 9047,
    "idelburgh": 10564,
    "orily": 15577,
    "Ġexclamations": 11363,
    "Ġ----": 7145,
    "armed": 7250,
    "Ġgazed": 6478,
    "Ġdirt": 15598,
    "Ġjustify": 11074,
    "Ġmillion": 14990,
    "Ġrent": 11642,
    "Ġcanal": 8182,
    "Ġfatal": 5872,
    "Ġsatire": 22903,
    "Ġwarmer": 19187,
    "Ġbirth": 6524,
    "uary": 11540,
    "Ġthack": 21520,
    "sings": 4249,
    "Ġbelonged": 6921,
    "Ġjoyous": 14666,
    "fly": 13717,
    "Ġthom": 21519,
    "Ġintimacy": 8704,
    "Ġpredecessor": 26252,
    "apply": 18761,
    "Ġmason": 10160,
    "approbation": 11460,
    "Ġalco": 21786,
    "particularly": 8340,
    "deaux": 22151,
    "Ġbeatrix": 24207,
    "Ġtit": 8400,
    "Ġbells": 19604,
    "Ġfetch": 7769,
    "Ġcongregated": 20100,
    "nose": 17612,
    "body": 2306,
    "tie": 21071,
    "disguise": 26307,
    "Ġbaggy": 24538,
    "Ġobliterated": 17408,
    "Ġliveliness": 13647,
    "decided": 13219,
    "Ġcolle": 8928,
    "Ġensuring": 11193,
    "Ġescorted": 23508,
    "Ġtapping": 10754,
    "staring": 18023,
    "Ġwhilst": 9221,
    "icious": 7379,
    "minutes": 7511,
    "ray": 2432,
    "Ġmidst": 7986,
    "Ġprogeny": 17391,
    "kily": 20939,
    "ook": 21006,
    "iscreet": 20685,
    "Ġweight": 656,
    "Ġhypocr": 19475,
    "repeat": 25155,
    "Ġwrecks": 16820,
    "ricane": 16281,
    "dun": 17518,
    "Ġpositions": 2059,
    "Ġbleeding": 14883,
    "Ġapproving": 18511,
    "Ġfors": 21775,
    "hole": 5586,
    "Ġheal": 21684,
    "Ġasyl": 12739,
    "Ġelephant": 8256,
    "Ġshoved": 23492,
    "Ġsigh": 10339,
    "Ġcrammed": 16473,
    "ie": 729,
    "foot": 9049,
    "Ġagencies": 18543,
    "Ġhues": 21492,
    "Ġsnoring": 23742,
    "Ġfat": 3462,
    "eted": 7591,
    "shaken": 16029,
    "Ġhartshorn": 26182,
    "circumstantial": 24444,
    "Ġtesting": 23238,
    "Ġbeaten": 10531,
    "Ġfacing": 10174,
    "anim": 6522,
    "dead": 8180,
    "Ġbumpkins": 25282,
    "frequently": 9982,
    "Ġunmindful": 22066,
    "igger": 21704,
    "Ġjacket": 6489,
    "Ġwherefore": 8526,
    "Ġwashington": 17205,
    "Ġguarded": 9829,
    "Ġsignificant": 8637,
    "abashed": 21796,
    "Ġwriter": 11949,
    "Ġren": 3846,
    "smo": 10128,
    "Ġtrees": 4201,
    "Ġstoop": 16313,
    "Ġpadd": 9672,
    "Ġsystems": 810,
    "ĠĠĠĠĠĠĠĠĠĠĠĠĠĠĠĠĠĠĠĠĠĠ": 16230,
    "Ġchristendom": 16696,
    "Ġcathed": 14550,
    "Ġdaresay": 14707,
    "beaten": 20318,
    "ceiving": 3901,
    "street": 6495,
    "oda": 15753,
    "reast": 17760,
    "Ġtriumph": 5143,
    "share": 14239,
    "Ġbristles": 25845,
    "elijah": 19476,
    "Ġfeverish": 11350,
    "Ġmalicious": 10560,
    "Ġforced": 4351,
    "Ġinforming": 18744,
    "bitterly": 20340,
    "Ġfangs": 12602,
    "Ġrese": 2234,
    "Ġrascally": 26508,
    "clopÃ¦dia": 15260,
    "Ġrashness": 25461,
    "Ġcorrid": 9827,
    "cob": 10089,
    "Ġunass": 14116,
    "Ġluxur": 12345,
    "observation": 17272,
    "Ġers": 15463,
    "Ġmeryton": 4437,
    "Ġeconomical": 25288,
    "Ġinquired": 7484,
    "Ġstates": 1851,
    "Ġworks": 5859,
    "Ġinconsist": 17938,
    "Ġeffaced": 18527,
    "Ġreported": 11984,
    "aborate": 14025,
    "Ġjoint": 12038,
    "Ġiroquois": 26474,
    "Ġslashing": 23173,
    "engineer": 23151,
    "Ġplaid": 22603,
    "Ġarrog": 18345,
    "nowhere": 18419,
    "aking": 975,
    "egyptians": 25899,
    "whosoever": 22244,
    "Ġcoinc": 11003,
    "ception": 6563,
    "Ġanyone": 4459,
    "Ġcosmopol": 16455,
    "rip": 9244,
    "Ġbuild": 6474,
    "Ġkingdom": 12023,
    "Ġseparated": 9467,
    "Ġespecial": 26412,
    "mistake": 24529,
    "Ġsummary": 19407,
    "Ġwhar": 7387,
    "Ġdeposed": 16091,
    "Ġeffeminacy": 20720,
    "Ġmarshalled": 25316,
    "london": 9612,
    "Ġdoubling": 23322,
    "Ġengland": 3857,
    "Ġaberde": 22281,
    "heat": 15500,
    "Ġdevices": 2942,
    "Ġdissolved": 18555,
    "aught": 2679,
    "Ġunimpe": 22072,
    "pse": 21011,
    "Ġsprings": 16688,
    "Ġxiii": 25592,
    "solitude": 23299,
    "indulged": 22379,
    "cherish": 24552,
    "seized": 14038,
    "apolog": 22336,
    "Ġfiftieth": 24702,
    ".,": 5988,
    "Ġrepeating": 11215,
    "Ġchili": 25562,
    "pet": 4868,
    "Ġinsatiate": 19272,
    "resting": 23233,
    "Ġamounted": 18515,
    "Ġtwinkling": 12328,
    "Ġcourtship": 24137,
    "Ġopium": 8997,
    "Ġrewarding": 13441,
    "Ġjavelins": 26106,
    "shake": 22459,
    "Ġdocumentation": 20557,
    "Ġconfirmation": 17213,
    "urons": 3131,
    "ernity": 18616,
    "dough": 15338,
    "deserts": 25382,
    "Ġfancying": 12117,
    "Ġadjusting": 3415,
    "Ġnightfall": 23133,
    "Ġunavailing": 26217,
    "Ġreal": 1631,
    "Ġgodlike": 23360,
    "special": 14708,
    "strong": 6323,
    "uger": 21106,
    "ific": 489,
    "modern": 1174,
    "Ġcards": 7580,
    "Ġpink": 12623,
    "Ġtant": 12530,
    "Ġbritish": 11339,
    "?_": 8070,
    "Ġadmired": 7982,
    "Ġcasket": 19727,
    "Ġtown": 2451,
    "ĠĠĠĠĠĠĠĠĠĠĠĠĠĠĠĠĠĠĠĠĠĠĠĠĠĠĠĠĠĠĠĠĠĠĠĠĠĠĠ": 19261,
    "lotte": 3334,
    "Ġpirate": 14998,
    "Ġdepicted": 14287,
    "Ġread": 1447,
    "Ġrepublican": 17415,
    "Ġthrob": 21521,
    "minded": 9040,
    "nings": 9134,
    "philips": 20038,
    "Ġhalting": 16275,
    "Ġspeak": 2226,
    "ascribed": 24707,
    "tut": 15437,
    "thunder": 10265,
    "ist": 448,
    "Ġchronic": 9932,
    "Ġrespond": 11178,
    "Ġdependence": 18630,
    "Ġtarshish": 12033,
    "dient": 441,
    "tackles": 25625,
    "Ġcrimes": 8591,
    "Ġwhispers": 14703,
    "pleasantness": 19773,
    "Ġinvests": 14871,
    "Ġappetite": 12388,
    "eded": 9676,
    "Ġdirect": 1471,
    "Ġbegat": 18864,
    "stonecraft": 24356,
    "Ġspectators": 19410,
    "Ġconfines": 23308,
    "Ġlays": 15993,
    "riptions": 14798,
    "gement": 13731,
    "flames": 14715,
    "Ġarrest": 7408,
    "Ġinference": 9674,
    "Ġcomforted": 19394,
    "interview": 19300,
    "Ġverdure": 10615,
    "94": 4804,
    "Ġvariations": 22669,
    "Ġaustrian": 24302,
    "ree": 874,
    "Ġelig": 9781,
    "Ġnigh": 4879,
    "Ġdiligently": 11407,
    "crowning": 25749,
    "Ġalleg": 14020,
    "rical": 11521,
    "Ġknight": 9730,
    "kilt": 4867,
    "Ġtying": 15476,
    "Ġwisely": 13277,
    "passing": 14815,
    "Ġdoze": 14179,
    "Ġblaze": 16223,
    "wich": 11546,
    "Ġwhile": 606,
    "irth": 5634,
    "methodically": 20666,
    "shaped": 10311,
    "pt": 387,
    "Ġsolemnity": 9944,
    "six": 7142,
    "bit": 3930,
    "Ġgrey": 4513,
    "Ġdoll": 10815,
    "Ġforenoon": 19127,
    "preserver": 20216,
    "ascended": 24705,
    "Ġpang": 15609,
    "Ġtransition": 14237,
    "Ġcoron": 4465,
    "Ġsod": 11564,
    "Ġrotation": 25475,
    "Ġburied": 7718,
    "tic": 8391,
    "Ġderick": 9367,
    "assault": 22309,
    "Ġpersisting": 18898,
    "sufficient": 6637,
    "Ġgentle": 1893,
    "henomena": 20275,
    "Ġdegraded": 19229,
    "maid": 8554,
    "Ġdiscovering": 13362,
    "Ġfour": 2212,
    "Ġlogical": 14489,
    "Ġreusable": 13561,
    "¶": 119,
    "Ġattended": 5391,
    "Ġmovement": 9971,
    "kine": 15379,
    "Ġpolitely": 8996,
    "Ġcultivated": 17367,
    "Ġcommentaries": 20163,
    "Ġspoke": 2748,
    "interference": 23740,
    "famous": 16918,
    "imble": 10860,
    "Ġgladly": 14683,
    "ole": 9616,
    "||": 4870,
    "Ġbeholding": 8672,
    "Ġfarm": 7840,
    "Ġpersever": 10006,
    "Ġasse": 8160,
    "Ġrepulses": 26071,
    "batt": 20780,
    "Ġpleasantness": 24140,
    "ckles": 22093,
    "Ġnecessary": 4474,
    "Ġcolours": 12980,
    "sing": 5138,
    "ail": 565,
    "Ġpew": 9318,
    "Ġbusks": 23342,
    "Ġdivined": 19446,
    "atherine": 2594,
    "Ġcoquet": 22585,
    "urrection": 12413,
    "q": 85,
    "Ġbills": 17862,
    "Ġced": 10786,
    "narr": 12501,
    "Ġbroadened": 23988,
    "Ġrocks": 6862,
    "Ġhoisting": 9865,
    "Ġstil": 15722,
    "Ġbirch": 26175,
    "Ġchowder": 10283,
    ",âĢĿ": 579,
    "ost": 5361,
    "Ġscrupulous": 20072,
    "Ġshiny": 14109,
    "Ġminut": 2202,
    "poke": 18798,
    "Ġkindly": 6077,
    "Ġmonsters": 11076,
    "backs": 9394,
    "Ġpoul": 15617,
    "Ġcities": 17829,
    "tim": 13794,
    "unting": 21878,
    "Ġnatures": 16509,
    "Ġhelplessness": 25074,
    "Ġtaught": 6803,
    "judged": 14834,
    "Ġbounds": 9921,
    "Ġemail": 19076,
    "Ġgiddy": 20500,
    "renew": 24450,
    "attached": 11939,
    "irement": 18356,
    "ercely": 12555,
    "haul": 14769,
    "onstrate": 17770,
    "teringly": 21827,
    "Ġwealthy": 18181,
    "conversations": 24748,
    "Ġgord": 21603,
    "Ġpetrified": 19599,
    "Ġtelegraph": 25584,
    "angry": 18295,
    "Ġfame": 21409,
    "ian": 1240,
    "Ġcovariate": 2347,
    "Ġpresuming": 16795,
    "Ġacquaintances": 17353,
    "Ġgreas": 17994,
    "Ġhalloa": 13321,
    "Ġtailed": 21171,
    "rudently": 16712,
    "Ġlifetime": 13606,
    "bol": 8721,
    "Ġchanc": 18385,
    "Ġbrow": 3986,
    "almost": 4943,
    "Ġunt": 2292,
    "Ġwreath": 25937,
    "bro": 4033,
    "erick": 13851,
    "ople": 2317,
    "showing": 22465,
    "Ġpathetic": 19020,
    "Ġsanctioned": 26352,
    "Ġlessons": 7691,
    "Ġmornings": 16239,
    "preading": 18500,
    "Ġaloysius": 15742,
    "Ġsolitudes": 22889,
    "Ġemboldened": 22969,
    "fugitive": 26132,
    "Ġplush": 18610,
    "Ġglittering": 10056,
    "tstone": 21087,
    "ceiling": 21630,
    "fish": 3517,
    "X": 60,
    "Ġpatient": 6892,
    "angular": 11727,
    "Ġbund": 17865,
    "Ġblackstone": 23392,
    "chase": 11648,
    "Ġcourtesy": 9948,
    "Ġevolved": 9895,
    "Ġsole": 3301,
    "spermaceti": 12198,
    "Ġdisguise": 10049,
    "Ġantiquities": 25599,
    "Ġtrance": 12848,
    "pred": 2804,
    "ils": 3185,
    "Ġreserve": 9974,
    "Ġregularly": 7657,
    "congratulations": 20282,
    "Ġ22": 8279,
    "Ġsideboard": 10388,
    "Ġdictating": 20155,
    "twelve": 14624,
    "Ġhardly": 2428,
    "yards": 9626,
    "ect": 380,
    "farintosh": 24553,
    "Ġhawk": 15177,
    "Ġepicurean": 20558,
    "Ġetext": 23953,
    "Ġdignified": 15602,
    "Ġanimal": 2493,
    "Ġdoor": 1739,
    "poured": 17639,
    "iate": 6505,
    "Ġintending": 11709,
    "solut": 3367,
    "warnings": 20354,
    "stars": 18022,
    "grim": 19108,
    "waving": 21134,
    "Ġrefusal": 10345,
    "Ġnailed": 10192,
    "Ġfeatureless": 22614,
    "ugal": 19023,
    "assistance": 20374,
    "Ġswayed": 15050,
    "Ġverily": 16605,
    "Ġchoose": 5982,
    "ishment": 3505,
    "Ġrival": 10488,
    "espe": 3498,
    "Ġiceland": 15150,
    "tures": 21072,
    "charitable": 23936,
    "itering": 17820,
    "reduc": 5459,
    "Ġcontent": 5034,
    "aft": 9586,
    "Ġvaguely": 17369,
    "rier": 9245,
    "remember": 7261,
    "aged": 2607,
    "Ġprepar": 7897,
    "Ġmuff": 8114,
    "Ġwaves": 3917,
    "Ġmal": 5221,
    "erred": 6376,
    "Ġpositional": 2597,
    "kye": 20940,
    "Ġset": 1178,
    "Ġleatherhead": 20017,
    "Ġoccasional": 7288,
    "Ġgrievous": 13266,
    "Ġfunny": 7637,
    "baden": 25616,
    "kered": 18275,
    "embraced": 25807,
    "throughout": 24090,
    "Ġgathered": 8444,
    "they": 1881,
    "Ġaristocratic": 20516,
    "Ġapologized": 25199,
    "Ġsocietal": 11438,
    "ileries": 18061,
    "Ġbland": 11066,
    "Ġanat": 8124,
    "Ġuninter": 18244,
    "Ġtossings": 25357,
    "hundred": 8331,
    "Ġgloves": 8577,
    "Ġtender": 5753,
    "Ġstanders": 19016,
    "Ġdecanting": 22442,
    "Ġrepaid": 19084,
    "Ġbreeds": 23351,
    "Ġwallet": 21301,
    "Ġintrusion": 12770,
    "Ġmatrices": 4969,
    "Ġcommanders": 23871,
    "Ġobviously": 16812,
    "Ġflies": 13030,
    "dogs": 25403,
    "whe": 1074,
    "urpation": 16304,
    "Ġyoke": 18098,
    "Ġmomentary": 11038,
    "Ġeigenvalues": 4998,
    "reflections": 24734,
    "acious": 5562,
    "clim": 18932,
    "queens": 22917,
    "inisc": 15491,
    "harpoone": 6108,
    "Ġcopse": 17068,
    "Ġhandful": 9785,
    "muring": 17603,
    "axed": 8892,
    "accepting": 20138,
    "Ġlegisl": 23535,
    "Ġhellaswag": 24343,
    "Ġlambton": 10660,
    "Ġkate": 15909,
    "aim": 2756,
    "Ġutterly": 6101,
    "inously": 21189,
    "gates": 20874,
    "Ġvainly": 9927,
    "failed": 20865,
    "fs": 17537,
    "Ġrecording": 24434,
    "Ġbequest": 21757,
    "Ġdistinctly": 7310,
    "nades": 20999,
    "used": 3263,
    "Ġflourished": 15129,
    "Ġunfrequent": 24110,
    "room": 2177,
    "Ġconfining": 23309,
    "Ġtoma": 7372,
    "attributed": 23123,
    "traversed": 19650,
    "4": 24,
    "Ġbaff": 10801,
    "dress": 17522,
    "Ġdetection": 3248,
    "Ġfettered": 24569,
    "Ġtransmit": 10307,
    "Ġchat": 6561,
    "Ġbeard": 11658,
    "Ġstrove": 9960,
    "Ġconf": 1820,
    "Ġcoiled": 11824,
    "morn": 20978,
    "Ġte": 1172,
    "Ġburke": 19253,
    "Ġcig": 6520,
    "Ġpassenger": 14373,
    "leaped": 17845,
    "umbria": 23898,
    "Ġcork": 12574,
    "Ġespe": 21158,
    "Ġdiscove": 16159,
    "follows": 24528,
    "Ġankers": 21448,
    "ily": 1034,
    "Ġishmael": 7394,
    "Ġbroods": 23105,
    "sav": 8097,
    "Ġprojected": 16873,
    "Ġdisposition": 5409,
    "ple": 455,
    "small": 6472,
    "Ġactions": 6279,
    "Ġlashing": 11619,
    "ocr": 10470,
    "clu": 20801,
    "tured": 13798,
    "Ġoperated": 14549,
    "Ġreturning": 5326,
    "undant": 14795,
    "Ġresolve": 13174,
    "Ġwriting": 4669,
    "Ġaf": 782,
    "Ġbizarre": 17873,
    "Ġclubb": 22348,
    "pots": 11516,
    "Ġsobbing": 14136,
    "Ġrenewing": 19813,
    "Ġobscurely": 20191,
    "Ġgangs": 21612,
    "Ġrafters": 22655,
    "oper": 7346,
    "dutch": 17221,
    "Ġpreprocess": 22237,
    "Ġaglow": 22518,
    "Ġberm": 21386,
    "Ġtrunk": 7204,
    "Ġformidable": 8220,
    "Ġdozen": 8186,
    "Ġimpatience": 7508,
    "Ġmug": 21315,
    "Ġoscill": 2859,
    "Ġhorsey": 24252,
    "Ġexpanding": 25239,
    "Ġswelling": 11929,
    "Ġcheapside": 23291,
    "Ġdisgu": 8206,
    "Ġstage": 7388,
    "Ġanon": 9669,
    "Ġpattering": 18651,
    "Ġaudacious": 13464,
    "oided": 11511,
    "ra": 314,
    "Ġmatch": 4530,
    "Ġfeasible": 22213,
    "Ġlandless": 23382,
    "speaking": 12103,
    "Ġfet": 5808,
    "Ġpages": 15612,
    "Ġhaving": 1882,
    "elzebub": 26466,
    "Ġalliance": 18269,
    "Ġholder": 6725,
    "aint": 2537,
    "rence": 5556,
    "speeches": 25240,
    "Ġreducing": 1959,
    "Ġ99": 10747,
    "Ġpledged": 20690,
    "Ġpap": 8802,
    "sincere": 16909,
    "Ġcity": 4531,
    "gate": 12471,
    "Ġashore": 5352,
    "philosophy": 13584,
    "Ġsolving": 2477,
    "arest": 4002,
    "Ġgable": 15671,
    ",âĢĻ": 2325,
    "Ġthomas": 17950,
    "Ġdestroy": 5772,
    "Ġsepul": 14093,
    "ditch": 17530,
    "metic": 14987,
    "Ġcurse": 7667,
    "Ġfoolish": 5980,
    "Ġyelled": 9697,
    "Ġspell": 8859,
    "bearings": 25372,
    "Ġ23": 13194,
    "guilty": 19486,
    "Ġemigrant": 25860,
    "welt": 12525,
    "Ġpain": 2301,
    "thousand": 5547,
    "Ġwheelbarrow": 17207,
    "Ġblackness": 9396,
    "Ġcannot": 1664,
    "Ġexhilar": 19686,
    "j": 78,
    "Ġwindward": 6884,
    "ouder": 17902,
    "Ġcountless": 16389,
    "Ģ": 227,
    "battle": 12446,
    "Ġmaddening": 17245,
    "Ġenig": 15803,
    "Ġyards": 5371,
    "Ġconflict": 17276,
    "Ġaxis": 12311,
    "amusement": 15286,
    "atmosphere": 21267,
    "Ġforgiveness": 16659,
    "bourn": 3305,
    "Ġburton": 23657,
    "ordinary": 4407,
    "Ġcocked": 12909,
    "Ġavowed": 16636,
    "Ġapproxim": 1219,
    "Ġpyramid": 8806,
    "Ġcover": 3558,
    "movement": 25578,
    "appe": 2945,
    "ificial": 608,
    "Ġsmut": 22560,
    "Ġrephr": 21682,
    "Ġfurnishes": 19444,
    "Ġinsisted": 12049,
    "Ġlooked": 1804,
    "weed": 14318,
    "ĠĠĠĠĠĠĠĠĠĠĠĠĠĠĠĠĠĠĠĠĠĠĠĠĠĠĠĠĠĠĠĠĠĠĠĠĠĠĠĠĠĠĠĠĠ": 9955,
    "vision": 5620,
    "Ġfills": 12599,
    "Ġconsiderable": 4004,
    "Ġruddy": 17128,
    "Ġsafie": 6619,
    "discovering": 24254,
    "Ġexempl": 21834,
    "Ġedges": 3827,
    "Ġmotion": 4568,
    "rib": 1948,
    "bennet": 5353,
    "Ġdownward": 10334,
    "Ġwhisper": 6206,
    "Ġanimating": 23427,
    "Ġamiable": 4267,
    "Ġjudging": 16597,
    "Ġslowly": 3618,
    "extinguished": 16156,
    "Ġdrawled": 23992,
    "ith": 330,
    "Ġmorcar": 13016,
    "Ġyield": 5093,
    "Ġtennessee": 26598,
    "war": 6802,
    "Ġ76": 24265,
    "Ġdry": 5624,
    "C": 39,
    "Ġextended": 7923,
    "Ġgeological": 14535,
    "Ġcommon": 1414,
    "wl": 17704,
    "Ġcurly": 18855,
    "shutters": 20316,
    "Ġstation": 5299,
    "consp": 18505,
    "Ġheathenish": 13620,
    "ificent": 8184,
    "insensibility": 23072,
    "Ġinjuring": 24271,
    "made": 4809,
    "securing": 19816,
    "Ġmarked": 4621,
    "rus": 5930,
    "Ġturtle": 4202,
    "Ġcognitive": 13638,
    "Ġgrazed": 15837,
    "Ġdrama": 16332,
    "Ġsoapstone": 20514,
    "Ġfeedforward": 2324,
    "Ġvectors": 1772,
    "ches": 2147,
    "Ġswimming": 5507,
    "âĢĶâĢĻ": 8188,
    "relate": 24015,
    "Ġscra": 5841,
    "Ġsemicirc": 16396,
    "Ġcaused": 5048,
    "Ġquestions": 3970,
    "§": 105,
    "domestic": 19828,
    "quely": 10234,
    "Ġate": 8844,
    "Ġpaced": 7583,
    "plun": 15819,
    "dwell": 15345,
    "sand": 21055,
    "Ġtoss": 10187,
    "civilities": 24974,
    "Ġunc": 2125,
    "acks": 11792,
    "Ġconvolutional": 2161,
    "Ġinterven": 10999,
    "vag": 8768,
    "Ġsimply": 7217,
    "beryls": 25310,
    "Ġvertu": 23893,
    "Ġpriest": 7525,
    "Ġduplicate": 17218,
    "Ġarsac": 11746,
    "drunk": 24660,
    "procure": 23400,
    "Ġreptile": 15281,
    "Ġcaution": 11348,
    "Ġhunsford": 6302,
    "violence": 16480,
    "Ġlonging": 14303,
    "smart": 23910,
    "Ġfuss": 13908,
    "Ġsolic": 7933,
    "Ġunclad": 22054,
    "phenomenon": 17650,
    "Ġcom": 368,
    "magnitude": 17251,
    "Ġarchangel": 8544,
    "icest": 21567,
    "Ġremonstr": 16166,
    "Ġvehemently": 26040,
    "Ġscrutin": 26015,
    "Ġsatisfying": 23700,
    "Ġholds": 7976,
    "Ġelect": 10844,
    "Ġwol": 15533,
    "Ġpetulance": 24230,
    "Ġrefers": 1572,
    "unching": 18161,
    "Ġflorida": 20661,
    "Ġconfound": 23307,
    "commanding": 24751,
    "Ġharbor": 10030,
    "Ġthomson": 26456,
    "Ġuniversity": 13126,
    "Ġcompassionate": 24722,
    "»": 124,
    "similar": 13457,
    "sitting": 8387,
    "Ġfurnish": 9022,
    "anning": 10167,
    "orse": 5807,
    "emptied": 23640,
    "Ġpredomin": 16036,
    "Ġjoist": 19234,
    "Ġunaccount": 22027,
    "Ġceremony": 8361,
    "Ġsail": 1670,
    "Ġimprisonment": 22391,
    "Ġreigned": 13990,
    "'m": 9585,
    "Ġphilosophy": 7104,
    "Ġdevelopments": 23260,
    "Ġtumble": 16881,
    "Ġwalk": 1826,
    "ì": 173,
    "ished": 1427,
    "Ġmule": 13865,
    "function": 4520,
    "arts": 6564,
    "Ç": 136,
    "Ġpresents": 8245,
    "osh": 18389,
    "stalls": 26475,
    "Ġbab": 5291,
    "Ġunwound": 24829,
    "Ġdeadly": 5405,
    "appear": 13200,
    "Ġpomp": 12627,
    "sided": 17666,
    "Ġthin": 4346,
    "Ġproperties": 3118,
    "Ġhoney": 12637,
    "Ġsalmon": 24065,
    "Ġinh": 10826,
    "well": 1689,
    "Ġanomaly": 25637,
    "Ġinstantly": 3592,
    "vo": 11542,
    "atherley": 7219,
    "wishes": 13810,
    "Ġdetect": 1175,
    "Ġwrig": 13073,
    "Ġhats": 14620,
    "offing": 23337,
    "inarticulate": 21198,
    "Ġdescription": 7428,
    "Ġproclaim": 18133,
    "Ġinestimable": 17445,
    "Ġcoarse": 14277,
    "Ġmorris": 18846,
    "_.âĢĶ": 23474,
    "ails": 6161,
    "Ġproblem": 1270,
    "safety": 20352,
    "tumbled": 21093,
    "Ġgrasp": 4665,
    "Ġbed": 2150,
    "mists": 17606,
    "Ġconceal": 5974,
    "Ġsponge": 26004,
    "Ġeclips": 20699,
    "Ġcapstan": 9102,
    "Ġunacquainted": 12780,
    "Ġfiendish": 13332,
    "opius": 18518,
    "Ġprotested": 9937,
    "Ġbehooves": 20735,
    "Ġwow": 15532,
    "something": 4282,
    "izure": 21845,
    "goldsmith": 20150,
    "oro": 21398,
    "Ġjanuary": 13657,
    "Ġdiffered": 22714,
    "Ġinfinitely": 8966,
    "destiny": 16701,
    "ario": 14250,
    "Ġregain": 22589,
    "Ġtransaction": 22453,
    "Ġcompens": 14266,
    "Ġresentful": 24632,
    "Ġcrate": 19121,
    "Ġyears": 1894,
    "Ġgar": 10840,
    "enc": 7573,
    "Ġspent": 3961,
    "species": 13262,
    "ahawk": 23319,
    "Ġsteady": 4849,
    "Ġringbolts": 24199,
    "Ġdisconsolate": 20721,
    "Ġquaker": 10973,
    "brÃ¦": 11177,
    "Ġmermaids": 26171,
    "turn": 4290,
    "Ġflourish": 17163,
    "Ġneighbourhood": 5126,
    "irons": 10241,
    "Ġanticipated": 13514,
    "lines": 6958,
    "Ġapo": 9633,
    "Ġkiss": 8183,
    "Ġcastle": 14720,
    "Ġglen": 18848,
    "Ġmemoirs": 26206,
    "Ġnomin": 10193,
    "worth": 8630,
    "Ġpagoda": 19791,
    "horr": 14601,
    "Ġbloodshot": 23802,
    "unhappy": 10240,
    "Ġlab": 1873,
    "religion": 20578,
    "Ġsharks": 4498,
    "ular": 714,
    "Ġconfinement": 19041,
    "Ġexplored": 23519,
    "Ġsigns": 2437,
    "Ġklan": 23664,
    "Ġdriver": 16476,
    "Ġcomposure": 7216,
    "oura": 1062,
    "Ġxerxes": 23414,
    "unity": 4150,
    "Ġislets": 21805,
    "vocation": 25087,
    "Ġdismember": 20218,
    "Ġvolumes": 14803,
    "burgh": 6773,
    "Ġinvestment": 24332,
    "eenth": 12465,
    "Ġtok": 1247,
    "Ġsinews": 20290,
    "Ġameric": 3854,
    "Ġmagistrate": 8234,
    "bantering": 25254,
    "Ġfumbled": 17883,
    "Ġdiv": 3734,
    "Ġhabitu": 19531,
    "Ġsetting": 7047,
    "vens": 21115,
    "Ġwounding": 19589,
    "fri": 20856,
    "Ġsentiments": 7961,
    "Ġunmingled": 18261,
    "conjectured": 25182,
    "Ġfergus": 16869,
    "Ġ121": 24466,
    "Ġho": 1934,
    "Ġsunrise": 9375,
    "Ġformless": 22831,
    "bons": 17489,
    "Ġinn": 4592,
    "taining": 7205,
    "adv": 4538,
    "Ġneedless": 19232,
    "dar": 20826,
    "snatched": 24851,
    "Ġbreckinridge": 14525,
    "Ġlet": 1110,
    "Ġheroism": 24544,
    "atived": 21265,
    "Ġcreditable": 19625,
    "cain": 15329,
    "Ġmonuments": 22982,
    "Ġselected": 9714,
    "Ġmeta": 3291,
    "Ġnocturnal": 20717,
    "relu": 17761,
    "Ġpossible": 2582,
    "dut": 10090,
    "Ġcaged": 21355,
    "Ġprank": 23219,
    "Ġsheath": 14154,
    "ville": 6087,
    "Ġprofund": 13157,
    "osal": 11763,
    "âĢĶâĢľ": 2972,
    "simple": 13456,
    "Ġenlivened": 26209,
    "elze": 21576,
    "fters": 20863,
    "unk": 4540,
    "Ġproud": 5654,
    "aff": 3102,
    "izard": 10885,
    "Ġtribute": 15478,
    "Ġwithdrawn": 10609,
    "Ġrepresenting": 4059,
    "esteem": 26009,
    "rant": 11519,
    "Ġexe": 3992,
    "Ġrests": 13097,
    "Ġfurnished": 6475,
    "Ġlatent": 19658,
    "Ġcommun": 1705,
    "Ġalmanac": 26487,
    "stoke": 18025,
    "heim": 17748,
    "tomb": 21096,
    "Ġhates": 21489,
    "Ġcinque": 20489,
    "precip": 14667,
    "Ġjoyously": 19350,
    "Ġsummoned": 9914,
    "Ġflail": 23010,
    "charles": 14702,
    "bill": 10079,
    "Ġtriumphantly": 11289,
    "bouton": 17504,
    "gan": 2197,
    "Ġfan": 2037,
    "bearing": 9768,
    "Ġplates": 11008,
    "Ġsubt": 11872,
    "Ġyellow": 5302,
    "Ġtortures": 14926,
    "Ġperplex": 2714,
    "eers": 20845,
    "Ġicicles": 25265,
    "Ġstrives": 23698,
    "Ġgreatest": 4091,
    "Ġneighbouring": 12123,
    "Ġsteak": 9832,
    "writer": 14650,
    "Ġchristian": 6479,
    "Ġafternoon": 6053,
    "Ġnarrowed": 24355,
    "paying": 25412,
    "Ġcreations": 18683,
    "Ġinserting": 19908,
    "Ġexcitement": 9384,
    "Ġprobably": 4312,
    "Ġinfinity": 23285,
    "Ġunchanging": 22045,
    "Ġviolence": 5963,
    "Ġreigns": 21674,
    "Ġmid": 2615,
    "Ġmonogra": 22980,
    "oward": 6021,
    "Ġundesired": 12783,
    "Ġhoops": 9392,
    "Ġcontents": 7209,
    "Ġconveying": 19717,
    "adier": 18092,
    "Ġblack": 2034,
    "Ġgrip": 11630,
    "events": 12321,
    "Ġunst": 18236,
    "Ġelix": 22647,
    "Ġreverie": 13461,
    "Ġsheet": 6263,
    "red": 395,
    "Ġterribly": 10427,
    "acceptance": 25186,
    "additional": 20467,
    "Ġcocaine": 20723,
    "Ġdisliked": 12896,
    "Ġbranded": 14382,
    "Ġnewspaper": 12368,
    "Ġwaistcoat": 12275,
    "me": 872,
    "Ġsplin": 8622,
    "fif": 9119,
    "straw": 24098,
    "Ġguineas": 16272,
    "Ġexplained": 5936,
    "wil": 8769,
    "shone": 22457,
    "Ġensue": 18191,
    "Ġdrowned": 9555,
    "Ġmaps": 2965,
    "Ġsame": 1340,
    "Ġprisoner": 8676,
    "cking": 4263,
    "Ġruthless": 15289,
    "appre": 14374,
    "Ġlawless": 19438,
    "restraint": 18980,
    "Ġiv": 4043,
    "grin": 19107,
    "ifications": 9731,
    "Ġrephrased": 26479,
    "Ġvolition": 14801,
    "embers": 21933,
    "sion": 8094,
    "Ġbishop": 13905,
    "Ġlofty": 6218,
    "Ġperusal": 14228,
    "fairly": 17222,
    "Ġliving": 3063,
    "ede": 21509,
    "civilized": 17076,
    "Ġalso": 1342,
    "Ġaccelerate": 23226,
    "Ġyawned": 15054,
    "Ġencircling": 26273,
    "rob": 5534,
    "accomplishments": 25327,
    "Ġpawnbroker": 13662,
    "Ġprob": 970,
    "Ġado": 7626,
    "akers": 9743,
    "Ġintruding": 21995,
    "emph": 21932,
    "Ġrevolving": 9986,
    "ugues": 19024,
    "else": 6534,
    "Ġcontinue": 5398,
    "velope": 17703,
    "Ġignorant": 5344,
    "Ġpat": 1756,
    "inferences": 17741,
    "Ġbriskly": 25312,
    "gently": 13732,
    "Ġallegro": 25795,
    "gang": 17555,
    "Ġnewsp": 9342,
    "Ġtortured": 14927,
    "Ġansw": 2203,
    "Ġdream": 3539,
    "Ġgreeks": 20016,
    "Ġantarctic": 19555,
    "Ġkith": 22196,
    "Ġbury": 12045,
    "Ġsuperfluous": 17417,
    "Ġrationally": 18214,
    "retion": 9365,
    "inary": 3277,
    "lant": 20949,
    "breakfast": 8691,
    "Ġhemis": 21687,
    "benevol": 12231,
    "Ġquadrille": 13544,
    "Ġcontradictory": 20400,
    "Ġgay": 5535,
    "Ġunmanufactured": 20437,
    "Ġahead": 6664,
    "Ġupward": 9724,
    "zar": 11550,
    "Ġtoilette": 20496,
    "conda": 18993,
    "flask": 12104,
    "mortals": 25410,
    "Ġsubstant": 14812,
    "Ġbefall": 8833,
    "Ġsubmitted": 11875,
    "reserved": 13846,
    "acquainted": 7312,
    "floated": 24644,
    "beginning": 13565,
    "cruising": 12284,
    "might": 4077,
    "Ġdeclined": 9924,
    "Ġparticular": 2444,
    "Ġproceed": 3246,
    "Ġcheshire": 13094,
    "Ġhinge": 25542,
    "shoes": 14243,
    "Ġdusk": 12331,
    "Ġbrag": 23837,
    "innocent": 20289,
    "odious": 21816,
    "Ġplot": 14283,
    "Ġimpelling": 22389,
    "Ġhovering": 10181,
    "athom": 12944,
    "Ġstreaked": 19115,
    "reclining": 20577,
    "Ġard": 5164,
    "Ġclutch": 15056,
    "Ġallusion": 7625,
    "Ġrigged": 16719,
    "Ġdarcy": 1341,
    "itten": 3442,
    "Ġscenes": 5730,
    "comparison": 25842,
    "Ġdesigns": 13017,
    "ieves": 4003,
    "Ġnailing": 21530,
    "Ġadvent": 4355,
    "Ġfrocks": 23926,
    "uerus": 26408,
    "Ġfigures": 8633,
    "erxes": 21278,
    "uded": 6287,
    "Ġsincere": 11138,
    "Ġfullest": 14817,
    "Ġhookah": 16972,
    "Ġsemicircle": 26068,
    "Ġped": 7845,
    "Ġleap": 5825,
    "Ġcontemptuous": 24677,
    "Ġcomfortable": 6095,
    "impressed": 12696,
    "Ġspool": 24803,
    "Ġvol": 4188,
    "Ġfifth": 11259,
    "giving": 8742,
    "Ġcarcase": 14447,
    "Ġprofane": 13156,
    "never": 3152,
    "Ġcool": 5734,
    "Ġsepulchre": 20562,
    "overcome": 19052,
    "Ġber": 5698,
    "Ġpovels": 22595,
    "commence": 19995,
    "Ġbig": 5806,
    "killed": 15380,
    "Ġcontrad": 9758,
    "Ġpoison": 7218,
    "Ġprocedural": 12035,
    "Ġunseen": 3525,
    "ruit": 22181,
    "Ġex": 361,
    "Ġtottenham": 24145,
    "Ġbou": 17854,
    "acity": 5735,
    "Ġjenkinson": 11433,
    "superstitious": 17283,
    "Ġpoker": 13925,
    "Ġcomely": 21852,
    "locked": 7677,
    "shame": 16028,
    "Ġcollectively": 19971,
    "Ġcapricious": 20541,
    "touch": 8392,
    "Ġbegan": 2022,
    "spoken": 11864,
    "mort": 10712,
    "activation": 3235,
    "Ġattention": 1171,
    "Ġsubs": 2130,
    "Ġtelegram": 15227,
    "Ġtransactions": 18492,
    "vill": 10737,
    "Ġscrewing": 20211,
    "pict": 8386,
    "quired": 21859,
    "Ġbestir": 13114,
    "Ġsprang": 5064,
    "Ġswandam": 11090,
    "Ġrepugnance": 19088,
    "wis": 12523,
    "Ġgovernments": 20270,
    "Ġgnarled": 25169,
    "Ġfidget": 15193,
    "Ġsteamer": 17191,
    "Ġtorm": 5434,
    "Ġshrew": 22004,
    "Ġprocession": 11779,
    "xic": 9148,
    "mag": 6508,
    "Ġfri": 17880,
    "Ġponderous": 8355,
    "Ġafghan": 22633,
    "Ġmultitud": 18748,
    "pur": 7806,
    "Ġwondrously": 24068,
    "Ġsen": 9159,
    "Ġfootmarks": 19339,
    "Ġdeaths": 14539,
    "Ġconquered": 14029,
    "Ġhooded": 12410,
    "through": 4022,
    "Ġwonders": 7499,
    "ulous": 4449,
    "Ġwitnesses": 9489,
    "Ġhanded": 8217,
    "attempts": 17193,
    "Ġpulled": 5660,
    "Ġyourselves": 9031,
    "sought": 15430,
    "without": 4848,
    "ó": 180,
    "qu": 369,
    "Ġadmission": 23558,
    "Ġunderground": 18985,
    "Ġpitching": 16613,
    "Ġtransformed": 22616,
    "Ġhazard": 20435,
    "Ġbruited": 25774,
    "supp": 4160,
    "land": 1536,
    "vineyard": 25422,
    "Ġmarry": 4417,
    "lightning": 16555,
    "itled": 7577,
    "beings": 12882,
    "confused": 19642,
    "Ġimmeasurable": 26231,
    "res": 2760,
    "chronicle": 26482,
    "damn": 20027,
    "fil": 12467,
    "Ġgarnery": 17390,
    "crown": 13702,
    "acies": 14280,
    "someone": 14565,
    "Ġconjectures": 16927,
    "iasm": 8061,
    "Ġcurved": 18857,
    "forecastle": 10992,
    "Ġrejected": 12298,
    "Ġvolcanoes": 24149,
    "Ġbrutality": 26278,
    "itement": 7835,
    "Ġrefres": 14341,
    "Ġshift": 2280,
    "Ġliberties": 19670,
    "Ġbiological": 1935,
    "Ġphysi": 9991,
    "Ġtawny": 20485,
    "Ġsecre": 5493,
    "Ġinches": 5846,
    "isl": 21378,
    "tps": 11537,
    "Ġloungers": 24863,
    "Ġtrappings": 23085,
    "Ġhateful": 19716,
    "Ġrev": 6988,
    "cask": 12451,
    "Ġmutable": 23958,
    "utted": 15665,
    "Ġhail": 7399,
    "Ġingrat": 16842,
    "Ġpaths": 2566,
    "Ġspleen": 26423,
    "Ġwatches": 11083,
    "Ġmasterly": 23997,
    "downward": 16621,
    "Ġpreacher": 18370,
    "befriend": 22495,
    "Ġcorrespondent": 19825,
    "Ġbiographical": 22769,
    "okingly": 22385,
    "Ġfake": 5811,
    "txt": 12520,
    "trained": 4237,
    "enth": 6681,
    "desirable": 23813,
    "pens": 17634,
    "dire": 15339,
    "Ġsinned": 18954,
    "Ġfight": 5366,
    "Ġobjecting": 18897,
    "Ġroanoke": 22411,
    "Ġmam": 8406,
    "Ġdesirable": 8944,
    "Ġloading": 15878,
    "heaven": 8053,
    "Ġtime": 690,
    "plish": 18201,
    "Ġpond": 13919,
    "coun": 10690,
    "Ġgrounded": 23714,
    "Ġgull": 15674,
    "Ġsurpasses": 25269,
    "rily": 7621,
    "expedition": 26079,
    "Ġface": 1721,
    "Ġespecially": 3934,
    "Ġsashes": 21228,
    "Ġmuzzle": 21324,
    "elop": 1550,
    "Ġindomitableness": 26573,
    "eg": 17531,
    "Ġcaul": 10789,
    "Ġyou": 366,
    "idable": 8146,
    "Ġgranite": 22813,
    "weep": 22687,
    "barbaric": 26360,
    "Ġ95": 19776,
    "Ġunwonted": 15010,
    "Ġtransom": 22452,
    "Ġbones": 4585,
    "apology": 22337,
    "Ġproceeded": 5336,
    "Ġclifford": 22353,
    "Ġcheese": 9380,
    "Ġacted": 7421,
    "get": 1023,
    "civility": 17515,
    "Ġwrit": 8242,
    "national": 21000,
    "ugging": 23293,
    "Ġbewil": 11660,
    "Ġasks": 5115,
    "Ġblessing": 11265,
    "unders": 13315,
    "Ġattack": 5478,
    "Ġextraordinary": 5414,
    "mindful": 19602,
    "shall": 4551,
    "Ġrestoration": 19028,
    "Ġstorm": 4299,
    "Ġissu": 6254,
    "ocations": 23710,
    "Ġoat": 21326,
    "hatchway": 25905,
    "duing": 22415,
    "user": 5105,
    "Ġund": 4118,
    "Ġcopying": 17069,
    "stout": 21648,
    "<EOS>": 2,
    "peril": 18340,
    "conve": 14246,
    "Ġvalid": 1725,
    "iteness": 4392,
    "Ġpeep": 6869,
    "Ġfrench": 4939,
    "Ġwidely": 8033,
    "Ġdavy": 25952,
    "Ġalman": 21785,
    "Ġforbidding": 17080,
    "ruding": 9727,
    "tube": 20414,
    "Ġcautiously": 16979,
    "Ġgrows": 4985,
    "Ġintellectual": 11403,
    "Ġcondemned": 7778,
    "kind": 3863,
    "aux": 14292,
    "Ġaccord": 4024,
    "rights": 23678,
    "Ġenrapt": 21943,
    "Ġleaned": 7607,
    "chooses": 23677,
    "Ġans": 1643,
    "ipelag": 12849,
    "Ġarchitect": 997,
    "Ġcomplicated": 14739,
    "Ġforesight": 13131,
    "Ġappro": 659,
    "ingu": 2120,
    "Ġintent": 6409,
    "Ġlimit": 10445,
    "Ġcomfor": 14057,
    "ggling": 19098,
    "emotions": 15801,
    "Ġmur": 2483,
    "Ġfilters": 3926,
    "Ġrevellers": 21681,
    "Ġformal": 2943,
    "arpaul": 14538,
    "desolate": 25717,
    "Ġpatagon": 14501,
    "ortion": 11761,
    "hung": 8381,
    "bitter": 11242,
    "Ġgiven": 1625,
    "expected": 5780,
    "Ġrector": 21679,
    "Ġincomp": 12902,
    "Ġjulia": 22306,
    "lun": 20948,
    "retrospect": 23144,
    "Ġforb": 11666,
    "Ġbas": 6380,
    "meadow": 18680,
    "swallow": 24260,
    "Ġspecially": 12002,
    "conversation": 7123,
    "Ġupset": 22157,
    "Ġannot": 15606,
    "use": 2530,
    "Ġoutweigh": 22326,
    "corners": 17371,
    "gish": 20875,
    "nameless": 19905,
    "Ġwas": 370,
    "Ġjar": 15954,
    "Ġpreservation": 24631,
    "liable": 3819,
    "missionary": 24616,
    "rians": 21929,
    "Ġworthless": 19568,
    "yingly": 23118,
    "Ġapart": 4747,
    "ostent": 16848,
    "Ġstaves": 21744,
    "Ġconsoled": 18115,
    "standard": 22440,
    "letters": 13178,
    "Ġpitiable": 9917,
    "mystery": 15159,
    "Ġworaciousness": 22932,
    "Ġchristianity": 19863,
    "Ġpeevish": 26559,
    "Ġstretch": 6993,
    "found": 4212,
    "Ġmim": 3106,
    "Ġrebell": 21672,
    "Ġcrimson": 16440,
    "Ġrushed": 4086,
    "arrant": 10476,
    "Ġvaulted": 25171,
    "Ġhealthcare": 8016,
    "ublic": 11229,
    "&": 10,
    "Ġinterlude": 16074,
    "transom": 19738,
    "opence": 18517,
    "Ġpermanent": 13635,
    "Ġdaintiest": 25954,
    "ilib": 4116,
    "kes": 3678,
    "Ġparamore": 22126,
    "Ġhuddled": 20302,
    "cannibals": 25585,
    "Ġgurg": 15677,
    "Ġunnaturally": 24871,
    "Ġmaty": 22912,
    "Ġmultiple": 1189,
    "Ġwalls": 6762,
    "Ġtrue": 1338,
    "Ġcarving": 14446,
    "Ġploughed": 22608,
    "Ġfer": 5529,
    "necessities": 24308,
    "cousins": 20121,
    "Ġobstetrics": 24679,
    "omit": 13977,
    "marching": 25753,
    "Ġunspeak": 8854,
    "Ġswung": 6449,
    "voc": 8394,
    "Ġoak": 6129,
    "Ġexcessive": 3891,
    "cell": 10689,
    "Ġherself": 1573,
    "greek": 25405,
    "Ġenjoy": 3762,
    "Ġlun": 7856,
    "lesson": 22776,
    "Ġdimly": 9491,
    "Ġprometheus": 15296,
    "Ġeluc": 16113,
    "perceive": 12815,
    "Ġcontinu": 1164,
    "Ġtusk": 25426,
    "Ġmontan": 22981,
    "Ġguidance": 9420,
    "Ġsquall": 7044,
    "poison": 14395,
    "Ġpreced": 6040,
    "arcy": 1273,
    "Ġpractically": 13107,
    "oline": 6833,
    "Ġvigorous": 10569,
    "liked": 10511,
    "Ġdisd": 7031,
    "helped": 18927,
    "Ġanguish": 5583,
    "Ġstig": 14005,
    "Ġslop": 23165,
    "possess": 5984,
    "ival": 4225,
    "thing": 1481,
    "Ġblasp": 14405,
    "Ġswinging": 7448,
    "Ġcalifornian": 25853,
    "**:": 4738,
    "hoped": 20912,
    "Ġeasily": 3890,
    "Ġstripping": 23699,
    "âĢľâĢĻ": 10224,
    "Ġcentral": 7727,
    "mushroom": 26397,
    "Ġdescrib": 2717,
    "Ġimprecations": 25821,
    "Ġfeedback": 23436,
    "osite": 4894,
    "mayhew": 23995,
    "acetty": 24464,
    "Ġpretending": 19317,
    "Ġner": 1644,
    "Ġwake": 4750,
    "Ġarguments": 8037,
    "Ġreports": 19086,
    "Ġeighteenth": 14758,
    "august": 11073,
    "Ġtackle": 9516,
    "reply": 19725,
    "Ġadieus": 25113,
    "Ġunduly": 25995,
    "Ġprec": 2920,
    "nailed": 20998,
    "Ġprocess": 562,
    "Ġdams": 16456,
    "apidated": 22340,
    "Ġrecesses": 17263,
    "shriek": 20523,
    "Ġquivering": 12863,
    "spring": 7229,
    "fth": 20858,
    "Ġconsecrated": 26490,
    "Ġdol": 9667,
    "#": 7,
    "south": 8762,
    "Ġfrancisco": 26065,
    "90": 12436,
    "Ġschoolmasters": 19723,
    "Ġtahiti": 13623,
    "Ġfoundations": 11075,
    "Ġtenderest": 23553,
    "Ġweld": 8112,
    "Ġspreading": 13382,
    "Ĩ": 233,
    "idation": 5022,
    "Ġsoldiers": 8690,
    "Ġspeckled": 14312,
    "Ġdelirium": 10407,
    "Ġmagn": 1562,
    "Ġtriumphal": 24371,
    "Ġsustenance": 19937,
    "Ġcul": 17824,
    "Ġbounce": 21396,
    "soever": 11863,
    "Ġhumour": 7932,
    "ena": 11571,
    "Ġann": 4490,
    "polar": 24584,
    "were": 2553,
    "oses": 3944,
    "Ġprestige": 22240,
    "rah": 8137,
    "Ġconfronted": 23311,
    "Ġselection": 18205,
    "usual": 5842,
    "Ġglistened": 20175,
    "Ġsermons": 20197,
    "making": 2569,
    "Ġdissatisfied": 14259,
    "Ġstam": 18068,
    "such": 3083,
    "Ġjenny": 20165,
    "Ġray": 18641,
    "Ġtip": 15474,
    "hol": 3839,
    "dec": 3112,
    "eyeing": 14949,
    "hero": 21207,
    "rance": 5994,
    "Ġtunnel": 14933,
    "itting": 1148,
    "lantern": 17431,
    "Ġaltern": 7393,
    "faces": 13723,
    "flesh": 13494,
    "Ġfid": 10805,
    "Ġdiving": 12606,
    "lested": 14886,
    "Ġtoward": 17949,
    "Ġnois": 4265,
    "breckinridge": 24077,
    "Ġdescribed": 6607,
    "Ġsurmise": 12299,
    "away": 4627,
    "Ġency": 21937,
    "Ġmerchant": 6467,
    "grasping": 20642,
    "whale": 2140,
    "Ġdefect": 8556,
    "Ġnugent": 26459,
    "Ġ122": 24467,
    "plendent": 21962,
    "asy": 5296,
    "Ġent": 903,
    "Ġautonom": 10417,
    "vessels": 10628,
    "Ġcock": 11001,
    "Ġfive": 2838,
    "ologically": 22878,
    "onely": 6516,
    "Ġmoving": 1674,
    "matlock": 23471,
    "ivot": 11722,
    "Ġsuited": 12792,
    "Ď": 207,
    "Ġfriendly": 9823,
    "Ġprognostics": 20561,
    "Ġeve": 13973,
    "Ġdetected": 18812,
    "Ġjealously": 24126,
    "Ġhump": 5854,
    "Ġdeceiving": 21841,
    "Ġzeal": 9101,
    "Ġof": 298,
    "uttle": 6248,
    "nihil": 9858,
    "Ġsqualidness": 25844,
    "Ġprodigies": 19796,
    "Ġresid": 22542,
    "iftings": 23225,
    "emic": 18187,
    "Ġexterior": 19991,
    "Ġther": 17780,
    "Ġvapory": 17008,
    "Ġdying": 2136,
    "Ġblaming": 22933,
    "ensation": 22549,
    "Ġrather": 1494,
    "cooper": 19191,
    "avenza": 17105,
    "Ġduring": 873,
    "Ġsqualid": 14372,
    "Ġaltogether": 4833,
    "Ġsax": 10931,
    "Ġdashing": 8800,
    "aby": 18109,
    "plutarch": 21961,
    "Ġembodiment": 20531,
    "Ġunconditional": 15848,
    "Ġabsence": 4895,
    "cabinet": 25080,
    "marest": 20982,
    "Ġoverbearing": 12847,
    "Ġtypewriting": 16424,
    "ctu": 5088,
    "lung": 17593,
    "Ġbag": 5699,
    "Ġdit": 21423,
    "Ġshuddered": 11302,
    "Ġbaffled": 12407,
    "Ġwhirlwinds": 20468,
    "hoisted": 19284,
    "Ġvulgar": 13608,
    "Ġtransformer": 2636,
    "nals": 16403,
    "itive": 6670,
    "Ġdrawing": 3916,
    "Ġpromising": 10402,
    "Ġbewitched": 25976,
    "howling": 18990,
    "Ġrock": 5311,
    "Ġprone": 18970,
    "expressive": 24307,
    "assuming": 22313,
    "Ġsmothe": 18574,
    "Ġdiana": 21439,
    "blind": 16704,
    "Ġquant": 6424,
    "Ġbumping": 25281,
    "Ġabsurd": 7201,
    "Ġgovern": 10452,
    "Ġfronted": 23257,
    "Ġcomplete": 4381,
    "Ġinspirited": 23424,
    "Ġbrooks": 25701,
    "Ġbecher": 18880,
    "Ġalbertus": 25649,
    "Ġ111": 24436,
    "Ġjollies": 20373,
    "course": 6105,
    "Ġneur": 814,
    "Ġkramm": 26235,
    "bal": 2155,
    "Ġimpertinence": 11368,
    "Ġhol": 1184,
    "Ġjune": 10291,
    "Ġaugment": 8695,
    "iles": 2863,
    "sterns": 23371,
    "Ġ]": 15462,
    "Ġhappy": 2461,
    "Ġinsurg": 23684,
    "Ġwert": 12561,
    "exceed": 7911,
    "Ġentities": 11866,
    "Ġhoard": 23355,
    "Ġgam": 11627,
    "Ġbuoyancy": 20045,
    "Ġknock": 9976,
    "Ġmoral": 6580,
    "Ġlazily": 11382,
    "Ġnocturn": 18376,
    "Ġmons": 10159,
    "surprise": 9533,
    "Ġnic": 7375,
    "teous": 16177,
    "Ġsands": 14951,
    "Ġnamed": 6140,
    "model": 4462,
    "legra": 10791,
    "iew": 2442,
    "Ġsnatched": 10473,
    "Ġessence": 13409,
    "Ġsom": 1274,
    "Ġperadventure": 22403,
    "opp": 6962,
    "sneezes": 11448,
    "bey": 10317,
    "orph": 21402,
    "Ġdisagree": 22536,
    "Ġlivel": 11357,
    "australian": 20564,
    "Ġvulgarity": 25364,
    "Ġengineer": 11979,
    "Ġstubborn": 10416,
    "Ġscorn": 7901,
    "Ġdrove": 4984,
    "bil": 20773,
    "Ġproprietor": 12377,
    "Ġhunting": 7258,
    "Ġlatest": 16824,
    "oe": 7551,
    "_--": 20764,
    "Ġcharacteristic": 12052,
    "slight": 10729,
    "Ġdistraction": 22509,
    "Ġforbidden": 17079,
    "Ġquietly": 4569,
    "abilizing": 2926,
    "Ġriveted": 13622,
    "Ġjunks": 25116,
    "Ġranks": 21976,
    "Ġsle": 2014,
    "Ġconfidently": 24958,
    "Ġhalls": 19528,
    "Ġutter": 3972,
    "glo": 8741,
    "Ġswims": 12124,
    "Ġbeats": 21756,
    "Ġoblig": 3446,
    "Ġcalmer": 23045,
    "Ġelab": 22645,
    "peculiarity": 23112,
    "Ġcaptiv": 16258,
    "Ġdense": 8123,
    "burning": 25081,
    "asmuch": 10197,
    "filled": 9597,
    "Ġrun": 2353,
    "Ġarrival": 4732,
    "Ġturned": 2133,
    "Ġpeasant": 13555,
    "ineer": 11706,
    "died": 11482,
    "Ġdam": 2213,
    "Ġrever": 6537,
    "Ġiterate": 13203,
    "Ġlaying": 7908,
    "german": 11494,
    "Ġprovincial": 20652,
    "flight": 15356,
    "hound": 20897,
    "Ġchildren": 3769,
    "Ġencoun": 4512,
    "Ġshooting": 11164,
    "umber": 5240,
    "Ġconven": 6152,
    "Ġcompressed": 21854,
    "carry": 19529,
    "Ġverdant": 15004,
    "Ġschoolboys": 24481,
    "phr": 18702,
    "unwittingly": 25802,
    "Ġafforded": 8029,
    "Ġturtles": 19221,
    "Ġtro": 7355,
    "avast": 8900,
    "Ġrichness": 19312,
    "Ġchancing": 22252,
    "Ġwoe": 4794,
    "26": 10076,
    "ague": 3905,
    "horner": 23619,
    "Ġwes": 8783,
    "Ġactually": 5389,
    "considering": 12179,
    "omp": 2467,
    "Ġaddressed": 5263,
    "peasant": 23113,
    "Ġjamming": 17267,
    "Ġunforgiving": 25996,
    "Ġfeel": 1261,
    "Ġheaviest": 23327,
    "ield": 2405,
    "Ġpatted": 16366,
    "school": 10058,
    "Ġthorough": 6246,
    "inction": 6662,
    "ht": 376,
    "hurried": 11355,
    "Ġinexorable": 12260,
    "Ġrecommended": 8671,
    "anch": 15564,
    "ground": 4673,
    "position": 15416,
    "Ġcrouching": 23444,
    "neighbour": 7210,
    "Ġslink": 23166,
    "waited": 24586,
    "Ġawed": 23587,
    "formity": 10281,
    "bellies": 19977,
    "jumping": 20248,
    "ieged": 22581,
    "throne": 25658,
    "Ġpatches": 4235,
    "slipping": 25529,
    "Ġgrinned": 16859,
    "Ġdisgusted": 14993,
    "Ġinmates": 15627,
    "lue": 8510,
    "Ġrevolution": 3308,
    "works": 6589,
    "Ġdesol": 6880,
    "Ġcoloured": 11047,
    "Ġrussia": 26269,
    "Ġnecessity": 7295,
    "thinks": 16644,
    "stately": 18024,
    "Ġpowerful": 1637,
    "umer": 9261,
    "Ġstack": 21737,
    "Ġwander": 9034,
    "Ġheeds": 24520,
    "Ġcavity": 20491,
    "value": 18807,
    "Ġcommand": 3325,
    "cable": 20799,
    "man": 1054,
    "rimin": 2419,
    "Ġdivert": 23595,
    "Ġworried": 22929,
    "Ġen": 392,
    "Ġbraved": 23841,
    "binnacle": 20789,
    "pendicular": 6499,
    "Ġhav": 12759,
    "Ġgrave": 5100,
    "Ġwhites": 21720,
    "Ġshameful": 19854,
    "Ġpartner": 6715,
    "Ġbenefit": 8293,
    "Ġinfidel": 13092,
    "eks": 4729,
    "Ġforge": 8458,
    "idy": 21768,
    "Ġfitness": 24003,
    "bald": 16447,
    "Ġhiding": 9826,
    "ath": 862,
    "Ġholidays": 22925,
    "plenty": 14091,
    "Ġunwe": 15842,
    "asable": 21544,
    "Ġapprehen": 16831,
    "interests": 19711,
    "ot": 346,
    "|": 96,
    "Ġunprepared": 22050,
    "Ġdedication": 3121,
    "convinced": 10625,
    "Ġdreadful": 4921,
    "example": 16017,
    "dared": 13706,
    "Ġcompanion": 3643,
    "take": 4578,
    "\"]": 17473,
    "fifth": 20149,
    "Ġmuscle": 14691,
    "Ġod": 4438,
    "unearthly": 19275,
    "tisement": 6767,
    "Ġjohnson": 18410,
    "Ġreasons": 6020,
    "Ġheinous": 18041,
    "Ġissues": 9545,
    "globe": 25145,
    "win": 6801,
    "Ġsolomon": 11054,
    "verity": 14004,
    "Ġlurking": 11291,
    "lorious": 17594,
    "Ġfist": 21407,
    "Ġwalker": 23313,
    "Ġridge": 14822,
    "jour": 20929,
    "Ġspend": 5306,
    "Ġroughly": 17041,
    "Ġmotions": 8281,
    "Ġcollinses": 19131,
    "Ġmatted": 22913,
    "binary": 20786,
    "Û": 156,
    "gorith": 554,
    "disagreeable": 11165,
    "Ġdangerous": 6615,
    "gazed": 15365,
    "Ġsparsity": 4206,
    "gu": 3954,
    "treasures": 26153,
    "Ġmeat": 8152,
    "Ġboots": 5944,
    "Ġdeafened": 25652,
    "lac": 17591,
    "avail": 18605,
    "Ġoverhear": 15977,
    "Ġbarbed": 14838,
    "moral": 14805,
    "Ġcompany": 3723,
    "deceptive": 22152,
    "manned": 18764,
    "Ġmaimed": 21319,
    "Ġpiling": 17913,
    "law": 6116,
    "owers": 12690,
    "Ġjerking": 12250,
    "Ġdwelling": 7321,
    "Ġknee": 7094,
    "Ġcontemptible": 16955,
    "Ġbrit": 6290,
    "nson": 16092,
    "Ġusually": 6264,
    "Ġchildish": 13141,
    "own": 744,
    "gentleman": 7517,
    "agony": 14072,
    "Ġsickly": 16776,
    "Ġwent": 1541,
    "Ġserviceable": 24717,
    "Ġembalmed": 13660,
    "Ġliterature": 17151,
    "ansion": 10927,
    "Ġuns": 15840,
    "Ġcurbstone": 26047,
    "Ġtre": 2531,
    "Ġnails": 12653,
    "Ġdistance": 3483,
    "ŀ": 257,
    "Ġthey": 576,
    "rospect": 11615,
    "Ġunjustifiable": 25112,
    "Ġwand": 4340,
    "generally": 9438,
    "traces": 24336,
    "Ġslay": 16309,
    "proposal": 18756,
    "Ġinjunction": 19620,
    "Ġjove": 9271,
    "lev": 1237,
    "dark": 5614,
    "Ġmeanings": 18608,
    "Ġproofs": 19817,
    "ipotent": 10963,
    "Ġspit": 22128,
    "Ġeasiest": 23541,
    "ran": 11518,
    "Ġlips": 3989,
    "Ġtarpaul": 17732,
    "owing": 7601,
    "Ġgamesome": 17292,
    "Ġapplied": 6187,
    "handled": 19263,
    "Ġpulley": 2977,
    "Ġunwritten": 22034,
    "Ġannouncement": 14836,
    "Ġwakeful": 24269,
    "mult": 8751,
    "inal": 15483,
    "Ġstead": 5650,
    "Ġ$": 21153,
    "Ġinsc": 7585,
    "office": 16399,
    "Ġcollections": 22861,
    "wow": 21124,
    "Ġunsophisticated": 25993,
    "Ġsignals": 10588,
    "ulation": 5458,
    "lad": 5992,
    "soul": 9143,
    "Ġupbraid": 18319,
    "Ġeucl": 24708,
    "Ġflirt": 14426,
    "stri": 6250,
    "Ġunhallowed": 17183,
    "Ġtract": 21168,
    "relieved": 13281,
    "ad": 337,
    "ber": 884,
    "sl": 5794,
    "important": 7113,
    "Ġdisembow": 22541,
    "osp": 6853,
    "unconquerable": 21895,
    "c": 71,
    "liness": 8750,
    "Ġbec": 1348,
    "Ġbachel": 7158,
    "shock": 19857,
    "Ġkent": 6692,
    "Ġimportant": 1056,
    "even": 3838,
    "Ġkeenly": 9488,
    "circle": 16738,
    "fortun": 3540,
    "Ġshudderings": 25201,
    "simp": 17667,
    "pping": 1424,
    "Ġtypewritten": 16425,
    "ified": 3230,
    "Ġstrategies": 1840,
    "sis": 1938,
    "Ġsleeps": 10448,
    "chants": 21695,
    "spouting": 25003,
    "ropri": 2178,
    "ternatural": 12720,
    "Ġspots": 11733,
    "Ġunicorn": 22057,
    "nui": 21002,
    "Ġcanes": 22167,
    "Ġinviting": 19145,
    "Ġsubterranean": 13615,
    "Ġoxford": 11373,
    "Ġclum": 8876,
    "Ġamount": 8513,
    "Ġembark": 8559,
    "Ġcrocodile": 20742,
    "Ġwoodcock": 19165,
    "Ġrising": 4354,
    "eldest": 22803,
    "Ġtoll": 7852,
    "nant": 17611,
    "Ġlik": 2517,
    "Ġgraces": 18226,
    "Ġaffect": 1387,
    "Ġapproximation": 2338,
    "Ġgenerations": 10967,
    "distance": 12157,
    "Ġfut": 15579,
    "aded": 3550,
    "Ġxii": 11995,
    "hump": 12482,
    "Ġfrigate": 13086,
    "Ġprices": 15616,
    "should": 3265,
    "fall": 5135,
    "Ġey": 8135,
    "Ġ\"": 6120,
    "Ġphysical": 7521,
    "Ġinhospit": 25453,
    "listener": 24931,
    "Ġimproves": 22757,
    "Ġpeddling": 21485,
    "Ġtowards": 1729,
    "hever": 13834,
    "Ġwork": 1351,
    "Ġhandsomer": 20336,
    "Ġtwelve": 4963,
    "Ġcommander": 8628,
    "Ġspeculations": 23001,
    "Ġlandau": 16423,
    "eth": 620,
    "sweep": 24618,
    "Ġlanc": 19767,
    "cre": 4248,
    "Ġsum": 2699,
    "atory": 6126,
    "Ġkeeping": 7282,
    "Ġrelieve": 8224,
    "ithing": 11652,
    "Ġpouring": 12629,
    "Ġlunch": 13529,
    "Ġsentiment": 6590,
    "Ġassume": 10518,
    "Ġconclude": 8583,
    "Ġflavor": 16254,
    "monkey": 19172,
    "igning": 12686,
    "Ġmet": 1890,
    "Ġalternately": 15034,
    "tail": 8765,
    "del": 4075,
    "_;": 6642,
    "young": 7320,
    "Ġboarding": 12091,
    "Ġanswers": 7071,
    "Ġinvestigation": 9045,
    "Ġbottled": 23798,
    "je": 11498,
    "Ġoccurrence": 14385,
    "Ġult": 9077,
    "affect": 13216,
    "Ġcasualty": 20344,
    "belt": 24039,
    "hast": 5358,
    "visitor": 15060,
    "Ġstuck": 9223,
    "Ġwantest": 18790,
    "Ġapplication": 2041,
    "Ġpretension": 23766,
    "Ġsuav": 22090,
    "Ġparsee": 6413,
    "open": 7027,
    "Ġcombing": 22840,
    "happiness": 6469,
    "Ġprefer": 6416,
    "bar": 7540,
    "Ġodds": 13334,
    "grant": 10429,
    "Ġdimens": 3150,
    "ounders": 22398,
    "advanced": 19591,
    "Ġbroken": 3449,
    "Ġclang": 15966,
    "Ġpaws": 13924,
    "Ġcomponents": 8896,
    "natural": 2348,
    "hereditary": 26421,
    "false": 15358,
    "scarcely": 12390,
    "awful": 23117,
    "Ġsnow": 3707,
    "gest": 5426,
    "Ġgodfre": 14531,
    "hunted": 16834,
    "Ġrejoice": 10211,
    "obtained": 23098,
    "loo": 10322,
    "Ġbidirectional": 3757,
    "industrious": 26241,
    "Ġvehicle": 20141,
    "Ġunbelief": 22049,
    "rying": 3190,
    "Ġordained": 19448,
    "Ġcampaign": 20663,
    "argue": 21447,
    "Ġbenchmarks": 15024,
    "othic": 16219,
    "Ġancestors": 25643,
    "antage": 3878,
    "inkles": 7425,
    "cannot": 5745,
    "calm": 8937,
    "Ġmccarthy": 5145,
    "crow": 9593,
    "Ġejaculated": 15173,
    "youn": 5690,
    "Ġgritted": 22810,
    "Ġinsect": 12641,
    "Ġbes": 2659,
    "raising": 21635,
    "Ġ68": 24370,
    "04": 10682,
    "Ġimitation": 22175,
    "Ġgrotes": 19566,
    "Ġhappened": 3715,
    "Ġbal": 1131,
    "hauled": 20671,
    "Ġlongest": 18632,
    "Ġwrapped": 8342,
    "scoured": 22991,
    "dawson": 26129,
    "recogn": 13429,
    "hopper": 23717,
    "uture": 1108,
    "Ġende": 21936,
    "Ġdegener": 14051,
    "âĢľâĢĶ": 10874,
    "Ġbigness": 19763,
    "Ġsoph": 1530,
    ").âĢĿ": 20743,
    "Ġcounterpane": 11345,
    "Ġnetworks": 596,
    "Ġremember": 2677,
    "whar": 15931,
    "alt": 12643,
    "Ġcomputer": 1181,
    "Ġgoat": 16010,
    "been": 3347,
    "Ġfreshets": 25705,
    "Ġprow": 6685,
    "Ġminiatures": 20324,
    "$": 8,
    "Ġunfav": 14791,
    "Ġbeware": 8832,
    "vex": 21701,
    "Ġsenses": 8252,
    "amy": 8469,
    "Ġtermination": 16463,
    "length": 7135,
    "measureless": 20238,
    "aug": 1214,
    "Ġsighing": 18674,
    "breaking": 14768,
    "bre": 3977,
    "kitty": 10108,
    "Ġretained": 7173,
    "Ġextremities": 19197,
    "Ġtrustees": 24108,
    "um": 454,
    "Ġdru": 8423,
    "ohog": 9847,
    "Ġbeards": 21755,
    "Ġtypewriter": 19099,
    "Ġcontain": 1558,
    "necess": 4897,
    "Ġinjure": 16783,
    "complained": 25840,
    "intentions": 22942,
    "Ġdiscoloured": 15256,
    "luding": 6701,
    "Ġsuperlative": 26075,
    "Ġcoldness": 23761,
    "Ġkeels": 11062,
    "absurd": 21799,
    "vous": 2251,
    "Ġworthy": 7240,
    "Ġadhes": 22107,
    "Ġbloss": 19258,
    "spee": 9320,
    "Ġ182": 13241,
    "Ġstoried": 18075,
    "Ġcrawford": 24894,
    "dimly": 15350,
    "Ġshook": 4469,
    "ounced": 4954,
    "Ġvisiting": 10359,
    "Ġundone": 24119,
    "Ġpigs": 19750,
    "Ġcave": 10787,
    "eration": 10774,
    "Ġvener": 8164,
    "itself": 7834,
    "thirty": 12767,
    "loved": 14253,
    "Ġinstruct": 2866,
    "Ġ3": 3983,
    "ises": 3653,
    "Ġgipsies": 12412,
    "Ġdistributed": 18662,
    "Ġteaches": 18811,
    "Ġclamped": 18424,
    "Ġinflicted": 11367,
    "Ġonce": 1491,
    "veh": 12684,
    "Ġlard": 13950,
    "prosper": 19102,
    "explain": 1482,
    "Ġresounded": 22548,
    "Ġlengthwise": 10454,
    "Ġconsuming": 22796,
    "ted": 789,
    "Ġanyways": 22524,
    "Ġdistur": 5313,
    "Ġdistended": 16047,
    "Ġicebergs": 23978,
    "Ġale": 9157,
    "allows": 15911,
[...]
