{
  "metadata": {
    "vocab_size": 26614,
    "algorithm": "BPE",
    "created_at": "2026-06-29 06:44:42",
    "special_tokens": [
      "<PAD>",
      "<SOS>",
      "<EOS>",
      "<UNK>",
      "<MASK>"
    ]
  },
  "vocab": {
    "intim": 22931,
    "Ġjun": 8505,
    "isite": 15560,
    "fits": 13717,
    "ppa": 10239,
    "Ġprobed": 18734,
    "Ġcomfortably": 16615,
    "Ġhissing": 15787,
    "summer": 11992,
    "Ġsize": 1219,
    "Ġanx": 3181,
    "eze": 20846,
    "Ġheartless": 13071,
    "Ġfriendship": 7246,
    "dare": 12451,
    "Ġvariety": 8530,
    "Ġpipeline": 2478,
    "Ġtrying": 4837,
    "Ġarcher": 22176,
    "immense": 18052,
    "Ġsordid": 26422,
    "Ġgrud": 17995,
    "Ġlanguor": 12844,
    "Ġur": 5540,
    "Ġreiterating": 26474,
    "acit": 16079,
    "tub": 9143,
    "ingu": 2120,
    "Ġvillanous": 24053,
    "cstasy": 11445,
    "Ġintroduces": 3270,
    "char": 3502,
    "Ġjonas": 20608,
    "Ġnovelty": 13462,
    "Ġmuchness": 18706,
    "Ġspeakest": 23486,
    "Ġengagements": 9977,
    "Ġashore": 5351,
    "Ġtablet": 19204,
    "Ġdarling": 12601,
    "Ġarise": 7895,
    "Ġalongside": 6311,
    "Ġinhabitant": 19754,
    "Ġforty": 5719,
    "Ġsoup": 7067,
    "Ġcompress": 21841,
    "freighted": 14891,
    "Ġdates": 6693,
    "Ġfootfalls": 25866,
    "Ġrendering": 16657,
    "beam": 16035,
    "isson": 23460,
    "Ġexcellence": 11451,
    "Ġdip": 13906,
    "Ġurged": 6781,
    "Ġsends": 14790,
    "Ġbathing": 20198,
    "Ġprinciples": 10010,
    "Ġpolitical": 19223,
    "Ġ17": 5740,
    "Ġnames": 4532,
    "Ġrephrased": 26477,
    "Ġunjustifiable": 25109,
    "ulum": 21860,
    "Ġunguarded": 15848,
    "Ġwipe": 25764,
    "Ġsteering": 10387,
    "Ġstammered": 26199,
    "Ġpetersburgh": 24228,
    "Ġeigen": 4880,
    "Ġmer": 2928,
    "hinting": 17569,
    "Ġhalts": 3160,
    "Ġyoke": 18095,
    "Ġexped": 7651,
    "Ġtricks": 13483,
    "Ġjingling": 26017,
    "Ġscarcely": 4010,
    "called": 6292,
    "general": 7490,
    "headsman": 16700,
    "achable": 14137,
    "accordingly": 19212,
    "Ġsquares": 11169,
    "Ġfullest": 14813,
    "Ġtendons": 19807,
    "Ġpikes": 21476,
    "Ġcrossing": 7253,
    "Ġtease": 18794,
    "Ġmeasures": 1206,
    "Ġrafters": 22643,
    "Ġsabbath": 17254,
    "Ġmalady": 24392,
    "Ġclothes": 4996,
    "Ġmadam": 5663,
    "Ġbritain": 16956,
    "ripp": 6404,
    "Ġbeneath": 3239,
    "Ġimproper": 22747,
    "Ġhalting": 16272,
    "Ġprynne": 25540,
    "Ġcoldly": 14650,
    "ilder": 15710,
    "Ġbring": 3324,
    "Ġforbearance": 12326,
    "Ġcharles": 11954,
    "clut": 23148,
    "onet": 12542,
    "Ġstart": 3260,
    "Ġappe": 1540,
    "assin": 22302,
    "enborough": 21284,
    "Ġdiddled": 22664,
    "Ġsyrian": 18353,
    "Ġgamb": 17997,
    "Ġheadsmen": 14731,
    "ui": 9144,
    "Ġquadr": 8199,
    "Ġpropose": 9852,
    "Ġgathering": 14977,
    "Ġinitials": 11014,
    "Ġcheever": 23282,
    "Ġpreventing": 882,
    "Ġidentical": 10434,
    "Ġceremony": 8360,
    "inquiry": 15141,
    "Ġher": 426,
    "hearty": 14833,
    "ws": 7355,
    "ď": 208,
    "atived": 21261,
    "ı": 242,
    "ividual": 5463,
    "poled": 22905,
    "Ġpretending": 19314,
    "Ġunnaturally": 24870,
    "anke": 15558,
    "finer": 17546,
    "Ġbunch": 11326,
    "discoloured": 23498,
    "ladder": 19783,
    "Ġcass": 13878,
    "rant": 11516,
    "pane": 10120,
    "wich": 11543,
    "carbuncle": 26382,
    "«": 109,
    "Ġtortoise": 16908,
    "Ġsequentially": 4913,
    "Ġmember": 8585,
    "Ġsummarization": 3647,
    "Ġlake": 5227,
    "Ġraft": 16107,
    "Ġdiabolically": 25513,
    "scap": 22982,
    "Ġtresses": 21174,
    "Ġcaprice": 14577,
    "Ġrecognise": 12038,
    "Ġimpressive": 14999,
    "umed": 6554,
    "isc": 6239,
    "kitchen": 17585,
    "unning": 4493,
    "Ġgroping": 13664,
    "Ġcoloured": 11045,
    "reference": 13839,
    "lude": 6161,
    "Ġsending": 8774,
    "Ġexcited": 5580,
    "--âĢľ": 12969,
    "errand": 22909,
    "fast": 3069,
    "Ġperplexed": 23661,
    "Ġdis": 696,
    "Ġscrupulous": 20065,
    "Ġsurmis": 23462,
    "zed": 8103,
    "Ġriotous": 20543,
    "Ġtoller": 9090,
    "ulity": 10886,
    "Ġjuggler": 26366,
    "Ġnephews": 24714,
    "abash": 18107,
    "Ġcharacteristically": 23690,
    "Ġsupplying": 19797,
    "Ġwert": 12553,
    "warks": 5003,
    "water": 4867,
    "Ġsneer": 13446,
    "Ġnug": 21522,
    "Ġlabrador": 23329,
    "Ġain": 6969,
    "ghost": 20886,
    "Ġking": 2304,
    "Ġthirst": 7590,
    "everybody": 8610,
    "Ġquarter": 3978,
    "Ġzer": 1099,
    "Ġindiscriminately": 20626,
    "Ġsta": 18062,
    "nut": 12492,
    "Ġplaces": 5390,
    "ze": 1279,
    "furthermore": 20002,
    "Ġpetty": 19594,
    "Ġtemptations": 24508,
    "Ġgrecian": 26296,
    "Ġthese": 820,
    "Ġencoun": 4511,
    "Ġfortune": 4241,
    "Ġwalker": 23307,
    "Ġpolynesian": 26026,
    "built": 16825,
    "Ġsharkish": 24506,
    "lings": 8745,
    "Ġresnet": 5473,
    "certain": 3678,
    "Ġrules": 1920,
    "lop": 20947,
    "Ġobligation": 13242,
    "ellations": 21941,
    "Ġwheeling": 18288,
    "Ġapril": 13661,
    "Ġintervened": 25481,
    "~": 98,
    "assment": 9739,
    "Ġcondu": 18109,
    "centre": 17087,
    "Ġeffusion": 22483,
    "Ġcor": 1321,
    "Ġdetested": 14174,
    "scence": 14417,
    "26": 10072,
    "Ġliver": 14227,
    "Ġwashing": 9704,
    "Ġswe": 2289,
    "Ġsecrecy": 7316,
    "drunk": 24659,
    "Ġunlab": 3789,
    "Ġstalls": 25647,
    "Ġfulf": 6772,
    "exasper": 22424,
    "Ġpreprocessing": 26536,
    "Ġcorroborated": 26054,
    "Ġthrew": 3975,
    "Ġbloodthirsty": 26601,
    "),": 1348,
    "Ġthroats": 24575,
    "Ġdull": 6384,
    "Ġcul": 17822,
    "Ġfragment": 14495,
    "arising": 17895,
    "oon": 6364,
    "Ġstaggered": 9538,
    "Ġbody": 2436,
    "Ġdiscussed": 19558,
    "Ġferry": 24498,
    "Ġfall": 2985,
    "Ġbridegroom": 10604,
    "Ġshuttle": 12124,
    "Ġfell": 1978,
    "Ġslides": 18938,
    "ript": 4154,
    "Ġembracing": 14979,
    "Ġpersons": 6180,
    "bound": 6220,
    "Ġgpus": 3734,
    "Ġnotorious": 18223,
    "Ġtorpor": 25031,
    "ris": 9137,
    "Ġactuated": 18545,
    "Ġtowering": 16739,
    "Ġindelible": 25694,
    "Ġsympathising": 24297,
    "Ġfireplace": 13143,
    "fts": 18698,
    "Ġvector": 1973,
    "Ġtheoretically": 3565,
    "Ġhovered": 12628,
    "dangerous": 20239,
    "longbourn": 9895,
    "wrong": 13205,
    "Ġschoolmasters": 19719,
    "Ġabating": 22274,
    "Ġchambers": 16799,
    "Ġinvulnerable": 19146,
    "Ġcomplaints": 12262,
    "Ġenforced": 21936,
    "Ġchemistry": 11460,
    "Ġaft": 5737,
    "inced": 3336,
    "impatient": 13639,
    "elze": 21570,
    "recogn": 13424,
    "erer": 8731,
    "Ġvict": 3764,
    "egypt": 15348,
    "Ġtruck": 19510,
    "Ġsweetly": 23916,
    "Ġclung": 10959,
    "omach": 11633,
    "allies": 14165,
    "marriage": 7744,
    "Ġado": 7627,
    "Ġcaresses": 26059,
    "Ġgoest": 22420,
    "Ġdaylight": 10350,
    "Ġexceedingly": 4613,
    "Ġpleasing": 6190,
    "Ġspark": 6689,
    "Ġpeaked": 2296,
    "representing": 25271,
    "itations": 17817,
    "Ġforgive": 8009,
    "Ġabhor": 5467,
    "Ġcomstock": 21843,
    "Ġopt": 791,
    "Ġpermitting": 22395,
    "Ġunderwent": 23234,
    "Ġmoving": 1679,
    "Ġgallantry": 15102,
    "greater": 13250,
    "james": 15371,
    "Ġourselves": 5127,
    "opportunity": 12272,
    "Ġpitiless": 19386,
    "Ġstrategy": 2519,
    "Ġslight": 3119,
    "operations": 19973,
    "Ġnigh": 4877,
    "ress": 930,
    "Ġchill": 11750,
    "Ġrosy": 18459,
    "influ": 9540,
    "Ġmuteness": 19415,
    "Ġtrust": 4079,
    "Ġfretfulness": 25448,
    "clopÃ¦": 13053,
    "aff": 3101,
    "algorithms": 8292,
    "Ġremind": 6057,
    "Ġpoverty": 9303,
    "Ġblinds": 8006,
    "Ġrestraint": 15126,
    "Ġlords": 14641,
    "Ġlabyrin": 13103,
    "onomy": 12544,
    "amusement": 15281,
    "piece": 6655,
    "Ġalgorithms": 872,
    "shake": 22442,
    "Ġ104": 24412,
    "Ġsin": 1515,
    "unity": 4153,
    "Ġsalutation": 12395,
    "Ġrandom": 1586,
    "quietly": 10592,
    "Ġcruises": 23704,
    "Ġdiscomp": 11864,
    "Ġbriskly": 25311,
    "Ġfancies": 10424,
    "Ġahead": 6662,
    "Ġsir": 1567,
    "Ġcandelabra": 26602,
    "clerval": 7950,
    "Ġton": 15463,
    "Ġflannel": 26577,
    "Ġtossings": 25356,
    "Ġeffusions": 18517,
    "amaz": 21847,
    "onents": 8776,
    "trick": 19411,
    "Ġwhipping": 21713,
    "icherry": 15134,
    "Ġcyn": 13885,
    "Ġliable": 14228,
    "Ġadroit": 26000,
    "peasant": 23108,
    "Ġbequeathed": 20700,
    "Ġparmacetti": 20603,
    "hyp": 15365,
    "Ġdisd": 7030,
    "Ġsafely": 9025,
    "Ġdecorated": 22456,
    "Ġpopular": 6216,
    "Ġunited": 6840,
    "inously": 21185,
    "Ġsuspect": 5758,
    "waste": 21133,
    "Ġrelinquish": 17346,
    "concluding": 19479,
    "ha": 3982,
    "Ġbelted": 22945,
    "Ġsands": 14947,
    "rove": 21530,
    "hollow": 24038,
    "Ġpublished": 11241,
    "Ġinformation": 1046,
    "Ġsobs": 14134,
    "Ġcaged": 21350,
    "Ġmoored": 11790,
    "consp": 18505,
    "Ġinarticulate": 21497,
    "Ġunreliable": 3931,
    "Ġhourly": 23299,
    "Ġrises": 9712,
    "rivial": 9433,
    "fireside": 24692,
    "Ġvig": 5460,
    "Ġcet": 6669,
    "Ġpanegyric": 26449,
    "Ġprovoked": 13324,
    "Ġjing": 15947,
    "persuasion": 20042,
    "Ġalph": 9694,
    "berwell": 22715,
    "Ġleaf": 15720,
    "aneous": 7240,
    "Ġsmiting": 12895,
    "considered": 9580,
    "Ġtended": 21165,
    "unalterable": 21883,
    "disc": 4727,
    "useful": 16502,
    "lone": 11499,
    "fool": 9047,
    "constit": 24604,
    "pid": 1352,
    "belated": 24035,
    "Ġvenetian": 14846,
    "doubt": 6782,
    "wretchedness": 17252,
    "beauty": 20102,
    "Ġhackney": 20431,
    "enet": 10152,
    "Ġtower": 8318,
    "Ġla": 5912,
    "Ġpat": 1842,
    "Ġbrix": 12580,
    "Ġmant": 9647,
    "Ġdedu": 5584,
    "Ġattempt": 3486,
    "Ġprompted": 23813,
    "taining": 7206,
    "plexion": 14258,
    "Ġjewell": 19519,
    "Ġannihilated": 20251,
    "Ġ22": 8278,
    "Ġsuit": 5725,
    "Ġtar": 2565,
    "concerted": 16671,
    "magistrate": 19862,
    "Ġgaieties": 24195,
    "Ġcupidity": 24535,
    "Ġassertion": 13488,
    "Ġstreet": 2955,
    "sprit": 11382,
    "Ġsequel": 14355,
    "ane": 1180,
    "Ġpedro": 14994,
    "Ġcrowned": 16841,
    "Ġemploy": 3615,
    "adays": 14012,
    "chers": 11317,
    "venant": 22624,
    "Ġdiverged": 23593,
    "Ġincognita": 26551,
    "Ġunconditional": 15842,
    "Ġcouple": 5423,
    "data": 2213,
    "tle": 2407,
    "Ġcase": 1943,
    "Ġliveliness": 13642,
    "Ġfaculties": 14957,
    "expectation": 14855,
    "rr": 17650,
    "fins": 13718,
    "practised": 20246,
    "Ġpam": 21452,
    "coil": 23558,
    "Ġswings": 11087,
    "Ġattacked": 10567,
    "da": 17514,
    "Ġsale": 14154,
    "Ġbalanced": 12989,
    "Ġexam": 3712,
    "fellows": 12271,
    "ertion": 12037,
    "Ġover": 555,
    "Ġinserting": 19905,
    "Ġunrecord": 16621,
    "Ġallegro": 25794,
    "stricken": 9883,
    "Ġcondition": 6764,
    "proposal": 18746,
    "Ġburial": 16522,
    "Ġblasphemy": 26115,
    "Ġemm": 18002,
    "tish": 17677,
    "Ġenv": 2826,
    "no": 894,
    "Ġgull": 15667,
    "aceti": 7111,
    "Ġcarcase": 14443,
    "msprop": 2626,
    "Ġdegradation": 2632,
    "iously": 2678,
    "Ġleak": 2160,
    "Ġamb": 9291,
    "Ġmassa": 19452,
    "Ġconfided": 19035,
    "Ġmildness": 9943,
    "swed": 24253,
    "Ġtomorrow": 21510,
    "ography": 13361,
    "Ġminutely": 14561,
    "Ġbounds": 9917,
    "gover": 10702,
    "Ġthr": 5709,
    "Ġpeevish": 26557,
    "Ġannouncement": 14832,
    "Ġbullion": 24983,
    "ention": 854,
    "Ġchamois": 16800,
    "rat": 8755,
    "uned": 21868,
    "sacred": 17028,
    "Ġdecreases": 3408,
    "amiable": 14053,
    "Ġsurmised": 24919,
    "ensions": 14259,
    "caught": 8726,
    "umbent": 12093,
    "Ġ52": 24321,
    "Ġdisastrous": 16058,
    "brimmed": 14588,
    "Ġappellation": 22213,
    "Ġanomalous": 25637,
    "Ġpuzz": 5533,
    "angs": 5834,
    "Ġ89": 19711,
    "Ġezek": 18009,
    "Ġcrusad": 23705,
    "Ġsummar": 3524,
    "lounged": 26133,
    "Ġconfed": 13096,
    "Ġancient": 5443,
    "penn": 18826,
    "ckets": 6843,
    "Ġhammers": 13239,
    "arily": 4127,
    "narrated": 25621,
    "Ġstealing": 18894,
    "Ġfashions": 17885,
    "decor": 23778,
    "ying": 1366,
    "whatever": 6694,
    "summon": 23414,
    "Ġleague": 6538,
    "Ġgrotes": 19562,
    "Ġexpanded": 14291,
    "Ġrevolver": 14899,
    "bable": 8718,
    "Ġsch": 13834,
    "Ġ59": 24327,
    "Ġaccumulating": 2723,
    "Ġinferior": 8365,
    "Ġunmanner": 22024,
    "bearer": 18521,
    "bidden": 19736,
    "Ġhatherley": 7848,
    "Ġknight": 9726,
    "judgment": 16753,
    "Ġtantamount": 25625,
    "Ġalgorith": 567,
    "Ġdrew": 3536,
    "ating": 663,
    "destiny": 16702,
    "gun": 10096,
    "gra": 769,
    "Ġhol": 1183,
    "Ġpowerful": 1622,
    "Ġscaramouch": 23824,
    "Ġbeatrix": 24204,
    "Ġrequire": 931,
    "âĢĻ": 378,
    "Ġdistinguished": 8272,
    "Ġculprit": 26172,
    "rain": 462,
    "iltrated": 19305,
    "Ġbuy": 8299,
    "yth": 980,
    "ifix": 21900,
    "Ġgathers": 24743,
    "Ġelastic": 4362,
    "Ġtremor": 24768,
    "shortened": 24748,
    "Ġspade": 9258,
    "Ġloveliness": 13607,
    "hever": 13830,
    "Ġpapers": 4022,
    "othe": 2616,
    "shoulders": 16584,
    "Ġcomputations": 15997,
    "ank": 1364,
    "frisco": 16787,
    "into": 3682,
    "Ġhelplessness": 25071,
    "Ġcooked": 13268,
    "Ġrashness": 25460,
    "rices": 4558,
    "Ġcolle": 8924,
    "ify": 1454,
    "aw": 1448,
    "Ġseen": 1367,
    "/`)": 13659,
    "ternatural": 12712,
    "Ġcou": 5286,
    "Ġduc": 4695,
    "Ġfeasts": 25369,
    "Ġinstantaneously": 23660,
    "Ġtopmost": 14587,
    "iet": 1774,
    "Ġinform": 993,
    "Ġoutriders": 26543,
    "Ġdecipher": 22457,
    "wore": 21123,
    "Ġreliable": 18777,
    "Ġindestruct": 22955,
    "Ġmemories": 14541,
    "Ġslew": 23381,
    "Ġjaws": 5593,
    "ë": 172,
    "owners": 16085,
    "Ġuncomfortable": 8485,
    "erick": 13847,
    "Ġdispel": 16596,
    "Ġaberdeen": 26542,
    "Ġnoisier": 4623,
    "Ġundu": 15835,
    "Ġsap": 18323,
    "desired": 8956,
    "Ġdeftly": 26493,
    "Ġinquirer": 24961,
    "Ġparacels": 13666,
    "Ġended": 7949,
    "Ġabout": 631,
    "Ġdisreputable": 22531,
    "urance": 10857,
    "Ġestates": 16458,
    "Ġbul": 3294,
    "lemag": 21370,
    "Ġdancing": 5703,
    "Ġer": 8104,
    "Ġgre": 1581,
    "fates": 20857,
    "Ġobtru": 18672,
    "olstad": 7612,
    "Ġlambton": 10657,
    "Ġropes": 10748,
    "Ġreveren": 13196,
    "Ġconviction": 6326,
    "cell": 10685,
    "Ġeverlasting": 9336,
    "study": 15116,
    "Ġcoiling": 12902,
    "Ġtul": 21158,
    "introduce": 25186,
    "Ġwashington": 17202,
    "Ġaggregated": 25678,
    "semic": 21818,
    "delight": 5344,
    "Ġstarbuck": 2195,
    "ourers": 21447,
    "Ġorganizations": 12312,
    "Ġforward": 1837,
    "ifferent": 4263,
    "Ġnoon": 6559,
    "Ġbar": 3148,
    "Ġembarrassed": 11384,
    "cross": 3574,
    "Ġcame": 1300,
    "got": 6955,
    "suppose": 8644,
    "Ġkrempe": 10669,
    "Ġbits": 11587,
    "Ġperturbation": 20439,
    "trouble": 8295,
    "asht": 4084,
    "Ġat": 395,
    "inforcement": 3195,
    "corrob": 24485,
    "Ġlips": 3993,
    "Ġlessen": 14532,
    "Ġgossip": 18471,
    "Ġmitt": 21306,
    "worthy": 7732,
    "Ġpretensions": 16557,
    "Ġfainted": 8791,
    "Ġrally": 21965,
    "Ġ66": 24369,
    "Ġtransitory": 16017,
    "Ġchrist": 4073,
    "Ġunobstructed": 18264,
    "letons": 14612,
    "Ġhem": 8445,
    "hauteur": 26391,
    "sincere": 16907,
    "Ġsensitivity": 3068,
    "Ġpervading": 20612,
    "vessel": 11377,
    "ophisticated": 22475,
    "Ġfished": 21408,
    "Ġlater": 6016,
    "Ġjelly": 22297,
    "sp": 893,
    "Ġwester": 25152,
    "Ġdamps": 23475,
    "Ġpear": 11850,
    "hears": 12530,
    "vicinity": 20478,
    "elt": 4117,
    "Ġgro": 4396,
    "iffe": 21899,
    "Ġcough": 11580,
    "butter": 11783,
    "Ġlimp": 19179,
    "Ġmeasured": 9803,
    "Ġcoppers": 22580,
    "Ġswift": 3671,
    "grow": 10098,
    "ufact": 10733,
    "luckily": 19751,
    "Ġhenry": 5197,
    "ided": 2783,
    "Ġfishermen": 5970,
    "awake": 14451,
    "abode": 21788,
    "Ġstands": 5258,
    "Ġnumbers": 2885,
    "iracle": 11243,
    "Ġagitates": 22514,
    "edy": 2857,
    "Ġdriver": 16473,
    "abulary": 4799,
    "Ġspurred": 22135,
    "Ġplants": 22598,
    "Ġconcerning": 4069,
    "Ġcalculating": 9924,
    "Ġdeser": 3889,
    "nantucket": 7804,
    "stolidity": 21660,
    "soup": 21057,
    "ph": 937,
    "Ġwarped": 25035,
    "Ġmat": 1149,
    "belled": 24034,
    "Ġprocured": 8676,
    "Ġadvis": 9806,
    "Ġidiot": 11970,
    "Ġschol": 17376,
    "Ġpainting": 13139,
    "lect": 1224,
    "Ġevery": 927,
    "Ġ55": 24323,
    "Ġsignificance": 13279,
    "completely": 12418,
    "Ġsteward": 6584,
    "ca": 20792,
    "Ġfore": 2153,
    "Ġoverall": 4358,
    "tarpaulins": 26405,
    "prior": 21031,
    "Ġintentionally": 24523,
    "ribes": 23364,
    "otle": 21794,
    "Ġmonogram": 26574,
    "Ġsports": 18310,
    "Ġcombing": 22849,
    "Ġsins": 13836,
    "requent": 3650,
    "ull": 1431,
    "Ġcareless": 11118,
    "Ġaver": 1285,
    "Ġgrasping": 12163,
    "Ġseaport": 20598,
    "Ġreducing": 1960,
    "concern": 6099,
    "Ġbrew": 23342,
    "Ġanswers": 7070,
    "command": 6576,
    "Ġunsc": 22009,
    "Ġfever": 6558,
    "darted": 20831,
    "encountered": 20391,
    "example": 16011,
    "Ġperished": 11782,
    "approaching": 15011,
    "Ġmetal": 9383,
    "dry": 13702,
    "heaven": 8052,
    "Ġspurn": 18309,
    "Ġsaf": 4003,
    "tre": 8760,
    "Ġhinge": 25541,
    "ibbald": 18841,
    "nurse": 15207,
    "Ġattract": 11830,
    "Ġbrilliancy": 20105,
    "Ġtho": 21511,
    "Ġwish": 2098,
    "Ġdiscompose": 25579,
    "Ġcorruption": 15224,
    "Ġ24": 13192,
    "Ġemir": 23348,
    "overcome": 19050,
    "oriously": 17874,
    "Ġhumane": 11882,
    "Ġserve": 9368,
    "Ġamendment": 26024,
    "yingly": 23058,
    "cart": 10688,
    "Ġanimation": 11152,
    "fetch": 12462,
    "Ġfo": 1655,
    "Ġindex": 17049,
    "omit": 13973,
    "Ġwhatever": 3473,
    "Ġsigning": 22707,
    "Ġthrows": 14736,
    "Ġsoda": 25534,
    "aternity": 21264,
    "Ġlowest": 11122,
    "pair": 21011,
    "urged": 18048,
    "Ġinvention": 19951,
    "Ġpredicted": 2045,
    "ats": 4254,
    "reckoning": 25270,
    "prec": 3202,
    "Ġhighest": 3528,
    "Ġtypically": 1536,
    "Ġdrinks": 24279,
    "Ġtestimony": 14474,
    "._)": 10480,
    "Ġretreated": 13432,
    "Ġsixpence": 19316,
    "Ġmed": 3988,
    "philosop": 9567,
    "establish": 17392,
    "Ġmaketh": 15186,
    "Ġpeas": 8533,
    "arnel": 18124,
    "well": 1694,
    "Ġsense": 3252,
    "Ġyork": 11664,
    "Ġele": 1965,
    "erne": 21268,
    "Ġrail": 7223,
    "rane": 17653,
    "cousin": 10652,
    "Ġpublic": 4332,
    "89": 20758,
    "apping": 5851,
    "Ġnecessity": 7296,
    "Ġxli": 14542,
    "Ġequatorial": 13508,
    "mured": 6960,
    "Ġtimidly": 11338,
    "Ġenslaved": 26314,
    "rather": 5430,
    "Ġsubtile": 20378,
    "ould": 427,
    "Ġvagueness": 25737,
    "N": 50,
    "conquerable": 17398,
    "Ġstrict": 7222,
    "Ġ98": 24593,
    "Ġexamined": 6334,
    "Ġsaying": 3245,
    "======================================================================": 10067,
    "regulated": 23466,
    "keys": 15856,
    "Ġcontradict": 12383,
    "additional": 20462,
    "Ġhousehold": 8567,
    "Ġvigorously": 11299,
    "Ġtremble": 6906,
    "olence": 10229,
    "Ġarchangel": 8542,
    "Ġstur": 15714,
    "announce": 24560,
    "ivance": 22075,
    "Ġgratification": 24095,
    "Ġloop": 14146,
    "propagation": 1215,
    "Ġvalues": 2652,
    "Ġstuffed": 13408,
    "arest": 4006,
    "Ġrelate": 6875,
    "Ġlimit": 10443,
    "uncontrollable": 20594,
    "disgu": 19153,
    "Ġdealer": 23974,
    "Ġexpatiate": 18626,
    "Ġcapacity": 10440,
    "Ġcallest": 17832,
    "Ġconnexion": 11454,
    "Ġtawny": 20480,
    "Ġbenefited": 19396,
    "Ġevenings": 18754,
    "Ġfob": 21407,
    "Ġhurrah": 9868,
    "Ġfoundation": 4233,
    "Ġaffectionately": 13167,
    "Ġvesuvius": 26501,
    "preced": 10309,
    "Ġcoiled": 11818,
    "sery": 17661,
    "Ġaskance": 23147,
    "pipe": 8696,
    "Ġseap": 15815,
    "Ġorder": 1689,
    "says": 13298,
    "meditated": 19069,
    "Ġreadiness": 13047,
    "Ġsilken": 16377,
    "Ġinvestment": 24336,
    "dham": 20829,
    "Ġsquid": 11876,
    "Ġnarrowed": 24355,
    "Ġjury": 5378,
    "ulating": 10887,
    "Ġdeliber": 7268,
    "luck": 5733,
    "abri": 6682,
    "according": 12026,
    "boy": 4737,
    "Ġwoke": 21288,
    "Ġfaded": 10809,
    "Ġgn": 8817,
    "Ġsensational": 16387,
    "Ġprogrammed": 11058,
    "Ġresting": 7961,
    "Ġtrivial": 10142,
    "turning": 8316,
    "Ġdepending": 14287,
    "hedge": 22496,
    "Ġcapital": 7978,
    "Ġmanual": 14197,
    "50": 6784,
    "Ġdoubling": 23316,
    "Ġindist": 14408,
    "Ġunalterable": 15849,
    "prophet": 16177,
    "Ġcommanded": 6330,
    "Ġrespects": 7269,
    "Ġpathetic": 19043,
    "Ġrods": 9753,
    "Ġappend": 18356,
    "skelter": 24490,
    "b": 70,
    "Ġsince": 1795,
    "ab": 345,
    "Ġexcell": 10417,
    "lead": 10165,
    "year": 11096,
    "indisc": 22370,
    "Ġhastily": 5763,
    "squee": 15429,
    "Ġdesigned": 7740,
    "Ġunsocial": 18256,
    "Ġencoder": 3635,
    "ims": 7176,
    "Ġwits": 15530,
    "keepers": 16659,
    "Ġadjac": 18294,
    "Ġslack": 8955,
    "advent": 10220,
    "Ġcoll": 8220,
    "Ġken": 22188,
    "Ġuniversity": 13120,
    "Ġperiodically": 19493,
    "Ġsuppressed": 11909,
    "Ġassert": 7120,
    "Ġpossesses": 19350,
    "involuntarily": 20413,
    "Ġvivacious": 19814,
    "gloomy": 25144,
    "Ġrake": 18635,
    "mechanical": 25578,
    "Ġwhosoever": 21716,
    "ding": 1234,
    "Ġstain": 18064,
    "sleet": 20148,
    "Ġcontracting": 16009,
    "straight": 9939,
    "Ġcondescended": 19954,
    "Ġaroused": 15892,
    "vishnoo": 21118,
    "Ġpreviously": 3921,
    "Ġannotations": 25954,
    "Ġvapory": 17006,
    "Ġcountess": 11961,
    "Ġbrains": 2631,
    "assemblies": 25956,
    "Ġcontinu": 1166,
    "Ġwonders": 7501,
    "Ġcanv": 7009,
    "bil": 20770,
    "Ġoutdone": 22315,
    "Ġimperson": 14218,
    "Ġtried": 3648,
    "Ġmott": 17803,
    "stre": 5451,
    "Ġundergone": 18985,
    "Ġaspired": 25984,
    "resnet": 4070,
    "Ġfervent": 14895,
    "parm": 21013,
    "Ġeconomically": 25288,
    "Ġthings": 1964,
    "pictures": 15089,
    "Ġcharge": 5324,
    "leisure": 21369,
    "Ġlights": 8960,
    "Ġpos": 1007,
    "Ġentertain": 6053,
    "Ġzodiac": 16173,
    "track": 24314,
    "uring": 819,
    "Ġpretend": 7721,
    "Ġcontent": 5033,
    "Ġocc": 887,
    "sideways": 14572,
    "Ġapolog": 9043,
    "ushion": 14719,
    "Ġsecurity": 8977,
    "ĠĠĠĠĠĠĠĠĠĠĠĠĠĠĠĠĠĠĠĠĠĠĠĠĠĠ": 13387,
    "walk": 5523,
    "Ġundertaken": 18986,
    "Ġbusiness": 2235,
    "joint": 24006,
    "Ġweariness": 19793,
    "Ġelevated": 7318,
    "ieve": 1661,
    "Ġcleaned": 23180,
    "Ġabraham": 18400,
    "three": 5239,
    "©": 107,
    "bbed": 6911,
    "Ġungrateful": 14120,
    "Ġnoblest": 13240,
    "attached": 11933,
    "Ġimport": 1027,
    "Ġpoignant": 22591,
    "suit": 18630,
    "Ġspaces": 3111,
    "Ġfrank": 4419,
    "pondicherry": 26400,
    "xology": 21140,
    "Ġancestors": 25642,
    "fanc": 20863,
    "morning": 4858,
    "Ġigniting": 25070,
    "fishermen": 17062,
    "oundered": 14164,
    "Ġoff": 901,
    "frantic": 24283,
    "Ġshine": 12763,
    "butt": 15992,
    "Ġseparation": 11247,
    "crated": 16696,
    "mouthed": 12398,
    "Ġimmort": 19482,
    "tallow": 21084,
    "benefit": 24642,
    "cock": 12024,
    "Î": 143,
    "until": 6596,
    "Ġhauled": 11692,
    "Ġimpro": 909,
    "ires": 6037,
    "Ġwherever": 8523,
    "Ġdragged": 6889,
    "Ġtalking": 3859,
    "cooee": 12416,
    "Ġbeing": 1164,
    "war": 6802,
    "Ġstreat": 15718,
    "Ġnast": 15636,
    "Ġgrat": 4057,
    "Ġinner": 9670,
    "ample": 1363,
    "Ġestimable": 23870,
    "Ġhedgehogs": 25394,
    "import": 5668,
    "Ġache": 18663,
    "Ġimpending": 22381,
    "Ġshifting": 12765,
    "Ġremorselessly": 16967,
    "izarre": 17388,
    "Ġpersisted": 13034,
    "Ġfre": 1568,
    "tranqu": 14705,
    "Ġmyth": 18220,
    "Ġut": 2279,
    "orial": 8416,
    "Ġquill": 12854,
    "Ġmenaces": 23104,
    "Ġairy": 23314,
    "Ġacting": 10991,
    "Ġdrugg": 17119,
    "Ġcrav": 19172,
    "happen": 19330,
    "actory": 8907,
    "Ġhither": 4758,
    "understood": 13215,
    "Ġreturn": 1711,
    "inates": 21179,
    "Ġheroine": 24543,
    "message": 17371,
    "Ġsuggestion": 19706,
    "depend": 9112,
    "Ġpequod": 2323,
    "dressing": 11481,
    "Ġpurport": 14581,
    "pool": 16208,
    "Ġcomplain": 6685,
    "luyt": 18454,
    "pressing": 19016,
    "socket": 22725,
    "her": 487,
    "sum": 2087,
    "ti": 8389,
    "yed": 3273,
    "Ġgoin": 18470,
    "line": 1441,
    "biscuit": 17500,
    "jac": 8381,
    "lizzy": 6651,
    "finger": 10093,
    "Ġembatt": 18844,
    "Ġupbraided": 26528,
    "Ġhandy": 12933,
    "âĢĶâĢľ": 2968,
    "Ġhollow": 5648,
    "Ġloses": 15871,
    "conf": 4956,
    "Ġuneasy": 8661,
    "Ġ}": 21152,
    "Ġrock": 5310,
    "Ġhaught": 10252,
    "ged": 1514,
    "Ġdozing": 22240,
    "Ġmistress": 8611,
    "culiarity": 11142,
    "Ġinspector": 6498,
    "Ġutterance": 14762,
    "Ġherein": 16189,
    "Ġshutter": 16670,
    "Ġascribe": 16782,
    "told": 7811,
    "Ġdarkly": 19114,
    ">": 34,
    "ound": 585,
    "ging": 2602,
    ":âĢĶâĢĺ": 24193,
    "accompanied": 12420,
    "Ġschedu": 1823,
    "extreme": 11029,
    "ilib": 4119,
    "Ġcry": 3495,
    "Ġcoldness": 23757,
    "exceedingly": 9566,
    "Ġaccidental": 16848,
    "endeavour": 17031,
    "Ġshivered": 14107,
    "Ġsphynx": 20711,
    "arrange": 23764,
    "Ġglare": 13010,
    "Ġilliter": 23467,
    "Ġrecre": 22734,
    "Ġabusive": 22280,
    "Ġspect": 3551,
    "Ġactivations": 2720,
    "ptember": 10894,
    "Ġincessantly": 11411,
    "Ġreliability": 22878,
    "art": 593,
    "riages": 10243,
    "Ġbush": 23335,
    "Ġlouder": 13467,
    "ashes": 6015,
    "Ġclever": 7054,
    "bun": 12436,
    "Ġintelligence": 560,
    "Ġchivalry": 25819,
    "hide": 10703,
    "windward": 24160,
    "preservation": 25305,
    "qual": 8156,
    "Ġchilly": 25562,
    "Ġnegro": 6447,
    "divers": 15341,
    "Ġcynicism": 25771,
    "isturbed": 18297,
    "Ġunnear": 22023,
    "Ġcomforted": 19389,
    "itted": 2441,
    "caves": 20815,
    "ressed": 3022,
    "position": 15412,
    "Ġcore": 13877,
    "lp": 898,
    "Ġinexperienced": 26100,
    "relics": 24012,
    "Ġadored": 18293,
    "Ġrescue": 13341,
    "then": 2053,
    "Ġast": 2958,
    "Ġsharply": 9402,
    "Ġmaj": 3929,
    "ignant": 11129,
    "Ġsoldiers": 8686,
    "Ġ100": 14362,
    "onent": 21247,
    ":": 30,
    "ington": 21300,
    "Ġdissip": 10992,
    "Ġloggerhead": 13656,
    "ruit": 22178,
    "pil": 15407,
    "Ġindomit": 22952,
    "Ġopposite": 5120,
    "Ġkramm": 26233,
    "Ġwillow": 18530,
    "Ġforecastle": 5495,
    "fail": 17540,
    "Ġirksome": 13110,
    "Ġpepper": 9780,
    "Ġultimate": 12347,
    "Ġinqu": 2962,
    "Ġunivers": 2126,
    "Ġcolossal": 11459,
    "ected": 7872,
    "shed": 8094,
    "ield": 2406,
    "commun": 15033,
    "Ġhope": 1789,
    "ogrand": 26261,
    "Ġpersever": 10002,
    "matical": 13127,
    "Ġoppressively": 25712,
    "network": 1934,
    "Ġlesson": 7276,
    "Ġcalhoun": 23042,
    "fever": 22498,
    "ady": 992,
    "Ġdelicately": 24126,
    "avenue": 25057,
    "Ġcharmed": 16762,
    "Ġconcern": 2657,
    "Ġdoom": 6417,
    "shiver": 16020,
    "Ġperish": 8874,
    "Ġmodified": 14167,
    "Ġclothed": 19605,
    "kington": 11203,
    "securing": 19812,
    "Ġpince": 21469,
    "Ġdistraction": 22503,
    "Ġstudy": 1812,
    "Ġberyls": 25775,
    "spoke": 11023,
    "mas": 5212,
    "Ġindispensable": 11898,
    "scornful": 26575,
    "Ġreasonably": 11086,
    "Ġcompanionship": 14919,
    "Ġconceals": 23901,
    "Ġimminent": 11244,
    "Ġnumber": 1982,
    "Ġimmediately": 3365,
    "Ġrout": 7402,
    "Ġindign": 6173,
    "ely": 624,
    "Ġscandinavian": 26344,
    "Ġindignity": 18833,
    "centred": 25017,
    "Ġengaged": 3429,
    "ott": 1874,
    "Ġtexture": 19159,
    "Ġdifferences": 18713,
    "Ġsolutions": 1949,
    "Ġassemblage": 26351,
    "reader": 23844,
    "Ġinto": 648,
    "Ġfem": 6134,
    "Ġfeels": 6882,
    "taffrail": 15441,
    "Ġconsid": 1811,
    "Ġunman": 12771,
    "inions": 8401,
    "Ġappertain": 22210,
    "hatch": 15363,
    "Ġquiver": 16001,
    "³": 116,
    "Ġallev": 18100,
    "Ġpatter": 829,
    "Ġbrighton": 6470,
    "Ġceases": 19312,
    "Ġresigned": 9767,
    "Ġoverwrites": 5032,
    "Ġbec": 1350,
    "asible": 21539,
    "Ġunbroken": 18250,
    "Ġsecuring": 11990,
    "listen": 13513,
    "Ġconcluding": 9856,
    "Ġwhichever": 13999,
    "Ġstratag": 26028,
    "Ġcommonplaces": 16287,
    "flood": 19805,
    "Ġpasseng": 12968,
    "Ġrat": 4353,
    "Ġhumanity": 6731,
    "rogress": 21533,
    "breaking": 14763,
    "mou": 10708,
    "educated": 17259,
    "Ġgrowled": 19283,
    "excuse": 13380,
    "Ġbegrimed": 26578,
    "circ": 4388,
    "shine": 9285,
    "Ġfold": 5531,
    "Ġconcerned": 5331,
    "whims": 22236,
    "itud": 2929,
    "Ġsavages": 9911,
    "aths": 22696,
    "cat": 15323,
    "Ġevaluation": 16565,
    "oc": 2833,
    "itage": 17816,
    "sword": 10726,
    "Ġexalted": 12410,
    "Ġresp": 2496,
    "Ġroarings": 25302,
    "Ġ13": 6718,
    "Ġnosegay": 24192,
    "Ġagreeing": 20017,
    "duty": 20238,
    "dutch": 17218,
    "supportable": 12368,
    "eness": 2290,
    "surround": 16758,
    "Ġovertaken": 18429,
    "Ġunwaning": 25170,
    "companies": 24894,
    "Ġomit": 17815,
    "Ġtransformers": 1145,
    "capitals": 25080,
    "Ġeddies": 23436,
    "deformity": 22143,
    "Ġemail": 19074,
    "sherlock": 5422,
    "Ġseeks": 14304,
    "Ġmaiden": 13385,
    "Ġsmell": 7216,
    "Ġcogn": 11002,
    "Ġown": 1003,
    "Ġstead": 5650,
    "Ġsubdiv": 16157,
    "Ġdescrib": 2719,
    "Ġgrimes": 11034,
    "Ġmisgivings": 15290,
    "extending": 22764,
    "bulk": 19923,
    "Ġhazarded": 25654,
    "Ġquench": 22416,
    "etah": 12658,
    "fordshire": 4675,
    "Ġmodesty": 12815,
    "sus": 6228,
    "alth": 3257,
    "wandered": 20284,
    "Ġorphans": 20203,
    "Ġunav": 18240,
    "Ġvices": 14082,
    "mist": 5686,
    "tolerable": 17688,
    "Ġcheery": 16366,
    "Ġslapped": 23168,
    "Ġamuse": 5939,
    "Ġfielding": 16231,
    "Ġinsufficient": 9672,
    "Ġhabit": 6771,
    "rifled": 21046,
    "altering": 12637,
    "Ġmalay": 24391,
    "Ġstoutest": 24628,
    "Ġoppression": 23653,
    "Ġink": 8802,
    "Ġcaved": 21351,
    "Ġoutrid": 22312,
    "kin": 7131,
    "foundation": 16714,
    "Ġgrasp": 4662,
    "Ġarmy": 11739,
    "Ġcelebrated": 13593,
    "ailing": 7021,
    "Ġ117": 19696,
    "Ġindolent": 13002,
    "Ġnois": 4268,
    "sympathy": 20541,
    "comparatively": 25839,
    "gument": 20884,
    "Ġunwillingly": 15846,
    "Ġtells": 9360,
    "fow": 20852,
    "Ġbluish": 23652,
    "Ġpresc": 15923,
    "marry": 13322,
    "america": 17097,
    "Ġoccup": 3741,
    "Ġobscure": 9553,
    "Ġmathematics": 12071,
    "Ġcitations": 25437,
    "Ġpeasants": 12330,
    "Ġgive": 1714,
    "Ġimpossible": 3542,
    "Ġdiscussion": 17194,
    "astic": 1870,
    "Ġrefreshing": 20263,
    "Ġlongitudes": 22631,
    "rollable": 13944,
    "Ġsupervised": 3425,
    "Ġshe": 466,
    "Ġrippling": 17277,
    "stee": 21648,
    "istol": 6259,
    "ds": 4686,
    "Ġthrilling": 19747,
    "acquainted": 7313,
    "aux": 14290,
    "invite": 25088,
    "Ġmorals": 22967,
    "Ġvacant": 9494,
    "ock": 15401,
    "Ġhast": 3151,
    "poling": 12217,
    "long": 2911,
    "Ġhollowly": 24526,
    "hetically": 21207,
    "Ġgryphon": 4300,
    "sixty": 24852,
    "these": 3243,
    "uncle": 8158,
    "ately": 1713,
    "copper": 19187,
    "Ġscores": 2715,
    "anted": 5026,
    "poverty": 22906,
    "Ġsentin": 16370,
    "prevailed": 17344,
    "Ġfollows": 7673,
    "Ġscotland": 6639,
    "od": 352,
    "purpose": 10043,
    "nearest": 16024,
    "Ġfill": 5701,
    "august": 11071,
    "Ġpride": 3824,
    "Ġclergyman": 8711,
    "Ġindec": 13927,
    "Ġdodge": 19885,
    "bene": 6112,
    "Ġanat": 8123,
    "Ġphilosoph": 19650,
    "wart": 17705,
    "Ġtalents": 15044,
    "Ġfors": 21768,
    "Ġfixing": 13155,
    "Ġvale": 14081,
    "Ġmace": 21308,
    "Ġhumaneval": 25582,
    "vellers": 16673,
    "Ġcath": 17826,
    "washed": 13043,
    "claps": 23150,
    "Ġtree": 5284,
    "Ġgri": 17987,
    "rusion": 11323,
    "tiness": 21070,
    "Ġabandonment": 25603,
    "Ġsher": 3765,
    "Ġraw": 3321,
    "stained": 21652,
    "Ġbaltic": 18798,
    "Ġinverted": 12634,
    "aker": 3663,
    "pe": 1438,
    "end": 498,
    "convinced": 10622,
    "Ġfrightful": 7735,
    "Ġravines": 25831,
    "Ġdependency": 3487,
    "affording": 23775,
    "stones": 11635,
    "bearance": 22491,
    "Ġalone": 2568,
    "folio": 10546,
    "Ġcaravan": 26290,
    "Ġreverend": 15258,
    "inquiries": 13576,
    "conve": 14243,
    "spin": 22727,
    "car": 4213,
    "Ġunwe": 15836,
    "raising": 21629,
    "hate": 20891,
    "Ġident": 2243,
    "burnt": 20078,
    "Ġdifficult": 3570,
    "sleeve": 26108,
    "seemed": 4304,
    "Ġjackets": 19601,
    "answer": 11730,
    "Ġhands": 1666,
    "Ġdragging": 14475,
    "Ġgods": 6454,
    "Ġhook": 6453,
    "Ġgather": 6534,
    "Ġpatched": 16383,
    "cture": 15662,
    "iscuit": 10598,
    "etus": 21575,
    "Ġchink": 15930,
    "representativeness": 25272,
    "Ġenumer": 12742,
    "ists": 4002,
    "Ġswiss": 18881,
    "Ġhammer": 6093,
    "wherein": 19107,
    "Ġlengthwise": 10452,
    "Ġgrapp": 14100,
    "Ġparsee": 6413,
    "banish": 20781,
    "sory": 17659,
    "Ġbod": 4580,
    "Ġwarsaw": 26167,
    "forgotten": 12414,
    "box": 5749,
    "Ġwinchester": 10065,
    "Ġmorbid": 16232,
    "Ġdaggoo": 5441,
    "Ġgrind": 18735,
    "Ġominous": 12422,
    "Ġsqualidness": 25842,
    "Ġsixteen": 8282,
    "impenetrable": 26196,
    "Ġoverfitting": 1542,
    "Ġhelmsman": 10504,
    "Ġpouring": 12621,
    "Ġpolitely": 8993,
    "Ġfortitude": 9884,
    "Ġplaintiffs": 13608,
    "Ġnow": 694,
    "ru": 480,
    "Ġcheap": 13088,
    "Ġobservations": 13552,
    "Ġunaccountably": 26515,
    "iries": 18169,
    "anyth": 5438,
    "fortun": 3538,
    "Ġintroduce": 3205,
    "Ġthose": 1174,
    "Ġgrow": 2858,
    "Ġexcess": 3342,
    "[": 63,
    "waiter": 24586,
    "Ġpratt": 23218,
    "meeting": 11019,
    "tis": 4107,
    "Ġempty": 5353,
    "Ġstaggers": 24653,
    "bitts": 26122,
    "hideous": 25407,
    "Ġlim": 2378,
    "Ġlad": 2363,
    "iance": 5279,
    "Ġstrategies": 1839,
    "exactly": 10636,
    "Ġcin": 13874,
    "Ġcandour": 14672,
    "Ġhappened": 3714,
    "Ġvalidation": 2356,
    "ope": 4126,
    "Ġshepherd": 14152,
    "otics": 10223,
    "Ġmarvell": 7248,
    "Ġ182": 13235,
    "instinctively": 26327,
    "Ġelijah": 9099,
    "Ġtext": 2269,
    "Ġscrews": 25177,
    "Ġelemental": 19918,
    "bing": 7791,
    "Ġassembl": 20059,
    "hors": 9598,
    "Ġconvinced": 4207,
    "spikes": 10340,
    "Ġunceasingly": 20357,
    "Ġimprecate": 20516,
    "cery": 20807,
    "Ġlistened": 4469,
    "Ġkno": 5242,
    "Ġwednesday": 9024,
    "conda": 18993,
    "Ġunt": 2293,
    "Ġconsecutive": 20701,
    "Ġlegal": 10439,
    "dignity": 15344,
    "Ġtrouble": 3692,
    "Ġalighted": 18103,
    "Ġgrieve": 14706,
    "likeness": 19476,
    "Ġattentions": 5877,
    "Ġtemporary": 7979,
    "Ġbrink": 18771,
    "aping": 8193,
    "Ġfathom": 17048,
    "paradise": 20636,
    "Ġpoetical": 25056,
    "ativeness": 15519,
    "lower": 8880,
    "Ġkissed": 10044,
    "Ġmeditate": 16682,
    "ry": 808,
    "Ġfriends": 2655,
    "Ġsinister": 8568,
    "Ġers": 15459,
    "incidentally": 20538,
    "blo": 6353,
    "supposing": 24135,
    "Ġpromises": 10400,
    "Ġarranging": 11174,
    "Ġallows": 3234,
    "correspond": 13397,
    "quod": 2164,
    "Ġgravity": 9247,
    "unken": 10236,
    "Ġwants": 5742,
    "Ġugl": 12679,
    "footman": 17162,
    "comprehend": 14358,
    "Ġpeace": 3694,
    "holland": 24039,
    "Ġtreas": 7358,
    "oped": 6046,
    "bushes": 24447,
    "injured": 15131,
    "ĭ": 238,
    "Ġsanely": 24980,
    "erred": 6376,
    "Ġwhaling": 2781,
    "Ġducks": 25157,
    "Ġcamberwell": 25350,
    "Ġplantation": 11423,
    "Ġexceptional": 19369,
    "Ġsc": 527,
    "Ġmotions": 8280,
    "rings": 10722,
    "sul": 15420,
    "inferior": 12392,
    "really": 6971,
    "audible": 17132,
    "Ġever": 1182,
    "Ġfry": 17879,
    "hatches": 19927,
    "Ġconfid": 7687,
    "south": 8758,
    "another": 5439,
    "Ġcaptured": 7245,
    "Ġprey": 6415,
    "Ġrid": 4354,
    "eh": 13709,
    "Ġresolutely": 14609,
    "Ġmind": 1619,
    "Ġreversed": 15694,
    "aved": 5475,
    "Ġquivers": 22410,
    "Ġtradesmen": 17105,
    "Ġpref": 14171,
    "Ġconsequently": 8059,
    "Ġcorporeal": 17359,
    "henomena": 20271,
    "Ġmixing": 24934,
    "eck": 20843,
    "jep": 20925,
    "Ġviolin": 16427,
    "Ġtrotting": 19974,
    "Ġgentleman": 3039,
    "Ġthen": 664,
    "discharging": 26305,
    "Ġforgo": 21770,
    "ichever": 13956,
    "Ġrolls": 8333,
    "found": 4215,
    "lan": 15376,
    "lections": 4751,
    "Ġembraced": 10005,
    "Ġgratitude": 5599,
    "Ġrewarding": 13436,
    "fearfully": 25116,
    "Ġmean": 744,
    ":âĢĶ": 4432,
    "Ġwhalebone": 10977,
    "cus": 3981,
    "Ġinnovative": 1617,
    "invested": 17117,
    "Ġimpenitent": 26548,
    "Ġmerciless": 25246,
    "Ġplaned": 24054,
    "hs": 8377,
    "Ġbenignity": 18783,
    "leader": 25351,
    "lucifer": 25301,
    "arctic": 12607,
    "Ġanatomy": 12318,
    "Ġprofanely": 23569,
    "Ġaspects": 4175,
    "hours": 9124,
    "saturday": 14857,
    "Ġestablished": 9069,
    "Ġgrizzled": 11450,
    "Ġcontradicted": 20210,
    "Ġheaving": 7601,
    "Ġforegoing": 23448,
    "Ġradiating": 24335,
    "comfortableness": 24525,
    "Ġinglorious": 24424,
    "Ġhastened": 9004,
    "Ġauxiliary": 26418,
    "fier": 9593,
    "Ġadversary": 12171,
    "Ġdishonoured": 20389,
    "fre": 5425,
    "Ġfeast": 10277,
    "Ġegyptians": 25289,
    "Ġtransient": 18481,
    "featured": 24113,
    "coarse": 16486,
    "Ġallegor": 25545,
    "Ġcraw": 7282,
    "while": 2933,
    "Ġstrat": 16090,
    "invincible": 25089,
    "Ġbackwoods": 22648,
    "3": 23,
    "Ġfootsteps": 16572,
    "Ġvultures": 25653,
    "elstrom": 17981,
    "Ġtranslations": 12050,
    "elfth": 22366,
    "Ġasks": 5115,
    "extric": 22763,
    "Ġnarrated": 14870,
    "stripped": 16945,
    "Ġunhappily": 18262,
    "Ġfangs": 12594,
    "istered": 14144,
    "quite": 4645,
    "headers": 23106,
    "ece": 17531,
    "Ġbenjam": 22888,
    "ensing": 12893,
    "sailed": 17666,
    "Ġsquall": 7043,
    "Ġdiscre": 2416,
    "Ġmorbidness": 20627,
    "Ġsloping": 11937,
    "Ġflurry": 18860,
    "Ġdoze": 14176,
    "finds": 19926,
    "Ġpulpit": 7470,
    "Ġattended": 5391,
    "Ġautumn": 14507,
    "Ġsan": 7824,
    "bitter": 11240,
    "Ġshone": 7404,
    "fixed": 7549,
    "precedented": 15173,
    "hammad": 23261,
    "ior": 2040,
    "Ġsmut": 22553,
    "Ġingenious": 12346,
    "Ġasser": 6257,
    "Ġexclusiveness": 23924,
    "alas": 8803,
    "Ġslippers": 19614,
    "lamp": 9608,
    "etition": 7382,
    "Ġsmelling": 16064,
    "Ġunob": 22010,
    "Ġskull": 6288,
    "Ġwriting": 4666,
    "powder": 17645,
    "Ġrepul": 16407,
    "boo": 16349,
    "Ġnewcom": 16220,
    "Ġtransformations": 3484,
    "zing": 7820,
    "Ġjoyful": 13219,
    "uber": 15444,
    "amous": 15758,
    "Ġgrudge": 20692,
    "changing": 10854,
    "zeal": 16245,
    "Ġray": 18634,
    "ever": 1081,
    "teenth": 11872,
    "tremble": 17141,
    "Ġpersonally": 8599,
    "Ġessex": 20125,
    "ontory": 10459,
    "sion": 8093,
    "univers": 15769,
    "trees": 10731,
    "Ġadvertising": 25389,
    "boots": 11126,
    "Ġthoughtfulness": 18774,
    "screw": 9345,
    "Ġchoosing": 19589,
    "highest": 20406,
    "Ġbigot": 24565,
    "Ġsurrounding": 12160,
    "Ġstrang": 4162,
    "Ġbou": 17852,
    "Ġblameless": 19858,
    "Ġbumpkins": 25281,
    "Ġsolicited": 20035,
    "Ġboat": 1277,
    "surv": 24213,
    "narrow": 11507,
    "Ġsevere": 6031,
    "Ġflaming": 8563,
    "Ġsim": 732,
    "pers": 4336,
    "Ġweighted": 2090,
    "Ġmoon": 4607,
    "Ġwisest": 11232,
    "Ġthistle": 21913,
    "Ġgreen": 3051,
    "Ġthin": 4347,
    "origin": 7582,
    "Ġcle": 1512,
    "Ġsuggestions": 24453,
    "Ġpewter": 17185,
    "Ġcre": 888,
    "Ġthumb": 6981,
    "Ġsacri": 18328,
    "Ġostr": 21323,
    "Ġherd": 7887,
    "Ġcomplied": 14733,
    "ede": 21503,
    "boilers": 26297,
    "Ġsurpl": 19132,
    "gers": 8375,
    "Ġcaused": 5047,
    "lucky": 24545,
    "Ġcontact": 9280,
    "Ġdisagree": 22529,
    "Ġbefell": 14009,
    "ezing": 10573,
    "uling": 2259,
    "an": 278,
    "Ġseams": 12122,
    "Ġsmiled": 5940,
    "Ġkne": 4267,
    "Ġconjugal": 25101,
    "emper": 18180,
    "Ġsensit": 2944,
    "onsible": 22558,
    "Ġbarricade": 14660,
    "Ġgrace": 5374,
    "ĠĠĠĠĠĠĠ": 7633,
    "Ġgiddy": 20495,
    "Ġindiam": 22950,
    "Ġsad": 3870,
    "Ġjovial": 19233,
    "bask": 20775,
    "Ġrecommence": 16812,
    "part": 2574,
    "Ġrambled": 20167,
    "Ġslavish": 23170,
    "Ġdegenerating": 25799,
    "rugg": 15896,
    "Ġsuperst": 7703,
    "exagger": 22425,
    "terr": 8153,
    "partly": 14602,
    "wandering": 20283,
    "wn": 719,
    "Ġlover": 7193,
    "Ġsignificantly": 4518,
    "Ġbit": 2961,
    "hawks": 24694,
    "Ġjuicy": 25370,
    "atus": 21259,
    "garn": 20869,
    "arled": 21440,
    "transition": 24513,
    "Ġaudacity": 19881,
    "infl": 15486,
    "pursu": 11392,
    "bler": 11472,
    "Ġinterests": 14570,
    "):": 11461,
    "Ġbeat": 4491,
    "escaped": 14229,
    "ĠĠĠĠĠĠĠĠĠĠĠĠĠĠĠĠĠĠĠĠĠĠĠĠĠĠĠĠĠĠĠĠĠĠĠĠĠĠĠĠĠĠĠĠĠ": 9951,
    "full": 7421,
    "Ġtoast": 21509,
    "Ġmountain": 3371,
    "Ġirreduc": 5491,
    "Ġpoint": 2057,
    "Ġswish": 23051,
    "Ġearnestness": 12123,
    "ckled": 9256,
    "cils": 20813,
    "Ġmalignity": 10556,
    "Ġdrives": 14578,
    "Ġbarrowful": 25595,
    "Ġobeyed": 12214,
    "Ġtough": 13814,
    "Ġlees": 18075,
    "Ġamusement": 8055,
    "Ġcommodores": 25374,
    "Ġimpression": 5732,
    "spiracle": 22732,
    "Ġrussia": 26267,
    "Ġinsens": 8276,
    "absurd": 21792,
    "journey": 8744,
    "Ġmice": 13858,
    "Ġadoption": 24948,
    "tempt": 21078,
    "vell": 3960,
    "Ġterr": 3274,
    "Ġdismasted": 15250,
    "Ġbuttoned": 25368,
    "Ġdepressed": 10882,
    "Ġjura": 14192,
    "Ġfretfully": 25447,
    "Ġconsolation": 6208,
    "Ġdivide": 12108,
    "Ġconcept": 666,
    "Ġfeat": 10937,
    "Ġcharing": 14180,
    "garity": 17554,
    "hypothe": 25905,
    "irene": 15913,
    "Ġfad": 17876,
    "Ġinequalities": 26453,
    "Ġmig": 13855,
    "Ġinsulated": 23679,
    "Ġscalable": 1497,
    "reve": 12536,
    "accents": 19210,
    "Ġnail": 9195,
    "avating": 18606,
    "Ġ74": 24261,
    "Ġpeleg": 3740,
    "Ġstooped": 14462,
    "Ġparaph": 22117,
    "Ġchim": 5932,
    "Ġaccountability": 10438,
    "leaving": 10791,
    "Ġpalp": 11250,
    "_.,": 14562,
    "Ġcontribut": 12856,
    "elzebub": 26464,
    "Ġfurthest": 22811,
    "Ġhorses": 6385,
    "Ġskip": 1846,
    "Ġjustice": 5111,
    "expected": 5780,
    "Ġinclusive": 24163,
    "Ġswear": 6461,
    "irra": 15782,
    "Ġpaved": 17912,
    "Ġglimmering": 25240,
    "Ġpads": 21472,
    "Ġetc": 7084,
    "Ġ1828": 25720,
    "Ġconcrete": 20635,
    "contin": 16541,
    "Ġsurrey": 14558,
    "Ġpaste": 23417,
    "Ġmortification": 12091,
    "Ġreced": 15689,
    "promontory": 24728,
    "amid": 12721,
    "Ġob": 860,
    "Ġhumility": 12982,
    "Ġretired": 6070,
    "leads": 21368,
    "Ġblanched": 26282,
    "Ġhungry": 10532,
    "Ġimmeas": 18330,
    "Ġruskin": 25808,
    "share": 14235,
    "enstein": 5799,
    "ty": 998,
    "permission": 15901,
    "Ġsorrow": 4627,
    "Ġleaned": 7608,
    "gen": 6503,
    "Ġacid": 22679,
    "Ġinhaled": 25451,
    "season": 14033,
    "exercise": 17459,
    "unned": 21875,
    "depart": 12263,
    "bering": 18680,
    "Ġconsist": 1937,
    "ument": 5240,
    "Ġequally": 5257,
    "Ġballarat": 14718,
    "Ġhitherto": 5879,
    "Ġmisled": 22752,
    "Ġintru": 15825,
    "Ġmelancholy": 5606,
    "Ġexchanging": 18132,
    "Ġmuffled": 10640,
    "relu": 17759,
    "Ġscal": 1481,
    "conjecture": 15121,
    "oices": 7348,
    "Ġarid": 22173,
    "violets": 23543,
    "Ġcarve": 23090,
    "ggy": 13112,
    "Ġevents": 4472,
    "formation": 22217,
    "Ġentities": 11862,
    "Ġsnatched": 10471,
    "Ġethiopian": 26613,
    "raised": 15676,
    "Ġimmensely": 13594,
    "dÃ¦mon": 17527,
    "Ġtriumph": 5143,
    "ses": 3026,
    "anse": 12572,
    "Ġdiscuss": 9473,
    "Ġbegins": 7244,
    "Ġgospel": 18000,
    "Ġmuster": 16120,
    "Ġobjection": 6585,
    "ouses": 5163,
    "Ġvind": 10249,
    "comfortably": 16875,
    "Ġexperiments": 23028,
    "springing": 24889,
    "action": 3728,
    "Ġunderstand": 835,
    "Ġlist": 2364,
    "Ġtenth": 13824,
    "Ġhardly": 2433,
    "order": 1962,
    "Ġungodly": 26513,
    "Ġbrazier": 26320,
    "Ġcoins": 11817,
    "Ġsprained": 15881,
    "Ġnav": 5818,
    "Ġenlightened": 12743,
    "Ġquivered": 18467,
    "Ġ3": 3986,
    "Ġvarieties": 14309,
    "Ġperiod": 4005,
    "Ġflapp": 23005,
    "illes": 12691,
    "Ġx": 2074,
    "condite": 23246,
    "Ġshrivelled": 19702,
    "toes": 22561,
    "windows": 19533,
    "hullo": 17570,
    "revealed": 20414,
    "Ġskylarking": 19485,
    "Ġfurlong": 18739,
    "Ġuseless": 7037,
    "Ġflora": 11416,
    "Ġsympathies": 14860,
    "Ġcommander": 8624,
    "Ġschedule": 2370,
    "Ġwardrobe": 17225,
    "Ġencoura": 1365,
    "Ġloose": 4647,
    "Ġfelt": 1746,
    "cellar": 20276,
    "Ġslumbers": 18941,
    "employed": 17261,
    "Ġsilver": 7463,
    "Ġtranscend": 25667,
    "Ġmonkey": 8225,
    "por": 2151,
    "Ġgrating": 14354,
    "Ġforge": 8456,
    "Ġsubur": 12953,
    "arthy": 4821,
    "Ġalco": 21779,
    "Ġrust": 6408,
    "drove": 16993,
    "Ġchronicle": 20227,
    "Ġarrange": 3120,
    "Ġprogressive": 5023,
    "Ġval": 954,
    "discrimin": 19607,
    "Ġrelief": 6059,
    "Ġprotection": 9461,
    "anter": 9166,
    "etime": 12656,
    "elag": 12655,
    "liest": 6294,
    "Ġdeceived": 6544,
    "unaffected": 21880,
    "impression": 15708,
    "Ġreaped": 18029,
    "Ġtrucks": 19511,
    "Ġsledge": 8110,
    "ented": 4348,
    "Ġmainten": 16115,
    "Ġconf": 1818,
    "amouch": 21848,
    "wanted": 10743,
    "Ġwrap": 24594,
    "Ġbachelor": 7786,
    "Ġsolemn": 4101,
    "gon": 17552,
    "Ġfrivolous": 26176,
    "rawling": 21633,
    "Ġbehavioral": 11396,
    "Ġcautiously": 16977,
    "Ġnetwork": 452,
    "appin": 18760,
    "untering": 15773,
    "flu": 9117,
    "save": 13784,
    "octavo": 11385,
    "Ġheard": 1400,
    "kitty": 10105,
    "Ġfrigates": 25707,
    "Ġfrown": 10807,
    "Ġerud": 20053,
    "thinks": 16641,
    "Ġmarching": 16699,
    "azore": 23461,
    "Ġspinning": 15052,
    "ar": 285,
    "Ġincome": 7916,
    "Ġmanifested": 17157,
    "Ġor": 437,
    "Ġgripping": 26186,
    "Ġdank": 21426,
    "cannibals": 25584,
    "Ġdinah": 9452,
    "Ġ5": 4934,
    "Ġshrink": 14803,
    "cool": 19186,
    "Ġhypothe": 4074,
    "cracy": 24690,
    "Ġspot": 4156,
    "verest": 13990,
    "Ġwrought": 11942,
    "companions": 15023,
    "Ġearned": 19403,
    "Ġunearthly": 9036,
    "Ġappropriate": 2251,
    "expense": 22426,
    "Ġaloud": 6252,
    "pudding": 17647,
    "Ô": 149,
    "Ġstatue": 23146,
    "Ġname": 2083,
    "entering": 17976,
    "Ġpredicting": 2415,
    "oir": 21001,
    "Ġamaze": 22480,
    "Ġrecl": 16138,
    "Ġinnumerable": 13350,
    "Ġarg": 4765,
    "walls": 25345,
    "secre": 18127,
    "ted": 788,
    "ricane": 16277,
    "eag": 20841,
    "Ġprivileged": 20111,
    "Ġavenue": 13620,
    "Ġsulky": 13514,
    "Ġangles": 23587,
    "uth": 3016,
    "cred": 9107,
    "Ġdemonstrate": 24994,
    "Ġanoints": 25538,
    "Ġfacilitate": 26098,
    "presbyterian": 26368,
    "ribe": 1225,
    "doublo": 24660,
    "Ġmembrane": 20502,
    "Ġcommonest": 23087,
    "Ġsatisfy": 6912,
    "Ġodious": 12148,
    "Ġcompassionate": 24723,
    "Ġjerked": 19831,
    "Ġforster": 5230,
    "Ġplaited": 14283,
    "Ġeliminating": 20618,
    "Ġintensified": 17018,
    "Ġdistorted": 14249,
    "likes": 18814,
    "Ġsegment": 12754,
    "Ġpredict": 684,
    "Ġcourage": 4632,
    "Ġoverwhelmed": 11403,
    "Ġcauses": 2563,
    "Ġdeeps": 16113,
    "Ġscoundrel": 13669,
    "atch": 672,
    "Ġabatement": 22283,
    "like": 1887,
    "À": 129,
    "Ġappro": 653,
    "Ġcircumnavigating": 25614,
    "Ġchemical": 10410,
    "iah": 14415,
    "Ġhasty": 10477,
    "tern": 4225,
    "Ġrepublican": 17411,
    "Ġsquaw": 22836,
    "complacency": 19913,
    "Ġbend": 9170,
    "reeling": 21243,
    "sing": 5138,
    "==": 944,
    "inaw": 21182,
    "âĢľ": 344,
    "moved": 9783,
    "exam": 10976,
    "Ġrainy": 24341,
    "Ġvegetables": 15220,
    "chiefly": 14845,
    "Ġtal": 7565,
    "Ġacquies": 11098,
    "wedded": 24339,
    "Ġtroubled": 6615,
    "Ġbeck": 14008,
    "staking": 21645,
    "puff": 21021,
    "generosity": 23784,
    "Ġperfectly": 3702,
    "aiian": 23591,
    "Ê": 139,
    "Ġcook": 3713,
    "Ġsettles": 22917,
    "Ġunicorn": 22052,
    "Ġcalling": 5662,
    "Ġsquaring": 22837,
    "Ġ150": 22826,
    "Ġproposition": 23248,
    "ural": 505,
    "Ġlashings": 25097,
    "Ġerskine": 17431,
    "Ġrans": 21963,
    "Ġobjects": 5578,
    "Ġug": 8140,
    "Ġmission": 13003,
    "baked": 20778,
    "Ġoar": 6236,
    "Ġcontempl": 6701,
    "Ġsalary": 13292,
    "image": 9685,
    "Ġfluffy": 19362,
    "msgate": 18415,
    "dischar": 19151,
    "Ġcharges": 23266,
    "H": 44,
    "splice": 17170,
    "Ġbinding": 20417,
    "Ġthat": 335,
    "Ġwarn": 5695,
    "Ġfaire": 13363,
    "Ġtant": 12522,
    "Ġlethar": 21743,
    "Ġconsternation": 9858,
    "Ġsqueaking": 26274,
    "Ġcountry": 2535,
    "Ġmerged": 19296,
    "Ġsubdued": 11030,
    "Ġchin": 4890,
    "Ġglacier": 11433,
    "fight": 17538,
    "Ġbricks": 13561,
    "Ġimputation": 22169,
    "leather": 13889,
    "whip": 22234,
    "Ġleisure": 6539,
    "eastward": 15128,
    "Ġhorsham": 10406,
    "Ġterrified": 14671,
    "ually": 2769,
    "Ġlump": 21549,
    "shout": 22439,
    "Ġdiffusion": 23780,
    "Ġdisciple": 22780,
    "Ġprinciple": 6770,
    "ignation": 11128,
    "Ġun": 422,
    "Ġcompact": 2264,
    "Ġbeliever": 25845,
    "Ġorganize": 8991,
    "Ġsuppress": 13021,
    "ordinary": 4407,
    "accessible": 13638,
    "iour": 4037,
    "ifford": 15781,
    ")": 13,
    "Ġsoothe": 7405,
    "Ġtoo": 1165,
    "Ġchain": 1845,
    "Ġfacility": 19849,
    "bowed": 10683,
    "Ġsituation": 4072,
    "laid": 10109,
    "peril": 18342,
    "Ġboister": 12917,
    "Ġtattooing": 15027,
    "interests": 19707,
    "Ġreferred": 8916,
    "Ġbol": 6241,
    "Ġwails": 21295,
    "Ġturner": 7049,
    "Ġpant": 10817,
    "Ġleaving": 3906,
    "maid": 8553,
    "attend": 11101,
    "Ġforbe": 8457,
    "Ġembraces": 19871,
    "Ġvisibly": 22859,
    "Ġneglecting": 25007,
    "Ġinstance": 2547,
    "Ġimperfectly": 25727,
    "Ġsho": 2247,
    "Ġ48": 24080,
    "Ġmam": 8404,
    "ĠĠĠĠĠĠĠĠĠĠĠĠĠĠĠĠĠĠĠĠĠĠĠĠĠĠĠĠĠĠĠĠĠĠĠĠ": 23666,
    "Ġbodiless": 24226,
    "Ġbart": 17857,
    "questioning": 16850,
    "med": 1910,
    "Ġtorch": 25030,
    "Ġsangu": 15503,
    "ences": 1263,
    "eye": 6224,
    "estion": 18363,
    "Ġdesponding": 25868,
    "Ġplays": 12035,
    "Ġsweetness": 9445,
    "Ġrol": 3554,
    "esting": 7412,
    "frock": 20119,
    "Ġlizzy": 3545,
    "Ġshyness": 20305,
    "Ġhunt": 6183,
    "choice": 21688,
    "uteronomy": 15661,
    "Ġtri": 4812,
    "clim": 18929,
    "Ġhidden": 1375,
    "Ġmount": 7362,
    "lances": 15382,
    "ccas": 15883,
    "heredit": 21208,
    "Ġsaith": 14155,
    "Ġboiling": 8525,
    "Ġstockings": 19995,
    "pooh": 18802,
    "boscombe": 26121,
    "design": 18957,
    "@": 36,
    "holmes": 4431,
    "Ġslu": 13835,
    "ex": 622,
    "Ġdomineering": 23649,
    "Ġpoured": 8800,
    "Ġsail": 1675,
    "generally": 9434,
    "emotions": 15792,
    "Ġvolumes": 14799,
    "kee": 18273,
    "conce": 8510,
    "Ġinvaders": 23481,
    "ceiving": 3904,
    "proportion": 16178,
    "Ġslay": 16305,
    "freely": 16854,
    "mell": 20963,
    "amet": 589,
    "Ġvener": 8163,
    "de": 459,
    "Ġsubmission": 22786,
    "Ġshr": 4227,
    "hour": 7340,
    "Ù": 154,
    "Ġcharnel": 22249,
    "plish": 18200,
    "Ġjurors": 17343,
    "Ġfervently": 25877,
    "Ġconclude": 8580,
    "Ġdep": 733,
    "Ġhorizontally": 17012,
    "Ġusurpation": 18362,
    "Ġcosmetic": 23472,
    "Ġphantom": 8706,
    "Ġsubt": 11866,
    "Ġdisinclination": 22533,
    "Ġintrusion": 12762,
    "croquet": 25747,
    "Ġending": 18189,
    "Ġdeploy": 2900,
    "baned": 17495,
    "Ġestablishment": 13578,
    "arian": 10316,
    "gradient": 2275,
    "Ġtransf": 22434,
    "rine": 21036,
    "Ġcontrasting": 11154,
    "Ġcanopy": 18321,
    "reward": 15508,
    "Ġplaint": 10325,
    "Ġhomeward": 9391,
    "Ġfiner": 13050,
    "Ġdol": 9664,
    "Ġkeeled": 18808,
    "ton": 1728,
    "captain": 3955,
    "Ġharvard": 24573,
    "Ġgravel": 14101,
    "bergs": 18681,
    "Ġinjured": 9039,
    "astrop": 3316,
    "Ġpeeping": 16125,
    "itia": 11578,
    "Ġmechanis": 1175,
    "Ġregain": 22592,
    "Ġassistant": 7298,
    "iage": 17573,
    "Ġsav": 3356,
    ":--âĢľ": 24550,
    "Ġfeel": 1261,
    "rib": 1948,
    "speckled": 23942,
    "mine": 5618,
    "Ġtrusting": 24105,
    "Ġfitted": 6243,
    "bestowed": 12223,
    "Ġintentions": 10607,
    "âĢľâĢĶ": 10872,
    "ā": 194,
    "crucible": 24842,
    "ext": 923,
    "ounding": 22389,
    "Ġpreacher": 18369,
    "Ġenergy": 2554,
    "Ġfowls": 8690,
    "Ġdive": 10172,
    "Ġacquire": 2724,
    "99": 1898,
    "Ġbrush": 17864,
    "Ġsund": 8248,
    "Ġwreaths": 25937,
    "Ġreputed": 18035,
    "_âĢĿ": 20760,
    "presbyter": 20616,
    "Ġvehic": 8933,
    "Ġreaches": 18031,
    "Ġexpressions": 7705,
    "Ġell": 17715,
    "Ġhugh": 15004,
    "?âĢĶ": 3468,
    "Ġsolomon": 11052,
    "Ġchival": 14182,
    "Ġbraced": 16579,
    "string": 15683,
    "Ġinsanity": 12045,
    "thoughts": 9934,
    "Ġdomin": 10461,
    "Ġhinges": 15211,
    "ars": 904,
    "Ġcomforters": 25800,
    "Ġarrog": 18337,
    "blister": 24128,
    "ister": 1294,
    "osal": 11757,
    "Ġalleviated": 26203,
    "rit": 21034,
    "Ġservices": 11217,
    "Ġdistrusting": 25053,
    "Ġcrater": 16438,
    "nades": 20996,
    "ckinridge": 11717,
    "orious": 6007,
    "Ġepicures": 25880,
    ",--âĢľ": 19196,
    "Ġvariants": 1791,
    "Ġjustify": 11072,
    "thed": 8826,
    "Ġsatisf": 2804,
    "Ġpetulance": 24227,
    "Ġ80": 24456,
    "Ġcontrad": 9754,
    "Ġinitial": 822,
    "Ġflap": 14421,
    "Ġoversight": 22356,
    "oforte": 14285,
    "Ġzealand": 12348,
    "Ġrelatives": 12979,
    "Ġraised": 4659,
    "aped": 3766,
    "Ġtopic": 9405,
    "Ġunbending": 25464,
    "Ġemigrant": 25859,
    "rents": 5308,
    "Ġnupt": 13942,
    "Ġample": 11796,
    "Ġtram": 11092,
    "lement": 10166,
    "Ġbarnacled": 25536,
    "wig": 17704,
    "spades": 14331,
    "glass": 9908,
    "Ġstricken": 9775,
    "Ġconver": 807,
    "oric": 21394,
    "ber": 883,
    "Ġbrimming": 22864,
    "Ġperem": 12929,
    "Ġgives": 5017,
    "Ġgrated": 22801,
    "Ġcontracted": 12857,
    "Ġunfailing": 24111,
    "Ġmaterial": 5178,
    "Ġbutler": 18270,
    "Ġinvol": 1034,
    "Ġseize": 8165,
    "arness": 11670,
    "shirt": 22445,
    "Ġdoomed": 11342,
    "thousands": 16872,
    "Ġmagnific": 16317,
    "Ġgretna": 26468,
    "icip": 6389,
    "cream": 15330,
    "Ġcalmly": 7733,
    "Ġindependent": 9015,
    "Ġmatters": 4973,
    "Ġintim": 6838,
    "Ġtwelfth": 22675,
    "Ġits": 707,
    "Ġlod": 4043,
    "pagan": 17285,
    "Ġremark": 2147,
    "shabbily": 26246,
    "conven": 6162,
    "flex": 24843,
    "neighb": 16025,
    "placed": 7877,
    "Ġmouthfuls": 20645,
    ");": 7330,
    "Ġdiscontented": 16057,
    "Ġsuccessfully": 19427,
    "bulwarks": 12270,
    "Ġclaw": 22348,
    "Ġexpans": 18623,
    "Ġuttermost": 19486,
    "Ġflight": 6580,
    "Ġcring": 15549,
    "Ġwestward": 24389,
    "Ġpovelson": 26552,
    "beginning": 13560,
    "Ġworthy": 7241,
    "adders": 24400,
    "fulness": 4310,
    "Ġshipmates": 6720,
    "Ġweighed": 8710,
    "Ġmedic": 11246,
    "Ġvolat": 24144,
    "Ġchooses": 13345,
    "Ġknob": 24407,
    "esteemed": 26009,
    "rength": 4102,
    "Ġdownward": 10331,
    "playing": 19656,
    "Ġade": 22101,
    "erted": 7361,
    "ceive": 3062,
    "otherwise": 7671,
    "Ġvisit": 2585,
    "Ġdiscove": 16153,
    "Ġcasement": 25092,
    "enges": 13051,
    "Ġuneasily": 24230,
    "Ġintolerable": 8481,
    "eyes": 5684,
    "Ġpersuaded": 5769,
    "Ġtasted": 12526,
    "Ġup": 463,
    "Ġsensible": 4975,
    "Ġchoice": 2165,
    "cannib": 11900,
    "Ġgangway": 20157,
    "Ġjoyfully": 19344,
    "Ġrequired": 7227,
    "Ġpractices": 19057,
    "Ġplay": 2627,
    "hr": 20887,
    "par": 1878,
    "ind": 569,
    "brew": 11473,
    "Ġstroll": 13351,
    "commendation": 26348,
    "Ġundressed": 19512,
    "asses": 7016,
    "Ġilliterate": 26594,
    "arians": 18526,
    "haven": 20911,
    "ilies": 18056,
    "Ġirregularity": 25324,
    "Ġevangel": 11280,
    "shore": 10305,
    "Ġsundry": 20072,
    "Ġpreaching": 15924,
    "Ġlizzie": 26462,
    "indeed": 4487,
    "odhead": 18120,
    "Ġsparing": 22126,
    "Ġshrubbery": 18232,
    "illating": 22104,
    "Ġhard": 1443,
    "forty": 9373,
    "ulance": 15764,
    ",_": 11462,
    "Ġrotterdam": 25475,
    "Ġtartar": 17321,
    "Ġcountenance": 3972,
    "dreams": 12335,
    "Ġgallon": 24184,
    "abroad": 18108,
    "Ġdeposit": 17268,
    "Ġmbpp": 21320,
    "coat": 5407,
    "Ġsaid": 578,
    "pr": 3175,
    "Ġdistress": 5844,
    "Ġvivid": 8057,
    "Ġpinioned": 21480,
    "pression": 10407,
    "Ġcomra": 7183,
    "passing": 14811,
    "elson": 16369,
    "Ġelias": 18644,
    "ð": 177,
    "Ġdre": 1745,
    "bale": 20773,
    "Ġresembled": 18033,
    "Ġlibraries": 20613,
    "Ġshowers": 16605,
    "Ġtrusty": 24104,
    "Ġgems": 9208,
    "Ġretreating": 19798,
    "Ġregrets": 18604,
    "log": 18537,
    "opp": 6963,
    "mies": 20967,
    "allah": 5838,
    "lour": 15379,
    "permitted": 18345,
    "Ġpieces": 7369,
    "luding": 6700,
    "even": 3838,
    "Ġencode": 4365,
    "Ġadmission": 23554,
    "umes": 10917,
    "iforn": 14063,
    "icirc": 15653,
    "renched": 7906,
    "uncommon": 11680,
    "Ġplutarch": 22603,
    "Ġundeviating": 15216,
    "Ġsaviour": 20712,
    "Ġconc": 1843,
    "Ġcirculating": 23371,
    "vial": 17697,
    "Ġacquiring": 2766,
    "Ġpleases": 16296,
    "Ġsmallest": 6430,
    "Ġbarrow": 12067,
    "Ġapplies": 11959,
    "thus": 5158,
    "iply": 22361,
    "Ġsubstitute": 16726,
    "Ġstructured": 2970,
    "Ġsprung": 11248,
    "pot": 10117,
    "sam": 21050,
    "iger": 8446,
    "rew": 3649,
    "Ġsustained": 13481,
    "largely": 19573,
    "Ġrumpled": 24600,
    "Ġal": 342,
    "Ġgirdled": 19157,
    "tisement": 6767,
    "Ġvaluable": 5608,
    "russian": 22180,
    "idity": 8830,
    "Ġfairly": 6325,
    "Ġbowels": 9429,
    "Ġpostp": 12141,
    "Ġindignant": 12237,
    "Ġworshippers": 25693,
    "Ġconsequence": 5542,
    "Ġmutiny": 13258,
    "lish": 1953,
    "lording": 24049,
    "Ġlodgings": 8311,
    "Ġconceits": 19388,
    "calm": 8934,
    "division": 20047,
    "odox": 21810,
    "Ġscru": 8189,
    "Ġ65": 24368,
    "progress": 11986,
    "Ġweig": 7619,
    "Ġpurporting": 19181,
    "using": 5468,
    "Ġquick": 2583,
    "Ġskiff": 16161,
    "Ġobser": 2071,
    "ittance": 12842,
    "Ġdif": 871,
    "Ġflow": 1241,
    "desponding": 26341,
    "Ġecho": 12663,
    "_;": 6640,
    "Ġfolios": 23015,
    "succeed": 10328,
    "wherever": 13117,
    "pockets": 16210,
    "cut": 3124,
    "Ġqualifications": 24675,
    "charming": 15703,
    "ived": 1534,
    "Ġenter": 4030,
    "Ġsill": 10765,
    "Ġchrysalis": 26538,
    "Ġsulk": 15045,
    "Ġdiameter": 19866,
    "Ġpittance": 15614,
    "Ġgloried": 22979,
    "Ġreplacing": 3448,
    "Ġdecapitated": 20614,
    "Ġextending": 11028,
    "itar": 15544,
    "Ġmayhew": 12947,
    "entimes": 12653,
    "Ġpleased": 4064,
    "Ġcharacter": 2792,
    "Ġdescription": 7429,
    "Ġreal": 1635,
    "visit": 7754,
    "ologist": 22871,
    "Ġperry": 22392,
    "Ġlawy": 9453,
    "degrees": 22147,
    "Ġhookah": 16970,
    "particip": 23615,
    "Ġdiscoveries": 13357,
    "Ġrecent": 7436,
    "already": 6980,
    "tails": 21085,
    "Ġobligations": 12089,
    "Ġsisterly": 16300,
    "lacing": 17590,
    "Ġliterally": 15115,
    "÷": 184,
    "Ġdrama": 16327,
    "Ġevening": 2653,
    "Ġmask": 1867,
    "har": 20889,
    "enge": 21279,
    "Ġvillains": 14748,
    "Ġforgot": 4682,
    "Ġadvertised": 17247,
    "Ġcontrived": 10303,
    "absolut": 8458,
    "Ġdisposal": 19374,
    "where": 2092,
    "Ġtens": 17723,
    "Ġreaders": 18914,
    "Ġkirwin": 8496,
    "Ġrings": 11697,
    "being": 3915,
    "Ġscrut": 15943,
    "glue": 17556,
    "Ġwa": 1753,
    "Ġwast": 21857,
    "Ġswap": 23050,
    "Ġprovid": 1004,
    "Ġinsect": 12633,
    "Ġcontextual": 3744,
    "cked": 2762,
    "Ġvolume": 6769,
    "Ġbruited": 25773,
    "Ġretirement": 25378,
    "oft": 3589,
    "Ġjohnson": 18409,
    "aciously": 12904,
    "Ġboughs": 20487,
    "Ġaloysius": 15735,
    "intu": 22930,
    "Ġmanor": 14196,
    "Ġtolland": 24988,
    "Ġsupposition": 9816,
    "vacancies": 25919,
    "®": 111,
    "Ġmis": 915,
    "block": 11470,
    "Ġlimb": 9401,
    "birth": 15321,
    "Ġcharacteristics": 8609,
    "Ġchecking": 23284,
    "dro": 6644,
    "swiftly": 20550,
    "Ġsimultaneously": 4311,
    ",âĢĶâĢľ": 10069,
    "approach": 24833,
    "Ġser": 1674,
    "Ġcordiality": 24395,
    "Ġslate": 11936,
    "Ġtheme": 16016,
    "convolutional": 4957,
    "Ġinsip": 19266,
    "alogue": 25159,
    "Ġsongs": 13419,
    "rigging": 20004,
    "Ġbracing": 16580,
    "Ġagricultural": 26550,
    "mariners": 19547,
    "Ġkilled": 4954,
    "died": 10693,
    "Ġdescribed": 6606,
    "Ġnatur": 17333,
    "okingly": 22378,
    "utted": 15658,
    "Ġeyes": 1334,
    "immediate": 20092,
    "ician": 21562,
    "blubber": 15235,
    "Ġinsatiable": 19271,
    "Ġchip": 12822,
    "Ġstriving": 8996,
    "Ġbedford": 7474,
    "gans": 11489,
    "danish": 20832,
    "Ġcontingency": 26244,
    "Ġgot": 2280,
    "secure": 12233,
    "Ġforetold": 23450,
    "ĠĠĠĠĠĠĠĠĠĠĠĠĠĠĠĠĠĠĠĠĠĠĠĠĠĠĠĠĠĠĠĠĠĠĠĠĠĠĠĠĠĠĠĠĠĠĠ": 16755,
    "Ġsnatch": 14639,
    "dataset": 23243,
    "Ġsanctioned": 26349,
    "Ġsupplement": 22999,
    "gg": 1997,
    "Ġwax": 10776,
    "Ġbarn": 11586,
    "Ġfrequently": 4678,
    "velope": 17701,
    "simultaneously": 19863,
    "Ġoccas": 2704,
    "masters": 16834,
    "doub": 6223,
    "Ġoffers": 12942,
    "money": 8749,
    "Ġaccept": 4410,
    "Ġearl": 7676,
    "Ġremote": 8919,
    "yp": 1044,
    "itute": 9651,
    "sleepers": 24730,
    "Ġlingo": 24903,
    "otions": 7180,
    "Ġshamefully": 24716,
    "execut": 13654,
    "Ġcommon": 1413,
    "chose": 18040,
    "Ġclassification": 1122,
    "Ġpredictions": 1456,
    "Ġmoot": 22427,
    "Ġdisdain": 8359,
    "Ġhemp": 9215,
    "derness": 11736,
    "Ġgave": 2220,
    "Ġender": 11689,
    "Ġprivacy": 19523,
    "Ġsixth": 16558,
    "ical": 753,
    "Ġformless": 22827,
    "ols": 2410,
    "....": 11316,
    "skirted": 24489,
    "aunted": 20769,
    "Ġconception": 10313,
    "people": 7677,
    "Ġadopted": 15177,
    "Ġmoby": 3666,
    "Ġreckless": 13457,
    "Ġdeployment": 11196,
    "ited": 1750,
    "Ġfactor": 19015,
    "extracts": 22766,
    "Ġbad": 3989,
    "ac": 743,
    "Ġslightest": 6092,
    "Ġpractises": 23326,
    "dear": 6555,
    "invol": 12527,
    "Ġsurf": 19131,
    "Ġ51": 24320,
    "live": 7551,
    "separ": 9230,
    "nailed": 20995,
    "ourselves": 9010,
    "Ġsurmount": 19999,
    "solute": 16598,
    "Ġpassionate": 11273,
    "Ġpettiness": 24229,
    "Ġunctuous": 10266,
    "Ġheartily": 6890,
    "Ġcircling": 19092,
    "breast": 11245,
    "ĠĠĠĠĠĠĠĠĠĠĠĠĠĠĠĠĠĠĠĠĠĠĠĠĠĠĠĠĠĠĠĠĠĠĠĠĠĠĠĠĠĠĠĠĠĠĠĠĠ": 20036,
    "Ġdishonor": 25601,
    "Ġlaughing": 5338,
    "ribution": 14305,
    "client": 18931,
    "uttering": 12659,
    "Ġworker": 23038,
    "Ġvales": 21943,
    "Ġexc": 1832,
    "Ġtrout": 22341,
    "Ġconvince": 14642,
    "prit": 19340,
    "Ġrisks": 9963,
    "Ġcorrected": 10448,
    "Ġworn": 6445,
    "Ġgovernesses": 25127,
    "Ġpin": 7161,
    "Ġgra": 415,
    "Ġbucket": 8787,
    "Ġreckoned": 24744,
    "Ġinterpreted": 1712,
    "yourself": 6742,
    "Ġplainly": 4381,
    "Ġpint": 17909,
    "Ġstraits": 7993,
    "Ġstatements": 7517,
    "Ġannum": 24203,
    "Ġcalifornia": 20528,
    "food": 12461,
    "Ġbesee": 19242,
    "Ġbennets": 9805,
    "fug": 17543,
    "alizing": 17939,
    "urning": 12914,
    "Ġfirm": 3873,
    "Ġthread": 14539,
    "miserably": 24210,
    "Ġvillain": 8635,
    "Ġemer": 5958,
    "oper": 7347,
    "growing": 13732,
    "ospel": 17010,
    "Ġexploded": 15907,
    "becomes": 22493,
    "Ġdante": 21436,
    "Ġkl": 2737,
    "enit": 17779,
    "Ġeveryone": 8917,
    "Ġhoisted": 5959,
    "Ġobjective": 3767,
    "inkle": 22611,
    "'d": 12425,
    "tempest": 16959,
    "Ġstunsail": 25543,
    "Ġrelative": 11881,
    "oran": 8788,
    "Ġdrowning": 19903,
    "Ġunheeded": 18261,
    "metals": 24766,
    "posture": 16927,
    "Ġdreamt": 23936,
    "serpent": 16290,
    "Ġsublim": 19965,
    "Ġilluminate": 17192,
    "calmly": 20138,
    "ignified": 14490,
    "stem": 566,
    "Ġrasc": 21971,
    "Ġmidway": 14604,
    "Ġprotested": 9933,
    "Ġunnearable": 26516,
    "Ġdoubtless": 6195,
    "Ġbaleen": 10036,
    "Ġunwearied": 20601,
    "Ġovercame": 9745,
    "Ġcongrat": 5827,
    "Ġeludes": 26554,
    "Ġplanisphere": 26607,
    "deliber": 17425,
    "presented": 12990,
    "Ġbon": 8785,
    "Ġproduct": 3533,
    "Ġissu": 6253,
    "Ġhanged": 17924,
    "waited": 24585,
    "Ġcount": 1814,
    "Ġlane": 5627,
    "antically": 22093,
    "Ġreckoning": 14978,
    "missing": 13217,
    "rowed": 22860,
    "rably": 21630,
    "ryphon": 4165,
    "ĉ": 202,
    "hed": 670,
    "material": 13128,
    "Ġdaft": 19662,
    "Ġminimax": 5857,
    "formed": 2556,
    "Ġbest": 1976,
    "Ġsentry": 19026,
    "lantern": 17427,
    "Ġblaming": 22927,
    "varied": 23182,
    "unbe": 21869,
    "roar": 17952,
    "Ġet": 3579,
    "Ġdance": 4442,
    "Ġcurled": 8226,
    "ents": 1899,
    "txt": 12513,
    "Ġcaus": 1726,
    "Ġtackles": 8050,
    "down": 3469,
    "Ġcalculated": 4475,
    "imperturbable": 25790,
    "Ġapologize": 15127,
    "Ġstum": 21728,
    "whiteness": 18370,
    "investigations": 25533,
    "Ġsick": 4691,
    "mody": 16182,
    "Ġpossible": 2586,
    "Ġnormal": 1203,
    "along": 6012,
    "Ġmelbourne": 24289,
    "Ġdardanelles": 26443,
    "sulphur": 25909,
    "Ġeastward": 13389,
    "Ġcategorization": 12134,
    "Ġboldness": 24428,
    "Ġbandages": 24427,
    "Ġdim": 4756,
    "mouse": 15391,
    "Ġhussey": 7724,
    "Ġsimilitude": 19209,
    "Ġprotruding": 16658,
    "impregnable": 26481,
    "ah": 1833,
    "lace": 13747,
    "reflected": 24733,
    "Ġoperate": 19115,
    "Ġdistracted": 11802,
    "Ġflag": 7242,
    "Ġdistinguish": 2727,
    "jee": 17579,
    "peculiar": 6886,
    "assisted": 22304,
    "Ġbidding": 9536,
    "Ġdeficiencies": 26570,
    "Ġaccomplice": 24376,
    "conject": 8879,
    "jack": 7344,
    "Ġfriendless": 23022,
    "ud": 924,
    "Ġmiguel": 25766,
    "Ġlot": 6678,
    "Ġdab": 15585,
    "omas": 12668,
    "ike": 4999,
    "Ġtruly": 4795,
    "Ġadding": 2401,
    "Ġcrawford": 24893,
    "Ġregions": 10323,
    "mon": 2308,
    "Ġpreside": 18365,
    "Ġknowing": 4457,
    "Ġregularly": 7659,
    "Ġ1671": 25005,
    "Ġadvantage": 4316,
    "stating": 21644,
    "story": 9212,
    "Ġhardest": 18912,
    "Ġtempered": 12922,
    "Ġcontemplate": 19891,
    "yond": 2330,
    "hor": 2572,
    "È": 137,
    "Ġcategories": 4477,
    "Ġtread": 9408,
    "Ġryder": 10258,
    "Ġpiece": 5367,
    "Ġglanced": 5951,
    "Ġblending": 14399,
    "Ġsebastian": 11696,
    "Ġcomplained": 16998,
    "road": 6677,
    "Ġstone": 4644,
    "Ġseamen": 5062,
    "tarpaul": 21096,
    "Ġthousand": 2780,
    "Ġphysiognomy": 25610,
    "Ġimpass": 15983,
    "Ġbird": 3758,
    "Ġexpansion": 22623,
    "Ġbuild": 6474,
    "Ġboston": 22637,
    "Ġgore": 17988,
    "Ġbubb": 12581,
    "explained": 23139,
    "murderer": 13392,
    "Ġst": 332,
    "ision": 1855,
    "Ġtortures": 14922,
    "Ġtranced": 18421,
    "looks": 12016,
    "Ġexactly": 2767,
    "Ġentreated": 9950,
    "instinct": 19542,
    "Ġrecover": 9790,
    "mathemat": 19137,
    "disappearing": 23502,
    "Ġbleak": 10558,
    "Ġharry": 24571,
    "Ġrepelled": 19085,
    "Ġacquainted": 5179,
    "Ġsupports": 3048,
    "Ġargued": 13628,
    "Ġreturns": 11924,
    "want": 8765,
    "================": 3724,
    "sutherland": 21061,
    "Ġfoss": 9850,
    "Ġworms": 25216,
    "Ġrelated": 3716,
    "mort": 10710,
    "ething": 1600,
    "duing": 22408,
    "Ġsubsisted": 19117,
    "Ġromans": 16759,
    "Ġspreading": 13377,
    "utarch": 15659,
    "Ġwaned": 17791,
    "presumption": 20440,
    "Ġtahitian": 25427,
    "scr": 16238,
    "erest": 10697,
    "Ġrent": 11638,
    "rep": 5525,
    "Ġoverthrow": 18431,
    "Ġmau": 21309,
    "Ġstays": 16560,
    "Ġemploys": 19429,
    "tap": 17676,
    "kinson": 10025,
    "Ġdistinctly": 7311,
    "Ġclapham": 17265,
    "bran": 23573,
    "attributed": 23117,
    "icles": 17972,
    "Ġencamp": 22798,
    "Ġproves": 14037,
    "Ġactivation": 916,
    "born": 7544,
    "Ġvor": 15804,
    "ault": 2306,
    "pervised": 1596,
    "Ġcoals": 16071,
    "Ġbuffalo": 11429,
    "Ġpresum": 4836,
    "Ġrepro": 7275,
    "Ġawe": 7147,
    "Ġdirectors": 18921,
    "Ġlibrary": 6423,
    "Ġoverdone": 22357,
    "Ġmediterranean": 12313,
    "orts": 2557,
    "biting": 20779,
    "Ġbully": 23854,
    "Ġappertaining": 26533,
    "Ġvisage": 18767,
    "Ġgrounded": 23710,
    "Ġneville": 7399,
    "Ġtheory": 5798,
    "fate": 17539,
    "Ġswan": 23049,
    "wow": 21120,
    "deepest": 22822,
    "Ġvoluntary": 14798,
    "Ġaccusations": 22376,
    "deserted": 18958,
    "Ġenvied": 19279,
    "ocratic": 17245,
    "Ġcretan": 22723,
    "Ġmu": 17795,
    "Ġbillow": 14777,
    "Ġpursu": 3241,
    "peter": 24298,
    "Ġwaited": 4907,
    "sorrows": 17319,
    "Ġswim": 3821,
    "Ġscud": 14187,
    "towards": 5001,
    "frankenstein": 11391,
    "Ġaz": 9629,
    "qu": 369,
    "Ġearls": 18903,
    "Ġale": 9154,
    "Ġstory": 2899,
    "mbles": 23086,
    "Ġthousandth": 23683,
    "Ġwides": 17788,
    "Ġpaunch": 23747,
    "grass": 23411,
    "Ġparch": 11724,
    "fam": 5988,
    "Ġdealing": 14044,
    "renew": 24450,
    "Ġdowncast": 18652,
    "Ġoutside": 5554,
    "indifferent": 14208,
    "Ġcape": 5146,
    "Ġmaid": 5285,
    "furnish": 25338,
    "fights": 20864,
    "Ġshun": 11707,
    "bbles": 13690,
    "retion": 9361,
    "Ġsnatching": 10472,
    "hom": 12471,
    "Ġfield": 1248,
    "Ġcrew": 2498,
    "cork": 20795,
    "Ġfails": 13312,
    "icing": 9200,
    "whiskers": 12309,
    "Ġru": 947,
    "Ġleaning": 5228,
    "Ġclouded": 13289,
    "Ġcast": 3606,
    "Ġjudging": 16595,
    "Ġinquisitive": 26317,
    "Ġwow": 15527,
    "Ġlur": 5226,
    "Ġdefici": 22940,
    "Ġsympathise": 16794,
    "Ġtear": 6722,
    "Ġded": 2577,
    "Ġoverheard": 11772,
    "Ġshortly": 6196,
    "Ġlunacy": 20026,
    "Ġchapel": 9522,
    "Ġforgery": 25977,
    "Ġroods": 22401,
    "kovoko": 20668,
    "Ġful": 4297,
    "Ġfinest": 10392,
    "Ġcheshire": 13089,
    "reed": 6373,
    "elope": 14464,
    "continue": 16861,
    "Ġlucas": 3833,
    "Ġseas": 3076,
    "Ġkindly": 6077,
    "Ġpad": 8124,
    "suddenly": 6493,
    "Ġowned": 11874,
    "Ġrobust": 1369,
    "Ġfearful": 6197,
    "nable": 13761,
    "Ġkidnapping": 26356,
    "thank": 4949,
    "Ġacceptance": 14826,
    "orders": 12871,
    "Ġpricking": 23220,
    "rated": 6227,
    "Ġclothe": 4710,
    "Ġscrew": 8863,
    "noble": 7922,
    "Ġvest": 8162,
    "Ġapproached": 5843,
    "Ġimbedded": 18332,
    "Ġunconnected": 18242,
    "omin": 4701,
    "vember": 10855,
    "Ġmaled": 21313,
    "idean": 14262,
    "Ġchristianity": 19860,
    "Ġmoles": 22429,
    "Ġcolder": 22853,
    "Ġannot": 15599,
    "pper": 3210,
    "Ġhelping": 3268,
    "Ġarsac": 11740,
    "Ġunreason": 15840,
    "remes": 21236,
    "Ġidentity": 2526,
    "Ġburied": 7718,
    "uy": 21098,
    "Ġreasons": 6019,
    "results": 20385,
    "university": 25983,
    "Ġstoke": 10395,
    "Ġarve": 15891,
    "around": 12605,
    "deliver": 19503,
    "Ġpredestinated": 18532,
    "Ġattention": 1168,
    "Ġlivers": 18461,
    "negro": 18495,
    "Ġsmoking": 6429,
    "circle": 16736,
    "ondency": 15268,
    "Ġperilously": 24507,
    "Ġacquiesced": 25493,
    "Ġprofusion": 23567,
    "Ġrapid": 1403,
    "Ġnaught": 8127,
    "Ġcheerfulness": 10516,
    "Ġbass": 17855,
    "ĠdÃ¦mon": 7844,
    "Ġumb": 11645,
    "Ġoverhead": 11771,
    "consol": 9761,
    "Ġtags": 20570,
    "ercial": 21273,
    "Ġsit": 4217,
    "Ġeggs": 12340,
    "oves": 15402,
    "Ġgard": 2189,
    "comfortable": 7320,
    "Ġproc": 5545,
    "Ġhatchways": 24987,
    "Ġresume": 18565,
    "Ġga": 4446,
    "Ġremorse": 6441,
    "Ġtumbled": 13405,
    "Ġhypotheses": 4386,
    "uendoes": 26407,
    "oun": 483,
    "avering": 24793,
    "possessed": 9527,
    "amuse": 14052,
    "Ġshipmate": 8928,
    "Ġforeheads": 23447,
    "Ġbrushed": 15568,
    "Ġpassing": 4315,
    "isters": 11917,
    "pract": 10119,
    "Ġwhom": 1831,
    "lay": 5890,
    "coun": 10686,
    "abounding": 25979,
    "regard": 7972,
    "Ġdismissed": 12889,
    "Ġvintage": 26209,
    "Ġchr": 3690,
    "Ġpore": 21456,
    "Ġsinks": 19548,
    "Ġpublisher": 24064,
    "exciting": 19667,
    "resol": 17760,
    "Ġattach": 14289,
    "Ġbre": 1915,
    "istan": 22105,
    "Ġconsecut": 18111,
    "Ġwolves": 25934,
    "Ġschool": 5512,
    "Ġbow": 3059,
    "Ġconveniences": 19811,
    "custom": 15332,
    "ezes": 9990,
    "Ġprevention": 16089,
    "clean": 14759,
    "ge": 559,
    "Ġsecret": 3721,
    "Ġmightiest": 12957,
    "Ġrespecting": 14483,
    "Ġpaying": 9937,
    "Ġyore": 21775,
    "Ġhorner": 8958,
    "Ġpolite": 9881,
    "Ġneedle": 8274,
    "Ġgold": 3279,
    "Ġcau": 13880,
    "Ġallusions": 10906,
    "Ġobst": 6284,
    "pag": 11510,
    "Ġbeam": 2877,
    "Ġmusky": 19380,
    "Ġsocks": 14133,
    "'t": 3144,
    "Ġpauses": 14814,
    "Ġcreations": 18683,
    "cor": 5520,
    "Ġabomin": 8190,
    "Ġaccusation": 22377,
    "Ġtransportation": 13641,
    "girl": 12316,
    "Ġfruit": 12324,
    "Ġsincerely": 7962,
    "ren": 549,
    "imental": 16533,
    "Ġaisle": 21200,
    "Â": 131,
    "Ġmealy": 18118,
    "humour": 7499,
    "happened": 9432,
    "Ġknows": 4161,
    "oking": 4605,
    "Ġbreathed": 11220,
    "persuaded": 15072,
    "Ġhiss": 15785,
    "Ġfurrow": 22810,
    "me": 867,
    "Ġlovely": 4708,
    "completed": 19992,
    "wrath": 23754,
    "Ġnoah": 10942,
    "Ġthirteen": 15273,
    "Ġcrawl": 11375,
    "Ġfidel": 12593,
    "tem": 6369,
    "Ġentering": 6285,
    "Ġquiet": 3262,
    "Ġpoets": 11819,
    "Ġgroom": 13965,
    "Ġwalks": 8966,
    "ollen": 11298,
    "Ġentangled": 10342,
    "phew": 6368,
    "Ġcompared": 2231,
    "Ġmeasureless": 14709,
    "Ġannihilation": 15164,
    "crier": 20819,
    "Ġenraptured": 26500,
    "Ġgreedily": 18965,
    "Ġaback": 22273,
    "Ġtend": 6120,
    "be": 669,
    "urable": 8923,
    "Ġsustenance": 19932,
    "Ġblasphemer": 26116,
    "Ġfiends": 14827,
    "Ġchild": 2262,
    "Ġplot": 14280,
    "Ġantichronical": 26609,
    "irection": 2386,
    "those": 4495,
    "secured": 16938,
    "Ġobliterated": 17404,
    "Ġwaggish": 25434,
    "oce": 10714,
    "case": 5206,
    "carte": 25400,
    "Ġturks": 14598,
    "Ġsleepers": 13148,
    "Ġtapers": 11551,
    "Ġchinese": 14183,
    "Ġswung": 6449,
    "Ġdusk": 12325,
    "resc": 21237,
    "Ġdeeds": 15756,
    "charitable": 23930,
    "Ġcircumspection": 25884,
    "ivery": 17572,
    "can": 1235,
    "Ġdespondency": 16577,
    "Ġwarmer": 19184,
    "apan": 6860,
    "thought": 3849,
    "ival": 4228,
    "Ġprojected": 16871,
    "appro": 7044,
    "Þ": 159,
    "kn": 5791,
    "Ġwildly": 9413,
    "contrast": 25594,
    "goin": 23401,
    "Ġconvention": 25546,
    "Ġwidth": 16772,
    "feren": 766,
    "nose": 17610,
    "Ġundone": 24118,
    "gently": 13728,
    "parad": 16389,
    "Ġdoth": 13907,
    "Ġadventurous": 16733,
    "augh": 1782,
    "Ġmalignant": 14877,
    "Ġpolic": 13160,
    "rot": 21529,
    "Ġshifted": 14106,
    "Ġrude": 7234,
    "chambers": 25454,
    "Ġbeggar": 9348,
    "Ġabaft": 22281,
    "Ġobed": 8535,
    "Ġnearing": 15796,
    "scent": 13014,
    "companion": 9557,
    "Ġstore": 8453,
    "Ġexamine": 7734,
    "pha": 22774,
    "Ġevolve": 3000,
    "adler": 21759,
    "Ġfarm": 7840,
    "Ġpack": 5444,
    "ken": 2799,
    "Ġbildad": 3782,
    "Ġblasphe": 17406,
    "Ġvic": 5237,
    "augment": 18828,
    "Ġrecur": 1621,
    "Ġvertically": 19378,
    "Ġyea": 8915,
    "Ġvestige": 20061,
    "Ġplu": 8798,
    "evenings": 19461,
    "Ġexecutioner": 12269,
    "Ġdirect": 1472,
    "Ġcusack": 26433,
    "Ġswearing": 16463,
    "meaning": 2906,
    "wicked": 24449,
    "iterranean": 15547,
    "Ġin": 291,
    "Ġdrags": 16941,
    "Ġsummoning": 23872,
    "ford": 2821,
    "Ġbecalmed": 18086,
    "Ġinches": 5845,
    "Ġsadly": 7302,
    "Ġweb": 9239,
    "Ġopenly": 8572,
    "Ġaxis": 12305,
    "farewell": 12304,
    "adopt": 25544,
    "Ġdegener": 14047,
    "Ġtyp": 1133,
    "dra": 3412,
    "Ġprocuring": 16870,
    "Ġveil": 7933,
    "Ġmysterious": 7528,
    "âĢĻ-": 18166,
    "Ġfaultless": 24540,
    "Ġballs": 9014,
    "Ġplaying": 6909,
    "Ġpreface": 18367,
    "nue": 15396,
    "Ġstoop": 16309,
    "Ġladen": 19176,
    "Ġthereof": 22365,
    "bohemia": 20730,
    "Ġpatagonia": 25858,
    "Ġsource": 6805,
    "returns": 23132,
    "Ġviolence": 5962,
    "ort": 522,
    "Ġdoing": 3661,
    "cure": 11474,
    "Ġrattling": 11395,
    "Ġfugitive": 17326,
    "Ġins": 2779,
    "acey": 7650,
    "marvell": 24172,
    "Ġguest": 7249,
    "Ġscare": 18390,
    "pushed": 21022,
    "magnifying": 25392,
    "Ġstrange": 2274,
    "very": 501,
    "behold": 12874,
    "transp": 24512,
    "ifying": 5235,
    "fear": 8513,
    "Ġgangs": 21606,
    "slow": 7810,
    "Ġdoctor": 5066,
    "Ġdegree": 3705,
    "ictions": 14226,
    "Ġsphere": 15880,
    "restored": 18978,
    "Ġblessed": 6931,
    "Ġarose": 7360,
    "ersed": 10259,
    "perseus": 26005,
    "Ġhypothesis": 14780,
    "listened": 15043,
    "Ġdistribution": 2020,
    "beating": 22486,
    "condemned": 26060,
    "Ġjoke": 8868,
    "54": 15298,
    "apothecary": 26545,
    "Ġadagrad": 2902,
    "profess": 10628,
    "aren": 10073,
    "Ġlovers": 9719,
    "Ġcoron": 4464,
    "Ġcampaign": 20660,
    "initely": 7569,
    "Ġamerica": 6763,
    "Ġaccursed": 9454,
    "Ġanon": 9666,
    "afric": 19178,
    "Ġcounterpart": 24721,
    "Ġramadans": 25119,
    "caut": 20811,
    "seeking": 17152,
    "Ġgib": 13964,
    "Ġstudied": 11120,
    "Ġisle": 8832,
    "Ġaccumulated": 11929,
    "Ġclapping": 14203,
    "Ġfisheries": 17437,
    "Ġsaleve": 17390,
    "Ġleaking": 21742,
    "Ġunmannerly": 26517,
    "Ġyields": 19655,
    "orne": 17872,
    "rucastle": 22179,
    "Ġsoaring": 22083,
    "Ġindignation": 8346,
    "winter": 10740,
    "Ġdolph": 12378,
    "Ġplaymate": 23636,
    "Ġirresistible": 13111,
    "**:": 4736,
    "Ġattractive": 25575,
    "Ġplied": 22597,
    "Ġcubs": 20085,
    "do": 1996,
    "Ġdong": 17887,
    "recklessly": 25269,
    "Ġtro": 7356,
    "Ġrelev": 1716,
    "regularly": 13207,
    "Ġpeered": 18668,
    "Ġprair": 7746,
    "Ġseeing": 2882,
    "Ġhay": 11604,
    "flames": 14711,
    "Ġappetites": 20205,
    "Ġpaddington": 17095,
    "Ġfrantic": 7956,
    "because": 4922,
    "Ġemployments": 12100,
    "É": 138,
    "Ġfrog": 23918,
    "dressed": 10695,
    "wam": 10135,
    "Ġdivin": 13272,
    "Ġbowlines": 19321,
    "Ġdrawings": 14721,
    "?âĢĻ": 2641,
    "Ġinvitation": 5189,
    "Ġappeased": 23194,
    "Ġ45": 14769,
    "Ġdependencies": 2314,
    "enderby": 25215,
    "Ġconsequent": 18110,
    "Ġdigest": 24647,
    "Ġstarted": 4151,
    "Ġbeads": 18083,
    "Ġroyals": 19531,
    "Ġperth": 7022,
    "Ġbelonging": 8307,
    "Ġinasmuch": 10825,
    "priv": 9619,
    "Ġcorpus": 13029,
    "Ġcranes": 20381,
    "investments": 25532,
    "iliating": 12692,
    "Ġwonderland": 23423,
    "attempted": 20173,
    "Ġfonder": 17880,
    "Ġconsummate": 25310,
    "nostr": 22733,
    "Ġsoon": 1230,
    "Ġhave": 445,
    "Ġ_": 841,
    "ases": 1523,
    "tstone": 21083,
    "orated": 12588,
    "Ġfrankly": 16745,
    "lig": 3173,
    "strained": 21655,
    "suspicions": 25391,
    "rodu": 1817,
    "retrospect": 23133,
    "Ġstile": 21729,
    "Ġclock": 9532,
    "Ġlounging": 10021,
    "Ġforeman": 23446,
    "Ġoars": 3899,
    "Ġmate": 3709,
    "strade": 5064,
    "wer": 8394,
    "deception": 22142,
    "Ġlying": 4824,
    "Ġright": 1507,
    "Ġhail": 7400,
    "gish": 20872,
    "rolling": 9060,
    "Ġpertin": 18449,
    "Ġdiscomposed": 25580,
    "Ġfond": 4754,
    "chains": 9684,
    "iscre": 17850,
    "Ġespecial": 26410,
    "Ġunbecoming": 22059,
    "Ġconditions": 8306,
    "physiogn": 26265,
    "Ġcalendar": 18876,
    "Ġjohn": 5031,
    "Ġinjure": 16781,
    "Ġweighing": 20014,
    "Ġrifts": 21972,
    "stretching": 20497,
    "Ġblessing": 11263,
    "Ġkey": 2102,
    "wilful": 25086,
    "Ġperpetual": 12301,
    "Ġenable": 686,
    "Ġindicate": 23721,
    "apside": 22957,
    "Ġflew": 5588,
    "Ġnapoleon": 20556,
    "Ġbig": 5805,
    "Ġbusks": 23337,
    "ructure": 755,
    "Ġillust": 8262,
    "hemat": 3129,
    "Ġwilderness": 14839,
    "Ġpermitted": 9277,
    "atherine": 2596,
    "Ġstepfather": 7221,
    "prevented": 20372,
    "Ġesteemed": 10588,
    "Ġcommission": 6712,
    "Ġsong": 5902,
    "Ġforests": 13591,
    "Ġtouched": 6000,
    "ements": 11107,
    "Ġuseful": 3557,
    "inal": 15479,
    "Ġpossessing": 16575,
    "Ġlonging": 14298,
    "Ġconversations": 9424,
    "claims": 25319,
    "Ġgates": 10200,
    "lucases": 20209,
    "Ġgouge": 26188,
    "Ġgeorgiana": 8625,
    "Ġgang": 9207,
    "Ġflights": 24753,
    "achment": 5464,
    "Ġwager": 17792,
    "nt": 919,
    "Ġsegmentation": 17339,
    "Ġinvisible": 7327,
    "oded": 11668,
    "structure": 2211,
    "Ġimplicit": 19956,
    "Ġunrival": 22042,
    "Â£": 4811,
    "Ġdiminish": 14744,
    "bread": 10684,
    "collected": 13212,
    "bucket": 17493,
    "Ġbradstreet": 9576,
    "Ġwickham": 2207,
    "tal": 17670,
    "Ġboth": 1658,
    "Ġshades": 9462,
    "Ġsavage": 4012,
    "resum": 17761,
    "inferences": 17739,
    "Ġwhitney": 11373,
    "Ġtwelve": 4962,
    "grieved": 17316,
    "Ġbeams": 14631,
    "Ġpriv": 4185,
    "Ġprograms": 7239,
    "Ġphrenologist": 25607,
    "Ġhorribly": 16341,
    "Ġarmada": 23579,
    "Ġregret": 5562,
    "Ġconjoined": 21803,
    "Ġcolonial": 22857,
    "Ġshadowed": 24043,
    "Ġgardens": 16452,
    "andish": 18153,
    "pleased": 8853,
    "itime": 15545,
    "ap": 546,
    "Ġsentence": 6187,
    "wel": 6117,
    "Ġlikely": 3598,
    "Ġdyspeps": 16487,
    "Ġslam": 13055,
    "Ġsquared": 1382,
    "Ġquiescent": 26242,
    "twig": 23698,
    "Ġchildhood": 13136,
    "load": 12878,
    "Ġfew": 1197,
    "Ġhad": 443,
    "vac": 15449,
    "Ġplun": 6281,
    "Ġbohemia": 10649,
    "activation": 3232,
    "rel": 3756,
    "Ġmarry": 4417,
    "Ġmadden": 10447,
    "Ġswayed": 15047,
    "Ġwe": 386,
    "Ġce": 3030,
    "Ġfitly": 23996,
    "Ġeats": 15674,
    "Ġaccur": 3664,
    "Ġabhorred": 9507,
    "singing": 24363,
    "ee": 1663,
    "Ġimpat": 4456,
    "Ġwherefore": 8524,
    "Ġdirecting": 16298,
    "Å": 134,
    "ific": 491,
    "oors": 17620,
    "princ": 8620,
    "Ġfleshy": 24614,
    "Ġrecommending": 24337,
    "fancy": 7337,
    "Ġrinal": 21974,
    "becoming": 18519,
    "ny": 4016,
    "ofs": 11828,
    "Ġdesigns": 13009,
    "Ġjudgment": 5765,
    "Ġreferences": 21671,
    "Ġimpul": 7208,
    "Ġhues": 21486,
    "Ġrheumatic": 20704,
    "jets": 20927,
    "jewel": 20345,
    "ological": 1886,
    "Ġafric": 8905,
    "arris": 13208,
    "hamlet": 23260,
    "lied": 6507,
    "Ġfurnishing": 16645,
    "Ġclimax": 25051,
    "Ġwrong": 4722,
    "stock": 13220,
    "Ġinjuries": 11277,
    "Ġdeadliest": 14556,
    "Ġascent": 19617,
    "Ġfears": 5729,
    "Ġwavering": 23278,
    "Ġprecipices": 12275,
    "Ġmidst": 7985,
    "beyond": 8882,
    "Ġstrangled": 24134,
    "Ġhandsomer": 20332,
    "soo": 18685,
    "prince": 23811,
    "Ġsighing": 18678,
    "Ġledgers": 23935,
    "eight": 9591,
    "Ġscenery": 11456,
    "ginger": 13162,
    "Ġfirmly": 8013,
    "Ġtension": 13823,
    "Ġthundering": 24291,
    "Ġpir": 6818,
    "gale": 13723,
    "Ġmingled": 12375,
    "alike": 17942,
    "Ġvineyard": 12328,
    "Ġcontents": 7210,
    "Ġinquiring": 8999,
    "shame": 16018,
    "Ġpage": 6978,
    "Ġdisturbance": 15012,
    "conclusive": 25673,
    "Ġphyset": 23197,
    "Ġprendergast": 26537,
    "Ġcompanion": 3643,
    "aving": 2404,
    "Ġtanning": 17729,
    "Ġtreats": 19342,
    "Ġlucky": 7758,
    "Ġflat": 8227,
    "Ġfish": 2711,
    "recollection": 25348,
    "Ġ23": 13191,
    "shavings": 22450,
    "Ġsoph": 1629,
    "Ġendued": 14076,
    "Ġsearching": 13161,
    "Ġdismay": 11807,
    "Ġphysiognomical": 25611,
    "ply": 6366,
    "Ġcrystals": 20226,
    "Ġ(": 594,
    "Ġaccused": 8507,
    "Ġcases": 3963,
    "Ġwashed": 15762,
    "umblings": 23927,
    "Ġshreds": 12767,
    "surgeon": 24214,
    "Ġgardeners": 12118,
    "persuade": 13532,
    "abhorred": 17335,
    "Ġicy": 10747,
    "Ġdef": 1201,
    "Ġhelplessly": 20076,
    "Ġseal": 10256,
    "Ġcitadel": 25438,
    "du": 604,
    "Ġcrooked": 11281,
    "ties": 2758,
    "Ġspecimen": 13016,
    "Ġabsorbing": 17128,
    "Ġglobules": 26588,
    "Ġhuff": 21487,
    "Ġswims": 12117,
    "Ġferule": 24499,
    "Ġoct": 10158,
    "cob": 10086,
    "scans": 22981,
    "Ġelsewhere": 7712,
    "Ġsurely": 6307,
    "Ġindividuals": 24546,
    "sive": 4145,
    "deaux": 22145,
    "sleeping": 13453,
    "ledge": 1329,
    "united": 14059,
    "Ġunreasonably": 17450,
    "Ġhouses": 6138,
    "how": 1645,
    "gunpowder": 25339,
    "greek": 25404,
    "Ġindefinitely": 25221,
    "Ġmetrics": 19056,
    "Ġkeepers": 23538,
    "intelligence": 5882,
    "insurance": 18889,
    "speptic": 23943,
    "nameless": 19902,
    "trap": 24313,
    "Ġalabama": 14018,
    "Ġfifth": 11257,
    "Ġtelegra": 11888,
    "Ġtowers": 16738,
    "altogether": 12636,
    "otograph": 5826,
    "Ġresponded": 13637,
    "etieth": 21581,
    "Ġentic": 16144,
    "resemblance": 25933,
    "later": 20952,
    "ense": 2052,
    "disgraceful": 26076,
    "^{": 15303,
    "elsewhere": 19867,
    "Ġmeditation": 16680,
    "clouded": 20330,
    "Ġruddy": 17125,
    "kempt": 20940,
    "ĠmanÅĵuv": 18417,
    "Ġloading": 15872,
    "forget": 11032,
    "tale": 10127,
    "Ġskulls": 12956,
    "Ġdebts": 8035,
    "Ġxxxi": 24966,
    "hent": 12531,
    "ency": 3871,
    "Ġtint": 13816,
    "Ġcasualty": 20340,
    "Ġscener": 10949,
    "Ġopinions": 9414,
    "Ġpregn": 22229,
    "================================================================": 9989,
    "Ġlbs": 11614,
    "Ġmexic": 14030,
    "atra": 17771,
    "ipelagoes": 13670,
    "Ġresisted": 22538,
    "Ì": 141,
    "retched": 3066,
    "Ġrealism": 18983,
    "girdling": 26389,
    "eting": 7169,
    "Ġbids": 24645,
    "tur": 5688,
    "Ġpassengers": 13674,
    "crowd": 25254,
    "Ġforms": 6397,
    "wholly": 10941,
    "Ġ75": 19611,
    "wat": 6231,
    "Ġneg": 1332,
    "Ġjup": 15950,
    "delighted": 10562,
    "Ġexaggerated": 25650,
    ".âĢĶ": 4249,
    "Ġhovers": 19078,
    "Ġimply": 18444,
    "Ġescapes": 23507,
    "Ġchildish": 13135,
    "Ġphase": 14470,
    "Ġconstrued": 26301,
    "killed": 15375,
    "despicable": 24636,
    "mur": 5428,
    "Ġhilarity": 20296,
    "Ġ83": 24459,
    "Ġinconveniences": 24939,
    "Ġgenerates": 3665,
    "castle": 3349,
    "Ġoutlandish": 12835,
    "Ġwoman": 2385,
    "Ġig": 3500,
    "path": 10118,
    "Ġfeed": 2128,
    "itu": 1229,
    "heed": 15497,
    "march": 13754,
    "04": 10679,
    "Ġhopeful": 19031,
    "Ġwore": 6377,
    "Ġdick": 3496,
    "ut": 308,
    "variety": 23183,
    "offended": 16395,
    "Ġbreeze": 5681,
    "rebell": 17763,
    "Ġmin": 1023,
    "Ġphilosophical": 26334,
    "Ġcoffin": 4429,
    "Ġnaturalist": 22892,
    "Ġscales": 4848,
    "Ġpalms": 8643,
    "Ġassure": 4418,
    "Ġbitterest": 12400,
    "play": 5098,
    "Ġrus": 14091,
    "Ġno": 511,
    "unimportant": 18159,
    "Ġunabated": 15850,
    "isive": 10793,
    "Ġclum": 8872,
    "\",": 10678,
    "Ġman": 544,
    "Ġscrape": 14917,
    "Ġadjust": 2155,
    "Ġadapted": 11043,
    "Ġbordering": 17228,
    "idled": 21765,
    "Ġtrim": 15961,
    "cried": 8724,
    "alty": 17938,
    "Ġrunning": 3953,
    "Ġcompromising": 22570,
    "Ġindulgence": 11319,
    "Ġvisits": 8222,
    "cst": 10084,
    "Ġoccasion": 3247,
    "Ġ86": 24461,
    "warn": 11542,
    "ordered": 8789,
    "Ġcosmopol": 16454,
    "Ġpractice": 2818,
    "Ġelephants": 9863,
    "Ġcontradictory": 20395,
    "ograph": 4796,
    "Ń": 260,
    "Ġtumultuous": 10615,
    "handled": 19260,
    "ke": 429,
    "Ġservice": 6471,
    "Ġmantel": 11439,
    "hospit": 25903,
    "fire": 6357,
    "mbly": 9793,
    "vens": 21111,
    "Ġlodges": 19498,
    "ifted": 4494,
    "Ġstre": 2108,
    "Ġreusability": 13557,
    "arse": 7160,
    "Ġassoc": 6402,
    "sign": 8387,
    "Ġperform": 1036,
    "Ġmonogra": 22974,
    "byter": 16212,
    "Ġclap": 10958,
    "Ġradiance": 13369,
    "Ġgardiner": 3240,
    "Ġappear": 2487,
    "print": 23808,
    "Ġposition": 1956,
    "Ġincorporated": 25711,
    "ilet": 12826,
    "Ġenrolled": 21935,
    "Ġhose": 12624,
    "Ġsanction": 20024,
    "Ġepisode": 26346,
    "lilies": 20960,
    "Ġprocure": 9509,
    "Ġsurvive": 9066,
    "treas": 17679,
    "trial": 20349,
    "Ġwoven": 9925,
    "Ġaccounted": 10294,
    "Ġcomplimented": 14903,
    "co": 2434,
    "Ġcentaurs": 23830,
    "venth": 9294,
    "Ġworry": 18815,
    "welcomed": 24644,
    "deav": 2675,
    "Ġdiana": 21434,
    "Ġinhale": 20299,
    "mblies": 24608,
    "Ġuniform": 2229,
    "offers": 16393,
    "Ġ8": 5433,
    "Ġkindred": 16373,
    "Ġimbecile": 17391,
    "Ġby": 383,
    "Ġbox": 5108,
    "impe": 21705,
    "protest": 24815,
    "arks": 2843,
    "Ġfab": 15573,
    "Ġdarker": 13118,
    "rimshander": 20656,
    "Ġhurt": 7700,
    "Ġfervour": 19725,
    "bent": 15310,
    "Ġbreaching": 23345,
    "volume": 18584,
    "Ġacknowledged": 7535,
    "leo": 21362,
    "bearers": 18524,
    "Ġphil": 3384,
    "Ġcran": 11999,
    "resembling": 25932,
    "Ġtrial": 6634,
    "eries": 6808,
    "Ġmach": 13856,
    "Ġproble": 1112,
    ",*": 17471,
    "Ġjoys": 13218,
    "kerchief": 7526,
    "Ġfrighten": 13277,
    "hurrying": 14982,
    "fashioned": 9570,
    "Ġjenkinson": 11431,
    "Ġmeantime": 6206,
    "lascar": 20959,
    "Ġobserved": 3540,
    "ious": 770,
    "uary": 11537,
    "Ġconstables": 19072,
    "Ġconveying": 19713,
    "hood": 2660,
    "Ġblessings": 24176,
    "Ġply": 21451,
    "Ġacquirement": 19254,
    "asets": 2310,
    "ula": 2824,
    "Ġmany": 1108,
    "valuable": 8247,
    "Ġextant": 18701,
    "Ġcommitting": 22670,
    "africa": 26308,
    "Ġnecks": 18187,
    "shad": 10980,
    "won": 7144,
    "Ġnathan": 21523,
    "def": 1452,
    "Ġbetween": 789,
    "Ġchoking": 15932,
    "Ġtun": 5998,
    "Ġimpet": 11777,
    "Ġgrapes": 15214,
    "Ġmeans": 699,
    "Ġgrammars": 11402,
    "gained": 20880,
    "hid": 13733,
    "itories": 15546,
    "Ġaltitude": 26202,
    "fters": 20860,
    "simon": 16973,
    "Ġlocket": 22110,
    "cks": 3078,
    "vag": 8764,
    "imodal": 17446,
    "pect": 1255,
    "Ġignoble": 19397,
    "wonders": 17143,
    "Ġelect": 10842,
    "either": 6791,
    "icted": 5936,
    "fortune": 4974,
    "Ġprofit": 14585,
    "lot": 3208,
    "Ġhelpless": 8301,
    "Ġroared": 7023,
    "Ġprivately": 19522,
    "electricity": 26385,
    "Ġoarsmen": 7737,
    "ance": 479,
    "Ġthroughout": 8876,
    "Ġzero": 1202,
    "Ġstave": 11650,
    "Ġeffectual": 18731,
    "Ġproportional": 2527,
    "Ġninetieth": 25357,
    "Ġcraft": 4376,
    "orney": 17873,
    "ink": 756,
    "Ġcos": 2209,
    "Ġdiscourage": 3116,
    "come": 2375,
    "least": 8784,
    "Ġeve": 13969,
    "abound": 15737,
    "Ġlanguages": 1566,
    "Ġcheerfully": 12132,
    "ribs": 23363,
    "ling": 734,
    "Ġcele": 9899,
    "Ġpsalmody": 20583,
    "phant": 6287,
    "Ġcap": 2361,
    "wh": 508,
    "ansion": 10925,
    "ison": 3073,
    "lifted": 15385,
    "Ġsheltered": 19910,
    "pause": 12498,
    "itz": 6005,
    "Ġfrequented": 16585,
    "civil": 7796,
    "Ġswashing": 23054,
    "Ġwhiting": 10859,
    "ifling": 15780,
    "Ġidolator": 19996,
    "daw": 17522,
    "Ġmasts": 6465,
    "Ġsteps": 2861,
    "Ġfathers": 16294,
    "Ġhesitating": 16947,
    "Ġarduous": 26529,
    "ved": 869,
    "aries": 6244,
    "before": 3114,
    "Ġocean": 3304,
    "Ġpulse": 13113,
    "Ġdoll": 10813,
    "weather": 7229,
    "Ġdesertion": 24787,
    "Ġface": 1724,
    "Ġsuper": 2154,
    "Ġriots": 23890,
    "Ġhousemaid": 14463,
    "Ġqual": 6274,
    "oga": 22702,
    "barrels": 15041,
    "Ġconquer": 14026,
    "Ġvalley": 5850,
    "Ġdirectly": 2105,
    "Ġmechanism": 2093,
    "Ġtastes": 15476,
    "Ġenvelope": 7319,
    "Ġhav": 12751,
    "Ġdummy": 25449,
    "prodigious": 17466,
    "Ġconvict": 23743,
    "turtle": 12209,
    "Ġpropag": 16346,
    "Ġvirgin": 7328,
    "unch": 14057,
    "ander": 6401,
    "omon": 10206,
    "unusually": 15777,
    "Ġbreathless": 12167,
    "execution": 20470,
    "Ġbrimstone": 25686,
    "Ġparallelization": 3430,
    "Ġmajest": 24059,
    "Ġscar": 3212,
    "Ġreasoner": 14432,
    "Ġdetermined": 2224,
    "Ġinte": 2066,
    "Ġcrackling": 24958,
    "Ġtraitors": 23076,
    "Ġgamy": 17998,
    "Ġtipt": 21172,
    "ones": 2743,
    "scotland": 20527,
    "Ġbranches": 6776,
    "Ġcombinations": 22852,
    "Ġhearties": 18966,
    "Ġdetective": 14407,
    "Ġsilly": 7686,
    "Ġrejection": 19982,
    "Ġcongeal": 25980,
    "Ġmutually": 23954,
    "Ġplace": 1656,
    "omorrah": 18017,
    "Ġdid": 836,
    "Ġordered": 5832,
    "weed": 14314,
    "Ġbackward": 7653,
    "Ġmari": 6813,
    "Ġentirely": 3433,
    "Ġsque": 18758,
    "nuts": 15397,
    "lection": 3653,
    "Ġspots": 11727,
    "Ġpolynes": 16076,
    "aset": 10832,
    "Ġpreliminary": 10056,
    "Ġhearsed": 25039,
    "Ġcontrivances": 12355,
    "sooner": 14774,
    "Ġadequ": 10913,
    "Ġbasis": 16961,
    "Ġmilitia": 13316,
    "terogene": 21822,
    "collinses": 19922,
    "Ġpeaceable": 14722,
    "Ġott": 13865,
    "Ġtest": 1576,
    "Ġpens": 21458,
    "Ġdismally": 20213,
    "Ġstripping": 23695,
    "aye": 3660,
    "gratification": 24348,
    "Ġgoodly": 22819,
    "Ġprofits": 16489,
    "Ġcovers": 18592,
    "Ġbiases": 2395,
    "pl": 401,
    "Ġsenses": 8251,
    "ominy": 13977,
    "hello": 13362,
    "Ġscared": 14186,
    "Ġpleas": 1908,
    "hunters": 16833,
    "sullenly": 26149,
    "Ġboun": 21378,
    "Ġloves": 10915,
    "Ġdescend": 7427,
    "Ġne": 391,
    "abriel": 6950,
    "itty": 3553,
    "obedience": 17409,
    "playful": 24357,
    "Ġrepresentations": 1877,
    "Ġrachel": 11842,
    "Ġpian": 13916,
    "intolerable": 22935,
    "Ġaccording": 5508,
    "cru": 7126,
    "Ġtemperature": 1001,
    "Ġmout": 17798,
    "m": 81,
    "concent": 19478,
    "Ġstool": 14460,
    "Ġnineveh": 13388,
    "Ġpraised": 19552,
    "stay": 9680,
    "Ġpalmed": 24089,
    "coward": 13699,
    "Ġtoilet": 13936,
    "iciency": 9574,
    "Ġsoldier": 16920,
    "swallow": 24257,
    "imming": 9686,
    "Ġaccidents": 10295,
    "aug": 1214,
    "Ġproblems": 2847,
    "Ġadditionally": 1178,
    "effort": 19213,
    "Ġtrade": 2549,
    "Ġpropontis": 17465,
    "ite": 712,
    "ienced": 5685,
    "Ġcolonel": 3406,
    "Ġprodigies": 19792,
    "nav": 17611,
    "ral": 4626,
    "Ġecon": 9677,
    "Ġlifeless": 8948,
    "ga": 17550,
    "Ġsharpened": 17364,
    "extraordinary": 9094,
    "ieves": 4007,
    "Ġmaking": 1779,
    "Ġhe": 318,
    "laden": 14928,
    "Ġbarque": 23788,
    "Ġnatural": 1121,
    "ow": 325,
    "blooded": 20021,
    "Ġting": 8397,
    "Ġexcessive": 3894,
    "izers": 18142,
    "iter": 4391,
    "Ġspirit": 3725,
    "eds": 6674,
    "supp": 4163,
    "encing": 21281,
    "Ġvalued": 12180,
    "Ġmatrimony": 13634,
    "Ġnaut": 13940,
    "Ġrequisition": 22661,
    "Ġfut": 15572,
    "veil": 18045,
    "Ġendure": 5955,
    "Ġgain": 4826,
    "poke": 18801,
    "Í": 142,
    "Ġarrest": 7409,
    "Ġcommunity": 19009,
    "Ġhogshead": 26367,
    "tedious": 22629,
    "web": 18664,
    "Ġunflinching": 26512,
    "Ġexcite": 11963,
    "Ġhap": 18195,
    "¿": 128,
    "Ġsam": 7570,
    "Ġbier": 22757,
    "shattered": 22446,
    "bles": 7017,
    "Ġbashaw": 25633,
    "Ġcautious": 12251,
    "Ġwil": 4579,
    "declaration": 25175,
    "h": 76,
    "Ġdelineate": 26057,
    "tashtego": 9622,
    "warmest": 25027,
    "Ġfaced": 10808,
    "Ġcaval": 25769,
    "Ġinventing": 24861,
    "Ġen": 393,
    "correct": 24483,
    "Ġinsufferable": 13930,
    "Ġcivilized": 8664,
    "Ġhandsom": 11124,
    "Ġcounterbalance": 24722,
    "histor": 13490,
    "Ġtraced": 10383,
    "Ġalexander": 17423,
    "cott": 8073,
    "Ġinsignific": 13179,
    "sto": 3199,
    "!âĢĻ": 3332,
    "Ġsobbing": 14135,
    "bree": 15313,
    "Ġfinds": 6299,
    "Ġcontinuous": 1560,
    "last": 3804,
    "Ġdelivery": 18975,
    "Ġstagger": 10591,
    "sleeves": 26109,
    "Ġalcoves": 26486,
    "Ġpresents": 8244,
    "Ġsmells": 8889,
    "Ġdeemed": 7613,
    "Ġoverboard": 6044,
    "erde": 21267,
    "ela": 21566,
    "tps": 11534,
    "obscure": 23095,
    "fal": 17536,
    "Ġdevouring": 11857,
    "Ġlaughter": 9027,
    "hence": 16624,
    "¢": 100,
    "Ġinstinctively": 13458,
    "Ġlieuten": 13325,
    "Ġconceivable": 16613,
    "Ġwords": 1323,
    "successfully": 14990,
    "Ġwebster": 20160,
    "Ġbounce": 21391,
    "anders": 18152,
    "Ġsustaining": 25333,
    "cry": 12443,
    "treasures": 26152,
    "Ġpersuasion": 10498,
    "Ġdisappo": 4505,
    "Ġaccomplished": 7104,
    "Ġnostrils": 10943,
    "Ġcommercial": 22671,
    "Ġinjection": 3467,
    "Ġtor": 8105,
    "incing": 15484,
    "iscuits": 24666,
    "dle": 3249,
    "ouched": 4635,
    "gainst": 25141,
    "Ġunthinkingly": 26220,
    "Ġyounge": 16286,
    "inching": 21188,
    "Ġpunctilious": 26352,
    "Ġpicked": 6341,
    "Ġwalking": 4324,
    "irst": 878,
    "Ġindeed": 1682,
    "shel": 11928,
    "forgot": 11033,
    "Ġpeculiarly": 8286,
    "anthrop": 17381,
    "ox": 9133,
    "Ġdeliberate": 15022,
    "indirect": 22369,
    "Ġlegible": 23533,
    "Ġadmitted": 8986,
    "prep": 9758,
    "confirmed": 19644,
    "Ġshed": 8180,
    "Ġrejecting": 17051,
    "entric": 11618,
    "Ġdrunkard": 20176,
    "Ġproposals": 10613,
    "Á": 130,
    "establishment": 26113,
    "Ġguns": 16776,
    "Ġessential": 7524,
    "ience": 813,
    "Ġlandsc": 11146,
    "detective": 24383,
    "Ġpouch": 21467,
    "ained": 3063,
    "Ġcharted": 22247,
    "Ġshakes": 10904,
    "Ġbeaks": 21752,
    "Ġplata": 25117,
    "Ł": 258,
    "Ġsheaves": 22155,
    "Ġjar": 15948,
    "saving": 21058,
    "Ġtemple": 7655,
    "iop": 20918,
    "Ģ": 227,
    "¨": 106,
    "Ġsquare": 2394,
    "breadth": 20275,
    "Ġutterly": 6100,
    "mansion": 20982,
    "Ġearthy": 23711,
    "Ġhateful": 19712,
    "Ġpipes": 9849,
    "Ġmotionless": 8323,
    "hem": 6663,
    "entiful": 10836,
    "Ġstate": 1809,
    "Ġbuttons": 12778,
    "has": 4014,
    "fra": 8374,
    "Ġrun": 2354,
    "ager": 6546,
    "Ġhus": 3092,
    "shining": 18485,
    "gered": 9275,
    "Ġsocket": 12786,
    "Ġquakers": 22413,
    "reg": 2184,
    "Ġthoughtlessness": 16192,
    "Ġaffirmative": 15221,
    "Ġobserver": 11987,
    "steam": 23957,
    "Ġpassionately": 16764,
    "Ġartistic": 18611,
    "unt": 2044,
    "Ġpro": 360,
    "Ġhung": 4559,
    "Ġbars": 13896,
    "Ġexpiration": 22622,
    "!âĢĿ": 847,
    "ht": 375,
    "culiar": 2819,
    "dilig": 17282,
    "Ġvoyagings": 19235,
    "mblance": 7323,
    "Ġobvious": 4963,
    "rifle": 21045,
    "mming": 1173,
    "Ġincredulous": 9986,
    "Ġclutched": 13518,
    "Ġcrags": 23528,
    "Ġbuckle": 17033,
    "sm": 3435,
    "faint": 17545,
    "ount": 1115,
    "hmael": 7342,
    "Ġbatch": 889,
    "Ġcousin": 3706,
    "zealand": 26047,
    "Ġthews": 21276,
    "Ġgrammar": 1066,
    "Ġambiguous": 20163,
    "fiend": 13660,
    "Ġwhiskers": 10492,
    "pip": 6654,
    "ish": 550,
    "Ġintens": 7003,
    "prints": 23809,
    "uracy": 1070,
    "Ġmemb": 14028,
    "Ġcas": 8410,
    "feared": 11801,
    "fabulous": 20472,
    "knife": 6942,
    "Ġbeg": 1282,
    "absence": 12705,
    "Ġcreditors": 20128,
    "Ġg": 310,
    "Ġcurvature": 3572,
    "ree": 874,
    "lingering": 18598,
    "Ġyarn": 10868,
    "igner": 21698,
    "ric": 1376,
    "Ġprescribed": 26010,
    "Ġrang": 9244,
    "adventurous": 25361,
    "raid": 3280,
    "riv": 3109,
    "Ġdampening": 2893,
    "barbs": 20236,
    "Ġgap": 21596,
    "Ġswept": 7976,
    "circumstance": 7763,
    "Ġodds": 13328,
    "Ġproportions": 16467,
    "Ġhindrance": 25220,
    "Ġprepare": 8646,
    "athan": 2954,
    "Ġproportionably": 19969,
    "ass": 539,
    "inexplicable": 25809,
    "Ġai": 3128,
    "overlooked": 23321,
    "Ġwhaleman": 4653,
    "support": 9469,
    "li": 1189,
    "ung": 2746,
    "Ġorganisation": 23582,
    "bildad": 9586,
    "Ġtied": 7357,
    "Ġ-": 1947,
    "Ġsnowy": 9017,
    "Ġinsights": 13178,
    "alcul": 15625,
    "Ġgeneral": 1862,
    "Ġconnected": 5393,
    "Ġsimul": 1806,
    "Ġadvocate": 13675,
    "Ġbell": 4634,
    "mund": 13757,
    "Ġdevoutly": 25832,
    "Ġeconomy": 17200,
    "tee": 16168,
    "stud": 8819,
    "Ġprogra": 1146,
    "Ġhandles": 22692,
    "apprec": 22841,
    "incl": 8109,
    "Ġpeterson": 9482,
    "Ġtapering": 8770,
    "ortment": 22254,
    "Ġcompanions": 5865,
    "icking": 8910,
    "perceived": 8858,
    "Ġamericans": 14742,
    "Ġhydraulic": 10063,
    "Ġfloat": 12030,
    "traced": 19636,
    "Ġbattalions": 25776,
    "Ġobject": 1395,
    "Ġwallow": 19464,
    "dron": 17525,
    "Ġprofound": 5497,
    "Ġsacr": 7194,
    "Ġdiary": 24739,
    "Ġplanet": 14749,
    "Ġacceler": 1608,
    "ie": 728,
    "Ġtherein": 11773,
    "Ġasylum": 13665,
    "gaz": 20877,
    "Ġrecede": 25968,
    "Ġreliably": 22877,
    "metal": 24765,
    "Ġsor": 4147,
    "Ġrich": 2991,
    "Ġfaults": 12210,
    "Ġape": 21195,
    "insulting": 26055,
    "oftener": 23962,
    "loa": 18536,
    "Ġproxim": 3200,
    "_.âĢĻâĢĿ": 17479,
    "dense": 18716,
    "Ġflapped": 23008,
    "leeward": 15209,
    "nature": 5359,
    "ĠÂ£": 5005,
    "Ġcircumvent": 25064,
    "granting": 23412,
    "seized": 14034,
    "Ġaugmentation": 20114,
    "tasted": 17687,
    "Ġhoriz": 4724,
    "aution": 9387,
    "Ġwomanly": 23550,
    "antingly": 22095,
    "knell": 24555,
    "Ġshad": 3850,
    "Ġbeh": 1800,
    "Ġwatching": 4853,
    "uguese": 20731,
    "Ġwarring": 16865,
    "asher": 15643,
    "ethe": 9676,
    "Ġshud": 5461,
    "eland": 11619,
    "mates": 5072,
    "Ġwhip": 8451,
    "pire": 9135,
    "Ġgenerous": 6273,
    "Ġexpectation": 6904,
    "Ġsepulchre": 20558,
    "accustomed": 13156,
    "Ġcongregated": 20095,
    "Ġdelineations": 26058,
    "Ġdelusion": 18974,
    "question": 5418,
    "Ġunwritten": 22029,
    "int": 1199,
    "ornamented": 26595,
    "Ġmizzen": 20288,
    "Ġuplifted": 11646,
    "impud": 23758,
    "Ġscrib": 22266,
    "distinguished": 10526,
    "ta": 13788,
    "Ġpeter": 10535,
    "Ġexamples": 2606,
    "Ġint": 409,
    "Ġchewed": 16368,
    "bies": 15311,
    "asked": 8911,
    "Ġjoints": 12033,
    "uiperai": 10663,
    "Ġtiger": 11554,
    "wickham": 5883,
    "Ġcarries": 7674,
    "Ġmann": 18416,
    "Ġxlvi": 25590,
    "cabinet": 25077,
    "Ġmadame": 13149,
    "Ġwin": 9641,
    "inent": 9628,
    "inois": 17738,
    "Ġsplinters": 15101,
    "Ġ115": 24439,
    "Ġoutskirts": 17456,
    "Ġrespectable": 6736,
    "carpet": 25202,
    "glim": 19363,
    "Ġfavoring": 2344,
    "embed": 18182,
    "raction": 8137,
    "perpet": 14161,
    "Ġthankful": 14737,
    "Ġcongregational": 25102,
    "Ġmodest": 15912,
    "Ġproposal": 10018,
    "Ġunconsciously": 10004,
    "Ġho": 1935,
    "Ġhog": 13923,
    "Ġfronts": 20530,
    "unsupervised": 10889,
    "creation": 14805,
    "Ġencl": 16165,
    "Ġburglar": 17354,
    "Ġexecutors": 19532,
    "photograph": 16152,
    "Ġintelligent": 1339,
    "Ġmim": 3105,
    "Ġtrustees": 24107,
    "Ġimmersed": 19483,
    "making": 2573,
    "ittingly": 18807,
    "Ġinfall": 7959,
    "osa": 22257,
    "elly": 17979,
    "ainted": 3659,
    "Ġbabel": 24426,
    "Ġusually": 6263,
    "Ġhermits": 22071,
    "screaming": 20324,
    "Ġscrewing": 20207,
    "turns": 14905,
    "Ġhero": 5715,
    "Ġcruelty": 9968,
    "Ġslaughter": 20729,
    "Ġavert": 14424,
    "Ġsuccess": 3610,
    "ceived": 1966,
    "Ġpertur": 12847,
    "Ġthreshold": 2806,
    "Ġripe": 13233,
    "Ġhopeless": 7462,
    "wake": 11545,
    "Ġexploring": 4305,
    "Ġtying": 15472,
    "Ġjustinian": 22964,
    "Ġcreatures": 4139,
    "Ġscepticism": 25927,
    "Ġpersonages": 23540,
    "¼": 125,
    "etent": 10199,
    "Ġto": 297,
    "hastily": 19701,
    "Ġdistinctions": 18535,
    "Ġforming": 7042,
    "trem": 17681,
    "Ġexerc": 6834,
    "Ġherb": 15854,
    "gr": 2086,
    "Ġshoe": 14568,
    "Ġpecks": 18669,
    "Ġpenetration": 19916,
    "Ġdemig": 20355,
    "Ġpsychology": 11448,
    "Ġleg": 2335,
    "Ġbubbling": 17325,
    "Ġdeficient": 18824,
    "tide": 11532,
    "vid": 914,
    "explain": 1482,
    "successively": 24779,
    "desol": 13066,
    "Ġspending": 10923,
    "nets": 9132,
    "wife": 8100,
    "Ġvacantly": 16815,
    "Ī": 235,
    "desk": 23203,
    "Ġreply": 4514,
    "Ġquitted": 5311,
    "distance": 12150,
    "Ġprophes": 16347,
    "Ġcomplaint": 24776,
    "Ġdoubled": 19641,
    "ys": 3961,
    "Ġyours": 4125,
    "omination": 21639,
    "sorts": 21059,
    "Ġscatter": 18391,
    "Ġsexes": 25168,
    "Ġalman": 21778,
    "pemberley": 9620,
    "Ġextinguish": 14343,
    "Ġsufferings": 7514,
    "mes": 1198,
    "Ġnind": 17949,
    "mess": 13752,
    "owders": 18047,
    "Ġcouns": 10520,
    "Ġclubs": 25179,
    "Ġprove": 5231,
    "unction": 10234,
    "Ġdur": 11591,
    "Ġfacts": 2288,
    "Ġmira": 8406,
    "Ġstern": 4223,
    "dat": 1654,
    "Ġcollege": 11424,
    "etical": 13957,
    "Ġsickly": 16774,
    "band": 3057,
    "Ġjer": 6266,
    "Ġwag": 10775,
    "Ġcrimin": 6901,
    "Ġmuscles": 12086,
    "Ġtract": 21164,
    "ament": 2439,
    "Ġpromptly": 23814,
    "Ġdrowsiness": 26445,
    "favour": 9548,
    "Ġrubbed": 12952,
    "Ġphysical": 7523,
    "el": 306,
    "Ġstiffness": 24830,
    "ospit": 22260,
    "tering": 3808,
    "maged": 15392,
    "Ġmale": 9648,
    "Ġuninter": 18246,
    "Ġantelope": 24180,
    "appl": 9325,
    "Ġperverseness": 13653,
    "Ġnod": 1890,
    "murmured": 24455,
    "Ġdeg": 3282,
    "Ġkill": 4454,
    "ork": 416,
    "yn": 7819,
    "poured": 17637,
    "Ġcamel": 25349,
    "Ġsinned": 18950,
    "places": 7876,
    "Ġislets": 21798,
    "Ġhooded": 12404,
    "Ġearth": 2849,
    "Ġmoluccas": 25629,
    "Ġtouch": 3395,
    "Ġaffectation": 14440,
    "fo": 5278,
    "Ġdine": 7366,
    "Ġapprehending": 26090,
    "Ġthinks": 6169,
    "children": 9055,
    "Ġbind": 12579,
    "Ġemployed": 5200,
    "ĠâĢĶ": 13810,
    "ñ": 178,
    "arranted": 19319,
    "Ġundertone": 23235,
    "Ġbrigs": 20321,
    "pray": 5429,
    "describe": 1516,
    "evident": 25520,
    "Ġbuilded": 24719,
    "Ġhollows": 19740,
    "Ġunconcerned": 20508,
    "ribbed": 16410,
    "Ġtriangular": 14858,
    "spanish": 14330,
    "Ġimpersonal": 17395,
    "Ġdivulged": 16648,
    "Ġplate": 8898,
    "didst": 19347,
    "Ġbells": 19600,
    "Ġhindoo": 17175,
    "atever": 3077,
    "olly": 3226,
    "alling": 6036,
    "Ġpitching": 16611,
    "Ġprayed": 16667,
    "Ġrelation": 2142,
    "idated": 11660,
    "Ġruth": 14092,
    "Ġmassacre": 20546,
    "Ġmusty": 22677,
    "rear": 21231,
    "Ġperuvian": 18452,
    "Ġsatire": 22899,
    "Ġmumbled": 17807,
    "Ġcandle": 8291,
    "Ġ99": 10745,
    "cloudless": 20331,
    "Ġy": 341,
    "Ġintegrated": 13530,
    "Ġsomeone": 6703,
    "bitious": 16669,
    "Ġinstincts": 16986,
    "Ġav": 3580,
    "Ġthoroughfare": 16944,
    "Ġalmanac": 26485,
    "Ġ111": 24436,
    "Ġcorrob": 16264,
    "Ġless": 1941,
    "magnetic": 20551,
    "living": 7133,
    "hereabouts": 23605,
    "Ġbison": 21386,
    "Ġfour": 2217,
    "decl": 8856,
    "weave": 22682,
    "Ġhellish": 10550,
    "aks": 8506,
    "Ġdisgrace": 7215,
    "Ġdifferen": 936,
    "Ġfavourable": 7958,
    "user": 5104,
    "Ġhover": 15617,
    "Ġmanufactured": 22327,
    "Ġelder": 7225,
    "Ġmuttering": 10499,
    "Ġang": 2513,
    "virt": 15450,
    "Ġprov": 4400,
    "thy": 2932,
    "Ġbirth": 6524,
    "Ġploughing": 26259,
    "Ġcombined": 8548,
    "Ġproperly": 7944,
    "Ġobliter": 14321,
    "Ġlordly": 23742,
    "rubbery": 17341,
    "Ġlashing": 11615,
    "Ġuns": 15834,
    "Ġl": 303,
    "Ġspouting": 9438,
    "Ġflows": 13007,
    "answered": 10273,
    "Ġancestry": 25641,
    "greatest": 10493,
    "tuesday": 17690,
    "inated": 6804,
    "who": 2446,
    "complained": 25838,
    "Ġgracious": 8846,
    "Ġabundantly": 17156,
    "Ġtide": 6658,
    "Ġxx": 5492,
    "deployment": 26527,
    "Ġcivilities": 14847,
    "umbria": 23928,
    "Ġrecall": 3856,
    "Ġadmirable": 8268,
    "Ġchannel": 26012,
    "alvan": 21501,
    "Ġfailed": 6671,
    "Ġstarlight": 24626,
    "peddling": 24696,
    "Ġservants": 6610,
    "representation": 20195,
    "skull": 24488,
    "Ġheight": 4221,
    "Ã¦": 4337,
    "Ġanytime": 12882,
    "ower": 1065,
    "Ġtwins": 16118,
    "Ġhyper": 19738,
    "enses": 10994,
    "tan": 4741,
    "Ġprof": 2462,
    "Ġscript": 18392,
    "Ġreproofs": 24892,
    "Ġreef": 10849,
    "Ġreaction": 15692,
    "Ġbreathe": 9011,
    "Ġbrig": 11047,
    "Ġlun": 7855,
    "character": 6331,
    "Ġpeddler": 24800,
    "Ġunfitted": 24108,
    "Ġ93": 24591,
    "ck": 436,
    "iteous": 14261,
    "iction": 4269,
    "Ġreduced": 11922,
    "r": 86,
    "Ġeuroclydon": 15295,
    "benevolently": 25600,
    "Ġbenediction": 18785,
    "Ġease": 5629,
    "portent": 25412,
    "Ġimpact": 10296,
    "Ġfeedback": 23431,
    "Ġsolve": 4198,
    "with": 1297,
    "prises": 23810,
    "dying": 10694,
    "ursday": 12274,
    "mar": 4335,
    "ard": 465,
    "Ġbowed": 6242,
    "Ġon": 350,
    "Ġreplenished": 13635,
    "Ġadd": 629,
    "Ġcongreg": 8462,
    "Ġtraditions": 11443,
    "Ġphiladelphia": 26604,
    "emorial": 10241,
    "prairies": 20565,
    "Ġprairie": 8712,
    "solid": 16376,
    "Ġconversed": 13187,
    "Ġprecip": 7074,
    "Ġassent": 12730,
    "burned": 25079,
    "Ġinfancy": 10409,
    "Ġwhenever": 5166,
    "Ġpor": 5225,
    "Ġperchance": 15989,
    "Ġide": 2123,
    "mind": 4625,
    "Ġcurds": 22994,
    "omically": 13975,
    "Ġknelt": 12156,
    "obtained": 23093,
    "throw": 14097,
    "Ġinterp": 16067,
    "Ġcherish": 10589,
    "Ġsweating": 16461,
    "Ġoptimize": 1627,
    "Ġlonger": 3359,
    "Ġappears": 5402,
    "Ġvexation": 10586,
    "Ġwounded": 8657,
    "Ġpout": 17906,
    "istic": 999,
    "Ġsurging": 19133,
    "Ġcabin": 3303,
    "she": 1397,
    "eliest": 14745,
    "icest": 21561,
    "feeder": 12359,
    "Ġstandpoint": 23276,
    "Ġhappily": 9330,
    "phology": 3006,
    "Ġhaz": 12752,
    "rope": 3185,
    "Ġkind": 1784,
    "visible": 10533,
    "Ġrestrain": 8964,
    "Ġwedding": 4857,
    "woof": 21138,
    "susp": 10596,
    "Ġpest": 13912,
    "contrivance": 26316,
    "ission": 6457,
    "Ġattacks": 12202,
    "Ġindulging": 16904,
    "Ġlothario": 26184,
    "Ġplat": 8520,
    "Ġwapping": 21293,
    "Ġende": 21930,
    "sculptured": 26045,
    "chie": 21687,
    "neighbour": 7211,
    "tempered": 13445,
    "coming": 3561,
    "Ġgentleness": 8709,
    "couldn": 23716,
    "surrounded": 26088,
    "vent": 682,
    "unhappy": 10237,
    "plifted": 9709,
    "Ġbland": 11064,
    "rush": 7010,
    "ye": 1406,
    "henomenon": 13613,
    "brows": 17496,
    "Ġdeputation": 21836,
    "Ġbachelors": 24860,
    "pro": 2050,
    "Ġtransl": 2829,
    "ittleness": 22373,
    "Ġwis": 3730,
    "sorrow": 12506,
    "hatherley": 17568,
    "scene": 14418,
    "Ġimportant": 1076,
    "Ġgoble": 14230,
    "Ġfactory": 23275,
    "Ġosc": 2834,
    "Ġrecomm": 4995,
    "remonstr": 23188,
    "Ġnoiselessly": 22861,
    "Ġunexampled": 20358,
    "peaceful": 20445,
    "troubled": 17112,
    "Ġsomehow": 4840,
    "Ġbowsman": 11254,
    "Ġconvulsive": 19306,
    "Ġregarding": 13209,
    "Ġsnap": 11201,
    "Ġpowdered": 24237,
    "Ġlowerings": 23645,
    "Ġunsolved": 22028,
    "Ġrum": 5923,
    "oice": 1383,
    "borough": 20784,
    "Ġships": 3715,
    "gorge": 22335,
    "Ġrounds": 18884,
    "column": 19328,
    "bab": 11468,
    "Ġunbelief": 22044,
    "circum": 16737,
    "cu": 10083,
    "Ġassaults": 15155,
    "Ġsmiling": 5474,
    "Ġrecovered": 5481,
    "Ġcomple": 2839,
    "Ġpenetrated": 13471,
    "hot": 8083,
    "Ġowed": 10780,
    "Ġcleans": 18947,
    "uity": 12515,
    "Ġpondered": 15165,
    "ounder": 11742,
    "Ġconstrain": 2630,
    "Ġshoreless": 24295,
    "Ġm": 274,
    "Ġolfactories": 26171,
    "Ġdiab": 10611,
    "Ġeagle": 13201,
    "Ġmonarch": 14414,
    "Ġmaternal": 11059,
    "Ġamazing": 9976,
    "Ġsal": 3940,
    "roads": 17957,
    "Ġperempt": 13672,
    "medium": 23637,
    "bride": 19199,
    "terrible": 8465,
    "puzzling": 26143,
    "Ġgentlemanly": 19315,
    "Ġpettic": 14840,
    "admiration": 11387,
    "Ġsunk": 5752,
    "yden": 21142,
    "poles": 16209,
    "Ġconveyed": 8334,
    "Ġballasted": 23977,
    "Ġstrangest": 14795,
    "Ġemblazonings": 26042,
    "Ġbordered": 24563,
    "Ġsecrets": 9054,
    "Ġspasmodic": 20396,
    "eternal": 17982,
    "Ġrh": 9243,
    "Ġself": 1778,
    "omet": 3074,
    "jeroboam": 25619,
    "Ġ1846": 26084,
    "Ġreflected": 2908,
    "Ġquestioned": 14619,
    "uttural": 21586,
    "Ġendeavoured": 4917,
    "Ġspain": 15878,
    "apply": 18761,
    "Ġasiatic": 20428,
    "fol": 4861,
    "Ġhaughty": 11449,
    "Ġelated": 18643,
    "Ġkindest": 23291,
    "Ġtormented": 8674,
    "Ġsepulch": 15283,
    "prevent": 11793,
    "Ġsouls": 6308,
    "Ġstrongest": 11135,
    "ounix": 14163,
    "stealthily": 23959,
    "Ġspeeches": 22659,
    "Ġrecognised": 8995,
    "sand": 21051,
    "wr": 3027,
    "Ġclean": 5652,
    "Ġjunks": 25113,
    "Ġrepeated": 3832,
    "Ġmic": 17797,
    "Ġsincere": 11136,
    "Ġstout": 6024,
    "Ġgo": 614,
    "neat": 22459,
    "Ġhat": 2771,
    "method": 17284,
    "hurry": 24763,
    "Ġunansw": 22053,
    "Ġneighbors": 25806,
    "assist": 11766,
    "ivility": 12784,
    "Ġengineer": 11973,
    "Ġrisk": 8038,
    "Ġrelied": 16193,
    "Ġlurks": 11290,
    "Ġ121": 24466,
    "Ġaround": 3611,
    "nephew": 26397,
    "Ġtug": 11550,
    "Ġwee": 21915,
    "voc": 8393,
    "Ġisolated": 13558,
    "Ġjoists": 19232,
    "Ġbreeds": 23346,
    "Ġalps": 10870,
    "Ġtooth": 9192,
    "Ġnecessarily": 13247,
    "Ġstay": 3094,
    "oried": 10802,
    "87": 20756,
    "Ġpondering": 17005,
    "Ġkins": 22191,
    "Ġmarked": 4618,
    "Ġforgetting": 3434,
    "Ġdev": 885,
    "Ġoperation": 11997,
    "Ġear": 1422,
    "Ġuncivil": 11155,
    "anyone": 16593,
    "til": 17671,
    "Ġdemoniac": 15063,
    "Ġflee": 7079,
    "Ġitalian": 12408,
    "earth": 6502,
    "months": 9071,
    "Ġbuff": 9172,
    "Ġrequiring": 2920,
    "Ġpassed": 2012,
    "devouring": 24950,
    "Ġowes": 20083,
    "Ġtottenham": 24142,
    "heartedness": 24827,
    "Ġweedy": 15789,
    "Ġeternally": 11369,
    "dissatisf": 26129,
    "tered": 2233,
    "ensive": 6279,
    "Ġpotential": 3619,
    "Ġofficer": 6753,
    "regarding": 15070,
    "Ġretention": 23069,
    "Ġeconomical": 25287,
    "Ġdivined": 19441,
    "Ġaimed": 20249,
    "Ġdistressed": 8514,
    "Ġcrow": 3806,
    "avoiding": 25236,
    "Ġcasual": 11409,
    "Ġstrong": 1787,
    "Ġscreaming": 13422,
    "concealed": 25115,
    "Ġjest": 18403,
    "movable": 14323,
    "Ġexcluded": 16380,
    "det": 5207,
    "Ġmien": 17808,
    "Ġplow": 21457,
    "Ġtepid": 26412,
    "ceptive": 15960,
    "Ġadvertisement": 6941,
    "Ġjealousy": 13575,
    "Ġsuggestive": 11297,
    "Ġjan": 11760,
    "Ġlunatic": 24990,
    "uses": 11759,
    "Ġgr": 977,
    "government": 25406,
    "Ġselecting": 16684,
    "Ġbr": 1075,
    "Ġweighty": 16031,
    "Ġstraighten": 24001,
    "necessary": 5881,
    "street": 6495,
    "Ġlarge": 1068,
    "Ġdard": 21420,
    "twinkle": 23702,
    "Ġcoincidence": 25483,
    "wail": 21124,
    "iters": 21327,
    "ously": 2493,
    "iscreet": 20681,
    "medical": 23339,
    "Ġhill": 5626,
    "Ġinsects": 25646,
    "evade": 24820,
    "Ġunremitting": 26217,
    "prolong": 23393,
    "Ġbulwarks": 5592,
    "Ġblazing": 11894,
    "ria": 15795,
    "possess": 5983,
    "Ġdemands": 19642,
    "idation": 5021,
    "Ġclub": 8873,
    "itchen": 7787,
    "originally": 24937,
    "Ġmountainous": 16599,
    "relative": 24010,
    "Ġpresided": 20206,
    "congreg": 25398,
    "sworn": 24256,
    "Ġzones": 22816,
    "Ġclasp": 9743,
    "Ġconvivial": 16547,
    "generations": 23783,
    "brevi": 24073,
    "Ġslumbering": 25701,
    "buoy": 7760,
    "sleep": 6511,
    "Ġpleasures": 11143,
    "avor": 14276,
    "Ġreplete": 15695,
    "uish": 5431,
    "unworthy": 18161,
    "Ġharness": 17927,
    "Ġreproach": 9556,
    "belief": 13280,
    "Ġwont": 9851,
    "Ġamours": 22478,
    "Ġsaville": 15887,
    "ordingly": 18515,
    "ashtego": 4104,
    "Ġvenom": 24238,
    "Ġsufferable": 16258,
    "Ġlion": 9675,
    "eth": 619,
    "Ġassiduous": 26292,
    "han": 12470,
    "Ġpiteous": 17917,
    "Ġyankees": 26201,
    "Ġmassive": 9931,
    "anges": 1676,
    "Ġdy": 2444,
    "Ġpitied": 14691,
    "Ġsullen": 9157,
    "Ġconceal": 5973,
    "caroline": 24149,
    "Ġdecay": 1010,
    "smug": 23905,
    "Ġblaze": 16218,
    "Ġresidual": 1680,
    "ittered": 18439,
    "Ġevil": 3807,
    "Ġglued": 20587,
    "Ġgames": 11625,
    "continuing": 24479,
    "laborers": 23913,
    "aster": 1869,
    "Ġsubsc": 22785,
    "Ġleading": 7297,
    "weaknesses": 26030,
    "Ġbought": 8415,
    "Ġchosen": 7201,
    "Ġdeduce": 8336,
    "marrying": 19546,
    "Ġshrimp": 24157,
    "information": 12391,
    "Ġmajority": 13291,
    "Ġque": 4160,
    "Ġunsafe": 22036,
    "bra": 6219,
    "Ħ": 231,
    "Ġtrailing": 23077,
    "Ġcost": 2507,
    "Ġmail": 17800,
    "Ġprincipal": 6496,
    "pless": 6260,
    "inition": 11556,
    "Ġtestament": 23210,
    "iceland": 21563,
    "Ġperiodical": 14771,
    "Ġwhereof": 16100,
    "Ġretrogress": 23071,
    "Ġnicely": 8708,
    "enjoyment": 17257,
    "Ġproceeds": 12075,
    "Ġconstant": 6309,
    "persons": 24174,
    "witness": 10034,
    "jar": 17577,
    "tural": 21065,
    "âĢĶ.âĢĿ": 22252,
    "bons": 17486,
    "reeable": 3612,
    "Ġnobody": 6158,
    "commend": 19991,
    "Ĕ": 213,
    "Ġnetherfield": 3933,
    "propriety": 14361,
    "Ġdelight": 2550,
    "Ġweek": 2825,
    "Ġbeau": 9224,
    "Ġcounted": 12137,
    "Ġfrankness": 16746,
    "Ġplanets": 24055,
    "Ġlizard": 12651,
    "Ġhastening": 19335,
    "Ġcomprehended": 11294,
    "Ġenriched": 26499,
    "Ġjumped": 7096,
    "Ġashes": 7617,
    "Ġxviii": 23408,
    "Ġune": 4597,
    "Ġbitterly": 8314,
    "Ġpence": 17905,
    "humored": 19451,
    "Ġassociate": 13449,
    "Ġbankers": 24302,
    "Ġoverlook": 10960,
    "Ġstupid": 7604,
    "mont": 19168,
    "Ġindestructible": 26572,
    "Ġ94": 17717,
    "Ġverge": 23885,
    "urned": 9305,
    "Ġhurtling": 24957,
    "hos": 15362,
    "Ġequilibrium": 4142,
    "Ġevangelist": 20337,
    "Ġcrashes": 13124,
    "oting": 2745,
    "Ġdisconcerted": 18562,
    "appalling": 22842,
    "Ġbinnacle": 8118,
    "Ġcorporeally": 25729,
    "hardly": 6491,
    "Ġrifled": 21973,
    "bearing": 9764,
    "majesty": 26280,
    "Ġgulf": 10635,
    "Ġscenari": 22270,
    "Ġwrung": 14469,
    "Ġtattooings": 24900,
    "tically": 3392,
    "ssing": 3810,
    "taken": 7561,
    "Ġbeard": 11654,
    "bast": 10076,
    "Ġmagnitudes": 3823,
    "lined": 12481,
    "Ġdesol": 6881,
    "pretending": 17041,
    "rugged": 6849,
    "acency": 12905,
    "Ġinterlacing": 22573,
    "Ġupdate": 2466,
    "umbled": 8492,
    "Ġheartfelt": 18967,
    "ctuous": 9205,
    "guilty": 19481,
    "Ġegress": 21618,
    "ĥ": 230,
    "rece": 21233,
    "Ġglaciers": 20172,
    "foremost": 14252,
    "Ġk": 484,
    "fic": 20851,
    "Ġboom": 9309,
    "needle": 20312,
    "Ġberths": 20113,
    "Ġdisenc": 22523,
    "Ġgoblet": 25823,
    "Ġproprietor": 12371,
    "unexpected": 15775,
    "Ġmethodic": 23135,
    "Ġfrench": 4938,
    "away": 4624,
    "ear": 8730,
    "Ġorbs": 22089,
    "illuminated": 17452,
    "prisoner": 20542,
    "Ġinsincere": 26599,
    "archbishop": 22908,
    "Ġfl": 1280,
    "Ġsatisfactory": 11192,
    "Ġunfinished": 19508,
    "compar": 14357,
    "Ġqualified": 14949,
    "twelvemonth": 25862,
    "Ġpl": 745,
    "Ġunworthy": 11713,
    "Ġcellars": 24665,
    "Ġhitting": 21484,
    "Ġunspeakable": 10055,
    "Ġfleets": 23772,
    "Ġunst": 18238,
    "Ġpossess": 3204,
    "secur": 18126,
    "Ġshaking": 6551,
    "Ġafford": 4366,
    "Ġgree": 7595,
    "things": 6032,
    "understanding": 1185,
    "Ġservox": 23868,
    "Ġord": 3737,
    "Ġeyelids": 26107,
    "Ġheaved": 9382,
    "herself": 4889,
    "Ġblotting": 25313,
    "dead": 8179,
    "Ġtrifles": 16951,
    "Ġsalutations": 25382,
    "Ġshunned": 17292,
    "Ġspringing": 10518,
    "Ġsouthwards": 19632,
    "Ġranks": 21969,
    "osoever": 17342,
    "proachable": 23396,
    "Ġdrugged": 12599,
    "revol": 12537,
    "Ġdriving": 3617,
    "ugl": 23287,
    "Ġloo": 22107,
    "Ġ27": 8614,
    "carries": 19526,
    "Ġhoping": 11103,
    "Ġmurmured": 7481,
    "Ġyouthful": 16723,
    "village": 25422,
    "desire": 14473,
    "Ġreservoir": 20650,
    "Ġpel": 17904,
    "C": 39,
    "prof": 7471,
    "anous": 21357,
    "admon": 21758,
    "Ġmap": 2389,
    "papers": 12499,
    "security": 26206,
    "Ġbrist": 14377,
    "reflect": 19864,
    "P": 52,
    "Ġcontemplative": 19892,
    "events": 12315,
    "Ġlull": 15648,
    "Ġeloped": 22654,
    "Ġcattle": 12569,
    "Ġago": 3136,
    "Ġhatch": 7847,
    "Ġsorry": 4211,
    "Ġtamer": 24976,
    "Ġembodied": 25846,
    "Ġguardsmen": 20629,
    "Ġimmeasurable": 26229,
    "Ġnumer": 3638,
    "Ġhedge": 8363,
    "Ġverdant": 15002,
    "expose": 23664,
    "Ġanonymous": 26178,
    "Ġlazily": 11380,
    "Ġpaces": 13918,
    "there": 1423,
    "Ġriverside": 25247,
    "Ġ71": 24259,
    "Ġferrule": 24500,
    "dirty": 20833,
    "Ġcure": 21338,
    "Ġsallied": 12534,
    "salis": 25147,
    "Ġtransparen": 10541,
    "Ġconfirmed": 11139,
    "Ġintroduced": 7691,
    "Ġhuge": 4698,
    "Ġscarce": 8621,
    "likely": 9022,
    "Ġhides": 16263,
    "Ġstars": 6149,
    "Ġour": 1006,
    "Ġdevils": 7230,
    "Ġflor": 8561,
    "ser": 1425,
    "Ġdying": 2137,
    "Ġgrap": 11705,
    "Ġsmoothe": 23658,
    "diversity": 25897,
    "Ġdeclaring": 19418,
    "probable": 17021,
    "helm": 12169,
    "Ġrely": 8820,
    "ustration": 2261,
    "endurable": 22222,
    "Ġdiverted": 14592,
    "Ġundue": 25993,
    "Ġproof": 6153,
    "scra": 13015,
    "Ġduring": 873,
    "Ġemble": 13970,
    "Ġcot": 13876,
    "Ġcolonies": 14374,
    "Ġsmacking": 20164,
    "Ġventure": 7739,
    "Ġvacuous": 24344,
    "Ġdr": 2823,
    "Ġunfit": 14786,
    "Ġconscientious": 16727,
    "presents": 18800,
    "antucket": 2644,
    "Ġmaxim": 3084,
    "Ġtinker": 15130,
    "cour": 4479,
    "Ġjava": 12310,
    "Ġimplore": 24872,
    "Ġslipping": 13359,
    "Ġengaging": 9335,
    "quarter": 11388,
    "Ġcriminals": 19921,
    "first": 3936,
    "fatigue": 20657,
    "itious": 8779,
    "Ġcurric": 22993,
    "Ġcum": 21340,
    "Ġjourneys": 19473,
    "Ġadhes": 22103,
    "Ġfearlessness": 19160,
    "dor": 12449,
    "Ġwide": 4110,
    "angel": 5726,
    "lant": 20946,
    "stopping": 19348,
    "Ġimped": 18443,
    "?": 35,
    "Ġextravagant": 17278,
    "Ġdrawers": 12103,
    "Ġgriev": 16634,
    "Ġspool": 24806,
    "too": 4507,
    "Ġvulgarity": 25363,
    "cra": 6354,
    "Ġanonym": 17897,
    "Ġqualities": 7534,
    "Ġepit": 18006,
    "era": 13846,
    "Ġpupils": 20419,
    "Ġsty": 6251,
    "Ġflaw": 23007,
    "Ġtides": 13820,
    "Ġsaints": 20673,
    "ropy": 1106,
    "osque": 22259,
    "hus": 5071,
    "Ġexamination": 8004,
    "Ġmagic": 8232,
    "pointed": 9809,
    "Ġlistless": 16475,
    "nuee": 17429,
    "Ġreporting": 24657,
    "Ġabsent": 7014,
    "iam": 2511,
    "nevertheless": 8285,
    "Ġdefend": 9339,
    "ions": 448,
    "allic": 12810,
    "Ġinconvenience": 9563,
    "Ġpaid": 5014,
    "Ġthird": 4189,
    "chant": 4259,
    "Ġrefill": 18695,
    "fer": 1957,
    "Ġruns": 8595,
    "Ġenric": 21932,
    "sy": 2809,
    "ette": 15656,
    "whaler": 20308,
    "Ġgift": 10840,
    "Ġsable": 15499,
    "approb": 11042,
    "Ġabrid": 22279,
    "mistakable": 20652,
    "ateral": 19375,
    "Ġlegitimate": 20641,
    "Ġpallor": 13515,
    "bers": 2571,
    "dripping": 16905,
    "eronomy": 15523,
    "Ġopal": 23624,
    "phil": 7924,
    "geneva": 13729,
    "cre": 4251,
    "were": 2560,
    "liter": 11501,
    "Ġwed": 3962,
    "Ġgaiters": 20459,
    "Ġquadrant": 11404,
    "Ġhair": 3314,
    "sentence": 2937,
    "ool": 17618,
    "Ġkinds": 14504,
    "Ġtested": 23209,
    "Ġhysterics": 26093,
    "compl": 6873,
    "Ġarithmetic": 18338,
    "frozen": 25139,
    "Ġfruits": 17118,
    "derick": 22165,
    "Ġgrief": 4619,
    "Ġslave": 7454,
    "ounced": 4953,
    "Ġmelting": 24288,
    "Ġimpulsively": 24880,
    "·": 120,
    "Ġrise": 5637,
    "Ġpreceding": 7529,
    "Ġlining": 13950,
    "Ġpike": 12620,
    "Ġimbu": 15889,
    "Ġunqualified": 22056,
    "Ġglove": 14491,
    "Ġliquid": 22406,
    "Ġsax": 10929,
    "pher": 11511,
    "Ġroot": 2650,
    "Ġmajestic": 8639,
    "Ġcircles": 7966,
    "whereby": 23416,
    "unfearing": 21889,
    "Ġgir": 2257,
    "queen": 12724,
    "inn": 5363,
    "clock": 3935,
    "estruct": 22224,
    "ilt": 2966,
    "Ġastr": 15493,
    "Ġswallows": 18882,
    "Ġliking": 23590,
    "Ġdaughter": 2867,
    "Ġfastening": 16355,
    "Ġcub": 8413,
    "hump": 12475,
    "comra": 16170,
    "Ġwitty": 21291,
    "Ġexter": 7397,
    "Ġgrapnels": 25551,
    "agre": 18164,
    "verty": 8452,
    "sort": 6798,
    "aswag": 21543,
    "Ġjoll": 11763,
    "usoid": 4766,
    "brandy": 19200,
    "ized": 1528,
    "Ġsoles": 22082,
    "roof": 17953,
    "--": 1041,
    "ered": 1685,
    "Ġworse": 4717,
    "tout": 21064,
    "chron": 21691,
    "feeders": 25235,
    "Ġdines": 21421,
    "Ġflukes": 5266,
    "Ġtale": 5142,
    "horse": 8605,
    "chase": 11644,
    "Ġcourtship": 24136,
    "followed": 8338,
    "Ġstrife": 18614,
    "Ġbarrels": 9435,
    "Ġenticements": 26034,
    "Ġbishop": 13901,
    "Ġsuited": 12781,
    "Ġdances": 10812,
    "Ġaffect": 1385,
    "Ġhogarth": 25780,
    "Ġbathe": 25443,
    "Ġminds": 6303,
    "brilliancy": 26077,
    "neg": 12862,
    "Ġfurthermore": 1171,
    "Ġgoodness": 6058,
    "Ġminimizing": 3465,
    "remorse": 14466,
    "Ġfasting": 16354,
    "warmth": 20051,
    "Ġsolicit": 22885,
    "toed": 18578,
    "Ġdelightful": 6320,
    "rum": 3414,
    "Ġunfav": 14787,
    "antled": 18286,
    "qualities": 25043,
    "to": 713,
    "Ġabstra": 22278,
    "Ġtashtego": 4486,
    "Ġcrane": 23438,
    "Ġhimself": 1353,
    "Ġmorality": 22968,
    "Ġunwonted": 14124,
    "Ġheav": 1851,
    "Ġwhoever": 10975,
    "Ġroused": 7623,
    "Ġmerits": 13195,
    "Ġspaniards": 25555,
    "Ġextras": 22750,
    "control": 16542,
    "elastic": 17980,
    "acher": 6868,
    "Ġturnkeys": 23026,
    "Ġohio": 19128,
    "Ġmarking": 16468,
    "Ġirrevocably": 15296,
    "Ġdella": 21437,
    "promise": 12248,
    "critters": 14782,
    "counters": 25397,
    "hab": 1082,
    "standard": 22433,
    "stonecraft": 24356,
    "frequented": 25900,
    "process": 11148,
    "Ġreeled": 13985,
    "screen": 22988,
    "Ġplump": 14282,
    "ished": 1427,
    "Ġagonies": 14251,
    "con": 654,
    "Ġrubber": 22783,
    "Ġlate": 3376,
    "ther": 482,
    "Ġcruisings": 25864,
    "insula": 23064,
    "col": 3102,
    "Ġheaven": 3364,
    "ulate": 5233,
    "Ġgoug": 17990,
    "Ġrays": 10329,
    "Ġinfrequent": 3825,
    "ipt": 12476,
    "dict": 15338,
    "F": 42,
    "Ġdipped": 15592,
    "Ġtravelled": 7771,
    "regularization": 3514,
    "Ġmonarchs": 25849,
    "Ġadmeasurements": 26225,
    "Ġii": 7385,
    "author": 9859,
    "Ġdelightfully": 13157,
    "slave": 16895,
    "Ġtable": 2501,
    "Ġlowermost": 23240,
    "Ġcloud": 3913,
    "Ġmannish": 26237,
    "Ġinsertion": 26343,
    "Ġwool": 19431,
    "Ġguilt": 6179,
    "Ġstyle": 6946,
    "wondered": 17029,
    "Ġmanxman": 9565,
    "Ġsternly": 16715,
    "Ġreligions": 20106,
    "also": 7850,
    "Ġcitizens": 25439,
    "creatures": 7518,
    "Ġopportunity": 4785,
    "anean": 7443,
    "Ġdeliberately": 10624,
    "Ġvisitor": 5330,
    "gast": 20870,
    "Ġalpine": 18105,
    "raged": 9211,
    "Ġsudden": 2000,
    "perpendicular": 14162,
    "ĠâĢĻ": 3041,
    "Ġobjections": 8564,
    "Ġsa": 474,
    "Ġrecognition": 2999,
    "fatal": 17088,
    "Ġmediocr": 24083,
    "Ġtransferred": 16466,
    "Ġmanif": 8870,
    "Ġindicated": 10469,
    "Ġoppressed": 11189,
    "Ġimm": 3967,
    "Ġsidelong": 11438,
    "Ġblemish": 19678,
    "Ġcommun": 1707,
    "said": 4106,
    "prehens": 9288,
    "Ġmoved": 4838,
    "omited": 21638,
    "Ġmantelpiece": 15206,
    "Ġmonitors": 3158,
    "Ġbegg": 16252,
    "Ġyonder": 7392,
    "Ġimparts": 18446,
    "Ġlace": 13948,
    "Ġunprepared": 22045,
    "gold": 9120,
    "Ġlizz": 21554,
    "Ġpadd": 9669,
    "wick": 5362,
    "appears": 12058,
    "grounds": 11151,
    "inv": 8400,
    "Ġportions": 19367,
    "Ġthorough": 6245,
    "Ġhos": 4941,
    "doubtless": 17002,
    "rive": 9706,
    "chance": 6827,
    "Ġbrides": 22863,
    "taught": 17684,
    "figures": 20120,
    "Ġsagittarius": 24732,
    "Ġfetched": 24567,
    "Ġlife": 1354,
    "ails": 6160,
    "Ġunexpectedly": 19908,
    "copy": 5133,
    "Ġstatistical": 11104,
    "transformer": 25015,
    "Ġpebbles": 16127,
    "period": 15900,
    "Ġmomentous": 16167,
    "Ġgoverning": 2793,
    "Ġsnows": 14725,
    "Ġmankind": 6698,
    "vig": 15445,
    "Ď": 207,
    "mannered": 22848,
    "Ġexpensive": 12915,
    "!)": 10068,
    "promote": 24727,
    "Ġcommands": 16589,
    "concerning": 9067,
    "lets": 7836,
    "ries": 3353,
    "Ġbills": 17860,
    "Ġstrain": 6023,
    "rougham": 15991,
    "important": 7112,
    "Ġburning": 5976,
    "Ġcl": 554,
    "Ġsymb": 2592,
    "Ġpurp": 2390,
    "Ġwight": 12550,
    "locked": 7678,
    "Ġprofessed": 14723,
    "musical": 25340,
    "arrival": 15597,
    "Ġiv": 4045,
    "trip": 21090,
    "Ġaccord": 4026,
    "Ġlick": 21547,
    "outs": 7008,
    "Ġlingu": 11613,
    "Ġjoking": 12834,
    "Ġlooks": 4167,
    "orter": 4256,
    "pierced": 26141,
    "aurs": 20768,
    "Ġsystems": 800,
    "wont": 21131,
    "bos": 17483,
    "Ġvariance": 1169,
    "Ġimposing": 11779,
    "Ġdefinition": 14403,
    "Ġsounds": 5190,
    "Ġcircumnav": 12424,
    "aching": 5831,
    "Ġfibres": 12948,
    "read": 3276,
    "Ġneur": 814,
    "trivial": 21091,
    "Ġstreng": 18070,
    "Ġbuoyancy": 20040,
    "empty": 23633,
    "Ġstepped": 7051,
    "writ": 16552,
    "Ġwield": 21289,
    "aut": 1914,
    "Ġmonotonous": 13261,
    "Ġsliding": 9362,
    "Ġnobly": 22238,
    "Ġdirections": 1972,
    "ime": 625,
    "Ġexhibited": 9543,
    "orton": 11754,
    "bey": 10314,
    "Ġwarnings": 16881,
    "heat": 15496,
    "five": 6356,
    "Ġdin": 3625,
    "horses": 17567,
    "attering": 7419,
    "Ġsearch": 2591,
    "bingleys": 19633,
    "Ġlieu": 19563,
    "truck": 15440,
    "Ġunde": 11710,
    "Ġassisting": 13256,
    "Ġpurses": 23477,
    "Ġfarmhouse": 24984,
    "Ġanvil": 11596,
    "Ġaccident": 5380,
    "Ġpasses": 2680,
    "sar": 12502,
    "Ġadjacent": 20710,
    "Ġcrammed": 16470,
    "Ġacknowledgment": 16957,
    "Ġascend": 9959,
    "Ġunfortunately": 10909,
    "Ġitem": 12698,
    "Ġvarious": 3508,
    "Ġeven": 1024,
    "Ġreflecting": 24751,
    "Ġwere": 556,
    "Ġdisappeared": 5645,
    "Ġsummers": 23871,
    "aret": 7417,
    "Ġbreaking": 6310,
    "anchor": 13888,
    "Ġparadise": 11194,
    "etency": 21579,
    "Ġ101": 24409,
    "Ġhoped": 5488,
    "iver": 2049,
    "Ġtwitching": 25683,
    "Ġoozy": 21325,
    "âĢĶâĢĶâĢĿ": 15937,
    "Ġemperors": 15158,
    "Ġbidirectional": 3757,
    "deficient": 23114,
    "Ġchips": 14181,
    "abbering": 21793,
    "Ġrelating": 2706,
    "arrangement": 17414,
    "Ġfair": 2836,
    "Ġepicurean": 20554,
    "Ġsafety": 6339,
    "Ġexerted": 15754,
    "lingly": 9772,
    "Ġfitting": 21406,
    "Ġluxuriant": 20393,
    "Ġsto": 1500,
    "Ġtrifled": 24674,
    "Ġconcise": 23320,
    "Ġcorrection": 5061,
    "Ġentranced": 25833,
    "desirable": 23204,
    "Ġmotive": 6091,
    "Ġobeisance": 19757,
    "Ġcoopers": 20520,
    "Ġdramat": 23215,
    "Ġgesture": 11399,
    "Ġform": 1021,
    "vill": 10735,
    "Ġdenote": 19332,
    "ĠâĢĶ_": 3457,
    "Ġpeddling": 24799,
    "Ġlakes": 8130,
    "totally": 25417,
    "bordered": 17498,
    "Ġsmith": 16062,
    "Ġawaken": 23585,
    "ulled": 14055,
    "Ġspecific": 2003,
    "Ġloungers": 24862,
    "Ġrows": 10561,
    "Ġexpands": 25237,
    "Ġlearning": 387,
    "Ġhob": 12626,
    "expression": 10547,
    "Ġuncommonly": 7759,
    "masts": 19423,
    "Ġnest": 10188,
    "Ġunclad": 22049,
    "Ġenglish": 3614,
    "Ġactual": 3739,
    "took": 6164,
    "Ġloite": 22108,
    "ubbub": 23242,
    "Ġfert": 15579,
    "Ġlet": 1113,
    "shell": 16285,
    "Ā": 193,
    "Ġrepining": 23358,
    "anned": 17839,
    "Ġcontin": 5382,
    "Ġital": 10866,
    "antee": 22094,
    "Ġlengthened": 25958,
    "measured": 19988,
    "concl": 12867,
    "Ġpondicherry": 20489,
    "Ġexplain": 545,
    "leag": 21364,
    "Ġadam": 2127,
    "bud": 10682,
    "Ġthem": 639,
    "ouring": 6420,
    "Ġcobbler": 25829,
    "Ġframed": 19013,
    "Ġshirt": 8848,
    "build": 12185,
    "Ġsavoury": 23875,
    "Ġacquaintance": 4135,
    "6": 26,
    "Ġgaunt": 11268,
    "Ġseptember": 18207,
    "Ġdispleasure": 16050,
    "Ġafrican": 20136,
    "hester": 9631,
    "Ġkeel": 6444,
    "intentions": 22936,
    "Ġbes": 2661,
    "stri": 6249,
    "Ġstroke": 6936,
    "Ġsustain": 10016,
    "Ġstaves": 21737,
    "preserving": 25304,
    "Ġethics": 15461,
    "Ġturned": 2134,
    "77": 15299,
    "Ġegypt": 9678,
    "Ġleaps": 14007,
    "ham": 1703,
    "Ġhereditarily": 25224,
    "Ġslide": 10393,
    "table": 5795,
    "irous": 8838,
    "Ġchamp": 18381,
    "Ġrecogn": 2651,
    "Ġnamely": 20688,
    "Ġbreckinridge": 14523,
    "vex": 21699,
    "Ġrenewing": 19809,
    "Ġribbed": 16804,
    "Ġswelled": 11088,
    "pan": 10716,
    "several": 5544,
    "Ġgraves": 11706,
    "uced": 13799,
    "Ġfulfil": 9550,
    "Ġendangered": 16303,
    "ivot": 11716,
    "Ġacquaintances": 17349,
    "rian": 10242,
    "heav": 5694,
    "lessly": 4555,
    "Ġbutchers": 18272,
    "Ġemptied": 24347,
    "mentioning": 24885,
    "Ġporus": 24398,
    "form": 496,
    "suspicious": 25390,
    "brated": 12025,
    "Ġbristles": 25843,
    "Ġkith": 22189,
    "Ġrelieved": 7666,
    "Ġgeneralization": 982,
    "ho": 2856,
    "ouble": 2662,
    "kles": 17584,
    "immortal": 21707,
    "Ġgarb": 21600,
    "Ġfingers": 5672,
    "crazy": 24691,
    "twenty": 6607,
    "Ġestimated": 16594,
    "Ġdanes": 25156,
    "stun": 18018,
    "narwhale": 17317,
    "arding": 22154,
    "Ġsubterr": 10348,
    "cadence": 26125,
    "ounted": 5029,
    "Ġblanche": 18819,
    "Ġtennessee": 26596,
    "Ġsciences": 15942,
    "arrived": 12606,
    "Ġfolk": 10375,
    "Ġimpelling": 22382,
    "Ġreserve": 9970,
    "amy": 8467,
    "Ġroom": 1464,
    "cain": 15325,
    "Ġ40": 14767,
    ";": 31,
    "Ġcondem": 6338,
    "summit": 23415,
    "X": 60,
    "Ġcooking": 16646,
    "piling": 15414,
    "Ġduodecimo": 16767,
    "Ġroanoke": 22404,
    "Ġrevelry": 15135,
    "Ġearthquake": 14628,
    "etian": 13958,
    "Ġaddressed": 5262,
    "dick": 11479,
    "Ġpurchasing": 19874,
    "Ġmythologies": 26213,
    "imitably": 21708,
    "Ġpreparing": 8647,
    "terbury": 21821,
    "gree": 10701,
    "Ġrampart": 20317,
    "Ġseriously": 7061,
    "Ġ47": 14770,
    "urbed": 15706,
    "superst": 11325,
    "Ġsupple": 22996,
    "coburg": 13597,
    "Ġbund": 17863,
    "ucy": 15443,
    "Ġidentified": 19150,
    "Ġfuel": 13903,
    "usion": 3301,
    "Ġkeen": 4612,
    "Ġ38": 24078,
    "Ġhieroglyphics": 17302,
    "Ġrim": 21962,
    "Ġbeach": 6541,
    "continued": 8675,
    "allow": 5103,
    "hend": 13251,
    "december": 25558,
    "Ġconvalescence": 23744,
    "Ġgent": 7383,
    "Ġseals": 11695,
    "Ġmisconduct": 22754,
    "Ġcents": 17828,
    "Ġvigilant": 20183,
    "mountains": 15179,
    "softened": 20408,
    "Ġlookest": 22712,
    "resolution": 17766,
    "Ġsparsity": 4209,
    "restraint": 18979,
    "Ġregimentals": 19857,
    "draughts": 20386,
    "Ġbower": 15564,
    "Ġprosecut": 9697,
    "entreaties": 26185,
    "fe": 676,
    "Ġlove": 2055,
    "Ġjoky": 18406,
    "Ġvague": 6406,
    "disgrace": 16457,
    "Ġcottagers": 6761,
    "Ġlamp": 4116,
    "Ġearlier": 9086,
    "Ġunfold": 8022,
    "Ġhark": 8427,
    "Ġboomer": 20166,
    "Ġhar": 5814,
    "Ġcocoan": 20315,
    "elizabeth": 1987,
    "Ġenvironmental": 24046,
    "Ġsymbol": 7716,
    "Ġridicule": 13511,
    "Ġhorrors": 10479,
    "rubbed": 22181,
    "uch": 877,
    "Ġinvested": 7279,
    "Ġreject": 7386,
    "phia": 22776,
    "Ġmodular": 12814,
    "Ġvirtues": 9935,
    "Ġmimic": 3143,
    "Ġrustic": 14964,
    "Ġcontinent": 14887,
    "niest": 18968,
    "Ġrule": 1535,
    "Ġintolerably": 15827,
    "religion": 20574,
    "Ġprecision": 13188,
    "Ġincalculable": 17460,
    "Ġcaul": 10787,
    "Ġelderly": 13496,
    "Ġdents": 13910,
    "Ġhorror": 3774,
    "Ġscr": 11758,
    "Ġadversarial": 5607,
    "Ġarmed": 9259,
    "Ġinstinct": 6575,
    "Ġtheirs": 7024,
    "included": 19207,
    "Ġswash": 23053,
    "am": 368,
    "genteel": 19947,
    "happiness": 6469,
    "Ġcooper": 16073,
    "Ġscre": 9735,
    "ivates": 18280,
    "unc": 15766,
    "Ġjonah": 3480,
    "ohnson": 16323,
    "Ġsluggish": 25890,
    "Ġfantastic": 10058,
    "home": 7341,
    "Ġcupboard": 16883,
    "Ġsleeping": 6319,
    "Ġsubset": 9869,
    "Ġethiop": 26155,
    "========": 2312,
    "Ġthanked": 9458,
    "Ġfinal": 5400,
    "Ġcherub": 23285,
    "Ġwithstand": 10225,
    "Ġbeen": 626,
    "pleasures": 24044,
    "Ġvenge": 5420,
    "kick": 20935,
    "Ġincivility": 18573,
    "baron": 24925,
    "Ġcopy": 10163,
    "Ġ127": 24472,
    "Ġfeminine": 15262,
    "Ġthrough": 603,
    "Ġabsence": 4893,
    "Ġke": 1155,
    "pre": 649,
    "Ġtoken": 2039,
    "aid": 1923,
    "Ġpropri": 6738,
    "Ġinfer": 7684,
    "Ġguide": 3216,
    "Ġimprove": 1853,
    "Ġr": 404,
    "entitled": 21565,
    "Ġequal": 4137,
    "fab": 13715,
    "afternoon": 13186,
    "flesh": 13489,
    "Ġwitnessed": 14843,
    "Ġsurrender": 16449,
    "Ġsetting": 7046,
    "Ġcultured": 25154,
    "Ġbefore": 811,
    "Ġcoolly": 9771,
    "Ġpartial": 2129,
    "Ġbeaut": 2391,
    "Ġsickle": 24245,
    "placidity": 25988,
    "Ġwhich": 503,
    "Ġbrilliant": 11414,
    "Ġunctuousness": 17234,
    "Ġrushed": 4088,
    "Ġhousekeeper": 7456,
    "Ġaloof": 21782,
    "isl": 21373,
    "ernity": 18613,
    "hooked": 23714,
    "Ġexample": 5095,
    "Ġegotistical": 26191,
    "opened": 7912,
    "Ġbristol": 14379,
    "commander": 16987,
    "Ġberg": 24536,
    "Ġach": 2622,
    "Ġperilous": 7768,
    "lads": 20954,
    "Ġepic": 15029,
    "Ġcopse": 17068,
    "Ġdesirable": 8941,
    "admirably": 24944,
    "itely": 5365,
    "Ġchanced": 8186,
    "Ġmonster": 3794,
    "Ġfest": 10804,
    "85": 13680,
    "Ġinsepar": 17933,
    "Ġgilded": 17444,
    "Ġawakened": 10453,
    "entropy": 1439,
    "agery": 21904,
    "agreeable": 5829,
    "Ġlucases": 9009,
    "Ġvivacity": 14940,
    "Ġsalesman": 13667,
    "Ġpitch": 5767,
    "antage": 3881,
    "eral": 9159,
    "Ġpersian": 11091,
    "Ġyellowish": 24430,
    "Ġpositively": 13028,
    "Ġconcentrated": 15082,
    "Ġvulture": 17338,
    "Ġmainmast": 9778,
    "Ġsauce": 15888,
    "Ġaggregate": 25677,
    "Ġworking": 5575,
    "iloqu": 11647,
    "Ġcomp": 723,
    "prosperity": 20734,
    "Ġsalvation": 14756,
    "opÃ¦": 12870,
    "swam": 24254,
    "nesday": 8702,
    "uten": 11621,
    "Ġswell": 8949,
    "Ġincessant": 15096,
    "attendants": 25495,
    "Ġdiscerning": 25002,
    "$": 8,
    "Ġtrains": 10947,
    "Ġinj": 4759,
    "Ġrigging": 5601,
    "ruct": 685,
    "```": 25893,
    "Ġguided": 10460,
    "arthly": 8029,
    "Ġcomforter": 20505,
    "elect": 20845,
    "Ġalliance": 18235,
    "Ġindisp": 18834,
    "terror": 18128,
    "Ġcorrectly": 9403,
    "Ġdeceiving": 21834,
    "azed": 9398,
    "Ġarrow": 10931,
    "could": 2870,
    "Ġroutine": 13507,
    "Ġaffidavit": 20723,
    "reduc": 5459,
    "Ġtars": 21163,
    "skylight": 25623,
    "Ġpom": 21450,
    "ainty": 21784,
    "izes": 884,
    "latin": 25258,
    "Ġhabitu": 19527,
    "comrade": 20623,
    "[_": 5131,
    "john": 11497,
    "ides": 2161,
    "Ġindolence": 16227,
    "Ġsol": 1107,
    "mill": 13753,
    "endering": 21283,
    "Ġheaviest": 23322,
    "Ġnautical": 17385,
    "Ġyawning": 12298,
    "enchanted": 26424,
    "Ġeas": 2352,
    "Ġnight": 1466,
    "anged": 3586,
    "shape": 10981,
    "interchange": 23737,
    "Ġparalle": 1410,
    "roy": 7853,
    "Ġprudential": 17919,
    "common": 4129,
    "Ġxi": 16428,
    "ching": 5156,
    "Ġsashes": 21224,
    "phenomenon": 17648,
    "w": 91,
    "======": 9832,
    "Ġcompletely": 4859,
    "plete": 10919,
    "itch": 10160,
    "Ġunfulfilled": 26509,
    "Ġoutweigh": 22319,
    "Ġcigarette": 20655,
    ";âĢĶ": 3751,
    "Ġconvolutional": 2162,
    "contrad": 19291,
    "Ġpeaceful": 9455,
    "Ġsuffusing": 23027,
    "draught": 12087,
    "Ġneurons": 976,
    "Ġluxurious": 17310,
    "Ġcounter": 6481,
    "Ġreprehensible": 15696,
    "isis": 12576,
    "Ġproposed": 7460,
    "recovered": 19786,
    "impenet": 18053,
    "Ġcreated": 2708,
    "Ġpart": 859,
    "Ġschedules": 3385,
    "Ġow": 8407,
    "uge": 4017,
    "Ġrussian": 14349,
    "ieth": 10704,
    "Ġmon": 1253,
    "arranged": 19318,
    "paper": 9136,
    "Ġexistence": 4705,
    "Ġmakest": 25435,
    "Ġisol": 8833,
    "Ġoverflowing": 17237,
    "Ġalacrity": 15734,
    "xes": 21139,
    "Ġphysiogn": 12386,
    "Ġspirits": 3699,
    "ain": 343,
    "dough": 15334,
    "thirty": 12759,
    "Ġbutts": 15853,
    "Ġacute": 16121,
    "Ġsumm": 3355,
    "Ġsnodhead": 19301,
    "devilish": 17082,
    "Ġdivinely": 25723,
    "Ġswells": 9826,
    "smeer": 26147,
    "Ġbottled": 23793,
    "Ġinterrupt": 4360,
    "next": 5891,
    "ro": 301,
    "Ġsof": 18281,
    "rance": 5993,
    "Ġhorseman": 19606,
    "Ġastonished": 7087,
    "cely": 3573,
    "cousins": 20116,
    "Ġresuming": 12890,
    "emotion": 21925,
    "was": 1420,
    "Ġwatchman": 23668,
    "madly": 24420,
    "Ġpliny": 11823,
    "inger": 6812,
    "Ġnorton": 12646,
    "Ġforgiven": 24024,
    "atives": 2239,
    "mish": 17598,
    "whalebone": 19118,
    "Ġkitchen": 8495,
    "irectly": 6940,
    "Ġcompletion": 12145,
    "Ġtrusted": 10517,
    "bare": 12439,
    "Ġtalked": 4420,
    "Ġoccurred": 4462,
    "Ġshrunk": 16718,
    "Ġspinal": 12300,
    "ward": 706,
    "lim": 9606,
    "Ġscratches": 22269,
    "Ġheadsman": 13273,
    "Ġoy": 15543,
    "Ġeast": 5370,
    "Ġstab": 10862,
    "leagues": 21371,
    "william": 4561,
    "Ġunwinding": 22055,
    "Ġrevel": 9214,
    "Ġconsecrate": 26489,
    "erately": 21272,
    "enances": 10153,
    "thro": 12758,
    "Ġpractised": 23325,
    "Ġtoward": 17946,
    "Ġwraps": 19775,
    "Ġdetestable": 15097,
    "Ġexecution": 6927,
    "Ġnapole": 15114,
    "Ġcorroded": 18875,
    "anded": 5922,
    "Ġwithdrew": 9695,
    "Ġfully": 6342,
    "Ġtuples": 13476,
    "Ġrabb": 4164,
    "sterns": 23366,
    "ll": 1140,
    "Ġnimble": 21525,
    "Ġexec": 19491,
    "Ġtremendous": 8352,
    "Ġattached": 5392,
    "carpenter": 11427,
    "Ġdiscover": 4716,
    "Ġindependently": 4247,
    "brous": 19198,
    "active": 16101,
    "mushroom": 26395,
    "Ġyarman": 12702,
    "**": 4684,
    "insupportable": 21192,
    "agne": 21902,
    "glo": 8737,
    "ĕ": 214,
    "expressing": 16801,
    "Ġforlorn": 14014,
    "parts": 14601,
    "Ġpeep": 6870,
    "Ġadrift": 11721,
    "impul": 16555,
    "trampled": 26333,
    "Ġstaying": 8283,
    "Ġwhitish": 24866,
    "Ġexchange": 15753,
    "meetings": 20376,
    "wins": 21128,
    "Ġslain": 8953,
    "Ġadviser": 25312,
    "Ġblocked": 19221,
    "spot": 9787,
    "Ġbarbarous": 13475,
    "Ġgentlemen": 3642,
    "Ġnailed": 10189,
    "Ġinclu": 1103,
    "get": 1019,
    "Ġpregnant": 26535,
    "Ġcurrent": 13017,
    "Ġresolute": 19244,
    "towing": 17689,
    "Ġsurpr": 2552,
    "Ġhor": 1664,
    "ts": 958,
    "hither": 11492,
    "reme": 2424,
    "avier": 2830,
    "Ġevaluate": 3206,
    "Ġlob": 7628,
    "Ġspared": 7892,
    "Ġtragic": 15254,
    "Ġlimits": 3452,
    "Ġscore": 9736,
    "spouting": 25000,
    "Ġgaily": 16748,
    "sat": 4809,
    "Ġtempest": 8213,
    "Ġcanal": 8181,
    "Ġascertained": 25296,
    "ugnance": 12365,
    "sounding": 24796,
    "stolen": 13981,
    "ô": 181,
    "Ġtables": 9877,
    "Ġinfl": 6893,
    "subjects": 19875,
    "discovering": 24251,
    "Ġunintelligible": 26514,
    "Ġuncounted": 19116,
    "hurried": 11353,
    "scru": 16239,
    "Ġtexas": 25922,
    "Ġejaculation": 20253,
    "Ġintended": 5548,
    "Ġpartiality": 9397,
    "Ġpavement": 9577,
    "Ġbabes": 24425,
    "our": 534,
    "Ġmultiplicity": 19274,
    "Ġnotes": 7189,
    "Ġrecklessness": 24745,
    "Ġphrases": 2795,
    "Ġdepressions": 25798,
    "Ę": 217,
    "Ġtossed": 5815,
    "firmly": 20279,
    "ishness": 22339,
    "Ġadvances": 12984,
    "abashed": 21789,
    "Ġobsole": 22695,
    "Ġenhancement": 23827,
    "accessory": 25499,
    "Ġvineyarder": 25606,
    "Ġcountries": 13095,
    "Ġaims": 15495,
    "Ġtorm": 5434,
    "Ġimitate": 14157,
    "ians": 2358,
    "Ġfire": 2333,
    "Ġpenny": 16312,
    "Ġconstruction": 9385,
    "Ġsadness": 13285,
    "shriek": 20518,
    "rowsers": 8694,
    "Ġwidespread": 20674,
    "pp": 384,
    "Ġchurning": 15935,
    "Ġintrepidity": 25550,
    "Ġarchly": 22760,
    "Ġbade": 9171,
    "under": 3132,
    "broad": 8642,
    "Ġattempting": 14696,
    "Ġhalloa": 13315,
    "enched": 10154,
    "Ġfow": 6133,
    "chants": 21689,
    "seven": 8463,
    "Ġpeculiarities": 12068,
    "Ġsub": 949,
    "Ġencountering": 11269,
    "uvier": 9068,
    "Ġstages": 14003,
    "speed": 19407,
    "Ġcorpulence": 24509,
    "Ġaffair": 4463,
    "Ġedinburgh": 16435,
    "prepar": 22463,
    "vital": 17700,
    "Ġcate": 4111,
    "osc": 18387,
    "Ġsewing": 21958,
    "bourn": 3302,
    "Ġdriven": 6198,
    "Ġnodes": 1969,
    "Ġsaratoga": 26423,
    "Ġhon": 2540,
    "Ġstones": 9221,
    "Ġpicking": 11259,
    "rmsprop": 4521,
    "Ġsyn": 15910,
    "Ġrecital": 16140,
    "Ġcoal": 18591,
    "if": 376,
    "Ġresumed": 11810,
    "apology": 22330,
    "Ġconsists": 11976,
    "ondescript": 22914,
    "Ġcoefficient": 2881,
    "allowed": 5728,
    "Ġuproar": 22152,
    "Ġmining": 22829,
    "Ġluckless": 16797,
    "stra": 4046,
    "Ġregretted": 13399,
    "Ġlav": 13949,
    "rossing": 18649,
    "Ġrecommended": 8667,
    "U": 57,
    "Ġamusements": 16913,
    "Ġsuperficial": 23455,
    "Ġdrink": 4786,
    "cannot": 5745,
    "Ġshorter": 4498,
    "Ġspectre": 16630,
    "judge": 13335,
    "daggoo": 13706,
    "Ġinoffensive": 21495,
    "meadow": 18677,
    "somehow": 12010,
    "Ġjets": 10287,
    "Ġviv": 6156,
    "Ġbeaufort": 13567,
    "intosh": 22937,
    "Ġmule": 13861,
    "Ġdifference": 1490,
    "Ġdrily": 23539,
    "iarity": 8743,
    "Ġskirts": 14351,
    "Ġmah": 15538,
    "Ġrept": 13982,
    "respective": 19845,
    "###": 3828,
    "Ġpatchwork": 24141,
    "orate": 10800,
    "madam": 24421,
    "Ġperse": 6271,
    "blog": 19838,
    "anxious": 15108,
    "Ġdangling": 17174,
    "atherley": 7220,
    "Ġscrutiny": 26015,
    "Ġinsignificance": 20456,
    "Ġjeopardy": 13595,
    "Ġencamped": 22799,
    "oul": 4697,
    "bank": 10079,
    "Ġmid": 2617,
    "Ġorgans": 15863,
    "gracechurch": 24581,
    "Ġrigged": 16717,
    "Ġsympathetic": 17358,
    "Ġstayed": 7997,
    "Ġdepend": 774,
    "Ġcylinders": 25943,
    "Ġenemy": 5605,
    "Ġactor": 16046,
    "Ġsqueezing": 25006,
    "mission": 5969,
    "Ġnegative": 1465,
    "Ġde": 363,
    "Ġepsom": 19981,
    "sets": 17660,
    "uits": 21103,
    "Ġbless": 4342,
    "Ġsow": 17749,
    "pence": 15408,
    "tent": 21063,
    "Ġinit": 818,
    "Ġhandfuls": 17209,
    "Ġworried": 22923,
    "matters": 14873,
    "Ġmemorable": 16426,
    "Ġdwell": 5812,
    "iffs": 9021,
    "boxes": 16888,
    "Ġcongealed": 25981,
    "Ġunderneath": 16336,
    "computer": 2005,
    "Ġvilla": 14746,
    "Ġwaiter": 16358,
    "oftentimes": 19419,
    "Ġabounding": 12342,
    "Ġoriginally": 7304,
    "Ġcan": 468,
    "Ġcoupled": 16851,
    "fortunate": 4791,
    "Ġdeprived": 8207,
    "Ġundeserving": 18268,
    "Ġcanaller": 25467,
    "Ġrefresh": 10344,
    "Ġlowered": 6735,
    "Ġmingling": 20196,
    "Ġresides": 22537,
    "inordinate": 21193,
    "Ġpew": 9314,
    "ince": 4339,
    "Ġlicense": 20089,
    "Ġmag": 1429,
    "Ġpenetrating": 17011,
    "Ġwriters": 13542,
    "Ġunmanufactured": 20432,
    "iem": 20916,
    "Ġmounttop": 19976,
    "Ġhospital": 15039,
    "Ġsacrificial": 24871,
    "ls": 1289,
    "Ġenderby": 13650,
    "Ġprophesy": 26061,
    "Ġterminating": 23510,
    "Ġapplying": 13091,
    "abilities": 3238,
    "Ġenormousness": 24515,
    "Ġlydia": 2372,
    "Ġdesolate": 10012,
    "clearly": 25195,
    "vedale": 22709,
    "examination": 25478,
    "Ġstrait": 23748,
    "Ġprosperous": 15169,
    "deeply": 16176,
    "Ġdanish": 21429,
    "Ġloftiest": 16874,
    "glit": 23848,
    "arrant": 10474,
    "Ġmoose": 22428,
    "Ġunusually": 15844,
    "Ġautonomous": 10675,
    "Ġsavor": 23873,
    "Ġbestow": 6455,
    "Ġleads": 12094,
    "Ġparliament": 18302,
    "Ġmoderately": 22215,
    "oard": 4808,
    "Ġglimmer": 15140,
    "remain": 9837,
    "âĢĶ_": 3201,
    "Ġgasp": 7172,
    "Ġunnatural": 7190,
    "Ġattentively": 9949,
    "hearing": 8402,
    "believe": 8303,
    "attending": 18916,
    "Ġrecalled": 8537,
    "Ġlurid": 19680,
    "Ġmyst": 4051,
    "grief": 13730,
    "ears": 20844,
    "cher": 5786,
    "Ġtransformed": 22609,
    "Ġincognit": 22551,
    "astes": 11737,
    "derer": 4599,
    "sk": 5521,
    "----": 4058,
    "Ġlikeness": 11179,
    "ials": 11704,
    "boiling": 19001,
    "Ġoath": 7833,
    "Ġthus": 2037,
    "see": 3045,
    "Ġmillions": 11354,
    "Ġspine": 7407,
    "Ġaccomplishment": 19664,
    "Ġcontinuation": 22915,
    "»": 124,
    "pertaining": 22185,
    "Ġdishon": 12228,
    "Ġfoolish": 5979,
    "Ġclass": 790,
    "Ġreward": 6144,
    "Ġrevered": 23732,
    "eling": 6681,
    "Ġduncan": 13460,
    "Ġerie": 20052,
    "Ġnewton": 3532,
    "Ġwrite": 3822,
    "Ġbesides": 3513,
    "Ġwhit": 7177,
    "quimaux": 21856,
    "sister": 5139,
    "ĠâĢĺ_": 11116,
    "Ġcleansed": 26293,
    "Ġsatan": 14390,
    "Ġbasic": 24701,
    "Ġblame": 6446,
    "chain": 18039,
    "Ġcollected": 2612,
    "Ġweld": 8111,
    "Ġcabal": 23640,
    "Ġfam": 1584,
    "jointed": 24007,
    "Ġcaught": 3732,
    "Ġpushing": 10819,
    "Ġmodel": 509,
    "Ġcredit": 4817,
    "bib": 17491,
    "heading": 5487,
    "Ġexpression": 4515,
    "æ": 167,
    "test": 13791,
    "Ġtriumphant": 12187,
    "Ġwept": 7184,
    "Ġaffecting": 2324,
    "ici": 8439,
    "Ġhilarious": 20297,
    "ĠĠĠĠĠĠĠĠĠĠĠĠĠĠĠĠĠĠĠĠĠĠĠĠĠĠĠĠĠĠĠĠĠĠĠ": 19257,
    "Ġforebodings": 17303,
    "generous": 16568,
    "Ġfaces": 6008,
    "Ġgrandeur": 8627,
    "Ġannealing": 1553,
    "listener": 24930,
    "Ġsect": 17751,
    "ileries": 18058,
    "Ġforger": 15730,
    "baby": 25515,
    "numer": 15398,
    "unteered": 26495,
    "Ġthreaten": 24374,
    "Ġdisease": 14257,
    "Ġdocuments": 10022,
    "Ġdisaster": 12884,
    "Ġremainder": 9857,
    "heedful": 20572,
    "bet": 6109,
    "Ġfiend": 4411,
    "requ": 7148,
    "Ġslid": 7951,
    "Ġdeigned": 18138,
    "Ġvol": 4191,
    "reach": 17757,
    "turner": 19540,
    "zwilliam": 5073,
    "summoned": 26591,
    "justified": 19003,
    "heart": 4525,
    "ina": 21178,
    "Ġloafer": 18299,
    "Ġsemantic": 1961,
    "billiard": 25334,
    "discovered": 8324,
    "unwillingly": 21881,
    "meas": 7434,
    "fairly": 17219,
    "relig": 15511,
    "ly": 319,
    "Ġneglect": 7941,
    "andering": 21864,
    "Ġcease": 7076,
    "Ġinstruct": 2862,
    "Ġobserving": 6080,
    "Ġwaking": 11569,
    "Ġgenealogies": 25961,
    "shipped": 18486,
    "Ġmedicine": 15204,
    "Ġstormy": 16728,
    "Ġdamp": 8263,
    "Ġdeem": 18133,
    "mark": 5281,
    "country": 6103,
    "Ġworld": 1594,
    "fed": 11487,
    "willing": 6592,
    "ete": 9203,
    "Ġforked": 11663,
    "oct": 7555,
    "Ġvult": 12749,
    "Ġmiddle": 4140,
    "Ġshaken": 10264,
    "measureless": 20234,
    "pacific": 17641,
    "Ġcomplexity": 1697,
    "hetic": 12201,
    "Ġformed": 3886,
    "Ġgentlemanlike": 12064,
    "Ġresented": 22540,
    "Ġexhaust": 6399,
    "Ġreceives": 20353,
    "Ġpretension": 23762,
    "Ġsepul": 14089,
    "gris": 8259,
    "Ġbashee": 19848,
    "Ġyourselves": 9028,
    "Ġcontaining": 2234,
    "Ġsprang": 5063,
    "Ġdisappoint": 24205,
    "Ġfields": 2143,
    "jolly": 20930,
    "Ġapiece": 16813,
    "Ġanswer": 2600,
    "axing": 18547,
    "het": 5435,
    "ur": 326,
    "work": 1687,
    "ascended": 24706,
    "Ġcommenting": 25228,
    "failed": 20862,
    "Ġcrutch": 23445,
    "Ġwreath": 25936,
    "Ġbraved": 23835,
    "aught": 2681,
    "childhood": 16868,
    "Ġledge": 19399,
    "Ġwallet": 21297,
    "aul": 6352,
    "seek": 8836,
    "jewell": 25523,
    "Ġdespairing": 14772,
    "Ġsubsiding": 23432,
    "Ġpredomin": 16040,
    "lux": 14225,
    "Ġbestir": 13108,
    "esty": 4306,
    "Ġindirect": 18835,
    "newsp": 23130,
    "Ġspeeding": 23563,
    "Ġroast": 18457,
    "Ġboundary": 11222,
    "Ġcompunction": 18587,
    "mount": 9129,
    "stranded": 19225,
    "stands": 22432,
    "Ġdais": 24372,
    "simply": 20669,
    "Ġradiant": 16809,
    "aboard": 21791,
    "upt": 13797,
    "Ġbrill": 8549,
    "Ġsinking": 7307,
    "Ġ1950": 11359,
    "urons": 3131,
    "Ġbloodshot": 23797,
    "ruck": 6848,
    "eping": 5833,
    "Ġvoices": 7875,
    "befall": 22492,
    "conside": 9289,
    "iot": 9600,
    "Ġgifted": 17996,
    "Ġdownright": 16116,
    "Ġlifetime": 13601,
    "Ġwrithing": 11944,
    "Ġprobable": 5570,
    "Ġperforming": 7927,
    "cies": 1813,
    "Ġmillion": 14986,
    "aggra": 21903,
    "directed": 20403,
    "joined": 13274,
    "cures": 20804,
    "sufficient": 6635,
    "Ġadmir": 12020,
    "Ġslabs": 13058,
    "Ġadvised": 16201,
    "holloa": 19462,
    "lyph": 10852,
    "Ġspoilt": 24807,
    "equ": 6790,
    "tfordshire": 4810,
    "Ġamsterdam": 22481,
    "Ġanteced": 26177,
    "Ġalleghan": 25795,
    "Ġram": 11012,
    "rabb": 15677,
    "å": 166,
    "idays": 21767,
    "mysteries": 26051,
    "onic": 7827,
    "iture": 5696,
    "Ġdestruction": 6600,
    "Ġfigure": 4208,
    "osity": 14185,
    "_,âĢĻ": 12431,
    "eric": 3470,
    "ruction": 4357,
    "Ġavail": 11226,
    "tu": 12509,
    "etwork": 442,
    "ley": 1815,
    "Ġrange": 9711,
    "Ġcommand": 3322,
    "Ġoptimization": 1433,
    "taking": 5689,
    "aloft": 8806,
    "moid": 2450,
    "Ġrenow": 18027,
    "Ġbanish": 15567,
    "Ġequality": 16357,
    "spirit": 11313,
    "true": 2587,
    "!âĢĻâĢĿ": 16592,
    "clever": 20812,
    "Ġlock": 5927,
    "Ġegot": 18007,
    "Ġidea": 2489,
    "Ġwon": 1667,
    "Ġcirculation": 16415,
    "Ġintent": 6409,
    "Ġchristendom": 16695,
    "Ġcanallers": 13626,
    "sun": 7139,
    "details": 19674,
    "Ġloadstone": 25816,
    "Ġmajor": 13290,
    "Ġdz": 4755,
    "purp": 8090,
    "15": 12428,
    "appropri": 22840,
    "Ġpoland": 23616,
    "abated": 14019,
    "Ġthrees": 23399,
    "ushes": 22288,
    "_,âĢĿ": 6218,
    "Ġcanterbury": 22162,
    "macy": 18806,
    "Ġinfatuation": 25857,
    "Ġathirst": 20597,
    "Ġwitnesses": 9485,
    "Ġbrigandish": 25487,
    "vessels": 10625,
    "Ġlocal": 1200,
    "ana": 15556,
    "irresist": 21909,
    "Ġshaved": 21999,
    "Ġrepine": 16408,
    "wes": 17703,
    "Ġcloak": 9533,
    "hidden": 17370,
    "Ġexchanged": 10878,
    "Ġgovern": 10450,
    "trowsers": 17691,
    "Ġhun": 1496,
    "distant": 13333,
    "Ġoutrages": 18414,
    "Ġillustration": 19135,
    "Ġfurnace": 19438,
    "Ġvomit": 21945,
    "Ġspasmodically": 17313,
    "Ġbolt": 11334,
    "iber": 6506,
    "Ġtemptation": 8677,
    "Ġtorrents": 20054,
    "arying": 9800,
    "Ġexpenses": 11833,
    "staring": 18020,
    "Ġhaw": 10251,
    "unsuitable": 21890,
    "ifference": 5632,
    "Ġinfirm": 19019,
    "ashing": 4823,
    "Ġcapt": 1290,
    "Ġtreatise": 19343,
    "programming": 10062,
    "ioning": 21506,
    "Ġrevolutionized": 3366,
    "Ġwaits": 23277,
    "pure": 17626,
    "Ġsighs": 22708,
    "saying": 8640,
    "familiar": 19782,
    "Ġpunctures": 25133,
    "mp": 3729,
    "Ġblundering": 26283,
    "text": 1975,
    "Ġtierce": 15477,
    "Ġdairy": 20685,
    "reporting": 24494,
    "Ġfits": 8790,
    "extra": 8218,
    "leaped": 17843,
    "Ġwhirled": 14959,
    "Ġlumber": 13951,
    "Ġbride": 6291,
    "Ġfreshet": 25704,
    "Ġve": 1110,
    "Ġfiver": 22773,
    "started": 10845,
    "Ġbashful": 20418,
    "Ġroving": 22400,
    "Ġreplace": 14476,
    "Ġwhilst": 9218,
    "Ġremove": 7500,
    "Ġtink": 9148,
    "Ġordinary": 6096,
    "Ġit": 339,
    "Ġcollins": 2180,
    "Ġtelegraph": 25583,
    "jumping": 20244,
    "Ġrights": 10396,
    "Ġassociated": 12247,
    "dearest": 11733,
    "Ġmerest": 14029,
    "assure": 9268,
    "Ġperformance": 1307,
    "Ġsend": 4109,
    "four": 6113,
    "Ġsharing": 3476,
    "Ġsurrounds": 24231,
    "Ġfarthing": 14453,
    "fields": 14653,
    "Ġstarry": 16923,
    "Ġdamning": 19139,
    "Ġhimmale": 18334,
    "obtain": 23091,
    "Ġstraps": 19309,
    "ideas": 18581,
    "Ġshroud": 6483,
    "crum": 17511,
    "Ġdespaired": 14668,
    "Ġleave": 2459,
    "Ġdisappearing": 22530,
    "therly": 18346,
    "corrid": 24484,
    "Ġaston": 3703,
    "Ġwantonly": 22891,
    "Ġpersuasions": 16631,
    "Ġsquat": 14367,
    "Ġinterpreter": 23212,
    "inst": 4295,
    "Ġvent": 3999,
    "Ġswerve": 14437,
    "ickering": 22667,
    "Ġunlimited": 26222,
    "Ġpiping": 23238,
    "Ġmeridian": 25714,
    "Ġnoted": 15828,
    "quit": 15759,
    "confl": 22468,
    "Ġfogs": 25282,
    "Ġbott": 3149,
    "swallowed": 14852,
    "Ġdisappointing": 19578,
    "Ġbattle": 5907,
    "Ġhowled": 12851,
    "uck": 1236,
    "ü": 189,
    "Ġscanning": 18393,
    "Ġbranch": 8331,
    "iverse": 13114,
    "Ġpupella": 20420,
    "circumspect": 26086,
    "Ġprim": 8243,
    "Ġgradu": 15830,
    "Ġexpressive": 8982,
    "Ġjournal": 15217,
    "Ġste": 1388,
    "fanning": 20865,
    "Ġere": 3687,
    "mass": 12487,
    "Ġventilator": 8713,
    "Ġsomnambul": 26576,
    "Ġunacquainted": 12773,
    "Ġcedar": 15187,
    "opatra": 22474,
    "Ġdough": 8420,
    "cro": 13695,
    "Ġill": 2194,
    "Ġejaculated": 15168,
    "Ġinstances": 5568,
    "snatched": 24850,
    "Ġsilent": 3410,
    "Ġnonsense": 6982,
    "downward": 16619,
    "¬": 110,
    "unders": 13308,
    "Ġkiss": 8182,
    "Ġcontrols": 1734,
    "engaged": 7452,
    "Ġcham": 4891,
    "despairing": 25074,
    "Ġhapp": 1095,
    "Ġhil": 10821,
    "itement": 7835,
    "hecy": 21205,
    "vard": 21109,
    "Ġinstituted": 18699,
    "Ġdecisions": 6702,
    "Ġrucastles": 18721,
    "oles": 21004,
    "Ġsultan": 15183,
    "Ġmors": 17801,
    "derment": 22164,
    "awed": 10390,
    "Ġthieves": 15633,
    "Ġtribute": 15474,
    "lun": 20945,
    "Ġpallet": 21479,
    "immedi": 8450,
    "Ġspitz": 14148,
    "blown": 25201,
    "cripp": 20818,
    "erably": 7574,
    "Ġner": 1648,
    "castles": 14636,
    "Ġgoose": 5937,
    "Ġhospitality": 13512,
    "Ġbiggest": 24566,
    "Ġoccurrence": 14381,
    "Ġwidow": 8662,
    "Ġcomplete": 4382,
    "Ġple": 1470,
    "detained": 24382,
    "Ġventured": 7502,
    "parameter": 3067,
    "compared": 24031,
    "Ġimplement": 3009,
    "laws": 19806,
    "queg": 1770,
    "Ġscholar": 26111,
    "alley": 23018,
    "Ġimpediments": 26240,
    "thr": 12757,
    "possible": 5743,
    "Ġtubs": 11370,
    "dug": 18462,
    "Ġcomputes": 4767,
    "sigma": 3001,
    "Ġequals": 4725,
    "Ġroughly": 17040,
    "pth": 2380,
    "ifications": 9728,
    "Ġchuck": 8501,
    "earliest": 20118,
    "family": 7324,
    "Ġmurderer": 4979,
    "ascertaining": 26460,
    "Ġprocess": 565,
    "emph": 21923,
    "Ġcertain": 1556,
    "letter": 6201,
    "Ġvers": 7564,
    "Ġtakes": 5006,
    "ce": 313,
    "slouched": 24557,
    "Ġphilosophy": 7103,
    "Ġemotion": 7690,
    "Ġdemeanour": 17336,
    "Ġenc": 968,
    "Ġboasting": 19934,
    "Ġstren": 15717,
    "Ġhumorously": 18779,
    "Ġsermons": 20193,
    "illings": 14142,
    "Ġhistor": 3389,
    "Ġhorr": 3190,
    "storm": 9681,
    "ieved": 3231,
    "Ġstuff": 5717,
    "relations": 14732,
    "Ġdestiny": 8983,
    "Ġignominy": 15084,
    "Ġordinarily": 20648,
    "frau": 15088,
    "Ġeleg": 6192,
    "headed": 4318,
    "Ġdestination": 19149,
    "scotch": 25850,
    "Ġvigour": 24462,
    "Ġcured": 21345,
    "cake": 20803,
    "Ġcordage": 19677,
    "Ġelse": 2483,
    "ipped": 5790,
    "manners": 16183,
    "Ġdefy": 11895,
    "Ġenh": 3152,
    "Ġwat": 1286,
    "Ġgroups": 3720,
    "Ġpugn": 21478,
    "Ġbedfellow": 16436,
    "ule": 6800,
    "Ġbough": 13893,
    "Ġquee": 1981,
    "Ġexordium": 26492,
    "glances": 23851,
    "bedstead": 23847,
    "Ġcontinents": 16849,
    "Ġdetestation": 17127,
    "Ġsobbed": 14136,
    "Ġtiny": 11552,
    "Ġsanguine": 25928,
    "f": 74,
    "Ġliberty": 7761,
    "athed": 7828,
    "Ġirrevoc": 15038,
    "theast": 21745,
    "Ġexplaining": 15958,
    "Ġpals": 13917,
    "accepted": 20135,
    "Ġplaced": 3443,
    "Ġharsh": 9520,
    "Ġcouch": 12568,
    "Ġearn": 3546,
    "ggling": 19096,
    "Ġbehind": 2805,
    "clam": 13052,
    "Ġsoul": 2726,
    "dest": 4105,
    "Ġbohem": 8526,
    "exertion": 16014,
    "Ġpartner": 6714,
    "Ġloaded": 8490,
    "unavoidable": 17389,
    "Ġborders": 15569,
    "ithing": 11648,
    "mira": 20978,
    "Ġstage": 7389,
    "Ġindelicacy": 25695,
    "pute": 8844,
    "Ġundaunted": 24120,
    "Ġsunda": 13543,
    "Ġforwards": 12700,
    "Ġsuffers": 2971,
    "Ġuncovered": 23430,
    "Ġfootpaths": 26318,
    "Ġlard": 13946,
    "Ġremain": 1875,
    "Ġoblivious": 26032,
    "enance": 3370,
    "Ġcrisp": 12001,
    "Ġbent": 5149,
    "ocity": 8277,
    "grat": 5051,
    "Ġclattered": 22350,
    "Ġlady": 1585,
    "Ġgradient": 450,
    "Ġdan": 8792,
    "Ġfloating": 6604,
    "Ġcritics": 23443,
    "Ġadvantageously": 19544,
    "vi": 2373,
    "Ġdeficiency": 14402,
    "Ġwhirling": 12246,
    "Ġspices": 22127,
    "Ġsolace": 16198,
    "wers": 12517,
    "breat": 10077,
    "Ġcarelessness": 13074,
    "Ġuncontrollable": 25814,
    "je": 11495,
    "erial": 4630,
    "Ġportcull": 23861,
    "Ġlivelong": 25511,
    "Ġscarcity": 23823,
    "Ġroad": 3883,
    "ĠĠĠĠ": 460,
    "Ġbowled": 23767,
    "Ġsavann": 14684,
    "Ġimpertinence": 11366,
    "Ġinstantaneous": 14611,
    "Ġcuff": 17829,
    "races": 21627,
    "landsmen": 25059,
    "Ġword": 1052,
    "lacings": 26134,
    "Ġexceed": 1346,
    "engagements": 25853,
    "yellow": 9624,
    "Ġgin": 13960,
    "alescing": 23864,
    "sudden": 5315,
    "Ġnick": 21520,
    "Ġwild": 2603,
    "Ġrevive": 13478,
    "application": 12361,
    "Ġranged": 10257,
    "abled": 12791,
    "danced": 20827,
    "Ġreiter": 21663,
    "iven": 1239,
    "Ġmelt": 21317,
    "Ġinsinuating": 19270,
    "Ġobsequ": 14319,
    "Ġleagues": 9223,
    "Ġunhappiness": 14117,
    "dart": 20825,
    "allowance": 16824,
    "owner": 18612,
    "occupied": 12302,
    "Ġvital": 9242,
    "Ġcapricious": 20537,
    "Ġrekindled": 21674,
    "Ġoverflowed": 20261,
    "Ġtreasures": 17047,
    "twelve": 14622,
    "directly": 13708,
    "Ġber": 5698,
    "8": 28,
    "male": 15387,
    "Ġbulls": 23856,
    "Ġmerid": 13194,
    "Ġrespectively": 23247,
    "obvious": 9356,
    "Ġirre": 7468,
    "Ġdoted": 21431,
    "attacked": 23118,
    "Ġplayfulness": 23635,
    "Ġsingled": 23770,
    "oury": 22301,
    "archangel": 18803,
    "sixteen": 24853,
    "Ġholiest": 18812,
    "Ġbond": 21382,
    "itoring": 21330,
    "ch": 321,
    "Ġrelapses": 26278,
    "Ġquantization": 19853,
    "rowing": 7930,
    "Ġinconsist": 17935,
    "{": 95,
    "Ġvindict": 13604,
    "Ġdirty": 9178,
    "Ġworlds": 11945,
    "Ġjustine": 4969,
    "bureau": 20788,
    "arp": 2028,
    "ske": 13781,
    "deemed": 18315,
    "Ġcreases": 22722,
    "Ġspar": 10921,
    "Ġconge": 15743,
    "rab": 7597,
    "arken": 18667,
    "Ġdives": 17890,
    "Ġaffirm": 11885,
    "lodged": 25907,
    "gging": 7697,
    "unbidden": 21891,
    "Ġdescent": 975,
    "Ġsituations": 10491,
    "Ġadmirer": 16838,
    "Ġcrony": 23439,
    "Ġnugent": 26457,
    "Ġhand": 858,
    "Ġcons": 952,
    "Ġincul": 22546,
    "Ġmud": 11572,
    "boats": 6204,
    "Â·": 21148,
    "Ġnic": 7376,
    "nin": 17608,
    "Ġsteadfast": 8678,
    "Ġdistrusted": 13541,
    "aples": 20767,
    "Ġbl": 1191,
    "oquent": 12497,
    "Ġanimal": 2500,
    "Ġapprehension": 7113,
    "impatiently": 20469,
    "Ġenjoyed": 8007,
    "always": 5708,
    "Ġunfor": 15837,
    "Ġauthority": 7748,
    "Ġincarn": 11812,
    "rudent": 6482,
    "Ġdens": 21422,
    "Ġconciliating": 19047,
    "ivers": 1984,
    "vation": 4743,
    "sailing": 14713,
    "Ġdiminishing": 4210,
    "Ġlatitude": 8328,
    "tall": 17673,
    "unting": 21871,
    "bottle": 20144,
    "Ġinwards": 15618,
    "Ġglowing": 12280,
    "Ġupset": 22150,
    "Ġaforethought": 25428,
    "swim": 16779,
    "Ġdistantly": 18534,
    "cold": 9589,
    "Ġundersampling": 19517,
    "Ġstained": 11651,
    "Ġhoe": 23349,
    "cruet": 17026,
    "semble": 1525,
    "Ġjokes": 18408,
    "Ġstolen": 14006,
    "Ġgrinned": 16857,
    "Ġrobbery": 11916,
    "Ġessays": 19743,
    "foreseen": 14253,
    "conclusion": 25671,
    "preserver": 20212,
    "cab": 7333,
    "Ġeul": 21615,
    "flo": 6114,
    "Ġconqueror": 25796,
    "Ġreigning": 15698,
    "Ġfrantically": 23256,
    "Ġapprised": 18357,
    "Ġgroves": 16740,
    "Ġkindness": 4098,
    "Ġkeep": 2355,
    "Ġbalances": 2340,
    "contracting": 19293,
    "craft": 12244,
    "flask": 12097,
    "Ġorganically": 3010,
    "Ġdebated": 9040,
    "Ġconceited": 12088,
    "Ġgrec": 18961,
    "Ġwisdom": 11233,
    "comprehensive": 20625,
    "airs": 2223,
    "Ġhall": 4186,
    "Ġunravel": 26214,
    "Ġscruples": 15077,
    "Ġberm": 21381,
    "adequate": 15202,
    "Ġstun": 11649,
    "Ġnarrower": 24354,
    "Ġakin": 15494,
    "chel": 11207,
    "Ġhurricane": 16430,
    "olidity": 18131,
    "shock": 19854,
    "hoped": 20909,
    "landish": 11940,
    "eldom": 4413,
    "Ġstrides": 22615,
    "may": 3681,
    "Ġmeanest": 12907,
    "Ġcaves": 15551,
    "Ġsand": 6235,
    "Ġreputation": 11639,
    "Ġincredible": 9514,
    "gh": 3802,
    "Ġproportionate": 17043,
    "heeded": 13833,
    "Ġstudies": 7955,
    "Ġfound": 1247,
    "Ġsubfield": 11867,
    "Ġoccurrences": 11050,
    "Ġunharmed": 15138,
    "Ġillum": 9399,
    "bounded": 13438,
    "Ġoverpowered": 15287,
    "Ġdepl": 14043,
    "Ġgleaming": 24993,
    "Ġblubber": 5666,
    "fitters": 24761,
    "alously": 15626,
    "Ġjapan": 7640,
    "frankly": 20020,
    "others": 7670,
    "ove": 1744,
    "provoke": 26071,
    "Ġflowing": 14410,
    "Ġheadway": 18792,
    "Ġobstacles": 19834,
    "Ġslavery": 16306,
    "this": 1440,
    "Ġfrowning": 13622,
    "confess": 12173,
    "Ġimmemorial": 10510,
    "indef": 17735,
    "Ġincommod": 25307,
    "Ġlab": 1873,
    "perceive": 12809,
    "Ġfol": 1287,
    "Ġtechnical": 17191,
    "oyed": 14363,
    "liament": 16216,
    "Ġspikes": 22133,
    "sad": 11520,
    "Ĭ": 237,
    "Ġdescribe": 2765,
    "Ġmapple": 11150,
    "Ġecstasy": 11629,
    "brance": 7284,
    "thrill": 25656,
    "Ġcommunicated": 9061,
    "impotence": 23759,
    "Ġendeav": 2952,
    "ediction": 17944,
    "itan": 10159,
    "Ġassist": 3563,
    "pardonable": 17217,
    "precise": 19349,
    "linearity": 1653,
    "Ġgloom": 4203,
    "Ġwintry": 17433,
    "Ġchancing": 22245,
    "Ġsolic": 7932,
    "Ġfruitless": 25605,
    "half": 4930,
    "bs": 3752,
    "gro": 10094,
    "guest": 19480,
    "Ġregarded": 5762,
    "Ġsignification": 19202,
    "pious": 17633,
    "responsible": 25763,
    "continuance": 19717,
    "Ġmostly": 7664,
    "Ġspread": 5161,
    "Ġmoulton": 17434,
    "Ġessentials": 20001,
    "Ġwing": 6665,
    "Ġfumes": 21416,
    "Ġshutters": 9936,
    "Ķ": 247,
    "Ġchilian": 25563,
    "Ġsubtlety": 24780,
    "ran": 11515,
    "ilations": 21719,
    "lung": 17591,
    "nerable": 16275,
    "Ġwhitewashed": 14468,
    "Ġextremities": 19195,
    "Ġissuing": 16948,
    "american": 11400,
    "Ġfellow": 2775,
    "Ġsage": 17752,
    "merchant": 10467,
    "Ġpreferment": 19852,
    "Ġestimates": 3749,
    "Ġfootman": 8287,
    "Ġones": 3018,
    "Ġinsurgents": 26600,
    "gely": 10700,
    "forbid": 14353,
    "Ġtranque": 14200,
    "rote": 4591,
    "Ġweight": 657,
    "Ġimplac": 24874,
    "Ġcontinuously": 23202,
    "buff": 15317,
    "Ġreeds": 15693,
    "Ġlinguistic": 12423,
    "Ġintimidated": 24805,
    "specific": 10497,
    "Ġslo": 15505,
    "hing": 979,
    "Ġpod": 15601,
    "Ġkindling": 19030,
    "Ġwanderings": 20142,
    "accompan": 11452,
    "Ġcabman": 14605,
    "oblig": 16289,
    "Ġparticip": 16129,
    "Ġsacrifice": 9555,
    "fered": 5560,
    "timidity": 25753,
    "Ġax": 7822,
    "apart": 15959,
    "ipagos": 22363,
    "frequently": 9978,
    "keeping": 8634,
    "Ġwindsor": 16887,
    "Ġcolour": 4461,
    "Ġhence": 4988,
    "Ġprefers": 20512,
    "jer": 12478,
    "Ġverte": 9440,
    "Ġreap": 18026,
    "Ġvac": 5024,
    "enjoyments": 25433,
    "Ġhigher": 1819,
    "Ġdiscours": 18718,
    "Ġceremonious": 24837,
    "Ġtreading": 16504,
    "maltese": 24795,
    "conditionally": 24834,
    "Ġarr": 1798,
    "Ġoriental": 9096,
    "Ġalternate": 19984,
    "usual": 5841,
    "Ġcomfortable": 6094,
    "Ġcotton": 17378,
    "Ġmistakes": 16540,
    "Ġdestitute": 14567,
    "Ġcolouring": 16751,
    "destroyed": 15259,
    "Ġunb": 10907,
    "Ġkrusenstern": 26377,
    "Ġcentrally": 23829,
    "influence": 13577,
    "Ġmysteriously": 24601,
    "Ġstow": 21727,
    "Ġprotesting": 14740,
    "against": 5870,
    "yourselves": 24956,
    "Ġbalmoral": 16207,
    "Ġcatholic": 20680,
    "satisfy": 16892,
    "Ġprinted": 11947,
    "abomin": 15739,
    "Ġfru": 8419,
    "Ġpenetrate": 12267,
    "Ġsurprised": 3831,
    "Ġengravings": 15064,
    "Ġclinched": 17393,
    "Ġcarpets": 18902,
    "Ġchecked": 9375,
    "probability": 17022,
    "Ġmotioned": 19591,
    "Ġtreacle": 14595,
    "Ġembarked": 17134,
    "Ġgritted": 22802,
    "Ġtumb": 21168,
    "stir": 12670,
    "Ġmagazine": 23097,
    "Ġelud": 22652,
    "force": 12958,
    "Ġpraises": 16730,
    "Ġnocturn": 18375,
    "Ġprofoundest": 16860,
    "somewhat": 11160,
    "Ġincredulity": 11311,
    "cig": 17503,
    "Ġlomb": 21556,
    "rice": 13776,
    "Ġchamounix": 14863,
    "reen": 21230,
    "Ġeurope": 8061,
    "Ġcompute": 2904,
    "Ğ": 223,
    "Ġhundreds": 4328,
    "Ġprisoner": 8672,
    "Ġshoals": 13132,
    "Ġspectrum": 4474,
    "asions": 12648,
    "anging": 3550,
    "Ġround": 1368,
    "wered": 2691,
    "Ġcrowder": 19454,
    "Ġparty": 3509,
    "Ġmoustache": 20482,
    "ura": 1047,
    "decoder": 3644,
    "Ġfamily": 1968,
    "ogue": 9784,
    "Ġthoughtful": 16190,
    "Ġdragon": 14943,
    "wretched": 10741,
    "Ġlie": 4406,
    "Ġcave": 10785,
    "bonnet": 25742,
    "agra": 14065,
    "Ġtangled": 13826,
    "des": 1564,
    "drab": 23895,
    "Ġruined": 12951,
    "Ġimmediate": 6089,
    "Ġxvi": 19104,
    "scorn": 22983,
    "quely": 10231,
    "incredible": 16498,
    "Ġaccordingly": 6619,
    "Ġresided": 11809,
    "Ġshudderings": 25200,
    "awe": 20764,
    "Ġbuildings": 24720,
    "Ġabilities": 8867,
    "Ġobscured": 15010,
    "bath": 13688,
    "Ġwilliam": 3482,
    "Ġrambles": 17184,
    "Ġpagan": 7117,
    "Ġtoe": 13935,
    "Ġhighlands": 22771,
    "Ġtrespass": 23599,
    "Ġmanagement": 8192,
    "Ġexhausted": 8693,
    "Ġconst": 1912,
    "Ġbeale": 12696,
    "Ġpenalizing": 13090,
    "Ġindisposed": 26287,
    "uce": 11535,
    "bowsprit": 16853,
    "Ġcathed": 14548,
    "Ġmoney": 3417,
    "č": 206,
    "Ġrush": 5924,
    "Ġenchanting": 17039,
    "ogne": 12937,
    "Ġhis": 381,
    "Ġpartners": 11851,
    "vel": 2383,
    "Ġembed": 1434,
    "Ġabandon": 12255,
    "speaking": 12096,
    "epend": 3315,
    "phere": 21018,
    "endom": 15916,
    "adjust": 21757,
    "Ġpersist": 16274,
    "Ġimmedi": 2903,
    "Ġwillingness": 24910,
    "Ġchick": 22244,
    "Ġmeditations": 25013,
    "Ġrelig": 8550,
    "Ġsermon": 12374,
    "Ġardu": 22175,
    "Ġallured": 14112,
    "Ġfolly": 7940,
    "spermaceti": 12191,
    "kye": 20937,
    "Ġexasperated": 11412,
    "cent": 8072,
    "Ġrenders": 13282,
    "Ġinmost": 17930,
    "Ġcracked": 8594,
    "Ġcups": 16882,
    "Ġhang": 9187,
    "bill": 10075,
    "ruin": 22177,
    "unnatural": 15770,
    ",âĢĶâĢĺ": 23800,
    "drowned": 17368,
    "drown": 13703,
    "Ġedward": 19119,
    "Ġmasoned": 20250,
    "Ġfork": 15729,
    "Ġwondrously": 24063,
    "Ġfoaming": 18992,
    "Ġseparate": 5778,
    "ports": 13773,
    "Ġjud": 3357,
    "Ġmathemat": 3203,
    "ult": 721,
    "Ġabsorb": 25112,
    "Ġsofas": 26224,
    "Ġeighteen": 11238,
    "Ġbubbles": 11398,
    "count": 4214,
    "alarms": 21502,
    "barrel": 17061,
    "iasm": 8060,
    "Ġgrave": 5099,
    "arrang": 14652,
    "Ġgladness": 16591,
    "Ġrocky": 13386,
    "neural": 3064,
    "Ġreflections": 5945,
    "Ġoriginate": 24122,
    "contrasted": 17305,
    "ations": 710,
    "malice": 17604,
    "stirred": 20423,
    "Ġcruelly": 13374,
    "Ġexcitement": 9380,
    "Ġachieve": 3675,
    "Ġquaker": 10971,
    "Ġtoils": 10185,
    "Ġdata": 518,
    "Ġdesires": 9456,
    "ought": 830,
    "cas": 20793,
    "Ġsubaltern": 22787,
    "jabez": 20932,
    "sac": 7140,
    "Ġhospit": 7515,
    "piteous": 21032,
    "Ġdiscol": 12950,
    "Ġclink": 22346,
    "Ġcorn": 9349,
    "Ġbapt": 13895,
    "Ġfoam": 6891,
    "Ġestate": 6316,
    "im": 327,
    "far": 5787,
    "Ġdrenched": 12600,
    "Ġmultitudinous": 26273,
    "Ġappo": 8497,
    "Ġmasterless": 23992,
    "omist": 21635,
    "Ġintegral": 25008,
    "ach": 435,
    "Ġsisters": 3640,
    "collecting": 26081,
    "Ġmakes": 3652,
    "Ġfade": 21405,
    "?âĢĿâĢĶ": 12892,
    "_.)": 7278,
    "iard": 9601,
    "Ġextort": 22749,
    "tell": 1380,
    "Ġcand": 3277,
    "Ġdefray": 22938,
    "Ġcastle": 14716,
    "Ġbachel": 7158,
    "Ġfooting": 14482,
    "Ġbackbone": 22646,
    "Ġredundant": 16550,
    "Ġrestrict": 16372,
    "Ġshores": 8847,
    "Ġwith": 349,
    "Ġgrenadier": 21613,
    "Ġdraughts": 20220,
    "Ġsires": 21225,
    "woe": 21134,
    "Ġsuccessive": 10500,
    "owing": 7602,
    "Ġformations": 18749,
    "Ġclosely": 6488,
    "unfortunate": 15774,
    "must": 3576,
    "vess": 7354,
    "Ġtorrid": 25032,
    "complain": 14356,
    "opy": 4458,
    "Ġimpregn": 26022,
    "§": 105,
    "Ġbitten": 21388,
    "impressions": 20697,
    "Ġdistended": 16042,
    "gies": 13725,
    "Ġcaptioning": 23017,
    "Ġinhabited": 12183,
    "Ġthreatened": 8329,
    "Ġbremen": 23343,
    "Ġcreep": 22721,
    "Ġconcealment": 16914,
    "Ġconfidence": 6590,
    "Ġnatives": 17950,
    "apparent": 11041,
    "dy": 3864,
    "accuracy": 9878,
    "Ġconsisted": 10419,
    "Ġconnex": 10665,
    "precision": 4331,
    "Ġelizabeth": 1131,
    "Ġentertainment": 12220,
    "Ġexacted": 23602,
    "Ġrecord": 5316,
    "Ġphilist": 16601,
    "Ġextracts": 9364,
    "âĢĶ.": 11753,
    "Ġwhole": 1665,
    "Ġchoked": 9263,
    "Ġtoss": 10184,
    "Ġeavesdroppers": 25963,
    "Ġwaterloo": 11979,
    "horror": 13158,
    "itt": 571,
    "forecastle": 10990,
    "Ġimagination": 5759,
    "whisper": 17083,
    "Ġbreathlessly": 24280,
    "Ġfif": 4218,
    "ub": 1228,
    "Ġexceptionable": 25503,
    "Ġingratitude": 17468,
    "Ġalluding": 18236,
    "osing": 3691,
    "Ġimperial": 9480,
    "esu": 17901,
    "Ġexperience": 1399,
    "neighboring": 20615,
    "cares": 24309,
    "Ġsuburban": 17345,
    "slide": 24556,
    "lier": 20948,
    "Ġeuroc": 14958,
    "Ý": 158,
    "Ġanything": 2186,
    "Ġmaggie": 26291,
    "Ġblush": 14401,
    "Ġchivalrous": 20513,
    "muttered": 13758,
    "ot": 346,
    "Ġhelp": 1642,
    "by": 1157,
    "Ġclim": 8195,
    "Ġrelinqu": 12980,
    "sperm": 5203,
    "Ġbirch": 26174,
    "Ġfrocks": 23919,
    "Ġesteem": 7532,
    "withdrawn": 23024,
    "Ġostens": 25275,
    "luc": 9751,
    "Ġjustification": 22963,
    "evil": 11485,
    "icular": 2024,
    "Ġtomahawk": 7540,
    "Ġstirs": 14916,
    "adoes": 11659,
    "Ġhunted": 7453,
    "Ġproport": 2298,
    "Ġbeneficial": 23929,
    "apparently": 15203,
    "Ġdrunken": 12048,
    "Ġwaterward": 23365,
    "Ġleap": 5824,
    "feels": 22499,
    "netherfield": 9812,
    "Ġinvisibly": 24817,
    "Ġdispatched": 23879,
    "Ġharmless": 9964,
    "Ġadmiring": 16479,
    "Ġweapon": 7775,
    "hauled": 20667,
    "Ġjapanese": 10633,
    "boat": 3361,
    "Ġcheek": 8577,
    "ns": 751,
    "Ġovertook": 18428,
    "Ġshar": 9249,
    "Ġobstinate": 11336,
    "girls": 12317,
    "renewed": 19703,
    "anced": 1275,
    "Ġrefreshed": 15289,
    "infallibly": 26417,
    "Ġcampa": 17173,
    "Ġspiritual": 9929,
    "Ġshol": 21992,
    "ood": 962,
    "strange": 6086,
    "Ġhemis": 21681,
    "Ġforehead": 5261,
    "Ġmorning": 1748,
    "osite": 4892,
    "reclining": 20573,
    "innocence": 15182,
    "Ġamput": 16032,
    "Ġlounged": 19952,
    "Ġstru": 2169,
    "ag": 377,
    "means": 9785,
    "spread": 8388,
    "behaviour": 11301,
    "inglass": 21301,
    "Ġinherited": 25353,
    "Ġphiladel": 23883,
    "Ġdinnertime": 16719,
    "Ġgenerating": 12848,
    "erness": 6434,
    "abominable": 20592,
    "further": 7536,
    "over": 1847,
    "ivided": 22078,
    "ige": 12676,
    "Ġdusky": 13548,
    "Ġate": 8839,
    "Ġwilling": 7420,
    "Ġdesperately": 24656,
    "Ġuprising": 12799,
    "Ġop": 2604,
    "Ġfamed": 16325,
    "keenest": 25661,
    "Ġcongregation": 12327,
    "wound": 21125,
    "Ġclosed": 4604,
    "Ġadmiral": 17304,
    "chop": 21685,
    "Ġorigin": 4121,
    "Ġneedles": 11184,
    "Ġwaif": 9374,
    "ulent": 21859,
    "strikes": 24670,
    "Ġpudding": 17915,
    "ille": 9219,
    "etymology": 14700,
    "Ġpalpit": 16691,
    "Ġscuffle": 20607,
    "Ġpope": 11601,
    "Ġretort": 23068,
    "Ġhval": 21485,
    "Ġcashier": 20197,
    "Ġcuba": 25095,
    "pon": 17625,
    "bony": 15318,
    "Ġornament": 11718,
    "Ġexterior": 19986,
    "fishers": 24928,
    "ates": 519,
    "Ġbanqu": 12585,
    "Ġdevotees": 25376,
    "enthus": 17977,
    "enth": 6680,
    "swift": 14851,
    "Ġlaborious": 13102,
    "Ġ112": 24437,
    "ä": 165,
    "Ġprotruded": 19468,
    "Ġ133": 24783,
    "Ġdetected": 18831,
    "Ġconfined": 7464,
    "Ġstem": 15716,
    "Ġostentatiously": 20467,
    "Ġstarvation": 19790,
    "perils": 22184,
    "Ġabundant": 17154,
    "Ġwhitened": 24867,
    "Ġcomputers": 2645,
    "İ": 241,
    "Ġsimilarly": 24308,
    "morn": 20975,
    "W": 59,
    "Ġcomes": 3422,
    "Ġdispositions": 13231,
    "Ġhurrying": 11993,
    "Ġregression": 4409,
    "Ġfixedly": 19247,
    "Ġcreaking": 14327,
    "legra": 10789,
    "Ġdiet": 13909,
    "Ġpurest": 14938,
    "Ġasia": 11681,
    "Ġgreedy": 3052,
    "Ġcurves": 18855,
    "âĢĻâĢĶ": 12733,
    "ribute": 7226,
    "Ġdestroyer": 13412,
    "Ġcrozetts": 19628,
    "Ġrest": 1781,
    "projecting": 26073,
    "inces": 13827,
    "Ġimmaculate": 19484,
    "Ġimagenet": 19245,
    "Ġcoral": 11920,
    "Ġtru": 4108,
    "ationally": 15702,
    "Ġthre": 2060,
    "Ġcabs": 23639,
    "Ġ92": 24590,
    "gs": 7338,
    "enhall": 13849,
    "cham": 10853,
    "Ġbrilliantly": 25120,
    "emason": 18181,
    "Ġmidnight": 5265,
    "Ġhumped": 19768,
    "ription": 5676,
    "Ġaccompan": 5513,
    "Ġriot": 14688,
    "equally": 19898,
    "Ġplainpalais": 20736,
    "owe": 15705,
    "pistol": 17642,
    "Ġmother": 2068,
    "Ġwedded": 16674,
    "Ġcurbstone": 26046,
    "Ġmilk": 6485,
    "Ġcivilly": 19602,
    "hement": 13831,
    "Ġline": 1850,
    "Ġbrine": 18770,
    "Ġglimpse": 6944,
    "abouts": 9451,
    "Ġdeact": 18135,
    "osed": 1963,
    "Ġramadan": 9575,
    "Ġlimped": 19180,
    "Ġtrappings": 23080,
    "Ġdeserving": 14752,
    "Ġstirring": 10579,
    "Ġdod": 6672,
    "sure": 5522,
    "Ġpatagon": 14511,
    "Ġchap": 5933,
    "Ġsabbee": 17255,
    "yder": 10138,
    "isting": 5551,
    "Ġpursuing": 9437,
    "we": 848,
    "Ġperfect": 2558,
    "ated": 729,
    "ķ": 248,
    "humor": 19450,
    "Ġsepar": 4001,
    "press": 1733,
    "Ġforfeit": 21772,
    "philosophers": 25252,
    "Ġhud": 10822,
    "Ġmasses": 10503,
    "Ġcucumber": 21354,
    "Ġoutlast": 22310,
    "ubines": 22956,
    "Ġshocking": 10435,
    "Ġtigris": 25759,
    "Ġimprudently": 22383,
    "Ġsurviv": 13434,
    "disappo": 8984,
    "databases": 3023,
    "Ġarrangements": 16514,
    "creator": 26381,
    "Ġtrad": 9827,
    "prov": 16421,
    "society": 9971,
    "Ġupward": 9720,
    "Ġstack": 21730,
    "canst": 22958,
    "bodily": 17314,
    "Ġpermit": 9748,
    "aloud": 17940,
    "ago": 14064,
    "drive": 8682,
    "unwho": 21874,
    "joining": 19444,
    "Ġvehement": 16200,
    "Ġfragments": 19014,
    "sailor": 14714,
    "Ġbegat": 18862,
    "Ġgarments": 15192,
    "Ġtropical": 17066,
    "royal": 11393,
    "currents": 23842,
    "exceed": 7910,
    "Ġbeings": 2492,
    "Ġimagined": 8606,
    "Ġsucceed": 4544,
    "Ġangrily": 9406,
    "Ġspoutings": 14675,
    "Ġsen": 9156,
    "abst": 21785,
    "Ġsociable": 19402,
    "parable": 16390,
    "Ġsubstantiated": 25875,
    "ack": 607,
    "Ġbaronial": 23791,
    "othed": 16510,
    "Ġcomplying": 18586,
    "Ġjackson": 24240,
    "Ġostentatious": 25736,
    "Ġbravest": 23838,
    "Ġfaltering": 17884,
    "Ġhouse": 1504,
    "cence": 9588,
    "derest": 18314,
    "Ġabstracted": 17182,
    "Ġmists": 14630,
    "Ġunmingled": 18263,
    "Ġgover": 2463,
    "Ġparties": 7038,
    "liking": 22921,
    "Ġtoma": 7373,
    "Ġrattle": 10899,
    "orers": 14102,
    "Ġinquired": 7486,
    "cial": 2648,
    "Ġleader": 14701,
    "Ġprevailing": 24673,
    "covery": 11171,
    "Ġregard": 3065,
    "Ġafrica": 12343,
    "east": 9115,
    "pivot": 21030,
    "Ġholder": 6724,
    "Ġsalt": 8016,
    "inted": 2649,
    "Ġtechnically": 12364,
    "after": 2894,
    "Ġseems": 2484,
    "Ġcordially": 16836,
    "Ġfools": 14481,
    "Ġsofa": 10270,
    "Ġheroines": 19750,
    "sailors": 9921,
    "Ġfireside": 23531,
    "Ġconsume": 12955,
    "Ġsurvey": 13592,
    "Ġmarble": 7669,
    "Ġfilled": 4394,
    "Ġfossil": 12385,
    "solution": 14686,
    "Ġunh": 9252,
    "during": 6787,
    "Ġproflig": 23566,
    "Ġoft": 9194,
    "Ġunstructure": 2992,
    "Ġeffected": 14352,
    "Ġtwitched": 20442,
    "Ġwant": 1120,
    "Ġcrosswise": 18887,
    "Ġkra": 18348,
    "Ġandes": 12638,
    "believing": 19460,
    "prev": 12864,
    "Ġknowingly": 18479,
    "Ġceremonies": 24836,
    "Ġbroadway": 23981,
    "xic": 9145,
    "Ġreg": 737,
    "Ġslaves": 23166,
    "omn": 15679,
    "pattern": 4103,
    "Ġeagerness": 6608,
    "Ġreveries": 11347,
    "scheme": 15253,
    "Ġfading": 15581,
    "Ġcarry": 4778,
    "sper": 4435,
    "include": 23588,
    "covenant": 23561,
    "Ġatonement": 21939,
    "Ġbeats": 21749,
    "quished": 21851,
    "spell": 22728,
    "Ġunembarrassed": 22064,
    "Ġgurgling": 17445,
    "Ġnotion": 7881,
    "Ġfossils": 20221,
    "absent": 21787,
    "rospect": 11611,
    "Ġmungo": 25631,
    "Ġarisen": 11741,
    "seated": 11671,
    "Ġconcocted": 26299,
    "Ġexclaiming": 13640,
    "sea": 4762,
    "remember": 7262,
    "Ġmorose": 18842,
    "Ġmercenary": 17193,
    "Ġglass": 4369,
    "Ġcomm": 840,
    "ming": 3601,
    "germans": 20564,
    "ĠĠĠ": 2116,
    "itates": 13868,
    "Ġprofounder": 23568,
    "ked": 5616,
    "countless": 24150,
    "Ġluckily": 16798,
    "Ġbriefly": 11367,
    "itical": 5801,
    "Ġloosened": 26002,
    "Ġenduring": 16302,
    "mid": 5617,
    "agitation": 14067,
    "impossible": 8823,
    "Ġpremature": 3726,
    "trade": 19635,
    "Ġdenominated": 15227,
    "oney": 3047,
    "Ġnewfoundland": 26569,
    "Ġbenef": 3488,
    "decided": 13214,
    "Ġbooks": 4674,
    "blacksmith": 17001,
    "Ġlif": 10195,
    "Ġcomparing": 14264,
    "don": 3543,
    "Ġincidentally": 16954,
    "Ġensuing": 12307,
    "Ġascertain": 9705,
    "Ġburnished": 23995,
    "Ġtur": 2566,
    "Ġawaited": 17074,
    "Ġoffend": 16142,
    "Ġharpo": 1945,
    "Ġsleeps": 10446,
    "seas": 14032,
    "Ġconverted": 16114,
    "Ġdad": 12597,
    "Ġnative": 4639,
    "sively": 13785,
    "Ġwherein": 14294,
    "Ġpend": 15603,
    "Ġcurling": 9346,
    "Ġreasonable": 7251,
    "Ġlionel": 25286,
    "Ġpairs": 4184,
    "forward": 2187,
    "cceed": 4144,
    "attention": 2111,
    "Ġadvance": 5484,
    "igantic": 5539,
    "unable": 14058,
    "dashing": 20835,
    "Ġarticulate": 24432,
    "Ġskil": 14350,
    "Ġberries": 13406,
    "Ġweaken": 21918,
    "Ġhurried": 4032,
    "abiding": 21790,
    "Ġansw": 2206,
    "Ġscandalous": 24878,
    "Ġthick": 3783,
    "Ġaffording": 14820,
    "Ġhaving": 1883,
    "Ġfreed": 7267,
    "tes": 11528,
    "Ġdon": 1611,
    "surprise": 9529,
    "dancing": 12452,
    "Ġfurn": 3711,
    "Ġsteadily": 8051,
    "yonder": 21143,
    "impressed": 12688,
    "Ġorthodox": 22092,
    "Ġunduly": 25994,
    "Ġobservable": 25126,
    "cursed": 23841,
    "toller": 20671,
    "lev": 1238,
    "Ġpot": 2988,
    "Ġmanage": 7641,
    "onds": 12993,
    "Ġtreacherous": 13553,
    "Ġthousands": 6748,
    "Ġflank": 8228,
    "Ġpalace": 16690,
    "telesc": 22813,
    "herent": 2531,
    "Ġcumulative": 4212,
    "Ġreceipt": 20354,
    "Ġdevote": 10338,
    "Ġthirty": 4943,
    "keel": 14128,
    "engine": 18926,
    "Ġincoherent": 17399,
    "Ġrefuse": 5739,
    "Ġpreceded": 13427,
    "Ġresounded": 22541,
    "Ġsoc": 3525,
    "Ġfog": 9661,
    "Ġcontention": 22423,
    "Ġfoster": 18991,
    "Ġsundial": 15081,
    "Ġduties": 6609,
    "usions": 6159,
    "Ġantiquities": 25598,
    "host": 5867,
    "Ġunrest": 11712,
    "Ġattorney": 18621,
    "Ġdenied": 9000,
    "Ġdiscomposure": 20377,
    "Ġpress": 5931,
    "Ġclumsy": 9579,
    "Ġcompatibility": 2956,
    "jephro": 26392,
    "Ġpreferred": 14965,
    "Ġseat": 4948,
    "Ġjiff": 22293,
    "Ġcordial": 16835,
    "lit": 9605,
    "sin": 21047,
    "Ġplainpal": 19276,
    "Ġrepeating": 11213,
    "Ġundo": 15838,
    "improve": 15709,
    "Ġfrigate": 13080,
    "Ġcommanders": 23866,
    "welt": 12518,
    "Ġlasting": 18791,
    "177": 20751,
    "Ġimagine": 3925,
    "gan": 2199,
    "Ġslope": 14459,
    "Ġwindpipe": 23103,
    "Ġ102": 24410,
    "bright": 8989,
    "imagination": 13479,
    "Ġ90": 24588,
    "Ġenthus": 7232,
    "Ġswinging": 7449,
    "vicious": 21117,
    "assembled": 21542,
    "arts": 6563,
    "Ġsn": 2947,
    "Ġgross": 11624,
    "Ġdecided": 5471,
    "Ġpredecessor": 26253,
    "lean": 21363,
    "bethinking": 25745,
    "fingers": 17369,
    "Ġadequately": 15197,
    "bag": 7543,
    "Ġlabel": 14515,
    "Ġhurriedly": 11249,
    "Ġthere": 562,
    "indul": 22367,
    "Ġdictate": 20150,
    "Ġdilig": 8349,
    "dec": 3112,
    "ackled": 22417,
    "Ġhealed": 21680,
    "Ġafter": 870,
    "Ġsaucer": 20604,
    "Ġcrad": 21348,
    "better": 7119,
    "Ġparting": 9782,
    "Ġprometheus": 15291,
    "seamen": 13625,
    "Ġresponsiveness": 2895,
    "americans": 25042,
    "Ġinjury": 10540,
    "Ġfluke": 14673,
    "Ġcomputation": 965,
    "Ġcritic": 19124,
    "Ġpistol": 7846,
    "Ġglow": 7170,
    "Ġflattered": 10374,
    "Ġcrystal": 17214,
    "Ġsk": 960,
    "Ġindefatigable": 17177,
    "lasting": 8010,
    "Ġunaffected": 14121,
    "Ġency": 21931,
    "Ġmagnanim": 14471,
    "inguished": 6598,
    "Ġinexpressible": 17332,
    "Ġnations": 8809,
    "Ġdem": 11673,
    "Ġcreative": 9830,
    "lion": 20943,
    "Ġindifferent": 6174,
    "address": 14880,
    "Ġdesperation": 19817,
    "Ġcoats": 16072,
    "chooses": 23673,
    "icil": 17971,
    "Ġconv": 2967,
    "Ġmournfully": 20115,
    "Ġauthorized": 16735,
    "Ġtusked": 25426,
    "ulence": 15763,
    "uplifted": 17695,
    "Ġunfathom": 14788,
    "Ġjudges": 14685,
    "Ġformal": 2940,
    "Ġequalled": 13311,
    "Ġfavoured": 16359,
    "perform": 15899,
    "vocation": 25084,
    "Ġbounding": 19398,
    "Ġdusty": 14924,
    "Ġtheology": 21275,
    "bred": 11469,
    "Ġconsole": 8150,
    "Ġplain": 2815,
    "Ġwalls": 6762,
    "jah": 17581,
    "Ġleast": 2065,
    "Ġdeplored": 20503,
    "Ġmanhood": 22323,
    "positive": 20566,
    "Ġfree": 3374,
    "Ġexceeding": 1579,
    "constant": 11324,
    "Ġrobustness": 18885,
    "Ġcompassion": 6487,
    "visual": 24222,
    "Ġanomalously": 25638,
    "Ġusual": 3945,
    "Ġyoked": 15732,
    "Ġspecial": 2103,
    "aby": 18106,
    "Ġsord": 21218,
    "Ġchronicled": 25328,
    "Ġharpoone": 2910,
    "Ġsuperhuman": 23452,
    "Ġscolded": 25472,
    "insufferable": 21191,
    "lanter": 15386,
    "Ġextend": 18702,
    "Ġpron": 6451,
    "Ġerror": 1766,
    "seals": 21815,
    "Ġlevel": 5019,
    "V": 58,
    "Ġgreenhorn": 23766,
    "icuous": 10835,
    "oblivious": 26582,
    "arranging": 19317,
    "Ġnook": 15926,
    "Ġaband": 6561,
    "Ġnaked": 8126,
    "00": 1609,
    "robust": 19727,
    "Ġseemingly": 9317,
    "Ġheavenly": 12082,
    "cords": 25136,
    "Ġprogno": 14039,
    "cherish": 24552,
    "agatha": 21905,
    "Ġjumbled": 22294,
    "various": 10397,
    "osop": 4404,
    "Ġscrawled": 24580,
    "Ġbetake": 22904,
    "uer": 21099,
    "Ġquicker": 16507,
    "Ġawait": 17073,
    "ached": 2322,
    "Ġseized": 4832,
    "Ġeffeminacy": 20716,
    "Ġtorrent": 17092,
    "Ġhogshe": 20490,
    "Ġwhirlwinds": 20463,
    "bear": 10315,
    "waiting": 12218,
    "Ġdomains": 6611,
    "awned": 19458,
    "Ġtrap": 7672,
    "signed": 21060,
    "Ġvolcano": 24147,
    "Ġtransaction": 22436,
    "Ġmagician": 25058,
    "Ġbreaths": 14856,
    "nlp": 8750,
    "Ġmoss": 9283,
    "Ġwork": 1324,
    "length": 7134,
    "Ġass": 1506,
    "Ġannihil": 10174,
    "Ġpatient": 6895,
    "Ġviolet": 19090,
    "scissors": 20726,
    "Ġrace": 5847,
    "friends": 8305,
    "Ġviii": 16411,
    "nour": 20987,
    "learnt": 23526,
    "plague": 21950,
    "Ġvenerable": 9093,
    "fac": 17541,
    "leagued": 26435,
    "lose": 12879,
    "Ġmarbank": 23034,
    "whispering": 26103,
    "foreign": 18544,
    "wor": 3415,
    "chors": 11643,
    "Ġgener": 590,
    "Ġsponge": 26003,
    "Ġspears": 12923,
    "reading": 12077,
    "unted": 6998,
    "Ġscrolled": 22267,
    "Ġfurther": 1059,
    "Ġcoolness": 16886,
    "Ġterribly": 10425,
    "sicilian": 21062,
    "Ġagency": 11804,
    "ari": 671,
    "Ġbreadth": 10563,
    "cc": 470,
    "Ġgovernor": 16490,
    "Ġfac": 6381,
    "Ġencouragement": 13040,
    "chanced": 18793,
    "avers": 17480,
    "Ġacceptable": 16744,
    "remained": 8569,
    "Ġencoding": 4773,
    "Ġrevelation": 25222,
    "Ġfollow": 1396,
    "Ġlittle": 866,
    "Ġfluid": 11212,
    "Ġkicked": 10581,
    "Ġpennies": 17270,
    "ounded": 9747,
    "Ġmagistrate": 8233,
    "Ġwestern": 10654,
    "Ġsublimity": 26345,
    "Ġnooks": 26011,
    "courage": 17509,
    "Ġcoarse": 14273,
    "teak": 22812,
    "usal": 7639,
    "interval": 7990,
    "Ġrickety": 26505,
    "rushing": 10017,
    "Ġappropriated": 23485,
    "iod": 3840,
    "Ġsuspic": 4470,
    "Ġdiscrete": 2479,
    "Ġrolled": 4430,
    "Ġlack": 17963,
    "Ġinducement": 16843,
    "Ġslouched": 13056,
    "Ġrabbit": 4289,
    "head": 1437,
    "irm": 3108,
    "ines": 673,
    "Ġexult": 10230,
    "Ġderivative": 2997,
    "Ġstep": 752,
    "pond": 21012,
    "fing": 13712,
    "remaining": 20219,
    "angular": 11720,
    "Ġnominal": 15167,
    "Ġmotives": 7487,
    "Ġprospect": 4704,
    "Ġmeridians": 17355,
    "Ġmar": 1311,
    "Ġadversity": 24303,
    "Ġquietly": 4566,
    "Ġserviceable": 24718,
    "Ġciv": 3308,
    "Ġimpropriety": 17394,
    "Ġexisted": 15752,
    "Ġglist": 9343,
    "Ġlucifers": 16588,
    "Ġtragedies": 25241,
    "Ġdespite": 19351,
    "unwholesome": 26497,
    "Ġknitted": 19588,
    "Ġuntidy": 23522,
    "Ġminiature": 11039,
    "Ġadmon": 15866,
    "hibited": 17426,
    "pped": 1999,
    "Ġexertions": 13409,
    "Ġostlers": 25276,
    "exhibited": 18477,
    "thence": 23398,
    "Ġyon": 9692,
    "Ġappeal": 16313,
    "Ġwhittingham": 26197,
    "Ġdaunt": 19663,
    "Ġruinous": 24633,
    "think": 3609,
    "Ġlegs": 4915,
    "health": 13832,
    "Ġobservant": 20108,
    "Ġsubsequently": 16158,
    "assumed": 22305,
    "ig": 322,
    "Ġminiatures": 20320,
    "shark": 14237,
    "Ġdiscount": 22778,
    "Ġbelie": 14405,
    "remarked": 12286,
    "fourth": 11328,
    "hopper": 23713,
    "Ġspoiled": 11363,
    "Ġ34": 16677,
    "Ġtreacher": 8604,
    "Ġtrace": 6181,
    "Ġweep": 7620,
    "Ġelegance": 11332,
    "Ġguernsey": 9350,
    "Ġmischie": 22756,
    "Ġanalyzing": 18781,
    "Ġsimpler": 2048,
    "Ġminima": 3464,
    "Ġforesee": 19125,
    "kily": 20936,
    "happening": 16563,
    "quitted": 21854,
    "Ġlain": 17961,
    "Ġpair": 5706,
    "Ġswitzerland": 10379,
    "idence": 4302,
    "Ġlawless": 19433,
    "Ġtremulous": 14985,
    "Ġprocessing": 881,
    "iled": 1765,
    "whalemen": 10431,
    "Ġoutsk": 15954,
    "Ġreciproc": 20620,
    "Ġsouthampton": 24307,
    "Ġtroublesome": 23999,
    "carrying": 16712,
    "Ġincommunicable": 26611,
    "aky": 18411,
    "Ġharp": 17923,
    "Ġupdating": 2692,
    "Ġmechanically": 14395,
    "Ġmeasure": 3593,
    "Ġstillness": 12992,
    "Ġexclaimed": 4681,
    "Ġgodfre": 14529,
    "enterprise": 24992,
    "ilogue": 21721,
    "opence": 18508,
    "Ġwhereupon": 14295,
    "Ġcoming": 2619,
    "Ġjago": 22296,
    "ploy": 2054,
    "resent": 10769,
    "Ġoun": 13862,
    "www": 17251,
    "retired": 11934,
    "charles": 14698,
    "ogr": 18673,
    "flukes": 25205,
    "sank": 17662,
    "Ġsnapping": 19300,
    "Ġsubstant": 14808,
    "Ġmarine": 23030,
    "Ġprofundity": 20451,
    "Ġwholly": 4447,
    "Ġwelfare": 12556,
    "ensed": 10995,
    "Ġbedroom": 7277,
    "Ġunappe": 22013,
    "Ġunshored": 25813,
    "Ġemperor": 15157,
    "Ġdining": 6977,
    "Ġicelandic": 25886,
    "Ġstaircase": 20094,
    "Ġstim": 18063,
    "Ġdecoding": 3080,
    "death": 6261,
    "assertion": 22308,
    "Ġmoment": 987,
    "Ġgros": 14822,
    "Ġlivid": 14988,
    "starbuck": 6018,
    "goldsmith": 20146,
    "su": 795,
    "Ġsimple": 1620,
    "Ġweal": 21916,
    "Ġvii": 13107,
    "Ġlonged": 6436,
    "Ġirregular": 9864,
    "Ġinconsiderable": 21492,
    "Ġparcels": 25465,
    "seriously": 18904,
    "Ġlegisl": 23534,
    "Ġdeformity": 11675,
    "Ġreynolds": 10209,
    "all": 485,
    "enemy": 15525,
    "Ġaids": 12226,
    "uding": 16148,
    "remed": 18952,
    "ocris": 23707,
    "Ġreminded": 9998,
    "disciple": 16778,
    "stocks": 23817,
    "Ġterra": 13115,
    "objects": 13469,
    "eldest": 22800,
    "Ġfort": 2580,
    "Ġwarmth": 6905,
    "Ġintervene": 25480,
    "dz": 4738,
    "Ġwise": 6811,
    "Ġinmates": 15620,
    "Ġgeorge": 3750,
    "hogs": 20080,
    "Ġexposure": 16097,
    "Ġrejoice": 10208,
    "evidence": 25521,
    "proceeded": 25190,
    "Ġrevelations": 25223,
    "Ġnorms": 3667,
    "Ġinsatiate": 19269,
    "wheeler": 16187,
    "Ġmartha": 16261,
    "Ġscept": 15502,
    "Ġnightmare": 18919,
    "Ġshaster": 21995,
    "Ġmessage": 13522,
    "Ġunappalled": 22060,
    "Ġparticle": 18671,
    "Ġlung": 7167,
    "Ġawhile": 13829,
    "help": 1478,
    "Ġdecoyed": 18492,
    "rences": 9271,
    "Ġensures": 3054,
    "respectively": 24700,
    "_.âĢĶ": 23473,
    "hun": 5210,
    "Ġprows": 19888,
    "Ġoccupation": 9930,
    "brimming": 23576,
    "Ġapproving": 18502,
    "pled": 7891,
    "orted": 4602,
    "Ġadmeasure": 18295,
    "Ġadditional": 7935,
    "Ġcow": 13875,
    "cherries": 19755,
    "Ġcurtain": 14419,
    "Ġfaster": 3198,
    "Ġage": 3898,
    "arn": 357,
    "iamond": 14590,
    "bench": 16803,
    "Ġclients": 19731,
    "bow": 5424,
    "Ġplan": 3884,
    "Ġpatiently": 19917,
    "Ġmethinks": 10391,
    "Ġseaward": 22944,
    "fred": 20854,
    "Ġglimpses": 13431,
    "Ġcontr": 1916,
    "dispositions": 25011,
    "Ġapples": 22209,
    "useness": 22289,
    "Ġnapkins": 25161,
    "iring": 1708,
    "swimming": 24258,
    "Ġmccarthy": 5145,
    "delights": 19700,
    "Ġrelentless": 26277,
    "expectant": 24275,
    "Ġern": 8396,
    "Ġride": 12755,
    "mai": 22912,
    "Ġdarcy": 1344,
    "not": 907,
    "rimsh": 17027,
    "Ġpowder": 11275,
    "Ġcourtiers": 24137,
    "Ġstubbs": 23293,
    "arson": 22743,
    "Ġmaddened": 17244,
    "Ġassumptions": 5517,
    "prick": 19341,
    "Ġcanals": 22159,
    "ighted": 8476,
    "Ġroman": 8322,
    "ć": 200,
    "Ġprovinces": 24190,
    "Ġsettling": 11062,
    "wealth": 22685,
    "z": 94,
    "Ġimmut": 13296,
    "Ġsurprise": 3830,
    "convenient": 12235,
    "Ġmemo": 18117,
    "Ġisa": 14024,
    "happy": 4425,
    "harpoon": 9490,
    "rious": 11687,
    "Ġlatin": 16821,
    "father": 3777,
    "Ġcal": 1325,
    "inquir": 9535,
    "Ġspars": 3811,
    "Ġhans": 12623,
    "Ġautumnal": 19034,
    "rians": 21927,
    "Ġbridal": 14953,
    "concerns": 24066,
    "ourse": 8869,
    "large": 6625,
    "python": 4690,
    "Ġluc": 3311,
    "Ġrevolt": 24504,
    "Ġhermit": 15855,
    "Ġan": 286,
    "accept": 8897,
    "Ġdownwards": 8529,
    "Ġdecap": 16022,
    "Ġaboriginal": 14191,
    "Ġdeliberation": 19967,
    "Ġquant": 6424,
    "¦": 104,
    "consumed": 25675,
    "Ġsailed": 4888,
    "Ġbatt": 13898,
    "uteness": 17985,
    "Ġjot": 11761,
    "Ġexercise": 8358,
    "illustration": 2283,
    "usually": 10285,
    "imagine": 19930,
    "Ġdoes": 942,
    "crimson": 24099,
    "twice": 14621,
    "Ġfalse": 4343,
    "sisters": 13375,
    "Ġsoftmax": 1692,
    "card": 11475,
    "Ġpole": 6432,
    "iss": 2176,
    "Ġalbertus": 25648,
    "Ġinjustice": 9190,
    "Ġpreserve": 7530,
    "ĠĠĠĠĠĠĠĠĠĠĠĠ": 12897,
    "rity": 13775,
    "tone": 8762,
    "Ġboarding": 12084,
    "Ġinterested": 6458,
    "Ġshouts": 19536,
    "Ġchall": 10944,
    "european": 26371,
    "proud": 9903,
    "Ġdejection": 15195,
    "touch": 8391,
    "travelling": 24317,
    "scept": 21052,
    "Ġmy": 411,
    "owed": 2271,
    "Ġtam": 7821,
    "Ġdisappointed": 7097,
    "Ġbeth": 9657,
    "Ġgardiners": 11157,
    "Ġpoultry": 17440,
    "Ġtransmit": 10304,
    "Ġstrugg": 3217,
    "Ġtop": 2473,
    "liv": 9607,
    "ney": 2495,
    "âĢľ_": 5720,
    "ython": 1028,
    "umerable": 11723,
[...]
